{
  "version": "1.0",
  "truncation": null,
  "padding": null,
  "added_tokens": [
    {
      "id": 2936,
      "content": "[CLS]",
      "single_word": false,
      "lstrip": false,
      "rstrip": false,
      "normalized": false,
      "special": true
    },
    {
      "id": 5646,
      "content": "[MASK]",
      "single_word": false,
      "lstrip": false,
      "rstrip": false,
      "normalized": false,
      "special": true
    },
    {
      "id": 11238,
      "content": "[PAD]",
      "single_word": false,
      "lstrip": false,
      "rstrip": false,
      "normalized": false,
      "special": true
    },
    {
      "id": 12015,
      "content": "[UNK]",
      "single_word": false,
      "lstrip": false,
      "rstrip": false,
      "normalized": false,
      "special": true
    },
    {
      "id": 15805,
      "content": "[SEP]",
      "single_word": false,
      "lstrip": false,
      "rstrip": false,
      "normalized": false,
      "special": true
    }
  ],
  "normalizer": {
    "type": "Sequence",
    "normalizers": [
      {
        "type": "NFD"
      },
      {
        "type": "Lowercase"
      },
      {
        "type": "StripAccents"
      }
    ]
  },
  "pre_tokenizer": {
    "type": "Sequence",
    "pretokenizers": [
      {
        "type": "Metaspace",
        "replacement": "▁",
        "prepend_scheme": "always",
        "split": true
      }
    ]
  },
  "post_processor": {
    "type": "TemplateProcessing",
    "single": [
      {
        "SpecialToken": {
          "id": "[CLS]",
          "type_id": 0
        }
      },
      {
        "Sequence": {
          "id": "A",
          "type_id": 0
        }
      },
      {
        "SpecialToken": {
          "id": "[SEP]",
          "type_id": 0
        }
      }
    ],
    "pair": [
      {
        "SpecialToken": {
          "id": "[CLS]",
          "type_id": 0
        }
      },
      {
        "Sequence": {
          "id": "A",
          "type_id": 0
        }
      },
      {
        "SpecialToken": {
          "id": "[SEP]",
          "type_id": 0
        }
      },
      {
        "Sequence": {
          "id": "B",
          "type_id": 1
        }
      },
      {
        "SpecialToken": {
          "id": "[SEP]",
          "type_id": 1
        }
      }
    ],
    "special_tokens": {
      "[CLS]": {
        "id": "[CLS]",
        "ids": [
          2936
        ],
        "tokens": [
          "[CLS]"
        ]
      },
      "[SEP]": {
        "id": "[SEP]",
        "ids": [
          15805
        ],
        "tokens": [
          "[SEP]"
        ]
      }
    }
  },
  "decoder": {
    "type": "Metaspace",
    "replacement": "▁",
    "prepend_scheme": "always",
    "split": true
  },
  "model": {
    "type": "Unigram",
    "unk_id": 12015,
    "vocab": [
      [
        "insula",
        -10.909970574537862
      ],
      [
        "▁lihaib",
        -12.771025606645795
      ],
      [
        "▁revenue",
        -9.916657221648252
      ],
      [
        "▁and",
        -10.843541831848249
      ],
      [
        "ka",
        -9.462469678476062
      ],
      [
        "▁ol",
        -10.387598845353358
      ],
      [
        "apping",
        -12.561662700212564
      ],
      [
        "▁barrac",
        -12.868103424609576
      ],
      [
        "▁programmer",
        -13.013193419985393
      ],
      [
        "▁initiative",
        -9.809483346079332
      ],
      [
        "▁rec",
        -11.30507092401655
      ],
      [
        "generalization",
        -13.72526078987588
      ],
      [
        "▁descendant",
        -11.487848532632956
      ],
      [
        "eral",
        -11.845563440408633
      ],
      [
        "▁tentative",
        -12.27166785086389
      ],
      [
        "ve",
        -7.179020698767757
      ],
      [
        "▁taxi",
        -10.041528748031457
      ],
      [
        "▁outward",
        -11.322949226440935
      ],
      [
        "noon",
        -11.909449882643477
      ],
      [
        "▁replac",
        -10.802801356664279
      ],
      [
        "▁van",
        -9.55093929889825
      ],
      [
        "▁dirt",
        -8.651547687024628
      ],
      [
        "▁squir",
        -13.618989898446005
      ],
      [
        "▁armenian",
        -11.179681042059672
      ],
      [
        "▁certain",
        -8.085923568764741
      ],
      [
        "der",
        -9.911072845102526
      ],
      [
        "▁broadcast",
        -10.275932196325744
      ],
      [
        "▁female",
        -9.271819749451994
      ],
      [
        "▁plai",
        -13.491956321451294
      ],
      [
        "▁li",
        -12.400345616303753
      ],
      [
        "776",
        -12.023279956286233
      ],
      [
        "▁evident",
        -10.590891473546405
      ],
      [
        "redirect",
        -12.77102570712411
      ],
      [
        "adorama",
        -12.771233643101034
      ],
      [
        "care",
        -10.804070875372984
      ],
      [
        "▁had",
        -6.4077211948751165
      ],
      [
        "▁add",
        -7.885037266552459
      ],
      [
        "▁li",
        -9.833723559422006
      ],
      [
        "raz",
        -12.288098988449617
      ],
      [
        "415-",
        -14.136912363440238
      ],
      [
        "▁male",
        -9.339202156147657
      ],
      [
        "▁determinant",
        -12.772066323110316
      ],
      [
        "thes",
        -10.35223510998032
      ],
      [
        "short",
        -13.734158210451941
      ],
      [
        "301",
        -13.512431290676588
      ],
      [
        "▁76",
        -11.534173471198564
      ],
      [
        "ence",
        -9.546866182161564
      ],
      [
        "▁shinz",
        -10.765341572535748
      ],
      [
        "▁visi",
        -13.522725675102485
      ],
      [
        "▁airport",
        -7.788935029333188
      ],
      [
        "▁r2",
        -12.271998080272795
      ],
      [
        "immigrate",
        -12.31250702864704
      ],
      [
        "▁simpl",
        -8.851675573993063
      ],
      [
        "vous",
        -12.553446107218154
      ],
      [
        "▁espeak",
        -11.937822143410786
      ],
      [
        "▁improper",
        -12.771025174503428
      ],
      [
        "▁condense",
        -11.6878100770872
      ],
      [
        "▁z",
        -10.946294564368744
      ],
      [
        "▁visualiz",
        -12.905382099689264
      ],
      [
        "▁reason",
        -8.008277299169304
      ],
      [
        "▁300",
        -10.870247792781871
      ],
      [
        "▁aberdeen",
        -11.321024962031508
      ],
      [
        "▁gai",
        -11.485292361298043
      ],
      [
        "▁hmmm",
        -11.938561837777172
      ],
      [
        "▁headache",
        -10.942401112658686
      ],
      [
        "▁external",
        -10.31499705528825
      ],
      [
        "▁night",
        -7.3225187343142295
      ],
      [
        "▁reckless",
        -12.271048086151657
      ],
      [
        "jama",
        -11.95648698187411
      ],
      [
        "▁mode",
        -9.295897577564013
      ],
      [
        "▁felici",
        -12.271710424192669
      ],
      [
        "▁deep",
        -8.909455406582445
      ],
      [
        "▁trouble",
        -8.797952202050485
      ],
      [
        "enberg",
        -11.61255948323132
      ],
      [
        "▁margaret",
        -11.687691940156714
      ],
      [
        "▁prejudice",
        -11.321024918855434
      ],
      [
        "gator",
        -12.726198653301857
      ],
      [
        "▁pee",
        -10.490666942158963
      ],
      [
        "▁cha",
        -11.250268752536995
      ],
      [
        "▁nominat",
        -11.443857069433808
      ],
      [
        "rake",
        -12.359133705594408
      ],
      [
        "▁delicious",
        -9.809375611639368
      ],
      [
        "▁texa",
        -8.629496271547978
      ],
      [
        "▁urin",
        -10.942427776597278
      ],
      [
        "grin",
        -12.854004987911791
      ],
      [
        "kater",
        -13.638751426201923
      ],
      [
        "▁sale",
        -10.164476776015857
      ],
      [
        "▁atrocit",
        -11.937691760599781
      ],
      [
        "▁spoon",
        -9.882330661998505
      ],
      [
        "tel",
        -11.614482304519294
      ],
      [
        "02",
        -11.27753252043884
      ],
      [
        "?????????????",
        -12.71603858496709
      ],
      [
        "▁arsenal",
        -12.771989832456892
      ],
      [
        "▁bloom",
        -11.053340671904042
      ],
      [
        "unic",
        -14.169007212126958
      ],
      [
        "clubs.psu.edu/u",
        -12.771024918840544
      ],
      [
        "j",
        -12.636770579354717
      ],
      [
        "▁box",
        -8.260758712933153
      ],
      [
        "▁4.",
        -14.174409290499899
      ],
      [
        "▁water",
        -7.326630233903892
      ],
      [
        "▁groan",
        -11.178412916947485
      ],
      [
        "▁hagg",
        -12.32182998789982
      ],
      [
        "▁vlogg",
        -12.364133946941495
      ],
      [
        "▁negotiation",
        -10.173941998965581
      ],
      [
        "aid",
        -8.89542693891707
      ],
      [
        "▁editor",
        -10.314669405902578
      ],
      [
        "▁assur",
        -10.860890752474742
      ],
      [
        "▁trigger",
        -11.053214747472015
      ],
      [
        "▁redistribut",
        -11.68769160918289
      ],
      [
        "▁saints",
        -12.150198858805165
      ],
      [
        "fid",
        -12.179832456372521
      ],
      [
        "pelag",
        -11.688470589800389
      ],
      [
        "▁si",
        -10.831996964146303
      ],
      [
        "▁haye",
        -12.814381255145308
      ],
      [
        "cook",
        -11.865503744705597
      ],
      [
        "▁180",
        -11.117175652875954
      ],
      [
        "▁enhanc",
        -12.182235330473238
      ],
      [
        "▁dill",
        -12.40892060017446
      ],
      [
        "icu",
        -12.929286393037833
      ],
      [
        "yo",
        -12.980137273398649
      ],
      [
        "▁exposure",
        -9.682231250619903
      ],
      [
        "mo",
        -11.05508503396024
      ],
      [
        "▁keyword",
        -12.272834652972481
      ],
      [
        "▁sap",
        -11.046574861390464
      ],
      [
        "/01",
        -12.97897733418098
      ],
      [
        "▁household",
        -9.995200189332262
      ],
      [
        "-fla",
        -11.937746634334216
      ],
      [
        "▁24",
        -9.636353922881263
      ],
      [
        "▁dramatist",
        -12.771230763194595
      ],
      [
        "▁farc",
        -12.667132085374767
      ],
      [
        "▁1.5",
        -10.928556940654719
      ],
      [
        "▁confidence",
        -10.224430378369961
      ],
      [
        "▁artifact",
        -12.771039888293778
      ],
      [
        "▁mh",
        -9.769646276500175
      ],
      [
        "▁ceme",
        -11.126952762779823
      ],
      [
        "▁apologetic",
        -12.790028385061218
      ],
      [
        "▁dissent",
        -12.771614288006136
      ],
      [
        "▁belt",
        -10.083858126446547
      ],
      [
        "litz",
        -12.28780170014554
      ],
      [
        "▁nov",
        -8.694879589491203
      ],
      [
        "▁vegetarian",
        -11.330854940048425
      ],
      [
        "▁jor",
        -12.357825744441419
      ],
      [
        "bean",
        -11.932299394976173
      ],
      [
        "▁heave",
        -12.773939743544858
      ],
      [
        "▁owe",
        -10.428647237004009
      ],
      [
        "uffa",
        -13.663299510846354
      ],
      [
        "▁suicid",
        -9.71268462835532
      ],
      [
        "▁bold",
        -11.453323209956151
      ],
      [
        "blime",
        -12.773439484418224
      ],
      [
        "-wor",
        -13.7078821858406
      ],
      [
        "▁scharf",
        -12.271058264251428
      ],
      [
        "▁wig",
        -12.222831991268949
      ],
      [
        "▁outline",
        -11.094199732288324
      ],
      [
        "▁mess",
        -9.453931917759402
      ],
      [
        "▁saint",
        -10.320249004994903
      ],
      [
        "▁is",
        -6.683859530650609
      ],
      [
        "▁united",
        -7.320445391741941
      ],
      [
        "▁label",
        -10.447660279914533
      ],
      [
        "▁magn",
        -11.64896221773638
      ],
      [
        "▁alleviat",
        -12.771025134898963
      ],
      [
        "▁dori",
        -11.357380646172034
      ],
      [
        "▁message",
        -8.624998333866724
      ],
      [
        "▁prune",
        -12.772155358433096
      ],
      [
        "▁zone",
        -10.625439386056625
      ],
      [
        "▁promise",
        -9.154769986636623
      ],
      [
        "▁communist",
        -10.393032178324608
      ],
      [
        "199",
        -11.808463155916122
      ],
      [
        "ns",
        -12.598912361396305
      ],
      [
        "sburg",
        -6.701282769664859
      ],
      [
        "lates",
        -11.659649245351194
      ],
      [
        "quin",
        -11.652992441983224
      ],
      [
        "▁glad",
        -9.252219436869352
      ],
      [
        "▁bulb",
        -9.846028466105544
      ],
      [
        "▁demonstrat",
        -11.933315413163289
      ],
      [
        "▁devote",
        -10.395833836270544
      ],
      [
        "ah",
        -10.26007837898284
      ],
      [
        "▁mol",
        -12.466660975172125
      ],
      [
        "▁outcast",
        -12.773738343843052
      ],
      [
        "▁lur",
        -12.79449241180509
      ],
      [
        "▁flag",
        -9.543042410247374
      ],
      [
        "49",
        -12.046337643457093
      ],
      [
        "▁incubat",
        -11.313426704767155
      ],
      [
        "▁nei",
        -12.1854130081014
      ],
      [
        "ch",
        -11.427146876420405
      ],
      [
        "led",
        -9.793512873700342
      ],
      [
        "fredd",
        -12.85683623608802
      ],
      [
        "▁muff",
        -11.772709288299954
      ],
      [
        "▁hansk",
        -11.7744996056149
      ],
      [
        "100",
        -11.126169046448926
      ],
      [
        "▁before",
        -8.594264723349406
      ],
      [
        "▁08/1",
        -12.915334419237052
      ],
      [
        "▁introduce",
        -9.536927535545741
      ],
      [
        "bu",
        -12.282115131703442
      ],
      [
        "heater",
        -12.568436728730408
      ],
      [
        "▁bal",
        -10.709939256088932
      ],
      [
        "澹",
        -12.833785825435129
      ],
      [
        "rdles",
        -12.781862386662901
      ],
      [
        "▁abbot",
        -11.937707620599834
      ],
      [
        "ham",
        -9.998275979464042
      ],
      [
        "▁organizer",
        -12.848874593075477
      ],
      [
        "▁delay",
        -10.126102012040619
      ],
      [
        "m",
        -7.200634196523755
      ],
      [
        "rina",
        -11.866548814814722
      ],
      [
        "children",
        -11.653764981622329
      ],
      [
        "▁blaze",
        -11.937906770312702
      ],
      [
        "▁mailing",
        -10.692571906369682
      ],
      [
        "poibeau",
        -12.77102554266287
      ],
      [
        "▁observation",
        -10.276767997646491
      ],
      [
        "rinn",
        -11.086878613349402
      ],
      [
        "▁tread",
        -12.275037081114101
      ],
      [
        "▁perr",
        -10.871309809157
      ],
      [
        "▁gem",
        -11.131966750583114
      ],
      [
        "▁majorit",
        -9.726812828059105
      ],
      [
        "scam",
        -12.82140918739523
      ],
      [
        "▁shell",
        -9.881490213104946
      ],
      [
        "▁priest",
        -10.753169422404563
      ],
      [
        "▁update",
        -9.410169028233204
      ],
      [
        "▁metal",
        -9.256622936906556
      ],
      [
        "inism",
        -12.822792585255668
      ],
      [
        "al",
        -6.318447710076003
      ],
      [
        "▁implement",
        -8.856511394801277
      ],
      [
        "engue",
        -13.331726559098598
      ],
      [
        "▁knock",
        -9.468109760597066
      ],
      [
        "▁nause",
        -12.271899757424322
      ],
      [
        "table",
        -8.85162440036796
      ],
      [
        "ize",
        -9.671354800948738
      ],
      [
        "▁comedian",
        -11.688848416498134
      ],
      [
        "bodi",
        -12.984360091006103
      ],
      [
        "▁dutch",
        -11.054347605752646
      ],
      [
        "ov",
        -11.386597512417616
      ],
      [
        "ck",
        -11.501990416744686
      ],
      [
        "▁fight",
        -8.541089991810024
      ],
      [
        "▁occur",
        -9.974438837500056
      ],
      [
        "15",
        -10.272007946672392
      ],
      [
        "▁dynam",
        -13.516028504175482
      ],
      [
        "▁impression",
        -10.391561414883618
      ],
      [
        "▁madam",
        -9.444882522311879
      ],
      [
        "▁thought",
        -7.473682830390387
      ],
      [
        "▁runner",
        -11.085658879956537
      ],
      [
        "official",
        -11.649348420524968
      ],
      [
        "▁auditor",
        -12.274726699039237
      ],
      [
        "880",
        -15.446409968184138
      ],
      [
        "▁file",
        -7.951375675129915
      ],
      [
        "▁preach",
        -11.684809211027401
      ],
      [
        "▁info@",
        -12.272050979293093
      ],
      [
        "▁arriv",
        -7.762889860048588
      ],
      [
        "▁knit",
        -12.763471918946168
      ],
      [
        "▁modulate",
        -12.771053805484955
      ],
      [
        "torical",
        -12.77223530820747
      ],
      [
        "▁avail",
        -9.186033512836936
      ],
      [
        "▁fo",
        -12.595832372441103
      ],
      [
        "▁thermo",
        -11.937750492557036
      ],
      [
        "▁amin",
        -11.510102761746982
      ],
      [
        "▁bru",
        -11.459606209377156
      ],
      [
        "approve",
        -12.733692905267214
      ],
      [
        "▁fire",
        -8.405103585204603
      ],
      [
        "or",
        -11.559536562033587
      ],
      [
        "▁many",
        -6.778663455800115
      ],
      [
        "▁2",
        -11.194826221527972
      ],
      [
        "▁pitt",
        -6.802802480375772
      ],
      [
        "▁bever",
        -11.417863865491116
      ],
      [
        "▁mid-20",
        -13.418734948821482
      ],
      [
        "er",
        -8.73873720195392
      ],
      [
        "▁flapp",
        -12.795123848099188
      ],
      [
        "/08",
        -13.152034735197498
      ],
      [
        "▁inter",
        -9.813585210963852
      ],
      [
        "iro",
        -11.028842095006745
      ],
      [
        "orno",
        -12.273991413104481
      ],
      [
        "tra",
        -11.286326700046635
      ],
      [
        "proof",
        -12.732557420078383
      ],
      [
        "▁9",
        -12.530469924805026
      ],
      [
        "▁trust",
        -9.055256010409646
      ],
      [
        "▁go",
        -11.944803889857337
      ],
      [
        "sett",
        -11.425641893087697
      ],
      [
        "4gamer",
        -10.751147742441244
      ],
      [
        "▁temp",
        -11.413519611214639
      ],
      [
        "▁with",
        -10.644170103195178
      ],
      [
        "▁waitress",
        -10.667858094881096
      ],
      [
        "-rate",
        -11.758257625169865
      ],
      [
        "▁canoe",
        -11.938318922471776
      ],
      [
        "ustache",
        -11.177362825398792
      ],
      [
        "▁ocean",
        -9.844294809283426
      ],
      [
        "▁shrugg",
        -11.488144345199094
      ],
      [
        "million",
        -12.733473978563017
      ],
      [
        "herb",
        -12.753421876979305
      ],
      [
        "▁polan",
        -10.649444942097709
      ],
      [
        "▁tortur",
        -13.626993854940967
      ],
      [
        "▁1030",
        -14.191480154345426
      ],
      [
        "koh",
        -12.664762700300573
      ],
      [
        "▁danny",
        -9.569529855695917
      ],
      [
        "▁min",
        -10.34825462118952
      ],
      [
        "lette",
        -11.943758003198942
      ],
      [
        "breede",
        -13.625195690830784
      ],
      [
        "mul",
        -11.833896043499934
      ],
      [
        "▁influen",
        -10.590986564226577
      ],
      [
        "▁payer",
        -12.294144161365681
      ],
      [
        "▁polaroid",
        -10.275921742300685
      ],
      [
        "▁tu",
        -10.757113341321935
      ],
      [
        "02",
        -11.000492439779539
      ],
      [
        "▁ide",
        -13.271005410087644
      ],
      [
        "▁167",
        -13.956538851473839
      ],
      [
        "▁dilution",
        -12.771394931948421
      ],
      [
        "▁gapin",
        -12.810397423016125
      ],
      [
        "▁warne",
        -11.235299160568223
      ],
      [
        "▁brum",
        -13.06159138801514
      ],
      [
        "▁version",
        -9.197547530393393
      ],
      [
        "▁oakl",
        -9.939265850684421
      ],
      [
        "▁how",
        -8.86190324297668
      ],
      [
        "▁certifi",
        -11.930417538721931
      ],
      [
        "▁signall",
        -11.966381940561297
      ],
      [
        "illiard",
        -12.778875947135226
      ],
      [
        "righteous",
        -12.808918456858368
      ],
      [
        ".m.",
        -11.895520203021501
      ],
      [
        "ific",
        -9.493922301888361
      ],
      [
        "_id=",
        -12.796171608086347
      ],
      [
        "ological",
        -10.557615380163773
      ],
      [
        "▁refu",
        -13.710583760787943
      ],
      [
        "▁irc",
        -11.735573621358157
      ],
      [
        "▁deadline",
        -11.054861987146262
      ],
      [
        "▁drumstick",
        -12.271051789286396
      ],
      [
        "▁hon",
        -13.565894145380955
      ],
      [
        "▁183",
        -10.543131175840323
      ],
      [
        "1.0",
        -14.84823629622486
      ],
      [
        "affle",
        -11.252152528332552
      ],
      [
        "▁habi",
        -12.793419483737448
      ],
      [
        "vend",
        -12.277692546301406
      ],
      [
        "▁upper",
        -10.070677967796625
      ],
      [
        "▁zip",
        -11.172434664146287
      ],
      [
        "▁fourteen",
        -11.178259674534512
      ],
      [
        "1,6",
        -13.588833239361369
      ],
      [
        "▁recommendation",
        -10.087024403324186
      ],
      [
        "▁cavern",
        -11.937822670266861
      ],
      [
        "uncan",
        -12.28475871377605
      ],
      [
        "▁electron",
        -12.782827421628621
      ],
      [
        "▁ad",
        -13.069983555914995
      ],
      [
        "▁rabin",
        -12.773022022744048
      ],
      [
        "▁snack",
        -10.45280269433322
      ],
      [
        "▁carve",
        -11.398799247170661
      ],
      [
        "▁3,",
        -11.986573016429364
      ],
      [
        "7:3",
        -13.59615174620778
      ],
      [
        "well",
        -10.547416033661259
      ],
      [
        "▁books",
        -8.869066131289934
      ],
      [
        "c",
        -6.053272481059235
      ],
      [
        "▁12:0",
        -12.67254254495367
      ],
      [
        "▁plane",
        -8.978943073873094
      ],
      [
        "▁ambulance",
        -10.75114768440716
      ],
      [
        "11-",
        -13.161902737639597
      ],
      [
        "▁hour",
        -7.8831402478187655
      ],
      [
        "▁historic",
        -10.209439845010861
      ],
      [
        "▁translation",
        -9.916857940393674
      ],
      [
        "▁minimiz",
        -12.278189870687537
      ],
      [
        "▁usi",
        -10.434073353173611
      ],
      [
        "▁overflow",
        -11.688070905125922
      ],
      [
        "▁garc",
        -12.087357356839059
      ],
      [
        "▁chunk",
        -11.687928885689912
      ],
      [
        "143",
        -12.771073909851655
      ],
      [
        "coal",
        -11.293245493096125
      ],
      [
        "▁manche",
        -11.979804105201863
      ],
      [
        "▁luncheon",
        -11.688161595838638
      ],
      [
        ".ell",
        -11.524396607758211
      ],
      [
        "▁both",
        -9.853021443392569
      ],
      [
        "▁cleric",
        -10.943173059701428
      ],
      [
        "▁ven",
        -11.644097251587407
      ],
      [
        "▁tho",
        -12.071273663347696
      ],
      [
        "surf",
        -12.714642823311516
      ],
      [
        "▁claus",
        -11.304718238773454
      ],
      [
        "ators",
        -11.322879976361271
      ],
      [
        "1950",
        -12.272492544277934
      ],
      [
        "▁15",
        -10.85181305045938
      ],
      [
        "▁6.",
        -13.152792151780693
      ],
      [
        "resolve",
        -12.7357803067681
      ],
      [
        "▁wai-",
        -12.275492148927025
      ],
      [
        "▁prepared",
        -9.563861907011514
      ],
      [
        "▁sticker",
        -10.68537459352208
      ],
      [
        "▁elevator",
        -9.776055758918528
      ],
      [
        "▁transition",
        -10.27843793600777
      ],
      [
        "▁vintage",
        -10.84207099094114
      ],
      [
        "▁compound",
        -10.519480462786905
      ],
      [
        "▁thi",
        -5.393002986392684
      ],
      [
        "rio",
        -11.368284490750389
      ],
      [
        "▁hawk",
        -12.354167093739768
      ],
      [
        "yard",
        -10.685194754089508
      ],
      [
        "▁mound",
        -11.939360790169445
      ],
      [
        "▁rhodesian",
        -12.780172689725559
      ],
      [
        "ulation",
        -12.059833895601843
      ],
      [
        "▁clamb",
        -12.803643174477514
      ],
      [
        "▁assum",
        -10.436525807449554
      ],
      [
        "▁ku",
        -10.880494582081441
      ],
      [
        "▁tee",
        -12.051917512325364
      ],
      [
        "ington",
        -11.145723595615285
      ],
      [
        "▁sch",
        -11.042520271932212
      ],
      [
        "▁controll",
        -11.32614274306232
      ],
      [
        "▁glass",
        -8.576904705188431
      ],
      [
        "troy",
        -12.31711293537601
      ],
      [
        "▁relative",
        -9.292401008265685
      ],
      [
        "shion",
        -12.599119624193943
      ],
      [
        "loan",
        -12.772490085236116
      ],
      [
        "numer",
        -13.600148177477557
      ],
      [
        "▁advertise",
        -11.612285118420901
      ],
      [
        "etting",
        -12.379473535097334
      ],
      [
        "▁francis",
        -11.05571083357284
      ],
      [
        "/default.",
        -12.771024932072018
      ],
      [
        "▁personal",
        -8.569073251421635
      ],
      [
        "▁dealership",
        -11.178610546232036
      ],
      [
        "▁location",
        -8.783184749830792
      ],
      [
        "▁editors",
        -11.36141594605
      ],
      [
        "▁efficien",
        -10.16849390512325
      ],
      [
        "▁signator",
        -12.271881416285362
      ],
      [
        "erra",
        -12.847165898298034
      ],
      [
        "resources",
        -10.554310129828949
      ],
      [
        "alam",
        -12.771989712280691
      ],
      [
        "▁alleged",
        -10.128888384177387
      ],
      [
        "▁01/19/",
        -12.359978021860881
      ],
      [
        "a-da",
        -12.555875732035808
      ],
      [
        "mi",
        -10.350978540918216
      ],
      [
        "woman",
        -11.649584605025527
      ],
      [
        "fire",
        -11.28306482886309
      ],
      [
        "▁flame",
        -11.184390205854799
      ],
      [
        "▁president",
        -7.6833183013355795
      ],
      [
        "80",
        -10.68097320844364
      ],
      [
        "nca",
        -12.403582309077763
      ],
      [
        "▁reveren",
        -11.715455715618805
      ],
      [
        "▁mek",
        -12.283155805998813
      ],
      [
        "teous",
        -13.204862171276257
      ],
      [
        "▁gospel",
        -11.48772910322774
      ],
      [
        "▁pou",
        -13.72224127578657
      ],
      [
        "▁request",
        -8.525677880670354
      ],
      [
        "▁endur",
        -12.302145835957628
      ],
      [
        "▁discredit",
        -12.77115401858621
      ],
      [
        "▁revise",
        -10.304131805593514
      ],
      [
        "istor",
        -12.97727140344353
      ],
      [
        "▁vietnam",
        -9.596468568358045
      ],
      [
        "▁malac",
        -12.917065050174983
      ],
      [
        "▁comp",
        -11.339162366062508
      ],
      [
        "pour",
        -12.233860644690981
      ],
      [
        "▁corp",
        -10.584405332586027
      ],
      [
        "▁transcendent",
        -12.771206106802573
      ],
      [
        "vitaliz",
        -13.398696339336912
      ],
      [
        "▁region",
        -8.734371069200465
      ],
      [
        "wood",
        -9.674393694152194
      ],
      [
        "▁extensive",
        -10.45290853526611
      ],
      [
        "&ie=utf-8&",
        -12.771024933836559
      ],
      [
        "▁calendar",
        -10.519469458307736
      ],
      [
        "▁maniac",
        -11.937759883289154
      ],
      [
        "▁resonate",
        -12.771032503041662
      ],
      [
        "▁psalm",
        -12.771044587883514
      ],
      [
        "woo",
        -13.641814115175377
      ],
      [
        "▁complement",
        -11.05316815587164
      ],
      [
        "▁minute",
        -7.780048279123016
      ],
      [
        "▁27",
        -10.732058639073951
      ],
      [
        "▁blackline",
        -11.943692798681155
      ],
      [
        "cumbe",
        -12.778915322607888
      ],
      [
        "▁cord",
        -10.641446674269949
      ],
      [
        "▁raid",
        -11.05483139638761
      ],
      [
        "▁intern",
        -11.50559523778624
      ],
      [
        "▁05:3",
        -12.668251370718803
      ],
      [
        "▁imperial",
        -11.054396298123873
      ],
      [
        "paper",
        -11.44913668191269
      ],
      [
        "▁profit",
        -9.814120259184238
      ],
      [
        "▁silkie",
        -10.603442107597477
      ],
      [
        "wante",
        -13.672825078172458
      ],
      [
        "▁mutilat",
        -11.876506753617962
      ],
      [
        "▁brim",
        -12.7849703659419
      ],
      [
        "▁inhabit",
        -11.692902932829131
      ],
      [
        "▁eli",
        -12.854776205704727
      ],
      [
        "▁horse",
        -8.005628658395885
      ],
      [
        "▁cind",
        -10.392851555089221
      ],
      [
        "▁prerequisite",
        -11.937748464152687
      ],
      [
        "▁every",
        -8.9815799292304
      ],
      [
        "al",
        -9.879150985532643
      ],
      [
        "▁currenc",
        -9.87957271757537
      ],
      [
        "▁utiliz",
        -12.515142598487085
      ],
      [
        "▁rom",
        -11.282763908237797
      ],
      [
        "ocre",
        -11.93927961824082
      ],
      [
        "qu",
        -13.726881833055192
      ],
      [
        "▁copyright",
        -9.810911484194529
      ],
      [
        "ridge",
        -10.628733116850587
      ],
      [
        "p3984.m1438.l264",
        -12.27102491888045
      ],
      [
        "▁1.2",
        -12.884990035352796
      ],
      [
        "▁met",
        -8.697074375226915
      ],
      [
        "er",
        -10.869329306103351
      ],
      [
        "▁bust",
        -10.966586849770037
      ],
      [
        "▁vulnerab",
        -11.053145633773042
      ],
      [
        "▁aggregat",
        -12.812273258621083
      ],
      [
        "▁whee",
        -11.05623901353594
      ],
      [
        "▁coat",
        -9.856826399576349
      ],
      [
        "▁flori",
        -13.140743380021737
      ],
      [
        "▁sha",
        -10.434399896145706
      ],
      [
        "holster",
        -11.949295406419559
      ],
      [
        "▁insult",
        -10.670510905522107
      ],
      [
        "▁scandal",
        -11.937914412901332
      ],
      [
        "▁guarant",
        -11.051299086063889
      ],
      [
        "▁chec",
        -12.639227028802345
      ],
      [
        "la",
        -10.26981702219517
      ],
      [
        "▁prefect",
        -11.053171261119505
      ],
      [
        "▁sam",
        -7.104623726683211
      ],
      [
        "▁attorney",
        -10.036733409803904
      ],
      [
        "▁belonging",
        -12.402230118003283
      ],
      [
        "lo",
        -9.686887479395796
      ],
      [
        "▁freeze",
        -10.602062362012926
      ],
      [
        "wikipedia",
        -11.053168735607464
      ],
      [
        "▁sms",
        -11.970100993981475
      ],
      [
        "▁relax",
        -9.716225115712268
      ],
      [
        "▁abb",
        -11.893219902715748
      ],
      [
        "▁authori",
        -12.708347981201447
      ],
      [
        "▁its",
        -7.722962474193338
      ],
      [
        "▁hetero",
        -12.771033450810998
      ],
      [
        "famous",
        -12.733111301450247
      ],
      [
        "▁window",
        -8.386212845496097
      ],
      [
        "▁leaf",
        -10.591624354398355
      ],
      [
        "▁muslim",
        -9.880427737057387
      ],
      [
        "▁prepayment",
        -12.27102503094932
      ],
      [
        "▁mast",
        -12.351109470895901
      ],
      [
        "inka",
        -13.325397431393784
      ],
      [
        "▁infe",
        -13.350432542125418
      ],
      [
        "aas.berkeley.edu",
        -12.77104522195954
      ],
      [
        "▁prolif",
        -12.191573455599668
      ],
      [
        "▁shirts",
        -11.315399278906993
      ],
      [
        "hobby",
        -10.696077188833522
      ],
      [
        "▁investigat",
        -11.474624430980013
      ],
      [
        "▁analog",
        -11.597104875852972
      ],
      [
        "▁hav",
        -10.724106208928315
      ],
      [
        "workers",
        -9.976283657654893
      ],
      [
        "▁grabb",
        -10.634165256154638
      ],
      [
        "band",
        -10.87463427898313
      ],
      [
        "▁important",
        -7.971769248826035
      ],
      [
        "▁tr",
        -10.900450955646962
      ],
      [
        "▁ren",
        -11.585671338064026
      ],
      [
        "▁smos",
        -12.271694228400968
      ],
      [
        "▁killer",
        -11.357527221680012
      ],
      [
        "commerc",
        -12.302658579615763
      ],
      [
        "▁navigati",
        -12.802907275628796
      ],
      [
        "48-",
        -13.88655511899733
      ],
      [
        "▁nodd",
        -11.595945879459396
      ],
      [
        "mozilla",
        -10.942089007675213
      ],
      [
        "▁imperfection",
        -12.771024919061272
      ],
      [
        "▁reveal",
        -9.852581274733687
      ],
      [
        "cup",
        -12.762630506788511
      ],
      [
        "▁lewis",
        -11.321734762875794
      ],
      [
        "▁scale",
        -9.815445497789504
      ],
      [
        "▁literat",
        -11.46924865847885
      ],
      [
        "▁habitat",
        -11.248734615343631
      ],
      [
        "with",
        -13.079125983494553
      ],
      [
        "▁non-violen",
        -12.777110199086595
      ],
      [
        "▁checkers",
        -11.580547249561139
      ],
      [
        "oregon",
        -10.92991700456696
      ],
      [
        "▁trump",
        -10.452659713630208
      ],
      [
        "▁transit",
        -10.516773170275481
      ],
      [
        "▁200,",
        -14.14712352768953
      ],
      [
        "bert",
        -10.242654352680248
      ],
      [
        "▁susan",
        -10.178449799761307
      ],
      [
        "26",
        -11.04453144405831
      ],
      [
        "ant",
        -12.35508495949109
      ],
      [
        "▁wet-nurse",
        -12.77102491894749
      ],
      [
        "▁andr",
        -12.131312432926697
      ],
      [
        "sippi",
        -10.51917531402085
      ],
      [
        "▁kidd",
        -11.199068929026515
      ],
      [
        "▁prosper",
        -10.080216592856212
      ],
      [
        "▁4",
        -10.898863716027128
      ],
      [
        "▁monta",
        -11.890017595798625
      ],
      [
        "▁lisa",
        -11.941259589044439
      ],
      [
        "▁authorize",
        -12.012819644150555
      ],
      [
        "▁bibl",
        -11.102756902516255
      ],
      [
        "▁hug",
        -8.613435810714293
      ],
      [
        "red",
        -10.328440666964909
      ],
      [
        "▁buyer",
        -11.278940307453647
      ],
      [
        "▁vern",
        -9.778422147018894
      ],
      [
        "up",
        -9.571776430989441
      ],
      [
        "▁11/",
        -12.525804538246266
      ],
      [
        "▁penal",
        -11.699201957336367
      ],
      [
        "▁indicati",
        -12.05370247534159
      ],
      [
        "▁cancellation",
        -11.688507326409932
      ],
      [
        "cular",
        -10.56175181533875
      ],
      [
        "homa",
        -11.211867257100742
      ],
      [
        "▁rectif",
        -12.271044467161264
      ],
      [
        "&_",
        -12.419701151632646
      ],
      [
        "operations",
        -12.438737519174653
      ],
      [
        "▁obliterat",
        -12.771025214237433
      ],
      [
        "▁loan",
        -9.399992151825298
      ],
      [
        "▁blea",
        -12.271948814299165
      ],
      [
        "▁bowl",
        -8.885102476270593
      ],
      [
        "▁hein",
        -12.298961573685412
      ],
      [
        "tiers",
        -13.249062264178804
      ],
      [
        "▁purple",
        -9.682227265277469
      ],
      [
        "otto",
        -13.575182211495108
      ],
      [
        "▁magazine",
        -9.80937112135819
      ],
      [
        "eval",
        -11.722576046305502
      ],
      [
        "icken",
        -11.958201771072307
      ],
      [
        "▁deal",
        -8.12987272765628
      ],
      [
        "ecomm",
        -11.895900605454536
      ],
      [
        "▁accelerate",
        -12.017753017989987
      ],
      [
        "4,",
        -13.632813365008479
      ],
      [
        "4-",
        -13.552675663638237
      ],
      [
        "▁contribut",
        -11.349658585020645
      ],
      [
        "venue",
        -12.223354456277272
      ],
      [
        "hunt",
        -12.642736111597365
      ],
      [
        "runa",
        -12.355882225173941
      ],
      [
        "airbnb",
        -10.751147862516405
      ],
      [
        "h",
        -9.117748607228467
      ],
      [
        "▁control",
        -8.213158584384855
      ],
      [
        "▁brand",
        -10.445081720901237
      ],
      [
        "▁petition",
        -11.17900402395624
      ],
      [
        "▁soci",
        -12.789395290875767
      ],
      [
        "▁cruel",
        -10.275922440846838
      ],
      [
        "▁prote",
        -12.279457917267358
      ],
      [
        "▁replace",
        -9.607796711242282
      ],
      [
        "▁theo",
        -12.940116211668943
      ],
      [
        "erous",
        -13.10190855501497
      ],
      [
        "▁281-51",
        -14.136807499320865
      ],
      [
        "▁aim",
        -9.606113338696282
      ],
      [
        "▁esco",
        -11.820600437112883
      ],
      [
        "▁doctor",
        -8.480018895048438
      ],
      [
        "▁donkey",
        -9.955069179487964
      ],
      [
        "▁shark",
        -9.74547587176037
      ],
      [
        "▁ma",
        -10.677501707364895
      ],
      [
        "▁festoon",
        -12.771047446071382
      ],
      [
        "ated",
        -10.183199856482407
      ],
      [
        "important",
        -12.23207328708532
      ],
      [
        "hou",
        -11.43350194633304
      ],
      [
        "▁p",
        -7.9972119753380895
      ],
      [
        "taulbee",
        -12.771026760877401
      ],
      [
        "▁creek",
        -10.842062727100869
      ],
      [
        "folio",
        -10.781630759249175
      ],
      [
        "another",
        -10.357494289543578
      ],
      [
        "15",
        -12.408181624703591
      ],
      [
        "▁antiquit",
        -11.49736492776583
      ],
      [
        "ur",
        -10.844631267559638
      ],
      [
        "ntry",
        -12.867200527291812
      ],
      [
        "▁glaze",
        -11.687692041721164
      ],
      [
        "addle",
        -11.360458075326095
      ],
      [
        "▁peer",
        -11.189939923523228
      ],
      [
        "▁attract",
        -9.542473562682526
      ],
      [
        "▁wei",
        -12.621471863151196
      ],
      [
        "▁anthropolog",
        -11.322002359147932
      ],
      [
        "genda",
        -10.18216829857965
      ],
      [
        "▁vivi",
        -11.469866258129654
      ],
      [
        "▁ok",
        -8.365073073697065
      ],
      [
        "▁45",
        -11.407942744300975
      ],
      [
        "▁comparison",
        -10.08122873991749
      ],
      [
        "▁expression",
        -9.845897593419942
      ],
      [
        "hagri",
        -11.29153548556493
      ],
      [
        "▁granddaughter",
        -11.937693048882375
      ],
      [
        "▁expecta",
        -12.03845044520262
      ],
      [
        "kan",
        -12.357354247328265
      ],
      [
        "▁crate",
        -11.065139986331879
      ],
      [
        "108",
        -12.52073979168762
      ],
      [
        "▁alias",
        -11.699991872506942
      ],
      [
        "▁musli",
        -12.786967680360593
      ],
      [
        "▁include",
        -8.386153009119287
      ],
      [
        "▁gym",
        -10.12579115801853
      ],
      [
        "▁lavator",
        -11.688542226931501
      ],
      [
        "▁extinct",
        -12.770377073042875
      ],
      [
        "▁bon",
        -11.44154234529399
      ],
      [
        "urs",
        -11.811753883570002
      ],
      [
        "▁hitch",
        -12.30780001168475
      ],
      [
        "▁donat",
        -12.329381189199722
      ],
      [
        "▁dealer",
        -10.353923069851856
      ],
      [
        "▁bump",
        -9.743907710101125
      ],
      [
        "ix",
        -12.696653061457788
      ],
      [
        "centralize",
        -12.72546012741651
      ],
      [
        "bjer",
        -12.802131822301483
      ],
      [
        "romances",
        -13.58446087222472
      ],
      [
        "680",
        -12.884090929504227
      ],
      [
        "▁percentile",
        -10.590925451683322
      ],
      [
        "▁needle",
        -12.696269405966401
      ],
      [
        "▁kenne",
        -10.91978318848825
      ],
      [
        "ach",
        -10.517438948825294
      ],
      [
        "▁adh",
        -13.180816517369696
      ],
      [
        "scheu",
        -12.279918277959021
      ],
      [
        "store",
        -10.354762353120947
      ],
      [
        "aragu",
        -11.938104275076153
      ],
      [
        "▁dispers",
        -11.6937943193577
      ],
      [
        "▁chev",
        -12.48073115452808
      ],
      [
        "spective",
        -13.029966488585387
      ],
      [
        "parnass",
        -10.842312919454388
      ],
      [
        "▁peek",
        -10.945523946047986
      ],
      [
        "▁30",
        -11.053215980612269
      ],
      [
        "▁steril",
        -11.937928756965892
      ],
      [
        "ami",
        -8.224386150422728
      ],
      [
        "▁admit",
        -10.479301819799014
      ],
      [
        "▁harrow",
        -11.180520279250578
      ],
      [
        "▁slan",
        -12.64979343087707
      ],
      [
        "▁passionate",
        -11.178734789979343
      ],
      [
        "▁sanct",
        -12.385479476699278
      ],
      [
        "▁drought",
        -12.81810764168836
      ],
      [
        "▁specific",
        -8.524596701948816
      ],
      [
        "▁tap",
        -10.447693957545257
      ],
      [
        "▁34",
        -11.553169520873858
      ],
      [
        "▁’",
        -8.643293563333355
      ],
      [
        "pur",
        -12.299009795912772
      ],
      [
        "▁nav",
        -9.770402691421696
      ],
      [
        "▁hobb",
        -11.848177179500993
      ],
      [
        "▁fishie",
        -11.291891027893284
      ],
      [
        "conne",
        -11.333805720331656
      ],
      [
        "▁emer",
        -11.904359821686437
      ],
      [
        "▁ya",
        -14.202852529658713
      ],
      [
        "▁astronomer",
        -12.276471620353146
      ],
      [
        "28",
        -11.333881110935947
      ],
      [
        "jin",
        -12.42863322812298
      ],
      [
        "▁lu",
        -11.835344235695308
      ],
      [
        "▁reli",
        -9.553214976161998
      ],
      [
        "▁un",
        -7.3093290410498275
      ],
      [
        "▁driver",
        -9.539943597164932
      ],
      [
        "!!!!!!!!!!!!!!!!",
        -11.406486109637537
      ],
      [
        "▁utilis",
        -12.27102495597334
      ],
      [
        "cade",
        -13.332857133401268
      ],
      [
        "▁ginggo",
        -12.7729024728084
      ],
      [
        "age",
        -11.003488229021976
      ],
      [
        "5000",
        -13.766487213310354
      ],
      [
        "▁arms",
        -9.30284980730337
      ],
      [
        "▁hassle",
        -11.331859177602043
      ],
      [
        "▁handle",
        -9.358272373095756
      ],
      [
        "▁permission",
        -10.591642182176598
      ],
      [
        "▁olive",
        -11.097695039808238
      ],
      [
        "▁failure",
        -9.712602446359046
      ],
      [
        "dict",
        -12.108261435810489
      ],
      [
        "▁snuggl",
        -12.271123042698465
      ],
      [
        "▁true",
        -8.717262175689232
      ],
      [
        "rote",
        -9.017427670767091
      ],
      [
        "bourg",
        -11.644405614674604
      ],
      [
        "▁as",
        -6.878746681766298
      ],
      [
        "▁attende",
        -11.235745175605702
      ],
      [
        "▁hatch",
        -11.808190004314605
      ],
      [
        "89",
        -10.751138270025109
      ],
      [
        "▁minimum",
        -9.916697603757392
      ],
      [
        "▁temple",
        -10.276202293076805
      ],
      [
        "▁shakespeare",
        -8.173221813635005
      ],
      [
        "ris",
        -10.491595483652752
      ],
      [
        "▁facet",
        -12.031902803801268
      ],
      [
        "▁explain",
        -8.479782400557099
      ],
      [
        "▁pop",
        -9.246998732826809
      ],
      [
        "▁tongue",
        -10.223302787887299
      ],
      [
        "▁spine",
        -11.534109255476727
      ],
      [
        "▁smil",
        -10.57650491170493
      ],
      [
        "▁contract",
        -8.996111718513756
      ],
      [
        "▁in",
        -5.625432472469342
      ],
      [
        "lax",
        -12.388152555920625
      ],
      [
        "▁192",
        -11.940572024467409
      ],
      [
        "96/",
        -13.587633075698617
      ],
      [
        "version",
        -12.867918457848775
      ],
      [
        "▁gottlie",
        -12.271096743016987
      ],
      [
        "wau",
        -8.03806729107273
      ],
      [
        "▁environment",
        -8.918875902083945
      ],
      [
        "house",
        -9.861324064565842
      ],
      [
        "▁nort",
        -10.135265303465058
      ],
      [
        "▁specifie",
        -10.753178518403315
      ],
      [
        "▁flexibilit",
        -11.056091579872765
      ],
      [
        "ide",
        -12.580259333869602
      ],
      [
        "▁socialist",
        -11.057239967739086
      ],
      [
        "▁j",
        -10.937809915570798
      ],
      [
        "bull",
        -12.744967918278924
      ],
      [
        "zida",
        -12.816044546184777
      ],
      [
        "▁isi",
        -11.432946812485598
      ],
      [
        "720",
        -13.183827365458086
      ],
      [
        "▁strategic",
        -11.18335439528865
      ],
      [
        "▁accent",
        -11.05277603433385
      ],
      [
        "▁manual",
        -10.223483237660684
      ],
      [
        "▁spare",
        -11.088325854506692
      ],
      [
        "▁gif",
        -11.3887395293413
      ],
      [
        "▁infection",
        -10.842818861012963
      ],
      [
        "▁fun",
        -8.21675498543527
      ],
      [
        "▁elbow",
        -10.751148910851308
      ],
      [
        "▁towel",
        -9.916750877301748
      ],
      [
        "▁beach",
        -8.498174015493353
      ],
      [
        "▁charm",
        -10.235285410833258
      ],
      [
        "▁unl",
        -9.680113489348734
      ],
      [
        "▁commend",
        -11.966704268744193
      ],
      [
        "▁real",
        -6.447094046216681
      ],
      [
        "270",
        -11.860042949136492
      ],
      [
        "▁hesitant",
        -11.957315019229805
      ],
      [
        "▁ethi",
        -12.761399608871049
      ],
      [
        "▁expel",
        -12.765426012466916
      ],
      [
        "▁hamper",
        -11.68784291916159
      ],
      [
        "▁mist",
        -10.594166791354311
      ],
      [
        "▁intruder",
        -12.271629115003002
      ],
      [
        "▁energetic",
        -11.937693221277819
      ],
      [
        "95",
        -11.454904720194877
      ],
      [
        "▁hippo",
        -12.270222510277982
      ],
      [
        "▁sc",
        -12.508886063818235
      ],
      [
        "▁hook",
        -10.601479092131322
      ],
      [
        "▁silk",
        -10.737364125747987
      ],
      [
        "head",
        -8.691959368316997
      ],
      [
        "▁mem",
        -8.742872535017423
      ],
      [
        "▁vi",
        -11.090089463635374
      ],
      [
        "▁regrett",
        -12.015499571727178
      ],
      [
        "▁mci",
        -12.713151419377235
      ],
      [
        "endorf",
        -12.771516895148261
      ],
      [
        "▁touchstone",
        -12.774444337303692
      ],
      [
        "▁comp.",
        -12.774972291562756
      ],
      [
        "hagi",
        -12.778429411233759
      ],
      [
        "▁functional",
        -10.051575107512205
      ],
      [
        "ego",
        -9.380097919460525
      ],
      [
        ",10",
        -14.134301008475441
      ],
      [
        "▁independent",
        -9.29543920288602
      ],
      [
        "▁exile",
        -10.942340173647354
      ],
      [
        "▁nestl",
        -12.992225268617275
      ],
      [
        "▁dup",
        -12.66858666574059
      ],
      [
        "▁trumpet",
        -11.48813838142249
      ],
      [
        "<",
        -7.273053706688606
      ],
      [
        "▁propa",
        -10.673648769863885
      ],
      [
        "▁vertical",
        -11.321037778844925
      ],
      [
        "▁09",
        -12.32159795519803
      ],
      [
        "7&",
        -13.444762322869481
      ],
      [
        "▁soccer",
        -10.942062959938912
      ],
      [
        "▁indonesia",
        -10.746536370820472
      ],
      [
        "columbia",
        -10.23220573517129
      ],
      [
        "▁illness",
        -11.322634212667602
      ],
      [
        "530",
        -12.305600989107392
      ],
      [
        "▁barre",
        -13.378731703946695
      ],
      [
        "▁cass",
        -11.710389384462639
      ],
      [
        "▁fulfill",
        -10.75263689424613
      ],
      [
        "▁suppose",
        -9.82698333814301
      ],
      [
        "▁vote",
        -8.63000697400393
      ],
      [
        "▁sustain",
        -9.713508978448695
      ],
      [
        "▁me",
        -10.451061185956231
      ],
      [
        "▁suppress",
        -11.321027113721305
      ],
      [
        "shaft",
        -12.219284024603157
      ],
      [
        "▁mathematical",
        -10.540595460968941
      ],
      [
        "roth",
        -12.89018885129846
      ],
      [
        "▁ingredient",
        -10.036733419100656
      ],
      [
        "ibrae",
        -12.776545681204293
      ],
      [
        "▁cand",
        -10.542032242603696
      ],
      [
        "▁stubborn",
        -11.937711530071372
      ],
      [
        "▁compensate",
        -11.178167789044343
      ],
      [
        "317",
        -12.522027844751662
      ],
      [
        "▁consume",
        -10.873547322022286
      ],
      [
        "▁boutique",
        -12.271037216695557
      ],
      [
        "▁crumple",
        -11.48774723875109
      ],
      [
        "▁body",
        -8.625550819198237
      ],
      [
        "▁serv",
        -12.73103515500918
      ],
      [
        "hbow",
        -12.817832018228794
      ],
      [
        "▁auster",
        -9.33312200488118
      ],
      [
        "1/13/200",
        -13.410633610127512
      ],
      [
        "▁athen",
        -9.812101298363299
      ],
      [
        "▁basel",
        -12.521676475456854
      ],
      [
        "▁element",
        -8.966979742850643
      ],
      [
        "▁6",
        -8.907968840771385
      ],
      [
        "bumrungrad",
        -12.771031536823067
      ],
      [
        "oz",
        -13.096519113337362
      ],
      [
        "▁|",
        -9.754805093749667
      ],
      [
        "/pages",
        -12.77110443476388
      ],
      [
        "▁woode",
        -11.539947861784661
      ],
      [
        "▁murmur",
        -12.271025081796964
      ],
      [
        "▁chi",
        -11.169852769982585
      ],
      [
        "▁155",
        -13.151098116993188
      ],
      [
        "▁prep",
        -11.929275979344798
      ],
      [
        "▁kara",
        -12.146999645435448
      ],
      [
        "▁dav",
        -11.174077043999459
      ],
      [
        "ins",
        -12.689876329818206
      ],
      [
        "▁curse",
        -10.897483312941375
      ],
      [
        "stock",
        -11.949234200591992
      ],
      [
        "ca",
        -10.289488791192388
      ],
      [
        "▁youn",
        -12.920232968151545
      ],
      [
        "▁line",
        -7.575687118592803
      ],
      [
        "▁monet",
        -10.958456137185223
      ],
      [
        "hai",
        -12.449413438634446
      ],
      [
        "_______________",
        -10.368062127986821
      ],
      [
        "ncultur",
        -11.848198946186315
      ],
      [
        "▁summ",
        -11.155044292950445
      ],
      [
        "991",
        -12.803767022995842
      ],
      [
        "▁pollut",
        -11.617433983407953
      ],
      [
        "sonic.net",
        -11.937751705157668
      ],
      [
        "▁kahn",
        -12.271765261976038
      ],
      [
        "idual",
        -13.001112994029276
      ],
      [
        "▁curate",
        -13.421201318640787
      ],
      [
        ":14",
        -12.45722038868527
      ],
      [
        "▁laurel",
        -12.779128890162788
      ],
      [
        "▁spani",
        -9.684868326677664
      ],
      [
        "le-",
        -13.690599955058111
      ],
      [
        "▁goose",
        -10.668582169494577
      ],
      [
        "▁antarctic",
        -11.938131581945516
      ],
      [
        "lace",
        -11.855295916706593
      ],
      [
        "▁hoho",
        -12.272068702423901
      ],
      [
        "▁clutch",
        -11.937691629803927
      ],
      [
        "▁shadow",
        -9.844641604530043
      ],
      [
        "▁bartle",
        -12.27289245385814
      ],
      [
        "▁:",
        -7.256476862053416
      ],
      [
        "motion",
        -13.457712457585467
      ],
      [
        "▁cooperate",
        -11.626213411189784
      ],
      [
        "▁soul",
        -10.524513467477822
      ],
      [
        "▁adj",
        -11.914934128551138
      ],
      [
        "uvr",
        -12.023385965794546
      ],
      [
        "▁han",
        -12.544716207967019
      ],
      [
        "▁savi",
        -13.728175430671712
      ],
      [
        "▁spoil",
        -11.322009960034391
      ],
      [
        "say",
        -13.11618404827497
      ],
      [
        "▁octo",
        -9.051896506150467
      ],
      [
        "▁60,00",
        -13.953467716680116
      ],
      [
        "▁decision",
        -8.58367416454994
      ],
      [
        "▁appropriation",
        -10.844421077355051
      ],
      [
        "1/8",
        -12.30354400335542
      ],
      [
        "▁scissor",
        -10.223287083176098
      ],
      [
        "92",
        -10.519483038575355
      ],
      [
        "0",
        -10.782683652942984
      ],
      [
        "ab",
        -11.963378157082865
      ],
      [
        "pack",
        -13.637662745508457
      ],
      [
        "ou",
        -11.274927960313955
      ],
      [
        "▁jelli",
        -12.603061678630716
      ],
      [
        "▁license",
        -8.549734218544184
      ],
      [
        "▁wu",
        -11.989006802138531
      ],
      [
        "▁attack",
        -8.480321317388771
      ],
      [
        "▁decorate",
        -12.549267528489485
      ],
      [
        "▁arrow",
        -9.881326776478023
      ],
      [
        "▁monoton",
        -11.688214770116856
      ],
      [
        "831",
        -13.883646719328421
      ],
      [
        "khol",
        -12.805474678037786
      ],
      [
        "▁cut",
        -7.915109882909753
      ],
      [
        "▁pimple",
        -11.178457035298468
      ],
      [
        "▁controversial",
        -11.181282950674412
      ],
      [
        "▁partisan",
        -12.244911272322938
      ],
      [
        "▁extradite",
        -12.624311891395092
      ],
      [
        "araf",
        -11.207066981483427
      ],
      [
        "8.",
        -12.843129431892798
      ],
      [
        "▁capture",
        -10.173361408052486
      ],
      [
        "mez",
        -11.562416178141168
      ],
      [
        "▁m1",
        -12.27035151935806
      ],
      [
        "▁gnome",
        -11.178171339096032
      ],
      [
        "▁tail",
        -9.178751558747656
      ],
      [
        "enron@e",
        -12.771024640767036
      ],
      [
        "▁forth",
        -9.801713274643173
      ],
      [
        "▁regina",
        -11.937700580084948
      ],
      [
        "ckey",
        -13.20340154230637
      ],
      [
        "mock",
        -12.377282800191175
      ],
      [
        "evel",
        -11.881075522496404
      ],
      [
        "▁ken",
        -10.09191009710976
      ],
      [
        "▁kay",
        -9.683184196181744
      ],
      [
        "▁erase",
        -11.011641144502924
      ],
      [
        "▁slipp",
        -11.812631725634997
      ],
      [
        "bell",
        -10.5780434009997
      ],
      [
        "0.00",
        -12.093399042272234
      ],
      [
        "▁teh",
        -10.851532749583013
      ],
      [
        "▁chang",
        -9.209133462754872
      ],
      [
        "▁value",
        -8.176458583374021
      ],
      [
        "▁lag",
        -11.93497658162641
      ],
      [
        "asis",
        -11.962728997898349
      ],
      [
        "▁dais",
        -11.346476218088506
      ],
      [
        "lari",
        -13.672786369848778
      ],
      [
        "▁erect",
        -11.688077610801509
      ],
      [
        "/03",
        -14.340996840119528
      ],
      [
        "▁271",
        -13.991854088309571
      ],
      [
        "empirical",
        -12.7311202285793
      ],
      [
        "phon",
        -12.69880377502976
      ],
      [
        "▁discharge",
        -11.321024926539849
      ],
      [
        "▁menace",
        -11.937987788263843
      ],
      [
        "grove",
        -11.759403247997382
      ],
      [
        ".6",
        -12.64527802129072
      ],
      [
        "ree-delivery-p-6",
        -12.771024918841707
      ],
      [
        "▁rums",
        -11.413712369814773
      ],
      [
        "▁collection",
        -9.625098864908422
      ],
      [
        "anders",
        -10.775984352920917
      ],
      [
        "▁pit",
        -11.29250287143519
      ],
      [
        "▁oliv",
        -9.79746806550834
      ],
      [
        "▁cost-effective",
        -11.687691736550759
      ],
      [
        "▁confirmation",
        -11.498245820158038
      ],
      [
        "▁1-800-",
        -12.663110100375741
      ],
      [
        "▁sequence",
        -10.752046747393976
      ],
      [
        "-cha",
        -12.931841192952032
      ],
      [
        "rece",
        -12.623314329642294
      ],
      [
        "▁eight",
        -9.059025391871746
      ],
      [
        "▁airfare",
        -9.880086044190612
      ],
      [
        "▁predominan",
        -11.99719042481236
      ],
      [
        "▁confident",
        -10.223172483919827
      ],
      [
        "▁braden",
        -12.777929991252527
      ],
      [
        "change",
        -13.709682952040898
      ],
      [
        "▁harm",
        -10.07847780499671
      ],
      [
        "cris",
        -12.73394466099109
      ],
      [
        "▁chat",
        -10.581095709844927
      ],
      [
        "▁teache",
        -12.62490981377118
      ],
      [
        "▁magic",
        -9.174711496993254
      ],
      [
        "▁nai",
        -11.318185011435293
      ],
      [
        "▁cuc",
        -10.669591485440158
      ],
      [
        "ratify",
        -12.219378623915471
      ],
      [
        "▁grapple",
        -12.799512729006848
      ],
      [
        "therland",
        -10.709465466234313
      ],
      [
        "▁138",
        -12.923627014658868
      ],
      [
        "▁shuttle",
        -10.751163700487387
      ],
      [
        "restaurant",
        -13.732212970797718
      ],
      [
        "▁hundred",
        -9.48139668862184
      ],
      [
        "▁boyfriend",
        -10.751217698552948
      ],
      [
        "dom",
        -10.420248988122175
      ],
      [
        "talent",
        -12.234874935018121
      ],
      [
        "???",
        -11.362839390116868
      ],
      [
        "▁jee",
        -10.308523902684218
      ],
      [
        "▁integr",
        -10.22139083374508
      ],
      [
        "▁earning",
        -11.742933997989068
      ],
      [
        "▁barne",
        -11.259890908433583
      ],
      [
        "▁roads",
        -11.485452012019051
      ],
      [
        ".k.",
        -13.717723324890045
      ],
      [
        "▁worsen",
        -12.35786474248555
      ],
      [
        "▁catch",
        -8.757749565015171
      ],
      [
        "▁chun",
        -13.552830826610714
      ],
      [
        "▁pegg",
        -12.276780804359127
      ],
      [
        "▁instrument",
        -10.667814247565538
      ],
      [
        "▁detour",
        -12.771047223307642
      ],
      [
        "minica",
        -12.810202880608397
      ],
      [
        "ly",
        -4.551989708774343
      ],
      [
        "▁bobb",
        -10.928390282827003
      ],
      [
        "▁apr",
        -11.951635479666628
      ],
      [
        "micro",
        -13.728693755470772
      ],
      [
        "▁detention",
        -11.689348053012921
      ],
      [
        "▁light",
        -7.530362200636359
      ],
      [
        "pal",
        -12.510807336189368
      ],
      [
        "25/01",
        -14.134086391909378
      ],
      [
        "▁recieve",
        -11.487699381220558
      ],
      [
        "▁prior",
        -9.681975753190367
      ],
      [
        "access",
        -13.731736745010672
      ],
      [
        "▁experience",
        -7.814034814205732
      ],
      [
        "▁apt",
        -13.015510215145884
      ],
      [
        "▁curtain",
        -10.942058667046394
      ],
      [
        "▁marble",
        -9.776097398920275
      ],
      [
        "/25/200",
        -12.112325426631575
      ],
      [
        "15/200",
        -14.513831683276631
      ],
      [
        "▁move",
        -7.808080500978917
      ],
      [
        "▁free",
        -7.928056576757955
      ],
      [
        "-f",
        -11.867378889831972
      ],
      [
        "▁mck",
        -12.237177168104584
      ],
      [
        "▁nava",
        -12.61635462906123
      ],
      [
        "▁pirate",
        -10.125697133592931
      ],
      [
        "03/",
        -13.793640388604162
      ],
      [
        "▁broke",
        -8.177119833687811
      ],
      [
        "▁acce",
        -12.79318901220347
      ],
      [
        "phile",
        -12.844802586420444
      ],
      [
        "▁perceive",
        -10.538602983206566
      ],
      [
        "ore",
        -12.117485135914382
      ],
      [
        ".go",
        -12.832885970990167
      ],
      [
        "▁reap",
        -11.686422928558601
      ],
      [
        "social",
        -13.381717156672334
      ],
      [
        "▁ukrainian",
        -10.844218413605667
      ],
      [
        "▁lid",
        -11.288195124550127
      ],
      [
        "▁kool",
        -12.272047975242424
      ],
      [
        "▁committ",
        -12.690718195274826
      ],
      [
        "▁brave",
        -10.659379904964311
      ],
      [
        "▁worse",
        -9.53826379352922
      ],
      [
        "▁chris",
        -9.484609048464268
      ],
      [
        "▁convict",
        -10.941428513543707
      ],
      [
        "'",
        -5.811804410257997
      ],
      [
        "▁affirm",
        -11.48765710975911
      ],
      [
        "where",
        -11.75353131760598
      ],
      [
        "oxon",
        -12.01575774882157
      ],
      [
        "9",
        -11.466649511569717
      ],
      [
        "▁lady",
        -9.469560550032481
      ],
      [
        "md",
        -11.141550706240368
      ],
      [
        "outsourcing",
        -12.285572596249631
      ],
      [
        "▁hungr",
        -9.385990844694225
      ],
      [
        "▁senseless",
        -11.945507130787117
      ],
      [
        "olomit",
        -12.304981737921482
      ],
      [
        "56",
        -12.270905061205724
      ],
      [
        "▁minis",
        -13.144657626592254
      ],
      [
        "▁livelihood",
        -12.27164854712536
      ],
      [
        "▁pastor",
        -11.494399206590902
      ],
      [
        "touch",
        -12.722580709163442
      ],
      [
        "sbur",
        -13.089000173242148
      ],
      [
        "▁number",
        -7.1407375071254044
      ],
      [
        "▁mins",
        -11.316020539885928
      ],
      [
        "▁exemption",
        -12.771315389867715
      ],
      [
        "▁register",
        -9.916605308763625
      ],
      [
        "kawa",
        -12.721519514378837
      ],
      [
        "▁sony",
        -12.062819627783014
      ],
      [
        "▁tau",
        -11.17301112630913
      ],
      [
        "▁1/",
        -13.887911633017264
      ],
      [
        "▁railway",
        -10.751500047627646
      ],
      [
        "▁abrupt",
        -11.687691646488574
      ],
      [
        "▁calme",
        -12.895557872528538
      ],
      [
        "▁earn",
        -10.670479856096843
      ],
      [
        "novation",
        -12.444641026711643
      ],
      [
        "man",
        -12.141727430762016
      ],
      [
        "▁scroll",
        -12.27108149415593
      ],
      [
        "▁pant",
        -9.274934976654905
      ],
      [
        "▁involve",
        -9.029128264276164
      ],
      [
        "▁blizzard",
        -11.68769159117101
      ],
      [
        "▁raspberr",
        -12.271042976435277
      ],
      [
        "▁creat",
        -9.20003173820627
      ],
      [
        "▁cart",
        -11.149159398820984
      ],
      [
        "hard",
        -11.96666061154179
      ],
      [
        "▁equip",
        -12.089920381522763
      ],
      [
        "gel",
        -11.565112937311959
      ],
      [
        "ible",
        -9.953605949338941
      ],
      [
        "epc",
        -11.537091112645095
      ],
      [
        "os",
        -14.26619170470223
      ],
      [
        "▁cpi",
        -12.337846735117916
      ],
      [
        "▁gland",
        -12.407040930799694
      ],
      [
        "▁downgrad",
        -12.963760789468642
      ],
      [
        "▁peop",
        -12.77027542203018
      ],
      [
        "shake",
        -13.64956032231358
      ],
      [
        "▁nation",
        -8.366999374784056
      ],
      [
        "▁pictures",
        -8.960196453408477
      ],
      [
        "bound",
        -11.282722482673728
      ],
      [
        "▁direct",
        -8.375839342928
      ],
      [
        "▁+1",
        -12.262684937133976
      ],
      [
        "spiritual",
        -12.732736287271223
      ],
      [
        "east",
        -13.550421642613204
      ],
      [
        "rah",
        -10.517368723059008
      ],
      [
        "▁16.",
        -14.199282383172987
      ],
      [
        "▁confusi",
        -10.464043171553406
      ],
      [
        "american",
        -13.692537415196101
      ],
      [
        "spaceflight",
        -12.771087665261726
      ],
      [
        "▁wiki",
        -9.177953407526243
      ],
      [
        "▁breyer",
        -11.944964591962524
      ],
      [
        "▁milk",
        -7.776440351307286
      ],
      [
        "/26/200",
        -11.340770759941886
      ],
      [
        "▁fame",
        -10.337346448060373
      ],
      [
        "▁181",
        -12.672201436613298
      ],
      [
        "blog",
        -12.733684595334925
      ],
      [
        "▁debutan",
        -12.84337590283237
      ],
      [
        "mark",
        -10.621917972637679
      ],
      [
        "▁grown",
        -10.219195875391103
      ],
      [
        "id=",
        -11.639671824674277
      ],
      [
        "▁196",
        -10.37065919256603
      ],
      [
        "6-",
        -13.67457463137944
      ],
      [
        "port",
        -10.902393954912327
      ],
      [
        "▁panama",
        -10.942408385418204
      ],
      [
        "▁disobedien",
        -11.937931234427559
      ],
      [
        "▁structure",
        -8.940602130377624
      ],
      [
        "aught",
        -8.80776384810802
      ],
      [
        "▁!",
        -6.755596490218561
      ],
      [
        "enti",
        -12.154891043607538
      ],
      [
        "▁iodise",
        -11.170365585037302
      ],
      [
        "essi",
        -12.449912786814073
      ],
      [
        "▁long-",
        -11.561128491724183
      ],
      [
        "ney",
        -9.28101393754042
      ],
      [
        "▁dept",
        -12.274858671285841
      ],
      [
        "▁immun",
        -11.488411962096096
      ],
      [
        "▁consent",
        -10.755100158793853
      ],
      [
        "lier",
        -11.569713778949092
      ],
      [
        "▁erupt",
        -11.937702869137553
      ],
      [
        "▁cane",
        -11.335335863183962
      ],
      [
        "▁713/853-",
        -13.136770601229292
      ],
      [
        "moleste",
        -13.422121741792672
      ],
      [
        "▁arbitrar",
        -11.888611545159605
      ],
      [
        "cuba",
        -11.89893466807211
      ],
      [
        "▁goe",
        -8.88917105659575
      ],
      [
        "▁geometr",
        -10.84077619320835
      ],
      [
        "▁complexi",
        -12.844647842479178
      ],
      [
        "hinn",
        -11.928698482410951
      ],
      [
        "▁sc",
        -10.92278751992093
      ],
      [
        "▁jaff",
        -11.489322559353285
      ],
      [
        "ple",
        -12.11393089820817
      ],
      [
        "▁enforc",
        -12.31424262971906
      ],
      [
        "ob",
        -11.496845026184019
      ],
      [
        "▁marg",
        -12.86486957603504
      ],
      [
        "ius",
        -11.43933917571093
      ],
      [
        "▁starch",
        -11.498594797444333
      ],
      [
        "▁tha",
        -4.70443976194243
      ],
      [
        "83",
        -12.269689501822032
      ],
      [
        "▁sel",
        -11.02659093952816
      ],
      [
        "▁zu",
        -11.393976666360755
      ],
      [
        "▁sept",
        -8.109811243302511
      ],
      [
        "iction",
        -10.208830396174184
      ],
      [
        "▁coil",
        -11.49149498360734
      ],
      [
        "internet",
        -8.700040823313046
      ],
      [
        "▁appeal",
        -9.809627024633599
      ],
      [
        "▁drap",
        -11.939174809534396
      ],
      [
        "▁knowledge",
        -8.910829588656497
      ],
      [
        "frey",
        -11.940868219288497
      ],
      [
        "▁mira",
        -13.68347715516897
      ],
      [
        "index",
        -13.238186778490022
      ],
      [
        "andy",
        -10.241894915144922
      ],
      [
        "▁uphold",
        -11.939123922876183
      ],
      [
        "1990",
        -11.179726178731531
      ],
      [
        "witche",
        -13.452555720404703
      ],
      [
        "warm",
        -12.230667201230093
      ],
      [
        "▁cabbage",
        -10.7511531742798
      ],
      [
        "ucei",
        -12.78221640461423
      ],
      [
        "steamboat",
        -13.72393198425926
      ],
      [
        "▁bray",
        -9.42398363156472
      ],
      [
        "760",
        -13.822357955819468
      ],
      [
        "▁mu",
        -11.027751101871818
      ],
      [
        "▁dismember",
        -12.77109490789677
      ],
      [
        "iv",
        -11.534717983037273
      ],
      [
        "▁report",
        -7.756703079653569
      ],
      [
        "▁scholars",
        -10.18121624071428
      ],
      [
        "▁kenn",
        -13.221637129894491
      ],
      [
        "real",
        -8.87686779890781
      ],
      [
        "spectro",
        -12.97852508614015
      ],
      [
        "ncin",
        -13.558407084832833
      ],
      [
        "▁d'et",
        -12.302202262167324
      ],
      [
        "▁gal",
        -11.00165630977661
      ],
      [
        "▁basic",
        -8.83250828517955
      ],
      [
        "▁hor",
        -11.464129427629091
      ],
      [
        "▁clear",
        -8.073170186317311
      ],
      [
        "▁deep-",
        -12.80888107381408
      ],
      [
        "▁surgeon",
        -10.84360028087723
      ],
      [
        "kindle",
        -12.436512375527814
      ],
      [
        "net",
        -10.330432599169502
      ],
      [
        "▁06:1",
        -13.632271856717782
      ],
      [
        "▁ger",
        -11.65491017624486
      ],
      [
        ".....",
        -12.026024489186742
      ],
      [
        "▁04:0",
        -12.773739120218522
      ],
      [
        "or",
        -8.18896961236164
      ],
      [
        "nfant",
        -10.452761054289732
      ],
      [
        "/26/",
        -14.189086006831158
      ],
      [
        "rahu",
        -11.694914210849197
      ],
      [
        "tering",
        -11.955156624475029
      ],
      [
        "▁unpredictab",
        -12.27103356273854
      ],
      [
        "▁skull",
        -11.321024931496192
      ],
      [
        "look",
        -11.021916326349881
      ],
      [
        "▁unlock",
        -11.710133047961296
      ],
      [
        "▁spo",
        -9.76267961728645
      ],
      [
        "▁enact",
        -11.927964805226075
      ],
      [
        "▁tick",
        -11.799207460707299
      ],
      [
        "inkle",
        -13.157384504357294
      ],
      [
        "▁burning",
        -10.915436014860934
      ],
      [
        "▁caca",
        -12.27240866599375
      ],
      [
        "▁playful",
        -13.027141216278796
      ],
      [
        "▁track",
        -9.029502525982792
      ],
      [
        "▁distort",
        -10.941423641687889
      ],
      [
        "▁folder",
        -11.067165350356763
      ],
      [
        "-dslr-",
        -12.774325543087649
      ],
      [
        "kpa",
        -11.503513320364354
      ],
      [
        "▁griss",
        -12.858217440061374
      ],
      [
        "▁moderniz",
        -13.095670253446855
      ],
      [
        "hygien",
        -12.271036764174967
      ],
      [
        "-and-a",
        -13.118828396842458
      ],
      [
        "▁magnet",
        -11.536439306939917
      ],
      [
        "▁",
        -3.595384568914831
      ],
      [
        "lam",
        -11.414288032594797
      ],
      [
        "▁soon",
        -8.294961486067711
      ],
      [
        "▁scientist",
        -9.825429077629634
      ],
      [
        "itin",
        -11.201174102507903
      ],
      [
        "ould",
        -12.161060577409936
      ],
      [
        "9.3",
        -14.113070844606726
      ],
      [
        "▁russian",
        -9.295929118712987
      ],
      [
        "▁shone",
        -11.18114767576062
      ],
      [
        "▁russia",
        -9.329269592259166
      ],
      [
        "▁tik",
        -11.49570389393135
      ],
      [
        "▁hurry",
        -9.880041004042127
      ],
      [
        "star",
        -10.85811497811271
      ],
      [
        "alikh",
        -12.966464915469476
      ],
      [
        "▁apath",
        -12.777957710944483
      ],
      [
        "▁horn",
        -10.03892774128432
      ],
      [
        "▁arise",
        -11.194920158417421
      ],
      [
        "▁inexp",
        -11.036777923214236
      ],
      [
        "staikos",
        -12.774267220710309
      ],
      [
        "cosm",
        -12.656092468620814
      ],
      [
        "▁spouse",
        -12.27186282355957
      ],
      [
        "▁clue",
        -11.32103983498273
      ],
      [
        "▁china",
        -8.299897727319347
      ],
      [
        "▁legislati",
        -9.410839847653879
      ],
      [
        "▁pearl",
        -11.488230304647603
      ],
      [
        "▁hold",
        -8.10080720317428
      ],
      [
        "ø",
        -12.833785825435129
      ],
      [
        "▁69",
        -13.421823213516543
      ],
      [
        "▁background",
        -9.880550168061108
      ],
      [
        "▁exchang",
        -13.658042429023142
      ],
      [
        "▁tile",
        -10.848793776071338
      ],
      [
        "▁da",
        -12.782111484042257
      ],
      [
        "▁opportunit",
        -8.869913634605021
      ],
      [
        "▁indirect",
        -11.178167790055062
      ],
      [
        "▁pope",
        -10.815466633832102
      ],
      [
        "▁33",
        -11.540855205242465
      ],
      [
        "▁frown",
        -11.688108518753008
      ],
      [
        "▁perfection",
        -11.847118551911413
      ],
      [
        "▁sniff",
        -11.687703416684432
      ],
      [
        "nz",
        -11.370958843495169
      ],
      [
        "▁anger",
        -10.842492728936506
      ],
      [
        "▁drag",
        -10.74881816052982
      ],
      [
        "like",
        -9.323308356957925
      ],
      [
        "▁duch",
        -13.248861151879588
      ],
      [
        "▁gaz",
        -11.862607603179908
      ],
      [
        "▁helm",
        -11.975452039469655
      ],
      [
        "▁vigorous",
        -11.487802446818888
      ],
      [
        "n",
        -9.616052484599335
      ],
      [
        "▁eras",
        -11.001086616309951
      ],
      [
        "▁pric",
        -10.191303320883982
      ],
      [
        "local",
        -13.73384952694256
      ],
      [
        "▁disrupt",
        -10.667118041501727
      ],
      [
        "▁fabulous",
        -11.178170713055753
      ],
      [
        "▁adam",
        -7.690652088565816
      ],
      [
        "wa",
        -14.382662615359283
      ],
      [
        "▁202.4",
        -14.138177894591795
      ],
      [
        "man@e",
        -12.817118239485756
      ],
      [
        "▁rejuvenat",
        -12.77102749548094
      ],
      [
        "conced",
        -13.717233213029512
      ],
      [
        "▁paj",
        -11.160250959194999
      ],
      [
        "▁propert",
        -8.364605058753625
      ],
      [
        "▁graphic",
        -10.399808647526124
      ],
      [
        "▁modification",
        -10.942086224927543
      ],
      [
        "ook",
        -11.15794943095893
      ],
      [
        "ter",
        -10.432873965842234
      ],
      [
        "▁struggle",
        -10.131359483769483
      ],
      [
        "▁16.3",
        -12.638100918095688
      ],
      [
        "▁bay",
        -9.744828062625007
      ],
      [
        "▁sham",
        -11.714306924688769
      ],
      [
        "07",
        -11.866903340196739
      ],
      [
        "▁bef",
        -13.003209720930867
      ],
      [
        "luja",
        -12.964130656494657
      ],
      [
        "art",
        -13.093796388490144
      ],
      [
        "▁flow",
        -9.44331739145428
      ],
      [
        "▁182",
        -11.921712514434294
      ],
      [
        "▁shrew",
        -12.24883188111153
      ],
      [
        "883",
        -14.154380312032659
      ],
      [
        "▁relocat",
        -13.061359746460045
      ],
      [
        "n'",
        -9.381928970317361
      ],
      [
        "3-3",
        -13.158791324548858
      ],
      [
        "1.8",
        -12.279299099288764
      ],
      [
        "▁floor",
        -8.284896276561962
      ],
      [
        ".p.",
        -13.670713508196878
      ],
      [
        "▁scorn",
        -12.315009930490751
      ],
      [
        "▁ill-",
        -12.781890799841358
      ],
      [
        "▁endure",
        -11.676382465264693
      ],
      [
        "r",
        -4.496868874099675
      ],
      [
        "▁oppress",
        -11.2953978266788
      ],
      [
        "▁d'",
        -11.991204330988092
      ],
      [
        "nver",
        -6.748758059610105
      ],
      [
        "▁grocer",
        -11.158659368697908
      ],
      [
        "▁jou",
        -12.972863178850659
      ],
      [
        "▁interjection",
        -11.053167775985484
      ],
      [
        "limp",
        -12.276080744364679
      ],
      [
        "▁generalization",
        -12.796280729130018
      ],
      [
        "▁ugl",
        -10.759410492040603
      ],
      [
        "▁provoke",
        -11.158586404485385
      ],
      [
        "▁admission",
        -11.487894304250755
      ],
      [
        "67",
        -13.61606973550646
      ],
      [
        ",",
        -12.770963125842911
      ],
      [
        "eological",
        -11.96731927160531
      ],
      [
        "▁reassur",
        -12.462566015158195
      ],
      [
        "▁fei",
        -11.727217552892066
      ],
      [
        "▁!!!!!!!",
        -11.688410197959811
      ],
      [
        "dw",
        -12.848581974628713
      ],
      [
        "3:5",
        -14.20824709956423
      ],
      [
        "cation",
        -13.020954700045799
      ],
      [
        "▁din",
        -9.841042533797038
      ],
      [
        "▁simmer",
        -12.771051313490325
      ],
      [
        "inter",
        -12.246162188309896
      ],
      [
        "▁rip",
        -9.71122205579617
      ],
      [
        "26/0",
        -14.093152072854174
      ],
      [
        "▁quarter",
        -9.791096550289211
      ],
      [
        "boro",
        -11.280647296985745
      ],
      [
        "▁magick",
        -12.353663085430414
      ],
      [
        "um",
        -8.285801393069686
      ],
      [
        "▁canape",
        -12.771081854721082
      ],
      [
        "▁fil",
        -10.678056777802396
      ],
      [
        "▁phy",
        -13.183882944274552
      ],
      [
        "▁original",
        -8.65037225448328
      ],
      [
        "high",
        -11.687691151302706
      ],
      [
        "lt.",
        -12.282062373103603
      ],
      [
        "▁camp",
        -8.93790399739756
      ],
      [
        "▁mitten",
        -12.77111722195984
      ],
      [
        "▁cod",
        -10.941306471430842
      ],
      [
        "take",
        -11.02433264860213
      ],
      [
        "used",
        -8.901950401398395
      ],
      [
        "▁cleaner",
        -10.712756208662451
      ],
      [
        "▁shrewd",
        -12.810213721093918
      ],
      [
        "▁thrash",
        -12.771226365631536
      ],
      [
        "▁tent",
        -9.37160685255535
      ],
      [
        "▁brian",
        -10.457100120794168
      ],
      [
        "▁cheque",
        -11.938119192630293
      ],
      [
        "bald",
        -10.401678172841203
      ],
      [
        "rity",
        -11.357057224740869
      ],
      [
        "▁amplifi",
        -12.77102493078819
      ],
      [
        "▁happi",
        -9.918632005935876
      ],
      [
        "▁jac",
        -11.939867650386898
      ],
      [
        "▁83",
        -15.322788547072957
      ],
      [
        "▁census",
        -10.51948720213806
      ],
      [
        "▁whe",
        -11.820095574382382
      ],
      [
        "▁pois",
        -11.333552217442818
      ],
      [
        "▁stake",
        -11.696045722734514
      ],
      [
        "▁http://www.ne",
        -11.877525451853995
      ],
      [
        "▁art",
        -8.371726870589836
      ],
      [
        "xite",
        -13.235557595511027
      ],
      [
        "▁display",
        -8.883026519516676
      ],
      [
        "▁legend",
        -10.591140052901673
      ],
      [
        "▁tun",
        -12.40578227512601
      ],
      [
        "censor",
        -12.501843577407595
      ],
      [
        "llor",
        -12.622336930652702
      ],
      [
        "▁shop",
        -8.634681514336533
      ],
      [
        "anza",
        -12.081194899383812
      ],
      [
        "▁polk",
        -12.810199277708879
      ],
      [
        "rodin",
        -12.829518651597418
      ],
      [
        "▁gestur",
        -13.457287189459134
      ],
      [
        "mel",
        -13.721247471626867
      ],
      [
        "persistent",
        -13.733700623777873
      ],
      [
        "▁key",
        -8.54082391528149
      ],
      [
        "chord",
        -13.562212319477954
      ],
      [
        "hocke",
        -11.122845218360679
      ],
      [
        "▁apple",
        -9.353553001722844
      ],
      [
        "eologis",
        -11.196736447100312
      ],
      [
        "▁limitation",
        -10.39539010040167
      ],
      [
        "out",
        -9.263236778794568
      ],
      [
        "▁rode",
        -10.337663510674258
      ],
      [
        "▁=",
        -10.869655881095504
      ],
      [
        "▁bulls",
        -12.794793585129026
      ],
      [
        "▁supervis",
        -13.337630188602347
      ],
      [
        "▁glid",
        -12.523597506723391
      ],
      [
        "acious",
        -12.575278659681576
      ],
      [
        "▁horizon",
        -11.321343413958699
      ],
      [
        "▁terrace",
        -12.273314830942969
      ],
      [
        "estor",
        -13.064562394839806
      ],
      [
        "position",
        -11.662533625019298
      ],
      [
        "car",
        -13.65194461245594
      ],
      [
        "▁armchair",
        -12.271330236861834
      ],
      [
        "quino",
        -10.348613250889324
      ],
      [
        "disclose",
        -13.733005518380201
      ],
      [
        "▁human",
        -8.031773613535318
      ],
      [
        "▁dand",
        -9.850707535455877
      ],
      [
        "▁marci",
        -11.202705153672866
      ],
      [
        "dresser",
        -12.23060576071679
      ],
      [
        "▁corell",
        -12.784532559200242
      ],
      [
        "▁final",
        -8.105039147030963
      ],
      [
        "▁nik",
        -11.776231344462632
      ],
      [
        "▁kath",
        -10.523431709510152
      ],
      [
        "▁colli",
        -12.352728681152996
      ],
      [
        "duck",
        -12.879285635143736
      ],
      [
        "▁buba",
        -11.32162077526448
      ],
      [
        "▁secret",
        -9.454333070180235
      ],
      [
        "▁carrie",
        -9.613899712959405
      ],
      [
        "▁naturalist",
        -12.12885667868274
      ],
      [
        "rove",
        -9.921126073363725
      ],
      [
        "▁permeate",
        -12.271035405241022
      ],
      [
        "event",
        -12.72584868538093
      ],
      [
        "3.1",
        -12.945575938572821
      ],
      [
        "tte",
        -9.513176272221262
      ],
      [
        "▁frame",
        -9.99523368563353
      ],
      [
        "▁nan",
        -12.25253368878968
      ],
      [
        "▁rebelli",
        -12.184807252996714
      ],
      [
        "reptile",
        -12.73006685434143
      ],
      [
        "▁representative",
        -9.333572042445665
      ],
      [
        "gcp",
        -12.732643510793945
      ],
      [
        "▁co",
        -8.904656448230618
      ],
      [
        "▁mac",
        -10.127755619846852
      ],
      [
        "-3",
        -13.712013158203753
      ],
      [
        "▁azzam",
        -12.773175153950643
      ],
      [
        "▁clamo",
        -12.815345390633572
      ],
      [
        "▁crayon",
        -10.08050941417212
      ],
      [
        "z",
        -11.758838788587859
      ],
      [
        ":5",
        -14.280357869335672
      ],
      [
        "▁stelle",
        -12.805679194544958
      ],
      [
        "re",
        -7.41821081394474
      ],
      [
        "▁job",
        -7.863934615544019
      ],
      [
        "jacobs",
        -13.72233860230217
      ],
      [
        "▁achiev",
        -10.171010293555158
      ],
      [
        "▁detail",
        -8.544865571091288
      ],
      [
        "▁obsessive",
        -12.27299720997767
      ],
      [
        "achi",
        -12.353416979541896
      ],
      [
        "▁ke",
        -12.202882985683264
      ],
      [
        "▁łodz",
        -12.833783221425183
      ],
      [
        "$$",
        -11.687718784621106
      ],
      [
        "▁weav",
        -12.484167078733542
      ],
      [
        "so",
        -6.584119861661963
      ],
      [
        "▁inflation",
        -10.667909255758545
      ],
      [
        "fi",
        -11.328054049889788
      ],
      [
        "▁coll",
        -12.693204747181705
      ],
      [
        "7/9",
        -12.765859434088394
      ],
      [
        "▁annual",
        -9.880772549002284
      ],
      [
        "us",
        -7.936784403825471
      ],
      [
        "▁stirrup",
        -10.942178029872021
      ],
      [
        "▁journalist",
        -11.214764125155282
      ],
      [
        "!!!!!!!!!!!!!!",
        -12.295588014338717
      ],
      [
        "▁immens",
        -12.260633395461564
      ],
      [
        "▁florid",
        -9.518672735542715
      ],
      [
        "!!!!",
        -9.691707156797474
      ],
      [
        "avia",
        -10.625294252468285
      ],
      [
        ".co.uk",
        -12.701196551312313
      ],
      [
        "imbe",
        -13.220081335584748
      ],
      [
        "/hi/",
        -13.385973811533178
      ],
      [
        "▁teach",
        -10.26370529433906
      ],
      [
        "23",
        -11.299533393088227
      ],
      [
        "▁pull",
        -8.336410152986165
      ],
      [
        "▁moment",
        -8.526182710012856
      ],
      [
        "▁07/1",
        -11.467963282922423
      ],
      [
        "▁ord",
        -13.140606060513807
      ],
      [
        "▁recommend",
        -8.198951833439198
      ],
      [
        "▁tham",
        -11.26713278775613
      ],
      [
        "▁infertil",
        -11.937703889680794
      ],
      [
        "▁yiu",
        -12.27112117979518
      ],
      [
        "▁morta",
        -12.893952937432111
      ],
      [
        "▁mille",
        -10.963653672147329
      ],
      [
        "pi",
        -12.524631793448295
      ],
      [
        "coat",
        -11.28418501679419
      ],
      [
        "▁egypt",
        -9.421542372635574
      ],
      [
        "smith",
        -10.48084480201635
      ],
      [
        "▁deteriorate",
        -11.381394510091514
      ],
      [
        "/31/200",
        -14.53124509196579
      ],
      [
        "ps.",
        -12.097903778654935
      ],
      [
        "▁maha",
        -13.072705550572566
      ],
      [
        "▁bc",
        -10.810165663142394
      ],
      [
        "▁morning",
        -6.950680026616309
      ],
      [
        "▁plut",
        -12.796305062109527
      ],
      [
        "▁grandma",
        -10.174431505378145
      ],
      [
        "▁penn",
        -9.434329553008988
      ],
      [
        "▁mater",
        -12.800149542408803
      ],
      [
        "wyndham",
        -11.687691640857928
      ],
      [
        "lli",
        -13.004535941052215
      ],
      [
        "sion",
        -10.424354767085728
      ],
      [
        "▁monarch",
        -10.842070845557068
      ],
      [
        "▁lava",
        -11.9884572288973
      ],
      [
        "▁provocation",
        -11.487899797938905
      ],
      [
        "▁hai",
        -11.934082386945454
      ],
      [
        "▁revert",
        -11.944758012405412
      ],
      [
        "▁regret",
        -10.3165136843079
      ],
      [
        "cia",
        -11.334118227712164
      ],
      [
        "ansen",
        -13.637565979844098
      ],
      [
        "▁enclos",
        -11.847180595959774
      ],
      [
        "nforcement",
        -10.1024472787549
      ],
      [
        "▁modifi",
        -10.84207957559363
      ],
      [
        "▁refus",
        -10.283155167358386
      ],
      [
        "▁alter",
        -10.403380494915734
      ],
      [
        "city",
        -11.446592089729227
      ],
      [
        "▁com",
        -9.986242493050487
      ],
      [
        "/9",
        -15.44729760529276
      ],
      [
        "hearted",
        -12.253739832888051
      ],
      [
        "tronic",
        -12.785150190135901
      ],
      [
        "837",
        -14.14819031276042
      ],
      [
        "▁abu",
        -12.659050262975363
      ],
      [
        "▁god",
        -9.228570150685648
      ],
      [
        "▁hopki",
        -12.97453589276314
      ],
      [
        "▁sh",
        -8.650262038363719
      ],
      [
        "▁bur",
        -10.606677224105793
      ],
      [
        "▁armenia",
        -12.266590629314686
      ],
      [
        "▁fitz",
        -12.281154032618144
      ],
      [
        "▁fourth",
        -9.468113900551128
      ],
      [
        "zem",
        -11.035336853363994
      ],
      [
        "9025",
        -13.941520505513102
      ],
      [
        "▁committment",
        -12.771697553181145
      ],
      [
        "▁27",
        -11.93774816861383
      ],
      [
        "▁less",
        -8.081663408408101
      ],
      [
        "▁wagg",
        -11.945076249699245
      ],
      [
        "combi",
        -13.486191343087105
      ],
      [
        "compaq.com",
        -11.053883235450744
      ],
      [
        "▁416",
        -14.782803597790647
      ],
      [
        "▁flashes",
        -12.485866409061542
      ],
      [
        "oose",
        -11.373428647165948
      ],
      [
        "▁david",
        -9.177941271524086
      ],
      [
        "▁richard",
        -9.214174753860537
      ],
      [
        "▁non",
        -9.749685132467587
      ],
      [
        "▁10:5",
        -11.91217653689127
      ],
      [
        "▁isle",
        -12.381822790086822
      ],
      [
        "▁typo",
        -12.772463930575807
      ],
      [
        "▁are",
        -7.145531265747977
      ],
      [
        "brant",
        -12.520257117356604
      ],
      [
        "uri",
        -11.894408370198882
      ],
      [
        "▁lymph",
        -12.208655751506814
      ],
      [
        "▁postpone",
        -11.405036864163037
      ],
      [
        "abo",
        -13.2260141682147
      ],
      [
        "▁94720-",
        -13.136776257797242
      ],
      [
        "handler",
        -13.68526984252621
      ],
      [
        "oces",
        -12.897569169501748
      ],
      [
        "▁emotional",
        -10.952279036605972
      ],
      [
        "▁102",
        -12.015717884418416
      ],
      [
        "@n",
        -12.031305637563955
      ],
      [
        "920",
        -12.849170236525222
      ],
      [
        "▁capita",
        -12.78095329738648
      ],
      [
        "54",
        -12.93635787977736
      ],
      [
        "cato",
        -11.946515533569777
      ],
      [
        "lautre",
        -12.794637997960733
      ],
      [
        "▁choos",
        -11.321835766690214
      ],
      [
        "▁heavi",
        -10.223286145817305
      ],
      [
        "▁polluter",
        -12.279744646721454
      ],
      [
        "roache",
        -11.936103069095774
      ],
      [
        "▁lens",
        -11.413237430105626
      ],
      [
        "▁imper",
        -11.842697742911147
      ],
      [
        "▁practis",
        -13.20885413295291
      ],
      [
        "▁plumb",
        -12.34075075870596
      ],
      [
        "▁sulphur",
        -12.27102491925773
      ],
      [
        "▁resc",
        -12.759393796033443
      ],
      [
        "09/",
        -13.576926037779199
      ],
      [
        "=",
        -9.479384224177249
      ],
      [
        "itz",
        -11.914813846403021
      ],
      [
        "▁bla",
        -11.153801094753153
      ],
      [
        "ozen",
        -9.916278138248533
      ],
      [
        "ellen",
        -11.944308985310117
      ],
      [
        "▁squashe",
        -11.88019707134773
      ],
      [
        "▁dab",
        -10.932624278258885
      ],
      [
        "gara",
        -11.954461009560596
      ],
      [
        "▁scene",
        -9.421047166399372
      ],
      [
        "grow",
        -13.259029576641996
      ],
      [
        "cent",
        -10.823422790160254
      ],
      [
        "z",
        -8.513776215451227
      ],
      [
        "▁addresse",
        -10.72325442743966
      ],
      [
        "▁belittl",
        -12.771392373438548
      ],
      [
        "eck",
        -12.128021416698637
      ],
      [
        "▁predict",
        -10.037039386842535
      ],
      [
        "x",
        -9.923621729153174
      ],
      [
        "▁bitch",
        -11.97057912239316
      ],
      [
        "▁theft",
        -11.687766065865821
      ],
      [
        "▁crom",
        -9.2732910931672
      ],
      [
        "▁skimm",
        -11.948183107961691
      ],
      [
        ".wiki",
        -11.683710483069998
      ],
      [
        "▁monster",
        -9.712843741587722
      ],
      [
        "▁girlfriend",
        -10.223337690642772
      ],
      [
        "▁crown",
        -10.845741555657472
      ],
      [
        "tha",
        -7.447652869023347
      ],
      [
        "8",
        -11.315004716673881
      ],
      [
        "▁convo",
        -12.800721695073367
      ],
      [
        "▁suffering",
        -9.989409081390667
      ],
      [
        "▁branch",
        -10.760065838268059
      ],
      [
        "popular",
        -11.449592635277359
      ],
      [
        "ing",
        -9.928808428270834
      ],
      [
        "393",
        -11.979993705934662
      ],
      [
        "sis",
        -12.693411606486883
      ],
      [
        "8/10/200",
        -13.466113830950322
      ],
      [
        "▁sau",
        -11.725127590874878
      ],
      [
        "▁wing",
        -10.414429110014012
      ],
      [
        "▁fascinat",
        -10.767510341758424
      ],
      [
        "stand",
        -12.147606871509572
      ],
      [
        "▁lounge",
        -11.487698219841857
      ],
      [
        "tart",
        -12.323299743615799
      ],
      [
        "mcdermott@",
        -12.771133869245633
      ],
      [
        "▁affirmative",
        -12.771164684268212
      ],
      [
        "soon",
        -13.681454461037315
      ],
      [
        "▁surg",
        -13.693893721282677
      ],
      [
        "▁overthr",
        -13.711253075345091
      ],
      [
        "▁04:3",
        -12.399758770173818
      ],
      [
        "▁padd",
        -11.833270606523731
      ],
      [
        "▁mid-oc",
        -13.548573843758419
      ],
      [
        "▁ground",
        -7.511000339399028
      ],
      [
        "▁asha",
        -12.355094139541885
      ],
      [
        "▁mel",
        -10.679492560517843
      ],
      [
        "64-7",
        -13.572722259480486
      ],
      [
        "▁nash",
        -8.999511191950436
      ],
      [
        "▁cropduster",
        -11.937693280478804
      ],
      [
        "martinez",
        -11.491298485476303
      ],
      [
        "ation",
        -10.323213255553187
      ],
      [
        "▁prohibition",
        -12.775955591747051
      ],
      [
        "clear",
        -13.033043829191742
      ],
      [
        "▁depress",
        -11.939819595929658
      ],
      [
        "▁enchant",
        -12.865299404968226
      ],
      [
        "▁traged",
        -10.125687550825472
      ],
      [
        "▁combine",
        -10.17059698893397
      ],
      [
        "▁unearth",
        -12.771955913218818
      ],
      [
        "/pdf/",
        -12.271143049273043
      ],
      [
        "▁jumble",
        -12.792275197632154
      ],
      [
        "uvia",
        -12.810818927338861
      ],
      [
        "▁back",
        -6.439929621419231
      ],
      [
        "itter",
        -13.462222064678603
      ],
      [
        "▁trainer",
        -11.310611171980165
      ],
      [
        "▁dut",
        -9.761847293230907
      ],
      [
        "emona",
        -12.993893676324175
      ],
      [
        "93",
        -11.856309454895467
      ],
      [
        "ecker",
        -12.11457265026241
      ],
      [
        "▁cub",
        -11.347656619638556
      ],
      [
        "▁sweet",
        -8.910526340544411
      ],
      [
        "▁salad",
        -9.544311282491861
      ],
      [
        "▁absor",
        -12.769974966724213
      ],
      [
        "s/index.",
        -13.473199788083047
      ],
      [
        "999",
        -12.57747659635982
      ],
      [
        "▁betta",
        -11.97358389318823
      ],
      [
        "▁multiple",
        -10.080214869572686
      ],
      [
        "▁double",
        -9.658030101039142
      ],
      [
        "▁mitch",
        -9.653319427577284
      ],
      [
        "-2",
        -11.920185692866024
      ],
      [
        "▁hi",
        -8.20497667528024
      ],
      [
        "▁lesson",
        -9.550908371119709
      ],
      [
        "light",
        -9.787493304109189
      ],
      [
        "▁pleasure",
        -9.91719712262989
      ],
      [
        "▁05:",
        -13.864709534199491
      ],
      [
        "ibra",
        -13.62029731802884
      ],
      [
        "▁smok",
        -10.298602289706487
      ],
      [
        "▁guardia",
        -10.58835474449521
      ],
      [
        "▁winter",
        -8.938271952999607
      ],
      [
        "▁ze",
        -10.565008363036485
      ],
      [
        "!",
        -11.178167775983392
      ],
      [
        "空",
        -12.833785825435129
      ],
      [
        "ical",
        -8.83701131838244
      ],
      [
        "hodg",
        -13.733760300317215
      ],
      [
        "▁coff",
        -13.568542127785793
      ],
      [
        "2-66",
        -13.140576993165098
      ],
      [
        "fertilize",
        -13.732908437998878
      ],
      [
        "▁interven",
        -10.94196066323911
      ],
      [
        "12",
        -10.115966630470972
      ],
      [
        "▁evolv",
        -10.461227263065467
      ],
      [
        "solubl",
        -11.938023662357338
      ],
      [
        "onald",
        -13.386004529032242
      ],
      [
        "▁kirk",
        -12.271038093824039
      ],
      [
        "i-",
        -12.065059431987848
      ],
      [
        "▁juggl",
        -12.305887872959257
      ],
      [
        "▁clatter",
        -11.940027829201435
      ],
      [
        ",000",
        -9.14239492692628
      ],
      [
        "▁l.p",
        -12.817984553812025
      ],
      [
        "dispens",
        -11.937860655173795
      ],
      [
        "ed",
        -9.811572089528623
      ],
      [
        "▁maria",
        -11.715515423327307
      ],
      [
        "▁explode",
        -12.090375612428064
      ],
      [
        "-to-",
        -11.478913699933816
      ],
      [
        "▁place",
        -6.805931458064666
      ],
      [
        "▁alta",
        -13.727419872107829
      ],
      [
        "▁lin",
        -11.790307960165437
      ],
      [
        "▁parch",
        -12.777025195527406
      ],
      [
        "▁switch",
        -10.208291133616264
      ],
      [
        "▁thrift",
        -11.178182145333931
      ],
      [
        "▁158",
        -10.771498006496454
      ],
      [
        "&",
        -10.462544557758953
      ],
      [
        "▁hung",
        -9.86647129388336
      ],
      [
        "▁eb",
        -9.706001765757927
      ],
      [
        "▁carpet",
        -10.842527139429773
      ],
      [
        "nana",
        -9.662043387588838
      ],
      [
        "▁inspecti",
        -11.246631504807862
      ],
      [
        "▁trailer",
        -11.190127834841359
      ],
      [
        "▁subtle",
        -11.321069086042911
      ],
      [
        "▁marsh",
        -12.269869498158089
      ],
      [
        "▁plan",
        -8.24218555388225
      ],
      [
        "▁clip",
        -10.459290285960769
      ],
      [
        "▁mad",
        -9.521693967141598
      ],
      [
        "▁franz",
        -11.687868312364136
      ],
      [
        "lected",
        -12.76094343186615
      ],
      [
        "hua",
        -11.356132178922108
      ],
      [
        "▁recording",
        -10.23915621470764
      ],
      [
        "▁favorite",
        -8.883008716693354
      ],
      [
        "▁articulat",
        -11.937691631715083
      ],
      [
        "425",
        -14.180756138798781
      ],
      [
        "calzo",
        -13.71489172581607
      ],
      [
        "rbach",
        -11.178254461652847
      ],
      [
        "▁area",
        -7.581083465610427
      ],
      [
        "▁elect",
        -10.626021067955413
      ],
      [
        "▁halt",
        -11.378860094874803
      ],
      [
        "ware",
        -9.664186661923734
      ],
      [
        "▁121",
        -14.581591867325713
      ],
      [
        "▁chao",
        -9.848317223585237
      ],
      [
        "▁gala",
        -11.702631264584346
      ],
      [
        "bias",
        -12.219736439551708
      ],
      [
        "▁sainte",
        -12.530755743878256
      ],
      [
        "oo",
        -10.573184319002312
      ],
      [
        "▁650",
        -13.191743379778188
      ],
      [
        "▁slovenia",
        -11.687693277672654
      ],
      [
        "ther",
        -9.816198836317017
      ],
      [
        "▁opt",
        -11.414640689267928
      ],
      [
        "▁7.2",
        -11.34898867292298
      ],
      [
        "▁tobi",
        -12.971722986708206
      ],
      [
        "kat",
        -10.909520301264195
      ],
      [
        "****************",
        -9.647989595493517
      ],
      [
        "▁jong",
        -12.285763934122796
      ],
      [
        "▁jordan",
        -10.275746002012342
      ],
      [
        "▁ouij",
        -11.6881178413894
      ],
      [
        "▁hoar",
        -12.793302752109469
      ],
      [
        "▁moham",
        -10.171012349595554
      ],
      [
        "▁has",
        -6.848591457078751
      ],
      [
        "▁arrogan",
        -11.482875406956547
      ],
      [
        "96",
        -11.613919797726453
      ],
      [
        "gnar",
        -12.34488658740356
      ],
      [
        "▁worm",
        -9.76191744687536
      ],
      [
        "vie",
        -12.743112824579505
      ],
      [
        "po",
        -13.790623849186558
      ],
      [
        "pepsi",
        -11.93991152655491
      ],
      [
        "▁ethnocentri",
        -11.053167775975197
      ],
      [
        "▁wait",
        -7.62888129834162
      ],
      [
        "▁traveller",
        -11.501980331923136
      ],
      [
        "▁lear",
        -10.94358538162402
      ],
      [
        "▁river",
        -8.789148816525994
      ],
      [
        "▁sponsor",
        -10.751164505538458
      ],
      [
        "▁explod",
        -12.090930910172734
      ],
      [
        "/articles/c",
        -12.771290981989166
      ],
      [
        "▁afterward",
        -10.080238951155533
      ],
      [
        "▁shorthand",
        -12.773450887302529
      ],
      [
        "jones@e",
        -12.78280121455302
      ],
      [
        "bag",
        -11.997412215922065
      ],
      [
        "▁muscula",
        -12.787123171660376
      ],
      [
        ":46",
        -13.579038763616383
      ],
      [
        "/16/200",
        -11.522972034904175
      ],
      [
        "trina",
        -10.89231954910543
      ],
      [
        "▁intens",
        -11.391223583067681
      ],
      [
        "▁bruise",
        -11.9383251201064
      ],
      [
        "▁horribl",
        -9.543261343163753
      ],
      [
        "}",
        -11.333785825435129
      ],
      [
        "▁dada",
        -11.17321667106772
      ],
      [
        "▁grandson",
        -12.27337381855356
      ],
      [
        "▁hau",
        -12.753008223545823
      ],
      [
        "▁nanda",
        -11.373803937697424
      ],
      [
        "▁gibb",
        -13.571882857125491
      ],
      [
        "rdon",
        -9.948414300064211
      ],
      [
        "#",
        -13.722533176121074
      ],
      [
        "▁aw",
        -8.844585833961844
      ],
      [
        "acia",
        -12.35067822828685
      ],
      [
        "▁spen",
        -8.968166960507443
      ],
      [
        "▁one",
        -6.703143481594611
      ],
      [
        "▁bass",
        -11.52284377850817
      ],
      [
        "6/200",
        -15.097693619441635
      ],
      [
        "▁shovel",
        -11.055652006072538
      ],
      [
        "▁crumbl",
        -11.926163203716277
      ],
      [
        "orsch",
        -13.340248707742827
      ],
      [
        "flie",
        -13.40375729570461
      ],
      [
        "▁petti",
        -11.76290091755178
      ],
      [
        "▁teaching",
        -9.695177397784795
      ],
      [
        "▁alt.animals.",
        -10.56584261336815
      ],
      [
        "1.5",
        -12.30403993063978
      ],
      [
        "▁vehicle",
        -9.809371998290747
      ],
      [
        "surgery",
        -10.04751816862867
      ],
      [
        "values",
        -11.227392804242173
      ],
      [
        "/03/200",
        -12.14697268704212
      ],
      [
        "▁beatle",
        -10.127242914953383
      ],
      [
        "▁cu",
        -10.20122600720561
      ],
      [
        "t-",
        -11.273127511116757
      ],
      [
        "▁implant",
        -11.487699032831506
      ],
      [
        "1960",
        -11.315720686444235
      ],
      [
        "nel",
        -11.256223136262848
      ],
      [
        "▁apron",
        -11.488930424743995
      ],
      [
        "linguistic",
        -12.732980649107592
      ],
      [
        "ashim",
        -12.792109001825114
      ],
      [
        "▁krist",
        -12.707191848607874
      ],
      [
        "▁roger",
        -11.321401914046538
      ],
      [
        "▁rank",
        -9.99691420265277
      ],
      [
        "▁reform",
        -10.222343602962525
      ],
      [
        "▁favourite",
        -11.938033959006251
      ],
      [
        "▁music",
        -8.818213750095747
      ],
      [
        "~",
        -9.582223498820056
      ],
      [
        "you",
        -7.216410184862478
      ],
      [
        "▁exercis",
        -11.834210044261127
      ],
      [
        "degenerate",
        -11.48769164491409
      ],
      [
        "▁04:5",
        -13.362917933474565
      ],
      [
        "+b",
        -13.296765309754267
      ],
      [
        "142",
        -13.600140993251275
      ],
      [
        "▁num",
        -11.689565112383082
      ],
      [
        "c-",
        -12.972229384061876
      ],
      [
        "▁pound",
        -10.391801741254
      ],
      [
        "ant",
        -9.168672877630856
      ],
      [
        "org",
        -13.118604798432163
      ],
      [
        "山",
        -12.833785825435129
      ],
      [
        "▁byr",
        -10.85908050699996
      ],
      [
        "▁barrette",
        -11.955776893485655
      ],
      [
        "hill",
        -11.35088808273894
      ],
      [
        "ه",
        -14.203297884361366
      ],
      [
        "▁cenot",
        -12.780310919701527
      ],
      [
        "ble",
        -13.325705585333473
      ],
      [
        "▁congratulation",
        -10.842056973470775
      ],
      [
        "▁bonn",
        -12.518489556223095
      ],
      [
        "▁scammer",
        -11.688482077562767
      ],
      [
        "▁rad",
        -12.370263658024422
      ],
      [
        "biscu",
        -12.77151261182729
      ],
      [
        "ample",
        -12.805755590924715
      ],
      [
        "marie",
        -10.154224965686264
      ],
      [
        "▁capitaliz",
        -12.478878507995843
      ],
      [
        "▁donut",
        -12.808022350363776
      ],
      [
        "▁well",
        -6.348680697706744
      ],
      [
        "▁haste",
        -11.937250495022374
      ],
      [
        "borg",
        -11.320000993971512
      ],
      [
        "▁jak",
        -12.312203437977981
      ],
      [
        "▁employ",
        -9.289661121090958
      ],
      [
        "▁3/9/",
        -13.14152125688839
      ],
      [
        "▁inspire",
        -9.87800220157507
      ],
      [
        "▁roar",
        -9.743973459266439
      ],
      [
        "uma",
        -12.847605343925458
      ],
      [
        "▁spider",
        -9.25224263874279
      ],
      [
        "▁balzac",
        -8.47978131491601
      ],
      [
        "ought",
        -9.453957320742106
      ],
      [
        "▁channel",
        -9.62487912973235
      ],
      [
        "▁rail",
        -10.080156657509935
      ],
      [
        "▁tragic",
        -11.053173151640726
      ],
      [
        "tensive",
        -12.884063542411425
      ],
      [
        "pac",
        -13.574778558456508
      ],
      [
        "▁acrylic",
        -11.937691870774568
      ],
      [
        "weaponize",
        -11.966152109849606
      ],
      [
        "▁dwelling",
        -12.332183823625396
      ],
      [
        "▁lurch",
        -12.771481389004062
      ],
      [
        "▁adversar",
        -12.85731313189089
      ],
      [
        "▁strict",
        -10.080225751184424
      ],
      [
        "▁minor",
        -10.35203094668341
      ],
      [
        "▁macro",
        -12.771702756209956
      ],
      [
        "▁detective",
        -10.591276807737572
      ],
      [
        "▁anal",
        -12.573502052238196
      ],
      [
        "▁’",
        -10.5320931471417
      ],
      [
        "▁philosopher",
        -10.758801363547358
      ],
      [
        "▁hankie",
        -12.812358931413595
      ],
      [
        "▁dillard",
        -12.271085840968947
      ],
      [
        "▁elaborate",
        -10.94205667869055
      ],
      [
        "305",
        -14.449579635922536
      ],
      [
        "▁crash",
        -10.087202478812525
      ],
      [
        "▁yarn",
        -11.68779153288372
      ],
      [
        "bu",
        -8.933136665927833
      ],
      [
        "187",
        -12.753397997597109
      ],
      [
        "▁killing",
        -10.00347607923452
      ],
      [
        "▁problem",
        -7.586170141214148
      ],
      [
        "hi",
        -9.42458128149114
      ],
      [
        "▁secretion",
        -12.793235221600316
      ],
      [
        "▁pinch",
        -10.837995699404324
      ],
      [
        "▁noon",
        -8.377573727683348
      ],
      [
        "▁flexibl",
        -11.057594326298153
      ],
      [
        "ba",
        -11.549657294385685
      ],
      [
        "!!!!!!!!!!!",
        -12.790094382530567
      ],
      [
        "▁friendli",
        -13.123141975934383
      ],
      [
        "zer",
        -9.232960750336773
      ],
      [
        "81/",
        -13.487246071593466
      ],
      [
        "▁47",
        -12.332413685132002
      ],
      [
        "▁distinctive",
        -12.27181092003682
      ],
      [
        "▁inspect",
        -11.80540477042072
      ],
      [
        "▁ripple",
        -11.695927922481326
      ],
      [
        "▁shackle",
        -10.844200702602897
      ],
      [
        "▁yack",
        -11.322061510512455
      ],
      [
        "▁hotdog",
        -11.489210259278492
      ],
      [
        "▁x33",
        -11.93991825188356
      ],
      [
        "▁pulle",
        -12.349083150562187
      ],
      [
        "-------------",
        -10.204800430093533
      ],
      [
        "▁regime",
        -9.995066820102418
      ],
      [
        "▁oka",
        -6.637594034817865
      ],
      [
        "▁tumbled",
        -11.94772901212412
      ],
      [
        "valenc",
        -12.846219330932941
      ],
      [
        "▁foresee",
        -12.271323950858923
      ],
      [
        "▁glimmer",
        -12.771025056070732
      ],
      [
        "▁where",
        -8.802452388749018
      ],
      [
        "31",
        -11.692241147114805
      ],
      [
        "▁folk",
        -9.847178860899405
      ],
      [
        "▁retaliat",
        -12.049611192552137
      ],
      [
        "▁settler",
        -10.52462464148243
      ],
      [
        "kha",
        -13.620988252282125
      ],
      [
        "respect",
        -13.73365710230267
      ],
      [
        "hingy",
        -12.682124290472851
      ],
      [
        "13",
        -10.571710913851275
      ],
      [
        "▁devil",
        -9.879883230561958
      ],
      [
        "▁obl",
        -12.722384941511116
      ],
      [
        "▁cheu",
        -11.928922819750555
      ],
      [
        "▁deco",
        -12.427494852400699
      ],
      [
        "washington",
        -7.186604175804263
      ],
      [
        "/~",
        -12.771092500946189
      ],
      [
        "aboo",
        -12.75702056814236
      ],
      [
        "▁presiden",
        -11.314670851177256
      ],
      [
        "▁jacket",
        -10.331773651230753
      ],
      [
        "▁procedure",
        -9.44453654702903
      ],
      [
        "▁expell",
        -12.27636427245838
      ],
      [
        "▁faz",
        -12.774433580375021
      ],
      [
        "▁queue",
        -11.321030087698277
      ],
      [
        "ribbi",
        -11.30685195407188
      ],
      [
        "▁gu",
        -11.83470245911374
      ],
      [
        "▁blend",
        -10.84012144228225
      ],
      [
        "▁$",
        -8.88609295041069
      ],
      [
        "▁opossum",
        -12.2710249407847
      ],
      [
        "▁pag",
        -10.739891569544566
      ],
      [
        "▁muggle",
        -10.331474886500231
      ],
      [
        "6-84",
        -14.806907614809186
      ],
      [
        "▁metaphysic",
        -12.271151718830321
      ],
      [
        "▁shand",
        -13.12122054002057
      ],
      [
        "▁swing",
        -9.383467288778466
      ],
      [
        "▁climb",
        -9.177433091050627
      ],
      [
        "affin",
        -13.007641329278451
      ],
      [
        "-04",
        -14.123579800210045
      ],
      [
        "▁hostilit",
        -12.896944486156645
      ],
      [
        "cages",
        -13.652854750032777
      ],
      [
        "manor",
        -12.844805029661533
      ],
      [
        "▁par",
        -10.847458532643536
      ],
      [
        "▁diminishe",
        -12.518066815034064
      ],
      [
        "clips",
        -13.570556139067827
      ],
      [
        "▁urgent",
        -10.751284022894007
      ],
      [
        "▁negat",
        -11.032526588317928
      ],
      [
        "1/200",
        -13.24735849196466
      ],
      [
        "▁forc",
        -12.577520839258913
      ],
      [
        "ntact",
        -11.69101493209715
      ],
      [
        "▁reference",
        -9.1163840438889
      ],
      [
        "shi",
        -13.214415987742727
      ],
      [
        "▁agel",
        -11.201662259577493
      ],
      [
        "ins",
        -12.84528629625656
      ],
      [
        "-in-",
        -12.272193148973834
      ],
      [
        "▁stooge",
        -11.688715674789849
      ],
      [
        "▁europ",
        -11.270999431473793
      ],
      [
        "▁negotiate",
        -11.078581807731725
      ],
      [
        "arriage",
        -10.982246373060672
      ],
      [
        "▁comp.sources.",
        -11.687691585560374
      ],
      [
        "▁trott",
        -12.473774638997986
      ],
      [
        "▁corresponding",
        -11.330683516014963
      ],
      [
        "ow",
        -13.920453066150825
      ],
      [
        "▁whats",
        -11.26542166168438
      ],
      [
        "▁pattern",
        -9.996569816869243
      ],
      [
        "▁rena",
        -10.145616765252822
      ],
      [
        "▁fur",
        -10.59618531869086
      ],
      [
        "▁tiger",
        -9.214547810918342
      ],
      [
        "▁solv",
        -10.928449119015276
      ],
      [
        "▁creature",
        -10.842275463231639
      ],
      [
        "▁fireplace",
        -11.053857616802393
      ],
      [
        "▁wakan",
        -11.83383369829346
      ],
      [
        "28",
        -11.378940060574218
      ],
      [
        "erre",
        -11.834469720779595
      ],
      [
        "coli",
        -11.937441279969983
      ],
      [
        "▁since",
        -10.353748570839585
      ],
      [
        "2-3",
        -14.13762684307704
      ],
      [
        "ß",
        -12.833785825435129
      ],
      [
        "▁driv",
        -8.744765231871838
      ],
      [
        "▁peregrin",
        -12.77102931020412
      ],
      [
        "bring",
        -12.738203493294744
      ],
      [
        "▁instigate",
        -12.271024988000061
      ],
      [
        "▁203.",
        -13.141448739224417
      ],
      [
        "▁apologize",
        -11.06175387638933
      ],
      [
        "▁definite",
        -8.924110384119079
      ],
      [
        "▁general",
        -7.982615391036728
      ],
      [
        "▁any",
        -8.313978061899988
      ],
      [
        "▁korea",
        -9.233412547175622
      ],
      [
        "▁deposit",
        -10.641193673706951
      ],
      [
        "▁bending",
        -11.191743903592187
      ],
      [
        "ity",
        -7.057959802844108
      ],
      [
        "oul",
        -11.421026711817436
      ],
      [
        "▁develope",
        -11.645383865976193
      ],
      [
        "▁stroke",
        -11.693405665138867
      ],
      [
        "▁rath",
        -8.556708560923367
      ],
      [
        "tail",
        -12.733875195446386
      ],
      [
        "xx",
        -12.929198159530694
      ],
      [
        "▁digg",
        -10.675598706837912
      ],
      [
        "▁explanator",
        -12.271024946145294
      ],
      [
        "ratio",
        -13.693592973957482
      ],
      [
        "▁kho",
        -13.73282855818746
      ],
      [
        "ari",
        -13.235246626755663
      ],
      [
        "-cons",
        -13.400803968548615
      ],
      [
        "▁crescen",
        -12.27128526591233
      ],
      [
        "thing",
        -10.047079262882905
      ],
      [
        "▁normall",
        -11.501313969182466
      ],
      [
        "aux",
        -12.8366506743101
      ],
      [
        "▁equival",
        -13.663670946361231
      ],
      [
        "▁shan",
        -12.34777608450875
      ],
      [
        "▁hig",
        -10.388500427920253
      ],
      [
        "▁annoyance",
        -12.775543292515428
      ],
      [
        "▁journey",
        -10.173285284310602
      ],
      [
        "aku",
        -11.581255570216264
      ],
      [
        "▁appetiz",
        -11.937691599335224
      ],
      [
        "▁augustin",
        -13.029726443125497
      ],
      [
        "▁concert",
        -10.786771717600109
      ],
      [
        "▁preface",
        -11.487711035480674
      ],
      [
        "▁contribute",
        -10.02830082286619
      ],
      [
        "▁scott",
        -9.78157780970104
      ],
      [
        "▁massacre",
        -11.754410202993721
      ],
      [
        "ryan",
        -9.91803749065544
      ],
      [
        "▁mango",
        -11.968032691273155
      ],
      [
        "aris",
        -13.140331865443233
      ],
      [
        "▁dog",
        -7.640505127272489
      ],
      [
        "▁duster",
        -12.363171464203585
      ],
      [
        "▁ji",
        -12.359967820454228
      ],
      [
        "▁jen",
        -10.263180566866884
      ],
      [
        "▁gymnas",
        -12.772178366956219
      ],
      [
        "hog",
        -13.729270817355184
      ],
      [
        "▁entrench",
        -11.937862510110488
      ],
      [
        "415",
        -15.196552822100085
      ],
      [
        "330",
        -12.771334490784167
      ],
      [
        "▁evil-",
        -12.778269596307366
      ],
      [
        "ax",
        -9.498075937158813
      ],
      [
        "▁swirl",
        -11.48769444212164
      ],
      [
        "▁sprinkl",
        -12.27106064486875
      ],
      [
        "▁dinner",
        -8.128212543324667
      ],
      [
        "▁syrup",
        -10.842057327631808
      ],
      [
        "nin",
        -13.066636133821136
      ],
      [
        "▁eric",
        -11.187144671116991
      ],
      [
        "▁small",
        -7.449204461528797
      ],
      [
        "▁andaman",
        -9.995069489209708
      ],
      [
        "▁rep",
        -10.148949753296769
      ],
      [
        "▁liter",
        -10.268752566138229
      ],
      [
        "▁distribut",
        -10.60080331386306
      ],
      [
        ":50",
        -14.10412921044257
      ],
      [
        "▁prol",
        -11.727619661230207
      ],
      [
        "▁2.0",
        -11.449299207262335
      ],
      [
        "ast",
        -13.672805691951831
      ],
      [
        "▁pan-democrat",
        -11.687739667307635
      ],
      [
        "004",
        -12.1937116209186
      ],
      [
        "▁high-",
        -12.455189941450671
      ],
      [
        "san",
        -12.06406482586922
      ],
      [
        "akan",
        -12.241331569319104
      ],
      [
        "▁dinosaur",
        -8.869676176337919
      ],
      [
        "th",
        -7.353972408991394
      ],
      [
        "▁attribute",
        -10.514556991192649
      ],
      [
        "▁webmas",
        -13.716824182877467
      ],
      [
        "▁importan",
        -10.343523196076234
      ],
      [
        "▁wash",
        -8.791874007591318
      ],
      [
        "▁vice",
        -9.725347587378076
      ],
      [
        "een",
        -10.134809323558137
      ],
      [
        "▁guadeloupe",
        -10.751147574288767
      ],
      [
        "▁30,",
        -14.133461492039803
      ],
      [
        "▁mumble",
        -12.162806613521845
      ],
      [
        "▁connections",
        -10.828112249964592
      ],
      [
        "▁stead",
        -11.922919359473937
      ],
      [
        "▁please",
        -6.530199793389457
      ],
      [
        "▁burp",
        -11.69104854031632
      ],
      [
        "ibbon",
        -12.770998414699884
      ],
      [
        "▁runflat",
        -12.771024959436387
      ],
      [
        "▁stretch",
        -9.443871858174088
      ],
      [
        "▁tweet",
        -11.943005172310617
      ],
      [
        "▁impose",
        -11.262945422730905
      ],
      [
        "tenance",
        -10.84292160146014
      ],
      [
        "▁tata",
        -11.968912389657953
      ],
      [
        "▁factotum",
        -12.271025320646848
      ],
      [
        "emp",
        -13.622027445582287
      ],
      [
        "cott",
        -12.028115483768604
      ],
      [
        "▁inhal",
        -11.533437083336555
      ],
      [
        "▁brick",
        -10.592190314645514
      ],
      [
        "llah",
        -10.727723554335093
      ],
      [
        "▁translat",
        -11.113921475386743
      ],
      [
        "1-51",
        -14.136826951535191
      ],
      [
        "▁sagin",
        -12.773886429014267
      ],
      [
        "ailin",
        -11.488741686447053
      ],
      [
        "▁375",
        -13.567938652830122
      ],
      [
        "felines.",
        -12.771027634627501
      ],
      [
        "▁alpha",
        -12.783090127496404
      ],
      [
        "▁grue",
        -12.782661503274463
      ],
      [
        "▁distinction",
        -10.519614937282334
      ],
      [
        "regions",
        -13.371096617706678
      ],
      [
        "▁straighten",
        -11.703328143388351
      ],
      [
        "▁social",
        -8.303978583839312
      ],
      [
        "▁evacuate",
        -10.988065785980794
      ],
      [
        "eiji",
        -13.257142350095522
      ],
      [
        "▁emphasis",
        -10.892402445069706
      ],
      [
        "ance",
        -7.981951880339642
      ],
      [
        "▁rattl",
        -11.720341688128723
      ],
      [
        "▁wel",
        -10.452125002941226
      ],
      [
        "▁woods",
        -11.15621949689127
      ],
      [
        "▁chef",
        -10.591500768673246
      ],
      [
        "▁acqui",
        -13.715209706009743
      ],
      [
        "▁digi",
        -12.626482661853453
      ],
      [
        "lugu",
        -12.77192750554875
      ],
      [
        "screen",
        -12.647419417912888
      ],
      [
        "▁reuse",
        -13.655268365805771
      ],
      [
        "▁gentlem",
        -11.292054282163473
      ],
      [
        "▁destroye",
        -11.497934411908679
      ],
      [
        "▁9",
        -10.07482853981363
      ],
      [
        "▁pot",
        -10.198510705836648
      ],
      [
        "▁independen",
        -9.740431057116457
      ],
      [
        "▁cascade",
        -12.28380569875234
      ],
      [
        "▁exercise",
        -9.608853159435835
      ],
      [
        "smut",
        -12.271594386469797
      ],
      [
        "▁joint",
        -10.142857163723075
      ],
      [
        "▁petunia",
        -10.519462751098155
      ],
      [
        "article",
        -13.690058388500232
      ],
      [
        "▁funnel",
        -10.752251250615537
      ],
      [
        "▁consist",
        -10.45230822261459
      ],
      [
        "▁sevent",
        -8.566675411207946
      ],
      [
        "▁hoo",
        -10.543572762489786
      ],
      [
        "▁la",
        -8.232306066869954
      ],
      [
        "▁meir",
        -11.178680290669146
      ],
      [
        "▁flopp",
        -11.945743611656725
      ],
      [
        "▁somme",
        -12.383633209773343
      ],
      [
        "▁empti",
        -12.25385629279968
      ],
      [
        "@en",
        -12.771592251138356
      ],
      [
        "jj",
        -10.752411902458382
      ],
      [
        "▁citi",
        -9.210682858273511
      ],
      [
        "▁'s",
        -7.311381987660564
      ],
      [
        "quett",
        -12.390392236161047
      ],
      [
        "ect",
        -11.733665998967979
      ],
      [
        "pulse",
        -12.27049709718004
      ],
      [
        "w",
        -7.371528495809019
      ],
      [
        "▁spur",
        -11.9338980512381
      ],
      [
        "▁ba",
        -11.474094207813565
      ],
      [
        "▁770",
        -13.561149847827554
      ],
      [
        "2.1",
        -13.66157177077054
      ],
      [
        "▁ponder",
        -12.273443006311886
      ],
      [
        "▁hijacker",
        -11.937691585850054
      ],
      [
        "▁liar",
        -12.273685196279214
      ],
      [
        "tutorial",
        -13.731019084191974
      ],
      [
        "▁http://www.c",
        -11.524164225459067
      ],
      [
        "▁phobi",
        -12.918918285435732
      ],
      [
        "▁creative",
        -9.293847552582928
      ],
      [
        "▁esp",
        -12.280478828913344
      ],
      [
        "▁dynamic",
        -10.390371108991783
      ],
      [
        "▁wide-",
        -12.815083425741484
      ],
      [
        "▁bann",
        -11.531968307856317
      ],
      [
        "▁sal",
        -10.795988725788037
      ],
      [
        "atomic",
        -11.487299963298092
      ],
      [
        "▁ac",
        -10.260361104346092
      ],
      [
        "▁boost",
        -10.53193615735358
      ],
      [
        "▁virtuo",
        -11.492259720409097
      ],
      [
        "▁abbe",
        -11.950384898683291
      ],
      [
        "▁112",
        -13.204335028057539
      ],
      [
        "▁equator",
        -12.77106675541644
      ],
      [
        "▁penalise",
        -12.271826307955061
      ],
      [
        "ours",
        -12.332390364283658
      ],
      [
        "▁garb",
        -10.593180679608317
      ],
      [
        "▁isolat",
        -11.897982813399398
      ],
      [
        "▁persia",
        -12.267615975585281
      ],
      [
        "▁thr",
        -12.732226057968946
      ],
      [
        "c.gc.ca/english/",
        -11.93769158552321
      ],
      [
        "▁settle",
        -9.74106380241893
      ],
      [
        "▁counsel",
        -10.452221334475347
      ],
      [
        "o",
        -2.8218722090979362
      ],
      [
        "▁po",
        -11.008071481084977
      ],
      [
        "il",
        -10.299175791775344
      ],
      [
        "▁norwegian",
        -11.487691585507442
      ],
      [
        "▁unpai",
        -12.543786969486934
      ],
      [
        "▁broom",
        -10.676654993324274
      ],
      [
        "853-3",
        -14.140827607357917
      ],
      [
        "▁gree",
        -10.899000227903045
      ],
      [
        "▁advancement",
        -11.695014623024251
      ],
      [
        "▁scream",
        -10.173363934915292
      ],
      [
        "▁spann",
        -11.959926764603175
      ],
      [
        "militar",
        -12.726816833096517
      ],
      [
        "▁lu",
        -9.840953056148255
      ],
      [
        "▁pal",
        -11.011786454927975
      ],
      [
        "@h",
        -12.42955518694821
      ],
      [
        "▁scrambl",
        -11.91790478046913
      ],
      [
        "▁mistress",
        -12.271052200166322
      ],
      [
        "▁span",
        -10.449499076903692
      ],
      [
        "08",
        -11.3293503899011
      ],
      [
        "▁silver",
        -9.516899630728059
      ],
      [
        "killed",
        -9.826705243293603
      ],
      [
        "▁mia",
        -11.835498122457036
      ],
      [
        "sauce",
        -12.754636390866086
      ],
      [
        "▁dresser",
        -11.565635157577196
      ],
      [
        "collecting",
        -11.996732401479434
      ],
      [
        "pression",
        -11.371496488120634
      ],
      [
        "▁600",
        -11.992235792398532
      ],
      [
        "▁archiv",
        -13.011708437007716
      ],
      [
        "▁old",
        -7.3385351628289825
      ],
      [
        "▁inevitabl",
        -10.519462844923941
      ],
      [
        "panc",
        -11.985979192724106
      ],
      [
        "▁mutate",
        -12.773873787500921
      ],
      [
        "▁punishment",
        -11.053411273176987
      ],
      [
        "▁adult",
        -9.142057309654328
      ],
      [
        "▁169",
        -11.526929689379742
      ],
      [
        "▁disdain",
        -11.937697787344833
      ],
      [
        "▁reput",
        -12.33378747942354
      ],
      [
        "ommer",
        -13.591582988814874
      ],
      [
        "▁814",
        -13.626596620227597
      ],
      [
        "▁blade",
        -11.488350362677444
      ],
      [
        "▁useful",
        -9.752026017065837
      ],
      [
        "▁reward",
        -10.331783769733233
      ],
      [
        "▁officer",
        -9.638921675089435
      ],
      [
        "simien",
        -12.271027052239136
      ],
      [
        "▁expans",
        -13.080068865319422
      ],
      [
        "▁runn",
        -8.81138605063844
      ],
      [
        "▁axe",
        -12.8111912871486
      ],
      [
        "▁fuj",
        -11.209056165816188
      ],
      [
        "to",
        -11.282468141848708
      ],
      [
        "▁dre",
        -12.880850419538486
      ],
      [
        "▁take",
        -6.237107942179385
      ],
      [
        "▁begg",
        -12.3217104606104
      ],
      [
        "▁>",
        -9.25200696802715
      ],
      [
        "▁hutt",
        -12.202238324123982
      ],
      [
        "▁untie",
        -11.69302792478429
      ],
      [
        "itarian",
        -12.771986346556803
      ],
      [
        "yours",
        -13.83576927956286
      ],
      [
        "▁occupie",
        -11.053167878099458
      ],
      [
        "mund",
        -12.072988250408624
      ],
      [
        "▁equivalen",
        -10.843764056402613
      ],
      [
        "ee",
        -10.720525926017277
      ],
      [
        "▁station",
        -8.679756692121972
      ],
      [
        "▁09:5",
        -13.197391014154237
      ],
      [
        "▁secretar",
        -12.485897253997855
      ],
      [
        "gree",
        -12.725181866128915
      ],
      [
        "▁bath+",
        -11.321197178704669
      ],
      [
        "▁foods",
        -10.35743818037427
      ],
      [
        "▁wan",
        -6.73076088772223
      ],
      [
        "▁620-294-",
        -12.66538946736131
      ],
      [
        "▁joll",
        -11.996350198972939
      ],
      [
        "▁o'r",
        -12.006656584145492
      ],
      [
        "shield",
        -12.22773833502689
      ],
      [
        "gorge",
        -11.489012651987958
      ],
      [
        "▁calc",
        -12.777416320045269
      ],
      [
        "▁detector",
        -11.93971892322572
      ],
      [
        "▁lit",
        -10.735389868393513
      ],
      [
        "ere",
        -12.161093486031731
      ],
      [
        "issu",
        -12.797155964838314
      ],
      [
        "apologetic",
        -13.724013038992382
      ],
      [
        "jai",
        -12.644142752952908
      ],
      [
        "▁disenfranchise",
        -12.271024939758576
      ],
      [
        ",300",
        -12.803982360712016
      ],
      [
        "▁allocat",
        -11.237040598097849
      ],
      [
        "▁starr",
        -11.531963036077855
      ],
      [
        "▁pre-fab",
        -12.771025033914853
      ],
      [
        "▁bubble",
        -9.879614711968017
      ],
      [
        "▁uh",
        -7.2775824444014905
      ],
      [
        "ini",
        -11.584996771609498
      ],
      [
        "▁10:4",
        -12.397343587659025
      ],
      [
        "!!!!!!!",
        -11.378490256407192
      ],
      [
        "▁souvenir",
        -12.771024945763486
      ],
      [
        "dan",
        -11.181267619385988
      ],
      [
        "▁til",
        -12.301726577056355
      ],
      [
        "▁hizb",
        -12.27102981354219
      ],
      [
        "thograph",
        -12.798782618940262
      ],
      [
        "▁clump",
        -11.938820070926965
      ],
      [
        "do",
        -10.3781340941656
      ],
      [
        "▁policymak",
        -11.186097550214484
      ],
      [
        "▁energy",
        -8.436206229233992
      ],
      [
        "▁drizzle",
        -12.370055109604822
      ],
      [
        "och",
        -12.918959700262555
      ],
      [
        "▁bigge",
        -8.913034209574072
      ],
      [
        "▁hub",
        -11.366333878990952
      ],
      [
        "▁adopt",
        -9.159658775389747
      ],
      [
        "▁valid",
        -10.275033958472543
      ],
      [
        "▁hike",
        -11.739690896863879
      ],
      [
        "▁blood",
        -9.19516757105282
      ],
      [
        "baath",
        -12.729367039909544
      ],
      [
        "▁thro",
        -12.189584710418385
      ],
      [
        "▁cancel",
        -10.510747732023765
      ],
      [
        "ct",
        -9.519962088824975
      ],
      [
        "▁perve",
        -11.716235691192754
      ],
      [
        "▁glisten",
        -11.93769220996791
      ],
      [
        "ase",
        -10.78973269745037
      ],
      [
        "irr",
        -12.829351814011266
      ],
      [
        "▁6/1",
        -13.680375511970919
      ],
      [
        ".5",
        -11.877263202958112
      ],
      [
        "▁spew",
        -12.771126417274877
      ],
      [
        "▁active",
        -9.550458635502546
      ],
      [
        "▁comfort",
        -10.52427729978768
      ],
      [
        "..",
        -11.613151332723893
      ],
      [
        "!!!!!!!!!!!!!",
        -12.30698754839941
      ],
      [
        "▁bathroom",
        -9.233058033756842
      ],
      [
        "▁consultant",
        -12.27290581291799
      ],
      [
        "▁reciproc",
        -11.937691585514388
      ],
      [
        "▁spence",
        -11.712372643450642
      ],
      [
        "nic",
        -13.401220110952993
      ],
      [
        "ci",
        -12.78063740690619
      ],
      [
        "▁sj",
        -11.079100537701738
      ],
      [
        "▁over",
        -7.215890673759656
      ],
      [
        "elia",
        -10.97113783670728
      ],
      [
        "▁bernard",
        -10.942070835545112
      ],
      [
        "▁booz",
        -12.278133964029148
      ],
      [
        "▁ex",
        -10.27708053350082
      ],
      [
        "broad",
        -10.413503207281135
      ],
      [
        "▁repurpos",
        -12.771027140727037
      ],
      [
        "▁cur",
        -11.638933819015957
      ],
      [
        "▁at",
        -10.976289584009782
      ],
      [
        "▁soak",
        -10.936603298325002
      ],
      [
        "eath",
        -11.715181701680768
      ],
      [
        "course",
        -11.799888102261692
      ],
      [
        "▁migrat",
        -12.507267152563568
      ],
      [
        "▁india",
        -8.531676135239588
      ],
      [
        "▁twin",
        -10.942643526416463
      ],
      [
        "ile",
        -11.870530406756517
      ],
      [
        "london",
        -11.899140248609225
      ],
      [
        "structure",
        -13.721703988003894
      ],
      [
        "wart",
        -10.317850694067541
      ],
      [
        "▁passion",
        -10.279719718984444
      ],
      [
        "177",
        -13.361139344580991
      ],
      [
        "hobh",
        -11.001611438055935
      ],
      [
        "▁budd",
        -10.446999528718639
      ],
      [
        "chum",
        -12.454660297130012
      ],
      [
        "oming",
        -11.768811367263895
      ],
      [
        "to",
        -10.339334777003861
      ],
      [
        "▁prophet",
        -10.945837062531197
      ],
      [
        "▁disadvantage",
        -12.27102492484887
      ],
      [
        "▁pa",
        -9.68578111468014
      ],
      [
        "▁advert",
        -10.520561557170847
      ],
      [
        "l",
        -6.231528932805012
      ],
      [
        "▁platt",
        -11.902913622514717
      ],
      [
        "▁u",
        -13.940905803883194
      ],
      [
        "-ne",
        -12.935764265284918
      ],
      [
        "▁presume",
        -11.688145187853435
      ],
      [
        "▁pheno",
        -12.24893491085319
      ],
      [
        "▁21",
        -9.720348909308498
      ],
      [
        "g",
        -6.298432668733277
      ],
      [
        "▁yoursel",
        -9.209680784957502
      ],
      [
        "shoe",
        -12.941340341393405
      ],
      [
        "▁kansa",
        -8.510107757168509
      ],
      [
        "m",
        -4.126316415305993
      ],
      [
        "▁domin",
        -12.548617372418356
      ],
      [
        "▁christin",
        -12.395612592187698
      ],
      [
        "wig",
        -10.8958632392089
      ],
      [
        "scape",
        -11.938412213761755
      ],
      [
        "ksm",
        -11.205878351249234
      ],
      [
        "▁guine",
        -10.670042433102445
      ],
      [
        "mike",
        -8.856429272855694
      ],
      [
        "fluent",
        -11.438655837047975
      ],
      [
        "▁ninety",
        -11.077728537876116
      ],
      [
        "▁nanc",
        -10.881533727840322
      ],
      [
        "▁electronic",
        -10.331561174480315
      ],
      [
        "▁bil",
        -11.503810032817338
      ],
      [
        "▁swim",
        -10.17222132302193
      ],
      [
        "▁contingent",
        -12.272274126403218
      ],
      [
        "tyler",
        -11.051153778674085
      ],
      [
        "enos",
        -11.181490156242058
      ],
      [
        "aire",
        -11.527976900470591
      ],
      [
        "▁rivalr",
        -12.276077980817385
      ],
      [
        "▁kent",
        -9.922484047122593
      ],
      [
        "▁futurist",
        -12.938901760750209
      ],
      [
        "▁pointe",
        -12.627479262789542
      ],
      [
        "kee",
        -8.004581105559133
      ],
      [
        "coming",
        -10.78428875000018
      ],
      [
        "▁dissatisf",
        -11.321045863615812
      ],
      [
        "▁abundan",
        -11.682791042857508
      ],
      [
        "▁government",
        -7.779980431184556
      ],
      [
        "▁arrangement",
        -9.917174660111236
      ],
      [
        "▁kn",
        -12.404742774922447
      ],
      [
        "▁repair",
        -9.142569246119862
      ],
      [
        "▁flew",
        -10.667988761910237
      ],
      [
        "▁prop",
        -11.814543183060648
      ],
      [
        "▁pea",
        -11.136137467423406
      ],
      [
        "view",
        -10.711960720293195
      ],
      [
        "▁characteristic",
        -10.753269987225362
      ],
      [
        "winds",
        -11.651785058686649
      ],
      [
        "thi",
        -7.468707088522826
      ],
      [
        "▁rotte",
        -12.07790004493205
      ],
      [
        "▁whisper",
        -10.842059240047954
      ],
      [
        "▁supplier",
        -11.493178500807241
      ],
      [
        "▁slipper",
        -10.598444988833762
      ],
      [
        "▁yum",
        -11.95642185555182
      ],
      [
        "bc",
        -11.968397221973099
      ],
      [
        "▁stunt",
        -12.288104816528445
      ],
      [
        "▁curricul",
        -12.23541971851069
      ],
      [
        "▁sil",
        -11.76037449306672
      ],
      [
        "fro",
        -7.918171548395992
      ],
      [
        "▁zac",
        -11.02143769728193
      ],
      [
        "levant",
        -11.59002399645257
      ],
      [
        "▁producer",
        -10.046877767173548
      ],
      [
        "▁assassinate",
        -11.32492457341762
      ],
      [
        "▁12",
        -8.71671642994368
      ],
      [
        "pakistan",
        -12.732979813067887
      ],
      [
        "▁follow",
        -8.130827517318195
      ],
      [
        "ibble",
        -12.971995059150897
      ],
      [
        "▁central",
        -9.124706542098671
      ],
      [
        "naire",
        -12.940305238354611
      ],
      [
        "▁risk",
        -8.832129357431555
      ],
      [
        "▁rename",
        -11.945877283387489
      ],
      [
        "▁carne",
        -10.902487916648898
      ],
      [
        "▁evans",
        -10.998597790038184
      ],
      [
        "▁identifie",
        -9.776044122463443
      ],
      [
        "▁brain",
        -9.306787388137078
      ],
      [
        "4:5",
        -14.567715117453755
      ],
      [
        "ership",
        -12.593389742420852
      ],
      [
        "▁persu",
        -12.776901014362448
      ],
      [
        "▁squire",
        -12.305720986815059
      ],
      [
        "kept",
        -8.681752012304464
      ],
      [
        "▁terra",
        -11.584976017875569
      ],
      [
        "▁declar",
        -10.889279765342447
      ],
      [
        "▁embod",
        -12.78927071110691
      ],
      [
        "zola",
        -11.943174181344117
      ],
      [
        "▁encourage",
        -9.569438717250877
      ],
      [
        "▁2/",
        -14.396171217010771
      ],
      [
        "707",
        -13.147084992139545
      ],
      [
        "▁clark",
        -11.491385380126822
      ],
      [
        "▁reconstruct",
        -11.876776644459401
      ],
      [
        "scale",
        -11.905341699143776
      ],
      [
        "▁flie",
        -9.786389637578026
      ],
      [
        "location",
        -11.55925886484914
      ],
      [
        "▁bram",
        -13.583274477295488
      ],
      [
        "▁manufacture",
        -11.456300009737031
      ],
      [
        "freeze",
        -12.231930919296405
      ],
      [
        "▁frogg",
        -12.259515300570554
      ],
      [
        "▁bon",
        -11.541878356723414
      ],
      [
        "▁corpora",
        -12.267629013503564
      ],
      [
        "▁facult",
        -10.27591835650351
      ],
      [
        "▁brad",
        -10.853172441933289
      ],
      [
        "▁striking",
        -10.942056793726847
      ],
      [
        "▁fuss",
        -11.059114982851101
      ],
      [
        "imag",
        -13.689705557446539
      ],
      [
        "▁ridiculous",
        -10.84212537875476
      ],
      [
        "▁queen",
        -10.862078708911413
      ],
      [
        "▁libr",
        -11.065305813259158
      ],
      [
        "▁charit",
        -10.87910950168734
      ],
      [
        "anish",
        -13.685983796282315
      ],
      [
        "▁contribution",
        -9.609763487113302
      ],
      [
        "▁ab",
        -11.009315530810373
      ],
      [
        "▁toss",
        -11.192816930011016
      ],
      [
        "▁cancell",
        -11.973609498385768
      ],
      [
        "▁feather",
        -9.776197841816732
      ],
      [
        "▁glen",
        -11.48027665278649
      ],
      [
        "off",
        -10.177103808200409
      ],
      [
        "▁lea",
        -11.379775784342232
      ],
      [
        "▁hut",
        -11.031820940061476
      ],
      [
        "▁--",
        -7.940506446943768
      ],
      [
        "▁ambassador",
        -11.321024918841626
      ],
      [
        "▁ascetic",
        -11.687714356342942
      ],
      [
        "▁chateau",
        -12.27138747652835
      ],
      [
        "▁em",
        -12.406503164720261
      ],
      [
        "▁launcher",
        -11.729705831522026
      ],
      [
        "▁taunt",
        -11.938198023609866
      ],
      [
        "▁uppercas",
        -12.782496917401872
      ],
      [
        "▁flatten",
        -12.272012858308942
      ],
      [
        "▁190",
        -11.796319890941165
      ],
      [
        "▁anti-american",
        -12.77107331120149
      ],
      [
        "▁bonus",
        -11.322559543985987
      ],
      [
        "▁cultural",
        -8.940167763278254
      ],
      [
        "ry@enron",
        -11.848195031338767
      ],
      [
        "▁multiplie",
        -12.771037929163425
      ],
      [
        "▁quant",
        -12.245125858294653
      ],
      [
        "▁marketplace",
        -12.274455743224923
      ],
      [
        "▁enforce",
        -11.385304122398612
      ],
      [
        "▁fashion",
        -10.128481744243299
      ],
      [
        "loiter",
        -12.796147292322106
      ],
      [
        "▁decei",
        -12.793743511515107
      ],
      [
        "-size",
        -12.628541845438626
      ],
      [
        "▁overall",
        -9.142117926059184
      ],
      [
        "▁bloody",
        -10.846417317462613
      ],
      [
        "exhausti",
        -12.224414438093401
      ],
      [
        "▁clin",
        -11.48008035036357
      ],
      [
        "vin",
        -12.001076051216183
      ],
      [
        "▁modes",
        -11.765354435087412
      ],
      [
        "▁intermediar",
        -12.27103299736542
      ],
      [
        "▁ignoran",
        -10.37983086032456
      ],
      [
        "▁obscur",
        -12.458986516434445
      ],
      [
        "▁sporulat",
        -12.771025282639169
      ],
      [
        "▁loath",
        -12.771977443813862
      ],
      [
        "▁marin",
        -12.025946043040774
      ],
      [
        "▁fab",
        -12.751020966142542
      ],
      [
        "▁child",
        -8.346402045167022
      ],
      [
        "461",
        -13.307979721832812
      ],
      [
        "▁compuls",
        -12.138846484257456
      ],
      [
        "clock",
        -11.727864825242133
      ],
      [
        "ʒ",
        -12.771024918840544
      ],
      [
        "▁optimis",
        -11.12861898671271
      ],
      [
        "▁barb",
        -11.122910597253032
      ],
      [
        "▁tant",
        -11.515397395232997
      ],
      [
        "▁influ",
        -11.938938453649344
      ],
      [
        "hear",
        -12.140187242508556
      ],
      [
        "▁greeting",
        -10.33609113564849
      ],
      [
        "f-",
        -11.064041680389467
      ],
      [
        "ile",
        -12.729286221543994
      ],
      [
        "▁enterprise",
        -10.842927906126402
      ],
      [
        "▁creak",
        -12.273074131202158
      ],
      [
        "▁sentimental",
        -12.78183282498447
      ],
      [
        "▁philip",
        -11.325978413441156
      ],
      [
        "▁lord",
        -10.131717748259728
      ],
      [
        "▁pool",
        -9.758339218205256
      ],
      [
        "▁turn",
        -7.44566673299254
      ],
      [
        "▁apples",
        -11.064731109965845
      ],
      [
        "▁gravit",
        -11.075176199333315
      ],
      [
        "▁sadr",
        -11.340690580602963
      ],
      [
        "▁sper",
        -13.25625495807749
      ],
      [
        "ell",
        -11.871927484342326
      ],
      [
        "members",
        -12.746378175484114
      ],
      [
        "▁trunk",
        -10.519472150008944
      ],
      [
        "▁die",
        -8.057179910759185
      ],
      [
        "▁cor",
        -10.732409848009189
      ],
      [
        "▁intellectual",
        -10.223285778690714
      ],
      [
        "rado",
        -11.349301113651752
      ],
      [
        "/4",
        -14.507837677050667
      ],
      [
        "▁twenty-f",
        -12.946639624578596
      ],
      [
        "▁o",
        -10.961654798814939
      ],
      [
        "▁abo",
        -12.294097976718358
      ],
      [
        "emma",
        -10.548182546709164
      ],
      [
        "▁unbeat",
        -12.425415508644583
      ],
      [
        "▁o'ne",
        -12.281402460089884
      ],
      [
        "▁intertext",
        -12.272339757748995
      ],
      [
        "▁corner",
        -9.264345518022349
      ],
      [
        "▁marginali",
        -11.948976536583857
      ],
      [
        "▁formation",
        -12.02588648407334
      ],
      [
        "▁we",
        -11.031951154787404
      ],
      [
        "▁tummy",
        -9.776143651579552
      ],
      [
        "▁international",
        -8.037630768109947
      ],
      [
        "▁carry",
        -8.74786032819355
      ],
      [
        "▁advocate",
        -11.48769158599841
      ],
      [
        "▁estimate",
        -9.119225003796716
      ],
      [
        "ac-",
        -11.992305205040475
      ],
      [
        "umara",
        -12.772598799948256
      ],
      [
        "▁domino",
        -11.689044416609697
      ],
      [
        "▁carni",
        -10.592506058465757
      ],
      [
        "▁business",
        -7.779955117239607
      ],
      [
        "▁plant",
        -8.526813124392387
      ],
      [
        "▁mixture",
        -10.519572626652506
      ],
      [
        "▁hind",
        -11.444034329834569
      ],
      [
        "▁terribl",
        -9.254060597216991
      ],
      [
        "▁strong",
        -8.200403239249017
      ],
      [
        "▁madr",
        -12.479479108836003
      ],
      [
        "▁po",
        -9.973674005390842
      ],
      [
        "citation",
        -13.529572609913577
      ],
      [
        "sonic",
        -11.73678908921507
      ],
      [
        "tentious",
        -13.14947756068728
      ],
      [
        "▁baron",
        -12.335433246114581
      ],
      [
        "▁euros",
        -13.003149042315341
      ],
      [
        "▁pel",
        -12.774833086456404
      ],
      [
        "▁warp",
        -11.665891491435389
      ],
      [
        "▁cei",
        -11.457929639250214
      ],
      [
        "▁that",
        -9.043178361988634
      ],
      [
        "o@",
        -12.92012682392936
      ],
      [
        "▁brag",
        -13.646567595789717
      ],
      [
        "▁marking",
        -12.028236256129022
      ],
      [
        "up",
        -9.084873353512815
      ],
      [
        "▁industrialist",
        -11.939431589794607
      ],
      [
        "ma",
        -13.489069089140443
      ],
      [
        "▁offici",
        -12.261496970079394
      ],
      [
        "ever",
        -7.490676714588052
      ],
      [
        "▁propose",
        -9.069591722304178
      ],
      [
        "▁hospital",
        -9.124766813551542
      ],
      [
        "▁molecul",
        -11.20084787929737
      ],
      [
        "09/20",
        -13.900643861991314
      ],
      [
        "▁flipp",
        -11.700614831769833
      ],
      [
        "poly",
        -11.631933393073142
      ],
      [
        "▁abbreviation",
        -11.053167776861596
      ],
      [
        "▁hoove",
        -12.651481246324366
      ],
      [
        "▁attribut",
        -11.95759795433451
      ],
      [
        "▁.2",
        -12.818583968968841
      ],
      [
        "▁paddistocksh",
        -11.93769167101775
      ],
      [
        "process",
        -12.232932216596499
      ],
      [
        "▁weekend",
        -9.011915090337943
      ],
      [
        "date",
        -12.443194262901976
      ],
      [
        "▁iot",
        -11.938722194848221
      ],
      [
        "▁simulate",
        -12.592356459395061
      ],
      [
        "▁asyl",
        -10.458381563352386
      ],
      [
        "essie",
        -11.04380442293721
      ],
      [
        "▁redeem",
        -11.48786969077437
      ],
      [
        "▁aphid",
        -12.771052441425233
      ],
      [
        "mona",
        -13.598854212644572
      ],
      [
        "▁chatt",
        -11.019744184084697
      ],
      [
        "russel",
        -11.356913009730754
      ],
      [
        "ida",
        -10.104367638237713
      ],
      [
        "▁invasi",
        -10.942095951731849
      ],
      [
        "▁grum",
        -12.773583420397559
      ],
      [
        "▁speck",
        -11.693007239374024
      ],
      [
        "kinaw",
        -10.23547974738146
      ],
      [
        "ight",
        -7.917709111600755
      ],
      [
        "▁sent",
        -8.4663570374647
      ],
      [
        "▁indulge",
        -12.024517770520548
      ],
      [
        "▁appointment",
        -9.712551705773633
      ],
      [
        "▁sigh",
        -10.937067965604363
      ],
      [
        "▁ottle",
        -12.772475151891646
      ],
      [
        "▁spontaneous",
        -12.271251722246493
      ],
      [
        "u",
        -7.903191793250448
      ],
      [
        "▁boast",
        -11.180389409068788
      ],
      [
        "clusion",
        -13.479792938709988
      ],
      [
        "one",
        -10.618925815360097
      ],
      [
        "yaho",
        -12.277508037202423
      ],
      [
        "ntana",
        -11.321659201303932
      ],
      [
        "human",
        -11.648871704380753
      ],
      [
        "altho",
        -11.74134684819306
      ],
      [
        "▁katherin",
        -11.93888387143246
      ],
      [
        "ch",
        -8.197892680772354
      ],
      [
        "▁offer",
        -8.167962577761394
      ],
      [
        "▁helicopter",
        -10.390295925599684
      ],
      [
        "▁heap",
        -11.938964969262262
      ],
      [
        "b.",
        -12.033788032754092
      ],
      [
        "▁exc",
        -12.60606164280532
      ],
      [
        "▁socio-",
        -12.771296892976373
      ],
      [
        "▁universidad",
        -11.937694863800035
      ],
      [
        "▁ahmad",
        -12.773178251757242
      ],
      [
        "▁hop",
        -11.83466611609779
      ],
      [
        "▁limb",
        -10.279254871447757
      ],
      [
        "5:1",
        -12.952843723349197
      ],
      [
        "call",
        -12.89765881635029
      ],
      [
        "▁pris",
        -12.595398130303602
      ],
      [
        "huff",
        -12.86607409176559
      ],
      [
        "▁pay",
        -8.083696239427066
      ],
      [
        "▁michi",
        -10.33197351609421
      ],
      [
        "▁imprison",
        -10.667814244305625
      ],
      [
        "argument",
        -11.649547414759255
      ],
      [
        "ll",
        -11.63392656839943
      ],
      [
        "▁++",
        -13.436075599114549
      ],
      [
        "▁brigade",
        -11.690968705393889
      ],
      [
        "▁relativ",
        -12.597671249284108
      ],
      [
        "kistan",
        -12.82374539699424
      ],
      [
        "urgenc",
        -12.470388770865572
      ],
      [
        "▁host",
        -9.491603520472465
      ],
      [
        "....",
        -10.495299798696006
      ],
      [
        "▁dud",
        -10.087135544004754
      ],
      [
        "-of-the-",
        -13.650929239113397
      ],
      [
        "琴",
        -12.833785825435129
      ],
      [
        "▁astronom",
        -12.265607756995493
      ],
      [
        "▁dollar",
        -8.186979842646153
      ],
      [
        "years",
        -9.834647757761092
      ],
      [
        "urs",
        -11.334386090581136
      ],
      [
        "▁classmate",
        -12.272993785575025
      ],
      [
        "▁arbitrari",
        -12.343547915873714
      ],
      [
        "6",
        -10.26599511151797
      ],
      [
        "755",
        -14.450526138564243
      ],
      [
        "▁fo",
        -12.838710837665342
      ],
      [
        "cia",
        -13.345864833292708
      ],
      [
        "benne",
        -13.348140867517197
      ],
      [
        "consumer",
        -13.722840040008858
      ],
      [
        "cile",
        -12.089836697053984
      ],
      [
        "▁bond",
        -10.047663536153099
      ],
      [
        "after",
        -11.63697640333626
      ],
      [
        "▁demo",
        -11.111657638048138
      ],
      [
        "▁cow",
        -9.080757271103298
      ],
      [
        "fr",
        -13.637637297361698
      ],
      [
        "level",
        -12.73842365596187
      ],
      [
        "skitt",
        -13.715990797339833
      ],
      [
        "▁guer",
        -12.294420405811902
      ],
      [
        "▁hat",
        -8.497842149105196
      ],
      [
        "▁intermediat",
        -11.937721353105452
      ],
      [
        "sco",
        -13.086853450278896
      ],
      [
        "▁vladi",
        -11.321024924313683
      ],
      [
        "is",
        -7.5887397610774
      ],
      [
        "▁supervise",
        -13.002471226300772
      ],
      [
        "▁bunk",
        -11.49736732466651
      ],
      [
        "▁bount",
        -13.45005268001151
      ],
      [
        "▁02",
        -12.852745059953296
      ],
      [
        "-personal",
        -13.635902916293267
      ],
      [
        "te",
        -10.853311653238517
      ],
      [
        "▁05908",
        -14.1378574751992
      ],
      [
        "ced",
        -12.752075754843505
      ],
      [
        "calf",
        -11.529826154473866
      ],
      [
        "▁1,",
        -11.196637822129151
      ],
      [
        "▁sandi",
        -12.526209662785801
      ],
      [
        "rations",
        -12.491177346469147
      ],
      [
        "▁division",
        -9.844638388336918
      ],
      [
        "▁12",
        -11.324231453423234
      ],
      [
        "▁trivia",
        -11.930174224362588
      ],
      [
        "rise",
        -11.919168930655324
      ],
      [
        "▁architectural",
        -11.194742525434389
      ],
      [
        "▁nandaro",
        -11.378131439771888
      ],
      [
        "▁fif",
        -11.677174629615756
      ],
      [
        "▁post",
        -8.30038995195396
      ],
      [
        "▁rope",
        -10.4528410042971
      ],
      [
        "2/22/200",
        -13.31876325343751
      ],
      [
        "▁tob",
        -11.716843047239971
      ],
      [
        "▁bour",
        -12.680587842162298
      ],
      [
        "▁applau",
        -11.299740094213568
      ],
      [
        "gate",
        -11.347888978168545
      ],
      [
        "▁di",
        -8.187060580328158
      ],
      [
        "5-5",
        -14.771435945680576
      ],
      [
        "▁chanti",
        -11.659849339827964
      ],
      [
        "-see",
        -12.775024681319424
      ],
      [
        "missiv",
        -12.77670025726203
      ],
      [
        "ria",
        -11.73691810135671
      ],
      [
        "fill",
        -11.021985724068747
      ],
      [
        "▁search",
        -9.148471293524906
      ],
      [
        "ho",
        -15.25680992906695
      ],
      [
        "▁will",
        -9.24605846161403
      ],
      [
        "^",
        -10.478257699563935
      ],
      [
        "cap",
        -12.933563407044753
      ],
      [
        "▁rang",
        -10.13573466934331
      ],
      [
        ".us",
        -13.02517708188723
      ],
      [
        "▁gradua",
        -13.650232353614708
      ],
      [
        "▁peace",
        -8.64461842137532
      ],
      [
        "▁absent",
        -10.673908665613073
      ],
      [
        "▁you",
        -11.582074324605305
      ],
      [
        "▁755",
        -13.738721046877316
      ],
      [
        "▁sport",
        -9.357616770458497
      ],
      [
        "▁come",
        -6.508327616769699
      ],
      [
        "▁steps",
        -9.433483485824075
      ],
      [
        "communication",
        -12.733014089148073
      ],
      [
        "▁underpinn",
        -12.773069328587495
      ],
      [
        "▁burke",
        -12.271923547238162
      ],
      [
        "political",
        -13.730392201363795
      ],
      [
        "iv",
        -11.113264430465758
      ],
      [
        "▁brita",
        -11.266975077337849
      ],
      [
        "▁dock",
        -11.082922227136638
      ],
      [
        "▁gis",
        -10.512233618311198
      ],
      [
        "ombard",
        -12.770628371620075
      ],
      [
        "ter",
        -9.167958002228128
      ],
      [
        "▁deferent",
        -12.771030807185252
      ],
      [
        "chan",
        -13.448786881018389
      ],
      [
        "▁signoff",
        -11.178890432837717
      ],
      [
        "sun",
        -13.006053659873142
      ],
      [
        "along",
        -11.988352002306266
      ],
      [
        "▁noise",
        -9.093442802863276
      ],
      [
        "▁peddle",
        -12.27113937639196
      ],
      [
        "acture",
        -11.957018755348962
      ],
      [
        "▁shudder",
        -11.937694060605413
      ],
      [
        "▁contributor",
        -12.27556568345537
      ],
      [
        "▁accurate",
        -9.845963564515523
      ],
      [
        "46",
        -12.718803367026004
      ],
      [
        "▁acquitt",
        -12.771069811197
      ],
      [
        "metcalfe",
        -12.771120995749055
      ],
      [
        "▁penta",
        -13.47990592594265
      ],
      [
        "▁subdu",
        -13.259274601489976
      ],
      [
        "▁loss",
        -9.869672316509153
      ],
      [
        "retta",
        -11.9141864305576
      ],
      [
        "▁four",
        -8.19459969449109
      ],
      [
        "▁supplement",
        -10.75122471351771
      ],
      [
        "ice",
        -10.671132192785878
      ],
      [
        "▁masse",
        -11.966305028889161
      ],
      [
        "▁goblin",
        -11.687698643667948
      ],
      [
        "▁opi",
        -12.801981968141284
      ],
      [
        "▁jagge",
        -12.808711886054503
      ],
      [
        "thor",
        -12.232531586420997
      ],
      [
        "▁favorabl",
        -11.58122076799142
      ],
      [
        "▁hami",
        -13.274922241176482
      ],
      [
        "▁realist",
        -10.399955784896154
      ],
      [
        "▁hyper",
        -11.689127138478597
      ],
      [
        "oise",
        -12.067213743643661
      ],
      [
        "▁what",
        -11.236359232969104
      ],
      [
        "▁forum",
        -10.459905129392702
      ],
      [
        "jector",
        -12.268415599275533
      ],
      [
        "ura",
        -11.05574696324475
      ],
      [
        "rift",
        -12.766015761658949
      ],
      [
        "[",
        -12.771024918880496
      ],
      [
        "▁epit",
        -12.787176163425706
      ],
      [
        "▁galle",
        -12.812421025290538
      ],
      [
        "in/",
        -13.488847829405005
      ],
      [
        "▁massage",
        -11.490318048123994
      ],
      [
        "▁qualit",
        -8.292803398280194
      ],
      [
        "▁scenario",
        -10.3314723961986
      ],
      [
        "▁approximate",
        -9.957490745443224
      ],
      [
        "▁contractor",
        -11.187331795844182
      ],
      [
        "chronic",
        -13.042056684528083
      ],
      [
        "▁though",
        -8.493401804165082
      ],
      [
        "▁islamist",
        -10.082448690286071
      ],
      [
        "▁certificate",
        -10.129745803559697
      ],
      [
        "▁fluff",
        -11.05597111804646
      ],
      [
        "▁enroll",
        -11.688499362570369
      ],
      [
        "▁brows",
        -12.25702389729704
      ],
      [
        "ils",
        -11.189769926351836
      ],
      [
        "▁103",
        -13.542774831643692
      ],
      [
        "quat",
        -12.436499613873567
      ],
      [
        "chi",
        -10.723158118718592
      ],
      [
        "▁leban",
        -10.753313469376023
      ],
      [
        "▁graz",
        -12.790541958305498
      ],
      [
        "▁hugg",
        -11.715287093171789
      ],
      [
        "▁tonn",
        -12.816392622966198
      ],
      [
        "▁soft",
        -9.073710756614965
      ],
      [
        "▁holly",
        -11.109423346798756
      ],
      [
        "adequate",
        -11.98711789397736
      ],
      [
        "ualit",
        -12.815279023061855
      ],
      [
        "▁distress",
        -12.27106973503174
      ],
      [
        "ders",
        -13.345655991462763
      ],
      [
        "▁aft",
        -12.836827706927231
      ],
      [
        "discriminate",
        -12.269778367142026
      ],
      [
        "tes",
        -12.617106815335635
      ],
      [
        ":32",
        -12.490201473690341
      ],
      [
        "“",
        -6.515170392843602
      ],
      [
        "▁tutorial",
        -11.944952464808402
      ],
      [
        "ro",
        -11.369268642045473
      ],
      [
        "▁catalog",
        -11.519805211418184
      ],
      [
        "▁resemble",
        -11.520714677292336
      ],
      [
        "leen",
        -11.627284023512916
      ],
      [
        "ad",
        -13.093669832419435
      ],
      [
        "▁qui",
        -10.907825683516243
      ],
      [
        "ll",
        -5.735079957665786
      ],
      [
        "hman",
        -11.74740749392213
      ],
      [
        "iture",
        -12.306597024417758
      ],
      [
        "le",
        -7.096916322400643
      ],
      [
        "α",
        -11.833785825395173
      ],
      [
        "▁transformati",
        -11.875037073748429
      ],
      [
        "▁behave",
        -11.688952752187024
      ],
      [
        "▁dott",
        -12.757564435596748
      ],
      [
        "side",
        -8.89657388628326
      ],
      [
        "graph",
        -12.491458622932191
      ],
      [
        "text",
        -12.758361061874982
      ],
      [
        "▁poet",
        -9.272168215173696
      ],
      [
        "▁jafar",
        -11.499833672163664
      ],
      [
        "▁pressur",
        -12.734946648428119
      ],
      [
        "write",
        -13.580019822118674
      ],
      [
        "▁chouan",
        -12.771186900269424
      ],
      [
        "ulf",
        -13.581160263910851
      ],
      [
        "▁p.m",
        -10.340852781310012
      ],
      [
        "▁scorpio",
        -12.766065042787742
      ],
      [
        "▁eternal",
        -11.691311019178553
      ],
      [
        "▁second-",
        -11.727312159595332
      ],
      [
        "▁according",
        -8.693495186282604
      ],
      [
        "▁memoir",
        -10.751183445389968
      ],
      [
        "ti",
        -11.721458890591762
      ],
      [
        "▁sara",
        -8.387410189491597
      ],
      [
        "ya",
        -12.271013452895533
      ],
      [
        "usi",
        -10.751881598698496
      ],
      [
        "nonym",
        -10.944557569313117
      ],
      [
        "grade",
        -11.631009745235959
      ],
      [
        "▁casual",
        -10.71995899236765
      ],
      [
        "`",
        -11.307802325334926
      ],
      [
        "▁painting",
        -9.338134997613142
      ],
      [
        "▁lega",
        -10.445830851845756
      ],
      [
        "▁yawn",
        -11.32143861203171
      ],
      [
        "ill",
        -10.131124135757073
      ],
      [
        "▁gnaw",
        -12.271538892431087
      ],
      [
        "9:5",
        -13.213451670145258
      ],
      [
        "▁br",
        -11.017214790090824
      ],
      [
        "▁abdul",
        -11.261791599030861
      ],
      [
        "▁adhere",
        -12.384157533049688
      ],
      [
        "itude",
        -11.517604043635856
      ],
      [
        "▁uran",
        -12.84260346586187
      ],
      [
        "▁nam",
        -10.767186663273295
      ],
      [
        "▁geograph",
        -11.937546970544918
      ],
      [
        "▁plau",
        -12.584880937981302
      ],
      [
        "nik",
        -11.391804607005728
      ],
      [
        "▁fluent",
        -12.012584663685397
      ],
      [
        "opher",
        -10.70034284528143
      ],
      [
        "illin",
        -12.935865143511736
      ],
      [
        "▁inactiv",
        -13.035548544402719
      ],
      [
        "▁....",
        -10.491737081619904
      ],
      [
        "420",
        -13.637063103502197
      ],
      [
        "▁steep",
        -11.937694883576723
      ],
      [
        "▁elizabeth",
        -10.751147573987314
      ],
      [
        "enovate",
        -11.687660860905828
      ],
      [
        "▁thorough",
        -10.51949050376744
      ],
      [
        "▁az",
        -12.132484287756474
      ],
      [
        "▁hire",
        -9.948603565507993
      ],
      [
        "▁keen",
        -10.830931347045773
      ],
      [
        "▁supple",
        -12.770454684755299
      ],
      [
        "▁locate",
        -9.379792752675682
      ],
      [
        "▁analytic",
        -11.489500052301835
      ],
      [
        "▁nun",
        -12.574840033727487
      ],
      [
        "ف",
        -12.833785825435129
      ],
      [
        "▁morph",
        -13.683000284106162
      ],
      [
        "▁sin",
        -10.974806028051116
      ],
      [
        "cargill",
        -10.223314256871282
      ],
      [
        "▁til",
        -14.239400027983452
      ],
      [
        "713-",
        -15.20242320856917
      ],
      [
        "clause",
        -12.732368137543217
      ],
      [
        "▁penalt",
        -10.759648167918318
      ],
      [
        "akin",
        -12.642234539576735
      ],
      [
        "were",
        -13.682562872252992
      ],
      [
        "pal",
        -12.453399306718758
      ],
      [
        "olshe",
        -13.009136741893956
      ],
      [
        "ql",
        -11.420683513906084
      ],
      [
        "237",
        -13.823535084092077
      ],
      [
        "tra",
        -9.657570608654877
      ],
      [
        "▁betray",
        -11.937914964864202
      ],
      [
        "▁remark",
        -9.76383202076653
      ],
      [
        "▁hunter",
        -11.707328572361758
      ],
      [
        "nning",
        -12.964695795476583
      ],
      [
        "logan",
        -11.365202985747215
      ],
      [
        "▁chew",
        -10.27650325259544
      ],
      [
        "▁the",
        -10.12855272682512
      ],
      [
        "sfo",
        -11.723716914706943
      ],
      [
        "▁probab",
        -12.20367533582008
      ],
      [
        "▁breakfast",
        -8.563943955483424
      ],
      [
        "du",
        -14.4639147343424
      ],
      [
        ".j",
        -12.286393513337476
      ],
      [
        "ctu",
        -12.134035743430363
      ],
      [
        "bour",
        -12.89380299570476
      ],
      [
        "▁hasht",
        -12.370924124612781
      ],
      [
        "▁derivative",
        -9.955066741223892
      ],
      [
        "▁prize",
        -10.275975941912822
      ],
      [
        "▁judi",
        -12.29836138705045
      ],
      [
        "/news/",
        -10.75079450233435
      ],
      [
        "▁storefront",
        -12.772643073767632
      ],
      [
        "▁code",
        -8.608836374102463
      ],
      [
        "▁indicate",
        -9.685963560282667
      ],
      [
        "▁sea",
        -7.994623863060849
      ],
      [
        "9/200",
        -11.994173130074632
      ],
      [
        "▁vaga",
        -12.791054647539255
      ],
      [
        "▁collin",
        -11.47486633894568
      ],
      [
        "▁row",
        -9.346129963483953
      ],
      [
        "▁middle-",
        -12.30270395039191
      ],
      [
        "▁even",
        -6.763263606964352
      ],
      [
        "▁sexual",
        -9.235626164867464
      ],
      [
        "bre",
        -13.172971136867977
      ],
      [
        "▁consequence",
        -9.87956816605267
      ],
      [
        "▁exhibit",
        -9.518046205234219
      ],
      [
        "bullfight",
        -12.772389140213877
      ],
      [
        "▁accomodat",
        -11.937692025663395
      ],
      [
        "▁ingest",
        -13.0584947425753
      ],
      [
        "▁generalize",
        -13.225563176063782
      ],
      [
        "▁midwest",
        -10.595631304913958
      ],
      [
        "▁baath",
        -11.956448781342695
      ],
      [
        "▁distributor",
        -12.777015127609694
      ],
      [
        "▁drown",
        -11.178265620760431
      ],
      [
        "urant",
        -12.772860668219911
      ],
      [
        "▁cripple",
        -11.937706328381198
      ],
      [
        "mes",
        -13.60209623287387
      ],
      [
        "bundle",
        -12.728554384364768
      ],
      [
        "▁mi",
        -11.290189893230615
      ],
      [
        "▁loc",
        -12.125835237962606
      ],
      [
        "▁kra",
        -12.29975264800211
      ],
      [
        "▁cha",
        -9.888931334754512
      ],
      [
        "▁tug",
        -10.842084043484277
      ],
      [
        "▁interpretation",
        -10.592014432028325
      ],
      [
        "▁sovereign",
        -10.519462601230423
      ],
      [
        "ou",
        -12.238124525840142
      ],
      [
        "▁different",
        -7.508521806021959
      ],
      [
        "▁boat",
        -8.519920887376216
      ],
      [
        "▁empire",
        -11.178167883095261
      ],
      [
        "birth",
        -11.282799320144926
      ],
      [
        "▁merg",
        -12.506006958774485
      ],
      [
        "▁repri",
        -12.813705421500925
      ],
      [
        "▁submitt",
        -10.531461490107805
      ],
      [
        "▁incidental",
        -12.070679831422886
      ],
      [
        "▁pollutant",
        -12.271294229949119
      ],
      [
        "▁examine",
        -10.335320211514293
      ],
      [
        "xl",
        -11.848180246930774
      ],
      [
        "▁striv",
        -10.772022547614304
      ],
      [
        "▁they",
        -5.616133746390839
      ],
      [
        "180",
        -13.395822881608929
      ],
      [
        "▁norm",
        -10.701516229587181
      ],
      [
        "▁enhance",
        -10.535142361603539
      ],
      [
        "6/",
        -13.566124420789023
      ],
      [
        "▁retail",
        -10.601441459406223
      ],
      [
        "word",
        -12.173197549677699
      ],
      [
        "shakes",
        -12.814335894205612
      ],
      [
        "asnondelibreaten",
        -11.833786315327183
      ],
      [
        "61",
        -12.975113719148483
      ],
      [
        "▁cour",
        -13.663018461799306
      ],
      [
        "▁gustav",
        -11.964091548195102
      ],
      [
        "▁testify",
        -12.291363733919935
      ],
      [
        "uc",
        -11.927679734974966
      ],
      [
        "▁exception",
        -10.142414733980065
      ],
      [
        "▁numeric",
        -12.772336703093865
      ],
      [
        "▁mysterious",
        -10.942214089038595
      ],
      [
        "▁murder",
        -9.416968879988966
      ],
      [
        "▁one",
        -6.3396020121112375
      ],
      [
        "▁expansi",
        -10.426450326561511
      ],
      [
        "[CLS]",
        0.0
      ],
      [
        "281",
        -13.085713180278189
      ],
      [
        "▁meditat",
        -11.844073377868993
      ],
      [
        "lotte",
        -8.361948391806447
      ],
      [
        "▁jess",
        -10.893005920365354
      ],
      [
        "▁erik",
        -11.937872333943208
      ],
      [
        "▁capabilit",
        -10.331657005169587
      ],
      [
        "045",
        -14.051548089164976
      ],
      [
        "▁’",
        -10.228851442284377
      ],
      [
        "read",
        -11.211394947208115
      ],
      [
        "598",
        -13.839166517124491
      ],
      [
        "unh",
        -12.090958139393953
      ],
      [
        "broke",
        -12.735325720917164
      ],
      [
        "epic",
        -11.370594919457815
      ],
      [
        "▁arrive",
        -7.855351789409799
      ],
      [
        "▁fabi",
        -11.492624960068731
      ],
      [
        "▁flunki",
        -11.941711005457249
      ],
      [
        "▁filipino",
        -12.77102493533198
      ],
      [
        "▁kingdom",
        -10.390395349414732
      ],
      [
        "▁optim",
        -11.77213294410007
      ],
      [
        "▁remarkabl",
        -10.354673016084785
      ],
      [
        "wa",
        -9.327411686636298
      ],
      [
        "▁bureaucratic",
        -11.937691587651218
      ],
      [
        "▁realiz",
        -10.56733488524753
      ],
      [
        "▁asht",
        -12.499783570796376
      ],
      [
        "3:2",
        -15.156802643993807
      ],
      [
        "▁mink",
        -12.309715308976115
      ],
      [
        "down",
        -10.059011562882215
      ],
      [
        "▁blur",
        -12.270388859693607
      ],
      [
        "▁chandelier",
        -11.937691598241594
      ],
      [
        "inuit",
        -12.271625633591059
      ],
      [
        "▁anna",
        -11.079328088412133
      ],
      [
        "▁raisin",
        -11.669493496174328
      ],
      [
        "consum",
        -12.97917611205517
      ],
      [
        "▁louis",
        -8.733955205646343
      ],
      [
        "-stain",
        -12.771489338830843
      ],
      [
        "configure",
        -13.079336219206539
      ],
      [
        "bbie",
        -10.50507119842176
      ],
      [
        "▁designate",
        -11.085916165704738
      ],
      [
        "▁assistan",
        -9.435637114811374
      ],
      [
        "▁misfortune",
        -11.937691585578253
      ],
      [
        "▁hyperlink",
        -12.771037306670106
      ],
      [
        "▁praise",
        -10.528923992709782
      ],
      [
        "▁permanent",
        -10.223285631064215
      ],
      [
        "▁matri",
        -11.93793145374194
      ],
      [
        "inth",
        -12.327358724807874
      ],
      [
        "▁telephon",
        -12.757678217768795
      ],
      [
        "▁successful",
        -9.076619171330098
      ],
      [
        "▁stopp",
        -8.837043180502244
      ],
      [
        "▁taper",
        -11.07934461933521
      ],
      [
        "▁myceli",
        -10.590891227903741
      ],
      [
        "▁sem",
        -11.874476277397626
      ],
      [
        "guard",
        -12.111231648022592
      ],
      [
        "▁fist",
        -11.503325375200124
      ],
      [
        "▁165",
        -13.33382968948013
      ],
      [
        "loon",
        -12.35102748268883
      ],
      [
        "▁advance",
        -9.227280155012155
      ],
      [
        "▁reassure",
        -11.594361006926597
      ],
      [
        "▁automate",
        -12.271159761902613
      ],
      [
        "▁harvest",
        -10.45332825493628
      ],
      [
        "treach",
        -12.857619617939054
      ],
      [
        "minute",
        -13.729298209120754
      ],
      [
        "▁speech",
        -9.776037855607964
      ],
      [
        "▁past",
        -8.379963428371191
      ],
      [
        "ison",
        -10.526677725204083
      ],
      [
        "▁ranking",
        -12.131807615582954
      ],
      [
        "-mak",
        -12.309672870686832
      ],
      [
        "▁compris",
        -13.348015488800364
      ],
      [
        "▁liza",
        -12.752044098731114
      ],
      [
        "▁crush",
        -10.78597685373635
      ],
      [
        "111",
        -12.788292034875845
      ],
      [
        "6/9",
        -12.808934602602186
      ],
      [
        "▁prison",
        -10.938452964313937
      ],
      [
        "▁se",
        -10.09553243254888
      ],
      [
        "▁messag",
        -11.684484762892899
      ],
      [
        "▁skie",
        -12.714602334810882
      ],
      [
        "▁story",
        -8.414758993731734
      ],
      [
        "▁burger",
        -10.667873172765905
      ],
      [
        "▁loyal",
        -11.321283034968825
      ],
      [
        "▁memorial",
        -10.668399185700693
      ],
      [
        "▁chain",
        -10.277916427938418
      ],
      [
        "▁masj",
        -12.776189029256997
      ],
      [
        "▁neurolog",
        -11.549615803286216
      ],
      [
        "▁",
        -1.3739155028004877
      ],
      [
        "chiba",
        -11.488831721530598
      ],
      [
        "▁challeng",
        -10.586586147629259
      ],
      [
        "▁spectacular",
        -10.590891193851833
      ],
      [
        "khan",
        -11.464443245281478
      ],
      [
        "za",
        -10.349882251650122
      ],
      [
        "▁335",
        -13.289610428496676
      ],
      [
        "▁apprehensi",
        -11.687694416117795
      ],
      [
        "▁product",
        -8.20667209902329
      ],
      [
        "▁retract",
        -12.69938248360112
      ],
      [
        "bro",
        -12.197640388031763
      ],
      [
        "moon",
        -12.742008601968422
      ],
      [
        "ausch",
        -12.819351779634648
      ],
      [
        "▁interpret",
        -10.353402451017407
      ],
      [
        "▁coa",
        -10.44451498491754
      ],
      [
        "▁'",
        -9.94311635916527
      ],
      [
        "▁professional",
        -8.81868493798937
      ],
      [
        "▁washing",
        -10.318235407494514
      ],
      [
        "▁crab",
        -11.060372177806041
      ],
      [
        "▁deserve",
        -10.331531461925847
      ],
      [
        "ishi",
        -13.45967001163117
      ],
      [
        "▁stifle",
        -12.271025470086997
      ],
      [
        "▁woul",
        -6.0900188466739795
      ],
      [
        "ha",
        -10.276535708534153
      ],
      [
        "▁glamo",
        -11.266221202787714
      ],
      [
        "▁dwarf",
        -10.844210069545367
      ],
      [
        "▁fortune",
        -10.452805879688658
      ],
      [
        "▁apartment",
        -9.333434631148561
      ],
      [
        "▁venu",
        -11.156537059213145
      ],
      [
        "rous",
        -10.622234501840271
      ],
      [
        "4-449",
        -13.136787201776144
      ],
      [
        "▁edward",
        -9.99534264662632
      ],
      [
        "-out",
        -11.49376986200338
      ],
      [
        "▁experiment",
        -9.909929098579607
      ],
      [
        "nt",
        -9.928251866904862
      ],
      [
        "▁beside",
        -11.694727223843978
      ],
      [
        "▁confide",
        -12.771337500368347
      ],
      [
        "cinna",
        -10.842854151362275
      ],
      [
        "▁hang",
        -8.997515797125317
      ],
      [
        "ino",
        -11.442656562307326
      ],
      [
        "▁catastroph",
        -12.750503220434625
      ],
      [
        "ault",
        -12.82397304640307
      ],
      [
        "▁any",
        -6.4990892147259105
      ],
      [
        "▁collapse",
        -10.217163889488162
      ],
      [
        "lung",
        -12.73579709688808
      ],
      [
        "atherin",
        -11.56253547387431
      ],
      [
        "▁mobilis",
        -12.80583901344188
      ],
      [
        "leading",
        -10.581018581560741
      ],
      [
        "▁very",
        -6.256917658958747
      ],
      [
        "emerge",
        -12.243344009124526
      ],
      [
        "apor",
        -10.942944850011125
      ],
      [
        "oka",
        -12.83294292877692
      ],
      [
        "▁perception",
        -10.842161813770762
      ],
      [
        "▁suspend",
        -11.178167834242487
      ],
      [
        "▁viv",
        -13.178566651609104
      ],
      [
        "▁exclusive",
        -11.055309593632382
      ],
      [
        "▁traffick",
        -11.207373551141597
      ],
      [
        "@",
        -9.397609207838425
      ],
      [
        "aima",
        -9.046731417198323
      ],
      [
        "▁empirical",
        -11.18733824703405
      ],
      [
        "▁for",
        -10.508521129987447
      ],
      [
        "hot",
        -13.707460487042143
      ],
      [
        "▁832.676.",
        -13.136770579315861
      ],
      [
        "proxim",
        -11.938316413101722
      ],
      [
        "▁tyr",
        -12.28789770763016
      ],
      [
        "t&",
        -11.970752693303195
      ],
      [
        "▁atm",
        -12.281985210486383
      ],
      [
        "▁naturalis",
        -12.249056977801889
      ],
      [
        "▁parachute",
        -11.687691586439666
      ],
      [
        "sullivan",
        -11.6876915883187
      ],
      [
        "▁kari",
        -11.108878788999736
      ],
      [
        "stuar",
        -11.302512810778286
      ],
      [
        "▁ammoni",
        -12.278616379189897
      ],
      [
        "▁coordinati",
        -10.582478751805292
      ],
      [
        "▁meow",
        -10.276068507847882
      ],
      [
        "ndi",
        -11.862362591743297
      ],
      [
        "nourish",
        -12.223990075540778
      ],
      [
        "it",
        -8.786222667178972
      ],
      [
        "otis",
        -10.53075887287424
      ],
      [
        "▁coz",
        -10.592747770579216
      ],
      [
        "▁stick",
        -9.010277298612937
      ],
      [
        "erno",
        -12.834028763676212
      ],
      [
        "information",
        -7.326725036468212
      ],
      [
        "▁rotati",
        -11.529705650224802
      ],
      [
        "▁pimen",
        -12.804478358143623
      ],
      [
        "ostrom",
        -13.195992049686172
      ],
      [
        "fe",
        -11.211557085735926
      ],
      [
        "▁scam",
        -11.557798003212392
      ],
      [
        "▁sex",
        -9.682892952062888
      ],
      [
        "▁statue",
        -10.374439868336918
      ],
      [
        "▁williams",
        -11.392191687608783
      ],
      [
        "▁eyebrow",
        -11.687691944507044
      ],
      [
        "rat",
        -12.017678604027854
      ],
      [
        "ritis",
        -12.178338773134232
      ],
      [
        "gizi",
        -12.780232405351992
      ],
      [
        "▁tir",
        -12.786273873687
      ],
      [
        "nna",
        -12.905493034759864
      ],
      [
        "▁brother",
        -8.81820856713465
      ],
      [
        "▁8.",
        -12.090119778997185
      ],
      [
        "▁lamb",
        -10.676822534866783
      ],
      [
        "▁reappear",
        -12.271024939049635
      ],
      [
        "▁care",
        -8.129399895844612
      ],
      [
        "mexic",
        -12.735144832167109
      ],
      [
        "▁heavy",
        -9.232981354789754
      ],
      [
        "▁bell",
        -9.394371164851755
      ],
      [
        "▁syria",
        -9.421323912107951
      ],
      [
        "▁rot",
        -10.61122038757042
      ],
      [
        "prioritise",
        -13.731102570555922
      ],
      [
        "▁qa",
        -8.784659638564307
      ],
      [
        "utilize",
        -12.074480857158955
      ],
      [
        "▁transl",
        -12.372964146775669
      ],
      [
        "▁reread",
        -12.789455068726705
      ],
      [
        "cious",
        -11.34171026211518
      ],
      [
        "▁raptor",
        -12.771056057772451
      ],
      [
        "adobe",
        -12.044838376820344
      ],
      [
        "▁dominan",
        -12.506694804591499
      ],
      [
        "interference",
        -13.734181234222149
      ],
      [
        "▁use",
        -6.596342102290538
      ],
      [
        "▁poo",
        -9.958939928868144
      ],
      [
        "▁av",
        -13.367145336733245
      ],
      [
        "▁constrain",
        -12.78344685689847
      ],
      [
        "▁incite",
        -10.682413067888202
      ],
      [
        "▁multinational",
        -12.771039509024856
      ],
      [
        "▁attn",
        -12.271881781278472
      ],
      [
        "▁scheme",
        -10.590902741375334
      ],
      [
        "888.",
        -12.636947950041675
      ],
      [
        "rbara",
        -11.477645660884566
      ],
      [
        "▁simultaneous",
        -10.842056664859964
      ],
      [
        "▁generate",
        -10.256645029684769
      ],
      [
        "▁embrac",
        -13.32495410632368
      ],
      [
        "ferr",
        -12.097785180280857
      ],
      [
        "▁ques",
        -11.86941972493624
      ],
      [
        "▁flo",
        -10.344169269414266
      ],
      [
        "134",
        -13.188304911748336
      ],
      [
        "▁inherent",
        -11.178168066332045
      ],
      [
        "▁ni",
        -10.814888720447627
      ],
      [
[...]
