{
  "version": "1.0",
  "truncation": null,
  "padding": null,
  "added_tokens": [
    {
      "id": 787,
      "content": "[SEP]",
      "single_word": false,
      "lstrip": false,
      "rstrip": false,
      "normalized": false,
      "special": true
    },
    {
      "id": 3127,
      "content": "[CLS]",
      "single_word": false,
      "lstrip": false,
      "rstrip": false,
      "normalized": false,
      "special": true
    },
    {
      "id": 12320,
      "content": "[UNK]",
      "single_word": false,
      "lstrip": false,
      "rstrip": false,
      "normalized": false,
      "special": true
    },
    {
      "id": 13531,
      "content": "[MASK]",
      "single_word": false,
      "lstrip": false,
      "rstrip": false,
      "normalized": false,
      "special": true
    },
    {
      "id": 14251,
      "content": "[PAD]",
      "single_word": false,
      "lstrip": false,
      "rstrip": false,
      "normalized": false,
      "special": true
    }
  ],
  "normalizer": {
    "type": "Sequence",
    "normalizers": [
      {
        "type": "NFD"
      },
      {
        "type": "Lowercase"
      },
      {
        "type": "StripAccents"
      }
    ]
  },
  "pre_tokenizer": {
    "type": "Sequence",
    "pretokenizers": [
      {
        "type": "Metaspace",
        "replacement": "▁",
        "prepend_scheme": "always",
        "split": true
      }
    ]
  },
  "post_processor": {
    "type": "TemplateProcessing",
    "single": [
      {
        "SpecialToken": {
          "id": "[CLS]",
          "type_id": 0
        }
      },
      {
        "Sequence": {
          "id": "A",
          "type_id": 0
        }
      },
      {
        "SpecialToken": {
          "id": "[SEP]",
          "type_id": 0
        }
      }
    ],
    "pair": [
      {
        "SpecialToken": {
          "id": "[CLS]",
          "type_id": 0
        }
      },
      {
        "Sequence": {
          "id": "A",
          "type_id": 0
        }
      },
      {
        "SpecialToken": {
          "id": "[SEP]",
          "type_id": 0
        }
      },
      {
        "Sequence": {
          "id": "B",
          "type_id": 1
        }
      },
      {
        "SpecialToken": {
          "id": "[SEP]",
          "type_id": 1
        }
      }
    ],
    "special_tokens": {
      "[CLS]": {
        "id": "[CLS]",
        "ids": [
          3127
        ],
        "tokens": [
          "[CLS]"
        ]
      },
      "[SEP]": {
        "id": "[SEP]",
        "ids": [
          787
        ],
        "tokens": [
          "[SEP]"
        ]
      }
    }
  },
  "decoder": {
    "type": "Metaspace",
    "replacement": "▁",
    "prepend_scheme": "always",
    "split": true
  },
  "model": {
    "type": "WordPiece",
    "unk_token": "[UNK]",
    "continuing_subword_prefix": "##",
    "max_input_chars_per_word": 100,
    "vocab": {
      "▁classic": 0,
      "▁wite": 1,
      "▁text": 2,
      "▁trials": 3,
      "▁taxi": 4,
      "▁jih": 5,
      "##ase": 6,
      "▁advertising": 7,
      "▁fried": 8,
      "▁saudi": 9,
      "▁candy": 10,
      "▁codes": 11,
      "▁future": 12,
      "▁protocol": 13,
      "##gg": 14,
      "▁vac": 15,
      "▁immigrants": 16,
      "##io": 17,
      "▁loans": 18,
      "▁anch": 19,
      "▁dickens": 20,
      "##ories": 21,
      "▁polic": 22,
      "▁reop": 23,
      "▁thursdays": 24,
      "▁defining": 25,
      "▁camping": 26,
      "▁struggling": 27,
      "▁lessons": 28,
      "▁morph": 29,
      "▁withdrawn": 30,
      "▁face": 31,
      "##jects": 32,
      "▁brad": 33,
      "▁buyer": 34,
      "▁negotiations": 35,
      "##corn": 36,
      "##£": 37,
      "▁al": 38,
      "▁editions": 39,
      "▁dev": 40,
      "▁mutual": 41,
      "▁fbi": 42,
      "▁sew": 43,
      "##ocked": 44,
      "▁mosc": 45,
      "▁eol": 46,
      "▁&": 47,
      "##ird": 48,
      "▁evac": 49,
      "▁resources": 50,
      "▁tiny": 51,
      "▁strange": 52,
      "▁determine": 53,
      "▁manufact": 54,
      "▁approved": 55,
      "▁nephew": 56,
      "▁bath+room": 57,
      "▁decisions": 58,
      "▁promising": 59,
      "▁07/14/2000": 60,
      "▁damp": 61,
      "▁batman": 62,
      "▁imagination": 63,
      "##can": 64,
      "▁mi": 65,
      "▁subst": 66,
      "▁busy": 67,
      "▁equipment": 68,
      "▁politics": 69,
      "##idden": 70,
      "▁punched": 71,
      "##amble": 72,
      "▁spin": 73,
      "▁sign": 74,
      "▁wra": 75,
      "##ip": 76,
      "▁groc": 77,
      "##ort": 78,
      "##cont": 79,
      "▁tol": 80,
      "▁wikimedia": 81,
      "▁1868": 82,
      "▁asia": 83,
      "##er": 84,
      "▁713-646-3393": 85,
      "▁impacts": 86,
      "▁cape": 87,
      "##ved": 88,
      "▁cott": 89,
      "▁endless": 90,
      "▁sadr": 91,
      "▁obstacles": 92,
      "▁favorite": 93,
      "▁tul": 94,
      "▁bib": 95,
      "▁(b)": 96,
      "▁excell": 97,
      "##ا": 98,
      "##able": 99,
      "▁sled": 100,
      "▁baltim": 101,
      "▁jerry": 102,
      "▁toll": 103,
      "▁08/03/2000": 104,
      "▁traci": 105,
      "▁appreh": 106,
      "▁shares": 107,
      "▁anxious": 108,
      "##acious": 109,
      "▁hull": 110,
      "▁inexpensive": 111,
      "▁carn": 112,
      "▁taj": 113,
      "▁animal": 114,
      "▁collapse": 115,
      "##-by": 116,
      "##uum": 117,
      "▁artillery": 118,
      "##erv": 119,
      "▁story": 120,
      "▁jennifer": 121,
      "▁recipients": 122,
      "▁francois": 123,
      "▁6.8": 124,
      "▁defeated": 125,
      "##ras": 126,
      "▁talented": 127,
      "▁singapore": 128,
      "▁kevin": 129,
      "▁bern": 130,
      "▁aut": 131,
      "▁inhabit": 132,
      "▁context": 133,
      "▁advice": 134,
      "▁telev": 135,
      "▁respect": 136,
      "▁brain": 137,
      "d": 138,
      "▁23": 139,
      "▁twisted": 140,
      "##wart": 141,
      "▁tik": 142,
      "##ers": 143,
      "▁change": 144,
      "##end": 145,
      "▁exceptional": 146,
      "##entic": 147,
      "▁potty": 148,
      "▁alcohol": 149,
      "▁murders": 150,
      "▁1928": 151,
      "▁proclaim": 152,
      "▁ginny": 153,
      "▁per": 154,
      "##night": 155,
      "▁alternatives": 156,
      "▁concent": 157,
      "▁considering": 158,
      "##all": 159,
      "##bern": 160,
      "▁claiming": 161,
      "▁techn": 162,
      "▁pimple": 163,
      "▁setup": 164,
      "##gate": 165,
      "▁endeavor": 166,
      "▁agriculture": 167,
      "▁jenna": 168,
      "▁as400": 169,
      "##adv": 170,
      "▁scanning": 171,
      "##ap": 172,
      "##ieu": 173,
      "##ensive": 174,
      "##ract": 175,
      "##ither": 176,
      "▁wif": 177,
      "▁olympics": 178,
      "▁mailman": 179,
      "▁{": 180,
      "▁volunteer": 181,
      "▁deadline": 182,
      "▁argues": 183,
      "▁exhibits": 184,
      "▁look": 185,
      "▁lig": 186,
      "▁espec": 187,
      "▁compel": 188,
      "##66": 189,
      "▁enterpr": 190,
      "·": 191,
      "##mar": 192,
      "▁832": 193,
      "▁canon": 194,
      "▁float": 195,
      "##code": 196,
      "##led": 197,
      "▁att": 198,
      "▁recon": 199,
      "▁padaleck": 200,
      "##ε": 201,
      "图": 202,
      "▁aircraft": 203,
      "▁headband": 204,
      "▁poo": 205,
      "##are": 206,
      "##alk": 207,
      "▁prohib": 208,
      "▁forgotten": 209,
      "▁functioning": 210,
      "▁01:14": 211,
      "▁neglig": 212,
      "▁inst": 213,
      "▁hit": 214,
      "▁petition": 215,
      "▁remaining": 216,
      "▁04:28": 217,
      "▁emotion": 218,
      "##n.": 219,
      "▁tut": 220,
      "##istor": 221,
      "▁january": 222,
      "##d-#6": 223,
      "##/99": 224,
      "▁century": 225,
      "##omed": 226,
      "▁1902": 227,
      "▁05/03/2001": 228,
      "##urch": 229,
      "##arter": 230,
      "▁agrees": 231,
      "▁bwww": 232,
      "▁paseo": 233,
      "▁monumental": 234,
      "▁thous": 235,
      "##.11": 236,
      "▁gro": 237,
      "##elds": 238,
      "##49": 239,
      "##abel": 240,
      "▁deserted": 241,
      "▁der": 242,
      "##ervation": 243,
      "▁susp": 244,
      "▁mere": 245,
      "▁yacht": 246,
      "▁extra": 247,
      "▁kw": 248,
      "▁bigger": 249,
      "▁now": 250,
      "▁1951": 251,
      "6": 252,
      "▁run": 253,
      "▁location": 254,
      "▁affected": 255,
      "▁graphic": 256,
      "##80": 257,
      "▁beaches": 258,
      "##ones": 259,
      "▁nah": 260,
      "##ake": 261,
      "▁viet": 262,
      "▁mort": 263,
      "▁03": 264,
      "▁airpl": 265,
      "▁lem": 266,
      "▁simp": 267,
      "▁chin": 268,
      "▁senses": 269,
      "▁uhoh": 270,
      "▁fiscal": 271,
      "▁event": 272,
      "▁disapp": 273,
      "▁must": 274,
      "▁cabbage": 275,
      "▁productive": 276,
      "▁great": 277,
      "▁coordination": 278,
      "▁1599": 279,
      "▁represented": 280,
      "▁alt.animals.c": 281,
      "▁price": 282,
      "▁perse": 283,
      "##rosh": 284,
      "▁neg": 285,
      "▁ai": 286,
      "▁814014": 287,
      "▁kitch": 288,
      "##’": 289,
      "▁addressed": 290,
      "▁champ": 291,
      "▁2500": 292,
      "▁bee": 293,
      "▁glob": 294,
      "▁few": 295,
      "##ise": 296,
      "##aman": 297,
      "▁94": 298,
      "▁belg": 299,
      "▁his": 300,
      "##ensely": 301,
      "▁random": 302,
      "##:14": 303,
      "▁4.0": 304,
      "▁attracting": 305,
      "▁god": 306,
      "▁frontiers": 307,
      "▁church": 308,
      "▁blond": 309,
      "▁191": 310,
      "▁straps": 311,
      "▁grammar": 312,
      "##eces": 313,
      "▁vog": 314,
      "▁danger": 315,
      "▁whereby": 316,
      "##[": 317,
      "##ex": 318,
      "▁cens": 319,
      "▁ostr": 320,
      "▁l'": 321,
      "##itters": 322,
      "▁gone": 323,
      "▁dip": 324,
      "▁predators": 325,
      "##.1234": 326,
      "##art": 327,
      "▁hotel": 328,
      "##ights": 329,
      "▁olive": 330,
      "▁713-654-03": 331,
      "##ce": 332,
      "▁test": 333,
      "▁covered": 334,
      "▁socc": 335,
      "▁although": 336,
      "▁tehr": 337,
      "##arked": 338,
      "▁steam": 339,
      "▁lab": 340,
      "▁bund": 341,
      "##liver": 342,
      "▁stead": 343,
      "▁salesman": 344,
      "##ith": 345,
      "▁wall": 346,
      "▁ratt": 347,
      "##gs": 348,
      "▁empan": 349,
      "##enna": 350,
      "##oes": 351,
      "##uces": 352,
      "▁diaper": 353,
      "▁proc": 354,
      "▁chann": 355,
      "▁bureaucr": 356,
      "▁guaranty": 357,
      "▁supposed": 358,
      "##903": 359,
      "##___________": 360,
      "▁santa": 361,
      "##chernobyl": 362,
      "▁force": 363,
      "▁gathering": 364,
      "▁vertical": 365,
      "▁03/27/2001": 366,
      "▁amounts": 367,
      "▁subsequent": 368,
      "▁leading": 369,
      "▁debris": 370,
      "##itten": 371,
      "##/index": 372,
      "▁nobel": 373,
      "▁legisl": 374,
      "##-8": 375,
      "▁fortun": 376,
      "▁horizon": 377,
      "▁queb": 378,
      "▁11/29/2000": 379,
      "##science": 380,
      "▁catholic": 381,
      "##with": 382,
      "▁collect": 383,
      "##rd": 384,
      "##oren": 385,
      "▁balloons": 386,
      "##anda": 387,
      "▁receipt": 388,
      "##hin": 389,
      "##alog": 390,
      "▁redistrib": 391,
      "▁sla": 392,
      "▁neoc": 393,
      "▁1530": 394,
      "▁statement": 395,
      "▁rot": 396,
      "▁equally": 397,
      "▁insurg": 398,
      "##ouble": 399,
      "▁november": 400,
      "▁ya": 401,
      "▁1960s": 402,
      "##renched": 403,
      "▁perman": 404,
      "▁deemed": 405,
      "▁rarely": 406,
      "##rough": 407,
      "▁demonstrated": 408,
      "▁relaxing": 409,
      "##oculars": 410,
      "##orton": 411,
      "▁requiring": 412,
      "▁listen": 413,
      "▁217": 414,
      "▁match": 415,
      "▁undert": 416,
      "▁dyn": 417,
      "##--------+----------------": 418,
      "▁interp": 419,
      "▁booking": 420,
      "▁fut": 421,
      "##ular": 422,
      "▁8:30": 423,
      "▁collaborative": 424,
      ">": 425,
      "▁environment": 426,
      "▁smart": 427,
      "▁afterwards": 428,
      "▁gave": 429,
      "##.863": 430,
      "▁this": 431,
      "▁changes": 432,
      "▁superior": 433,
      "▁cleric": 434,
      "▁hamilton": 435,
      "▁peek": 436,
      "r": 437,
      "▁your": 438,
      "▁vacc": 439,
      "▁gun": 440,
      "▁studied": 441,
      "▁achievement": 442,
      "▁readers": 443,
      "▁09/16": 444,
      "▁danny": 445,
      "▁unkn": 446,
      "##ologist": 447,
      "▁dand": 448,
      "▁notch": 449,
      "▁120,000": 450,
      "##matic": 451,
      "▁pon": 452,
      "▁sensitivity": 453,
      "▁compan": 454,
      "##room": 455,
      "▁persons": 456,
      "▁critic": 457,
      "▁fair": 458,
      "##ales": 459,
      "##erable": 460,
      "▁terms": 461,
      "▁tigers": 462,
      "##,008": 463,
      "##ribly": 464,
      "▁1608": 465,
      "▁grow": 466,
      "##.0": 467,
      "▁hog": 468,
      "##its": 469,
      "##ts": 470,
      "▁512": 471,
      "▁decor": 472,
      "##amar": 473,
      "##ech": 474,
      "▁advised": 475,
      "##beth": 476,
      "▁vice": 477,
      "▁tradem": 478,
      "▁mohamed": 479,
      "▁listing": 480,
      "▁amendments": 481,
      "▁cried": 482,
      "▁muscle": 483,
      "▁ones": 484,
      "▁williams": 485,
      "▁stro": 486,
      "##occo": 487,
      "▁wise": 488,
      "▁st": 489,
      "▁completed": 490,
      "▁reject": 491,
      "▁202": 492,
      "##ronic": 493,
      "##oral": 494,
      "##ogn": 495,
      "▁28,000": 496,
      "▁pressure": 497,
      "▁earned": 498,
      "▁period": 499,
      "▁_______": 500,
      "▁sneeze": 501,
      "##ador": 502,
      "▁state": 503,
      "▁behaviour": 504,
      "▁3,": 505,
      "▁biggest": 506,
      "▁apost": 507,
      "▁!!!": 508,
      "▁fix": 509,
      "▁knows": 510,
      "▁mathemat": 511,
      "▁packing": 512,
      "##ke": 513,
      "▁processes": 514,
      "▁(c)": 515,
      "▁glasses": 516,
      "▁dresses": 517,
      "▁legit": 518,
      "##61": 519,
      "▁misunder": 520,
      "▁succeed": 521,
      "▁03/08/2000": 522,
      "▁burned": 523,
      "##chart": 524,
      "▁.?": 525,
      "▁month": 526,
      "▁plane": 527,
      "##onna": 528,
      "▁clients": 529,
      "▁coupled": 530,
      "▁1944": 531,
      "##ug": 532,
      "▁continuously": 533,
      "##iss": 534,
      "▁caut": 535,
      "▁spine": 536,
      "▁skip": 537,
      "▁swing": 538,
      "▁infinite": 539,
      "▁5:30": 540,
      "▁obligation": 541,
      "✉": 542,
      "▁fast": 543,
      "▁theat": 544,
      "▁-ect": 545,
      "▁listed": 546,
      "▁volleyball": 547,
      "▁gal": 548,
      "##mike": 549,
      "▁interference": 550,
      "▁belief": 551,
      "##itely": 552,
      "▁amster": 553,
      "▁guadel": 554,
      "▁exchanged": 555,
      "##nondel": 556,
      "##rid": 557,
      "▁syntactic": 558,
      "▁decl": 559,
      "▁concepts": 560,
      "▁equip": 561,
      "▁tablet": 562,
      "▁makes": 563,
      "▁shiny": 564,
      "▁underwear": 565,
      "▁compact": 566,
      "▁risk": 567,
      "▁nc": 568,
      "▁interrog": 569,
      "▁401": 570,
      "▁anthrop": 571,
      "▁uniqu": 572,
      "▁entertainment": 573,
      "▁orth": 574,
      "ł": 575,
      "##9933": 576,
      "▁surviv": 577,
      ";": 578,
      "▁common": 579,
      "▁propose": 580,
      "▁enorm": 581,
      "▁introduce": 582,
      "##.75": 583,
      "##ille": 584,
      "▁costly": 585,
      "▁attain": 586,
      "▁imposs": 587,
      "##inely": 588,
      "▁salty": 589,
      "▁kin": 590,
      "##version": 591,
      "▁neoclassical": 592,
      "▁horiz": 593,
      "▁concrete": 594,
      "▁harrow": 595,
      "▁sl": 596,
      "▁disappoint": 597,
      "▁kam": 598,
      "▁biew": 599,
      "▁kend": 600,
      "▁blah": 601,
      "▁3/9": 602,
      "▁interests": 603,
      "▁lucy": 604,
      "##izabeth": 605,
      "▁priced": 606,
      "##points": 607,
      "##off": 608,
      "▁locom": 609,
      "▁somewhat": 610,
      "▁restruct": 611,
      "##oped": 612,
      "▁chess": 613,
      "▁.2": 614,
      "▁yoko": 615,
      "##med": 616,
      "##85": 617,
      "▁introducing": 618,
      "▁singer": 619,
      "▁operating": 620,
      "▁schedule": 621,
      "▁puppet": 622,
      "▁trop": 623,
      "##eline": 624,
      "▁radiation": 625,
      "▁delivery": 626,
      "##arents": 627,
      "▁six": 628,
      "▁sciss": 629,
      "▁treas": 630,
      "▁queen": 631,
      "▁becom": 632,
      "▁nails": 633,
      "▁nation": 634,
      "##urs": 635,
      "▁runs": 636,
      "▁07/1": 637,
      "▁rank": 638,
      "▁trump": 639,
      "##ellow": 640,
      "▁wikinews": 641,
      "▁430": 642,
      "▁!": 643,
      "▁ans": 644,
      "##k.ur": 645,
      "##uting": 646,
      "▁cocktail": 647,
      "##and": 648,
      "▁cy": 649,
      "▁planning": 650,
      "▁normally": 651,
      "▁prey": 652,
      "▁the": 653,
      "▁shower": 654,
      "▁ideally": 655,
      "▁23rd": 656,
      "▁ahead": 657,
      "▁fift": 658,
      "▁scored": 659,
      "▁carbon": 660,
      "##acters": 661,
      "▁situation": 662,
      "▁petroleum": 663,
      "▁co-": 664,
      "▁vers": 665,
      "▁bears": 666,
      "▁ramp": 667,
      "▁action": 668,
      "▁ling": 669,
      "▁virginia": 670,
      "▁eighteen": 671,
      "▁damned": 672,
      "$": 673,
      "▁raphael": 674,
      "▁posters": 675,
      "▁sher": 676,
      "▁http://www.4gamer.net/news/image/2005.09/2005": 677,
      "▁spill": 678,
      "##inski": 679,
      "▁bc": 680,
      "▁mich": 681,
      "▁evolve": 682,
      "▁incl": 683,
      "▁extraordinary": 684,
      "▁aka": 685,
      "▁nig": 686,
      "▁ian": 687,
      "▁10:30": 688,
      "##abi": 689,
      "▁crazy": 690,
      "▁absent": 691,
      "▁princess": 692,
      "▁jail": 693,
      "▁enj": 694,
      "▁appropri": 695,
      "##tt": 696,
      "▁lys": 697,
      "▁concert": 698,
      "▁maize": 699,
      "▁impose": 700,
      "▁compressor": 701,
      "▁facilitate": 702,
      "▁ep": 703,
      "▁wooden": 704,
      "▁opponent": 705,
      "###6": 706,
      "▁345": 707,
      "▁heard": 708,
      "▁issued": 709,
      "▁palestinians": 710,
      "▁intends": 711,
      "▁abdul": 712,
      "▁depot": 713,
      "▁cargill": 714,
      "▁folks": 715,
      "##/10/2004": 716,
      "▁[...]": 717,
      "▁searches": 718,
      "▁websites": 719,
      "##othy": 720,
      "▁bid": 721,
      "▁urine": 722,
      "▁servant": 723,
      "▁wiped": 724,
      "▁charge": 725,
      "▁deficit": 726,
      "▁repeated": 727,
      "▁assum": 728,
      "▁takeoff": 729,
      "▁fabio": 730,
      "▁inherent": 731,
      "▁gag": 732,
      "▁grace": 733,
      "▁testing": 734,
      "▁04:": 735,
      "▁xsd": 736,
      "▁percell": 737,
      "▁irr": 738,
      "##enger": 739,
      "▁leonardo": 740,
      "▁draft": 741,
      "##ahan": 742,
      "▁indig": 743,
      "▁neighbourhood": 744,
      "▁officially": 745,
      "▁dedication": 746,
      "▁ice": 747,
      "▁oath": 748,
      "▁loop": 749,
      "##od": 750,
      "▁zeal": 751,
      "▁vietnam": 752,
      "▁claims": 753,
      "##inking": 754,
      "▁cows": 755,
      "##reck": 756,
      "▁undergraduate": 757,
      "▁eco": 758,
      "▁trad": 759,
      "▁cara": 760,
      "▁derived": 761,
      "##unition": 762,
      "▁decision": 763,
      "▁grizz": 764,
      "▁robots": 765,
      "▁feared": 766,
      "##1696": 767,
      "▁experi": 768,
      "▁toxic": 769,
      "##otten": 770,
      "▁cons": 771,
      "##des": 772,
      "▁cen": 773,
      "##epend": 774,
      "▁middle": 775,
      "▁01/2": 776,
      "##irus": 777,
      "##web": 778,
      "▁parenteau": 779,
      "▁automatically": 780,
      "▁sexually": 781,
      "▁loc": 782,
      "▁protects": 783,
      "▁congressional": 784,
      "##dging": 785,
      "▁braver": 786,
      "[SEP]": 787,
      "▁1997": 788,
      "##et": 789,
      "▁carnival": 790,
      "▁live": 791,
      "##ang": 792,
      "▁oops": 793,
      "▁fry": 794,
      "▁ok": 795,
      "▁gigantic": 796,
      "##clusion": 797,
      "▁exactly": 798,
      "##illy": 799,
      "▁8:00": 800,
      "▁contacts": 801,
      "▁squirt": 802,
      "▁identical": 803,
      "▁justin": 804,
      "▁+1": 805,
      "▁balanced": 806,
      "##kins": 807,
      "▁refrigerator": 808,
      "▁closest": 809,
      "▁fridays": 810,
      "▁registration": 811,
      "▁includ": 812,
      "▁boil": 813,
      "▁contributions": 814,
      "##porary": 815,
      "▁believes": 816,
      "▁obama": 817,
      "▁salute": 818,
      "▁protected": 819,
      "▁1689": 820,
      "##415-": 821,
      "▁generators": 822,
      "▁woke": 823,
      "▁province": 824,
      "▁trails": 825,
      "▁:d": 826,
      "▁anna": 827,
      "▁saitama": 828,
      "▁worthy": 829,
      "▁yesterday": 830,
      "▁wonderful": 831,
      "##eeze": 832,
      "▁session": 833,
      "▁play": 834,
      "▁315-460-33": 835,
      "▁dine": 836,
      "▁submitted": 837,
      "▁answering": 838,
      "▁ridic": 839,
      "▁shibu": 840,
      "▁naim": 841,
      "##inging": 842,
      "▁hay": 843,
      "▁gentlemen": 844,
      "▁pocketbook": 845,
      "##erc": 846,
      "▁standards": 847,
      "▁hous": 848,
      "##rew": 849,
      "##uls": 850,
      "▁thorough": 851,
      "##ada": 852,
      "▁1888": 853,
      "##icemail": 854,
      "▁bless": 855,
      "▁5.5": 856,
      "▁sock": 857,
      "▁anytime": 858,
      "▁squeeze": 859,
      "▁lid": 860,
      "▁texas": 861,
      "▁read": 862,
      "▁putting": 863,
      "▁affairs": 864,
      "▁enrongss": 865,
      "▁carrier": 866,
      "▁alloc": 867,
      "▁mister": 868,
      "##el": 869,
      "▁crane": 870,
      "##irl": 871,
      "▁observed": 872,
      "▁***": 873,
      "▁summer": 874,
      "##ough": 875,
      "▁nich": 876,
      "▁equals": 877,
      "▁hospitals": 878,
      "##official": 879,
      "##oph": 880,
      "▁established": 881,
      "▁funds": 882,
      "▁decent": 883,
      "▁marginal": 884,
      "##acon": 885,
      "▁resem": 886,
      "▁oregon": 887,
      "▁team": 888,
      "▁maintains": 889,
      "▁du": 890,
      "##quis": 891,
      "▁const": 892,
      "▁defence": 893,
      "▁canned": 894,
      "##uding": 895,
      "▁chronic": 896,
      "##9999": 897,
      "▁shortest": 898,
      "▁tid": 899,
      "▁pop": 900,
      "▁appeared": 901,
      "▁wandering": 902,
      "##vor": 903,
      "▁magazines": 904,
      "▁jenn": 905,
      "▁impossible": 906,
      "▁fillmore": 907,
      "▁miles": 908,
      "ا": 909,
      "##by": 910,
      "▁×": 911,
      "▁ideal": 912,
      "▁fount": 913,
      "3": 914,
      "▁que": 915,
      "▁814": 916,
      "▁preced": 917,
      "##ont": 918,
      "##fire": 919,
      "##ieve": 920,
      "▁lev": 921,
      "▁score": 922,
      "▁neighborhood": 923,
      "▁false": 924,
      "▁nineteen": 925,
      "▁888.916.718": 926,
      "▁adoption": 927,
      "▁stupid": 928,
      "##eez": 929,
      "##ictions": 930,
      "▁je": 931,
      "▁a.m.": 932,
      "▁newark": 933,
      "▁planes": 934,
      "▁a1": 935,
      "▁beaver": 936,
      "##ł": 937,
      "▁taiwan": 938,
      "▁genetic": 939,
      "▁smok": 940,
      "▁advert": 941,
      "▁promise": 942,
      "##inson": 943,
      "▁1836": 944,
      "▁simpl": 945,
      "##ests": 946,
      "▁collective": 947,
      "##ild": 948,
      "▁tony": 949,
      "▁dump": 950,
      "▁prior": 951,
      "##æ": 952,
      "##940": 953,
      "##image": 954,
      "▁photographers": 955,
      "▁pants": 956,
      "▁recre": 957,
      "##attering": 958,
      "##7/2000": 959,
      "▁returns": 960,
      "▁being": 961,
      "▁rumsfeld": 962,
      "##miah": 963,
      "▁contributing": 964,
      "▁jurisdiction": 965,
      "▁ski": 966,
      "▁sic": 967,
      "▁near": 968,
      "##ull": 969,
      "##200": 970,
      "▁stepped": 971,
      "##nia": 972,
      "▁choo": 973,
      "▁pierre": 974,
      "▁riding": 975,
      "##yn": 976,
      "▁poet": 977,
      "▁closed": 978,
      "▁convinc": 979,
      "▁dursleys": 980,
      "▁succeeded": 981,
      "▁daniel": 982,
      "▁se": 983,
      "▁comprom": 984,
      "▁neurol": 985,
      "▁unh": 986,
      "▁requirement": 987,
      "▁programming": 988,
      "##og": 989,
      "##ف": 990,
      "▁similarly": 991,
      "▁sofa": 992,
      "▁bent": 993,
      "▁goriot": 994,
      "▁lik": 995,
      "▁********************************": 996,
      "ز": 997,
      "▁toystore": 998,
      "▁hajj": 999,
      "▁embass": 1000,
      "▁transmission": 1001,
      "##iah": 1002,
      "##lf": 1003,
      "##anas": 1004,
      "▁encour": 1005,
      "##raid": 1006,
      "▁linda": 1007,
      "▁german": 1008,
      "▁646-8420": 1009,
      "▁histor": 1010,
      "▁explo": 1011,
      "▁junior": 1012,
      "▁hire": 1013,
      "▁logic": 1014,
      "▁1801": 1015,
      "▁bir": 1016,
      "##tle": 1017,
      "▁17": 1018,
      "▁lines": 1019,
      "##rina": 1020,
      "▁nov": 1021,
      "##ions": 1022,
      "▁virtuous": 1023,
      "##ler": 1024,
      "##.co.uk/": 1025,
      "▁overt": 1026,
      "▁quino": 1027,
      "▁previous": 1028,
      "▁propos": 1029,
      "▁ingred": 1030,
      "▁estimate": 1031,
      "▁laid": 1032,
      "▁styrofoam": 1033,
      "▁tropical": 1034,
      "▁referee": 1035,
      "▁krist": 1036,
      "▁tankers": 1037,
      "▁los": 1038,
      "##enron.com": 1039,
      "▁tel": 1040,
      "▁guarantee": 1041,
      "▁superf": 1042,
      "▁occupied": 1043,
      "▁pas": 1044,
      "▁racing": 1045,
      "##place": 1046,
      "▁everyday": 1047,
      "##eting": 1048,
      "▁gym": 1049,
      "##ach": 1050,
      "▁considered": 1051,
      "▁discouraging": 1052,
      "▁places": 1053,
      "▁romantic": 1054,
      "▁journey": 1055,
      "##.5": 1056,
      "▁handker": 1057,
      "▁floyd": 1058,
      "▁forty-eight": 1059,
      "▁counter": 1060,
      "▁bu": 1061,
      "▁service": 1062,
      "▁harris": 1063,
      "▁it's": 1064,
      "##essee": 1065,
      "▁presumably": 1066,
      "▁donkey": 1067,
      "##ual": 1068,
      "▁whoo": 1069,
      "▁sunglasses": 1070,
      "▁incomes": 1071,
      "##ene": 1072,
      "▁convey": 1073,
      "▁resolution": 1074,
      "▁araf": 1075,
      "▁508": 1076,
      "▁helped": 1077,
      "▁ll": 1078,
      "##eenth": 1079,
      "▁marks": 1080,
      "▁names": 1081,
      "▁ld2": 1082,
      "▁tended": 1083,
      "▁minneapolis": 1084,
      "▁things": 1085,
      "▁foreigner": 1086,
      "▁begins": 1087,
      "▁perfect": 1088,
      "▁justification": 1089,
      "▁console": 1090,
      "##ders": 1091,
      "▁asked": 1092,
      "##riv": 1093,
      "##--------------------------------------------": 1094,
      "##oo": 1095,
      "▁))": 1096,
      "##pring": 1097,
      "▁directives": 1098,
      "▁excellent": 1099,
      "▁divor": 1100,
      "▁urge": 1101,
      "▁analy": 1102,
      "##esses": 1103,
      "▁imp": 1104,
      "▁atta": 1105,
      "▁counterfeiting": 1106,
      "▁twelf": 1107,
      "▁somehow": 1108,
      "▁hundreds": 1109,
      "▁bound": 1110,
      "▁neare": 1111,
      "▁councill": 1112,
      "▁integrity": 1113,
      "▁hippopotamus": 1114,
      "##atter": 1115,
      "▁sf": 1116,
      "▁wandered": 1117,
      "▁identified": 1118,
      "▁headaches": 1119,
      "▁tur": 1120,
      "▁sv": 1121,
      "▁belongs": 1122,
      "▁amidst": 1123,
      "▁set": 1124,
      "▁produce": 1125,
      "##ired": 1126,
      "##phis": 1127,
      "▁315-": 1128,
      "##reh": 1129,
      "{": 1130,
      "▁apolog": 1131,
      "##imony": 1132,
      "▁homeopath": 1133,
      "▁reduced": 1134,
      "##azz": 1135,
      "▁mac": 1136,
      "▁tighten": 1137,
      "▁shoes": 1138,
      "▁structure": 1139,
      "▁europe": 1140,
      "##set": 1141,
      "##rete": 1142,
      "▁absorb": 1143,
      "▁gaming": 1144,
      "▁melting": 1145,
      "▁fewer": 1146,
      "▁characterized": 1147,
      "▁padd": 1148,
      "▁wildcard": 1149,
      "▁08/03": 1150,
      "▁reservation": 1151,
      "▁dh": 1152,
      "##apt": 1153,
      "▁king": 1154,
      "▁possibly": 1155,
      "▁pre-": 1156,
      "▁legitimate": 1157,
      "▁suspicion": 1158,
      "▁branch": 1159,
      "▁allowing": 1160,
      "▁arab": 1161,
      "▁nothing": 1162,
      "##ternal": 1163,
      "▁chant": 1164,
      "▁dese": 1165,
      "▁6:00": 1166,
      "▁simple": 1167,
      "▁axis": 1168,
      "##enders": 1169,
      "▁moreau": 1170,
      "##ro": 1171,
      "##athy": 1172,
      "山": 1173,
      "##du": 1174,
      "##urtz": 1175,
      "▁whereas": 1176,
      "▁www": 1177,
      "▁contrast": 1178,
      "▁highlight": 1179,
      "▁statute": 1180,
      "▁reasonably": 1181,
      "▁airport": 1182,
      "▁uncomfortable": 1183,
      "▁browser": 1184,
      "▁health": 1185,
      "▁drift": 1186,
      "▁nanny": 1187,
      "▁notebook": 1188,
      "▁emphas": 1189,
      "▁kat": 1190,
      "##1.": 1191,
      "▁60,000": 1192,
      "▁university": 1193,
      "##igu": 1194,
      "▁770": 1195,
      "▁mass": 1196,
      "##460-3": 1197,
      "▁land": 1198,
      "▁purely": 1199,
      "▁diego": 1200,
      "▁sidd": 1201,
      "▁forms": 1202,
      "▁crawl": 1203,
      "##boro": 1204,
      "▁mine": 1205,
      "▁fol": 1206,
      "▁central": 1207,
      "▁homes": 1208,
      "▁72,000": 1209,
      "##zai": 1210,
      "▁wav": 1211,
      "▁festival": 1212,
      "▁share": 1213,
      "▁representation": 1214,
      "▁autumn": 1215,
      "##-in": 1216,
      "▁width": 1217,
      "▁remarked": 1218,
      "p": 1219,
      "▁namely": 1220,
      "▁assets": 1221,
      "▁sudan": 1222,
      "##bs": 1223,
      "▁australia": 1224,
      "▁overwh": 1225,
      "##‘": 1226,
      "▁http://www.c": 1227,
      "##ullah": 1228,
      "▁brooklyn": 1229,
      "▁405": 1230,
      "▁addition": 1231,
      "▁exclud": 1232,
      "▁makeup": 1233,
      "▁robinson": 1234,
      "▁arr": 1235,
      "##bun": 1236,
      "##tern": 1237,
      "##:39": 1238,
      "▁here": 1239,
      "▁corruption": 1240,
      "##emade": 1241,
      "▁shy": 1242,
      "▁gates": 1243,
      "▁bump": 1244,
      "▁korean": 1245,
      "##ttes": 1246,
      "##.net/news/image/2005.09": 1247,
      "▁pediat": 1248,
      "▁invested": 1249,
      "##<": 1250,
      "▁children": 1251,
      "▁bankrupt": 1252,
      "▁gradually": 1253,
      "▁studying": 1254,
      "β": 1255,
      "##.g": 1256,
      "▁earn": 1257,
      "▁brutal": 1258,
      "▁hogwarts": 1259,
      "##μ": 1260,
      "▁hol": 1261,
      "▁towns": 1262,
      "▁soy": 1263,
      "▁aesth": 1264,
      "▁honest": 1265,
      "▁desire": 1266,
      "▁clean": 1267,
      "▁limits": 1268,
      "##iers": 1269,
      "▁ow": 1270,
      "▁pleased": 1271,
      "▁flir": 1272,
      "▁port": 1273,
      "##ream": 1274,
      "##ieval": 1275,
      "##endous": 1276,
      "▁literature": 1277,
      "##gr": 1278,
      "▁+": 1279,
      "▁gardens": 1280,
      "##rec": 1281,
      "▁advanced": 1282,
      "▁allowance": 1283,
      "##ipple": 1284,
      "▁batteries": 1285,
      "▁rising": 1286,
      "##~*~*": 1287,
      "▁values": 1288,
      "##ief": 1289,
      "▁cave": 1290,
      "▁interstellar": 1291,
      "##acio": 1292,
      "▁ink": 1293,
      "##unications": 1294,
      "▁proceeding": 1295,
      "▁subscrib": 1296,
      "▁stub": 1297,
      "³": 1298,
      "##iv": 1299,
      "▁crushing": 1300,
      "##the": 1301,
      "▁2017": 1302,
      "▁>--------------------------------": 1303,
      "▁datab": 1304,
      "▁probability": 1305,
      "##uck": 1306,
      "▁1972": 1307,
      "▁demands": 1308,
      "▁soviet": 1309,
      "▁astron": 1310,
      "##res": 1311,
      "##ier": 1312,
      "▁reward": 1313,
      "##anamo": 1314,
      "##ur": 1315,
      "▁exact": 1316,
      "▁cav": 1317,
      "▁08": 1318,
      "▁repet": 1319,
      "▁mailing": 1320,
      "▁kennedy": 1321,
      "▁yaz": 1322,
      "▁!!!!!!!!!!!!!!!": 1323,
      "##erry": 1324,
      "▁eee": 1325,
      "▁dragged": 1326,
      "##bruary": 1327,
      "▁writer": 1328,
      "##enues": 1329,
      "▁rathbun": 1330,
      "▁husband": 1331,
      "##orus": 1332,
      "▁vlog": 1333,
      "▁remainder": 1334,
      "▁pean": 1335,
      "▁forster": 1336,
      "▁reference": 1337,
      "▁swed": 1338,
      "##9th": 1339,
      "##ones@": 1340,
      "##bank": 1341,
      "##ision": 1342,
      "##口": 1343,
      "▁myth": 1344,
      "##issipp": 1345,
      "##killed": 1346,
      "▁713-853-3098": 1347,
      "##90": 1348,
      "▁approximation": 1349,
      "▁amending": 1350,
      "▁sin": 1351,
      "▁troops": 1352,
      "▁compuls": 1353,
      "▁monitor": 1354,
      "▁electrical": 1355,
      "▁crick": 1356,
      "▁advise": 1357,
      "▁coin": 1358,
      "▁bronze": 1359,
      "▁contain": 1360,
      "▁proper": 1361,
      "▁inspired": 1362,
      "▁noted": 1363,
      "▁article": 1364,
      "▁11:45": 1365,
      "▁undertaken": 1366,
      "▁bludgers": 1367,
      "##-e": 1368,
      "▁grade": 1369,
      "▁handsome": 1370,
      "▁tastes": 1371,
      "▁unhappy": 1372,
      "##201": 1373,
      "▁wonder": 1374,
      "▁judging": 1375,
      "▁devon": 1376,
      "▁injustice": 1377,
      "▁corn": 1378,
      "▁russians": 1379,
      "▁shirt": 1380,
      "▁included": 1381,
      "▁argent": 1382,
      "▁exem": 1383,
      "▁monthly": 1384,
      "▁invoked": 1385,
      "▁hydrogen": 1386,
      "▁rebels": 1387,
      "▁ulterior": 1388,
      "##zb": 1389,
      "▁165": 1390,
      "▁britney": 1391,
      "▁turns": 1392,
      "##oy": 1393,
      "▁correctly": 1394,
      "“": 1395,
      "▁generous": 1396,
      "▁cant": 1397,
      "▁mean": 1398,
      "▁chemical": 1399,
      "▁communicate": 1400,
      "▁spank": 1401,
      "▁secular": 1402,
      "##hastings.com": 1403,
      "##...": 1404,
      "##alo": 1405,
      "▁stops": 1406,
      "▁responsibilities": 1407,
      "▁progress": 1408,
      "▁934": 1409,
      "##ors": 1410,
      "##av": 1411,
      "▁legitim": 1412,
      "##pped": 1413,
      "##@n": 1414,
      "▁title": 1415,
      "▁successfully": 1416,
      "▁appearing": 1417,
      "##ued": 1418,
      "▁ralph": 1419,
      "▁business": 1420,
      "▁valley": 1421,
      "▁represent": 1422,
      "▁parts": 1423,
      "▁core": 1424,
      "▁belonged": 1425,
      "▁noise": 1426,
      "##acent": 1427,
      "▁quidditch": 1428,
      "▁unfortun": 1429,
      "▁filters": 1430,
      "##olly": 1431,
      "▁guess": 1432,
      "▁connecting": 1433,
      "##lessly": 1434,
      "▁robes": 1435,
      "##??": 1436,
      "▁spores": 1437,
      "▁david": 1438,
      "▁cred": 1439,
      "▁orientation": 1440,
      "##ards": 1441,
      "##ned": 1442,
      "▁delicious": 1443,
      "▁replication": 1444,
      "▁2nd": 1445,
      "▁goodbye": 1446,
      "▁analys": 1447,
      "▁barcl": 1448,
      "▁katrina": 1449,
      "▁nicobar": 1450,
      "▁compulsive": 1451,
      "▁purple": 1452,
      "▁retrie": 1453,
      "▁expert": 1454,
      "▁universal": 1455,
      "▁sect": 1456,
      "##-50": 1457,
      "▁dresser": 1458,
      "##hear": 1459,
      "▁powell": 1460,
      "▁poiss": 1461,
      "▁a": 1462,
      "▁scared": 1463,
      "▁legacy": 1464,
      "▁mob": 1465,
      "▁tower": 1466,
      "▁mangal": 1467,
      "▁organize": 1468,
      "▁travelled": 1469,
      "##eping": 1470,
      "▁jons": 1471,
      "▁gotted": 1472,
      "▁who": 1473,
      "▁unp": 1474,
      "▁furthermore": 1475,
      "▁filing": 1476,
      "▁bosnia": 1477,
      "▁sensing": 1478,
      "##ateral": 1479,
      "▁twelve": 1480,
      "▁antioch": 1481,
      "▁1958": 1482,
      "##12": 1483,
      "##ater": 1484,
      "▁obt": 1485,
      "##inger": 1486,
      "▁nationality": 1487,
      "琴": 1488,
      "▁courses": 1489,
      "▁wherever": 1490,
      "▁joshua": 1491,
      "▁politicians": 1492,
      "▁root": 1493,
      "##wig": 1494,
      "▁supers": 1495,
      "▁tim": 1496,
      "▁pest": 1497,
      "▁unaccept": 1498,
      "▁ups": 1499,
      "▁complex": 1500,
      "▁blackline": 1501,
      "##co": 1502,
      "▁administration": 1503,
      "##nament": 1504,
      "▁regulated": 1505,
      "▁1500": 1506,
      "▁flirting": 1507,
      "▁olivia": 1508,
      "▁3rd": 1509,
      "▁..........": 1510,
      "▁01:09": 1511,
      "▁association": 1512,
      "##aware": 1513,
      "▁scheduled": 1514,
      "▁cc": 1515,
      "##^": 1516,
      "##iana": 1517,
      "▁aff": 1518,
      "▁wis": 1519,
      "▁pri": 1520,
      "▁termination": 1521,
      "▁aug": 1522,
      "▁between": 1523,
      "y": 1524,
      "▁comed": 1525,
      "##202": 1526,
      "▁cloud": 1527,
      "▁tet": 1528,
      "##merce": 1529,
      "▁dinosaur": 1530,
      "▁exception": 1531,
      "▁37": 1532,
      "▁conditioning": 1533,
      "##ys": 1534,
      "▁nasa": 1535,
      "##ump": 1536,
      "##!!!!": 1537,
      "▁ercot": 1538,
      "##ins": 1539,
      "▁tickets": 1540,
      "##一": 1541,
      "▁jacob": 1542,
      "▁covid": 1543,
      "▁healing": 1544,
      "▁alter": 1545,
      "##:38": 1546,
      "▁11:16": 1547,
      "▁discomfort": 1548,
      "▁sk": 1549,
      "▁rescued": 1550,
      "▁ang": 1551,
      "##dham": 1552,
      "▁daughter": 1553,
      "▁wednesdays": 1554,
      "▁broadcasting": 1555,
      "##ken": 1556,
      "▁visited": 1557,
      "▁inning": 1558,
      "▁duties": 1559,
      "▁sp": 1560,
      "▁dipl": 1561,
      "▁sheikh": 1562,
      "▁roman": 1563,
      "▁british": 1564,
      "▁candles": 1565,
      "▁competition": 1566,
      "▁intellectual": 1567,
      "▁referring": 1568,
      "▁twin": 1569,
      "▁blows": 1570,
      "##ord": 1571,
      "▁distance": 1572,
      "▁cabinet": 1573,
      "##asc": 1574,
      "▁publicly": 1575,
      "▁exhausted": 1576,
      "▁boost": 1577,
      "▁equine": 1578,
      "##空": 1579,
      "▁electron": 1580,
      "▁lawsuit": 1581,
      "▁factor": 1582,
      "▁predict": 1583,
      "▁1.25": 1584,
      "▁12:3": 1585,
      "▁hon": 1586,
      "▁y": 1587,
      "##ature": 1588,
      "▁noises": 1589,
      "▁cul": 1590,
      "▁inspire": 1591,
      "▁partnership": 1592,
      "##urn": 1593,
      "##.p": 1594,
      "▁components": 1595,
      "▁html": 1596,
      "▁sad": 1597,
      "▁yaw": 1598,
      "##84": 1599,
      "▁coo": 1600,
      "▁twent": 1601,
      "▁tasty": 1602,
      "##unity": 1603,
      "##ione": 1604,
      "▁kidna": 1605,
      "▁tig": 1606,
      "▁pat": 1607,
      "▁transported": 1608,
      "▁tralee": 1609,
      "▁bure": 1610,
      "▁openly": 1611,
      "5": 1612,
      "##oding": 1613,
      "▁hum": 1614,
      "▁lettuce": 1615,
      "▁yoga": 1616,
      "▁in": 1617,
      "▁567.77": 1618,
      "▁190": 1619,
      "▁concerns": 1620,
      "▁burger": 1621,
      "▁nice": 1622,
      "▁traffic": 1623,
      "▁annoy": 1624,
      "▁muslim": 1625,
      "##anged": 1626,
      "▁curt": 1627,
      "▁dryer": 1628,
      "▁joh": 1629,
      "##54-": 1630,
      "▁1039": 1631,
      "▁guerr": 1632,
      "##ure": 1633,
      "▁answer": 1634,
      "▁pooh": 1635,
      "▁wash": 1636,
      "##119": 1637,
      "▁aber": 1638,
      "▁53": 1639,
      "▁escaped": 1640,
      "▁reduces": 1641,
      "▁exists": 1642,
      "▁pink": 1643,
      "▁derivatives": 1644,
      "▁stup": 1645,
      "##ration": 1646,
      "##128": 1647,
      "▁likewise": 1648,
      "▁beverage": 1649,
      "▁term": 1650,
      "▁conviction": 1651,
      "##book": 1652,
      "##ilight": 1653,
      "▁purp": 1654,
      "▁sufficient": 1655,
      "▁balloon": 1656,
      "▁hunt": 1657,
      "▁led": 1658,
      "▁holder": 1659,
      "▁insur": 1660,
      "▁harmony": 1661,
      "▁deput": 1662,
      "▁mailto:": 1663,
      "▁fundamentalist": 1664,
      "▁profess": 1665,
      "▁****": 1666,
      "▁ide": 1667,
      "▁ess": 1668,
      "##ko": 1669,
      "▁cheese": 1670,
      "▁arm": 1671,
      "##selves": 1672,
      "▁farmers": 1673,
      "▁prolong": 1674,
      "▁chu": 1675,
      "▁backed": 1676,
      "▁basically": 1677,
      "▁fa": 1678,
      "▁perfume": 1679,
      "▁1/4": 1680,
      "▁regime": 1681,
      "▁lime": 1682,
      "▁fin": 1683,
      "▁auth": 1684,
      "▁historic": 1685,
      "▁o'clock": 1686,
      "▁skilled": 1687,
      "##emies": 1688,
      "##yah": 1689,
      "▁gl": 1690,
      "▁ninety-nine": 1691,
      "▁russ": 1692,
      "▁dy": 1693,
      "▁cozy": 1694,
      "▁departments": 1695,
      "▁sch": 1696,
      "▁activities": 1697,
      "##e.": 1698,
      "▁italian": 1699,
      "##ama": 1700,
      "▁neuro": 1701,
      "▁travelers": 1702,
      "▁1600": 1703,
      "▁1955": 1704,
      "##ened": 1705,
      "▁exciting": 1706,
      "▁1593": 1707,
      "▁sincer": 1708,
      "▁positive": 1709,
      "▁cla": 1710,
      "▁ozone": 1711,
      "▁meh-": 1712,
      "▁stopping": 1713,
      "▁issues": 1714,
      "##ville": 1715,
      "▁spring": 1716,
      "##haps": 1717,
      "##idge": 1718,
      "##pool": 1719,
      "▁ship": 1720,
      "▁interpret": 1721,
      "▁beatles": 1722,
      "▁pops": 1723,
      "##!?": 1724,
      "▁strolled": 1725,
      "##eb": 1726,
      "▁feet": 1727,
      "##uation": 1728,
      "▁playstation": 1729,
      "▁involving": 1730,
      "▁dun": 1731,
      "▁easier": 1732,
      "▁conversational": 1733,
      "▁bees": 1734,
      "##being": 1735,
      "##unh": 1736,
      "▁taller": 1737,
      "▁manufacturers": 1738,
      "▁ment": 1739,
      "▁skill": 1740,
      "▁scrape": 1741,
      "##uction": 1742,
      "▁room": 1743,
      "▁believe": 1744,
      "▁oval": 1745,
      "▁sympt": 1746,
      "▁horror": 1747,
      "▁place": 1748,
      "▁invo": 1749,
      "##naissance": 1750,
      "##son": 1751,
      "▁yourselves": 1752,
      "##.16": 1753,
      "##ects": 1754,
      "▁230": 1755,
      "▁acupunct": 1756,
      "▁ann": 1757,
      "##itt": 1758,
      "▁tat": 1759,
      "##,950": 1760,
      "▁christian": 1761,
      "##search": 1762,
      "b": 1763,
      "▁modification": 1764,
      "▁fan": 1765,
      "▁car": 1766,
      "##standing": 1767,
      "▁showing": 1768,
      "▁okay": 1769,
      "▁alright": 1770,
      "▁substances": 1771,
      "▁awards": 1772,
      "##oler": 1773,
      "▁spread": 1774,
      "##outs": 1775,
      "▁poland": 1776,
      "▁inexp": 1777,
      "▁smells": 1778,
      "##tie": 1779,
      "▁1245": 1780,
      "▁hamper": 1781,
      "▁pretty": 1782,
      "▁subsequently": 1783,
      "▁light": 1784,
      "▁journal": 1785,
      "▁subject": 1786,
      "##ive": 1787,
      "##ative": 1788,
      "##ico": 1789,
      "▁approached": 1790,
      "▁soap": 1791,
      "##redes": 1792,
      "##ad": 1793,
      "▁bookstore": 1794,
      "▁earthworms": 1795,
      "▁dis": 1796,
      "▁holds": 1797,
      "▁skin": 1798,
      "##exp": 1799,
      "▁enjambment": 1800,
      "##aroni": 1801,
      "▁80,000": 1802,
      "▁stations": 1803,
      "▁seconds": 1804,
      "##formed": 1805,
      "▁por": 1806,
      "##ivers": 1807,
      "▁papers": 1808,
      "▁(a)": 1809,
      "▁deserve": 1810,
      "##ughty": 1811,
      "##com": 1812,
      "##~*~*~*~*": 1813,
      "▁missing": 1814,
      "▁insights": 1815,
      "▁firing": 1816,
      "▁400": 1817,
      "▁might": 1818,
      "▁delays": 1819,
      "▁agre": 1820,
      "▁higu": 1821,
      "▁entirely": 1822,
      "▁ordinary": 1823,
      "▁scale": 1824,
      "▁ballerina": 1825,
      "▁punch": 1826,
      "▁aaf": 1827,
      "##yon": 1828,
      "▁cro": 1829,
      "▁scoring": 1830,
      "▁roared": 1831,
      "▁2004": 1832,
      "▁such": 1833,
      "▁subscribe": 1834,
      "▁indigenous": 1835,
      "##auts": 1836,
      "##ist": 1837,
      "▁fest": 1838,
      "▁luc": 1839,
      "##/4": 1840,
      "▁description": 1841,
      "▁3:30": 1842,
      "▁friendships": 1843,
      "▁ships": 1844,
      "▁scholars": 1845,
      "▁self-": 1846,
      "▁ngu": 1847,
      "▁lamb": 1848,
      "▁howard": 1849,
      "▁brushing": 1850,
      "▁amend": 1851,
      "##icial": 1852,
      "▁7:00": 1853,
      "▁tran": 1854,
      "▁malfoy": 1855,
      "▁world": 1856,
      "##oss": 1857,
      "▁locust": 1858,
      "▁plaintiffs": 1859,
      "▁lonely": 1860,
      "▁happier": 1861,
      "##:37": 1862,
      "▁rick": 1863,
      "##ally": 1864,
      "▁artists": 1865,
      "▁financially": 1866,
      "##arian": 1867,
      "▁venture": 1868,
      "##ite": 1869,
      "▁376": 1870,
      "##vals": 1871,
      "▁eng": 1872,
      "▁guy": 1873,
      "▁training": 1874,
      "▁warning": 1875,
      "▁814.863": 1876,
      "▁greatest": 1877,
      "▁entrepreneurial": 1878,
      "##inence": 1879,
      "▁fif": 1880,
      "▁junk": 1881,
      "▁enr": 1882,
      "▁cuisine": 1883,
      "▁curator": 1884,
      "▁autonomy": 1885,
      "▁pictures": 1886,
      "▁china": 1887,
      "▁okinawa": 1888,
      "▁peer": 1889,
      "▁normal": 1890,
      "▁philosophers": 1891,
      "▁finish": 1892,
      "▁welcomed": 1893,
      "▁regard": 1894,
      "▁mental": 1895,
      "▁options": 1896,
      "▁mystery": 1897,
      "▁deliber": 1898,
      "▁115": 1899,
      "▁----==": 1900,
      "##y@ect": 1901,
      "▁reli": 1902,
      "##as": 1903,
      "▁frustration": 1904,
      "▁epc": 1905,
      "##77": 1906,
      "▁pettigrew": 1907,
      "▁pervez": 1908,
      "▁aggressive": 1909,
      "##ere": 1910,
      "▁announced": 1911,
      "▁dislike": 1912,
      "▁harb": 1913,
      "▁precise": 1914,
      "静": 1915,
      "▁structures": 1916,
      "##ters": 1917,
      "▁programm": 1918,
      "▁airline": 1919,
      "▁client": 1920,
      "ص": 1921,
      "▁caf": 1922,
      "##v": 1923,
      "▁struct": 1924,
      "▁relief": 1925,
      "▁d.": 1926,
      "▁evening": 1927,
      "▁registered": 1928,
      "▁alito": 1929,
      "▁auntie": 1930,
      "▁doctor": 1931,
      "##,000,000,000": 1932,
      "##alt": 1933,
      "▁tripped": 1934,
      "##:15": 1935,
      "##iots": 1936,
      "▁time": 1937,
      "▁torch": 1938,
      "▁contains": 1939,
      "▁exporting": 1940,
      "▁hob": 1941,
      "▁antique": 1942,
      "▁knocked": 1943,
      "▁atlantic": 1944,
      "▁occupation": 1945,
      "##ibald": 1946,
      "##ceptions": 1947,
      "▁brill": 1948,
      "▁abbreviation": 1949,
      "▁cz": 1950,
      "▁complic": 1951,
      "▁5000": 1952,
      "▁lovely": 1953,
      "##6021": 1954,
      "▁rene": 1955,
      "##21": 1956,
      "▁guerrillas": 1957,
      "##come": 1958,
      "▁mycel": 1959,
      "▁foods": 1960,
      "▁applause": 1961,
      "▁extending": 1962,
      "▁sunni": 1963,
      "▁tempt": 1964,
      "▁particip": 1965,
      "▁59": 1966,
      "▁hub": 1967,
      "▁iraqis": 1968,
      "##和": 1969,
      "▁naq": 1970,
      "▁vis": 1971,
      "▁ba'ath": 1972,
      "▁null": 1973,
      "▁initiatives": 1974,
      "▁1925": 1975,
      "▁heaven": 1976,
      "##tedly": 1977,
      "▁sony": 1978,
      "▁generated": 1979,
      "▁glac": 1980,
      "##otic": 1981,
      "▁1611": 1982,
      "##ikes": 1983,
      "##:32": 1984,
      "▁713-654-128": 1985,
      "▁163": 1986,
      "▁solas": 1987,
      "▁exposure": 1988,
      "▁edison": 1989,
      "▁drives": 1990,
      "▁repairs": 1991,
      "##reen": 1992,
      "##ivity": 1993,
      "▁commitment": 1994,
      "▁safe": 1995,
      "▁wheel": 1996,
      "##oping": 1997,
      "c": 1998,
      "▁france": 1999,
      "▁lav": 2000,
      "▁widely": 2001,
      "▁choices": 2002,
      "▁dentist": 2003,
      "▁expense": 2004,
      "▁unequ": 2005,
      "▁start": 2006,
      "▁seem": 2007,
      "##ribe": 2008,
      "▁agra": 2009,
      "▁unfortunate": 2010,
      "▁limited": 2011,
      "▁knew": 2012,
      "▁mild": 2013,
      "▁ours": 2014,
      "▁waive": 2015,
      "▁mezza": 2016,
      "▁princip": 2017,
      "▁spectacular": 2018,
      "▁futures": 2019,
      "▁flexibility": 2020,
      "▁surroundings": 2021,
      "##23": 2022,
      "##pent": 2023,
      "▁oct.": 2024,
      "▁jumps": 2025,
      "▁alban": 2026,
      "▁menu": 2027,
      "▁hear": 2028,
      "##rael": 2029,
      "▁thirty": 2030,
      "▁fore": 2031,
      "▁infected": 2032,
      "▁grad": 2033,
      "▁fun": 2034,
      "▁entree": 2035,
      "▁2008": 2036,
      "▁fulf": 2037,
      "▁aboard": 2038,
      "▁focusing": 2039,
      "▁slight": 2040,
      "▁pickle": 2041,
      "▁objective": 2042,
      "▁discrim": 2043,
      "▁comp.s": 2044,
      "##58": 2045,
      "▁eager": 2046,
      "▁bell": 2047,
      "▁stain": 2048,
      "##'": 2049,
      "▁reminder": 2050,
      "▁lucky": 2051,
      "##rick": 2052,
      "##ashion": 2053,
      "##parnasse": 2054,
      "##ables": 2055,
      "##ange": 2056,
      "▁desper": 2057,
      "##>": 2058,
      "##gamer": 2059,
      "▁dart": 2060,
      "##:07": 2061,
      "▁surround": 2062,
      "▁gul": 2063,
      "▁discussion": 2064,
      "##icop": 2065,
      "▁rapport": 2066,
      "##ole": 2067,
      "▁roadgrad": 2068,
      "##mare": 2069,
      "▁unl": 2070,
      "##lv": 2071,
      "▁clim": 2072,
      "▁walter": 2073,
      "##ould": 2074,
      "葉": 2075,
      "##45": 2076,
      "##rates": 2077,
      "▁sight": 2078,
      "▁patty": 2079,
      "▁highest": 2080,
      "▁sixth": 2081,
      "▁luther": 2082,
      "▁crad": 2083,
      "▁regulatory": 2084,
      "▁durs": 2085,
      "▁functionality": 2086,
      "▁enfor": 2087,
      "▁201": 2088,
      "▁avocado": 2089,
      "##illed": 2090,
      "▁shipped": 2091,
      "##ware": 2092,
      "##0010": 2093,
      "▁nam": 2094,
      "▁paid": 2095,
      "##ugg": 2096,
      "▁scrib": 2097,
      "▁dream": 2098,
      "▁ect": 2099,
      "##pp": 2100,
      "▁dut": 2101,
      "▁van": 2102,
      "##argement": 2103,
      "▁cartoon": 2104,
      "▁uhh": 2105,
      "▁268": 2106,
      "▁paral": 2107,
      "▁''": 2108,
      "▁releases": 2109,
      "▁printing": 2110,
      "##verance": 2111,
      "##gress": 2112,
      "##oug": 2113,
      "▁burnt": 2114,
      "▁accounting": 2115,
      "▁opening": 2116,
      "~": 2117,
      "▁teleph": 2118,
      "▁clarify": 2119,
      "▁build": 2120,
      "▁pict": 2121,
      "▁credential": 2122,
      "▁even": 2123,
      "▁table": 2124,
      "▁h-0": 2125,
      "▁refuse": 2126,
      "樋": 2127,
      "▁grid": 2128,
      "▁mcc": 2129,
      "▁creates": 2130,
      "▁pittsburgh": 2131,
      "▁licensed": 2132,
      "▁losing": 2133,
      "▁dallas": 2134,
      "▁everyone": 2135,
      "▁allegations": 2136,
      "##mon": 2137,
      "▁davis": 2138,
      "▁release": 2139,
      "##bish": 2140,
      "▁mushroom": 2141,
      "▁trade": 2142,
      "▁sql": 2143,
      "▁surger": 2144,
      "▁reporter": 2145,
      "▁par": 2146,
      "▁labyr": 2147,
      "▁meals": 2148,
      "▁phone": 2149,
      "▁dottie": 2150,
      "▁lope": 2151,
      "▁cond": 2152,
      "##-9": 2153,
      "##zema": 2154,
      "▁backpack": 2155,
      "##owned": 2156,
      "▁fence": 2157,
      "▁hunh": 2158,
      "##roduct": 2159,
      "##-war": 2160,
      "▁analyses": 2161,
      "▁education": 2162,
      "##ulated": 2163,
      "▁fam": 2164,
      "▁dim": 2165,
      "▁brian": 2166,
      "▁cryst": 2167,
      "▁nonstop": 2168,
      "▁andaman": 2169,
      "▁overpriced": 2170,
      "▁organisation": 2171,
      "▁female": 2172,
      "▁five": 2173,
      "▁shows": 2174,
      "▁contrib": 2175,
      "▁presum": 2176,
      "▁syd": 2177,
      "▁basic": 2178,
      "##υ": 2179,
      "▁reflects": 2180,
      "##lev": 2181,
      "▁slow": 2182,
      "▁poverty": 2183,
      "▁416-865-370": 2184,
      "##uced": 2185,
      "▁facts": 2186,
      "▁race": 2187,
      "##raph": 2188,
      "▁musicians": 2189,
      "▁barbeque": 2190,
      "▁silic": 2191,
      "▁thousands": 2192,
      "▁instructor": 2193,
      "##essed": 2194,
      "▁demonstration": 2195,
      "▁states": 2196,
      "▁direct": 2197,
      "##achel": 2198,
      "##era": 2199,
      "▁thanks": 2200,
      "▁sophistic": 2201,
      "▁mar": 2202,
      "##asis": 2203,
      "▁m": 2204,
      "▁emph": 2205,
      "##rop": 2206,
      "▁763736": 2207,
      "▁529999": 2208,
      "▁lam": 2209,
      "▁char": 2210,
      "▁oreg": 2211,
      "▁stall": 2212,
      "▁treatment": 2213,
      "▁stipulation": 2214,
      "▁snow": 2215,
      "▁folio": 2216,
      "▁magnificent": 2217,
      "##iversary": 2218,
      "▁fitting": 2219,
      "▁without": 2220,
      "▁713-79": 2221,
      "▁sticker": 2222,
      "▁yup": 2223,
      "▁border": 2224,
      "▁motionless": 2225,
      "▁involved": 2226,
      "▁poem": 2227,
      "##orne": 2228,
      "##.7": 2229,
      "▁allegedly": 2230,
      "▁won": 2231,
      "▁cash": 2232,
      "▁bare": 2233,
      "▁seed": 2234,
      "▁trail": 2235,
      "▁seventeen": 2236,
      "▁cub": 2237,
      "▁coincidence": 2238,
      "##”": 2239,
      "▁unemployment": 2240,
      "▁with": 2241,
      "▁stores": 2242,
      "▁saud": 2243,
      "▁d'": 2244,
      "##§": 2245,
      "##me": 2246,
      "▁terminal": 2247,
      "##isia": 2248,
      "▁row": 2249,
      "▁khinss": 2250,
      "##imir": 2251,
      "½": 2252,
      "▁bur": 2253,
      "##-up": 2254,
      "▁eyes": 2255,
      "##je": 2256,
      "▁emperor": 2257,
      "▁tested": 2258,
      "▁picnic": 2259,
      "##ans": 2260,
      "##-10": 2261,
      "##.ur": 2262,
      "▁adding": 2263,
      "▁nostr": 2264,
      "##cohol": 2265,
      "▁resc": 2266,
      "▁substantial": 2267,
      "▁aggregate": 2268,
      "▁mouth": 2269,
      "▁orchestra": 2270,
      "▁administr": 2271,
      "##agan": 2272,
      "▁discussed": 2273,
      "##kes": 2274,
      "##big.html": 2275,
      "▁ltte": 2276,
      "▁tricks": 2277,
      "▁reprod": 2278,
      "▁.doc": 2279,
      "##alys": 2280,
      "▁records": 2281,
      "##tsbur": 2282,
      "▁giraffe": 2283,
      "▁oo": 2284,
      "▁container": 2285,
      "##oub": 2286,
      "##7/2001": 2287,
      "▁trips": 2288,
      "▁acknowledge": 2289,
      "##eller": 2290,
      "▁uk": 2291,
      "##ell": 2292,
      "▁behav": 2293,
      "▁–": 2294,
      "##eff": 2295,
      "▁barger": 2296,
      "▁execut": 2297,
      "▁literary": 2298,
      "▁depth": 2299,
      "▁appro": 2300,
      "▁milk": 2301,
      "▁territ": 2302,
      "##nets": 2303,
      "▁enter": 2304,
      "▁fel": 2305,
      "▁heather": 2306,
      "▁gathered": 2307,
      "##self": 2308,
      "##stand": 2309,
      "##cling": 2310,
      "▁transc": 2311,
      "▁princ": 2312,
      "▁affluent": 2313,
      "▁activity": 2314,
      "▁fe": 2315,
      "▁ax": 2316,
      "##518": 2317,
      "=": 2318,
      "##teenth": 2319,
      "##mond": 2320,
      "##rem": 2321,
      "▁celebrity": 2322,
      "▁420": 2323,
      "▁clou": 2324,
      "▁smallest": 2325,
      "##ten": 2326,
      "▁accurately": 2327,
      "##n": 2328,
      "▁1988": 2329,
      "▁array": 2330,
      "▁insp": 2331,
      "##iger": 2332,
      "▁nasty": 2333,
      "▁copied": 2334,
      "▁ques": 2335,
      "▁background": 2336,
      "▁olmec": 2337,
      "##not": 2338,
      "##text": 2339,
      "▁halls": 2340,
      "##atted": 2341,
      "▁perhaps": 2342,
      "▁sweater": 2343,
      "▁pu": 2344,
      "##:24": 2345,
      "▁pins": 2346,
      "▁zurbaran": 2347,
      "▁england": 2348,
      "▁supporting": 2349,
      "▁4": 2350,
      "##ult": 2351,
      "##o": 2352,
      "▁greeting": 2353,
      "▁pret": 2354,
      "▁q": 2355,
      "##hi": 2356,
      "##091": 2357,
      "##ero": 2358,
      "▁fant": 2359,
      "▁.........": 2360,
      "▁1300": 2361,
      "▁strong": 2362,
      "▁greater": 2363,
      "▁lengthy": 2364,
      "##tra": 2365,
      "▁humor": 2366,
      "▁requesting": 2367,
      "▁bm": 2368,
      "▁gaz": 2369,
      "▁mind": 2370,
      "▁kos": 2371,
      "▁desir": 2372,
      "▁jumping": 2373,
      "▁ouij": 2374,
      "##attle": 2375,
      "▁rath": 2376,
      "▁conservative": 2377,
      "▁sor": 2378,
      "▁tro": 2379,
      "▁ir": 2380,
      "▁04/30/2001": 2381,
      "▁&amp;": 2382,
      "▁seeds": 2383,
      "▁classified": 2384,
      "▁palm": 2385,
      "##isure": 2386,
      "▁obsession": 2387,
      "▁customers": 2388,
      "▁ecodes": 2389,
      "!": 2390,
      "▁regarded": 2391,
      "##utory": 2392,
      "▁participated": 2393,
      "▁witnesses": 2394,
      "##isp": 2395,
      "▁heel": 2396,
      "▁began": 2397,
      "▁3.1": 2398,
      "▁1962": 2399,
      "▁sensitive": 2400,
      "▁showed": 2401,
      "▁bottles": 2402,
      "▁687": 2403,
      "##36": 2404,
      "##kaido": 2405,
      "▁engineer": 2406,
      "▁complain": 2407,
      "▁boarding": 2408,
      "▁zip": 2409,
      "##ari": 2410,
      "▁zion": 2411,
      "▁whisper": 2412,
      "##one": 2413,
      "##ه": 2414,
      "##he": 2415,
      "▁rays": 2416,
      "##ran": 2417,
      "▁enabled": 2418,
      "▁40": 2419,
      "▁syntax": 2420,
      "▁helmet": 2421,
      "▁styl": 2422,
      "▁apartments": 2423,
      "▁louis": 2424,
      "##-m": 2425,
      "##ograph": 2426,
      "##ims": 2427,
      "▁sum": 2428,
      "##lackl": 2429,
      "##ses": 2430,
      "▁kinds": 2431,
      "▁army": 2432,
      "▁steve": 2433,
      "##cat": 2434,
      "▁responded": 2435,
      "##animals": 2436,
      "##ands": 2437,
      "▁seventeenth": 2438,
      "▁'ve": 2439,
      "▁webs": 2440,
      "▁646-84": 2441,
      "##aping": 2442,
      "▁starts": 2443,
      "▁j.": 2444,
      "▁diarr": 2445,
      "▁reconst": 2446,
      "##dog": 2447,
      "▁acc": 2448,
      "▁defensive": 2449,
      "##tica": 2450,
      "▁professors": 2451,
      "▁governments": 2452,
      "##.clair@enron.com": 2453,
      "▁enjoyed": 2454,
      "▁bosom": 2455,
      "▁mostly": 2456,
      "▁kim": 2457,
      "▁conscience": 2458,
      "▁ninety": 2459,
      "▁difficulty": 2460,
      "##79": 2461,
      "▁metals": 2462,
      "▁classical": 2463,
      "▁unre": 2464,
      "##uffling": 2465,
      "▁rhodes": 2466,
      "▁fusca": 2467,
      "▁412": 2468,
      "##fr": 2469,
      "▁matt": 2470,
      "▁fashion": 2471,
      "▁l.": 2472,
      "▁principles": 2473,
      "▁use": 2474,
      "▁depart": 2475,
      "▁purse": 2476,
      "▁beauveria": 2477,
      "▁betty": 2478,
      "##uce": 2479,
      "▁remove": 2480,
      "▁products": 2481,
      "##ucks": 2482,
      "##ambling": 2483,
      "▁dash": 2484,
      "▁prop": 2485,
      "▁mississipp": 2486,
      "▁lust": 2487,
      "##inqu": 2488,
      "▁raph": 2489,
      "##os.com": 2490,
      "▁lol": 2491,
      "▁portland": 2492,
      "▁838": 2493,
      "##------": 2494,
      "▁emer": 2495,
      "▁shar": 2496,
      "##laim": 2497,
      "##group": 2498,
      "▁domin": 2499,
      "▁denied": 2500,
      "▁austin": 2501,
      "▁be": 2502,
      "▁themselves": 2503,
      "▁eb": 2504,
      "▁squared": 2505,
      "▁introd": 2506,
      "▁loo": 2507,
      "▁14": 2508,
      "▁sex": 2509,
      "▁truth": 2510,
      "##itch": 2511,
      "▁10:25": 2512,
      "##.95": 2513,
      "▁merchant": 2514,
      "##atan": 2515,
      "▁nodd": 2516,
      "▁nursery": 2517,
      "▁orland": 2518,
      "▁sweat": 2519,
      "▁replacing": 2520,
      "▁wide": 2521,
      "▁trust": 2522,
      "▁outcom": 2523,
      "##bean": 2524,
      "##arent": 2525,
      "▁danc": 2526,
      "##les": 2527,
      "▁holders": 2528,
      "▁sounds": 2529,
      "▁significantly": 2530,
      "▁goode": 2531,
      "▁customer": 2532,
      "##eda": 2533,
      "##iel": 2534,
      "▁levels": 2535,
      "▁sc": 2536,
      "▁authors": 2537,
      "▁society": 2538,
      "▁airlines": 2539,
      "▁£": 2540,
      "▁heightened": 2541,
      "▁shouted": 2542,
      "▁tele": 2543,
      "##ol": 2544,
      "▁cin": 2545,
      "▁telephones": 2546,
      "▁america": 2547,
      "##illance": 2548,
      "▁underground": 2549,
      "▁containing": 2550,
      "##get": 2551,
      "▁elaborate": 2552,
      "▁shed": 2553,
      "##di": 2554,
      "##fore": 2555,
      "▁ger": 2556,
      "▁craig": 2557,
      "##—": 2558,
      "▁mayonnaise": 2559,
      "▁oneself": 2560,
      "##verning": 2561,
      "▁ton": 2562,
      "▁tv": 2563,
      "▁weight": 2564,
      "##樋": 2565,
      "▁pilgrims": 2566,
      "▁bo": 2567,
      "▁l'enf": 2568,
      "▁tooth": 2569,
      "▁chang": 2570,
      "▁*": 2571,
      "▁stew": 2572,
      "▁martyrs": 2573,
      "##ini": 2574,
      "▁looks": 2575,
      "▁42,000": 2576,
      "▁ana": 2577,
      "▁wildlife": 2578,
      "▁apron": 2579,
      "▁crappy": 2580,
      "##ahoo": 2581,
      "▁clock": 2582,
      "▁vietn": 2583,
      "▁1947": 2584,
      "▁aimed": 2585,
      "▁cuck": 2586,
      "▁gw": 2587,
      "▁according": 2588,
      "##gers": 2589,
      "##–": 2590,
      "]": 2591,
      "▁entrance": 2592,
      "▁moustache": 2593,
      "▁island": 2594,
      "▁prepare": 2595,
      "▁bank": 2596,
      "▁success": 2597,
      "▁voices": 2598,
      "▁freedoms": 2599,
      "▁jihad": 2600,
      "##isl": 2601,
      "▁exist": 2602,
      "▁div": 2603,
      "▁mist": 2604,
      "▁143": 2605,
      "##司": 2606,
      "▁detail": 2607,
      "▁whatsoever": 2608,
      "▁anth": 2609,
      "##pi": 2610,
      "▁twa": 2611,
      "##sl": 2612,
      "##iness": 2613,
      "▁shin": 2614,
      "##just": 2615,
      "##:/": 2616,
      "##==": 2617,
      "##fort": 2618,
      "▁zeus": 2619,
      "▁11,000": 2620,
      "▁occas": 2621,
      "▁20:00": 2622,
      "▁guaranteed": 2623,
      "▁dish": 2624,
      "▁destiny": 2625,
      "▁unit": 2626,
      "##---": 2627,
      "▁igu": 2628,
      "▁comedy": 2629,
      "##__": 2630,
      "▁feelings": 2631,
      "▁01/12/2001": 2632,
      "▁coming": 2633,
      "##tw": 2634,
      "▁therap": 2635,
      "▁borgin": 2636,
      "##igator": 2637,
      "▁1110": 2638,
      "▁mm": 2639,
      "▁resist": 2640,
      "▁clin": 2641,
      "▁guards": 2642,
      "##ending": 2643,
      "▁winter": 2644,
      "##berry": 2645,
      "▁download": 2646,
      "▁travel": 2647,
      "▁thank": 2648,
      "##-house": 2649,
      "▁somet": 2650,
      "▁arrange": 2651,
      "▁magical": 2652,
      "▁punishment": 2653,
      "##ational": 2654,
      "▁producers": 2655,
      "##bee": 2656,
      "▁olympic": 2657,
      "▁crime": 2658,
      "▁lant": 2659,
      "▁o'": 2660,
      "▁mold": 2661,
      "▁outlets": 2662,
      "▁court": 2663,
      "▁ar": 2664,
      "v": 2665,
      "▁fourth": 2666,
      "##mem": 2667,
      "▁www.": 2668,
      "##arraf": 2669,
      "##grade": 2670,
      "▁punchline": 2671,
      "▁barn": 2672,
      "▁scient": 2673,
      "##ayed": 2674,
      "##avian": 2675,
      "▁courts": 2676,
      "▁cooker": 2677,
      "▁oppress": 2678,
      "▁duration": 2679,
      "##tegr": 2680,
      "▁dropped": 2681,
      "▁207": 2682,
      "▁tyler": 2683,
      "▁shale": 2684,
      "▁away": 2685,
      "▁hippop": 2686,
      "##iov": 2687,
      "▁spacetime": 2688,
      "##rella": 2689,
      "##ement": 2690,
      "▁hjalmar": 2691,
      "▁hu": 2692,
      "▁missile": 2693,
      "▁reception": 2694,
      "▁mish": 2695,
      "▁opposed": 2696,
      "▁adam": 2697,
      "▁dram": 2698,
      "▁radical": 2699,
      "▁observation": 2700,
      "##ulations": 2701,
      "▁lee": 2702,
      "##uated": 2703,
      "##antics": 2704,
      "▁cooperate": 2705,
      "▁motiv": 2706,
      "▁smiled": 2707,
      "▁consistently": 2708,
      "▁neatly": 2709,
      "▁west": 2710,
      "▁descriptions": 2711,
      "▁’ll": 2712,
      "##oween": 2713,
      "##ases": 2714,
      "▁waves": 2715,
      "▁failures": 2716,
      "▁neolog": 2717,
      "##ricane": 2718,
      "▁preferences": 2719,
      "▁permitted": 2720,
      "▁eric": 2721,
      "▁paine": 2722,
      "▁deliver": 2723,
      "▁inevitable": 2724,
      "▁marshm": 2725,
      "▁cos": 2726,
      "▁ear": 2727,
      "▁invented": 2728,
      "▁amuse": 2729,
      "▁cosm": 2730,
      "##ette": 2731,
      "▁florida": 2732,
      "##ʻ": 2733,
      "##osoph": 2734,
      "▁romeo": 2735,
      "▁bum": 2736,
      "##ora": 2737,
      "▁glacier": 2738,
      "##/chernobyl/": 2739,
      "##assing": 2740,
      "▁assist": 2741,
      "▁chomsky": 2742,
      "▁consc": 2743,
      "▁motion": 2744,
      "▁shade": 2745,
      "▁1819": 2746,
      "##59": 2747,
      "##031": 2748,
      "▁travels": 2749,
      "▁reviews": 2750,
      "▁communications": 2751,
      "##imin": 2752,
      "▁ackn": 2753,
      "▁rais": 2754,
      "##uations": 2755,
      "##urt": 2756,
      "▁2.975": 2757,
      "##ires": 2758,
      "▁attach": 2759,
      "##----------": 2760,
      "▁sources": 2761,
      "##ario": 2762,
      "▁remain": 2763,
      "##-st": 2764,
      "▁wish": 2765,
      "▁nail": 2766,
      "▁each": 2767,
      "▁cognition": 2768,
      "▁...............": 2769,
      "▁fancy": 2770,
      "▁drive": 2771,
      "▁revision": 2772,
      "▁fung": 2773,
      "##iot": 2774,
      "▁20": 2775,
      "▁’’": 2776,
      "▁spend": 2777,
      "##iking": 2778,
      "▁strang": 2779,
      "▁applies": 2780,
      "##ology": 2781,
      "##:23": 2782,
      "##63": 2783,
      "##oin": 2784,
      "##/25/2001": 2785,
      "▁butt": 2786,
      "▁billion": 2787,
      "▁270": 2788,
      "▁taliban": 2789,
      "##vet": 2790,
      "▁stre": 2791,
      "▁lasts": 2792,
      "▁1981": 2793,
      "##eney": 2794,
      "▁ml": 2795,
      "▁thinking": 2796,
      "▁prest": 2797,
      "▁compli": 2798,
      "▁arrivals": 2799,
      "▁video": 2800,
      "▁htt": 2801,
      "▁fist": 2802,
      "##ways": 2803,
      "##za": 2804,
      "▁2.15": 2805,
      "▁hoo": 2806,
      "##-5": 2807,
      "##etch": 2808,
      "##use": 2809,
      "▁2010": 2810,
      "##len": 2811,
      "▁descended": 2812,
      "▁curves": 2813,
      "▁adn": 2814,
      "##amm": 2815,
      "##action": 2816,
      "▁stars": 2817,
      "▁compl": 2818,
      "##ain": 2819,
      "▁federal": 2820,
      "▁1977": 2821,
      "▁header": 2822,
      "▁behin": 2823,
      "▁puerto": 2824,
      "▁ny": 2825,
      "▁hours": 2826,
      "▁civil": 2827,
      "▁midwest": 2828,
      "##aroo": 2829,
      "▁dependent": 2830,
      "##yard": 2831,
      "▁labrad": 2832,
      "▁opinions": 2833,
      "▁librarians": 2834,
      "▁thunder": 2835,
      "▁factors": 2836,
      "▁jo": 2837,
      "▁myst": 2838,
      "▁usd": 2839,
      "▁circles": 2840,
      "▁admit": 2841,
      "▁michigan": 2842,
      "▁rab": 2843,
      "▁selling": 2844,
      "▁415.782": 2845,
      "▁----": 2846,
      "▁abrupt": 2847,
      "##ct": 2848,
      "##mn": 2849,
      "▁p.": 2850,
      "▁current": 2851,
      "▁alternatively": 2852,
      "▁specify": 2853,
      "##ested": 2854,
      "▁pillars": 2855,
      "▁marvel": 2856,
      "▁vel": 2857,
      "▁aberde": 2858,
      "▁quad": 2859,
      "▁informative": 2860,
      "▁sed": 2861,
      "▁eerie": 2862,
      "▁starvation": 2863,
      "▁s’": 2864,
      "##iring": 2865,
      "▁shakespeare": 2866,
      "▁seems": 2867,
      "▁1200": 2868,
      "▁979": 2869,
      "▁modes": 2870,
      "▁bowl": 2871,
      "▁flying": 2872,
      "▁telesc": 2873,
      "▁indication": 2874,
      "##ir": 2875,
      "##em": 2876,
      "▁collins": 2877,
      "##icking": 2878,
      "ɛ": 2879,
      "##ask": 2880,
      "▁ro": 2881,
      "▁helping": 2882,
      "▁sue": 2883,
      "▁saucepan": 2884,
      "▁correlation": 2885,
      "▁cincinnati": 2886,
      "▁transm": 2887,
      "▁incentive": 2888,
      "▁civ": 2889,
      "##aw": 2890,
      "##ute": 2891,
      "▁vince": 2892,
      "▁dwell": 2893,
      "▁tournament": 2894,
      "▁laughed": 2895,
      "▁burn": 2896,
      "▁crunch": 2897,
      "▁decide": 2898,
      "##asse": 2899,
      "##isy": 2900,
      "▁libya": 2901,
      "▁modified": 2902,
      "▁renting": 2903,
      "▁jim": 2904,
      "▁draw": 2905,
      "▁1,6": 2906,
      "▁explore": 2907,
      "##hib": 2908,
      "▁shore": 2909,
      "▁mut": 2910,
      "##nam": 2911,
      "▁polit": 2912,
      "##jatra": 2913,
      "[": 2914,
      "▁mid-1": 2915,
      "▁digitally": 2916,
      "▁47,500": 2917,
      "##enix": 2918,
      "▁uncover": 2919,
      "##ctic": 2920,
      "▁ground": 2921,
      "▁andy": 2922,
      "▁anti": 2923,
      "▁nomination": 2924,
      "##:18": 2925,
      "▁received": 2926,
      "▁curb": 2927,
      "▁korea": 2928,
      "▁athens": 2929,
      "▁poll": 2930,
      "▁05/01/2001": 2931,
      "▁lifetime": 2932,
      "##oga": 2933,
      "##05": 2934,
      "##itated": 2935,
      "▁motives": 2936,
      "▁excel": 2937,
      "▁since": 2938,
      "##.m.": 2939,
      "▁masterpi": 2940,
      "##equ": 2941,
      "▁childcare": 2942,
      "清": 2943,
      "##non": 2944,
      "▁historical": 2945,
      "▁tuna": 2946,
      "▁washing": 2947,
      "▁troub": 2948,
      "##affle": 2949,
      "▁lately": 2950,
      "▁2022": 2951,
      "▁nt": 2952,
      "▁michael": 2953,
      "▁upi": 2954,
      "▁mag": 2955,
      "▁september": 2956,
      "▁collectively": 2957,
      "▁canad": 2958,
      "▁idiot": 2959,
      "▁phenomen": 2960,
      "##ki": 2961,
      "▁khan@transredes": 2962,
      "▁braz": 2963,
      "▁worksh": 2964,
      "▁constitu": 2965,
      "▁inc": 2966,
      "▁bailey": 2967,
      "▁valid": 2968,
      "▁pione": 2969,
      "##va": 2970,
      "##acarias": 2971,
      "##ver": 2972,
      "▁łodz": 2973,
      "▁uneasy": 2974,
      "##iqui": 2975,
      "▁stick": 2976,
      "##++++++++": 2977,
      "▁vul": 2978,
      "▁prem": 2979,
      "▁********": 2980,
      "▁wishes": 2981,
      "▁titled": 2982,
      "▁enough": 2983,
      "▁tofu": 2984,
      "▁nav": 2985,
      "▁kidding": 2986,
      "▁41": 2987,
      "▁beard": 2988,
      "▁area": 2989,
      "##琴": 2990,
      "▁honour": 2991,
      "▁doughnuts": 2992,
      "##aneous": 2993,
      "▁hesit": 2994,
      "▁`s": 2995,
      "##-991-90": 2996,
      "▁judiciary": 2997,
      "▁mil": 2998,
      "▁rescue": 2999,
      "▁gives": 3000,
      "##ipper": 3001,
      "▁agg": 3002,
      "▁alt.animals.": 3003,
      "▁shown": 3004,
      "▁sydney": 3005,
      "##d-": 3006,
      "##arded": 3007,
      "##otts": 3008,
      "##lemm": 3009,
      "##quest": 3010,
      "##ju": 3011,
      "▁settled": 3012,
      "▁productivity": 3013,
      "▁banana": 3014,
      "▁celebrating": 3015,
      "▁poss": 3016,
      "▁opinion": 3017,
      "▁diary": 3018,
      "▁pilots": 3019,
      "▁prince": 3020,
      "##:19": 3021,
      "▁cited": 3022,
      "##ings.com": 3023,
      "▁shorts": 3024,
      "▁09:01": 3025,
      "##card": 3026,
      "▁virgin": 3027,
      "▁falling": 3028,
      "▁networks": 3029,
      "▁wig": 3030,
      "▁ambit": 3031,
      "▁ter": 3032,
      "##,9": 3033,
      "▁upr": 3034,
      "▁express": 3035,
      "▁provision": 3036,
      "▁awww": 3037,
      "##ons": 3038,
      "▁plat": 3039,
      "▁assigned": 3040,
      "▁stuck": 3041,
      "▁fran": 3042,
      "▁matching": 3043,
      "▁technology": 3044,
      "##uling": 3045,
      "▁lazy": 3046,
      "▁kind": 3047,
      "##15": 3048,
      "▁clar": 3049,
      "##清": 3050,
      "▁compat": 3051,
      "▁3,500": 3052,
      "▁maple": 3053,
      "##ansion": 3054,
      "##erald": 3055,
      "##ually": 3056,
      "##ec": 3057,
      "▁hey": 3058,
      "##enue": 3059,
      "▁ownership": 3060,
      "▁02/27/2001": 3061,
      "##raw": 3062,
      "▁sheep": 3063,
      "▁architectural": 3064,
      "▁democracy": 3065,
      "▁crab": 3066,
      "▁slower": 3067,
      "▁secret": 3068,
      "▁sits": 3069,
      "##rib": 3070,
      "##ude": 3071,
      "▁covering": 3072,
      "▁frogs": 3073,
      "▁called": 3074,
      "▁learned": 3075,
      "##ato": 3076,
      "##hone": 3077,
      "▁satisf": 3078,
      "▁neil": 3079,
      "##worm": 3080,
      "▁removal": 3081,
      "▁liquid": 3082,
      "▁netherlands": 3083,
      "▁sain": 3084,
      "▁sacrifice": 3085,
      "▁intention": 3086,
      "▁mins": 3087,
      "▁ceremony": 3088,
      "▁2015": 3089,
      "##²": 3090,
      "▁purposes": 3091,
      "▁unlikely": 3092,
      "▁part": 3093,
      "▁thirty-five": 3094,
      "▁important": 3095,
      "▁weeks": 3096,
      "▁million": 3097,
      "▁ducks": 3098,
      "▁alligator": 3099,
      "▁11:32": 3100,
      "▁tresp": 3101,
      "▁profit": 3102,
      "▁experim": 3103,
      "▁charlotte": 3104,
      "▁bleachers": 3105,
      "##aaaa": 3106,
      "▁civilized": 3107,
      "▁attachments": 3108,
      "▁łodzian": 3109,
      "##.ell": 3110,
      "##stop": 3111,
      "▁reflecting": 3112,
      "▁trauma": 3113,
      "▁employment": 3114,
      "▁correl": 3115,
      "▁agricult": 3116,
      "▁arriving": 3117,
      "▁transparency": 3118,
      "▁destination": 3119,
      "▁hoped": 3120,
      "▁lanka": 3121,
      "##int": 3122,
      "▁mou": 3123,
      "▁special": 3124,
      "##721": 3125,
      "▁#": 3126,
      "[CLS]": 3127,
      "▁campaign": 3128,
      "▁macaroni": 3129,
      "▁anthony": 3130,
      "▁ms.": 3131,
      "▁boat": 3132,
      "▁treated": 3133,
      "▁updates": 3134,
      "▁sauv": 3135,
      "▁glow": 3136,
      "▁11/27/2000": 3137,
      "▁applied": 3138,
      "▁strateg": 3139,
      "▁huck": 3140,
      "▁interconn": 3141,
      "▁manusc": 3142,
      "▁professionals": 3143,
      "##thers": 3144,
      "▁reads": 3145,
      "▁aft": 3146,
      "▁dies": 3147,
      "▁worlds": 3148,
      "##ted": 3149,
      "▁during": 3150,
      "▁stories": 3151,
      "##bol": 3152,
      "▁1890": 3153,
      "▁ahmed": 3154,
      "▁pricing": 3155,
      "▁incompreh": 3156,
      "##/c": 3157,
      "##iful": 3158,
      "▁method": 3159,
      "▁hack": 3160,
      "▁lesson": 3161,
      "##eapolis": 3162,
      "▁exce": 3163,
      "▁prospects": 3164,
      "▁mic": 3165,
      "▁sail": 3166,
      "▁tou": 3167,
      "##pin": 3168,
      "▁fighting": 3169,
      "▁466": 3170,
      "▁handy": 3171,
      "▁roles": 3172,
      "##nd": 3173,
      "▁line": 3174,
      "▁?!?": 3175,
      "##ring": 3176,
      "▁substant": 3177,
      "▁p.m.": 3178,
      "▁statutory": 3179,
      "▁hasidim": 3180,
      "▁extreme": 3181,
      "▁hano": 3182,
      "▁rational": 3183,
      "▁past": 3184,
      "▁seventh": 3185,
      "##orable": 3186,
      "##ant": 3187,
      "▁vegetarian": 3188,
      "▁718": 3189,
      "▁relations": 3190,
      "▁arguments": 3191,
      "▁chiro": 3192,
      "▁cigare": 3193,
      "▁luxurious": 3194,
      "▁palest": 3195,
      "##part": 3196,
      "▁wink": 3197,
      "▁chalk": 3198,
      "##cab": 3199,
      "▁meant": 3200,
      "▁rah": 3201,
      "▁brave": 3202,
      "##king": 3203,
      "▁stay": 3204,
      "▁sounded": 3205,
      "##819602175": 3206,
      "##huh": 3207,
      "▁leopold": 3208,
      "▁french": 3209,
      "##riage": 3210,
      "j": 3211,
      "▁volunte": 3212,
      "▁microphone": 3213,
      "▁rigid": 3214,
      "##ces": 3215,
      "▁continents": 3216,
      "▁^": 3217,
      "▁civilian": 3218,
      "▁warhol": 3219,
      "▁power": 3220,
      "##entive": 3221,
      "▁incident": 3222,
      "▁************************************************": 3223,
      "▁416-865-3": 3224,
      "▁flav": 3225,
      "▁messages": 3226,
      "▁ug": 3227,
      "▁grande": 3228,
      "▁threat": 3229,
      "##rupt": 3230,
      "##yen": 3231,
      "##@ect": 3232,
      "▁questar": 3233,
      "##uct": 3234,
      "▁submit": 3235,
      "##zzy": 3236,
      "▁congratulate": 3237,
      "▁orbit": 3238,
      "▁weasleys": 3239,
      "▁pot": 3240,
      "▁ultim": 3241,
      "子": 3242,
      "▁sailed": 3243,
      "▁damascus": 3244,
      "±": 3245,
      "▁guild": 3246,
      "##fer": 3247,
      "▁occurred": 3248,
      "▁overcome": 3249,
      "▁1973": 3250,
      "▁iranian": 3251,
      "##iqu": 3252,
      "▁amazing": 3253,
      "##bi": 3254,
      "▁displaced": 3255,
      "##oard": 3256,
      "▁dav": 3257,
      "▁jeffrey": 3258,
      "##wet": 3259,
      "▁estimated": 3260,
      "▁assisting": 3261,
      "▁scratching": 3262,
      "▁protein": 3263,
      "##azu": 3264,
      "▁quotes": 3265,
      "▁dwww": 3266,
      "##..": 3267,
      "▁youth": 3268,
      "▁sexual": 3269,
      "▁hook": 3270,
      "▁fisheries": 3271,
      "▁canc": 3272,
      "▁saturday": 3273,
      "▁bleeding": 3274,
      "##ability": 3275,
      "▁11:30": 3276,
      "##/10/2000": 3277,
      "▁arrows": 3278,
      "▁coupons": 3279,
      "##ʁ": 3280,
      "▁generation": 3281,
      "▁viewing": 3282,
      "▁amazingly": 3283,
      "▁decre": 3284,
      "▁football": 3285,
      "##aham": 3286,
      "##embers": 3287,
      "▁courtney": 3288,
      "▁glance": 3289,
      "▁accustomed": 3290,
      "▁fed": 3291,
      "##ching": 3292,
      "▁kar": 3293,
      "▁wou": 3294,
      "##unch": 3295,
      "▁harry": 3296,
      "▁sponsored": 3297,
      "##iate": 3298,
      "##ublic": 3299,
      "▁weap": 3300,
      "##pot": 3301,
      "▁sat": 3302,
      "▁200": 3303,
      "##2.doc": 3304,
      "▁blood": 3305,
      "▁defend": 3306,
      "▁pyr": 3307,
      "▁les": 3308,
      "▁patch": 3309,
      "##liness": 3310,
      "##step": 3311,
      "▁celebr": 3312,
      "▁hr": 3313,
      "▁scenic": 3314,
      "##ade": 3315,
      "▁universe": 3316,
      "##ges": 3317,
      "▁unemploy": 3318,
      "▁fourteen": 3319,
      "▁net": 3320,
      "##icient": 3321,
      "▁baff": 3322,
      "##-a": 3323,
      "##iated": 3324,
      "▁059085": 3325,
      "▁domain": 3326,
      "▁grandm": 3327,
      "▁tomato": 3328,
      "▁horn": 3329,
      "##cond": 3330,
      "##!": 3331,
      "▁beg": 3332,
      "##ounced": 3333,
      "▁sid": 3334,
      "▁strength": 3335,
      "##expl": 3336,
      "&": 3337,
      "▁'71": 3338,
      "▁voldemort": 3339,
      "▁soften": 3340,
      "▁somewhere": 3341,
      "##ots": 3342,
      "▁ye": 3343,
      "▁cpa": 3344,
      "▁emper": 3345,
      "▁complained": 3346,
      "▁accidentally": 3347,
      "▁1115": 3348,
      "▁flat": 3349,
      "▁ecosystem": 3350,
      "▁nap": 3351,
      "▁bedroom": 3352,
      "▁liv": 3353,
      "▁stat": 3354,
      "▁thinks": 3355,
      "##t": 3356,
      "▁cont": 3357,
      "▁experts": 3358,
      "▁newspapers": 3359,
      "▁death": 3360,
      "##ij": 3361,
      "##isal": 3362,
      "▁panc": 3363,
      "##ha": 3364,
      "▁striking": 3365,
      "▁diff": 3366,
      "▁upstairs": 3367,
      "▁solely": 3368,
      "##itis": 3369,
      "##elia": 3370,
      "▁commons": 3371,
      "##:01": 3372,
      "▁dock": 3373,
      "##ocation": 3374,
      "##da": 3375,
      "▁wings": 3376,
      "▁gin": 3377,
      "▁thrones": 3378,
      "▁stung": 3379,
      "▁museums": 3380,
      "##ails": 3381,
      "▁presence": 3382,
      "##hous": 3383,
      "▁porch": 3384,
      "▁infl": 3385,
      "##oices": 3386,
      "▁claim": 3387,
      "##ulating": 3388,
      "▁pregn": 3389,
      "▁syrup": 3390,
      "▁ignorant": 3391,
      "▁ign": 3392,
      "##ummy": 3393,
      "▁initial": 3394,
      "##lik": 3395,
      "##5/2001": 3396,
      "▁convention": 3397,
      "▁urs": 3398,
      "##ida": 3399,
      "▁duck": 3400,
      "▁regards": 3401,
      "▁stock": 3402,
      "▁para": 3403,
      "##-com": 3404,
      "##onent": 3405,
      "▁1610": 3406,
      "▁memphis": 3407,
      "▁difference": 3408,
      "▁norwe": 3409,
      "▁catastroph": 3410,
      "▁flash": 3411,
      "▁epistemic": 3412,
      "▁mankind": 3413,
      "▁jersey": 3414,
      "##ether": 3415,
      "▁congratulations": 3416,
      "▁bomb": 3417,
      "▁shaped": 3418,
      "▁inquiry": 3419,
      "##als": 3420,
      "▁complement": 3421,
      "▁negotiated": 3422,
      "▁remo": 3423,
      "▁spikes": 3424,
      "▁pachom": 3425,
      "▁nichol": 3426,
      "##-cl": 3427,
      "▁conspir": 3428,
      "▁1986": 3429,
      "▁trans": 3430,
      "▁asset": 3431,
      "▁800.713.8": 3432,
      "▁faculty": 3433,
      "▁1993": 3434,
      "▁liber": 3435,
      "▁empty": 3436,
      "▁cathy": 3437,
      "##note": 3438,
      "▁depends": 3439,
      "▁ugh": 3440,
      "▁timely": 3441,
      "▁harbor": 3442,
      "▁economy": 3443,
      "▁disin": 3444,
      "▁beating": 3445,
      "▁settlements": 3446,
      "▁pine": 3447,
      "▁peter": 3448,
      "▁1583": 3449,
      "▁strengthening": 3450,
      "▁admissions": 3451,
      "▁160": 3452,
      "##,0": 3453,
      "##¢": 3454,
      "▁peanuts": 3455,
      "▁documented": 3456,
      "▁widespread": 3457,
      "▁breast": 3458,
      "▁landsc": 3459,
      "▁852": 3460,
      "##elt": 3461,
      "##liament": 3462,
      "▁cru": 3463,
      "##iscal": 3464,
      "▁awareness": 3465,
      "▁°": 3466,
      "▁frustrated": 3467,
      "▁oper": 3468,
      "##est": 3469,
      "▁ox": 3470,
      "##0's": 3471,
      "▁geographical": 3472,
      "##*{": 3473,
      "▁reaff": 3474,
      "##ause": 3475,
      "▁soup": 3476,
      "▁snitch": 3477,
      "▁11-20-2000": 3478,
      "▁granger": 3479,
      "▁chatting": 3480,
      "▁demonstr": 3481,
      "▁ł": 3482,
      "▁consist": 3483,
      "##ingle": 3484,
      "##eros": 3485,
      "##ical": 3486,
      "▁error": 3487,
      "##81": 3488,
      "▁slee": 3489,
      "##ellig": 3490,
      "▁exagger": 3491,
      "▁raw": 3492,
      "▁cuz": 3493,
      "▁d": 3494,
      "▁exc": 3495,
      "▁ul": 3496,
      "▁rs": 3497,
      "▁memorial": 3498,
      "##op": 3499,
      "▁laugh": 3500,
      "▁game": 3501,
      "▁!!!!!!!": 3502,
      "▁installed": 3503,
      "▁curve": 3504,
      "▁vic": 3505,
      "##icip": 3506,
      "▁>----------------------------------------------------------------------------|": 3507,
      "##ensen": 3508,
      "##ihood": 3509,
      "▁thri": 3510,
      "▁....": 3511,
      "##20s": 3512,
      "##unks": 3513,
      "▁dall": 3514,
      "##fri": 3515,
      "▁western": 3516,
      "##.c.": 3517,
      "##acc": 3518,
      "▁for": 3519,
      "▁nurse": 3520,
      "▁embedded": 3521,
      "▁than": 3522,
      "##raved": 3523,
      "▁perceptions": 3524,
      "▁contempl": 3525,
      "▁owing": 3526,
      "##abling": 3527,
      "▁interviewers": 3528,
      "▁cath": 3529,
      "▁adopt": 3530,
      "▁schools": 3531,
      "▁joint": 3532,
      "▁meditation": 3533,
      "▁stacked": 3534,
      "▁gentle": 3535,
      "▁houston": 3536,
      "##5-0": 3537,
      "▁byebye": 3538,
      "▁eating": 3539,
      "▁whoever": 3540,
      "▁surgery": 3541,
      "▁philippines": 3542,
      "▁saturdays": 3543,
      "▁persistent": 3544,
      "▁wins": 3545,
      "▁result": 3546,
      "##.jpg": 3547,
      "##onym": 3548,
      "▁smaller": 3549,
      "▁1598": 3550,
      "##eal": 3551,
      "▁four": 3552,
      "▁package": 3553,
      "▁medic": 3554,
      "▁upcoming": 3555,
      "▁co-f": 3556,
      "▁fold": 3557,
      "▁ninth": 3558,
      "▁notwithstand": 3559,
      "▁kurtz": 3560,
      "▁lunch": 3561,
      "##roy": 3562,
      "##elp": 3563,
      "▁occur": 3564,
      "▁escape": 3565,
      "##six": 3566,
      "##inal": 3567,
      "▁d.c.": 3568,
      "##hop": 3569,
      "▁100": 3570,
      "▁permission": 3571,
      "▁heck": 3572,
      "▁whole": 3573,
      "##asiness": 3574,
      "▁instructed": 3575,
      "▁furniture": 3576,
      "##anie": 3577,
      "▁br": 3578,
      "▁shinjuku": 3579,
      "▁stand": 3580,
      "▁nationwide": 3581,
      "##uff": 3582,
      "##:05": 3583,
      "▁11/08/2000": 3584,
      "▁mariner": 3585,
      "▁ja": 3586,
      "▁forwarded": 3587,
      "▁anticip": 3588,
      "##-27": 3589,
      "▁ontario": 3590,
      "一": 3591,
      "▁virtually": 3592,
      "▁cargo": 3593,
      "▁petsmart": 3594,
      "▁ma": 3595,
      "▁maria": 3596,
      "▁?????": 3597,
      "▁goose": 3598,
      "▁3.5": 3599,
      "▁18,000": 3600,
      "▁income": 3601,
      "▁notify": 3602,
      "▁tiger": 3603,
      "▁relativ": 3604,
      "▁armies": 3605,
      "##ched": 3606,
      "▁portions": 3607,
      "##arf": 3608,
      "▁sinking": 3609,
      "▁percentiles": 3610,
      "▁natives": 3611,
      "▁accent": 3612,
      "▁arkansas": 3613,
      "▁financed": 3614,
      "▁bubbles": 3615,
      "##2-6": 3616,
      "▁quebec": 3617,
      "▁watered": 3618,
      "▁jack": 3619,
      "▁hussein": 3620,
      "##uster": 3621,
      "▁whom": 3622,
      "▁?": 3623,
      "▁compens": 3624,
      "##.html": 3625,
      "▁proposing": 3626,
      "▁18": 3627,
      "▁banned": 3628,
      "▁priorities": 3629,
      "##eeting": 3630,
      "##ister": 3631,
      "##ence": 3632,
      "▁analysis": 3633,
      "▁accessible": 3634,
      "▁uncom": 3635,
      "▁l2": 3636,
      "▁comparative": 3637,
      "▁moved": 3638,
      "▁osaka": 3639,
      "▁matters": 3640,
      "##pre": 3641,
      "▁kus": 3642,
      "▁relics": 3643,
      "▁slipped": 3644,
      "▁do": 3645,
      "▁tape": 3646,
      "▁alphabet": 3647,
      "▁richard": 3648,
      "▁year": 3649,
      "▁robber": 3650,
      "▁6/1": 3651,
      "▁39": 3652,
      "##\\": 3653,
      "▁antiqu": 3654,
      "▁electric": 3655,
      "▁bn": 3656,
      "▁one": 3657,
      "s": 3658,
      "▁plant": 3659,
      "▁88": 3660,
      "▁unto": 3661,
      "▁emphasize": 3662,
      "▁motive": 3663,
      "▁heading": 3664,
      "▁obvious": 3665,
      "▁embarrass": 3666,
      "▁pled": 3667,
      "▁patrick": 3668,
      "▁luck": 3669,
      "##walk": 3670,
      "##ihu": 3671,
      "▁steel": 3672,
      "▁seam": 3673,
      "▁beat": 3674,
      "▁momma": 3675,
      "▁phoenix": 3676,
      "▁transactions": 3677,
      "##mo": 3678,
      "▁extensive": 3679,
      "▁pach": 3680,
      "▁:-)": 3681,
      "##ai": 3682,
      "▁libriv": 3683,
      "▁britain": 3684,
      "##stairs": 3685,
      "▁descend": 3686,
      "▁win": 3687,
      "▁jokes": 3688,
      "▁auck": 3689,
      "▁hamburg": 3690,
      "##eness": 3691,
      "▁producing": 3692,
      "▁wrongdo": 3693,
      "▁suspended": 3694,
      "##beit": 3695,
      "▁until": 3696,
      "##ely": 3697,
      "▁effect": 3698,
      "▁westchester": 3699,
      "▁oz": 3700,
      "▁dna": 3701,
      "▁scorp": 3702,
      "▁o": 3703,
      "▁pushing": 3704,
      "▁constant": 3705,
      "▁ninet": 3706,
      "▁turnpike": 3707,
      "##umb": 3708,
      "##uity": 3709,
      "▁habitat": 3710,
      "▁stare": 3711,
      "##verted": 3712,
      "##aded": 3713,
      "▁appell": 3714,
      "▁13": 3715,
      "▁chill": 3716,
      "##iard": 3717,
      "▁-%": 3718,
      "▁pairs": 3719,
      "##asser": 3720,
      "▁ewww": 3721,
      "##42": 3722,
      "##-class": 3723,
      "▁101": 3724,
      "##ivia": 3725,
      "▁!?": 3726,
      "▁4_2": 3727,
      "##trans": 3728,
      "▁vagu": 3729,
      "▁fal": 3730,
      "##57": 3731,
      "▁entered": 3732,
      "▁food": 3733,
      "▁hamburger": 3734,
      "▁ecodesign": 3735,
      "▁traditionally": 3736,
      "▁suddenly": 3737,
      "▁airplane": 3738,
      "##season": 3739,
      "▁its": 3740,
      "##erie": 3741,
      "▁consume": 3742,
      "##ca": 3743,
      "▁house": 3744,
      "▁http://www": 3745,
      "##-84": 3746,
      "▁weapons": 3747,
      "##.uk": 3748,
      "▁lt": 3749,
      "▁determination": 3750,
      "▁creek": 3751,
      "▁formica": 3752,
      "▁ambition": 3753,
      "▁troubled": 3754,
      "▁poses": 3755,
      "▁employ": 3756,
      "▁ta": 3757,
      "▁absence": 3758,
      "▁=)": 3759,
      "##thansa": 3760,
      "▁resting": 3761,
      "##ords": 3762,
      "▁lyn": 3763,
      "##owl": 3764,
      "##guard": 3765,
      "7": 3766,
      "##....": 3767,
      "##gmail.com": 3768,
      "▁1724": 3769,
      "▁horsies": 3770,
      "▁muggle": 3771,
      "▁job": 3772,
      "##es": 3773,
      "##rum": 3774,
      "▁guit": 3775,
      "▁adjustments": 3776,
      "▁houses": 3777,
      "▁committee": 3778,
      "▁furn": 3779,
      "▁ec": 3780,
      "▁files": 3781,
      "▁book": 3782,
      "▁popeye": 3783,
      "▁how": 3784,
      "▁deriv": 3785,
      "▁ethnocentrism": 3786,
      "##ates": 3787,
      "##asts": 3788,
      "▁asking": 3789,
      "##igible": 3790,
      "▁paulo": 3791,
      "▁te": 3792,
      "▁josh": 3793,
      "▁researching": 3794,
      "▁ap": 3795,
      "▁enemy": 3796,
      "▁bombings": 3797,
      "▁liquidweb": 3798,
      "##le": 3799,
      "▁neu": 3800,
      "▁label": 3801,
      "▁blinked": 3802,
      "##ercial": 3803,
      "▁smell": 3804,
      "▁requests": 3805,
      "▁todd": 3806,
      "▁walls": 3807,
      "▁sharon": 3808,
      "▁atl": 3809,
      "▁rode": 3810,
      "▁attachment": 3811,
      "▁meth": 3812,
      "▁generate": 3813,
      "▁ward": 3814,
      "▁bom": 3815,
      "##osite": 3816,
      "▁investigation": 3817,
      "▁martyr": 3818,
      "▁spacecraft": 3819,
      "##iately": 3820,
      "##wind": 3821,
      "▁subsc": 3822,
      "##lest": 3823,
      "▁ak": 3824,
      "##cot": 3825,
      "▁waving": 3826,
      "▁igts": 3827,
      "▁gil": 3828,
      "▁toy": 3829,
      "▁sem": 3830,
      "▁rapidly": 3831,
      "##2951_": 3832,
      "▁knot": 3833,
      "▁vlad": 3834,
      "▁able": 3835,
      "▁worked": 3836,
      "▁zo": 3837,
      "▁knock": 3838,
      "▁tunisia": 3839,
      "▁gorbach": 3840,
      "▁bureauc": 3841,
      "▁authentic": 3842,
      "▁metro": 3843,
      "▁pock": 3844,
      "##========": 3845,
      "▁touch": 3846,
      "▁bumped": 3847,
      "##bell": 3848,
      "▁org": 3849,
      "▁discussing": 3850,
      "▁lung": 3851,
      "▁happ": 3852,
      "▁morocco": 3853,
      "##b": 3854,
      "##ifies": 3855,
      "▁secure": 3856,
      "##ugh": 3857,
      "▁capacity": 3858,
      "▁fuss": 3859,
      "▁majority": 3860,
      "##sen": 3861,
      "▁tore": 3862,
      "▁interval": 3863,
      "▁possibilities": 3864,
      "▁planet": 3865,
      "▁tile": 3866,
      "▁solved": 3867,
      "▁significance": 3868,
      "▁ther": 3869,
      "▁african": 3870,
      "##atra": 3871,
      "▁declaring": 3872,
      "▁iq": 3873,
      "▁tells": 3874,
      "▁adapted": 3875,
      "▁shone": 3876,
      "▁madrid": 3877,
      "▁rhym": 3878,
      "▁licens": 3879,
      "▁ell": 3880,
      "▁attended": 3881,
      "▁milwaukee": 3882,
      "▁combined": 3883,
      "##hole": 3884,
      "##ial": 3885,
      "##opment": 3886,
      "▁nicely": 3887,
      "▁suite": 3888,
      "▁town": 3889,
      "▁consideration": 3890,
      "##gary": 3891,
      "##il": 3892,
      "##viat": 3893,
      "▁suggesting": 3894,
      "▁translates": 3895,
      "▁perro": 3896,
      "▁policy": 3897,
      "▁disappeared": 3898,
      "▁after": 3899,
      "▁temp": 3900,
      "##iped": 3901,
      "▁w3c": 3902,
      "##roit": 3903,
      "##icted": 3904,
      "##amped": 3905,
      "▁dries": 3906,
      "▁overfl": 3907,
      "▁wednesday": 3908,
      "##ica": 3909,
      "▁recommended": 3910,
      "▁assemb": 3911,
      "▁allerg": 3912,
      "▁frust": 3913,
      "##ich": 3914,
      "▁scramb": 3915,
      "▁vict": 3916,
      "▁colored": 3917,
      "▁cre": 3918,
      "▁entities": 3919,
      "##news/image/2005.09": 3920,
      "##zilla": 3921,
      "##.consum": 3922,
      "##ay": 3923,
      "##acts": 3924,
      "##ulatory": 3925,
      "▁malf": 3926,
      "▁throu": 3927,
      "##71": 3928,
      "▁endang": 3929,
      "▁scientology": 3930,
      "##ffin": 3931,
      "##eling": 3932,
      "▁checked": 3933,
      "##sus": 3934,
      "▁stranger": 3935,
      "▁angles": 3936,
      "▁notified": 3937,
      "▁directly": 3938,
      "▁forwarding": 3939,
      "▁farmer": 3940,
      "▁@": 3941,
      "▁253": 3942,
      "▁inter": 3943,
      "##l": 3944,
      "▁constit": 3945,
      "▁iu": 3946,
      "##iences": 3947,
      "▁1.4": 3948,
      "▁overth": 3949,
      "▁march": 3950,
      "▁keeps": 3951,
      "##our": 3952,
      "▁breaking": 3953,
      "▁cute": 3954,
      "▁erase": 3955,
      "##erto": 3956,
      "▁manuf": 3957,
      "##ba": 3958,
      "▁presentation": 3959,
      "▁kenya": 3960,
      "▁pieces": 3961,
      "▁6871082": 3962,
      "▁please": 3963,
      "▁07/17/2000": 3964,
      "##况": 3965,
      "▁design": 3966,
      "▁double": 3967,
      "▁beetle": 3968,
      "##ster": 3969,
      "▁posed": 3970,
      "▁counterpart": 3971,
      "##ovich": 3972,
      "▁7:30": 3973,
      "▁placed": 3974,
      "▁11:07": 3975,
      "▁fragile": 3976,
      "▁conf": 3977,
      "▁farms": 3978,
      "▁legitimacy": 3979,
      "##aper": 3980,
      "▁expon": 3981,
      "##}*{": 3982,
      "▁fabric": 3983,
      "▁kwww": 3984,
      "▁concer": 3985,
      "▁weeds": 3986,
      "▁situations": 3987,
      "▁citrus": 3988,
      "▁sust": 3989,
      "▁s-": 3990,
      "▁publish": 3991,
      "▁doggies": 3992,
      "##ploy": 3993,
      "▁protect": 3994,
      "▁estimates": 3995,
      "▁any": 3996,
      "##oon": 3997,
      "▁finding": 3998,
      "▁desert": 3999,
      "##.b": 4000,
      "▁tug": 4001,
      "▁mecca": 4002,
      "▁11.5": 4003,
      "▁moment": 4004,
      "##90s": 4005,
      "▁colom": 4006,
      "▁cind": 4007,
      "▁recreat": 4008,
      "▁old": 4009,
      "▁motorcy": 4010,
      "▁cyn": 4011,
      "##owed": 4012,
      "▁swallow": 4013,
      "##-to": 4014,
      "▁coher": 4015,
      "▁them": 4016,
      "▁flour": 4017,
      "▁minus": 4018,
      "▁prov": 4019,
      "▁machines": 4020,
      "▁expl": 4021,
      "▁non-avian": 4022,
      "▁linking": 4023,
      "##ile": 4024,
      "▁triv": 4025,
      "▁......": 4026,
      "▁tray": 4027,
      "▁total": 4028,
      "▁miss": 4029,
      "▁moist": 4030,
      "##bed": 4031,
      "▁all": 4032,
      "▁chem": 4033,
      "▁website": 4034,
      "▁theropod": 4035,
      "▁completing": 4036,
      "▁dread": 4037,
      "##r.": 4038,
      "##.713.8": 4039,
      "##umbled": 4040,
      "▁iqr": 4041,
      "##uing": 4042,
      "▁chao": 4043,
      "▁residential": 4044,
      "▁nyc": 4045,
      "▁injust": 4046,
      "▁moust": 4047,
      "▁n’t": 4048,
      "▁leader": 4049,
      "▁450": 4050,
      "▁incentives": 4051,
      "##2000": 4052,
      "▁geographic": 4053,
      "▁sar": 4054,
      "##olyn": 4055,
      "▁carvings": 4056,
      "▁bars": 4057,
      "##65-3": 4058,
      "▁maintenance": 4059,
      "▁bicycle": 4060,
      "▁wak": 4061,
      "##st": 4062,
      "▁chop": 4063,
      "▁-----": 4064,
      "▁join": 4065,
      "▁roost": 4066,
      "##derm": 4067,
      "##.676": 4068,
      "▁integr": 4069,
      "▁jose": 4070,
      "▁know": 4071,
      "##wr": 4072,
      "▁poles": 4073,
      "▁occasionally": 4074,
      "▁theirs": 4075,
      "▁permits": 4076,
      "▁da": 4077,
      "▁comp": 4078,
      "▁receive": 4079,
      "▁presently": 4080,
      "▁purch": 4081,
      "▁trying": 4082,
      "##uit": 4083,
      "▁enthusiasm": 4084,
      "▁http://www.4gamer.net/news/image/2005.09/2005091903": 4085,
      "▁causes": 4086,
      "▁nym": 4087,
      "▁reserves": 4088,
      "▁forget": 4089,
      "▁economically": 4090,
      "▁boing": 4091,
      "▁explains": 4092,
      "▁manager": 4093,
      "▁popsicle": 4094,
      "▁league": 4095,
      "▁store": 4096,
      "##cell": 4097,
      "##-b": 4098,
      "▁followed": 4099,
      "##htub": 4100,
      "##gal": 4101,
      "▁toronto": 4102,
      "▁features": 4103,
      "t": 4104,
      "▁rip": 4105,
      "##d2": 4106,
      "##boy": 4107,
      "▁define": 4108,
      "▁750": 4109,
      "▁dissemination": 4110,
      "▁bott": 4111,
      "▁knowledg": 4112,
      "▁phd": 4113,
      "##zy": 4114,
      "▁alan": 4115,
      "▁1-8": 4116,
      "▁repaired": 4117,
      "##anted": 4118,
      "▁ano": 4119,
      "##rison": 4120,
      "▁compliance": 4121,
      "##rev": 4122,
      "▁preparation": 4123,
      "▁raf": 4124,
      "▁minimal": 4125,
      "##lies": 4126,
      "▁dir": 4127,
      "▁technologies": 4128,
      "▁filthy": 4129,
      "##/2000": 4130,
      "▁case": 4131,
      "▁check": 4132,
      "▁pile": 4133,
      "▁borrow": 4134,
      "▁nag": 4135,
      "▁trim": 4136,
      "▁loyal": 4137,
      "▁thousand": 4138,
      "▁rely": 4139,
      "▁macbeth": 4140,
      "▁deer": 4141,
      "▁extent": 4142,
      "▁encourage": 4143,
      "▁eleg": 4144,
      "▁plut": 4145,
      "▁membership": 4146,
      "##way": 4147,
      "##ais": 4148,
      "▁statistics": 4149,
      "##osure": 4150,
      "##rol": 4151,
      "▁scottish": 4152,
      "▁kicking": 4153,
      "▁sprouts": 4154,
      "▁ensured": 4155,
      "▁extract": 4156,
      "▁gods": 4157,
      "##eurial": 4158,
      "▁non-": 4159,
      "▁endea": 4160,
      "▁uniquely": 4161,
      "▁compensate": 4162,
      "##tail": 4163,
      "▁role": 4164,
      "##.3": 4165,
      "##/30/2001": 4166,
      "▁aim": 4167,
      "▁mujah": 4168,
      "▁deem": 4169,
      "##rest": 4170,
      "##山": 4171,
      "▁filtering": 4172,
      "▁6:30": 4173,
      "▁muscles": 4174,
      "▁transwestern": 4175,
      "▁twink": 4176,
      "##angu": 4177,
      "##g": 4178,
      "▁autom": 4179,
      "▁281-443-3": 4180,
      "##land": 4181,
      "▁bang": 4182,
      "▁bapt": 4183,
      "▁policeman": 4184,
      "▁1843": 4185,
      "▁exhibited": 4186,
      "▁lottery": 4187,
      "▁molec": 4188,
      "▁doggy": 4189,
      "##ember": 4190,
      "##rence": 4191,
      "▁jump": 4192,
      "▁plun": 4193,
      "▁writ": 4194,
      "▁ever": 4195,
      "##orio": 4196,
      "▁sentence": 4197,
      "▁pew": 4198,
      "##ital": 4199,
      "##8-": 4200,
      "▁leaves": 4201,
      "▁turned": 4202,
      "▁tal": 4203,
      "##oui": 4204,
      "▁orient": 4205,
      "▁settle": 4206,
      "##ipping": 4207,
      "▁deploy": 4208,
      "▁spirit": 4209,
      "▁neoclass": 4210,
      "##die": 4211,
      "##pa": 4212,
      "##3/2000": 4213,
      "▁undergrad": 4214,
      "▁purpose": 4215,
      "▁guilt": 4216,
      "##eland": 4217,
      "▁poetic": 4218,
      "▁sanders": 4219,
      "▁gorbachev": 4220,
      "▁subs": 4221,
      "▁native": 4222,
      "▁arabia": 4223,
      "##ror": 4224,
      "##jam": 4225,
      "▁rolled": 4226,
      "##ney": 4227,
      "▁dog": 4228,
      "▁officers": 4229,
      "▁factory": 4230,
      "▁intellig": 4231,
      "▁revolution": 4232,
      "▁seating": 4233,
      "▁personal": 4234,
      "▁denise": 4235,
      "▁blur": 4236,
      "▁upside": 4237,
      "##isters": 4238,
      "▁devil": 4239,
      "▁snakes": 4240,
      "▁exch": 4241,
      "##iary": 4242,
      "▁260": 4243,
      "▁observations": 4244,
      "▁713-853-1696": 4245,
      "##ints": 4246,
      "▁parent": 4247,
      "▁713-793-": 4248,
      "▁has": 4249,
      "▁demon": 4250,
      "▁inhabitants": 4251,
      "##sex": 4252,
      "▁gear": 4253,
      "▁best": 4254,
      "▁constitution": 4255,
      "▁pain": 4256,
      "▁neither": 4257,
      "▁guadeloupe": 4258,
      "▁suspected": 4259,
      "▁uh": 4260,
      "▁end": 4261,
      "▁improvements": 4262,
      "##iciency": 4263,
      "▁doors": 4264,
      "▁mcg": 4265,
      "##oming": 4266,
      "##eech": 4267,
      "▁parallel": 4268,
      "▁spac": 4269,
      "▁bugs": 4270,
      "##igration": 4271,
      "##eis": 4272,
      "##7-01": 4273,
      "##ites": 4274,
      "##-p": 4275,
      "▁naval": 4276,
      "##ft": 4277,
      "▁hauled": 4278,
      "##.ed": 4279,
      "##eys": 4280,
      "▁darker": 4281,
      ",": 4282,
      "▁terrible": 4283,
      "##:48": 4284,
      "▁tommy": 4285,
      "▁70": 4286,
      "▁high": 4287,
      "▁cha": 4288,
      "▁had": 4289,
      "▁holt": 4290,
      "▁619": 4291,
      "▁nmemdrft8-7-01": 4292,
      "##at": 4293,
      "▁60": 4294,
      "▁03/09/2000": 4295,
      "▁fault": 4296,
      "##nik": 4297,
      "▁2,300": 4298,
      "##lec": 4299,
      "▁patients": 4300,
      "▁bert": 4301,
      "##omic": 4302,
      "▁afford": 4303,
      "▁twilight": 4304,
      "▁greetings": 4305,
      "▁mit": 4306,
      "▁dialog": 4307,
      "▁sandra": 4308,
      "##3-3": 4309,
      "▁---->===}*{===<----": 4310,
      "##beijing": 4311,
      "##ction": 4312,
      "##adar": 4313,
      "##ura": 4314,
      "▁`": 4315,
      "##te": 4316,
      "▁spices": 4317,
      "▁poems": 4318,
      "▁hoc": 4319,
      "▁hambal": 4320,
      "▁notions": 4321,
      "▁recip": 4322,
      "##łod": 4323,
      "▁household": 4324,
      "▁massive": 4325,
      "▁pro": 4326,
      "▁rec": 4327,
      "##erves": 4328,
      "▁daughters": 4329,
      "▁attract": 4330,
      "##iet": 4331,
      "##front": 4332,
      "▁cou": 4333,
      "▁broke": 4334,
      "▁1978": 4335,
      "▁713/8": 4336,
      "▁river": 4337,
      "##unk": 4338,
      "##ilty": 4339,
      "##instein": 4340,
      "▁finest": 4341,
      "▁obser": 4342,
      "▁morgan": 4343,
      "▁curren": 4344,
      "▁baby": 4345,
      "▁consensus": 4346,
      "▁encabalgamiento": 4347,
      "▁bodies": 4348,
      "##isions": 4349,
      "▁awkward": 4350,
      "▁tickle": 4351,
      "##usions": 4352,
      "▁columns": 4353,
      "▁transmedia": 4354,
      "##oved": 4355,
      "##time": 4356,
      "▁apple": 4357,
      "##icycle": 4358,
      "▁users": 4359,
      "##icide": 4360,
      "▁obligations": 4361,
      "▁offered": 4362,
      "##om": 4363,
      "▁provided": 4364,
      "▁ass": 4365,
      "##8/2000": 4366,
      "▁p&": 4367,
      "▁fled": 4368,
      "▁finger": 4369,
      "▁nante": 4370,
      "▁systematic": 4371,
      "▁landings": 4372,
      "▁cu": 4373,
      "▁spider": 4374,
      "▁wanted": 4375,
      "▁confirms": 4376,
      "##page": 4377,
      "▁maintaining": 4378,
      "▁g": 4379,
      "##ye": 4380,
      "▁manual": 4381,
      "▁caves": 4382,
      "##onsider": 4383,
      "▁09/15": 4384,
      "▁exploring": 4385,
      "▁hong": 4386,
      "▁scope": 4387,
      "▁hurting": 4388,
      "▁sufficiently": 4389,
      "▁planted": 4390,
      "▁li": 4391,
      "▁!!!!": 4392,
      "▁rough": 4393,
      "▁acquiring": 4394,
      "▁watch": 4395,
      "▁satellite": 4396,
      "##se": 4397,
      "▁convince": 4398,
      "##iration": 4399,
      "##ther": 4400,
      "▁syrian": 4401,
      "##oulder": 4402,
      "##lig": 4403,
      "▁wol": 4404,
      "##la": 4405,
      "▁did": 4406,
      "▁develop": 4407,
      "▁rush": 4408,
      "##?": 4409,
      "▁pittsbur": 4410,
      "▁families": 4411,
      "▁depths": 4412,
      "▁bearing": 4413,
      "##ton": 4414,
      "▁string": 4415,
      "▁athlet": 4416,
      "##enge": 4417,
      "▁notes": 4418,
      "▁fungus": 4419,
      "▁,": 4420,
      "##47": 4421,
      "▁adults": 4422,
      "▁converted": 4423,
      "▁profession": 4424,
      "▁invention": 4425,
      "##静": 4426,
      "▁sj": 4427,
      "##ass": 4428,
      "##leys": 4429,
      "▁bridges": 4430,
      "##iders": 4431,
      "▁consumer": 4432,
      "▁opposite": 4433,
      "##ities": 4434,
      "▁an": 4435,
      "▁main": 4436,
      "##26": 4437,
      "▁podcast": 4438,
      "▁laws": 4439,
      "▁attrib": 4440,
      "##ilization": 4441,
      "▁marcel": 4442,
      "##ek": 4443,
      "▁conserv": 4444,
      "▁50000": 4445,
      "▁ansi-92": 4446,
      "##}": 4447,
      "##ʒ": 4448,
      "▁gut": 4449,
      "▁78": 4450,
      "▁heating": 4451,
      "▁likely": 4452,
      "▁english": 4453,
      "##met": 4454,
      "▁cher": 4455,
      "▁conqu": 4456,
      "▁spaw": 4457,
      "▁blackl": 4458,
      "▁human": 4459,
      "▁fiction": 4460,
      "##obar": 4461,
      "▁woo": 4462,
      "▁perspective": 4463,
      "▁commentary": 4464,
      "##isations": 4465,
      "##:34": 4466,
      "▁stage": 4467,
      "##act": 4468,
      "##eds": 4469,
      "▁1875": 4470,
      "##3-": 4471,
      "##gle": 4472,
      "##ancing": 4473,
      "##________________________________": 4474,
      "▁arrangement": 4475,
      "##umental": 4476,
      "▁seated": 4477,
      "▁dec": 4478,
      "▁thin": 4479,
      "▁sponge": 4480,
      "##illas": 4481,
      "##2/2001": 4482,
      "▁281-443-3744": 4483,
      "▁execution": 4484,
      "▁sculpt": 4485,
      "▁verify": 4486,
      "▁exile": 4487,
      "▁afghanistan": 4488,
      "##g&e": 4489,
      "▁screaming": 4490,
      "##alous": 4491,
      "▁galleries": 4492,
      "▁9/11": 4493,
      "▁glanced": 4494,
      "▁dea": 4495,
      "##oney": 4496,
      "▁concern": 4497,
      "##744": 4498,
      "##oring": 4499,
      "▁abandoned": 4500,
      "▁lym": 4501,
      "▁outcome": 4502,
      "▁elbow": 4503,
      "▁unbel": 4504,
      "▁but": 4505,
      "##rane": 4506,
      "▁rural": 4507,
      "▁dab": 4508,
      "▁-----------------": 4509,
      "##bye": 4510,
      "▁expect": 4511,
      "▁joseph": 4512,
      "▁hel": 4513,
      "##plus": 4514,
      "▁famil": 4515,
      "##mes": 4516,
      "##lem": 4517,
      "▁circum": 4518,
      "##-t": 4519,
      "▁reass": 4520,
      "##ale": 4521,
      "▁pull": 4522,
      "▁suffer": 4523,
      "##rain": 4524,
      "▁po": 4525,
      "▁talk": 4526,
      "▁entitled": 4527,
      "”": 4528,
      "▁actress": 4529,
      "▁satanism": 4530,
      "▁paints": 4531,
      "▁merida": 4532,
      "▁indian": 4533,
      "▁horrible": 4534,
      "▁connected": 4535,
      "▁votes": 4536,
      "▁grumble": 4537,
      "##uration": 4538,
      "▁abuse": 4539,
      "▁preventing": 4540,
      "▁meat": 4541,
      "##takana": 4542,
      "▁well-": 4543,
      "##juku": 4544,
      "▁lon": 4545,
      "▁120": 4546,
      "▁geograph": 4547,
      "4": 4548,
      "▁sang": 4549,
      "##39": 4550,
      "##en.": 4551,
      "▁identifying": 4552,
      "##abeth": 4553,
      "▁lone": 4554,
      "▁410-468-3": 4555,
      "▁transwest": 4556,
      "▁rid": 4557,
      "▁surveillance": 4558,
      "▁sending": 4559,
      "▁punct": 4560,
      "▁chat": 4561,
      "▁gam": 4562,
      "##ortun": 4563,
      "▁encouraged": 4564,
      "▁obl": 4565,
      "▁committed": 4566,
      "▁http://www.4gamer.net/news/image/2005.09": 4567,
      "▁exercises": 4568,
      "▁passionate": 4569,
      "▁purs": 4570,
      "▁pric": 4571,
      "##ew": 4572,
      "▁el": 4573,
      "▁bread": 4574,
      "▁impression": 4575,
      "▁cliffy": 4576,
      "##esa": 4577,
      "##ikh": 4578,
      "▁owned": 4579,
      "##vely": 4580,
      "▁galois": 4581,
      "##pite": 4582,
      "##ents": 4583,
      "##cill": 4584,
      "▁panic": 4585,
      "▁fernand": 4586,
      "▁lumin": 4587,
      "▁recommendation": 4588,
      "▁jam": 4589,
      "▁leisure": 4590,
      "▁dogg": 4591,
      "▁6.1": 4592,
      "##thy": 4593,
      "▁charity": 4594,
      "▁mainland": 4595,
      "▁arthur": 4596,
      "##ised": 4597,
      "##media": 4598,
      "▁putin": 4599,
      "▁status": 4600,
      "▁rubble": 4601,
      "▁vet": 4602,
      "▁microsoft": 4603,
      "▁sump": 4604,
      "▁implemented": 4605,
      "▁valuable": 4606,
      "▁seat": 4607,
      "▁tabennese": 4608,
      "##-cage": 4609,
      "▁47": 4610,
      "##bles": 4611,
      "▁diana": 4612,
      "##establish": 4613,
      "▁marketers": 4614,
      "▁sway": 4615,
      "▁pennsylv": 4616,
      "▁ant": 4617,
      "▁front": 4618,
      "##quart": 4619,
      "▁jones": 4620,
      "▁nowhere": 4621,
      "▁08/0": 4622,
      "▁240": 4623,
      "▁ob": 4624,
      "##itage": 4625,
      "##utical": 4626,
      "▁probably": 4627,
      "▁migrant": 4628,
      "▁austria": 4629,
      "▁wine": 4630,
      "▁superb": 4631,
      "##ik": 4632,
      "▁religion": 4633,
      "##ading": 4634,
      "▁presidents": 4635,
      "▁pre": 4636,
      "▁ne": 4637,
      "##ues": 4638,
      "##ids": 4639,
      "▁ris": 4640,
      "▁travis": 4641,
      "▁stink": 4642,
      "##manship": 4643,
      "##zed": 4644,
      "▁filling": 4645,
      "▁!!!!!!": 4646,
      "▁neighb": 4647,
      "##bal": 4648,
      "▁created": 4649,
      "▁terry": 4650,
      "▁polish": 4651,
      "▁median": 4652,
      "▁doctors": 4653,
      "▁1800": 4654,
      "▁moslem": 4655,
      "ʊ": 4656,
      "▁---------------------------------": 4657,
      "▁accepted": 4658,
      "▁comments": 4659,
      "▁2": 4660,
      "▁06": 4661,
      "▁harbour": 4662,
      "▁could": 4663,
      "▁manh": 4664,
      "▁gent": 4665,
      "▁heights": 4666,
      "▁enlargement": 4667,
      "▁pal": 4668,
      "▁christchurch": 4669,
      "##erged": 4670,
      "▁over": 4671,
      "▁piano": 4672,
      "##de": 4673,
      "##iro": 4674,
      "▁re": 4675,
      "▁bull": 4676,
      "▁fundamentally": 4677,
      "##miss": 4678,
      "▁intense": 4679,
      "▁lies": 4680,
      "##eny": 4681,
      "▁sinh": 4682,
      "▁prod": 4683,
      "##__________": 4684,
      "##ouch": 4685,
      "▁committ": 4686,
      "##ose": 4687,
      "##2,000": 4688,
      "▁cliff": 4689,
      "##id": 4690,
      "▁nut": 4691,
      "##-kedne": 4692,
      "▁grandpa": 4693,
      "▁official": 4694,
      "▁exposed": 4695,
      "▁beware": 4696,
      "▁essex": 4697,
      "▁inex": 4698,
      "▁loss": 4699,
      "▁000010": 4700,
      "▁intended": 4701,
      "▁guessed": 4702,
      "##48": 4703,
      "▁storage": 4704,
      "▁departing": 4705,
      "▁length": 4706,
      "▁intermed": 4707,
      "▁backwards": 4708,
      "##alities": 4709,
      "▁swept": 4710,
      "▁enjoyable": 4711,
      "▁designated": 4712,
      "▁autobiograph": 4713,
      "▁coord": 4714,
      "▁inc.": 4715,
      "▁mentioned": 4716,
      "▁pastor": 4717,
      "▁least": 4718,
      "▁achieve": 4719,
      "##ner": 4720,
      "##eration": 4721,
      "▁730": 4722,
      "▁wtc": 4723,
      "▁chasing": 4724,
      "▁nmemdrft8-": 4725,
      "▁message": 4726,
      "##del": 4727,
      "▁1504": 4728,
      "##sheet": 4729,
      "▁mason": 4730,
      "▁ld2d-#6": 4731,
      "▁actor": 4732,
      "▁1949": 4733,
      "##,00": 4734,
      "##onomy": 4735,
      "▁usual": 4736,
      "▁hamas": 4737,
      "▁3.8": 4738,
      "▁condem": 4739,
      "▁hitting": 4740,
      "##ogical": 4741,
      "▁cray": 4742,
      "##une": 4743,
      "##apse": 4744,
      "▁themes": 4745,
      "▁cent": 4746,
      "##igs": 4747,
      "▁vacuum": 4748,
      "▁outcomes": 4749,
      "▁transformation": 4750,
      "▁pioneer": 4751,
      "▁hym": 4752,
      "▁mater": 4753,
      "▁securities": 4754,
      "▁vot": 4755,
      "▁dubai": 4756,
      "▁republicans": 4757,
      "▁iguazu": 4758,
      "▁squir": 4759,
      "▁chalmers": 4760,
      "▁shame": 4761,
      "▁foot": 4762,
      "▁empirical": 4763,
      "▁neologism": 4764,
      "▁sitting": 4765,
      "▁arrow": 4766,
      "▁knights": 4767,
      "▁verd": 4768,
      "##ocrats": 4769,
      "▁embr": 4770,
      "▁grumbles": 4771,
      "▁popular": 4772,
      "##enron": 4773,
      "▁pray": 4774,
      "▁15,000": 4775,
      "▁email": 4776,
      "##ut": 4777,
      "▁function": 4778,
      "▁black": 4779,
      "▁1841": 4780,
      "▁ferry": 4781,
      "▁frightened": 4782,
      "##asible": 4783,
      "▁painful": 4784,
      "▁1588": 4785,
      "▁represents": 4786,
      "▁warmer": 4787,
      "▁spr": 4788,
      "##hip": 4789,
      "▁helicopters": 4790,
      "▁phant": 4791,
      "##istics": 4792,
      "▁adaptation": 4793,
      "▁11/2": 4794,
      "▁mant": 4795,
      "▁alleged": 4796,
      "▁ill": 4797,
      "##arrass": 4798,
      "▁anthrax": 4799,
      "▁1623": 4800,
      "▁band": 4801,
      "▁balances": 4802,
      "▁canadian": 4803,
      "▁crust": 4804,
      "▁81": 4805,
      "▁canvas": 4806,
      "##ized": 4807,
      "▁uncont": 4808,
      "##fa": 4809,
      "▁co": 4810,
      "▁grim": 4811,
      "▁forster@enron": 4812,
      "▁yelling": 4813,
      "##achers": 4814,
      "▁charl": 4815,
      "##ron": 4816,
      "▁asap": 4817,
      "▁dates": 4818,
      "##α": 4819,
      "▁locations": 4820,
      "▁hindu": 4821,
      "##forward": 4822,
      "▁fixing": 4823,
      "##ender": 4824,
      "▁166": 4825,
      "▁\"": 4826,
      "▁refriger": 4827,
      "▁85": 4828,
      "▁record": 4829,
      "▁yea": 4830,
      "▁manage": 4831,
      "▁schema": 4832,
      "▁strict": 4833,
      "▁former": 4834,
      "##✉": 4835,
      "▁contrary": 4836,
      "##licts": 4837,
      "▁migrants": 4838,
      "▁eurostar": 4839,
      "▁pouring": 4840,
      "▁650": 4841,
      "▁20,000": 4842,
      "▁vom": 4843,
      "▁suspic": 4844,
      "▁bat": 4845,
      "▁vegas": 4846,
      "##rell": 4847,
      "##rovers": 4848,
      "▁circumstances": 4849,
      "▁bobby": 4850,
      "▁pilgr": 4851,
      "##sty": 4852,
      "▁spectac": 4853,
      "##eem": 4854,
      "▁males": 4855,
      "▁percentile": 4856,
      "▁gail": 4857,
      "▁enhance": 4858,
      "▁knife": 4859,
      "▁display": 4860,
      "▁target": 4861,
      "▁ruler": 4862,
      "▁problem": 4863,
      "▁1983": 4864,
      "▁lea": 4865,
      "▁mysterious": 4866,
      "▁greece": 4867,
      "▁joking": 4868,
      "▁2:30": 4869,
      "▁organization": 4870,
      "▁und": 4871,
      "▁whose": 4872,
      "▁star": 4873,
      "##iterranean": 4874,
      "▁movies": 4875,
      "▁khan@trans": 4876,
      "▁trash": 4877,
      "▁communist": 4878,
      "▁chocolates": 4879,
      "▁potter": 4880,
      "▁traveling": 4881,
      "▁chart": 4882,
      "▁girls": 4883,
      "▁policies": 4884,
      "▁flow": 4885,
      "##oty": 4886,
      "▁founder": 4887,
      "▁survive": 4888,
      "▁deeply": 4889,
      "▁allergic": 4890,
      "▁physic": 4891,
      "▁trusted": 4892,
      "▁505-625-8031": 4893,
      "▁barrett": 4894,
      "▁relig": 4895,
      "▁fruit": 4896,
      "▁evolution": 4897,
      "##bond": 4898,
      "##ified": 4899,
      "▁eec": 4900,
      "▁kill": 4901,
      "▁proceed": 4902,
      "▁accordingly": 4903,
      "##ka": 4904,
      "▁goo": 4905,
      "▁flirt": 4906,
      "▁broken": 4907,
      "▁liqu": 4908,
      "▁ret": 4909,
      "▁chair": 4910,
      "▁adh": 4911,
      "▁etc.": 4912,
      "▁fork": 4913,
      "▁constitutional": 4914,
      "▁norway": 4915,
      "▁pseud": 4916,
      "▁tatt": 4917,
      "▁patterns": 4918,
      "▁years": 4919,
      "▁subtle": 4920,
      "▁137": 4921,
      "▁freedom": 4922,
      "##389": 4923,
      "▁genius": 4924,
      "▁ba": 4925,
      "▁dried": 4926,
      "##keys": 4927,
      "▁dodge": 4928,
      "▁boeing": 4929,
      "▁gloria": 4930,
      "▁mushrooms": 4931,
      "▁twenty": 4932,
      "▁manag": 4933,
      "##/2005.09": 4934,
      "▁stadium": 4935,
      "▁v": 4936,
      "▁woods": 4937,
      "##oons": 4938,
      "▁posts": 4939,
      "▁tear": 4940,
      "▁moreover": 4941,
      "▁mechanic": 4942,
      "▁ii": 4943,
      "▁post": 4944,
      "▁swe": 4945,
      "▁dance": 4946,
      "▁bren": 4947,
      "▁ark": 4948,
      "▁posting": 4949,
      "▁especially": 4950,
      "##cing": 4951,
      "▁evans": 4952,
      "▁>": 4953,
      "▁hilar": 4954,
      "▁japanese": 4955,
      "▁s/he": 4956,
      "▁greet": 4957,
      "##-20": 4958,
      "▁eats": 4959,
      "▁specialist": 4960,
      "▁expenses": 4961,
      "##comm": 4962,
      "况": 4963,
      "▁supporter": 4964,
      "##ave": 4965,
      "▁1967": 4966,
      "▁gold": 4967,
      "▁terrell": 4968,
      "▁continuation": 4969,
      "▁df": 4970,
      "▁limous": 4971,
      "▁appet": 4972,
      "▁naked": 4973,
      "▁reluct": 4974,
      "▁evaluate": 4975,
      "▁anti-": 4976,
      "▁gifts": 4977,
      "▁childhood": 4978,
      "##apes": 4979,
      "▁partially": 4980,
      "▁attacks": 4981,
      "▁involves": 4982,
      "##ator": 4983,
      "##ulation": 4984,
      "▁acquisition": 4985,
      "▁conventional": 4986,
      "▁straight": 4987,
      "▁contribution": 4988,
      "##ciation": 4989,
      "▁policymakers": 4990,
      "##ering": 4991,
      "▁capabilities": 4992,
      "▁1994": 4993,
      "▁industry": 4994,
      "▁bi": 4995,
      "▁comic": 4996,
      "▁strawberry": 4997,
      "▁buzz": 4998,
      "▁713.8": 4999,
      "▁borders": 5000,
      "##ray": 5001,
      "▁prosec": 5002,
      "▁offer": 5003,
      "##bage": 5004,
      "##oyd": 5005,
      "##mber": 5006,
      "##fly": 5007,
      "▁di": 5008,
      "▁commod": 5009,
      "▁pup": 5010,
      "▁button": 5011,
      "##.s.": 5012,
      "▁compress": 5013,
      "##ysis": 5014,
      "▁inspector": 5015,
      "▁say": 5016,
      "▁medieval": 5017,
      "▁possible": 5018,
      "▁staff": 5019,
      "▁aband": 5020,
      "▁ciao": 5021,
      "▁shrug": 5022,
      "##in": 5023,
      "##teboo": 5024,
      "##**": 5025,
      "▁rise": 5026,
      "##dp": 5027,
      "▁poodle": 5028,
      "▁bron": 5029,
      "▁greeted": 5030,
      "▁vinny": 5031,
      "▁24": 5032,
      "▁congregation": 5033,
      "▁squashed": 5034,
      "▁supplies": 5035,
      "▁measured": 5036,
      "##regard": 5037,
      "▁sender": 5038,
      "▁attached": 5039,
      "▁mos": 5040,
      "▁1754": 5041,
      "▁slim": 5042,
      "▁lu": 5043,
      "▁tren": 5044,
      "▁congr": 5045,
      "▁ignorance": 5046,
      "▁down": 5047,
      "▁cosplay": 5048,
      "##/15/2001": 5049,
      "##c.": 5050,
      "▁inflation": 5051,
      "▁controls": 5052,
      "▁announcement": 5053,
      "▁heav": 5054,
      "▁policing": 5055,
      "▁truly": 5056,
      "##less": 5057,
      "##itively": 5058,
      "▁kay": 5059,
      "▁vast": 5060,
      "##inoc": 5061,
      "▁patrons": 5062,
      "▁sochi": 5063,
      "##uh": 5064,
      "▁assass": 5065,
      "▁intelligence": 5066,
      "▁yan": 5067,
      "▁lions": 5068,
      "▁wear": 5069,
      "▁expand": 5070,
      "▁egyptian": 5071,
      "##veria": 5072,
      "▁andril": 5073,
      "##lessness": 5074,
      "▁treatise": 5075,
      "k": 5076,
      "▁senior": 5077,
      "▁host": 5078,
      "▁aesthetics": 5079,
      "▁optim": 5080,
      "▁software": 5081,
      "##eter": 5082,
      "▁hamster": 5083,
      "▁trucks": 5084,
      "##aters": 5085,
      "▁purchases": 5086,
      "##ric": 5087,
      "▁enthus": 5088,
      "▁beauty": 5089,
      "▁custom": 5090,
      "▁stronger": 5091,
      "▁utility": 5092,
      "▁surrender": 5093,
      "▁islamic": 5094,
      "▁infant": 5095,
      "▁lipsticks": 5096,
      "▁thought": 5097,
      "▁darkness": 5098,
      "##sey": 5099,
      "▁225": 5100,
      "▁capable": 5101,
      "▁5,000": 5102,
      "▁smoking": 5103,
      "▁gambling": 5104,
      "##udge": 5105,
      "▁associate": 5106,
      "▁municipality": 5107,
      "▁tong": 5108,
      "▁mour": 5109,
      "▁unst": 5110,
      "▁dinos": 5111,
      "▁thomas": 5112,
      "▁overwhel": 5113,
      "▁abc": 5114,
      "▁si": 5115,
      "##rants": 5116,
      "▁meet": 5117,
      "▁respectively": 5118,
      "▁abs": 5119,
      "##ateg": 5120,
      "▁renew": 5121,
      "▁domains": 5122,
      "▁opener": 5123,
      "▁nancy": 5124,
      "▁oakland": 5125,
      "▁coc": 5126,
      "##phone": 5127,
      "▁!!!?": 5128,
      "▁elected": 5129,
      "▁ol": 5130,
      "▁pushed": 5131,
      "▁mozilla": 5132,
      "▁handled": 5133,
      "▁potentially": 5134,
      "▁bad": 5135,
      "▁prints": 5136,
      "##!!!": 5137,
      "▁agricultural": 5138,
      "▁acceptable": 5139,
      "▁hood": 5140,
      "##awed": 5141,
      "▁behavior": 5142,
      "▁em": 5143,
      "▁transp": 5144,
      "##news/": 5145,
      "▁nim": 5146,
      "▁blinking": 5147,
      "##rench": 5148,
      "##m": 5149,
      "▁stardust": 5150,
      "▁cake": 5151,
      "▁willingness": 5152,
      "##arr": 5153,
      "▁topic": 5154,
      "▁charco": 5155,
      "▁wizards": 5156,
      "▁couple": 5157,
      "▁blanket": 5158,
      "▁unlim": 5159,
      "▁dang": 5160,
      "##mir": 5161,
      "▁photographic": 5162,
      "##,000": 5163,
      "##ment": 5164,
      "▁03/0": 5165,
      "##-th": 5166,
      "▁cookie": 5167,
      "##78": 5168,
      "##ently": 5169,
      "▁revised": 5170,
      "▁sovereignty": 5171,
      "u": 5172,
      "▁leonard": 5173,
      "▁7.2": 5174,
      "##irts": 5175,
      "##--------------------------------": 5176,
      "▁constitute": 5177,
      "▁launched": 5178,
      "▁713-853": 5179,
      "##y@enron_development": 5180,
      "▁yeah": 5181,
      "h": 5182,
      "▁888.916.7184": 5183,
      "▁immers": 5184,
      "▁subur": 5185,
      "▁sonnets": 5186,
      "▁xbox": 5187,
      "▁against": 5188,
      "▁vari": 5189,
      "▁kenneth": 5190,
      "▁players": 5191,
      "##.61": 5192,
      "▁corps": 5193,
      "▁inclusive": 5194,
      "▁onions": 5195,
      "##of": 5196,
      "▁certainty": 5197,
      "▁3-5": 5198,
      "▁engaging": 5199,
      "##igan": 5200,
      "▁gulf": 5201,
      "▁00": 5202,
      "▁sustainable": 5203,
      "▁175": 5204,
      "▁avoided": 5205,
      "##lear": 5206,
      "▁beaut": 5207,
      "##ucker": 5208,
      "##iling": 5209,
      "##unct": 5210,
      "▁intend": 5211,
      "▁leather": 5212,
      "##emort": 5213,
      "▁overd": 5214,
      "▁vehicle": 5215,
      "▁11/10/2000": 5216,
      "▁flexible": 5217,
      "▁purchasing": 5218,
      "▁invited": 5219,
      "▁1561": 5220,
      "▁bible": 5221,
      "▁fig": 5222,
      "▁course": 5223,
      "##ager": 5224,
      "▁shrimp": 5225,
      "▁mechanism": 5226,
      "##ously": 5227,
      "ف": 5228,
      "▁or": 5229,
      "▁forum": 5230,
      "▁elephants": 5231,
      "▁affordable": 5232,
      "▁sunburn": 5233,
      "▁inside": 5234,
      "##organ": 5235,
      "##ioch": 5236,
      "##y": 5237,
      "▁close": 5238,
      "▁dul": 5239,
      "▁homeopathy": 5240,
      "##ford": 5241,
      "▁worthwhile": 5242,
      "▁refr": 5243,
      "▁plain": 5244,
      "▁09:": 5245,
      "▁x": 5246,
      "▁fifteen": 5247,
      "▁—": 5248,
      "▁garbage": 5249,
      "▁essentially": 5250,
      "▁rem": 5251,
      "##oc": 5252,
      "▁pose": 5253,
      "▁chath": 5254,
      "▁huit": 5255,
      "▁exclus": 5256,
      "▁intake": 5257,
      "▁h": 5258,
      "▁independence": 5259,
      "▁rachel": 5260,
      "▁dressed": 5261,
      "▁nix": 5262,
      "▁w/": 5263,
      "▁secondly": 5264,
      "▁lobster": 5265,
      "▁marshall": 5266,
      "▁report": 5267,
      "▁programmes": 5268,
      "▁shop": 5269,
      "▁complet": 5270,
      "##92": 5271,
      "▁comparable": 5272,
      "▁achie": 5273,
      "▁procedures": 5274,
      "▁make": 5275,
      "##stream": 5276,
      "##roll": 5277,
      "▁tonight": 5278,
      "##.htm": 5279,
      "▁democr": 5280,
      "▁trading": 5281,
      "▁compar": 5282,
      "▁1846": 5283,
      "▁bedding": 5284,
      "▁debts": 5285,
      "##her": 5286,
      "##eur": 5287,
      "▁gis": 5288,
      "▁oth": 5289,
      "▁prayer": 5290,
      "▁adequately": 5291,
      "▁assort": 5292,
      "▁marketing": 5293,
      "▁hug": 5294,
      "▁lwww": 5295,
      "▁dough": 5296,
      "##cal": 5297,
      "##'re": 5298,
      "##orth": 5299,
      "▁climate": 5300,
      "▁collecting": 5301,
      "▁create": 5302,
      "##sych": 5303,
      "▁giov": 5304,
      "▁metrop": 5305,
      "##澹": 5306,
      "▁controlling": 5307,
      "##berries": 5308,
      "##ipop": 5309,
      "##ag": 5310,
      "▁built": 5311,
      "<": 5312,
      "▁hipp": 5313,
      "▁armen": 5314,
      "▁mco": 5315,
      "▁works": 5316,
      "▁founders": 5317,
      "##ifications": 5318,
      "##.go": 5319,
      "▁heads": 5320,
      "▁silver": 5321,
      "##mp": 5322,
      "▁officer": 5323,
      "▁comes": 5324,
      "##_": 5325,
      "▁gest": 5326,
      "▁ignored": 5327,
      "▁absurd": 5328,
      "▁bush": 5329,
      "▁contact": 5330,
      "##499": 5331,
      "▁knowing": 5332,
      "▁65": 5333,
      "##lers": 5334,
      "##airah": 5335,
      "##uts": 5336,
      "▁frequent": 5337,
      "▁pett": 5338,
      "▁sticks": 5339,
      "▁ps": 5340,
      "▁crisis": 5341,
      "▁ev": 5342,
      "▁1505": 5343,
      "▁reluctant": 5344,
      "▁may": 5345,
      "▁pump": 5346,
      "▁approach": 5347,
      "▁dying": 5348,
      "▁toilet": 5349,
      "▁treaty": 5350,
      "▁summar": 5351,
      "▁gels": 5352,
      "▁buildings": 5353,
      "##.j": 5354,
      "▁relationship": 5355,
      "▁licenses": 5356,
      "##asant": 5357,
      "##ing": 5358,
      "▁strikes": 5359,
      "##elines": 5360,
      "▁269": 5361,
      "▁stood": 5362,
      "▁spos": 5363,
      "▁items": 5364,
      "▁(": 5365,
      "▁implementing": 5366,
      "▁spiders": 5367,
      "▁1": 5368,
      "▁yo": 5369,
      "##po": 5370,
      "##0-3": 5371,
      "▁typ": 5372,
      "▁execute": 5373,
      "▁deal": 5374,
      "▁hoping": 5375,
      "▁scarf": 5376,
      "▁chernobyl": 5377,
      "##uk": 5378,
      "▁sull": 5379,
      "▁prevent": 5380,
      "▁declar": 5381,
      "▁saying": 5382,
      "▁capture": 5383,
      "▁abandon": 5384,
      "▁shad": 5385,
      "▁facebook": 5386,
      "▁engineering": 5387,
      "▁stopped": 5388,
      "▁collapsed": 5389,
      "▁limerick": 5390,
      "▁combat": 5391,
      "▁crush": 5392,
      "▁bunch": 5393,
      "##itement": 5394,
      "▁israeli": 5395,
      "▁thumb": 5396,
      "##ades": 5397,
      "▁restriction": 5398,
      "▁huma": 5399,
      "▁ignor": 5400,
      "▁smile": 5401,
      "##uter": 5402,
      "▁day": 5403,
      "▁small": 5404,
      "##/26": 5405,
      "##itzer": 5406,
      "f": 5407,
      "▁tourists": 5408,
      "▁04:03": 5409,
      "##:40": 5410,
      "▁arizona": 5411,
      "▁ich": 5412,
      "▁bombing": 5413,
      "▁cohesion": 5414,
      "▁tang": 5415,
      "▁hokkaido": 5416,
      "▁train": 5417,
      "▁syria": 5418,
      "▁balance": 5419,
      "▁kabul": 5420,
      "▁gerry": 5421,
      "▁throat": 5422,
      "▁waiting": 5423,
      "##ener": 5424,
      "▁pennies": 5425,
      "▁vine": 5426,
      "▁byron": 5427,
      "▁voting": 5428,
      "##.ca/": 5429,
      "▁pall": 5430,
      "▁grabbed": 5431,
      "▁proceeds": 5432,
      "▁immigration": 5433,
      "▁reviewed": 5434,
      "▁wire": 5435,
      "##cast": 5436,
      "▁beach": 5437,
      "▁checks": 5438,
      "▁apart": 5439,
      "##bur": 5440,
      "▁sho": 5441,
      "▁rob": 5442,
      "▁adapt": 5443,
      "▁pap": 5444,
      "▁hotdog": 5445,
      "▁facilities": 5446,
      "▁william": 5447,
      "▁lords": 5448,
      "▁latest": 5449,
      "▁hockey": 5450,
      "##sing": 5451,
      "▁gloom": 5452,
      "▁results": 5453,
      "▁pros": 5454,
      "▁agents": 5455,
      "##:44": 5456,
      "▁150,000": 5457,
      "▁everybody": 5458,
      "▁od": 5459,
      "▁tasting": 5460,
      "▁tor": 5461,
      "▁baggage": 5462,
      "▁isda": 5463,
      "▁toky": 5464,
      "▁functional": 5465,
      "▁harmonised": 5466,
      "▁monks": 5467,
      "▁reck": 5468,
      "▁squ": 5469,
      "▁quartiles": 5470,
      "▁hurts": 5471,
      "▁counterfe": 5472,
      "##ensed": 5473,
      "##innati": 5474,
      "▁inv": 5475,
      "▁so-called": 5476,
      "▁sunk": 5477,
      "##nis": 5478,
      "##.asp": 5479,
      "▁rides": 5480,
      "▁phill": 5481,
      "▁..": 5482,
      "▁refusing": 5483,
      "##abled": 5484,
      "##aments": 5485,
      "▁interested": 5486,
      "##=": 5487,
      "▁nana": 5488,
      "▁arabs": 5489,
      "▁jerusal": 5490,
      "▁fuel": 5491,
      "▁acqu": 5492,
      "##ounts": 5493,
      "##4": 5494,
      "##oli": 5495,
      "▁colonial": 5496,
      "▁wor": 5497,
      "▁tupper": 5498,
      "▁oatmeal": 5499,
      "▁345-99": 5500,
      "▁91": 5501,
      "▁birthday": 5502,
      "##elly": 5503,
      "▁resol": 5504,
      "▁1976": 5505,
      "▁huckle": 5506,
      "▁indef": 5507,
      "▁freely": 5508,
      "▁sunshine": 5509,
      "##ottable": 5510,
      "▁env": 5511,
      "▁chardonnay": 5512,
      "▁wid": 5513,
      "##.09": 5514,
      "▁dischar": 5515,
      "▁passes": 5516,
      "▁bottom": 5517,
      "▁experiments": 5518,
      "##xic": 5519,
      "▁alongside": 5520,
      "▁thr": 5521,
      "▁speech": 5522,
      "▁portion": 5523,
      "▁ste": 5524,
      "▁repe": 5525,
      "▁1980": 5526,
      "##elson": 5527,
      "▁cros": 5528,
      "##ertain": 5529,
      "▁broom": 5530,
      "▁pattern": 5531,
      "##://": 5532,
      "▁joining": 5533,
      "▁jurisd": 5534,
      "▁reapp": 5535,
      "▁restricted": 5536,
      "▁haha": 5537,
      "##65": 5538,
      "▁dreamed": 5539,
      "▁01/24/2001": 5540,
      "▁fits": 5541,
      "▁shoo": 5542,
      "▁ld2d-#693": 5543,
      "▁monday": 5544,
      "▁buses": 5545,
      "##ansa": 5546,
      "▁findings": 5547,
      "▁armored": 5548,
      "▁2020": 5549,
      "▁needs": 5550,
      "▁proclaimed": 5551,
      "▁smooth": 5552,
      "▁8": 5553,
      "##unte": 5554,
      "▁dare": 5555,
      "##iri": 5556,
      "▁yourself": 5557,
      "▁diet": 5558,
      "▁entit": 5559,
      "▁larry": 5560,
      "▁key": 5561,
      "▁song": 5562,
      "▁radio": 5563,
      "▁mir": 5564,
      "▁defended": 5565,
      "▁produces": 5566,
      "▁format": 5567,
      "▁chef": 5568,
      "▁clip": 5569,
      "▁scrub": 5570,
      "▁suit": 5571,
      "▁850": 5572,
      "▁ware": 5573,
      "##health": 5574,
      "▁lifted": 5575,
      "▁hitler": 5576,
      "▁gri": 5577,
      "##++++": 5578,
      "##_de": 5579,
      "##log": 5580,
      "▁lect": 5581,
      "▁gay": 5582,
      "▁chamber": 5583,
      "▁shia": 5584,
      "▁institute": 5585,
      "▁illness": 5586,
      "▁highly": 5587,
      "▁yar": 5588,
      "▁cancel": 5589,
      "▁switzerland": 5590,
      "##--": 5591,
      "▁shri": 5592,
      "▁sides": 5593,
      "##alph": 5594,
      "▁logical": 5595,
      "▁republican": 5596,
      "▁similar": 5597,
      "▁latin": 5598,
      "▁saving": 5599,
      "▁beans": 5600,
      "▁agent": 5601,
      "▁carrots": 5602,
      "##tery": 5603,
      "▁spots": 5604,
      "▁so": 5605,
      "▁midas": 5606,
      "▁drawer": 5607,
      "▁audiences": 5608,
      "▁renee": 5609,
      "▁ave": 5610,
      "▁separated": 5611,
      "▁recently": 5612,
      "▁francis": 5613,
      "▁sub": 5614,
      "▁1970s": 5615,
      "▁newfound": 5616,
      "▁07:24": 5617,
      "▁encoun": 5618,
      "▁agreements": 5619,
      "▁long": 5620,
      "##anes": 5621,
      "▁202.456": 5622,
      "▁1832": 5623,
      "▁will": 5624,
      "▁maps": 5625,
      "▁minor": 5626,
      "▁interpre": 5627,
      "##arency": 5628,
      "▁coff": 5629,
      "▁chinese": 5630,
      "▁play+": 5631,
      "▁charming": 5632,
      "▁1660": 5633,
      "▁holding": 5634,
      "▁magazine": 5635,
      "▁blanc": 5636,
      "▁scott": 5637,
      "▁skills": 5638,
      "▁popped": 5639,
      "▁targeting": 5640,
      "##ret": 5641,
      "▁jr.": 5642,
      "▁gwww": 5643,
      "▁hosp": 5644,
      "▁organizing": 5645,
      "▁yield": 5646,
      "##50": 5647,
      "▁strol": 5648,
      "##urse": 5649,
      "##orough": 5650,
      "▁shipping": 5651,
      "▁argentina": 5652,
      "##ami": 5653,
      "▁paintings": 5654,
      "▁customs": 5655,
      "▁marking": 5656,
      "▁dent": 5657,
      "▁rap": 5658,
      "▁blueberry": 5659,
      "##oven": 5660,
      "▁contex": 5661,
      "##ley": 5662,
      "▁draco": 5663,
      "##cliff": 5664,
      "##sticks": 5665,
      "▁rhinoc": 5666,
      "▁powers": 5667,
      "▁hatfill": 5668,
      "▁perling": 5669,
      "▁quickly": 5670,
      "##rax": 5671,
      "##ainted": 5672,
      "##lyn": 5673,
      "▁already": 5674,
      "▁mov": 5675,
      "▁cheek": 5676,
      "▁creative": 5677,
      "##water": 5678,
      "▁nord": 5679,
      "▁accum": 5680,
      "▁thanksg": 5681,
      "##issions": 5682,
      "▁guacamole": 5683,
      "▁judged": 5684,
      "▁baba": 5685,
      "##ham": 5686,
      "▁musharraf": 5687,
      "▁hann": 5688,
      "##oshikii": 5689,
      "▁deserves": 5690,
      "▁rel": 5691,
      "##8/2001": 5692,
      "▁ironic": 5693,
      "▁bought": 5694,
      "▁asc": 5695,
      "▁tah": 5696,
      "▁attendance": 5697,
      "▁slavery": 5698,
      "ي": 5699,
      "▁rag": 5700,
      "▁lean": 5701,
      "##row": 5702,
      "▁2021": 5703,
      "##ecca": 5704,
      "▁carrot": 5705,
      "▁headset": 5706,
      "▁safety": 5707,
      "▁notably": 5708,
      "▁vaccine": 5709,
      "▁transmitted": 5710,
      "▁de": 5711,
      "##ru": 5712,
      "▁530": 5713,
      "▁enforcement": 5714,
      "▁managing": 5715,
      "##ault": 5716,
      "▁dess": 5717,
      "▁pc": 5718,
      "##away": 5719,
      "▁meg": 5720,
      "▁times": 5721,
      "▁collections": 5722,
      "##-faced": 5723,
      "▁281-435-0295": 5724,
      "▁shut": 5725,
      "##oameric": 5726,
      "▁known": 5727,
      "▁bar": 5728,
      "▁bust": 5729,
      "▁transport": 5730,
      "▁emerged": 5731,
      "▁print": 5732,
      "▁rebuild": 5733,
      "▁lord": 5734,
      "▁kand": 5735,
      "▁switch": 5736,
      "▁713-654-": 5737,
      "##ipedia": 5738,
      "▁lawyers": 5739,
      "▁endangered": 5740,
      "##angle": 5741,
      "##/2": 5742,
      "▁flood": 5743,
      "▁bind": 5744,
      "▁commonplace": 5745,
      "▁faint": 5746,
      "##gence": 5747,
      "▁nickn": 5748,
      "##/17/99": 5749,
      "##velopment": 5750,
      "▁bos": 5751,
      "▁awa": 5752,
      "▁pard": 5753,
      "▁primarily": 5754,
      "##orescent": 5755,
      "##www": 5756,
      "▁281": 5757,
      "▁1848": 5758,
      "▁violent": 5759,
      "▁dolls": 5760,
      "##ove": 5761,
      "▁03/21/2001": 5762,
      "##ω": 5763,
      "▁brown": 5764,
      "▁aud": 5765,
      "▁patient": 5766,
      "▁redeem": 5767,
      "##-696": 5768,
      "##vest": 5769,
      "##nb": 5770,
      "▁strengthen": 5771,
      "▁tehran": 5772,
      "▁belie": 5773,
      "▁-": 5774,
      "▁modest": 5775,
      "▁independ": 5776,
      "ι": 5777,
      "▁restaur": 5778,
      "▁confidence": 5779,
      "z": 5780,
      "▁broader": 5781,
      "▁flakes": 5782,
      "▁deliberate": 5783,
      "##pl": 5784,
      "##cedented": 5785,
      "▁trot": 5786,
      "▁implementation": 5787,
      "▁30th": 5788,
      "▁samuel": 5789,
      "▁union": 5790,
      "▁inequality": 5791,
      "##fts": 5792,
      "▁prosper": 5793,
      "▁traders": 5794,
      "▁yet": 5795,
      "▁altern": 5796,
      "▁revenues": 5797,
      "▁stolen": 5798,
      "▁kick": 5799,
      "▁latter": 5800,
      "▁mr": 5801,
      "▁evely": 5802,
      "▁describing": 5803,
      "▁rewards": 5804,
      "▁another": 5805,
      "▁rats": 5806,
      "▁britt": 5807,
      "▁ferr": 5808,
      "##-sh": 5809,
      "##ush": 5810,
      "▁washington": 5811,
      "▁strongest": 5812,
      "▁345-3436": 5813,
      "▁allowed": 5814,
      "▁vs.": 5815,
      "▁catalog": 5816,
      "▁rout": 5817,
      "▁sings": 5818,
      "▁sci": 5819,
      "##w": 5820,
      "##ri": 5821,
      "谿": 5822,
      "##gin": 5823,
      "▁figured": 5824,
      "##iques": 5825,
      "▁immigr": 5826,
      "▁rev": 5827,
      "▁responses": 5828,
      "▁interrupted": 5829,
      "▁wan": 5830,
      "▁numerous": 5831,
      "##real": 5832,
      "▁instinct": 5833,
      "▁buy": 5834,
      "▁mel": 5835,
      "▁tract": 5836,
      "▁became": 5837,
      "▁superseding": 5838,
      "▁tact": 5839,
      "##encer": 5840,
      "▁vintage": 5841,
      "##rus": 5842,
      "▁thro": 5843,
      "##dad": 5844,
      "▁guarant": 5845,
      "▁handle": 5846,
      "▁pollution": 5847,
      "▁northeast": 5848,
      "##ption": 5849,
      "▁delay": 5850,
      "▁reason": 5851,
      "##435-": 5852,
      "▁grandma": 5853,
      "▁bog": 5854,
      "▁patter": 5855,
      "▁him": 5856,
      "▁modulo": 5857,
      "▁alert": 5858,
      "▁profits": 5859,
      "▁aafia": 5860,
      "▁celebration": 5861,
      "▁generations": 5862,
      "##itz": 5863,
      "▁non-bondad": 5864,
      "▁found": 5865,
      "▁give": 5866,
      "▁366": 5867,
      "▁missed": 5868,
      "▁lasted": 5869,
      "▁link": 5870,
      "▁ut": 5871,
      "##algami": 5872,
      "##oil": 5873,
      "##asing": 5874,
      "##soft": 5875,
      "▁425-415-": 5876,
      "▁bus": 5877,
      "▁ripe": 5878,
      "▁sweep": 5879,
      "▁.": 5880,
      "▁pitter": 5881,
      "▁harsh": 5882,
      "▁maya": 5883,
      "▁sample": 5884,
      "##osy": 5885,
      "##izing": 5886,
      "▁eggs": 5887,
      "▁flaw": 5888,
      "▁valentine": 5889,
      "▁dismiss": 5890,
      "▁08:30": 5891,
      "▁1604": 5892,
      "##e@enron": 5893,
      "##entives": 5894,
      "▁bananas": 5895,
      "##bum": 5896,
      "▁parking": 5897,
      "▁nervous": 5898,
      "##arine": 5899,
      "▁passage": 5900,
      "▁qa": 5901,
      "▁lion": 5902,
      "▁ultr": 5903,
      "▁happened": 5904,
      "##sel": 5905,
      "▁nandaro": 5906,
      "##ication": 5907,
      "▁ku": 5908,
      "▁weakness": 5909,
      "▁targets": 5910,
      "##oma": 5911,
      "▁died": 5912,
      "▁taste": 5913,
      "##den": 5914,
      "▁10/26/2000": 5915,
      "▁dans": 5916,
      "▁paralympic": 5917,
      "##.": 5918,
      "##etti": 5919,
      "▁solicit": 5920,
      "##ril": 5921,
      "▁surprises": 5922,
      "##urally": 5923,
      "##aint": 5924,
      "##7.77": 5925,
      "▁ethics": 5926,
      "▁indicate": 5927,
      "▁sup": 5928,
      "##ola": 5929,
      "▁seld": 5930,
      "▁simply": 5931,
      "▁cotton": 5932,
      "▁re-e": 5933,
      "▁duty": 5934,
      "▁newsgroup": 5935,
      "##rect": 5936,
      "▁counted": 5937,
      "##ommend": 5938,
      "▁campus": 5939,
      "▁tags": 5940,
      "▁1859": 5941,
      "▁anderson": 5942,
      "##ception": 5943,
      "▁62": 5944,
      "##uku": 5945,
      "▁among": 5946,
      "▁told": 5947,
      "##oice": 5948,
      "▁barclays": 5949,
      "▁installing": 5950,
      "▁hints": 5951,
      "▁updated": 5952,
      "##--------": 5953,
      "▁spot": 5954,
      "▁dum": 5955,
      "▁painted": 5956,
      "▁active": 5957,
      "##cp": 5958,
      "▁clause": 5959,
      "▁twelfth": 5960,
      "##xce": 5961,
      "##utz": 5962,
      "▁timing": 5963,
      "▁afric": 5964,
      "w": 5965,
      "▁jeremy": 5966,
      "▁days": 5967,
      "##ozer": 5968,
      "▁workforce": 5969,
      "▁sector": 5970,
      "▁1.75": 5971,
      "▁answered": 5972,
      "##.n": 5973,
      "▁bearded": 5974,
      "##-642": 5975,
      "▁dan": 5976,
      "▁anyway": 5977,
      "▁prevention": 5978,
      "##anan": 5979,
      "▁stim": 5980,
      "▁whol": 5981,
      "▁feature": 5982,
      "▁squeak": 5983,
      "▁feels": 5984,
      "▁gift": 5985,
      "##arians": 5986,
      "▁lawn": 5987,
      "▁fox": 5988,
      "▁1954": 5989,
      "▁fy": 5990,
      "▁8043": 5991,
      "▁leaning": 5992,
      "▁insist": 5993,
      "▁cold": 5994,
      "▁scrap": 5995,
      "##0295": 5996,
      "▁shakes": 5997,
      "▁esp": 5998,
      "▁1.5": 5999,
      "##ih": 6000,
      "▁standing": 6001,
      "##dge": 6002,
      "▁cupc": 6003,
      "▁ha": 6004,
      "▁harv": 6005,
      "▁dispute": 6006,
      "##berts": 6007,
      "▁interact": 6008,
      "▁tanks": 6009,
      "▁threats": 6010,
      "##łodz": 6011,
      "▁lipstick": 6012,
      "##atisf": 6013,
      "▁ukrain": 6014,
      "##pat": 6015,
      "▁arg": 6016,
      "▁details": 6017,
      "▁3.": 6018,
      "▁mcdonald": 6019,
      "##df": 6020,
      "▁karen": 6021,
      "##zz": 6022,
      "##.c": 6023,
      "▁pse": 6024,
      "▁mad": 6025,
      "▁earli": 6026,
      "##29": 6027,
      "▁minnesota": 6028,
      "▁nuts": 6029,
      "##for": 6030,
      "▁character": 6031,
      "▁stretch": 6032,
      "##:3": 6033,
      "##a)": 6034,
      "##tec": 6035,
      "##oos": 6036,
      "▁buried": 6037,
      "▁713": 6038,
      "▁applic": 6039,
      "▁fill": 6040,
      "▁compete": 6041,
      "▁holy": 6042,
      "▁ed": 6043,
      "##org": 6044,
      "▁pivotchart": 6045,
      "▁graph": 6046,
      "▁harmonisation": 6047,
      "▁borne": 6048,
      "▁impart": 6049,
      "▁doctr": 6050,
      "##agen": 6051,
      "▁fit": 6052,
      "▁pl": 6053,
      "▁aunt": 6054,
      "▁rabbits": 6055,
      "##world": 6056,
      "▁chagrin": 6057,
      "##-9004": 6058,
      "▁need": 6059,
      "▁belgium": 6060,
      "▁mornings": 6061,
      "▁repeatedly": 6062,
      "##andy": 6063,
      "▁2.00": 6064,
      "▁713/853": 6065,
      "▁pepper": 6066,
      "▁relat": 6067,
      "▁1900": 6068,
      "##gregation": 6069,
      "▁norton": 6070,
      "▁mama": 6071,
      "▁epm": 6072,
      "▁44,000": 6073,
      "▁empower": 6074,
      "▁whi": 6075,
      "##vas": 6076,
      "##chief": 6077,
      "▁mare": 6078,
      "▁petersburg": 6079,
      "▁numb": 6080,
      "▁oatm": 6081,
      "##89": 6082,
      "▁occurring": 6083,
      "▁processor": 6084,
      "##d": 6085,
      "▁decade": 6086,
      "▁killing": 6087,
      "##ue": 6088,
      "▁researchers": 6089,
      "▁shuffling": 6090,
      "▁afghan": 6091,
      "▁affil": 6092,
      "▁alt": 6093,
      "▁research": 6094,
      "▁anyways": 6095,
      "##38": 6096,
      "##uman": 6097,
      "▁strictly": 6098,
      "▁tracking": 6099,
      "▁blount": 6100,
      "▁neighbor": 6101,
      "▁fu": 6102,
      "##phere": 6103,
      "▁varied": 6104,
      "▁packet": 6105,
      "##iff": 6106,
      "▁discom": 6107,
      "▁wrapped": 6108,
      "▁58": 6109,
      "▁quarters": 6110,
      "▁scotland": 6111,
      "##ρ": 6112,
      "▁paw": 6113,
      "▁careful": 6114,
      "▁burbank": 6115,
      "##erm": 6116,
      "▁saw": 6117,
      "▁proportion": 6118,
      "##v.": 6119,
      "##ety": 6120,
      "##rict": 6121,
      "▁exerc": 6122,
      "▁addresses": 6123,
      "▁foc": 6124,
      "##60": 6125,
      "▁600": 6126,
      "▁stephen": 6127,
      "▁wang": 6128,
      "▁played": 6129,
      "▁accommodation": 6130,
      "▁mwww": 6131,
      "▁classroom": 6132,
      "##4/2001": 6133,
      "▁wizard": 6134,
      "##ocent": 6135,
      "##’t": 6136,
      "##amed": 6137,
      "▁extraord": 6138,
      "##远": 6139,
      "▁reaches": 6140,
      "▁156": 6141,
      "##.edu/": 6142,
      "▁undoubtedly": 6143,
      "##津": 6144,
      "▁1991": 6145,
      "▁€": 6146,
      "▁5/18": 6147,
      "##bondad": 6148,
      "▁meaning": 6149,
      "▁chute": 6150,
      "##lied": 6151,
      ".": 6152,
      "▁incorrect": 6153,
      "##par": 6154,
      "##ob": 6155,
      "▁equal": 6156,
      "##ople": 6157,
      "##64": 6158,
      "##.10": 6159,
      "▁airbnb": 6160,
      "▁teppy": 6161,
      "##asa": 6162,
      "▁authorities": 6163,
      "0": 6164,
      "▁moral": 6165,
      "▁rebu": 6166,
      "▁participating": 6167,
      "▁copying": 6168,
      "▁mo": 6169,
      "##ining": 6170,
      "▁gorio": 6171,
      "▁1799": 6172,
      "|": 6173,
      "▁cock": 6174,
      "▁require": 6175,
      "##index": 6176,
      "▁stanford": 6177,
      "▁slic": 6178,
      "▁venus": 6179,
      "##rav": 6180,
      "▁cleveland": 6181,
      "▁penal": 6182,
      "▁required": 6183,
      "▁bernoul": 6184,
      "##-79": 6185,
      "▁elimin": 6186,
      "▁tec": 6187,
      "▁individual": 6188,
      "##iew": 6189,
      "▁plenty": 6190,
      "▁crying": 6191,
      "▁representative": 6192,
      "▁witch": 6193,
      "▁moisture": 6194,
      "▁claus": 6195,
      "##inez": 6196,
      "▁olds": 6197,
      "▁corp.": 6198,
      "▁yes": 6199,
      "▁reporting": 6200,
      "▁theore": 6201,
      "▁vod": 6202,
      "▁snake": 6203,
      "▁origin": 6204,
      "▁decree": 6205,
      "▁peninsula": 6206,
      "▁murph": 6207,
      "##.123": 6208,
      "▁push": 6209,
      "▁claimed": 6210,
      "##su": 6211,
      "▁brilliant": 6212,
      "##ul": 6213,
      "▁sab": 6214,
      "▁beast": 6215,
      "▁---=": 6216,
      "▁attracted": 6217,
      "▁ehow": 6218,
      "▁1564": 6219,
      "▁immunity": 6220,
      "▁volunt": 6221,
      "l": 6222,
      "##/8/00": 6223,
      "▁theater": 6224,
      "▁implications": 6225,
      "▁mix": 6226,
      "▁afgh": 6227,
      "▁across": 6228,
      "▁bes": 6229,
      "▁vold": 6230,
      "▁good": 6231,
      "▁bre": 6232,
      "▁longer": 6233,
      "▁charged": 6234,
      "##greg": 6235,
      "▁phot": 6236,
      "▁chief": 6237,
      "▁revenue": 6238,
      "##vis": 6239,
      "▁crayon": 6240,
      "▁storing": 6241,
      "▁stirrup": 6242,
      "▁oak": 6243,
      "▁99": 6244,
      "▁yogurt": 6245,
      "##ح": 6246,
      "▁enabling": 6247,
      "▁rules": 6248,
      "▁rol": 6249,
      "▁process": 6250,
      "▁ruby": 6251,
      "▁slides": 6252,
      "▁numbers": 6253,
      "▁gir": 6254,
      "▁hand": 6255,
      "##ament": 6256,
      "▁experimental": 6257,
      "▁interf": 6258,
      "##atch": 6259,
      "▁tab": 6260,
      "##aneously": 6261,
      "▁delta": 6262,
      "▁cottage": 6263,
      "▁tuck": 6264,
      "##driver": 6265,
      "▁sal": 6266,
      "▁stan": 6267,
      "▁reminded": 6268,
      "▁campaigns": 6269,
      "▁suff": 6270,
      "▁gradu": 6271,
      "##ah": 6272,
      "▁campa": 6273,
      "##子": 6274,
      "▁sie": 6275,
      "▁impro": 6276,
      "▁debr": 6277,
      "▁lbs": 6278,
      "▁network": 6279,
      "▁discovered": 6280,
      "▁accordance": 6281,
      "▁1st": 6282,
      "▁8.3": 6283,
      "‘": 6284,
      "▁ease": 6285,
      "▁remained": 6286,
      "▁mitig": 6287,
      "▁nicer": 6288,
      "##/s": 6289,
      "##osed": 6290,
      "▁october": 6291,
      "##vn": 6292,
      "▁donna": 6293,
      "▁beings": 6294,
      "▁intercept": 6295,
      "▁traged": 6296,
      "##alled": 6297,
      "▁2012": 6298,
      "▁catch": 6299,
      "▁person": 6300,
      "▁block": 6301,
      "▁staring": 6302,
      "▁publishing": 6303,
      "▁refresh": 6304,
      "▁rud": 6305,
      "▁privileged": 6306,
      "##anmar": 6307,
      "▁350": 6308,
      "α": 6309,
      "▁10": 6310,
      "▁lower": 6311,
      "▁mol": 6312,
      "##gar": 6313,
      "▁better": 6314,
      "##neath": 6315,
      "▁345-9945": 6316,
      "##abul": 6317,
      "▁incub": 6318,
      "▁dress": 6319,
      "▁33": 6320,
      "▁1940": 6321,
      "▁blended": 6322,
      "▁summ": 6323,
      "▁1892": 6324,
      "##ishment": 6325,
      "▁1980s": 6326,
      "▁previously": 6327,
      "▁understood": 6328,
      "##urp": 6329,
      "▁exclusive": 6330,
      "▁idiots": 6331,
      "▁tend": 6332,
      "##math": 6333,
      "▁whe": 6334,
      "▁merely": 6335,
      "▁knight": 6336,
      "▁jamie": 6337,
      "▁takes": 6338,
      "##irm": 6339,
      "▁signature": 6340,
      "▁replace": 6341,
      "▁libraries": 6342,
      "##nels": 6343,
      "▁02-0": 6344,
      "▁spelling": 6345,
      "▁ate": 6346,
      "▁proph": 6347,
      "▁colonel": 6348,
      "▁maint": 6349,
      "▁460": 6350,
      "▁targeted": 6351,
      "▁surrounded": 6352,
      "▁sept.": 6353,
      "▁edit": 6354,
      "▁speakers": 6355,
      "▁noisy": 6356,
      "##eded": 6357,
      "##ram": 6358,
      "▁convinced": 6359,
      "▁assure": 6360,
      "▁/": 6361,
      "▁excited": 6362,
      "▁clouds": 6363,
      "▁sta": 6364,
      "▁salon": 6365,
      "▁lets": 6366,
      "▁159": 6367,
      "▁fundamental": 6368,
      "▁structured": 6369,
      "▁migr": 6370,
      "▁firms": 6371,
      "▁interaction": 6372,
      "▁expecting": 6373,
      "##32": 6374,
      "▁modem": 6375,
      "▁animals": 6376,
      "▁needles": 6377,
      "▁freight": 6378,
      "▁max": 6379,
      "▁flowers": 6380,
      "▁cle": 6381,
      "##ijing": 6382,
      "##boys": 6383,
      "##ition": 6384,
      "▁interest": 6385,
      "▁76": 6386,
      "##ear": 6387,
      "▁+45": 6388,
      "▁140": 6389,
      "##gn": 6390,
      "▁chee": 6391,
      "##cross": 6392,
      "##uously": 6393,
      "##enn": 6394,
      "▁terrorist": 6395,
      "▁05908549": 6396,
      "•": 6397,
      "▁nierman": 6398,
      "▁viewers": 6399,
      "▁prime": 6400,
      "▁contexts": 6401,
      "▁admiration": 6402,
      "▁socks": 6403,
      "▁tay": 6404,
      "##keep": 6405,
      "##ahar": 6406,
      "▁11/0": 6407,
      "▁6.2.1": 6408,
      "##esome": 6409,
      "##ella": 6410,
      "▁headquarters": 6411,
      "##ifying": 6412,
      "##,500": 6413,
      "▁wy": 6414,
      "##ory": 6415,
      "##iwan": 6416,
      "▁stra": 6417,
      "▁44": 6418,
      "▁cem": 6419,
      "▁nash": 6420,
      "▁1849": 6421,
      "▁bath+": 6422,
      "▁slip": 6423,
      "▁deter": 6424,
      "##ging": 6425,
      "▁stayed": 6426,
      "▁seized": 6427,
      "▁spanking": 6428,
      "▁yidd": 6429,
      "▁stored": 6430,
      "##uals": 6431,
      "▁sole": 6432,
      "▁techniques": 6433,
      "##ven": 6434,
      "▁pledge": 6435,
      "▁acad": 6436,
      "▁developed": 6437,
      "▁admitted": 6438,
      "▁twenty-": 6439,
      "▁operation": 6440,
      "▁conference": 6441,
      "##esion": 6442,
      "▁confident": 6443,
      "##-23": 6444,
      "##ern": 6445,
      "▁fus": 6446,
      "▁irrit": 6447,
      "▁judgment": 6448,
      "▁art": 6449,
      "▁swim": 6450,
      "▁nearly": 6451,
      "▁filed": 6452,
      "▁refund": 6453,
      "▁palace": 6454,
      "##itably": 6455,
      "##ois": 6456,
      "##/0": 6457,
      "▁deeper": 6458,
      "▁women": 6459,
      "▁steps": 6460,
      "▁680": 6461,
      "##oid": 6462,
      "▁propaganda": 6463,
      "▁ern": 6464,
      "▁weak": 6465,
      "▁resident": 6466,
      "▁psych": 6467,
      "▁isl": 6468,
      "▁request": 6469,
      "▁upload": 6470,
      "##imes": 6471,
      "▁crews": 6472,
      "▁moon": 6473,
      "▁inher": 6474,
      "▁hes": 6475,
      "▁palestinian": 6476,
      "▁wanting": 6477,
      "▁colleges": 6478,
      "##af": 6479,
      "▁embed": 6480,
      "▁fool": 6481,
      "▁2.0": 6482,
      "▁lego": 6483,
      "##ev": 6484,
      "▁horribly": 6485,
      "▁united": 6486,
      "▁puff": 6487,
      "▁convers": 6488,
      "▁discovery": 6489,
      "▁dem": 6490,
      "▁pyramid": 6491,
      "▁stating": 6492,
      "奈": 6493,
      "▁useful": 6494,
      "▁amy": 6495,
      "▁self": 6496,
      "▁holoca": 6497,
      "▁hence": 6498,
      "▁graduated": 6499,
      "▁significant": 6500,
      "▁group": 6501,
      "▁visit": 6502,
      "▁zacarias": 6503,
      "▁rifle": 6504,
      "▁peau": 6505,
      "##achment": 6506,
      "▁chapter": 6507,
      "▁169": 6508,
      "##oud": 6509,
      "▁loads": 6510,
      "▁0": 6511,
      "▁nonsense": 6512,
      "▁empathy": 6513,
      "▁opposition": 6514,
      "▁essential": 6515,
      "▁aston": 6516,
      "▁hedge": 6517,
      "▁incompet": 6518,
      "▁actual": 6519,
      "▁chaos": 6520,
      "▁ske": 6521,
      "##orders": 6522,
      "▁surviving": 6523,
      "▁rhonda": 6524,
      "##-s": 6525,
      "▁kr": 6526,
      "▁augment": 6527,
      "##portion": 6528,
      "▁sympath": 6529,
      "##********************************": 6530,
      "▁banknot": 6531,
      "▁nicholas": 6532,
      "▁doo": 6533,
      "▁u.s.": 6534,
      "##thing": 6535,
      "##aug": 6536,
      "▁hm": 6537,
      "▁brazil": 6538,
      "▁con": 6539,
      "##eable": 6540,
      "▁87": 6541,
      "▁~": 6542,
      "▁spagh": 6543,
      "▁forming": 6544,
      "▁winds": 6545,
      "▁bucks": 6546,
      "▁annual": 6547,
      "▁swinging": 6548,
      "▁freak": 6549,
      "▁accident": 6550,
      "##ographic": 6551,
      "##pan": 6552,
      "▁guerre": 6553,
      "▁feasible": 6554,
      "▁seriously": 6555,
      "▁tam": 6556,
      "##(": 6557,
      "▁shackl": 6558,
      "▁pent": 6559,
      "▁amongst": 6560,
      "▁blew": 6561,
      "▁saf": 6562,
      "##.edu": 6563,
      "▁ireland": 6564,
      "▁databases": 6565,
      "▁>>": 6566,
      "▁frequently": 6567,
      "▁american": 6568,
      "##where": 6569,
      "▁tin": 6570,
      "'": 6571,
      "##bir": 6572,
      "▁yang": 6573,
      "▁argument": 6574,
      "##/08": 6575,
      "▁uncertainty": 6576,
      "▁elderly": 6577,
      "##esota": 6578,
      "##ollah": 6579,
      "##ats": 6580,
      "▁lufthansa": 6581,
      "▁answ": 6582,
      "▁confirm": 6583,
      "▁73": 6584,
      "▁doub": 6585,
      "▁peacefully": 6586,
      "▁insurgency": 6587,
      "▁roots": 6588,
      "▁nor": 6589,
      "##ingly": 6590,
      "▁mayor": 6591,
      "▁bozo": 6592,
      "##.00": 6593,
      "▁shelter": 6594,
      "▁caring": 6595,
      "▁unhapp": 6596,
      "▁spong": 6597,
      "▁subd": 6598,
      "▁dipped": 6599,
      "##reat": 6600,
      "▁allawi": 6601,
      "▁fem": 6602,
      "##path": 6603,
      "▁symbols": 6604,
      "##ect": 6605,
      "▁mountains": 6606,
      "▁bright": 6607,
      "▁fish": 6608,
      "▁lighting": 6609,
      "▁=": 6610,
      "▁secondary": 6611,
      "▁evaluator": 6612,
      "▁kil": 6613,
      "##enner": 6614,
      "▁doughnut": 6615,
      "▁gravity": 6616,
      "##road": 6617,
      "▁base": 6618,
      "▁toile": 6619,
      "##ocks": 6620,
      "▁cool": 6621,
      "▁lists": 6622,
      "##berger": 6623,
      "▁compare": 6624,
      "▁snail": 6625,
      "▁feat": 6626,
      "▁prepar": 6627,
      "▁tarzan": 6628,
      "▁war": 6629,
      "▁crucial": 6630,
      "##================": 6631,
      "##ocular": 6632,
      "▁yout": 6633,
      "##oll": 6634,
      "▁prett": 6635,
      "##ieties": 6636,
      "▁estate": 6637,
      "▁mount": 6638,
      "▁1.00": 6639,
      "▁1805": 6640,
      "▁universities": 6641,
      "▁their": 6642,
      "▁cupcakes": 6643,
      "▁possession": 6644,
      "▁criticism": 6645,
      "▁vib": 6646,
      "▁ideas": 6647,
      "▁except": 6648,
      "▁sss": 6649,
      "▁sh-": 6650,
      "##z": 6651,
      "▁sorry": 6652,
      "▁sleeve": 6653,
      "▁janice": 6654,
      "▁107": 6655,
      "▁reserved": 6656,
      "##orial": 6657,
      "ɑ": 6658,
      "▁☏": 6659,
      "▁elpaso": 6660,
      "▁camp": 6661,
      "▁iphone": 6662,
      "▁2:25": 6663,
      "▁500": 6664,
      "▁somm": 6665,
      "▁fares": 6666,
      "##friend": 6667,
      "▁25": 6668,
      "##:21": 6669,
      "▁hardest": 6670,
      "##ate": 6671,
      "▁db": 6672,
      "▁lawyer": 6673,
      "##:1": 6674,
      "▁coalition": 6675,
      "▁election": 6676,
      "▁buttered": 6677,
      "▁craw": 6678,
      "▁1/2": 6679,
      "▁sweetie": 6680,
      "▁images": 6681,
      "##etically": 6682,
      "▁val": 6683,
      "▁pasta": 6684,
      "▁reimbur": 6685,
      "##ee": 6686,
      "▁dave": 6687,
      "▁pip": 6688,
      "##lass": 6689,
      "▁some": 6690,
      "▁prestigious": 6691,
      "▁sri": 6692,
      "##aurs": 6693,
      "▁rather": 6694,
      "▁extensible": 6695,
      "▁expanding": 6696,
      "▁bask": 6697,
      "▁pursue": 6698,
      "##lie": 6699,
      "▁un": 6700,
      "##k.": 6701,
      "▁vogelaviatio": 6702,
      "##****************": 6703,
      "▁sustained": 6704,
      "▁pursuit": 6705,
      "##athers": 6706,
      "▁hostile": 6707,
      "▁cell": 6708,
      "▁julien": 6709,
      "##ruct": 6710,
      "##------------": 6711,
      "##lac": 6712,
      "▁product": 6713,
      "▁1699": 6714,
      "▁montreal": 6715,
      "▁wilkins": 6716,
      "▁ga": 6717,
      "▁tech": 6718,
      "##asks": 6719,
      "▁usually": 6720,
      "▁cart": 6721,
      "##ennium": 6722,
      "▁masses": 6723,
      "▁1580": 6724,
      "▁individually": 6725,
      "▁giv": 6726,
      "##arking": 6727,
      "▁prototy": 6728,
      "▁displac": 6729,
      "▁date": 6730,
      "▁couns": 6731,
      "▁burst": 6732,
      "▁rocks": 6733,
      "▁farrier": 6734,
      "▁mosul": 6735,
      "▁ripped": 6736,
      "##ains": 6737,
      "▁dizzy": 6738,
      "▁bruce": 6739,
      "##/15": 6740,
      "▁treating": 6741,
      "▁wax": 6742,
      "##ess": 6743,
      "▁9": 6744,
      "▁80": 6745,
      "▁origins": 6746,
      "▁vehicles": 6747,
      "▁rich": 6748,
      "##aker": 6749,
      "▁vendors": 6750,
      "▁.!": 6751,
      "▁judges": 6752,
      "##ny": 6753,
      "▁happily": 6754,
      "▁nguyen": 6755,
      "▁monetary": 6756,
      "▁want": 6757,
      "▁quart": 6758,
      "##ulous": 6759,
      "▁loan": 6760,
      "▁proposal": 6761,
      "▁**": 6762,
      "▁confir": 6763,
      "▁copy": 6764,
      "▁1696": 6765,
      "▁vision": 6766,
      "##ymp": 6767,
      "▁m80": 6768,
      "##ua": 6769,
      "▁owes": 6770,
      "▁horsie": 6771,
      "▁11/7": 6772,
      "##/31": 6773,
      "▁33,000": 6774,
      "##raf": 6775,
      "##omm": 6776,
      "▁fired": 6777,
      "##rosp": 6778,
      "▁neph": 6779,
      "##club": 6780,
      "▁default": 6781,
      "##hol": 6782,
      "▁happiness": 6783,
      "▁ehr": 6784,
      "▁aladar": 6785,
      "▁silk": 6786,
      "▁coconut": 6787,
      "▁sundays": 6788,
      "▁counters": 6789,
      "##ook": 6790,
      "##96": 6791,
      "▁quoted": 6792,
      "▁artworks": 6793,
      "▁single": 6794,
      "▁transformative": 6795,
      "▁concentrate": 6796,
      "▁1602": 6797,
      "▁obtained": 6798,
      "▁amsterdam": 6799,
      "▁reader": 6800,
      "##oned": 6801,
      "▁sunlight": 6802,
      "▁textile": 6803,
      "▁scientists": 6804,
      "▁campbell": 6805,
      "##°": 6806,
      "▁confused": 6807,
      "▁authority": 6808,
      "▁populations": 6809,
      "▁owns": 6810,
      "▁athe": 6811,
      "##ame": 6812,
      "▁poke": 6813,
      "▁squares": 6814,
      "▁spor": 6815,
      "▁gala": 6816,
      "##omatic": 6817,
      "▁successful": 6818,
      "▁unity": 6819,
      "▁...................": 6820,
      "▁shaking": 6821,
      "▁history": 6822,
      "▁awarded": 6823,
      "▁traditions": 6824,
      "▁stove": 6825,
      "▁i": 6826,
      "▁man": 6827,
      "▁calm": 6828,
      "▁captain": 6829,
      "▁compound": 6830,
      "▁ecosy": 6831,
      "▁70.85": 6832,
      "##err": 6833,
      "▁sloven": 6834,
      "##etics": 6835,
      "▁quest": 6836,
      "▁==----": 6837,
      "▁fle": 6838,
      "##dd": 6839,
      "▁shall": 6840,
      "▁montana": 6841,
      "▁khan": 6842,
      "▁pending": 6843,
      "▁solidarity": 6844,
      "▁lots": 6845,
      "▁transition": 6846,
      "▁evenings": 6847,
      "▁3": 6848,
      "▁sleepy": 6849,
      "▁chos": 6850,
      "▁1777": 6851,
      "▁disabled": 6852,
      "##big": 6853,
      "£": 6854,
      "▁mummy": 6855,
      "##/01": 6856,
      "▁phen": 6857,
      "▁thing": 6858,
      "▁barrel": 6859,
      "▁outdo": 6860,
      "##amb": 6861,
      "▁vide": 6862,
      "##oni": 6863,
      "’": 6864,
      "▁confidentiality": 6865,
      "▁vessel": 6866,
      "▁dimensions": 6867,
      "▁spont": 6868,
      "▁window": 6869,
      "▁crown": 6870,
      "▁visitor": 6871,
      "▁itiner": 6872,
      "▁likes": 6873,
      "##zen": 6874,
      "##88": 6875,
      "▁landed": 6876,
      "▁chew": 6877,
      "▁buck": 6878,
      "▁valent": 6879,
      "▁bla": 6880,
      "▁market": 6881,
      "▁desc": 6882,
      "▁sn": 6883,
      "▁ancest": 6884,
      "▁safet": 6885,
      "##-415-": 6886,
      "##enerate": 6887,
      "##vo": 6888,
      "▁flesh": 6889,
      "▁routes": 6890,
      "▁crack": 6891,
      "▁actors": 6892,
      "▁dots": 6893,
      "▁roly": 6894,
      "▁jur": 6895,
      "##ersonal": 6896,
      "▁imm": 6897,
      "▁dinosaurs": 6898,
      "▁dismissed": 6899,
      "▁tar": 6900,
      "▁ord": 6901,
      "▁charitable": 6902,
      "▁badge": 6903,
      "▁lar": 6904,
      "▁leash": 6905,
      "##ibiot": 6906,
      "##ting": 6907,
      "▁inform": 6908,
      "##au": 6909,
      "▁spokes": 6910,
      "▁dw": 6911,
      "▁grumb": 6912,
      "▁boundaries": 6913,
      "▁shook": 6914,
      "▁arrival": 6915,
      "▁pit": 6916,
      "##gled": 6917,
      "▁hideout": 6918,
      "▁energ": 6919,
      "▁pro-": 6920,
      "▁imaginary": 6921,
      "▁505-625": 6922,
      "▁occasions": 6923,
      "▁conditions": 6924,
      "▁5:00": 6925,
      "▁headline": 6926,
      "▁devast": 6927,
      "▁obsf": 6928,
      "▁3724": 6929,
      "▁genetically": 6930,
      "▁distribution": 6931,
      "▁pho": 6932,
      "▁funct": 6933,
      "##h": 6934,
      "▁most": 6935,
      "▁fac": 6936,
      "▁media": 6937,
      "▁blue": 6938,
      "▁trained": 6939,
      "▁crowd": 6940,
      "▁identify": 6941,
      "▁899-": 6942,
      "##rin": 6943,
      "##aq.com": 6944,
      "▁essie": 6945,
      "▁carroll": 6946,
      "▁hats": 6947,
      "▁rums": 6948,
      "▁bta": 6949,
      "▁mini": 6950,
      "##ena": 6951,
      "##:16": 6952,
      "##1/2001": 6953,
      "▁flop": 6954,
      "##443-3": 6955,
      "▁carey": 6956,
      "##-7": 6957,
      "▁5th": 6958,
      "##ogether": 6959,
      "##aze": 6960,
      "▁portra": 6961,
      "##icated": 6962,
      "##itarian": 6963,
      "▁establishing": 6964,
      "##rans": 6965,
      "▁increases": 6966,
      "▁builders": 6967,
      "▁grampy": 6968,
      "▁stairs": 6969,
      "##ior": 6970,
      "##urd": 6971,
      "▁gif": 6972,
      "▁deep": 6973,
      "▁inspiration": 6974,
      "▁del": 6975,
      "▁arrested": 6976,
      "▁solo": 6977,
      "▁calendar": 6978,
      "▁multip": 6979,
      "▁carl": 6980,
      "##hire": 6981,
      "##onc": 6982,
      "##br": 6983,
      "▁ensure": 6984,
      "▁sour": 6985,
      "▁myster": 6986,
      "▁parish": 6987,
      "##|": 6988,
      "▁destruction": 6989,
      "▁subjects": 6990,
      "▁fact": 6991,
      "▁participate": 6992,
      "▁som": 6993,
      "▁uncertain": 6994,
      "▁mia": 6995,
      "▁tabled": 6996,
      "▁joy": 6997,
      "##entary": 6998,
      "▁billing": 6999,
      "▁10/31": 7000,
      "▁wikipedia": 7001,
      "▁legislation": 7002,
      "##own": 7003,
      "▁weather": 7004,
      "▁hen": 7005,
      "▁tana": 7006,
      "▁departures": 7007,
      "▁newer": 7008,
      "▁na": 7009,
      "##esis": 7010,
      "▁assassination": 7011,
      "▁misc": 7012,
      "▁mistaken": 7013,
      "▁holes": 7014,
      "▁religious": 7015,
      "▁itself": 7016,
      "▁lad": 7017,
      "▁circular": 7018,
      "##unia": 7019,
      "▁teeth": 7020,
      "▁notwith": 7021,
      "▁wolf": 7022,
      "▁barack": 7023,
      "▁yahoo!": 7024,
      "▁pers": 7025,
      "▁rang": 7026,
      "▁exchanges": 7027,
      "▁said": 7028,
      "▁originally": 7029,
      "##0": 7030,
      "▁sealed": 7031,
      "▁muffin": 7032,
      "##sh-e": 7033,
      "▁rhinoceros": 7034,
      "▁premium": 7035,
      "▁favor": 7036,
      "▁recommend": 7037,
      "##olog": 7038,
      "▁ms": 7039,
      "▁apprec": 7040,
      "▁criter": 7041,
      "▁availability": 7042,
      "▁medal": 7043,
      "▁202.456.2461": 7044,
      "▁chalabi": 7045,
      "##eman": 7046,
      "▁1609": 7047,
      "▁wheat": 7048,
      "▁week": 7049,
      "▁appropriate": 7050,
      "▁pyth": 7051,
      "▁elena": 7052,
      "##hy": 7053,
      "▁dynamic": 7054,
      "▁caus": 7055,
      "▁oklahoma": 7056,
      "▁u.": 7057,
      "▁explan": 7058,
      "▁825": 7059,
      "##14": 7060,
      "▁compreh": 7061,
      "▁drafted": 7062,
      "▁tempor": 7063,
      "▁meiring": 7064,
      "▁advantages": 7065,
      "##ibilities": 7066,
      "##etary": 7067,
      "##boats": 7068,
      "##iori": 7069,
      "▁ketchup": 7070,
      "▁84": 7071,
      "##ache": 7072,
      "##-l": 7073,
      "##erts": 7074,
      "▁y-": 7075,
      "▁clear": 7076,
      "▁seven": 7077,
      "##clusions": 7078,
      "▁anem": 7079,
      "▁photograph": 7080,
      "▁_________________________________________________": 7081,
      "▁dining": 7082,
      "▁households": 7083,
      "▁disorder": 7084,
      "▁p": 7085,
      "ρ": 7086,
      "▁searching": 7087,
      "▁messed": 7088,
      "▁det": 7089,
      "▁arena": 7090,
      "▁sites": 7091,
      "▁trick": 7092,
      "##rent": 7093,
      "▁no": 7094,
      "▁fascinating": 7095,
      "##rett": 7096,
      "##inth": 7097,
      "##lying": 7098,
      "▁cuts": 7099,
      "▁chantilly": 7100,
      "##ased": 7101,
      "▁achieving": 7102,
      "##laimed": 7103,
      "▁signal": 7104,
      "▁oy": 7105,
      "▁toss": 7106,
      "▁pleasure": 7107,
      "##.6": 7108,
      "▁else": 7109,
      "##iles": 7110,
      "▁google": 7111,
      "▁witness": 7112,
      "##ected": 7113,
      "▁hagrid": 7114,
      "▁meal": 7115,
      "▁answers": 7116,
      "##mm": 7117,
      "▁lifet": 7118,
      "▁creativity": 7119,
      "##aiss": 7120,
      "▁hated": 7121,
      "▁fishie": 7122,
      "##isons": 7123,
      "▁responsibility": 7124,
      "▁powder": 7125,
      "▁graduate": 7126,
      "▁brief": 7127,
      "▁obstacle": 7128,
      "▁referend": 7129,
      "▁evalu": 7130,
      "▁figures": 7131,
      "▁noida": 7132,
      "##bha-": 7133,
      "▁inner": 7134,
      "▁temperatures": 7135,
      "##:50": 7136,
      "##rie": 7137,
      "▁silent": 7138,
      "##oman": 7139,
      "▁cupboard": 7140,
      "##ebe": 7141,
      "▁georgia": 7142,
      "▁tire": 7143,
      "▁thron": 7144,
      "▁plates": 7145,
      "▁montalvo": 7146,
      "##dom": 7147,
      "▁diversity": 7148,
      "▁focus": 7149,
      "##order": 7150,
      "▁turning": 7151,
      "▁appli": 7152,
      "▁ken": 7153,
      "▁neigh": 7154,
      "▁lawy": 7155,
      "▁nineteenth": 7156,
      "##raft": 7157,
      "▁quaffle": 7158,
      "▁mosquitoes": 7159,
      "▁pul": 7160,
      "▁attem": 7161,
      "##dies": 7162,
      "▁kid": 7163,
      "▁coordinator": 7164,
      "▁stealing": 7165,
      "▁diving": 7166,
      "▁gdp": 7167,
      "##sp": 7168,
      "▁pharmaceutical": 7169,
      "▁ted": 7170,
      "▁molly": 7171,
      "##asons": 7172,
      "##/16/2001": 7173,
      "▁gross": 7174,
      "▁economists": 7175,
      "▁cheer": 7176,
      "▁cleaned": 7177,
      "##fahan": 7178,
      "▁ambulance": 7179,
      "##achusetts": 7180,
      "##mail": 7181,
      "▁starving": 7182,
      "▁sacrif": 7183,
      "▁jesus": 7184,
      "▁road": 7185,
      "▁stability": 7186,
      "##bard": 7187,
      "▁05/17/99": 7188,
      "▁pdt": 7189,
      "▁nabe": 7190,
      "▁peanut": 7191,
      "▁tens": 7192,
      "▁417": 7193,
      "##is_0712": 7194,
      "▁managers": 7195,
      "▁esther": 7196,
      "##ary": 7197,
      "▁evolutionary": 7198,
      "▁list": 7199,
      "▁living": 7200,
      "##power": 7201,
      "▁intervals": 7202,
      "▁cm": 7203,
      "##ecess": 7204,
      "▁shi": 7205,
      "▁proud": 7206,
      "▁gentleman": 7207,
      "▁employee": 7208,
      "▁eleventh": 7209,
      "▁http://en.": 7210,
      "##orn": 7211,
      "▁larger": 7212,
      "▁cross-s": 7213,
      "##lic": 7214,
      "##do": 7215,
      "▁faster": 7216,
      "##1082": 7217,
      "▁asylum": 7218,
      "##ained": 7219,
      "▁drink": 7220,
      "▁maintain": 7221,
      "##-fl": 7222,
      "▁thirtieth": 7223,
      "▁formula": 7224,
      "▁profitable": 7225,
      "▁au": 7226,
      "##acam": 7227,
      "▁hors": 7228,
      "▁cyclone": 7229,
      "##ding": 7230,
      "##etime": 7231,
      "▁1307": 7232,
      "▁510-642": 7233,
      "▁negotiating": 7234,
      "##ibreat": 7235,
      "▁particular": 7236,
      "▁channel": 7237,
      "▁wearing": 7238,
      "▁era": 7239,
      "▁outdoors": 7240,
      "▁dire": 7241,
      "▁cogn": 7242,
      "▁anton": 7243,
      "▁sports": 7244,
      "▁existence": 7245,
      "▁discharge": 7246,
      "▁contacted": 7247,
      "##erved": 7248,
      "▁name": 7249,
      "▁philadelphia": 7250,
      "▁’ve": 7251,
      "▁saint": 7252,
      "##­": 7253,
      "▁cit": 7254,
      "▁sisters": 7255,
      "▁marked": 7256,
      "▁headache": 7257,
      "▁enrich": 7258,
      "▁-------------------------------------------------": 7259,
      "##ators": 7260,
      "▁ornament": 7261,
      "##cher": 7262,
      "▁grave": 7263,
      "▁inade": 7264,
      "▁protection": 7265,
      "▁county": 7266,
      "▁cuban": 7267,
      "▁transfer": 7268,
      "▁seattle": 7269,
      "▁oven": 7270,
      "▁albeit": 7271,
      "##ifer": 7272,
      "▁dfw": 7273,
      "▁hurry": 7274,
      "▁honestly": 7275,
      "▁baking": 7276,
      "##ices": 7277,
      "##ati": 7278,
      "▁broad": 7279,
      "▁arrived": 7280,
      "▁external": 7281,
      "▁unus": 7282,
      "▁teh": 7283,
      "▁appear": 7284,
      "▁cox": 7285,
      "##lined": 7286,
      "▁fost": 7287,
      "▁gender": 7288,
      "▁appeal": 7289,
      "▁headquart": 7290,
      "##i": 7291,
      "##abilities": 7292,
      "##arity": 7293,
      "▁vir": 7294,
      "▁interv": 7295,
      "▁kansas": 7296,
      "##ordon": 7297,
      "##.d": 7298,
      "▁crow": 7299,
      "▁lift": 7300,
      "##ailand": 7301,
      "▁applicable": 7302,
      "##hh": 7303,
      "▁shirts": 7304,
      "▁blown": 7305,
      "▁bags": 7306,
      "▁awesome": 7307,
      "▁explanations": 7308,
      "▁park": 7309,
      "##pread": 7310,
      "▁pi": 7311,
      "##vd": 7312,
      "▁expired": 7313,
      "▁prote": 7314,
      "▁swings": 7315,
      "▁where": 7316,
      "▁cat": 7317,
      "▁limitation": 7318,
      "▁philipp": 7319,
      "▁equivalence": 7320,
      "▁identification": 7321,
      "▁3/8/00": 7322,
      "▁supply": 7323,
      "##'ath": 7324,
      "##rayed": 7325,
      "▁carol.st": 7326,
      "▁clos": 7327,
      "▁style": 7328,
      "▁toast": 7329,
      "▁advantage": 7330,
      "▁improving": 7331,
      "▁interior": 7332,
      "▁prize": 7333,
      "▁cannon": 7334,
      "##nes": 7335,
      "▁phase": 7336,
      "▁prominent": 7337,
      "▁commonly": 7338,
      "##,600": 7339,
      "##urious": 7340,
      "##elberger": 7341,
      "▁weird": 7342,
      "▁finished": 7343,
      "▁dg": 7344,
      "##view": 7345,
      "▁abstract": 7346,
      "▁ambitious": 7347,
      "▁rounds": 7348,
      "▁3:00": 7349,
      "▁bas": 7350,
      "▁1966": 7351,
      "▁fleeing": 7352,
      "##%": 7353,
      "##zza": 7354,
      "▁infection": 7355,
      "▁thurs": 7356,
      "▁microw": 7357,
      "▁syn": 7358,
      "▁return": 7359,
      "##6": 7360,
      "▁carol.st.clair@enron.com": 7361,
      "▁advent": 7362,
      "▁jeop": 7363,
      "##pport": 7364,
      "▁vangu": 7365,
      "▁cause": 7366,
      "▁alley": 7367,
      "▁badly": 7368,
      "##woman": 7369,
      "▁nier": 7370,
      "▁batch": 7371,
      "▁memorable": 7372,
      "▁splend": 7373,
      "##-d": 7374,
      "▁chapters": 7375,
      "##ina": 7376,
      "▁archive": 7377,
      "▁reaching": 7378,
      "▁visas": 7379,
      "▁mart": 7380,
      "▁enrongss.xls": 7381,
      "▁relax": 7382,
      "##teous": 7383,
      "##otion": 7384,
      "##-ch": 7385,
      "##ino": 7386,
      "▁festivals": 7387,
      "##utely": 7388,
      "▁curry": 7389,
      "##enos": 7390,
      "▁myanmar": 7391,
      "▁attempt": 7392,
      "▁beyond": 7393,
      "▁pom": 7394,
      "▁exercise": 7395,
      "▁conferences": 7396,
      "##ark": 7397,
      "▁mate": 7398,
      "▁vi": 7399,
      "##gage": 7400,
      "▁voters": 7401,
      "▁drain": 7402,
      "▁realization": 7403,
      "▁pointing": 7404,
      "##anche": 7405,
      "▁ride": 7406,
      "##/11": 7407,
      "▁1787": 7408,
      "##iously": 7409,
      "▁continent": 7410,
      "▁attack": 7411,
      "▁bullet": 7412,
      "##pe": 7413,
      "▁shahar": 7414,
      "▁duke": 7415,
      "##lect": 7416,
      "▁students": 7417,
      "##iled": 7418,
      "##ori": 7419,
      "##~": 7420,
      "▁totally": 7421,
      "▁tourism": 7422,
      "▁general": 7423,
      "##.15": 7424,
      "▁ras": 7425,
      "##ross": 7426,
      "▁cir": 7427,
      "▁aqu": 7428,
      "▁dinner": 7429,
      "▁meow": 7430,
      "##rele": 7431,
      "##ered": 7432,
      "▁eu": 7433,
      "▁different": 7434,
      "▁family": 7435,
      "##½": 7436,
      "▁55": 7437,
      "▁intervening": 7438,
      "▁partners": 7439,
      "##books": 7440,
      "##ural": 7441,
      "▁magic": 7442,
      "▁bulbs": 7443,
      "▁bh": 7444,
      "▁intact": 7445,
      "▁audio": 7446,
      "▁garage": 7447,
      "##80s": 7448,
      "▁oriented": 7449,
      "▁dominant": 7450,
      "##hand": 7451,
      "▁styles": 7452,
      "▁simult": 7453,
      "▁assumed": 7454,
      "##osexual": 7455,
      "▁signed": 7456,
      "##ics": 7457,
      "##20-": 7458,
      "▁forehead": 7459,
      "▁discl": 7460,
      "▁seiz": 7461,
      "##nondelibreat": 7462,
      "▁http": 7463,
      "▁region": 7464,
      "▁j": 7465,
      "##iday": 7466,
      "▁1950": 7467,
      "▁yer": 7468,
      "▁mah": 7469,
      "▁gramp": 7470,
      "##*": 7471,
      "##icles": 7472,
      "▁+++": 7473,
      "▁ninny": 7474,
      "▁visible": 7475,
      "▁shell": 7476,
      "##iod": 7477,
      "▁corners": 7478,
      "▁officials": 7479,
      "▁dennis": 7480,
      "▁tr": 7481,
      "▁bones": 7482,
      "▁nine": 7483,
      "##8": 7484,
      "##ateful": 7485,
      "▁elect": 7486,
      "▁situ": 7487,
      "▁turtle": 7488,
      "▁ash": 7489,
      "口": 7490,
      "ʒ": 7491,
      "▁hesitate": 7492,
      "##ito": 7493,
      "▁directed": 7494,
      "▁cities": 7495,
      "##.com/": 7496,
      "▁liz": 7497,
      "▁priest": 7498,
      "▁roughly": 7499,
      "▁57": 7500,
      "▁operator": 7501,
      "▁photo": 7502,
      "▁communication": 7503,
      "▁quant": 7504,
      "▁dol": 7505,
      "##.2": 7506,
      "▁pajamas": 7507,
      "##xual": 7508,
      "▁fought": 7509,
      "##ful": 7510,
      "▁sale": 7511,
      "▁kpa": 7512,
      "##ias": 7513,
      "▁revealed": 7514,
      "▁april": 7515,
      "▁sympathy": 7516,
      "▁cuis": 7517,
      "▁margin": 7518,
      "▁flag": 7519,
      "▁mixed": 7520,
      "▁performed": 7521,
      "##4-": 7522,
      "▁claws": 7523,
      "##.45": 7524,
      "▁wed": 7525,
      "▁wellington": 7526,
      "▁go": 7527,
      "##omet": 7528,
      "##chester": 7529,
      "▁operators": 7530,
      "▁dobby": 7531,
      "##t.": 7532,
      "##aches": 7533,
      "▁dollar": 7534,
      "▁govern": 7535,
      "▁-2-": 7536,
      "##ya": 7537,
      "▁sought": 7538,
      "▁picked": 7539,
      "▁dey": 7540,
      "▁emb": 7541,
      "▁tractor": 7542,
      "▁wai": 7543,
      "▁'re": 7544,
      "▁designs": 7545,
      "▁very": 7546,
      "##roedter": 7547,
      "▁exceed": 7548,
      "▁helicop": 7549,
      "▁gramm": 7550,
      "▁jobs": 7551,
      "##ived": 7552,
      "▁incred": 7553,
      "▁llms": 7554,
      "▁thawed": 7555,
      "▁alone": 7556,
      "▁bab": 7557,
      "▁atmosphere": 7558,
      "▁1616": 7559,
      "##cut": 7560,
      "##load": 7561,
      "##iable": 7562,
      "##umph": 7563,
      "▁possibility": 7564,
      "▁stop": 7565,
      "▁spiritual": 7566,
      "##880": 7567,
      "▁edu": 7568,
      "▁laser": 7569,
      "▁forgiveness": 7570,
      "▁there": 7571,
      "▁plastic": 7572,
      "▁proprietary": 7573,
      "▁rose": 7574,
      "▁distingu": 7575,
      "##alle": 7576,
      "φ": 7577,
      "▁harm": 7578,
      "▁triumph": 7579,
      "▁fr": 7580,
      "▁faithful": 7581,
      "▁legos": 7582,
      "▁drove": 7583,
      "##gre": 7584,
      "##rial": 7585,
      "##$$": 7586,
      "▁sag": 7587,
      "▁caused": 7588,
      "▁lap": 7589,
      "##ryn": 7590,
      "▁someplace": 7591,
      "##“": 7592,
      "▁hund": 7593,
      "▁importantly": 7594,
      "▁sport": 7595,
      "##د": 7596,
      "▁cruise": 7597,
      "▁before": 7598,
      "▁pork": 7599,
      "##pro": 7600,
      "▁crackers": 7601,
      "▁xv": 7602,
      "▁82": 7603,
      "▁supernatural": 7604,
      "▁http://": 7605,
      "▁roll": 7606,
      "▁conven": 7607,
      "▁olymp": 7608,
      "▁affirm": 7609,
      "远": 7610,
      "▁discrimination": 7611,
      "▁gaps": 7612,
      "▁wentz": 7613,
      "▁ames": 7614,
      "▁candidate": 7615,
      "##:02": 7616,
      "▁copies": 7617,
      "##p": 7618,
      "▁639": 7619,
      "▁ena": 7620,
      "▁respond": 7621,
      "▁proble": 7622,
      "▁315": 7623,
      "##bing": 7624,
      "##.621": 7625,
      "▁sushi": 7626,
      "▁focuses": 7627,
      "▁elevator": 7628,
      "▁tours": 7629,
      "▁nerv": 7630,
      "▁considerably": 7631,
      "▁jour": 7632,
      "##rist": 7633,
      "##134": 7634,
      "##enth": 7635,
      "▁zurbar": 7636,
      "##ahu": 7637,
      "##pt": 7638,
      "##ota": 7639,
      "▁improvement": 7640,
      "▁field": 7641,
      "▁mycelium": 7642,
      "##aco": 7643,
      "▁englishman": 7644,
      "▁strat": 7645,
      "▁threw": 7646,
      "##109": 7647,
      "▁prestig": 7648,
      "##$": 7649,
      "▁supp": 7650,
      "▁tool": 7651,
      "▁amended": 7652,
      "▁unrelated": 7653,
      "▁wondered": 7654,
      "##aska": 7655,
      "▁component": 7656,
      "▁toler": 7657,
      "▁abst": 7658,
      "▁☎": 7659,
      "##ils": 7660,
      "##osh": 7661,
      "▁gisb": 7662,
      "▁bubble": 7663,
      "##sters": 7664,
      "##ht": 7665,
      "▁presidential": 7666,
      "▁continuing": 7667,
      "▁penn": 7668,
      "▁reinfor": 7669,
      "▁waff": 7670,
      "▁composed": 7671,
      "▁humans": 7672,
      "▁weary": 7673,
      "▁envelop": 7674,
      "▁bite": 7675,
      "##ti": 7676,
      "▁dkk": 7677,
      "▁nons": 7678,
      "▁nonna": 7679,
      "##rier": 7680,
      "##ality": 7681,
      "▁passenger": 7682,
      "▁concerned": 7683,
      "▁experiences": 7684,
      "▁however": 7685,
      "▁internet": 7686,
      "▁1647": 7687,
      "▁elastic": 7688,
      "##oqu": 7689,
      "▁precision": 7690,
      "▁bce": 7691,
      "▁ou": 7692,
      "▁floor": 7693,
      "▁bub": 7694,
      "▁guidelines": 7695,
      "▁stab": 7696,
      "▁wasted": 7697,
      "▁needing": 7698,
      "##ky": 7699,
      "##ants": 7700,
      "##lah": 7701,
      "▁gimp": 7702,
      "##earing": 7703,
      "▁sle": 7704,
      "##ss": 7705,
      "▁belong": 7706,
      "▁grant": 7707,
      "##13": 7708,
      "▁sov": 7709,
      "▁reality": 7710,
      "▁crop": 7711,
      "▁des": 7712,
      "▁super": 7713,
      "▁jew": 7714,
      "##igning": 7715,
      "##ensity": 7716,
      "▁oppose": 7717,
      "▁distrib": 7718,
      "▁03:48": 7719,
      "##aring": 7720,
      "▁particles": 7721,
      "▁present": 7722,
      "▁side": 7723,
      "▁dancers": 7724,
      "▁separation": 7725,
      "##ieved": 7726,
      "▁goods": 7727,
      "▁hier": 7728,
      "▁sigh": 7729,
      "▁truck": 7730,
      "▁bathroom": 7731,
      "▁meanwhile": 7732,
      "▁moo": 7733,
      "▁carolina": 7734,
      "##iao": 7735,
      "▁program": 7736,
      "▁phones": 7737,
      "▁controvers": 7738,
      "▁refused": 7739,
      "▁stoo": 7740,
      "▁clam": 7741,
      "##tact": 7742,
      "##port": 7743,
      "##round": 7744,
      "▁sam": 7745,
      "▁seeks": 7746,
      "##.com": 7747,
      "▁supper": 7748,
      "##aces": 7749,
      "▁stem": 7750,
      "▁others": 7751,
      "▁chance": 7752,
      "##ita": 7753,
      "▁law": 7754,
      "▁suggested": 7755,
      "▁umb": 7756,
      "▁hiroshima": 7757,
      "▁premise": 7758,
      "▁gener": 7759,
      "▁pin": 7760,
      "▁screen": 7761,
      "▁which": 7762,
      "##ises": 7763,
      "▁01/26/2001": 7764,
      "▁definition": 7765,
      "▁paint": 7766,
      "▁bacon": 7767,
      "▁tigger": 7768,
      "▁hosting": 7769,
      "▁moderate": 7770,
      "##obile": 7771,
      "▁taipe": 7772,
      "▁railway": 7773,
      "▁major": 7774,
      "##393": 7775,
      "▁shark": 7776,
      "▁compon": 7777,
      "▁veteran": 7778,
      "▁released": 7779,
      "##lymp": 7780,
      "▁drinks": 7781,
      "▁supporters": 7782,
      "▁ideation": 7783,
      "##ores": 7784,
      "##nesday": 7785,
      "##alee": 7786,
      "##-343": 7787,
      "##ination": 7788,
      "▁|": 7789,
      "##amese": 7790,
      "▁maker": 7791,
      "▁90s": 7792,
      "▁kum": 7793,
      "▁laundry": 7794,
      "▁unexp": 7795,
      "▁utilities": 7796,
      "▁pivottable": 7797,
      "▁sanct": 7798,
      "▁seemingly": 7799,
      "▁explain": 7800,
      "▁1100": 7801,
      "▁1613": 7802,
      "▁due": 7803,
      "##inations": 7804,
      "▁composition": 7805,
      "▁routine": 7806,
      "▁failing": 7807,
      "▁clark": 7808,
      "▁dull": 7809,
      "▁besides": 7810,
      "##ga": 7811,
      "▁site": 7812,
      "▁arrogance": 7813,
      "##imum": 7814,
      "▁ge": 7815,
      "##ennese": 7816,
      "##inary": 7817,
      "##itivity": 7818,
      "▁voice": 7819,
      "▁cocoa": 7820,
      "▁methods": 7821,
      "▁ansi-89": 7822,
      "##lebr": 7823,
      "x": 7824,
      "▁seventy": 7825,
      "▁sails": 7826,
      "▁willing": 7827,
      "▁indust": 7828,
      "▁ded": 7829,
      "▁talent": 7830,
      "▁favorable": 7831,
      "▁skirts": 7832,
      "##ling": 7833,
      "▁paralymp": 7834,
      "▁3.7": 7835,
      "##field": 7836,
      "▁banner": 7837,
      "##-20-": 7838,
      "▁amaz": 7839,
      "▁888": 7840,
      "▁remark": 7841,
      "▁agric": 7842,
      "▁steak": 7843,
      "▁unlike": 7844,
      "▁hotels": 7845,
      "▁wides": 7846,
      "▁01/19/2001": 7847,
      "▁stopovers": 7848,
      "##yr": 7849,
      "▁trial": 7850,
      "##9/2001": 7851,
      "##ilities": 7852,
      "▁military": 7853,
      "##wright": 7854,
      "##zing": 7855,
      "▁floating": 7856,
      "▁termin": 7857,
      "▁425": 7858,
      "▁04/16/2001": 7859,
      "▁addicted": 7860,
      "▁summit": 7861,
      "▁appealing": 7862,
      "▁med": 7863,
      "##nut": 7864,
      "▁proposed": 7865,
      "▁remarks": 7866,
      "▁encounter": 7867,
      "##umes": 7868,
      "­": 7869,
      "▁halal": 7870,
      "▁marg": 7871,
      "##no": 7872,
      "▁expected": 7873,
      "▁political": 7874,
      "▁asp": 7875,
      "▁increasing": 7876,
      "▁christmas": 7877,
      "▁strain": 7878,
      "▁ties": 7879,
      "▁mothers": 7880,
      "▁muggles": 7881,
      "▁dasovich": 7882,
      "▁persec": 7883,
      "▁well": 7884,
      "▁hierarch": 7885,
      "▁changed": 7886,
      "##1-": 7887,
      "▁cham": 7888,
      "▁129": 7889,
      "▁mal": 7890,
      "▁hour": 7891,
      "##astery": 7892,
      "▁tsar": 7893,
      "▁nina": 7894,
      "▁unpre": 7895,
      "▁contr": 7896,
      "##uary": 7897,
      "▁surprised": 7898,
      "▁158": 7899,
      "▁surve": 7900,
      "▁karl": 7901,
      "▁homemade": 7902,
      "##ald": 7903,
      "o": 7904,
      "▁kleenex": 7905,
      "##astroph": 7906,
      "▁shelf": 7907,
      "##anim": 7908,
      "▁22": 7909,
      "##lace": 7910,
      "##used": 7911,
      "▁parach": 7912,
      "▁dam": 7913,
      "▁grape": 7914,
      "▁circling": 7915,
      "▁distant": 7916,
      "▁steph": 7917,
      "▁‘’": 7918,
      "##aste": 7919,
      "▁apparent": 7920,
      "##ona": 7921,
      "▁b.": 7922,
      "▁horses": 7923,
      "▁revers": 7924,
      "▁supernat": 7925,
      "▁z": 7926,
      "##ising": 7927,
      "▁shared": 7928,
      "##encing": 7929,
      "津": 7930,
      "œ": 7931,
      "▁easter": 7932,
      "▁declined": 7933,
      "##ellar": 7934,
      "▁candle": 7935,
      "▁dollars": 7936,
      "▁anywhere": 7937,
      "▁democrats": 7938,
      "▁demand": 7939,
      "##mer": 7940,
      "▁jerome": 7941,
      "▁forecast": 7942,
      "▁num": 7943,
      "▁waved": 7944,
      "▁tant": 7945,
      "##icle": 7946,
      "▁bumble": 7947,
      "▁thrown": 7948,
      "##inate": 7949,
      "▁c.": 7950,
      "▁featured": 7951,
      "▁thirds": 7952,
      "##preh": 7953,
      "▁offering": 7954,
      "▁limb": 7955,
      "▁wong": 7956,
      "▁consistent": 7957,
      "▁interventions": 7958,
      "▁principal": 7959,
      "▁gotten": 7960,
      "▁1179": 7961,
      "▁addiction": 7962,
      "▁airb": 7963,
      "▁worm": 7964,
      "▁me": 7965,
      "▁reducing": 7966,
      "▁contained": 7967,
      "▁statements": 7968,
      "▁cruel": 7969,
      "▁palestine": 7970,
      "##ancy": 7971,
      "▁conducting": 7972,
      "▁pee": 7973,
      "▁comedie": 7974,
      "▁miser": 7975,
      "##ph": 7976,
      "▁bombs": 7977,
      "▁neural": 7978,
      "##net": 7979,
      "##ania": 7980,
      "##ector": 7981,
      "##tax": 7982,
      "▁closer": 7983,
      "▁intim": 7984,
      "▁driver": 7985,
      "▁pag": 7986,
      "##8_00.doc": 7987,
      "▁crops": 7988,
      "▁painting": 7989,
      "##jud": 7990,
      "▁mor": 7991,
      "▁bitter": 7992,
      "▁signs": 7993,
      "▁don": 7994,
      "##aro": 7995,
      "▁26": 7996,
      "▁seek": 7997,
      "▁pretend": 7998,
      "▁disrupt": 7999,
      "▁enrononline": 8000,
      "▁dri": 8001,
      "▁gots": 8002,
      "##:17": 8003,
      "▁hards": 8004,
      "##itudes": 8005,
      "▁terrif": 8006,
      "▁underst": 8007,
      "▁tob": 8008,
      "▁settlement": 8009,
      "▁first": 8010,
      "▁facing": 8011,
      "▁late": 8012,
      "▁rein": 8013,
      "▁giant": 8014,
      "▁morning": 8015,
      "▁hilton": 8016,
      "▁arrogant": 8017,
      "▁sandwich": 8018,
      "▁1575": 8019,
      "▁wakes": 8020,
      "▁average": 8021,
      "▁announ": 8022,
      "##2-": 8023,
      "▁months": 8024,
      "##ounding": 8025,
      "▁basil": 8026,
      "▁battle": 8027,
      "▁cheers": 8028,
      "▁shel": 8029,
      "▁cas": 8030,
      "▁resolved": 8031,
      "▁procedure": 8032,
      "▁individ": 8033,
      "▁canada": 8034,
      "▁ran": 8035,
      "##wood": 8036,
      "▁notice": 8037,
      "▁rand": 8038,
      "▁hens": 8039,
      "▁crude": 8040,
      "▁highlights": 8041,
      "▁clothing": 8042,
      "##iber": 8043,
      "▁11:0": 8044,
      "▁illusions": 8045,
      "##pal": 8046,
      "▁walker": 8047,
      "▁support": 8048,
      "▁invoice": 8049,
      "##53": 8050,
      "▁remod": 8051,
      "▁public": 8052,
      "▁along": 8053,
      "▁185": 8054,
      "▁legs": 8055,
      "▁wrest": 8056,
      "##peare": 8057,
      "▁crisp": 8058,
      "▁indefin": 8059,
      "▁defense": 8060,
      "##emor": 8061,
      "##700": 8062,
      "▁suggests": 8063,
      "@": 8064,
      "▁debbie": 8065,
      "▁honda": 8066,
      "▁brit": 8067,
      "▁bloody": 8068,
      "##nal": 8069,
      "▁elabor": 8070,
      "▁unsure": 8071,
      "▁killed": 8072,
      "##ival": 8073,
      "▁philosoph": 8074,
      "▁hundred": 8075,
      "▁1896": 8076,
      "▁34": 8077,
      "▁hmm": 8078,
      "##on": 8079,
      "▁odd": 8080,
      "▁verb": 8081,
      "▁professionally": 8082,
      "▁restored": 8083,
      "▁enormous": 8084,
      "##ante": 8085,
      "▁202.456.1414": 8086,
      "▁e.g": 8087,
      "▁electricity": 8088,
      "▁earthqu": 8089,
      "▁view": 8090,
      "▁twenty-four": 8091,
      "##algamiento": 8092,
      "▁satisfy": 8093,
      "▁scent": 8094,
      "▁vallee": 8095,
      "▁imported": 8096,
      "▁defines": 8097,
      "▁2005": 8098,
      "▁paralympics": 8099,
      "▁rainy": 8100,
      "##flies": 8101,
      "▁consequences": 8102,
      "▁jordan": 8103,
      "▁yours": 8104,
      "▁we": 8105,
      "▁resumed": 8106,
      "▁fee": 8107,
      "##ruction": 8108,
      "##-625": 8109,
      "▁boards": 8110,
      "▁choose": 8111,
      "▁unload": 8112,
      "▁prec": 8113,
      "▁homeland": 8114,
      "##ructure": 8115,
      "▁dedicated": 8116,
      "▁jerk": 8117,
      "▁dist": 8118,
      "▁if": 8119,
      "▁regret": 8120,
      "▁distinguished": 8121,
      "▁professionalism": 8122,
      "▁eul": 8123,
      "▁home": 8124,
      "▁progr": 8125,
      "▁relationships": 8126,
      "▁initiate": 8127,
      "▁ex": 8128,
      "##fast": 8129,
      "▁mixture": 8130,
      "##enes": 8131,
      "▁walking": 8132,
      "▁certainly": 8133,
      "▁democrat": 8134,
      "##.70": 8135,
      "▁ayman": 8136,
      "▁tun": 8137,
      "▁illusion": 8138,
      "▁centers": 8139,
      "▁toaster": 8140,
      "▁kent": 8141,
      "##0.doc": 8142,
      "▁recipe": 8143,
      "▁iraq": 8144,
      "##ify": 8145,
      "▁cruc": 8146,
      "▁insurance": 8147,
      "##ø": 8148,
      "▁city": 8149,
      "##.4": 8150,
      "▁substance": 8151,
      "##master": 8152,
      "▁embarrassment": 8153,
      "##anks": 8154,
      "▁jay": 8155,
      "##rit": 8156,
      "▁contract": 8157,
      "▁connection": 8158,
      "▁penny": 8159,
      "▁funding": 8160,
      "##ume": 8161,
      "▁retained": 8162,
      "▁versions": 8163,
      "##uj": 8164,
      "##:00": 8165,
      "##aut": 8166,
      "##ught": 8167,
      "▁explanation": 8168,
      "▁promotion": 8169,
      "▁defe": 8170,
      "▁attacked": 8171,
      "▁designer": 8172,
      "▁relent": 8173,
      "▁courage": 8174,
      "▁drivers": 8175,
      "▁jer": 8176,
      "▁46": 8177,
      "##emen": 8178,
      "##thew": 8179,
      "##ches": 8180,
      "▁cover": 8181,
      "▁indicates": 8182,
      "▁departs": 8183,
      "##boat": 8184,
      "▁interpreted": 8185,
      "##itation": 8186,
      "▁bl": 8187,
      "▁67": 8188,
      "▁conducted": 8189,
      "##-of": 8190,
      "▁hoax": 8191,
      "▁wake": 8192,
      "▁keen": 8193,
      "##owning": 8194,
      "▁bour": 8195,
      "##wyn": 8196,
      "▁reve": 8197,
      "▁girl": 8198,
      "##ious": 8199,
      "##ub": 8200,
      "▁monsters": 8201,
      "▁enh": 8202,
      "▁emerg": 8203,
      "##dered": 8204,
      "▁forced": 8205,
      "▁government": 8206,
      "▁concerning": 8207,
      "▁cheeks": 8208,
      "##drft8-": 8209,
      "▁recruiting": 8210,
      "▁regarding": 8211,
      "▁season": 8212,
      "▁relevant": 8213,
      "##uable": 8214,
      "##li": 8215,
      "▁gate": 8216,
      "▁greek": 8217,
      "▁moh": 8218,
      "##orum": 8219,
      "##/17/2000": 8220,
      "▁governor": 8221,
      "▁fine": 8222,
      "▁w": 8223,
      "##ast": 8224,
      "▁booked": 8225,
      "▁rum": 8226,
      "##ز": 8227,
      "▁extremist": 8228,
      "▁esc": 8229,
      "▁inch": 8230,
      "##english": 8231,
      "##omen": 8232,
      "▁gum": 8233,
      "▁image": 8234,
      "▁arrang": 8235,
      "▁confl": 8236,
      "▁btw": 8237,
      "▁informacion": 8238,
      "▁floren": 8239,
      "▁cultural": 8240,
      "##i.": 8241,
      "▁demanded": 8242,
      "##illes": 8243,
      "##icked": 8244,
      "##ceed": 8245,
      "▁exec": 8246,
      "▁innocent": 8247,
      "▁benefited": 8248,
      "##_1": 8249,
      "▁prevail": 8250,
      "▁mullah": 8251,
      "▁1820": 8252,
      "▁32": 8253,
      "▁marvelous": 8254,
      "▁bobo": 8255,
      "▁groan": 8256,
      "▁waited": 8257,
      "▁hot": 8258,
      "▁begun": 8259,
      "▁slippers": 8260,
      "▁corpus": 8261,
      "▁needed": 8262,
      "▁shit": 8263,
      "▁injured": 8264,
      "▁haf": 8265,
      "▁horm": 8266,
      "▁minute": 8267,
      "▁pm": 8268,
      "▁implicated": 8269,
      "##ications": 8270,
      "▁strike": 8271,
      "▁divine": 8272,
      "▁yazid": 8273,
      "▁oct": 8274,
      "▁stripes": 8275,
      "▁revisions": 8276,
      "▁strawberries": 8277,
      "▁stirring": 8278,
      "▁trem": 8279,
      "▁conclusion": 8280,
      "▁295870": 8281,
      "▁m.": 8282,
      "▁err": 8283,
      "▁cares": 8284,
      "▁examined": 8285,
      "▁credit": 8286,
      "▁company": 8287,
      "▁pod": 8288,
      "▁thais": 8289,
      "▁permit": 8290,
      "▁29587": 8291,
      "▁genuine": 8292,
      "▁die": 8293,
      "▁28": 8294,
      "▁candidates": 8295,
      "▁chas": 8296,
      "##ounded": 8297,
      "▁tale": 8298,
      "▁pie": 8299,
      "##ares": 8300,
      "▁scan": 8301,
      "▁tu": 8302,
      "▁lun": 8303,
      "▁u.s": 8304,
      "▁pale": 8305,
      "▁fridge": 8306,
      "▁chairs": 8307,
      "##ody": 8308,
      "▁52": 8309,
      "▁-2-f.doc": 8310,
      "▁hea": 8311,
      "▁malaysia": 8312,
      "▁golf": 8313,
      "▁hasid": 8314,
      "▁acceler": 8315,
      "▁words": 8316,
      "▁medicine": 8317,
      "▁given": 8318,
      "▁patri": 8319,
      "▁1691": 8320,
      "▁11/7/08": 8321,
      "▁paragraph": 8322,
      "▁unn": 8323,
      "▁brains": 8324,
      "▁contest": 8325,
      "##clock": 8326,
      "▁station": 8327,
      "▁lamp": 8328,
      "▁mode": 8329,
      "▁atlanta": 8330,
      "▁judy": 8331,
      "##email": 8332,
      "##@comp": 8333,
      "▁1220": 8334,
      "▁entry": 8335,
      "▁advance": 8336,
      "▁critics": 8337,
      "▁cuckoo": 8338,
      "▁judg": 8339,
      "▁once": 8340,
      "▁chicken": 8341,
      "##rons": 8342,
      "▁reveal": 8343,
      "##uded": 8344,
      "▁casc": 8345,
      "▁memor": 8346,
      "##ced": 8347,
      "▁consortium": 8348,
      "▁structural": 8349,
      "▁sec": 8350,
      "##ict": 8351,
      "##na": 8352,
      "##teen": 8353,
      "▁leung": 8354,
      "▁4:50": 8355,
      "▁air": 8356,
      "▁75": 8357,
      "▁kuwait": 8358,
      "▁mexic": 8359,
      "▁baghdad": 8360,
      "▁severe": 8361,
      "▁mhc": 8362,
      "▁fitness": 8363,
      "##var": 8364,
      "▁hus": 8365,
      "▁pace": 8366,
      "##esco": 8367,
      "▁popcorn": 8368,
      "▁12,000": 8369,
      "▁pony": 8370,
      "##51": 8371,
      "▁rapid": 8372,
      "▁um": 8373,
      "ø": 8374,
      "▁delighted": 8375,
      "▁threatens": 8376,
      "▁apparently": 8377,
      "▁gallon": 8378,
      "▁swirl": 8379,
      "▁chosen": 8380,
      "▁cop": 8381,
      "▁symptoms": 8382,
      "▁retrosp": 8383,
      "##ox": 8384,
      "▁generally": 8385,
      "##leum": 8386,
      "▁monkey": 8387,
      "▁quality": 8388,
      "▁abo": 8389,
      "▁towards": 8390,
      "▁ath": 8391,
      "##light": 8392,
      "▁johann": 8393,
      "▁volume": 8394,
      "▁red": 8395,
      "a": 8396,
      "▁mot": 8397,
      "##ot": 8398,
      "##product": 8399,
      "▁wines": 8400,
      "▁firmly": 8401,
      "▁fucking": 8402,
      "##ud": 8403,
      "▁crit": 8404,
      "##glo": 8405,
      "▁200,000": 8406,
      "##awk": 8407,
      "##ery": 8408,
      "▁coke": 8409,
      "▁welfare": 8410,
      "▁susan": 8411,
      "▁nations": 8412,
      "##/200": 8413,
      "▁reveals": 8414,
      "▁1562": 8415,
      "▁opin": 8416,
      "##vern": 8417,
      "▁luna": 8418,
      "▁technique": 8419,
      "▁mars": 8420,
      "##sem": 8421,
      "▁61": 8422,
      "▁victory": 8423,
      "▁enc": 8424,
      "##onsc": 8425,
      "##vil": 8426,
      "##====": 8427,
      "▁iv": 8428,
      "▁shining": 8429,
      "▁providers": 8430,
      "##ury": 8431,
      "▁flu": 8432,
      "▁observ": 8433,
      "▁t": 8434,
      "##grad": 8435,
      "▁withd": 8436,
      "▁complaint": 8437,
      "▁office": 8438,
      "▁stair": 8439,
      "▁limousine": 8440,
      "▁angle": 8441,
      "▁chard": 8442,
      "##☏": 8443,
      "▁713-853-3989": 8444,
      "º": 8445,
      "▁leadership": 8446,
      "##ance": 8447,
      "▁1971": 8448,
      "▁murder": 8449,
      "▁cakes": 8450,
      "##ason": 8451,
      "##itted": 8452,
      "▁next": 8453,
      "▁1995": 8454,
      "▁177": 8455,
      "▁wisdom": 8456,
      "##lics": 8457,
      "##key": 8458,
      "▁conduct": 8459,
      "▁http://www.b": 8460,
      "▁walked": 8461,
      "▁question": 8462,
      "##46": 8463,
      "▁related": 8464,
      "▁10:00": 8465,
      "▁towel": 8466,
      "##ink": 8467,
      "▁capt": 8468,
      "##xture": 8469,
      "▁type": 8470,
      "▁12.": 8471,
      "▁nature": 8472,
      "+": 8473,
      "▁below": 8474,
      "▁constituency": 8475,
      "##fin": 8476,
      "▁laying": 8477,
      "▁ninety-n": 8478,
      "▁b/c": 8479,
      "▁besid": 8480,
      "古": 8481,
      "▁explaining": 8482,
      "▁lob": 8483,
      "▁newspaper": 8484,
      "##doc": 8485,
      "▁switched": 8486,
      "▁4-12": 8487,
      "▁exclaim": 8488,
      "▁notion": 8489,
      "##force": 8490,
      "##through": 8491,
      "▁web": 8492,
      "▁palestin": 8493,
      "##bridge": 8494,
      "##ologically": 8495,
      "▁bug": 8496,
      "▁equival": 8497,
      "▁---->===": 8498,
      "##raz": 8499,
      "▁param": 8500,
      "▁hard": 8501,
      "▁been": 8502,
      "▁ua": 8503,
      "▁huh": 8504,
      "▁415.621": 8505,
      "▁jugg": 8506,
      "▁snuffy": 8507,
      "▁care": 8508,
      "▁nandakk": 8509,
      "▁cases": 8510,
      "##inges": 8511,
      "##44": 8512,
      "##aly": 8513,
      "▁pres": 8514,
      "▁;)": 8515,
      "▁pig": 8516,
      "##16.718": 8517,
      "▁errors": 8518,
      "▁preferred": 8519,
      "▁paul": 8520,
      "▁prom": 8521,
      "##ittal": 8522,
      "▁culturally": 8523,
      "▁morality": 8524,
      "##rition": 8525,
      "▁_________________________________": 8526,
      "▁pete": 8527,
      "▁4:30": 8528,
      "▁attempts": 8529,
      "▁complete": 8530,
      "▁gand": 8531,
      "▁enterprise": 8532,
      "▁degenerate": 8533,
      "##unga": 8534,
      "##uc": 8535,
      "▁international": 8536,
      "▁pea": 8537,
      "▁inapp": 8538,
      "▁syntact": 8539,
      "▁t-": 8540,
      "▁aware": 8541,
      "##byl": 8542,
      "▁lat": 8543,
      "▁ey": 8544,
      "▁checking": 8545,
      "##lier": 8546,
      "▁maternal": 8547,
      "▁dressing": 8548,
      "▁russian": 8549,
      "▁soda": 8550,
      "▁documentation": 8551,
      "▁third": 8552,
      "▁cameras": 8553,
      "▁carries": 8554,
      "▁breakfast": 8555,
      "▁fert": 8556,
      "▁joan": 8557,
      "##70": 8558,
      "##ust": 8559,
      "▁prompted": 8560,
      "▁news": 8561,
      "▁checkers": 8562,
      "▁coverage": 8563,
      "▁mei": 8564,
      "▁hostess": 8565,
      "##elf": 8566,
      "▁money": 8567,
      "##bon": 8568,
      "▁lantern": 8569,
      "##oun": 8570,
      "▁1878": 8571,
      "▁critical": 8572,
      "▁versus": 8573,
      "##opular": 8574,
      "##ensus": 8575,
      "▁reservations": 8576,
      "▁brought": 8577,
      "▁frame": 8578,
      "▁typical": 8579,
      "▁rocket": 8580,
      "▁urler": 8581,
      "▁hp": 8582,
      "▁mayko": 8583,
      "▁sunday": 8584,
      "▁accuracy": 8585,
      "▁atop": 8586,
      "▁ohio": 8587,
      "▁bondad": 8588,
      "▁pays": 8589,
      "▁jacket": 8590,
      "▁9221": 8591,
      "##ellation": 8592,
      "▁intensive": 8593,
      "##uss": 8594,
      "▁tacoma": 8595,
      "υ": 8596,
      "▁diag": 8597,
      "##uela": 8598,
      "▁bits": 8599,
      "▁movie": 8600,
      "##vert": 8601,
      "##mers": 8602,
      "##07": 8603,
      "▁philosophy": 8604,
      "▁759933": 8605,
      "##ql": 8606,
      "▁198": 8607,
      "▁monde": 8608,
      "##ire": 8609,
      "▁occup": 8610,
      "▁tit": 8611,
      "##box": 8612,
      "##tto": 8613,
      "##ported": 8614,
      "▁freezer": 8615,
      "▁pad": 8616,
      "▁atomic": 8617,
      "▁prosp": 8618,
      "▁scen": 8619,
      "▁films": 8620,
      "▁influence": 8621,
      "▁goodness": 8622,
      "▁underlying": 8623,
      "▁ekrapels@esaibos.com": 8624,
      "▁geomet": 8625,
      "##athan": 8626,
      "▁proust": 8627,
      "▁stip": 8628,
      "##usion": 8629,
      "▁femoral": 8630,
      "▁emp": 8631,
      "##uring": 8632,
      "▁xii": 8633,
      "▁waterfall": 8634,
      "▁falled": 8635,
      "▁advis": 8636,
      "##wiki": 8637,
      "▁dost": 8638,
      "▁anne": 8639,
      "▁achieved": 8640,
      "##ppo": 8641,
      "▁fir": 8642,
      "▁victims": 8643,
      "##ath": 8644,
      "▁resour": 8645,
      "▁litt": 8646,
      "▁ultimately": 8647,
      "▁chi": 8648,
      "▁renewed": 8649,
      "▁impe": 8650,
      "▁subm": 8651,
      "▁sword": 8652,
      "▁birds": 8653,
      "##rical": 8654,
      "▁provinc": 8655,
      "▁1833": 8656,
      "▁came": 8657,
      "▁focused": 8658,
      "▁speed": 8659,
      "▁characteristics": 8660,
      "▁cherry": 8661,
      "▁checkout": 8662,
      "▁surprising": 8663,
      "##enty": 8664,
      "▁vegetables": 8665,
      "▁05/25/2001": 8666,
      "▁sol": 8667,
      "▁intr": 8668,
      "▁lifestyle": 8669,
      "▁mom": 8670,
      "▁roses": 8671,
      "▁cia": 8672,
      "▁about": 8673,
      "▁gov": 8674,
      "##ax": 8675,
      "▁specialists": 8676,
      "▁farther": 8677,
      "▁not": 8678,
      "##xon": 8679,
      "▁spilled": 8680,
      "▁plural": 8681,
      "▁licking": 8682,
      "##;": 8683,
      "▁storms": 8684,
      "##:11": 8685,
      "▁expectation": 8686,
      "##adel": 8687,
      "▁glen": 8688,
      "▁rainbow": 8689,
      "▁padalecki": 8690,
      "▁juice": 8691,
      "▁comb": 8692,
      "▁explained": 8693,
      "▁comple": 8694,
      "▁debate": 8695,
      "##ux": 8696,
      "##oth": 8697,
      "##70s": 8698,
      "##ower": 8699,
      "▁effective": 8700,
      "▁should": 8701,
      "▁alcalde": 8702,
      "▁barrels": 8703,
      "##oxide": 8704,
      "▁clearly": 8705,
      "▁emma": 8706,
      "▁drying": 8707,
      "▁thoroughly": 8708,
      "▁loved": 8709,
      "##antanamo": 8710,
      "▁entering": 8711,
[...]
