{
  "version": "1.0",
  "truncation": null,
  "padding": null,
  "added_tokens": [
    {
      "id": 753,
      "content": "[SEP]",
      "single_word": false,
      "lstrip": false,
      "rstrip": false,
      "normalized": false,
      "special": true
    },
    {
      "id": 1183,
      "content": "[MASK]",
      "single_word": false,
      "lstrip": false,
      "rstrip": false,
      "normalized": false,
      "special": true
    },
    {
      "id": 1911,
      "content": "[PAD]",
      "single_word": false,
      "lstrip": false,
      "rstrip": false,
      "normalized": false,
      "special": true
    },
    {
      "id": 3086,
      "content": "[CLS]",
      "single_word": false,
      "lstrip": false,
      "rstrip": false,
      "normalized": false,
      "special": true
    },
    {
      "id": 3994,
      "content": "[UNK]",
      "single_word": false,
      "lstrip": false,
      "rstrip": false,
      "normalized": false,
      "special": true
    }
  ],
  "normalizer": {
    "type": "Sequence",
    "normalizers": [
      {
        "type": "NFD"
      },
      {
        "type": "Lowercase"
      },
      {
        "type": "StripAccents"
      }
    ]
  },
  "pre_tokenizer": {
    "type": "Sequence",
    "pretokenizers": [
      {
        "type": "Metaspace",
        "replacement": "▁",
        "prepend_scheme": "always",
        "split": true
      }
    ]
  },
  "post_processor": {
    "type": "TemplateProcessing",
    "single": [
      {
        "SpecialToken": {
          "id": "[CLS]",
          "type_id": 0
        }
      },
      {
        "Sequence": {
          "id": "A",
          "type_id": 0
        }
      },
      {
        "SpecialToken": {
          "id": "[SEP]",
          "type_id": 0
        }
      }
    ],
    "pair": [
      {
        "SpecialToken": {
          "id": "[CLS]",
          "type_id": 0
        }
      },
      {
        "Sequence": {
          "id": "A",
          "type_id": 0
        }
      },
      {
        "SpecialToken": {
          "id": "[SEP]",
          "type_id": 0
        }
      },
      {
        "Sequence": {
          "id": "B",
          "type_id": 1
        }
      },
      {
        "SpecialToken": {
          "id": "[SEP]",
          "type_id": 1
        }
      }
    ],
    "special_tokens": {
      "[CLS]": {
        "id": "[CLS]",
        "ids": [
          3086
        ],
        "tokens": [
          "[CLS]"
        ]
      },
      "[SEP]": {
        "id": "[SEP]",
        "ids": [
          753
        ],
        "tokens": [
          "[SEP]"
        ]
      }
    }
  },
  "decoder": {
    "type": "Metaspace",
    "replacement": "▁",
    "prepend_scheme": "always",
    "split": true
  },
  "model": {
    "type": "BPE",
    "dropout": null,
    "unk_token": "[UNK]",
    "continuing_subword_prefix": null,
    "end_of_word_suffix": null,
    "fuse_unk": false,
    "byte_fallback": false,
    "ignore_merges": false,
    "vocab": {
      "▁oct": 0,
      "so": 1,
      "▁exper": 2,
      "▁non": 3,
      "▁1579": 4,
      "6-8": 5,
      "▁295870": 6,
      "▁toronto": 7,
      "▁displ": 8,
      "t": 9,
      "ental": 10,
      "▁company": 11,
      "ally": 12,
      "ather": 13,
      "▁750": 14,
      "▁29587": 15,
      "ied": 16,
      "▁die": 17,
      "▁future": 18,
      "▁bott": 19,
      "▁28": 20,
      "two": 21,
      "ters": 22,
      "huh": 23,
      "▁1-8": 24,
      "183": 25,
      "uh": 26,
      "/13/2001": 27,
      "▁ano": 28,
      "▁step": 29,
      "qu": 30,
      "▁polic": 31,
      "▁thirty-": 32,
      "▁outside": 33,
      "▁tu": 34,
      "dd": 35,
      "▁face": 36,
      "ule": 37,
      "▁52": 38,
      "▁12:12": 39,
      "ken": 40,
      "▁al": 41,
      "▁lake": 42,
      "▁case": 43,
      "▁hea": 44,
      "▁check": 45,
      "▁show": 46,
      "▁words": 47,
      "16": 48,
      "▁given": 49,
      "▁&": 50,
      "▁thousand": 51,
      "▁1691": 52,
      "▁11/7/08": 53,
      "▁718-780": 54,
      "ances": 55,
      "▁point": 56,
      "▁1937": 57,
      "▁07/14/2000": 58,
      "ount": 59,
      "▁mi": 60,
      "721": 61,
      "▁station": 62,
      ":5": 63,
      "/08": 64,
      "▁atlanta": 65,
      "▁hold": 66,
      "▁expensive": 67,
      "▁sign": 68,
      "ploy": 69,
      "ors": 70,
      "▁1220": 71,
      "most": 72,
      "▁once": 73,
      "▁6:30": 74,
      "▁1868": 75,
      "▁chicken": 76,
      "ed": 77,
      "▁713-646-3393": 78,
      "▁sec": 79,
      "▁1843": 80,
      ".8317": 81,
      "▁4:50": 82,
      "▁air": 83,
      "▁75": 84,
      "▁excell": 85,
      "sel": 86,
      "▁jump": 87,
      "▁many": 88,
      "akes": 89,
      "▁baltim": 90,
      "▁ever": 91,
      "▁08/03/2000": 92,
      "ient": 93,
      "unic": 94,
      "se": 95,
      "▁lo": 96,
      "▁members": 97,
      "-3989": 98,
      "22": 99,
      "▁norm": 100,
      "▁turned": 101,
      "▁1709": 102,
      "erg": 103,
      "▁12,000": 104,
      "/30/2001": 105,
      "▁um": 106,
      ":28": 107,
      "ø": 108,
      "▁705": 109,
      "▁story": 110,
      "uz": 111,
      "▁cop": 112,
      "▁bed": 113,
      "▁6.8": 114,
      "▁1830": 115,
      "ually": 116,
      "ustom": 117,
      "▁dog": 118,
      "//": 119,
      "▁quality": 120,
      "▁something": 121,
      "▁abo": 122,
      "▁towards": 123,
      "----": 124,
      "ary": 125,
      "my": 126,
      "▁myself": 127,
      ",9": 128,
      "▁respect": 129,
      "▁23": 130,
      "d": 131,
      "▁red": 132,
      "a": 133,
      "▁onto": 134,
      "▁40,000": 135,
      "▁mot": 136,
      "ah": 137,
      "ac": 138,
      "▁our": 139,
      "▁effort": 140,
      "▁change": 141,
      "▁crit": 142,
      "▁200,000": 143,
      "▁1928": 144,
      "▁260": 145,
      "80": 146,
      "▁per": 147,
      "▁713-853-1696": 148,
      "▁2,000": 149,
      "▁713-793-": 150,
      "▁has": 151,
      "▁fail": 152,
      "▁1562": 153,
      "▁best": 154,
      "ived": 155,
      "▁pain": 156,
      "pr": 157,
      "▁techn": 158,
      "▁61": 159,
      "oke": 160,
      "▁neither": 161,
      "icult": 162,
      "ute": 163,
      "▁uh": 164,
      "▁end": 165,
      "▁write": 166,
      "▁iv": 167,
      "▁1.6": 168,
      "bo": 169,
      "▁t": 170,
      "▁ext": 171,
      "▁office": 172,
      "umer": 173,
      "▁713-853-3989": 174,
      "ats": 175,
      "º": 176,
      "▁1971": 177,
      "▁look": 178,
      "²": 179,
      "▁espec": 180,
      "▁177": 181,
      "▁next": 182,
      "▁1995": 183,
      "bs": 184,
      "/26/2000": 185,
      "15-": 186,
      "▁832": 187,
      ",": 188,
      "·": 189,
      "▁question": 190,
      "▁att": 191,
      "▁e.": 192,
      "▁70": 193,
      "▁high": 194,
      "▁cha": 195,
      "▁had": 196,
      "▁tick": 197,
      "▁619": 198,
      "图": 199,
      "▁account": 200,
      "▁10:00": 201,
      "▁aircraft": 202,
      "▁60": 203,
      "▁03/09/2000": 204,
      "▁2,300": 205,
      "▁type": 206,
      "ple": 207,
      "55": 208,
      "▁12.": 209,
      "▁01:14": 210,
      "ogether": 211,
      "+": 212,
      "▁inst": 213,
      "▁hit": 214,
      "389": 215,
      "461": 216,
      "▁02/13/2001": 217,
      "ilities": 218,
      "▁04:28": 219,
      "▁below": 220,
      "68": 221,
      "▁03/15/2001": 222,
      "▁yester": 223,
      "▁04:17": 224,
      "em": 225,
      "▁ninety-n": 226,
      "▁b/c": 227,
      "▁'s": 228,
      "ail": 229,
      "▁besid": 230,
      "古": 231,
      "▁1902": 232,
      "▁tem": 233,
      "▁05/03/2001": 234,
      "▁`": 235,
      "ti": 236,
      "fi": 237,
      "all": 238,
      "▁thous": 239,
      "▁pro": 240,
      "▁web": 241,
      "▁rec": 242,
      "▁repres": 243,
      "▁attention": 244,
      "▁easy": 245,
      "enron": 246,
      "▁now": 247,
      "aren": 248,
      "▁1951": 249,
      "6": 250,
      "▁nobody": 251,
      "▁hard": 252,
      "▁run": 253,
      "▁cou": 254,
      "▁n't": 255,
      "▁been": 256,
      "▁1978": 257,
      "▁713/8": 258,
      "astic": 259,
      "▁huh": 260,
      "▁415.621": 261,
      "-460-3": 262,
      "▁care": 263,
      "▁curren": 264,
      "▁baby": 265,
      "▁03": 266,
      "▁pres": 267,
      "craft": 268,
      "▁;)": 269,
      "▁71": 270,
      ":18": 271,
      "ef": 272,
      "ost": 273,
      "ash": 274,
      "▁sing": 275,
      "▁uhoh": 276,
      "▁event": 277,
      "per": 278,
      "▁paul": 279,
      "▁prom": 280,
      "ister": 281,
      "▁must": 282,
      "-98": 283,
      "▁_________________________________": 284,
      "-991-9": 285,
      "-49": 286,
      "▁4:30": 287,
      "▁great": 288,
      "au": 289,
      "ral": 290,
      "▁1599": 291,
      "▁ass": 292,
      "▁under": 293,
      "▁price": 294,
      "▁ai": 295,
      "▁56": 296,
      "▁814014": 297,
      "-0295": 298,
      "▁international": 299,
      "▁glass": 300,
      "▁wanted": 301,
      "ting": 302,
      "▁2500": 303,
      "▁g": 304,
      "/2": 305,
      "▁glob": 306,
      "pp": 307,
      "▁few": 308,
      "▁94": 309,
      "▁ey": 310,
      "▁lat": 311,
      "▁his": 312,
      "▁09/15": 313,
      "▁4.0": 314,
      "▁third": 315,
      "▁god": 316,
      "▁li": 317,
      "▁!!!!": 318,
      "▁church": 319,
      "▁191": 320,
      "▁breakfast": 321,
      "▁watch": 322,
      "▁whereby": 323,
      "▁news": 324,
      "ising": 325,
      "▁did": 326,
      "▁develop": 327,
      "▁money": 328,
      "3/2000": 329,
      "▁pittsbur": 330,
      "▁1878": 331,
      "▁gone": 332,
      "▁versus": 333,
      "▁ens": 334,
      "================================": 335,
      "iss": 336,
      "iet": 337,
      "▁hotel": 338,
      "ide": 339,
      "▁ju": 340,
      "ian": 341,
      "ass": 342,
      "adelp": 343,
      "ences": 344,
      "▁,": 345,
      "▁sunday": 346,
      "▁test": 347,
      "▁713-654-03": 348,
      "▁although": 349,
      "▁commission": 350,
      "▁atop": 351,
      "▁lab": 352,
      "ft": 353,
      "ure": 354,
      "▁aside": 355,
      "▁9221": 356,
      "▁opposite": 357,
      "υ": 358,
      "ct": 359,
      "▁an": 360,
      "▁main": 361,
      "▁proc": 362,
      "tc": 363,
      "ap": 364,
      "▁198": 365,
      "▁759933": 366,
      "93": 367,
      "▁50000": 368,
      "€": 369,
      "ot": 370,
      "by": 371,
      "elf": 372,
      "▁78": 373,
      "ps": 374,
      "▁english": 375,
      "▁angel": 376,
      "0072": 377,
      "▁03/27/2001": 378,
      "▁6,000": 379,
      "▁<<": 380,
      "▁human": 381,
      "435": 382,
      "ion": 383,
      "▁local": 384,
      "ak": 385,
      "▁1291": 386,
      "▁11/29/2000": 387,
      "▁1875": 388,
      "▁collect": 389,
      "▁fir": 390,
      "▁dec": 391,
      "mission": 392,
      "li": 393,
      "▁litt": 394,
      "▁ver": 395,
      "▁281-443-3744": 396,
      "▁prot": 397,
      "▁1530": 398,
      "15": 399,
      "la": 400,
      "▁ya": 401,
      "pt": 402,
      "▁came": 403,
      "▁9/11": 404,
      "▁1833": 405,
      "▁03:58": 406,
      "▁217": 407,
      "▁listen": 408,
      "▁concern": 409,
      "▁05/25/2001": 410,
      "▁sol": 411,
      "/16": 412,
      "▁property": 413,
      "▁mom": 414,
      "▁fut": 415,
      "▁8:30": 416,
      ">": 417,
      "▁environment": 418,
      "▁about": 419,
      "▁gave": 420,
      "▁this": 421,
      ":03": 422,
      "r": 423,
      "▁not": 424,
      "▁but": 425,
      "▁your": 426,
      "ense": 427,
      "-00": 428,
      "▁09/16": 429,
      "▁expect": 430,
      "▁120,000": 431,
      "5/2001": 432,
      "▁compan": 433,
      "▁11/28/2000": 434,
      "▁wh": 435,
      "▁comple": 436,
      "▁pull": 437,
      "▁po": 438,
      "▁talk": 439,
      "▁should": 440,
      "”": 441,
      "▁fair": 442,
      "▁indian": 443,
      "alk": 444,
      "▁accord": 445,
      ":02": 446,
      "▁1608": 447,
      "▁bow": 448,
      "ood": 449,
      "▁grow": 450,
      "▁wait": 451,
      "▁countries": 452,
      "▁512": 453,
      "ively": 454,
      "▁low": 455,
      "2-6": 456,
      "▁letter": 457,
      "▁120": 458,
      "3.6": 459,
      "♥": 460,
      "▁ones": 461,
      "▁s": 462,
      "-4": 463,
      "4": 464,
      "usions": 465,
      "▁st": 466,
      "ric": 467,
      "ka": 468,
      "2/2000": 469,
      "ild": 470,
      "▁202": 471,
      "ea": 472,
      "▁mess": 473,
      "att": 474,
      "▁28,000": 475,
      "▁410-468-3": 476,
      "▁period": 477,
      "read": 478,
      "noon": 479,
      "ok": 480,
      "40": 481,
      "▁ref": 482,
      "301": 483,
      "▁state": 484,
      "▁laura": 485,
      "▁am": 486,
      "▁alread": 487,
      "/03": 488,
      "▁cloth": 489,
      "▁3,": 490,
      "ank": 491,
      "▁el": 492,
      "esday": 493,
      "▁pa": 494,
      "omen": 495,
      "▁!!!": 496,
      "ility": 497,
      "▁fix": 498,
      "for": 499,
      "ich": 500,
      "▁1970": 501,
      "19": 502,
      "▁coun": 503,
      "▁03/08/2000": 504,
      "▁says": 505,
      "295": 506,
      "▁.?": 507,
      "▁month": 508,
      "ck": 509,
      "▁conv": 510,
      "urch": 511,
      "▁1944": 512,
      "/7": 513,
      "▁6.1": 514,
      "▁dogg": 515,
      ":32": 516,
      "atic": 517,
      "▁value": 518,
      "▁5:30": 519,
      "✉": 520,
      "▁-ect": 521,
      "449": 522,
      "▁483": 523,
      "-8": 524,
      "▁unt": 525,
      "/25/2001": 526,
      "▁e": 527,
      ":58": 528,
      "miss": 529,
      "▁based": 530,
      "▁tot": 531,
      "ograph": 532,
      "uth": 533,
      "9/2000": 534,
      "▁have": 535,
      "utes": 536,
      "▁47": 537,
      "ina": 538,
      "cept": 539,
      "▁front": 540,
      "▁ant": 541,
      "▁1929": 542,
      "▁makes": 543,
      "▁bit": 544,
      "▁16": 545,
      "▁7.3": 546,
      "icago": 547,
      "▁08/0": 548,
      "oun": 549,
      "▁240": 550,
      "▁ob": 551,
      "iod": 552,
      "▁really": 553,
      "ither": 554,
      "▁ask": 555,
      "▁probably": 556,
      "▁ten": 557,
      "-3393": 558,
      "004": 559,
      "▁im": 560,
      "▁1910": 561,
      "velop": 562,
      "▁401": 563,
      "ho": 564,
      "▁like": 565,
      "☏": 566,
      "ł": 567,
      "▁pre": 568,
      "▁ne": 569,
      "▁64": 570,
      ";": 571,
      "▁01810": 572,
      "ʃ": 573,
      "▁common": 574,
      "▁ris": 575,
      "ven": 576,
      "▁113": 577,
      "▁!!!!!!": 578,
      "cuz": 579,
      "ivers": 580,
      "▁surpr": 581,
      "▁1800": 582,
      "aq": 583,
      "▁friday": 584,
      "ows": 585,
      "▁poor": 586,
      "▁2.5": 587,
      "ʊ": 588,
      "▁281-435": 589,
      ".16": 590,
      "▁sl": 591,
      "▁enjoy": 592,
      "▁it": 593,
      "▁2": 594,
      "▁06": 595,
      "stem": 596,
      "▁sy": 597,
      "▁noon": 598,
      "▁could": 599,
      "30": 600,
      "▁03/2": 601,
      "▁6.00": 602,
      "▁3/9": 603,
      "67": 604,
      "▁pal": 605,
      "apolis": 606,
      "▁over": 607,
      "▁.2": 608,
      "▁plus": 609,
      "▁re": 610,
      "urn": 611,
      "▁.......": 612,
      "▁aust": 613,
      "▁board": 614,
      "▁six": 615,
      "▁prod": 616,
      "**": 617,
      "3-": 618,
      "▁committ": 619,
      "▁05/30/2001": 620,
      "0010": 621,
      "▁07/1": 622,
      "▁official": 623,
      "pped": 624,
      "▁430": 625,
      "▁!": 626,
      "▁000010": 627,
      "▁ans": 628,
      "ess": 629,
      "▁197": 630,
      "ansas": 631,
      "712": 632,
      "get": 633,
      "▁181": 634,
      "ination": 635,
      "▁the": 636,
      "▁fift": 637,
      ":07": 638,
      "▁ahead": 639,
      "um": 640,
      "▁fly": 641,
      "▁least": 642,
      "▁wilt": 643,
      ":50": 644,
      "▁1822": 645,
      "▁730": 646,
      "▁ke": 647,
      "ney": 648,
      "▁action": 649,
      "85": 650,
      "▁eighteen": 651,
      "▁1504": 652,
      "$": 653,
      "9": 654,
      "42": 655,
      "▁invol": 656,
      "▁eff": 657,
      "▁finally": 658,
      "ind": 659,
      "▁1949": 660,
      "▁mother": 661,
      "▁mich": 662,
      "olution": 663,
      "▁th": 664,
      "▁incl": 665,
      "▁3.8": 666,
      "▁01": 667,
      "dy": 668,
      "▁10:30": 669,
      "▁cent": 670,
      "▁mont": 671,
      "▁priv": 672,
      "rol": 673,
      "▁enj": 674,
      "▁01:39": 675,
      "▁at": 676,
      "▁ep": 677,
      "▁1,": 678,
      "got": 679,
      "▁345": 680,
      "▁heard": 681,
      "▁4.6": 682,
      "▁====================================================": 683,
      "rect": 684,
      "▁sitting": 685,
      "▁ready": 686,
      "ons": 687,
      "▁1205": 688,
      "▁713-654-1281": 689,
      "38": 690,
      "▁15,000": 691,
      ".doc": 692,
      "ane": 693,
      "▁email": 694,
      "▁black": 695,
      "▁1841": 696,
      "▁04:": 697,
      "ty": 698,
      "▁mu": 699,
      "▁july": 700,
      "▁1588": 701,
      "▁oil": 702,
      "iously": 703,
      ":27": 704,
      "▁spr": 705,
      ".0": 706,
      "bers": 707,
      "▁1-800-991-9": 708,
      "▁1585": 709,
      "▁11/2": 710,
      "-2": 711,
      "selves": 712,
      "▁ill": 713,
      "▁number": 714,
      "▁1623": 715,
      ".718": 716,
      "▁81": 717,
      "▁rock": 718,
      "teen": 719,
      "▁forty": 720,
      "▁co": 721,
      "▁trad": 722,
      "▁charl": 723,
      "867": 724,
      "▁done": 725,
      "xt": 726,
      "▁16.379": 727,
      "oon": 728,
      "▁cons": 729,
      "▁800-553-3119": 730,
      "▁ind": 731,
      "fe": 732,
      "▁166": 733,
      "▁balzac": 734,
      "aken": 735,
      "elt": 736,
      "▁01/2": 737,
      "▁\"": 738,
      "▁national": 739,
      "▁middle": 740,
      "▁85": 741,
      "▁record": 742,
      "▁yea": 743,
      "▁79": 744,
      "ver": 745,
      "▁loc": 746,
      "▁650": 747,
      "▁20,000": 748,
      "-84": 749,
      "@ect": 750,
      "ught": 751,
      "▁1614": 752,
      "[SEP]": 753,
      "▁differ": 754,
      "▁guys": 755,
      "1": 756,
      "▁ur": 757,
      "▁vegas": 758,
      "▁live": 759,
      "▁1997": 760,
      "▁mer": 761,
      "▁1831": 762,
      "▁ok": 763,
      "▁8:00": 764,
      "▁only": 765,
      "ism": 766,
      "▁opp": 767,
      "▁beneath": 768,
      "▁29": 769,
      "less": 770,
      "▁+1": 771,
      "▁problem": 772,
      "line": 773,
      "▁1983": 774,
      "▁lea": 775,
      "▁.....": 776,
      "▁includ": 777,
      "unications": 778,
      "▁2:30": 779,
      "▁und": 780,
      "pe": 781,
      "▁whose": 782,
      "▁natural": 783,
      "al": 784,
      "▁star": 785,
      "▁paper": 786,
      "xic": 787,
      "▁1689": 788,
      "▁kept": 789,
      "`": 790,
      "▁'em": 791,
      "▁kitt": 792,
      "▁04": 793,
      "▁he": 794,
      "▁:d": 795,
      "09": 796,
      "▁yesterday": 797,
      "▁3.2": 798,
      "▁girls": 799,
      "▁315-460-33": 800,
      "▁play": 801,
      "▁short": 802,
      "▁505-625-8031": 803,
      "▁713/": 804,
      "▁whether": 805,
      "▁xsl": 806,
      "▁kill": 807,
      "▁03/02/2001": 808,
      "▁leaving": 809,
      "▁president": 810,
      "▁country": 811,
      "▁1888": 812,
      "▁sent": 813,
      "▁ret": 814,
      "ets": 815,
      "▁chair": 816,
      "▁5.5": 817,
      "ec": 818,
      "ens": 819,
      "▁years": 820,
      "▁read": 821,
      "▁noone": 822,
      "▁exam": 823,
      "▁1926": 824,
      "▁137": 825,
      "▁49": 826,
      "▁texas": 827,
      "▁quite": 828,
      "▁pack": 829,
      "ision": 830,
      "▁manag": 831,
      "▁twenty": 832,
      "▁***": 833,
      "▁v": 834,
      "'re": 835,
      "▁summer": 836,
      "▁see": 837,
      "de": 838,
      "▁whil": 839,
      "▁180": 840,
      "aining": 841,
      "▁eleven": 842,
      "▁02": 843,
      "0/2000": 844,
      "▁620-294-": 845,
      "ared": 846,
      "▁unless": 847,
      "▁post": 848,
      "▁back": 849,
      "▁ii": 850,
      "71": 851,
      "▁bea": 852,
      "▁piece": 853,
      "ried": 854,
      "▁0.0": 855,
      "▁team": 856,
      "▁especially": 857,
      "▁imag": 858,
      "▁du": 859,
      "▁>": 860,
      "▁s/he": 861,
      "▁const": 862,
      "▁6400": 863,
      "▁contin": 864,
      "▁ach": 865,
      "况": 866,
      "iv": 867,
      "▁pop": 868,
      "▁col": 869,
      "031": 870,
      "▁treat": 871,
      "▁pub": 872,
      ":24": 873,
      "▁1967": 874,
      "▁talking": 875,
      "ا": 876,
      "ise": 877,
      ".9": 878,
      "▁just": 879,
      "aur": 880,
      "3": 881,
      "▁discuss": 882,
      "▁814": 883,
      "le": 884,
      "▁bet": 885,
      "ellow": 886,
      "▁rele": 887,
      "aro": 888,
      ":44": 889,
      "ar": 890,
      "an": 891,
      "▁nineteen": 892,
      "▁888.916.718": 893,
      "▁tri": 894,
      "▁spec": 895,
      "▁8:15": 896,
      "cross": 897,
      "▁bel": 898,
      "ict": 899,
      "▁early": 900,
      "▁727": 901,
      "▁je": 902,
      "▁numer": 903,
      "▁1590": 904,
      "▁newark": 905,
      "▁1994": 906,
      "________": 907,
      "ook": 908,
      "▁bi": 909,
      "▁2002": 910,
      "-415-": 911,
      "/26": 912,
      "(": 913,
      "ual": 914,
      "..": 915,
      "-0": 916,
      "▁went": 917,
      "▁360": 918,
      "▁di": 919,
      "▁1836": 920,
      "▁friends": 921,
      ".77": 922,
      "▁button": 923,
      "▁are": 924,
      "▁say": 925,
      "▁possible": 926,
      "▁staff": 927,
      "▁af": 928,
      "▁wr": 929,
      "▁box": 930,
      "▁being": 931,
      "▁24": 932,
      "oug": 933,
      "▁near": 934,
      "▁1222": 935,
      "▁96": 936,
      ":37": 937,
      "▁attached": 938,
      "▁43": 939,
      "▁india": 940,
      "▁1754": 941,
      "▁beside": 942,
      "▁deb": 943,
      "six": 944,
      "▁1959": 945,
      "▁down": 946,
      "ming": 947,
      "▁932": 948,
      "▁gon": 949,
      "g": 950,
      "uma": 951,
      "/30": 952,
      "ily": 953,
      "▁se": 954,
      "▁713-8": 955,
      "▁wear": 956,
      "ush": 957,
      "57": 958,
      "k": 959,
      "▁'m": 960,
      "-59": 961,
      "eau": 962,
      "▁several": 963,
      "▁global": 964,
      "▁lik": 965,
      "▁project": 966,
      "▁out": 967,
      "ز": 968,
      "▁********************************": 969,
      "▁address": 970,
      "ard": 971,
      "ong": 972,
      "’t": 973,
      "▁age": 974,
      "ent": 975,
      "▁transmission": 976,
      "sh": 977,
      "▁custom": 978,
      "ified": 979,
      "▁2.": 980,
      "▁right": 981,
      "▁646-8420": 982,
      "▁800-5": 983,
      "ay": 984,
      "▁205": 985,
      "ization": 986,
      "13": 987,
      "▁1992": 988,
      "▁thought": 989,
      "ru": 990,
      "▁713-6": 991,
      ".7822": 992,
      "▁225": 993,
      "▁5,000": 994,
      "▁12/2": 995,
      "▁1801": 996,
      "▁bir": 997,
      "==": 998,
      "▁17": 999,
      "omm": 1000,
      "▁1,200": 1001,
      ".1234": 1002,
      "ical": 1003,
      "▁herself": 1004,
      "ize": 1005,
      "▁zer": 1006,
      "▁meet": 1007,
      "▁sleep": 1008,
      "▁b/": 1009,
      "▁abs": 1010,
      "▁los": 1011,
      "θ": 1012,
      "▁oakland": 1013,
      "8-7": 1014,
      "▁’d": 1015,
      "ury": 1016,
      "ised": 1017,
      "ms": 1018,
      "▁'ll": 1019,
      ":25": 1020,
      "▁345-9945": 1021,
      "/": 1022,
      "▁places": 1023,
      "▁48": 1024,
      "▁ben": 1025,
      "pl": 1026,
      "▁ol": 1027,
      "▁press": 1028,
      "▁bad": 1029,
      "▁earth": 1030,
      "ough": 1031,
      "▁forty-eight": 1032,
      "▁counter": 1033,
      "▁em": 1034,
      "▁bu": 1035,
      "ε": 1036,
      "aking": 1037,
      "▁service": 1038,
      "ll": 1039,
      "▁510": 1040,
      "0-3": 1041,
      "▁hat": 1042,
      "▁it's": 1043,
      "aster": 1044,
      "end": 1045,
      "▁508": 1046,
      "▁01/1": 1047,
      "▁couple": 1048,
      "▁ll": 1049,
      "9.3": 1050,
      "▁things": 1051,
      "▁03/0": 1052,
      "ence": 1053,
      "▁benef": 1054,
      "▁asked": 1055,
      "u": 1056,
      "▁7.2": 1057,
      "▁93": 1058,
      "▁toward": 1059,
      "oh": 1060,
      "▁713-853": 1061,
      "▁yeah": 1062,
      "h": 1063,
      "▁more": 1064,
      "▁1:30": 1065,
      ".916.718": 1066,
      "▁quinn": 1067,
      "▁excellent": 1068,
      "▁against": 1069,
      "▁888.916.7184": 1070,
      "1-9": 1071,
      "▁imp": 1072,
      "ɔ": 1073,
      "eck": 1074,
      "▁body": 1075,
      "▁study": 1076,
      "used": 1077,
      "▁3-5": 1078,
      "▁phil": 1079,
      "▁6871082#": 1080,
      "▁": 1081,
      "▁alberta": 1082,
      "▁daily": 1083,
      "▁up": 1084,
      "▁10:5": 1085,
      "▁tur": 1086,
      "clud": 1087,
      "▁amidst": 1088,
      "{": 1089,
      "▁set": 1090,
      "====": 1091,
      "▁00": 1092,
      "ory": 1093,
      "▁cor": 1094,
      "▁175": 1095,
      "!!!!": 1096,
      "▁beaut": 1097,
      "▁europe": 1098,
      "▁kn": 1099,
      "▁dep": 1100,
      "▁08/03": 1101,
      "▁11/10/2000": 1102,
      "▁505": 1103,
      "▁1561": 1104,
      "▁+44": 1105,
      "▁free": 1106,
      "▁fig": 1107,
      "▁last": 1108,
      "▁course": 1109,
      "▁nothing": 1110,
      "▁dese": 1111,
      "▁6:00": 1112,
      "ف": 1113,
      "▁or": 1114,
      ".8": 1115,
      "▁inside": 1116,
      "山": 1117,
      "▁son": 1118,
      "800": 1119,
      "▁whereas": 1120,
      "▁close": 1121,
      "▁1:00": 1122,
      "lo": 1123,
      "▁having": 1124,
      "n": 1125,
      "▁09:": 1126,
      "▁airport": 1127,
      "▁x": 1128,
      "▁fifteen": 1129,
      "▁—": 1130,
      "▁health": 1131,
      "▁1998": 1132,
      "eng": 1133,
      "587": 1134,
      "az": 1135,
      "===": 1136,
      "body": 1137,
      "▁dat": 1138,
      "▁rem": 1139,
      "ig": 1140,
      "ock": 1141,
      "▁60,000": 1142,
      "▁university": 1143,
      "▁parents": 1144,
      "▁h": 1145,
      "eap": 1146,
      "26": 1147,
      "▁770": 1148,
      "▁mass": 1149,
      "▁land": 1150,
      "▁w/": 1151,
      "▁cheap": 1152,
      "▁forward": 1153,
      "▁report": 1154,
      "▁jwww": 1155,
      "▁shop": 1156,
      "▁fall": 1157,
      "▁10,000": 1158,
      "03": 1159,
      "uss": 1160,
      "▁whilst": 1161,
      "▁mine": 1162,
      "▁$": 1163,
      "▁diego": 1164,
      "▁quick": 1165,
      ":0": 1166,
      "▁make": 1167,
      "▁1982": 1168,
      "▁72,000": 1169,
      "▁achie": 1170,
      "▁pay": 1171,
      "pite": 1172,
      "▁jan": 1173,
      "▁democr": 1174,
      "ble": 1175,
      "ago": 1176,
      "p": 1177,
      "ards": 1178,
      "▁soc": 1179,
      "▁1846": 1180,
      "du": 1181,
      "ro": 1182,
      "[MASK]": 1183,
      "ames": 1184,
      "▁2000": 1185,
      "▁405": 1186,
      "ator": 1187,
      "▁[": 1188,
      "▁addition": 1189,
      "▁avail": 1190,
      "▁1596": 1191,
      "▁eight": 1192,
      "339": 1193,
      "▁here": 1194,
      "▁fil": 1195,
      "ing": 1196,
      ":20": 1197,
      "▁including": 1198,
      "▁create": 1199,
      "20": 1200,
      "▁children": 1201,
      "▁2050": 1202,
      "β": 1203,
      "▁320": 1204,
      "za": 1205,
      ".61": 1206,
      "83": 1207,
      "▁hol": 1208,
      "<": 1209,
      "▁clean": 1210,
      "uff": 1211,
      "jwww": 1212,
      "▁sort": 1213,
      "▁09/15/99": 1214,
      "▁piec": 1215,
      "-8031": 1216,
      "▁occ": 1217,
      "▁port": 1218,
      "▁works": 1219,
      "▁hun": 1220,
      "▁+": 1221,
      "ology": 1222,
      "▁sa": 1223,
      "▁comes": 1224,
      ",000": 1225,
      "▁way": 1226,
      "ause": 1227,
      "▁bush": 1228,
      "▁65": 1229,
      "▁pass": 1230,
      "umb": 1231,
      "▁int": 1232,
      "³": 1233,
      "▁09/16/99": 1234,
      "▁questions": 1235,
      "ol": 1236,
      "▁boston": 1237,
      "▁2017": 1238,
      "21": 1239,
      "▁ev": 1240,
      "ies": 1241,
      "▁little": 1242,
      "/2000": 1243,
      "▁1505": 1244,
      "▁1972": 1245,
      "▁may": 1246,
      "▁head": 1247,
      "▁pan": 1248,
      "ently": 1249,
      "▁12:42": 1250,
      "00": 1251,
      "om": 1252,
      "ember": 1253,
      "ger": 1254,
      "▁means": 1255,
      "▁08": 1256,
      "▁269": 1257,
      "▁nand": 1258,
      "▁tex": 1259,
      "▁(": 1260,
      "clock": 1261,
      "▁1": 1262,
      "▁jap": 1263,
      "▁yo": 1264,
      "!?": 1265,
      "▁youn": 1266,
      "▁hell": 1267,
      "▁typ": 1268,
      "▁deal": 1269,
      "▁ab": 1270,
      "▁saying": 1271,
      "▁ph": 1272,
      "ially": 1273,
      "▁11608": 1274,
      "▁713-853-3098": 1275,
      "uding": 1276,
      "874": 1277,
      "▁huma": 1278,
      "▁1877": 1279,
      "ese": 1280,
      "▁day": 1281,
      "▁small": 1282,
      "ative": 1283,
      "▁ele": 1284,
      "f": 1285,
      "▁04:03": 1286,
      "????????": 1287,
      "▁train": 1288,
      "34": 1289,
      "▁proper": 1290,
      "490": 1291,
      "▁11:45": 1292,
      "▁1592": 1293,
      "▁anybody": 1294,
      "▁1738": 1295,
      "▁http://www.": 1296,
      "▁wonder": 1297,
      "▁12/26/2000": 1298,
      "▁dad": 1299,
      "▁follow": 1300,
      "łod": 1301,
      "▁beach": 1302,
      "▁apart": 1303,
      "▁sho": 1304,
      "▁rob": 1305,
      "▁su": 1306,
      "▁tom": 1307,
      "ically": 1308,
      "▁&amp": 1309,
      "▁165": 1310,
      "resh": 1311,
      "lus": 1312,
      "▁800": 1313,
      "▁150": 1314,
      "“": 1315,
      "▁everybody": 1316,
      "▁150,000": 1317,
      "▁mean": 1318,
      "▁tor": 1319,
      "▁ago": 1320,
      "be": 1321,
      "▁hav": 1322,
      "-99": 1323,
      "▁learn": 1324,
      "book": 1325,
      "ape": 1326,
      "▁squ": 1327,
      ".95": 1328,
      "▁934": 1329,
      "▁inv": 1330,
      "-27": 1331,
      "ones": 1332,
      "▁--": 1333,
      "▁available": 1334,
      "▁community": 1335,
      "ν": 1336,
      "irt": 1337,
      "ecess": 1338,
      "▁08/16": 1339,
      "11": 1340,
      "▁..": 1341,
      "ides": 1342,
      "▁business": 1343,
      "ice": 1344,
      "ch": 1345,
      "▁never": 1346,
      "ency": 1347,
      ".713.86": 1348,
      "▁---------------------------------------------------------------------": 1349,
      "▁iss": 1350,
      "▁represent": 1351,
      "ians": 1352,
      "▁conn": 1353,
      "▁inf": 1354,
      "▁interested": 1355,
      "/16/2001": 1356,
      "us": 1357,
      "low": 1358,
      "8-3": 1359,
      "▁ins": 1360,
      "▁guess": 1361,
      "▁11:3": 1362,
      "▁cheapest": 1363,
      "▁wor": 1364,
      "▁cred": 1365,
      "ts": 1366,
      "▁mus": 1367,
      "▁345-99": 1368,
      "ott": 1369,
      "60": 1370,
      "▁91": 1371,
      "▁who's": 1372,
      "▁324": 1373,
      "▁birthday": 1374,
      "▁1976": 1375,
      "▁analys": 1376,
      "iter": 1377,
      "/1": 1378,
      ":14": 1379,
      "▁env": 1380,
      "48": 1381,
      "▁104": 1382,
      "▁12": 1383,
      "ud": 1384,
      "ill": 1385,
      "▁1,000": 1386,
      "ome": 1387,
      "▁a": 1388,
      "eed": 1389,
      "▁alongside": 1390,
      "e": 1391,
      "▁3,202": 1392,
      "▁thr": 1393,
      "▁green": 1394,
      "▁‘": 1395,
      "▁750,000": 1396,
      "▁---": 1397,
      "▁ste": 1398,
      "isk": 1399,
      "▁har": 1400,
      "ose": 1401,
      "▁1980": 1402,
      "▁who": 1403,
      "▁dark": 1404,
      "▁color": 1405,
      "819": 1406,
      "▁978": 1407,
      "zac": 1408,
      "▁twelve": 1409,
      "▁1958": 1410,
      "-50": 1411,
      "▁01/25/2001": 1412,
      "▁01/24/2001": 1413,
      "▁832.676": 1414,
      "ke": 1415,
      ":40": 1416,
      "8": 1417,
      "▁still": 1418,
      "琴": 1419,
      "▁monday": 1420,
      "▁mommy": 1421,
      "▁tim": 1422,
      "▁cour": 1423,
      "▁transportation": 1424,
      "▁ah": 1425,
      "ha": 1426,
      "▁analysis_0712": 1427,
      "ained": 1428,
      "ə": 1429,
      "-)": 1430,
      "▁2020": 1431,
      "▁needs": 1432,
      "▁1500": 1433,
      "▁8": 1434,
      "stand": 1435,
      "▁yourself": 1436,
      "▁01:09": 1437,
      "ential": 1438,
      "2/2001": 1439,
      "ures": 1440,
      "▁wind": 1441,
      "▁aff": 1442,
      "zer": 1443,
      "...": 1444,
      "▁pri": 1445,
      "ason": 1446,
      "▁:": 1447,
      "ow": 1448,
      "▁r": 1449,
      "ce": 1450,
      "▁aug": 1451,
      "y": 1452,
      "▁between": 1453,
      "orn": 1454,
      "uge": 1455,
      "▁moving": 1456,
      "▁850": 1457,
      "▁238": 1458,
      "▁713-654-0365": 1459,
      "▁37": 1460,
      "▁you": 1461,
      "ech": 1462,
      "▁08/15": 1463,
      "▁fort": 1464,
      "▁11:36": 1465,
      "ww": 1466,
      "et": 1467,
      "ful": 1468,
      "▁tell": 1469,
      "iety": 1470,
      "enn": 1471,
      "olis": 1472,
      "▁come": 1473,
      "▁11:16": 1474,
      "▁sk": 1475,
      "▁highly": 1476,
      "▁ang": 1477,
      "ational": 1478,
      "▁european": 1479,
      "▁sp": 1480,
      "red": 1481,
      "erc": 1482,
      ")": 1483,
      "▁roman": 1484,
      "▁ban": 1485,
      "▁so": 1486,
      "ase": 1487,
      "▁gas": 1488,
      "31": 1489,
      "▁le": 1490,
      "ς": 1491,
      "▁sub": 1492,
      "▁07:24": 1493,
      "▁apar": 1494,
      "▁l": 1495,
      "▁economic": 1496,
      "▁long": 1497,
      "sid": 1498,
      "▁202.456": 1499,
      "▁trale": 1500,
      "▁plac": 1501,
      "▁1832": 1502,
      "▁will": 1503,
      "▁1.25": 1504,
      "▁er": 1505,
      ":45": 1506,
      "▁12:3": 1507,
      "▁hon": 1508,
      "▁y": 1509,
      "▁38": 1510,
      "▁bro": 1511,
      "ract": 1512,
      "im": 1513,
      "veland": 1514,
      "▁tra": 1515,
      "hn": 1516,
      "▁1660": 1517,
      "uary": 1518,
      "ped": 1519,
      "▁sad": 1520,
      "▁data": 1521,
      "▁activ": 1522,
      "/4": 1523,
      "ance": 1524,
      "▁would": 1525,
      "_^": 1526,
      "▁av": 1527,
      "▁0590": 1528,
      "....": 1529,
      "▁en": 1530,
      "▁08/16/2000": 1531,
      "iny": 1532,
      "▁pat": 1533,
      "▁703": 1534,
      "????": 1535,
      "▁tralee": 1536,
      "–": 1537,
      "5": 1538,
      "▁7484": 1539,
      "▁50": 1540,
      "▁count": 1541,
      "ommend": 1542,
      "▁hum": 1543,
      "7/2001": 1544,
      "▁in": 1545,
      "▁567.77": 1546,
      "▁11-20-": 1547,
      "▁190": 1548,
      "▁comput": 1549,
      "▁forty-one": 1550,
      "▁nice": 1551,
      "▁170": 1552,
      "35": 1553,
      ".70": 1554,
      "▁hurt": 1555,
      "▁social": 1556,
      "ident": 1557,
      "ast": 1558,
      "▁leave": 1559,
      "▁already": 1560,
      "▁mov": 1561,
      "▁łod": 1562,
      "▁energy": 1563,
      "▁1039": 1564,
      "ondon": 1565,
      "▁fi": 1566,
      "▁cult": 1567,
      "▁755": 1568,
      "§": 1569,
      "▁act": 1570,
      "▁trip": 1571,
      "▁invest": 1572,
      "▁53": 1573,
      ".2": 1574,
      "50": 1575,
      "ope": 1576,
      "▁rel": 1577,
      "53": 1578,
      "er": 1579,
      "fully": 1580,
      "ي": 1581,
      "▁twenty-six": 1582,
      "▁anim": 1583,
      "▁position": 1584,
      "▁2021": 1585,
      "eric": 1586,
      "anc": 1587,
      "vern": 1588,
      "istan": 1589,
      "▁sometimes": 1590,
      "▁dc": 1591,
      "▁de": 1592,
      "ized": 1593,
      "▁is": 1594,
      "▁profess": 1595,
      "▁530": 1596,
      "▁bill": 1597,
      "ic": 1598,
      "▁off": 1599,
      "▁****": 1600,
      "rou": 1601,
      "▁ide": 1602,
      "-468-3": 1603,
      "▁beh": 1604,
      "▁times": 1605,
      "▁281-435-0295": 1606,
      "▁conc": 1607,
      "ular": 1608,
      "▁lim": 1609,
      "▁known": 1610,
      "▁somebody": 1611,
      "▁bar": 1612,
      "▁transport": 1613,
      "▁fa": 1614,
      "☎": 1615,
      "▁1/4": 1616,
      "▁defin": 1617,
      "▁fin": 1618,
      "▁auth": 1619,
      "▁713-654-": 1620,
      "▁o'clock": 1621,
      "▁189": 1622,
      "ele": 1623,
      "▁gl": 1624,
      "▁ninety-nine": 1625,
      "▁1145": 1626,
      "▁russ": 1627,
      "▁f": 1628,
      "▁05": 1629,
      "▁sch": 1630,
      "les": 1631,
      ",00": 1632,
      "▁1600": 1633,
      "▁hers": 1634,
      "▁albe": 1635,
      "4014": 1636,
      "▁1955": 1637,
      "rew": 1638,
      "▁281": 1639,
      "▁100,000": 1640,
      "▁fro": 1641,
      "▁1848": 1642,
      "▁1593": 1643,
      "▁03/21/2001": 1644,
      "σ": 1645,
      "▁620-": 1646,
      "▁969": 1647,
      "8196021": 1648,
      "▁iran": 1649,
      "4/2000": 1650,
      "▁belie": 1651,
      "▁-": 1652,
      "ases": 1653,
      "ι": 1654,
      "▁restaur": 1655,
      "72": 1656,
      "z": 1657,
      "▁ship": 1658,
      "¢": 1659,
      "og": 1660,
      "▁because": 1661,
      "47": 1662,
      "▁281-44": 1663,
      "▁feet": 1664,
      "▁1.3": 1665,
      "▁yet": 1666,
      "▁1850": 1667,
      "▁ch": 1668,
      "▁room": 1669,
      "▁mr": 1670,
      "▁believe": 1671,
      "▁another": 1672,
      "▁place": 1673,
      ".85": 1674,
      "▁washington": 1675,
      "▁1/8": 1676,
      "een": 1677,
      "▁yourselves": 1678,
      "▁345-3436": 1679,
      "▁230": 1680,
      "▁vs.": 1681,
      "ink": 1682,
      "90": 1683,
      "▁ann": 1684,
      "ogel": 1685,
      "▁sty": 1686,
      "key": 1687,
      "谿": 1688,
      "ii": 1689,
      "b": 1690,
      "▁rev": 1691,
      "▁car": 1692,
      "▁wan": 1693,
      "▁okay": 1694,
      "▁nat": 1695,
      "ant": 1696,
      "▁alright": 1697,
      "▁numerous": 1698,
      "▁buy": 1699,
      "rench": 1700,
      "self": 1701,
      "▁cup": 1702,
      "▁2006": 1703,
      "ont": 1704,
      "▁oc": 1705,
      "▁1245": 1706,
      "ou": 1707,
      "ton": 1708,
      "▁pretty": 1709,
      "▁used": 1710,
      "▁life": 1711,
      "▁light": 1712,
      "▁reason": 1713,
      "▁dr": 1714,
      "▁certain": 1715,
      "attle": 1716,
      "mer": 1717,
      "▁2009": 1718,
      "▁him": 1719,
      "▁found": 1720,
      "▁give": 1721,
      "▁630": 1722,
      "▁366": 1723,
      "▁06/01/2001": 1724,
      "—": 1725,
      "like": 1726,
      "▁sh": 1727,
      "▁link": 1728,
      "▁take": 1729,
      "▁ac": 1730,
      "空": 1731,
      "▁425-415-": 1732,
      "▁bus": 1733,
      "▁dis": 1734,
      "▁899": 1735,
      "ω": 1736,
      "▁hop": 1737,
      "▁80,000": 1738,
      "▁top": 1739,
      "▁.": 1740,
      ".1": 1741,
      "▁forth": 1742,
      "xce": 1743,
      "▁behind": 1744,
      "▁notwithstanding": 1745,
      "810": 1746,
      "▁400": 1747,
      "27": 1748,
      "▁77": 1749,
      "▁might": 1750,
      "▁ra": 1751,
      "▁agre": 1752,
      "▁peace": 1753,
      "▁74419": 1754,
      "ح": 1755,
      ".45": 1756,
      "port": 1757,
      "▁08:30": 1758,
      "ium": 1759,
      "▁1604": 1760,
      "▁young": 1761,
      "▁300": 1762,
      "▁hope": 1763,
      "▁2004": 1764,
      "▁such": 1765,
      "▁happened": 1766,
      "!!!!!!!!": 1767,
      "▁whatever": 1768,
      "epend": 1769,
      "▁3:30": 1770,
      "▁10/26/2000": 1771,
      "▁seen": 1772,
      "▁1989": 1773,
      "s.": 1774,
      "▁5.3": 1775,
      "▁7:00": 1776,
      "ort": 1777,
      "▁world": 1778,
      "eare": 1779,
      "▁upon": 1780,
      "▁2,500": 1781,
      "▁03:3": 1782,
      "▁800.713.8600": 1783,
      "▁understand": 1784,
      "▁343": 1785,
      "▁sett": 1786,
      "▁ham": 1787,
      "_0": 1788,
      "▁376": 1789,
      "▁din": 1790,
      "ivid": 1791,
      "▁eng": 1792,
      "▁s/h": 1793,
      "▁guy": 1794,
      "▁pen": 1795,
      "▁1859": 1796,
      "erv": 1797,
      "man": 1798,
      "▁find": 1799,
      "ree": 1800,
      "stop": 1801,
      "▁china": 1802,
      "▁62": 1803,
      "▁disc": 1804,
      "-20-": 1805,
      "ates": 1806,
      "▁tax": 1807,
      "where": 1808,
      "jects": 1809,
      "▁among": 1810,
      "ants": 1811,
      "▁told": 1812,
      "▁code": 1813,
      "▁prof": 1814,
      "▁finish": 1815,
      ":42": 1816,
      "▁regard": 1817,
      "▁lear": 1818,
      "ling": 1819,
      "▁115": 1820,
      "▁why": 1821,
      "-23": 1822,
      "▁add": 1823,
      "co": 1824,
      "/17/99": 1825,
      "fore": 1826,
      ",8": 1827,
      "lf": 1828,
      "▁san": 1829,
      "ament": 1830,
      "静": 1831,
      "rem": 1832,
      "▁afric": 1833,
      "w": 1834,
      "20-": 1835,
      "▁days": 1836,
      "ars": 1837,
      "▁airline": 1838,
      "▁programm": 1839,
      "ص": 1840,
      "▁1.75": 1841,
      "和": 1842,
      "reat": 1843,
      "▁struct": 1844,
      "▁evening": 1845,
      "128": 1846,
      "▁dan": 1847,
      "▁doctor": 1848,
      "▁tho": 1849,
      ",000,000,000": 1850,
      "澹": 1851,
      "▁repl": 1852,
      "▁dur": 1853,
      "ably": 1854,
      "▁time": 1855,
      "▁1954": 1856,
      "bit": 1857,
      "▁cold": 1858,
      "ag": 1859,
      "▁08/15/2000": 1860,
      "iation": 1861,
      "▁shakes": 1862,
      "▁1.5": 1863,
      "▁1880": 1864,
      "▁esp": 1865,
      "ided": 1866,
      "▁5000": 1867,
      "▁afternoon": 1868,
      "▁ha": 1869,
      "▁iii": 1870,
      "▁working": 1871,
      "▁cap": 1872,
      "▁japan": 1873,
      ":48": 1874,
      "tain": 1875,
      "▁13011": 1876,
      "www": 1877,
      "▁59": 1878,
      "▁particip": 1879,
      "ade": 1880,
      "▁vis": 1881,
      "itch": 1882,
      "eth": 1883,
      "▁taking": 1884,
      "▁arg": 1885,
      "▁3.": 1886,
      "▁281-518": 1887,
      "▁key": 1888,
      "ater": 1889,
      "▁2.7": 1890,
      "▁outs": 1891,
      "▁mad": 1892,
      "▁earli": 1893,
      "▁2014": 1894,
      "▁1925": 1895,
      "▁k": 1896,
      "▁further": 1897,
      "▁63": 1898,
      "▁4,": 1899,
      "▁713": 1900,
      "▁applic": 1901,
      "▁fill": 1902,
      "▁fur": 1903,
      "▁1611": 1904,
      "/h": 1905,
      "▁713-654-128": 1906,
      "▁163": 1907,
      "iday": 1908,
      "ek": 1909,
      "▁arri": 1910,
      "[PAD]": 1911,
      "▁51": 1912,
      "-518": 1913,
      "▁713-853-": 1914,
      "▁ed": 1915,
      "▁1974": 1916,
      "▁meas": 1917,
      "▁doggie": 1918,
      "▁water": 1919,
      "ities": 1920,
      "▁access": 1921,
      "▁pe": 1922,
      "▁pl": 1923,
      "c": 1924,
      "raph": 1925,
      "▁2:00": 1926,
      "form": 1927,
      "▁need": 1928,
      "▁1840": 1929,
      "ra": 1930,
      "ake": 1931,
      "▁half": 1932,
      "▁860": 1933,
      "over": 1934,
      "▁2.00": 1935,
      "▁713/853": 1936,
      "▁start": 1937,
      "▁seem": 1938,
      "with": 1939,
      "▁1900": 1940,
      "96": 1941,
      "▁44,000": 1942,
      "▁knew": 1943,
      "head": 1944,
      "tsbur": 1945,
      "▁ours": 1946,
      "ell": 1947,
      "▁whi": 1948,
      "▁1000": 1949,
      "▁9:30": 1950,
      "uation": 1951,
      "▁accept": 1952,
      "▁think": 1953,
      "ue": 1954,
      "ote": 1955,
      "▁10:45": 1956,
      "h-r": 1957,
      "ster": 1958,
      "▁throw": 1959,
      "▁does": 1960,
      "8806": 1961,
      "gress": 1962,
      "▁hear": 1963,
      "illion": 1964,
      "▁research": 1965,
      "ering": 1966,
      "▁thirty": 1967,
      "▁fore": 1968,
      "osed": 1969,
      "▁!!": 1970,
      "▁fun": 1971,
      "wh": 1972,
      "rist": 1973,
      "▁2008": 1974,
      "▁rep": 1975,
      "▁aboard": 1976,
      "▁58": 1977,
      "▁soon": 1978,
      "ists": 1979,
      "ark": 1980,
      "========": 1981,
      "▁80435": 1982,
      "▁these": 1983,
      "▁saw": 1984,
      "ams": 1985,
      "14": 1986,
      "enty": 1987,
      "▁154": 1988,
      "able": 1989,
      "▁foc": 1990,
      "▁agreement": 1991,
      "por": 1992,
      "▁600": 1993,
      "ned": 1994,
      "▁child": 1995,
      "▁res": 1996,
      "row": 1997,
      "iate": 1998,
      "8/2001": 1999,
      "▁clim": 2000,
      ":00": 2001,
      "▁amount": 2002,
      "▁commun": 2003,
      "葉": 2004,
      "▁rese": 2005,
      "▁156": 2006,
      "▁system": 2007,
      "▁1560": 2008,
      "▁1991": 2009,
      "▁54": 2010,
      "▁fo": 2011,
      "▁€": 2012,
      "▁5/18": 2013,
      "▁.3": 2014,
      "▁app": 2015,
      "/10": 2016,
      ".": 2017,
      "ality": 2018,
      "2,000": 2019,
      "▁americ": 2020,
      "▁7": 2021,
      "▁201": 2022,
      "oice": 2023,
      "▁gu": 2024,
      "0": 2025,
      "▁90": 2026,
      "32": 2027,
      "▁lead": 2028,
      "▁less": 2029,
      "81": 2030,
      "▁mo": 2031,
      ":15": 2032,
      "▁c": 2033,
      "|": 2034,
      "▁1799": 2035,
      "▁require": 2036,
      "▁tast": 2037,
      "44": 2038,
      "icle": 2039,
      ":56": 2040,
      "▁2.9": 2041,
      "▁fifty": 2042,
      "'s": 2043,
      "84": 2044,
      "air": 2045,
      "▁uhh": 2046,
      "▁268": 2047,
      "▁cleveland": 2048,
      "▁coll": 2049,
      "▁''": 2050,
      "▁when": 2051,
      "▁tec": 2052,
      "oup": 2053,
      "~": 2054,
      "▁yes": 2055,
      "ways": 2056,
      "ions": 2057,
      "▁build": 2058,
      "▁pict": 2059,
      ":05": 2060,
      "▁even": 2061,
      "▁table": 2062,
      "▁195": 2063,
      "▁69": 2064,
      "▁h-0": 2065,
      "樋": 2066,
      "▁origin": 2067,
      "▁pittsburgh": 2068,
      "29": 2069,
      "▁2013": 2070,
      "▁dallas": 2071,
      "▁push": 2072,
      "▁everyone": 2073,
      "orrow": 2074,
      "ica": 2075,
      "oney": 2076,
      "▁1564": 2077,
      "ن": 2078,
      "l": 2079,
      "▁friend": 2080,
      "▁par": 2081,
      "▁phone": 2082,
      "▁across": 2083,
      "▁yellow": 2084,
      "▁cond": 2085,
      "▁good": 2086,
      "▁bre": 2087,
      "▁1783": 2088,
      "edie": 2089,
      "▁longer": 2090,
      "▁phot": 2091,
      "▁fam": 2092,
      "aw": 2093,
      "▁nonstop": 2094,
      "▁oak": 2095,
      "▁99": 2096,
      "▁wil": 2097,
      "▁five": 2098,
      "▁rol": 2099,
      "▁lost": 2100,
      "▁process": 2101,
      "ime": 2102,
      "▁03:00": 2103,
      "par": 2104,
      "▁hand": 2105,
      "doc": 2106,
      "▁416-865-370": 2107,
      "▁leg": 2108,
      ":52": 2109,
      "▁problems": 2110,
      "▁slow": 2111,
      "▁delta": 2112,
      "▁refer": 2113,
      ".2461": 2114,
      "▁5/1": 2115,
      "▁work": 2116,
      "▁sal": 2117,
      "▁suff": 2118,
      "▁member": 2119,
      "-642": 2120,
      "▁states": 2121,
      "▁direct": 2122,
      "▁impro": 2123,
      "▁cal": 2124,
      "▁11:35": 2125,
      "▁thanks": 2126,
      "▁mar": 2127,
      "@enron_development": 2128,
      "ect": 2129,
      "▁m": 2130,
      "12": 2131,
      "▁763736": 2132,
      "▁8.3": 2133,
      "si": 2134,
      "▁let": 2135,
      "▁529999": 2136,
      "‘": 2137,
      "▁new": 2138,
      "▁char": 2139,
      "▁110": 2140,
      "uct": 2141,
      "294-": 2142,
      "▁’": 2143,
      "med": 2144,
      "▁colle": 2145,
      "▁without": 2146,
      "▁mem": 2147,
      "▁713-79": 2148,
      "▁maj": 2149,
      "▁10/23/2000": 2150,
      "ertain": 2151,
      "▁won": 2152,
      "1/2001": 2153,
      "▁2012": 2154,
      "▁person": 2155,
      "▁us": 2156,
      "▁exp": 2157,
      "▁seventeen": 2158,
      "four": 2159,
      "▁indianapolis": 2160,
      "▁with": 2161,
      "▁d'": 2162,
      "onto": 2163,
      "▁above": 2164,
      "▁350": 2165,
      "6021": 2166,
      "ating": 2167,
      "▁10": 2168,
      "α": 2169,
      "own": 2170,
      "▁better": 2171,
      "▁bur": 2172,
      "▁milwau": 2173,
      "½": 2174,
      "▁himself": 2175,
      "▁eyes": 2176,
      "▁dress": 2177,
      "▁33": 2178,
      "/8": 2179,
      "▁1940": 2180,
      "▁bear": 2181,
      "▁summ": 2182,
      "▁1892": 2183,
      "ged": 2184,
      "gel": 2185,
      "th": 2186,
      "▁within": 2187,
      "/0": 2188,
      "▁pet": 2189,
      "zen": 2190,
      "▁whe": 2191,
      "▁30,000": 2192,
      "▁underneath": 2193,
      "▁langu": 2194,
      "cent": 2195,
      "▁97": 2196,
      "▁takes": 2197,
      "▁entire": 2198,
      ".676": 2199,
      "ob": 2200,
      "▁mouth": 2201,
      "day": 2202,
      "ains": 2203,
      "▁street": 2204,
      "▁sm": 2205,
      "ased": 2206,
      "▁410": 2207,
      "▁460": 2208,
      "▁lou": 2209,
      "▁2011": 2210,
      "ific": 2211,
      "ved": 2212,
      "out": 2213,
      "▁mod": 2214,
      "▁/": 2215,
      ",600": 2216,
      "▁sto": 2217,
      "▁.doc": 2218,
      "▁aw": 2219,
      "▁la": 2220,
      "▁159": 2221,
      "▁ser": 2222,
      "▁tw": 2223,
      "ives": 2224,
      "▁woud": 2225,
      "▁1635": 2226,
      "▁1-800-991-9019": 2227,
      ":16": 2228,
      "ration": 2229,
      "▁animals": 2230,
      "▁–": 2231,
      "▁38,000": 2232,
      "▁school": 2233,
      "ve": 2234,
      "▁cle": 2235,
      "▁appro": 2236,
      "▁milk": 2237,
      "old": 2238,
      "▁interest": 2239,
      "▁76": 2240,
      "▁geor": 2241,
      "▁+45": 2242,
      "▁10:46": 2243,
      "▁140": 2244,
      "ew": 2245,
      "▁second": 2246,
      "ad": 2247,
      "ered": 2248,
      "▁5.8": 2249,
      "•": 2250,
      "▁05908549": 2251,
      "ren": 2252,
      "▁fe": 2253,
      "/31": 2254,
      "▁220": 2255,
      "▁worth": 2256,
      "▁till": 2257,
      "▁lives": 2258,
      "=": 2259,
      "▁sixteen": 2260,
      "▁6.2.1": 2261,
      "▁11/0": 2262,
      "300": 2263,
      "▁345-343": 2264,
      "ber": 2265,
      "▁salt": 2266,
      "▁baltimore": 2267,
      "▁egg": 2268,
      "▁via": 2269,
      "fer": 2270,
      "▁1918": 2271,
      "▁420": 2272,
      "▁sit": 2273,
      "▁44": 2274,
      "▁5.6": 2275,
      "…": 2276,
      "89": 2277,
      "▁1849": 2278,
      "▁deter": 2279,
      "wn": 2280,
      "▁1584": 2281,
      "▁op": 2282,
      "ated": 2283,
      "▁1988": 2284,
      "gami": 2285,
      "▁twenty-": 2286,
      "▁ad": 2287,
      ":46": 2288,
      "▁three": 2289,
      "ince": 2290,
      "▁415": 2291,
      "son": 2292,
      "119": 2293,
      "▁68": 2294,
      "app": 2295,
      "▁univers": 2296,
      "iff": 2297,
      "ive": 2298,
      "▁art": 2299,
      "51": 2300,
      "▁perf": 2301,
      "ected": 2302,
      "-10": 2303,
      "▁perhaps": 2304,
      "▁women": 2305,
      "▁680": 2306,
      "▁pu": 2307,
      "▁900": 2308,
      "way": 2309,
      "▁request": 2310,
      "111": 2311,
      "▁4": 2312,
      "▁2003": 2313,
      "▁347": 2314,
      "▁pret": 2315,
      "▁q": 2316,
      "ers": 2317,
      "▁fre": 2318,
      "▁1300": 2319,
      "▁strong": 2320,
      "46": 2321,
      "▁2.0": 2322,
      "989": 2323,
      "▁mind": 2324,
      "▁united": 2325,
      "▁sor": 2326,
      "ama": 2327,
      "▁ir": 2328,
      "▁04/30/2001": 2329,
      "▁dem": 2330,
      "▁27": 2331,
      "▁&amp;": 2332,
      "ool": 2333,
      "▁2,": 2334,
      "▁together": 2335,
      "▁1774": 2336,
      "airs": 2337,
      "!": 2338,
      "/01": 2339,
      ".123": 2340,
      "od": 2341,
      "奈": 2342,
      "▁pr": 2343,
      "▁self": 2344,
      "2": 2345,
      "ages": 2346,
      "our": 2347,
      "▁she": 2348,
      "17": 2349,
      "▁3.1": 2350,
      "▁began": 2351,
      "▁1962": 2352,
      "▁-----------------------------------------------------------------": 2353,
      "▁group": 2354,
      "aps": 2355,
      "▁visit": 2356,
      "▁sixty": 2357,
      "▁’s": 2358,
      "/200": 2359,
      "▁687": 2360,
      "▁peau": 2361,
      "ley": 2362,
      "▁169": 2363,
      "▁0": 2364,
      "▁102": 2365,
      "134": 2366,
      "▁40": 2367,
      "▁idea": 2368,
      "▁cer": 2369,
      "▁californ": 2370,
      "▁london": 2371,
      "▁louis": 2372,
      "ula": 2373,
      "▁dom": 2374,
      "▁fing": 2375,
      ",1": 2376,
      "▁!!!!!!!!!!!": 2377,
      "================": 2378,
      "av": 2379,
      "▁men": 2380,
      "78": 2381,
      "▁pos": 2382,
      "▁'ve": 2383,
      ":38": 2384,
      "▁646-84": 2385,
      "▁becuse": 2386,
      "ings": 2387,
      "/11": 2388,
      "rans": 2389,
      "▁doo": 2390,
      "1696": 2391,
      "▁acc": 2392,
      "▁sha": 2393,
      "▁veg": 2394,
      "sus": 2395,
      "rib": 2396,
      "raw": 2397,
      "▁con": 2398,
      "ues": 2399,
      "▁com": 2400,
      "na": 2401,
      "▁87": 2402,
      "▁~": 2403,
      "ub": 2404,
      "ph": 2405,
      "▁full": 2406,
      "▁ninety": 2407,
      "▁orig": 2408,
      "▁…": 2409,
      "▁bag": 2410,
      "cle": 2411,
      "ron": 2412,
      "▁2001": 2413,
      "▁1835": 2414,
      "▁412": 2415,
      "ired": 2416,
      "-780": 2417,
      "▁teach": 2418,
      "▁use": 2419,
      "ation": 2420,
      "▁depart": 2421,
      "▁dose": 2422,
      "▁11": 2423,
      "\\": 2424,
      "▁amongst": 2425,
      "▁gets": 2426,
      "▁>>": 2427,
      "▁american": 2428,
      "▁1987": 2429,
      "ound": 2430,
      "'": 2431,
      "if": 2432,
      "▁prop": 2433,
      "▁fell": 2434,
      "ablish": 2435,
      "/9": 2436,
      "gle": 2437,
      "ry": 2438,
      "ought": 2439,
      "▁:(": 2440,
      "▁838": 2441,
      "▁answ": 2442,
      "▁73": 2443,
      ":34": 2444,
      "st": 2445,
      "▁nor": 2446,
      "re": 2447,
      "▁330": 2448,
      "▁move": 2449,
      "sp": 2450,
      "▁jun": 2451,
      "▁1932": 2452,
      "▁be": 2453,
      "▁much": 2454,
      "▁later": 2455,
      "▁themselves": 2456,
      "****************": 2457,
      "▁14": 2458,
      "▁sex": 2459,
      "▁john": 2460,
      "iii": 2461,
      "▁10:25": 2462,
      "▁315-460-3": 2463,
      "▁orland": 2464,
      "#": 2465,
      "▁fish": 2466,
      "▁=": 2467,
      ".30": 2468,
      "▁meh-risk": 2469,
      "is_0712": 2470,
      "ˈ": 2471,
      "▁cut": 2472,
      "/15/2001": 2473,
      "inn": 2474,
      "▁anything": 2475,
      "-9": 2476,
      "▁sc": 2477,
      "▁society": 2478,
      ":": 2479,
      "▁airlines": 2480,
      "▁£": 2481,
      "----------------": 2482,
      "/01/2001": 2483,
      "▁francisco": 2484,
      "▁america": 2485,
      "▁war": 2486,
      "ife": 2487,
      "▁thru": 2488,
      "▁1990": 2489,
      "▁1.00": 2490,
      "▁1805": 2491,
      "▁their": 2492,
      "▁except": 2493,
      "▁sorry": 2494,
      "????????????????": 2495,
      "▁107": 2496,
      "▁big": 2497,
      ".782": 2498,
      "ɑ": 2499,
      "▁beautiful": 2500,
      "54-": 2501,
      "▁camp": 2502,
      "ite": 2503,
      "▁2:25": 2504,
      "▁08:50": 2505,
      "▁oneself": 2506,
      "▁04/2": 2507,
      "▁500": 2508,
      "▁ger": 2509,
      "ish": 2510,
      "▁1829": 2511,
      "▁fares": 2512,
      "▁25": 2513,
      "iat": 2514,
      "▁??": 2515,
      "▁1/2": 2516,
      "oth": 2517,
      "▁bo": 2518,
      "▁extrem": 2519,
      "▁val": 2520,
      "▁thir": 2521,
      "▁chang": 2522,
      "▁*": 2523,
      "led": 2524,
      "▁looks": 2525,
      "▁some": 2526,
      "▁42,000": 2527,
      "▁rather": 2528,
      "▁astride": 2529,
      "▁un": 2530,
      ".621": 2531,
      "ked": 2532,
      "inner": 2533,
      "13.86": 2534,
      ":1": 2535,
      "▁1847": 2536,
      "▁19": 2537,
      "▁66": 2538,
      "▁1947": 2539,
      "109": 2540,
      "sc": 2541,
      "cil": 2542,
      "oot": 2543,
      "▁whenever": 2544,
      "▁product": 2545,
      "▁sept": 2546,
      "▁hou": 2547,
      "▁according": 2548,
      "▁1699": 2549,
      "------": 2550,
      "]": 2551,
      "ents": 2552,
      "eak": 2553,
      "▁island": 2554,
      "/2004": 2555,
      "▁var": 2556,
      "▁================================================": 2557,
      "▁usually": 2558,
      "▁success": 2559,
      "ami": 2560,
      "▁1580": 2561,
      ",5": 2562,
      "▁kids": 2563,
      "▁reg": 2564,
      "▁eat": 2565,
      "▁giv": 2566,
      "ften": 2567,
      "▁left": 2568,
      "▁35": 2569,
      "▁east": 2570,
      ":39": 2571,
      "▁143": 2572,
      "▁_____": 2573,
      "▁exist": 2574,
      "▁detail": 2575,
      "▁date": 2576,
      "▁hur": 2577,
      "▁3,202.61": 2578,
      "ission": 2579,
      "ee": 2580,
      "amed": 2581,
      "als": 2582,
      "▁goes": 2583,
      "▁send": 2584,
      "▁9": 2585,
      "▁80": 2586,
      "▁11,000": 2587,
      "▁meeting": 2588,
      "▁1939": 2589,
      "olog": 2590,
      "▁rich": 2591,
      "▁put": 2592,
      "▁too": 2593,
      "▁20:00": 2594,
      "ls": 2595,
      "osite": 2596,
      "▁want": 2597,
      "▁01/12/2001": 2598,
      "▁coming": 2599,
      "▁**": 2600,
      "▁1696": 2601,
      "▁copy": 2602,
      "▁bul": 2603,
      "▁by": 2604,
      "▁1110": 2605,
      "▁0000108806": 2606,
      "▁mm": 2607,
      "▁11/7": 2608,
      ".3": 2609,
      "▁08:00": 2610,
      "▁813": 2611,
      "▁33,000": 2612,
      "▁same": 2613,
      "▁doll": 2614,
      "▁travel": 2615,
      "enth": 2616,
      "ery": 2617,
      "1082": 2618,
      "igh": 2619,
      "▁thank": 2620,
      "▁thy": 2621,
      "▁somet": 2622,
      "ly": 2623,
      "▁al.": 2624,
      "▁o'": 2625,
      "41": 2626,
      "▁untill": 2627,
      "iz": 2628,
      "▁575": 2629,
      "▁6.2": 2630,
      "▁1602": 2631,
      "▁wrong": 2632,
      "▁ar": 2633,
      "▁court": 2634,
      "v": 2635,
      "η": 2636,
      "▁kh": 2637,
      "ʻ": 2638,
      "▁services": 2639,
      "ester": 2640,
      "▁scient": 2641,
      "▁instead": 2642,
      "▁'d": 2643,
      "ward": 2644,
      "▁rights": 2645,
      "up": 2646,
      "65-3": 2647,
      "د": 2648,
      "▁dest": 2649,
      "▁207": 2650,
      "der": 2651,
      "▁’re": 2652,
      "▁fight": 2653,
      "▁that": 2654,
      "▁pract": 2655,
      "il": 2656,
      "▁also": 2657,
      "▁away": 2658,
      "▁history": 2659,
      "▁author": 2660,
      "▁i": 2661,
      "ror": 2662,
      "▁man": 2663,
      "▁<": 2664,
      "▁1779": 2665,
      "/97": 2666,
      "ick": 2667,
      "it": 2668,
      "▁enron": 2669,
      "▁70.85": 2670,
      "▁adam": 2671,
      "▁miami": 2672,
      "▁1.1": 2673,
      "夏": 2674,
      "▁hu": 2675,
      "-3": 2676,
      "▁prob": 2677,
      "▁get": 2678,
      "as": 2679,
      "▁obs": 2680,
      "ely": 2681,
      "▁quest": 2682,
      "▁las": 2683,
      "▁shall": 2684,
      "8/2000": 2685,
      "8549": 2686,
      "res": 2687,
      "▁docum": 2688,
      "atch": 2689,
      "65": 2690,
      "ld": 2691,
      "▁continental": 2692,
      "▁3": 2693,
      ":21": 2694,
      "go": 2695,
      "\"": 2696,
      "▁west": 2697,
      "▁’ll": 2698,
      "▁1790": 2699,
      "orm": 2700,
      "▁other": 2701,
      "▁going": 2702,
      "uck": 2703,
      "▁1777": 2704,
      "£": 2705,
      "-6": 2706,
      "▁mummy": 2707,
      ".86": 2708,
      "▁24,000": 2709,
      "▁thing": 2710,
      "ured": 2711,
      "▁deliver": 2712,
      "ix": 2713,
      "▁vide": 2714,
      "gan": 2715,
      "’": 2716,
      "▁they": 2717,
      "iver": 2718,
      "ited": 2719,
      "▁ear": 2720,
      "▁une": 2721,
      "▁den": 2722,
      "▁cost": 2723,
      "5,000": 2724,
      "ached": 2725,
      "itt": 2726,
      "-5": 2727,
      "onom": 2728,
      "▁market": 2729,
      "▁desc": 2730,
      "▁sn": 2731,
      "▁organ": 2732,
      "gg": 2733,
      "▁father": 2734,
      "▁apr": 2735,
      "▁1819": 2736,
      "cond": 2737,
      "▁communications": 2738,
      "▁succ": 2739,
      "▁08/17/2000": 2740,
      "▁2.975": 2741,
      "▁humaine": 2742,
      "com": 2743,
      "▁grand": 2744,
      "▁lar": 2745,
      "▁tomorrow": 2746,
      "▁comm": 2747,
      "▁wish": 2748,
      "▁each": 2749,
      "▁into": 2750,
      "▁inform": 2751,
      "▁rul": 2752,
      "▁around": 2753,
      "▁drive": 2754,
      "▁’’": 2755,
      "▁pit": 2756,
      "▁20": 2757,
      "53-3119": 2758,
      "▁ourselves": 2759,
      "▁forty-": 2760,
      "▁energ": 2761,
      "q": 2762,
      "▁505-625": 2763,
      "▁billion": 2764,
      "▁270": 2765,
      "82": 2766,
      "▁5:00": 2767,
      "▁stre": 2768,
      "▁4.7": 2769,
      "▁1981": 2770,
      "opment": 2771,
      "▁large": 2772,
      "▁3724": 2773,
      "▁thinking": 2774,
      "▁lot": 2775,
      "or": 2776,
      "▁htt": 2777,
      "utions": 2778,
      "▁pho": 2779,
      "ature": 2780,
      "▁most": 2781,
      "▁3/4": 2782,
      "▁fac": 2783,
      "▁blue": 2784,
      "wau": 2785,
      "▁2.15": 2786,
      "▁mid": 2787,
      "μ": 2788,
      "▁2010": 2789,
      "▁her": 2790,
      "/17/2000": 2791,
      ".4": 2792,
      "-46": 2793,
      "ention": 2794,
      "ire": 2795,
      "▁1977": 2796,
      "▁form": 2797,
      "▁using": 2798,
      "▁behin": 2799,
      "▁42": 2800,
      "3098": 2801,
      "39": 2802,
      "are": 2803,
      "▁hours": 2804,
      "▁oh": 2805,
      "use": 2806,
      "ummy": 2807,
      "asing": 2808,
      "▁cl": 2809,
      "ition": 2810,
      "ß": 2811,
      ".00": 2812,
      "▁percent": 2813,
      "▁jo": 2814,
      "▁111": 2815,
      "▁1952": 2816,
      "ude": 2817,
      "▁ren": 2818,
      "▁lic": 2819,
      "▁del": 2820,
      "▁bath": 2821,
      ":29": 2822,
      "▁south": 2823,
      "▁415.782": 2824,
      "▁----": 2825,
      "inc": 2826,
      "▁met": 2827,
      "▁current": 2828,
      "▁sour": 2829,
      "▁1965": 2830,
      ":51": 2831,
      "▁03/28/2001": 2832,
      "▁415.621.8317": 2833,
      "ior": 2834,
      "▁sugg": 2835,
      "▁748": 2836,
      ":19": 2837,
      "▁fact": 2838,
      "▁s’": 2839,
      "▁those": 2840,
      "▁dere": 2841,
      "ier": 2842,
      "@enron": 2843,
      "▁shakespeare": 2844,
      "iting": 2845,
      "▁1200": 2846,
      "▁wi": 2847,
      "79": 2848,
      "▁979": 2849,
      "▁seems": 2850,
      "▁10/31": 2851,
      "▁sever": 2852,
      "▁offic": 2853,
      "ɛ": 2854,
      "▁ro": 2855,
      "▁got": 2856,
      "▁na": 2857,
      "▁civ": 2858,
      "▁perdues": 2859,
      "▁;": 2860,
      "▁ent": 2861,
      "45": 2862,
      "▁itself": 2863,
      "▁lad": 2864,
      "▁1914": 2865,
      "3-3744": 2866,
      "▁notwith": 2867,
      "▁pers": 2868,
      "▁taken": 2869,
      "▁my": 2870,
      "▁said": 2871,
      "oc": 2872,
      "▁fav": 2873,
      "▁1594": 2874,
      "▁downtown": 2875,
      "ries": 2876,
      "▁1700": 2877,
      "tim": 2878,
      "▁plan": 2879,
      "▁draw": 2880,
      "7/2000": 2881,
      "://": 2882,
      "▁1,6": 2883,
      "▁“": 2884,
      "▁sw": 2885,
      "ie": 2886,
      "▁recommend": 2887,
      "▁favor": 2888,
      "880": 2889,
      "vel": 2890,
      "▁polit": 2891,
      "[": 2892,
      "▁rece": 2893,
      "▁sched": 2894,
      "lish": 2895,
      "▁47,500": 2896,
      "▁202.456.2461": 2897,
      "▁ground": 2898,
      "▁econom": 2899,
      "▁1609": 2900,
      "▁received": 2901,
      "▁week": 2902,
      "ined": 2903,
      "oman": 2904,
      "▁05/01/2001": 2905,
      "▁21,000": 2906,
      "/10/2004": 2907,
      "iqu": 2908,
      "▁since": 2909,
      ":35": 2910,
      "▁825": 2911,
      "ut": 2912,
      "hing": 2913,
      "enix": 2914,
      "▁both": 2915,
      "清": 2916,
      "ack": 2917,
      "▁10/2": 2918,
      "▁84": 2919,
      "side": 2920,
      "aim": 2921,
      "▁washing": 2922,
      "▁clear": 2923,
      "▁seven": 2924,
      "▁own": 2925,
      "▁2022": 2926,
      "▁nt": 2927,
      "aph": 2928,
      "uc": 2929,
      "ays": 2930,
      "▁happy": 2931,
      "▁_________________________________________________": 2932,
      "▁mag": 2933,
      "▁p": 2934,
      "▁september": 2935,
      "▁woman": 2936,
      "37": 2937,
      "▁page": 2938,
      "ρ": 2939,
      "▁canad": 2940,
      "-1": 2941,
      "▁looked": 2942,
      "ir": 2943,
      "lik": 2944,
      "▁det": 2945,
      "▁thirteen": 2946,
      "rod": 2947,
      "▁inc": 2948,
      "▁no": 2949,
      "ans": 2950,
      "/10/2000": 2951,
      "▁development": 2952,
      "▁open": 2953,
      "ever": 2954,
      "▁enough": 2955,
      "▁3889": 2956,
      "▁else": 2957,
      "▁41": 2958,
      "ond": 2959,
      "at": 2960,
      "819602175": 2961,
      "^": 2962,
      "▁area": 2963,
      "▁`s": 2964,
      "▁nwww": 2965,
      "▁mil": 2966,
      "202": 2967,
      "ter": 2968,
      "imes": 2969,
      "2000": 2970,
      "gr": 2971,
      "▁every": 2972,
      "▁12:1": 2973,
      "▁suggest": 2974,
      "▁·": 2975,
      "ints": 2976,
      "▁always": 2977,
      "▁poss": 2978,
      "▁311": 2979,
      "ning": 2980,
      "▁flo": 2981,
      "ower": 2982,
      "▁dead": 2983,
      "▁1969": 2984,
      "▁09:01": 2985,
      "isc": 2986,
      "ves": 2987,
      "ile": 2988,
      "non": 2989,
      "▁ter": 2990,
      "23": 2991,
      "▁202.456.1": 2992,
      "▁express": 2993,
      "9999": 2994,
      "no": 2995,
      "▁1.": 2996,
      "▁fri": 2997,
      "iew": 2998,
      "▁373": 2999,
      "rop": 3000,
      "▁walk": 3001,
      "▁---------------------------------": 3002,
      "▁attem": 3003,
      "▁birth": 3004,
      "ital": 3005,
      "▁kind": 3006,
      "urs": 3007,
      "▁as": 3008,
      "▁kid": 3009,
      "▁3,500": 3010,
      "▁54,000": 3011,
      "▁1776": 3012,
      "▁hey": 3013,
      "▁perdu": 3014,
      "▁02/27/2001": 3015,
      "53-3": 3016,
      "▁angeles": 3017,
      "_de": 3018,
      "act": 3019,
      "司": 3020,
      "▁no-6": 3021,
      "▁1701": 3022,
      "▁doing": 3023,
      "ify": 3024,
      "▁road": 3025,
      "▁202.7": 3026,
      "▁administ": 3027,
      "▁05/17/99": 3028,
      "▁747": 3029,
      "▁417": 3030,
      "▁called": 3031,
      "▁45": 3032,
      "▁list": 3033,
      "▁living": 3034,
      "▁micro": 3035,
      "atter": 3036,
      "/11/2004": 3037,
      "ate": 3038,
      "▁break": 3039,
      "irl": 3040,
      "▁christ": 3041,
      "▁202.456.1111": 3042,
      "ject": 3043,
      "200": 3044,
      "▁2015": 3045,
      "ross": 3046,
      "iddle": 3047,
      "43": 3048,
      "▁eas": 3049,
      "▁1765": 3050,
      "▁part": 3051,
      "▁lay": 3052,
      "▁important": 3053,
      "▁drink": 3054,
      "ine": 3055,
      "▁million": 3056,
      "▁thirty-five": 3057,
      "ign": 3058,
      "▁11:32": 3059,
      "lect": 3060,
      "▁720": 3061,
      "▁weeks": 3062,
      "▁fare": 3063,
      ":55": 3064,
      "▁charlotte": 3065,
      "▁hors": 3066,
      "▁1307": 3067,
      "▁510-642": 3068,
      "and": 3069,
      "oll": 3070,
      "▁particular": 3071,
      "gether": 3072,
      ",950": 3073,
      "itions": 3074,
      "/99": 3075,
      "▁2.3": 3076,
      "▁pol": 3077,
      "▁bec": 3078,
      "▁arriving": 3079,
      "▁someone": 3080,
      "▁creat": 3081,
      "▁09": 3082,
      "▁special": 3083,
      "-7": 3084,
      "▁#": 3085,
      "[CLS]": 3086,
      "ious": 3087,
      "thers": 3088,
      ".11": 3089,
      "▁’ve": 3090,
      "▁name": 3091,
      "▁philadelphia": 3092,
      "▁cit": 3093,
      ".com": 3094,
      "thing": 3095,
      "++": 3096,
      "▁boat": 3097,
      "▁183": 3098,
      "ments": 3099,
      "▁gen": 3100,
      "▁11/27/2000": 3101,
      "ional": 3102,
      "▁keep": 3103,
      "op": 3104,
      "*": 3105,
      "▁%": 3106,
      "▁seattle": 3107,
      "▁aft": 3108,
      "▁albeit": 3109,
      "▁what": 3110,
      "▁1920": 3111,
      "▁dozen": 3112,
      "▁during": 3113,
      "▁1890": 3114,
      "▁pricing": 3115,
      "▁teh": 3116,
      "ead": 3117,
      "▁98": 3118,
      "61": 3119,
      "▁95": 3120,
      "▁appear": 3121,
      "▁method": 3122,
      "tw": 3123,
      "▁212": 3124,
      "▁199": 3125,
      "land": 3126,
      "age": 3127,
      "▁partic": 3128,
      "▁mic": 3129,
      "▁real": 3130,
      "▁exce": 3131,
      "▁interv": 3132,
      "▁36": 3133,
      "▁kansas": 3134,
      "bur": 3135,
      "▁tou": 3136,
      "▁sil": 3137,
      "▁level": 3138,
      "▁compet": 3139,
      "▁466": 3140,
      "ight": 3141,
      "▁line": 3142,
      "-696": 3143,
      "uel": 3144,
      "▁park": 3145,
      "ackl": 3146,
      "ur": 3147,
      "▁pi": 3148,
      "▁fund": 3149,
      "▁12:30": 3150,
      "▁wants": 3151,
      "te": 3152,
      "▁twel": 3153,
      "▁where": 3154,
      "▁cat": 3155,
      "@enron_de": 3156,
      "▁past": 3157,
      "ison": 3158,
      "▁3/8/00": 3159,
      "▁alth": 3160,
      "▁seventh": 3161,
      "▁718": 3162,
      "▁paren": 3163,
      "▁clos": 3164,
      "est": 3165,
      "▁orlando": 3166,
      "▁jud": 3167,
      "ience": 3168,
      "▁n'": 3169,
      "ang": 3170,
      "▁took": 3171,
      "▁thursday": 3172,
      "▁review": 3173,
      "▁stuff": 3174,
      "▁stay": 3175,
      "▁israel": 3176,
      "%": 3177,
      "ust": 3178,
      "▁admin": 3179,
      "33": 3180,
      "▁xiii": 3181,
      "ʁ": 3182,
      "▁10/20/2000": 3183,
      "▁24.7": 3184,
      "▁french": 3185,
      "ogn": 3186,
      "j": 3187,
      "▁bas": 3188,
      "76": 3189,
      "▁3:00": 3190,
      "▁1966": 3191,
      "--------": 3192,
      "oph": 3193,
      "▁^": 3194,
      "▁thurs": 3195,
      "▁power": 3196,
      "49": 3197,
      "▁202.45": 3198,
      "/26/2001": 3199,
      "▁416-865-3": 3200,
      "itting": 3201,
      "▁744": 3202,
      "▁return": 3203,
      "10": 3204,
      "peare": 3205,
      "ump": 3206,
      "▁cause": 3207,
      "****": 3208,
      "▁pot": 3209,
      "子": 3210,
      "ural": 3211,
      "±": 3212,
      "▁11:00": 3213,
      "-r": 3214,
      "▁296": 3215,
      "ma": 3216,
      "ruct": 3217,
      "ether": 3218,
      "ices": 3219,
      "▁1973": 3220,
      "▁alber": 3221,
      "▁196": 3222,
      "▁item": 3223,
      "ately": 3224,
      "▁cr": 3225,
      "ection": 3226,
      "▁1996": 3227,
      "▁07": 3228,
      "-435": 3229,
      "▁calif": 3230,
      "▁beyond": 3231,
      "--------------------------------": 3232,
      "▁perform": 3233,
      "▁wa": 3234,
      "in": 3235,
      "▁vi": 3236,
      "▁10:56": 3237,
      "▁books": 3238,
      "▁dwww": 3239,
      "▁ways": 3240,
      "▁saturday": 3241,
      "▁people": 3242,
      "▁call": 3243,
      "▁0.00": 3244,
      "▁11:30": 3245,
      "ther": 3246,
      "int": 3247,
      "`s": 3248,
      "ress": 3249,
      "on": 3250,
      "▁resp": 3251,
      "▁maybe": 3252,
      "▁es": 3253,
      "▁1787": 3254,
      "▁attack": 3255,
      "-343": 3256,
      "▁ride": 3257,
      "▁general": 3258,
      "▁str": 3259,
      "▁2030": 3260,
      "▁following": 3261,
      "▁cir": 3262,
      "ith": 3263,
      "▁abe": 3264,
      "yond": 3265,
      "▁dinner": 3266,
      "/00": 3267,
      ":17": 3268,
      "▁wou": 3269,
      "▁harry": 3270,
      "▁from": 3271,
      "▁eu": 3272,
      "▁different": 3273,
      "▁turn": 3274,
      "▁family": 3275,
      "ole": 3276,
      "gh": 3277,
      "ip": 3278,
      "▁55": 3279,
      "▁sat": 3280,
      "▁200": 3281,
      "▁01:0": 3282,
      ",008": 3283,
      "iron": 3284,
      "▁les": 3285,
      "9/2001": 3286,
      "▁flights": 3287,
      "▁was": 3288,
      "hin": 3289,
      "▁necess": 3290,
      "br": 3291,
      "▁http": 3292,
      "e@enron": 3293,
      "000": 3294,
      "ement": 3295,
      "75": 3296,
      "▁j": 3297,
      "▁fourteen": 3298,
      "▁1950": 3299,
      "▁yer": 3300,
      "×": 3301,
      "itive": 3302,
      "▁philadelp": 3303,
      "77": 3304,
      "?": 3305,
      "ony": 3306,
      "/2001": 3307,
      "▁init": 3308,
      "▁tr": 3309,
      "▁beg": 3310,
      "▁nine": 3311,
      "▁nose": 3312,
      "822": 3313,
      "&": 3314,
      "▁elect": 3315,
      "ution": 3316,
      "▁'71": 3317,
      "口": 3318,
      "ʒ": 3319,
      "ollow": 3320,
      "▁ye": 3321,
      "▁922": 3322,
      "▁situ": 3323,
      "??": 3324,
      "▁1160": 3325,
      ":11": 3326,
      "▁1115": 3327,
      "ects": 3328,
      "vers": 3329,
      "▁57": 3330,
      "▁[...": 3331,
      "▁stat": 3332,
      "▁05:37": 3333,
      "▁euro": 3334,
      "▁cont": 3335,
      "▁death": 3336,
      "▁sen": 3337,
      "393": 3338,
      "▁april": 3339,
      "▁diff": 3340,
      "▁sim": 3341,
      "▁wed": 3342,
      "▁go": 3343,
      "▁ty": 3344,
      "▁twenty-two": 3345,
      ".5": 3346,
      "mp": 3347,
      "▁consider": 3348,
      "▁2.6": 3349,
      "▁peop": 3350,
      "ull": 3351,
      "m": 3352,
      "▁sun": 3353,
      "▁govern": 3354,
      "▁2018": 3355,
      "▁help": 3356,
      "urday": 3357,
      "▁dey": 3358,
      "▁anal": 3359,
      "ial": 3360,
      "ave": 3361,
      "▁infl": 3362,
      "▁1605": 3363,
      "▁sur": 3364,
      "ore": 3365,
      "▁'re": 3366,
      "▁example": 3367,
      "▁claim": 3368,
      "▁very": 3369,
      "▁04:37": 3370,
      "▁300,000": 3371,
      "i": 3372,
      "--": 3373,
      "ults": 3374,
      "▁try": 3375,
      "▁1985": 3376,
      "▁'": 3377,
      "▁alone": 3378,
      "▁bab": 3379,
      "es": 3380,
      "▁1616": 3381,
      "▁amid": 3382,
      "▁1610": 3383,
      "amm": 3384,
      "▁franc": 3385,
      "▁id": 3386,
      "▁stop": 3387,
      "ks": 3388,
      "__________": 3389,
      "▁ple": 3390,
      "iful": 3391,
      "▁there": 3392,
      "round": 3393,
      "φ": 3394,
      "▁fr": 3395,
      "▁1986": 3396,
      "▁trans": 3397,
      "▁seemed": 3398,
      "____": 3399,
      "ff": 3400,
      "work": 3401,
      "201": 3402,
      "ο": 3403,
      "▁while": 3404,
      "▁1993": 3405,
      "un": 3406,
      "▁b": 3407,
      "▁far": 3408,
      "▁]": 3409,
      "▁1780": 3410,
      "ving": 3411,
      "▁through": 3412,
      "▁03:20": 3413,
      "▁1984": 3414,
      "▁economy": 3415,
      "▁1589": 3416,
      "▁mon": 3417,
      "ortun": 3418,
      "otte": 3419,
      "▁hund": 3420,
      "-625": 3421,
      "▁1583": 3422,
      "▁01:58": 3423,
      "70": 3424,
      "▁before": 3425,
      "▁160": 3426,
      "▁814.86": 3427,
      "▁often": 3428,
      "▁space": 3429,
      ".75": 3430,
      "-44": 3431,
      "▁stoy": 3432,
      "▁class": 3433,
      "▁anyone": 3434,
      "▁82": 3435,
      "▁http://": 3436,
      "4/2001": 3437,
      "▁xv": 3438,
      "▁852": 3439,
      "远": 3440,
      "▁5": 3441,
      "36": 3442,
      "haps": 3443,
      "▁315": 3444,
      "▁requ": 3445,
      "▁639": 3446,
      "▁oper": 3447,
      "~*~*": 3448,
      "cum": 3449,
      "▁proble": 3450,
      "▁love": 3451,
      "▁bird": 3452,
      "▁awoh": 3453,
      "▁11-20-2000": 3454,
      "▁928": 3455,
      "one": 3456,
      "▁doct": 3457,
      "▁earliest": 3458,
      "▁sure": 3459,
      "▁field": 3460,
      "87": 3461,
      "▁despite": 3462,
      "▁and": 3463,
      "▁save": 3464,
      "fast": 3465,
      "ces": 3466,
      "▁6": 3467,
      "▁supp": 3468,
      "unch": 3469,
      "▁30": 3470,
      "▁door": 3471,
      "▁cuz": 3472,
      "▁everything": 3473,
      "▁d": 3474,
      "cl": 3475,
      "mm": 3476,
      "499": 3477,
      "▁250": 3478,
      "ia": 3479,
      "▁exc": 3480,
      "▁milit": 3481,
      "▁mark": 3482,
      "▁game": 3483,
      "▁!!!!!!!": 3484,
      "▁language": 3485,
      "ner": 3486,
      "▁1230": 3487,
      "its": 3488,
      "▁speak": 3489,
      "▁dkk": 3490,
      "▁remember": 3491,
      "▁89": 3492,
      "▁looking": 3493,
      "ana": 3494,
      "is": 3495,
      "▁zero": 3496,
      "▁1957": 3497,
      "▁....": 3498,
      "▁dall": 3499,
      "min": 3500,
      "▁however": 3501,
      ",000,000": 3502,
      "▁1647": 3503,
      "▁internet": 3504,
      "ding": 3505,
      "▁ou": 3506,
      "▁floor": 3507,
      "▁for": 3508,
      "aper": 3509,
      "▁cook": 3510,
      "▁2016": 3511,
      "▁than": 3512,
      "ider": 3513,
      "ul": 3514,
      "▁sle": 3515,
      "▁americans": 3516,
      "▁til": 3517,
      "▁houston": 3518,
      "▁21": 3519,
      "ping": 3520,
      "ib": 3521,
      "▁des": 3522,
      "▁super": 3523,
      "▁throughout": 3524,
      "▁whoever": 3525,
      "▁eating": 3526,
      "▁03:48": 3527,
      "anger": 3528,
      "▁to": 3529,
      "▁present": 3530,
      "▁944": 3531,
      "▁side": 3532,
      "cab": 3533,
      "ert": 3534,
      "▁result": 3535,
      "019": 3536,
      "▁4.9": 3537,
      "▁16.3": 3538,
      "ht": 3539,
      "arch": 3540,
      "▁truck": 3541,
      "cc": 3542,
      "▁unles": 3543,
      "▁four": 3544,
      "iness": 3545,
      "▁1598": 3546,
      "und": 3547,
      "▁lest": 3548,
      "▁1943": 3549,
      "▁notwithstand": 3550,
      "▁lunch": 3551,
      "omet": 3552,
      "right": 3553,
      "9933": 3554,
      "▁incre": 3555,
      "▁100": 3556,
      "▁whole": 3557,
      "▁31": 3558,
      "3-3": 3559,
      "▁hi": 3560,
      ".831": 3561,
      "ros": 3562,
      "▁sam": 3563,
      ".25": 3564,
      "▁br": 3565,
      "▁stand": 3566,
      "oose": 3567,
      "ced": 3568,
      "▁others": 3569,
      "▁issue": 3570,
      "▁born": 3571,
      "ys": 3572,
      "▁11/08/2000": 3573,
      ".15": 3574,
      "▁opt": 3575,
      "hia": 3576,
      "▁law": 3577,
      "一": 3578,
      "ss": 3579,
      "▁ought": 3580,
      "▁ma": 3581,
      "▁?????": 3582,
      "▁gener": 3583,
      "▁3.5": 3584,
      "nesday": 3585,
      "el": 3586,
      "ern": 3587,
      "▁laur": 3588,
      "▁which": 3589,
      "▁01/26/2001": 3590,
      "▁18,000": 3591,
      "▁gre": 3592,
      "▁2007": 3593,
      "▁provide": 3594,
      "kee": 3595,
      "▁denver": 3596,
      "▁major": 3597,
      "▁become": 3598,
      "▁ag": 3599,
      "elp": 3600,
      "▁pric": 3601,
      "art": 3602,
      "▁betw": 3603,
      "ork": 3604,
      "▁hor": 3605,
      "▁whom": 3606,
      "▁?": 3607,
      "ace": 3608,
      "22,000": 3609,
      "▁making": 3610,
      "▁18": 3611,
      "▁happen": 3612,
      "eld": 3613,
      ",7": 3614,
      "ous": 3615,
      "▁allow": 3616,
      "▁|": 3617,
      "▁555": 3618,
      "ations": 3619,
      "▁bring": 3620,
      "enc": 3621,
      "........": 3622,
      "ange": 3623,
      "24": 3624,
      "▁june": 3625,
      "/2005": 3626,
      "▁security": 3627,
      "-ked": 3628,
      "ted": 3629,
      "▁do": 3630,
      "28": 3631,
      ":30": 3632,
      "-n": 3633,
      "▁year": 3634,
      "▁hands": 3635,
      "▁1100": 3636,
      "46-3393": 3637,
      "▁1613": 3638,
      "91": 3639,
      "▁1-800": 3640,
      "▁6/1": 3641,
      "▁due": 3642,
      "ics": 3643,
      ".99": 3644,
      "▁39": 3645,
      "700": 3646,
      "▁either": 3647,
      "▁besides": 3648,
      "-20": 3649,
      "▁site": 3650,
      "ه": 3651,
      "ds": 3652,
      "▁bn": 3653,
      ":13": 3654,
      "▁difficult": 3655,
      "▁one": 3656,
      "s": 3657,
      "▁ge": 3658,
      "▁york": 3659,
      "▁88": 3660,
      "▁eighty": 3661,
      "▁unto": 3662,
      "~*": 3663,
      "▁1912": 3664,
      "ny": 3665,
      "x": 3666,
      "▁_": 3667,
      "▁seventy": 3668,
      "▁indust": 3669,
      "▁3.7": 3670,
      ".6": 3671,
      "▁phoenix": 3672,
      "▁party": 3673,
      "98": 3674,
      "▁888": 3675,
      "▁north": 3676,
      "ug": 3677,
      "▁unlike": 3678,
      "▁:-)": 3679,
      "▁st.": 3680,
      "▁01/19/2001": 3681,
      "ex": 3682,
      "▁win": 3683,
      "/03/2001": 3684,
      "▁01:39:56": 3685,
      "▁bal": 3686,
      "▁military": 3687,
      "▁3,000": 3688,
      "▁chicago": 3689,
      "▁210": 3690,
      "æ": 3691,
      "▁until": 3692,
      "▁425": 3693,
      "▁minutes": 3694,
      "▁04/16/2001": 3695,
      "▁n": 3696,
      "▁effect": 3697,
      "▁med": 3698,
      "▁o": 3699,
      "­": 3700,
      "ness": 3701,
      "-9004": 3702,
      "▁political": 3703,
      "▁none": 3704,
      "▁13": 3705,
      "7.77": 3706,
      "▁1960": 3707,
      "▁cam": 3708,
      "▁well": 3709,
      "/8/00": 3710,
      "-": 3711,
      "ne": 3712,
      "74": 3713,
      "dr": 3714,
      "▁101": 3715,
      "▁129": 3716,
      "▁!?": 3717,
      "town": 3718,
      "▁hour": 3719,
      "▁”": 3720,
      "▁night": 3721,
      "ands": 3722,
      "▁158": 3723,
      "▁intern": 3724,
      "▁1871": 3725,
      "▁food": 3726,
      "▁file": 3727,
      "o": 3728,
      "eet": 3729,
      "_": 3730,
      "▁qu": 3731,
      "▁72": 3732,
      "▁import": 3733,
      "▁specific": 3734,
      "▁feel": 3735,
      "os": 3736,
      "▁its": 3737,
      "▁respons": 3738,
      "▁22": 3739,
      "▁playing": 3740,
      "▁house": 3741,
      "▁http://www": 3742,
      "eral": 3743,
      "▁california": 3744,
      "▁‘’": 3745,
      "ould": 3746,
      "lic": 3747,
      "▁prev": 3748,
      "▁z": 3749,
      "five": 3750,
      "ouble": 3751,
      "▁equ": 3752,
      "ult": 3753,
      "▁ta": 3754,
      "▁2100": 3755,
      "▁83": 3756,
      ":57": 3757,
      "津": 3758,
      "ach": 3759,
      "œ": 3760,
      "ain": 3761,
      "▁employ": 3762,
      "am": 3763,
      "7": 3764,
      "▁dollars": 3765,
      "ability": 3766,
      "ml": 3767,
      "en": 3768,
      "▁picture": 3769,
      "▁1724": 3770,
      "▁1603": 3771,
      "/15": 3772,
      "▁job": 3773,
      "▁num": 3774,
      "ta": 3775,
      "ove": 3776,
      "▁125": 3777,
      "velopment": 3778,
      "▁92": 3779,
      "room": 3780,
      "▁ec": 3781,
      "▁book": 3782,
      "▁pur": 3783,
      "▁how": 3784,
      "▁50,000": 3785,
      "▁min": 3786,
      "********": 3787,
      "rael": 3788,
      "uch": 3789,
      "iding": 3790,
      "▁cur": 3791,
      "▁bac": 3792,
      "▁4:00": 3793,
      "▁10:34": 3794,
      "▁te": 3795,
      "▁1179": 3796,
      "▁wether": 3797,
      "▁ap": 3798,
      "ere": 3799,
      "▁me": 3800,
      "▁tuesday": 3801,
      "▁round": 3802,
      "▁ball": 3803,
      "▁financ": 3804,
      "▁atl": 3805,
      "▁comedie": 3806,
      "▁meth": 3807,
      "iction": 3808,
      "}": 3809,
      "ab": 3810,
      "▁sev": 3811,
      "ocr": 3812,
      "nd": 3813,
      "▁1964": 3814,
      "▁sand": 3815,
      ".10": 3816,
      "▁mor": 3817,
      "▁order": 3818,
      "++++": 3819,
      "▁don": 3820,
      "ret": 3821,
      "ep": 3822,
      "▁secur": 3823,
      "▁def": 3824,
      "▁26": 3825,
      "▁sea": 3826,
      ",500": 3827,
      "▁dri": 3828,
      "▁1821": 3829,
      "▁?!": 3830,
      "▁establish": 3831,
      "ist": 3832,
      "▁1999": 3833,
      "▁ca": 3834,
      "▁first": 3835,
      "▁actually": 3836,
      "▁late": 3837,
      "▁rest": 3838,
      "▁able": 3839,
      "ride": 3840,
      "▁morning": 3841,
      "▁eye": 3842,
      "ories": 3843,
      "▁1975": 3844,
      "▁700": 3845,
      "▁airl": 3846,
      "▁1575": 3847,
      "▁months": 3848,
      "▁pock": 3849,
      "▁touch": 3850,
      "▁two": 3851,
      "▁947": 3852,
      "▁matter": 3853,
      "▁happ": 3854,
      "16.718": 3855,
      "ord": 3856,
      "▁11:0": 3857,
      "▁illusions": 3858,
      ",0": 3859,
      "▁flight": 3860,
      "▁et": 3861,
      "▁serv": 3862,
      "▁support": 3863,
      "ear": 3864,
      ":01": 3865,
      "▁???": 3866,
      "io": 3867,
      "▁public": 3868,
      "▁along": 3869,
      "▁185": 3870,
      "mem": 3871,
      "▁tried": 3872,
      "!!": 3873,
      "▁wife": 3874,
      "▁’m": 3875,
      "▁09:14": 3876,
      "▁george": 3877,
      "@": 3878,
      "sl": 3879,
      "▁horse": 3880,
      "▁416-8": 3881,
      "414": 3882,
      "▁meh-r": 3883,
      "▁educ": 3884,
      "▁hair": 3885,
      "▁hundred": 3886,
      "▁1896": 3887,
      "▁milwaukee": 3888,
      "▁34": 3889,
      "▁1968": 3890,
      "88": 3891,
      "▁================================": 3892,
      "▁fl": 3893,
      "▁...": 3894,
      "▁646": 3895,
      "▁gr": 3896,
      "▁202.456.1414": 3897,
      "▁pick": 3898,
      "▁view": 3899,
      "▁twenty-four": 3900,
      "▁02/2": 3901,
      "744": 3902,
      "▁town": 3903,
      "18": 3904,
      "▁2005": 3905,
      "▁were": 3906,
      "▁yours": 3907,
      "°": 3908,
      "▁we": 3909,
      "kk": 3910,
      "ze": 3911,
      "▁policy": 3912,
      "▁after": 3913,
      "▁hist": 3914,
      "ri": 3915,
      "▁415.782.7822": 3916,
      "▁ve": 3917,
      "▁environ": 3918,
      "ines": 3919,
      "▁est": 3920,
      "is_0": 3921,
      "▁wednesday": 3922,
      "▁vs": 3923,
      "▁dist": 3924,
      "▁if": 3925,
      "ity": 3926,
      "▁started": 3927,
      "ca": 3928,
      "▁home": 3929,
      "▁cre": 3930,
      "▁progr": 3931,
      "▁trillion": 3932,
      "viat": 3933,
      "▁again": 3934,
      "▁ex": 3935,
      "outh": 3936,
      "aff": 3937,
      "▁throu": 3938,
      "ght": 3939,
      "▁arrive": 3940,
      "isco": 3941,
      "ik": 3942,
      "▁800.713.86": 3943,
      "▁1945": 3944,
      "neath": 3945,
      "▁130": 3946,
      ":3": 3947,
      "********************************": 3948,
      "▁xslt": 3949,
      "ston": 3950,
      "▁u": 3951,
      "▁today": 3952,
      "92": 3953,
      "ins": 3954,
      "▁chick": 3955,
      "▁@": 3956,
      "▁253": 3957,
      "vil": 3958,
      "▁inter": 3959,
      "▁iraq": 3960,
      "▁getting": 3961,
      "ending": 3962,
      "▁city": 3963,
      "▁1.4": 3964,
      "other": 3965,
      "▁che": 3966,
      "▁march": 3967,
      "els": 3968,
      "▁restaurant": 3969,
      "▁control": 3970,
      "▁anoder": 3971,
      "▁6871082": 3972,
      "ale": 3973,
      "angu": 3974,
      "▁please": 3975,
      "▁07/17/2000": 3976,
      "▁design": 3977,
      "ment": 3978,
      "▁2019": 3979,
      "idence": 3980,
      "▁though": 3981,
      "▁made": 3982,
      "▁7:30": 3983,
      "ge": 3984,
      "▁)": 3985,
      "▁11:07": 3986,
      "oo": 3987,
      "oy": 3988,
      "▁conf": 3989,
      "▁on": 3990,
      "▁46": 3991,
      "▁cover": 3992,
      "99": 3993,
      "[UNK]": 3994,
      ",6": 3995,
      "id": 3996,
      "▁09:45": 3997,
      "eight": 3998,
      "▁bl": 3999,
      "▁67": 4000,
      "▁uhhuh": 4001,
      "▁15": 4002,
      "ensive": 4003,
      "66": 4004,
      "amp": 4005,
      "anta": 4006,
      "▁any": 4007,
      "▁begin": 4008,
      "▁stud": 4009,
      "▁felt": 4010,
      "ath": 4011,
      "▁white": 4012,
      "▁august": 4013,
      "▁11.5": 4014,
      "▁moment": 4015,
      "▁'0": 4016,
      "-79": 4017,
      "ued": 4018,
      "▁girl": 4019,
      "tride": 4020,
      "▁wo": 4021,
      "▁old": 4022,
      "25": 4023,
      "▁them": 4024,
      "▁minus": 4025,
      "▁prov": 4026,
      "alf": 4027,
      "▁expl": 4028,
      "▁of": 4029,
      "acy": 4030,
      "▁government": 4031,
      "▁......": 4032,
      "alys": 4033,
      "▁daddy": 4034,
      "raft": 4035,
      "▁miss": 4036,
      "__": 4037,
      "▁all": 4038,
      "3736": 4039,
      "ame": 4040,
      "▁then": 4041,
      "▁fine": 4042,
      "▁w": 4043,
      "hip": 4044,
      "tt": 4045,
      "▁information": 4046,
      "idd": 4047,
      "▁adv": 4048,
      "▁can": 4049,
      "to": 4050,
      "▁n’t": 4051,
      "7/99": 4052,
      "▁450": 4053,
      "▁funny": 4054,
      "59": 4055,
      "▁almost": 4056,
      "▁fire": 4057,
      "▁sar": 4058,
      "▁exec": 4059,
      "!!!": 4060,
      "▁1820": 4061,
      "▁ident": 4062,
      "▁32": 4063,
      "▁know": 4064,
      "uce": 4065,
      "▁:)": 4066,
      "▁theirs": 4067,
      "________________________________": 4068,
      "ators": 4069,
      "▁da": 4070,
      "▁comp": 4071,
      "▁hot": 4072,
      "▁boy": 4073,
      "58": 4074,
      "▁trying": 4075,
      "________________": 4076,
      "ipp": 4077,
      "▁word": 4078,
      "ible": 4079,
      ":23": 4080,
      "▁needed": 4081,
      ".7": 4082,
      "ended": 4083,
      "▁haf": 4084,
      "alth": 4085,
      "▁experience": 4086,
      "4-": 4087,
      "/13": 4088,
      "▁minute": 4089,
      "▁pm": 4090,
      "gy": 4091,
      "4-79": 4092,
      "ulation": 4093,
      "▁sound": 4094,
      "▁store": 4095
    },
    "merges": [
      [
        "-",
        "46"
      ],
      [
        "▁la",
        "w"
      ],
      [
        "▁b",
        "y"
      ],
      [
        "ep",
        "end"
      ],
      [
        "ur",
        "ch"
      ],
      [
        "m",
        "ost"
      ],
      [
        "iver",
        "s"
      ],
      [
        "▁phil",
        "adelp"
      ],
      [
        "▁ch",
        "eap"
      ],
      [
        "▁ha",
        "lf"
      ],
      [
        "▁govern",
        "ment"
      ],
      [
        ".",
        "0"
      ],
      [
        "▁4",
        "3"
      ],
      [
        "▁1.",
        "4"
      ],
      [
        "▁be",
        "tw"
      ],
      [
        "▁fi",
        "ft"
      ],
      [
        "▁or",
        "ig"
      ],
      [
        "▁ch",
        "rist"
      ],
      [
        ":5",
        "6"
      ],
      [
        "3",
        ".6"
      ],
      [
        "▁incl",
        "uding"
      ],
      [
        "▁11",
        "0"
      ],
      [
        "ud",
        "e"
      ],
      [
        "▁b",
        "o"
      ],
      [
        "▁am",
        "ount"
      ],
      [
        "▁fun",
        "ny"
      ],
      [
        "▁rec",
        "ord"
      ],
      [
        "3",
        "7"
      ],
      [
        "▁n",
        "o"
      ],
      [
        "▁10",
        ":45"
      ],
      [
        "▁183",
        "2"
      ],
      [
        "▁te",
        "x"
      ],
      [
        "▁3",
        "76"
      ],
      [
        "▁exc",
        "ell"
      ],
      [
        "ve",
        "n"
      ],
      [
        "on",
        "e"
      ],
      [
        "-",
        "50"
      ],
      [
        "▁pro",
        "f"
      ],
      [
        "▁12",
        ":30"
      ],
      [
        "▁16",
        "9"
      ],
      [
        "▁m",
        "u"
      ],
      [
        "▁v",
        "i"
      ],
      [
        "ou",
        "ble"
      ],
      [
        "▁s",
        "ome"
      ],
      [
        "▁w",
        "/"
      ],
      [
        "▁16.3",
        "79"
      ],
      [
        "▁happ",
        "y"
      ],
      [
        "▁cl",
        "ass"
      ],
      [
        "▁t",
        "ill"
      ],
      [
        "e",
        "au"
      ],
      [
        "▁17",
        "83"
      ],
      [
        "▁o",
        "u"
      ],
      [
        "▁wou",
        "d"
      ],
      [
        "▁ir",
        "an"
      ],
      [
        "▁b",
        "l"
      ],
      [
        "ic",
        "ally"
      ],
      [
        "▁se",
        "attle"
      ],
      [
        "▁fr",
        "om"
      ],
      [
        "▁04:",
        "28"
      ],
      [
        "an",
        "c"
      ],
      [
        "▁f",
        "ound"
      ],
      [
        "ou",
        "ld"
      ],
      [
        "▁18",
        "41"
      ],
      [
        "i",
        "re"
      ],
      [
        "▁pittsbur",
        "gh"
      ],
      [
        "▁c",
        "ame"
      ],
      [
        "▁",
        ","
      ],
      [
        "????",
        "????"
      ],
      [
        "for",
        "m"
      ],
      [
        "▁b",
        "an"
      ],
      [
        "▁72",
        ",000"
      ],
      [
        "▁n",
        "ow"
      ],
      [
        "ul",
        "ation"
      ],
      [
        "▁",
        "/"
      ],
      [
        "▁throu",
        "gh"
      ],
      [
        "st",
        "and"
      ],
      [
        "▁exp",
        "er"
      ],
      [
        "ang",
        "u"
      ],
      [
        "▁bet",
        "ter"
      ],
      [
        "▁9",
        "28"
      ],
      [
        "▁7",
        "2"
      ],
      [
        "▁avail",
        "able"
      ],
      [
        "▁eff",
        "ort"
      ],
      [
        "▁s",
        "et"
      ],
      [
        "▁re",
        "v"
      ],
      [
        "▁a",
        "r"
      ],
      [
        "▁tw",
        "el"
      ],
      [
        "7",
        "7"
      ],
      [
        "▁e",
        "y"
      ],
      [
        "▁sh",
        "ould"
      ],
      [
        "▁199",
        "0"
      ],
      [
        "▁8",
        "60"
      ],
      [
        "▁d",
        "id"
      ],
      [
        "▁no",
        "on"
      ],
      [
        "▁who",
        "'s"
      ],
      [
        "r",
        "ans"
      ],
      [
        "▁t",
        "ake"
      ],
      [
        "▁ve",
        "g"
      ],
      [
        "▁gu",
        "ys"
      ],
      [
        "▁alread",
        "y"
      ],
      [
        "▁bo",
        "ston"
      ],
      [
        "c",
        "o"
      ],
      [
        "▁",
        "p"
      ],
      [
        "▁",
        "9"
      ],
      [
        "▁",
        "’"
      ],
      [
        "ac",
        "y"
      ],
      [
        "▁200",
        "9"
      ],
      [
        "▁;",
        ")"
      ],
      [
        "▁o",
        "ften"
      ],
      [
        "b",
        "y"
      ],
      [
        "▁d",
        "et"
      ],
      [
        "▁...",
        ".."
      ],
      [
        "▁",
        "oc"
      ],
      [
        "g",
        "et"
      ],
      [
        "▁i",
        "v"
      ],
      [
        "▁ou",
        "ght"
      ],
      [
        "▁180",
        "1"
      ],
      [
        "▁exp",
        "ress"
      ],
      [
        "i",
        "c"
      ],
      [
        "▁10",
        ":25"
      ],
      [
        "▁bo",
        "y"
      ],
      [
        "▁f",
        "ind"
      ],
      [
        "▁comp",
        "an"
      ],
      [
        "i",
        "ed"
      ],
      [
        "▁d",
        "ate"
      ],
      [
        "▁183",
        "1"
      ],
      [
        "▁500",
        "00"
      ],
      [
        "e",
        "t"
      ],
      [
        "▁g",
        "u"
      ],
      [
        "▁15",
        "6"
      ],
      [
        "c",
        "l"
      ],
      [
        "▁app",
        "ro"
      ],
      [
        "▁l",
        "ow"
      ],
      [
        "▁st",
        "e"
      ],
      [
        "▁e",
        "gg"
      ],
      [
        "er",
        "t"
      ],
      [
        "u",
        "la"
      ],
      [
        "▁09",
        "/15"
      ],
      [
        "▁!",
        "!"
      ],
      [
        "▁ha",
        "f"
      ],
      [
        "▁anim",
        "als"
      ],
      [
        "▁analys",
        "is_0712"
      ],
      [
        "▁l",
        "ess"
      ],
      [
        "▁man",
        "y"
      ],
      [
        "▁list",
        "en"
      ],
      [
        "▁18",
        "47"
      ],
      [
        "▁me",
        "h-r"
      ],
      [
        "/16",
        "/2001"
      ],
      [
        "▁eight",
        "y"
      ],
      [
        "▁19",
        "45"
      ],
      [
        "▁as",
        "ide"
      ],
      [
        "-",
        "79"
      ],
      [
        "▁l",
        "ast"
      ],
      [
        "▁thirty",
        "-"
      ],
      [
        "▁tri",
        "p"
      ],
      [
        "▁5",
        "4"
      ],
      [
        "▁a",
        "pr"
      ],
      [
        "▁180",
        "5"
      ],
      [
        "e",
        "w"
      ],
      [
        "▁t",
        "aken"
      ],
      [
        "▁",
        "&"
      ],
      [
        "▁ev",
        "ent"
      ],
      [
        "ve",
        "s"
      ],
      [
        "▁01",
        ":39"
      ],
      [
        "▁21",
        "00"
      ],
      [
        "▁08",
        "/16"
      ],
      [
        "lik",
        "e"
      ],
      [
        "▁thank",
        "s"
      ],
      [
        "▁g",
        "ave"
      ],
      [
        "▁183",
        "5"
      ],
      [
        "u",
        "ding"
      ],
      [
        "▁",
        "el"
      ],
      [
        "▁3",
        "3"
      ],
      [
        "▁tr",
        "ad"
      ],
      [
        "▁your",
        "s"
      ],
      [
        "-",
        "8"
      ],
      [
        "n",
        "d"
      ],
      [
        "▁1",
        "."
      ],
      [
        "▁w",
        "ou"
      ],
      [
        "▁dri",
        "ve"
      ],
      [
        "ut",
        "e"
      ],
      [
        "▁’",
        "re"
      ],
      [
        "▁und",
        "er"
      ],
      [
        "vel",
        "and"
      ],
      [
        "▁as",
        "s"
      ],
      [
        "▁off",
        "ice"
      ],
      [
        "▁bea",
        "ut"
      ],
      [
        "▁think",
        "ing"
      ],
      [
        "▁h",
        "und"
      ],
      [
        "▁2",
        ".6"
      ],
      [
        "▁b/",
        "c"
      ],
      [
        "▁18",
        "68"
      ],
      [
        "▁qu",
        "ick"
      ],
      [
        "i",
        "ther"
      ],
      [
        "▁ch",
        "urch"
      ],
      [
        "▁t",
        "ri"
      ],
      [
        "▁e",
        "ither"
      ],
      [
        "x",
        "ce"
      ],
      [
        "/0",
        "8"
      ],
      [
        "▁11",
        "00"
      ],
      [
        "▁",
        "k"
      ],
      [
        "▁gr",
        "oup"
      ],
      [
        "▁s",
        "ay"
      ],
      [
        "▁56",
        "7.77"
      ],
      [
        "2",
        "3"
      ],
      [
        "▁serv",
        "ices"
      ],
      [
        "▁exper",
        "ience"
      ],
      [
        "▁1",
        "-8"
      ],
      [
        "@enron_de",
        "velopment"
      ],
      [
        "▁202",
        ".45"
      ],
      [
        "▁12",
        "20"
      ],
      [
        "ic",
        "t"
      ],
      [
        "▁ans",
        "w"
      ],
      [
        "▁",
        "ou"
      ],
      [
        "id",
        "es"
      ],
      [
        "e",
        "ight"
      ],
      [
        "a",
        "in"
      ],
      [
        "▁bab",
        "y"
      ],
      [
        "ri",
        "es"
      ],
      [
        "▁07",
        "/1"
      ],
      [
        "▁u",
        "n"
      ],
      [
        "++",
        "++"
      ],
      [
        "▁17",
        "65"
      ],
      [
        "/",
        "/"
      ],
      [
        "l",
        "s"
      ],
      [
        "ou",
        "g"
      ],
      [
        "9",
        "6"
      ],
      [
        "▁n",
        "'"
      ],
      [
        "▁d",
        "ay"
      ],
      [
        "▁atl",
        "anta"
      ],
      [
        "▁bo",
        "at"
      ],
      [
        "▁4",
        "0"
      ],
      [
        "▁sun",
        "day"
      ],
      [
        "▁o",
        "ver"
      ],
      [
        "al",
        "f"
      ],
      [
        "▁nat",
        "ural"
      ],
      [
        "al",
        "e"
      ],
      [
        "▁wh",
        "ole"
      ],
      [
        "ar",
        "s"
      ],
      [
        "▁pos",
        "ition"
      ],
      [
        "▁6",
        "6"
      ],
      [
        "▁&amp",
        ";"
      ],
      [
        "▁07/1",
        "4/2000"
      ],
      [
        "▁te",
        "h"
      ],
      [
        "3-3",
        "744"
      ],
      [
        "ap",
        "s"
      ],
      [
        "p",
        "er"
      ],
      [
        "▁l",
        "itt"
      ],
      [
        "▁f",
        "act"
      ],
      [
        "▁14",
        "3"
      ],
      [
        "▁pro",
        "p"
      ],
      [
        "a",
        "re"
      ],
      [
        "sel",
        "f"
      ],
      [
        "ro",
        "l"
      ],
      [
        "▁f",
        "ine"
      ],
      [
        "▁mor",
        "ning"
      ],
      [
        "▁10",
        "4"
      ],
      [
        "▁n'",
        "t"
      ],
      [
        "ast",
        "ic"
      ],
      [
        "ea",
        "re"
      ],
      [
        "/",
        "9"
      ],
      [
        "▁19",
        "59"
      ],
      [
        "u",
        "de"
      ],
      [
        "▁quest",
        "ions"
      ],
      [
        "▁l",
        "ou"
      ],
      [
        "▁19",
        "28"
      ],
      [
        "▁ch",
        "ar"
      ],
      [
        "2",
        "-6"
      ],
      [
        "▁p",
        "er"
      ],
      [
        "▁8",
        "14"
      ],
      [
        "s",
        "o"
      ],
      [
        "ul",
        "l"
      ],
      [
        "20",
        "-"
      ],
      [
        ".",
        "9"
      ],
      [
        "ro",
        "p"
      ],
      [
        "▁5",
        "7"
      ],
      [
        "▁16",
        ".3"
      ],
      [
        "▁to",
        "gether"
      ],
      [
        "▁say",
        "ing"
      ],
      [
        "ra",
        "el"
      ],
      [
        "is",
        "s"
      ],
      [
        "▁ro",
        "b"
      ],
      [
        "▁922",
        "1"
      ],
      [
        "1",
        "28"
      ],
      [
        "▁resp",
        "ect"
      ],
      [
        "▁",
        "#"
      ],
      [
        "▁an",
        "o"
      ],
      [
        ",",
        "8"
      ],
      [
        "▁pi",
        "ec"
      ],
      [
        "▁bo",
        "dy"
      ],
      [
        "3",
        "-3"
      ],
      [
        "i",
        "ent"
      ],
      [
        "00",
        "10"
      ],
      [
        "▁000010",
        "8806"
      ],
      [
        "s",
        "l"
      ],
      [
        "▁se",
        "ver"
      ],
      [
        "▁7",
        "3"
      ],
      [
        "a",
        "c"
      ],
      [
        "▁an",
        "alys"
      ],
      [
        "h",
        "ia"
      ],
      [
        "are",
        "n"
      ],
      [
        "ort",
        "un"
      ],
      [
        "4",
        "4"
      ],
      [
        "▁p",
        "ress"
      ],
      [
        "1",
        "-9"
      ],
      [
        "▁08",
        "/03"
      ],
      [
        "▁un",
        "ivers"
      ],
      [
        "m",
        "l"
      ],
      [
        "n",
        "y"
      ],
      [
        "▁pict",
        "ure"
      ],
      [
        "▁70",
        "5"
      ],
      [
        "▁tr",
        "illion"
      ],
      [
        "▁the",
        "se"
      ],
      [
        "▁e",
        "t"
      ],
      [
        "▁w",
        "est"
      ],
      [
        "▁mil",
        "k"
      ],
      [
        "▁n",
        "ight"
      ],
      [
        "n",
        "a"
      ],
      [
        "▁da",
        "ily"
      ],
      [
        "is",
        "on"
      ],
      [
        "▁195",
        "4"
      ],
      [
        "▁af",
        "ter"
      ],
      [
        "▁del",
        "iver"
      ],
      [
        "▁1-8",
        "00"
      ],
      [
        "en",
        "ce"
      ],
      [
        "▁01:0",
        "9"
      ],
      [
        "▁p",
        "ack"
      ],
      [
        "▁cheap",
        "est"
      ],
      [
        "▁a",
        "l"
      ],
      [
        "▁b",
        "est"
      ],
      [
        "▁read",
        "y"
      ],
      [
        "▁sal",
        "t"
      ],
      [
        "▁follow",
        "ing"
      ],
      [
        "e",
        "ct"
      ],
      [
        "n",
        "o"
      ],
      [
        "ic",
        "ago"
      ],
      [
        "ap",
        "h"
      ],
      [
        "m",
        "p"
      ],
      [
        "ac",
        "t"
      ],
      [
        "▁03",
        ":58"
      ],
      [
        "▁",
        "”"
      ],
      [
        "▁199",
        "9"
      ],
      [
        "e",
        "x"
      ],
      [
        "in",
        "e"
      ],
      [
        "em",
        "ent"
      ],
      [
        "3",
        "1"
      ],
      [
        "▁wor",
        "ld"
      ],
      [
        "7",
        "/99"
      ],
      [
        "▁h",
        "ad"
      ],
      [
        "is",
        "c"
      ],
      [
        "▁esp",
        "ec"
      ],
      [
        "▁u",
        "s"
      ],
      [
        "▁e",
        "u"
      ],
      [
        "▁piec",
        "e"
      ],
      [
        "▁10",
        "7"
      ],
      [
        "▁y",
        "ear"
      ],
      [
        "▁2",
        ".0"
      ],
      [
        "▁sat",
        "urday"
      ],
      [
        "▁",
        "ve"
      ],
      [
        ":",
        "29"
      ],
      [
        "▁in",
        "to"
      ],
      [
        "▁16",
        "91"
      ],
      [
        "h",
        "n"
      ],
      [
        "________",
        "__"
      ],
      [
        "▁03/2",
        "1/2001"
      ],
      [
        "▁sa",
        "w"
      ],
      [
        "8",
        "4"
      ],
      [
        "----",
        "----"
      ],
      [
        "is",
        "h"
      ],
      [
        "▁dur",
        "ing"
      ],
      [
        "▁k",
        "id"
      ],
      [
        "▁19",
        "10"
      ],
      [
        "▁ro",
        "om"
      ],
      [
        "em",
        "ber"
      ],
      [
        "iz",
        "ed"
      ],
      [
        "▁des",
        "pite"
      ],
      [
        "▁",
        "it"
      ],
      [
        "oun",
        "d"
      ],
      [
        ".",
        "doc"
      ],
      [
        "a",
        "im"
      ],
      [
        "▁505",
        "-625"
      ],
      [
        "i",
        "er"
      ],
      [
        "▁mo",
        "t"
      ],
      [
        "▁3",
        "0"
      ],
      [
        ".1",
        "23"
      ],
      [
        "im",
        "es"
      ],
      [
        "3",
        "5"
      ],
      [
        "on",
        "t"
      ],
      [
        "8",
        "8"
      ],
      [
        "▁f",
        "are"
      ],
      [
        "▁05",
        "90"
      ],
      [
        "▁sy",
        "stem"
      ],
      [
        "▁ch",
        "e"
      ],
      [
        "el",
        "d"
      ],
      [
        "w",
        "ith"
      ],
      [
        "at",
        "ions"
      ],
      [
        "▁veg",
        "as"
      ],
      [
        "▁p",
        "ol"
      ],
      [
        "7",
        "1"
      ],
      [
        "4",
        "7"
      ],
      [
        "▁01",
        "/1"
      ],
      [
        "▁c",
        "oun"
      ],
      [
        "▁_",
        "____"
      ],
      [
        "u",
        "mer"
      ],
      [
        "_",
        "_"
      ],
      [
        "▁pr",
        "om"
      ],
      [
        "▁hear",
        "d"
      ],
      [
        "▁",
        "ll"
      ],
      [
        "▁",
        "."
      ],
      [
        "it",
        "ions"
      ],
      [
        "▁be",
        "hin"
      ],
      [
        "▁betw",
        "een"
      ],
      [
        "2",
        "0"
      ],
      [
        ".7",
        "13.86"
      ],
      [
        "▁646-84",
        "20"
      ],
      [
        "▁3",
        "-5"
      ],
      [
        "ag",
        "e"
      ],
      [
        "▁m",
        "iddle"
      ],
      [
        "▁5",
        "30"
      ],
      [
        "▁res",
        "p"
      ],
      [
        "▁03/0",
        "8/2000"
      ],
      [
        "▁mon",
        "th"
      ],
      [
        "▁b",
        "ill"
      ],
      [
        "▁p",
        "eau"
      ],
      [
        "▁birth",
        "day"
      ],
      [
        "▁03/2",
        "8/2001"
      ],
      [
        "▁f",
        "ig"
      ],
      [
        "▁195",
        "7"
      ],
      [
        "▁",
        "n"
      ],
      [
        "▁4",
        ","
      ],
      [
        "▁was",
        "hing"
      ],
      [
        "▁when",
        "ever"
      ],
      [
        "▁eight",
        "een"
      ],
      [
        "▁12",
        ":1"
      ],
      [
        "▁1.",
        "1"
      ],
      [
        "9",
        "3"
      ],
      [
        "▁713-654-",
        "03"
      ],
      [
        "ach",
        "ed"
      ],
      [
        "▁6",
        "3"
      ],
      [
        "ul",
        "t"
      ],
      [
        "▁supp",
        "ort"
      ],
      [
        "us",
        "ions"
      ],
      [
        "▁14",
        "0"
      ],
      [
        "▁al",
        "th"
      ],
      [
        "7",
        "5"
      ],
      [
        "▁att",
        "em"
      ],
      [
        "es",
        "t"
      ],
      [
        "i",
        "ly"
      ],
      [
        "▁u",
        "h"
      ],
      [
        "▁be",
        "side"
      ],
      [
        "w",
        "ay"
      ],
      [
        "o",
        "ke"
      ],
      [
        "▁requ",
        "est"
      ],
      [
        "▁2.9",
        "75"
      ],
      [
        "▁c",
        "it"
      ],
      [
        "▁behin",
        "d"
      ],
      [
        "▁p",
        "ot"
      ],
      [
        "▁bre",
        "ak"
      ],
      [
        "▁h",
        "igh"
      ],
      [
        "ant",
        "s"
      ],
      [
        "▁en",
        "g"
      ],
      [
        "▁y",
        "er"
      ],
      [
        "▁130",
        "11"
      ],
      [
        "▁f",
        "i"
      ],
      [
        "▁189",
        "6"
      ],
      [
        "▁r",
        "e"
      ],
      [
        "l",
        "ish"
      ],
      [
        "▁",
        "x"
      ],
      [
        "▁ma",
        "j"
      ],
      [
        "t",
        "ers"
      ],
      [
        "s",
        "t"
      ],
      [
        "▁m",
        "id"
      ],
      [
        "▁4",
        "9"
      ],
      [
        "ict",
        "ion"
      ],
      [
        "-",
        "6"
      ],
      [
        "▁ext",
        "rem"
      ],
      [
        "ap",
        "olis"
      ],
      [
        "▁h",
        "ea"
      ],
      [
        ":",
        "30"
      ],
      [
        "▁1.",
        "5"
      ],
      [
        "▁5",
        "2"
      ],
      [
        "g",
        "ot"
      ],
      [
        "▁32",
        "4"
      ],
      [
        "▁acc",
        "ount"
      ],
      [
        "▁1",
        "/2"
      ],
      [
        "tw",
        "o"
      ],
      [
        "▁fri",
        "end"
      ],
      [
        "▁f",
        "rench"
      ],
      [
        "▁1.",
        "25"
      ],
      [
        "▁hand",
        "s"
      ],
      [
        "▁03",
        "/0"
      ],
      [
        "▁somet",
        "imes"
      ],
      [
        "▁s",
        "ea"
      ],
      [
        "▁s",
        "ar"
      ],
      [
        "▁m",
        "et"
      ],
      [
        "▁s",
        "or"
      ],
      [
        ".8",
        "6"
      ],
      [
        "▁2",
        ",000"
      ],
      [
        "▁gre",
        "en"
      ],
      [
        "▁b",
        "ag"
      ],
      [
        "▁888.916.718",
        "4"
      ],
      [
        "j",
        "ect"
      ],
      [
        "▁7",
        "48"
      ],
      [
        "▁0",
        "7"
      ],
      [
        "▁arri",
        "ving"
      ],
      [
        "▁te",
        "ach"
      ],
      [
        "▁19",
        "25"
      ],
      [
        "▁7",
        "0"
      ],
      [
        "▁col",
        "lect"
      ],
      [
        "op",
        "e"
      ],
      [
        "▁28",
        ",000"
      ],
      [
        "e",
        "c"
      ],
      [
        "▁a",
        "t"
      ],
      [
        "▁no",
        "ne"
      ],
      [
        "f",
        "i"
      ],
      [
        "▁mo",
        "st"
      ],
      [
        "▁f",
        "ace"
      ],
      [
        "▁o",
        "pt"
      ],
      [
        "**",
        "**"
      ],
      [
        "e",
        "ed"
      ],
      [
        "er",
        "c"
      ],
      [
        "▁28",
        "1"
      ],
      [
        "▁poss",
        "ible"
      ],
      [
        "▁look",
        "ed"
      ],
      [
        "▁hund",
        "red"
      ],
      [
        "▁e",
        "ver"
      ],
      [
        "al",
        "k"
      ],
      [
        "▁198",
        "4"
      ],
      [
        "er",
        "ed"
      ],
      [
        "r",
        "al"
      ],
      [
        "▁w",
        "in"
      ],
      [
        "▁intern",
        "et"
      ],
      [
        ",6",
        "00"
      ],
      [
        "▁con",
        "v"
      ],
      [
        "▁dogg",
        "ie"
      ],
      [
        ":1",
        "9"
      ],
      [
        "▁8",
        "3"
      ],
      [
        "t",
        "e"
      ],
      [
        "▁p",
        "en"
      ],
      [
        "▁wh",
        "om"
      ],
      [
        "▁d",
        "all"
      ],
      [
        "el",
        "y"
      ],
      [
        "▁",
        "b"
      ],
      [
        "▁ev",
        "en"
      ],
      [
        "▁tr",
        "ans"
      ],
      [
        "▁fl",
        "o"
      ],
      [
        "▁713",
        "-6"
      ],
      [
        "o",
        "r"
      ],
      [
        "▁gu",
        "y"
      ],
      [
        "▁ir",
        "aq"
      ],
      [
        "▁198",
        "8"
      ],
      [
        "▁t",
        "reat"
      ],
      [
        "it",
        "y"
      ],
      [
        "▁c",
        "al"
      ],
      [
        "16",
        ".718"
      ],
      [
        "▁a",
        "w"
      ],
      [
        "▁al",
        "most"
      ],
      [
        "▁r",
        "ich"
      ],
      [
        "▁18",
        "20"
      ],
      [
        "res",
        "h"
      ],
      [
        "▁159",
        "8"
      ],
      [
        "▁h",
        "as"
      ],
      [
        "▁sev",
        "enth"
      ],
      [
        "▁",
        "in"
      ],
      [
        "▁17",
        "99"
      ],
      [
        "▁work",
        "ing"
      ],
      [
        "▁stre",
        "et"
      ],
      [
        "▁b",
        "re"
      ],
      [
        "ag",
        "o"
      ],
      [
        "▁",
        "s"
      ],
      [
        "▁ver",
        "y"
      ],
      [
        "▁inform",
        "ation"
      ],
      [
        "▁h",
        "i"
      ],
      [
        ".",
        "."
      ],
      [
        "▁ch",
        "icago"
      ],
      [
        "▁04",
        "/30/2001"
      ],
      [
        "▁p",
        "ers"
      ],
      [
        "▁ph",
        "o"
      ],
      [
        "7",
        "44"
      ],
      [
        "▁1",
        "6"
      ],
      [
        "▁22",
        "5"
      ],
      [
        "▁tr",
        "y"
      ],
      [
        "▁g",
        "et"
      ],
      [
        "▁5",
        "1"
      ],
      [
        "▁le",
        "g"
      ],
      [
        "▁se",
        "pt"
      ],
      [
        "▁pric",
        "ing"
      ],
      [
        "▁tr",
        "a"
      ],
      [
        "▁or",
        "land"
      ],
      [
        "2",
        "00"
      ],
      [
        "▁s",
        "ec"
      ],
      [
        "▁d",
        "r"
      ],
      [
        "▁191",
        "2"
      ],
      [
        "g",
        "r"
      ],
      [
        "▁all",
        "ow"
      ],
      [
        "▁04",
        "/16/2001"
      ],
      [
        "▁on",
        "ly"
      ],
      [
        "r",
        "ide"
      ],
      [
        "▁11",
        ":16"
      ],
      [
        "▁let",
        "ter"
      ],
      [
        "at",
        "ors"
      ],
      [
        "u",
        "el"
      ],
      [
        "▁281",
        "-435"
      ],
      [
        "▁su",
        "mm"
      ],
      [
        "99",
        "99"
      ],
      [
        "▁ha",
        "ve"
      ],
      [
        "▁m",
        "ay"
      ],
      [
        "▁re",
        "ce"
      ],
      [
        "▁50",
        "8"
      ],
      [
        "p",
        "e"
      ],
      [
        "▁d",
        "ec"
      ],
      [
        "q",
        "u"
      ],
      [
        "▁d",
        "ere"
      ],
      [
        "th",
        "ers"
      ],
      [
        "▁meth",
        "od"
      ],
      [
        "▁07/1",
        "7/2000"
      ],
      [
        "▁10",
        ":34"
      ],
      [
        "▁w",
        "ed"
      ],
      [
        "▁ne",
        "ver"
      ],
      [
        "▁",
        "on"
      ],
      [
        "/200",
        "4"
      ],
      [
        "▁want",
        "ed"
      ],
      [
        "4",
        "2"
      ],
      [
        "▁b",
        "ed"
      ],
      [
        "▁t",
        "oo"
      ],
      [
        "i",
        "m"
      ],
      [
        "-3",
        "43"
      ],
      [
        "▁11/2",
        "9/2000"
      ],
      [
        "oo",
        "d"
      ],
      [
        "n",
        "ing"
      ],
      [
        "▁call",
        "ed"
      ],
      [
        "▁sto",
        "y"
      ],
      [
        "p",
        "le"
      ],
      [
        "5",
        "4-"
      ],
      [
        "▁st",
        "art"
      ],
      [
        "in",
        "k"
      ],
      [
        "▁3",
        "9"
      ],
      [
        "▁p",
        "e"
      ],
      [
        "▁w",
        "h"
      ],
      [
        "▁d",
        "is"
      ],
      [
        "▁st",
        "."
      ],
      [
        "▁m",
        "ind"
      ],
      [
        ":",
        "1"
      ],
      [
        "x",
        "t"
      ],
      [
        "▁proc",
        "ess"
      ],
      [
        "or",
        "ies"
      ],
      [
        "▁f",
        "a"
      ],
      [
        "om",
        "et"
      ],
      [
        "9",
        "0"
      ],
      [
        "▁195",
        "2"
      ],
      [
        "▁ind",
        "ust"
      ],
      [
        "ion",
        "al"
      ],
      [
        "▁su",
        "gg"
      ],
      [
        "▁6",
        "0"
      ],
      [
        "▁10",
        ",000"
      ],
      [
        "▁",
        "`"
      ],
      [
        "▁eu",
        "ro"
      ],
      [
        "▁prof",
        "ess"
      ],
      [
        "▁11",
        "79"
      ],
      [
        "▁713-654-03",
        "65"
      ],
      [
        "▁p",
        "le"
      ],
      [
        "▁en",
        "v"
      ],
      [
        "▁spec",
        "ial"
      ],
      [
        "vel",
        "opment"
      ],
      [
        "▁x",
        "sl"
      ],
      [
        "g",
        "e"
      ],
      [
        "▁alber",
        "ta"
      ],
      [
        "ain",
        "s"
      ],
      [
        "▁ag",
        "e"
      ],
      [
        "▁our",
        "selves"
      ],
      [
        "▁10",
        "1"
      ],
      [
        "▁it",
        "em"
      ],
      [
        "▁",
        "h"
      ],
      [
        "l",
        "ic"
      ],
      [
        "▁10/2",
        "3/2000"
      ],
      [
        "▁th",
        "ree"
      ],
      [
        "▁0",
        ".0"
      ],
      [
        "▁bir",
        "th"
      ],
      [
        "▁v",
        "ide"
      ],
      [
        "r",
        "on"
      ],
      [
        "t",
        "o"
      ],
      [
        "▁i",
        "i"
      ],
      [
        "et",
        "s"
      ],
      [
        "▁ob",
        "s"
      ],
      [
        "▁offic",
        "ial"
      ],
      [
        "es",
        "day"
      ],
      [
        "cl",
        "ud"
      ],
      [
        "!",
        "!"
      ],
      [
        "▁sec",
        "ond"
      ],
      [
        ":",
        "5"
      ],
      [
        "▁acc",
        "ess"
      ],
      [
        "-",
        "3"
      ],
      [
        "▁47",
        ",500"
      ],
      [
        "▁pers",
        "on"
      ],
      [
        ":",
        "25"
      ],
      [
        "8",
        "2"
      ],
      [
        "c",
        "c"
      ],
      [
        "▁c",
        "on"
      ],
      [
        "▁",
        "ident"
      ],
      [
        ".1",
        "6"
      ],
      [
        "c",
        "om"
      ],
      [
        "▁is",
        "land"
      ],
      [
        "c",
        "ed"
      ],
      [
        "▁j",
        "ust"
      ],
      [
        "▁tri",
        "ed"
      ],
      [
        ":",
        "//"
      ],
      [
        "▁_",
        "________________________________"
      ],
      [
        "/0",
        "3"
      ],
      [
        "_",
        "^"
      ],
      [
        "▁mo",
        "re"
      ],
      [
        "▁t",
        "ot"
      ],
      [
        "▁64",
        "00"
      ],
      [
        "l",
        "ine"
      ],
      [
        "▁even",
        "ing"
      ],
      [
        "▁w",
        "ell"
      ],
      [
        "▁1",
        "/4"
      ],
      [
        "▁11",
        "15"
      ],
      [
        "▁196",
        "4"
      ],
      [
        "▁m",
        "ic"
      ],
      [
        "4",
        "1"
      ],
      [
        "▁11",
        "/7"
      ],
      [
        "▁190",
        "2"
      ],
      [
        "▁bir",
        "d"
      ],
      [
        "▁doct",
        "or"
      ],
      [
        "▁in",
        "v"
      ],
      [
        "o",
        "y"
      ],
      [
        "▁c",
        "ir"
      ],
      [
        "▁195",
        "1"
      ],
      [
        "▁t",
        "or"
      ],
      [
        "▁9",
        "47"
      ],
      [
        "e",
        "@enron"
      ],
      [
        "▁s",
        "/h"
      ],
      [
        "▁h",
        "a"
      ],
      [
        "oun",
        "t"
      ],
      [
        "o",
        "o"
      ],
      [
        "▁s",
        "y"
      ],
      [
        "▁mil",
        "wau"
      ],
      [
        "▁7",
        "9"
      ],
      [
        "u",
        "nd"
      ],
      [
        "▁sh",
        "a"
      ],
      [
        "▁li",
        "ke"
      ],
      [
        "▁p",
        "ut"
      ],
      [
        "▁w",
        "ear"
      ],
      [
        "4",
        "5"
      ],
      [
        "▁03",
        ":20"
      ],
      [
        "▁s",
        "ho"
      ],
      [
        "el",
        "t"
      ],
      [
        "▁qu",
        "ality"
      ],
      [
        "▁comp",
        "et"
      ],
      [
        "▁s",
        "o"
      ],
      [
        "en",
        "t"
      ],
      [
        "▁2",
        ".5"
      ],
      [
        "▁3",
        ",500"
      ],
      [
        "▁pro",
        "c"
      ],
      [
        "on",
        "om"
      ],
      [
        "▁w",
        "ent"
      ],
      [
        "▁6",
        "80"
      ],
      [
        "et",
        "h"
      ],
      [
        "▁18",
        "29"
      ],
      [
        "▁================================================",
        "===="
      ],
      [
        "o",
        "l"
      ],
      [
        "▁s",
        "ur"
      ],
      [
        "m",
        "in"
      ],
      [
        "▁195",
        "5"
      ],
      [
        "▁ro",
        "ad"
      ],
      [
        "▁fin",
        "anc"
      ],
      [
        ":3",
        "4"
      ],
      [
        "▁d",
        "o"
      ],
      [
        "▁6",
        "/1"
      ],
      [
        "g",
        "o"
      ],
      [
        "▁ninety",
        "-n"
      ],
      [
        "ra",
        "ft"
      ],
      [
        "▁s",
        "l"
      ],
      [
        "▁he",
        "ad"
      ],
      [
        "▁ag",
        "o"
      ],
      [
        "-",
        "49"
      ],
      [
        "p",
        "p"
      ],
      [
        "▁200",
        "6"
      ],
      [
        "▁1",
        "/8"
      ],
      [
        "9",
        "89"
      ],
      [
        "/",
        "h"
      ],
      [
        "▁3",
        "43"
      ],
      [
        "▁s",
        "an"
      ],
      [
        "▁d",
        "ur"
      ],
      [
        ":",
        "44"
      ],
      [
        "▁every",
        "one"
      ],
      [
        "▁t",
        "r"
      ],
      [
        ":3",
        "8"
      ],
      [
        "▁0",
        "1"
      ],
      [
        "▁cl",
        "oth"
      ],
      [
        "/2",
        "000"
      ],
      [
        "▁do",
        "gg"
      ],
      [
        "▁16",
        "10"
      ],
      [
        ".",
        "45"
      ],
      [
        "▁str",
        "uct"
      ],
      [
        "▁17",
        "24"
      ],
      [
        "▁196",
        "7"
      ],
      [
        "anc",
        "es"
      ],
      [
        "▁com",
        "edie"
      ],
      [
        "▁t",
        "akes"
      ],
      [
        "▁do",
        "wn"
      ],
      [
        "▁s",
        "ign"
      ],
      [
        "ent",
        "h"
      ],
      [
        "▁m",
        "iss"
      ],
      [
        "▁is",
        "s"
      ],
      [
        "▁a",
        "re"
      ],
      [
        "z",
        "a"
      ],
      [
        "▁d",
        "an"
      ],
      [
        ":",
        "42"
      ],
      [
        "▁713-654-",
        "128"
      ],
      [
        "g",
        "an"
      ],
      [
        "▁ex",
        "ec"
      ],
      [
        "▁...",
        "...."
      ],
      [
        ".2",
        "461"
      ],
      [
        "▁p",
        "ast"
      ],
      [
        "▁198",
        "2"
      ],
      [
        "▁admin",
        "ist"
      ],
      [
        ".7",
        "18"
      ],
      [
        "▁h",
        "at"
      ],
      [
        "▁l",
        "ate"
      ],
      [
        "▁159",
        "6"
      ],
      [
        "▁11",
        "/0"
      ],
      [
        "is",
        "m"
      ],
      [
        "▁p",
        "lus"
      ],
      [
        "s",
        "c"
      ],
      [
        "▁08",
        "/17/2000"
      ],
      [
        "if",
        "ic"
      ],
      [
        "it",
        "ing"
      ],
      [
        "▁05",
        "/03/2001"
      ],
      [
        "▁41",
        "7"
      ],
      [
        "c",
        "ent"
      ],
      [
        "▁0",
        "5"
      ],
      [
        "it",
        "ive"
      ],
      [
        "in",
        "n"
      ],
      [
        "-",
        "-"
      ],
      [
        "..",
        ".."
      ],
      [
        "▁pres",
        "ent"
      ],
      [
        "▁c",
        "up"
      ],
      [
        "7",
        "/2001"
      ],
      [
        "’",
        "t"
      ],
      [
        "▁re",
        "l"
      ],
      [
        "▁apr",
        "il"
      ],
      [
        "▁j",
        "ud"
      ],
      [
        "▁af",
        "ric"
      ],
      [
        "▁beg",
        "an"
      ],
      [
        "▁c",
        "ould"
      ],
      [
        "0",
        "3"
      ],
      [
        "m",
        "ed"
      ],
      [
        "▁wi",
        "th"
      ],
      [
        "▁twenty-",
        "two"
      ],
      [
        "▁lo",
        "ve"
      ],
      [
        "▁st",
        "ore"
      ],
      [
        "▁child",
        "ren"
      ],
      [
        "▁t",
        "e"
      ],
      [
        "t",
        "t"
      ],
      [
        "▁9",
        "78"
      ],
      [
        "ec",
        "ess"
      ],
      [
        "▁",
        "·"
      ],
      [
        "al",
        "s"
      ],
      [
        "u",
        "al"
      ],
      [
        "▁re",
        "p"
      ],
      [
        "i",
        "ans"
      ],
      [
        "▁m",
        "ar"
      ],
      [
        "9",
        "9"
      ],
      [
        "▁cr",
        "it"
      ],
      [
        "▁3",
        "50"
      ],
      [
        "7",
        "00"
      ],
      [
        "ou",
        "gh"
      ],
      [
        "▁6",
        "9"
      ],
      [
        "▁m",
        "illion"
      ],
      [
        "-",
        "0"
      ],
      [
        "▁r",
        "ight"
      ],
      [
        "▁we",
        "b"
      ],
      [
        "▁201",
        "6"
      ],
      [
        "▁re",
        "ally"
      ],
      [
        "8",
        "3"
      ],
      [
        "▁18",
        "30"
      ],
      [
        "▁5",
        "0"
      ],
      [
        "================",
        "================"
      ],
      [
        "iv",
        "ed"
      ],
      [
        "▁---",
        "-"
      ],
      [
        "▁713",
        "/"
      ],
      [
        "▁wa",
        "it"
      ],
      [
        "as",
        "s"
      ],
      [
        "▁wh",
        "ite"
      ],
      [
        "▁s",
        "ort"
      ],
      [
        "▁120",
        ",000"
      ],
      [
        "f",
        "t"
      ],
      [
        "▁'",
        "d"
      ],
      [
        "▁girl",
        "s"
      ],
      [
        "t",
        "w"
      ],
      [
        "i",
        "um"
      ],
      [
        "▁02",
        "/2"
      ],
      [
        "u",
        "se"
      ],
      [
        "▁l",
        "ater"
      ],
      [
        "65",
        "-3"
      ],
      [
        "-",
        "27"
      ],
      [
        "▁u",
        "m"
      ],
      [
        "▁j",
        "ap"
      ],
      [
        "ed",
        "ie"
      ],
      [
        "▁1.",
        "00"
      ],
      [
        "l",
        "i"
      ],
      [
        "n",
        "ed"
      ],
      [
        "▁01",
        ":58"
      ],
      [
        "▁2,",
        "300"
      ],
      [
        "or",
        "k"
      ],
      [
        "7",
        "21"
      ],
      [
        "▁for",
        "ty"
      ],
      [
        "▁281-44",
        "3-3744"
      ],
      [
        "▁16",
        "5"
      ],
      [
        "c",
        "raft"
      ],
      [
        "▁11:3",
        "2"
      ],
      [
        "ans",
        "as"
      ],
      [
        "▁170",
        "1"
      ],
      [
        "▁04",
        ":37"
      ],
      [
        "u",
        "g"
      ],
      [
        "▁th",
        "rou"
      ],
      [
        "▁21",
        "2"
      ],
      [
        "▁12",
        "22"
      ],
      [
        "▁b",
        "ack"
      ],
      [
        "▁ne",
        "xt"
      ],
      [
        "▁f",
        "ing"
      ],
      [
        "▁t",
        "rans"
      ],
      [
        "▁a",
        "ch"
      ],
      [
        "air",
        "s"
      ],
      [
        "▁ang",
        "el"
      ],
      [
        "ou",
        "r"
      ],
      [
        "u",
        "b"
      ],
      [
        "▁an",
        "im"
      ],
      [
        "10",
        "9"
      ],
      [
        "▁814",
        ".86"
      ],
      [
        "o",
        "t"
      ],
      [
        "l",
        "es"
      ],
      [
        "/1",
        "1"
      ],
      [
        "▁m",
        "r"
      ],
      [
        "▁1.",
        "75"
      ],
      [
        "as",
        "on"
      ],
      [
        "g",
        "ami"
      ],
      [
        "▁13",
        "7"
      ],
      [
        "l",
        "d"
      ],
      [
        "▁us",
        "ed"
      ],
      [
        "▁06",
        "/01/2001"
      ],
      [
        "ill",
        "ion"
      ],
      [
        "▁dis",
        "pl"
      ],
      [
        "▁rep",
        "res"
      ],
      [
        "a",
        "il"
      ],
      [
        "ec",
        "k"
      ],
      [
        "▁11",
        ":0"
      ],
      [
        "▁to",
        "o"
      ],
      [
        "▁o",
        "r"
      ],
      [
        "▁120",
        "5"
      ],
      [
        "iv",
        "id"
      ],
      [
        "▁m",
        "akes"
      ],
      [
        "▁9",
        ":30"
      ],
      [
        "k",
        "ed"
      ],
      [
        "▁-----------------------------------------------------------------",
        "----"
      ],
      [
        "▁s",
        "t"
      ],
      [
        "▁y",
        "ork"
      ],
      [
        "▁8",
        "9"
      ],
      [
        "u",
        "s"
      ],
      [
        "▁turn",
        "ed"
      ],
      [
        "st",
        "on"
      ],
      [
        "▁lou",
        "is"
      ],
      [
        "▁",
        "~"
      ],
      [
        "▁197",
        "1"
      ],
      [
        "o",
        "u"
      ],
      [
        "▁d",
        "'"
      ],
      [
        "an",
        "k"
      ],
      [
        "▁3",
        "/8/00"
      ],
      [
        "▁52",
        "9999"
      ],
      [
        "▁!!!",
        "!"
      ],
      [
        "iss",
        "ion"
      ],
      [
        "o",
        "w"
      ],
      [
        "▁whe",
        "re"
      ],
      [
        ".7",
        "7"
      ],
      [
        "/1",
        "7/2000"
      ],
      [
        ",",
        "0"
      ],
      [
        "▁h",
        "u"
      ],
      [
        "/26",
        "/2001"
      ],
      [
        "▁fe",
        "el"
      ],
      [
        "ow",
        "n"
      ],
      [
        "▁-",
        "-"
      ],
      [
        "▁c",
        "red"
      ],
      [
        "ug",
        "ht"
      ],
      [
        "▁se",
        "en"
      ],
      [
        "/1",
        "5"
      ],
      [
        "▁4",
        ".6"
      ],
      [
        "▁29",
        "6"
      ],
      [
        "iz",
        "e"
      ],
      [
        "▁f",
        "ire"
      ],
      [
        "ul",
        "ts"
      ],
      [
        "▁com",
        "m"
      ],
      [
        "▁7",
        "50"
      ],
      [
        "at",
        "s"
      ],
      [
        "▁s",
        "w"
      ],
      [
        "il",
        "d"
      ],
      [
        "▁ph",
        "one"
      ],
      [
        "▁t",
        "o"
      ],
      [
        "j",
        "ects"
      ],
      [
        "8",
        "22"
      ],
      [
        "▁gener",
        "al"
      ],
      [
        "▁?",
        "!"
      ],
      [
        "▁54",
        ",000"
      ],
      [
        "▁197",
        "5"
      ],
      [
        "@",
        "ect"
      ],
      [
        "▁12",
        "0"
      ],
      [
        "▁kn",
        "ow"
      ],
      [
        "m",
        "ent"
      ],
      [
        "▁t",
        "ur"
      ],
      [
        "/200",
        "1"
      ],
      [
        "▁196",
        "2"
      ],
      [
        "▁31",
        "1"
      ],
      [
        "▁maj",
        "or"
      ],
      [
        "▁j",
        "e"
      ],
      [
        "▁o",
        "f"
      ],
      [
        "e",
        "en"
      ],
      [
        "▁18",
        ",000"
      ],
      [
        "-6",
        "25"
      ],
      [
        "▁re",
        "t"
      ],
      [
        "▁g",
        "r"
      ],
      [
        "29",
        "4-"
      ],
      [
        "▁198",
        "3"
      ],
      [
        "▁b",
        "us"
      ],
      [
        "▁2",
        ".15"
      ],
      [
        "a",
        "ff"
      ],
      [
        "▁h",
        "op"
      ],
      [
        "▁18",
        "1"
      ],
      [
        "us",
        "s"
      ],
      [
        "um",
        "p"
      ],
      [
        "▁sh",
        "op"
      ],
      [
        "▁159",
        "3"
      ],
      [
        "▁n",
        "and"
      ],
      [
        "▁earli",
        "est"
      ],
      [
        "omm",
        "end"
      ],
      [
        "r",
        "ic"
      ],
      [
        "▁http://www",
        "."
      ],
      [
        "am",
        "s"
      ],
      [
        "ang",
        "e"
      ],
      [
        "in",
        "c"
      ],
      [
        "▁friend",
        "s"
      ],
      [
        "▁09",
        ":45"
      ],
      [
        "-0",
        "295"
      ],
      [
        "▁5",
        "00"
      ],
      [
        "un",
        "d"
      ],
      [
        "▁we",
        "ther"
      ],
      [
        "▁i",
        "t"
      ],
      [
        "▁01",
        "/25/2001"
      ],
      [
        "▁6",
        "20-"
      ],
      [
        "0",
        "0"
      ],
      [
        "▁ha",
        "pp"
      ],
      [
        "in",
        "ed"
      ],
      [
        "40",
        "14"
      ],
      [
        "▁’",
        "’"
      ],
      [
        "▁l",
        "ook"
      ],
      [
        ".2",
        "5"
      ],
      [
        "▁09",
        ":14"
      ],
      [
        "▁p",
        "ark"
      ],
      [
        "d",
        "ay"
      ],
      [
        "▁37",
        "24"
      ],
      [
        "/200",
        "5"
      ],
      [
        "▁04",
        "/2"
      ],
      [
        "▁31",
        "5"
      ],
      [
        "o",
        "st"
      ],
      [
        "▁48",
        "3"
      ],
      [
        "▁auth",
        "or"
      ],
      [
        "▁t",
        "ast"
      ],
      [
        "pl",
        "oy"
      ],
      [
        "▁202.456",
        ".2461"
      ],
      [
        "m",
        "em"
      ],
      [
        "▁l",
        "ad"
      ],
      [
        "▁l",
        "ine"
      ],
      [
        "▁d",
        "est"
      ],
      [
        "▁al",
        "right"
      ],
      [
        "▁18",
        "5"
      ],
      [
        "r",
        "act"
      ],
      [
        "▁?",
        "?"
      ],
      [
        "▁transport",
        "ation"
      ],
      [
        "l",
        "y"
      ],
      [
        "▁den",
        "ver"
      ],
      [
        "▁p",
        "it"
      ],
      [
        "ur",
        "n"
      ],
      [
        "▁se",
        "e"
      ],
      [
        "8",
        "0"
      ],
      [
        "l",
        "a"
      ],
      [
        "▁201",
        "3"
      ],
      [
        ":3",
        "2"
      ],
      [
        "▁tr",
        "uck"
      ],
      [
        "▁r",
        "ele"
      ],
      [
        "▁m",
        "ich"
      ],
      [
        "▁ty",
        "p"
      ],
      [
        "▁r",
        "ul"
      ],
      [
        "▁3",
        ".2"
      ],
      [
        "▁",
        "]"
      ],
      [
        "▁6",
        "46"
      ],
      [
        "▁al",
        "ways"
      ],
      [
        "▁kid",
        "s"
      ],
      [
        "▁it",
        "self"
      ],
      [
        "▁p",
        "art"
      ],
      [
        "ent",
        "ly"
      ],
      [
        "▁60",
        ",000"
      ],
      [
        "il",
        "ity"
      ],
      [
        ":",
        "00"
      ],
      [
        "m",
        "er"
      ],
      [
        "▁pos",
        "t"
      ],
      [
        "▁polit",
        "ical"
      ],
      [
        "▁re",
        "port"
      ],
      [
        "ea",
        "p"
      ],
      [
        "▁la",
        "ur"
      ],
      [
        "*",
        "*"
      ],
      [
        "▁",
        "m"
      ],
      [
        "▁thir",
        "d"
      ],
      [
        "e",
        "f"
      ],
      [
        "c",
        "uz"
      ],
      [
        "-",
        "9"
      ],
      [
        "en",
        "c"
      ],
      [
        "▁char",
        "l"
      ],
      [
        "▁c",
        "amp"
      ],
      [
        "t",
        "ride"
      ],
      [
        "▁b",
        "en"
      ],
      [
        "ens",
        "ive"
      ],
      [
        "****",
        "****"
      ],
      [
        "▁m",
        "y"
      ],
      [
        "▁su",
        "re"
      ],
      [
        "w",
        "au"
      ],
      [
        "▁6",
        "50"
      ],
      [
        "▁",
        "qu"
      ],
      [
        "o",
        "ver"
      ],
      [
        "▁be",
        "c"
      ],
      [
        "▁fav",
        "or"
      ],
      [
        "▁wh",
        "i"
      ],
      [
        "▁158",
        "5"
      ],
      [
        "▁les",
        "t"
      ],
      [
        "or",
        "n"
      ],
      [
        ",",
        "00"
      ],
      [
        "▁o",
        "ut"
      ],
      [
        "▁m",
        "o"
      ],
      [
        "id",
        "ay"
      ],
      [
        "i",
        "ght"
      ],
      [
        "▁re",
        "st"
      ],
      [
        "▁up",
        "on"
      ],
      [
        ":",
        "21"
      ],
      [
        "▁com",
        "es"
      ],
      [
        "▁inter",
        "n"
      ],
      [
        "▁count",
        "ries"
      ],
      [
        "▁4",
        ".0"
      ],
      [
        "▁196",
        "5"
      ],
      [
        "▁2",
        ":00"
      ],
      [
        "are",
        "d"
      ],
      [
        "oo",
        "se"
      ],
      [
        "4",
        "/2001"
      ],
      [
        "2",
        "/2000"
      ],
      [
        "▁t",
        "ou"
      ],
      [
        "▁07",
        ":24"
      ],
      [
        "▁a",
        "ust"
      ],
      [
        "om",
        "e"
      ],
      [
        "▁prod",
        "uct"
      ],
      [
        "-6",
        "42"
      ],
      [
        "▁de",
        "f"
      ],
      [
        "▁3",
        "45"
      ],
      [
        "▁713-853-",
        "1696"
      ],
      [
        "▁f",
        "am"
      ],
      [
        "▁",
        "j"
      ],
      [
        "▁p",
        "al"
      ],
      [
        "▁contin",
        "ental"
      ],
      [
        "▁f",
        "ri"
      ],
      [
        "▁o",
        "ur"
      ],
      [
        "▁proble",
        "m"
      ],
      [
        "i",
        "ble"
      ],
      [
        "▁pl",
        "ace"
      ],
      [
        "▁est",
        "ablish"
      ],
      [
        "▁1",
        ","
      ],
      [
        "▁2",
        ":30"
      ],
      [
        "▁rev",
        "iew"
      ],
      [
        "▁p",
        "ull"
      ],
      [
        "▁12",
        "00"
      ],
      [
        "▁inv",
        "est"
      ],
      [
        "▁aft",
        "er"
      ],
      [
        "▁diff",
        "icult"
      ],
      [
        "▁m",
        "an"
      ],
      [
        "▁41",
        "5"
      ],
      [
        "▁r",
        "un"
      ],
      [
        "it",
        "ch"
      ],
      [
        "▁o",
        "l"
      ],
      [
        "▁six",
        "teen"
      ],
      [
        "▁our",
        "s"
      ],
      [
        "▁h",
        "uma"
      ],
      [
        "▁fun",
        "d"
      ],
      [
        "44",
        "9"
      ],
      [
        "ft",
        "en"
      ],
      [
        "ic",
        "e"
      ],
      [
        "a",
        "k"
      ],
      [
        "▁av",
        "ail"
      ],
      [
        "▁17",
        "76"
      ],
      [
        "ert",
        "ain"
      ],
      [
        "▁9",
        "4"
      ],
      [
        "▁20",
        ",000"
      ],
      [
        "/8",
        "/00"
      ],
      [
        "==",
        "="
      ],
      [
        "ea",
        "k"
      ],
      [
        "8",
        "80"
      ],
      [
        "▁15",
        "4"
      ],
      [
        "▁ex",
        "t"
      ],
      [
        "▁7",
        ".2"
      ],
      [
        "▁o",
        "p"
      ],
      [
        "ur",
        "s"
      ],
      [
        "▁yea",
        "h"
      ],
      [
        "▁",
        "end"
      ],
      [
        "▁d",
        "one"
      ],
      [
        "h",
        "aps"
      ],
      [
        "ic",
        "le"
      ],
      [
        ",",
        "9"
      ],
      [
        "▁2",
        ".3"
      ],
      [
        "▁748",
        "4"
      ],
      [
        "▁b",
        "e"
      ],
      [
        "▁y",
        "oun"
      ],
      [
        "▁mo",
        "ving"
      ],
      [
        "re",
        "t"
      ],
      [
        "▁g",
        "o"
      ],
      [
        "t",
        "c"
      ],
      [
        "in",
        "ts"
      ],
      [
        "▁198",
        "0"
      ],
      [
        "-8",
        "4"
      ],
      [
        "▁713",
        "-8"
      ],
      [
        "p",
        "s"
      ],
      [
        "t",
        "ed"
      ],
      [
        "▁202.456.1",
        "414"
      ],
      [
        "▁t",
        "w"
      ],
      [
        "w",
        "w"
      ],
      [
        "ts",
        "bur"
      ],
      [
        "▁her",
        "self"
      ],
      [
        "▁159",
        "0"
      ],
      [
        "▁3",
        ".1"
      ],
      [
        "▁d",
        "ie"
      ],
      [
        "▁sl",
        "ow"
      ],
      [
        "iet",
        "y"
      ],
      [
        "▁",
        "i"
      ],
      [
        "▁su",
        "ch"
      ],
      [
        "▁wor",
        "ds"
      ],
      [
        "id",
        "ence"
      ],
      [
        "▁c",
        "are"
      ],
      [
        "▁go",
        "t"
      ],
      [
        "8",
        "00"
      ],
      [
        "o",
        "re"
      ],
      [
        "▁c",
        "all"
      ],
      [
        "▁w",
        "il"
      ],
      [
        "▁pho",
        "enix"
      ],
      [
        "▁proper",
        "ty"
      ],
      [
        "▁4",
        ":50"
      ],
      [
        "▁orland",
        "o"
      ],
      [
        "s",
        "us"
      ],
      [
        "b",
        "r"
      ],
      [
        "▁wr",
        "ite"
      ],
      [
        "▁g",
        "l"
      ],
      [
        "▁ne",
        "ar"
      ],
      [
        "▁need",
        "ed"
      ],
      [
        "3",
        "4"
      ],
      [
        "▁160",
        "9"
      ],
      [
        "re",
        "w"
      ],
      [
        "▁18",
        "22"
      ],
      [
        "▁h",
        "am"
      ],
      [
        "▁mom",
        "ent"
      ],
      [
        "15",
        "-"
      ],
      [
        "▁sch",
        "ed"
      ],
      [
        "▁",
        "out"
      ],
      [
        "▁",
        "es"
      ],
      [
        "▁l",
        "as"
      ],
      [
        "▁'",
        "71"
      ],
      [
        "▁03",
        ":3"
      ],
      [
        "▁:",
        "("
      ],
      [
        "▁19",
        "20"
      ],
      [
        "3",
        "8"
      ],
      [
        "▁h",
        "tt"
      ],
      [
        "▁",
        "d"
      ],
      [
        "▁fi",
        "eld"
      ],
      [
        "▁w",
        "ife"
      ],
      [
        "00",
        "4"
      ],
      [
        "▁",
        "["
      ],
      [
        "▁l",
        "ong"
      ],
      [
        "ation",
        "al"
      ],
      [
        "87",
        "4"
      ],
      [
        "i",
        "al"
      ],
      [
        "▁l",
        "i"
      ],
      [
        "▁ke",
        "ep"
      ],
      [
        "▁may",
        "be"
      ],
      [
        "▁wed",
        "nesday"
      ],
      [
        "0",
        "9"
      ],
      [
        "▁per",
        "cent"
      ],
      [
        "-",
        "20-"
      ],
      [
        "▁t",
        "est"
      ],
      [
        "▁v",
        "ar"
      ],
      [
        "▁3",
        "6"
      ],
      [
        "r",
        "i"
      ],
      [
        "▁’",
        "ve"
      ],
      [
        "▁.",
        "?"
      ],
      [
        "▁comp",
        "le"
      ],
      [
        "▁9",
        "7"
      ],
      [
        "▁c",
        "r"
      ],
      [
        "▁ag",
        "re"
      ],
      [
        "▁seven",
        "teen"
      ],
      [
        "▁n",
        "ame"
      ],
      [
        "at",
        "ter"
      ],
      [
        "att",
        "le"
      ],
      [
        "▁min",
        "us"
      ],
      [
        "00",
        "72"
      ],
      [
        "▁no",
        "se"
      ],
      [
        "▁in",
        "clud"
      ],
      [
        "▁744",
        "19"
      ],
      [
        "▁03",
        ":48"
      ],
      [
        "t",
        "im"
      ],
      [
        "▁415.621",
        ".8317"
      ],
      [
        "▁in",
        "side"
      ],
      [
        "▁19",
        "18"
      ],
      [
        "▁act",
        "ion"
      ],
      [
        "▁ar",
        "ound"
      ],
      [
        "ac",
        "e"
      ],
      [
        "ant",
        "a"
      ],
      [
        "▁bl",
        "ue"
      ],
      [
        "an",
        "s"
      ],
      [
        "bo",
        "dy"
      ],
      [
        "2",
        "6"
      ],
      [
        "8",
        "9"
      ],
      [
        "▁e",
        "le"
      ],
      [
        ".7",
        "5"
      ],
      [
        "▁at",
        "t"
      ],
      [
        "▁s",
        "c"
      ],
      [
        "▁p",
        "ass"
      ],
      [
        "▁ab",
        "s"
      ],
      [
        "ment",
        "s"
      ],
      [
        "▁hot",
        "el"
      ],
      [
        "r",
        "ation"
      ],
      [
        "▁notwith",
        "stand"
      ],
      [
        "p",
        "h"
      ],
      [
        "▁21",
        "0"
      ],
      [
        "▁2",
        "20"
      ],
      [
        "53-3",
        "119"
      ],
      [
        "▁12",
        ":42"
      ],
      [
        "c",
        "il"
      ],
      [
        "▁perdu",
        "es"
      ],
      [
        "▁425",
        "-415-"
      ],
      [
        "7",
        "8"
      ],
      [
        "m",
        "m"
      ],
      [
        "▁twenty",
        "-"
      ],
      [
        "ou",
        "t"
      ],
      [
        "i",
        "g"
      ],
      [
        ":0",
        "3"
      ],
      [
        "▁4",
        "25"
      ],
      [
        ":1",
        "1"
      ],
      [
        "▁30",
        ",000"
      ],
      [
        "▁o",
        "'"
      ],
      [
        "========",
        "========"
      ],
      [
        "▁’",
        "ll"
      ],
      [
        "▁a",
        "cross"
      ],
      [
        "▁b",
        "ut"
      ],
      [
        "4",
        "99"
      ],
      [
        "▁>",
        ">"
      ],
      [
        "▁d",
        "c"
      ],
      [
        "▁paren",
        "ts"
      ],
      [
        "▁6",
        ".2"
      ],
      [
        "▁rece",
        "ived"
      ],
      [
        "i",
        "b"
      ],
      [
        "a",
        "ve"
      ],
      [
        "▁de",
        "p"
      ],
      [
        "▁talk",
        "ing"
      ],
      [
        "ot",
        "te"
      ],
      [
        "h",
        "a"
      ],
      [
        "▁p",
        "h"
      ],
      [
        "▁w",
        "ork"
      ],
      [
        ",000",
        ",000"
      ],
      [
        "g",
        "ed"
      ],
      [
        "▁183",
        "6"
      ],
      [
        "▁where",
        "as"
      ],
      [
        "▁08",
        "/0"
      ],
      [
        "▁http://",
        "www"
      ],
      [
        "▁fr",
        "anc"
      ],
      [
        "▁1",
        ":00"
      ],
      [
        "▁h",
        "ome"
      ],
      [
        "ect",
        "ion"
      ],
      [
        "▁",
        "ans"
      ],
      [
        "▁b",
        "ur"
      ],
      [
        "ation",
        "s"
      ],
      [
        "▁to",
        "day"
      ],
      [
        "i",
        "s"
      ],
      [
        "▁281",
        "-44"
      ],
      [
        "9",
        "/2000"
      ],
      [
        "l",
        "ing"
      ],
      [
        "▁n",
        "um"
      ],
      [
        "▁ear",
        "th"
      ],
      [
        "1",
        "4"
      ],
      [
        "▁s",
        "ch"
      ],
      [
        "▁det",
        "ail"
      ],
      [
        ":1",
        "5"
      ],
      [
        "end",
        "ing"
      ],
      [
        "▁b",
        "/"
      ],
      [
        "5",
        "7"
      ],
      [
        "▁1",
        ":30"
      ],
      [
        "▁re",
        "c"
      ],
      [
        "▁r",
        "ound"
      ],
      [
        "▁f",
        "av"
      ],
      [
        "▁b",
        "ow"
      ],
      [
        "e",
        "k"
      ],
      [
        "oc",
        "r"
      ],
      [
        "▁comp",
        "ut"
      ],
      [
        "ec",
        "h"
      ],
      [
        "▁us",
        "ually"
      ],
      [
        "▁ab",
        "ove"
      ],
      [
        "d",
        "r"
      ],
      [
        "▁at",
        "op"
      ],
      [
        "▁w",
        "ays"
      ],
      [
        "▁wh",
        "at"
      ],
      [
        "▁v",
        "is"
      ],
      [
        "▁ind",
        "ia"
      ],
      [
        "▁0",
        ".00"
      ],
      [
        "▁s",
        "im"
      ],
      [
        "▁al",
        "ber"
      ],
      [
        "▁add",
        "ress"
      ],
      [
        "▁",
        "y"
      ],
      [
        "▁7",
        "6"
      ],
      [
        "▁p",
        "ain"
      ],
      [
        "________",
        "________"
      ],
      [
        "▁",
        "a"
      ],
      [
        "▁2",
        "4"
      ],
      [
        "a",
        "n"
      ],
      [
        "▁e",
        "ff"
      ],
      [
        "re",
        "ct"
      ],
      [
        "▁+",
        "45"
      ],
      [
        "at",
        "ic"
      ],
      [
        "6",
        "7"
      ],
      [
        "es",
        "e"
      ],
      [
        "▁m",
        "ight"
      ],
      [
        "i",
        "on"
      ],
      [
        "▁be",
        "ach"
      ],
      [
        "is",
        "ing"
      ],
      [
        "▁3",
        "/4"
      ],
      [
        "-",
        "n"
      ],
      [
        "▁k",
        "ill"
      ],
      [
        "ow",
        "er"
      ],
      [
        "▁ent",
        "ire"
      ],
      [
        "▁713-8",
        "53"
      ],
      [
        "▁u",
        "nd"
      ],
      [
        "▁con",
        "t"
      ],
      [
        "s",
        "e"
      ],
      [
        "▁th",
        "y"
      ],
      [
        "▁count",
        "ry"
      ],
      [
        "▁under",
        "neath"
      ],
      [
        "▁",
        "("
      ],
      [
        "▁toward",
        "s"
      ],
      [
        "▁langu",
        "age"
      ],
      [
        "▁15",
        "30"
      ],
      [
        "d",
        "d"
      ],
      [
        "▁315-460-3",
        "3"
      ],
      [
        "▁410",
        "-468-3"
      ],
      [
        "b",
        "o"
      ],
      [
        "▁713-853",
        "-3989"
      ],
      [
        "ir",
        "l"
      ],
      [
        "▁co",
        "st"
      ],
      [
        ":",
        "20"
      ],
      [
        "▁l",
        "a"
      ],
      [
        "▁c",
        "ity"
      ],
      [
        "▁ch",
        "air"
      ],
      [
        "▁6",
        "19"
      ],
      [
        "r",
        "y"
      ],
      [
        "▁v",
        "iew"
      ],
      [
        "▁19",
        "7"
      ],
      [
        "k",
        "en"
      ],
      [
        "▁198",
        "9"
      ],
      [
        "r",
        "a"
      ],
      [
        "b",
        "ur"
      ],
      [
        "ic",
        "k"
      ],
      [
        "▁713-79",
        "3-"
      ],
      [
        "▁29587",
        "0"
      ],
      [
        "▁ro",
        "ck"
      ],
      [
        "▁cop",
        "y"
      ],
      [
        "▁b",
        "el"
      ],
      [
        "▁03/0",
        "2/2001"
      ],
      [
        "▁a",
        "f"
      ],
      [
        "▁",
        "…"
      ],
      [
        "t",
        "er"
      ],
      [
        "▁",
        "round"
      ],
      [
        "▁notwithstand",
        "ing"
      ],
      [
        "▁s",
        "ent"
      ],
      [
        "1",
        "7"
      ],
      [
        "ful",
        "ly"
      ],
      [
        "▁tr",
        "ale"
      ],
      [
        "'",
        "re"
      ],
      [
        "▁c",
        "a"
      ],
      [
        "▁pr",
        "op"
      ],
      [
        "▁e",
        "p"
      ],
      [
        "▁415",
        ".621"
      ],
      [
        "▁’",
        "s"
      ],
      [
        "-",
        "23"
      ],
      [
        "▁be",
        "fore"
      ],
      [
        "▁6",
        ".1"
      ],
      [
        "▁718",
        "-780"
      ],
      [
        "▁off",
        "ic"
      ],
      [
        "▁202.456",
        ".1"
      ],
      [
        "▁19",
        "29"
      ],
      [
        "▁c",
        "o"
      ],
      [
        "▁e",
        "ast"
      ],
      [
        ":5",
        "1"
      ],
      [
        "▁5",
        "8"
      ],
      [
        "▁cour",
        "se"
      ],
      [
        "▁18",
        "00"
      ],
      [
        "▁9",
        "2"
      ],
      [
        "a",
        "g"
      ],
      [
        "▁c",
        "ult"
      ],
      [
        "▁aw",
        "oh"
      ],
      [
        "▁ha",
        "d"
      ],
      [
        "▁16",
        "99"
      ],
      [
        "▁g",
        "ive"
      ],
      [
        "▁forty-",
        "eight"
      ],
      [
        "▁2",
        "7"
      ],
      [
        "▁ex",
        "am"
      ],
      [
        "n",
        "e"
      ],
      [
        "a",
        "b"
      ],
      [
        "u",
        "m"
      ],
      [
        "▁",
        "ant"
      ],
      [
        "▁plac",
        "es"
      ],
      [
        "▁every",
        "thing"
      ],
      [
        "▁201",
        "9"
      ],
      [
        ":",
        "24"
      ],
      [
        "i",
        "v"
      ],
      [
        "▁co",
        "ver"
      ],
      [
        "▁",
        "—"
      ],
      [
        "/03",
        "/2001"
      ],
      [
        "ad",
        "e"
      ],
      [
        "v",
        "ed"
      ],
      [
        "▁17",
        "0"
      ],
      [
        "819",
        "6021"
      ],
      [
        "▁p",
        "ict"
      ],
      [
        "ke",
        "e"
      ],
      [
        "▁c",
        "an"
      ],
      [
        "▁18",
        "75"
      ],
      [
        "id",
        "d"
      ],
      [
        "al",
        "th"
      ],
      [
        "a",
        "s"
      ],
      [
        "▁ad",
        "d"
      ],
      [
        ":5",
        "5"
      ],
      [
        "▁18",
        "21"
      ],
      [
        "▁!",
        "?"
      ],
      [
        "olog",
        "y"
      ],
      [
        "ut",
        "ions"
      ],
      [
        "▁th",
        "at"
      ],
      [
        "▁energ",
        "y"
      ],
      [
        "▁o",
        "ct"
      ],
      [
        "▁ec",
        "onom"
      ],
      [
        "▁l",
        "at"
      ],
      [
        "▁cont",
        "in"
      ],
      [
        "um",
        "a"
      ],
      [
        "ec",
        "ts"
      ],
      [
        "▁'",
        "re"
      ],
      [
        "▁11",
        "-20-"
      ],
      [
        "-5",
        "18"
      ],
      [
        "▁---------------------------------",
        "--------------------------------"
      ],
      [
        "▁183",
        "3"
      ],
      [
        "k",
        "e"
      ],
      [
        "▁d",
        "em"
      ],
      [
        "▁g",
        "ood"
      ],
      [
        "h",
        "t"
      ],
      [
        "▁con",
        "st"
      ],
      [
        "3",
        "2"
      ],
      [
        "▁al",
        "be"
      ],
      [
        "▁11:0",
        "7"
      ],
      [
        "▁t",
        "om"
      ],
      [
        "▁m",
        "ake"
      ],
      [
        "c",
        "k"
      ],
      [
        "▁2",
        ".7"
      ],
      [
        "▁qu",
        "est"
      ],
      [
        "▁s",
        "er"
      ],
      [
        "-46",
        "0-3"
      ],
      [
        "▁ph",
        "ot"
      ],
      [
        "▁mom",
        "my"
      ],
      [
        "▁37",
        "3"
      ],
      [
        "▁510",
        "-642"
      ],
      [
        "▁c",
        "at"
      ],
      [
        "▁mic",
        "ro"
      ],
      [
        "d",
        "y"
      ],
      [
        "▁pe",
        "op"
      ],
      [
        "▁d",
        "inner"
      ],
      [
        "▁imp",
        "ro"
      ],
      [
        "▁15",
        ",000"
      ],
      [
        "▁m",
        "ag"
      ],
      [
        "▁youn",
        "g"
      ],
      [
        "▁800.713.86",
        "00"
      ],
      [
        "▁thr",
        "u"
      ],
      [
        "ac",
        "k"
      ],
      [
        "▁htt",
        "p"
      ],
      [
        "am",
        "m"
      ],
      [
        "▁9",
        "1"
      ],
      [
        "▁a",
        "ff"
      ],
      [
        "▁n",
        "www"
      ],
      [
        "▁ben",
        "ef"
      ],
      [
        "▁u",
        "se"
      ],
      [
        "g",
        "er"
      ],
      [
        "i",
        "ate"
      ],
      [
        "▁",
        "own"
      ],
      [
        "▁713-853-",
        "3098"
      ],
      [
        "as",
        "es"
      ],
      [
        "▁ne",
        "ither"
      ],
      [
        "▁38",
        "89"
      ],
      [
        "▁st",
        "ates"
      ],
      [
        "▁18",
        "78"
      ],
      [
        "▁th",
        "ink"
      ],
      [
        "▁en",
        "erg"
      ],
      [
        "th",
        "er"
      ],
      [
        "▁l",
        "ink"
      ],
      [
        "en",
        "ix"
      ],
      [
        "▁11",
        ":3"
      ],
      [
        "e",
        "n"
      ],
      [
        "▁se",
        "x"
      ],
      [
        "▁05",
        "/30/2001"
      ],
      [
        "7",
        "2"
      ],
      [
        "▁n",
        "umer"
      ],
      [
        "▁vs",
        "."
      ],
      [
        "▁1",
        "4"
      ],
      [
        "er",
        "n"
      ],
      [
        "ir",
        "t"
      ],
      [
        "u",
        "z"
      ],
      [
        "u",
        "r"
      ],
      [
        "▁36",
        "6"
      ],
      [
        "▁1,",
        "200"
      ],
      [
        "ist",
        "an"
      ],
      [
        "s",
        "p"
      ],
      [
        "u",
        "th"
      ],
      [
        "▁start",
        "ed"
      ],
      [
        "▁in",
        "t"
      ],
      [
        "i",
        "pp"
      ],
      [
        "iv",
        "ely"
      ],
      [
        "▁",
        "€"
      ],
      [
        "4",
        "8"
      ],
      [
        "▁d",
        "ress"
      ],
      [
        "a",
        "ir"
      ],
      [
        "a",
        "h"
      ],
      [
        "▁202.456.1",
        "111"
      ],
      [
        "g",
        "ress"
      ],
      [
        "▁1-800",
        "-991-9"
      ],
      [
        "▁9",
        "5"
      ],
      [
        "igh",
        "t"
      ],
      [
        "h",
        "ing"
      ],
      [
        "22",
        ",000"
      ],
      [
        "▁jun",
        "e"
      ],
      [
        "▁",
        ".3"
      ],
      [
        "▁hist",
        "ory"
      ],
      [
        "ig",
        "ht"
      ],
      [
        "▁t",
        "im"
      ],
      [
        "ce",
        "pt"
      ],
      [
        "▁be",
        "en"
      ],
      [
        "▁17",
        "80"
      ],
      [
        "▁",
        "u"
      ],
      [
        "▁g",
        "one"
      ],
      [
        "▁fin",
        "ally"
      ],
      [
        "▁gr",
        "ow"
      ],
      [
        "▁y",
        "et"
      ],
      [
        "▁some",
        "one"
      ],
      [
        "▁195",
        "8"
      ],
      [
        "▁t",
        "ell"
      ],
      [
        "er",
        "al"
      ],
      [
        "▁2",
        "30"
      ],
      [
        "ust",
        "om"
      ],
      [
        "▁f",
        "ro"
      ],
      [
        ":",
        "13"
      ],
      [
        "▁a",
        "p"
      ],
      [
        "p",
        "ite"
      ],
      [
        "5",
        ",000"
      ],
      [
        "u",
        "es"
      ],
      [
        "▁",
        "`s"
      ],
      [
        "▁n",
        "’t"
      ],
      [
        "▁qu",
        "inn"
      ],
      [
        "o",
        "ice"
      ],
      [
        "u",
        "ation"
      ],
      [
        "▁it",
        "s"
      ],
      [
        "u",
        "d"
      ],
      [
        "▁96",
        "9"
      ],
      [
        "5",
        "1"
      ],
      [
        "▁26",
        "8"
      ],
      [
        "1",
        "2"
      ],
      [
        "▁somet",
        "hing"
      ],
      [
        "▁f",
        "ar"
      ],
      [
        "▁f",
        "or"
      ],
      [
        "▁is",
        "rael"
      ],
      [
        "a",
        "v"
      ],
      [
        "60",
        "21"
      ],
      [
        "▁150",
        ",000"
      ],
      [
        "al",
        "ity"
      ],
      [
        "▁3",
        ".5"
      ],
      [
        "▁for",
        "ward"
      ],
      [
        "▁17",
        "00"
      ],
      [
        "▁70",
        "3"
      ],
      [
        "▁ke",
        "y"
      ],
      [
        "▁nine",
        "ty"
      ],
      [
        "▁h",
        "ol"
      ],
      [
        "at",
        "es"
      ],
      [
        "▁compan",
        "y"
      ],
      [
        "r",
        "aph"
      ],
      [
        "▁sugg",
        "est"
      ],
      [
        "r",
        "u"
      ],
      [
        "▁y",
        "ester"
      ],
      [
        "▁11/2",
        "8/2000"
      ],
      [
        "▁f",
        "all"
      ],
      [
        "▁s",
        "ol"
      ],
      [
        "/",
        "99"
      ],
      [
        "▁d",
        "oo"
      ],
      [
        "▁0",
        "4"
      ],
      [
        "▁m",
        "ed"
      ],
      [
        "▁e",
        "ight"
      ],
      [
        "▁jo",
        "hn"
      ],
      [
        "▁00",
        "0010"
      ],
      [
        "▁13",
        "00"
      ],
      [
        "6",
        "1"
      ],
      [
        "▁2",
        "2"
      ],
      [
        "el",
        "f"
      ],
      [
        "▁b",
        "n"
      ],
      [
        "▁thirty-",
        "five"
      ],
      [
        "am",
        "i"
      ],
      [
        "el",
        "e"
      ],
      [
        "▁1",
        "7"
      ],
      [
        "5",
        "5"
      ],
      [
        "▁st",
        "at"
      ],
      [
        "ic",
        "al"
      ],
      [
        "le",
        "ct"
      ],
      [
        "▁1160",
        "8"
      ],
      [
        "▁0",
        "8"
      ],
      [
        "▁b",
        "ac"
      ],
      [
        "it",
        "e"
      ],
      [
        "▁9",
        "32"
      ],
      [
        "▁g",
        "re"
      ],
      [
        "▁j",
        "un"
      ],
      [
        "f",
        "or"
      ],
      [
        "-",
        "59"
      ],
      [
        "▁res",
        "ult"
      ],
      [
        "▁br",
        "ing"
      ],
      [
        "▁em",
        "ploy"
      ],
      [
        "▁es",
        "p"
      ],
      [
        "▁lea",
        "st"
      ],
      [
        "▁th",
        "ing"
      ],
      [
        "▁s",
        "and"
      ],
      [
        "e",
        "s"
      ],
      [
        "▁sa",
        "ve"
      ],
      [
        "▁18",
        "71"
      ],
      [
        "▁150",
        "5"
      ],
      [
        "▁",
        "================================"
      ],
      [
        "▁look",
        "s"
      ],
      [
        "am",
        "es"
      ],
      [
        "er",
        "s"
      ],
      [
        "▁des",
        "c"
      ],
      [
        "ra",
        "w"
      ],
      [
        "▁in",
        "st"
      ],
      [
        "▁h",
        "ot"
      ],
      [
        "▁f",
        "r"
      ],
      [
        "▁peop",
        "le"
      ],
      [
        "res",
        "s"
      ],
      [
        "▁b",
        "al"
      ],
      [
        "▁300",
        ",000"
      ],
      [
        "▁ne",
        "w"
      ],
      [
        "▁19",
        "1"
      ],
      [
        "▁9",
        "44"
      ],
      [
        "▁17",
        "87"
      ],
      [
        "▁po",
        "st"
      ],
      [
        "▁jo",
        "b"
      ],
      [
        "▁al",
        "ong"
      ],
      [
        "▁the",
        "re"
      ],
      [
        "6",
        "5"
      ],
      [
        "ver",
        "n"
      ],
      [
        "3",
        "3"
      ],
      [
        "▁har",
        "ry"
      ],
      [
        "▁[",
        "..."
      ],
      [
        "▁en",
        "ough"
      ],
      [
        "▁twenty-",
        "six"
      ],
      [
        "is",
        "_0"
      ],
      [
        "▁who",
        "se"
      ],
      [
        "▁8",
        "1"
      ],
      [
        "v",
        "er"
      ],
      [
        "▁pit",
        "tsbur"
      ],
      [
        "▁t",
        "em"
      ],
      [
        "▁e",
        "."
      ],
      [
        "▁c",
        "op"
      ],
      [
        "1",
        "1"
      ],
      [
        "ak",
        "en"
      ],
      [
        "▁ach",
        "ie"
      ],
      [
        "▁th",
        "ought"
      ],
      [
        "▁l",
        "unch"
      ],
      [
        "ol",
        "ution"
      ],
      [
        "▁beaut",
        "iful"
      ],
      [
        "▁5",
        "6"
      ],
      [
        "0",
        "/2000"
      ],
      [
        "▁o",
        "ther"
      ],
      [
        "▁h",
        "ar"
      ],
      [
        "▁h",
        "or"
      ],
      [
        "▁fut",
        "ure"
      ],
      [
        "▁pro",
        "ble"
      ],
      [
        "▁min",
        "ute"
      ],
      [
        "▁12",
        "/26/2000"
      ],
      [
        "i",
        "ence"
      ],
      [
        "▁mo",
        "ve"
      ],
      [
        "▁687",
        "1082"
      ],
      [
        "▁",
        "ang"
      ],
      [
        "ain",
        "ing"
      ],
      [
        "▁prob",
        "ably"
      ],
      [
        "a",
        "pp"
      ],
      [
        "▁19",
        "5"
      ],
      [
        "▁de",
        "re"
      ],
      [
        "▁r",
        "es"
      ],
      [
        "▁19",
        "40"
      ],
      [
        "▁p",
        "m"
      ],
      [
        "▁3",
        ".8"
      ],
      [
        "▁o'",
        "clock"
      ],
      [
        "▁angel",
        "es"
      ],
      [
        "▁dat",
        "a"
      ],
      [
        "▁mil",
        "it"
      ],
      [
        "sel",
        "ves"
      ],
      [
        "▁2",
        "1"
      ],
      [
        "▁23",
        "8"
      ],
      [
        "▁t",
        "er"
      ],
      [
        "rou",
        "nd"
      ],
      [
        "ic",
        "s"
      ],
      [
        "or",
        "m"
      ],
      [
        "▁f",
        "ollow"
      ],
      [
        "▁do",
        "or"
      ],
      [
        "8",
        "/2000"
      ],
      [
        "▁8",
        "5"
      ],
      [
        "▁att",
        "ention"
      ],
      [
        "▁9",
        "22"
      ],
      [
        "1",
        "5"
      ],
      [
        "▁8",
        "25"
      ],
      [
        "▁03",
        "/2"
      ],
      [
        "▁713-654-128",
        "1"
      ],
      [
        "d",
        "u"
      ],
      [
        "11",
        "1"
      ],
      [
        "▁",
        "g"
      ],
      [
        "▁yester",
        "day"
      ],
      [
        "▁s",
        "en"
      ],
      [
        "-7",
        "80"
      ],
      [
        "▁calif",
        "orn"
      ],
      [
        "▁e",
        "x"
      ],
      [
        "▁sp",
        "eak"
      ],
      [
        "▁inv",
        "ol"
      ],
      [
        "▁7",
        "27"
      ],
      [
        "k",
        "k"
      ],
      [
        "▁",
        "ide"
      ],
      [
        "▁some",
        "body"
      ],
      [
        "▁",
        "4"
      ],
      [
        "▁b",
        "ul"
      ],
      [
        "▁want",
        "s"
      ],
      [
        "in",
        "ess"
      ],
      [
        "▁200",
        "4"
      ],
      [
        "▁1.",
        "3"
      ],
      [
        "▁ty",
        "pe"
      ],
      [
        "▁20",
        ":00"
      ],
      [
        "▁d",
        "en"
      ],
      [
        "▁2",
        "5"
      ],
      [
        "▁gen",
        "er"
      ],
      [
        "fi",
        "ve"
      ],
      [
        "▁o",
        "ak"
      ],
      [
        "▁rec",
        "ommend"
      ],
      [
        "-",
        "10"
      ],
      [
        "▁long",
        "er"
      ],
      [
        "▁75",
        "9933"
      ],
      [
        "▁bo",
        "x"
      ],
      [
        "0",
        "19"
      ],
      [
        "f",
        "f"
      ],
      [
        "▁o",
        "cc"
      ],
      [
        "f",
        "e"
      ],
      [
        "▁n",
        "orm"
      ],
      [
        "4",
        "14"
      ],
      [
        "@",
        "enron"
      ],
      [
        "▁10",
        "2"
      ],
      [
        "▁who",
        "ever"
      ],
      [
        "▁sh",
        "akes"
      ],
      [
        "▁1",
        "30"
      ],
      [
        "▁197",
        "4"
      ],
      [
        "en",
        "ty"
      ],
      [
        "▁16",
        "60"
      ],
      [
        "d",
        "ing"
      ],
      [
        "▁h",
        "ere"
      ],
      [
        ",",
        "6"
      ],
      [
        "▁me",
        "as"
      ],
      [
        "▁3",
        "47"
      ],
      [
        "e",
        "ther"
      ],
      [
        "▁27",
        "0"
      ],
      [
        "▁tw",
        "enty"
      ],
      [
        "el",
        "l"
      ],
      [
        "▁w",
        "on"
      ],
      [
        "-9",
        "004"
      ],
      [
        "▁seven",
        "ty"
      ],
      [
        "▁l",
        "ake"
      ],
      [
        "▁3",
        ","
      ],
      [
        "▁197",
        "8"
      ],
      [
        "am",
        "a"
      ],
      [
        "▁pre",
        "v"
      ],
      [
        "▁19",
        "32"
      ],
      [
        "8",
        "19"
      ],
      [
        "▁sp",
        "ec"
      ],
      [
        "▁develop",
        "ment"
      ],
      [
        "▁n",
        "on"
      ],
      [
        "▁h",
        "is"
      ],
      [
        "f",
        "our"
      ],
      [
        "▁no",
        "-6"
      ],
      [
        "▁su",
        "ff"
      ],
      [
        "▁16",
        "13"
      ],
      [
        "el",
        "p"
      ],
      [
        "▁litt",
        "le"
      ],
      [
        "▁he",
        "alth"
      ],
      [
        "▁",
        "\""
      ],
      [
        "ic",
        "h"
      ],
      [
        "▁ju",
        "ly"
      ],
      [
        "/01",
        "/2001"
      ],
      [
        "4",
        "6"
      ],
      [
        "▁per",
        "iod"
      ],
      [
        "▁h",
        "e"
      ],
      [
        "▁01/1",
        "9/2001"
      ],
      [
        "▁10",
        "/31"
      ],
      [
        "▁m",
        "em"
      ],
      [
        "s",
        "."
      ],
      [
        "▁pro",
        "gr"
      ],
      [
        "▁env",
        "iron"
      ],
      [
        "▁19",
        "44"
      ],
      [
        "▁st",
        "op"
      ],
      [
        "/11",
        "/2004"
      ],
      [
        "▁",
        "_"
      ],
      [
        "▁s",
        "e"
      ],
      [
        "o",
        "le"
      ],
      [
        "ent",
        "al"
      ],
      [
        "▁4",
        ":00"
      ],
      [
        "▁p",
        "i"
      ],
      [
        "▁?",
        "????"
      ],
      [
        "▁.",
        "doc"
      ],
      [
        "▁sp",
        "ace"
      ],
      [
        "▁man",
        "ag"
      ],
      [
        "▁t",
        "ook"
      ],
      [
        "▁02",
        "/13/2001"
      ],
      [
        "▁",
        "7"
      ],
      [
        "i",
        "qu"
      ],
      [
        "----",
        "--"
      ],
      [
        "▁t",
        "ra"
      ],
      [
        "▁f",
        "ut"
      ],
      [
        "▁17",
        "90"
      ],
      [
        "▁200",
        "7"
      ],
      [
        "▁sh",
        "ip"
      ],
      [
        "enc",
        "es"
      ],
      [
        "----------------",
        "----------------"
      ],
      [
        "▁s",
        "le"
      ],
      [
        "▁what",
        "ever"
      ],
      [
        "▁for",
        "m"
      ],
      [
        "▁d",
        "e"
      ],
      [
        "▁4",
        ":30"
      ],
      [
        "▁summ",
        "er"
      ],
      [
        "▁:",
        ")"
      ],
      [
        "c",
        "ond"
      ],
      [
        "▁f",
        "o"
      ],
      [
        "▁h",
        "our"
      ],
      [
        "2",
        "9"
      ],
      [
        "▁e",
        "lect"
      ],
      [
        "▁m",
        "er"
      ],
      [
        "▁a",
        "ll"
      ],
      [
        "as",
        "t"
      ],
      [
        "▁an",
        "n"
      ],
      [
        "▁",
        "ir"
      ],
      [
        "3",
        "0"
      ],
      [
        "▁fi",
        "le"
      ],
      [
        "▁s",
        "our"
      ],
      [
        "▁quest",
        "ion"
      ],
      [
        "id",
        "ing"
      ],
      [
        "▁s",
        "il"
      ],
      [
        "▁ta",
        "x"
      ],
      [
        "▁det",
        "er"
      ],
      [
        "▁a",
        "par"
      ],
      [
        "▁pro",
        "b"
      ],
      [
        "▁f",
        "ur"
      ],
      [
        "▁197",
        "7"
      ],
      [
        "▁ou",
        "ts"
      ],
      [
        "g",
        "le"
      ],
      [
        "▁05",
        ":37"
      ],
      [
        "▁19",
        "49"
      ],
      [
        "~*",
        "~*"
      ],
      [
        "if",
        "ied"
      ],
      [
        "ol",
        "d"
      ],
      [
        "▁a",
        "n"
      ],
      [
        "▁al",
        "l"
      ],
      [
        "/",
        "4"
      ],
      [
        "▁01:39",
        ":56"
      ],
      [
        "a",
        "q"
      ],
      [
        "00",
        "0"
      ],
      [
        ":",
        "40"
      ],
      [
        "▁19",
        "26"
      ],
      [
        "▁f",
        "l"
      ],
      [
        "▁di",
        "ff"
      ],
      [
        "▁l",
        "os"
      ],
      [
        "▁thir",
        "teen"
      ],
      [
        "▁5",
        "3"
      ],
      [
        "▁progr",
        "amm"
      ],
      [
        ".8",
        "5"
      ],
      [
        "▁re",
        "f"
      ],
      [
        "on",
        "s"
      ],
      [
        "▁proble",
        "ms"
      ],
      [
        "ang",
        "er"
      ],
      [
        "▁in",
        "c"
      ],
      [
        "▁h",
        "ope"
      ],
      [
        ".",
        "4"
      ],
      [
        "▁e",
        "c"
      ],
      [
        "▁se",
        "em"
      ],
      [
        "▁an",
        "al"
      ],
      [
        "r",
        "os"
      ],
      [
        "▁7",
        "47"
      ],
      [
        "▁val",
        "ue"
      ],
      [
        "▁th",
        "ir"
      ],
      [
        "▁indian",
        "apolis"
      ],
      [
        "▁158",
        "4"
      ],
      [
        "-8",
        "031"
      ],
      [
        "▁air",
        "craft"
      ],
      [
        "▁646",
        "-84"
      ],
      [
        "▁s",
        "ame"
      ],
      [
        "▁a",
        "ct"
      ],
      [
        "▁c",
        "am"
      ],
      [
        "▁after",
        "noon"
      ],
      [
        "v",
        "iat"
      ],
      [
        "ri",
        "st"
      ],
      [
        "▁1",
        ",000"
      ],
      [
        "▁milwau",
        "kee"
      ],
      [
        "▁re",
        "le"
      ],
      [
        "????????",
        "????????"
      ],
      [
        "c",
        "h"
      ],
      [
        "um",
        "my"
      ],
      [
        "▁0",
        "2"
      ],
      [
        "▁",
        "v"
      ],
      [
        "▁i",
        "f"
      ],
      [
        "ond",
        "on"
      ],
      [
        "▁f",
        "oc"
      ],
      [
        "7",
        "0"
      ],
      [
        "▁albe",
        "it"
      ],
      [
        "▁158",
        "8"
      ],
      [
        "ent",
        "s"
      ],
      [
        "▁1",
        "1"
      ],
      [
        "▁me",
        "ans"
      ],
      [
        "▁d",
        "ist"
      ],
      [
        "▁6871082",
        "#"
      ],
      [
        "u",
        "t"
      ],
      [
        "▁156",
        "1"
      ],
      [
        "▁ab",
        "out"
      ],
      [
        "▁01",
        ":14"
      ],
      [
        "▁196",
        "8"
      ],
      [
        "▁20",
        "20"
      ],
      [
        "an",
        "d"
      ],
      [
        "v",
        "en"
      ],
      [
        "i",
        "z"
      ],
      [
        "i",
        "r"
      ],
      [
        "▁5/1",
        "8"
      ],
      [
        "ac",
        "h"
      ],
      [
        "as",
        "ing"
      ],
      [
        "▁’",
        "m"
      ],
      [
        "▁ch",
        "eck"
      ],
      [
        "▁g",
        "er"
      ],
      [
        "▁y",
        "ea"
      ],
      [
        "▁09/16",
        "/99"
      ],
      [
        "▁won",
        "der"
      ],
      [
        "i",
        "th"
      ],
      [
        ":",
        "3"
      ],
      [
        "es",
        "s"
      ],
      [
        "▁pres",
        "ident"
      ],
      [
        "j",
        "www"
      ],
      [
        "i",
        "i"
      ],
      [
        "▁bac",
        "k"
      ],
      [
        "!",
        "?"
      ],
      [
        "▁li",
        "ving"
      ],
      [
        "at",
        "t"
      ],
      [
        "st",
        "op"
      ],
      [
        "▁w",
        "ould"
      ],
      [
        "▁sh",
        "o"
      ],
      [
        "▁6",
        ".8"
      ],
      [
        "▁",
        "id"
      ],
      [
        "un",
        "ic"
      ],
      [
        "▁b",
        "ear"
      ],
      [
        "f",
        "ast"
      ],
      [
        "▁1",
        "5"
      ],
      [
        "it",
        "t"
      ],
      [
        "▁199",
        "4"
      ],
      [
        "▁h",
        "ur"
      ],
      [
        "▁act",
        "iv"
      ],
      [
        "▁05",
        "/25/2001"
      ],
      [
        "▁pl",
        "ay"
      ],
      [
        "▁espec",
        "ially"
      ],
      [
        "s",
        "s"
      ],
      [
        "▁for",
        "th"
      ],
      [
        "▁t",
        "en"
      ],
      [
        "▁9",
        "00"
      ],
      [
        "▁15",
        "00"
      ],
      [
        "▁pr",
        "ic"
      ],
      [
        "▁g",
        "reat"
      ],
      [
        "▁w",
        "ish"
      ],
      [
        "▁03",
        ":00"
      ],
      [
        "▁oc",
        "t"
      ],
      [
        "uc",
        "k"
      ],
      [
        "▁we",
        "ek"
      ],
      [
        "▁bus",
        "iness"
      ],
      [
        "▁a",
        "b"
      ],
      [
        "/",
        "7"
      ],
      [
        "i",
        "es"
      ],
      [
        "▁http",
        "://"
      ],
      [
        "▁app",
        "lic"
      ],
      [
        "ab",
        "le"
      ],
      [
        "i",
        "ation"
      ],
      [
        "▁c",
        "ause"
      ],
      [
        "m",
        "s"
      ],
      [
        "▁10:5",
        "6"
      ],
      [
        "i",
        "d"
      ],
      [
        "▁e",
        "xce"
      ],
      [
        "▁9",
        "/11"
      ],
      [
        "▁ne",
        "ed"
      ],
      [
        "a",
        "m"
      ],
      [
        "▁n",
        "ecess"
      ],
      [
        "▁h",
        "ow"
      ],
      [
        "▁f",
        "ort"
      ],
      [
        "ro",
        "om"
      ],
      [
        ".",
        "7"
      ],
      [
        "o",
        "p"
      ],
      [
        "▁713-853",
        "-"
      ],
      [
        "/",
        "13"
      ],
      [
        "▁15",
        "75"
      ],
      [
        "oo",
        "l"
      ],
      [
        "▁a",
        "s"
      ],
      [
        "▁p",
        "a"
      ],
      [
        "at",
        "ion"
      ],
      [
        "▁pr",
        "act"
      ],
      [
        "▁51",
        "2"
      ],
      [
        "________________",
        "________________"
      ],
      [
        "▁4",
        "20"
      ],
      [
        "▁x",
        "v"
      ],
      [
        "▁repres",
        "ent"
      ],
      [
        "▁11-20-",
        "2000"
      ],
      [
        "▁160",
        "5"
      ],
      [
        "▁.",
        "."
      ],
      [
        "g",
        "ether"
      ],
      [
        "▁s",
        "p"
      ],
      [
        "▁ins",
        "ide"
      ],
      [
        "it",
        "ion"
      ],
      [
        "▁fl",
        "ight"
      ],
      [
        "▁sle",
        "ep"
      ],
      [
        "▁uh",
        "h"
      ],
      [
        "▁s",
        "’"
      ],
      [
        "▁11",
        "45"
      ],
      [
        "4",
        "3"
      ],
      [
        "s",
        "on"
      ],
      [
        "▁m",
        "us"
      ],
      [
        "▁l",
        "et"
      ],
      [
        "▁",
        "<"
      ],
      [
        "a",
        "ke"
      ],
      [
        "5",
        "/2001"
      ],
      [
        "▁agre",
        "ement"
      ],
      [
        "▁t",
        "old"
      ],
      [
        "29",
        "5"
      ],
      [
        "3",
        "00"
      ],
      [
        "▁meh-r",
        "isk"
      ],
      [
        "▁mo",
        "ther"
      ],
      [
        "30",
        "1"
      ],
      [
        "▁be",
        "low"
      ],
      [
        "▁198",
        "6"
      ],
      [
        "▁mon",
        "t"
      ],
      [
        "▁17",
        "79"
      ],
      [
        "▁",
        ")"
      ],
      [
        "v",
        "e"
      ],
      [
        "▁tom",
        "orrow"
      ],
      [
        "at",
        "ing"
      ],
      [
        "▁die",
        "go"
      ],
      [
        ".1",
        "1"
      ],
      [
        "▁w",
        "ater"
      ],
      [
        "16",
        "96"
      ],
      [
        "at",
        "ive"
      ],
      [
        "▁24",
        ",000"
      ],
      [
        "▁pro",
        "v"
      ],
      [
        "▁",
        "2"
      ],
      [
        "u",
        "st"
      ],
      [
        "▁per",
        "haps"
      ],
      [
        "/1",
        "6"
      ],
      [
        "▁y",
        "es"
      ],
      [
        "ve",
        "r"
      ],
      [
        "▁trans",
        "mission"
      ],
      [
        "▁800",
        "-5"
      ],
      [
        "▁w",
        "ay"
      ],
      [
        "vel",
        "op"
      ],
      [
        "▁m",
        "ember"
      ],
      [
        "▁199",
        "7"
      ],
      [
        "▁s",
        "omet"
      ],
      [
        "s",
        "h"
      ],
      [
        "an",
        "a"
      ],
      [
        "▁bec",
        "ome"
      ],
      [
        "v",
        "il"
      ],
      [
        "▁11",
        "/2"
      ],
      [
        "▁be",
        "sid"
      ],
      [
        "▁'",
        "0"
      ],
      [
        "▁under",
        "stand"
      ],
      [
        "▁fr",
        "o"
      ],
      [
        "▁ch",
        "ange"
      ],
      [
        "▁a",
        "c"
      ],
      [
        "▁ac",
        "cept"
      ],
      [
        "er",
        "ic"
      ],
      [
        "og",
        "raph"
      ],
      [
        "▁197",
        "2"
      ],
      [
        "▁am",
        "id"
      ],
      [
        "▁416-865-3",
        "70"
      ],
      [
        ".1",
        "5"
      ],
      [
        "▁m",
        "or"
      ],
      [
        "▁",
        "!"
      ],
      [
        "▁",
        "like"
      ],
      [
        "▁f",
        "ail"
      ],
      [
        "k",
        "s"
      ],
      [
        "os",
        "ed"
      ],
      [
        "o",
        "k"
      ],
      [
        "▁w",
        "ind"
      ],
      [
        "re",
        "e"
      ],
      [
        "▁ha",
        "ir"
      ],
      [
        "▁4",
        "4"
      ],
      [
        "▁any",
        "one"
      ],
      [
        "▁sh",
        "ort"
      ],
      [
        "▁be",
        "yond"
      ],
      [
        "▁al",
        "read"
      ],
      [
        "▁ad",
        "am"
      ],
      [
        "▁p",
        "at"
      ],
      [
        "▁tex",
        "as"
      ],
      [
        "▁a",
        "h"
      ],
      [
        "a",
        "z"
      ],
      [
        "▁’",
        "d"
      ],
      [
        "▁6",
        "39"
      ],
      [
        "▁s",
        "k"
      ],
      [
        "▁t",
        "il"
      ],
      [
        "▁h",
        "ou"
      ],
      [
        "▁d",
        "el"
      ],
      [
        "e",
        "ad"
      ],
      [
        "▁",
        "^"
      ],
      [
        "g",
        "el"
      ],
      [
        "▁qu",
        "ite"
      ],
      [
        "85",
        "49"
      ],
      [
        "▁on",
        "es"
      ],
      [
        "▁m",
        "en"
      ],
      [
        "▁0",
        "3"
      ],
      [
        "▁20",
        "7"
      ],
      [
        "5",
        "87"
      ],
      [
        "▁7",
        ":30"
      ],
      [
        "▁succ",
        "ess"
      ],
      [
        "▁3",
        "."
      ],
      [
        "▁11:3",
        "6"
      ],
      [
        "1",
        "/2001"
      ],
      [
        "▁-",
        "--------------------------------"
      ],
      [
        "i",
        "a"
      ],
      [
        "▁im",
        "p"
      ],
      [
        "+",
        "+"
      ],
      [
        "▁di",
        "rect"
      ],
      [
        "/",
        "30"
      ],
      [
        "▁co",
        "de"
      ],
      [
        "en",
        "n"
      ],
      [
        "▁g",
        "ot"
      ],
      [
        "▁l",
        "ay"
      ],
      [
        "▁19",
        "00"
      ],
      [
        "▁g",
        "iv"
      ],
      [
        "▁200",
        ",000"
      ],
      [
        "37",
        "36"
      ],
      [
        "▁15",
        "99"
      ],
      [
        "▁f",
        "ight"
      ],
      [
        "▁713-6",
        "46-3393"
      ],
      [
        "i",
        "o"
      ],
      [
        "ent",
        "ial"
      ],
      [
        ":",
        "48"
      ],
      [
        "▁",
        "1"
      ],
      [
        ".",
        "30"
      ],
      [
        "in",
        "g"
      ],
      [
        "▁200",
        "1"
      ],
      [
        "▁unles",
        "s"
      ],
      [
        ":1",
        "4"
      ],
      [
        ":",
        "0"
      ],
      [
        "▁ha",
        "v"
      ],
      [
        "▁w",
        "alk"
      ],
      [
        "▁pro",
        "per"
      ],
      [
        "▁hav",
        "ing"
      ],
      [
        "▁ever",
        "y"
      ],
      [
        "▁accord",
        "ing"
      ],
      [
        "id",
        "ed"
      ],
      [
        "a",
        "d"
      ],
      [
        "▁re",
        "ason"
      ],
      [
        "ri",
        "ed"
      ],
      [
        "▁non",
        "stop"
      ],
      [
        "▁bal",
        "tim"
      ],
      [
        "7",
        "9"
      ],
      [
        "▁7",
        ".3"
      ],
      [
        "▁a",
        "head"
      ],
      [
        "ar",
        "d"
      ],
      [
        "▁ch",
        "ang"
      ],
      [
        "l",
        "f"
      ],
      [
        ":1",
        "8"
      ],
      [
        "l",
        "e"
      ],
      [
        "▁year",
        "s"
      ],
      [
        "b",
        "er"
      ],
      [
        "▁80",
        ",000"
      ],
      [
        "i",
        "an"
      ],
      [
        "▁meet",
        "ing"
      ],
      [
        "▁10",
        ":46"
      ],
      [
        "oo",
        "t"
      ],
      [
        "▁opp",
        "osite"
      ],
      [
        "▁315",
        "-460-3"
      ],
      [
        "in",
        "s"
      ],
      [
        "▁un",
        "der"
      ],
      [
        "▁ad",
        "v"
      ],
      [
        "▁franc",
        "isco"
      ],
      [
        "▁do",
        "zen"
      ],
      [
        "▁dep",
        "art"
      ],
      [
        "▁2",
        "00"
      ],
      [
        "▁",
        "5"
      ],
      [
        "▁e",
        "ach"
      ],
      [
        "▁1",
        "000"
      ],
      [
        "one",
        "y"
      ],
      [
        "/",
        "2"
      ],
      [
        "▁ar",
        "g"
      ],
      [
        "▁345-99",
        "45"
      ],
      [
        "▁200",
        "5"
      ],
      [
        "▁su",
        "n"
      ],
      [
        "▁eas",
        "y"
      ],
      [
        "4",
        "-"
      ],
      [
        "▁16",
        "3"
      ],
      [
        "▁se",
        "cond"
      ],
      [
        "▁he",
        "r"
      ],
      [
        "▁t",
        "able"
      ],
      [
        "▁f",
        "ood"
      ],
      [
        "▁tho",
        "se"
      ],
      [
        "▁4",
        "7"
      ],
      [
        "e",
        "m"
      ],
      [
        "▁b",
        "ook"
      ],
      [
        "▁y",
        "a"
      ],
      [
        "▁g",
        "en"
      ],
      [
        ".",
        "2"
      ],
      [
        "▁mem",
        "bers"
      ],
      [
        "▁seem",
        "ed"
      ],
      [
        "▁",
        "q"
      ],
      [
        "▁y",
        "o"
      ],
      [
        "▁st",
        "ate"
      ],
      [
        "_",
        "de"
      ],
      [
        "▁m",
        "e"
      ],
      [
        "▁b",
        "ad"
      ],
      [
        "▁id",
        "ea"
      ],
      [
        "▁196",
        "6"
      ],
      [
        "▁n",
        "ine"
      ],
      [
        "i",
        "at"
      ],
      [
        "/2",
        "00"
      ],
      [
        "▁besid",
        "es"
      ],
      [
        "▁f",
        "ather"
      ],
      [
        "4",
        "0"
      ],
      [
        ".",
        "10"
      ],
      [
        "▁s",
        "itting"
      ],
      [
        "46",
        "1"
      ],
      [
        "▁a",
        "cc"
      ],
      [
        "▁u",
        "r"
      ],
      [
        "▁charl",
        "otte"
      ],
      [
        ".6",
        "21"
      ],
      [
        "▁5",
        "/1"
      ],
      [
        "13",
        ".86"
      ],
      [
        "▁f",
        "ac"
      ],
      [
        "▁11",
        "10"
      ],
      [
        "▁f",
        "ill"
      ],
      [
        "▁6",
        ":00"
      ],
      [
        "▁l",
        "ic"
      ],
      [
        "▁de",
        "m"
      ],
      [
        "ig",
        "h"
      ],
      [
        "_",
        "0"
      ],
      [
        "o",
        "ve"
      ],
      [
        ":1",
        "7"
      ],
      [
        "▁c",
        "reat"
      ],
      [
        "▁p",
        "u"
      ],
      [
        "▁202.45",
        "6"
      ],
      [
        "▁202",
        ".7"
      ],
      [
        "▁p",
        "ick"
      ],
      [
        "▁loc",
        "al"
      ],
      [
        "▁mon",
        "day"
      ],
      [
        "7",
        ".77"
      ],
      [
        "▁m",
        "il"
      ],
      [
        "▁ele",
        "ven"
      ],
      [
        "▁4",
        ".7"
      ],
      [
        "▁41",
        "2"
      ],
      [
        "en",
        "s"
      ],
      [
        "ont",
        "o"
      ],
      [
        "▁6",
        ":30"
      ],
      [
        "▁se",
        "ven"
      ],
      [
        "▁80",
        "435"
      ],
      [
        "▁ex",
        "p"
      ],
      [
        "▁pri",
        "v"
      ],
      [
        "▁comm",
        "unications"
      ],
      [
        "▁def",
        "in"
      ],
      [
        "om",
        "en"
      ],
      [
        "▁l",
        "ab"
      ],
      [
        "▁o",
        "il"
      ],
      [
        "▁19",
        "37"
      ],
      [
        "▁20",
        "30"
      ],
      [
        "▁a",
        "pp"
      ],
      [
        "▁sm",
        "all"
      ],
      [
        "▁26",
        "0"
      ],
      [
        "▁r",
        "ide"
      ],
      [
        "▁californ",
        "ia"
      ],
      [
        "▁199",
        "2"
      ],
      [
        "c",
        "ab"
      ],
      [
        "p",
        "ing"
      ],
      [
        "▁pa",
        "ul"
      ],
      [
        "▁130",
        "7"
      ],
      [
        "▁some",
        "thing"
      ],
      [
        "▁among",
        "st"
      ],
      [
        "/",
        "1"
      ],
      [
        "▁any",
        "body"
      ],
      [
        "▁al",
        "one"
      ],
      [
        "▁201",
        "5"
      ],
      [
        "▁197",
        "3"
      ],
      [
        "▁am",
        "eric"
      ],
      [
        "▁arri",
        "ve"
      ],
      [
        "▁rese",
        "arch"
      ],
      [
        "▁d",
        "ark"
      ],
      [
        "▁p",
        "ush"
      ],
      [
        "▁s",
        "it"
      ],
      [
        "▁month",
        "s"
      ],
      [
        "▁includ",
        "ing"
      ],
      [
        "▁ke",
        "pt"
      ],
      [
        "▁18",
        "40"
      ],
      [
        "▁1,",
        "6"
      ],
      [
        "a",
        "y"
      ],
      [
        "-46",
        "8-3"
      ],
      [
        "v",
        "el"
      ],
      [
        "▁su",
        "b"
      ],
      [
        "▁ey",
        "es"
      ],
      [
        "▁11",
        ",000"
      ],
      [
        "▁wi",
        "l"
      ],
      [
        "▁175",
        "4"
      ],
      [
        ".",
        "1"
      ],
      [
        "▁m",
        "oney"
      ],
      [
        "▁01",
        "/2"
      ],
      [
        "▁li",
        "ves"
      ],
      [
        "ar",
        "y"
      ],
      [
        "▁you",
        "r"
      ],
      [
        "9",
        ".3"
      ],
      [
        "▁g",
        "e"
      ],
      [
        "▁sit",
        "u"
      ],
      [
        "▁p",
        "op"
      ],
      [
        "▁hour",
        "s"
      ],
      [
        "▁11",
        "1"
      ],
      [
        "l",
        "o"
      ],
      [
        "▁coun",
        "ter"
      ],
      [
        "▁whe",
        "ther"
      ],
      [
        "▁gr",
        "ound"
      ],
      [
        "▁st",
        "ay"
      ],
      [
        "▁univers",
        "ity"
      ],
      [
        "▁10/2",
        "0/2000"
      ],
      [
        "ist",
        "er"
      ],
      [
        "▁:",
        "d"
      ],
      [
        "▁con",
        "f"
      ],
      [
        "▁8",
        "99"
      ],
      [
        "o",
        "n"
      ],
      [
        "▁================================",
        "================"
      ],
      [
        "▁7",
        "18"
      ],
      [
        "u",
        "ge"
      ],
      [
        "/1",
        "7/99"
      ],
      [
        "ow",
        "s"
      ],
      [
        "▁2",
        ".00"
      ],
      [
        "▁3,202",
        ".61"
      ],
      [
        "ar",
        "o"
      ],
      [
        "ł",
        "od"
      ],
      [
        "▁8",
        ":00"
      ],
      [
        "▁y",
        "ellow"
      ],
      [
        "▁laur",
        "a"
      ],
      [
        "▁ap",
        "art"
      ],
      [
        "ur",
        "al"
      ],
      [
        "▁20",
        "2"
      ],
      [
        "--",
        "--"
      ],
      [
        ":5",
        "8"
      ],
      [
        "▁s",
        "elf"
      ],
      [
        "▁5",
        "9"
      ],
      [
        "▁in",
        "cl"
      ],
      [
        "ire",
        "d"
      ],
      [
        "▁s",
        "n"
      ],
      [
        "l",
        "l"
      ],
      [
        "▁no",
        "t"
      ],
      [
        "it",
        "ed"
      ],
      [
        ".",
        "5"
      ],
      [
        "▁",
        "$"
      ],
      [
        "i",
        "t"
      ],
      [
        "▁",
        "ro"
      ],
      [
        "▁r",
        "oman"
      ],
      [
        "▁8",
        ":30"
      ],
      [
        "l",
        "ow"
      ],
      [
        "▁o",
        "ff"
      ],
      [
        "▁4",
        "30"
      ],
      [
        "▁18",
        "3"
      ],
      [
        "▁3",
        "7"
      ],
      [
        "if",
        "e"
      ],
      [
        "▁11",
        "5"
      ],
      [
        "▁c",
        "ol"
      ],
      [
        "▁sch",
        "ool"
      ],
      [
        "▁w",
        "atch"
      ],
      [
        "▁along",
        "side"
      ],
      [
        "▁h",
        "-0"
      ],
      [
        "▁",
        "ke"
      ],
      [
        "s",
        "ter"
      ],
      [
        "▁wh",
        "ere"
      ],
      [
        "u",
        "ch"
      ],
      [
        "▁vi",
        "a"
      ],
      [
        "▁lea",
        "ving"
      ],
      [
        "▁mu",
        "st"
      ],
      [
        "▁at",
        "l"
      ],
      [
        "▁46",
        "6"
      ],
      [
        "p",
        "eare"
      ],
      [
        "▁im",
        "port"
      ],
      [
        "▁app",
        "ear"
      ],
      [
        "e",
        "d"
      ],
      [
        "t",
        "s"
      ],
      [
        "n",
        "er"
      ],
      [
        "▁",
        "or"
      ],
      [
        "▁f",
        "re"
      ],
      [
        "▁s",
        "al"
      ],
      [
        "▁happ",
        "en"
      ],
      [
        "us",
        "ed"
      ],
      [
        "▁bal",
        "zac"
      ],
      [
        "▁be",
        "h"
      ],
      [
        "▁199",
        "1"
      ],
      [
        "ad",
        "elp"
      ],
      [
        "▁ge",
        "or"
      ],
      [
        "2",
        "7"
      ],
      [
        "-",
        "ked"
      ],
[...]
