{
  "version": "1.0",
  "truncation": null,
  "padding": null,
  "added_tokens": [
    {
      "id": 1044,
      "content": "[MASK]",
      "single_word": false,
      "lstrip": false,
      "rstrip": false,
      "normalized": false,
      "special": true
    },
    {
      "id": 1390,
      "content": "[PAD]",
      "single_word": false,
      "lstrip": false,
      "rstrip": false,
      "normalized": false,
      "special": true
    },
    {
      "id": 2136,
      "content": "[UNK]",
      "single_word": false,
      "lstrip": false,
      "rstrip": false,
      "normalized": false,
      "special": true
    },
    {
      "id": 2548,
      "content": "[SEP]",
      "single_word": false,
      "lstrip": false,
      "rstrip": false,
      "normalized": false,
      "special": true
    },
    {
      "id": 2571,
      "content": "[CLS]",
      "single_word": false,
      "lstrip": false,
      "rstrip": false,
      "normalized": false,
      "special": true
    }
  ],
  "normalizer": {
    "type": "Sequence",
    "normalizers": [
      {
        "type": "NFD"
      },
      {
        "type": "Lowercase"
      },
      {
        "type": "StripAccents"
      }
    ]
  },
  "pre_tokenizer": {
    "type": "Sequence",
    "pretokenizers": [
      {
        "type": "Metaspace",
        "replacement": "▁",
        "prepend_scheme": "always",
        "split": true
      }
    ]
  },
  "post_processor": {
    "type": "TemplateProcessing",
    "single": [
      {
        "SpecialToken": {
          "id": "[CLS]",
          "type_id": 0
        }
      },
      {
        "Sequence": {
          "id": "A",
          "type_id": 0
        }
      },
      {
        "SpecialToken": {
          "id": "[SEP]",
          "type_id": 0
        }
      }
    ],
    "pair": [
      {
        "SpecialToken": {
          "id": "[CLS]",
          "type_id": 0
        }
      },
      {
        "Sequence": {
          "id": "A",
          "type_id": 0
        }
      },
      {
        "SpecialToken": {
          "id": "[SEP]",
          "type_id": 0
        }
      },
      {
        "Sequence": {
          "id": "B",
          "type_id": 1
        }
      },
      {
        "SpecialToken": {
          "id": "[SEP]",
          "type_id": 1
        }
      }
    ],
    "special_tokens": {
      "[CLS]": {
        "id": "[CLS]",
        "ids": [
          2571
        ],
        "tokens": [
          "[CLS]"
        ]
      },
      "[SEP]": {
        "id": "[SEP]",
        "ids": [
          2548
        ],
        "tokens": [
          "[SEP]"
        ]
      }
    }
  },
  "decoder": {
    "type": "Metaspace",
    "replacement": "▁",
    "prepend_scheme": "always",
    "split": true
  },
  "model": {
    "type": "WordPiece",
    "unk_token": "[UNK]",
    "continuing_subword_prefix": "##",
    "max_input_chars_per_word": 100,
    "vocab": {
      "##ency": 0,
      "▁03": 1,
      "##}": 2,
      "##iny": 3,
      "▁417": 4,
      "▁black": 5,
      "▁pri": 6,
      "▁3.2": 7,
      "▁26": 8,
      "##ea": 9,
      "##-8": 10,
      "▁col": 11,
      "a": 12,
      "##ff": 13,
      "▁+44": 14,
      "##ming": 15,
      "##2": 16,
      "▁129": 17,
      "▁short": 18,
      "##-20": 19,
      "▁example": 20,
      "##ract": 21,
      "▁16.379": 22,
      "▁date": 23,
      "▁favor": 24,
      "##sel": 25,
      "▁1/8": 26,
      "▁well": 27,
      "▁nose": 28,
      "▁whoever": 29,
      "▁04": 30,
      "##oup": 31,
      "▁20:00": 32,
      "▁238": 33,
      "▁sing": 34,
      "▁neither": 35,
      "▁respons": 36,
      "##ston": 37,
      "##3": 38,
      "▁47": 39,
      "▁fro": 40,
      "##asing": 41,
      "ف": 42,
      "##irt": 43,
      "##ising": 44,
      "▁713/853": 45,
      "##33": 46,
      "▁against": 47,
      "▁mich": 48,
      "##ww": 49,
      "▁great": 50,
      "y": 51,
      "▁least": 52,
      "##amm": 53,
      "##ged": 54,
      "▁let": 55,
      "▁seventeen": 56,
      "##iety": 57,
      "##at": 58,
      "▁49": 59,
      "##ams": 60,
      "##uc": 61,
      "▁1944": 62,
      "▁177": 63,
      "▁le": 64,
      "##ail": 65,
      "##ith": 66,
      "▁1608": 67,
      "##$": 68,
      "▁exist": 69,
      "##339": 70,
      "▁137": 71,
      "▁23": 72,
      "##ind": 73,
      "▁pen": 74,
      "▁young": 75,
      "▁dozen": 76,
      "##/he": 77,
      "##”": 78,
      "▁found": 79,
      "▁turn": 80,
      "▁hours": 81,
      "▁environ": 82,
      "▁easy": 83,
      "▁women": 84,
      "##thing": 85,
      "▁had": 86,
      "▁13011": 87,
      "▁little": 88,
      "##ering": 89,
      "##ually": 90,
      "▁600": 91,
      "▁anim": 92,
      "▁act": 93,
      "▁pret": 94,
      "▁[": 95,
      "##********************************": 96,
      "##ess": 97,
      "##ment": 98,
      "▁ag": 99,
      "▁diego": 100,
      "##out": 101,
      "##op": 102,
      "▁dri": 103,
      "##ric": 104,
      "▁295870": 105,
      "▁finally": 106,
      "▁secur": 107,
      "▁having": 108,
      "▁orland": 109,
      "▁soc": 110,
      "▁pack": 111,
      "##/30/2001": 112,
      "▁713-654-1281": 113,
      "▁chicken": 114,
      "▁de": 115,
      "##30": 116,
      "▁748": 117,
      "▁paul": 118,
      "▁718-780-": 119,
      "▁franc": 120,
      "▁listen": 121,
      "##·": 122,
      "3": 123,
      "▁last": 124,
      "▁sho": 125,
      "▁visit": 126,
      "##ke": 127,
      "##ld": 128,
      "##4": 129,
      "▁rul": 130,
      "▁1115": 131,
      "▁04:03": 132,
      "##ought": 133,
      "##ah": 134,
      "▁const": 135,
      "▁human": 136,
      "##/30": 137,
      "▁306": 138,
      "▁lab": 139,
      "##ached": 140,
      "##ρ": 141,
      "▁500": 142,
      "▁yea": 143,
      "▁bush": 144,
      "ʒ": 145,
      "##enth": 146,
      "▁times": 147,
      "##09": 148,
      "##ew": 149,
      "##θ": 150,
      "▁212": 151,
      "▁fut": 152,
      "▁she": 153,
      "▁1970": 154,
      "▁country": 155,
      "▁5/18": 156,
      "##ur": 157,
      "▁actually": 158,
      "▁1974": 159,
      "##ti": 160,
      "▁origin": 161,
      "▁breakfast": 162,
      "▁cont": 163,
      "▁again": 164,
      "▁told": 165,
      "▁oc": 166,
      "▁1604": 167,
      "▁squ": 168,
      "##8-3": 169,
      "▁orlando": 170,
      "##urs": 171,
      "▁j": 172,
      "##ways": 173,
      "##ont": 174,
      "▁hi": 175,
      "##oose": 176,
      "##600": 177,
      "▁dis": 178,
      "▁1.5": 179,
      "##te": 180,
      "▁373": 181,
      "▁gets": 182,
      "▁bal": 183,
      "##urch": 184,
      "▁1160": 185,
      "##.": 186,
      "▁9221": 187,
      "##wau": 188,
      "x": 189,
      "▁tomorrow": 190,
      "##ans": 191,
      "##ound": 192,
      "▁pit": 193,
      "##th": 194,
      "▁men": 195,
      "▁inside": 196,
      "▁2013": 197,
      "##ock": 198,
      "##port": 199,
      "▁3889": 200,
      "##he": 201,
      "▁sto": 202,
      "##:44": 203,
      "▁nobody": 204,
      "##39": 205,
      "▁hea": 206,
      "##gle": 207,
      "▁87": 208,
      "▁*": 209,
      "##.1": 210,
      "▁11/10/2000": 211,
      "r": 212,
      "▁01:0": 213,
      "▁whil": 214,
      "▁268": 215,
      "##:11": 216,
      "##iver": 217,
      "=": 218,
      "▁1500": 219,
      "▁official": 220,
      "▁wilt": 221,
      "▁file": 222,
      "##be": 223,
      "##38": 224,
      "▁0000108806": 225,
      "▁george": 226,
      "▁not": 227,
      "▁tim": 228,
      "▁5.8": 229,
      "▁don": 230,
      "##σ": 231,
      "▁shakespeare": 232,
      "▁da": 233,
      "##no": 234,
      "▁03/02/2001": 235,
      "▁father": 236,
      "##rol": 237,
      "▁.doc": 238,
      "▁mic": 239,
      "##14": 240,
      "▁trale": 241,
      "▁cuz": 242,
      "##1-9": 243,
      "##ause": 244,
      "▁somet": 245,
      "▁guy": 246,
      "4": 247,
      "e": 248,
      "##mm": 249,
      "▁whatever": 250,
      "##721": 251,
      "▁)": 252,
      "▁159": 253,
      "▁commission": 254,
      "▁alongside": 255,
      "##urday": 256,
      "##`": 257,
      "##s.": 258,
      "▁:(": 259,
      "##:29": 260,
      "▁them": 261,
      "▁ex": 262,
      "▁hear": 263,
      "▁08:2": 264,
      "▁ret": 265,
      "▁al.": 266,
      "▁struct": 267,
      "##stand": 268,
      "▁red": 269,
      "▁fifty": 270,
      "w": 271,
      "▁anyone": 272,
      "▁chick": 273,
      "##古": 274,
      "ا": 275,
      "##ered": 276,
      "##ime": 277,
      "▁direct": 278,
      "##ody": 279,
      "▁416-865-3": 280,
      "▁pi": 281,
      "▁gas": 282,
      "▁750,000": 283,
      "▁wor": 284,
      "▁if": 285,
      "##lish": 286,
      "▁e": 287,
      "##-468-3": 288,
      "▁lunch": 289,
      "▁back": 290,
      "▁1964": 291,
      "▁organ": 292,
      "▁story": 293,
      "▁fa": 294,
      "▁each": 295,
      "▁bn": 296,
      "▁1200": 297,
      "▁345-343": 298,
      "▁extrem": 299,
      "▁beautiful": 300,
      "▁into": 301,
      "▁5.5": 302,
      "▁wh": 303,
      "▁ro": 304,
      "▁spec": 305,
      "▁tw": 306,
      "▁case": 307,
      "##per": 308,
      "##ained": 309,
      "▁hundred": 310,
      "##±": 311,
      "##46": 312,
      "▁630": 313,
      "▁noon": 314,
      "▁11:07": 315,
      "##ital": 316,
      "##so": 317,
      "▁use": 318,
      "▁1504": 319,
      "▁=": 320,
      "##128": 321,
      "▁11:00": 322,
      "▁lear": 323,
      "▁n": 324,
      "▁return": 325,
      "▁key": 326,
      "▁763736": 327,
      "▁9": 328,
      "##76": 329,
      "▁activ": 330,
      "m": 331,
      "▁state": 332,
      "▁pur": 333,
      "▁know": 334,
      "##read": 335,
      "▁whenever": 336,
      "##-625": 337,
      "▁01/12/2001": 338,
      "▁throw": 339,
      "##1082": 340,
      "▁proc": 341,
      "▁66": 342,
      "▁111": 343,
      "▁months": 344,
      "▁nat": 345,
      "##ft": 346,
      "##..": 347,
      "▁1291": 348,
      "##erv": 349,
      "##ath": 350,
      "▁2.975": 351,
      "##iv": 352,
      "##edie": 353,
      "##ove": 354,
      "▁lat": 355,
      "##...": 356,
      "▁suff": 357,
      "▁happen": 358,
      "##ead": 359,
      "▁sh": 360,
      "##36": 361,
      "##.15": 362,
      "##ife": 363,
      "##ome": 364,
      "##teen": 365,
      "▁84": 366,
      "▁ago": 367,
      ":": 368,
      "▁fair": 369,
      "▁twenty-": 370,
      "▁1-8": 371,
      "##yond": 372,
      "##78": 373,
      "##hia": 374,
      "³": 375,
      "##/15": 376,
      "▁713.8": 377,
      "▁dkk": 378,
      "##7": 379,
      "▁economy": 380,
      "▁first": 381,
      "▁203": 382,
      "g": 383,
      "▁h-0": 384,
      "▁own": 385,
      "▁understand": 386,
      "▁day": 387,
      "##ology": 388,
      "▁polit": 389,
      "▁vi": 390,
      "▁forty-one": 391,
      "♥": 392,
      "▁very": 393,
      "}": 394,
      "##red": 395,
      "▁1691": 396,
      "▁far": 397,
      "▁main": 398,
      "▁,": 399,
      "▁1952": 400,
      "▁508": 401,
      "##onom": 402,
      "▁almost": 403,
      "▁level": 404,
      "▁ninety-n": 405,
      "▁board": 406,
      "##ama": 407,
      "▁700": 408,
      "▁tho": 409,
      "▁age": 410,
      "##ɑ": 411,
      "##’t": 412,
      "▁like": 413,
      "▁property": 414,
      "▁than": 415,
      "##63": 416,
      "p": 417,
      "▁05/30/2001": 418,
      "θ": 419,
      "##86": 420,
      "▁clear": 421,
      "##istan": 422,
      "##ansas": 423,
      "##ats": 424,
      "##ule": 425,
      "▁01:58": 426,
      "▁email": 427,
      "▁72,000": 428,
      "▁10,000": 429,
      "▁07:24": 430,
      "▁stre": 431,
      "▁none": 432,
      "▁mommy": 433,
      "▁1965": 434,
      "▁doo": 435,
      "##s": 436,
      "##ys": 437,
      "▁1848": 438,
      "##able": 439,
      "▁govern": 440,
      "##thst": 441,
      "▁community": 442,
      "▁knew": 443,
      "▁all": 444,
      "▁09/15": 445,
      "▁800-5": 446,
      "▁311": 447,
      "▁ev": 448,
      "▁1585": 449,
      "▁ar": 450,
      "▁dog": 451,
      "▁salt": 452,
      "▁trying": 453,
      "▁300": 454,
      "▁ball": 455,
      "##tain": 456,
      "▁5": 457,
      "##ied": 458,
      "##????": 459,
      "##++": 460,
      "▁now": 461,
      "##89": 462,
      "##angu": 463,
      "▁european": 464,
      "▁1039": 465,
      "▁w": 466,
      "▁wind": 467,
      "▁181": 468,
      "▁12:42": 469,
      "▁htt": 470,
      "##eck": 471,
      "▁12/2": 472,
      "▁05/03/2001": 473,
      "##uma": 474,
      "##ple": 475,
      "##☏": 476,
      "▁ma": 477,
      "##lus": 478,
      "##744": 479,
      "▁1830": 480,
      "##ma": 481,
      "▁am": 482,
      "▁air": 483,
      "▁push": 484,
      "##uz": 485,
      "▁become": 486,
      "▁11/08/2000": 487,
      "▁15,000": 488,
      "▁bear": 489,
      "▁1991": 490,
      "##ative": 491,
      "##cond": 492,
      "▁’m": 493,
      "▁'em": 494,
      "##.621": 495,
      "▁pot": 496,
      "▁hun": 497,
      "##--------------------------------": 498,
      "##ften": 499,
      "##ists": 500,
      "▁airline": 501,
      "##pped": 502,
      "▁59": 503,
      "▁1600": 504,
      "##389": 505,
      "▁toronto": 506,
      "▁1.4": 507,
      "##ote": 508,
      "▁0.0": 509,
      "▁1596": 510,
      "▁refer": 511,
      "▁lot": 512,
      "▁6.2.1": 513,
      "▁10:56": 514,
      "##oph": 515,
      "▁wo": 516,
      "▁foc": 517,
      "▁washing": 518,
      "▁pass": 519,
      "▁i": 520,
      "##8196021": 521,
      "▁ge": 522,
      "▁seven": 523,
      "▁10:45": 524,
      "▁bul": 525,
      "##0": 526,
      "##.61": 527,
      "##alth": 528,
      "##five": 529,
      "▁surpr": 530,
      "##mp": 531,
      "▁dere": 532,
      "▁p": 533,
      "▁’ll": 534,
      "##/2000": 535,
      "▁83": 536,
      "▁transport": 537,
      "##13.8": 538,
      "▁won": 539,
      "▁su": 540,
      "▁dogg": 541,
      "▁alber": 542,
      "▁apr": 543,
      "▁1859": 544,
      "▁1.25": 545,
      "▁through": 546,
      "##201": 547,
      "▁airl": 548,
      "##ds": 549,
      "▁or": 550,
      "▁;": 551,
      "▁mus": 552,
      "##&": 553,
      "##_de": 554,
      "▁birthday": 555,
      "##/03": 556,
      "##enron": 557,
      "▁11/28/2000": 558,
      "▁74419": 559,
      "▁8043": 560,
      "▁israel": 561,
      "▁working": 562,
      "▁1940": 563,
      "##:05": 564,
      "##uary": 565,
      "▁repl": 566,
      "ο": 567,
      "▁includ": 568,
      "▁this": 569,
      "##enty": 570,
      "▁1947": 571,
      "▁8:15": 572,
      "▁dur": 573,
      "##42": 574,
      "##琴": 575,
      "##-9004": 576,
      "##eare": 577,
      "▁899": 578,
      "▁service": 579,
      "##ning": 580,
      "##ention": 581,
      "##ø": 582,
      "▁access": 583,
      "##anger": 584,
      "▁sixty": 585,
      "##ave": 586,
      "##-3": 587,
      "▁committ": 588,
      "##neath": 589,
      "▁08/03": 590,
      "▁litt": 591,
      "##fully": 592,
      "▁feel": 593,
      "▁mor": 594,
      "▁3/8/00": 595,
      "▁1179": 596,
      "##amp": 597,
      "##4/2000": 598,
      "▁195": 599,
      "▁200,000": 600,
      "▁n’t": 601,
      "▁del": 602,
      "▁techn": 603,
      "▁eng": 604,
      "▁165": 605,
      "▁color": 606,
      "▁ass": 607,
      "##??": 608,
      "##ison": 609,
      "▁6:00": 610,
      "▁10/23/2000": 611,
      "▁humaine": 612,
      "▁geor": 613,
      "##:3": 614,
      "##/2001": 615,
      "▁1-800-991-90": 616,
      "▁early": 617,
      "▁415.621.8317": 618,
      "##[": 619,
      "▁03:3": 620,
      "▁140": 621,
      "▁everybody": 622,
      "##✉": 623,
      "▁court": 624,
      "▁104": 625,
      "##aq": 626,
      "▁third": 627,
      "##art": 628,
      "▁friends": 629,
      "▁1847": 630,
      "▁202.456.2461": 631,
      "▁wear": 632,
      "##ories": 633,
      "▁ann": 634,
      "▁thirty-": 635,
      "▁countries": 636,
      "▁f": 637,
      "##ures": 638,
      "##/16/2001": 639,
      "##♥": 640,
      "##ets": 641,
      "▁special": 642,
      "##m": 643,
      "##ects": 644,
      "▁twenty-six": 645,
      "##selves": 646,
      "##:35": 647,
      "##­": 648,
      "##65-3": 649,
      "##://": 650,
      "▁7:30": 651,
      "▁:": 652,
      "▁bo": 653,
      "▁sound": 654,
      "▁period": 655,
      "##enc": 656,
      "▁up": 657,
      "▁pos": 658,
      "▁he": 659,
      "▁2100": 660,
      "▁write": 661,
      "##.8317": 662,
      "▁expensive": 663,
      "▁adam": 664,
      "##,000,000,000": 665,
      "▁150,000": 666,
      "▁6871082#": 667,
      "▁interv": 668,
      "▁requ": 669,
      "▁local": 670,
      "▁doll": 671,
      "##its": 672,
      "▁some": 673,
      "▁2030": 674,
      "▁takes": 675,
      "##1": 676,
      "▁compan": 677,
      "##akes": 678,
      "▁comp": 679,
      "##:/": 680,
      "ي": 681,
      "▁dem": 682,
      "##02": 683,
      "##:17": 684,
      "▁113": 685,
      "##ives": 686,
      "▁seattle": 687,
      "##ach": 688,
      "##.8": 689,
      "静": 690,
      "##ese": 691,
      "▁whereas": 692,
      "▁draw": 693,
      "×": 694,
      "##e": 695,
      "##ac": 696,
      "##/01": 697,
      "د": 698,
      "##ive": 699,
      "▁60,000": 700,
      "##.10": 701,
      "▁01:39": 702,
      "##ement": 703,
      "##ertain": 704,
      "##ions": 705,
      "▁1822": 706,
      "▁vis": 707,
      "##ary": 708,
      "##ite": 709,
      "▁ans": 710,
      "##ress": 711,
      "▁2003": 712,
      "▁kid": 713,
      "▁kitt": 714,
      "▁28": 715,
      "##.30": 716,
      "▁202.456.1111": 717,
      "▁dep": 718,
      "▁750": 719,
      "##xce": 720,
      "▁europe": 721,
      "▁2017": 722,
      "▁ta": 723,
      "▁166": 724,
      "ص": 725,
      "▁‘’": 726,
      "▁goes": 727,
      "▁04/2": 728,
      "▁data": 729,
      "▁09/16/99": 730,
      "▁win": 731,
      "▁prev": 732,
      "▁serv": 733,
      "▁wr": 734,
      "▁2020": 735,
      "##ized": 736,
      "▁191": 737,
      "▁class": 738,
      "▁1962": 739,
      "##eng": 740,
      "▁its": 741,
      "##ision": 742,
      "▁other": 743,
      "▁pick": 744,
      "▁til": 745,
      "▁1997": 746,
      "##ht": 747,
      "▁12/26/2000": 748,
      "▁rob": 749,
      "▁depart": 750,
      "▁moving": 751,
      "▁ya": 752,
      "▁me": 753,
      "▁long": 754,
      "▁president": 755,
      "▁sever": 756,
      "##oon": 757,
      "▁disc": 758,
      "▁could": 759,
      "▁mom": 760,
      "▁ir": 761,
      "▁did": 762,
      "##ired": 763,
      "▁five": 764,
      "▁outside": 765,
      "##alk": 766,
      "▁12:30": 767,
      "▁tem": 768,
      "▁usually": 769,
      "##ict": 770,
      "##otte": 771,
      "##葉": 772,
      "##40": 773,
      "▁military": 774,
      "▁1960": 775,
      "清": 776,
      "▁415.782.7822": 777,
      "##gg": 778,
      "ε": 779,
      "##ty": 780,
      "##utions": 781,
      "▁build": 782,
      "##and": 783,
      "谿": 784,
      "▁ey": 785,
      "▁1575": 786,
      "▁accept": 787,
      "##44": 788,
      "##ge": 789,
      "▁aug": 790,
      "▁started": 791,
      "▁125": 792,
      "▁you": 793,
      "▁000010": 794,
      "▁:-)": 795,
      "▁equ": 796,
      "▁2,300": 797,
      "▁art": 798,
      "##ens": 799,
      "##bo": 800,
      "▁read": 801,
      "##wi": 802,
      "▁hurt": 803,
      "☎": 804,
      "##ss": 805,
      "▁cit": 806,
      "▁te": 807,
      "▁both": 808,
      "▁713-853-": 809,
      "▁af": 810,
      "▁gave": 811,
      "##four": 812,
      "▁india": 813,
      "##es": 814,
      "##lic": 815,
      "▁says": 816,
      "▁---------------------------------": 817,
      "▁due": 818,
      "##fi": 819,
      "▁1,6": 820,
      "▁!?": 821,
      "##rect": 822,
      "##my": 823,
      "~": 824,
      "▁315-": 825,
      "▁too": 826,
      "▁mem": 827,
      "b": 828,
      "▁03/15/2001": 829,
      "##-79": 830,
      "▁addition": 831,
      "##½": 832,
      "▁eighteen": 833,
      "##ap": 834,
      "##dd": 835,
      "▁1-800": 836,
      "##f": 837,
      ";": 838,
      "▁office": 839,
      "▁harry": 840,
      "##na": 841,
      "##ason": 842,
      "▁street": 843,
      "▁charlotte": 844,
      "▁deter": 845,
      "▁_": 846,
      "▁1660": 847,
      "##.676": 848,
      "##inn": 849,
      "▁enough": 850,
      "▁close": 851,
      "##50": 852,
      "##ook": 853,
      "▁27": 854,
      "▁pay": 855,
      "▁product": 856,
      "▁my": 857,
      "▁ph": 858,
      "▁57": 859,
      "▁483": 860,
      "葉": 861,
      "▁docum": 862,
      "▁1939": 863,
      "##静": 864,
      "##-3989": 865,
      "▁100,000": 866,
      "▁when": 867,
      "▁incl": 868,
      "▁08/17/2000": 869,
      "▁1995": 870,
      "▁2:25": 871,
      "▁1145": 872,
      "▁shall": 873,
      "##get": 874,
      "##iding": 875,
      "##uge": 876,
      "▁supp": 877,
      "▁number": 878,
      "▁cha": 879,
      "▁43": 880,
      "▁29": 881,
      "▁53": 882,
      "▁1100": 883,
      "▁dallas": 884,
      "##ee": 885,
      "▁96": 886,
      "▁round": 887,
      "##294-": 888,
      "▁walk": 889,
      "▁1994": 890,
      "##du": 891,
      "##itive": 892,
      "##!!": 893,
      "##ently": 894,
      "▁show": 895,
      "##uation": 896,
      "ˈ": 897,
      "##itt": 898,
      "##res": 899,
      "▁sim": 900,
      "▁1954": 901,
      "##ula": 902,
      "##apolis": 903,
      "▁leave": 904,
      "▁agreement": 905,
      "▁has": 906,
      "f": 907,
      "##029": 908,
      "##eth": 909,
      "##800": 910,
      "▁1.00": 911,
      "▁energy": 912,
      "▁yester": 913,
      "▁3,000": 914,
      "▁lake": 915,
      "##ane": 916,
      "▁polic": 917,
      "##ro": 918,
      "▁10:25": 919,
      "▁dr": 920,
      "▁01/26/2001": 921,
      "▁concern": 922,
      "##8": 923,
      "▁01/2": 924,
      "▁11.5": 925,
      "▁bott": 926,
      "##aps": 927,
      "▁uhh": 928,
      "▁twenty": 929,
      "▁!!!!!!": 930,
      "▁april": 931,
      "▁couple": 932,
      "##ح": 933,
      "▁team": 934,
      "##ely": 935,
      "##us": 936,
      "##clud": 937,
      "##:25": 938,
      "##less": 939,
      "##ough": 940,
      "▁friend": 941,
      "▁small": 942,
      "▁was": 943,
      "▁fe": 944,
      "▁happ": 945,
      "▁1700": 946,
      "▁past": 947,
      "▁wants": 948,
      "▁fact": 949,
      "▁old": 950,
      "▁elect": 951,
      "▁energ": 952,
      "▁sept": 953,
      "▁ground": 954,
      "▁fre": 955,
      "▁68": 956,
      "▁nonstop": 957,
      "▁med": 958,
      "▁mid": 959,
      "▁260": 960,
      "##819": 961,
      "##beit": 962,
      "##ific": 963,
      "▁arriving": 964,
      "▁space": 965,
      "##ad": 966,
      "##een": 967,
      "•": 968,
      "##ral": 969,
      "▁4.7": 970,
      "▁ban": 971,
      "▁profess": 972,
      "▁fr": 973,
      "##em": 974,
      "▁82": 975,
      "▁wan": 976,
      "▁mess": 977,
      "▁0": 978,
      "▁.": 979,
      "##or": 980,
      "##700": 981,
      "▁expl": 982,
      "▁04:28": 983,
      "##07": 984,
      "▁12.": 985,
      "▁detail": 986,
      "##:51": 987,
      "▁2.0": 988,
      "▁env": 989,
      "▁beyond": 990,
      "##82": 991,
      "▁tom": 992,
      "##ection": 993,
      "▁3": 994,
      "##:50": 995,
      "▁anoder": 996,
      "▁08/0": 997,
      "##/99": 998,
      "▁still": 999,
      "▁talk": 1000,
      "▁green": 1001,
      "▁410-468-3": 1002,
      "##ness": 1003,
      "##ily": 1004,
      "▁exper": 1005,
      "##ble": 1006,
      "▁cut": 1007,
      "▁wrong": 1008,
      "t": 1009,
      "▁say": 1010,
      "##gr": 1011,
      "##hip": 1012,
      "##atch": 1013,
      "##ose": 1014,
      "▁av": 1015,
      "▁forty-": 1016,
      "##9/2000": 1017,
      "▁6/1": 1018,
      "##2,000": 1019,
      "##ically": 1020,
      "ʊ": 1021,
      "▁below": 1022,
      "▁6.2": 1023,
      "##ablish": 1024,
      "##53": 1025,
      "7": 1026,
      "▁love": 1027,
      "▁1699": 1028,
      "£": 1029,
      "##idence": 1030,
      "##134": 1031,
      "▁airport": 1032,
      "#": 1033,
      "ɑ": 1034,
      "▁720": 1035,
      "##k": 1036,
      "▁bro": 1037,
      "▁202.456.1": 1038,
      "##443-3": 1039,
      "##6": 1040,
      "▁202.45": 1041,
      "##/11/2004": 1042,
      "##idd": 1043,
      "[MASK]": 1044,
      "##gether": 1045,
      "▁pho": 1046,
      "##0/2000": 1047,
      "##-343": 1048,
      "σ": 1049,
      "##umb": 1050,
      "▁should": 1051,
      "▁03/2": 1052,
      "▁38": 1053,
      "▁agre": 1054,
      "##:55": 1055,
      "▁sorry": 1056,
      "##-59": 1057,
      "##一": 1058,
      "▁twenty-four": 1059,
      "▁iii": 1060,
      "▁107": 1061,
      "##+": 1062,
      "▁tuesday": 1063,
      "▁5,000": 1064,
      "##³": 1065,
      "▁1,": 1066,
      "▁vegas": 1067,
      "▁wish": 1068,
      "##'": 1069,
      "▁everything": 1070,
      "▁towards": 1071,
      "##ß": 1072,
      "▁01:14": 1073,
      "▁8.3": 1074,
      "▁especially": 1075,
      "##z": 1076,
      "▁170": 1077,
      "##way": 1078,
      "##lik": 1079,
      "▁alright": 1080,
      "##****************": 1081,
      "▁1,200": 1082,
      "▁probably": 1083,
      "##ag": 1084,
      "▁198": 1085,
      "▁sa": 1086,
      "##li": 1087,
      "▁cup": 1088,
      "▁a": 1089,
      "##hn": 1090,
      "##3-": 1091,
      "▁value": 1092,
      "##5": 1093,
      "▁416-8": 1094,
      "##--------": 1095,
      "▁just": 1096,
      "##all": 1097,
      "##3098": 1098,
      "##ecess": 1099,
      "▁&": 1100,
      "▁rather": 1101,
      "▁ele": 1102,
      "▁mm": 1103,
      "▁must": 1104,
      "##/2004": 1105,
      "##25": 1106,
      "▁us": 1107,
      "▁under": 1108,
      "▁3:00": 1109,
      "▁24": 1110,
      "##-3393": 1111,
      "##ي": 1112,
      "▁oh": 1113,
      "▁hot": 1114,
      "▁202.456": 1115,
      "▁02/27/2001": 1116,
      "%": 1117,
      "▁balzac": 1118,
      "▁k": 1119,
      "##inc": 1120,
      "##by": 1121,
      "##????????": 1122,
      "##unch": 1123,
      "##oll": 1124,
      "###": 1125,
      "▁theirs": 1126,
      "##ven": 1127,
      "▁political": 1128,
      "▁372": 1129,
      "▁tec": 1130,
      "▁fing": 1131,
      "▁does": 1132,
      "▁bea": 1133,
      "▁21,000": 1134,
      "n": 1135,
      "▁effort": 1136,
      "##ide": 1137,
      "▁ever": 1138,
      "▁app": 1139,
      "##ger": 1140,
      "▁will": 1141,
      "##2/2001": 1142,
      "▁03:00": 1143,
      "▁person": 1144,
      "##41": 1145,
      "▁fl": 1146,
      "▁daily": 1147,
      "▁1986": 1148,
      "▁281-518": 1149,
      "▁bed": 1150,
      "▁bus": 1151,
      "▁>": 1152,
      "▁boston": 1153,
      "##up": 1154,
      "##/200": 1155,
      "##lect": 1156,
      "▁1971": 1157,
      "▁1985": 1158,
      "▁expect": 1159,
      "▁1955": 1160,
      "▁q": 1161,
      "▁son": 1162,
      "##:07": 1163,
      "▁orig": 1164,
      "▁fell": 1165,
      "▁provide": 1166,
      "▁def": 1167,
      "▁remember": 1168,
      "##kee": 1169,
      "▁99": 1170,
      "▁93": 1171,
      "##ς": 1172,
      "##um": 1173,
      "##ful": 1174,
      "▁hur": 1175,
      "▁taking": 1176,
      "##15": 1177,
      "▁80,000": 1178,
      "▁shop": 1179,
      "##bit": 1180,
      "▁fifteen": 1181,
      "##-780-": 1182,
      "##cle": 1183,
      "▁1943": 1184,
      "▁doct": 1185,
      "▁1978": 1186,
      "##:": 1187,
      "▁cloth": 1188,
      "▁left": 1189,
      "##:30": 1190,
      "▁succ": 1191,
      "▁hair": 1192,
      "▁ac": 1193,
      "##und": 1194,
      "▁158": 1195,
      "▁excellent": 1196,
      "▁ste": 1197,
      "▁area": 1198,
      "##-8031": 1199,
      "▁11:35": 1200,
      "##ert": 1201,
      "##y": 1202,
      "▁okay": 1203,
      "▁morning": 1204,
      "▁view": 1205,
      "▁creat": 1206,
      "▁nineteen": 1207,
      "##12": 1208,
      "▁ident": 1209,
      "▁for": 1210,
      "▁270": 1211,
      "##66": 1212,
      "▁1220": 1213,
      "▁following": 1214,
      "▁1820": 1215,
      "▁mouth": 1216,
      "▁im": 1217,
      "▁watch": 1218,
      "▁whose": 1219,
      "▁555": 1220,
      "▁lad": 1221,
      "▁dom": 1222,
      "▁05/01/2001": 1223,
      "▁?": 1224,
      "##ated": 1225,
      "▁http": 1226,
      "##:20": 1227,
      "▁down": 1228,
      "▁before": 1229,
      "▁since": 1230,
      "▁move": 1231,
      "▁1530": 1232,
      "##~": 1233,
      "▁sc": 1234,
      "▁val": 1235,
      "▁50000": 1236,
      "▁18,000": 1237,
      "▁07/14/2000": 1238,
      "▁mass": 1239,
      "##row": 1240,
      "▁1.3": 1241,
      "▁strong": 1242,
      "▁opt": 1243,
      "▁pa": 1244,
      "##ism": 1245,
      "##lf": 1246,
      "##un": 1247,
      "##ec": 1248,
      "##........": 1249,
      "▁18": 1250,
      "▁russ": 1251,
      "▁once": 1252,
      "##book": 1253,
      "##ion": 1254,
      "▁fish": 1255,
      "##ass": 1256,
      "##fer": 1257,
      "##et": 1258,
      "▁woud": 1259,
      "##els": 1260,
      "▁saturday": 1261,
      "▁ten": 1262,
      "▁16.3": 1263,
      "▁begin": 1264,
      "▁uh": 1265,
      "▁ins": 1266,
      "▁touch": 1267,
      "##92": 1268,
      "▁1968": 1269,
      "]": 1270,
      "▁twelve": 1271,
      "▁10:5": 1272,
      "##880": 1273,
      "▁looks": 1274,
      "▁376": 1275,
      "##ellow": 1276,
      "▁7.3": 1277,
      "▁sand": 1278,
      "▁is": 1279,
      "▁sk": 1280,
      "▁17": 1281,
      "▁196": 1282,
      "▁baltim": 1283,
      "▁31": 1284,
      "▁00": 1285,
      "##ances": 1286,
      "▁wil": 1287,
      "##461": 1288,
      "▁looked": 1289,
      "▁process": 1290,
      "▁here": 1291,
      "▁56": 1292,
      "▁june": 1293,
      "▁9/11": 1294,
      "▁12": 1295,
      "##-5": 1296,
      "▁ren": 1297,
      "##ortun": 1298,
      "##vil": 1299,
      "▁575": 1300,
      "##1-": 1301,
      "▁beh": 1302,
      "▁72": 1303,
      "▁les": 1304,
      "▁out": 1305,
      "▁60": 1306,
      "▁tick": 1307,
      "▁ha": 1308,
      "##@ect": 1309,
      "##right": 1310,
      "▁01/24/2001": 1311,
      "▁+1": 1312,
      "##****": 1313,
      "▁test": 1314,
      "▁albeit": 1315,
      "▁top": 1316,
      "##ity": 1317,
      "##cum": 1318,
      "##.16": 1319,
      "▁718": 1320,
      "▁parents": 1321,
      "$": 1322,
      "▁197": 1323,
      "▁10/31": 1324,
      "##ued": 1325,
      "##ower": 1326,
      "▁start": 1327,
      "▁loc": 1328,
      "▁support": 1329,
      "▁city": 1330,
      "##-991-90": 1331,
      "▁september": 1332,
      "##ale": 1333,
      "##32": 1334,
      "##:45": 1335,
      "##ues": 1336,
      "##2/2000": 1337,
      "▁888.916.718": 1338,
      "▁sor": 1339,
      "##ure": 1340,
      "##pe": 1341,
      "▁37": 1342,
      "##:02": 1343,
      "##ep": 1344,
      "##oo": 1345,
      "▁taken": 1346,
      "▁partic": 1347,
      "##ected": 1348,
      "▁whi": 1349,
      "▁alberta": 1350,
      "▁what": 1351,
      "▁allow": 1352,
      "##ight": 1353,
      "▁sour": 1354,
      "▁'m": 1355,
      "▁har": 1356,
      "▁bac": 1357,
      "▁1579": 1358,
      "##ner": 1359,
      "##got": 1360,
      "##5,000": 1361,
      "▁excell": 1362,
      "▁espec": 1363,
      "▁untill": 1364,
      "##thers": 1365,
      "▁step": 1366,
      "▁250": 1367,
      "v": 1368,
      "##c": 1369,
      "▁1980": 1370,
      "▁401": 1371,
      "▁esp": 1372,
      "##ɛ": 1373,
      "▁2014": 1374,
      "▁1787": 1375,
      "▁713-646-3393": 1376,
      "0": 1377,
      "##.85": 1378,
      "▁21": 1379,
      "{": 1380,
      "▁&amp": 1381,
      "##清": 1382,
      "##ines": 1383,
      "##par": 1384,
      "##is": 1385,
      "▁04/16/2001": 1386,
      "▁190": 1387,
      "##town": 1388,
      "▁sar": 1389,
      "[PAD]": 1390,
      "##ush": 1391,
      "##t": 1392,
      "##ame": 1393,
      "▁seemed": 1394,
      "▁ter": 1395,
      "##ization": 1396,
      "▁problem": 1397,
      "▁h": 1398,
      "9": 1399,
      "▁else": 1400,
      "##η": 1401,
      "##pite": 1402,
      "▁143": 1403,
      "▁08/16": 1404,
      "▁available": 1405,
      "▁lost": 1406,
      "▁aw": 1407,
      "▁million": 1408,
      "##7/2000": 1409,
      "##xt": 1410,
      "▁also": 1411,
      "▁ano": 1412,
      "▁7": 1413,
      "▁75": 1414,
      "▁unto": 1415,
      "##谿": 1416,
      "▁200": 1417,
      "▁while": 1418,
      "▁’’": 1419,
      "▁sur": 1420,
      "▁whe": 1421,
      "▁grand": 1422,
      "▁huma": 1423,
      "▁510-642": 1424,
      "▁yellow": 1425,
      "▁inter": 1426,
      "##ase": 1427,
      "▁regard": 1428,
      "##ating": 1429,
      "8": 1430,
      "##§": 1431,
      "▁francisco": 1432,
      "##ved": 1433,
      "▁z": 1434,
      "▁2012": 1435,
      "▁democr": 1436,
      "▁together": 1437,
      "▁better": 1438,
      "##.1234": 1439,
      "▁713-654-0365": 1440,
      "▁199": 1441,
      "▁fall": 1442,
      "▁huh": 1443,
      "##:13": 1444,
      "##46-3393": 1445,
      "##¢": 1446,
      "▁nwww": 1447,
      "▁t": 1448,
      "▁project": 1449,
      "▁collect": 1450,
      "##od": 1451,
      "▁family": 1452,
      "▁838": 1453,
      "▁1932": 1454,
      "##ι": 1455,
      "▁health": 1456,
      "▁went": 1457,
      "##:15": 1458,
      "▁405": 1459,
      "##tw": 1460,
      "##16": 1461,
      "▁fort": 1462,
      "ح": 1463,
      "▁\"": 1464,
      "2": 1465,
      "##led": 1466,
      "”": 1467,
      "▁64": 1468,
      "▁1835": 1469,
      "▁kn": 1470,
      "▁see": 1471,
      "▁although": 1472,
      "樋": 1473,
      "##,8": 1474,
      "▁1982": 1475,
      "##iqu": 1476,
      "▁no-6": 1477,
      "▁cer": 1478,
      "▁281-435-0295": 1479,
      "##.75": 1480,
      "▁develop": 1481,
      "##isco": 1482,
      "▁look": 1483,
      "▁form": 1484,
      "▁never": 1485,
      "▁only": 1486,
      "##71": 1487,
      "##ck": 1488,
      "▁11": 1489,
      "▁thousand": 1490,
      "▁_________________________________": 1491,
      "▁512": 1492,
      "▁1777": 1493,
      "▁48": 1494,
      "##澹": 1495,
      "##erc": 1496,
      "##ending": 1497,
      "▁5:00": 1498,
      "▁10:00": 1499,
      "##ond": 1500,
      "▁1972": 1501,
      "▁itself": 1502,
      "▁beside": 1503,
      "▁major": 1504,
      "##ink": 1505,
      "▁inc": 1506,
      "##illion": 1507,
      "▁civ": 1508,
      "##874": 1509,
      "##79": 1510,
      "▁13": 1511,
      "▁02/13/2001": 1512,
      "▁newark": 1513,
      "▁thirty-five": 1514,
      "▁to": 1515,
      "▁10/2": 1516,
      "▁che": 1517,
      "##,0": 1518,
      "##i": 1519,
      "##ire": 1520,
      "▁real": 1521,
      "##司": 1522,
      "##109": 1523,
      "##ult": 1524,
      "▁save": 1525,
      "▁trad": 1526,
      "##ver": 1527,
      "▁days": 1528,
      "▁east": 1529,
      "##/16": 1530,
      "▁except": 1531,
      "▁play": 1532,
      "司": 1533,
      "##x": 1534,
      "##21": 1535,
      "##0365": 1536,
      "▁as": 1537,
      "▁%": 1538,
      "▁yes": 1539,
      "##elp": 1540,
      "▁philadelp": 1541,
      "▁end": 1542,
      "▁year": 1543,
      "▁06": 1544,
      "▁92": 1545,
      "▁effect": 1546,
      "##ott": 1547,
      "&": 1548,
      "¢": 1549,
      "▁thy": 1550,
      "##ploy": 1551,
      "▁met": 1552,
      "▁amongst": 1553,
      "图": 1554,
      "##ren": 1555,
      "▁york": 1556,
      "##imes": 1557,
      "▁hop": 1558,
      "▁1966": 1559,
      "­": 1560,
      "奈": 1561,
      "##d": 1562,
      "##one": 1563,
      "##53-3119": 1564,
      "##-99": 1565,
      "▁aust": 1566,
      "##ace": 1567,
      "▁august": 1568,
      "▁180": 1569,
      "▁em": 1570,
      "▁can": 1571,
      "##,00": 1572,
      "▁whereby": 1573,
      "▁means": 1574,
      "▁fight": 1575,
      "▁arg": 1576,
      "▁invol": 1577,
      "▁doing": 1578,
      "##ark": 1579,
      "##ational": 1580,
      "▁discuss": 1581,
      "▁avail": 1582,
      "▁may": 1583,
      "▁2010": 1584,
      "##als": 1585,
      "##ork": 1586,
      "▁899-": 1587,
      "##ay": 1588,
      "▁train": 1589,
      "##ago": 1590,
      "▁347": 1591,
      "▁4:50": 1592,
      "##old": 1593,
      "▁dc": 1594,
      "▁ones": 1595,
      "▁14": 1596,
      "▁sn": 1597,
      "##;": 1598,
      "▁treat": 1599,
      "▁language": 1600,
      "▁1623": 1601,
      "▁go": 1602,
      "▁thank": 1603,
      "▁despite": 1604,
      "▁priv": 1605,
      "η": 1606,
      "▁1:00": 1607,
      "▁'d": 1608,
      "##'s": 1609,
      "##/17/2000": 1610,
      "▁-----------------------------------------------------------------": 1611,
      "##ə": 1612,
      "##ors": 1613,
      "##ters": 1614,
      "▁183": 1615,
      "##ify": 1616,
      "?": 1617,
      "▁iv": 1618,
      "▁05/25/2001": 1619,
      "##ust": 1620,
      "▁---": 1621,
      "▁rel": 1622,
      "▁ben": 1623,
      "##80-": 1624,
      "▁off": 1625,
      "##远": 1626,
      "##和": 1627,
      "▁north": 1628,
      "▁b/": 1629,
      "▁hors": 1630,
      "▁1892": 1631,
      "▁oil": 1632,
      "▁teach": 1633,
      "##ively": 1634,
      "▁mother": 1635,
      "##key": 1636,
      "▁19": 1637,
      "▁81": 1638,
      "▁three": 1639,
      "▁appear": 1640,
      "##20": 1641,
      "▁jan": 1642,
      "▁atlanta": 1643,
      "▁count": 1644,
      "##/13/2001": 1645,
      "##:0": 1646,
      "##ised": 1647,
      "[": 1648,
      "▁03/27/2001": 1649,
      "▁rights": 1650,
      "▁white": 1651,
      "▁**": 1652,
      "##ha": 1653,
      "▁notwi": 1654,
      "▁713-853-1696": 1655,
      "##-23": 1656,
      "##ster": 1657,
      "▁6871082": 1658,
      "▁educ": 1659,
      "▁sun": 1660,
      "<": 1661,
      "##28": 1662,
      "▁employ": 1663,
      "…": 1664,
      "##.70": 1665,
      "▁high": 1666,
      "▁blue": 1667,
      "▁1999": 1668,
      "▁s’": 1669,
      "##16.718": 1670,
      "▁called": 1671,
      "▁1/2": 1672,
      "▁33": 1673,
      "▁ens": 1674,
      "▁sil": 1675,
      "▁fig": 1676,
      "▁bl": 1677,
      "▁accord": 1678,
      "##vers": 1679,
      "##:01": 1680,
      "▁egg": 1681,
      "##ics": 1682,
      "▁several": 1683,
      "▁town": 1684,
      "▁mind": 1685,
      "▁via": 1686,
      "##uel": 1687,
      "▁3:30": 1688,
      "##ph": 1689,
      "▁toward": 1690,
      "▁6.00": 1691,
      "▁though": 1692,
      "▁8:00": 1693,
      "▁703": 1694,
      "▁yesterday": 1695,
      "▁1987": 1696,
      "##re": 1697,
      "##ted": 1698,
      "##aster": 1699,
      "▁tri": 1700,
      "##r": 1701,
      "##!!!": 1702,
      "##aw": 1703,
      "##co": 1704,
      "▁1926": 1705,
      "▁till": 1706,
      "##/8/00": 1707,
      "▁south": 1708,
      "▁common": 1709,
      "##de": 1710,
      "▁tex": 1711,
      "##ina": 1712,
      "##/": 1713,
      "▁china": 1714,
      "▁'s": 1715,
      "▁oakland": 1716,
      "▁people": 1717,
      "▁1696": 1718,
      "##61": 1719,
      "##hing": 1720,
      "▁wether": 1721,
      "##pr": 1722,
      "▁birth": 1723,
      "▁pat": 1724,
      "▁rese": 1725,
      "##“": 1726,
      "▁happened": 1727,
      "▁1230": 1728,
      "▁800-553-3119": 1729,
      "##,950": 1730,
      "▁1836": 1731,
      "##sh": 1732,
      "##arch": 1733,
      "##2000": 1734,
      "▁places": 1735,
      "##oke": 1736,
      "▁3.7": 1737,
      "▁169": 1738,
      "##atic": 1739,
      "▁ourselves": 1740,
      "##za": 1741,
      "##ne": 1742,
      "▁pet": 1743,
      "▁difficult": 1744,
      "##oun": 1745,
      "##.3": 1746,
      "▁cult": 1747,
      "▁dollars": 1748,
      "▁430": 1749,
      "▁y": 1750,
      "▁roman": 1751,
      "##ences": 1752,
      "▁comedie": 1753,
      "▁dese": 1754,
      "▁thr": 1755,
      "▁hard": 1756,
      "▁pub": 1757,
      "▁cheap": 1758,
      "▁texas": 1759,
      "▁aside": 1760,
      "##91": 1761,
      "▁330": 1762,
      "▁thirty": 1763,
      "##ister": 1764,
      "##.00": 1765,
      "▁near": 1766,
      "##:40": 1767,
      "▁earli": 1768,
      "##aking": 1769,
      "▁wa": 1770,
      "▁mr": 1771,
      "▁ol": 1772,
      "##rib": 1773,
      "▁1918": 1774,
      "##ve": 1775,
      "ه": 1776,
      "▁minutes": 1777,
      "##st": 1778,
      "##/26": 1779,
      "▁makes": 1780,
      "▁1598": 1781,
      "▁summer": 1782,
      "##111": 1783,
      "##les": 1784,
      "▁http://": 1785,
      "▁curren": 1786,
      "▁eighty": 1787,
      "▁forth": 1788,
      "▁free": 1789,
      "##0-3": 1790,
      "▁behind": 1791,
      "▁12:1": 1792,
      "▁current": 1793,
      "▁something": 1794,
      "l": 1795,
      "▁06/01/2001": 1796,
      "▁flight": 1797,
      "▁twenty-two": 1798,
      "▁eff": 1799,
      "##ny": 1800,
      "##ik": 1801,
      "▁quinn": 1802,
      "\\": 1803,
      "▁whether": 1804,
      "▁???": 1805,
      "▁certain": 1806,
      "▁belie": 1807,
      "▁inv": 1808,
      "▁:)": 1809,
      "▁eat": 1810,
      "▁ask": 1811,
      "▁information": 1812,
      "▁longer": 1813,
      "▁national": 1814,
      "##am": 1815,
      "▁und": 1816,
      "▁1945": 1817,
      "▁dan": 1818,
      "##ug": 1819,
      "▁08": 1820,
      "▁delta": 1821,
      "▁report": 1822,
      "▁1776": 1823,
      "▁+45": 1824,
      "▁above": 1825,
      "▁3724": 1826,
      "▁bag": 1827,
      "##l": 1828,
      "##ance": 1829,
      "▁bab": 1830,
      "▁sit": 1831,
      "▁tor": 1832,
      "##ror": 1833,
      "▁2006": 1834,
      "▁1843": 1835,
      "▁850": 1836,
      "▁present": 1837,
      "▁room": 1838,
      "##-415-": 1839,
      "##ature": 1840,
      "▁1738": 1841,
      "##9": 1842,
      "▁lead": 1843,
      "▁at": 1844,
      "▁thought": 1845,
      "##iness": 1846,
      "▁4": 1847,
      "##ian": 1848,
      "##unic": 1849,
      "▁pr": 1850,
      "##ogether": 1851,
      "▁1958": 1852,
      "▁mod": 1853,
      "琴": 1854,
      "▁most": 1855,
      "##ize": 1856,
      "##ration": 1857,
      "-": 1858,
      "▁init": 1859,
      "##200": 1860,
      "##ern": 1861,
      "##room": 1862,
      "▁besid": 1863,
      "▁1928": 1864,
      "##φ": 1865,
      "##ities": 1866,
      "▁without": 1867,
      "▁str": 1868,
      "##:56": 1869,
      "▁415.621": 1870,
      "▁pain": 1871,
      "▁210": 1872,
      "▁ready": 1873,
      "##ist": 1874,
      "##ange": 1875,
      "##aren": 1876,
      "##ard": 1877,
      "▁girl": 1878,
      "▁sle": 1879,
      "+": 1880,
      "▁monday": 1881,
      "▁(": 1882,
      "##.916.718": 1883,
      "▁2016": 1884,
      "▁open": 1885,
      "▁09/15/99": 1886,
      "▁giv": 1887,
      "▁prot": 1888,
      "▁abe": 1889,
      "▁half": 1890,
      "▁07": 1891,
      "##q": 1892,
      "##.718": 1893,
      "▁control": 1894,
      "##393": 1895,
      "▁beaut": 1896,
      "##ed": 1897,
      "▁few": 1898,
      "##ission": 1899,
      "▁89": 1900,
      "▁ach": 1901,
      "##8/2001": 1902,
      "▁possible": 1903,
      "##ither": 1904,
      "▁646-8420": 1905,
      "▁oper": 1906,
      "##u": 1907,
      "▁29587": 1908,
      "▁anybody": 1909,
      "##raft": 1910,
      "##:1": 1911,
      "##/7": 1912,
      "▁b/c": 1913,
      "##ided": 1914,
      "▁horse": 1915,
      "▁gu": 1916,
      "▁v": 1917,
      "▁mean": 1918,
      "▁fri": 1919,
      "##tt": 1920,
      "▁|": 1921,
      "▁hope": 1922,
      "##,500": 1923,
      "*": 1924,
      "▁pric": 1925,
      "##5-": 1926,
      "##ummy": 1927,
      "##====": 1928,
      "▁prom": 1929,
      "·": 1930,
      "##line": 1931,
      "▁po": 1932,
      "##ier": 1933,
      "##ul": 1934,
      "▁cr": 1935,
      "##________________": 1936,
      "▁hotel": 1937,
      "##========": 1938,
      "▁360": 1939,
      "▁dall": 1940,
      "##ester": 1941,
      "##ru": 1942,
      "##head": 1943,
      "##ince": 1944,
      "##dy": 1945,
      "▁going": 1946,
      "▁680": 1947,
      "▁10:46": 1948,
      "▁plus": 1949,
      "▁many": 1950,
      "##ation": 1951,
      "▁08/03/2000": 1952,
      "▁grow": 1953,
      "–": 1954,
      "##utes": 1955,
      "▁link": 1956,
      "▁201": 1957,
      "▁1849": 1958,
      "▁exce": 1959,
      "##00": 1960,
      "▁1300": 1961,
      "##ish": 1962,
      "▁7.2": 1963,
      "##ping": 1964,
      "▁versus": 1965,
      "##iously": 1966,
      "▁the": 1967,
      "▁lim": 1968,
      "▁that": 1969,
      "ν": 1970,
      "▁2.3": 1971,
      "▁numerous": 1972,
      "▁ii": 1973,
      "##°": 1974,
      "▁num": 1975,
      "##68": 1976,
      "##ing": 1977,
      "##eak": 1978,
      "▁bad": 1979,
      "##enix": 1980,
      "▁result": 1981,
      "▁dad": 1982,
      "▁.3": 1983,
      "##0010": 1984,
      "▁cons": 1985,
      "▁gl": 1986,
      "▁fac": 1987,
      "▁amidst": 1988,
      "▁doggie": 1989,
      "##il": 1990,
      "▁hands": 1991,
      "##@": 1992,
      "##>": 1993,
      "▁flights": 1994,
      "##oth": 1995,
      "##ear": 1996,
      "▁commun": 1997,
      "▁put": 1998,
      "##ile": 1999,
      "▁50,000": 2000,
      "▁1724": 2001,
      "▁–": 2002,
      "▁38,000": 2003,
      "²": 2004,
      "▁invest": 2005,
      "▁05/17/99": 2006,
      "▁2021": 2007,
      "▁problems": 2008,
      "▁03/21/2001": 2009,
      "##est": 2010,
      "▁would": 2011,
      "##ages": 2012,
      "▁page": 2013,
      "▁61": 2014,
      "▁1245": 2015,
      "##ast": 2016,
      "▁laura": 2017,
      "##iate": 2018,
      "##ms": 2019,
      "##ain": 2020,
      "▁814014": 2021,
      "▁80435": 2022,
      "▁1984": 2023,
      "##aph": 2024,
      "▁living": 2025,
      "▁deb": 2026,
      "▁1580": 2027,
      "▁202": 2028,
      "▁505": 2029,
      "山": 2030,
      "▁middle": 2031,
      "(": 2032,
      "##gan": 2033,
      "▁47,500": 2034,
      "##air": 2035,
      "▁ty": 2036,
      "▁getting": 2037,
      "##where": 2038,
      "▁620-": 2039,
      "▁party": 2040,
      "##ica": 2041,
      "##velop": 2042,
      "##ider": 2043,
      "##rem": 2044,
      "##:49": 2045,
      "▁behin": 2046,
      "▁fir": 2047,
      "▁place": 2048,
      "▁3,202.61": 2049,
      "▁enj": 2050,
      "▁‘": 2051,
      "▁£": 2052,
      "▁jwww": 2053,
      "▁225": 2054,
      "##2-6": 2055,
      "▁fix": 2056,
      "##989": 2057,
      "##ts": 2058,
      "##×": 2059,
      "▁01/25/2001": 2060,
      "▁prop": 2061,
      "▁non": 2062,
      "▁quality": 2063,
      "##ared": 2064,
      "▁six": 2065,
      "▁cir": 2066,
      "▁and": 2067,
      "▁per": 2068,
      "▁36": 2069,
      "▁03/0": 2070,
      "q": 2071,
      "▁stand": 2072,
      "▁thanks": 2073,
      "▁evening": 2074,
      "▁record": 2075,
      "▁978": 2076,
      "▁airlines": 2077,
      "##raw": 2078,
      "##60": 2079,
      "##:48": 2080,
      "##------": 2081,
      "▁05": 2082,
      "▁leaving": 2083,
      "▁97": 2084,
      "##ipp": 2085,
      "▁univers": 2086,
      "##/1": 2087,
      "##ides": 2088,
      "##ural": 2089,
      "▁’ve": 2090,
      "##oy": 2091,
      "▁there": 2092,
      "##ɔ": 2093,
      "▁work": 2094,
      "##β": 2095,
      "▁including": 2096,
      "##side": 2097,
      "▁pittsburgh": 2098,
      "▁forty": 2099,
      "##ays": 2100,
      "▁san": 2101,
      "##vel": 2102,
      "▁3/4": 2103,
      "▁natural": 2104,
      "œ": 2105,
      "▁earliest": 2106,
      "##:57": 2107,
      "▁unlike": 2108,
      "▁u": 2109,
      "▁call": 2110,
      "##urn": 2111,
      "▁2002": 2112,
      "▁somebody": 2113,
      "▁`s": 2114,
      "▁832": 2115,
      "▁development": 2116,
      "▁by": 2117,
      "▁88": 2118,
      "▁pittsbur": 2119,
      "▁society": 2120,
      "##1696": 2121,
      "▁hol": 2122,
      "▁second": 2123,
      "##om": 2124,
      "▁custom": 2125,
      "##-)": 2126,
      "▁until": 2127,
      "▁269": 2128,
      "▁sea": 2129,
      "▁word": 2130,
      "##84": 2131,
      "▁way": 2132,
      "▁ind": 2133,
      "▁5000": 2134,
      "▁832.676": 2135,
      "[UNK]": 2136,
      "▁piec": 2137,
      "##51": 2138,
      "▁4,": 2139,
      "##ular": 2140,
      "@": 2141,
      "▁peace": 2142,
      "▁.?": 2143,
      "▁55": 2144,
      "▁over": 2145,
      "▁entire": 2146,
      "▁420": 2147,
      "▁express": 2148,
      "##vern": 2149,
      "##ore": 2150,
      "▁30,000": 2151,
      "▁wed": 2152,
      "▁5.3": 2153,
      "▁upon": 2154,
      "▁sure": 2155,
      "##ir": 2156,
      "##~*": 2157,
      "▁fourteen": 2158,
      "▁12:3": 2159,
      "▁04:17": 2160,
      "##ient": 2161,
      "▁future": 2162,
      "▁button": 2163,
      "▁3.5": 2164,
      "##haps": 2165,
      "ʁ": 2166,
      "##iday": 2167,
      "▁860": 2168,
      "▁11:30": 2169,
      "▁366": 2170,
      "▁gon": 2171,
      "▁s": 2172,
      "▁sixteen": 2173,
      "▁1616": 2174,
      "▁resp": 2175,
      "▁bath": 2176,
      "##ks": 2177,
      "##²": 2178,
      "▁sat": 2179,
      "▁45": 2180,
      "▁sett": 2181,
      "▁77": 2182,
      "▁713-654-128": 2183,
      "▁3,500": 2184,
      "▁40": 2185,
      "##|": 2186,
      "▁comple": 2187,
      "##onto": 2188,
      "##ased": 2189,
      "▁whilst": 2190,
      "##================": 2191,
      "▁bre": 2192,
      "##================================": 2193,
      "▁question": 2194,
      "▁wait": 2195,
      "▁1561": 2196,
      "##ondon": 2197,
      "▁numer": 2198,
      "##ok": 2199,
      "##ω": 2200,
      "##810": 2201,
      "▁3.8": 2202,
      "▁percent": 2203,
      "▁kind": 2204,
      "##ably": 2205,
      "ł": 2206,
      "ɔ": 2207,
      "##ruct": 2208,
      "▁yer": 2209,
      "▁ahead": 2210,
      "▁cleveland": 2211,
      "▁102": 2212,
      "▁alone": 2213,
      "▁d": 2214,
      "▁1689": 2215,
      "##.doc": 2216,
      "##山": 2217,
      "##as": 2218,
      "▁65": 2219,
      "▁324": 2220,
      "##ensive": 2221,
      "▁differ": 2222,
      "##bers": 2223,
      "▁40,000": 2224,
      "##ium": 2225,
      "▁ride": 2226,
      "##ll": 2227,
      "/": 2228,
      "##0072": 2229,
      "▁1594": 2230,
      "▁further": 2231,
      "▁check": 2232,
      "##an": 2233,
      "##own": 2234,
      "##ε": 2235,
      "▁1981": 2236,
      "▁ham": 2237,
      "##gy": 2238,
      "##ن": 2239,
      "##io": 2240,
      "▁prov": 2241,
      "##—": 2242,
      "##ous": 2243,
      "##ames": 2244,
      "▁others": 2245,
      "▁713-8": 2246,
      "▁1902": 2247,
      "▁manag": 2248,
      "▁really": 2249,
      "##iod": 2250,
      "▁ke": 2251,
      "▁46": 2252,
      "▁clim": 2253,
      "▁always": 2254,
      "▁253": 2255,
      "##ived": 2256,
      "▁646": 2257,
      "▁lest": 2258,
      "▁ser": 2259,
      "##ces": 2260,
      "##act": 2261,
      "▁pm": 2262,
      "▁saw": 2263,
      "▁944": 2264,
      "▁70.85": 2265,
      "▁defin": 2266,
      "▁mi": 2267,
      "▁guess": 2268,
      "##fore": 2269,
      "##-50": 2270,
      "▁throu": 2271,
      "##ination": 2272,
      "##0295": 2273,
      "##ong": 2274,
      "##况": 2275,
      "▁chair": 2276,
      "##%": 2277,
      "▁800.713.8": 2278,
      "▁154": 2279,
      "▁reg": 2280,
      "▁bit": 2281,
      "▁78": 2282,
      "▁buy": 2283,
      "▁pict": 2284,
      "▁please": 2285,
      "##ury": 2286,
      "▁pers": 2287,
      "▁company": 2288,
      "▁years": 2289,
      "▁might": 2290,
      "▁different": 2291,
      "▁11:3": 2292,
      "▁international": 2293,
      "##ow": 2294,
      "▁": 2295,
      "▁beneath": 2296,
      "▁....": 2297,
      "▁deal": 2298,
      "▁115": 2299,
      "ɛ": 2300,
      "▁110": 2301,
      "▁320": 2302,
      "##like": 2303,
      "▁thinking": 2304,
      "##ent": 2305,
      "##land": 2306,
      "▁be": 2307,
      "##ue": 2308,
      "▁dark": 2309,
      "▁646-84": 2310,
      "▁box": 2311,
      "▁park": 2312,
      "##3-3": 2313,
      "▁abs": 2314,
      "##b": 2315,
      "▁night": 2316,
      "##most": 2317,
      "▁important": 2318,
      "##iet": 2319,
      "▁1,000": 2320,
      "##–": 2321,
      "▁about": 2322,
      "▁market": 2323,
      "▁prob": 2324,
      "▁1829": 2325,
      "##ce": 2326,
      "ʻ": 2327,
      "##ether": 2328,
      "▁baltimore": 2329,
      "▁th": 2330,
      "##our": 2331,
      "▁awoh": 2332,
      "##ition": 2333,
      "▁looking": 2334,
      "##ly": 2335,
      "▁51": 2336,
      "##10": 2337,
      "▁ent": 2338,
      "##!!!!!!!!": 2339,
      "##igh": 2340,
      "▁1599": 2341,
      "▁mil": 2342,
      "▁4.9": 2343,
      "##子": 2344,
      "▁2005": 2345,
      "▁ok": 2346,
      "▁================================": 2347,
      "▁history": 2348,
      "##ash": 2349,
      "▁1912": 2350,
      "▁game": 2351,
      "##ations": 2352,
      "▁rece": 2353,
      "##.782": 2354,
      "##47": 2355,
      "津": 2356,
      "##--": 2357,
      "##rans": 2358,
      "▁indianapolis": 2359,
      "▁62": 2360,
      "▁phone": 2361,
      "▁415": 2362,
      "▁op": 2363,
      "▁wednesday": 2364,
      "▁think": 2365,
      "##ility": 2366,
      "▁na": 2367,
      "▁rec": 2368,
      "▁conc": 2369,
      "▁1998": 2370,
      "▁sol": 2371,
      "▁it's": 2372,
      "▁sm": 2373,
      "▁been": 2374,
      "▁type": 2375,
      "▁paren": 2376,
      "▁words": 2377,
      "##oc": 2378,
      "##itch": 2379,
      "##ony": 2380,
      "▁outs": 2381,
      "##º": 2382,
      "▁713-654-": 2383,
      "▁1992": 2384,
      "##:03": 2385,
      "▁school": 2386,
      "▁restaurant": 2387,
      "▁et": 2388,
      "▁1588": 2389,
      "▁good": 2390,
      "▁1592": 2391,
      "▁059085": 2392,
      "▁turned": 2393,
      "▁44,000": 2394,
      "ρ": 2395,
      "▁fun": 2396,
      "##int": 2397,
      "##ject": 2398,
      "##ο": 2399,
      "##ob": 2400,
      "▁thir": 2401,
      "况": 2402,
      "▁bill": 2403,
      "▁help": 2404,
      "##ł": 2405,
      "▁1110": 2406,
      "▁120,000": 2407,
      "▁sent": 2408,
      "##if": 2409,
      "▁8": 2410,
      "##202": 2411,
      "▁<<": 2412,
      "α": 2413,
      "▁2,": 2414,
      "▁every": 2415,
      "o": 2416,
      "▁idea": 2417,
      "▁table": 2418,
      "▁1957": 2419,
      "▁milk": 2420,
      "##ocr": 2421,
      ",": 2422,
      "▁using": 2423,
      "##attle": 2424,
      "▁inf": 2425,
      "▁281-435-": 2426,
      "ω": 2427,
      "##ates": 2428,
      "##•": 2429,
      "▁large": 2430,
      "▁poor": 2431,
      "▁seen": 2432,
      "##.6": 2433,
      "##ery": 2434,
      "▁1307": 2435,
      "▁--": 2436,
      "##1/2001": 2437,
      "▁piece": 2438,
      "##alf": 2439,
      "▁09:45": 2440,
      "##ri": 2441,
      "▁1846": 2442,
      "▁1875": 2443,
      "##ʒ": 2444,
      "▁11:32": 2445,
      "##-46": 2446,
      "##uding": 2447,
      "##ν": 2448,
      "▁power": 2449,
      "##-0": 2450,
      "##********": 2451,
      "▁ext": 2452,
      "▁being": 2453,
      "▁las": 2454,
      "▁needs": 2455,
      "▁52": 2456,
      "##樋": 2457,
      "##itions": 2458,
      "▁amid": 2459,
      "##h-": 2460,
      "##/4": 2461,
      "##85": 2462,
      "▁milwaukee": 2463,
      "▁.......": 2464,
      "澹": 2465,
      "▁child": 2466,
      "▁kids": 2467,
      "▁rem": 2468,
      "##au": 2469,
      "##cc": 2470,
      "▁give": 2471,
      "##ught": 2472,
      "▁minute": 2473,
      "##ud": 2474,
      ">": 2475,
      "##oot": 2476,
      "▁saying": 2477,
      "▁-": 2478,
      "▁they": 2479,
      "φ": 2480,
      "##g": 2481,
      "##ined": 2482,
      "▁6,000": 2483,
      "▁later": 2484,
      "▁den": 2485,
      "##奈": 2486,
      "▁1993": 2487,
      "##outh": 2488,
      "##aff": 2489,
      "##:28": 2490,
      "▁03:58": 2491,
      "▁face": 2492,
      "▁opposite": 2493,
      "##ate": 2494,
      "▁eyes": 2495,
      "▁2.5": 2496,
      "口": 2497,
      "±": 2498,
      "▁account": 2499,
      "▁'71": 2500,
      "▁!!!!!!!!!!!": 2501,
      "▁mer": 2502,
      "▁works": 2503,
      "##ies": 2504,
      "▁ple": 2505,
      "▁2,500": 2506,
      "##a": 2507,
      "▁”": 2508,
      "##ign": 2509,
      "##low": 2510,
      "▁shakes": 2511,
      "▁813": 2512,
      "▁minus": 2513,
      "##se": 2514,
      "▁2050": 2515,
      "▁eight": 2516,
      "▁2004": 2517,
      "▁known": 2518,
      "▁lic": 2519,
      "▁whole": 2520,
      "▁pan": 2521,
      "▁6.1": 2522,
      "##004": 2523,
      "##aim": 2524,
      "▁tra": 2525,
      "▁four": 2526,
      "▁att": 2527,
      "##age": 2528,
      "▁beach": 2529,
      "▁1949": 2530,
      "##icago": 2531,
      "##ommend": 2532,
      "▁united": 2533,
      "##amed": 2534,
      "▁angel": 2535,
      "▁80": 2536,
      "▁heard": 2537,
      "▁bird": 2538,
      "##ho": 2539,
      "##ol": 2540,
      "▁!!": 2541,
      "▁jo": 2542,
      "▁fi": 2543,
      "▁sad": 2544,
      "##clock": 2545,
      "##ains": 2546,
      "##ians": 2547,
      "[SEP]": 2548,
      "▁hour": 2549,
      "▁4:00": 2550,
      "##/17/99": 2551,
      "▁address": 2552,
      "▁fore": 2553,
      "##ified": 2554,
      "▁09:2": 2555,
      "▁dead": 2556,
      "##ig": 2557,
      "▁your": 2558,
      "▁1821": 2559,
      "▁1937": 2560,
      "##zen": 2561,
      "▁com": 2562,
      "▁ye": 2563,
      "##22,000": 2564,
      "##ost": 2565,
      "▁floor": 2566,
      "##ز": 2567,
      "##sc": 2568,
      "▁41": 2569,
      "▁anal": 2570,
      "[CLS]": 2571,
      "##osite": 2572,
      "▁doctor": 2573,
      "▁!!!": 2574,
      "▁10/26/2000": 2575,
      "▁books": 2576,
      "##-n": 2577,
      "▁450": 2578,
      "▁super": 2579,
      "▁8:30": 2580,
      "’": 2581,
      "▁tr": 2582,
      "▁pretty": 2583,
      "▁same": 2584,
      "##in": 2585,
      "##23": 2586,
      "##o": 2587,
      "▁letter": 2588,
      "##nd": 2589,
      "##ical": 2590,
      "▁leg": 2591,
      "##xic": 2592,
      "▁11:36": 2593,
      "##ise": 2594,
      "▁130": 2595,
      "##,000,000": 2596,
      "##.99": 2597,
      "▁paper": 2598,
      "##esday": 2599,
      "▁answ": 2600,
      "##ken": 2601,
      "c": 2602,
      "##ament": 2603,
      "▁success": 2604,
      "##43": 2605,
      "##ot": 2606,
      "▁·": 2607,
      "▁myself": 2608,
      "▁2.9": 2609,
      "▁mu": 2610,
      "▁@": 2611,
      "▁?!": 2612,
      "##ton": 2613,
      "##:18": 2614,
      "▁bet": 2615,
      "▁en": 2616,
      "##app": 2617,
      "▁acc": 2618,
      "▁713/": 2619,
      "##iation": 2620,
      "##/10/2000": 2621,
      "▁11,000": 2622,
      "##aining": 2623,
      "##ward": 2624,
      "▁thurs": 2625,
      "##ect": 2626,
      "▁amount": 2627,
      "一": 2628,
      "##iddle": 2629,
      "##ments": 2630,
      "##/9": 2631,
      "▁intern": 2632,
      "▁house": 2633,
      "▁1910": 2634,
      "▁sw": 2635,
      "▁arrive": 2636,
      "▁restaur": 2637,
      "▁cost": 2638,
      "▁mo": 2639,
      "##tsbur": 2640,
      "##oice": 2641,
      "▁lay": 2642,
      "▁min": 2643,
      "▁cur": 2644,
      "##87": 2645,
      "▁road": 2646,
      "▁lik": 2647,
      "##ine": 2648,
      "▁ob": 2649,
      "▁import": 2650,
      "▁1877": 2651,
      "▁attention": 2652,
      "##:58": 2653,
      "▁44": 2654,
      "▁spr": 2655,
      "▁01810": 2656,
      "▁opp": 2657,
      "##,600": 2658,
      "##ones": 2659,
      "▁forward": 2660,
      "▁trip": 2661,
      "▁teh": 2662,
      "##ember": 2663,
      "##ter": 2664,
      "##ial": 2665,
      "▁es": 2666,
      "▁iran": 2667,
      "##ia": 2668,
      "##/97": 2669,
      "▁70": 2670,
      "##elf": 2671,
      "▁sch": 2672,
      "▁unless": 2673,
      "▁296": 2674,
      "▁security": 2675,
      "▁28,000": 2676,
      "▁stud": 2677,
      "▁1593": 2678,
      "▁stop": 2679,
      "▁'ll": 2680,
      "子": 2681,
      "▁..": 2682,
      "▁across": 2683,
      "▁11-20-": 2684,
      "▁529999": 2685,
      "##mer": 2686,
      "##ential": 2687,
      "▁230": 2688,
      "▁new": 2689,
      "▁6": 2690,
      "▁713-6": 2691,
      "1": 2692,
      "▁making": 2693,
      "▁eleven": 2694,
      "##9999": 2695,
      "▁<": 2696,
      "▁11/7/08": 2697,
      "▁01/19/2001": 2698,
      "##د": 2699,
      "##59": 2700,
      "▁11:45": 2701,
      "##inner": 2702,
      "▁counter": 2703,
      "▁ec": 2704,
      "▁onto": 2705,
      "##used": 2706,
      "▁03/28/2001": 2707,
      "▁chicago": 2708,
      "▁05:37": 2709,
      "▁03:48": 2710,
      "▁repres": 2711,
      "▁…": 2712,
      "▁619": 2713,
      "##œ": 2714,
      "##eet": 2715,
      "▁conf": 2716,
      "▁highly": 2717,
      "▁345-3436": 2718,
      "##~*~*": 2719,
      "▁2007": 2720,
      "▁downtown": 2721,
      "▁rock": 2722,
      "▁earth": 2723,
      "▁fin": 2724,
      "##:39": 2725,
      "##ls": 2726,
      "##:46": 2727,
      "##icle": 2728,
      "##tim": 2729,
      "##ill": 2730,
      "▁job": 2731,
      "##ured": 2732,
      "▁2009": 2733,
      "▁ne": 2734,
      "▁cle": 2735,
      "▁boy": 2736,
      "▁used": 2737,
      "▁nine": 2738,
      "##24": 2739,
      "▁port": 2740,
      "##710": 2741,
      "##anta": 2742,
      "▁um": 2743,
      "##over": 2744,
      "▁3-5": 2745,
      "▁atop": 2746,
      "▁20,000": 2747,
      "▁zero": 2748,
      "▁yeah": 2749,
      "▁30": 2750,
      "▁light": 2751,
      "##4014": 2752,
      "▁need": 2753,
      "▁char": 2754,
      "##ف": 2755,
      "##orrow": 2756,
      "##er": 2757,
      "▁man": 2758,
      "##sl": 2759,
      "▁any": 2760,
      "▁cam": 2761,
      "##ct": 2762,
      "▁travel": 2763,
      "▁financ": 2764,
      "▁comput": 2765,
      "▁miami": 2766,
      "##-20-": 2767,
      "##13": 2768,
      "▁veg": 2769,
      "▁dey": 2770,
      "▁whom": 2771,
      "##/2": 2772,
      "▁wi": 2773,
      "ز": 2774,
      "▁services": 2775,
      "##ence": 2776,
      "▁713": 2777,
      "▁w/": 2778,
      "▁soon": 2779,
      "##----------------": 2780,
      "▁set": 2781,
      "▁reason": 2782,
      "▁530": 2783,
      "##uct": 2784,
      "▁m": 2785,
      "▁course": 2786,
      "▁lar": 2787,
      "▁throughout": 2788,
      "▁name": 2789,
      "▁apar": 2790,
      "▁800.713.8600": 2791,
      "##17": 2792,
      "##ross": 2793,
      "##ade": 2794,
      "▁ninety-nine": 2795,
      "##lo": 2796,
      "▁st": 2797,
      "▁1505": 2798,
      "k": 2799,
      "▁run": 2800,
      "##noon": 2801,
      "▁her": 2802,
      "6": 2803,
      "##pp": 2804,
      "▁interest": 2805,
      "▁request": 2806,
      "##4-": 2807,
      "▁un": 2808,
      "▁we": 2809,
      "##ص": 2810,
      "##al": 2811,
      "##-84": 2812,
      "##ual": 2813,
      "▁university": 2814,
      "▁...": 2815,
      "▁***": 2816,
      "▁progr": 2817,
      "▁fo": 2818,
      "##sp": 2819,
      "▁ninety": 2820,
      "▁09": 2821,
      "##ves": 2822,
      "▁205": 2823,
      ".": 2824,
      "##sus": 2825,
      "▁********************************": 2826,
      "▁auth": 2827,
      "##ild": 2828,
      "▁’re": 2829,
      "##490": 2830,
      "▁315": 2831,
      "##ior": 2832,
      "▁08:30": 2833,
      "▁aboard": 2834,
      "▁particular": 2835,
      "▁life": 2836,
      "▁come": 2837,
      "▁within": 2838,
      "▁our": 2839,
      "##opment": 2840,
      "▁press": 2841,
      "##ases": 2842,
      "##ros": 2843,
      "▁have": 2844,
      "▁exc": 2845,
      "▁hold": 2846,
      "##/25/2001": 2847,
      "▁finish": 2848,
      "##orm": 2849,
      "▁mov": 2850,
      "▁10/20/2000": 2851,
      "▁perf": 2852,
      "##.0": 2853,
      "##ults": 2854,
      "▁934": 2855,
      "▁aff": 2856,
      "▁week": 2857,
      "▁member": 2858,
      "##22": 2859,
      "##:23": 2860,
      "##v": 2861,
      "▁gener": 2862,
      "##eap": 2863,
      "▁how": 2864,
      "##/2005": 2865,
      "▁o'": 2866,
      "▁bel": 2867,
      "▁with": 2868,
      "##8806": 2869,
      "▁staff": 2870,
      "▁abo": 2871,
      "##uce": 2872,
      "##:00": 2873,
      "##iting": 2874,
      "▁sty": 2875,
      "▁12:12": 2876,
      "▁wife": 2877,
      "▁el": 2878,
      "‘": 2879,
      "▁pull": 2880,
      "##37": 2881,
      "##29": 2882,
      "▁01:09": 2883,
      "▁979": 2884,
      "▁wanted": 2885,
      "▁obs": 2886,
      "▁+": 2887,
      "▁speak": 2888,
      "▁west": 2889,
      "##six": 2890,
      "##ex": 2891,
      "▁54,000": 2892,
      "▁je": 2893,
      "##it": 2894,
      "▁ought": 2895,
      "▁playing": 2896,
      "▁indian": 2897,
      "▁who": 2898,
      "##{": 2899,
      "##ull": 2900,
      "▁1765": 2901,
      "▁11/7": 2902,
      "▁800": 2903,
      "##119": 2904,
      "##/03/2001": 2905,
      "▁break": 2906,
      "▁phoenix": 2907,
      "▁res": 2908,
      "▁32": 2909,
      "##31": 2910,
      "##cross": 2911,
      "▁sha": 2912,
      "##:37": 2913,
      "##iss": 2914,
      "▁202.456.1414": 2915,
      "ن": 2916,
      "##ustom": 2917,
      "##ped": 2918,
      "##ited": 2919,
      "▁`": 2920,
      "▁cre": 2921,
      "##ling": 2922,
      "##erg": 2923,
      "▁1754": 2924,
      "##/31": 2925,
      "▁cal": 2926,
      "▁enron": 2927,
      "▁42,000": 2928,
      "▁det": 2929,
      "##ank": 2930,
      "▁flo": 2931,
      "▁order": 2932,
      "##65": 2933,
      "▁5:30": 2934,
      "▁1635": 2935,
      "▁matter": 2936,
      "▁425": 2937,
      "▁pract": 2938,
      "▁''": 2939,
      "▁163": 2940,
      "▁#": 2941,
      "▁dress": 2942,
      "▁who's": 2943,
      "▁50": 2944,
      "▁747": 2945,
      "▁continental": 2946,
      "j": 2947,
      "▁so": 2948,
      "##-10": 2949,
      "##uff": 2950,
      "▁94": 2951,
      "##stem": 2952,
      "▁post": 2953,
      "▁find": 2954,
      "▁cat": 2955,
      "▁345-9945": 2956,
      "▁funny": 2957,
      "##!": 2958,
      "##ator": 2959,
      "##57": 2960,
      "▁sunday": 2961,
      "##ible": 2962,
      "▁talking": 2963,
      "▁cap": 2964,
      "▁20": 2965,
      "½": 2966,
      "▁often": 2967,
      "▁head": 2968,
      "##og": 2969,
      "▁42": 2970,
      "▁try": 2971,
      "##æ": 2972,
      "▁care": 2973,
      "▁11/29/2000": 2974,
      "▁proper": 2975,
      "▁des": 2976,
      "##anc": 2977,
      "▁1990": 2978,
      "▁time": 2979,
      "##to": 2980,
      "##/13": 2981,
      "▁10:30": 2982,
      "▁impro": 2983,
      "_": 2984,
      "##ta": 2985,
      "▁eye": 2986,
      "▁1929": 2987,
      "▁occ": 2988,
      "##津": 2989,
      "##form": 2990,
      "##88": 2991,
      "▁1605": 2992,
      "空": 2993,
      "##huh": 2994,
      "▁laur": 2995,
      "##80": 2996,
      "##omet": 2997,
      "▁$": 2998,
      "##iz": 2999,
      "▁attack": 3000,
      "▁1799": 3001,
      "▁ou": 3002,
      "▁sleep": 3003,
      "##raph": 3004,
      "▁part": 3005,
      "▁1000": 3006,
      "▁haf": 3007,
      "▁claim": 3008,
      "▁group": 3009,
      "▁charl": 3010,
      "▁betw": 3011,
      "▁1590": 3012,
      "ß": 3013,
      "##__": 3014,
      "##.25": 3015,
      "ø": 3016,
      "▁410": 3017,
      "▁1609": 3018,
      "▁incre": 3019,
      "##/8": 3020,
      "▁themselves": 3021,
      "##:16": 3022,
      "##83": 3023,
      "▁3.": 3024,
      "▁yet": 3025,
      "▁front": 3026,
      "▁fares": 3027,
      "##ings": 3028,
      "▁639": 3029,
      "▁tur": 3030,
      "▁his": 3031,
      "▁08/15/2000": 3032,
      "▁comes": 3033,
      "▁why": 3034,
      "▁1914": 3035,
      "##/08": 3036,
      "##iew": 3037,
      "▁pop": 3038,
      "##are": 3039,
      "##ice": 3040,
      "▁hat": 3041,
      "▁09/16": 3042,
      "▁american": 3043,
      "▁1783": 3044,
      "▁one": 3045,
      "▁415.782": 3046,
      "##com": 3047,
      "▁922": 3048,
      "##work": 3049,
      "▁2.": 3050,
      "▁hell": 3051,
      "##________": 3052,
      "##id": 3053,
      "▁mummy": 3054,
      "▁america": 3055,
      "▁mar": 3056,
      "▁item": 3057,
      "▁650": 3058,
      "▁issue": 3059,
      "##819602175": 3060,
      "▁1709": 3061,
      "▁cent": 3062,
      "▁0590": 3063,
      "▁09:01": 3064,
      "▁07/1": 3065,
      "##________________________________": 3066,
      "▁tou": 3067,
      "▁1583": 3068,
      "##_0": 3069,
      "##ek": 3070,
      "▁505-625-8031": 3071,
      "▁gre": 3072,
      "▁tu": 3073,
      "▁review": 3074,
      "▁ad": 3075,
      "ə": 3076,
      "▁were": 3077,
      "▁pal": 3078,
      "▁desc": 3079,
      "##:38": 3080,
      "##,008": 3081,
      "▁point": 3082,
      "▁notwithstanding": 3083,
      "##en": 3084,
      "▁510": 3085,
      "##doc": 3086,
      "▁door": 3087,
      "▁tast": 3088,
      "▁milit": 3089,
      "##ake": 3090,
      "▁alth": 3091,
      "##460-3": 3092,
      "##olog": 3093,
      "▁l": 3094,
      "▁astride": 3095,
      "##夏": 3096,
      "##ii": 3097,
      "##la": 3098,
      "▁news": 3099,
      "##48": 3100,
      "d": 3101,
      "▁july": 3102,
      "▁sub": 3103,
      "▁children": 3104,
      "▁1831": 3105,
      "▁900": 3106,
      "##j": 3107,
      "▁applic": 3108,
      "##wn": 3109,
      "##ib": 3110,
      "▁mine": 3111,
      "▁aft": 3112,
      "▁1589": 3113,
      "▁240": 3114,
      "▁713-853-3098": 3115,
      "##olis": 3116,
      "##34": 3117,
      "▁sort": 3118,
      "▁466": 3119,
      "##:42": 3120,
      "##8/2000": 3121,
      "##eld": 3122,
      "##ience": 3123,
      "▁guys": 3124,
      "▁15": 3125,
      "##ana": 3126,
      "▁nt": 3127,
      "##!!!!": 3128,
      "▁billion": 3129,
      "▁eating": 3130,
      "##μ": 3131,
      "▁done": 3132,
      "▁herself": 3133,
      "##w": 3134,
      "##ows": 3135,
      ")": 3136,
      "▁meet": 3137,
      "##'re": 3138,
      "▁fur": 3139,
      "▁1976": 3140,
      "▁prof": 3141,
      "▁christ": 3142,
      "##uth": 3143,
      "▁1878": 3144,
      "##365": 3145,
      "##ards": 3146,
      "##iron": 3147,
      "▁americ": 3148,
      "▁hist": 3149,
      "▁ah": 3150,
      "▁156": 3151,
      "▁xv": 3152,
      "▁95": 3153,
      "▁1890": 3154,
      "▁instead": 3155,
      "▁system": 3156,
      "▁'re": 3157,
      "##:14": 3158,
      "##velopment": 3159,
      "€": 3160,
      "▁peop": 3161,
      "▁11/2": 3162,
      "##ute": 3163,
      "##301": 3164,
      "^": 3165,
      "▁01:39:56": 3166,
      "▁ai": 3167,
      "▁1950": 3168,
      "##uh": 3169,
      "▁1959": 3170,
      "##ater": 3171,
      "##www": 3172,
      "▁4:30": 3173,
      "##(": 3174,
      "▁din": 3175,
      "▁glob": 3176,
      "▁design": 3177,
      "##self": 3178,
      "▁1800": 3179,
      "\"": 3180,
      "▁woman": 3181,
      "▁scient": 3182,
      "▁une": 3183,
      "##ʃ": 3184,
      "▁daddy": 3185,
      "▁thous": 3186,
      "▁becuse": 3187,
      "▁forty-eight": 3188,
      "▁hor": 3189,
      "▁9:30": 3190,
      "##☎": 3191,
      "▁cor": 3192,
      "▁1564": 3193,
      "▁hou": 3194,
      "▁tried": 3195,
      "▁cold": 3196,
      "##]": 3197,
      "##90": 3198,
      "##822": 3199,
      "##74": 3200,
      "▁s/he": 3201,
      "##ree": 3202,
      "▁st.": 3203,
      "▁fill": 3204,
      "▁law": 3205,
      "▁175": 3206,
      "##aper": 3207,
      "▁arri": 3208,
      "▁trans": 3209,
      "▁1983": 3210,
      "▁2019": 3211,
      "▁die": 3212,
      "▁land": 3213,
      "▁11/0": 3214,
      "ι": 3215,
      "▁!": 3216,
      "##α": 3217,
      "##:19": 3218,
      "▁stay": 3219,
      "##.2461": 3220,
      "▁maybe": 3221,
      "##ou": 3222,
      "##7/99": 3223,
      "▁typ": 3224,
      "##499": 3225,
      "▁1584": 3226,
      "▁nice": 3227,
      "▁1888": 3228,
      "##183": 3229,
      "▁two": 3230,
      "▁given": 3231,
      "▁07/17/2000": 3232,
      "▁345": 3233,
      "▁poss": 3234,
      "▁1.6": 3235,
      "▁author": 3236,
      "##:2": 3237,
      "▁1:30": 3238,
      "▁either": 3239,
      "##ants": 3240,
      "##-9": 3241,
      "▁c": 3242,
      "##9933": 3243,
      "▁cause": 3244,
      "▁ours": 3245,
      "▁g": 3246,
      "▁300,000": 3247,
      "##77": 3248,
      "▁&amp;": 3249,
      "▁star": 3250,
      "`": 3251,
      "▁1611": 3252,
      "▁baby": 3253,
      "▁sign": 3254,
      "▁1.": 3255,
      "▁25": 3256,
      "##,000": 3257,
      "▁67": 3258,
      "▁food": 3259,
      "▁fly": 3260,
      "▁mag": 3261,
      "▁160": 3262,
      "##26": 3263,
      "▁phot": 3264,
      "▁milwau": 3265,
      "æ": 3266,
      "##/11": 3267,
      "##kk": 3268,
      "▁require": 3269,
      "▁.2": 3270,
      "▁oak": 3271,
      "▁ear": 3272,
      "▁based": 3273,
      "##por": 3274,
      "▁hand": 3275,
      "▁yo": 3276,
      "##100": 3277,
      "##fast": 3278,
      "##ried": 3279,
      "▁63": 3280,
      "##ub": 3281,
      "▁list": 3282,
      "##ret": 3283,
      "▁jud": 3284,
      "##oney": 3285,
      "“": 3286,
      "▁study": 3287,
      "▁11608": 3288,
      "##acy": 3289,
      "▁6400": 3290,
      "▁sec": 3291,
      "##.713.8": 3292,
      "▁7484": 3293,
      "▁1973": 3294,
      "▁76": 3295,
      "##ident": 3296,
      "▁unles": 3297,
      "▁clean": 3298,
      "▁22": 3299,
      "##@enron_de": 3300,
      "##ch": 3301,
      "▁08:00": 3302,
      "▁coming": 3303,
      "▁himself": 3304,
      "▁price": 3305,
      "##ially": 3306,
      "##49": 3307,
      "▁sen": 3308,
      "▁33,000": 3309,
      "▁asked": 3310,
      "▁sometimes": 3311,
      "##ا": 3312,
      "▁bring": 3313,
      "##ries": 3314,
      "##?": 3315,
      "▁2,000": 3316,
      "##1-90": 3317,
      "##ˈ": 3318,
      "##ilities": 3319,
      "▁iraq": 3320,
      "##.45": 3321,
      "##aken": 3322,
      "▁philadelphia": 3323,
      "##oh": 3324,
      "▁1647": 3325,
      "▁11/27/2000": 3326,
      "▁281-443-3": 3327,
      "▁567.77": 3328,
      "▁69": 3329,
      "▁fund": 3330,
      "▁cover": 3331,
      "##27": 3332,
      "▁2022": 3333,
      "▁1868": 3334,
      "▁mark": 3335,
      "##ra": 3336,
      "##ope": 3337,
      "##gress": 3338,
      "▁687": 3339,
      "▁general": 3340,
      "##000": 3341,
      "##ality": 3342,
      "▁dose": 3343,
      "▁another": 3344,
      "##eric": 3345,
      "##:32": 3346,
      "▁58": 3347,
      "▁281": 3348,
      "▁1975": 3349,
      "▁mont": 3350,
      "##el": 3351,
      "▁150": 3352,
      "##tride": 3353,
      "▁phil": 3354,
      "▁comm": 3355,
      "##ut": 3356,
      "▁dinner": 3357,
      "▁research": 3358,
      "▁meas": 3359,
      "▁truck": 3360,
      "▁colle": 3361,
      "▁conn": 3362,
      "▁besides": 3363,
      "##ood": 3364,
      "▁220": 3365,
      "▁after": 3366,
      "##anding": 3367,
      "▁1900": 3368,
      "▁body": 3369,
      "##ally": 3370,
      "##eau": 3371,
      "▁less": 3372,
      "▁http://www.": 3373,
      "▁perhaps": 3374,
      "▁everyone": 3375,
      "ς": 3376,
      "▁represent": 3377,
      "▁copy": 3378,
      "▁around": 3379,
      "##ef": 3380,
      "##53-3": 3381,
      "##ic": 3382,
      "▁more": 3383,
      "▁got": 3384,
      "▁line": 3385,
      "▁sev": 3386,
      "##ould": 3387,
      "°": 3388,
      "##‘": 3389,
      "▁nothing": 3390,
      "##qu": 3391,
      "##ious": 3392,
      "##ry": 3393,
      "▁fil": 3394,
      "##peare": 3395,
      "##ght": 3396,
      "##on": 3397,
      "##ero": 3398,
      "▁>>": 3399,
      "▁kill": 3400,
      "▁re": 3401,
      "▁along": 3402,
      "▁1841": 3403,
      "##587": 3404,
      "▁tralee": 3405,
      "▁pro": 3406,
      "##ord": 3407,
      "▁happy": 3408,
      "▁4.0": 3409,
      "▁825": 3410,
      "##airs": 3411,
      "##6021": 3412,
      "▁11:16": 3413,
      "▁field": 3414,
      "▁3/9": 3415,
      "▁mot": 3416,
      "▁sugg": 3417,
      "##ami": 3418,
      "##ich": 3419,
      "▁1989": 3420,
      "▁langu": 3421,
      "▁bar": 3422,
      "##449": 3423,
      "远": 3424,
      "▁1205": 3425,
      "##3/2000": 3426,
      "▁1613": 3427,
      "▁1801": 3428,
      "▁189": 3429,
      "▁exp": 3430,
      "##eral": 3431,
      "##atter": 3432,
      "▁xsl": 3433,
      "▁100": 3434,
      "##osed": 3435,
      "▁transportation": 3436,
      "##.831": 3437,
      "##=": 3438,
      "##ately": 3439,
      "##:5": 3440,
      "##eight": 3441,
      "▁where": 3442,
      "▁lea": 3443,
      "▁~": 3444,
      "##/15/2001": 3445,
      "▁2015": 3446,
      "##:21": 3447,
      "▁ll": 3448,
      "##umer": 3449,
      "##ant": 3450,
      "▁cl": 3451,
      "▁91": 3452,
      "##wh": 3453,
      "▁unt": 3454,
      "▁202.7": 3455,
      "##460-33": 3456,
      "▁la": 3457,
      "▁make": 3458,
      "##73": 3459,
      "▁852": 3460,
      "▁35": 3461,
      "##ere": 3462,
      "##ak": 3463,
      "▁worth": 3464,
      "▁houston": 3465,
      "▁take": 3466,
      "▁1": 3467,
      "▁americans": 3468,
      "##ins": 3469,
      "##rou": 3470,
      "##body": 3471,
      "▁par": 3472,
      "▁r": 3473,
      "##nesday": 3474,
      "▁24,000": 3475,
      "▁400": 3476,
      "##itting": 3477,
      "▁of": 3478,
      "##oman": 3479,
      "▁cop": 3480,
      "▁los": 3481,
      "##98": 3482,
      "##031": 3483,
      "▁dwww": 3484,
      "▁those": 3485,
      "##7.77": 3486,
      "##ability": 3487,
      "▁505-625": 3488,
      "▁appro": 3489,
      "##\"": 3490,
      "##irl": 3491,
      "▁mon": 3492,
      "▁adv": 3493,
      "▁today": 3494,
      "▁5.6": 3495,
      "h": 3496,
      "▁bir": 3497,
      "##/01/2001": 3498,
      "▁85": 3499,
      "▁1988": 3500,
      "▁get": 3501,
      "▁09:14": 3502,
      "▁ra": 3503,
      "▁louis": 3504,
      "▁2.15": 3505,
      "5": 3506,
      "##/10/2004": 3507,
      "▁888.916.7184": 3508,
      "##.11": 3509,
      "##uck": 3510,
      "▁pl": 3511,
      "▁euro": 3512,
      "▁id": 3513,
      "##空": 3514,
      "▁john": 3515,
      "▁620-294-": 3516,
      "▁1833": 3517,
      "▁02": 3518,
      "β": 3519,
      "##ons": 3520,
      "▁03/08/2000": 3521,
      "##’": 3522,
      "▁much": 3523,
      "▁next": 3524,
      "##iter": 3525,
      "▁yourself": 3526,
      "##ced": 3527,
      "▁1871": 3528,
      "▁late": 3529,
      "▁11:0": 3530,
      "##70": 3531,
      "##bs": 3532,
      "▁him": 3533,
      "▁1832": 3534,
      "##300": 3535,
      "▁ap": 3536,
      "▁727": 3537,
      "▁03/09/2000": 3538,
      "▁stoy": 3539,
      "▁send": 3540,
      "##415-": 3541,
      "▁stat": 3542,
      "▁states": 3543,
      "▁inform": 3544,
      "▁!!!!!!!": 3545,
      "##++++": 3546,
      "▁change": 3547,
      "▁indust": 3548,
      "##tc": 3549,
      "▁government": 3550,
      "##cl": 3551,
      "##rael": 3552,
      "##ional": 3553,
      "夏": 3554,
      "##h": 3555,
      "##96": 3556,
      "##-6": 3557,
      "▁keep": 3558,
      "##:52": 3559,
      "##cent": 3560,
      "▁afternoon": 3561,
      "▁necess": 3562,
      "##ount": 3563,
      "##^": 3564,
      "▁from": 3565,
      "##----": 3566,
      "##<": 3567,
      "##81": 3568,
      "▁39": 3569,
      "##uss": 3570,
      "▁??": 3571,
      "▁fine": 3572,
      "▁du": 3573,
      "▁believe": 3574,
      "▁these": 3575,
      "▁1805": 3576,
      "▁2.7": 3577,
      "▁1774": 3578,
      "▁int": 3579,
      "##eit": 3580,
      "▁beg": 3581,
      "##58": 3582,
      "▁24.7": 3583,
      "▁3,": 3584,
      "##18": 3585,
      "▁able": 3586,
      "##ollow": 3587,
      "▁n't": 3588,
      "▁members": 3589,
      "▁gr": 3590,
      "▁bow": 3591,
      "##sid": 3592,
      "▁public": 3593,
      "▁lo": 3594,
      "##__________": 3595,
      "▁car": 3596,
      "▁social": 3597,
      "##ever": 3598,
      "##olution": 3599,
      "▁recommend": 3600,
      "▁island": 3601,
      "▁fire": 3602,
      "##omen": 3603,
      "▁business": 3604,
      "##ouble": 3605,
      "▁2:00": 3606,
      "▁ref": 3607,
      "##med": 3608,
      "▁store": 3609,
      "##ool": 3610,
      "##75": 3611,
      "▁picture": 3612,
      "##-642": 3613,
      "!": 3614,
      "u": 3615,
      "▁iss": 3616,
      "▁suggest": 3617,
      "##ix": 3618,
      "▁questions": 3619,
      "▁vs": 3620,
      "▁120": 3621,
      "▁yourselves": 3622,
      "##zac": 3623,
      "##ices": 3624,
      "▁god": 3625,
      "##go": 3626,
      "▁hit": 3627,
      "s": 3628,
      "##le": 3629,
      "▁exam": 3630,
      "##cept": 3631,
      "▁attached": 3632,
      "▁such": 3633,
      "▁4.6": 3634,
      "##.77": 3635,
      "▁di": 3636,
      "▁seem": 3637,
      "▁10": 3638,
      "##.7822": 3639,
      "▁thing": 3640,
      "##ivid": 3641,
      "##ther": 3642,
      "▁coun": 3643,
      "▁maj": 3644,
      "##11": 3645,
      "##pl": 3646,
      "▁928": 3647,
      "▁1610": 3648,
      "▁prod": 3649,
      "▁744": 3650,
      "##man": 3651,
      "▁xiii": 3652,
      "##…": 3653,
      "▁cour": 3654,
      "##.4": 3655,
      "##54-": 3656,
      "▁english": 3657,
      "##9.3": 3658,
      "##craft": 3659,
      "##der": 3660,
      "▁rep": 3661,
      "▁1819": 3662,
      "▁0.00": 3663,
      "▁05908549": 3664,
      "▁bi": 3665,
      "▁1-800-991-9019": 3666,
      "##gh": 3667,
      "##ution": 3668,
      "▁’d": 3669,
      "▁wou": 3670,
      "##ie": 3671,
      "▁already": 3672,
      "▁713-853-3989": 3673,
      "▁war": 3674,
      "##ʁ": 3675,
      "▁01": 3676,
      "▁01/1": 3677,
      "##bur": 3678,
      "▁inst": 3679,
      "▁feet": 3680,
      "▁12,000": 3681,
      "▁uhoh": 3682,
      "##ents": 3683,
      "§": 3684,
      "υ": 3685,
      "##ang": 3686,
      "▁hund": 3687,
      "▁/": 3688,
      "▁n'": 3689,
      "▁71": 3690,
      "##rod": 3691,
      "##stop": 3692,
      "▁month": 3693,
      "▁best": 3694,
      "▁’s": 3695,
      "▁3,202": 3696,
      "▁—": 3697,
      "▁quick": 3698,
      "▁hav": 3699,
      "##ole": 3700,
      "##.5": 3701,
      "▁1925": 3702,
      "##iful": 3703,
      "▁11-20-2000": 3704,
      "▁est": 3705,
      "##.2": 3706,
      "▁even": 3707,
      "▁1896": 3708,
      "##435-": 3709,
      "▁dat": 3710,
      "▁ve": 3711,
      "▁but": 3712,
      "▁anything": 3713,
      "▁because": 3714,
      "##-696": 3715,
      "▁yours": 3716,
      "▁281-443-3744": 3717,
      "▁814.863": 3718,
      "##.9": 3719,
      "▁plan": 3720,
      "##ه": 3721,
      "##ab": 3722,
      "▁hey": 3723,
      "▁world": 3724,
      "▁home": 3725,
      "▁sal": 3726,
      "▁1.1": 3727,
      "▁x": 3728,
      "▁pre": 3729,
      "▁an": 3730,
      "##.com": 3731,
      "▁281-": 3732,
      "▁ver": 3733,
      "▁side": 3734,
      "▁their": 3735,
      "##4/2001": 3736,
      "▁888": 3737,
      "▁enjoy": 3738,
      "##ints": 3739,
      "▁apart": 3740,
      "##two": 3741,
      "▁seems": 3742,
      "'": 3743,
      "▁plac": 3744,
      "##iction": 3745,
      "▁took": 3746,
      "##ers": 3747,
      "☏": 3748,
      "▁1780": 3749,
      "▁summ": 3750,
      "▁1920": 3751,
      "▁947": 3752,
      "▁sl": 3753,
      "##72": 3754,
      "▁101": 3755,
      "▁08/15": 3756,
      "▁co": 3757,
      "▁08/16/2000": 3758,
      "▁diff": 3759,
      "▁08:50": 3760,
      "▁412": 3761,
      "▁economic": 3762,
      "▁o'clock": 3763,
      "▁713-853": 3764,
      "##-7": 3765,
      "##ended": 3766,
      "▁during": 3767,
      "▁chang": 3768,
      "▁1562": 3769,
      "##day": 3770,
      "▁2018": 3771,
      "▁hum": 3772,
      "▁dest": 3773,
      "▁1790": 3774,
      "▁tot": 3775,
      "##ze": 3776,
      "▁particip": 3777,
      "▁ch": 3778,
      "▁tell": 3779,
      "##hin": 3780,
      "▁pres": 3781,
      "##)": 3782,
      "##az": 3783,
      "##/26/2001": 3784,
      "##@enron_development": 3785,
      "▁felt": 3786,
      "z": 3787,
      "##....": 3788,
      "▁vs.": 3789,
      "▁then": 3790,
      "##ather": 3791,
      "##att": 3792,
      "▁1850": 3793,
      "##reat": 3794,
      "▁d'": 3795,
      "##ride": 3796,
      "▁miss": 3797,
      "▁animals": 3798,
      "▁sp": 3799,
      "▁dec": 3800,
      "▁770": 3801,
      "▁’": 3802,
      "##end": 3803,
      "▁pol": 3804,
      "▁however": 3805,
      "▁16": 3806,
      "▁eu": 3807,
      "▁death": 3808,
      "##icult": 3809,
      "▁thirteen": 3810,
      "▁weeks": 3811,
      "##p": 3812,
      "▁trillion": 3813,
      "##ʊ": 3814,
      "##.863": 3815,
      "▁uhhuh": 3816,
      "ʃ": 3817,
      "##adelp": 3818,
      "▁“": 3819,
      "▁fam": 3820,
      "##.7": 3821,
      "▁eas": 3822,
      "##round": 3823,
      "##pt": 3824,
      "##,5": 3825,
      "▁ju": 3826,
      "▁6.8": 3827,
      "▁1560": 3828,
      "▁460": 3829,
      "▁qu": 3830,
      "▁2001": 3831,
      "▁bas": 3832,
      "▁730": 3833,
      "▁1.75": 3834,
      "古": 3835,
      "▁specific": 3836,
      "##____": 3837,
      "##ley": 3838,
      "##3736": 3839,
      "##ogn": 3840,
      "##ulation": 3841,
      "▁money": 3842,
      "▁are": 3843,
      "▁wonder": 3844,
      "▁among": 3845,
      "▁5/1": 3846,
      "▁gen": 3847,
      "▁rele": 3848,
      "##ʻ": 3849,
      "▁hers": 3850,
      "▁right": 3851,
      "##orn": 3852,
      "▁1603": 3853,
      "▁759933": 3854,
      "▁217": 3855,
      "▁low": 3856,
      "▁1996": 3857,
      "▁big": 3858,
      "▁fav": 3859,
      "##€": 3860,
      "▁1977": 3861,
      "▁1951": 3862,
      "▁glass": 3863,
      "▁on": 3864,
      "##uch": 3865,
      "##ense": 3866,
      "##isc": 3867,
      "i": 3868,
      "▁follow": 3869,
      "▁rev": 3870,
      "##/10": 3871,
      "▁book": 3872,
      "▁343": 3873,
      "##ick": 3874,
      "▁03:20": 3875,
      "▁o": 3876,
      "▁atl": 3877,
      "▁kansas": 3878,
      "##ental": 3879,
      "##7/2001": 3880,
      "##ving": 3881,
      "##_": 3882,
      "|": 3883,
      "▁73": 3884,
      "▁04/30/2001": 3885,
      "▁al": 3886,
      "▁nor": 3887,
      "##ney": 3888,
      "▁814": 3889,
      "✉": 3890,
      "▁932": 3891,
      "##图": 3892,
      "##.123": 3893,
      "▁made": 3894,
      "▁90": 3895,
      "▁1614": 3896,
      "##/0": 3897,
      "▁stuff": 3898,
      "▁things": 3899,
      "##414": 3900,
      "▁04:37": 3901,
      "▁tax": 3902,
      "▁between": 3903,
      "▁thru": 3904,
      "##6-8": 3905,
      "▁full": 3906,
      "▁sy": 3907,
      "▁canad": 3908,
      "▁.....": 3909,
      "▁alread": 3910,
      "##ars": 3911,
      "##υ": 3912,
      "##19": 3913,
      "▁ur": 3914,
      "▁2000": 3915,
      "▁consider": 3916,
      "和": 3917,
      "▁969": 3918,
      "▁admin": 3919,
      "▁con": 3920,
      "##os": 3921,
      "▁rich": 3922,
      "▁thursday": 3923,
      "▁said": 3924,
      "▁1/4": 3925,
      "▁ang": 3926,
      "▁2.6": 3927,
      "##ape": 3928,
      "▁cond": 3929,
      "▁do": 3930,
      "##ip": 3931,
      "▁experience": 3932,
      "▁2008": 3933,
      "▁54": 3934,
      "##4-79": 3935,
      "##fe": 3936,
      "##br": 3937,
      "▁2.00": 3938,
      "##ml": 3939,
      "##,7": 3940,
      "##ory": 3941,
      "▁lou": 3942,
      "▁cheapest": 3943,
      "▁ab": 3944,
      "##@enron": 3945,
      "▁713/8": 3946,
      "##min": 3947,
      "▁underneath": 3948,
      "##thstanding": 3949,
      "##ber": 3950,
      "##omm": 3951,
      "▁no-": 3952,
      "##,": 3953,
      "##5/2001": 3954,
      "##rist": 3955,
      "▁dist": 3956,
      "▁cou": 3957,
      "▁fift": 3958,
      "##99": 3959,
      "##55": 3960,
      "▁water": 3961,
      "▁1969": 3962,
      "▁1222": 3963,
      "##ograph": 3964,
      "▁'": 3965,
      "##45": 3966,
      "▁cook": 3967,
      "▁2011": 3968,
      "▁received": 3969,
      "▁713-793-": 3970,
      "##-": 3971,
      "▁in": 3972,
      "▁jun": 3973,
      "▁noone": 3974,
      "▁proble": 3975,
      "##口": 3976,
      "##ack": 3977,
      "▁gone": 3978,
      "##==": 3979,
      "▁away": 3980,
      "##20-": 3981,
      "▁1840": 3982,
      "##cuz": 3983,
      "μ": 3984,
      "##.95": 3985,
      "▁ca": 3986,
      "▁6:30": 3987,
      "##rew": 3988,
      "▁which": 3989,
      "▁1967": 3990,
      "##av": 3991,
      "##£": 3992,
      "##ump": 3993,
      "##im": 3994,
      "▁1880": 3995,
      "▁xii": 3996,
      "##veland": 3997,
      "▁youn": 3998,
      "▁perform": 3999,
      "▁b": 4000,
      "▁1701": 4001,
      "##ting": 4002,
      "##ell": 4003,
      "##ators": 4004,
      "▁oneself": 4005,
      "▁add": 4006,
      "##oug": 4007,
      "▁live": 4008,
      "▁79": 4009,
      "▁345-99": 4010,
      "##n": 4011,
      "▁denver": 4012,
      "▁713-79": 4013,
      "▁var": 4014,
      "##ivers": 4015,
      "##elt": 4016,
      "##ort": 4017,
      "##rop": 4018,
      "▁quite": 4019,
      "▁establish": 4020,
      "##*": 4021,
      "##9/2001": 4022,
      "▁fare": 4023,
      "##**": 4024,
      "▁!!!!": 4025,
      "▁bu": 4026,
      "▁no": 4027,
      "▁washington": 4028,
      "##ar": 4029,
      "▁ed": 4030,
      "##,9": 4031,
      "▁2:30": 4032,
      "▁350": 4033,
      "▁pe": 4034,
      "▁3.1": 4035,
      "▁econom": 4036,
      "▁born": 4037,
      "▁315-460-33": 4038,
      "▁2500": 4039,
      "▁li": 4040,
      "▁bur": 4041,
      "##518": 4042,
      "##\\": 4043,
      "▁rest": 4044,
      "##ron": 4045,
      "▁offic": 4046,
      "▁seventy": 4047,
      "▁'ve": 4048,
      "▁02/2": 4049,
      "##93": 4050,
      "▁web": 4051,
      "##:24": 4052,
      "##/00": 4053,
      "—": 4054,
      "▁friday": 4055,
      "▁http://www": 4056,
      "▁ant": 4057,
      "▁meeting": 4058,
      "▁twel": 4059,
      "▁it": 4060,
      "▁207": 4061,
      "▁1779": 4062,
      "##/26/2000": 4063,
      "▁34": 4064,
      "▁someone": 4065,
      "▁quest": 4066,
      "▁bec": 4067,
      "▁185": 4068,
      "##ned": 4069,
      "▁416-865-370": 4070,
      "##use": 4071,
      "▁camp": 4072,
      "º": 4073,
      "▁contin": 4074,
      "##aur": 4075,
      "▁1602": 4076,
      "##rench": 4077,
      "▁se": 4078,
      "▁er": 4079,
      "▁environment": 4080,
      "▁7:00": 4081,
      "▁imp": 4082,
      "▁]": 4083,
      "##-27": 4084,
      "▁drink": 4085,
      "▁micro": 4086,
      "▁want": 4087,
      "▁br": 4088,
      "▁2": 4089,
      "▁came": 4090,
      "▁h-": 4091,
      "##ris": 4092,
      "▁10:34": 4093,
      "##:34": 4094,
      "▁425-415-": 4095
    }
  }
}