{
  "version": "1.0",
  "truncation": null,
  "padding": null,
  "added_tokens": [
    {
      "id": 4805,
      "content": "[SEP]",
      "single_word": false,
      "lstrip": false,
      "rstrip": false,
      "normalized": false,
      "special": true
    },
    {
      "id": 7967,
      "content": "[UNK]",
      "single_word": false,
      "lstrip": false,
      "rstrip": false,
      "normalized": false,
      "special": true
    },
    {
      "id": 10040,
      "content": "[MASK]",
      "single_word": false,
      "lstrip": false,
      "rstrip": false,
      "normalized": false,
      "special": true
    },
    {
      "id": 13140,
      "content": "[PAD]",
      "single_word": false,
      "lstrip": false,
      "rstrip": false,
      "normalized": false,
      "special": true
    },
    {
      "id": 13340,
      "content": "[CLS]",
      "single_word": false,
      "lstrip": false,
      "rstrip": false,
      "normalized": false,
      "special": true
    }
  ],
  "normalizer": {
    "type": "Sequence",
    "normalizers": [
      {
        "type": "NFD"
      },
      {
        "type": "Lowercase"
      },
      {
        "type": "StripAccents"
      }
    ]
  },
  "pre_tokenizer": {
    "type": "Sequence",
    "pretokenizers": [
      {
        "type": "Metaspace",
        "replacement": "▁",
        "prepend_scheme": "always",
        "split": true
      }
    ]
  },
  "post_processor": {
    "type": "TemplateProcessing",
    "single": [
      {
        "SpecialToken": {
          "id": "[CLS]",
          "type_id": 0
        }
      },
      {
        "Sequence": {
          "id": "A",
          "type_id": 0
        }
      },
      {
        "SpecialToken": {
          "id": "[SEP]",
          "type_id": 0
        }
      }
    ],
    "pair": [
      {
        "SpecialToken": {
          "id": "[CLS]",
          "type_id": 0
        }
      },
      {
        "Sequence": {
          "id": "A",
          "type_id": 0
        }
      },
      {
        "SpecialToken": {
          "id": "[SEP]",
          "type_id": 0
        }
      },
      {
        "Sequence": {
          "id": "B",
          "type_id": 1
        }
      },
      {
        "SpecialToken": {
          "id": "[SEP]",
          "type_id": 1
        }
      }
    ],
    "special_tokens": {
      "[CLS]": {
        "id": "[CLS]",
        "ids": [
          13340
        ],
        "tokens": [
          "[CLS]"
        ]
      },
      "[SEP]": {
        "id": "[SEP]",
        "ids": [
          4805
        ],
        "tokens": [
          "[SEP]"
        ]
      }
    }
  },
  "decoder": {
    "type": "Metaspace",
    "replacement": "▁",
    "prepend_scheme": "always",
    "split": true
  },
  "model": {
    "type": "BPE",
    "dropout": null,
    "unk_token": "[UNK]",
    "continuing_subword_prefix": null,
    "end_of_word_suffix": null,
    "fuse_unk": false,
    "byte_fallback": false,
    "ignore_merges": false,
    "vocab": {
      "▁controls": 0,
      "▁shed": 1,
      "▁evans": 2,
      "▁transparent": 3,
      "▁solidarity": 4,
      "▁sails": 5,
      "one": 6,
      "▁translation": 7,
      "▁complex": 8,
      "▁deleg": 9,
      "▁punched": 10,
      "▁assassinated": 11,
      "▁identical": 12,
      "▁wealth": 13,
      "ublic": 14,
      "▁traveler": 15,
      "▁713-853-3098": 16,
      "▁backyard": 17,
      "▁tracks": 18,
      "way": 19,
      "▁astride": 20,
      "▁urler": 21,
      "▁participated": 22,
      "▁broker": 23,
      "▁gil": 24,
      "▁n-": 25,
      "▁sch": 26,
      "▁squares": 27,
      "▁anx": 28,
      "▁.3": 29,
      "▁enrononline": 30,
      "▁10:30": 31,
      "▁wis": 32,
      "ster": 33,
      "▁aim": 34,
      "▁343": 35,
      "▁17th": 36,
      "▁attention": 37,
      "▁farmers": 38,
      "ignon": 39,
      "▁limous": 40,
      "▁planted": 41,
      "▁encab": 42,
      "▁stays": 43,
      "cho": 44,
      "▁noone": 45,
      "uity": 46,
      "ible": 47,
      "▁charity": 48,
      "ashes": 49,
      "▁scenic": 50,
      "▁7:00": 51,
      "oxide": 52,
      "▁inst": 53,
      "▁lifet": 54,
      "▁general": 55,
      "▁tex": 56,
      "▁09/15/99": 57,
      "▁repres": 58,
      "▁ran": 59,
      "▁turning": 60,
      "谿": 61,
      "72": 62,
      "▁owing": 63,
      "▁rid": 64,
      "▁lady": 65,
      "▁body": 66,
      "esome": 67,
      "ingly": 68,
      "▁tv": 69,
      "▁columbus": 70,
      "soever": 71,
      "▁vaccine": 72,
      "▁person": 73,
      "▁fract": 74,
      "▁producers": 75,
      "▁cha": 76,
      "▁relevant": 77,
      ".11": 78,
      "uous": 79,
      "iew": 80,
      "▁extraordinary": 81,
      "orth": 82,
      "▁mailto:": 83,
      "▁zacarias": 84,
      "▁sexual": 85,
      "▁1965": 86,
      "utical": 87,
      "▁08/03": 88,
      "▁cheer": 89,
      "rant": 90,
      "▁acts": 91,
      "▁odara": 92,
      "▁345-99": 93,
      "▁oreg": 94,
      "▁conceptual": 95,
      "▁32": 96,
      "▁fallen": 97,
      "ating": 98,
      "▁dots": 99,
      "ages": 100,
      "▁dragon": 101,
      "yahoo": 102,
      "▁extensible": 103,
      "▁cast": 104,
      "▁spells": 105,
      "▁display": 106,
      "▁labrador": 107,
      ".d": 108,
      "ap": 109,
      "ane": 110,
      "onent": 111,
      "▁alberta": 112,
      "▁om": 113,
      "▁admit": 114,
      "▁mathematical": 115,
      "▁proust": 116,
      "▁explorer": 117,
      "▁forever": 118,
      "▁simply": 119,
      "▁12/2": 120,
      "▁receiving": 121,
      "▁chief": 122,
      "▁cleaner": 123,
      "▁crunch": 124,
      "▁channel": 125,
      "▁literally": 126,
      "s": 127,
      "cling": 128,
      "▁beater": 129,
      "▁moves": 130,
      "▁anem": 131,
      "online": 132,
      "iciary": 133,
      "ified": 134,
      "▁suffered": 135,
      "act": 136,
      "▁on": 137,
      "▁differently": 138,
      "▁city": 139,
      "▁suck": 140,
      "▁plain": 141,
      "ule": 142,
      "▁03:20": 143,
      "▁rept": 144,
      "▁gar": 145,
      "8th": 146,
      "▁compuls": 147,
      "▁mechanics": 148,
      "▁impartial": 149,
      "▁hamm": 150,
      "vis": 151,
      "ban": 152,
      "▁identifying": 153,
      "▁ingred": 154,
      "▁646-84": 155,
      "▁headlines": 156,
      "▁shall": 157,
      "ience": 158,
      "▁^": 159,
      "▁-2-f.doc": 160,
      ">===": 161,
      "▁empan": 162,
      "▁favor": 163,
      "▁deep": 164,
      "▁insp": 165,
      "▁unit": 166,
      "pes": 167,
      "▁leg": 168,
      "▁dogs": 169,
      "▁deduct": 170,
      "▁sto": 171,
      "ene": 172,
      "▁corpus": 173,
      "▁ha": 174,
      "▁04:": 175,
      "▁brut": 176,
      "▁pu": 177,
      "m": 178,
      "▁pop": 179,
      "▁indiana": 180,
      "ga": 181,
      "▁car": 182,
      "▁prosp": 183,
      "▁jr.": 184,
      "▁liby": 185,
      "▁grows": 186,
      "▁calif": 187,
      "___________": 188,
      "▁diss": 189,
      "esota": 190,
      "▁inexp": 191,
      "▁foul": 192,
      "8-3": 193,
      "eys": 194,
      "▁older": 195,
      "▁group": 196,
      "▁furn": 197,
      "▁outside": 198,
      "▁formed": 199,
      "▁experiences": 200,
      "▁mere": 201,
      "▁procedures": 202,
      "▁fighter": 203,
      "▁took": 204,
      "unic": 205,
      "▁1970s": 206,
      "▁wants": 207,
      "▁dispatch": 208,
      "▁bones": 209,
      "▁antonio": 210,
      "-e": 211,
      "▁hoped": 212,
      "▁tell": 213,
      "▁tours": 214,
      "▁cent": 215,
      "▁ruin": 216,
      "isco": 217,
      "▁steal": 218,
      "river": 219,
      "▁exhausted": 220,
      ".org/wiki": 221,
      "▁busy": 222,
      "ans": 223,
      "▁chalk": 224,
      "▁___________": 225,
      "▁ugly": 226,
      "▁enthusi": 227,
      "▁jerome": 228,
      "▁bells": 229,
      "fe": 230,
      "▁traged": 231,
      "▁seiz": 232,
      "▁tast": 233,
      "▁??": 234,
      "peed": 235,
      "▁infl": 236,
      "▁received": 237,
      "▁ts": 238,
      "▁unfamiliar": 239,
      "e@enron": 240,
      "▁salesman": 241,
      "ε": 242,
      "▁biograph": 243,
      "▁4th": 244,
      "▁alert": 245,
      "▁thereby": 246,
      "▁merit": 247,
      "▁hoax": 248,
      "▁palacio": 249,
      "▁ambass": 250,
      "▁about": 251,
      "▁too": 252,
      "ructure": 253,
      "▁negotiations": 254,
      "vers": 255,
      "3098": 256,
      "▁ships": 257,
      "▁pedic": 258,
      "▁scott": 259,
      "arent": 260,
      "▁ecc": 261,
      "▁satisf": 262,
      "▁coc": 263,
      "▁-": 264,
      "9/2001": 265,
      "▁satisfied": 266,
      "▁814": 267,
      "▁specialized": 268,
      "▁84": 269,
      "▁nonstop": 270,
      "▁holiday": 271,
      "-ch": 272,
      "▁hew": 273,
      "▁css": 274,
      "▁circular": 275,
      "▁judges": 276,
      "auts": 277,
      "▁heading": 278,
      "▁celebr": 279,
      "92": 280,
      "▁native": 281,
      "▁highly": 282,
      "cut": 283,
      "▁shaikh": 284,
      "vert": 285,
      "▁blankets": 286,
      "▁dinosaur": 287,
      "omed": 288,
      "xture": 289,
      "▁foo": 290,
      "▁tidily": 291,
      "▁artwork": 292,
      "▁quotes": 293,
      "▁rinny": 294,
      "▁ruse": 295,
      "▁jen": 296,
      "▁fatal": 297,
      "▁monsters": 298,
      "▁console": 299,
      "▁respons": 300,
      "/15": 301,
      "▁vogelaviatio": 302,
      "▁205": 303,
      "▁dolphin": 304,
      "▁hyatt": 305,
      "▁tac": 306,
      "▁proceeds": 307,
      "▁knowing": 308,
      "▁kennedy": 309,
      "▁swung": 310,
      "▁anderson": 311,
      "▁253": 312,
      "ribe": 313,
      "quest": 314,
      "▁valent": 315,
      "oped": 316,
      "▁downtown": 317,
      "ificent": 318,
      "▁łod": 319,
      "▁mech": 320,
      "▁04/16/2001": 321,
      "▁weird": 322,
      "▁mycel": 323,
      "▁old": 324,
      "▁400": 325,
      "▁harsh": 326,
      "▁alphab": 327,
      "▁rank": 328,
      "▁orleans": 329,
      "▁cookie": 330,
      "▁diarr": 331,
      "▁yoko": 332,
      "▁bending": 333,
      "what": 334,
      "i-": 335,
      "ound": 336,
      "▁software": 337,
      "▁scientific": 338,
      "▁guaranty": 339,
      "cont": 340,
      "▁bridges": 341,
      "▁yellow": 342,
      "▁justification": 343,
      "▁weekday": 344,
      "▁recent": 345,
      "-625": 346,
      "▁unl": 347,
      "▁replied": 348,
      "▁dresses": 349,
      "▁newsgroup": 350,
      "▁cig": 351,
      "▁syria": 352,
      "▁sweden": 353,
      "ina": 354,
      "▁lennon": 355,
      "▁variation": 356,
      "▁pressure": 357,
      "▁supermarket": 358,
      "ay": 359,
      "inator": 360,
      "▁analysts": 361,
      "▁cocoa": 362,
      "space": 363,
      "▁democr": 364,
      "▁140": 365,
      ":42": 366,
      "▁unsure": 367,
      "▁leon": 368,
      "▁easiest": 369,
      "▁lettuce": 370,
      "▁fairy": 371,
      "ois": 372,
      "worms": 373,
      "▁amidst": 374,
      "▁tourist": 375,
      "▁cens": 376,
      "▁44,000": 377,
      "▁heaven": 378,
      "active": 379,
      "▁ser": 380,
      "▁advanced": 381,
      "5": 382,
      "▁espec": 383,
      "▁analys": 384,
      "▁welcomed": 385,
      "▁nwww": 386,
      "/03/2001": 387,
      "ird": 388,
      "▁date": 389,
      "yard": 390,
      "des": 391,
      "▁models": 392,
      "▁raccoon": 393,
      "▁deserves": 394,
      "▁itiner": 395,
      "▁insulting": 396,
      "▁initiate": 397,
      "orrow": 398,
      "3.6": 399,
      "▁recreat": 400,
      "▁joseph": 401,
      "▁factions": 402,
      "▁builders": 403,
      "_de": 404,
      "▁extrad": 405,
      "usc": 406,
      "pa": 407,
      "kn": 408,
      "▁bozo": 409,
      "ese": 410,
      "izz": 411,
      "▁manufacturing": 412,
      "▁artworks": 413,
      "▁gracious": 414,
      "▁fries": 415,
      "▁walls": 416,
      "▁lion": 417,
      "▁mistake": 418,
      "▁worker": 419,
      "-1.doc": 420,
      "▁doub": 421,
      "▁doo": 422,
      "▁efficient": 423,
      "▁emer": 424,
      "ogether": 425,
      "▁palestinian": 426,
      "aso": 427,
      "▁persistence": 428,
      "▁travis": 429,
      "inger": 430,
      "▁contem": 431,
      "▁giraff": 432,
      "-of": 433,
      "ilight": 434,
      "pers": 435,
      "▁perman": 436,
      "▁truth": 437,
      "▁soup": 438,
      "▁spaces": 439,
      "▁mainstream": 440,
      "▁spite": 441,
      "▁sprouts": 442,
      "www": 443,
      "▁pronunciation": 444,
      "▁harv": 445,
      "nost": 446,
      "▁cartoon": 447,
      "▁legitimate": 448,
      "ones@": 449,
      "▁lol": 450,
      "▁adop": 451,
      "am": 452,
      "▁upset": 453,
      "▁islamabad": 454,
      "uk": 455,
      "▁both": 456,
      "▁<": 457,
      "▁interesting": 458,
      "▁folder": 459,
      "▁undermine": 460,
      "emort": 461,
      "▁contained": 462,
      "▁ave": 463,
      "▁must": 464,
      "▁bye": 465,
      "▁spectac": 466,
      "....": 467,
      "▁uncover": 468,
      "-00": 469,
      "▁eggs": 470,
      "▁honore": 471,
      "▁toys": 472,
      "▁unbel": 473,
      "▁monit": 474,
      "▁hipp": 475,
      "▁kansas": 476,
      "▁dando": 477,
      "▁reg": 478,
      "▁bush": 479,
      "▁hood": 480,
      "cat": 481,
      "▁fyi": 482,
      "▁bos": 483,
      "▁5.6": 484,
      "▁18": 485,
      "aganda": 486,
      "▁ice": 487,
      "_^": 488,
      "▁overse": 489,
      "▁fired": 490,
      "▁cigare": 491,
      "hist": 492,
      "▁founded": 493,
      "▁texts": 494,
      "▁atmosphere": 495,
      "x": 496,
      "▁conj": 497,
      "▁surprise": 498,
      "▁***": 499,
      "▁rum": 500,
      "▁charming": 501,
      "▁marshmallow": 502,
      "▁nik": 503,
      "▁500": 504,
      "amo": 505,
      "ered": 506,
      "▁renov": 507,
      "lf": 508,
      "ues": 509,
      "▁lopez": 510,
      "▁cognition": 511,
      "▁“": 512,
      "▁tells": 513,
      "▁affluent": 514,
      "▁strategic": 515,
      "ori": 516,
      "▁princ": 517,
      "▁sponge": 518,
      "▁bondad": 519,
      "ith": 520,
      "▁birthday": 521,
      "▁sfo": 522,
      "jection": 523,
      "▁its": 524,
      "enf": 525,
      "▁mich": 526,
      "▁prevent": 527,
      "-468-3": 528,
      "/13/2001": 529,
      "▁harp": 530,
      "▁deleted": 531,
      "-8": 532,
      "essive": 533,
      "co": 534,
      "▁feathers": 535,
      "ded": 536,
      ".621": 537,
      "▁guests": 538,
      "▁quiet": 539,
      "/200": 540,
      "▁tel": 541,
      "▁-----------------": 542,
      "▁fascinating": 543,
      "@esa": 544,
      "▁,": 545,
      "▁stealing": 546,
      "▁sanct": 547,
      "▁sure": 548,
      "▁wherever": 549,
      "vd": 550,
      "stration": 551,
      "▁wife": 552,
      "▁them": 553,
      "▁census": 554,
      "▁unpre": 555,
      "▁rums": 556,
      "▁falled": 557,
      "▁usually": 558,
      "▁document": 559,
      "▁miracle": 560,
      "rast": 561,
      "▁men": 562,
      "engers": 563,
      "▁retain": 564,
      "▁damn": 565,
      "▁briefly": 566,
      "by": 567,
      "▁inherent": 568,
      "▁presidency": 569,
      "▁writ": 570,
      "▁firmly": 571,
      "29": 572,
      "▁breaks": 573,
      "wikipedia": 574,
      "▁transform": 575,
      "▁delta": 576,
      "▁escape": 577,
      "▁4": 578,
      "▁brick": 579,
      "▁ark": 580,
      "▁interests": 581,
      "arily": 582,
      "▁agency": 583,
      "eis": 584,
      "▁huit": 585,
      "comm": 586,
      "▁yup": 587,
      "orie": 588,
      "▁fun": 589,
      "▁hero": 590,
      "▁helicopter": 591,
      "▁opportunity": 592,
      "▁puppy": 593,
      "very": 594,
      "▁willingness": 595,
      "▁diet": 596,
      "▁temp": 597,
      "▁supernat": 598,
      "▁bangs": 599,
      "elp": 600,
      "▁student": 601,
      "▁limits": 602,
      "▁champagne": 603,
      "744": 604,
      "mas": 605,
      "▁helm": 606,
      "▁smooth": 607,
      "▁-%": 608,
      "▁stand": 609,
      "ο": 610,
      "▁mozilla": 611,
      "▁laura": 612,
      "ansa": 613,
      "▁hann": 614,
      "▁ahab": 615,
      "▁spiderman": 616,
      "▁calgary": 617,
      "istry": 618,
      "manship": 619,
      "▁!?": 620,
      "▁shiite": 621,
      "▁virt": 622,
      "▁trillion": 623,
      "▁appeared": 624,
      "▁launched": 625,
      "▁foreigners": 626,
      "not": 627,
      "▁wheels": 628,
      "▁hym": 629,
      "▁nowhere": 630,
      "▁swiss": 631,
      "▁guard": 632,
      "▁dimin": 633,
      "▁ni": 634,
      "ainted": 635,
      "▁domestic": 636,
      "▁delicious": 637,
      "▁bet": 638,
      "▁semin": 639,
      "▁beaten": 640,
      "▁infected": 641,
      "▁caring": 642,
      "dging": 643,
      "▁authentic": 644,
      "▁step": 645,
      "▁west": 646,
      "illes": 647,
      "▁everywhere": 648,
      "▁obtain": 649,
      "▁horizont": 650,
      "▁fut": 651,
      "▁demonstration": 652,
      "▁boat": 653,
      "▁conclud": 654,
      "▁dow": 655,
      "▁mostly": 656,
      "▁denton": 657,
      "▁hog": 658,
      "▁sub": 659,
      "▁booked": 660,
      "▁admiration": 661,
      "leon": 662,
      "▁prov": 663,
      "▁01:0": 664,
      "▁spotted": 665,
      "▁beautiful": 666,
      "ille": 667,
      "▁rest": 668,
      "ensive": 669,
      "thers": 670,
      "ride": 671,
      "▁----------------------------------------------------------------------": 672,
      "▁'ll": 673,
      "ses": 674,
      "▁odds": 675,
      "▁cuban": 676,
      "▁joking": 677,
      "▁burrow": 678,
      "▁prepared": 679,
      "▁communicate": 680,
      "▁aggressive": 681,
      "▁–": 682,
      "▁sal": 683,
      "acious": 684,
      "▁wandering": 685,
      "▁intriguing": 686,
      "▁circulation": 687,
      "▁ink": 688,
      "▁congregation": 689,
      "▁ripped": 690,
      "▁cambod": 691,
      "▁-----------------------------------------------------------------------": 692,
      "▁qual": 693,
      "▁montana": 694,
      "▁stretching": 695,
      "▁pillars": 696,
      "▁resp": 697,
      "▁saud": 698,
      "▁ari": 699,
      "▁600": 700,
      "▁royal": 701,
      "▁lung": 702,
      "▁susan": 703,
      "▁parent": 704,
      "▁soul": 705,
      "▁online": 706,
      "▁argent": 707,
      "oa": 708,
      "▁conver": 709,
      "yen": 710,
      "▁competent": 711,
      "▁spa": 712,
      "▁amazing": 713,
      "▁contract": 714,
      "▁instruments": 715,
      "▁extinction": 716,
      "▁argued": 717,
      "▁mile": 718,
      "▁1100": 719,
      "▁russ": 720,
      ",": 721,
      "wich": 722,
      "bod": 723,
      "lades": 724,
      "▁unconsc": 725,
      "fore": 726,
      "▁sweeping": 727,
      "▁his": 728,
      "enron": 729,
      "▁aft": 730,
      "▁substantial": 731,
      "▁nah": 732,
      "▁================================": 733,
      "ide": 734,
      "▁thrown": 735,
      "▁byebye": 736,
      "▁cartoons": 737,
      "▁pardon": 738,
      "▁violence": 739,
      "▁tendencies": 740,
      "▁communication": 741,
      "▁cameras": 742,
      "▁raised": 743,
      "▁poetry": 744,
      "▁rul": 745,
      "▁legal": 746,
      "▁earthqu": 747,
      "▁dispute": 748,
      "▁click": 749,
      "...": 750,
      "iod": 751,
      "▁al.": 752,
      "▁is": 753,
      "▁e.g": 754,
      "▁category": 755,
      "▁cryst": 756,
      "▁political": 757,
      "▁slowly": 758,
      "­": 759,
      "▁1st": 760,
      "74": 761,
      "ary": 762,
      "▁beck": 763,
      "×": 764,
      "ris": 765,
      "▁nasser": 766,
      "▁wrote": 767,
      "▁omn": 768,
      "▁isolated": 769,
      "▁mater": 770,
      "▁money": 771,
      "▁campa": 772,
      "▁veget": 773,
      "▁calf": 774,
      "season": 775,
      "▁freight": 776,
      "▁peas": 777,
      "illa": 778,
      "▁basis": 779,
      "▁inc.": 780,
      "ness": 781,
      "▁works": 782,
      "fa": 783,
      "▁consideration": 784,
      "▁without": 785,
      "▁1996": 786,
      "▁manhattan": 787,
      "▁proud": 788,
      "urp": 789,
      "▁string": 790,
      "▁1939": 791,
      "▁unexpectedly": 792,
      "▁weeds": 793,
      "▁another": 794,
      "▁tide": 795,
      "▁scrib": 796,
      "▁vagu": 797,
      "▁balloons": 798,
      "▁disaster": 799,
      "▁sections": 800,
      "▁realized": 801,
      "▁democratic": 802,
      "▁venet": 803,
      "▁:?": 804,
      "▁enjoyed": 805,
      "一": 806,
      "▁fiji": 807,
      "▁friendsh": 808,
      "▁vcu": 809,
      "▁processor": 810,
      ".org": 811,
      "▁1291": 812,
      "▁chris": 813,
      "▁republican": 814,
      "▁flap": 815,
      ".go": 816,
      "▁introd": 817,
      "▁noise": 818,
      "▁mayor": 819,
      "▁astronom": 820,
      "▁moscow": 821,
      "▁john": 822,
      "▁pain": 823,
      "▁composition": 824,
      "earing": 825,
      "▁tina": 826,
      "▁reject": 827,
      "▁collective": 828,
      "▁no-6": 829,
      "organ": 830,
      "▁default": 831,
      "▁throat": 832,
      "▁vis": 833,
      "▁turkey": 834,
      "▁whist": 835,
      "▁assigned": 836,
      "▁although": 837,
      "▁2010": 838,
      "▁guys": 839,
      "▁01:14": 840,
      "▁condition": 841,
      "▁glac": 842,
      "04": 843,
      "▁popeye": 844,
      "▁loi": 845,
      "▁including": 846,
      "ping": 847,
      "▁descri": 848,
      "▁chefs": 849,
      "▁curly": 850,
      "▁slim": 851,
      "ada": 852,
      "▁succeed": 853,
      "▁striking": 854,
      "82": 855,
      "▁comic": 856,
      "▁ayman": 857,
      "▁worry": 858,
      ":3": 859,
      "gen": 860,
      "est": 861,
      "▁treatise": 862,
      "arter": 863,
      "▁technology": 864,
      "▁abs": 865,
      "▁1590": 866,
      "actory": 867,
      "▁mullah": 868,
      "▁interference": 869,
      "▁pakistan": 870,
      "▁revol": 871,
      "aling": 872,
      "▁donkey": 873,
      "▁kenya": 874,
      "▁mah": 875,
      "▁cry": 876,
      "▁am": 877,
      "▁presented": 878,
      "▁dead": 879,
      "driver": 880,
      "-)": 881,
      "rd": 882,
      "to": 883,
      "ental": 884,
      "▁dickens": 885,
      "▁ur": 886,
      "ases": 887,
      "osite": 888,
      "▁revised": 889,
      "▁compr": 890,
      "▁despite": 891,
      "▁already": 892,
      "▁shark": 893,
      "▁dreamed": 894,
      "anted": 895,
      "velopment": 896,
      "▁battle": 897,
      "▁sunny": 898,
      "wn": 899,
      "▁cupcakes": 900,
      "▁equ": 901,
      "▁bankrupt": 902,
      "▁moving": 903,
      "▁homes": 904,
      "▁broader": 905,
      "▁80": 906,
      "▁count": 907,
      "▁alab": 908,
      "▁locomotive": 909,
      "▁nym": 910,
      "▁whit": 911,
      "agon": 912,
      "ru": 913,
      "ɑ": 914,
      "▁lasting": 915,
      "▁northeast": 916,
      "▁shining": 917,
      "▁phail": 918,
      "▁mac": 919,
      "▁sparks": 920,
      "ola": 921,
      "▁ministry": 922,
      "▁mak": 923,
      "▁consequently": 924,
      "▁713-654-1281": 925,
      "▁muse": 926,
      "▁sends": 927,
      "▁pir": 928,
      "phis": 929,
      "▁idiot": 930,
      "ober": 931,
      "▁customizing": 932,
      "▁delay": 933,
      "▁scale": 934,
      "▁reaching": 935,
      "▁loved": 936,
      "rough": 937,
      "▁killing": 938,
      "▁awards": 939,
      "▁ma": 940,
      "▁sixth": 941,
      "▁male": 942,
      "▁bottle": 943,
      "▁vent": 944,
      "▁towns": 945,
      "▁296": 946,
      "▁1926": 947,
      "htub": 948,
      "▁stands": 949,
      "▁purple": 950,
      "▁stud": 951,
      "▁traditional": 952,
      "▁relaxing": 953,
      "▁section": 954,
      "▁bart": 955,
      "agraph": 956,
      "▁ton": 957,
      "▁counterfeiting": 958,
      "▁attem": 959,
      "▁fost": 960,
      "▁opponent": 961,
      "els": 962,
      "▁heels": 963,
      "di": 964,
      "80s": 965,
      "▁oatmeal": 966,
      "▁spir": 967,
      "▁tires": 968,
      "▁fab": 969,
      "▁1.25": 970,
      "/c": 971,
      "▁dollie": 972,
      "itty": 973,
      "▁whee": 974,
      "▁crews": 975,
      "▁darker": 976,
      "burn": 977,
      ".6": 978,
      "▁br": 979,
      "▁paral": 980,
      "▁notebook.url": 981,
      "▁affairs": 982,
      "app": 983,
      "▁serving": 984,
      "▁themselves": 985,
      "▁outdo": 986,
      "▁soap": 987,
      "▁appears": 988,
      "▁anti": 989,
      "berts": 990,
      "▁evol": 991,
      "▁pat": 992,
      "▁motiv": 993,
      "▁1596": 994,
      "▁ev": 995,
      "▁programmes": 996,
      "▁biden": 997,
      "ieved": 998,
      "▁slippers": 999,
      "▁vigil": 1000,
      "▁cin": 1001,
      "▁l'enfant": 1002,
      "▁analyses": 1003,
      "▁extension": 1004,
      "kr": 1005,
      "att": 1006,
      "▁?????": 1007,
      "▁likewise": 1008,
      "isf": 1009,
      "▁`": 1010,
      "▁emotion": 1011,
      "achers": 1012,
      "▁rin": 1013,
      "▁dul": 1014,
      "▁dine": 1015,
      "▁lib": 1016,
      "▁wiggleworm": 1017,
      "▁existed": 1018,
      "▁hear": 1019,
      "▁twice": 1020,
      "▁laund": 1021,
      "▁orchest": 1022,
      "▁remo": 1023,
      "▁add": 1024,
      "▁possessed": 1025,
      "▁massac": 1026,
      "▁statements": 1027,
      "▁ba'ath": 1028,
      "▁hiroshima": 1029,
      "ə": 1030,
      "▁socotra": 1031,
      "omen": 1032,
      "ader": 1033,
      "ym": 1034,
      "▁viewers": 1035,
      "▁television": 1036,
      "▁think": 1037,
      "25": 1038,
      "▁informed": 1039,
      "▁2008": 1040,
      "▁obsf": 1041,
      "ky": 1042,
      "onut": 1043,
      "▁critical": 1044,
      "rop": 1045,
      "▁?!?": 1046,
      "zza": 1047,
      "▁venezuela": 1048,
      "utan": 1049,
      "▁78": 1050,
      "▁750,000": 1051,
      "▁particle": 1052,
      "▁tens": 1053,
      "unks": 1054,
      "icles": 1055,
      "▁od": 1056,
      "▁researchers": 1057,
      "ew": 1058,
      "erged": 1059,
      "▁departure": 1060,
      "▁doggy": 1061,
      "▁rat": 1062,
      "▁sleepy": 1063,
      "▁guidelines": 1064,
      "▁gaz": 1065,
      "▁212": 1066,
      "▁04:37": 1067,
      "▁relig": 1068,
      "▁absorb": 1069,
      "▁connecting": 1070,
      "▁pacific": 1071,
      "▁reservation": 1072,
      "▁protests": 1073,
      "ently": 1074,
      "▁block": 1075,
      "▁five": 1076,
      "▁companion": 1077,
      "▁discipline": 1078,
      "ansion": 1079,
      "▁spos": 1080,
      "▁nyc": 1081,
      "▁ap": 1082,
      "▁gov": 1083,
      "emor": 1084,
      "asser": 1085,
      "▁load": 1086,
      "▁decades": 1087,
      "▁famous": 1088,
      "▁sundays": 1089,
      "▁descriptions": 1090,
      "▁reapp": 1091,
      "unk": 1092,
      "▁bandaid": 1093,
      "▁answering": 1094,
      "▁shri": 1095,
      ":05": 1096,
      "▁mum": 1097,
      "▁prey": 1098,
      "▁teeth": 1099,
      "body": 1100,
      "▁3.8": 1101,
      "▁assumptions": 1102,
      "▁attempted": 1103,
      "▁bulldozer": 1104,
      "▁administr": 1105,
      "▁diandra": 1106,
      "▁brit": 1107,
      "▁tokyo": 1108,
      "umber": 1109,
      "▁chalabi": 1110,
      "▁gates": 1111,
      "▁evely": 1112,
      "▁expectancy": 1113,
      "iley": 1114,
      "▁yesterday": 1115,
      "▁rasp": 1116,
      "▁setting": 1117,
      "▁49": 1118,
      "▁natural": 1119,
      "▁kwok": 1120,
      "▁exercise": 1121,
      "▁entry": 1122,
      "▁negotiating": 1123,
      "▁mutil": 1124,
      "▁spinning": 1125,
      "▁artificial": 1126,
      "▁replaced": 1127,
      "▁consult": 1128,
      "▁crops": 1129,
      "ulpt": 1130,
      "▁adds": 1131,
      "▁regulate": 1132,
      "▁prestig": 1133,
      "▁marketers": 1134,
      "▁fac": 1135,
      "▁nylon": 1136,
      "ump": 1137,
      "▁dum": 1138,
      "▁bull": 1139,
      "wait": 1140,
      "pal": 1141,
      "▁subscribers": 1142,
      "ows": 1143,
      "▁entirely": 1144,
      "▁basic": 1145,
      "▁enrongss.xls": 1146,
      "▁confir": 1147,
      "▁expression": 1148,
      "▁falls": 1149,
      "mans": 1150,
      "ider": 1151,
      "▁hung": 1152,
      "▁laure": 1153,
      "▁mr.": 1154,
      "▁naq": 1155,
      "▁diagram": 1156,
      "▁american": 1157,
      "▁salt": 1158,
      "▁seeing": 1159,
      "▁700": 1160,
      "▁******************************************************************": 1161,
      "▁knowledg": 1162,
      "version": 1163,
      "▁mandatory": 1164,
      "▁http://www": 1165,
      "▁c.": 1166,
      "▁cere": 1167,
      "▁babies": 1168,
      "▁uma": 1169,
      "eare": 1170,
      "▁wed": 1171,
      "health": 1172,
      "▁pros": 1173,
      "▁ua": 1174,
      "▁orient": 1175,
      "▁overpriced": 1176,
      "▁intrig": 1177,
      "§": 1178,
      "▁interpretation": 1179,
      "▁1562": 1180,
      "▁nashville": 1181,
      "▁tip": 1182,
      "ribly": 1183,
      "▁more": 1184,
      "▁2.7": 1185,
      "▁motorcy": 1186,
      "▁insight": 1187,
      "umb": 1188,
      "inson": 1189,
      "▁engineering": 1190,
      "▁just": 1191,
      "uent": 1192,
      "▁spray": 1193,
      "▁ich": 1194,
      "▁gon": 1195,
      "nis": 1196,
      "▁05/01/2001": 1197,
      "▁pops": 1198,
      "▁background": 1199,
      "esy": 1200,
      "▁207": 1201,
      "corn": 1202,
      "▁garden": 1203,
      "▁homeland": 1204,
      "▁1776": 1205,
      "▁cruel": 1206,
      "▁displayed": 1207,
      "f": 1208,
      "▁ecodesign": 1209,
      "▁myth": 1210,
      "igh": 1211,
      "berg": 1212,
      "▁poet": 1213,
      "▁================================================": 1214,
      "▁ld2d-#693": 1215,
      "▁10:34": 1216,
      "▁safet": 1217,
      "ictions": 1218,
      "▁americas": 1219,
      "▁appli": 1220,
      "▁worst": 1221,
      "encer": 1222,
      "2-6": 1223,
      "▁sad": 1224,
      "▁executive": 1225,
      "akers": 1226,
      "▁fire": 1227,
      "▁crawl": 1228,
      "▁sketch": 1229,
      "nia": 1230,
      "▁fri": 1231,
      "▁brazil": 1232,
      "iev": 1233,
      "▁mi": 1234,
      "▁because": 1235,
      "▁missed": 1236,
      "▁tale": 1237,
      "▁oppose": 1238,
      "▁-final.doc": 1239,
      "▁creek": 1240,
      "▁guadel": 1241,
      "▁1954": 1242,
      "05": 1243,
      "▁1980s": 1244,
      "▁accuracy": 1245,
      "▁proposed": 1246,
      "inners": 1247,
      "▁s-": 1248,
      "▁overalls": 1249,
      "▁increased": 1250,
      "▁stratford": 1251,
      "▁nag": 1252,
      "▁regarded": 1253,
      "▁sentences": 1254,
      "iterranean": 1255,
      "▁people": 1256,
      "▁organisation": 1257,
      "ran": 1258,
      "70s": 1259,
      "▁extremist": 1260,
      "▁displays": 1261,
      "▁ruled": 1262,
      "▁transwest": 1263,
      "ills": 1264,
      "▁err": 1265,
      "▁infection": 1266,
      "▁2018": 1267,
      "▁cupboard": 1268,
      "▁technologies": 1269,
      "▁wisdom": 1270,
      "|": 1271,
      "▁illust": 1272,
      "gr": 1273,
      "ros": 1274,
      "▁ais": 1275,
      "ovo": 1276,
      "▁shibu": 1277,
      "▁seem": 1278,
      "▁naked": 1279,
      "▁dea": 1280,
      "▁iodine": 1281,
      "▁incorpor": 1282,
      "▁judge": 1283,
      "▁whoo": 1284,
      "▁agrees": 1285,
      "294-": 1286,
      "▁tik": 1287,
      "▁fireplace": 1288,
      "▁gorbach": 1289,
      "▁available": 1290,
      "▁construction": 1291,
      "▁agreeing": 1292,
      "▁license": 1293,
      "#6": 1294,
      "▁broom": 1295,
      "▁occasionally": 1296,
      "▁faced": 1297,
      "▁marlow": 1298,
      "▁alligator": 1299,
      "▁region": 1300,
      "▁considered": 1301,
      "▁alive": 1302,
      "▁handling": 1303,
      "▁authorities": 1304,
      "▁crayons": 1305,
      "▁disasters": 1306,
      "26": 1307,
      "▁cooper": 1308,
      "▁finally": 1309,
      "ampa": 1310,
      "▁ahmed": 1311,
      "▁directives": 1312,
      "▁maxim": 1313,
      "▁individuals": 1314,
      "▁letters": 1315,
      "▁endang": 1316,
      "▁neighbourhood": 1317,
      "▁hunh": 1318,
      "▁sliding": 1319,
      "78": 1320,
      "antly": 1321,
      "verning": 1322,
      "▁parish": 1323,
      "▁stip": 1324,
      "▁alban": 1325,
      "▁cc": 1326,
      "▁forster": 1327,
      "▁realize": 1328,
      "▁ignorance": 1329,
      "▁pixies": 1330,
      "acon": 1331,
      "i": 1332,
      "▁perlingiere": 1333,
      "▁math": 1334,
      "▁officers": 1335,
      "▁shouting": 1336,
      "▁enov": 1337,
      "▁easter": 1338,
      "▁resour": 1339,
      "inc": 1340,
      "▁speculation": 1341,
      "▁eczema": 1342,
      "▁sovereign": 1343,
      "8196021": 1344,
      "▁intoler": 1345,
      "▁bernoul": 1346,
      "/10/2000": 1347,
      "▁sizes": 1348,
      "▁salty": 1349,
      "ella": 1350,
      "inting": 1351,
      "▁bog": 1352,
      "▁notice": 1353,
      "▁france": 1354,
      "▁spanish": 1355,
      "-415-": 1356,
      "▁apparently": 1357,
      "▁baby": 1358,
      "▁a.": 1359,
      "▁jere": 1360,
      "▁ambul": 1361,
      "▁overnight": 1362,
      "aire": 1363,
      "▁yemen": 1364,
      "▁ours": 1365,
      "▁redlined": 1366,
      "flies": 1367,
      "▁traff": 1368,
      ".61": 1369,
      "ights": 1370,
      "▁reaction": 1371,
      "▁symbol": 1372,
      "▁itself": 1373,
      "▁producing": 1374,
      "▁enjamb": 1375,
      "▁terrified": 1376,
      "▁isl": 1377,
      "kins": 1378,
      "▁ect": 1379,
      "▁cared": 1380,
      "▁victim": 1381,
      "coming": 1382,
      "▁10/23/2000": 1383,
      "▁---------------------------------------------------------------------": 1384,
      "▁cup": 1385,
      "▁palm": 1386,
      "▁kath": 1387,
      "▁tom": 1388,
      "▁accused": 1389,
      "▁drinking": 1390,
      "eman": 1391,
      "▁1000": 1392,
      "▁tor": 1393,
      "▁scissors": 1394,
      "▁disregard": 1395,
      "▁heart": 1396,
      "▁insights": 1397,
      "▁36": 1398,
      "▁agg": 1399,
      "▁yourselves": 1400,
      "▁stocks": 1401,
      "▁750": 1402,
      "cle": 1403,
      "▁absent": 1404,
      "▁policymakers": 1405,
      "▁assign": 1406,
      "▁mob": 1407,
      "▁preferred": 1408,
      "▁orth": 1409,
      "▁****": 1410,
      "gie": 1411,
      "▁accompanied": 1412,
      "▁1583": 1413,
      "▁islam": 1414,
      "▁dough": 1415,
      "-by": 1416,
      "▁attachments": 1417,
      "▁associ": 1418,
      "▁frustrated": 1419,
      "ic": 1420,
      "▁transc": 1421,
      "▁motives": 1422,
      "▁rav": 1423,
      "▁yay": 1424,
      "aha": 1425,
      "▁purely": 1426,
      "za": 1427,
      "▁entity": 1428,
      "ams": 1429,
      "▁carpet": 1430,
      "▁ports": 1431,
      "53-3119": 1432,
      "▁moder": 1433,
      "▁users": 1434,
      "▁w-": 1435,
      "▁give": 1436,
      "▁despair": 1437,
      "▁influenced": 1438,
      "▁fol": 1439,
      "▁beneath": 1440,
      ";": 1441,
      "ki": 1442,
      "▁swim": 1443,
      "▁flex": 1444,
      "▁overthrow": 1445,
      "oping": 1446,
      "▁sweep": 1447,
      "▁interjection": 1448,
      "▁cyclone": 1449,
      "▁movement": 1450,
      "▁lik": 1451,
      "▁planes": 1452,
      "▁presc": 1453,
      "▁dese": 1454,
      "cot": 1455,
      "▁with": 1456,
      "▁pose": 1457,
      "▁jurisdiction": 1458,
      "▁thames": 1459,
      "▁temporary": 1460,
      "▁counted": 1461,
      "iw": 1462,
      "▁chan": 1463,
      "spot.com/": 1464,
      "▁ter": 1465,
      "7/2000": 1466,
      "▁children": 1467,
      "▁ph": 1468,
      "▁export": 1469,
      "/00": 1470,
      "▁amm": 1471,
      "▁israeli": 1472,
      "▁petunia": 1473,
      "▁othello": 1474,
      "▁kurtz": 1475,
      "si": 1476,
      "▁husband": 1477,
      "▁dancers": 1478,
      "▁philipp": 1479,
      "itivity": 1480,
      "β": 1481,
      "▁corresponding": 1482,
      "▁eag": 1483,
      "anged": 1484,
      "▁calendar": 1485,
      "▁firm": 1486,
      "ield": 1487,
      ",8": 1488,
      "▁pan": 1489,
      "▁gas": 1490,
      "▁cape": 1491,
      "riage": 1492,
      "nedy": 1493,
      "▁success": 1494,
      "▁annual": 1495,
      "eable": 1496,
      "▁df": 1497,
      "arked": 1498,
      "▁modes": 1499,
      "▁stub": 1500,
      "ides": 1501,
      "▁hidden": 1502,
      "▁magnificent": 1503,
      "▁units": 1504,
      "▁discussions": 1505,
      "▁smugg": 1506,
      "▁travelers": 1507,
      "▁encoun": 1508,
      "▁713-853-1696": 1509,
      "▁overc": 1510,
      "▁conforms": 1511,
      "▁ka": 1512,
      "▁highest": 1513,
      "▁woud": 1514,
      "bled": 1515,
      "e": 1516,
      "▁try": 1517,
      "▁however": 1518,
      "▁entrepren": 1519,
      "▁loading": 1520,
      "▁running": 1521,
      "▁gray": 1522,
      "▁encomp": 1523,
      "▁kyoto": 1524,
      "▁certificates": 1525,
      "▁assuming": 1526,
      "ret": 1527,
      "▁'d": 1528,
      "▁singing": 1529,
      "▁inexpensive": 1530,
      "eff": 1531,
      "▁setup": 1532,
      "▁hubbard": 1533,
      "esque": 1534,
      "▁monde": 1535,
      "▁telling": 1536,
      "ose": 1537,
      "▁noses": 1538,
      "▁vomiting": 1539,
      "▁welf": 1540,
      "▁gym": 1541,
      "▁cause": 1542,
      "▁hurricane": 1543,
      "▁venez": 1544,
      "▁silkie": 1545,
      "led": 1546,
      "▁visits": 1547,
      "▁regions": 1548,
      "▁urg": 1549,
      "ibald": 1550,
      "▁evolving": 1551,
      "▁pattern": 1552,
      "▁scenario": 1553,
      "▁talked": 1554,
      "▁plot": 1555,
      "▁chips": 1556,
      "▁rough": 1557,
      "eng": 1558,
      "▁options": 1559,
      "▁patience": 1560,
      "▁oh": 1561,
      "▁edges": 1562,
      "▁recover": 1563,
      "▁persp": 1564,
      "????????": 1565,
      "▁soldiers": 1566,
      "▁design": 1567,
      "▁mixture": 1568,
      "▁purse": 1569,
      "eter": 1570,
      "▁employed": 1571,
      "▁birdie": 1572,
      "an": 1573,
      "dog": 1574,
      "▁father": 1575,
      "▁roast": 1576,
      "▁incub": 1577,
      "/2005.09": 1578,
      "hin": 1579,
      "▁chasing": 1580,
      "▁stages": 1581,
      "▁authors": 1582,
      "▁tri": 1583,
      "▁unf": 1584,
      "nondelibreaten": 1585,
      "mate": 1586,
      "otted": 1587,
      "▁charlie": 1588,
      "▁sufaat": 1589,
      "▁riding": 1590,
      "▁pockets": 1591,
      "▁henry": 1592,
      "▁156": 1593,
      "▁ought": 1594,
      "▁268": 1595,
      "▁militant": 1596,
      "▁mim": 1597,
      "▁dentist": 1598,
      "istical": 1599,
      "▁extremely": 1600,
      "▁http://www.mike": 1601,
      "▁baseball": 1602,
      "▁uncommon": 1603,
      "▁expensive": 1604,
      ".html": 1605,
      "▁unre": 1606,
      "▁nj": 1607,
      "ould": 1608,
      "▁occur": 1609,
      "/25/2001": 1610,
      "▁taken": 1611,
      "▁inc": 1612,
      "▁carolina": 1613,
      "867": 1614,
      "▁au": 1615,
      "▁chas": 1616,
      "▁xsl": 1617,
      "▁solution": 1618,
      "▁limited": 1619,
      "▁instant": 1620,
      "ee": 1621,
      "aman": 1622,
      "▁alcal": 1623,
      "▁ribbon": 1624,
      "▁contex": 1625,
      "▁pilgr": 1626,
      "▁volunteer": 1627,
      "▁intended": 1628,
      "▁pile": 1629,
      "▁kam": 1630,
      "▁bernard": 1631,
      "▁dramat": 1632,
      "▁indicated": 1633,
      "▁protecting": 1634,
      "▁pairs": 1635,
      "▁her": 1636,
      "▁competing": 1637,
      "▁regulation": 1638,
      "}*{": 1639,
      "▁developer": 1640,
      "▁expectation": 1641,
      "▁honorable": 1642,
      "▁figure": 1643,
      "ora": 1644,
      "▁interact": 1645,
      "▁die": 1646,
      "▁carry": 1647,
      "▁religious": 1648,
      "on@enron": 1649,
      "▁homemade": 1650,
      "▁temper": 1651,
      "▁jove": 1652,
      "▁professionals": 1653,
      "@comp": 1654,
      "▁french": 1655,
      "ter": 1656,
      "▁3/8/00": 1657,
      "▁free": 1658,
      "▁07:24": 1659,
      "▁yours": 1660,
      "▁memories": 1661,
      "▁amendments": 1662,
      "琴": 1663,
      "▁detroit": 1664,
      "▁brows": 1665,
      "▁prospect": 1666,
      "attering": 1667,
      "▁frera": 1668,
      "▁visa": 1669,
      "dering": 1670,
      "▁barack": 1671,
      "▁ehrm": 1672,
      "▁continental": 1673,
      "ify": 1674,
      "▁ber": 1675,
      "▁convinc": 1676,
      "irl": 1677,
      "▁ex": 1678,
      "▁details": 1679,
      "▁calling": 1680,
      "▁length": 1681,
      "iped": 1682,
      "▁germany": 1683,
      "▁ginger": 1684,
      "▁earl": 1685,
      "▁mistakes": 1686,
      "▁replacing": 1687,
      "▁supernatural": 1688,
      "report": 1689,
      "hia": 1690,
      "▁envelop": 1691,
      "eling": 1692,
      "imir": 1693,
      "▁louis": 1694,
      "▁arabic": 1695,
      "▁khan": 1696,
      "▁blind": 1697,
      "9.3": 1698,
      "▁mailing": 1699,
      "▁unple": 1700,
      "▁linking": 1701,
      "▁emph": 1702,
      "▁remain": 1703,
      "▁chess": 1704,
      "▁wit": 1705,
      "▁quietly": 1706,
      "▁according": 1707,
      "▁sant": 1708,
      "▁nar": 1709,
      "▁hoping": 1710,
      "▁tile": 1711,
      "▁reiter": 1712,
      "-col": 1713,
      "▁1918": 1714,
      "ark": 1715,
      "▁09:14": 1716,
      "ogical": 1717,
      "comp": 1718,
      "▁sang": 1719,
      "▁signs": 1720,
      "anes": 1721,
      "▁fed": 1722,
      "ensity": 1723,
      "ن": 1724,
      "▁semantic": 1725,
      "▁throu": 1726,
      "▁beaut": 1727,
      "▁invo": 1728,
      "▁prefer": 1729,
      "onn": 1730,
      "▁vehicle": 1731,
      "ich": 1732,
      "herd": 1733,
      "▁gramp": 1734,
      "▁constitutional": 1735,
      "▁tamils": 1736,
      "kin": 1737,
      "▁gab": 1738,
      "▁shut": 1739,
      "5-0": 1740,
      "ander": 1741,
      "▁345-9945": 1742,
      "omend": 1743,
      "▁center": 1744,
      "▁uva": 1745,
      "▁funeral": 1746,
      "▁foc": 1747,
      "▁discouraging": 1748,
      "▁cra": 1749,
      "66": 1750,
      "▁mummy": 1751,
      "▁intelligent": 1752,
      "▁tripped": 1753,
      "▁proficiency": 1754,
      "▁ship": 1755,
      "rupt": 1756,
      "▁scre": 1757,
      "uate": 1758,
      "▁maybe": 1759,
      "▁ont": 1760,
      "▁coach": 1761,
      "clusive": 1762,
      "▁shocked": 1763,
      "▁closer": 1764,
      "ups": 1765,
      "▁golf": 1766,
      "-to": 1767,
      "▁by": 1768,
      "**********************************": 1769,
      "rid": 1770,
      "/index": 1771,
      "▁treating": 1772,
      "oll": 1773,
      "▁told": 1774,
      "8-7": 1775,
      "▁located": 1776,
      "▁202.45": 1777,
      "▁heater": 1778,
      "▁metropolitan": 1779,
      "izes": 1780,
      "▁coat": 1781,
      "▁residents": 1782,
      "▁dev": 1783,
      "▁conditional": 1784,
      "▁coconut": 1785,
      "▁effects": 1786,
      "▁18,000": 1787,
      "▁defin": 1788,
      "▁label": 1789,
      "▁storm": 1790,
      "▁needing": 1791,
      "▁lengthy": 1792,
      "▁lighting": 1793,
      "rax": 1794,
      "▁mrs": 1795,
      "got": 1796,
      "▁philip": 1797,
      "re": 1798,
      "▁angel": 1799,
      "▁net": 1800,
      "▁det": 1801,
      "▁extant": 1802,
      "▁al": 1803,
      "▁captured": 1804,
      "▁713-646-3393": 1805,
      "▁1848": 1806,
      "▁bud": 1807,
      "▁societ": 1808,
      "▁jeffs": 1809,
      "▁inspire": 1810,
      "load": 1811,
      "▁ballet": 1812,
      "▁combination": 1813,
      "▁191": 1814,
      "warts": 1815,
      "▁whistle": 1816,
      "rah": 1817,
      "olf": 1818,
      "▁liquidweb": 1819,
      "▁categories": 1820,
      "▁drinks": 1821,
      "eries": 1822,
      "iant": 1823,
      "▁contexts": 1824,
      "▁headquart": 1825,
      "▁flo": 1826,
      "▁releases": 1827,
      "cast": 1828,
      "▁wav": 1829,
      "▁austin": 1830,
      "▁accepting": 1831,
      "▁nominated": 1832,
      "▁profess": 1833,
      "▁cleaning": 1834,
      "▁differences": 1835,
      "▁crap": 1836,
      "▁abcs": 1837,
      "▁pump": 1838,
      "▁08/03/2000": 1839,
      "▁sean": 1840,
      "▁lone": 1841,
      "verance": 1842,
      "▁dried": 1843,
      "uments": 1844,
      "▁pers": 1845,
      "▁.x": 1846,
      "▁psychology": 1847,
      "▁wave": 1848,
      "▁russell": 1849,
      "▁sports": 1850,
      "asses": 1851,
      "▁chinese": 1852,
      "▁managing": 1853,
      "▁jeep": 1854,
      "▁tie": 1855,
      "▁departures": 1856,
      "ecraft": 1857,
      "▁subscribe": 1858,
      "ist": 1859,
      "▁year": 1860,
      "▁strengthen": 1861,
      "fi": 1862,
      "▁waist": 1863,
      "▁quickly": 1864,
      "▁minn": 1865,
      "▁chernobyl": 1866,
      "▁eastward": 1867,
      "▁ride": 1868,
      "rete": 1869,
      "page": 1870,
      "/2001": 1871,
      "▁widely": 1872,
      "▁locally": 1873,
      "▁p.": 1874,
      "819": 1875,
      "▁resilience": 1876,
      "▁conclusion": 1877,
      "▁o'clock": 1878,
      "atched": 1879,
      "▁dignit": 1880,
      "▁desir": 1881,
      "bridge": 1882,
      "▁cheaper": 1883,
      "illion": 1884,
      "▁libr": 1885,
      "▁intellect": 1886,
      "▁marks": 1887,
      "▁ruy": 1888,
      "46": 1889,
      "▁''": 1890,
      "▁requires": 1891,
      "▁albania": 1892,
      "▁guessed": 1893,
      "▁undertaken": 1894,
      "▁contributing": 1895,
      "▁contrib": 1896,
      "▁complic": 1897,
      "▁flav": 1898,
      "▁41": 1899,
      "-98": 1900,
      "▁2100": 1901,
      "▁completed": 1902,
      "▁efficiency": 1903,
      "▁obv": 1904,
      "▁betty": 1905,
      "▁sperm": 1906,
      "ensed": 1907,
      "itude": 1908,
      "ipping": 1909,
      "▁amounts": 1910,
      "▁david": 1911,
      "urs": 1912,
      "▁australian": 1913,
      "▁mult": 1914,
      "▁accordingly": 1915,
      "▁pom": 1916,
      "▁tankers": 1917,
      "▁roles": 1918,
      "▁’": 1919,
      "▁and": 1920,
      "▁cookies": 1921,
      "▁vernon": 1922,
      "▁1602": 1923,
      "itally": 1924,
      "ester": 1925,
      "▁tips": 1926,
      "thor": 1927,
      "▁frust": 1928,
      "▁pressed": 1929,
      "▁polit": 1930,
      "▁does": 1931,
      "▁allegedly": 1932,
      "iliar": 1933,
      "▁actress": 1934,
      "▁88": 1935,
      "▁s/h": 1936,
      "own": 1937,
      "▁alley": 1938,
      "▁gonzales": 1939,
      "▁pictures": 1940,
      "▁war": 1941,
      "icient": 1942,
      "▁avo": 1943,
      "▁paul": 1944,
      "▁mathematics": 1945,
      "inth": 1946,
      "▁1868": 1947,
      "▁governor": 1948,
      "▁nmem": 1949,
      "▁rac": 1950,
      "-a": 1951,
      "xtures": 1952,
      "▁graves": 1953,
      "ng": 1954,
      "▁calculations": 1955,
      "▁partner": 1956,
      "otts": 1957,
      "▁environmental": 1958,
      "ocrats": 1959,
      "cy": 1960,
      "▁plut": 1961,
      "▁warning": 1962,
      "▁concluded": 1963,
      "▁1575": 1964,
      "▁interviewed": 1965,
      "▁bm": 1966,
      "ization": 1967,
      "▁aer": 1968,
      "ologist": 1969,
      "ulate": 1970,
      "▁example": 1971,
      "▁vlog": 1972,
      "▁updates": 1973,
      "ab": 1974,
      "▁higher": 1975,
      "ʊ": 1976,
      "▁snitch": 1977,
      "▁moral": 1978,
      "▁yoga": 1979,
      "▁bathroom": 1980,
      "▁igts": 1981,
      "▁pro-beijing": 1982,
      "▁houston": 1983,
      "▁dong": 1984,
      "▁virgin": 1985,
      "▁ht": 1986,
      "▁creating": 1987,
      "▁settle": 1988,
      "▁kiss": 1989,
      "▁westchester": 1990,
      "▁barnes": 1991,
      "▁lawn": 1992,
      "▁shrug": 1993,
      "awi": 1994,
      "▁provide": 1995,
      "miss": 1996,
      "lass": 1997,
      "▁flight": 1998,
      "all": 1999,
      "▁percell,": 2000,
      "▁aladar": 2001,
      "▁murdered": 2002,
      "▁phone": 2003,
      "▁so-called": 2004,
      "auc": 2005,
      "▁suffer": 2006,
      "▁always": 2007,
      "inal": 2008,
      "og": 2009,
      "▁01:58": 2010,
      "▁terre": 2011,
      "ilities": 2012,
      "ube": 2013,
      "▁these": 2014,
      "iro": 2015,
      "▁drafting": 2016,
      "▁yoy": 2017,
      "uf": 2018,
      "eny": 2019,
      "▁residence": 2020,
      "▁scary": 2021,
      "/0": 2022,
      "▁arrives": 2023,
      "▁settlements": 2024,
      "▁rubble": 2025,
      "apt": 2026,
      "▁str": 2027,
      "▁chase": 2028,
      "▁world": 2029,
      "▁attentive": 2030,
      "▁survival": 2031,
      "▁instinct": 2032,
      "▁theirs": 2033,
      "▁freezing": 2034,
      "▁prett": 2035,
      "illy": 2036,
      "▁sophistic": 2037,
      "wide": 2038,
      "▁text": 2039,
      "▁coastal": 2040,
      "ink": 2041,
      "▁turned": 2042,
      "▁ups": 2043,
      "▁indonesia": 2044,
      "▁smiling": 2045,
      ",00": 2046,
      "uh": 2047,
      "▁runner": 2048,
      "▁representing": 2049,
      "eet": 2050,
      "▁session": 2051,
      "▁applying": 2052,
      "▁breed": 2053,
      "▁colonies": 2054,
      "▁1999": 2055,
      "▁mt": 2056,
      "mine": 2057,
      "▁between": 2058,
      "▁6": 2059,
      "▁tact": 2060,
      "▁dropped": 2061,
      "▁best": 2062,
      "drft8-7": 2063,
      "▁administration": 2064,
      "▁lisa": 2065,
      "▁jane": 2066,
      "▁theories": 2067,
      "▁xslt": 2068,
      "▁acid": 2069,
      "▁squeak": 2070,
      "▁arizona": 2071,
      "▁hes": 2072,
      "▁37": 2073,
      "▁713-853-3989": 2074,
      "▁200,000": 2075,
      "▁ent": 2076,
      "▁actions": 2077,
      "▁dr.": 2078,
      "sey": 2079,
      "▁temple": 2080,
      "kong": 2081,
      "▁publicly": 2082,
      "hr": 2083,
      "4-": 2084,
      "▁new": 2085,
      "▁rise": 2086,
      "▁books": 2087,
      "▁swinging": 2088,
      "oking": 2089,
      "▁determin": 2090,
      "▁arbitr": 2091,
      "▁mand": 2092,
      "▁borg": 2093,
      "▁imple": 2094,
      "▁_______": 2095,
      "▁apparent": 2096,
      "▁portland": 2097,
      "▁paralympics": 2098,
      "▁simon": 2099,
      "▁eliminated": 2100,
      "▁813": 2101,
      "▁who's": 2102,
      "hop": 2103,
      "if": 2104,
      "onna": 2105,
      "▁heritage": 2106,
      "▁administ": 2107,
      "▁towing": 2108,
      "ification": 2109,
      "▁colon": 2110,
      "▁recon": 2111,
      "▁votes": 2112,
      "▁site": 2113,
      "▁tin": 2114,
      "▁interest": 2115,
      "▁advance": 2116,
      "▁jellyfish": 2117,
      "▁model": 2118,
      "gar": 2119,
      "-642": 2120,
      "▁compat": 2121,
      "▁dissatisf": 2122,
      ",6": 2123,
      "▁acting": 2124,
      "hous": 2125,
      "▁wides": 2126,
      "▁blowing": 2127,
      "▁hospitals": 2128,
      "▁happier": 2129,
      "▁verse": 2130,
      "▁absor": 2131,
      "▁ambitious": 2132,
      "▁enrongss": 2133,
      "▁san": 2134,
      "lying": 2135,
      "▁619": 2136,
      "▁subd": 2137,
      "rated": 2138,
      "▁5:00": 2139,
      "▁tracking": 2140,
      "▁1955": 2141,
      "▁act": 2142,
      "yah": 2143,
      "▁bureauc": 2144,
      "uling": 2145,
      "▁tet": 2146,
      "▁mathem": 2147,
      "▁150,000": 2148,
      "▁smok": 2149,
      "▁slide": 2150,
      "▁southwest": 2151,
      "▁responses": 2152,
      "▁buddy": 2153,
      "▁worthy": 2154,
      "alous": 2155,
      "▁650": 2156,
      "▁berry": 2157,
      "logspot.com/": 2158,
      "atch": 2159,
      "▁pupp": 2160,
      "▁???": 2161,
      "▁pinkies": 2162,
      "osexual": 2163,
      "▁rebecca": 2164,
      "’t": 2165,
      "▁spent": 2166,
      "▁trails": 2167,
      "▁makes": 2168,
      "▁bask": 2169,
      "4/2001": 2170,
      "▁mechanic": 2171,
      "▁wrestle": 2172,
      "stock": 2173,
      "▁indication": 2174,
      "▁accommod": 2175,
      "▁hate": 2176,
      "▁pot": 2177,
      "▁candle": 2178,
      "▁invite": 2179,
      "▁essentially": 2180,
      "▁commit": 2181,
      "▁belly": 2182,
      "uck": 2183,
      "▁horiz": 2184,
      "▁neither": 2185,
      "▁10": 2186,
      "▁denmark": 2187,
      "▁acquisition": 2188,
      "▁snowboard": 2189,
      "▁ai": 2190,
      "ocity": 2191,
      "▁harrison": 2192,
      "▁necessarily": 2193,
      "▁impression": 2194,
      "▁purch": 2195,
      "▁blount": 2196,
      "▁1896": 2197,
      "▁888": 2198,
      "▁stirrup": 2199,
      "atherine": 2200,
      "▁sheikh": 2201,
      "67": 2202,
      ".15": 2203,
      "▁lym": 2204,
      "----------": 2205,
      "▁entered": 2206,
      "▁ties": 2207,
      "▁panic": 2208,
      "▁third": 2209,
      "av": 2210,
      "▁montalvo": 2211,
      "▁will": 2212,
      "▁rare": 2213,
      "202": 2214,
      "i.": 2215,
      "▁marg": 2216,
      "▁behin": 2217,
      "▁vig": 2218,
      "▁edward": 2219,
      "▁classroom": 2220,
      "▁preparing": 2221,
      "▁#": 2222,
      "▁hi": 2223,
      "▁fbi": 2224,
      "su": 2225,
      "▁photography": 2226,
      "▁did": 2227,
      "▁cal": 2228,
      "▁problems": 2229,
      "▁proven": 2230,
      "▁charged": 2231,
      "▁quaffle": 2232,
      "▁waited": 2233,
      "▁thous": 2234,
      "▁robin": 2235,
      "oo": 2236,
      "▁phoebe": 2237,
      "ach": 2238,
      "▁rides": 2239,
      "▁margin": 2240,
      "ha": 2241,
      "inoc": 2242,
      "▁characters": 2243,
      "▁trained": 2244,
      "▁continents": 2245,
      "▁conspir": 2246,
      "stone": 2247,
      "▁character": 2248,
      ":29": 2249,
      "inct": 2250,
      "▁plenty": 2251,
      "▁glue": 2252,
      "▁flir": 2253,
      "▁jur": 2254,
      "row": 2255,
      "▁pet": 2256,
      "▁advantage": 2257,
      "▁crad": 2258,
      "▁unequ": 2259,
      "▁dist": 2260,
      "▁behind": 2261,
      "▁renata": 2262,
      "▁legitimacy": 2263,
      "▁noon": 2264,
      "▁opinion": 2265,
      "▁priest": 2266,
      "▁dam": 2267,
      "sl": 2268,
      "▁ocean": 2269,
      "490": 2270,
      "▁reader": 2271,
      "▁components": 2272,
      "▁mission": 2273,
      "ength": 2274,
      "▁strong": 2275,
      "▁information": 2276,
      "▁borrow": 2277,
      "▁eups": 2278,
      "▁eight": 2279,
      "▁faces": 2280,
      "▁estimates": 2281,
      "▁kleen": 2282,
      "▁empirical": 2283,
      "▁manifest": 2284,
      "▁==============================================================================": 2285,
      "▁healthy": 2286,
      "▁swed": 2287,
      "asts": 2288,
      "▁investors": 2289,
      "▁morocco": 2290,
      "▁1564": 2291,
      "▁timing": 2292,
      "▁substant": 2293,
      "▁kitchen": 2294,
      "official": 2295,
      "ured": 2296,
      "▁discussed": 2297,
      "▁dub": 2298,
      "▁]": 2299,
      "▁pred": 2300,
      "•": 2301,
      "▁oregon": 2302,
      "▁carney": 2303,
      "▁congratulate": 2304,
      "▁1819": 2305,
      "▁minded": 2306,
      "illed": 2307,
      "▁excitement": 2308,
      "nesday": 2309,
      "▁main": 2310,
      "400": 2311,
      "▁drew": 2312,
      "▁emper": 2313,
      "on": 2314,
      "aper": 2315,
      "iii": 2316,
      "inations": 2317,
      "▁stra": 2318,
      "isia": 2319,
      "mm": 2320,
      "▁ages": 2321,
      "▁vote": 2322,
      "veland": 2323,
      "▁$": 2324,
      "etti": 2325,
      "▁team": 2326,
      "▁onions": 2327,
      "▁pastor": 2328,
      "▁unemploy": 2329,
      "▁licensing": 2330,
      "sa": 2331,
      "▁findings": 2332,
      "▁marketing": 2333,
      "oral": 2334,
      "ause": 2335,
      "be": 2336,
      "▁significant": 2337,
      "▁cooler": 2338,
      "▁microphone": 2339,
      "▁swirl": 2340,
      "▁daisy": 2341,
      "===": 2342,
      "▁brand": 2343,
      "▁taking": 2344,
      "▁wore": 2345,
      "elt": 2346,
      ".09": 2347,
      "▁trunk": 2348,
      "▁emphasis": 2349,
      "gor": 2350,
      "▁visited": 2351,
      "▁carne": 2352,
      "▁register": 2353,
      "▁neil": 2354,
      "▁cheapest": 2355,
      "▁least": 2356,
      "▁americans": 2357,
      "▁beard": 2358,
      "▁3/9": 2359,
      "enues": 2360,
      "▁defend": 2361,
      "inea": 2362,
      "bha": 2363,
      "====": 2364,
      "▁boss": 2365,
      "▁specials": 2366,
      "itable": 2367,
      "▁bc": 2368,
      "▁chos": 2369,
      "inate": 2370,
      "chief": 2371,
      "▁authorship": 2372,
      "▁doorway": 2373,
      "▁list": 2374,
      "▁supple": 2375,
      "usetts": 2376,
      "▁believed": 2377,
      "▁buggy": 2378,
      "古": 2379,
      "▁rats": 2380,
      "atient": 2381,
      "▁lew": 2382,
      "sc": 2383,
      "▁brain": 2384,
      "▁nad": 2385,
      "▁attach": 2386,
      "▁ninety-n": 2387,
      "-435": 2388,
      "zzy": 2389,
      "se": 2390,
      "▁colle": 2391,
      "▁decided": 2392,
      "▁packed": 2393,
      "▁frost": 2394,
      "hast": 2395,
      "▁dizzy": 2396,
      "▁christmas": 2397,
      "▁chath": 2398,
      "asa": 2399,
      "▁pony": 2400,
      "ica": 2401,
      "▁edition": 2402,
      "▁sentence": 2403,
      "-3393": 2404,
      "▁categ": 2405,
      "▁trading": 2406,
      "▁merry": 2407,
      "▁depos": 2408,
      "ching": 2409,
      "▁mil": 2410,
      "▁accidents": 2411,
      "42": 2412,
      "▁1787": 2413,
      "▁08/0": 2414,
      "▁screws": 2415,
      "▁mas": 2416,
      "▁lank": 2417,
      "▁elaborate": 2418,
      "/01/2001": 2419,
      "▁chairman": 2420,
      "oices": 2421,
      "▁2030": 2422,
      "▁deter": 2423,
      "ails": 2424,
      "▁still": 2425,
      "▁ethnic": 2426,
      "▁masks": 2427,
      "▁african": 2428,
      "▁venus": 2429,
      "▁tsar": 2430,
      "▁district": 2431,
      "▁injuries": 2432,
      "ands": 2433,
      "▁greg": 2434,
      "~*~*~*~*": 2435,
      "▁airline": 2436,
      "tch": 2437,
      "woman": 2438,
      "ail": 2439,
      "▁articles": 2440,
      "▁licensor": 2441,
      "▁scr": 2442,
      "▁stare": 2443,
      "▁zeal": 2444,
      "▁rs": 2445,
      "▁muggle": 2446,
      "▁bananas": 2447,
      "▁sculpt": 2448,
      "▁tem": 2449,
      "▁1995": 2450,
      "▁root": 2451,
      "▁judging": 2452,
      "▁observed": 2453,
      "▁guit": 2454,
      "▁minimum": 2455,
      "▁senses": 2456,
      "▁forget": 2457,
      "▁present": 2458,
      "▁shops": 2459,
      "▁corporation": 2460,
      "▁postp": 2461,
      "▁indig": 2462,
      "▁ciao": 2463,
      "▁gwww": 2464,
      "▁mothers": 2465,
      "▁lit": 2466,
      "anche": 2467,
      "rate": 2468,
      "▁02-0": 2469,
      "▁switzer": 2470,
      "ache": 2471,
      "▁engineers": 2472,
      "code": 2473,
      "▁suggest": 2474,
      "▁curves": 2475,
      "▁battles": 2476,
      "itten": 2477,
      "▁retreat": 2478,
      "▁grad": 2479,
      ".1234": 2480,
      "bat": 2481,
      "▁shoot": 2482,
      "▁chemical": 2483,
      "▁containers": 2484,
      "▁alt.animals.c": 2485,
      "▁marking": 2486,
      "---": 2487,
      "like": 2488,
      "▁dele": 2489,
      "▁o'": 2490,
      "▁motive": 2491,
      "lies": 2492,
      "▁lasted": 2493,
      "▁thousand": 2494,
      "▁58": 2495,
      "▁evil": 2496,
      "read": 2497,
      "▁abroad": 2498,
      "▁2.975": 2499,
      "▁great": 2500,
      "▁instructions": 2501,
      "ony": 2502,
      "▁intensity": 2503,
      "▁abe": 2504,
      "▁driven": 2505,
      "▁sain": 2506,
      "oma": 2507,
      "▁meh-risk": 2508,
      "▁creature": 2509,
      "▁exchange": 2510,
      "▁criminals": 2511,
      "▁suspect": 2512,
      "▁interrog": 2513,
      "▁inject": 2514,
      "▁travelled": 2515,
      "wa": 2516,
      "aches": 2517,
      "▁format": 2518,
      "▁ment": 2519,
      "▁editors": 2520,
      "▁grasp": 2521,
      "▁monitor": 2522,
      "==": 2523,
      "▁th": 2524,
      "▁airl": 2525,
      "-p": 2526,
      "formed": 2527,
      "▁justified": 2528,
      "▁perceptions": 2529,
      "-l": 2530,
      "▁twilight": 2531,
      "▁evaluating": 2532,
      "▁islamists": 2533,
      "▁hotel": 2534,
      "▁stock": 2535,
      "▁empt": 2536,
      "▁girls": 2537,
      "▁enforcement": 2538,
      "uclear": 2539,
      "▁gig": 2540,
      "▁epist": 2541,
      "▁mes": 2542,
      "▁finds": 2543,
      "agne": 2544,
      "▁tow": 2545,
      "▁argue": 2546,
      "idge": 2547,
      "▁moon": 2548,
      "▁routine": 2549,
      "▁darkness": 2550,
      "▁declaring": 2551,
      "▁sochi": 2552,
      "▁primary": 2553,
      "▁57": 2554,
      "▁flies": 2555,
      "▁raise": 2556,
      "▁awarded": 2557,
      "▁sunn": 2558,
      "▁traders": 2559,
      "▁gag": 2560,
      "▁pure": 2561,
      "▁lieuten": 2562,
      "▁upstairs": 2563,
      "▁ukrain": 2564,
      "▁gn": 2565,
      "ailand": 2566,
      "▁fundamentally": 2567,
      "▁accustomed": 2568,
      "▁adorn": 2569,
      "▁&amp;": 2570,
      "▁mary": 2571,
      "▁parliament": 2572,
      "▁frequency": 2573,
      "▁expanded": 2574,
      "▁cross": 2575,
      "▁xml": 2576,
      "oupe": 2577,
      "▁became": 2578,
      "υ": 2579,
      "▁duke": 2580,
      "ant": 2581,
      "▁proceeding": 2582,
      "uj": 2583,
      "▁appell": 2584,
      "▁western": 2585,
      "ference": 2586,
      ":25": 2587,
      "▁plaint": 2588,
      "▁results": 2589,
      "usion": 2590,
      "rors": 2591,
      "akistan": 2592,
      "▁luck": 2593,
      "▁establishments": 2594,
      "▁77": 2595,
      "▁gren": 2596,
      "[": 2597,
      "wyn": 2598,
      "▁shortest": 2599,
      "ot": 2600,
      "▁http://www.b": 2601,
      "▁unm": 2602,
      "▁(c)": 2603,
      "▁things": 2604,
      "▁secular": 2605,
      "▁gay": 2606,
      "▁promises": 2607,
      "▁consequence": 2608,
      "▁buck": 2609,
      "▁11/7": 2610,
      "▁frequent": 2611,
      "burger": 2612,
      "▁rese": 2613,
      "▁oce": 2614,
      "▁voting": 2615,
      "▁hans": 2616,
      "▁reviews": 2617,
      "▁sushi": 2618,
      "▁swimming": 2619,
      "ress": 2620,
      "▁anytime": 2621,
      "▁current": 2622,
      "mania": 2623,
      "▁05:37": 2624,
      "g": 2625,
      "iterrane": 2626,
      "▁fancy": 2627,
      ".asp": 2628,
      "▁eu": 2629,
      "lie": 2630,
      "ural": 2631,
      "▁3.2": 2632,
      "velop": 2633,
      "▁lieutenant": 2634,
      "▁weasley": 2635,
      "▁delivered": 2636,
      "▁bean": 2637,
      "▁controvers": 2638,
      "▁columbia": 2639,
      "uum": 2640,
      "▁intends": 2641,
      "mn": 2642,
      "ique": 2643,
      "▁jwww": 2644,
      "cross": 2645,
      "-20-": 2646,
      "▁y": 2647,
      "▁dep": 2648,
      "▁choosing": 2649,
      "grad": 2650,
      "▁s": 2651,
      "anced": 2652,
      "▁curb": 2653,
      "▁cd": 2654,
      "▁6/1": 2655,
      "▁working": 2656,
      "gets": 2657,
      "▁62": 2658,
      "▁hopes": 2659,
      "▁exist": 2660,
      "▁anth": 2661,
      "fly": 2662,
      "▁solar": 2663,
      "▁enable": 2664,
      "▁charcoal": 2665,
      "ets": 2666,
      "▁cru": 2667,
      "----": 2668,
      "emade": 2669,
      "▁stressful": 2670,
      "===<----": 2671,
      "▁compel": 2672,
      "▁degree": 2673,
      "▁played": 2674,
      "▁threatening": 2675,
      "▁2.5": 2676,
      "▁approval": 2677,
      "▁option": 2678,
      "▁cruc": 2679,
      "▁equip": 2680,
      "▁competitive": 2681,
      "▁motivation": 2682,
      "▁spr": 2683,
      "▁brave": 2684,
      "▁10:00": 2685,
      "▁normally": 2686,
      "▁sj": 2687,
      "▁weeks": 2688,
      "▁holocaust": 2689,
      "▁case": 2690,
      "▁belie": 2691,
      "▁coinc": 2692,
      "▁partially": 2693,
      "▁happened": 2694,
      "▁72,000": 2695,
      "▁grams": 2696,
      "▁ld2": 2697,
      "▁valle": 2698,
      "alee": 2699,
      "ology": 2700,
      "▁mexic": 2701,
      "▁compared": 2702,
      "▁spont": 2703,
      "▁surely": 2704,
      "i.com/": 2705,
      "▁plate": 2706,
      "▁3.7": 2707,
      "▁gender": 2708,
      "▁indicate": 2709,
      "▁emma": 2710,
      "▁ftu": 2711,
      "▁happiness": 2712,
      "▁admissions": 2713,
      "▁conditioning": 2714,
      "eding": 2715,
      "874": 2716,
      "▁unaware": 2717,
      "▁arrow": 2718,
      "▁cardinal": 2719,
      "▁russians": 2720,
      "▁par": 2721,
      "▁member": 2722,
      "▁elev": 2723,
      "▁6871082#": 2724,
      "▁candidates": 2725,
      "▁mushrooms": 2726,
      "st": 2727,
      "▁syn": 2728,
      "▁moslem": 2729,
      "takana": 2730,
      "▁replication": 2731,
      "▁greeted": 2732,
      "▁daw": 2733,
      "ulatory": 2734,
      ".blogspot.com/": 2735,
      "pe": 2736,
      "▁hect": 2737,
      "▁emotional": 2738,
      "▁852": 2739,
      "▁888.916.718": 2740,
      "▁latest": 2741,
      "▁stick": 2742,
      "▁concent": 2743,
      "▁plug": 2744,
      "▁respected": 2745,
      "▁miller": 2746,
      "▁sh": 2747,
      "▁apolog": 2748,
      "▁academic": 2749,
      "▁programm": 2750,
      "▁comply": 2751,
      "▁external": 2752,
      "▁analy": 2753,
      "▁1609": 2754,
      "bern": 2755,
      "ittal": 2756,
      "▁.....": 2757,
      "▁strol": 2758,
      "▁pittsburgh": 2759,
      "▁hippopotamus": 2760,
      "uers": 2761,
      "▁exp": 2762,
      "€": 2763,
      "▁whom": 2764,
      "▁iguazu": 2765,
      "▁arrange": 2766,
      "riv": 2767,
      "▁abundance": 2768,
      "▁khinss": 2769,
      "▁dishes": 2770,
      "▁madam": 2771,
      "▁greeting": 2772,
      "▁baba": 2773,
      "▁dessert": 2774,
      "▁educated": 2775,
      "▁reluctant": 2776,
      "ork": 2777,
      "▁outcom": 2778,
      "▁town": 2779,
      "▁detailed": 2780,
      "▁transit": 2781,
      "adel": 2782,
      "ither": 2783,
      "▁israel": 2784,
      "▁exce": 2785,
      "uss": 2786,
      "▁steadily": 2787,
      "▁novelist": 2788,
      "▁gimp": 2789,
      "guard": 2790,
      "lessly": 2791,
      "▁peau": 2792,
      "▁64": 2793,
      "▁collects": 2794,
      "▁260": 2795,
      "sed": 2796,
      "▁confer": 2797,
      "▁5.3": 2798,
      "▁jared": 2799,
      "▁input": 2800,
      "▁typ": 2801,
      "▁gl": 2802,
      "▁progress": 2803,
      "▁banned": 2804,
      "▁welfare": 2805,
      "▁clin": 2806,
      "▁usual": 2807,
      "▁24.7": 2808,
      "boro": 2809,
      "▁1593": 2810,
      "▁mailings": 2811,
      "▁segment": 2812,
      "derm": 2813,
      "▁equine": 2814,
      "zed": 2815,
      "▁socc": 2816,
      "▁effectiveness": 2817,
      "▁provocation": 2818,
      "▁water": 2819,
      "/4": 2820,
      "ihow": 2821,
      "▁wif": 2822,
      "▁explain": 2823,
      "▁decade": 2824,
      "raid": 2825,
      "uster": 2826,
      "▁washing": 2827,
      "▁g": 2828,
      "hab": 2829,
      "ing": 2830,
      "▁opt": 2831,
      "▁po": 2832,
      "▁wow": 2833,
      "leys": 2834,
      "▁innocent": 2835,
      "▁beating": 2836,
      "-8031": 2837,
      "▁goodbye": 2838,
      "▁history": 2839,
      "otional": 2840,
      "▁welcoming": 2841,
      "▁cell": 2842,
      "▁11": 2843,
      "▁patri": 2844,
      "▁leverage": 2845,
      "▁drafted": 2846,
      "▁lovely": 2847,
      "eau": 2848,
      "▁amend": 2849,
      "▁whereas": 2850,
      "▁dealer": 2851,
      "▁notch": 2852,
      "▁targeted": 2853,
      "▁geomet": 2854,
      "▁lifelong": 2855,
      "▁cass": 2856,
      "▁s.": 2857,
      "▁resolution": 2858,
      "esth": 2859,
      "-w": 2860,
      "ashion": 2861,
      "▁agricultural": 2862,
      "ˈ": 2863,
      "▁safer": 2864,
      "uously": 2865,
      "aut": 2866,
      "▁chall": 2867,
      "fort": 2868,
      "oos": 2869,
      "▁enabling": 2870,
      "▁compare": 2871,
      "▁fixing": 2872,
      "▁annoyed": 2873,
      "▁philosophy": 2874,
      "▁novels": 2875,
      "▁scorp": 2876,
      "▁extending": 2877,
      "▁rounds": 2878,
      "▁nuts": 2879,
      "▁glitter": 2880,
      "▁charges": 2881,
      "▁historic": 2882,
      "▁junior": 2883,
      "▁relativism": 2884,
      "▁disrupt": 2885,
      "▁currency": 2886,
      "▁continuation": 2887,
      "▁fantasy": 2888,
      "▁domin": 2889,
      "▁citrus": 2890,
      "▁confidentiality": 2891,
      "▁48": 2892,
      "▁consider": 2893,
      "ball": 2894,
      "ign": 2895,
      "▁northern": 2896,
      "lac": 2897,
      "isations": 2898,
      "▁mathematician": 2899,
      "▁flaw": 2900,
      "▁entities": 2901,
      "▁ringing": 2902,
      "▁join": 2903,
      "▁comprehensive": 2904,
      "5-02.doc": 2905,
      "▁cuba": 2906,
      ".00": 2907,
      "pike": 2908,
      "▁tresp": 2909,
      "▁peak": 2910,
      "fox": 2911,
      "▁attrib": 2912,
      "▁reveal": 2913,
      "▁descended": 2914,
      "▁ugh": 2915,
      "▁spain": 2916,
      "▁2014": 2917,
      "况": 2918,
      "▁wikimedia": 2919,
      "▁tomato": 2920,
      "▁curve": 2921,
      "▁makeup": 2922,
      "▁var": 2923,
      "▁sticker": 2924,
      "▁explained": 2925,
      "▁liter": 2926,
      "▁claws": 2927,
      "aged": 2928,
      "itudes": 2929,
      "▁charl": 2930,
      "▁looked": 2931,
      "▁łodz": 2932,
      "▁av": 2933,
      "▁radiation": 2934,
      "▁energ": 2935,
      "▁create": 2936,
      "▁une": 2937,
      "▁tehran": 2938,
      "▁cooperating": 2939,
      "▁watch": 2940,
      "▁page": 2941,
      "▁quality": 2942,
      "▁disease": 2943,
      "-sh": 2944,
      "▁strawberries": 2945,
      "▁maintain": 2946,
      "▁velocity": 2947,
      "▁force": 2948,
      "▁foreigner": 2949,
      "▁casual": 2950,
      "▁cap": 2951,
      "iny": 2952,
      "acters": 2953,
      "▁163": 2954,
      "▁620-294-": 2955,
      "▁colom": 2956,
      "▁touching": 2957,
      "ident": 2958,
      "▁ontario": 2959,
      ".86": 2960,
      "▁dut": 2961,
      "▁508": 2962,
      "▁&amp": 2963,
      "▁naturally": 2964,
      "▁magazines": 2965,
      "▁345-343": 2966,
      "alds": 2967,
      "uled": 2968,
      "eras": 2969,
      "▁penn": 2970,
      "▁truck": 2971,
      "▁§": 2972,
      "2.doc": 2973,
      "▁sand": 2974,
      "▁originally": 2975,
      "▁thurs": 2976,
      "▁sid": 2977,
      "▁liv": 2978,
      "▁lifted": 2979,
      "▁aunt": 2980,
      "▁engaging": 2981,
      "keys": 2982,
      "enron.com": 2983,
      "▁ju": 2984,
      "▁saved": 2985,
      "▁abb": 2986,
      "▁rand": 2987,
      "▁behavior": 2988,
      "▁throw": 2989,
      "▁sor": 2990,
      "▁crust": 2991,
      "▁proper": 2992,
      "▁bearded": 2993,
      "ttes": 2994,
      "▁damages": 2995,
      "▁inter": 2996,
      "▁outcome": 2997,
      "▁liz": 2998,
      "▁pilots": 2999,
      "fer": 3000,
      "ize": 3001,
      "mark": 3002,
      ":44": 3003,
      "▁transp": 3004,
      "▁attempting": 3005,
      "▁81": 3006,
      "val": 3007,
      "rog": 3008,
      "ener": 3009,
      "▁chem": 3010,
      "ii": 3011,
      "oc": 3012,
      "▁biz": 3013,
      "▁away": 3014,
      "▁shores": 3015,
      "▁boy": 3016,
      "inn": 3017,
      "▁little": 3018,
      "fur": 3019,
      "power": 3020,
      "▁armored": 3021,
      "os.com": 3022,
      "-time": 3023,
      "ometer": 3024,
      "▁kend": 3025,
      "▁associate": 3026,
      "▁ra": 3027,
      "▁11/28/2000": 3028,
      "p": 3029,
      "▁kind": 3030,
      "▁enables": 3031,
      "ais": 3032,
      "▁parakeets": 3033,
      "que": 3034,
      "▁librarians": 3035,
      "▁ninny": 3036,
      "▁desirable": 3037,
      "ashing": 3038,
      "▁contributions": 3039,
      "▁kus": 3040,
      "▁exagger": 3041,
      "▁sets": 3042,
      "▁orlando": 3043,
      "▁accurate": 3044,
      "▁court": 3045,
      "▁refuge": 3046,
      "▁frogs": 3047,
      "▁challenge": 3048,
      "▁capable": 3049,
      "▁stew": 3050,
      "▁trafficking": 3051,
      "▁beatles": 3052,
      "oshikii": 3053,
      "▁binoculars": 3054,
      "▁torture": 3055,
      "▁toystore": 3056,
      "▁483": 3057,
      "ination": 3058,
      "▁cuckoo": 3059,
      "▁went": 3060,
      "▁calc": 3061,
      "▁supposed": 3062,
      "chant": 3063,
      "▁massive": 3064,
      "▁cans": 3065,
      "▁shady": 3066,
      "ern": 3067,
      "▁writers": 3068,
      "ther": 3069,
      "▁luxurious": 3070,
      "selves": 3071,
      "▁5/1": 3072,
      "▁minim": 3073,
      "▁train": 3074,
      "▁accompan": 3075,
      "▁businesses": 3076,
      "▁hu": 3077,
      "▁toe": 3078,
      "▁writes": 3079,
      "▁exha": 3080,
      "awah": 3081,
      "▁chang": 3082,
      "▁individual": 3083,
      "▁speed": 3084,
      "mp": 3085,
      "▁1.": 3086,
      "▁1800": 3087,
      "▁risk": 3088,
      "▁divine": 3089,
      "▁insuff": 3090,
      "▁finance": 3091,
      "▁counterpart": 3092,
      "orn": 3093,
      "ioned": 3094,
      "▁printing": 3095,
      "▁dissemin": 3096,
      "▁corrupt": 3097,
      "ahar": 3098,
      "▁fellow": 3099,
      "▁struggled": 3100,
      "▁fairly": 3101,
      "▁agencies": 3102,
      "▁monastery": 3103,
      "▁wizards": 3104,
      "ville": 3105,
      "▁anne": 3106,
      "▁1992": 3107,
      "▁1780": 3108,
      "dulo": 3109,
      "▁tort": 3110,
      "▁challeng": 3111,
      "▁phil": 3112,
      "▁felt": 3113,
      "▁alex": 3114,
      "▁meat": 3115,
      "▁enjambment": 3116,
      "▁chiro": 3117,
      "▁sound": 3118,
      ".gov": 3119,
      "▁watching": 3120,
      "▁belonged": 3121,
      "▁durham": 3122,
      "▁nose": 3123,
      "▁watered": 3124,
      "▁localist": 3125,
      "▁wikinews": 3126,
      "book": 3127,
      "▁twel": 3128,
      "▁sheep": 3129,
      "▁claw": 3130,
      "▁bicycle": 3131,
      "▁hong": 3132,
      "▁trib": 3133,
      "▁181": 3134,
      "▁experts": 3135,
      "▁awake": 3136,
      "▁wasted": 3137,
      "▁identification": 3138,
      "▁vivid": 3139,
      "▁billion": 3140,
      "▁stood": 3141,
      "▁humans": 3142,
      "▁mathematic": 3143,
      "▁prefect": 3144,
      "96": 3145,
      "▁presum": 3146,
      "▁during": 3147,
      "▁wiz": 3148,
      "▁namely": 3149,
      "al": 3150,
      "ozer": 3151,
      "▁newark": 3152,
      "▁vince": 3153,
      "▁meow": 3154,
      "▁exerc": 3155,
      "atra": 3156,
      "/99": 3157,
      "▁1585": 3158,
      "▁shale": 3159,
      "▁structured": 3160,
      "▁rab": 3161,
      "▁cm": 3162,
      "▁amaz": 3163,
      "kes": 3164,
      "▁orland": 3165,
      "▁distant": 3166,
      "▁yo": 3167,
      "▁ant": 3168,
      "▁mosul": 3169,
      "▁jaf": 3170,
      "▁loc": 3171,
      "▁saddam": 3172,
      "▁moreover": 3173,
      "rev": 3174,
      "▁jfk": 3175,
      "▁component": 3176,
      "▁shakespearean": 3177,
      "▁1989": 3178,
      "_": 3179,
      "▁assure": 3180,
      "▁emergency": 3181,
      "mi": 3182,
      "▁chagrin": 3183,
      "▁inquiry": 3184,
      "iding": 3185,
      "▁100,000": 3186,
      "▁skirts": 3187,
      "▁vess": 3188,
      "▁forgiveness": 3189,
      "▁traci": 3190,
      "▁den": 3191,
      "▁********": 3192,
      "▁device": 3193,
      "▁secure": 3194,
      "▁banknot": 3195,
      "iac": 3196,
      "▁satisfy": 3197,
      "icked": 3198,
      "▁ethnocentrism": 3199,
      "▁handker": 3200,
      "▁rinse": 3201,
      "▁scientists": 3202,
      "▁speak": 3203,
      "▁gap": 3204,
      "▁refers": 3205,
      "▁1833": 3206,
      "▁evaluator": 3207,
      "▁1647": 3208,
      "▁agricult": 3209,
      "-27": 3210,
      "▁vic": 3211,
      "▁trials": 3212,
      "plus": 3213,
      "▁achie": 3214,
      "▁engine": 3215,
      "▁finished": 3216,
      "▁mwet": 3217,
      "▁guerre": 3218,
      "▁thorough": 3219,
      "▁pict": 3220,
      "▁mysteries": 3221,
      "▁voters": 3222,
      "essions": 3223,
      "▁palestine": 3224,
      "▁knows": 3225,
      "ences": 3226,
      "▁kat": 3227,
      "du": 3228,
      "child": 3229,
      "▁incompetence": 3230,
      ".45": 3231,
      "▁panc": 3232,
      "▁91": 3233,
      "ution": 3234,
      "▁touched": 3235,
      "▁relatives": 3236,
      "▁recc": 3237,
      "▁attack": 3238,
      "▁private": 3239,
      "▁democrats": 3240,
      "▁headache": 3241,
      "ai": 3242,
      "▁sv": 3243,
      "▁whatsoever": 3244,
      "▁toronto": 3245,
      "▁palest": 3246,
      "▁~": 3247,
      "▁eff": 3248,
      "▁move": 3249,
      "▁washington": 3250,
      "ave": 3251,
      "▁tight": 3252,
      "▁pett": 3253,
      "▁ivory": 3254,
      "▁at": 3255,
      "iciency": 3256,
      "▁passion": 3257,
      "▁jobs": 3258,
      "▁init": 3259,
      "▁miramar": 3260,
      "▁walks": 3261,
      "▁dynamic": 3262,
      "▁cul": 3263,
      "▁percell": 3264,
      "▁emphas": 3265,
      "▁overt": 3266,
      "▁compaq": 3267,
      "▁gloom": 3268,
      "uits": 3269,
      "▁sufficiently": 3270,
      "▁vanished": 3271,
      "emocratic": 3272,
      "▁bak": 3273,
      "▁theater": 3274,
      "▁happ": 3275,
      "ß": 3276,
      "▁removing": 3277,
      "-ter": 3278,
      "▁non-avian": 3279,
      "1082": 3280,
      "▁worksh": 3281,
      "ili": 3282,
      "▁meeting": 3283,
      "▁polar": 3284,
      "▁temples": 3285,
      "▁documented": 3286,
      "▁din": 3287,
      "▁solve": 3288,
      "▁1943": 3289,
      "▁350": 3290,
      ".j": 3291,
      "{": 3292,
      "anmar": 3293,
      "▁dor": 3294,
      "▁inspection": 3295,
      "▁abilities": 3296,
      "▁oxygen": 3297,
      "▁robert": 3298,
      "▁incor": 3299,
      "▁uvb": 3300,
      "▁network": 3301,
      "▁funny": 3302,
      "▁perdues": 3303,
      "▁cor": 3304,
      "▁pac": 3305,
      "▁wearing": 3306,
      "▁!!!!!!!!!!!": 3307,
      "▁permit": 3308,
      "▁habit": 3309,
      "-st": 3310,
      "ient": 3311,
      "------->": 3312,
      "▁country": 3313,
      "-12": 3314,
      "anan": 3315,
      "anda": 3316,
      "▁liverpool": 3317,
      "▁apartments": 3318,
      "▁room": 3319,
      "ld": 3320,
      "▁:p": 3321,
      "▁compensation": 3322,
      "▁allen": 3323,
      "▁nothing": 3324,
      "▁decis": 3325,
      "ham": 3326,
      "▁wite": 3327,
      "ners": 3328,
      "▁puzz": 3329,
      "points": 3330,
      "-and": 3331,
      "▁dwww": 3332,
      "▁appro": 3333,
      "▁punch": 3334,
      "▁union": 3335,
      "▁medical": 3336,
      "?": 3337,
      "▁stream": 3338,
      "▁explanation": 3339,
      "▁paula": 3340,
      "gu": 3341,
      "712": 3342,
      "▁silic": 3343,
      "▁rebu": 3344,
      "▁lest": 3345,
      "▁10:56": 3346,
      "▁er": 3347,
      "81": 3348,
      "umin": 3349,
      "oting": 3350,
      "tec": 3351,
      "▁alito": 3352,
      "▁boun": 3353,
      "▁theod": 3354,
      "▁academy": 3355,
      "▁alcohol": 3356,
      "▁glance": 3357,
      "▁ware": 3358,
      "▁ahead": 3359,
      "▁farrier": 3360,
      "▁vari": 3361,
      "▁anna": 3362,
      "▁freezer": 3363,
      "▁reply": 3364,
      "1/2001": 3365,
      "▁effect": 3366,
      "etary": 3367,
      "▁bucks": 3368,
      "▁arch": 3369,
      "enna": 3370,
      "abeth": 3371,
      "▁spine": 3372,
      "ugal": 3373,
      "$": 3374,
      "▁attractive": 3375,
      "º": 3376,
      "✉": 3377,
      "▁----==": 3378,
      "▁condem": 3379,
      "▁twin": 3380,
      "▁neighborhood": 3381,
      "▁habitat": 3382,
      "▁ne": 3383,
      "▁regret": 3384,
      "▁seekers": 3385,
      "▁jer": 3386,
      "ip": 3387,
      "▁gentle": 3388,
      "pp": 3389,
      "▁clar": 3390,
      "▁rick": 3391,
      "▁hardly": 3392,
      "▁delete": 3393,
      "▁virtual": 3394,
      "▁im": 3395,
      "▁cos": 3396,
      "▁savings": 3397,
      "▁eliminate": 3398,
      "▁tackle": 3399,
      "▁you": 3400,
      "▁serious": 3401,
      "▁11:32": 3402,
      "tedly": 3403,
      "▁endeavor": 3404,
      "▁hopeful": 3405,
      "▁purpose": 3406,
      "▁comparison": 3407,
      "▁bitter": 3408,
      "▁help": 3409,
      "▁granted": 3410,
      "raft": 3411,
      "ague": 3412,
      "omm": 3413,
      "▁someone": 3414,
      "▁trail": 3415,
      "▁stars": 3416,
      "▁supplement": 3417,
      "isons": 3418,
      "▁alongside": 3419,
      "▁disag": 3420,
      "▁ess": 3421,
      "▁credential": 3422,
      "▁accomplish": 3423,
      "▁draw": 3424,
      "▁pale": 3425,
      "eness": 3426,
      "iv": 3427,
      "aw": 3428,
      "▁waiter": 3429,
      "ied": 3430,
      "▁graphic": 3431,
      "▁build": 3432,
      "▁slipped": 3433,
      "▁tearing": 3434,
      "▁dat": 3435,
      "▁matters": 3436,
      "ici": 3437,
      "▁variety": 3438,
      "▁waving": 3439,
      "▁destination": 3440,
      "▁ext": 3441,
      "▁spectacular": 3442,
      "▁mon": 3443,
      "▁apple": 3444,
      "uts": 3445,
      "ey": 3446,
      "ival": 3447,
      "▁wines": 3448,
      "ugg": 3449,
      "▁dw": 3450,
      "▁196": 3451,
      "▁713/": 3452,
      "▁que": 3453,
      "▁1830": 3454,
      "▁frag": 3455,
      "▁wand": 3456,
      "989": 3457,
      "▁downstairs": 3458,
      "eon": 3459,
      "oup": 3460,
      "▁andaman": 3461,
      "▁69": 3462,
      "▁perling": 3463,
      "▁burger": 3464,
      "▁relics": 3465,
      "▁financ": 3466,
      "▁mesoameric": 3467,
      "▁sri": 3468,
      "▁andril": 3469,
      "ince": 3470,
      "▁troops": 3471,
      "▁huh": 3472,
      "▁sheet": 3473,
      "▁grown": 3474,
      "▁colleag": 3475,
      "▁pag": 3476,
      "▁underage": 3477,
      "▁boom": 3478,
      "▁wh": 3479,
      "▁burst": 3480,
      "▁loun": 3481,
      "ively": 3482,
      "▁orange": 3483,
      "▁situations": 3484,
      "▁r.": 3485,
      "▁deemed": 3486,
      "agan": 3487,
      "asks": 3488,
      "▁40,000": 3489,
      "▁gir": 3490,
      "uc": 3491,
      "▁seeking": 3492,
      "▁accord": 3493,
      "▁counterfe": 3494,
      "▁kissed": 3495,
      "▁nicely": 3496,
      "▁relation": 3497,
      "▁ce": 3498,
      "▁alle": 3499,
      "▁anim": 3500,
      "▁cells": 3501,
      "uded": 3502,
      "itch": 3503,
      "▁religion": 3504,
      "▁outcomes": 3505,
      "▁sunsh": 3506,
      "▁subtle": 3507,
      ":14": 3508,
      "▁worms": 3509,
      "▁evalu": 3510,
      "form": 3511,
      "▁ceo": 3512,
      "▁circumstances": 3513,
      "▁leave": 3514,
      "▁continues": 3515,
      "▁fans": 3516,
      "arents": 3517,
      "▁neck": 3518,
      "▁savage": 3519,
      "▁iso": 3520,
      "▁purchase": 3521,
      "▁monster": 3522,
      "▁tyler": 3523,
      "any": 3524,
      "gate": 3525,
      "▁individually": 3526,
      "▁paper": 3527,
      "▁remains": 3528,
      "ures": 3529,
      "▁pean": 3530,
      "▁persistent": 3531,
      "▁directed": 3532,
      "▁crucial": 3533,
      "mony": 3534,
      "▁oven": 3535,
      "奈": 3536,
      "▁singapore": 3537,
      "▁wou": 3538,
      "▁1962": 3539,
      "▁bubbles": 3540,
      ":27": 3541,
      "wear": 3542,
      "▁conflicts": 3543,
      "verted": 3544,
      "▁jenna": 3545,
      "bond": 3546,
      "pped": 3547,
      "▁heavier": 3548,
      "tha": 3549,
      "▁feature": 3550,
      "▁01/19/2001": 3551,
      "pt": 3552,
      "gth": 3553,
      "▁series": 3554,
      "▁projects": 3555,
      "2951_": 3556,
      "▁surrounding": 3557,
      "▁inches": 3558,
      "▁establish": 3559,
      "▁settlement": 3560,
      "▁grandma": 3561,
      "▁hebrew": 3562,
      "▁excessive": 3563,
      "▁department": 3564,
      "iot": 3565,
      "eu": 3566,
      "▁stayed": 3567,
      "▁prosperity": 3568,
      "overs": 3569,
      "▁ignoring": 3570,
      "▁contain": 3571,
      "▁losing": 3572,
      "ques": 3573,
      "▁demanded": 3574,
      "▁maternal": 3575,
      "▁ske": 3576,
      "eal": 3577,
      "amp": 3578,
      "atives": 3579,
      "/2000": 3580,
      "▁1699": 3581,
      "ackl": 3582,
      "in": 3583,
      "▁philadelphia": 3584,
      "▁revenue": 3585,
      "▁weight": 3586,
      "▁11608": 3587,
      "▁stability": 3588,
      "▁imagination": 3589,
      "▁specialist": 3590,
      "▁family": 3591,
      "anges": 3592,
      "=": 3593,
      "▁fr": 3594,
      "▁attached": 3595,
      "ivity": 3596,
      "unity": 3597,
      "▁1821": 3598,
      "▁molec": 3599,
      "▁relativ": 3600,
      "▁rhyth": 3601,
      "▁poiss": 3602,
      "oil": 3603,
      "▁irrit": 3604,
      "▁fil": 3605,
      "▁treat": 3606,
      "▁technological": 3607,
      "/16": 3608,
      "▁fuel": 3609,
      "ressed": 3610,
      "▁reach": 3611,
      "▁approximation": 3612,
      "▁strategies": 3613,
      "▁mad": 3614,
      "▁mod": 3615,
      "rey": 3616,
      "▁rivers": 3617,
      "noon": 3618,
      "▁forty": 3619,
      "nels": 3620,
      "!!": 3621,
      "▁abo": 3622,
      "▁hydro": 3623,
      "ny": 3624,
      "▁squashed": 3625,
      "▁pinot": 3626,
      "uals": 3627,
      "▁higu": 3628,
      "▁sie": 3629,
      "unia": 3630,
      "▁receipt": 3631,
      "arse": 3632,
      "▁bayley": 3633,
      "▁wires": 3634,
      "▁window": 3635,
      "▁client": 3636,
      "▁shackleton@ect": 3637,
      "▁availability": 3638,
      "▁rod": 3639,
      "▁outf": 3640,
      "▁logical": 3641,
      "▁pilgrimage": 3642,
      "▁fuzzy": 3643,
      "0's": 3644,
      "ernand": 3645,
      "▁ngu": 3646,
      "d2": 3647,
      "▁similar": 3648,
      "▁conven": 3649,
      "er": 3650,
      "▁pants": 3651,
      "▁rope": 3652,
      "▁robes": 3653,
      "▁discount": 3654,
      "▁showed": 3655,
      "▁termination": 3656,
      "▁hagrid": 3657,
      "▁robinson": 3658,
      "▁forgive": 3659,
      "▁12/26/2000": 3660,
      "ative": 3661,
      "▁animal": 3662,
      "▁greek": 3663,
      "▁container": 3664,
      "▁lent": 3665,
      "▁denise": 3666,
      "▁enhanced": 3667,
      "▁cherry": 3668,
      "▁wish": 3669,
      "▁pron": 3670,
      "▁institutions": 3671,
      "▁wanting": 3672,
      "▁hearing": 3673,
      "▁lacking": 3674,
      "▁courage": 3675,
      "▁turnpike": 3676,
      "ras": 3677,
      "ication": 3678,
      "▁‘’": 3679,
      "ople": 3680,
      "▁emails": 3681,
      "▁architectural": 3682,
      "esses": 3683,
      "issipp": 3684,
      "▁delighted": 3685,
      "force": 3686,
      "▁sampl": 3687,
      "▁rainy": 3688,
      ".g": 3689,
      "▁strugg": 3690,
      "▁imper": 3691,
      "▁kosher": 3692,
      "▁exception": 3693,
      "▁occurred": 3694,
      "▁sk": 3695,
      "▁potter": 3696,
      "▁conviction": 3697,
      "▁glow": 3698,
      "▁treated": 3699,
      "irk": 3700,
      "▁alar": 3701,
      "▁activ": 3702,
      "▁enthusiasm": 3703,
      "▁joining": 3704,
      "▁otherwise": 3705,
      "▁magn": 3706,
      "▁trop": 3707,
      "acy": 3708,
      "▁dominant": 3709,
      "▁equival": 3710,
      "▁excellent": 3711,
      "▁precise": 3712,
      "▁replacement": 3713,
      "▁pick": 3714,
      "▁cen": 3715,
      "▁gin": 3716,
      "▁mr": 3717,
      "▁scam": 3718,
      "▁giv": 3719,
      "world": 3720,
      "▁equal": 3721,
      "▁rags": 3722,
      "arat": 3723,
      "▁layover": 3724,
      "▁verb": 3725,
      "▁tremendous": 3726,
      "▁romance": 3727,
      "▁excell": 3728,
      "▁followed": 3729,
      "▁falling": 3730,
      "▁1608": 3731,
      "▁paste": 3732,
      "▁commonly": 3733,
      "ual": 3734,
      "▁polaroids": 3735,
      "▁archibald": 3736,
      "▁hr": 3737,
      "▁changing": 3738,
      "▁passionate": 3739,
      "▁circum": 3740,
      "▁femur": 3741,
      "▁respectfully": 3742,
      "▁tob": 3743,
      "▁polic": 3744,
      "▁hel": 3745,
      "▁1987": 3746,
      "news/image/2005.09": 3747,
      "▁quite": 3748,
      "▁breast": 3749,
      "▁staged": 3750,
      "▁sometimes": 3751,
      "▁doctors": 3752,
      "chester": 3753,
      "▁aqu": 3754,
      "▁pix": 3755,
      "ez": 3756,
      "▁oak": 3757,
      "▁oct.": 3758,
      "▁weak": 3759,
      "▁unpopular": 3760,
      "▁interf": 3761,
      "▁aspir": 3762,
      "▁seven": 3763,
      "▁training": 3764,
      "▁sounds": 3765,
      "▁um": 3766,
      "care": 3767,
      "▁1205": 3768,
      "▁underneath": 3769,
      "▁hulk": 3770,
      "▁guarant": 3771,
      "▁mins": 3772,
      "▁donald": 3773,
      "▁grocery": 3774,
      "▁1660": 3775,
      "▁he": 3776,
      "▁karim": 3777,
      "▁impose": 3778,
      "▁jennifer": 3779,
      "utions": 3780,
      "▁03:00": 3781,
      "dp": 3782,
      "-01": 3783,
      "eland": 3784,
      "▁goodwyn": 3785,
      "▁anywhere": 3786,
      "arrass": 3787,
      "keep": 3788,
      "▁overwhelming": 3789,
      "▁bug": 3790,
      "▁cycle": 3791,
      "▁lon": 3792,
      "▁prosper": 3793,
      "▁interior": 3794,
      "▁spears": 3795,
      "▁percentiles": 3796,
      "▁commod": 3797,
      "▁stations": 3798,
      "ions": 3799,
      "ope": 3800,
      "▁stol": 3801,
      "▁parmes": 3802,
      "resp": 3803,
      "▁nineteen": 3804,
      "▁pulled": 3805,
      "▁ercot": 3806,
      "▁incom": 3807,
      "▁fishes": 3808,
      "worth": 3809,
      "▁mosquito": 3810,
      "▁6.8": 3811,
      "▁65": 3812,
      "▁respectively": 3813,
      "▁ansi-89": 3814,
      "▁happily": 3815,
      "▁rely": 3816,
      "▁reinfor": 3817,
      "eld": 3818,
      "▁nut": 3819,
      "▁minor": 3820,
      "▁gold": 3821,
      "▁1888": 3822,
      "▁cracker": 3823,
      "▁expertise": 3824,
      "▁demonstrated": 3825,
      "▁producer": 3826,
      "▁retal": 3827,
      "▁assistance": 3828,
      "▁woman": 3829,
      "▁happen": 3830,
      "▁tag": 3831,
      "▁mississipp": 3832,
      "▁designed": 3833,
      "▁streams": 3834,
      "▁upcoming": 3835,
      "▁arthur": 3836,
      "bye": 3837,
      "▁different": 3838,
      "ume": 3839,
      ":57": 3840,
      "▁mus": 3841,
      "▁brings": 3842,
      "ustom": 3843,
      "▁halls": 3844,
      "▁incredibly": 3845,
      "▁parade": 3846,
      "osal": 3847,
      "▁oil": 3848,
      "▁glad": 3849,
      "▁universal": 3850,
      "▁parenteau": 3851,
      "leep": 3852,
      "▁kabul": 3853,
      "▁ic": 3854,
      "iros": 3855,
      "▁additional": 3856,
      "▁obl": 3857,
      "▁simp": 3858,
      "▁completing": 3859,
      "ws": 3860,
      "▁special": 3861,
      "▁critic": 3862,
      "▁automatically": 3863,
      "▁dull": 3864,
      "▁leaned": 3865,
      "▁geographic": 3866,
      "atively": 3867,
      "49": 3868,
      "▁following": 3869,
      "▁veh": 3870,
      "alth": 3871,
      ".co.uk/": 3872,
      "▁starch": 3873,
      "▁pin": 3874,
      "▁assessment": 3875,
      "▁almost": 3876,
      "▁assessing": 3877,
      "▁hungry": 3878,
      "▁publish": 3879,
      "▁09:01": 3880,
      "▁nons": 3881,
      "▁5,000": 3882,
      "zac": 3883,
      "raved": 3884,
      "▁morm": 3885,
      "▁surplus": 3886,
      "▁nations": 3887,
      "▁3,500": 3888,
      "▁torch": 3889,
      "▁tay": 3890,
      "▁ko": 3891,
      "▁http://www.4gamer": 3892,
      "▁canned": 3893,
      ":30": 3894,
      "▁01/26/2001": 3895,
      "▁4.6": 3896,
      "▁281-443-3744": 3897,
      "▁dolls": 3898,
      "▁=": 3899,
      "▁ass": 3900,
      "▁bald": 3901,
      "ensible": 3902,
      "▁vol": 3903,
      "▁en": 3904,
      "▁shaped": 3905,
      "▁seventy": 3906,
      "imedia": 3907,
      "▁sweet": 3908,
      "laimed": 3909,
      "▁inferior": 3910,
      "▁disagre": 3911,
      "rod": 3912,
      "▁appearance": 3913,
      "▁sci": 3914,
      "▁circuit": 3915,
      "▁tro": 3916,
      "news/": 3917,
      "▁glor": 3918,
      "▁cott": 3919,
      "▁heights": 3920,
      "----------------": 3921,
      "roy": 3922,
      "▁borne": 3923,
      "case": 3924,
      "▁b/c": 3925,
      "▁introducing": 3926,
      "rint": 3927,
      "▁pigs": 3928,
      "ral": 3929,
      "▁chapters": 3930,
      "▁color": 3931,
      "▁mechan": 3932,
      "cedented": 3933,
      "▁packet": 3934,
      "▁analyst": 3935,
      "▁son": 3936,
      "▁electric": 3937,
      "▁threat": 3938,
      "▁judg": 3939,
      "▁celebration": 3940,
      "-in": 3941,
      "nov": 3942,
      "▁breat": 3943,
      "▁undert": 3944,
      "▁microsc": 3945,
      "▁rein": 3946,
      "▁characterized": 3947,
      "ald": 3948,
      "▁kinds": 3949,
      "▁sender": 3950,
      "▁aisle": 3951,
      "▁only": 3952,
      "▁dram": 3953,
      "▁fall": 3954,
      "▁colonel": 3955,
      "▁ridiculous": 3956,
      "▁beware": 3957,
      "ashed": 3958,
      "▁volleyball": 3959,
      "▁bent": 3960,
      "▁))": 3961,
      "▁for": 3962,
      "▁eastern": 3963,
      "▁prominent": 3964,
      "▁veterans": 3965,
      "▁sticking": 3966,
      "▁so-c": 3967,
      "▁tried": 3968,
      "▁seconds": 3969,
      "▁cotton": 3970,
      "▁fishie": 3971,
      "▁exec": 3972,
      "▁output": 3973,
      "▁bait": 3974,
      "▁able": 3975,
      "________": 3976,
      "▁boys": 3977,
      "▁absolutely": 3978,
      "▁xbox": 3979,
      "ash": 3980,
      "▁implement": 3981,
      "acio": 3982,
      "▁dick": 3983,
      "iter": 3984,
      "aded": 3985,
      "▁terrible": 3986,
      "▁surround": 3987,
      "▁conduct": 3988,
      "▁sister": 3989,
      "▁facilitate": 3990,
      "osition": 3991,
      "▁dang": 3992,
      "▁aggression": 3993,
      "▁agriculture": 3994,
      "▁occupation": 3995,
      "ell": 3996,
      "▁55": 3997,
      "▁repeatedly": 3998,
      "▁sut": 3999,
      "▁33,000": 4000,
      "▁brooding": 4001,
      "▁neologism": 4002,
      "▁joh": 4003,
      "▁ras": 4004,
      "▁syd": 4005,
      "▁absolute": 4006,
      "▁province": 4007,
      "▁!.": 4008,
      "▁fix": 4009,
      "++": 4010,
      "▁3/4": 4011,
      "▁discharge": 4012,
      "-0295": 4013,
      "▁uncomfortable": 4014,
      "▁pioneers": 4015,
      "▁embr": 4016,
      "▁fa": 4017,
      "▁absol": 4018,
      "▁beg": 4019,
      "▁pit": 4020,
      "ately": 4021,
      "▁preface": 4022,
      "obar": 4023,
      "▁cross-section": 4024,
      "arm": 4025,
      "▁systems": 4026,
      "ession": 4027,
      "▁surprised": 4028,
      "▁bottom": 4029,
      "▁animals": 4030,
      "▁imprison": 4031,
      "ties": 4032,
      "▁nether": 4033,
      "▁purchases": 4034,
      "esc": 4035,
      "▁may": 4036,
      "▁politicians": 4037,
      "▁partic": 4038,
      "▁pant": 4039,
      "▁shiny": 4040,
      "▁tropical": 4041,
      "▁disg": 4042,
      "▁consistently": 4043,
      "▁cool": 4044,
      "▁stard": 4045,
      "onnay": 4046,
      "▁chickens": 4047,
      "▁sed": 4048,
      "▁[": 4049,
      "ز": 4050,
      "▁repairs": 4051,
      "▁overcome": 4052,
      "▁conquest": 4053,
      "▁bump": 4054,
      "▁libya": 4055,
      "▁radi": 4056,
      "▁patrons": 4057,
      "▁stephen": 4058,
      "▁adver": 4059,
      "viat": 4060,
      "澹": 4061,
      "▁bul": 4062,
      "▁occas": 4063,
      "435": 4064,
      "▁************************************************": 4065,
      "▁jana": 4066,
      "▁fully": 4067,
      "phone": 4068,
      "▁a.m.": 4069,
      "▁procedure": 4070,
      "▁considerably": 4071,
      "▁sh-": 4072,
      "▁lions": 4073,
      "▁vot": 4074,
      "▁behaviour": 4075,
      "▁accum": 4076,
      "▁fear": 4077,
      "▁sonia": 4078,
      "▁drivers": 4079,
      "68": 4080,
      "▁13011": 4081,
      "iz": 4082,
      "▁promise": 4083,
      "▁ding": 4084,
      "▁1580": 4085,
      "uated": 4086,
      "▁finishing": 4087,
      "▁total": 4088,
      "ryn": 4089,
      "ario": 4090,
      "▁burden": 4091,
      "▁girl": 4092,
      "▁pian": 4093,
      "▁nearly": 4094,
      "▁mode": 4095,
      "▁et": 4096,
      "▁refund": 4097,
      "point": 4098,
      "▁volunteers": 4099,
      "▁newspaper": 4100,
      "▁abdul": 4101,
      "ires": 4102,
      "▁brought": 4103,
      "▁zer": 4104,
      "▁hesit": 4105,
      "▁clark": 4106,
      "▁asking": 4107,
      "▁understood": 4108,
      "▁exact": 4109,
      "▁'": 4110,
      "▁ewww": 4111,
      "▁norms": 4112,
      "▁cities": 4113,
      "▁apost": 4114,
      "▁subsequent": 4115,
      "etts": 4116,
      "▁umb": 4117,
      "ns": 4118,
      "▁funct": 4119,
      "▁zoo": 4120,
      "lain": 4121,
      "oca": 4122,
      "▁sidewalk": 4123,
      "▁loss": 4124,
      "▁blow": 4125,
      "▁reflects": 4126,
      "▁emerged": 4127,
      "▁largest": 4128,
      "▁clouds": 4129,
      "▁renew": 4130,
      "▁raining": 4131,
      "▁wang": 4132,
      "▁conform": 4133,
      "▁hunger": 4134,
      "▁paw": 4135,
      "▁seemingly": 4136,
      "▁marc": 4137,
      "▁sophie": 4138,
      "ord": 4139,
      "▁squir": 4140,
      "▁366": 4141,
      "▁mhm": 4142,
      "▁become": 4143,
      "▁lyrics": 4144,
      "andy": 4145,
      "umes": 4146,
      "▁stadium": 4147,
      "jects": 4148,
      "▁double": 4149,
      "▁peters": 4150,
      "▁713-654-03": 4151,
      "▁shirts": 4152,
      "▁disappeared": 4153,
      "▁debr": 4154,
      "▁-------------------------------------------------": 4155,
      "▁weekend": 4156,
      "▁uniform": 4157,
      "beque": 4158,
      "▁phenomenon": 4159,
      "entives": 4160,
      "▁polish": 4161,
      "▁confused": 4162,
      "▁adh": 4163,
      "▁incredible": 4164,
      "▁tuesday": 4165,
      "▁cr": 4166,
      "ppers": 4167,
      "▁partners": 4168,
      "▁thirsty": 4169,
      "▁over": 4170,
      "▁bench": 4171,
      "▁communic": 4172,
      "119": 4173,
      "▁americ": 4174,
      "▁disappointed": 4175,
      "▁miss": 4176,
      "ivid": 4177,
      "▁system": 4178,
      "▁mal": 4179,
      "▁indianapolis": 4180,
      "▁jerusal": 4181,
      "▁smoking": 4182,
      "▁sheriff": 4183,
      "front": 4184,
      "ached": 4185,
      "▁accommodate": 4186,
      "▁domains": 4187,
      "▁styrofoam": 4188,
      "▁crushing": 4189,
      "‘": 4190,
      "▁password": 4191,
      "▁filthy": 4192,
      "▁ball": 4193,
      "▁helping": 4194,
      "▁g.": 4195,
      "▁winking": 4196,
      "▁counterfeit": 4197,
      "▁amusement": 4198,
      "▁460": 4199,
      "▁continually": 4200,
      "18": 4201,
      "▁744": 4202,
      "▁starbucks": 4203,
      "▁identify": 4204,
      "07": 4205,
      "▁sunglasses": 4206,
      "▁rig": 4207,
      "▁plastic": 4208,
      "▁popular": 4209,
      "an@t": 4210,
      "▁solemn": 4211,
      "▁practicing": 4212,
      "▁massachusetts": 4213,
      "▁climb": 4214,
      ".2": 4215,
      "▁mud": 4216,
      "▁dolph": 4217,
      "▁'s": 4218,
      "0.doc": 4219,
      "erves": 4220,
      "▁conversations": 4221,
      "raf": 4222,
      "▁possible": 4223,
      "▁trot": 4224,
      "▁naughty": 4225,
      "bour": 4226,
      "▁teachers": 4227,
      "▁noticed": 4228,
      "▁sailed": 4229,
      "▁patient": 4230,
      "▁2.15": 4231,
      "▁sport": 4232,
      "▁supply": 4233,
      "▁tang": 4234,
      "▁capacities": 4235,
      "▁arguing": 4236,
      "▁rushed": 4237,
      "pro": 4238,
      "ct": 4239,
      "▁norway": 4240,
      "▁properly": 4241,
      "▁restrict": 4242,
      "▁uns": 4243,
      "media": 4244,
      "▁stall": 4245,
      "▁falluj": 4246,
      "▁esther": 4247,
      "▁powell": 4248,
      "lessness": 4249,
      "▁bond": 4250,
      "▁three": 4251,
      "-79": 4252,
      "▁guess": 4253,
      "▁impressive": 4254,
      "ɛ": 4255,
      "▁inevitably": 4256,
      "▁belts": 4257,
      "▁1957": 4258,
      "▁814.86": 4259,
      "▁anticipate": 4260,
      "ort": 4261,
      "▁nor": 4262,
      "▁twenty-six": 4263,
      "▁supporter": 4264,
      "▁tug": 4265,
      "▁belt": 4266,
      "▁semi-": 4267,
      "aid": 4268,
      "▁limerick": 4269,
      "▁yaz": 4270,
      "▁disp": 4271,
      "0th": 4272,
      "▁dec": 4273,
      "▁flat": 4274,
      "▁stomach": 4275,
      "▁violent": 4276,
      "▁changed": 4277,
      "oust": 4278,
      "▁females": 4279,
      "▁insec": 4280,
      "▁staff": 4281,
      "▁mutual": 4282,
      "▁halloween": 4283,
      "▁auntie": 4284,
      "▁06": 4285,
      "▁sitting": 4286,
      "▁catch": 4287,
      "▁thro": 4288,
      ".70": 4289,
      "▁metrop": 4290,
      "▁yes": 4291,
      "▁patterns": 4292,
      "▁reconst": 4293,
      "▁|--------+----------------": 4294,
      "▁selection": 4295,
      "▁attain": 4296,
      "▁semantics": 4297,
      "▁tribe": 4298,
      "▁ing": 4299,
      "▁238": 4300,
      "▁incorrect": 4301,
      "▁lab": 4302,
      "▁harrow": 4303,
      "▁rained": 4304,
      "▁lips": 4305,
      "▁iraq": 4306,
      "▁press": 4307,
      "▁besid": 4308,
      "▁out": 4309,
      "aves": 4310,
      "▁lets": 4311,
      "4-79": 4312,
      "iron": 4313,
      "essee": 4314,
      "▁organizations": 4315,
      "▁sorts": 4316,
      "▁types": 4317,
      "ives": 4318,
      "onents": 4319,
      "▁specim": 4320,
      "▁visas": 4321,
      "▁immigrants": 4322,
      "▁hundreds": 4323,
      "▁lay": 4324,
      "▁bowl": 4325,
      "less": 4326,
      "▁outs": 4327,
      "oke": 4328,
      "▁doors": 4329,
      "▁accompl": 4330,
      "▁ling": 4331,
      "▁abuse": 4332,
      "oulders": 4333,
      "109": 4334,
      "▁broad": 4335,
      "▁infrastructure": 4336,
      "▁mixing": 4337,
      "▁pon": 4338,
      "▁questioning": 4339,
      "▁fleet": 4340,
      "43": 4341,
      "▁supermark": 4342,
      "▁motivated": 4343,
      "▁vendors": 4344,
      "▁iq": 4345,
      "▁gulf": 4346,
      "▁astronauts": 4347,
      "ific": 4348,
      ":35": 4349,
      "side": 4350,
      "▁numer": 4351,
      "▁endangered": 4352,
      "asion": 4353,
      "▁holders": 4354,
      "▁bre": 4355,
      "▁gun": 4356,
      "▁co-": 4357,
      "▁condemned": 4358,
      "ucing": 4359,
      "▁october": 4360,
      "▁heavy": 4361,
      "▁island": 4362,
      "▁queb": 4363,
      "▁jap": 4364,
      "ational": 4365,
      "▁olive": 4366,
      "▁superb": 4367,
      "▁levels": 4368,
      "87": 4369,
      "▁mosqu": 4370,
      "▁tiny": 4371,
      "▁sole": 4372,
      "/26": 4373,
      "▁choms": 4374,
      "accept": 4375,
      "▁confidence": 4376,
      "▁labrad": 4377,
      "▁patron": 4378,
      "▁maria": 4379,
      "▁stranger": 4380,
      "▁9221": 4381,
      "▁sop": 4382,
      "▁pos": 4383,
      "▁historical": 4384,
      "bondad": 4385,
      "oculars": 4386,
      "▁decree": 4387,
      "▁faster": 4388,
      "going": 4389,
      "▁distribute": 4390,
      "▁rome": 4391,
      "▁want": 4392,
      "▁lower": 4393,
      "▁hang": 4394,
      "▁myster": 4395,
      "▁altogether": 4396,
      "▁tragedy": 4397,
      "▁party": 4398,
      "iling": 4399,
      "▁highlight": 4400,
      "▁defe": 4401,
      "▁i.e.": 4402,
      "▁stored": 4403,
      "▁refugees": 4404,
      "boat": 4405,
      "--------------------------------": 4406,
      "epend": 4407,
      "▁70.85": 4408,
      "▁pools": 4409,
      "▁snuffy": 4410,
      "▁enough": 4411,
      "▁fujairah": 4412,
      "ummy": 4413,
      "▁paints": 4414,
      "▁magaz": 4415,
      "▁sm": 4416,
      "▁s’": 4417,
      "▁guacam": 4418,
      "▁published": 4419,
      "▁cub": 4420,
      "▁abol": 4421,
      "▁board": 4422,
      "▁vertical": 4423,
      "ications": 4424,
      "soft": 4425,
      "▁young": 4426,
      "▁vest": 4427,
      "▁symptoms": 4428,
      "▁jal": 4429,
      "▁personal": 4430,
      "58": 4431,
      "▁exchanged": 4432,
      "▁apply": 4433,
      "▁assassination": 4434,
      "▁melt": 4435,
      "▁bosnia": 4436,
      "▁transformative": 4437,
      "▁pione": 4438,
      "▁your": 4439,
      "▁orientation": 4440,
      "▁gre": 4441,
      "▁capture": 4442,
      "▁prototy": 4443,
      "▁elbow": 4444,
      "igned": 4445,
      "vest": 4446,
      "clud": 4447,
      "▁alan": 4448,
      "▁simple": 4449,
      "▁critics": 4450,
      "▁sla": 4451,
      "▁absurd": 4452,
      "▁10/26/2000": 4453,
      "▁arises": 4454,
      "▁mentioned": 4455,
      "▁toes": 4456,
      "▁pleased": 4457,
      "▁hilar": 4458,
      "▁soooo": 4459,
      "▁st.": 4460,
      "itly": 4461,
      "▁lee": 4462,
      "▁th-": 4463,
      "▁reserves": 4464,
      "▁ocho": 4465,
      "orio": 4466,
      "▁brooms": 4467,
      "edge": 4468,
      "▁territ": 4469,
      "▁carrots": 4470,
      "▁dramatic": 4471,
      "ription": 4472,
      "▁staring": 4473,
      "▁notify": 4474,
      "▁hino": 4475,
      "ething": 4476,
      "▁topic": 4477,
      "▁529999": 4478,
      "▁remote": 4479,
      "▁escaped": 4480,
      "▁d": 4481,
      "▁a": 4482,
      "▁50,000": 4483,
      "▁suprem": 4484,
      "▁drift": 4485,
      "▁objections": 4486,
      "▁paine": 4487,
      "▁involved": 4488,
      "▁nutrition": 4489,
      "ious": 4490,
      "▁devised": 4491,
      "▁consultation": 4492,
      "▁rapporteur": 4493,
      "▁cle": 4494,
      "▁manual": 4495,
      "▁appet": 4496,
      "▁earthworms": 4497,
      "▁computing": 4498,
      "▁orchestra": 4499,
      "▁u.s.": 4500,
      "▁chop": 4501,
      "▁lacks": 4502,
      "▁amsterdam": 4503,
      "▁plants": 4504,
      "▁ratt": 4505,
      "▁huckle": 4506,
      "▁skirt": 4507,
      "▁ro": 4508,
      "▁regarding": 4509,
      "▁4.0": 4510,
      "cher": 4511,
      "▁enormous": 4512,
      "▁vangu": 4513,
      "▁murph": 4514,
      "▁ordered": 4515,
      "cceed": 4516,
      "▁elite": 4517,
      "de": 4518,
      "▁climbed": 4519,
      "▁poss": 4520,
      "ming": 4521,
      "▁offered": 4522,
      "▁injury": 4523,
      "▁panel": 4524,
      ":18": 4525,
      "▁barrel": 4526,
      "air@enron.com": 4527,
      "▁wiki": 4528,
      "reck": 4529,
      "▁hut": 4530,
      "▁neigh": 4531,
      "▁fried": 4532,
      "aurs": 4533,
      "▁firing": 4534,
      "▁1605": 4535,
      "▁loads": 4536,
      "▁vine": 4537,
      "▁formica": 4538,
      "▁ordinary": 4539,
      "▁324": 4540,
      "▁4_28_00.doc": 4541,
      "▁bible": 4542,
      "▁deadbol": 4543,
      "ground": 4544,
      "▁formal": 4545,
      "▁decline": 4546,
      "▁huck": 4547,
      "▁dependent": 4548,
      "▁bill": 4549,
      "▁1964": 4550,
      "▁consumer": 4551,
      "▁proceeded": 4552,
      "▁acceptance": 4553,
      "▁sta": 4554,
      "▁crying": 4555,
      "▁continuing": 4556,
      "▁incomes": 4557,
      "▁capt": 4558,
      "▁potato": 4559,
      "bound": 4560,
      "▁professors": 4561,
      "▁can": 4562,
      "▁interv": 4563,
      "▁clock": 4564,
      "algami": 4565,
      "▁passcode": 4566,
      "▁speaker": 4567,
      "▁;": 4568,
      "ects": 4569,
      "▁dog": 4570,
      "▁eug": 4571,
      "▁examination": 4572,
      "▁law": 4573,
      "▁concer": 4574,
      "ised": 4575,
      "weight": 4576,
      "▁lists": 4577,
      "▁unif": 4578,
      "▁sore": 4579,
      "▁duel": 4580,
      "unga": 4581,
      "▁paradig": 4582,
      "elds": 4583,
      "▁wa": 4584,
      "eree": 4585,
      "▁racial": 4586,
      "▁uss": 4587,
      "▁recognised": 4588,
      "▁retired": 4589,
      "▁da": 4590,
      "▁hards": 4591,
      "▁performances": 4592,
      "▁achieve": 4593,
      "▁evenings": 4594,
      "▁log": 4595,
      "▁cindy": 4596,
      "tw": 4597,
      "▁manh": 4598,
      "▁wonderful": 4599,
      "▁mass": 4600,
      "▁laptop": 4601,
      "▁ivan": 4602,
      "▁sussex": 4603,
      "▁avoiding": 4604,
      ",950": 4605,
      "ript": 4606,
      "▁toaster": 4607,
      "▁last": 4608,
      "▁1623": 4609,
      "▁hot": 4610,
      "▁unity": 4611,
      "▁/": 4612,
      ".co": 4613,
      "▁scramb": 4614,
      "▁padd": 4615,
      "295": 4616,
      "▁-ect": 4617,
      "z": 4618,
      "-t": 4619,
      "▁legitim": 4620,
      "▁colin": 4621,
      "▁fitness": 4622,
      "▁slope": 4623,
      "▁memphis": 4624,
      "▁quantity": 4625,
      "▁tolerate": 4626,
      "▁pleas": 4627,
      "▁nazi": 4628,
      "▁compound": 4629,
      "▁eich": 4630,
      "▁abbas": 4631,
      "▁mask": 4632,
      "▁follows": 4633,
      "▁comput": 4634,
      "face": 4635,
      "▁feather": 4636,
      "▁struggling": 4637,
      "▁713": 4638,
      "ymp": 4639,
      "/8": 4640,
      "ao": 4641,
      "======": 4642,
      "uz": 4643,
      "▁judiciary": 4644,
      "me": 4645,
      "▁magical": 4646,
      "▁some": 4647,
      "▁communications": 4648,
      "ull": 4649,
      "▁naim": 4650,
      "▁overchar": 4651,
      "▁featured": 4652,
      "▁ear": 4653,
      "▁blackline": 4654,
      "▁stan": 4655,
      "▁jumping": 4656,
      "▁grampy": 4657,
      "▁replace": 4658,
      "road": 4659,
      "▁rumsfeld": 4660,
      "lands": 4661,
      "▁get": 4662,
      "▁thread": 4663,
      "▁route": 4664,
      "urbar": 4665,
      "▁stolen": 4666,
      "▁table": 4667,
      "▁yn": 4668,
      "▁tenth": 4669,
      "isions": 4670,
      "▁2.6": 4671,
      "▁essential": 4672,
      "▁familiar": 4673,
      "hood": 4674,
      "▁68": 4675,
      "esis": 4676,
      "otten": 4677,
      "▁burbank": 4678,
      "30": 4679,
      "▁85": 4680,
      "▁proved": 4681,
      "▁swap": 4682,
      "igs": 4683,
      "▁slightly": 4684,
      "▁reliable": 4685,
      "▁185": 4686,
      "▁reasonably": 4687,
      "▁pic": 4688,
      "ransredes": 4689,
      "▁cou": 4690,
      "▁run": 4691,
      "▁inhab": 4692,
      "▁pierre": 4693,
      "▁bar": 4694,
      "▁protocol": 4695,
      "▁noir": 4696,
      "▁sticky": 4697,
      "ips": 4698,
      "▁chomsky": 4699,
      ":23": 4700,
      "▁fraud": 4701,
      "▁symbols": 4702,
      "▁around": 4703,
      "▁donated": 4704,
      "▁brief": 4705,
      "▁classes": 4706,
      "▁neoclass": 4707,
      "7.77": 4708,
      "▁connections": 4709,
      "sh-e": 4710,
      "▁particular": 4711,
      "▁against": 4712,
      "▁atmospheric": 4713,
      "▁dism": 4714,
      "▁25": 4715,
      "▁de": 4716,
      "▁hast": 4717,
      "▁tar": 4718,
      "▁data": 4719,
      "▁regional": 4720,
      "▁sp": 4721,
      "▁ambulance": 4722,
      "▁gosh": 4723,
      "▁kil": 4724,
      "▁guinea": 4725,
      "ouse": 4726,
      "34": 4727,
      "hee": 4728,
      "▁tele": 4729,
      "▁dismissed": 4730,
      "▁incorporate": 4731,
      "▁upd": 4732,
      "▁bedroom": 4733,
      "▁a1": 4734,
      "▁flau": 4735,
      "▁households": 4736,
      "▁everybody": 4737,
      "▁altern": 4738,
      "▁patients": 4739,
      "iat": 4740,
      "information": 4741,
      "▁idea": 4742,
      "▁cer": 4743,
      "▁suff": 4744,
      "▁infer": 4745,
      "d-#6": 4746,
      "▁104": 4747,
      "▁bugs": 4748,
      "▁cham": 4749,
      "hajatra": 4750,
      "▁shift": 4751,
      "▁leop": 4752,
      "lord": 4753,
      "▁licking": 4754,
      "▁futures": 4755,
      "▁icing": 4756,
      "▁thane": 4757,
      "▁caribbean": 4758,
      "▁experienced": 4759,
      "▁wong": 4760,
      "▁08/17/2000": 4761,
      "▁essie": 4762,
      "▁civilization": 4763,
      "▁representative": 4764,
      "▁oops": 4765,
      "the": 4766,
      "▁aka": 4767,
      "▁agre": 4768,
      "▁nig": 4769,
      "▁vehicles": 4770,
      "▁indeed": 4771,
      "▁sue": 4772,
      "unch": 4773,
      "▁trusted": 4774,
      "▁prel": 4775,
      "ll": 4776,
      "▁countries": 4777,
      "▁marriage": 4778,
      "▁unusual": 4779,
      "▁rect": 4780,
      "▁engineer": 4781,
      "▁sorry": 4782,
      "ellig": 4783,
      "▁wilder": 4784,
      "▁prohibited": 4785,
      "▁ekrapels": 4786,
      "ained": 4787,
      "▁relations": 4788,
      "▁°": 4789,
      "▁york": 4790,
      "▁record": 4791,
      "ota": 4792,
      "▁'m": 4793,
      "▁allegations": 4794,
      "eo": 4795,
      "▁1835": 4796,
      "ask": 4797,
      "▁presumably": 4798,
      "▁fit": 4799,
      "▁sox": 4800,
      "ishment": 4801,
      "▁deg": 4802,
      "urch": 4803,
      "▁lbs": 4804,
      "[SEP]": 4805,
      "imes": 4806,
      "▁jam": 4807,
      "▁millisandy": 4808,
      "▁---=": 4809,
      "iki": 4810,
      "▁oppos": 4811,
      "derick": 4812,
      "▁strategy": 4813,
      "▁unlikely": 4814,
      "▁tone": 4815,
      "▁where": 4816,
      "▁lockhart": 4817,
      "▁sd": 4818,
      "▁conqu": 4819,
      "▁gail": 4820,
      "▁admir": 4821,
      "▁sar": 4822,
      "▁shooting": 4823,
      "▁deriv": 4824,
      "▁ner": 4825,
      "▁exhibit": 4826,
      "▁transport": 4827,
      "▁rocket": 4828,
      "▁tur": 4829,
      "ama": 4830,
      "▁nandaro": 4831,
      "▁leadership": 4832,
      "▁benefited": 4833,
      "▁11:0": 4834,
      "▁bernoulli": 4835,
      "▁cutting": 4836,
      "▁satan": 4837,
      "▁anymore": 4838,
      "▁democrat": 4839,
      "ired": 4840,
      "▁dresser": 4841,
      "▁cosplay": 4842,
      "▁manusc": 4843,
      "▁manner": 4844,
      "▁coins": 4845,
      "▁si": 4846,
      "48": 4847,
      ":13": 4848,
      "▁were": 4849,
      "▁prim": 4850,
      "▁shia": 4851,
      "▁warwick": 4852,
      "▁microw": 4853,
      "▁tul": 4854,
      "▁exam": 4855,
      "int": 4856,
      "▁albeit": 4857,
      "▁rating": 4858,
      "▁02/13/2001": 4859,
      "▁casually": 4860,
      "53-3": 4861,
      "mann": 4862,
      "▁grants": 4863,
      ".3": 4864,
      "▁chill": 4865,
      "▁hide": 4866,
      "▁dirt": 4867,
      "▁juice": 4868,
      "▁az": 4869,
      "▁committed": 4870,
      "▁ie6": 4871,
      "▁12:1": 4872,
      "▁provided": 4873,
      "erg": 4874,
      "ped": 4875,
      "▁vc": 4876,
      "▁1991": 4877,
      "▁advant": 4878,
      "▁stre": 4879,
      "dt": 4880,
      "▁everyone": 4881,
      "▁sew": 4882,
      "▁sunlight": 4883,
      "▁floren": 4884,
      "▁occurs": 4885,
      "▁roy": 4886,
      "▁offended": 4887,
      "▁il": 4888,
      "▁streets": 4889,
      "agger": 4890,
      "ipper": 4891,
      "▁auth": 4892,
      "▁snap": 4893,
      "▁upload": 4894,
      "▁airplanes": 4895,
      "aph": 4896,
      "▁aspects": 4897,
      "▁covering": 4898,
      "▁las": 4899,
      "▁essex": 4900,
      "▁autonomy": 4901,
      "▁possibilities": 4902,
      "▁paniot": 4903,
      "ius": 4904,
      "▁equipment": 4905,
      "▁machine": 4906,
      "▁springs": 4907,
      "▁pennies": 4908,
      "▁misc": 4909,
      ".8317": 4910,
      "▁invasion": 4911,
      "▁opened": 4912,
      "▁goodness": 4913,
      "▁07/14/2000": 4914,
      "▁disgust": 4915,
      "▁medieval": 4916,
      "▁ownership": 4917,
      "▁then": 4918,
      "▁nav": 4919,
      "▁langu": 4920,
      "▁thais": 4921,
      "▁congr": 4922,
      "▁keep": 4923,
      "▁vs.": 4924,
      "▁moist": 4925,
      "ti": 4926,
      "ocent": 4927,
      "▁developments": 4928,
      "▁musical": 4929,
      "▁roly": 4930,
      "pack": 4931,
      "▁or": 4932,
      "▁coron": 4933,
      "▁successor": 4934,
      "▁profile": 4935,
      "▁sending": 4936,
      "animals": 4937,
      "▁mut": 4938,
      "▁assem": 4939,
      "▁!!!!!!": 4940,
      "▁drives": 4941,
      "▁idle": 4942,
      "▁expense": 4943,
      "▁end": 4944,
      "6th": 4945,
      "▁advised": 4946,
      "▁deal": 4947,
      "▁experim": 4948,
      "ecess": 4949,
      "▁quartile": 4950,
      "—": 4951,
      "ف": 4952,
      "▁creative": 4953,
      "▁pyth": 4954,
      "▁datab": 4955,
      "▁1600": 4956,
      "itarian": 4957,
      "▁mou": 4958,
      "▁tralee": 4959,
      "al.doc": 4960,
      "▁twelfth": 4961,
      "▁lope": 4962,
      "▁revision": 4963,
      "▁detective": 4964,
      "▁rings": 4965,
      "▁jerk": 4966,
      "▁jerry": 4967,
      "▁albert": 4968,
      "▁mart": 4969,
      "▁dates": 4970,
      "▁lust": 4971,
      "▁bullet": 4972,
      "▁unnecess": 4973,
      "ech": 4974,
      "▁nord": 4975,
      "▁mcdonalds": 4976,
      "▁play": 4977,
      "▁friends": 4978,
      "▁prompt": 4979,
      "▁11:36": 4980,
      "▁chosen": 4981,
      "▁position": 4982,
      "▁unfortunately": 4983,
      "▁noisy": 4984,
      "▁stole": 4985,
      "▁ver": 4986,
      "▁hodge": 4987,
      "ather": 4988,
      "▁holes": 4989,
      "▁claims": 4990,
      "▁restaur": 4991,
      "▁founder": 4992,
      "et": 4993,
      "▁causes": 4994,
      "ton": 4995,
      "▁adventure": 4996,
      "▁chased": 4997,
      "▁transition": 4998,
      "▁und": 4999,
      "usions": 5000,
      "▁pause": 5001,
      "▁japan": 5002,
      "75": 5003,
      "▁benef": 5004,
      "band": 5005,
      "▁111": 5006,
      "iary": 5007,
      "▁voice": 5008,
      "▁solid": 5009,
      "▁kicked": 5010,
      "▁tx": 5011,
      "▁smoke": 5012,
      "▁walter": 5013,
      "▁sou": 5014,
      "▁well": 5015,
      "lev": 5016,
      "▁reminder": 5017,
      "icity": 5018,
      "eez": 5019,
      "azu": 5020,
      "▁attendees": 5021,
      "▁embarrassment": 5022,
      "▁predators": 5023,
      "▁zawah": 5024,
      "▁measures": 5025,
      "▁overfl": 5026,
      "yond": 5027,
      "-10": 5028,
      "▁penal": 5029,
      "▁1115": 5030,
      "▁racing": 5031,
      "ources": 5032,
      "▁n'": 5033,
      "▁labour": 5034,
      "▁hermione": 5035,
      "ona": 5036,
      "▁se": 5037,
      "▁11-20-": 5038,
      "▁awoh": 5039,
      "▁repet": 5040,
      "▁trem": 5041,
      "▁fireman": 5042,
      "ur": 5043,
      "@a": 5044,
      "▁carroll": 5045,
      "izations": 5046,
      "▁450": 5047,
      "verage": 5048,
      "lected": 5049,
      "▁gregg": 5050,
      "▁38,000": 5051,
      "▁clinic": 5052,
      "▁services": 5053,
      "▁ruler": 5054,
      "/2005": 5055,
      "▁eats": 5056,
      "▁kept": 5057,
      "▁erase": 5058,
      "▁privet": 5059,
      "end": 5060,
      "▁skittles": 5061,
      "▁seed": 5062,
      "▁recommendations": 5063,
      "▁myanmar": 5064,
      "sters": 5065,
      "▁dipl": 5066,
      "▁lem": 5067,
      "▁glob": 5068,
      "▁apartment": 5069,
      "▁yoyo": 5070,
      "▁pleasant": 5071,
      "tie": 5072,
      "▁htt": 5073,
      "▁learn": 5074,
      "▁helps": 5075,
      "▁facilit": 5076,
      "▁involvement": 5077,
      "enet": 5078,
      "▁mor": 5079,
      "▁jelly": 5080,
      "▁assume": 5081,
      "uten": 5082,
      "▁fdi": 5083,
      "/97": 5084,
      "▁enj": 5085,
      "▁printed": 5086,
      "▁obama": 5087,
      "▁urged": 5088,
      "bone": 5089,
      "▁napkin": 5090,
      "▁alphabet": 5091,
      "head": 5092,
      "▁zurbaran": 5093,
      "▁filing": 5094,
      "ص": 5095,
      "▁timer": 5096,
      "▁papa": 5097,
      "▁horm": 5098,
      "using": 5099,
      "▁grew": 5100,
      "▁testament": 5101,
      "▁plural": 5102,
      "shed": 5103,
      "▁nurse": 5104,
      "▁sinh": 5105,
      "▁bold": 5106,
      "lines": 5107,
      "lin": 5108,
      "▁virtuous": 5109,
      "▁submit": 5110,
      "▁notebook": 5111,
      "izing": 5112,
      "▁stay": 5113,
      "▁death": 5114,
      "▁arri": 5115,
      "▁deny": 5116,
      "▁titles": 5117,
      "ersonal": 5118,
      "▁greens": 5119,
      "▁pay": 5120,
      "▁news": 5121,
      "▁thus": 5122,
      "▁oneself": 5123,
      "▁designs": 5124,
      "we": 5125,
      "▁1598": 5126,
      "▁awful": 5127,
      "▁complim": 5128,
      "▁mitch": 5129,
      "▁drank": 5130,
      "▁eec": 5131,
      "▁civilians": 5132,
      "▁143": 5133,
      "▁corp.": 5134,
      "▁1986": 5135,
      "▁direction": 5136,
      "▁marvel": 5137,
      "gregation": 5138,
      "ennium": 5139,
      "▁20": 5140,
      "▁suggestion": 5141,
      "▁catastroph": 5142,
      "▁budget": 5143,
      "▁notion": 5144,
      "tery": 5145,
      "▁ar": 5146,
      "▁bat": 5147,
      "▁obligations": 5148,
      "▁dry": 5149,
      "ctic": 5150,
      "▁make": 5151,
      "▁wee": 5152,
      ":37": 5153,
      "40": 5154,
      "▁couples": 5155,
      "feld": 5156,
      "iard": 5157,
      "▁freed": 5158,
      "▁diving": 5159,
      "▁pancakes": 5160,
      "▁plus": 5161,
      "▁all": 5162,
      "▁depending": 5163,
      "▁eh": 5164,
      "▁determination": 5165,
      "▁keen": 5166,
      "▁christoph": 5167,
      "▁prag": 5168,
      "mission": 5169,
      "ake": 5170,
      "▁banana": 5171,
      "▁observe": 5172,
      "▁hopeless": 5173,
      "▁circles": 5174,
      "fl": 5175,
      "▁hussein": 5176,
      "▁apologize": 5177,
      "▁comp": 5178,
      "▁bri": 5179,
      "▁signific": 5180,
      "▁1971": 5181,
      "▁pow": 5182,
      "▁repetition": 5183,
      "-house": 5184,
      "▁lwww": 5185,
      "rating": 5186,
      "▁piec": 5187,
      "▁unknown": 5188,
      "our": 5189,
      "▁stores": 5190,
      "▁115": 5191,
      "▁phones": 5192,
      "▁ena": 5193,
      "▁type": 5194,
      "hole": 5195,
      "▁affected": 5196,
      "enue": 5197,
      "▁trale": 5198,
      "▁wrink": 5199,
      "▁enact": 5200,
      "▁proph": 5201,
      "▁again": 5202,
      "▁represents": 5203,
      "▁whale": 5204,
      "▁relationships": 5205,
      "▁646-8420": 5206,
      "bel": 5207,
      "▁1039": 5208,
      "ulous": 5209,
      "esa": 5210,
      "▁refugee": 5211,
      "estone": 5212,
      "▁adn": 5213,
      "▁130": 5214,
      "▁implemented": 5215,
      "▁646": 5216,
      "▁03/21/2001": 5217,
      "eenth": 5218,
      "▁laser": 5219,
      "▁organize": 5220,
      "enced": 5221,
      "▁appear": 5222,
      "iking": 5223,
      "▁1,000": 5224,
      "▁datasheet": 5225,
      "▁dealt": 5226,
      "091": 5227,
      "▁aboard": 5228,
      "▁milky": 5229,
      "▁automatic": 5230,
      "▁doctrine": 5231,
      "▁damned": 5232,
      "▁grapes": 5233,
      "▁podcast": 5234,
      "▁sust": 5235,
      "▁posture": 5236,
      "▁primarily": 5237,
      "oe": 5238,
      "dered": 5239,
      "▁anything": 5240,
      "▁burnt": 5241,
      "▁kin": 5242,
      "clusion": 5243,
      "▁federal": 5244,
      "▁heel": 5245,
      "▁diary": 5246,
      "▁joe": 5247,
      "▁eval": 5248,
      "▁sank": 5249,
      "▁harbour": 5250,
      "▁ie": 5251,
      "▁1850": 5252,
      "oli": 5253,
      "▁conducted": 5254,
      "ult": 5255,
      "▁neo": 5256,
      "▁telev": 5257,
      "▁eligible": 5258,
      "ase": 5259,
      "▁rom": 5260,
      "▁718-780": 5261,
      "▁affirm": 5262,
      "c)": 5263,
      "▁gathering": 5264,
      "iao": 5265,
      "▁victor": 5266,
      "▁nutritional": 5267,
      "▁shakes": 5268,
      "▁privile": 5269,
      "▁official": 5270,
      "cum": 5271,
      "▁joined": 5272,
      "gin": 5273,
      "pton": 5274,
      "▁coun": 5275,
      "▁that": 5276,
      "▁palace": 5277,
      "▁brig": 5278,
      "ve": 5279,
      "ome": 5280,
      "▁sandwiches": 5281,
      "angle": 5282,
      "▁beginning": 5283,
      "▁actor": 5284,
      "▁subject": 5285,
      "▁abbreviation": 5286,
      "▁tabled": 5287,
      "▁lucy": 5288,
      "▁wolf": 5289,
      "▁director": 5290,
      "▁socially": 5291,
      "inated": 5292,
      "▁robot": 5293,
      "▁hack": 5294,
      "▁left": 5295,
      "zan": 5296,
      "oug": 5297,
      "product": 5298,
      "▁thank": 5299,
      "win": 5300,
      "▁stripes": 5301,
      "▁tra": 5302,
      "▁crossing": 5303,
      "▁settled": 5304,
      "▁spell": 5305,
      "ees": 5306,
      "▁199": 5307,
      "english": 5308,
      "▁401": 5309,
      "▁compress": 5310,
      "=1": 5311,
      "▁whether": 5312,
      "▁rural": 5313,
      "acer": 5314,
      "▁higuchi": 5315,
      "▁mohammed": 5316,
      "▁brook": 5317,
      "▁1998": 5318,
      "▁bapt": 5319,
      "▁documentation": 5320,
      "rimin": 5321,
      "▁thron": 5322,
      "▁management": 5323,
      "▁mezza": 5324,
      "▁norm": 5325,
      "life": 5326,
      "▁taxes": 5327,
      "▁sel": 5328,
      "▁bombings": 5329,
      "▁sunk": 5330,
      "▁glass": 5331,
      "▁12": 5332,
      "▁describe": 5333,
      "▁centre": 5334,
      "▁desper": 5335,
      "miah": 5336,
      "▁chocol": 5337,
      "▁sweetie": 5338,
      "▁stampede": 5339,
      "eb": 5340,
      "ju": 5341,
      "▁persu": 5342,
      "▁participating": 5343,
      "opod": 5344,
      "▁wtc": 5345,
      "enn": 5346,
      "adelp": 5347,
      "▁cod": 5348,
      "anc": 5349,
      "▁sample": 5350,
      "berger": 5351,
      "eight": 5352,
      "▁elk": 5353,
      "▁crossed": 5354,
      "▁gallery": 5355,
      "acion": 5356,
      "▁gala": 5357,
      "inf": 5358,
      "▁vegas": 5359,
      "▁push": 5360,
      "▁low": 5361,
      "▁porch": 5362,
      "▁negative": 5363,
      "tejo": 5364,
      "▁awkward": 5365,
      "▁fare": 5366,
      "▁peanuts": 5367,
      "........": 5368,
      "▁march": 5369,
      "μ": 5370,
      "▁transferred": 5371,
      "▁ta": 5372,
      "how": 5373,
      "dom": 5374,
      "isms": 5375,
      "▁spor": 5376,
      "ever": 5377,
      "▁employ": 5378,
      "icago": 5379,
      "ce": 5380,
      "▁literary": 5381,
      "▁six": 5382,
      "▁investig": 5383,
      "▁unim": 5384,
      "▁along": 5385,
      "▁restriction": 5386,
      "▁website": 5387,
      "emical": 5388,
      "▁shelf": 5389,
      "▁150": 5390,
      "▁retrosp": 5391,
      "acks": 5392,
      "rees": 5393,
      "erno": 5394,
      "▁provoked": 5395,
      "▁crack": 5396,
      "▁plaster": 5397,
      "▁intensive": 5398,
      "▁britney": 5399,
      "▁approached": 5400,
      "rem": 5401,
      "▁grades": 5402,
      "▁sinc": 5403,
      "▁tended": 5404,
      "▁e-m": 5405,
      "rial": 5406,
      "▁index": 5407,
      "adas": 5408,
      "▁soccer": 5409,
      "▁jug": 5410,
      "▁distracting": 5411,
      "▁labor": 5412,
      "▁gor": 5413,
      "▁poles": 5414,
      "▁pumpkin": 5415,
      "ft8-7": 5416,
      "▁spect": 5417,
      ".st": 5418,
      "▁residential": 5419,
      "ocks": 5420,
      "▁sustained": 5421,
      "▁defended": 5422,
      "erc": 5423,
      "t.": 5424,
      "▁1959": 5425,
      "▁garbage": 5426,
      "▁displaced": 5427,
      "▁include": 5428,
      "▁breakthrough": 5429,
      "▁7": 5430,
      "▁military": 5431,
      "/30": 5432,
      "▁grass": 5433,
      "oodle": 5434,
      "▁hajj": 5435,
      "▁carnival": 5436,
      "uggle": 5437,
      "▁answers": 5438,
      "▁lap": 5439,
      "isandy": 5440,
      "pre": 5441,
      "▁cancel": 5442,
      "▁cries": 5443,
      "▁civ": 5444,
      "_28": 5445,
      "▁addicted": 5446,
      "▁tempt": 5447,
      "▁evolution": 5448,
      "▁asy": 5449,
      "▁pretend": 5450,
      "oy": 5451,
      "▁dark": 5452,
      "▁initiated": 5453,
      "▁mexican": 5454,
      "▁pledged": 5455,
      "▁voc": 5456,
      "▁chib": 5457,
      "1": 5458,
      "▁austral": 5459,
      "▁null": 5460,
      "▁haircut": 5461,
      "▁appointed": 5462,
      "▁syri": 5463,
      "▁deb": 5464,
      "aping": 5465,
      "employ": 5466,
      "▁ensures": 5467,
      "▁thomas": 5468,
      "▁connect": 5469,
      "▁diff": 5470,
      ":01": 5471,
      "inny": 5472,
      "▁claim": 5473,
      "▁fourth": 5474,
      "▁expect": 5475,
      "▁sharp": 5476,
      "▁posada": 5477,
      "▁watering": 5478,
      "▁mont": 5479,
      "ieval": 5480,
      "▁12.": 5481,
      "burg": 5482,
      "master": 5483,
      "▁hosting": 5484,
      "▁chathams": 5485,
      "ackle": 5486,
      "▁hus": 5487,
      "▁standards": 5488,
      "▁03:3": 5489,
      "▁dil": 5490,
      "wash": 5491,
      "▁mood": 5492,
      "▁eleventh": 5493,
      "▁predicted": 5494,
      "▁dun": 5495,
      "py": 5496,
      "▁thirty": 5497,
      "▁09/16": 5498,
      "▁features": 5499,
      "▁courses": 5500,
      "▁distributing": 5501,
      "▁iraqi": 5502,
      "ulated": 5503,
      "▁,?": 5504,
      "▁deck": 5505,
      "▁seems": 5506,
      "▁foolish": 5507,
      "▁dursleys": 5508,
      "ł": 5509,
      "01": 5510,
      "▁public": 5511,
      "▁update": 5512,
      "let": 5513,
      "ipt": 5514,
      "orum": 5515,
      "▁decre": 5516,
      "▁incorporated": 5517,
      "▁capability": 5518,
      "9/2000": 5519,
      "22,000": 5520,
      "▁stronger": 5521,
      "eplace": 5522,
      "▁quest": 5523,
      "▁robots": 5524,
      "▁non": 5525,
      "▁vac": 5526,
      "oved": 5527,
      "ita": 5528,
      "rs": 5529,
      ".net": 5530,
      "aiss": 5531,
      "arine": 5532,
      "orable": 5533,
      "▁solas": 5534,
      "ice": 5535,
      "▁backwards": 5536,
      "ung": 5537,
      "▁'71": 5538,
      "▁names": 5539,
      "▁fake": 5540,
      "▁stab": 5541,
      "▁goes": 5542,
      "po": 5543,
      "▁spons": 5544,
      "▁goo": 5545,
      "▁acceptable": 5546,
      "▁buildings": 5547,
      "▁production": 5548,
      "▁correctly": 5549,
      "▁5.8": 5550,
      "▁folio": 5551,
      "▁volume": 5552,
      "der": 5553,
      "▁adam": 5554,
      "▁benefits": 5555,
      "▁constit": 5556,
      "▁marie": 5557,
      "▁muslim": 5558,
      "▁greetings": 5559,
      "▁humanities": 5560,
      "▁real": 5561,
      "uce": 5562,
      "▁weap": 5563,
      "▁compensate": 5564,
      "clusions": 5565,
      "▁ee": 5566,
      "ways": 5567,
      "▁mco": 5568,
      "▁timothy": 5569,
      "▁iron": 5570,
      "▁camera": 5571,
      "▁transmission": 5572,
      "ingle": 5573,
      "▁celebrating": 5574,
      "▁katrina": 5575,
      "▁04/30/2001": 5576,
      "bie": 5577,
      "▁regist": 5578,
      "values": 5579,
      "▁samuel": 5580,
      "▁evidently": 5581,
      "icide": 5582,
      "▁4:30": 5583,
      "▁reflection": 5584,
      "▁groan": 5585,
      "teboo": 5586,
      "elberger": 5587,
      "▁childhood": 5588,
      "illery": 5589,
      "▁spots": 5590,
      "▁satisfactory": 5591,
      "zai": 5592,
      "▁batt": 5593,
      "killed": 5594,
      "▁divided": 5595,
      "▁taj": 5596,
      "▁optim": 5597,
      "▁spring": 5598,
      "▁berkeley": 5599,
      "▁afghanistan": 5600,
      "________________": 5601,
      "▁fat": 5602,
      "icemail": 5603,
      "▁desire": 5604,
      "▁column": 5605,
      "▁includ": 5606,
      "▁ind": 5607,
      "▁affl": 5608,
      "▁lt": 5609,
      "▁clause": 5610,
      "▁remainder": 5611,
      "▁hire": 5612,
      "ano": 5613,
      "▁reforms": 5614,
      "res": 5615,
      "▁loyal": 5616,
      "▁loan": 5617,
      "▁0": 5618,
      "▁compet": 5619,
      "▁os": 5620,
      "▁1616": 5621,
      "▁consent": 5622,
      "▁annex": 5623,
      "▁collections": 5624,
      "au": 5625,
      "▁freedom": 5626,
      "icy": 5627,
      "▁1179": 5628,
      "▁prohib": 5629,
      "icult": 5630,
      "▁elements": 5631,
      "▁v.": 5632,
      "gn": 5633,
      "▁forms": 5634,
      "▁convenience": 5635,
      "▁sincerely": 5636,
      "unh": 5637,
      ",0": 5638,
      "▁flexible": 5639,
      "stairs": 5640,
      "▁follow": 5641,
      "▁p.m": 5642,
      "'s": 5643,
      "▁doggie": 5644,
      "▁looks": 5645,
      "▁distortion": 5646,
      "▁poses": 5647,
      "▁but": 5648,
      "▁brass": 5649,
      "▁xiii": 5650,
      "▁hats": 5651,
      "har": 5652,
      "ery": 5653,
      "▁whoever": 5654,
      "▁municipalities": 5655,
      "▁subsid": 5656,
      "more": 5657,
      "▁paralymp": 5658,
      "▁sect": 5659,
      "▁subur": 5660,
      "▁disappointment": 5661,
      "▁less": 5662,
      "▁attracted": 5663,
      "▁hugo": 5664,
      "enz": 5665,
      "▁1691": 5666,
      "achment": 5667,
      "onic": 5668,
      "▁stared": 5669,
      "▁interviews": 5670,
      "▁immunity": 5671,
      "▁existing": 5672,
      "▁difficulties": 5673,
      "▁safety": 5674,
      "▁licenses": 5675,
      "antanamo": 5676,
      "edter": 5677,
      "▁blond": 5678,
      "ament": 5679,
      "▁joke": 5680,
      "æ": 5681,
      "▁anticipated": 5682,
      "ibiot": 5683,
      "▁thursdays": 5684,
      "oub": 5685,
      "▁baath": 5686,
      "▁nevertheless": 5687,
      "▁cz": 5688,
      "▁animation": 5689,
      "lec": 5690,
      "▁hitting": 5691,
      "▁boing": 5692,
      "▁dest": 5693,
      "gling": 5694,
      "▁formats": 5695,
      ",5": 5696,
      "▁esp": 5697,
      "inely": 5698,
      "口": 5699,
      "▁religions": 5700,
      "▁libriv": 5701,
      "▁gras": 5702,
      "▁quant": 5703,
      "erry": 5704,
      "▁departs": 5705,
      "▁broadcasting": 5706,
      "▁fro": 5707,
      "▁okay": 5708,
      "▁depend": 5709,
      "ughters": 5710,
      "▁necess": 5711,
      "▁dri": 5712,
      "▁clothes": 5713,
      "▁difficult": 5714,
      "▁full": 5715,
      "▁knocked": 5716,
      "▁proc": 5717,
      "gan": 5718,
      "▁refusing": 5719,
      "▁messy": 5720,
      "▁times": 5721,
      "▁bachel": 5722,
      "▁sing": 5723,
      "▁du": 5724,
      "▁fashion": 5725,
      "▁transmedia": 5726,
      "lets": 5727,
      "▁guided": 5728,
      "▁tournament": 5729,
      "▁ang": 5730,
      "▁chair": 5731,
      "▁bunch": 5732,
      "▁giov": 5733,
      "▁steph": 5734,
      "▁happening": 5735,
      "▁martin": 5736,
      "▁dodge": 5737,
      "▁appreciated": 5738,
      "▁weasleys": 5739,
      "▁ohio": 5740,
      "▁community": 5741,
      "▁obviously": 5742,
      "▁:(": 5743,
      "▁computer": 5744,
      "!!!!!!!!": 5745,
      "▁cleric": 5746,
      "ovich": 5747,
      "▁guidance": 5748,
      "14": 5749,
      "ls": 5750,
      "▁’’": 5751,
      "▁sat": 5752,
      "ed": 5753,
      "▁somehow": 5754,
      "reh": 5755,
      "▁opportun": 5756,
      "▁harmonisation": 5757,
      "med": 5758,
      "▁rub": 5759,
      "▁thresh": 5760,
      "▁vary": 5761,
      "ried": 5762,
      "▁item": 5763,
      "▁gloria": 5764,
      "▁love": 5765,
      "dred": 5766,
      "▁w3c": 5767,
      "▁dall": 5768,
      "ory": 5769,
      "▁suddenly": 5770,
      "15-": 5771,
      "▁modification": 5772,
      "ilar": 5773,
      "▁auch": 5774,
      "▁month": 5775,
      "▁escaping": 5776,
      "▁limb": 5777,
      "▁ultimately": 5778,
      "▁do": 5779,
      "bs": 5780,
      "▁valuable": 5781,
      "▁respect": 5782,
      "▁studies": 5783,
      "▁camps": 5784,
      "▁supporting": 5785,
      "▁focuses": 5786,
      "--------------------------------------------": 5787,
      "▁amendment": 5788,
      "▁canc": 5789,
      "▁wind": 5790,
      "▁myself": 5791,
      "▁alabama": 5792,
      "▁forgotten": 5793,
      "▁4.": 5794,
      "▁aimed": 5795,
      "▁jonathan": 5796,
      "▁sensing": 5797,
      "clined": 5798,
      "▁bee": 5799,
      "▁hano": 5800,
      "▁unconscious": 5801,
      "▁deed": 5802,
      "▁earning": 5803,
      "▁react": 5804,
      "▁maris": 5805,
      "▁financing": 5806,
      "▁leaving": 5807,
      "▁schroedter": 5808,
      "▁came": 5809,
      "▁ed": 5810,
      "▁gloves": 5811,
      "enes": 5812,
      "cab": 5813,
      "▁warn": 5814,
      "▁additionally": 5815,
      "▁c": 5816,
      "▁christians": 5817,
      "▁deaths": 5818,
      "▁campaigns": 5819,
      "▁oper": 5820,
      "▁begun": 5821,
      "▁pasta": 5822,
      "▁wol": 5823,
      "▁naming": 5824,
      "▁pixie": 5825,
      "▁recognize": 5826,
      "▁sl": 5827,
      "▁postural": 5828,
      "▁closest": 5829,
      "▁editions": 5830,
      "▁hearings": 5831,
      "▁93": 5832,
      "▁syrian": 5833,
      "▁scholars": 5834,
      "osure": 5835,
      "▁cowboy": 5836,
      "sd": 5837,
      "▁roberts": 5838,
      "▁convince": 5839,
      "▁kuwait": 5840,
      "▁bone": 5841,
      "▁confirmed": 5842,
      "▁commentary": 5843,
      "▁horizon": 5844,
      "▁cases": 5845,
      "▁convenient": 5846,
      "▁travelling": 5847,
      "▁60": 5848,
      "▁surprisingly": 5849,
      "wards": 5850,
      "▁tant": 5851,
      "▁compl": 5852,
      "▁thanksg": 5853,
      "▁1929": 5854,
      "▁banner": 5855,
      "▁applied": 5856,
      "insed": 5857,
      "▁01:09": 5858,
      "▁patrick": 5859,
      "▁nandakke": 5860,
      "orter": 5861,
      "▁conservation": 5862,
      "▁sealed": 5863,
      "▁eighteenth": 5864,
      "▁julien": 5865,
      "▁upon": 5866,
      "65": 5867,
      "▁confidential": 5868,
      "esco": 5869,
      "▁numb": 5870,
      "ransred": 5871,
      "▁johann": 5872,
      "rim": 5873,
      "▁cow": 5874,
      "▁03/28/2001": 5875,
      "iar": 5876,
      "▁airbnb": 5877,
      "▁solved": 5878,
      "ipp": 5879,
      "▁169": 5880,
      "▁sunni": 5881,
      "▁4:50": 5882,
      "▁quixote": 5883,
      "▁sitara": 5884,
      "▁un": 5885,
      "▁self": 5886,
      "▁met": 5887,
      "gl": 5888,
      "▁point": 5889,
      "▁complicated": 5890,
      "▁radio": 5891,
      "vez": 5892,
      "▁urine": 5893,
      ":16": 5894,
      "ick": 5895,
      "▁fast": 5896,
      "aking": 5897,
      "ottable": 5898,
      "▁uncle": 5899,
      "¢": 5900,
      "lem": 5901,
      "▁stuck": 5902,
      "rib": 5903,
      "▁expand": 5904,
      "▁prepare": 5905,
      "▁coin": 5906,
      "eck": 5907,
      "36": 5908,
      "▁ruins": 5909,
      "▁basket": 5910,
      "▁flowed": 5911,
      "▁compliments": 5912,
      "ning": 5913,
      "ent": 5914,
      "▁rev": 5915,
      "ston": 5916,
      "▁lift": 5917,
      "▁sources": 5918,
      "ft": 5919,
      "▁acknowledged": 5920,
      "▁linen": 5921,
      "▁later": 5922,
      "▁dealing": 5923,
      "ocentrism": 5924,
      "vance": 5925,
      "▁reass": 5926,
      "uter": 5927,
      "▁organization": 5928,
      "uff": 5929,
      "和": 5930,
      "▁codes": 5931,
      "▁audiences": 5932,
      "▁filtered": 5933,
      "▁episode": 5934,
      "▁schools": 5935,
      "▁nix": 5936,
      "▁dire": 5937,
      "▁dread": 5938,
      "▁sarah": 5939,
      "▁disappear": 5940,
      "▁bry": 5941,
      "▁exch": 5942,
      "▁wing": 5943,
      "astroph": 5944,
      "▁max": 5945,
      "▁something": 5946,
      "▁spl": 5947,
      "▁parad": 5948,
      "▁dreams": 5949,
      "yal": 5950,
      "▁brilliant": 5951,
      "▁rele": 5952,
      "▁flats": 5953,
      "▁aster": 5954,
      "▁twisted": 5955,
      "ly": 5956,
      "▁legislation": 5957,
      "▁thru": 5958,
      "▁legos": 5959,
      "▁reputation": 5960,
      "▁portions": 5961,
      "▁batter": 5962,
      "--": 5963,
      "▁sensitivity": 5964,
      "▁)": 5965,
      "▁doct": 5966,
      "▁rebels": 5967,
      "▁grizz": 5968,
      "▁1:30": 5969,
      "inking": 5970,
      "▁supers": 5971,
      "▁iod": 5972,
      "▁viet": 5973,
      "▁brian": 5974,
      "inqu": 5975,
      "▁volley": 5976,
      "▁karen": 5977,
      "▁trav": 5978,
      "▁movements": 5979,
      "▁cas": 5980,
      "▁dece": 5981,
      "--------+----------------": 5982,
      "▁purchasing": 5983,
      "▁youth": 5984,
      "▁no": 5985,
      "▁harder": 5986,
      "ka": 5987,
      "▁arrog": 5988,
      "▁finals": 5989,
      "▁cash": 5990,
      "▁contribution": 5991,
      "▁2003": 5992,
      "▁66": 5993,
      "▁deeper": 5994,
      "▁ident": 5995,
      "ison": 5996,
      "▁800-5": 5997,
      "▁improve": 5998,
      "ounds": 5999,
      "itative": 6000,
      "▁scan": 6001,
      "▁immers": 6002,
      "▁peach": 6003,
      "estic": 6004,
      "▁weekly": 6005,
      "avian": 6006,
      "▁fiction": 6007,
      "??": 6008,
      "▁generally": 6009,
      "▁stupid": 6010,
      "▁lakes": 6011,
      "▁presidents": 6012,
      "ency": 6013,
      "▁hy": 6014,
      "▁identity": 6015,
      ",9": 6016,
      "▁etc.": 6017,
      "▁computers": 6018,
      "▁atlanta": 6019,
      "▁imposs": 6020,
      "▁11/2": 6021,
      "▁sli": 6022,
      "▁sectors": 6023,
      "ciation": 6024,
      "▁shoe": 6025,
      "▁mild": 6026,
      "agen": 6027,
      "▁musharraf": 6028,
      "▁release": 6029,
      "▁pc": 6030,
      "acent": 6031,
      "zema": 6032,
      "glo": 6033,
      "▁comedy": 6034,
      "▁comple": 6035,
      "▁x": 6036,
      "▁patty": 6037,
      "▁isi": 6038,
      "▁sherry": 6039,
      "ʃ": 6040,
      "ance": 6041,
      "▁fist": 6042,
      "▁ann": 6043,
      "▁librivox": 6044,
      "▁manners": 6045,
      "▁beyond": 6046,
      "▁murder": 6047,
      "▁reop": 6048,
      "huh": 6049,
      "▁vital": 6050,
      "▁lost": 6051,
      "▁typically": 6052,
      "▁{": 6053,
      "▁alt.animals.": 6054,
      "▁europ": 6055,
      "▁530": 6056,
      "▁reck": 6057,
      "▁name": 6058,
      "++++++++": 6059,
      "▁southern": 6060,
      "▁broth": 6061,
      "▁most": 6062,
      "▁thirds": 6063,
      "ologue": 6064,
      "▁commun": 6065,
      "▁sovereignty": 6066,
      "pan": 6067,
      "▁friend": 6068,
      "▁coming": 6069,
      "▁muh": 6070,
      "▁forum": 6071,
      "▁gaining": 6072,
      "▁shapes": 6073,
      "atia": 6074,
      "▁hos": 6075,
      "▁ripe": 6076,
      "▁towels": 6077,
      "ou": 6078,
      "▁shame": 6079,
      "łod": 6080,
      "▁2.": 6081,
      "▁derrick": 6082,
      "▁phd": 6083,
      "▁aircraft": 6084,
      "▁3": 6085,
      "▁grow": 6086,
      "▁pre": 6087,
      "aff": 6088,
      "▁box": 6089,
      "oon": 6090,
      "▁competition": 6091,
      "▁launching": 6092,
      "▁mini": 6093,
      "▁piz": 6094,
      "▁presents": 6095,
      "ear": 6096,
      "▁trouble": 6097,
      "▁|": 6098,
      "▁santorum": 6099,
      "▁confine": 6100,
      "ilit": 6101,
      "▁barrett": 6102,
      "oming": 6103,
      "▁ate": 6104,
      "▁prison": 6105,
      "/10": 6106,
      "▁04:17": 6107,
      "▁glove": 6108,
      "▁switzerland": 6109,
      "▁got": 6110,
      "oot": 6111,
      "▁letter": 6112,
      "31": 6113,
      "saoui": 6114,
      "▁1967": 6115,
      "▁foundation": 6116,
      "▁158": 6117,
      "▁insert": 6118,
      "▁homeopath": 6119,
      "▁620-": 6120,
      "▁prec": 6121,
      "▁breathing": 6122,
      "rrrr": 6123,
      "▁rahman": 6124,
      "▁saying": 6125,
      "▁affecting": 6126,
      "▁oc": 6127,
      "▁buses": 6128,
      "▁transparency": 6129,
      "▁mets": 6130,
      "▁reservations": 6131,
      "▁m.": 6132,
      "▁wet": 6133,
      "▁palestinians": 6134,
      "▁carey": 6135,
      "▁instr": 6136,
      "▁o": 6137,
      "▁sugg": 6138,
      "icate": 6139,
      "▁smurf": 6140,
      "½": 6141,
      "▁fasc": 6142,
      "========": 6143,
      "▁713-654-": 6144,
      "▁growing": 6145,
      "▁showing": 6146,
      "▁lamb": 6147,
      "▁accustom": 6148,
      "▁arranged": 6149,
      "▁nancy": 6150,
      "▁julie": 6151,
      "41": 6152,
      "▁takeoff": 6153,
      "▁cooperate": 6154,
      "xim": 6155,
      "▁technical": 6156,
      "静": 6157,
      "▁hal": 6158,
      "▁ew": 6159,
      "▁afric": 6160,
      "▁chea": 6161,
      "▁www.": 6162,
      "▁hull": 6163,
      "▁convergence": 6164,
      "▁meantime": 6165,
      "▁lea": 6166,
      "▁4-12": 6167,
      "▁roared": 6168,
      "▁shovel": 6169,
      "▁christopher": 6170,
      "glasses": 6171,
      "▁land": 6172,
      "▁waff": 6173,
      "▁swedish": 6174,
      "▁perm": 6175,
      "▁dent": 6176,
      "▁republic": 6177,
      "▁spending": 6178,
      "▁forb": 6179,
      "▁fifteen": 6180,
      "▁herein": 6181,
      "▁fin": 6182,
      "▁varied": 6183,
      "ame": 6184,
      "▁lav": 6185,
      "▁herself": 6186,
      "▁activity": 6187,
      "▁like": 6188,
      "▁nonsense": 6189,
      "▁bigger": 6190,
      "▁shiites": 6191,
      "▁15": 6192,
      "▁kitty": 6193,
      "▁considering": 6194,
      "▁terrorist": 6195,
      "▁wake": 6196,
      "90s": 6197,
      "▁137": 6198,
      "▁width": 6199,
      "tc": 6200,
      "▁share": 6201,
      "uela": 6202,
      "2/2001": 6203,
      "▁wooden": 6204,
      "ware": 6205,
      "▁tragic": 6206,
      "▁3889": 6207,
      "▁82": 6208,
      "onsc": 6209,
      "▁zero": 6210,
      "津": 6211,
      "▁feasible": 6212,
      "▁compulsive": 6213,
      "▁beloved": 6214,
      "▁gorio": 6215,
      "▁passengers": 6216,
      "▁flick": 6217,
      "rict": 6218,
      "▁endea": 6219,
      "▁505-625": 6220,
      "▁departing": 6221,
      "▁33": 6222,
      "tact": 6223,
      "▁host": 6224,
      "▁frisco": 6225,
      "▁openly": 6226,
      "▁reflect": 6227,
      "▁restrictions": 6228,
      "▁beauty": 6229,
      "▁picnic": 6230,
      "▁auster": 6231,
      "▁sour": 6232,
      "▁chamber": 6233,
      "▁notably": 6234,
      "▁environments": 6235,
      "▁imprisoned": 6236,
      "▁brains": 6237,
      "▁shit": 6238,
      "hire": 6239,
      "▁deliberate": 6240,
      "/p": 6241,
      "▁canad": 6242,
      "ef": 6243,
      "▁na": 6244,
      "▁(b)": 6245,
      "▁dash": 6246,
      "anger": 6247,
      "▁+45": 6248,
      "ad": 6249,
      "▁find": 6250,
      "▁hub": 6251,
      "▁surviv": 6252,
      "▁4:00": 6253,
      "▁reality": 6254,
      "▁sucks": 6255,
      "bage": 6256,
      "▁concepts": 6257,
      "▁dinos": 6258,
      "▁border": 6259,
      "▁charter": 6260,
      "▁debbie": 6261,
      "3c": 6262,
      "▁distorted": 6263,
      "▁conducting": 6264,
      "▁invent": 6265,
      "▁connectionstring": 6266,
      "▁hiding": 6267,
      "ish": 6268,
      "▁x3": 6269,
      "▁childcare": 6270,
      "age": 6271,
      "▁proof": 6272,
      "▁viv": 6273,
      "▁compliment": 6274,
      "▁offensive": 6275,
      "▁helicop": 6276,
      ".25": 6277,
      "▁alber": 6278,
      "▁momma": 6279,
      "▁uncertainty": 6280,
      "mike": 6281,
      "alph": 6282,
      "▁speech": 6283,
      "▁315": 6284,
      "▁revolution": 6285,
      "▁neural": 6286,
      "▁police": 6287,
      "▁attend": 6288,
      "▁gardens": 6289,
      "▁praise": 6290,
      "▁dissemination": 6291,
      "▁pave": 6292,
      "▁i": 6293,
      "-84": 6294,
      "▁ell": 6295,
      "▁lasts": 6296,
      "▁islamic": 6297,
      "▁signed": 6298,
      "▁vallee": 6299,
      "▁alcalde": 6300,
      "▁mcg": 6301,
      "#": 6302,
      "onom": 6303,
      "▁walnut": 6304,
      "ae": 6305,
      "▁exceptional": 6306,
      "▁discip": 6307,
      "▁here": 6308,
      "▁clim": 6309,
      "▁matt": 6310,
      "ima": 6311,
      "▁tastes": 6312,
      "▁99": 6313,
      "▁spend": 6314,
      "▁co": 6315,
      "▁prayer": 6316,
      "▁el": 6317,
      "▁fountain": 6318,
      "▁shoo": 6319,
      "▁bands": 6320,
      "ject": 6321,
      "▁squeeze": 6322,
      "national": 6323,
      "▁transm": 6324,
      "▁nierman": 6325,
      "▁approxim": 6326,
      "ften": 6327,
      "▁socialist": 6328,
      "rism": 6329,
      "▁neoclassical": 6330,
      "▁resulting": 6331,
      "ley": 6332,
      "▁iranian": 6333,
      "▁hay": 6334,
      "▁fundament": 6335,
      "▁haven": 6336,
      "liver": 6337,
      "▁1504": 6338,
      "▁movie": 6339,
      "▁hur": 6340,
      "▁optimistic": 6341,
      ".77": 6342,
      "▁halfway": 6343,
      "▁fork": 6344,
      "▁59": 6345,
      "▁won": 6346,
      "▁underlying": 6347,
      "ila": 6348,
      "▁chard": 6349,
      "apolis": 6350,
      "▁anton": 6351,
      "rolled": 6352,
      "ak": 6353,
      "▁doctor": 6354,
      "▁iss": 6355,
      "▁magazine": 6356,
      "▁nim": 6357,
      "▁carol": 6358,
      "ble": 6359,
      "▁fact": 6360,
      "▁teach": 6361,
      "03": 6362,
      "sty": 6363,
      "▁adjustments": 6364,
      "▁spilled": 6365,
      "vely": 6366,
      "▁bunk": 6367,
      "▁successful": 6368,
      "▁renewed": 6369,
      "▁te": 6370,
      "▁down": 6371,
      "▁reads": 6372,
      "▁unexpected": 6373,
      "iov": 6374,
      "ahan": 6375,
      "▁lately": 6376,
      "▁tickles": 6377,
      "▁school": 6378,
      "▁web": 6379,
      "ito": 6380,
      "ections": 6381,
      "▁discourse": 6382,
      "▁above": 6383,
      "▁mathemat": 6384,
      "▁1985": 6385,
      "▁propose": 6386,
      "ihu": 6387,
      "▁theat": 6388,
      "ours": 6389,
      "▁recommend": 6390,
      "▁hotline": 6391,
      "4014": 6392,
      "lah": 6393,
      ":00": 6394,
      "▁entrance": 6395,
      "isy": 6396,
      "▁explos": 6397,
      "▁bradley": 6398,
      "▁messed": 6399,
      "▁bring": 6400,
      "▁wor": 6401,
      "▁chewing": 6402,
      "op": 6403,
      "▁curs": 6404,
      "▁wakes": 6405,
      "▁monitoring": 6406,
      "▁ordering": 6407,
      "45": 6408,
      "▁highlights": 6409,
      "▁quilis": 6410,
      "▁apart": 6411,
      "▁1145": 6412,
      "▁tradem": 6413,
      "▁versa": 6414,
      "▁46": 6415,
      "▁dere": 6416,
      "▁rains": 6417,
      "ism": 6418,
      "▁blueberry": 6419,
      "▁revisions": 6420,
      "▁nato": 6421,
      "▁fal": 6422,
      "va": 6423,
      "▁mong": 6424,
      "▁search": 6425,
      "zy": 6426,
      "back": 6427,
      "▁minnesota": 6428,
      "ateral": 6429,
      "▁arrogant": 6430,
      "▁stat": 6431,
      "▁europe": 6432,
      "▁reserv": 6433,
      "▁dol": 6434,
      "▁greasy": 6435,
      "▁effective": 6436,
      "▁922": 6437,
      "▁lapt": 6438,
      "▁egypt": 6439,
      "▁overwhel": 6440,
      "▁gravity": 6441,
      "▁ability": 6442,
      "▁insur": 6443,
      "ents": 6444,
      "aped": 6445,
      "▁adap": 6446,
      "▁wag": 6447,
      "▁wai": 6448,
      "▁script": 6449,
      "▁cauc": 6450,
      "osc": 6451,
      "▁surrender": 6452,
      "▁prejudice": 6453,
      "▁ginny": 6454,
      "▁farms": 6455,
      "▁counters": 6456,
      "inent": 6457,
      "▁periods": 6458,
      "ceed": 6459,
      "ium": 6460,
      "▁citizen": 6461,
      "▁bleeding": 6462,
      "ia": 6463,
      "cc": 6464,
      "▁tame": 6465,
      "anie": 6466,
      "▁wizard": 6467,
      "▁round": 6468,
      "▁eye": 6469,
      "▁1925": 6470,
      "▁rachel": 6471,
      "uding": 6472,
      "stem": 6473,
      "for": 6474,
      "▁industries": 6475,
      "▁folded": 6476,
      "▁smell": 6477,
      "pheric": 6478,
      "▁ali": 6479,
      "▁=---": 6480,
      "▁apron": 6481,
      "▁cath": 6482,
      "▁rode": 6483,
      "algamiento": 6484,
      "▁intelligence": 6485,
      "▁obt": 6486,
      "ifer": 6487,
      "▁styl": 6488,
      "▁thirt": 6489,
      "lan": 6490,
      "α": 6491,
      "▁11/08/2000": 6492,
      "ibly": 6493,
      "▁collect": 6494,
      "▁03": 6495,
      "▁enl": 6496,
      "▁vib": 6497,
      "▁ideal": 6498,
      "▁cats": 6499,
      "▁imported": 6500,
      "▁ros": 6501,
      "▁leopold": 6502,
      "▁687": 6503,
      "▁interface": 6504,
      "▁elpaso": 6505,
      "▁broken": 6506,
      "▁kandahar": 6507,
      "▁van": 6508,
      "▁202.456": 6509,
      "tail": 6510,
      "▁represent": 6511,
      "▁squ": 6512,
      "▁prol": 6513,
      "▁medic": 6514,
      "▁discovered": 6515,
      "7/2001": 6516,
      "▁columns": 6517,
      "xon": 6518,
      "elpaso": 6519,
      "▁unique": 6520,
      "kward": 6521,
      "▁vulner": 6522,
      "-991-9": 6523,
      ".com/wikihow": 6524,
      "▁deserve": 6525,
      "▁laos": 6526,
      "▁donna": 6527,
      "▁humanity": 6528,
      "▁immigration": 6529,
      "person": 6530,
      "lics": 6531,
      "▁continent": 6532,
      "▁greece": 6533,
      "▁glanced": 6534,
      "▁editor": 6535,
      "▁yan": 6536,
      "▁organizing": 6537,
      "▁operator": 6538,
      "▁….": 6539,
      "▁harvard": 6540,
      "▁switched": 6541,
      "▁pettigrew": 6542,
      "▁spore": 6543,
      "▁guarantee": 6544,
      "▁precious": 6545,
      "▁cows": 6546,
      "▁locomot": 6547,
      "▁introduced": 6548,
      "▁01/25/2001": 6549,
      "▁1951": 6550,
      "▁kosovo": 6551,
      "▁grain": 6552,
      "▁trees": 6553,
      "ver": 6554,
      "▁bridge": 6555,
      "▁yard": 6556,
      "▁has": 6557,
      "▁distort": 6558,
      "9th": 6559,
      "▁cost-e": 6560,
      "▁provider": 6561,
      "▁takes": 6562,
      "▁flea": 6563,
      "v.": 6564,
      "▁neu": 6565,
      "▁bever": 6566,
      "▁gotten": 6567,
      "a": 6568,
      "▁custom": 6569,
      "▁substantive": 6570,
      "erto": 6571,
      "▁barn": 6572,
      "▁business": 6573,
      "▁appetite": 6574,
      "▁club": 6575,
      "oin": 6576,
      "▁weekends": 6577,
      "esley": 6578,
      "ence": 6579,
      "▁---->===}*{===<----": 6580,
      "▁202.7": 6581,
      "▁1799": 6582,
      "▁be": 6583,
      "▁ax": 6584,
      "η": 6585,
      "▁bodies": 6586,
      "_0": 6587,
      "▁abd": 6588,
      "▁organic": 6589,
      "istics": 6590,
      "▁holds": 6591,
      "▁gis": 6592,
      "▁ric": 6593,
      "▁unanim": 6594,
      "▁neighbours": 6595,
      "▁elect": 6596,
      "▁balloon": 6597,
      "iscal": 6598,
      "ami": 6599,
      "hn": 6600,
      "non": 6601,
      "▁amazingly": 6602,
      "reg": 6603,
      "▁sponsored": 6604,
      "▁tank": 6605,
      "▁champ": 6606,
      "▁f-": 6607,
      "▁1:00": 6608,
      "+": 6609,
      "▁fulf": 6610,
      "▁107": 6611,
      "▁---": 6612,
      "▁:-)": 6613,
      "▁honda": 6614,
      "▁homeless": 6615,
      "▁dogg": 6616,
      "▁title": 6617,
      "▁davis": 6618,
      "▁supports": 6619,
      "utes": 6620,
      "law": 6621,
      "ot.com/": 6622,
      "▁robust": 6623,
      "▁jo": 6624,
      "▁saudi": 6625,
      "88": 6626,
      "▁713-654-0365": 6627,
      "▁restr": 6628,
      "▁cind": 6629,
      "eurs": 6630,
      "▁kerry": 6631,
      "▁6871082": 6632,
      "▁1944": 6633,
      "▁boston": 6634,
      "aria": 6635,
      "▁yaw": 6636,
      "being": 6637,
      "▁austria": 6638,
      "▁chat": 6639,
      "▁del": 6640,
      "▁dab": 6641,
      "▁cam": 6642,
      "▁plant": 6643,
      "▁liquid": 6644,
      "▁hardness": 6645,
      "iner": 6646,
      "ikii": 6647,
      "▁asserted": 6648,
      "▁spear": 6649,
      "▁quino": 6650,
      "▁tub": 6651,
      "▁1.00": 6652,
      "▁ago": 6653,
      "light": 6654,
      "por": 6655,
      "▁troubles": 6656,
      "▁!!!": 6657,
      "ate": 6658,
      "▁giants": 6659,
      "▁spout": 6660,
      "▁economically": 6661,
      "▁airport": 6662,
      "▁mat": 6663,
      "▁appreciate": 6664,
      "house": 6665,
      "▁sensible": 6666,
      "▁solutions": 6667,
      "▁575": 6668,
      "▁wr": 6669,
      "▁achievement": 6670,
      "▁mother": 6671,
      "ij": 6672,
      "▁mom": 6673,
      "lackl": 6674,
      "▁beaches": 6675,
      "top": 6676,
      "▁honest": 6677,
      "▁application": 6678,
      "▁dress": 6679,
      "▁hob": 6680,
      "erina": 6681,
      "rier": 6682,
      "▁worlds": 6683,
      "▁cro": 6684,
      "▁sit": 6685,
      "▁registered": 6686,
      "▁environment": 6687,
      "rett": 6688,
      "▁cox": 6689,
      "xic": 6690,
      "cil": 6691,
      "▁0590": 6692,
      "▁boards": 6693,
      "arity": 6694,
      "▁charco": 6695,
      "▁unrelated": 6696,
      "irect": 6697,
      "▁diversity": 6698,
      "▁adequate": 6699,
      "ʁ": 6700,
      "arking": 6701,
      "▁ward": 6702,
      "▁eating": 6703,
      "▁learning": 6704,
      "/30/2001": 6705,
      "obiograph": 6706,
      "▁chocolate": 6707,
      "▁turtle": 6708,
      "▁wagon": 6709,
      "▁inhabit": 6710,
      "vil": 6711,
      "▁vinny": 6712,
      "▁grabbed": 6713,
      "▁22nd": 6714,
      "▁turistica": 6715,
      "▁appropriations": 6716,
      "el": 6717,
      "▁operations": 6718,
      "▁lana": 6719,
      "▁sus": 6720,
      "sex": 6721,
      "▁dy": 6722,
      "▁di": 6723,
      "▁february": 6724,
      "▁pilgrims": 6725,
      "64": 6726,
      "▁thinking": 6727,
      "▁scient": 6728,
      "▁judgment": 6729,
      "▁p&l": 6730,
      "▁had": 6731,
      "▁2nd": 6732,
      "r.": 6733,
      "▁sector": 6734,
      "▁416-865-3": 6735,
      "▁exhibits": 6736,
      "raph": 6737,
      "▁businessmen": 6738,
      "gg": 6739,
      "▁intense": 6740,
      "▁compreh": 6741,
      "roleum": 6742,
      "▁chicken": 6743,
      "▁distribution": 6744,
      "arch": 6745,
      "▁hedwig": 6746,
      "▁debts": 6747,
      "▁teaching": 6748,
      "▁attributed": 6749,
      "▁2:30": 6750,
      "▁hospital": 6751,
      "▁she": 6752,
      "urt": 6753,
      "▁embarrass": 6754,
      "east": 6755,
      "▁09:": 6756,
      "aster": 6757,
      "▁recre": 6758,
      "▁wales": 6759,
      "▁cleared": 6760,
      "▁instead": 6761,
      "▁when": 6762,
      "▁positions": 6763,
      "▁say": 6764,
      "▁kleenex": 6765,
      "▁maintains": 6766,
      "▁memorial": 6767,
      "▁appearing": 6768,
      "▁families": 6769,
      "▁!!!!!!!!!!!!!!!": 6770,
      "▁story": 6771,
      "▁invest": 6772,
      "▁first": 6773,
      "ari": 6774,
      "▁beach": 6775,
      "▁mornings": 6776,
      "▁rust": 6777,
      "▁top": 6778,
      "▁silly": 6779,
      "▁careful": 6780,
      "▁outstanding": 6781,
      "▁worked": 6782,
      "▁copies": 6783,
      "▁taller": 6784,
      "▁emb": 6785,
      "▁enterpr": 6786,
      "▁tricks": 6787,
      "▁stable": 6788,
      "▁enc": 6789,
      "rical": 6790,
      "▁translates": 6791,
      "▁marginal": 6792,
      "ers": 6793,
      "▁cre": 6794,
      "▁ded": 6795,
      "▁videos": 6796,
      "▁couch": 6797,
      "▁saint": 6798,
      "▁slight": 6799,
      "▁county": 6800,
      "▁ath": 6801,
      "▁....................": 6802,
      "▁wild": 6803,
      "▁!!!!!!!!!!!!!": 6804,
      "▁no.": 6805,
      "▁matches": 6806,
      "anic": 6807,
      "▁impul": 6808,
      "esty": 6809,
      "▁medium": 6810,
      "▁experi": 6811,
      "▁macbeth": 6812,
      "acts": 6813,
      "▁sev": 6814,
      "▁windows": 6815,
      "▁pe": 6816,
      "85": 6817,
      "▁humaine": 6818,
      "right": 6819,
      "▁197": 6820,
      "▁noida": 6821,
      "▁wondering": 6822,
      "▁civilian": 6823,
      "anas": 6824,
      "▁july": 6825,
      "▁as": 6826,
      "reat": 6827,
      "oween": 6828,
      "▁span": 6829,
      "▁tool": 6830,
      "▁bn": 6831,
      "▁mall": 6832,
      "▁disappoint": 6833,
      "look": 6834,
      "▁pencil": 6835,
      "▁vogelaviatiolap": 6836,
      "alog": 6837,
      "astery": 6838,
      "▁satisfaction": 6839,
      "render": 6840,
      "▁thunder": 6841,
      "▁stella": 6842,
      "▁spin": 6843,
      "▁nu": 6844,
      "ased": 6845,
      "▁conscious": 6846,
      "▁neat": 6847,
      "▁waitress": 6848,
      "▁d.": 6849,
      "▁clients": 6850,
      "▁milit": 6851,
      "ature": 6852,
      "ilis": 6853,
      "▁beverage": 6854,
      "▁rhythm": 6855,
      "▁lu": 6856,
      "amental": 6857,
      "▁195": 6858,
      "▁electron": 6859,
      "▁louisiana": 6860,
      "▁tit": 6861,
      "▁degrees": 6862,
      "▁|--------+----------------------->": 6863,
      "▁dav": 6864,
      "▁corp": 6865,
      "▁gifu": 6866,
      "tip": 6867,
      "▁impact": 6868,
      "atus": 6869,
      "▁protect": 6870,
      "▁liked": 6871,
      "▁australia": 6872,
      "hold": 6873,
      "▁dolphins": 6874,
      "aroni": 6875,
      "ited": 6876,
      "▁drug": 6877,
      "▁·": 6878,
      "▁subs": 6879,
      "▁remarkably": 6880,
      "▁fallujah": 6881,
      "▁logic": 6882,
      "ivia": 6883,
      "▁cray": 6884,
      "ifies": 6885,
      "▁dc": 6886,
      "▁aw": 6887,
      "²": 6888,
      "▁dipped": 6889,
      "▁interrupt": 6890,
      "▁requ": 6891,
      "▁integration": 6892,
      "▁wra": 6893,
      "▁cincinnati": 6894,
      "usted": 6895,
      "▁price": 6896,
      "▁devast": 6897,
      "▁avenue": 6898,
      "▁economists": 6899,
      "▁location": 6900,
      "▁enjoys": 6901,
      "▁lords": 6902,
      "▁phen": 6903,
      "▁chardonnay": 6904,
      "▁carro": 6905,
      "▁sweat": 6906,
      "▁adopted": 6907,
      "inging": 6908,
      "▁guerr": 6909,
      "▁---------------------------------": 6910,
      "▁considers": 6911,
      "▁extract": 6912,
      "▁wives": 6913,
      "▁actively": 6914,
      "▁deserted": 6915,
      "▁titanic": 6916,
      "▁chant": 6917,
      "80": 6918,
      "▁studio": 6919,
      "irts": 6920,
      "▁friedrich": 6921,
      "▁knew": 6922,
      "apse": 6923,
      "▁renee": 6924,
      "▁reportedly": 6925,
      "▁manipulating": 6926,
      "▁sump": 6927,
      "▁2006": 6928,
      "▁starvation": 6929,
      "▁secur": 6930,
      "▁demon": 6931,
      "ensely": 6932,
      "▁blackl": 6933,
      "▁sharing": 6934,
      "▁petsmart": 6935,
      "osy": 6936,
      "▁piled": 6937,
      "▁w.": 6938,
      "▁forecast": 6939,
      "▁4_28": 6940,
      "▁rabbits": 6941,
      ".d.": 6942,
      "▁north": 6943,
      "▁belief": 6944,
      "▁blanc": 6945,
      "▁vacc": 6946,
      "▁fisher": 6947,
      "▁indiffer": 6948,
      "▁chuck": 6949,
      "oulder": 6950,
      "thew": 6951,
      "▁judgments": 6952,
      "▁1579": 6953,
      "▁obstacle": 6954,
      "town": 6955,
      "▁demand": 6956,
      "▁ensuring": 6957,
      "▁jeop": 6958,
      "-23": 6959,
      "▁80,000": 6960,
      "ا": 6961,
      "▁petition": 6962,
      "▁framed": 6963,
      "▁begins": 6964,
      "▁21st": 6965,
      "▁dand": 6966,
      "▁parking": 6967,
      "sych": 6968,
      "▁12:30": 6969,
      "▁debris": 6970,
      "▁carr": 6971,
      "hea": 6972,
      "▁pushing": 6973,
      "sh": 6974,
      "▁parake": 6975,
      "▁bea": 6976,
      "word": 6977,
      "sid": 6978,
      "osing": 6979,
      "▁sunday": 6980,
      "▁faint": 6981,
      "bir": 6982,
      "apor": 6983,
      "ipe": 6984,
      "olly": 6985,
      "ge": 6986,
      "▁task": 6987,
      "▁adding": 6988,
      "▁reading": 6989,
      "▁chronic": 6990,
      "▁1724": 6991,
      "▁seaman": 6992,
      "▁monthly": 6993,
      "▁42,000": 6994,
      "▁nick": 6995,
      "▁spelling": 6996,
      "▁picked": 6997,
      "▁post": 6998,
      "▁implementing": 6999,
      "▁i.": 7000,
      "0s": 7001,
      "▁grandmother": 7002,
      "▁horsie": 7003,
      "▁liqu": 7004,
      "▁inequality": 7005,
      "actions": 7006,
      "fahan": 7007,
      "▁developed": 7008,
      "▁glasses": 7009,
      "▁ale": 7010,
      "▁ulterior": 7011,
      "▁recalled": 7012,
      "aint": 7013,
      "▁principle": 7014,
      "▁calculated": 7015,
      "▁chand": 7016,
      "jud": 7017,
      "▁stating": 7018,
      "▁freedoms": 7019,
      "▁argentina": 7020,
      "▁advert": 7021,
      "▁word": 7022,
      "▁345": 7023,
      "ints": 7024,
      "`": 7025,
      "▁reli": 7026,
      "▁investment": 7027,
      "unte": 7028,
      "▁lev": 7029,
      "▁obs": 7030,
      "-3": 7031,
      "▁avoided": 7032,
      "ces": 7033,
      "▁raphael": 7034,
      "▁forming": 7035,
      "▁chrome": 7036,
      "▁need": 7037,
      "▁09/16/99": 7038,
      "▁seis": 7039,
      "▁drying": 7040,
      "▁krist": 7041,
      "ense": 7042,
      "▁probably": 7043,
      "▁counsel": 7044,
      "▁candid": 7045,
      "itted": 7046,
      "▁salsa": 7047,
      "▁strat": 7048,
      "acam": 7049,
      "▁complete": 7050,
      "▁shackle": 7051,
      "▁fluff": 7052,
      "▁macaroni": 7053,
      "fu": 7054,
      "merce": 7055,
      "▁shakespeare": 7056,
      "igible": 7057,
      "▁screw": 7058,
      "▁ps": 7059,
      "chi": 7060,
      "anga": 7061,
      "▁stair": 7062,
      "▁negotiation": 7063,
      "▁femoral": 7064,
      "▁decl": 7065,
      "▁19": 7066,
      "▁surpr": 7067,
      "▁dro": 7068,
      "▁800.713.86": 7069,
      "▁jack": 7070,
      "▁homeopathy": 7071,
      "▁comm": 7072,
      "▁1902": 7073,
      "ner": 7074,
      "▁course": 7075,
      "▁vogel": 7076,
      "▁equity": 7077,
      "▁567.77": 7078,
      "vals": 7079,
      "▁peek": 7080,
      "inating": 7081,
      "shore": 7082,
      "▁ib": 7083,
      "▁reimbur": 7084,
      "▁rack": 7085,
      "ities": 7086,
      "▁cabbage": 7087,
      "▁1849": 7088,
      "anim": 7089,
      "▁pad": 7090,
      "▁luf": 7091,
      "▁med": 7092,
      "▁accidentally": 7093,
      "sequ": 7094,
      "▁accountant": 7095,
      "▁products": 7096,
      "▁lose": 7097,
      "▁latter": 7098,
      "▁oppress": 7099,
      "▁damasc": 7100,
      "▁jew": 7101,
      "atic": 7102,
      "tim": 7103,
      "▁lin": 7104,
      "▁dated": 7105,
      "▁awa": 7106,
      "▁questioned": 7107,
      "pread": 7108,
      "▁recipient": 7109,
      "▁conf": 7110,
      "▁1779": 7111,
      "▁ens": 7112,
      "umental": 7113,
      "▁orbit": 7114,
      "▁equally": 7115,
      "ids": 7116,
      "▁chu": 7117,
      "▁score": 7118,
      "▁sooner": 7119,
      ":11": 7120,
      "▁sense": 7121,
      "▁2.9": 7122,
      "▁publication": 7123,
      "▁nice": 7124,
      "▁loses": 7125,
      "▁allergic": 7126,
      "▁documents": 7127,
      "▁aesth": 7128,
      "▁cook": 7129,
      "▁terrif": 7130,
      "iety": 7131,
      "▁shorts": 7132,
      "▁passport": 7133,
      ":5": 7134,
      "▁discret": 7135,
      "▁kr": 7136,
      "▁mushroom": 7137,
      "▁google": 7138,
      "▁finest": 7139,
      "▁scored": 7140,
      "▁lymph": 7141,
      "rayed": 7142,
      "▁collaborative": 7143,
      "▁records": 7144,
      "▁itinerary": 7145,
      "▁3,": 7146,
      "ff": 7147,
      "▁tops": 7148,
      "▁sisters": 7149,
      "▁indoor": 7150,
      "▁630": 7151,
      "▁durs": 7152,
      "▁viewed": 7153,
      "▁green": 7154,
      "ir": 7155,
      "▁excuse": 7156,
      "▁buba": 7157,
      "▁bookstore": 7158,
      "▁amending": 7159,
      "▁janice": 7160,
      "▁assass": 7161,
      "▁281": 7162,
      "▁1604": 7163,
      "▁seeds": 7164,
      "▁related": 7165,
      "▁laughter": 7166,
      "▁updated": 7167,
      "aq": 7168,
      "▁ash": 7169,
      "▁airports": 7170,
      "erce": 7171,
      "▁bites": 7172,
      "▁player": 7173,
      "▁armen": 7174,
      "▁valley": 7175,
      "alam": 7176,
      "stances": 7177,
      "▁spong": 7178,
      "▁mish": 7179,
      "▁night": 7180,
      "▁u": 7181,
      "▁dollars": 7182,
      "▁sens": 7183,
      "▁bulld": 7184,
      "▁participant": 7185,
      "▁soph": 7186,
      "▁neolog": 7187,
      "▁crazy": 7188,
      "▁approve": 7189,
      "b)": 7190,
      "▁attitude": 7191,
      "▁assist": 7192,
      "ely": 7193,
      "▁mcdon": 7194,
      "▁confirming": 7195,
      "bish": 7196,
      "▁treaty": 7197,
      "▁schem": 7198,
      "▁curry": 7199,
      "▁respects": 7200,
      "▁spacecraft": 7201,
      "▁places": 7202,
      "▁donate": 7203,
      "▁terrorists": 7204,
      "▁quack": 7205,
      "▁cour": 7206,
      "▁eng": 7207,
      "▁taliban": 7208,
      "▁augment": 7209,
      "▁hurting": 7210,
      "▁proponents": 7211,
      "▁mouse": 7212,
      "▁est": 7213,
      "ically": 7214,
      "▁promised": 7215,
      "▁william": 7216,
      "▁proprietary": 7217,
      "▁amazed": 7218,
      "▁alleg": 7219,
      "76": 7220,
      "▁ignor": 7221,
      "▁tree": 7222,
      "uit": 7223,
      "inte": 7224,
      "▁such": 7225,
      "▁pieces": 7226,
      "▁needs": 7227,
      "ler": 7228,
      "oto": 7229,
      "00": 7230,
      "▁wast": 7231,
      "▁dl": 7232,
      "▁jac": 7233,
      "▁pajamas": 7234,
      "▁descend": 7235,
      "▁meiring": 7236,
      "15": 7237,
      "anta": 7238,
      "▁propos": 7239,
      "▁relying": 7240,
      "▁hunt": 7241,
      "▁clinton": 7242,
      "▁shore": 7243,
      "▁19th": 7244,
      "▁contrary": 7245,
      "▁write": 7246,
      "▁reserved": 7247,
      "▁10:25": 7248,
      "▁storms": 7249,
      "▁boundaries": 7250,
      "lig": 7251,
      "▁thrones": 7252,
      "▁personality": 7253,
      "▁colombo": 7254,
      "ined": 7255,
      ",7": 7256,
      "▁feathered": 7257,
      "down": 7258,
      "▁rap": 7259,
      "▁1560": 7260,
      "▁proclaim": 7261,
      "▁recru": 7262,
      "cept": 7263,
      "grin": 7264,
      "▁mar": 7265,
      "▁1832": 7266,
      "ida": 7267,
      "▁sneeze": 7268,
      "▁exit": 7269,
      "▁blast": 7270,
      "▁fingers": 7271,
      "▁ve": 7272,
      "▁1110": 7273,
      "ortium": 7274,
      "oud": 7275,
      "▁shackl": 7276,
      "▁yack": 7277,
      "qu": 7278,
      "▁final": 7279,
      "▁athlet": 7280,
      "ini": 7281,
      "while": 7282,
      "apping": 7283,
      "hy": 7284,
      "mus": 7285,
      "▁kitten": 7286,
      "▁invoice": 7287,
      "▁removal": 7288,
      "▁tribal": 7289,
      "▁auto": 7290,
      "id": 7291,
      "▁:": 7292,
      "enance": 7293,
      "wr": 7294,
      "with": 7295,
      "▁struct": 7296,
      "▁drawn": 7297,
      "▁03/02/2001": 7298,
      "▁inquir": 7299,
      "▁prior": 7300,
      "ugh": 7301,
      "▁bh": 7302,
      "ury": 7303,
      "▁foreign": 7304,
      "▁grounds": 7305,
      "▁ladies": 7306,
      "▁syrup": 7307,
      "▁accent": 7308,
      "▁skull": 7309,
      "▁34": 7310,
      "▁suggested": 7311,
      "/17/99": 7312,
      "▁ongoing": 7313,
      "▁scene": 7314,
      "▁mailman": 7315,
      "▁yahoo!": 7316,
      "499": 7317,
      "▁mate": 7318,
      "▁trapped": 7319,
      "▁veteran": 7320,
      "occo": 7321,
      "▁facility": 7322,
      "▁playing": 7323,
      "uch": 7324,
      "▁inapp": 7325,
      "▁negoti": 7326,
      "▁wine": 7327,
      "▁prestigious": 7328,
      "▁412": 7329,
      "▁civet": 7330,
      "edience": 7331,
      "▁require": 7332,
      "▁buttons": 7333,
      "▁04:28": 7334,
      "▁reported": 7335,
      "<----": 7336,
      "▁earlier": 7337,
      "▁physical": 7338,
      "itions": 7339,
      "▁impeachment": 7340,
      "▁traveling": 7341,
      "θ": 7342,
      "▁lucky": 7343,
      "aries": 7344,
      "▁chines": 7345,
      "▁struggle": 7346,
      "▁bath": 7347,
      "▁pl": 7348,
      "▁look": 7349,
      "▁foot": 7350,
      "▁assault": 7351,
      "ructive": 7352,
      "▁surveys": 7353,
      "▁kingdom": 7354,
      "▁intake": 7355,
      "enga": 7356,
      "▁1900": 7357,
      "▁worldwide": 7358,
      "▁bust": 7359,
      "▁!!": 7360,
      "▁&": 7361,
      "▁gem": 7362,
      "▁pizza": 7363,
      "▁2:00": 7364,
      ".7": 7365,
      "▁cock": 7366,
      "▁granger": 7367,
      "▁pending": 7368,
      "bol": 7369,
      "ances": 7370,
      "ibu": 7371,
      "▁jumps": 7372,
      "o-": 7373,
      "▁ern": 7374,
      "▁env": 7375,
      "▁promoted": 7376,
      "roc": 7377,
      "▁reaff": 7378,
      "/7": 7379,
      "▁bosom": 7380,
      "bruary": 7381,
      "▁batch": 7382,
      "▁peroxide": 7383,
      "▁waiver": 7384,
      "▁birds": 7385,
      "▁notable": 7386,
      "▁qx": 7387,
      "stream": 7388,
      "▁heavily": 7389,
      "▁poodle": 7390,
      "▁polly": 7391,
      "▁oth": 7392,
      "▁transported": 7393,
      "rele": 7394,
      ".718": 7395,
      "▁fever": 7396,
      "▁promote": 7397,
      "▁turns": 7398,
      "▁yahoo": 7399,
      "▁emission": 7400,
      "▁dining": 7401,
      ".7822": 7402,
      "▁judy": 7403,
      "ular": 7404,
      "▁hurt": 7405,
      "oul": 7406,
      "▁pimple": 7407,
      "▁hundred": 7408,
      "▁enemy": 7409,
      "▁acquis": 7410,
      "ken": 7411,
      "▁inex": 7412,
      "▁unles": 7413,
      "mart": 7414,
      "▁s/he": 7415,
      "▁territory": 7416,
      "▁greet": 7417,
      "ijing": 7418,
      "▁effectively": 7419,
      "▁diana": 7420,
      "▁somm": 7421,
      "▁generic": 7422,
      "▁easier": 7423,
      "je": 7424,
      "▁defence": 7425,
      "cement": 7426,
      "▁dada": 7427,
      "board": 7428,
      "▁speakers": 7429,
      "▁illness": 7430,
      "▁ku": 7431,
      "▁sinking": 7432,
      "▁quarters": 7433,
      "▁yummy": 7434,
      "▁reim": 7435,
      "ining": 7436,
      "people": 7437,
      "▁colonial": 7438,
      "▁recall": 7439,
      "▁blinking": 7440,
      "▁awareness": 7441,
      "▁philosopher": 7442,
      "lest": 7443,
      "▁outlets": 7444,
      "▁parach": 7445,
      "umbled": 7446,
      "▁account": 7447,
      "▁les": 7448,
      "rans": 7449,
      "▁subjected": 7450,
      "▁charm": 7451,
      "▁eager": 7452,
      "▁chantilly": 7453,
      "ione": 7454,
      "▁raf": 7455,
      "-r": 7456,
      "▁ven": 7457,
      "-696": 7458,
      "▁fill": 7459,
      "▁asylum": 7460,
      "▁snakes": 7461,
      "▁embed": 7462,
      "im": 7463,
      "ancy": 7464,
      "▁contr": 7465,
      "▁300": 7466,
      "▁1801": 7467,
      "▁verd": 7468,
      "▁links": 7469,
      "▁authority": 7470,
      "▁contacts": 7471,
      "▁clinging": 7472,
      "pts": 7473,
      ":": 7474,
      "▁nook": 7475,
      "▁governments": 7476,
      "gle": 7477,
      "0/2000": 7478,
      "▁sho": 7479,
      "▁wounds": 7480,
      "▁whole": 7481,
      "/11": 7482,
      "4": 7483,
      "▁carol.st.clair@enron.com": 7484,
      "▁adj": 7485,
      ":58": 7486,
      "▁electrical": 7487,
      "▁reput": 7488,
      "▁dwarf": 7489,
      "▁jenn": 7490,
      "▁blink": 7491,
      "▁statue": 7492,
      "▁directly": 7493,
      "27": 7494,
      "▁ancest": 7495,
      "▁jacket": 7496,
      "▁demands": 7497,
      "▁interventions": 7498,
      "▁hit": 7499,
      "▁defining": 7500,
      "ht": 7501,
      "▁4.7": 7502,
      "▁subscrib": 7503,
      "▁abundant": 7504,
      "▁administrative": 7505,
      "▁unaccept": 7506,
      "▁crowd": 7507,
      "▁lur": 7508,
      "uffs": 7509,
      "gary": 7510,
      "▁tren": 7511,
      "-com": 7512,
      "thansa": 7513,
      "▁compassion": 7514,
      "▁org": 7515,
      ".m.": 7516,
      "bl": 7517,
      "▁compan": 7518,
      "________________________________": 7519,
      "▁superf": 7520,
      "▁ye": 7521,
      "ape": 7522,
      "▁app": 7523,
      "als": 7524,
      "▁harness": 7525,
      "▁pard": 7526,
      "▁strike": 7527,
      "▁turis": 7528,
      "▁condemn": 7529,
      "▁directions": 7530,
      "▁columb": 7531,
      "▁tru": 7532,
      "▁ger": 7533,
      "▁patt": 7534,
      "▁serpent": 7535,
      "▁mujahedeen": 7536,
      "eeze": 7537,
      "▁meanwhile": 7538,
      "▁elevator": 7539,
      "▁mos": 7540,
      "▁tract": 7541,
      "▁crown": 7542,
      "▁proclaimed": 7543,
      "▁saf": 7544,
      "▁22": 7545,
      "▁molly": 7546,
      "▁monkeys": 7547,
      "elly": 7548,
      "▁01/1": 7549,
      "▁yog": 7550,
      "br": 7551,
      "▁distributed": 7552,
      "▁fiscal": 7553,
      "▁steel": 7554,
      "othy": 7555,
      "▁soil": 7556,
      "▁styles": 7557,
      "▁surface": 7558,
      "▁hasidim": 7559,
      "▁bs": 7560,
      "▁influ": 7561,
      "▁explo": 7562,
      "▁lottery": 7563,
      "▁suffering": 7564,
      "▁teaspoon": 7565,
      "break": 7566,
      "▁feed": 7567,
      "▁start": 7568,
      "kind": 7569,
      "isible": 7570,
      "▁[...]": 7571,
      "▁evolve": 7572,
      "ح": 7573,
      "▁snack": 7574,
      "11": 7575,
      "▁stad": 7576,
      "▁sexually": 7577,
      "▁guards": 7578,
      "▁museums": 7579,
      "▁helmet": 7580,
      "▁convincing": 7581,
      "▁carn": 7582,
      "▁danc": 7583,
      "ops": 7584,
      "▁rejected": 7585,
      "▁control": 7586,
      "▁consum": 7587,
      "▁owl": 7588,
      "▁inning": 7589,
      "▁found": 7590,
      "▁gang": 7591,
      "▁complaining": 7592,
      "▁ep": 7593,
      "▁fir": 7594,
      "▁calculation": 7595,
      "▁offer": 7596,
      "▁coordination": 7597,
      "▁peop": 7598,
      "▁ench": 7599,
      "▁nier": 7600,
      "ww": 7601,
      "▁subway": 7602,
      "▁bag": 7603,
      "▁principles": 7604,
      "▁intellectual": 7605,
      "▁kitt": 7606,
      "▁due": 7607,
      "3-3744": 7608,
      "▁seventeenth": 7609,
      "▁dem": 7610,
      "inity": 7611,
      "-out": 7612,
      "▁fresh": 7613,
      "▁farmer": 7614,
      "ety": 7615,
      "iring": 7616,
      "▁pyr": 7617,
      "▁disability": 7618,
      "▁hind": 7619,
      "▁teleph": 7620,
      "▁remained": 7621,
      "▁`s": 7622,
      "▁recruiting": 7623,
      "▁forty-": 7624,
      "▁prospects": 7625,
      "▁horse": 7626,
      "ifications": 7627,
      "▁rel": 7628,
      "▁justice": 7629,
      "▁04": 7630,
      "91": 7631,
      "angu": 7632,
      "▁laundry": 7633,
      "▁hok": 7634,
      "arias": 7635,
      "▁pins": 7636,
      "▁ad": 7637,
      "▁profits": 7638,
      "exp": 7639,
      "▁718": 7640,
      "▁customers": 7641,
      "▁rolled": 7642,
      "ght": 7643,
      "ect": 7644,
      "▁jar": 7645,
      "pr": 7646,
      "▁airpl": 7647,
      "▁chef": 7648,
      "rella": 7649,
      "▁bou": 7650,
      "▁similarly": 7651,
      "▁curren": 7652,
      "▁importance": 7653,
      "▁smile": 7654,
      "▁adm": 7655,
      "▁silk": 7656,
      "▁grit": 7657,
      "▁yogurt": 7658,
      "▁crum": 7659,
      "▁colleges": 7660,
      "▁obligation": 7661,
      "-down": 7662,
      "▁vacuum": 7663,
      "▁gen": 7664,
      "▁texas": 7665,
      "▁backed": 7666,
      "▁02/27/2001": 7667,
      "▁gisb": 7668,
      "▁leonardo": 7669,
      "▁dusty": 7670,
      "▁climbing": 7671,
      "▁typical": 7672,
      "▁humor": 7673,
      "▁techn": 7674,
      "group": 7675,
      "7th": 7676,
      "▁fifty": 7677,
      "▁rene": 7678,
      "▁staircase": 7679,
      "▁pooh": 7680,
      "▁copied": 7681,
      "▁fox": 7682,
      "▁bab": 7683,
      "uv": 7684,
      "▁handed": 7685,
      "etic": 7686,
      "ending": 7687,
      "▁grace": 7688,
      "▁drunk": 7689,
      "▁comedie": 7690,
      "etically": 7691,
      "▁stillman": 7692,
      "▁river": 7693,
      "▁stopping": 7694,
      "▁emperor": 7695,
      "▁1230": 7696,
      "▁malf": 7697,
      "1.": 7698,
      "▁drops": 7699,
      "▁entrep": 7700,
      "▁returns": 7701,
      "▁injust": 7702,
      "▁lease": 7703,
      "▁catalog": 7704,
      "▁autom": 7705,
      "▁rested": 7706,
      "▁ped": 7707,
      "▁candy": 7708,
      "▁mills": 7709,
      "▁1970": 7710,
      "is": 7711,
      "▁economies": 7712,
      "▁antiqu": 7713,
      "▁jurisd": 7714,
      "▁exclaim": 7715,
      "ors": 7716,
      "▁next": 7717,
      "▁arrangements": 7718,
      "☎": 7719,
      "▁dill": 7720,
      "rian": 7721,
      "▁limitation": 7722,
      "▁fine": 7723,
      "▁rot": 7724,
      "▁>----------------------------------------------------------------------------": 7725,
      "▁fabio": 7726,
      "argument": 7727,
      "▁con": 7728,
      "▁proceed": 7729,
      "▁handle": 7730,
      "▁charge": 7731,
      "as": 7732,
      "▁fishing": 7733,
      "▁hed": 7734,
      "onathan": 7735,
      "\\": 7736,
      "▁muggles": 7737,
      "▁fled": 7738,
      "▁offers": 7739,
      "▁geor": 7740,
      "idays": 7741,
      "roid": 7742,
      "▁boring": 7743,
      "atisf": 7744,
      "▁intact": 7745,
      "▁africa": 7746,
      "▁wall": 7747,
      "▁show": 7748,
      "▁nasa": 7749,
      "▁shot": 7750,
      "▁instructor": 7751,
      "▁scrub": 7752,
      "▁ammunition": 7753,
      "▁memoir": 7754,
      "▁bassiana": 7755,
      "▁meth": 7756,
      "▁violation": 7757,
      "▁merchant": 7758,
      "▁congratulations": 7759,
      "iquette": 7760,
      "▁aside": 7761,
      "▁buzz": 7762,
      "▁percent": 7763,
      "▁informacion": 7764,
      "▁unload": 7765,
      "▁paid": 7766,
      "▁umbrella": 7767,
      "▁handsome": 7768,
      "▁vend": 7769,
      "▁till": 7770,
      "▁examine": 7771,
      "▁receive": 7772,
      "▁ted": 7773,
      "eric": 7774,
      "▁charles": 7775,
      "ennese": 7776,
      "▁curse": 7777,
      "▁backward": 7778,
      "▁flights": 7779,
      "▁76": 7780,
      "▁form": 7781,
      "▁conceived": 7782,
      "▁comment": 7783,
      "▁newsp": 7784,
      "▁seattle": 7785,
      "▁boost": 7786,
      "▁860": 7787,
      "▁discrim": 7788,
      "500": 7789,
      "▁described": 7790,
      "▁ey": 7791,
      "▁veto": 7792,
      "▁exactly": 7793,
      "▁come": 7794,
      "▁event": 7795,
      "▁fortune": 7796,
      "onc": 7797,
      "adar": 7798,
      "gami": 7799,
      "▁marilyn": 7800,
      "▁stories": 7801,
      "▁cy": 7802,
      "▁frozen": 7803,
      "▁dans": 7804,
      "▁neighbors": 7805,
      "▁mm": 7806,
      "▁phillip": 7807,
      "▁memorable": 7808,
      "▁re": 7809,
      "iqu": 7810,
      "illing": 7811,
      "▁sunken": 7812,
      "▁lim": 7813,
      "▁gone": 7814,
      "ender": 7815,
      "▁zip": 7816,
      "worm": 7817,
      "▁cir": 7818,
      "▁gam": 7819,
      "▁genuine": 7820,
      "▁strain": 7821,
      "mec": 7822,
      "▁bowling": 7823,
      "▁shower": 7824,
      "▁.xsl": 7825,
      "▁presently": 7826,
      "▁grid": 7827,
      "▁volunt": 7828,
      "▁alth": 7829,
      "▁princess": 7830,
      "▁income": 7831,
      "▁willow": 7832,
      "▁sufficient": 7833,
      "▁210": 7834,
      "▁elena": 7835,
      "▁luc": 7836,
      "▁liberal": 7837,
      "▁globe": 7838,
      "▁entire": 7839,
      "gre": 7840,
      "▁noble": 7841,
      "▁eleven": 7842,
      "▁300,000": 7843,
      "70": 7844,
      "▁wool": 7845,
      "▁gorbachev": 7846,
      "▁certific": 7847,
      "io": 7848,
      "▁mant": 7849,
      "y": 7850,
      "▁cupcake": 7851,
      "7/99": 7852,
      "ising": 7853,
      "▁pro": 7854,
      "▁set": 7855,
      "▁obliged": 7856,
      "▁1968": 7857,
      "▁soldier": 7858,
      "▁after": 7859,
      "▁nights": 7860,
      "pool": 7861,
      "▁fabric": 7862,
      "▁casualties": 7863,
      "****": 7864,
      "▁24,000": 7865,
      "ها": 7866,
      "ue": 7867,
      "▁0.00": 7868,
      "▁heather": 7869,
      "▁lesson": 7870,
      "▁harbor": 7871,
      "▁fuck": 7872,
      "▁____________________________________________________________": 7873,
      "…": 7874,
      "▁establishment": 7875,
      "▁sett": 7876,
      ".cl": 7877,
      "▁resume": 7878,
      "▁neurol": 7879,
      "▁auckland": 7880,
      "father": 7881,
      "▁anxious": 7882,
      "▁barger": 7883,
      "..": 7884,
      "▁flew": 7885,
      "▁reversal": 7886,
      "▁paragraph": 7887,
      "▁audience": 7888,
      "▁nz": 7889,
      "▁1594": 7890,
      "▁totally": 7891,
      "▁performed": 7892,
      "▁addresses": 7893,
      "▁liver": 7894,
      "▁himself": 7895,
      "▁disney": 7896,
      "99": 7897,
      "▁planned": 7898,
      "▁exploring": 7899,
      "hi": 7900,
      "▁plaintiffs": 7901,
      "▁1952": 7902,
      "▁coll": 7903,
      "▁telephone": 7904,
      "var": 7905,
      "▁forster@enron": 7906,
      "▁tabennese": 7907,
      "▁horn": 7908,
      "▁owns": 7909,
      "▁governmental": 7910,
      "paul": 7911,
      "une": 7912,
      "▁mark": 7913,
      "innis": 7914,
      "1696": 7915,
      "uary": 7916,
      "▁banjo": 7917,
      "hh": 7918,
      "▁needles": 7919,
      "▁cultures": 7920,
      "▁soda": 7921,
      "▁recording": 7922,
      "&e": 7923,
      "▁groom": 7924,
      "▁1584": 7925,
      "▁ghost": 7926,
      "▁scheduled": 7927,
      "▁tanks": 7928,
      "▁manag": 7929,
      "▁into": 7930,
      "▁delivery": 7931,
      "ables": 7932,
      "▁witness": 7933,
      "▁it's": 7934,
      "▁states": 7935,
      "▁afterwards": 7936,
      "asc": 7937,
      "▁diseases": 7938,
      "d-#693": 7939,
      "▁coast": 7940,
      "▁chances": 7941,
      "gers": 7942,
      "▁perfect": 7943,
      "▁senators": 7944,
      "get": 7945,
      "▁produc": 7946,
      "▁encouraged": 7947,
      "▁manufactur": 7948,
      "▁eyes": 7949,
      "zo": 7950,
      "▁atop": 7951,
      "▁ninety": 7952,
      "389": 7953,
      "▁sydney": 7954,
      "▁asked": 7955,
      "▁conference": 7956,
      "▁proposals": 7957,
      "▁closing": 7958,
      "athy": 7959,
      "▁leonard": 7960,
      "ν": 7961,
      "ancing": 7962,
      "▁realizing": 7963,
      "▁remove": 7964,
      "ument": 7965,
      "ongss": 7966,
      "[UNK]": 7967,
      "▁sold": 7968,
      "▁hosp": 7969,
      "▁180": 7970,
      "▁aims": 7971,
      "▁consc": 7972,
      "▁11:00": 7973,
      "cel": 7974,
      "▁airplane": 7975,
      "eing": 7976,
      "▁linda": 7977,
      "▁crib": 7978,
      "▁painful": 7979,
      "▁blocks": 7980,
      "▁ign": 7981,
      "▁pipeline": 7982,
      "▁cosm": 7983,
      "▁skill": 7984,
      "▁8:30": 7985,
      "▁queries": 7986,
      "▁stink": 7987,
      "atm": 7988,
      "▁mosc": 7989,
      "ains": 7990,
      "naissance": 7991,
      "▁communities": 7992,
      "▁voices": 7993,
      "▁adapted": 7994,
      "▁explains": 7995,
      "▁courtney": 7996,
      "▁deput": 7997,
      "▁ursula": 7998,
      "ones": 7999,
      "▁ask": 8000,
      "▁pink": 8001,
      "rom": 8002,
      "▁middle": 8003,
      "o.": 8004,
      "aste": 8005,
      "▁spacetime": 8006,
      "▁lumin": 8007,
      "▁seventh": 8008,
      "mar": 8009,
      "▁hold": 8010,
      "▁newly": 8011,
      "▁revers": 8012,
      "▁cuis": 8013,
      "▁ostr": 8014,
      "▁detail": 8015,
      "▁strictly": 8016,
      "▁diplomats": 8017,
      "▁holoca": 8018,
      "▁acknowled": 8019,
      "▁hee": 8020,
      "▁jews": 8021,
      "▁midwest": 8022,
      "▁oval": 8023,
      "▁colours": 8024,
      "▁spit": 8025,
      "▁scrap": 8026,
      "▁commonplace": 8027,
      "▁assemble": 8028,
      "bby": 8029,
      "▁hurried": 8030,
      "▁removed": 8031,
      "ar": 8032,
      "▁gif": 8033,
      "▁haf": 8034,
      "▁jeans": 8035,
      "▁weakened": 8036,
      "yl": 8037,
      "▁biological": 8038,
      "▁locations": 8039,
      "▁burn": 8040,
      "▁wal": 8041,
      "lect": 8042,
      "▁comes": 8043,
      "▁mariner": 8044,
      "▁serv": 8045,
      "▁conn": 8046,
      "▁transformation": 8047,
      "▁linked": 8048,
      "▁27": 8049,
      "▁desperately": 8050,
      "▁luther": 8051,
      "▁contracts": 8052,
      "▁wider": 8053,
      "▁unlimited": 8054,
      "▁destinations": 8055,
      "▁disappearance": 8056,
      "▁evacuated": 8057,
      "etics": 8058,
      "▁cold": 8059,
      "reen": 8060,
      "ologically": 8061,
      "▁views": 8062,
      "▁poll": 8063,
      "pdf": 8064,
      "▁billing": 8065,
      "▁prof": 8066,
      "▁former": 8067,
      "▁chute": 8068,
      "▁buttered": 8069,
      "▁emp": 8070,
      "▁maple": 8071,
      "▁pretending": 8072,
      "▁monumental": 8073,
      "verse": 8074,
      "▁policy": 8075,
      "▁warming": 8076,
      "stip": 8077,
      "-faced": 8078,
      "▁jean": 8079,
      "▁vod": 8080,
      "▁diag": 8081,
      "▁hammer": 8082,
      "▁craft": 8083,
      "▁gosp": 8084,
      "▁outdoors": 8085,
      "dron": 8086,
      "aneous": 8087,
      "▁tim": 8088,
      "▁phys": 8089,
      "▁1,6": 8090,
      "una": 8091,
      "▁bathtub": 8092,
      "▁accomm": 8093,
      "▁institute": 8094,
      ".un": 8095,
      "▁aro": 8096,
      "▁mice": 8097,
      "▁intentions": 8098,
      "▁carl": 8099,
      "▁booking": 8100,
      "▁fridays": 8101,
      "ieu": 8102,
      "▁fish": 8103,
      "tax": 8104,
      "▁investigate": 8105,
      "▁twa": 8106,
      "▁k": 8107,
      "ments": 8108,
      "▁110": 8109,
      "▁rever": 8110,
      "▁sunshine": 8111,
      "▁1950": 8112,
      "▁referee": 8113,
      "▁packages": 8114,
      "▁taipe": 8115,
      "▁farm": 8116,
      "▁189": 8117,
      "oven": 8118,
      "▁gdp": 8119,
      "▁forbidden": 8120,
      "▁281-435-0295": 8121,
      "▁self-": 8122,
      "▁!!!!": 8123,
      "ier": 8124,
      "utz": 8125,
      "▁avoid": 8126,
      "▁bes": 8127,
      "▁have": 8128,
      ".4": 8129,
      "▁essence": 8130,
      "▁depends": 8131,
      "xual": 8132,
      "▁holly": 8133,
      "▁returning": 8134,
      "rates": 8135,
      "▁brightness": 8136,
      "▁vene": 8137,
      "▁1592": 8138,
      "▁book": 8139,
      "▁knee": 8140,
      "alities": 8141,
      "▁affect": 8142,
      "eros": 8143,
      "▁obtained": 8144,
      "▁3.1": 8145,
      "60s": 8146,
      "▁w": 8147,
      "▁impossible": 8148,
      "▁’d": 8149,
      "▁lid": 8150,
      "▁scream": 8151,
      "▁lou": 8152,
      "enda": 8153,
      "▁initially": 8154,
      "come": 8155,
      "▁unfold": 8156,
      "/10/2004": 8157,
      "▁firefox": 8158,
      "▁lott": 8159,
      "▁ag": 8160,
      "▁nom": 8161,
      "▁fighting": 8162,
      "▁sag": 8163,
      ".n": 8164,
      "▁bro": 8165,
      "▁prob": 8166,
      "▁bath+room": 8167,
      "▁path": 8168,
      "▁sched": 8169,
      "▁reint": 8170,
      "▁separation": 8171,
      "▁scared": 8172,
      "▁sweater": 8173,
      "▁survive": 8174,
      "nn": 8175,
      "▁photographer": 8176,
      "▁poland": 8177,
      "adays": 8178,
      "▁prevention": 8179,
      "393": 8180,
      "▁encounter": 8181,
      "▁through": 8182,
      "▁apar": 8183,
      "bre": 8184,
      "▁ebs": 8185,
      "ass": 8186,
      "▁frustration": 8187,
      "▁ital": 8188,
      "▁compon": 8189,
      "ust": 8190,
      "▁supported": 8191,
      "▁adoption": 8192,
      "▁elder": 8193,
      "▁rocky": 8194,
      "▁season": 8195,
      "▁technique": 8196,
      "▁pitter": 8197,
      "▁obsession": 8198,
      "▁seam": 8199,
      "ato": 8200,
      "sylv": 8201,
      "▁aging": 8202,
      "▁herm": 8203,
      "index": 8204,
      "-f": 8205,
      "▁inland": 8206,
      "▁resumed": 8207,
      "▁feb.": 8208,
      "▁eighty": 8209,
      "▁report": 8210,
      "ploy": 8211,
      "▁lick": 8212,
      "jamas": 8213,
      "fet": 8214,
      "▁scattered": 8215,
      "▁sil": 8216,
      "ug": 8217,
      "▁ig": 8218,
      "▁interstellar": 8219,
      "▁conditions": 8220,
      "▁manufact": 8221,
      "▁healing": 8222,
      "most": 8223,
      "▁discom": 8224,
      "ody": 8225,
      "▁east": 8226,
      "▁joan": 8227,
      "▁measure": 8228,
      "bles": 8229,
      "▁surgery": 8230,
      "tered": 8231,
      "▁steak": 8232,
      "▁fer": 8233,
      "▁incl": 8234,
      "▁limitations": 8235,
      "▁scent": 8236,
      "▁netherlands": 8237,
      "▁gib": 8238,
      "▁wishes": 8239,
      "▁grumbles": 8240,
      "▁evelyn": 8241,
      "▁23rd": 8242,
      "▁severe": 8243,
      "▁biting": 8244,
      "oameric": 8245,
      "▁industry": 8246,
      "▁sw": 8247,
      "▁lot": 8248,
      ".85": 8249,
      "▁abund": 8250,
      "/03": 8251,
      "▁tran": 8252,
      "▁riverside": 8253,
      "▁sars": 8254,
      "▁n": 8255,
      "▁andrillae": 8256,
      "^": 8257,
      "▁managers": 8258,
      "ς": 8259,
      "▁ring": 8260,
      "▁sally": 8261,
      "▁pine": 8262,
      "▁5": 8263,
      "ood": 8264,
      "▁934": 8265,
      "▁reporter": 8266,
      "▁refrigerator": 8267,
      "▁probability": 8268,
      "onymous": 8269,
      "▁belongs": 8270,
      "▁6:30": 8271,
      "ife": 8272,
      "▁priv": 8273,
      "▁ackn": 8274,
      "▁bce": 8275,
      "iet": 8276,
      "ill": 8277,
      "▁crop": 8278,
      "ling": 8279,
      "raw": 8280,
      "▁notwithstanding": 8281,
      "▁haha": 8282,
      "▁backup": 8283,
      "▁insist": 8284,
      "▁838": 8285,
      "▁1.75": 8286,
      "▁issue": 8287,
      "nondel": 8288,
      "2-": 8289,
      "▁punchline": 8290,
      "<": 8291,
      "▁aged": 8292,
      "▁engaged": 8293,
      "▁crush": 8294,
      "▁bunn": 8295,
      "oys": 8296,
      "▁thri": 8297,
      "▁fee": 8298,
      "▁nineteenth": 8299,
      "▁pen": 8300,
      "▁forty-eight": 8301,
      "▁notions": 8302,
      "39": 8303,
      "▁315-460-3": 8304,
      "79": 8305,
      "lebr": 8306,
      "▁greenhouse": 8307,
      "▁bureaucr": 8308,
      "▁moussaoui": 8309,
      "▁don": 8310,
      "o": 8311,
      "ote": 8312,
      "-7": 8313,
      "▁bengal": 8314,
      "▁lyr": 8315,
      "▁cleaned": 8316,
      "▁waive": 8317,
      "▁166": 8318,
      "▁preval": 8319,
      "ox": 8320,
      "▁desperate": 8321,
      "▁memor": 8322,
      "box": 8323,
      "▁hurts": 8324,
      "friend": 8325,
      "▁product": 8326,
      "▁conquer": 8327,
      "▁sympt": 8328,
      "▁earliest": 8329,
      "onto": 8330,
      "▁others": 8331,
      "order": 8332,
      "rew": 8333,
      "▁pack": 8334,
      "▁stir": 8335,
      "▁fright": 8336,
      "▁eol": 8337,
      "▁1222": 8338,
      "▁quix": 8339,
      "▁tut": 8340,
      "uced": 8341,
      "ste": 8342,
      "/s": 8343,
      "run": 8344,
      "▁musician": 8345,
      "▁1300": 8346,
      "▁paths": 8347,
      "k.": 8348,
      "▁construct": 8349,
      "--------": 8350,
      "▁sc": 8351,
      "▁branch": 8352,
      "▁flowing": 8353,
      "▁titled": 8354,
      "▁national": 8355,
      "▁crime": 8356,
      "▁enterprise": 8357,
      "▁game": 8358,
      ",500": 8359,
      "brew": 8360,
      "▁01/2": 8361,
      "▁workforce": 8362,
      "oard": 8363,
      "▁many": 8364,
      "▁longer": 8365,
      "▁entrepreneurial": 8366,
      "▁indians": 8367,
      "▁hier": 8368,
      "▁laden": 8369,
      "▁experiments": 8370,
      "▁notified": 8371,
      "▁frederick": 8372,
      "ablish": 8373,
      "▁hors": 8374,
      "▁him": 8375,
      "▁wik": 8376,
      "oted": 8377,
      "embers": 8378,
      "▁paren": 8379,
      "▁1920": 8380,
      "▁217": 8381,
      "▁phill": 8382,
      "ality": 8383,
      "▁bringing": 8384,
      "ogn": 8385,
      "▁brothers": 8386,
      "len": 8387,
      "odes": 8388,
      "▁ref": 8389,
      "▁8:00": 8390,
      "▁bland": 8391,
      "▁goode": 8392,
      "8/2001": 8393,
      "▁commitment": 8394,
      "▁interview": 8395,
      "char": 8396,
      "▁pa": 8397,
      "▁interval": 8398,
      "▁mike": 8399,
      "▁leigh": 8400,
      "onda": 8401,
      "▁770": 8402,
      "▁direct": 8403,
      "itters": 8404,
      "▁expansion": 8405,
      "▁pass": 8406,
      "ior": 8407,
      "idden": 8408,
      "-20": 8409,
      "▁bomb": 8410,
      "c.": 8411,
      "▁photos": 8412,
      "▁lock": 8413,
      "▁pointing": 8414,
      "▁unfortunate": 8415,
      "▁check": 8416,
      "▁hence": 8417,
      "▁03/09/2000": 8418,
      "▁35": 8419,
      "▁barbara": 8420,
      "▁rude": 8421,
      "▁bailey": 8422,
      "▁man": 8423,
      "▁concert": 8424,
      "ford": 8425,
      "min": 8426,
      "▁j.": 8427,
      "▁rag": 8428,
      "▁chest": 8429,
      "veria": 8430,
      "atory": 8431,
      "▁theory": 8432,
      "▁800": 8433,
      "@enron_development": 8434,
      "▁should": 8435,
      "▁1774": 8436,
      "▁oath": 8437,
      "▁ple": 8438,
      "day": 8439,
      "nal": 8440,
      "▁dud": 8441,
      "▁thoughts": 8442,
      "theless": 8443,
      "▁demonstrates": 8444,
      ".doc": 8445,
      "▁veins": 8446,
      "▁transwestern": 8447,
      "▁chicago": 8448,
      "▁richard": 8449,
      "-1": 8450,
      "▁frontier": 8451,
      "inary": 8452,
      "iana": 8453,
      "6/": 8454,
      "u": 8455,
      "▁caul": 8456,
      "▁alice": 8457,
      "▁progressive": 8458,
      "▁sadr": 8459,
      "▁reaches": 8460,
      "oton": 8461,
      "▁selected": 8462,
      "▁invented": 8463,
      "place": 8464,
      "▁attempts": 8465,
      ".net/": 8466,
      "▁asyl": 8467,
      "▁festivals": 8468,
      "▁jump": 8469,
      "agement": 8470,
      "▁procrast": 8471,
      "▁squirt": 8472,
      "▁nin": 8473,
      "▁race": 8474,
      "▁yorkshire": 8475,
      "omatic": 8476,
      "▁prosecution": 8477,
      "▁securing": 8478,
      "▁dual": 8479,
      "▁cat": 8480,
      "▁b/": 8481,
      "▁interconn": 8482,
      "▁gramm": 8483,
      "▁cheeks": 8484,
      "▁concern": 8485,
      "zer": 8486,
      "wh": 8487,
      "▁pret": 8488,
      "▁der": 8489,
      "▁film": 8490,
      "▁so": 8491,
      "▁comb": 8492,
      "icious": 8493,
      "▁pirates": 8494,
      "isp": 8495,
      "▁substit": 8496,
      "▁politically": 8497,
      "▁beau": 8498,
      "▁bruce": 8499,
      "▁castle": 8500,
      "unct": 8501,
      "▁relent": 8502,
      "▁brenner": 8503,
      "aine": 8504,
      "▁sandra": 8505,
      "ico": 8506,
      "▁nationality": 8507,
      "▁viewing": 8508,
      "▁going": 8509,
      "▁b": 8510,
      "▁dream": 8511,
      "▁peanut": 8512,
      "▁bel": 8513,
      "▁!!!!!!!!!!": 8514,
      "▁dorm": 8515,
      "opoly": 8516,
      "▁ski": 8517,
      "▁audio": 8518,
      "▁exped": 8519,
      "▁iii": 8520,
      "▁penc": 8521,
      "▁soot": 8522,
      "▁cooked": 8523,
      "issions": 8524,
      "▁truly": 8525,
      "ix": 8526,
      "▁705": 8527,
      "▁guerrillas": 8528,
      "iation": 8529,
      "ested": 8530,
      "▁bu": 8531,
      "eco": 8532,
      "▁reflected": 8533,
      "▁strengthening": 8534,
      "▁unn": 8535,
      "▁scope": 8536,
      "▁preparation": 8537,
      "▁financially": 8538,
      "able": 8539,
      "▁king": 8540,
      "▁millions": 8541,
      "▁thirty-": 8542,
      "▁revenues": 8543,
      "real": 8544,
      "▁legisl": 8545,
      "▁cocktail": 8546,
      "uing": 8547,
      "▁merely": 8548,
      "▁scoring": 8549,
      "ansas": 8550,
      "cent": 8551,
      "▁trial": 8552,
      "▁tot": 8553,
      "orial": 8554,
      "ys": 8555,
      "▁indic": 8556,
      "ocado": 8557,
      "▁two": 8558,
      "▁protected": 8559,
      "▁1928": 8560,
      "ie": 8561,
      "▁t-": 8562,
      "▁contents": 8563,
      "▁1820": 8564,
      "▁fares": 8565,
      "▁coo": 8566,
      "▁guilt": 8567,
      "▁schemes": 8568,
      "...@gmail.com": 8569,
      "istor": 8570,
      "▁caucas": 8571,
      "▁rapidly": 8572,
      "▁preserve": 8573,
      "▁establishing": 8574,
      "wick": 8575,
      "icop": 8576,
      "▁wealthy": 8577,
      "▁thursday": 8578,
      "▁dis": 8579,
      "@enron_de": 8580,
      "ock": 8581,
      "▁split": 8582,
      "▁prevail": 8583,
      "▁smart": 8584,
      "▁consciousness": 8585,
      "▁worn": 8586,
      "▁controversial": 8587,
      "▁gle": 8588,
      "oph": 8589,
      "▁-----------------------------------------------------------------": 8590,
      "7": 8591,
      "▁dh": 8592,
      "▁manuela": 8593,
      "▁cabinet": 8594,
      "bon": 8595,
      "▁mangal": 8596,
      "▁lor": 8597,
      "▁murderer": 8598,
      "▁laughs": 8599,
      "▁arkansas": 8600,
      "▁gm": 8601,
      "▁28,000": 8602,
      "▁toast": 8603,
      "▁gallon": 8604,
      "▁olmec": 8605,
      "▁gri": 8606,
      "▁ian": 8607,
      "▁way": 8608,
      "ji": 8609,
      "▁second": 8610,
      "▁arvn": 8611,
      "▁ferc": 8612,
      "▁mill": 8613,
      "~*~*": 8614,
      "▁sara": 8615,
      "▁warned": 8616,
      "▁genius": 8617,
      "▁liberty": 8618,
      "▁was": 8619,
      "▁poverty": 8620,
      "▁elimin": 8621,
      "3rd": 8622,
      "▁240": 8623,
      "▁territories": 8624,
      "▁charitable": 8625,
      "▁preferences": 8626,
      "owning": 8627,
      "▁listing": 8628,
      "▁bludgers": 8629,
      "irs": 8630,
      "▁restaurants": 8631,
      "iqui": 8632,
      "ace": 8633,
      "▁mosquitoes": 8634,
      "▁soft": 8635,
      "▁expecting": 8636,
      "▁agent": 8637,
      "▁connection": 8638,
      "▁baggage": 8639,
      "▁aftermath": 8640,
      "▁million": 8641,
      "461": 8642,
      "▁adv": 8643,
      "▁clan": 8644,
      "usters": 8645,
      "▁drain": 8646,
      "▁uhh": 8647,
      "▁alliance": 8648,
      "ored": 8649,
      "▁filed": 8650,
      "▁wi": 8651,
      "/01": 8652,
      "▁partly": 8653,
      "j": 8654,
      "▁clear": 8655,
      "▁needed": 8656,
      "▁arafat": 8657,
      "leum": 8658,
      "▁operation": 8659,
      "▁evidence": 8660,
      "▁hor": 8661,
      "▁jih": 8662,
      "▁peace": 8663,
      "▁lonely": 8664,
      "▁landscape": 8665,
      "▁significantly": 8666,
      "▁image": 8667,
      "▁girlfriend": 8668,
      "▁figures": 8669,
      "▁ip": 8670,
      "▁career": 8671,
      "▁revealed": 8672,
      "▁separate": 8673,
      "▁pear": 8674,
      "▁shif": 8675,
      "▁martyrs": 8676,
      "▁mommy": 8677,
      "▁lig": 8678,
      "▁engels": 8679,
      "▁mcdonald": 8680,
      "▁ecs": 8681,
      "▁expenses": 8682,
      "▁select": 8683,
      "▁glo": 8684,
      "▁mel": 8685,
      "▁glowing": 8686,
      "▁yea": 8687,
      "ted": 8688,
      "▁lipsticks": 8689,
      "▁though": 8690,
      "▁stup": 8691,
      "▁utah": 8692,
      "ml": 8693,
      "▁1-8": 8694,
      "▁vast": 8695,
      "iots": 8696,
      "▁defense": 8697,
      "▁gaps": 8698,
      "hastings.com": 8699,
      "▁philly": 8700,
      "▁ox": 8701,
      "▁gained": 8702,
      "ck": 8703,
      "star": 8704,
      "▁walked": 8705,
      "▁giving": 8706,
      "s/": 8707,
      "cond": 8708,
      "▁zo": 8709,
      "▁fortun": 8710,
      "▁kay": 8711,
      "8/2000": 8712,
      "▁ending": 8713,
      "▁liquidation": 8714,
      "▁wrongdo": 8715,
      "▁olymp": 8716,
      "▁coverage": 8717,
      "acked": 8718,
      "ieth": 8719,
      "station": 8720,
      "arians": 8721,
      "▁spokesman": 8722,
      "▁aaf": 8723,
      "▁chalmers": 8724,
      "-on": 8725,
      "▁✉": 8726,
      "111": 8727,
      "▁penny": 8728,
      "▁nc": 8729,
      "oks": 8730,
      "ites": 8731,
      "etheless": 8732,
      "▁known": 8733,
      "▁ms": 8734,
      "▁anger": 8735,
      "self": 8736,
      "▁11/29/2000": 8737,
      "▁beside": 8738,
      "▁bumpa": 8739,
      "orse": 8740,
      "yth": 8741,
      "▁kang": 8742,
      "▁displac": 8743,
      "▁damascus": 8744,
      "roe": 8745,
      "ternal": 8746,
      "://": 8747,
      "▁grip": 8748,
      "▁calls": 8749,
      "▁id": 8750,
      "ω": 8751,
      "▁backpack": 8752,
      "▁michelle": 8753,
      "ppo": 8754,
      "==============": 8755,
      "▁wise": 8756,
      "▁required": 8757,
      "▁californ": 8758,
      "ye": 8759,
      "▁1940": 8760,
      ".713.86": 8761,
      "▁dominated": 8762,
      "▁hands": 8763,
      "▁twelf": 8764,
      "▁britt": 8765,
      "▁guacamole": 8766,
      "▁play+ground": 8767,
      "▁”": 8768,
      "▁innovation": 8769,
      "▁hod": 8770,
      "um": 8771,
      "▁gives": 8772,
      "▁provinc": 8773,
      "six": 8774,
      "▁wikipedia": 8775,
      "▁paulo": 8776,
      "▁eb": 8777,
      "▁lands": 8778,
      "▁blame": 8779,
      "▁useless": 8780,
      "▁florida": 8781,
      "-------": 8782,
      "it": 8783,
      "▁whilst": 8784,
      "▁sights": 8785,
      "▁art": 8786,
      "▁carrier": 8787,
      "▁aafia": 8788,
      "iest": 8789,
      "▁handful": 8790,
      "▁graph": 8791,
      "▁paseo": 8792,
      "log": 8793,
      "▁delays": 8794,
      "▁bucket": 8795,
      "▁20:00": 8796,
      "▁tail": 8797,
      "essed": 8798,
      "▁fry": 8799,
      "big": 8800,
      "osh": 8801,
      "▁vaguely": 8802,
      "▁bothered": 8803,
      ".ur": 8804,
      "gel": 8805,
      "▁☎": 8806,
      "▁specified": 8807,
      "▁nov": 8808,
      "▁implementation": 8809,
      "▁midas": 8810,
      ".916.718": 8811,
      "▁concerned": 8812,
      "uries": 8813,
      "▁wan": 8814,
      "▁exper": 8815,
      "ul": 8816,
      "fk": 8817,
      "▁losses": 8818,
      "mail": 8819,
      "▁3,202": 8820,
      "▁allocated": 8821,
      "▁designer": 8822,
      "▁boot": 8823,
      "tica": 8824,
      "esday": 8825,
      "aired": 8826,
      "▁minerals": 8827,
      "▁approach": 8828,
      "▁compar": 8829,
      "ility": 8830,
      "▁hugh": 8831,
      "▁shrimp": 8832,
      "▁270": 8833,
      "▁firms": 8834,
      "▁coupons": 8835,
      "▁pil": 8836,
      "▁1.4": 8837,
      "▁transl": 8838,
      "▁explic": 8839,
      "▁jul": 8840,
      "▁bass": 8841,
      "▁stap": 8842,
      "▁2,": 8843,
      "▁urge": 8844,
      "▁alread": 8845,
      "lear": 8846,
      "▁415": 8847,
      "▁scamm": 8848,
      "▁genetically": 8849,
      "▁perse": 8850,
      "▁nationwide": 8851,
[...]
