{
  "version": "1.0",
  "truncation": null,
  "padding": null,
  "added_tokens": [
    {
      "id": 2402,
      "content": "[SEP]",
      "single_word": false,
      "lstrip": false,
      "rstrip": false,
      "normalized": false,
      "special": true
    },
    {
      "id": 3989,
      "content": "[UNK]",
      "single_word": false,
      "lstrip": false,
      "rstrip": false,
      "normalized": false,
      "special": true
    },
    {
      "id": 5002,
      "content": "[MASK]",
      "single_word": false,
      "lstrip": false,
      "rstrip": false,
      "normalized": false,
      "special": true
    },
    {
      "id": 6564,
      "content": "[PAD]",
      "single_word": false,
      "lstrip": false,
      "rstrip": false,
      "normalized": false,
      "special": true
    },
    {
      "id": 6665,
      "content": "[CLS]",
      "single_word": false,
      "lstrip": false,
      "rstrip": false,
      "normalized": false,
      "special": true
    }
  ],
  "normalizer": {
    "type": "Sequence",
    "normalizers": [
      {
        "type": "NFD"
      },
      {
        "type": "Lowercase"
      },
      {
        "type": "StripAccents"
      }
    ]
  },
  "pre_tokenizer": {
    "type": "Sequence",
    "pretokenizers": [
      {
        "type": "Metaspace",
        "replacement": "▁",
        "prepend_scheme": "always",
        "split": true
      }
    ]
  },
  "post_processor": {
    "type": "TemplateProcessing",
    "single": [
      {
        "SpecialToken": {
          "id": "[CLS]",
          "type_id": 0
        }
      },
      {
        "Sequence": {
          "id": "A",
          "type_id": 0
        }
      },
      {
        "SpecialToken": {
          "id": "[SEP]",
          "type_id": 0
        }
      }
    ],
    "pair": [
      {
        "SpecialToken": {
          "id": "[CLS]",
          "type_id": 0
        }
      },
      {
        "Sequence": {
          "id": "A",
          "type_id": 0
        }
      },
      {
        "SpecialToken": {
          "id": "[SEP]",
          "type_id": 0
        }
      },
      {
        "Sequence": {
          "id": "B",
          "type_id": 1
        }
      },
      {
        "SpecialToken": {
          "id": "[SEP]",
          "type_id": 1
        }
      }
    ],
    "special_tokens": {
      "[CLS]": {
        "id": "[CLS]",
        "ids": [
          6665
        ],
        "tokens": [
          "[CLS]"
        ]
      },
      "[SEP]": {
        "id": "[SEP]",
        "ids": [
          2402
        ],
        "tokens": [
          "[SEP]"
        ]
      }
    }
  },
  "decoder": {
    "type": "Metaspace",
    "replacement": "▁",
    "prepend_scheme": "always",
    "split": true
  },
  "model": {
    "type": "BPE",
    "dropout": null,
    "unk_token": "[UNK]",
    "continuing_subword_prefix": null,
    "end_of_word_suffix": null,
    "fuse_unk": false,
    "byte_fallback": false,
    "ignore_merges": false,
    "vocab": {
      "▁controls": 0,
      "one": 1,
      "▁translation": 2,
      "▁complex": 3,
      "▁wealth": 4,
      "ublic": 5,
      "▁713-853-3098": 6,
      "way": 7,
      "▁astride": 8,
      "▁sch": 9,
      "▁.3": 10,
      "▁10:30": 11,
      "ster": 12,
      "▁343": 13,
      "▁aim": 14,
      "▁attention": 15,
      "▁encab": 16,
      "▁noone": 17,
      "ible": 18,
      "▁7:00": 19,
      "▁inst": 20,
      "▁09/15/99": 21,
      "▁general": 22,
      "▁tex": 23,
      "▁repres": 24,
      "▁ran": 25,
      "谿": 26,
      "▁turning": 27,
      "72": 28,
      "▁rid": 29,
      "▁lady": 30,
      "▁body": 31,
      "esome": 32,
      "▁tv": 33,
      "▁columbus": 34,
      "▁person": 35,
      "▁cha": 36,
      "▁relevant": 37,
      ".11": 38,
      "iew": 39,
      "▁sexual": 40,
      "▁1965": 41,
      "▁08/03": 42,
      "rant": 43,
      "▁acts": 44,
      "▁345-99": 45,
      "▁32": 46,
      "ating": 47,
      "ages": 48,
      "▁dragon": 49,
      "▁cast": 50,
      "▁display": 51,
      ".d": 52,
      "ap": 53,
      "ane": 54,
      "▁alberta": 55,
      "▁om": 56,
      "▁forever": 57,
      "▁simply": 58,
      "▁12/2": 59,
      "▁receiving": 60,
      "▁chief": 61,
      "▁channel": 62,
      "s": 63,
      "ified": 64,
      "act": 65,
      "▁on": 66,
      "▁city": 67,
      "▁suck": 68,
      "ule": 69,
      "▁03:20": 70,
      "▁gar": 71,
      "▁hamm": 72,
      "ban": 73,
      "▁ingred": 74,
      "▁646-84": 75,
      "▁shall": 76,
      "ience": 77,
      "▁^": 78,
      "▁-2-f.doc": 79,
      ">===": 80,
      "▁favor": 81,
      "▁deep": 82,
      "▁insp": 83,
      "▁unit": 84,
      "▁leg": 85,
      "▁dogs": 86,
      "▁sto": 87,
      "ene": 88,
      "▁ha": 89,
      "▁04:": 90,
      "▁pu": 91,
      "m": 92,
      "▁pop": 93,
      "▁car": 94,
      "▁calif": 95,
      "___________": 96,
      "▁diss": 97,
      "8-3": 98,
      "▁older": 99,
      "▁group": 100,
      "▁furn": 101,
      "▁outside": 102,
      "▁formed": 103,
      "▁experiences": 104,
      "▁took": 105,
      "unic": 106,
      "▁wants": 107,
      "▁bones": 108,
      "▁tell": 109,
      "▁cent": 110,
      "isco": 111,
      "▁busy": 112,
      "ans": 113,
      "▁___________": 114,
      "fe": 115,
      "▁traged": 116,
      "▁tast": 117,
      "▁??": 118,
      "▁infl": 119,
      "▁received": 120,
      "e@enron": 121,
      "ε": 122,
      "▁palacio": 123,
      "▁about": 124,
      "▁too": 125,
      "ructure": 126,
      "vers": 127,
      "3098": 128,
      "▁ships": 129,
      "▁scott": 130,
      "arent": 131,
      "▁-": 132,
      "▁satisf": 133,
      "▁coc": 134,
      "9/2001": 135,
      "▁814": 136,
      "▁84": 137,
      "▁nonstop": 138,
      "92": 139,
      "▁celebr": 140,
      "▁highly": 141,
      "vert": 142,
      "▁dinosaur": 143,
      "▁artwork": 144,
      "▁jen": 145,
      "▁respons": 146,
      "/15": 147,
      "▁vogelaviatio": 148,
      "▁205": 149,
      "▁tac": 150,
      "▁knowing": 151,
      "▁253": 152,
      "ribe": 153,
      "▁downtown": 154,
      "▁łod": 155,
      "▁04/16/2001": 156,
      "▁mech": 157,
      "▁old": 158,
      "▁400": 159,
      "▁rank": 160,
      "what": 161,
      "i-": 162,
      "ound": 163,
      "▁software": 164,
      "▁scientific": 165,
      "▁yellow": 166,
      "▁recent": 167,
      "-625": 168,
      "▁cig": 169,
      "▁syria": 170,
      "ina": 171,
      "▁pressure": 172,
      "ay": 173,
      "▁democr": 174,
      "▁140": 175,
      ":42": 176,
      "▁leon": 177,
      "ois": 178,
      "▁amidst": 179,
      "▁tourist": 180,
      "▁44,000": 181,
      "▁cens": 182,
      "▁ser": 183,
      "▁advanced": 184,
      "5": 185,
      "▁espec": 186,
      "▁analys": 187,
      "▁nwww": 188,
      "/03/2001": 189,
      "ird": 190,
      "▁date": 191,
      "▁models": 192,
      "orrow": 193,
      "3.6": 194,
      "_de": 195,
      "pa": 196,
      "kn": 197,
      "ese": 198,
      "▁walls": 199,
      "▁lion": 200,
      "▁mistake": 201,
      "▁doub": 202,
      "▁doo": 203,
      "▁efficient": 204,
      "ogether": 205,
      "▁palestinian": 206,
      "inger": 207,
      "▁contem": 208,
      "▁perman": 209,
      "▁truth": 210,
      "▁soup": 211,
      "www": 212,
      "▁harv": 213,
      "▁lol": 214,
      "▁adop": 215,
      "am": 216,
      "uk": 217,
      "▁both": 218,
      "▁<": 219,
      "▁interesting": 220,
      "▁must": 221,
      "▁bye": 222,
      "....": 223,
      "-00": 224,
      "▁eggs": 225,
      "▁toys": 226,
      "▁kansas": 227,
      "▁dando": 228,
      "▁reg": 229,
      "▁bush": 230,
      "▁5.6": 231,
      "▁bos": 232,
      "▁18": 233,
      "▁ice": 234,
      "_^": 235,
      "▁cigare": 236,
      "▁atmosphere": 237,
      "x": 238,
      "▁surprise": 239,
      "▁***": 240,
      "▁500": 241,
      "ered": 242,
      "lf": 243,
      "ues": 244,
      "▁lopez": 245,
      "▁“": 246,
      "▁tells": 247,
      "▁princ": 248,
      "ith": 249,
      "▁birthday": 250,
      "▁its": 251,
      "▁mich": 252,
      "-468-3": 253,
      "▁prevent": 254,
      "/13/2001": 255,
      "-8": 256,
      ".621": 257,
      "co": 258,
      "▁-----------------": 259,
      "ded": 260,
      "▁quiet": 261,
      "/200": 262,
      "▁tel": 263,
      "▁,": 264,
      "▁sure": 265,
      "▁wife": 266,
      "▁them": 267,
      "▁usually": 268,
      "▁document": 269,
      "rast": 270,
      "▁men": 271,
      "by": 272,
      "▁writ": 273,
      "29": 274,
      "▁transform": 275,
      "▁delta": 276,
      "▁escape": 277,
      "▁4": 278,
      "▁interests": 279,
      "arily": 280,
      "▁agency": 281,
      "eis": 282,
      "▁huit": 283,
      "▁fun": 284,
      "▁opportunity": 285,
      "▁puppy": 286,
      "elp": 287,
      "▁student": 288,
      "744": 289,
      "mas": 290,
      "▁smooth": 291,
      "▁-%": 292,
      "▁stand": 293,
      "ο": 294,
      "▁laura": 295,
      "▁!?": 296,
      "▁virt": 297,
      "▁trillion": 298,
      "▁appeared": 299,
      "not": 300,
      "▁guard": 301,
      "▁domestic": 302,
      "▁delicious": 303,
      "▁bet": 304,
      "▁step": 305,
      "▁west": 306,
      "▁everywhere": 307,
      "▁fut": 308,
      "▁boat": 309,
      "▁conclud": 310,
      "▁mostly": 311,
      "▁hog": 312,
      "▁sub": 313,
      "▁booked": 314,
      "▁prov": 315,
      "▁01:0": 316,
      "▁beautiful": 317,
      "▁rest": 318,
      "ensive": 319,
      "thers": 320,
      "ride": 321,
      "▁----------------------------------------------------------------------": 322,
      "▁'ll": 323,
      "ses": 324,
      "▁prepared": 325,
      "▁–": 326,
      "▁sal": 327,
      "▁-----------------------------------------------------------------------": 328,
      "▁qual": 329,
      "▁resp": 330,
      "▁saud": 331,
      "▁600": 332,
      "▁royal": 333,
      "▁susan": 334,
      "▁online": 335,
      "▁argent": 336,
      "oa": 337,
      "▁conver": 338,
      "▁amazing": 339,
      "▁contract": 340,
      "▁mile": 341,
      "▁1100": 342,
      "▁russ": 343,
      ",": 344,
      "wich": 345,
      "fore": 346,
      "▁his": 347,
      "enron": 348,
      "▁aft": 349,
      "▁substantial": 350,
      "▁================================": 351,
      "ide": 352,
      "▁violence": 353,
      "▁communication": 354,
      "▁raised": 355,
      "▁poetry": 356,
      "▁rul": 357,
      "▁legal": 358,
      "▁click": 359,
      "...": 360,
      "iod": 361,
      "▁al.": 362,
      "▁is": 363,
      "▁e.g": 364,
      "▁category": 365,
      "▁political": 366,
      "▁slowly": 367,
      "­": 368,
      "74": 369,
      "ary": 370,
      "×": 371,
      "ris": 372,
      "▁wrote": 373,
      "▁mater": 374,
      "▁money": 375,
      "▁campa": 376,
      "▁veget": 377,
      "illa": 378,
      "▁basis": 379,
      "ness": 380,
      "▁works": 381,
      "▁without": 382,
      "fa": 383,
      "▁1996": 384,
      "▁proud": 385,
      "▁1939": 386,
      "▁string": 387,
      "▁another": 388,
      "▁disaster": 389,
      "▁realized": 390,
      "▁democratic": 391,
      "▁:?": 392,
      "▁enjoyed": 393,
      "一": 394,
      ".org": 395,
      "▁1291": 396,
      "▁chris": 397,
      "▁republican": 398,
      "▁introd": 399,
      "▁noise": 400,
      "▁mayor": 401,
      "▁john": 402,
      "▁pain": 403,
      "▁reject": 404,
      "▁collective": 405,
      "▁no-6": 406,
      "▁throat": 407,
      "▁vis": 408,
      "▁although": 409,
      "▁turkey": 410,
      "▁2010": 411,
      "▁guys": 412,
      "▁01:14": 413,
      "▁condition": 414,
      "▁including": 415,
      "ping": 416,
      "▁descri": 417,
      "ada": 418,
      "▁succeed": 419,
      "82": 420,
      "▁worry": 421,
      ":3": 422,
      "est": 423,
      "arter": 424,
      "▁technology": 425,
      "▁abs": 426,
      "▁1590": 427,
      "▁pakistan": 428,
      "aling": 429,
      "▁donkey": 430,
      "▁cry": 431,
      "▁am": 432,
      "▁presented": 433,
      "▁dead": 434,
      "-)": 435,
      "to": 436,
      "ental": 437,
      "▁ur": 438,
      "ases": 439,
      "osite": 440,
      "▁revised": 441,
      "▁despite": 442,
      "▁already": 443,
      "▁shark": 444,
      "velopment": 445,
      "▁battle": 446,
      "wn": 447,
      "▁equ": 448,
      "▁moving": 449,
      "▁80": 450,
      "▁count": 451,
      "agon": 452,
      "ru": 453,
      "ɑ": 454,
      "▁mac": 455,
      "▁713-654-1281": 456,
      "▁muse": 457,
      "▁pir": 458,
      "phis": 459,
      "ober": 460,
      "▁scale": 461,
      "▁loved": 462,
      "▁killing": 463,
      "▁ma": 464,
      "▁male": 465,
      "▁sixth": 466,
      "▁bottle": 467,
      "▁vent": 468,
      "▁296": 469,
      "▁towns": 470,
      "▁1926": 471,
      "▁stands": 472,
      "▁purple": 473,
      "▁stud": 474,
      "▁section": 475,
      "▁ton": 476,
      "▁attem": 477,
      "els": 478,
      "▁spir": 479,
      "▁fab": 480,
      "▁1.25": 481,
      "▁dollie": 482,
      ".6": 483,
      "▁br": 484,
      "▁notebook.url": 485,
      "▁paral": 486,
      "app": 487,
      "▁serving": 488,
      "▁themselves": 489,
      "▁anti": 490,
      "▁appears": 491,
      "▁evol": 492,
      "▁pat": 493,
      "▁1596": 494,
      "▁ev": 495,
      "att": 496,
      "▁?????": 497,
      "isf": 498,
      "▁`": 499,
      "▁hear": 500,
      "▁twice": 501,
      "▁remo": 502,
      "▁add": 503,
      "▁statements": 504,
      "ə": 505,
      "omen": 506,
      "ym": 507,
      "25": 508,
      "▁think": 509,
      "▁television": 510,
      "▁informed": 511,
      "▁2008": 512,
      "ky": 513,
      "▁critical": 514,
      "rop": 515,
      "▁?!?": 516,
      "▁78": 517,
      "▁750,000": 518,
      "icles": 519,
      "▁od": 520,
      "▁researchers": 521,
      "ew": 522,
      "▁04:37": 523,
      "▁rat": 524,
      "▁sleepy": 525,
      "▁212": 526,
      "▁guidelines": 527,
      "▁gaz": 528,
      "▁relig": 529,
      "▁connecting": 530,
      "ently": 531,
      "▁block": 532,
      "▁five": 533,
      "▁spos": 534,
      "▁ap": 535,
      "▁load": 536,
      "▁decades": 537,
      "▁famous": 538,
      "unk": 539,
      ":05": 540,
      "▁mum": 541,
      "▁teeth": 542,
      "body": 543,
      "▁3.8": 544,
      "▁bulldozer": 545,
      "▁administr": 546,
      "▁brit": 547,
      "▁tokyo": 548,
      "▁yesterday": 549,
      "▁setting": 550,
      "▁49": 551,
      "▁natural": 552,
      "▁exercise": 553,
      "▁replaced": 554,
      "▁consult": 555,
      "▁fac": 556,
      "ump": 557,
      "ows": 558,
      "▁entirely": 559,
      "▁basic": 560,
      "▁confir": 561,
      "▁expression": 562,
      "▁falls": 563,
      "ider": 564,
      "▁hung": 565,
      "▁mr.": 566,
      "▁american": 567,
      "▁salt": 568,
      "▁seeing": 569,
      "▁700": 570,
      "▁******************************************************************": 571,
      "▁http://www": 572,
      "▁c.": 573,
      "▁cere": 574,
      "▁babies": 575,
      "▁uma": 576,
      "eare": 577,
      "▁wed": 578,
      "▁pros": 579,
      "▁orient": 580,
      "§": 581,
      "▁1562": 582,
      "▁nashville": 583,
      "▁tip": 584,
      "▁more": 585,
      "▁2.7": 586,
      "umb": 587,
      "▁just": 588,
      "▁spray": 589,
      "▁gon": 590,
      "▁05/01/2001": 591,
      "▁background": 592,
      "▁207": 593,
      "corn": 594,
      "▁garden": 595,
      "▁1776": 596,
      "f": 597,
      "igh": 598,
      "▁================================================": 599,
      "▁poet": 600,
      "▁ld2d-#693": 601,
      "▁10:34": 602,
      "▁safet": 603,
      "▁worst": 604,
      "2-6": 605,
      "▁sad": 606,
      "▁executive": 607,
      "▁fire": 608,
      "▁fri": 609,
      "▁mi": 610,
      "▁because": 611,
      "▁missed": 612,
      "▁-final.doc": 613,
      "▁1954": 614,
      "▁proposed": 615,
      "▁increased": 616,
      "▁people": 617,
      "ran": 618,
      "ills": 619,
      "▁err": 620,
      "▁2018": 621,
      "▁technologies": 622,
      "|": 623,
      "gr": 624,
      "ros": 625,
      "▁seem": 626,
      "▁iodine": 627,
      "▁incorpor": 628,
      "▁whoo": 629,
      "▁judge": 630,
      "294-": 631,
      "▁available": 632,
      "▁construction": 633,
      "▁license": 634,
      "#6": 635,
      "▁alligator": 636,
      "▁region": 637,
      "▁considered": 638,
      "▁alive": 639,
      "▁authorities": 640,
      "26": 641,
      "▁cooper": 642,
      "▁finally": 643,
      "ampa": 644,
      "▁individuals": 645,
      "▁letters": 646,
      "78": 647,
      "antly": 648,
      "▁stip": 649,
      "▁cc": 650,
      "▁forster": 651,
      "▁realize": 652,
      "i": 653,
      "▁math": 654,
      "▁resour": 655,
      "inc": 656,
      "8196021": 657,
      "/10/2000": 658,
      "ella": 659,
      "inting": 660,
      "▁notice": 661,
      "▁france": 662,
      "▁spanish": 663,
      "-415-": 664,
      "▁apparently": 665,
      "▁baby": 666,
      "▁a.": 667,
      "▁ours": 668,
      "▁redlined": 669,
      "▁traff": 670,
      ".61": 671,
      "ights": 672,
      "▁itself": 673,
      "▁symbol": 674,
      "▁enjamb": 675,
      "▁isl": 676,
      "▁ect": 677,
      "kins": 678,
      "▁10/23/2000": 679,
      "▁---------------------------------------------------------------------": 680,
      "▁cup": 681,
      "▁tom": 682,
      "▁drinking": 683,
      "▁1000": 684,
      "▁tor": 685,
      "▁heart": 686,
      "▁36": 687,
      "▁yourselves": 688,
      "▁750": 689,
      "cle": 690,
      "▁mob": 691,
      "▁****": 692,
      "▁1583": 693,
      "▁islam": 694,
      "▁dough": 695,
      "ic": 696,
      "za": 697,
      "ams": 698,
      "53-3119": 699,
      "▁moder": 700,
      "▁users": 701,
      "▁give": 702,
      "▁fol": 703,
      "▁beneath": 704,
      ";": 705,
      "▁swim": 706,
      "▁flex": 707,
      "▁movement": 708,
      "▁lik": 709,
      "▁dese": 710,
      "▁with": 711,
      "iw": 712,
      "▁ter": 713,
      "7/2000": 714,
      "▁children": 715,
      "▁ph": 716,
      "/00": 717,
      "▁export": 718,
      "▁israeli": 719,
      "si": 720,
      "▁husband": 721,
      "β": 722,
      "▁firm": 723,
      "ield": 724,
      ",8": 725,
      "▁pan": 726,
      "▁gas": 727,
      "riage": 728,
      "▁success": 729,
      "eable": 730,
      "ides": 731,
      "▁hidden": 732,
      "▁713-853-1696": 733,
      "▁ka": 734,
      "▁highest": 735,
      "▁woud": 736,
      "e": 737,
      "▁try": 738,
      "▁however": 739,
      "▁running": 740,
      "▁gray": 741,
      "ret": 742,
      "▁'d": 743,
      "▁singing": 744,
      "▁telling": 745,
      "ose": 746,
      "▁gym": 747,
      "▁cause": 748,
      "led": 749,
      "▁regions": 750,
      "ibald": 751,
      "▁talked": 752,
      "▁rough": 753,
      "eng": 754,
      "▁options": 755,
      "▁oh": 756,
      "▁recover": 757,
      "????????": 758,
      "▁soldiers": 759,
      "▁design": 760,
      "eter": 761,
      "an": 762,
      "▁father": 763,
      "hin": 764,
      "▁tri": 765,
      "▁unf": 766,
      "nondelibreaten": 767,
      "otted": 768,
      "▁charlie": 769,
      "▁riding": 770,
      "▁pockets": 771,
      "▁ought": 772,
      "▁156": 773,
      "▁268": 774,
      "▁henry": 775,
      "▁extremely": 776,
      "▁baseball": 777,
      "▁expensive": 778,
      ".html": 779,
      "ould": 780,
      "▁occur": 781,
      "/25/2001": 782,
      "▁taken": 783,
      "▁inc": 784,
      "867": 785,
      "▁carolina": 786,
      "▁xsl": 787,
      "▁solution": 788,
      "▁limited": 789,
      "ee": 790,
      "aman": 791,
      "▁alcal": 792,
      "▁kam": 793,
      "▁intended": 794,
      "▁her": 795,
      "▁regulation": 796,
      "}*{": 797,
      "▁figure": 798,
      "▁interact": 799,
      "▁die": 800,
      "▁carry": 801,
      "▁religious": 802,
      "on@enron": 803,
      "▁temper": 804,
      "▁french": 805,
      "▁3/8/00": 806,
      "ter": 807,
      "▁free": 808,
      "▁07:24": 809,
      "▁yours": 810,
      "▁amendments": 811,
      "琴": 812,
      "▁detroit": 813,
      "▁brows": 814,
      "▁visa": 815,
      "▁continental": 816,
      "ify": 817,
      "▁ber": 818,
      "irl": 819,
      "▁ex": 820,
      "▁details": 821,
      "▁calling": 822,
      "▁length": 823,
      "iped": 824,
      "▁germany": 825,
      "hia": 826,
      "eling": 827,
      "▁louis": 828,
      "9.3": 829,
      "▁blind": 830,
      "▁emph": 831,
      "▁remain": 832,
      "▁wit": 833,
      "▁according": 834,
      "▁sant": 835,
      "▁nar": 836,
      "▁1918": 837,
      "ark": 838,
      "▁09:14": 839,
      "▁signs": 840,
      "▁fed": 841,
      "ن": 842,
      "▁throu": 843,
      "▁beaut": 844,
      "▁prefer": 845,
      "onn": 846,
      "ich": 847,
      "kin": 848,
      "▁shut": 849,
      "5-0": 850,
      "▁345-9945": 851,
      "▁center": 852,
      "▁foc": 853,
      "▁cra": 854,
      "66": 855,
      "▁mummy": 856,
      "▁ship": 857,
      "rupt": 858,
      "▁scre": 859,
      "uate": 860,
      "▁maybe": 861,
      "▁ont": 862,
      "▁coach": 863,
      "▁closer": 864,
      "▁by": 865,
      "**********************************": 866,
      "oll": 867,
      "▁told": 868,
      "8-7": 869,
      "▁located": 870,
      "▁202.45": 871,
      "izes": 872,
      "▁coat": 873,
      "▁dev": 874,
      "▁effects": 875,
      "▁18,000": 876,
      "▁defin": 877,
      "▁storm": 878,
      "▁lighting": 879,
      "rax": 880,
      "▁mrs": 881,
      "got": 882,
      "re": 883,
      "▁angel": 884,
      "▁net": 885,
      "▁det": 886,
      "▁al": 887,
      "▁713-646-3393": 888,
      "▁1848": 889,
      "▁bud": 890,
      "load": 891,
      "▁ballet": 892,
      "▁191": 893,
      "▁drinks": 894,
      "eries": 895,
      "▁flo": 896,
      "▁releases": 897,
      "cast": 898,
      "▁profess": 899,
      "▁cleaning": 900,
      "▁differences": 901,
      "▁08/03/2000": 902,
      "▁pump": 903,
      "uments": 904,
      "▁pers": 905,
      "▁.x": 906,
      "▁psychology": 907,
      "▁wave": 908,
      "▁sports": 909,
      "▁chinese": 910,
      "▁tie": 911,
      "ist": 912,
      "▁year": 913,
      "fi": 914,
      "▁quickly": 915,
      "▁minn": 916,
      "▁ride": 917,
      "/2001": 918,
      "▁widely": 919,
      "819": 920,
      "▁conclusion": 921,
      "▁o'clock": 922,
      "illion": 923,
      "▁libr": 924,
      "▁intellect": 925,
      "46": 926,
      "▁''": 927,
      "▁contrib": 928,
      "-98": 929,
      "▁flav": 930,
      "▁41": 931,
      "▁complic": 932,
      "▁2100": 933,
      "▁completed": 934,
      "▁efficiency": 935,
      "▁obv": 936,
      "itude": 937,
      "ipping": 938,
      "▁amounts": 939,
      "▁david": 940,
      "urs": 941,
      "▁mult": 942,
      "▁’": 943,
      "▁and": 944,
      "▁cookies": 945,
      "▁vernon": 946,
      "▁1602": 947,
      "ester": 948,
      "▁polit": 949,
      "▁does": 950,
      "▁88": 951,
      "▁s/h": 952,
      "own": 953,
      "▁pictures": 954,
      "▁war": 955,
      "icient": 956,
      "▁avo": 957,
      "▁paul": 958,
      "▁mathematics": 959,
      "▁1868": 960,
      "▁governor": 961,
      "▁nmem": 962,
      "▁rac": 963,
      "▁environmental": 964,
      "cy": 965,
      "▁1575": 966,
      "ization": 967,
      "▁aer": 968,
      "ologist": 969,
      "ulate": 970,
      "▁example": 971,
      "▁vlog": 972,
      "ab": 973,
      "▁higher": 974,
      "ʊ": 975,
      "▁snitch": 976,
      "▁moral": 977,
      "▁yoga": 978,
      "▁bathroom": 979,
      "▁igts": 980,
      "▁houston": 981,
      "▁creating": 982,
      "▁settle": 983,
      "▁kiss": 984,
      "▁westchester": 985,
      "▁provide": 986,
      "miss": 987,
      "▁flight": 988,
      "all": 989,
      "▁percell,": 990,
      "▁phone": 991,
      "▁suffer": 992,
      "▁always": 993,
      "og": 994,
      "▁01:58": 995,
      "ilities": 996,
      "ube": 997,
      "▁these": 998,
      "iro": 999,
      "uf": 1000,
      "▁scary": 1001,
      "/0": 1002,
      "▁arrives": 1003,
      "apt": 1004,
      "▁str": 1005,
      "▁world": 1006,
      "▁theirs": 1007,
      "wide": 1008,
      "▁text": 1009,
      "ink": 1010,
      "▁turned": 1011,
      "▁ups": 1012,
      ",00": 1013,
      "uh": 1014,
      "eet": 1015,
      "▁session": 1016,
      "▁1999": 1017,
      "mine": 1018,
      "▁between": 1019,
      "▁6": 1020,
      "▁dropped": 1021,
      "▁best": 1022,
      "drft8-7": 1023,
      "▁administration": 1024,
      "▁xslt": 1025,
      "▁hes": 1026,
      "▁37": 1027,
      "▁713-853-3989": 1028,
      "▁200,000": 1029,
      "▁ent": 1030,
      "▁actions": 1031,
      "▁dr.": 1032,
      "sey": 1033,
      "4-": 1034,
      "▁publicly": 1035,
      "▁new": 1036,
      "▁rise": 1037,
      "▁books": 1038,
      "▁determin": 1039,
      "▁mand": 1040,
      "▁imple": 1041,
      "▁_______": 1042,
      "▁apparent": 1043,
      "▁813": 1044,
      "▁who's": 1045,
      "if": 1046,
      "▁administ": 1047,
      "ification": 1048,
      "▁colon": 1049,
      "▁recon": 1050,
      "▁site": 1051,
      "▁interest": 1052,
      "▁advance": 1053,
      "▁model": 1054,
      "gar": 1055,
      "-642": 1056,
      ",6": 1057,
      "▁absor": 1058,
      "▁san": 1059,
      "lying": 1060,
      "▁619": 1061,
      "rated": 1062,
      "▁5:00": 1063,
      "▁1955": 1064,
      "▁act": 1065,
      "▁mathem": 1066,
      "▁150,000": 1067,
      "▁smok": 1068,
      "▁slide": 1069,
      "▁650": 1070,
      "atch": 1071,
      "▁???": 1072,
      "’t": 1073,
      "▁spent": 1074,
      "▁trails": 1075,
      "▁makes": 1076,
      "4/2001": 1077,
      "▁bask": 1078,
      "▁accommod": 1079,
      "▁hate": 1080,
      "▁pot": 1081,
      "▁commit": 1082,
      "▁belly": 1083,
      "uck": 1084,
      "▁neither": 1085,
      "▁10": 1086,
      "▁ai": 1087,
      "▁necessarily": 1088,
      "▁purch": 1089,
      "▁1896": 1090,
      "▁888": 1091,
      "67": 1092,
      ".15": 1093,
      "----------": 1094,
      "▁entered": 1095,
      "▁third": 1096,
      "av": 1097,
      "202": 1098,
      "▁will": 1099,
      "▁rare": 1100,
      "▁behin": 1101,
      "▁#": 1102,
      "▁hi": 1103,
      "▁fbi": 1104,
      "▁did": 1105,
      "▁cal": 1106,
      "▁problems": 1107,
      "▁charged": 1108,
      "▁waited": 1109,
      "▁thous": 1110,
      "▁robin": 1111,
      "oo": 1112,
      "ach": 1113,
      "ha": 1114,
      "▁characters": 1115,
      "▁trained": 1116,
      "▁character": 1117,
      ":29": 1118,
      "inct": 1119,
      "▁plenty": 1120,
      "row": 1121,
      "▁pet": 1122,
      "▁advantage": 1123,
      "▁dist": 1124,
      "▁behind": 1125,
      "▁noon": 1126,
      "▁opinion": 1127,
      "▁dam": 1128,
      "sl": 1129,
      "▁ocean": 1130,
      "490": 1131,
      "▁components": 1132,
      "▁mission": 1133,
      "ength": 1134,
      "▁strong": 1135,
      "▁information": 1136,
      "▁eight": 1137,
      "▁faces": 1138,
      "▁==============================================================================": 1139,
      "▁healthy": 1140,
      "▁swed": 1141,
      "▁1564": 1142,
      "▁substant": 1143,
      "▁kitchen": 1144,
      "ured": 1145,
      "▁discussed": 1146,
      "▁]": 1147,
      "▁pred": 1148,
      "•": 1149,
      "▁1819": 1150,
      "illed": 1151,
      "nesday": 1152,
      "▁main": 1153,
      "▁drew": 1154,
      "on": 1155,
      "aper": 1156,
      "iii": 1157,
      "▁stra": 1158,
      "mm": 1159,
      "▁vote": 1160,
      "veland": 1161,
      "▁$": 1162,
      "▁team": 1163,
      "▁unemploy": 1164,
      "sa": 1165,
      "ause": 1166,
      "be": 1167,
      "▁significant": 1168,
      "▁microphone": 1169,
      "===": 1170,
      "▁taking": 1171,
      "elt": 1172,
      "▁visited": 1173,
      "▁cheapest": 1174,
      "▁least": 1175,
      "▁americans": 1176,
      "▁3/9": 1177,
      "bha": 1178,
      "====": 1179,
      "itable": 1180,
      "▁list": 1181,
      "▁believed": 1182,
      "古": 1183,
      "sc": 1184,
      "▁brain": 1185,
      "▁attach": 1186,
      "-435": 1187,
      "▁ninety-n": 1188,
      "se": 1189,
      "▁colle": 1190,
      "▁decided": 1191,
      "▁packed": 1192,
      "▁christmas": 1193,
      "asa": 1194,
      "ica": 1195,
      "-3393": 1196,
      "▁categ": 1197,
      "▁trading": 1198,
      "▁mil": 1199,
      "42": 1200,
      "▁1787": 1201,
      "▁08/0": 1202,
      "▁lank": 1203,
      "/01/2001": 1204,
      "oices": 1205,
      "▁2030": 1206,
      "▁deter": 1207,
      "▁still": 1208,
      "▁african": 1209,
      "▁district": 1210,
      "ands": 1211,
      "~*~*~*~*": 1212,
      "▁airline": 1213,
      "tch": 1214,
      "ail": 1215,
      "▁scr": 1216,
      "▁zeal": 1217,
      "▁rs": 1218,
      "▁tem": 1219,
      "▁1995": 1220,
      "▁root": 1221,
      "▁observed": 1222,
      "▁minimum": 1223,
      "▁forget": 1224,
      "▁present": 1225,
      "▁shops": 1226,
      "▁ciao": 1227,
      "▁02-0": 1228,
      "ache": 1229,
      "▁suggest": 1230,
      "itten": 1231,
      "▁grad": 1232,
      ".1234": 1233,
      "▁shoot": 1234,
      "▁chemical": 1235,
      "---": 1236,
      "like": 1237,
      "▁dele": 1238,
      "▁o'": 1239,
      "lies": 1240,
      "▁thousand": 1241,
      "▁58": 1242,
      "read": 1243,
      "▁2.975": 1244,
      "▁great": 1245,
      "▁instructions": 1246,
      "ony": 1247,
      "▁abe": 1248,
      "oma": 1249,
      "▁meh-risk": 1250,
      "▁exchange": 1251,
      "wa": 1252,
      "▁format": 1253,
      "▁ment": 1254,
      "==": 1255,
      "▁th": 1256,
      "▁airl": 1257,
      "-p": 1258,
      "-l": 1259,
      "▁hotel": 1260,
      "▁stock": 1261,
      "▁empt": 1262,
      "▁girls": 1263,
      "▁enforcement": 1264,
      "uclear": 1265,
      "▁tow": 1266,
      "idge": 1267,
      "▁moon": 1268,
      "▁primary": 1269,
      "▁57": 1270,
      "▁flies": 1271,
      "▁raise": 1272,
      "▁sunn": 1273,
      "▁pure": 1274,
      "▁upstairs": 1275,
      "▁ukrain": 1276,
      "▁&amp;": 1277,
      "▁mary": 1278,
      "▁parliament": 1279,
      "▁cross": 1280,
      "▁xml": 1281,
      "▁became": 1282,
      "υ": 1283,
      "ant": 1284,
      "uj": 1285,
      "▁western": 1286,
      ":25": 1287,
      "▁results": 1288,
      "usion": 1289,
      "akistan": 1290,
      "▁luck": 1291,
      "▁77": 1292,
      "[": 1293,
      "ot": 1294,
      "▁(c)": 1295,
      "▁things": 1296,
      "▁buck": 1297,
      "▁11/7": 1298,
      "▁rese": 1299,
      "▁oce": 1300,
      "▁reviews": 1301,
      "▁swimming": 1302,
      "ress": 1303,
      "▁current": 1304,
      "▁05:37": 1305,
      "g": 1306,
      "▁eu": 1307,
      "ural": 1308,
      "▁3.2": 1309,
      "velop": 1310,
      "▁weasley": 1311,
      "▁delivered": 1312,
      "ique": 1313,
      "▁jwww": 1314,
      "cross": 1315,
      "-20-": 1316,
      "▁y": 1317,
      "▁dep": 1318,
      "grad": 1319,
      "▁s": 1320,
      "anced": 1321,
      "▁6/1": 1322,
      "▁working": 1323,
      "▁62": 1324,
      "gets": 1325,
      "▁exist": 1326,
      "▁anth": 1327,
      "ets": 1328,
      "▁cru": 1329,
      "----": 1330,
      "===<----": 1331,
      "▁degree": 1332,
      "▁played": 1333,
      "▁2.5": 1334,
      "▁approval": 1335,
      "▁option": 1336,
      "▁cruc": 1337,
      "▁equip": 1338,
      "▁spr": 1339,
      "▁10:00": 1340,
      "▁normally": 1341,
      "▁weeks": 1342,
      "▁case": 1343,
      "▁belie": 1344,
      "▁coinc": 1345,
      "▁happened": 1346,
      "▁72,000": 1347,
      "▁ld2": 1348,
      "▁valle": 1349,
      "ology": 1350,
      "▁mexic": 1351,
      "▁compared": 1352,
      "▁3.7": 1353,
      "▁plate": 1354,
      "▁gender": 1355,
      "874": 1356,
      "eding": 1357,
      "▁arrow": 1358,
      "▁par": 1359,
      "▁member": 1360,
      "▁elev": 1361,
      "▁6871082#": 1362,
      "st": 1363,
      "▁syn": 1364,
      "takana": 1365,
      "▁replication": 1366,
      "pe": 1367,
      "▁852": 1368,
      "▁888.916.718": 1369,
      "▁latest": 1370,
      "▁stick": 1371,
      "▁concent": 1372,
      "▁sh": 1373,
      "▁academic": 1374,
      "▁programm": 1375,
      "▁analy": 1376,
      "▁1609": 1377,
      "▁.....": 1378,
      "▁pittsburgh": 1379,
      "▁exp": 1380,
      "€": 1381,
      "▁whom": 1382,
      "▁khinss": 1383,
      "▁dishes": 1384,
      "▁madam": 1385,
      "▁baba": 1386,
      "ork": 1387,
      "▁town": 1388,
      "▁detailed": 1389,
      "ither": 1390,
      "▁israel": 1391,
      "▁exce": 1392,
      "uss": 1393,
      "▁peau": 1394,
      "▁64": 1395,
      "▁260": 1396,
      "▁confer": 1397,
      "▁5.3": 1398,
      "▁typ": 1399,
      "▁gl": 1400,
      "▁progress": 1401,
      "▁clin": 1402,
      "▁24.7": 1403,
      "▁usual": 1404,
      "▁1593": 1405,
      "▁water": 1406,
      "/4": 1407,
      "ihow": 1408,
      "▁explain": 1409,
      "▁decade": 1410,
      "raid": 1411,
      "▁washing": 1412,
      "▁g": 1413,
      "ing": 1414,
      "▁opt": 1415,
      "▁po": 1416,
      "▁wow": 1417,
      "leys": 1418,
      "-8031": 1419,
      "▁history": 1420,
      "▁cell": 1421,
      "▁11": 1422,
      "▁whereas": 1423,
      "eau": 1424,
      "▁amend": 1425,
      "▁lovely": 1426,
      "esth": 1427,
      "-w": 1428,
      "ashion": 1429,
      "ˈ": 1430,
      "▁chall": 1431,
      "fort": 1432,
      "▁historic": 1433,
      "▁currency": 1434,
      "▁domin": 1435,
      "▁48": 1436,
      "▁consider": 1437,
      "ball": 1438,
      "ign": 1439,
      "▁northern": 1440,
      "lac": 1441,
      "▁join": 1442,
      "5-02.doc": 1443,
      ".00": 1444,
      "▁attrib": 1445,
      "▁spain": 1446,
      "▁2014": 1447,
      "况": 1448,
      "▁tomato": 1449,
      "▁var": 1450,
      "▁explained": 1451,
      "▁liter": 1452,
      "aged": 1453,
      "▁charl": 1454,
      "▁looked": 1455,
      "▁łodz": 1456,
      "▁av": 1457,
      "▁energ": 1458,
      "▁create": 1459,
      "▁une": 1460,
      "▁watch": 1461,
      "▁page": 1462,
      "▁quality": 1463,
      "▁disease": 1464,
      "▁maintain": 1465,
      "▁force": 1466,
      "▁cap": 1467,
      "iny": 1468,
      "▁163": 1469,
      "▁620-294-": 1470,
      "acters": 1471,
      "ident": 1472,
      ".86": 1473,
      "▁508": 1474,
      "▁dut": 1475,
      "▁ontario": 1476,
      "▁&amp": 1477,
      "▁345-343": 1478,
      "uled": 1479,
      "▁penn": 1480,
      "▁truck": 1481,
      "▁§": 1482,
      "2.doc": 1483,
      "▁sand": 1484,
      "▁originally": 1485,
      "▁thurs": 1486,
      "▁aunt": 1487,
      "enron.com": 1488,
      "▁ju": 1489,
      "▁saved": 1490,
      "▁abb": 1491,
      "▁behavior": 1492,
      "▁throw": 1493,
      "▁sor": 1494,
      "▁proper": 1495,
      "▁inter": 1496,
      "fer": 1497,
      "ize": 1498,
      "mark": 1499,
      ":44": 1500,
      "▁transp": 1501,
      "▁81": 1502,
      "val": 1503,
      "rog": 1504,
      "▁chem": 1505,
      "ii": 1506,
      "oc": 1507,
      "▁away": 1508,
      "▁boy": 1509,
      "inn": 1510,
      "▁little": 1511,
      "▁associate": 1512,
      "▁ra": 1513,
      "▁11/28/2000": 1514,
      "p": 1515,
      "▁kind": 1516,
      "que": 1517,
      "▁orlando": 1518,
      "▁accurate": 1519,
      "▁court": 1520,
      "▁refuge": 1521,
      "▁challenge": 1522,
      "▁beatles": 1523,
      "▁483": 1524,
      "ination": 1525,
      "▁went": 1526,
      "▁calc": 1527,
      "▁supposed": 1528,
      "▁massive": 1529,
      "ern": 1530,
      "▁writers": 1531,
      "ther": 1532,
      "selves": 1533,
      "▁5/1": 1534,
      "▁train": 1535,
      "▁businesses": 1536,
      "▁hu": 1537,
      "awah": 1538,
      "▁chang": 1539,
      "▁1.": 1540,
      "▁individual": 1541,
      "mp": 1542,
      "▁speed": 1543,
      "▁1800": 1544,
      "▁risk": 1545,
      "▁finance": 1546,
      "▁counterpart": 1547,
      "orn": 1548,
      "ioned": 1549,
      "▁fellow": 1550,
      "▁fairly": 1551,
      "ville": 1552,
      "▁anne": 1553,
      "▁1992": 1554,
      "▁1780": 1555,
      "dulo": 1556,
      "▁tort": 1557,
      "▁challeng": 1558,
      "▁phil": 1559,
      "▁felt": 1560,
      "▁alex": 1561,
      "▁meat": 1562,
      "▁enjambment": 1563,
      "▁sound": 1564,
      "▁watching": 1565,
      "▁nose": 1566,
      "▁wikinews": 1567,
      "book": 1568,
      "▁twel": 1569,
      "▁181": 1570,
      "▁experts": 1571,
      "▁billion": 1572,
      "▁stood": 1573,
      "▁humans": 1574,
      "96": 1575,
      "▁during": 1576,
      "▁wiz": 1577,
      "al": 1578,
      "ozer": 1579,
      "▁newark": 1580,
      "▁vince": 1581,
      "▁exerc": 1582,
      "/99": 1583,
      "▁1585": 1584,
      "▁rab": 1585,
      "▁amaz": 1586,
      "kes": 1587,
      "▁orland": 1588,
      "▁yo": 1589,
      "▁ant": 1590,
      "▁loc": 1591,
      "▁saddam": 1592,
      "▁1989": 1593,
      "_": 1594,
      "▁emergency": 1595,
      "▁chagrin": 1596,
      "iding": 1597,
      "▁100,000": 1598,
      "▁den": 1599,
      "▁********": 1600,
      "▁secure": 1601,
      "▁speak": 1602,
      "▁1833": 1603,
      "▁1647": 1604,
      "▁agricult": 1605,
      "-27": 1606,
      "▁achie": 1607,
      "▁engine": 1608,
      "▁finished": 1609,
      "▁mwet": 1610,
      "▁guerre": 1611,
      "▁pict": 1612,
      "▁knows": 1613,
      "ences": 1614,
      "▁kat": 1615,
      "du": 1616,
      ".45": 1617,
      "▁91": 1618,
      "ution": 1619,
      "▁attack": 1620,
      "▁private": 1621,
      "ai": 1622,
      "▁toronto": 1623,
      "▁palest": 1624,
      "▁~": 1625,
      "▁eff": 1626,
      "▁move": 1627,
      "▁washington": 1628,
      "ave": 1629,
      "▁tight": 1630,
      "▁at": 1631,
      "iciency": 1632,
      "▁passion": 1633,
      "▁jobs": 1634,
      "▁init": 1635,
      "▁percell": 1636,
      "▁emphas": 1637,
      "ß": 1638,
      "▁happ": 1639,
      "1082": 1640,
      "▁meeting": 1641,
      "▁polar": 1642,
      "▁din": 1643,
      "▁1943": 1644,
      "▁350": 1645,
      "{": 1646,
      "▁robert": 1647,
      "▁incor": 1648,
      "▁network": 1649,
      "▁funny": 1650,
      "▁perdues": 1651,
      "▁cor": 1652,
      "▁pac": 1653,
      "▁wearing": 1654,
      "▁!!!!!!!!!!!": 1655,
      "ient": 1656,
      "------->": 1657,
      "▁country": 1658,
      "-12": 1659,
      "anda": 1660,
      "▁room": 1661,
      "ld": 1662,
      "▁:p": 1663,
      "▁nothing": 1664,
      "ham": 1665,
      "ners": 1666,
      "▁puzz": 1667,
      "▁dwww": 1668,
      "▁appro": 1669,
      "▁punch": 1670,
      "▁union": 1671,
      "▁medical": 1672,
      "?": 1673,
      "▁stream": 1674,
      "712": 1675,
      "gu": 1676,
      "▁lest": 1677,
      "▁10:56": 1678,
      "▁er": 1679,
      "81": 1680,
      "▁theod": 1681,
      "▁ahead": 1682,
      "1/2001": 1683,
      "▁reply": 1684,
      "▁effect": 1685,
      "etary": 1686,
      "▁arch": 1687,
      "$": 1688,
      "º": 1689,
      "✉": 1690,
      "▁----==": 1691,
      "▁neighborhood": 1692,
      "▁ne": 1693,
      "▁jer": 1694,
      "ip": 1695,
      "▁gentle": 1696,
      "pp": 1697,
      "▁im": 1698,
      "▁cos": 1699,
      "▁you": 1700,
      "▁serious": 1701,
      "▁11:32": 1702,
      "▁purpose": 1703,
      "▁comparison": 1704,
      "▁help": 1705,
      "▁granted": 1706,
      "raft": 1707,
      "omm": 1708,
      "▁someone": 1709,
      "▁trail": 1710,
      "▁stars": 1711,
      "▁alongside": 1712,
      "▁ess": 1713,
      "▁draw": 1714,
      "eness": 1715,
      "iv": 1716,
      "aw": 1717,
      "ied": 1718,
      "▁build": 1719,
      "▁dat": 1720,
      "▁matters": 1721,
      "ici": 1722,
      "▁variety": 1723,
      "▁ext": 1724,
      "▁mon": 1725,
      "▁apple": 1726,
      "uts": 1727,
      "ey": 1728,
      "ival": 1729,
      "ugg": 1730,
      "▁dw": 1731,
      "▁196": 1732,
      "▁713/": 1733,
      "▁1830": 1734,
      "▁frag": 1735,
      "989": 1736,
      "▁wand": 1737,
      "oup": 1738,
      "▁andaman": 1739,
      "▁69": 1740,
      "▁financ": 1741,
      "▁andril": 1742,
      "▁sri": 1743,
      "ince": 1744,
      "▁troops": 1745,
      "▁huh": 1746,
      "▁sheet": 1747,
      "▁grown": 1748,
      "▁colleag": 1749,
      "▁boom": 1750,
      "▁wh": 1751,
      "▁burst": 1752,
      "ively": 1753,
      "▁orange": 1754,
      "asks": 1755,
      "▁40,000": 1756,
      "uc": 1757,
      "▁seeking": 1758,
      "▁accord": 1759,
      "▁counterfe": 1760,
      "▁ce": 1761,
      "▁alle": 1762,
      "▁anim": 1763,
      "itch": 1764,
      "▁religion": 1765,
      ":14": 1766,
      "▁worms": 1767,
      "form": 1768,
      "▁circumstances": 1769,
      "▁leave": 1770,
      "▁continues": 1771,
      "▁fans": 1772,
      "▁neck": 1773,
      "▁iso": 1774,
      "▁purchase": 1775,
      "▁paper": 1776,
      "▁remains": 1777,
      "ures": 1778,
      "▁pean": 1779,
      "mony": 1780,
      "奈": 1781,
      "▁wou": 1782,
      "▁1962": 1783,
      ":27": 1784,
      "pped": 1785,
      "▁feature": 1786,
      "▁01/19/2001": 1787,
      "pt": 1788,
      "gth": 1789,
      "▁series": 1790,
      "▁projects": 1791,
      "▁establish": 1792,
      "▁settlement": 1793,
      "▁department": 1794,
      "iot": 1795,
      "▁stayed": 1796,
      "▁contain": 1797,
      "eal": 1798,
      "amp": 1799,
      "atives": 1800,
      "/2000": 1801,
      "▁1699": 1802,
      "ackl": 1803,
      "in": 1804,
      "▁philadelphia": 1805,
      "▁revenue": 1806,
      "▁weight": 1807,
      "▁11608": 1808,
      "▁family": 1809,
      "=": 1810,
      "▁fr": 1811,
      "▁attached": 1812,
      "ivity": 1813,
      "▁1821": 1814,
      "▁fil": 1815,
      "▁treat": 1816,
      "/16": 1817,
      "▁fuel": 1818,
      "▁reach": 1819,
      "▁mad": 1820,
      "▁mod": 1821,
      "noon": 1822,
      "▁forty": 1823,
      "!!": 1824,
      "▁abo": 1825,
      "ny": 1826,
      "uals": 1827,
      "▁window": 1828,
      "▁client": 1829,
      "▁shackleton@ect": 1830,
      "d2": 1831,
      "▁similar": 1832,
      "▁conven": 1833,
      "er": 1834,
      "▁pants": 1835,
      "▁discount": 1836,
      "▁showed": 1837,
      "▁12/26/2000": 1838,
      "ative": 1839,
      "▁animal": 1840,
      "▁greek": 1841,
      "▁container": 1842,
      "▁wish": 1843,
      "▁pron": 1844,
      "▁institutions": 1845,
      "▁hearing": 1846,
      "ication": 1847,
      "▁‘’": 1848,
      ".g": 1849,
      "▁imper": 1850,
      "▁exception": 1851,
      "▁occurred": 1852,
      "▁sk": 1853,
      "▁glow": 1854,
      "▁treated": 1855,
      "▁activ": 1856,
      "▁otherwise": 1857,
      "▁magn": 1858,
      "acy": 1859,
      "▁equival": 1860,
      "▁excellent": 1861,
      "▁pick": 1862,
      "▁mr": 1863,
      "▁giv": 1864,
      "▁equal": 1865,
      "▁excell": 1866,
      "▁followed": 1867,
      "▁1608": 1868,
      "▁falling": 1869,
      "ual": 1870,
      "▁changing": 1871,
      "▁circum": 1872,
      "▁polic": 1873,
      "▁1987": 1874,
      "▁hel": 1875,
      "▁quite": 1876,
      "▁breast": 1877,
      "▁sometimes": 1878,
      "chester": 1879,
      "▁oak": 1880,
      "▁weak": 1881,
      "▁seven": 1882,
      "▁training": 1883,
      "▁sounds": 1884,
      "▁um": 1885,
      "▁1205": 1886,
      "▁underneath": 1887,
      "▁guarant": 1888,
      "▁1660": 1889,
      "▁he": 1890,
      "utions": 1891,
      "▁03:00": 1892,
      "dp": 1893,
      "-01": 1894,
      "eland": 1895,
      "▁anywhere": 1896,
      "arrass": 1897,
      "▁bug": 1898,
      "▁cycle": 1899,
      "▁prosper": 1900,
      "ions": 1901,
      "ope": 1902,
      "resp": 1903,
      "▁nineteen": 1904,
      "▁pulled": 1905,
      "▁incom": 1906,
      "▁mosquito": 1907,
      "▁6.8": 1908,
      "▁65": 1909,
      "eld": 1910,
      "▁1888": 1911,
      "▁nut": 1912,
      "▁gold": 1913,
      "▁minor": 1914,
      "▁expertise": 1915,
      "▁assistance": 1916,
      "▁woman": 1917,
      "▁happen": 1918,
      "▁tag": 1919,
      "▁designed": 1920,
      "bye": 1921,
      "▁different": 1922,
      "ume": 1923,
      ":57": 1924,
      "▁mus": 1925,
      "▁brings": 1926,
      "ustom": 1927,
      "▁oil": 1928,
      "▁glad": 1929,
      "▁universal": 1930,
      "leep": 1931,
      "▁additional": 1932,
      "▁simp": 1933,
      "ws": 1934,
      "▁special": 1935,
      "▁critic": 1936,
      "atively": 1937,
      "49": 1938,
      "▁following": 1939,
      "▁veh": 1940,
      "alth": 1941,
      "▁pin": 1942,
      "▁almost": 1943,
      "▁hungry": 1944,
      "▁publish": 1945,
      "▁09:01": 1946,
      "▁5,000": 1947,
      "zac": 1948,
      "▁nations": 1949,
      "▁3,500": 1950,
      ":30": 1951,
      "▁01/26/2001": 1952,
      "▁4.6": 1953,
      "▁281-443-3744": 1954,
      "▁=": 1955,
      "▁ass": 1956,
      "▁vol": 1957,
      "▁en": 1958,
      "▁seventy": 1959,
      "▁sweet": 1960,
      "rod": 1961,
      "▁appearance": 1962,
      "▁tro": 1963,
      "▁glor": 1964,
      "----------------": 1965,
      "roy": 1966,
      "case": 1967,
      "▁b/c": 1968,
      "ral": 1969,
      "▁color": 1970,
      "▁mechan": 1971,
      "▁analyst": 1972,
      "▁son": 1973,
      "▁electric": 1974,
      "▁threat": 1975,
      "▁judg": 1976,
      "nov": 1977,
      "▁breat": 1978,
      "ald": 1979,
      "▁kinds": 1980,
      "▁only": 1981,
      "▁dram": 1982,
      "▁fall": 1983,
      "ashed": 1984,
      "▁))": 1985,
      "▁for": 1986,
      "▁eastern": 1987,
      "▁tried": 1988,
      "▁seconds": 1989,
      "▁exec": 1990,
      "▁able": 1991,
      "________": 1992,
      "▁boys": 1993,
      "▁absolutely": 1994,
      "ash": 1995,
      "▁implement": 1996,
      "acio": 1997,
      "iter": 1998,
      "▁terrible": 1999,
      "▁surround": 2000,
      "▁conduct": 2001,
      "▁sister": 2002,
      "osition": 2003,
      "▁agriculture": 2004,
      "ell": 2005,
      "▁55": 2006,
      "▁33,000": 2007,
      "▁!.": 2008,
      "▁fix": 2009,
      "++": 2010,
      "▁3/4": 2011,
      "-0295": 2012,
      "▁fa": 2013,
      "▁absol": 2014,
      "▁beg": 2015,
      "▁pit": 2016,
      "ately": 2017,
      "arm": 2018,
      "▁systems": 2019,
      "ession": 2020,
      "▁surprised": 2021,
      "▁bottom": 2022,
      "▁animals": 2023,
      "ties": 2024,
      "esc": 2025,
      "▁may": 2026,
      "▁partic": 2027,
      "▁cool": 2028,
      "▁chickens": 2029,
      "▁[": 2030,
      "ز": 2031,
      "▁bump": 2032,
      "viat": 2033,
      "澹": 2034,
      "▁bul": 2035,
      "▁occas": 2036,
      "435": 2037,
      "▁************************************************": 2038,
      "▁fully": 2039,
      "phone": 2040,
      "▁a.m.": 2041,
      "▁procedure": 2042,
      "▁vot": 2043,
      "▁fear": 2044,
      "68": 2045,
      "▁13011": 2046,
      "iz": 2047,
      "▁promise": 2048,
      "▁ding": 2049,
      "▁1580": 2050,
      "uated": 2051,
      "▁total": 2052,
      "ario": 2053,
      "▁girl": 2054,
      "▁nearly": 2055,
      "▁et": 2056,
      "▁mode": 2057,
      "▁newspaper": 2058,
      "ires": 2059,
      "▁brought": 2060,
      "▁zer": 2061,
      "▁asking": 2062,
      "▁exact": 2063,
      "▁'": 2064,
      "▁cities": 2065,
      "ns": 2066,
      "▁funct": 2067,
      "▁zoo": 2068,
      "▁loss": 2069,
      "▁blow": 2070,
      "▁largest": 2071,
      "▁renew": 2072,
      "▁raining": 2073,
      "▁sophie": 2074,
      "ord": 2075,
      "▁366": 2076,
      "▁squir": 2077,
      "▁mhm": 2078,
      "▁become": 2079,
      "jects": 2080,
      "▁double": 2081,
      "▁peters": 2082,
      "▁713-654-03": 2083,
      "▁-------------------------------------------------": 2084,
      "▁weekend": 2085,
      "▁uniform": 2086,
      "▁tuesday": 2087,
      "▁cr": 2088,
      "▁partners": 2089,
      "▁over": 2090,
      "▁bench": 2091,
      "▁communic": 2092,
      "119": 2093,
      "▁americ": 2094,
      "▁miss": 2095,
      "ivid": 2096,
      "▁system": 2097,
      "▁mal": 2098,
      "▁indianapolis": 2099,
      "ached": 2100,
      "‘": 2101,
      "▁password": 2102,
      "▁ball": 2103,
      "▁helping": 2104,
      "▁460": 2105,
      "18": 2106,
      "▁744": 2107,
      "▁plastic": 2108,
      "▁popular": 2109,
      "an@t": 2110,
      "▁climb": 2111,
      ".2": 2112,
      "▁mud": 2113,
      "▁dolph": 2114,
      "▁'s": 2115,
      "0.doc": 2116,
      "erves": 2117,
      "raf": 2118,
      "▁possible": 2119,
      "▁teachers": 2120,
      "▁noticed": 2121,
      "▁patient": 2122,
      "▁2.15": 2123,
      "▁sport": 2124,
      "ct": 2125,
      "▁properly": 2126,
      "▁restrict": 2127,
      "▁uns": 2128,
      "▁falluj": 2129,
      "▁bond": 2130,
      "▁three": 2131,
      "-79": 2132,
      "▁guess": 2133,
      "ɛ": 2134,
      "▁1957": 2135,
      "▁814.86": 2136,
      "ort": 2137,
      "▁nor": 2138,
      "▁twenty-six": 2139,
      "aid": 2140,
      "▁disp": 2141,
      "0th": 2142,
      "▁dec": 2143,
      "▁flat": 2144,
      "▁stomach": 2145,
      "▁changed": 2146,
      "▁staff": 2147,
      "▁06": 2148,
      "▁sitting": 2149,
      "▁catch": 2150,
      "▁thro": 2151,
      ".70": 2152,
      "▁yes": 2153,
      "▁|--------+----------------": 2154,
      "▁selection": 2155,
      "▁ing": 2156,
      "▁238": 2157,
      "▁lab": 2158,
      "▁iraq": 2159,
      "▁press": 2160,
      "▁besid": 2161,
      "▁out": 2162,
      "4-79": 2163,
      "essee": 2164,
      "aves": 2165,
      "iron": 2166,
      "▁types": 2167,
      "ives": 2168,
      "▁hundreds": 2169,
      "▁lay": 2170,
      "▁bowl": 2171,
      "less": 2172,
      "▁outs": 2173,
      "oke": 2174,
      "▁doors": 2175,
      "▁accompl": 2176,
      "109": 2177,
      "▁broad": 2178,
      "▁infrastructure": 2179,
      "43": 2180,
      "▁gulf": 2181,
      "ific": 2182,
      ":35": 2183,
      "side": 2184,
      "▁numer": 2185,
      "▁bre": 2186,
      "▁gun": 2187,
      "ucing": 2188,
      "▁october": 2189,
      "▁heavy": 2190,
      "▁island": 2191,
      "▁jap": 2192,
      "ational": 2193,
      "▁levels": 2194,
      "87": 2195,
      "▁mosqu": 2196,
      "▁tiny": 2197,
      "▁sole": 2198,
      "/26": 2199,
      "▁9221": 2200,
      "▁pos": 2201,
      "▁historical": 2202,
      "going": 2203,
      "▁rome": 2204,
      "▁want": 2205,
      "▁lower": 2206,
      "▁hang": 2207,
      "▁party": 2208,
      "iling": 2209,
      "▁highlight": 2210,
      "▁defe": 2211,
      "▁i.e.": 2212,
      "--------------------------------": 2213,
      "epend": 2214,
      "▁70.85": 2215,
      "▁enough": 2216,
      "ummy": 2217,
      "▁magaz": 2218,
      "▁sm": 2219,
      "▁s’": 2220,
      "▁published": 2221,
      "▁cub": 2222,
      "▁board": 2223,
      "soft": 2224,
      "▁young": 2225,
      "▁personal": 2226,
      "58": 2227,
      "▁apply": 2228,
      "▁your": 2229,
      "▁gre": 2230,
      "igned": 2231,
      "clud": 2232,
      "▁simple": 2233,
      "▁critics": 2234,
      "▁10/26/2000": 2235,
      "▁mentioned": 2236,
      "▁toes": 2237,
      "▁pleased": 2238,
      "▁st.": 2239,
      "▁lee": 2240,
      "▁ocho": 2241,
      "orio": 2242,
      "edge": 2243,
      "▁territ": 2244,
      "▁529999": 2245,
      "▁d": 2246,
      "▁a": 2247,
      "▁50,000": 2248,
      "▁suprem": 2249,
      "▁involved": 2250,
      "▁nutrition": 2251,
      "ious": 2252,
      "▁cle": 2253,
      "▁u.s.": 2254,
      "▁plants": 2255,
      "▁ro": 2256,
      "▁regarding": 2257,
      "▁4.0": 2258,
      "▁ordered": 2259,
      "cceed": 2260,
      "de": 2261,
      "▁poss": 2262,
      "ming": 2263,
      ":18": 2264,
      "▁offered": 2265,
      "▁injury": 2266,
      "▁neigh": 2267,
      "▁1605": 2268,
      "▁formica": 2269,
      "▁324": 2270,
      "▁4_28_00.doc": 2271,
      "ground": 2272,
      "▁formal": 2273,
      "▁decline": 2274,
      "▁bill": 2275,
      "▁1964": 2276,
      "▁sta": 2277,
      "▁crying": 2278,
      "▁capt": 2279,
      "▁potato": 2280,
      "▁can": 2281,
      "▁interv": 2282,
      "algami": 2283,
      "▁clock": 2284,
      "▁speaker": 2285,
      "▁;": 2286,
      "ects": 2287,
      "▁dog": 2288,
      "▁law": 2289,
      "▁concer": 2290,
      "ised": 2291,
      "▁lists": 2292,
      "▁unif": 2293,
      "elds": 2294,
      "▁wa": 2295,
      "▁da": 2296,
      "▁achieve": 2297,
      "▁log": 2298,
      "tw": 2299,
      "▁wonderful": 2300,
      "▁mass": 2301,
      ",950": 2302,
      "ript": 2303,
      "▁last": 2304,
      "▁1623": 2305,
      "▁hot": 2306,
      "▁/": 2307,
      "295": 2308,
      "▁-ect": 2309,
      "z": 2310,
      "▁memphis": 2311,
      "▁pleas": 2312,
      "▁follows": 2313,
      "▁comput": 2314,
      "face": 2315,
      "▁713": 2316,
      "/8": 2317,
      "======": 2318,
      "uz": 2319,
      "▁some": 2320,
      "▁communications": 2321,
      "ull": 2322,
      "▁naim": 2323,
      "▁ear": 2324,
      "▁blackline": 2325,
      "▁stan": 2326,
      "road": 2327,
      "▁get": 2328,
      "▁route": 2329,
      "▁table": 2330,
      "▁tenth": 2331,
      "isions": 2332,
      "▁2.6": 2333,
      "▁essential": 2334,
      "▁familiar": 2335,
      "hood": 2336,
      "▁68": 2337,
      "▁burbank": 2338,
      "30": 2339,
      "▁85": 2340,
      "▁slightly": 2341,
      "▁reliable": 2342,
      "▁185": 2343,
      "ransredes": 2344,
      "▁pic": 2345,
      "▁cou": 2346,
      "▁run": 2347,
      "▁bar": 2348,
      "ips": 2349,
      ":23": 2350,
      "▁around": 2351,
      "▁brief": 2352,
      "▁classes": 2353,
      "7.77": 2354,
      "▁particular": 2355,
      "▁against": 2356,
      "▁dism": 2357,
      "▁25": 2358,
      "▁de": 2359,
      "▁tar": 2360,
      "▁data": 2361,
      "▁regional": 2362,
      "▁sp": 2363,
      "ouse": 2364,
      "34": 2365,
      "▁tele": 2366,
      "▁upd": 2367,
      "▁bedroom": 2368,
      "▁everybody": 2369,
      "▁altern": 2370,
      "iat": 2371,
      "▁idea": 2372,
      "▁cer": 2373,
      "▁suff": 2374,
      "▁104": 2375,
      "d-#6": 2376,
      "▁bugs": 2377,
      "▁experienced": 2378,
      "▁08/17/2000": 2379,
      "▁representative": 2380,
      "▁agre": 2381,
      "▁indeed": 2382,
      "▁sue": 2383,
      "unch": 2384,
      "ll": 2385,
      "▁countries": 2386,
      "▁marriage": 2387,
      "▁sorry": 2388,
      "ellig": 2389,
      "ained": 2390,
      "▁relations": 2391,
      "▁york": 2392,
      "▁record": 2393,
      "ota": 2394,
      "▁'m": 2395,
      "eo": 2396,
      "▁1835": 2397,
      "ask": 2398,
      "▁fit": 2399,
      "▁deg": 2400,
      "urch": 2401,
      "[SEP]": 2402,
      "imes": 2403,
      "▁jam": 2404,
      "▁---=": 2405,
      "▁strategy": 2406,
      "▁where": 2407,
      "▁sar": 2408,
      "▁deriv": 2409,
      "▁exhibit": 2410,
      "▁transport": 2411,
      "▁tur": 2412,
      "ama": 2413,
      "▁nandaro": 2414,
      "▁leadership": 2415,
      "▁11:0": 2416,
      "▁cutting": 2417,
      "▁satan": 2418,
      "▁anymore": 2419,
      "ired": 2420,
      "▁manner": 2421,
      "48": 2422,
      ":13": 2423,
      "▁were": 2424,
      "▁prim": 2425,
      "▁tul": 2426,
      "▁exam": 2427,
      "int": 2428,
      "▁albeit": 2429,
      "▁02/13/2001": 2430,
      "53-3": 2431,
      ".3": 2432,
      "▁hide": 2433,
      "▁dirt": 2434,
      "▁juice": 2435,
      "▁12:1": 2436,
      "▁provided": 2437,
      "erg": 2438,
      "ped": 2439,
      "▁1991": 2440,
      "▁advant": 2441,
      "▁stre": 2442,
      "▁everyone": 2443,
      "▁il": 2444,
      "▁streets": 2445,
      "▁auth": 2446,
      "aph": 2447,
      "▁aspects": 2448,
      "▁las": 2449,
      "ius": 2450,
      "▁equipment": 2451,
      "▁machine": 2452,
      ".8317": 2453,
      "▁opened": 2454,
      "▁07/14/2000": 2455,
      "▁then": 2456,
      "▁nav": 2457,
      "▁langu": 2458,
      "▁congr": 2459,
      "▁keep": 2460,
      "▁vs.": 2461,
      "ti": 2462,
      "ocent": 2463,
      "▁or": 2464,
      "▁coron": 2465,
      "▁sending": 2466,
      "animals": 2467,
      "▁mut": 2468,
      "▁assem": 2469,
      "▁!!!!!!": 2470,
      "▁end": 2471,
      "▁deal": 2472,
      "▁experim": 2473,
      "ecess": 2474,
      "—": 2475,
      "ف": 2476,
      "▁creative": 2477,
      "▁1600": 2478,
      "▁datab": 2479,
      "▁tralee": 2480,
      "al.doc": 2481,
      "▁lope": 2482,
      "▁mart": 2483,
      "ech": 2484,
      "▁play": 2485,
      "▁friends": 2486,
      "▁prompt": 2487,
      "▁11:36": 2488,
      "▁position": 2489,
      "▁unfortunately": 2490,
      "▁ver": 2491,
      "ather": 2492,
      "▁claims": 2493,
      "▁restaur": 2494,
      "et": 2495,
      "▁causes": 2496,
      "ton": 2497,
      "▁und": 2498,
      "usions": 2499,
      "▁japan": 2500,
      "75": 2501,
      "▁benef": 2502,
      "band": 2503,
      "▁111": 2504,
      "▁voice": 2505,
      "▁solid": 2506,
      "▁smoke": 2507,
      "▁sou": 2508,
      "▁well": 2509,
      "▁zawah": 2510,
      "▁measures": 2511,
      "yond": 2512,
      "-10": 2513,
      "▁1115": 2514,
      "▁penal": 2515,
      "▁n'": 2516,
      "ona": 2517,
      "▁se": 2518,
      "▁11-20-": 2519,
      "▁awoh": 2520,
      "ur": 2521,
      "▁450": 2522,
      "izations": 2523,
      "verage": 2524,
      "▁38,000": 2525,
      "▁services": 2526,
      "/2005": 2527,
      "▁kept": 2528,
      "end": 2529,
      "▁skittles": 2530,
      "sters": 2531,
      "▁dipl": 2532,
      "▁lem": 2533,
      "▁glob": 2534,
      "▁apartment": 2535,
      "▁pleasant": 2536,
      "▁htt": 2537,
      "▁learn": 2538,
      "▁helps": 2539,
      "▁mor": 2540,
      "▁jelly": 2541,
      "▁assume": 2542,
      "/97": 2543,
      "▁enj": 2544,
      "head": 2545,
      "ص": 2546,
      "using": 2547,
      "▁grew": 2548,
      "lines": 2549,
      "lin": 2550,
      "izing": 2551,
      "▁stay": 2552,
      "▁death": 2553,
      "▁arri": 2554,
      "▁pay": 2555,
      "▁news": 2556,
      "▁thus": 2557,
      "▁oneself": 2558,
      "▁1598": 2559,
      "we": 2560,
      "▁awful": 2561,
      "▁mitch": 2562,
      "▁143": 2563,
      "▁1986": 2564,
      "▁direction": 2565,
      "▁20": 2566,
      "▁budget": 2567,
      "▁ar": 2568,
      "▁bat": 2569,
      "▁dry": 2570,
      "▁make": 2571,
      "▁wee": 2572,
      ":37": 2573,
      "40": 2574,
      "▁freed": 2575,
      "▁plus": 2576,
      "▁all": 2577,
      "▁depending": 2578,
      "mission": 2579,
      "ake": 2580,
      "▁banana": 2581,
      "fl": 2582,
      "▁comp": 2583,
      "▁bri": 2584,
      "▁signific": 2585,
      "▁1971": 2586,
      "▁pow": 2587,
      "▁piec": 2588,
      "▁unknown": 2589,
      "our": 2590,
      "▁115": 2591,
      "▁stores": 2592,
      "▁ena": 2593,
      "▁type": 2594,
      "▁affected": 2595,
      "enue": 2596,
      "▁trale": 2597,
      "▁again": 2598,
      "▁whale": 2599,
      "▁646-8420": 2600,
      "bel": 2601,
      "▁1039": 2602,
      "ulous": 2603,
      "▁130": 2604,
      "▁646": 2605,
      "▁03/21/2001": 2606,
      "eenth": 2607,
      "enced": 2608,
      "▁appear": 2609,
      "iking": 2610,
      "▁1,000": 2611,
      "▁aboard": 2612,
      "▁sust": 2613,
      "oe": 2614,
      "▁anything": 2615,
      "clusion": 2616,
      "▁federal": 2617,
      "▁joe": 2618,
      "▁eval": 2619,
      "▁1850": 2620,
      "ult": 2621,
      "▁telev": 2622,
      "ase": 2623,
      "▁rom": 2624,
      "▁718-780": 2625,
      "c)": 2626,
      "iao": 2627,
      "▁shakes": 2628,
      "▁official": 2629,
      "cum": 2630,
      "▁joined": 2631,
      "gin": 2632,
      "▁coun": 2633,
      "▁that": 2634,
      "ve": 2635,
      "ome": 2636,
      "▁beginning": 2637,
      "▁subject": 2638,
      "▁wolf": 2639,
      "▁director": 2640,
      "inated": 2641,
      "▁robot": 2642,
      "▁left": 2643,
      "oug": 2644,
      "▁thank": 2645,
      "▁tra": 2646,
      "▁settled": 2647,
      "▁spell": 2648,
      "ees": 2649,
      "▁199": 2650,
      "▁401": 2651,
      "▁whether": 2652,
      "▁rural": 2653,
      "▁mohammed": 2654,
      "▁1998": 2655,
      "▁management": 2656,
      "▁norm": 2657,
      "▁sel": 2658,
      "life": 2659,
      "▁glass": 2660,
      "▁12": 2661,
      "▁describe": 2662,
      "▁centre": 2663,
      "▁desper": 2664,
      "▁chocol": 2665,
      "▁sweetie": 2666,
      "eb": 2667,
      "enn": 2668,
      "adelp": 2669,
      "▁cod": 2670,
      "anc": 2671,
      "▁sample": 2672,
      "eight": 2673,
      "acion": 2674,
      "▁vegas": 2675,
      "▁push": 2676,
      "▁low": 2677,
      "▁negative": 2678,
      "tejo": 2679,
      "▁fare": 2680,
      "........": 2681,
      "▁march": 2682,
      "μ": 2683,
      "▁ta": 2684,
      "how": 2685,
      "dom": 2686,
      "ever": 2687,
      "▁employ": 2688,
      "icago": 2689,
      "ce": 2690,
      "▁literary": 2691,
      "▁six": 2692,
      "▁investig": 2693,
      "▁along": 2694,
      "▁website": 2695,
      "▁150": 2696,
      "▁shelf": 2697,
      "rees": 2698,
      "erno": 2699,
      "▁crack": 2700,
      "rem": 2701,
      "▁e-m": 2702,
      "rial": 2703,
      "▁labor": 2704,
      "ft8-7": 2705,
      "▁spect": 2706,
      ".st": 2707,
      "erc": 2708,
      "▁1959": 2709,
      "▁include": 2710,
      "▁7": 2711,
      "▁military": 2712,
      "/30": 2713,
      "▁grass": 2714,
      "▁answers": 2715,
      "pre": 2716,
      "▁civ": 2717,
      "_28": 2718,
      "▁evolution": 2719,
      "▁pretend": 2720,
      "oy": 2721,
      "▁dark": 2722,
      "▁mexican": 2723,
      "1": 2724,
      "▁austral": 2725,
      "▁syri": 2726,
      "▁deb": 2727,
      "employ": 2728,
      "▁thomas": 2729,
      "▁connect": 2730,
      "▁diff": 2731,
      ":01": 2732,
      "inny": 2733,
      "▁claim": 2734,
      "▁fourth": 2735,
      "▁expect": 2736,
      "▁mont": 2737,
      "▁12.": 2738,
      "burg": 2739,
      "▁hus": 2740,
      "▁standards": 2741,
      "▁03:3": 2742,
      "▁thirty": 2743,
      "▁09/16": 2744,
      "▁features": 2745,
      "▁courses": 2746,
      "▁iraqi": 2747,
      "▁,?": 2748,
      "ulated": 2749,
      "▁seems": 2750,
      "▁dursleys": 2751,
      "ł": 2752,
      "01": 2753,
      "▁public": 2754,
      "▁update": 2755,
      "let": 2756,
      "ipt": 2757,
      "orum": 2758,
      "9/2000": 2759,
      "22,000": 2760,
      "▁quest": 2761,
      "▁non": 2762,
      "▁vac": 2763,
      "aiss": 2764,
      ".net": 2765,
      "ice": 2766,
      "ung": 2767,
      "▁'71": 2768,
      "▁names": 2769,
      "▁goes": 2770,
      "▁goo": 2771,
      "▁buildings": 2772,
      "▁production": 2773,
      "▁5.8": 2774,
      "der": 2775,
      "▁adam": 2776,
      "▁benefits": 2777,
      "▁constit": 2778,
      "▁marie": 2779,
      "▁muslim": 2780,
      "▁real": 2781,
      "uce": 2782,
      "▁weap": 2783,
      "ways": 2784,
      "▁transmission": 2785,
      "▁camera": 2786,
      "▁iron": 2787,
      "▁04/30/2001": 2788,
      "bie": 2789,
      "▁regist": 2790,
      "▁4:30": 2791,
      "icide": 2792,
      "teboo": 2793,
      "zai": 2794,
      "▁spring": 2795,
      "▁afghanistan": 2796,
      "________________": 2797,
      "▁fat": 2798,
      "▁desire": 2799,
      "▁column": 2800,
      "▁includ": 2801,
      "▁ind": 2802,
      "▁hire": 2803,
      "ano": 2804,
      "res": 2805,
      "▁0": 2806,
      "▁loan": 2807,
      "▁compet": 2808,
      "▁1616": 2809,
      "▁os": 2810,
      "au": 2811,
      "▁freedom": 2812,
      "icy": 2813,
      "▁1179": 2814,
      "icult": 2815,
      "▁elements": 2816,
      "▁v.": 2817,
      "gn": 2818,
      "▁forms": 2819,
      ",0": 2820,
      "stairs": 2821,
      "▁follow": 2822,
      "'s": 2823,
      "▁doggie": 2824,
      "▁looks": 2825,
      "▁but": 2826,
      "▁xiii": 2827,
      "ery": 2828,
      "▁whoever": 2829,
      "more": 2830,
      "▁sect": 2831,
      "▁less": 2832,
      "▁1691": 2833,
      "▁interviews": 2834,
      "▁existing": 2835,
      "▁safety": 2836,
      "ament": 2837,
      "▁joke": 2838,
      "æ": 2839,
      "oub": 2840,
      "▁dest": 2841,
      ",5": 2842,
      "▁esp": 2843,
      "口": 2844,
      "▁quant": 2845,
      "erry": 2846,
      "▁fro": 2847,
      "▁okay": 2848,
      "▁depend": 2849,
      "▁necess": 2850,
      "▁dri": 2851,
      "▁clothes": 2852,
      "▁difficult": 2853,
      "▁full": 2854,
      "▁proc": 2855,
      "gan": 2856,
      "▁times": 2857,
      "▁sing": 2858,
      "▁du": 2859,
      "▁fashion": 2860,
      "▁ang": 2861,
      "▁chair": 2862,
      "▁bunch": 2863,
      "▁steph": 2864,
      "▁happening": 2865,
      "▁community": 2866,
      "▁obviously": 2867,
      "▁:(": 2868,
      "▁computer": 2869,
      "!!!!!!!!": 2870,
      "14": 2871,
      "ls": 2872,
      "▁’’": 2873,
      "▁sat": 2874,
      "ed": 2875,
      "▁somehow": 2876,
      "reh": 2877,
      "▁opportun": 2878,
      "med": 2879,
      "▁rub": 2880,
      "ried": 2881,
      "▁item": 2882,
      "▁love": 2883,
      "dred": 2884,
      "▁w3c": 2885,
      "▁dall": 2886,
      "ory": 2887,
      "15-": 2888,
      "▁suddenly": 2889,
      "ilar": 2890,
      "▁month": 2891,
      "▁do": 2892,
      "bs": 2893,
      "▁respect": 2894,
      "▁studies": 2895,
      "--------------------------------------------": 2896,
      "▁amendment": 2897,
      "▁myself": 2898,
      "▁wind": 2899,
      "▁canc": 2900,
      "▁4.": 2901,
      "▁bee": 2902,
      "▁maris": 2903,
      "▁leaving": 2904,
      "▁came": 2905,
      "▁ed": 2906,
      "enes": 2907,
      "cab": 2908,
      "▁c": 2909,
      "▁oper": 2910,
      "▁begun": 2911,
      "▁wol": 2912,
      "▁sl": 2913,
      "▁93": 2914,
      "sd": 2915,
      "osure": 2916,
      "▁cowboy": 2917,
      "▁scholars": 2918,
      "▁bone": 2919,
      "▁cases": 2920,
      "▁60": 2921,
      "wards": 2922,
      "▁compl": 2923,
      "▁1929": 2924,
      "▁applied": 2925,
      "▁01:09": 2926,
      "▁nandakke": 2927,
      "▁upon": 2928,
      "65": 2929,
      "▁confidential": 2930,
      "ransred": 2931,
      "▁cow": 2932,
      "▁03/28/2001": 2933,
      "iar": 2934,
      "ipp": 2935,
      "▁169": 2936,
      "▁sunni": 2937,
      "▁4:50": 2938,
      "▁un": 2939,
      "▁self": 2940,
      "▁met": 2941,
      "gl": 2942,
      "▁point": 2943,
      ":16": 2944,
      "ick": 2945,
      "▁fast": 2946,
      "aking": 2947,
      "ottable": 2948,
      "▁uncle": 2949,
      "¢": 2950,
      "▁stuck": 2951,
      "rib": 2952,
      "▁expand": 2953,
      "▁prepare": 2954,
      "eck": 2955,
      "36": 2956,
      "▁basket": 2957,
      "ning": 2958,
      "ent": 2959,
      "▁rev": 2960,
      "ston": 2961,
      "▁lift": 2962,
      "▁sources": 2963,
      "ft": 2964,
      "▁later": 2965,
      "▁organization": 2966,
      "uff": 2967,
      "和": 2968,
      "▁schools": 2969,
      "▁sarah": 2970,
      "▁exch": 2971,
      "▁max": 2972,
      "▁something": 2973,
      "▁spl": 2974,
      "▁parad": 2975,
      "yal": 2976,
      "▁rele": 2977,
      "ly": 2978,
      "▁legislation": 2979,
      "▁thru": 2980,
      "▁legos": 2981,
      "--": 2982,
      "▁batter": 2983,
      "▁)": 2984,
      "▁doct": 2985,
      "▁1:30": 2986,
      "inking": 2987,
      "▁iod": 2988,
      "▁viet": 2989,
      "▁karen": 2990,
      "▁trav": 2991,
      "▁cas": 2992,
      "--------+----------------": 2993,
      "▁no": 2994,
      "ka": 2995,
      "▁arrog": 2996,
      "▁cash": 2997,
      "▁contribution": 2998,
      "▁2003": 2999,
      "▁66": 3000,
      "▁ident": 3001,
      "ison": 3002,
      "▁800-5": 3003,
      "▁improve": 3004,
      "ounds": 3005,
      "▁scan": 3006,
      "estic": 3007,
      "▁weekly": 3008,
      "▁fiction": 3009,
      "??": 3010,
      "▁generally": 3011,
      "▁stupid": 3012,
      "ency": 3013,
      "▁hy": 3014,
      ",9": 3015,
      "▁identity": 3016,
      "▁etc.": 3017,
      "▁atlanta": 3018,
      "▁imposs": 3019,
      "▁11/2": 3020,
      "▁sli": 3021,
      "▁shoe": 3022,
      "▁musharraf": 3023,
      "▁release": 3024,
      "glo": 3025,
      "▁comple": 3026,
      "▁x": 3027,
      "ʃ": 3028,
      "ance": 3029,
      "▁ann": 3030,
      "▁beyond": 3031,
      "▁murder": 3032,
      "huh": 3033,
      "▁{": 3034,
      "▁lost": 3035,
      "▁530": 3036,
      "▁name": 3037,
      "++++++++": 3038,
      "▁southern": 3039,
      "▁most": 3040,
      "▁commun": 3041,
      "pan": 3042,
      "▁friend": 3043,
      "▁coming": 3044,
      "▁hos": 3045,
      "ou": 3046,
      "łod": 3047,
      "▁2.": 3048,
      "▁aircraft": 3049,
      "▁3": 3050,
      "▁grow": 3051,
      "▁pre": 3052,
      "aff": 3053,
      "▁box": 3054,
      "oon": 3055,
      "▁competition": 3056,
      "▁piz": 3057,
      "▁presents": 3058,
      "ear": 3059,
      "▁trouble": 3060,
      "▁|": 3061,
      "▁santorum": 3062,
      "ilit": 3063,
      "▁ate": 3064,
      "/10": 3065,
      "▁04:17": 3066,
      "▁glove": 3067,
      "▁got": 3068,
      "oot": 3069,
      "▁letter": 3070,
      "31": 3071,
      "▁1967": 3072,
      "▁foundation": 3073,
      "▁158": 3074,
      "▁620-": 3075,
      "▁prec": 3076,
      "▁saying": 3077,
      "▁oc": 3078,
      "▁wet": 3079,
      "▁o": 3080,
      "▁sugg": 3081,
      "½": 3082,
      "========": 3083,
      "▁713-654-": 3084,
      "▁growing": 3085,
      "▁showing": 3086,
      "41": 3087,
      "静": 3088,
      "▁technical": 3089,
      "xim": 3090,
      "▁hal": 3091,
      "▁afric": 3092,
      "▁lea": 3093,
      "▁4-12": 3094,
      "▁land": 3095,
      "▁perm": 3096,
      "▁fifteen": 3097,
      "▁republic": 3098,
      "▁spending": 3099,
      "▁dent": 3100,
      "▁fin": 3101,
      "ame": 3102,
      "▁herself": 3103,
      "▁activity": 3104,
      "▁like": 3105,
      "▁bigger": 3106,
      "▁15": 3107,
      "▁kitty": 3108,
      "▁considering": 3109,
      "▁terrorist": 3110,
      "▁wake": 3111,
      "▁137": 3112,
      "tc": 3113,
      "▁share": 3114,
      "2/2001": 3115,
      "uela": 3116,
      "ware": 3117,
      "▁3889": 3118,
      "▁82": 3119,
      "▁zero": 3120,
      "津": 3121,
      "▁gorio": 3122,
      "rict": 3123,
      "▁505-625": 3124,
      "▁departing": 3125,
      "▁33": 3126,
      "▁host": 3127,
      "▁reflect": 3128,
      "▁beauty": 3129,
      "▁auster": 3130,
      "▁sour": 3131,
      "▁shit": 3132,
      "▁canad": 3133,
      "ef": 3134,
      "▁na": 3135,
      "▁(b)": 3136,
      "anger": 3137,
      "▁+45": 3138,
      "ad": 3139,
      "▁find": 3140,
      "▁hub": 3141,
      "▁4:00": 3142,
      "▁reality": 3143,
      "bage": 3144,
      "▁concepts": 3145,
      "▁dinos": 3146,
      "▁border": 3147,
      "3c": 3148,
      "ish": 3149,
      "age": 3150,
      ".25": 3151,
      "▁alber": 3152,
      "▁momma": 3153,
      "▁speech": 3154,
      "▁315": 3155,
      "▁revolution": 3156,
      "▁police": 3157,
      "▁attend": 3158,
      "▁i": 3159,
      "-84": 3160,
      "▁islamic": 3161,
      "▁signed": 3162,
      "▁vallee": 3163,
      "▁alcalde": 3164,
      "#": 3165,
      "onom": 3166,
      "▁discip": 3167,
      "▁here": 3168,
      "▁clim": 3169,
      "▁matt": 3170,
      "▁99": 3171,
      "▁spend": 3172,
      "▁co": 3173,
      "▁el": 3174,
      "ject": 3175,
      "▁transm": 3176,
      "▁approxim": 3177,
      "ften": 3178,
      "ley": 3179,
      "▁iranian": 3180,
      "▁1504": 3181,
      "▁movie": 3182,
      "▁hur": 3183,
      ".77": 3184,
      "▁59": 3185,
      "▁fork": 3186,
      "▁won": 3187,
      "apolis": 3188,
      "ak": 3189,
      "▁doctor": 3190,
      "▁iss": 3191,
      "▁magazine": 3192,
      "▁carol": 3193,
      "ble": 3194,
      "▁fact": 3195,
      "▁teach": 3196,
      "03": 3197,
      "vely": 3198,
      "▁successful": 3199,
      "▁te": 3200,
      "▁down": 3201,
      "▁school": 3202,
      "▁web": 3203,
      "ito": 3204,
      "▁above": 3205,
      "▁mathemat": 3206,
      "▁1985": 3207,
      "▁theat": 3208,
      "▁recommend": 3209,
      "4014": 3210,
      ":00": 3211,
      "▁bring": 3212,
      "▁wor": 3213,
      "op": 3214,
      "45": 3215,
      "▁apart": 3216,
      "▁1145": 3217,
      "▁46": 3218,
      "▁dere": 3219,
      "ism": 3220,
      "▁nato": 3221,
      "▁fal": 3222,
      "▁search": 3223,
      "zy": 3224,
      "back": 3225,
      "▁stat": 3226,
      "▁europe": 3227,
      "▁dol": 3228,
      "▁effective": 3229,
      "▁922": 3230,
      "▁egypt": 3231,
      "▁ability": 3232,
      "▁insur": 3233,
      "ents": 3234,
      "aped": 3235,
      "ceed": 3236,
      "ium": 3237,
      "ia": 3238,
      "cc": 3239,
      "anie": 3240,
      "▁round": 3241,
      "▁eye": 3242,
      "▁1925": 3243,
      "uding": 3244,
      "stem": 3245,
      "for": 3246,
      "▁smell": 3247,
      "▁=---": 3248,
      "▁cath": 3249,
      "algamiento": 3250,
      "▁intelligence": 3251,
      "▁obt": 3252,
      "α": 3253,
      "▁11/08/2000": 3254,
      "ibly": 3255,
      "▁collect": 3256,
      "▁03": 3257,
      "▁cats": 3258,
      "▁ros": 3259,
      "▁687": 3260,
      "▁broken": 3261,
      "▁van": 3262,
      "▁202.456": 3263,
      "tail": 3264,
      "▁represent": 3265,
      "▁squ": 3266,
      "▁medic": 3267,
      "7/2001": 3268,
      "▁discovered": 3269,
      "▁unique": 3270,
      "-991-9": 3271,
      "▁….": 3272,
      "▁guarantee": 3273,
      "▁introduced": 3274,
      "▁01/25/2001": 3275,
      "▁1951": 3276,
      "▁trees": 3277,
      "ver": 3278,
      "▁bridge": 3279,
      "▁yard": 3280,
      "▁has": 3281,
      "▁distort": 3282,
      "▁takes": 3283,
      "▁bever": 3284,
      "▁neu": 3285,
      "v.": 3286,
      "a": 3287,
      "▁custom": 3288,
      "▁barn": 3289,
      "▁business": 3290,
      "▁club": 3291,
      "oin": 3292,
      "ence": 3293,
      "▁---->===}*{===<----": 3294,
      "▁202.7": 3295,
      "▁1799": 3296,
      "▁be": 3297,
      "η": 3298,
      "_0": 3299,
      "▁bodies": 3300,
      "istics": 3301,
      "▁ric": 3302,
      "▁elect": 3303,
      "▁balloon": 3304,
      "ami": 3305,
      "hn": 3306,
      "non": 3307,
      "reg": 3308,
      "▁tank": 3309,
      "▁1:00": 3310,
      "+": 3311,
      "▁107": 3312,
      "▁---": 3313,
      "▁:-)": 3314,
      "▁dogg": 3315,
      "▁title": 3316,
      "utes": 3317,
      "▁jo": 3318,
      "▁saudi": 3319,
      "88": 3320,
      "▁713-654-0365": 3321,
      "▁6871082": 3322,
      "▁1944": 3323,
      "▁boston": 3324,
      "▁chat": 3325,
      "▁del": 3326,
      "▁cam": 3327,
      "▁plant": 3328,
      "▁liquid": 3329,
      "iner": 3330,
      "▁spear": 3331,
      "▁quino": 3332,
      "▁1.00": 3333,
      "▁ago": 3334,
      "light": 3335,
      "por": 3336,
      "▁!!!": 3337,
      "ate": 3338,
      "▁airport": 3339,
      "▁mat": 3340,
      "▁appreciate": 3341,
      "house": 3342,
      "▁575": 3343,
      "▁wr": 3344,
      "▁mother": 3345,
      "lackl": 3346,
      "▁mom": 3347,
      "ij": 3348,
      "▁honest": 3349,
      "▁application": 3350,
      "▁dress": 3351,
      "rier": 3352,
      "▁cro": 3353,
      "▁sit": 3354,
      "▁environment": 3355,
      "xic": 3356,
      "cil": 3357,
      "▁0590": 3358,
      "▁diversity": 3359,
      "ʁ": 3360,
      "▁eating": 3361,
      "▁learning": 3362,
      "/30/2001": 3363,
      "▁chocolate": 3364,
      "vil": 3365,
      "▁turistica": 3366,
      "el": 3367,
      "▁operations": 3368,
      "▁sus": 3369,
      "sex": 3370,
      "▁di": 3371,
      "▁february": 3372,
      "▁thinking": 3373,
      "▁scient": 3374,
      "▁had": 3375,
      "▁416-865-3": 3376,
      "▁sector": 3377,
      "raph": 3378,
      "gg": 3379,
      "▁compreh": 3380,
      "▁chicken": 3381,
      "arch": 3382,
      "▁teaching": 3383,
      "▁2:30": 3384,
      "▁hospital": 3385,
      "▁she": 3386,
      "urt": 3387,
      "east": 3388,
      "▁09:": 3389,
      "aster": 3390,
      "▁instead": 3391,
      "▁when": 3392,
      "▁positions": 3393,
      "▁say": 3394,
      "▁families": 3395,
      "▁!!!!!!!!!!!!!!!": 3396,
      "▁story": 3397,
      "▁invest": 3398,
      "▁first": 3399,
      "▁beach": 3400,
      "▁top": 3401,
      "▁silly": 3402,
      "▁careful": 3403,
      "▁worked": 3404,
      "▁copies": 3405,
      "▁emb": 3406,
      "▁enc": 3407,
      "rical": 3408,
      "ers": 3409,
      "▁cre": 3410,
      "▁ded": 3411,
      "▁couch": 3412,
      "▁slight": 3413,
      "▁county": 3414,
      "▁ath": 3415,
      "▁....................": 3416,
      "▁wild": 3417,
      "▁!!!!!!!!!!!!!": 3418,
      "▁medium": 3419,
      "▁experi": 3420,
      "acts": 3421,
      "▁sev": 3422,
      "▁windows": 3423,
      "▁pe": 3424,
      "85": 3425,
      "▁humaine": 3426,
      "right": 3427,
      "▁197": 3428,
      "▁wondering": 3429,
      "▁july": 3430,
      "▁as": 3431,
      "reat": 3432,
      "▁span": 3433,
      "▁bn": 3434,
      "▁tool": 3435,
      "▁disappoint": 3436,
      "▁pencil": 3437,
      "▁vogelaviatiolap": 3438,
      "▁stella": 3439,
      "▁spin": 3440,
      "ased": 3441,
      "▁conscious": 3442,
      "▁neat": 3443,
      "▁d.": 3444,
      "▁milit": 3445,
      "ature": 3446,
      "▁lu": 3447,
      "amental": 3448,
      "▁195": 3449,
      "▁tit": 3450,
      "▁degrees": 3451,
      "▁|--------+----------------------->": 3452,
      "▁dav": 3453,
      "▁corp": 3454,
      "tip": 3455,
      "▁impact": 3456,
      "▁protect": 3457,
      "▁liked": 3458,
      "▁australia": 3459,
      "hold": 3460,
      "ited": 3461,
      "▁·": 3462,
      "▁drug": 3463,
      "ivia": 3464,
      "▁cray": 3465,
      "ifies": 3466,
      "▁dc": 3467,
      "▁aw": 3468,
      "²": 3469,
      "▁requ": 3470,
      "▁cincinnati": 3471,
      "▁price": 3472,
      "▁location": 3473,
      "▁phen": 3474,
      "▁carro": 3475,
      "▁adopted": 3476,
      "inging": 3477,
      "▁---------------------------------": 3478,
      "80": 3479,
      "irts": 3480,
      "▁knew": 3481,
      "▁2006": 3482,
      "▁secur": 3483,
      "▁demon": 3484,
      "▁blackl": 3485,
      "▁w.": 3486,
      "▁4_28": 3487,
      "▁north": 3488,
      "▁belief": 3489,
      "oulder": 3490,
      "▁1579": 3491,
      "town": 3492,
      "▁demand": 3493,
      "-23": 3494,
      "▁80,000": 3495,
      "ا": 3496,
      "▁begins": 3497,
      "▁dand": 3498,
      "▁parking": 3499,
      "sych": 3500,
      "▁12:30": 3501,
      "sh": 3502,
      "▁bea": 3503,
      "word": 3504,
      "sid": 3505,
      "▁sunday": 3506,
      "ipe": 3507,
      "olly": 3508,
      "ge": 3509,
      "▁task": 3510,
      "▁adding": 3511,
      "▁reading": 3512,
      "▁1724": 3513,
      "▁42,000": 3514,
      "▁nick": 3515,
      "▁picked": 3516,
      "▁post": 3517,
      "▁implementing": 3518,
      "▁i.": 3519,
      "0s": 3520,
      "▁grandmother": 3521,
      "▁horsie": 3522,
      "▁liqu": 3523,
      "actions": 3524,
      "▁developed": 3525,
      "▁glasses": 3526,
      "▁ale": 3527,
      "aint": 3528,
      "▁principle": 3529,
      "▁advert": 3530,
      "▁word": 3531,
      "▁345": 3532,
      "ints": 3533,
      "`": 3534,
      "▁reli": 3535,
      "▁investment": 3536,
      "unte": 3537,
      "▁obs": 3538,
      "-3": 3539,
      "ces": 3540,
      "▁need": 3541,
      "▁09/16/99": 3542,
      "▁seis": 3543,
      "ense": 3544,
      "▁probably": 3545,
      "▁candid": 3546,
      "itted": 3547,
      "▁complete": 3548,
      "▁shakespeare": 3549,
      "▁screw": 3550,
      "chi": 3551,
      "▁decl": 3552,
      "▁19": 3553,
      "▁surpr": 3554,
      "▁dro": 3555,
      "▁800.713.86": 3556,
      "▁jack": 3557,
      "▁comm": 3558,
      "▁1902": 3559,
      "ner": 3560,
      "▁course": 3561,
      "▁vogel": 3562,
      "▁567.77": 3563,
      "▁rack": 3564,
      "ities": 3565,
      "▁1849": 3566,
      "anim": 3567,
      "▁pad": 3568,
      "▁med": 3569,
      "sequ": 3570,
      "▁products": 3571,
      "▁lose": 3572,
      "▁jew": 3573,
      "atic": 3574,
      "tim": 3575,
      "▁1779": 3576,
      "▁conf": 3577,
      "▁ens": 3578,
      "ids": 3579,
      "▁score": 3580,
      ":11": 3581,
      "▁sense": 3582,
      "▁2.9": 3583,
      "▁nice": 3584,
      "▁documents": 3585,
      "▁aesth": 3586,
      "▁cook": 3587,
      "iety": 3588,
      "▁shorts": 3589,
      ":5": 3590,
      "▁google": 3591,
      "▁records": 3592,
      "▁3,": 3593,
      "ff": 3594,
      "▁630": 3595,
      "▁durs": 3596,
      "▁green": 3597,
      "ir": 3598,
      "▁excuse": 3599,
      "▁281": 3600,
      "▁1604": 3601,
      "▁related": 3602,
      "aq": 3603,
      "▁ash": 3604,
      "▁airports": 3605,
      "▁player": 3606,
      "alam": 3607,
      "▁valley": 3608,
      "stances": 3609,
      "▁night": 3610,
      "▁u": 3611,
      "▁dollars": 3612,
      "▁sens": 3613,
      "▁bulld": 3614,
      "▁soph": 3615,
      "▁crazy": 3616,
      "b)": 3617,
      "▁assist": 3618,
      "ely": 3619,
      "▁places": 3620,
      "▁cour": 3621,
      "▁eng": 3622,
      "▁taliban": 3623,
      "▁mouse": 3624,
      "▁est": 3625,
      "ically": 3626,
      "▁promised": 3627,
      "▁william": 3628,
      "76": 3629,
      "▁ignor": 3630,
      "▁tree": 3631,
      "uit": 3632,
      "▁such": 3633,
      "▁pieces": 3634,
      "▁needs": 3635,
      "ler": 3636,
      "00": 3637,
      "▁wast": 3638,
      "15": 3639,
      "anta": 3640,
      "▁propos": 3641,
      "▁write": 3642,
      "▁10:25": 3643,
      "lig": 3644,
      "ined": 3645,
      ",7": 3646,
      "▁rap": 3647,
      "▁1560": 3648,
      "▁recru": 3649,
      "cept": 3650,
      "grin": 3651,
      "▁mar": 3652,
      "▁1832": 3653,
      "ida": 3654,
      "▁fingers": 3655,
      "▁ve": 3656,
      "▁1110": 3657,
      "oud": 3658,
      "▁shackl": 3659,
      "qu": 3660,
      "▁final": 3661,
      "▁kitten": 3662,
      "id": 3663,
      "▁:": 3664,
      "with": 3665,
      "▁struct": 3666,
      "▁03/02/2001": 3667,
      "▁prior": 3668,
      "ugh": 3669,
      "ury": 3670,
      "▁foreign": 3671,
      "▁grounds": 3672,
      "▁34": 3673,
      "/17/99": 3674,
      "▁suggested": 3675,
      "▁scene": 3676,
      "499": 3677,
      "▁playing": 3678,
      "uch": 3679,
      "▁negoti": 3680,
      "▁wine": 3681,
      "▁412": 3682,
      "▁require": 3683,
      "▁04:28": 3684,
      "▁buttons": 3685,
      "▁reported": 3686,
      "<----": 3687,
      "▁earlier": 3688,
      "▁physical": 3689,
      "itions": 3690,
      "▁traveling": 3691,
      "θ": 3692,
      "▁lucky": 3693,
      "aries": 3694,
      "▁chines": 3695,
      "▁bath": 3696,
      "▁pl": 3697,
      "▁look": 3698,
      "▁foot": 3699,
      "▁1900": 3700,
      "▁!!": 3701,
      "▁&": 3702,
      "▁pizza": 3703,
      "▁2:00": 3704,
      ".7": 3705,
      "▁cock": 3706,
      "bol": 3707,
      "ances": 3708,
      "▁env": 3709,
      "/7": 3710,
      "bruary": 3711,
      "▁birds": 3712,
      ".718": 3713,
      "▁turns": 3714,
      ".7822": 3715,
      "▁dining": 3716,
      "ular": 3717,
      "▁hurt": 3718,
      "oul": 3719,
      "▁hundred": 3720,
      "▁enemy": 3721,
      "ken": 3722,
      "▁unles": 3723,
      "▁s/he": 3724,
      "▁territory": 3725,
      "▁greet": 3726,
      "▁easier": 3727,
      "cement": 3728,
      "board": 3729,
      "▁ku": 3730,
      "ining": 3731,
      "▁recall": 3732,
      "▁account": 3733,
      "▁les": 3734,
      "rans": 3735,
      "ione": 3736,
      "-r": 3737,
      "▁ven": 3738,
      "-696": 3739,
      "▁fill": 3740,
      "im": 3741,
      "ancy": 3742,
      "▁contr": 3743,
      "▁300": 3744,
      "▁1801": 3745,
      "▁authority": 3746,
      "pts": 3747,
      ":": 3748,
      "▁nook": 3749,
      "▁governments": 3750,
      "gle": 3751,
      "0/2000": 3752,
      "▁sho": 3753,
      "▁whole": 3754,
      "/11": 3755,
      "4": 3756,
      ":58": 3757,
      "▁directly": 3758,
      "27": 3759,
      "▁hit": 3760,
      "ht": 3761,
      "▁4.7": 3762,
      "▁crowd": 3763,
      "▁tren": 3764,
      ".m.": 3765,
      "▁compan": 3766,
      "________________________________": 3767,
      "▁ye": 3768,
      "ape": 3769,
      "▁app": 3770,
      "als": 3771,
      "▁strike": 3772,
      "▁turis": 3773,
      "▁columb": 3774,
      "▁tru": 3775,
      "▁ger": 3776,
      "eeze": 3777,
      "▁elevator": 3778,
      "▁mos": 3779,
      "▁tract": 3780,
      "▁22": 3781,
      "elly": 3782,
      "▁01/1": 3783,
      "▁yog": 3784,
      "br": 3785,
      "▁soil": 3786,
      "▁surface": 3787,
      "▁influ": 3788,
      "▁suffering": 3789,
      "▁feed": 3790,
      "▁start": 3791,
      "▁[...]": 3792,
      "ح": 3793,
      "11": 3794,
      "ops": 3795,
      "▁control": 3796,
      "▁consum": 3797,
      "▁found": 3798,
      "▁ep": 3799,
      "▁fir": 3800,
      "▁offer": 3801,
      "▁peop": 3802,
      "ww": 3803,
      "▁bag": 3804,
      "▁kitt": 3805,
      "▁due": 3806,
      "3-3744": 3807,
      "▁dem": 3808,
      "▁fresh": 3809,
      "iring": 3810,
      "▁hind": 3811,
      "▁remained": 3812,
      "▁`s": 3813,
      "▁forty-": 3814,
      "▁horse": 3815,
      "▁rel": 3816,
      "▁04": 3817,
      "91": 3818,
      "▁justice": 3819,
      "angu": 3820,
      "▁ad": 3821,
      "exp": 3822,
      "▁718": 3823,
      "▁customers": 3824,
      "ght": 3825,
      "ect": 3826,
      "pr": 3827,
      "▁airpl": 3828,
      "▁curren": 3829,
      "▁importance": 3830,
      "▁smile": 3831,
      "▁adm": 3832,
      "▁silk": 3833,
      "▁gen": 3834,
      "▁texas": 3835,
      "▁02/27/2001": 3836,
      "▁gisb": 3837,
      "▁techn": 3838,
      "7th": 3839,
      "▁fifty": 3840,
      "▁bab": 3841,
      "etic": 3842,
      "ending": 3843,
      "▁comedie": 3844,
      "▁stillman": 3845,
      "▁river": 3846,
      "▁1230": 3847,
      "1.": 3848,
      "▁stopping": 3849,
      "▁autom": 3850,
      "▁ped": 3851,
      "▁1970": 3852,
      "is": 3853,
      "▁economies": 3854,
      "ors": 3855,
      "▁next": 3856,
      "☎": 3857,
      "▁fine": 3858,
      "▁>----------------------------------------------------------------------------": 3859,
      "▁rot": 3860,
      "▁con": 3861,
      "▁proceed": 3862,
      "▁handle": 3863,
      "▁charge": 3864,
      "as": 3865,
      "\\": 3866,
      "▁offers": 3867,
      "▁geor": 3868,
      "▁africa": 3869,
      "▁wall": 3870,
      "▁show": 3871,
      "▁nasa": 3872,
      "▁shot": 3873,
      "▁bassiana": 3874,
      "▁meth": 3875,
      "▁aside": 3876,
      "▁percent": 3877,
      "▁informacion": 3878,
      "▁paid": 3879,
      "▁till": 3880,
      "▁receive": 3881,
      "▁ted": 3882,
      "eric": 3883,
      "▁charles": 3884,
      "▁flights": 3885,
      "▁76": 3886,
      "▁form": 3887,
      "▁comment": 3888,
      "▁newsp": 3889,
      "▁seattle": 3890,
      "▁860": 3891,
      "▁described": 3892,
      "▁ey": 3893,
      "▁exactly": 3894,
      "▁come": 3895,
      "▁event": 3896,
      "gami": 3897,
      "▁stories": 3898,
      "▁cy": 3899,
      "▁frozen": 3900,
      "▁dans": 3901,
      "▁mm": 3902,
      "▁re": 3903,
      "iqu": 3904,
      "illing": 3905,
      "▁lim": 3906,
      "▁gone": 3907,
      "ender": 3908,
      "▁cir": 3909,
      "▁strain": 3910,
      "▁shower": 3911,
      "▁.xsl": 3912,
      "▁alth": 3913,
      "▁income": 3914,
      "▁sufficient": 3915,
      "▁210": 3916,
      "▁luc": 3917,
      "gre": 3918,
      "▁entire": 3919,
      "▁eleven": 3920,
      "▁300,000": 3921,
      "70": 3922,
      "▁certific": 3923,
      "io": 3924,
      "y": 3925,
      "7/99": 3926,
      "ising": 3927,
      "▁pro": 3928,
      "▁set": 3929,
      "▁1968": 3930,
      "▁after": 3931,
      "****": 3932,
      "▁24,000": 3933,
      "ها": 3934,
      "ue": 3935,
      "▁0.00": 3936,
      "▁lesson": 3937,
      "▁fuck": 3938,
      "▁____________________________________________________________": 3939,
      "…": 3940,
      "▁sett": 3941,
      "..": 3942,
      "▁audience": 3943,
      "▁1594": 3944,
      "▁totally": 3945,
      "▁himself": 3946,
      "▁disney": 3947,
      "99": 3948,
      "▁planned": 3949,
      "hi": 3950,
      "▁1952": 3951,
      "▁coll": 3952,
      "▁telephone": 3953,
      "▁forster@enron": 3954,
      "▁horn": 3955,
      "une": 3956,
      "▁mark": 3957,
      "1696": 3958,
      "uary": 3959,
      "▁recording": 3960,
      "▁1584": 3961,
      "▁ghost": 3962,
      "▁scheduled": 3963,
      "▁manag": 3964,
      "▁into": 3965,
      "▁delivery": 3966,
      "ables": 3967,
      "▁witness": 3968,
      "▁it's": 3969,
      "▁states": 3970,
      "asc": 3971,
      "d-#693": 3972,
      "▁coast": 3973,
      "gers": 3974,
      "▁perfect": 3975,
      "get": 3976,
      "▁produc": 3977,
      "▁eyes": 3978,
      "▁atop": 3979,
      "▁ninety": 3980,
      "389": 3981,
      "▁asked": 3982,
      "▁conference": 3983,
      "athy": 3984,
      "ν": 3985,
      "ancing": 3986,
      "▁remove": 3987,
      "ument": 3988,
      "[UNK]": 3989,
      "▁sold": 3990,
      "▁hosp": 3991,
      "▁180": 3992,
      "▁consc": 3993,
      "▁11:00": 3994,
      "cel": 3995,
      "▁airplane": 3996,
      "eing": 3997,
      "▁ign": 3998,
      "▁8:30": 3999,
      "▁queries": 4000,
      "ains": 4001,
      "▁voices": 4002,
      "▁ursula": 4003,
      "ones": 4004,
      "▁ask": 4005,
      "▁pink": 4006,
      "▁middle": 4007,
      "▁seventh": 4008,
      "mar": 4009,
      "▁hold": 4010,
      "▁detail": 4011,
      "▁acknowled": 4012,
      "▁jews": 4013,
      "bby": 4014,
      "▁removed": 4015,
      "ar": 4016,
      "▁haf": 4017,
      "yl": 4018,
      "▁biological": 4019,
      "▁burn": 4020,
      "▁wal": 4021,
      "lect": 4022,
      "▁comes": 4023,
      "▁serv": 4024,
      "▁conn": 4025,
      "▁27": 4026,
      "▁contracts": 4027,
      "▁cold": 4028,
      "▁views": 4029,
      "▁poll": 4030,
      "▁prof": 4031,
      "▁former": 4032,
      "▁emp": 4033,
      "verse": 4034,
      "▁policy": 4035,
      "▁warming": 4036,
      "stip": 4037,
      "▁jean": 4038,
      "▁vod": 4039,
      "▁tim": 4040,
      "▁phys": 4041,
      "▁1,6": 4042,
      "▁accomm": 4043,
      "▁fish": 4044,
      "▁twa": 4045,
      "▁k": 4046,
      "ments": 4047,
      "▁110": 4048,
      "▁1950": 4049,
      "▁farm": 4050,
      "▁189": 4051,
      "▁gdp": 4052,
      "▁281-435-0295": 4053,
      "▁!!!!": 4054,
      "ier": 4055,
      "▁avoid": 4056,
      "▁have": 4057,
      ".4": 4058,
      "▁depends": 4059,
      "▁returning": 4060,
      "▁1592": 4061,
      "▁book": 4062,
      "▁affect": 4063,
      "▁3.1": 4064,
      "▁w": 4065,
      "▁impossible": 4066,
      "▁’d": 4067,
      "▁lou": 4068,
      "enda": 4069,
      "come": 4070,
      "/10/2004": 4071,
      "▁ag": 4072,
      "▁fighting": 4073,
      ".n": 4074,
      "▁bro": 4075,
      "▁prob": 4076,
      "▁path": 4077,
      "▁sched": 4078,
      "▁scared": 4079,
      "▁sweater": 4080,
      "393": 4081,
      "▁through": 4082,
      "▁apar": 4083,
      "bre": 4084,
      "ass": 4085,
      "▁ital": 4086,
      "▁compon": 4087,
      "ust": 4088,
      "▁season": 4089,
      "ato": 4090,
      "-f": 4091,
      "▁eighty": 4092,
      "▁report": 4093,
      "ploy": 4094,
      "▁lick": 4095,
      "fet": 4096,
      "▁sil": 4097,
      "ug": 4098,
      "▁ig": 4099,
      "▁conditions": 4100,
      "▁manufact": 4101,
      "most": 4102,
      "▁east": 4103,
      "▁measure": 4104,
      "bles": 4105,
      "▁surgery": 4106,
      "tered": 4107,
      "▁incl": 4108,
      "▁severe": 4109,
      "▁industry": 4110,
      "▁sw": 4111,
      "▁lot": 4112,
      ".85": 4113,
      "/03": 4114,
      "▁n": 4115,
      "▁andrillae": 4116,
      "^": 4117,
      "ς": 4118,
      "▁ring": 4119,
      "▁sally": 4120,
      "▁5": 4121,
      "ood": 4122,
      "▁934": 4123,
      "▁6:30": 4124,
      "ife": 4125,
      "▁priv": 4126,
      "▁ackn": 4127,
      "iet": 4128,
      "ill": 4129,
      "▁crop": 4130,
      "ling": 4131,
      "raw": 4132,
      "▁notwithstanding": 4133,
      "▁838": 4134,
      "▁1.75": 4135,
      "▁issue": 4136,
      "nondel": 4137,
      "2-": 4138,
      "<": 4139,
      "▁fee": 4140,
      "▁pen": 4141,
      "▁forty-eight": 4142,
      "39": 4143,
      "▁315-460-3": 4144,
      "79": 4145,
      "lebr": 4146,
      "▁don": 4147,
      "o": 4148,
      "ote": 4149,
      "-7": 4150,
      "▁166": 4151,
      "ox": 4152,
      "▁hurts": 4153,
      "friend": 4154,
      "▁product": 4155,
      "▁earliest": 4156,
      "onto": 4157,
      "▁others": 4158,
      "order": 4159,
      "rew": 4160,
      "▁pack": 4161,
      "▁stir": 4162,
      "▁fright": 4163,
      "▁1222": 4164,
      "uced": 4165,
      "ste": 4166,
      "▁1300": 4167,
      "--------": 4168,
      "▁construct": 4169,
      "▁sc": 4170,
      "▁branch": 4171,
      "▁national": 4172,
      "▁crime": 4173,
      "▁game": 4174,
      ",500": 4175,
      "▁01/2": 4176,
      "▁many": 4177,
      "▁longer": 4178,
      "▁laden": 4179,
      "ablish": 4180,
      "▁hors": 4181,
      "▁him": 4182,
      "▁wik": 4183,
      "oted": 4184,
      "▁paren": 4185,
      "▁1920": 4186,
      "▁217": 4187,
      "ality": 4188,
      "▁bringing": 4189,
      "ogn": 4190,
      "odes": 4191,
      "▁ref": 4192,
      "▁8:00": 4193,
      "8/2001": 4194,
      "▁interview": 4195,
      "▁pa": 4196,
      "▁mike": 4197,
      "▁leigh": 4198,
      "▁770": 4199,
      "▁direct": 4200,
      "▁pass": 4201,
      "ior": 4202,
      "idden": 4203,
      "-20": 4204,
      "▁bomb": 4205,
      "▁lock": 4206,
      "▁check": 4207,
      "▁03/09/2000": 4208,
      "▁35": 4209,
      "▁rude": 4210,
      "▁man": 4211,
      "ford": 4212,
      "min": 4213,
      "veria": 4214,
      "atory": 4215,
      "▁theory": 4216,
      "▁800": 4217,
      "@enron_development": 4218,
      "▁should": 4219,
      "▁1774": 4220,
      "▁ple": 4221,
      "day": 4222,
      "▁dud": 4223,
      "▁thoughts": 4224,
      ".doc": 4225,
      "▁chicago": 4226,
      "▁richard": 4227,
      "-1": 4228,
      "inary": 4229,
      "u": 4230,
      "▁jump": 4231,
      "▁nin": 4232,
      "▁race": 4233,
      "▁cat": 4234,
      "▁b/": 4235,
      "▁interconn": 4236,
      "▁gramm": 4237,
      "▁concern": 4238,
      "zer": 4239,
      "wh": 4240,
      "▁pret": 4241,
      "▁der": 4242,
      "▁film": 4243,
      "▁so": 4244,
      "▁comb": 4245,
      "icious": 4246,
      "▁beau": 4247,
      "▁brenner": 4248,
      "aine": 4249,
      "▁going": 4250,
      "▁b": 4251,
      "▁dream": 4252,
      "▁!!!!!!!!!!": 4253,
      "▁bel": 4254,
      "▁peanut": 4255,
      "▁ski": 4256,
      "▁iii": 4257,
      "▁penc": 4258,
      "▁cooked": 4259,
      "▁truly": 4260,
      "ix": 4261,
      "▁705": 4262,
      "iation": 4263,
      "▁bu": 4264,
      "able": 4265,
      "▁king": 4266,
      "▁millions": 4267,
      "▁thirty-": 4268,
      "real": 4269,
      "▁legisl": 4270,
      "▁cocktail": 4271,
      "uing": 4272,
      "▁merely": 4273,
      "ansas": 4274,
      "cent": 4275,
      "▁trial": 4276,
      "▁tot": 4277,
      "orial": 4278,
      "ys": 4279,
      "▁indic": 4280,
      "▁two": 4281,
      "▁1928": 4282,
      "▁protected": 4283,
      "ie": 4284,
      "▁1820": 4285,
      "▁contents": 4286,
      "▁fares": 4287,
      "▁coo": 4288,
      "▁rapidly": 4289,
      "▁thursday": 4290,
      "▁dis": 4291,
      "@enron_de": 4292,
      "ock": 4293,
      "▁split": 4294,
      "▁smart": 4295,
      "oph": 4296,
      "▁-----------------------------------------------------------------": 4297,
      "7": 4298,
      "▁dh": 4299,
      "bon": 4300,
      "▁28,000": 4301,
      "▁toast": 4302,
      "▁gri": 4303,
      "▁way": 4304,
      "▁second": 4305,
      "▁mill": 4306,
      "~*~*": 4307,
      "▁sara": 4308,
      "▁liberty": 4309,
      "▁was": 4310,
      "▁poverty": 4311,
      "▁elimin": 4312,
      "▁240": 4313,
      "▁listing": 4314,
      "irs": 4315,
      "▁restaurants": 4316,
      "ace": 4317,
      "▁soft": 4318,
      "▁agent": 4319,
      "▁connection": 4320,
      "▁million": 4321,
      "461": 4322,
      "▁adv": 4323,
      "▁uhh": 4324,
      "▁alliance": 4325,
      "ored": 4326,
      "▁wi": 4327,
      "/01": 4328,
      "j": 4329,
      "▁clear": 4330,
      "▁needed": 4331,
      "▁operation": 4332,
      "▁evidence": 4333,
      "▁hor": 4334,
      "▁jih": 4335,
      "▁peace": 4336,
      "▁image": 4337,
      "▁ip": 4338,
      "▁career": 4339,
      "▁separate": 4340,
      "▁mommy": 4341,
      "▁select": 4342,
      "▁glo": 4343,
      "▁mel": 4344,
      "▁yea": 4345,
      "ted": 4346,
      "▁though": 4347,
      "▁stup": 4348,
      "ml": 4349,
      "▁1-8": 4350,
      "▁vast": 4351,
      "▁defense": 4352,
      "ck": 4353,
      "▁walked": 4354,
      "▁giving": 4355,
      "s/": 4356,
      "cond": 4357,
      "▁fortun": 4358,
      "▁kay": 4359,
      "8/2000": 4360,
      "▁olymp": 4361,
      "ieth": 4362,
      "▁✉": 4363,
      "111": 4364,
      "▁penny": 4365,
      "ites": 4366,
      "▁known": 4367,
      "self": 4368,
      "▁11/29/2000": 4369,
      "▁beside": 4370,
      "ternal": 4371,
      "://": 4372,
      "▁calls": 4373,
      "▁id": 4374,
      "ω": 4375,
      "▁michelle": 4376,
      "==============": 4377,
      "▁required": 4378,
      "▁californ": 4379,
      ".713.86": 4380,
      "▁1940": 4381,
      "ye": 4382,
      "▁hands": 4383,
      "▁”": 4384,
      "▁innovation": 4385,
      "um": 4386,
      "▁gives": 4387,
      "six": 4388,
      "▁eb": 4389,
      "▁florida": 4390,
      "-------": 4391,
      "it": 4392,
      "▁whilst": 4393,
      "▁art": 4394,
      "iest": 4395,
      "▁paseo": 4396,
      "log": 4397,
      "▁20:00": 4398,
      "▁tail": 4399,
      "osh": 4400,
      ".ur": 4401,
      "gel": 4402,
      "▁☎": 4403,
      "▁implementation": 4404,
      ".916.718": 4405,
      "▁concerned": 4406,
      "uries": 4407,
      "▁wan": 4408,
      "▁exper": 4409,
      "ul": 4410,
      "mail": 4411,
      "▁3,202": 4412,
      "tica": 4413,
      "▁boot": 4414,
      "esday": 4415,
      "▁approach": 4416,
      "▁compar": 4417,
      "ility": 4418,
      "▁270": 4419,
      "▁pil": 4420,
      "▁1.4": 4421,
      "▁transl": 4422,
      "▁jul": 4423,
      "▁2,": 4424,
      "▁alread": 4425,
      "▁415": 4426,
      "lear": 4427,
      "ding": 4428,
      "▁shi": 4429,
      "夏": 4430,
      "or": 4431,
      "und": 4432,
      "▁twelve": 4433,
      "▁phot": 4434,
      "▁tiger": 4435,
      "▁understanding": 4436,
      "▁relief": 4437,
      "bc": 4438,
      "▁24": 4439,
      "atically": 4440,
      "▁defined": 4441,
      "ommend": 4442,
      "▁17": 4443,
      "▁clearly": 4444,
      "▁łodzian": 4445,
      "▁origin": 4446,
      "20": 4447,
      "▁born": 4448,
      "▁1994": 4449,
      "ack": 4450,
      "set": 4451,
      "imin": 4452,
      "ushing": 4453,
      "▁patter": 4454,
      "so": 4455,
      "▁consequences": 4456,
      "▁5:30": 4457,
      "▁franc": 4458,
      "ec": 4459,
      "▁throughout": 4460,
      "~*": 4461,
      "▁fold": 4462,
      "ya": 4463,
      "▁includes": 4464,
      "▁1890": 4465,
      "▁aband": 4466,
      "▁george": 4467,
      "uation": 4468,
      "▁pool": 4469,
      "▁bon": 4470,
      "▁pho": 4471,
      "▁forces": 4472,
      "▁_________________________________": 4473,
      "1-9": 4474,
      "▁415.621.8317": 4475,
      "▁60,000": 4476,
      "▁talking": 4477,
      "▁let": 4478,
      "▁!": 4479,
      "▁row": 4480,
      "▁stom": 4481,
      "▁’m": 4482,
      "▁cars": 4483,
      "▁1988": 4484,
      "▁sleep": 4485,
      "▁-ect-kedne": 4486,
      "▁walking": 4487,
      "▁79": 4488,
      "arant": 4489,
      "▁average": 4490,
      "▁baltimore": 4491,
      "▁range": 4492,
      "▁requested": 4493,
      "▁monkey": 4494,
      "ies": 4495,
      "▁928": 4496,
      "23": 4497,
      "▁bott": 4498,
      "▁eventually": 4499,
      "▁light": 4500,
      "inner": 4501,
      "ore": 4502,
      "▁parties": 4503,
      "▁st": 4504,
      ".1": 4505,
      "ibreat": 4506,
      "▁work": 4507,
      "rect": 4508,
      "▁nandakk": 4509,
      "-5": 4510,
      "▁mitchell": 4511,
      "▁nobody": 4512,
      "ower": 4513,
      "▁negot": 4514,
      "▁explore": 4515,
      "▁flor": 4516,
      "del": 4517,
      "▁big": 4518,
      "▁1829": 4519,
      "ivers": 4520,
      "▁call": 4521,
      "▁347": 4522,
      "▁docum": 4523,
      "▁rates": 4524,
      "tte": 4525,
      "▁becom": 4526,
      "▁sciss": 4527,
      "▁northwest": 4528,
      "▁unkn": 4529,
      "▁unp": 4530,
      "up": 4531,
      "▁webs": 4532,
      "▁05/03/2001": 4533,
      "▁311": 4534,
      "ante": 4535,
      "rif": 4536,
      "▁ron": 4537,
      "▁meh-r": 4538,
      "▁towards": 4539,
      "▁888.916.7184": 4540,
      "liament": 4541,
      "-99": 4542,
      "▁golden": 4543,
      "ations": 4544,
      "▁illusions": 4545,
      "*": 4546,
      "akes": 4547,
      "▁government": 4548,
      "▁died": 4549,
      "bar": 4550,
      "▁trans": 4551,
      "▁seventeen": 4552,
      "▁cover": 4553,
      "▁believes": 4554,
      "used": 4555,
      "▁unt": 4556,
      "eral": 4557,
      "▁1997": 4558,
      "mer": 4559,
      "▁dg": 4560,
      "ag": 4561,
      "▁ab": 4562,
      "▁pi": 4563,
      "▁sleeping": 4564,
      "ive": 4565,
      "▁har": 4566,
      "▁reports": 4567,
      "▁ears": 4568,
      "22": 4569,
      "▁econom": 4570,
      "ving": 4571,
      "cles": 4572,
      "imp": 4573,
      "ins": 4574,
      "ati": 4575,
      "aro": 4576,
      "▁kim": 4577,
      "▁salon": 4578,
      "▁duck": 4579,
      "▁ban": 4580,
      "▁heads": 4581,
      "▁fail": 4582,
      "▁hiking": 4583,
      "▁kitch": 4584,
      "▁peoples": 4585,
      "▁clay": 4586,
      "▁enh": 4587,
      "▁fe": 4588,
      "▁mainly": 4589,
      "▁thick": 4590,
      "ipped": 4591,
      "▁taught": 4592,
      "▁than": 4593,
      "▁twenty-four": 4594,
      "▁imp": 4595,
      "▁hom": 4596,
      ".0": 4597,
      "@": 4598,
      "▁inj": 4599,
      "▁prep": 4600,
      "▁arab": 4601,
      "▁breakfast": 4602,
      "▁mention": 4603,
      "▁hers": 4604,
      "▁diego": 4605,
      "▁ninety-nine": 4606,
      "▁£": 4607,
      "▁vs": 4608,
      "igu": 4609,
      "▁guid": 4610,
      "▁mind": 4611,
      "▁supreme": 4612,
      "▁company": 4613,
      "▁pakistani": 4614,
      "▁listen": 4615,
      "▁true": 4616,
      "bha-": 4617,
      "▁braz": 4618,
      "-0": 4619,
      "oss": 4620,
      "mber": 4621,
      "▁": 4622,
      "▁tend": 4623,
      "▁16": 4624,
      "▁ul": 4625,
      ".": 4626,
      "its": 4627,
      "▁deals": 4628,
      "▁clothing": 4629,
      "gy": 4630,
      "uted": 4631,
      "▁kid": 4632,
      "▁floating": 4633,
      "ard": 4634,
      "▁cliff": 4635,
      "▁sn": 4636,
      "istic": 4637,
      "▁goriot": 4638,
      "▁1611": 4639,
      "▁tickle": 4640,
      "ise": 4641,
      "itely": 4642,
      "▁fre": 4643,
      "▁202.456.2461": 4644,
      "▁hug": 4645,
      "▁posted": 4646,
      "▁des": 4647,
      "▁vict": 4648,
      "▁comfort": 4649,
      "▁further": 4650,
      "▁cleveland": 4651,
      "▁wheel": 4652,
      "▁piv": 4653,
      "▁comfortable": 4654,
      "aska": 4655,
      "▁willing": 4656,
      "▁error": 4657,
      "▁410": 4658,
      "▁sees": 4659,
      "▁oct": 4660,
      "ful": 4661,
      "▁thr": 4662,
      "▁hat": 4663,
      "equ": 4664,
      "▁minute": 4665,
      "▁11/7/08": 4666,
      "▁li": 4667,
      "▁acc": 4668,
      "lers": 4669,
      "▁began": 4670,
      "igning": 4671,
      "▁hotels": 4672,
      "▁spot": 4673,
      "▁regime": 4674,
      "▁edu": 4675,
      "▁chap": 4676,
      "▁office": 4677,
      "▁since": 4678,
      "▁discussion": 4679,
      "vo": 4680,
      "▁bla": 4681,
      "▁previous": 4682,
      "aining": 4683,
      "▁demonstr": 4684,
      "▁female": 4685,
      "▁recorder": 4686,
      "▁khan@t": 4687,
      "ict": 4688,
      "pl": 4689,
      "ulty": 4690,
      "dd": 4691,
      "▁54,000": 4692,
      "conn": 4693,
      "▁26": 4694,
      "ʻ": 4695,
      "▁!!!!!!!": 4696,
      "▁aid": 4697,
      "▁eat": 4698,
      "/26/2001": 4699,
      ":46": 4700,
      "▁hour": 4701,
      "eds": 4702,
      "▁reform": 4703,
      "ruct": 4704,
      "▁832": 4705,
      "▁decision": 4706,
      "ade": 4707,
      "▁hon": 4708,
      "...@": 4709,
      "lined": 4710,
      "lik": 4711,
      "▁useful": 4712,
      "ily": 4713,
      "▁dancing": 4714,
      "▁picture": 4715,
      "ker": 4716,
      "▁sup": 4717,
      "▁honey": 4718,
      "▁…": 4719,
      "▁awesome": 4720,
      "▁responsible": 4721,
      "▁music": 4722,
      "▁presentation": 4723,
      "▁fixed": 4724,
      "ment": 4725,
      "ouble": 4726,
      "▁comments": 4727,
      "rest": 4728,
      "▁minister": 4729,
      "▁youtube": 4730,
      "▁330": 4731,
      "n": 4732,
      "ares": 4733,
      "▁flying": 4734,
      "▁roll": 4735,
      "▁ends": 4736,
      "▁constantly": 4737,
      ":52": 4738,
      "▁constituency": 4739,
      "▁earned": 4740,
      "▁hard": 4741,
      "▁integr": 4742,
      "▁valid": 4743,
      "stick": 4744,
      "▁qu": 4745,
      "iction": 4746,
      "iber": 4747,
      "▁220": 4748,
      "▁hall": 4749,
      "▁iu": 4750,
      "▁taxi": 4751,
      "▁peaceful": 4752,
      "▁che": 4753,
      "ril": 4754,
      "▁-2-": 4755,
      "▁laur": 4756,
      "▁identified": 4757,
      "▁lic": 4758,
      "▁craw": 4759,
      "▁issued": 4760,
      "man": 4761,
      "ي": 4762,
      "▁expl": 4763,
      "▁tab": 4764,
      "▁colour": 4765,
      "▁even": 4766,
      "▁plan": 4767,
      "iously": 4768,
      "▁fred": 4769,
      "fr": 4770,
      "▁11/10/2000": 4771,
      "▁fifth": 4772,
      "aviatio": 4773,
      "▁exposure": 4774,
      "▁ready": 4775,
      ",000,000,000": 4776,
      "ess": 4777,
      "▁ty": 4778,
      "old": 4779,
      "▁import": 4780,
      "istan": 4781,
      "nondelibreat": 4782,
      "▁toky": 4783,
      "▁n't": 4784,
      "▁therefore": 4785,
      "ty": 4786,
      "▁wednesday": 4787,
      "▁03/27/2001": 4788,
      "▁role": 4789,
      "▁january": 4790,
      "8549": 4791,
      "▁315-460-33": 4792,
      "د": 4793,
      ":20": 4794,
      "▁asp": 4795,
      "ire": 4796,
      "▁yout": 4797,
      "err": 4798,
      "▁islands": 4799,
      "ounded": 4800,
      "/08": 4801,
      "▁bo": 4802,
      "▁07/1": 4803,
      "'": 4804,
      "igator": 4805,
      "▁owned": 4806,
      "▁0000108806": 4807,
      "▁stipulation": 4808,
      "59": 4809,
      "****************": 4810,
      "▁level": 4811,
      "▁98": 4812,
      "▁cogn": 4813,
      "▁in": 4814,
      "ead": 4815,
      "▁1500": 4816,
      "▁household": 4817,
      "▁56": 4818,
      "ob": 4819,
      "樋": 4820,
      "rec": 4821,
      "▁shake": 4822,
      "▁various": 4823,
      "bers": 4824,
      "bo": 4825,
      "▁nine": 4826,
      "▁tampa": 4827,
      "▁fant": 4828,
      "ated": 4829,
      "▁captain": 4830,
      "▁quote": 4831,
      "▁before": 4832,
      "▁taiwan": 4833,
      "▁505": 4834,
      "▁november": 4835,
      "▁occup": 4836,
      "▁developing": 4837,
      "▁drop": 4838,
      "bits": 4839,
      "▁expected": 4840,
      "-s": 4841,
      "▁professional": 4842,
      "▁tu": 4843,
      "▁drive": 4844,
      "ories": 4845,
      "____": 4846,
      "▁em": 4847,
      "▁meas": 4848,
      "2-0": 4849,
      "▁unc": 4850,
      "▁sha": 4851,
      "oney": 4852,
      "▁slow": 4853,
      "▁frequ": 4854,
      "葉": 4855,
      "▁palestin": 4856,
      "▁mid-": 4857,
      "▁rush": 4858,
      "▁trad": 4859,
      "ades": 4860,
      "▁likes": 4861,
      "gh": 4862,
      "ema": 4863,
      "'re": 4864,
      "bed": 4865,
      "▁08:00": 4866,
      "▁height": 4867,
      "▁india": 4868,
      "ellow": 4869,
      "▁liber": 4870,
      "ional": 4871,
      "f.doc": 4872,
      "▁jihad": 4873,
      "▁financial": 4874,
      "ished": 4875,
      "▁p.s.": 4876,
      "▁1973": 4877,
      "▁boxes": 4878,
      "▁2,500": 4879,
      "▁waiting": 4880,
      "vey": 4881,
      "▁karzai": 4882,
      "▁daily": 4883,
      "▁466": 4884,
      "isation": 4885,
      "▁statement": 4886,
      "▁refer": 4887,
      "▁713-8": 4888,
      "9": 4889,
      "▁pricing": 4890,
      "▁based": 4891,
      "▁health": 4892,
      "ended": 4893,
      "▁archit": 4894,
      "▁copyright": 4895,
      "ened": 4896,
      "▁198": 4897,
      "▁mohamed": 4898,
      "▁growth": 4899,
      "▁agreement": 4900,
      "▁dressed": 4901,
      "▁pur": 4902,
      "▁accur": 4903,
      "ig": 4904,
      "ata": 4905,
      "▁sugar": 4906,
      "▁relatively": 4907,
      "▁ones": 4908,
      "▁values": 4909,
      "▁blank": 4910,
      "▁nmemdrft8-7-01": 4911,
      "▁this": 4912,
      "▁commercial": 4913,
      "boo": 4914,
      "ath": 4915,
      "@ect": 4916,
      "▁christ": 4917,
      "▁red": 4918,
      "▁whose": 4919,
      "▁nandarou": 4920,
      "▁tummy": 4921,
      "47": 4922,
      "ks": 4923,
      ":03": 4924,
      "▁assum": 4925,
      "▁bound": 4926,
      "▁scar": 4927,
      "▁ken": 4928,
      "▁arrival": 4929,
      "449": 4930,
      "▁addition": 4931,
      "iting": 4932,
      "▁any": 4933,
      "▁december": 4934,
      "▁quinoa": 4935,
      "▁choo": 4936,
      "▁125": 4937,
      "▁opposite": 4938,
      "▁0.0": 4939,
      "▁images": 4940,
      "▁indo": 4941,
      "▁moh": 4942,
      "▁up": 4943,
      "▁38": 4944,
      "▁87": 4945,
      "tering": 4946,
      "▁quinn": 4947,
      "▁temperature": 4948,
      "▁ful": 4949,
      "▁fort": 4950,
      "ppy": 4951,
      "▁earth": 4952,
      "▁monday": 4953,
      "▁bread": 4954,
      "▁atmos": 4955,
      "▁us": 4956,
      "▁mess": 4957,
      "▁peter": 4958,
      "▁thing": 4959,
      "▁baltim": 4960,
      "▁wo": 4961,
      "▁key": 4962,
      "▁protest": 4963,
      "▁materials": 4964,
      "▁bears": 4965,
      "▁given": 4966,
      "▁band": 4967,
      "▁1603": 4968,
      "▁licens": 4969,
      "▁every": 4970,
      "vel": 4971,
      "▁stairs": 4972,
      "▁01:39": 4973,
      "▁hm": 4974,
      "▁china": 4975,
      "▁large": 4976,
      "-518": 4977,
      "tride": 4978,
      "▁owners": 4979,
      "work": 4980,
      "▁remind": 4981,
      "32": 4982,
      "▁british": 4983,
      "▁which": 4984,
      "thing": 4985,
      "▁restaurant": 4986,
      "▁cathol": 4987,
      "▁sem": 4988,
      "▁perform": 4989,
      "▁>>": 4990,
      "▁helpful": 4991,
      "▁attacks": 4992,
      "ats": 4993,
      "▁suicide": 4994,
      "▁ways": 4995,
      ".782": 4996,
      "▁tec": 4997,
      "▁100": 4998,
      "▁relationship": 4999,
      "lim": 5000,
      "▁particularly": 5001,
      "[MASK]": 5002,
      "▁202.456.1": 5003,
      "enth": 5004,
      "is_0": 5005,
      "▁1,": 5006,
      "▁created": 5007,
      "rep": 5008,
      "▁shoulder": 5009,
      "▁together": 5010,
      "▁daughter": 5011,
      "df": 5012,
      "▁points": 5013,
      "▁225": 5014,
      "▁better": 5015,
      "▁recip": 5016,
      "▁978": 5017,
      "83": 5018,
      "five": 5019,
      "▁trump": 5020,
      "▁staying": 5021,
      "ʒ": 5022,
      "unt": 5023,
      "▁rich": 5024,
      "▁motion": 5025,
      "bal": 5026,
      "▁hous": 5027,
      "▁german": 5028,
      "▁presence": 5029,
      "lus": 5030,
      "▁es": 5031,
      "▁heat": 5032,
      "▁failure": 5033,
      "antic": 5034,
      "▁skills": 5035,
      "▁hoc": 5036,
      "▁dinner": 5037,
      "▁lean": 5038,
      "▁message": 5039,
      "▁apprec": 5040,
      "▁also": 5041,
      "▁2020": 5042,
      ".5": 5043,
      "▁collected": 5044,
      "▁sanders": 5045,
      "▁713/853": 5046,
      "▁knowledge": 5047,
      "▁bir": 5048,
      "▁cards": 5049,
      "▁47,500": 5050,
      "nd": 5051,
      "▁senator": 5052,
      "▁style": 5053,
      "arian": 5054,
      "▁button": 5055,
      "▁wig": 5056,
      "v": 5057,
      "ammed": 5058,
      "\"": 5059,
      "▁constitu": 5060,
      "▁vide": 5061,
      "▁boo": 5062,
      "▁morning": 5063,
      "▁stone": 5064,
      "under": 5065,
      "vern": 5066,
      ":0": 5067,
      "▁steve": 5068,
      "phere": 5069,
      "idence": 5070,
      "▁determine": 5071,
      "▁each": 5072,
      "▁40": 5073,
      "▁cycl": 5074,
      "▁proced": 5075,
      "▁295870": 5076,
      "▁recogn": 5077,
      "ually": 5078,
      "▁space": 5079,
      "▁egyptian": 5080,
      "ost": 5081,
      "ps": 5082,
      "œ": 5083,
      "▁spoken": 5084,
      "▁loud": 5085,
      "▁circ": 5086,
      "hip": 5087,
      "▁min": 5088,
      "▁t": 5089,
      "▁e": 5090,
      "▁los": 5091,
      "▁rabbit": 5092,
      "▁reasons": 5093,
      "▁21": 5094,
      "▁secret": 5095,
      "▁break": 5096,
      "▁legs": 5097,
      "▁932": 5098,
      "▁08/15": 5099,
      "▁gets": 5100,
      "▁wide": 5101,
      "▁journal": 5102,
      "▁1-800": 5103,
      "ishing": 5104,
      "ocr": 5105,
      "▁sav": 5106,
      "ol": 5107,
      "▁rule": 5108,
      "▁independent": 5109,
      "▁cia": 5110,
      "▁coff": 5111,
      "☏": 5112,
      "▁socks": 5113,
      "ong": 5114,
      "▁those": 5115,
      "us": 5116,
      "▁road": 5117,
      "▁---->===": 5118,
      "▁lack": 5119,
      "ero": 5120,
      "▁written": 5121,
      "asp": 5122,
      "▁elephant": 5123,
      "▁ireland": 5124,
      "▁yester": 5125,
      "▁stren": 5126,
      "▁develop": 5127,
      "/2": 5128,
      "akk": 5129,
      "▁cake": 5130,
      "▁hun": 5131,
      "gam": 5132,
      "▁2009": 5133,
      "▁r": 5134,
      "▁inform": 5135,
      "▁environ": 5136,
      "▁certain": 5137,
      "▁conv": 5138,
      "▁grant": 5139,
      "▁bra": 5140,
      "▁coffee": 5141,
      "▁tong": 5142,
      "▁smaller": 5143,
      "hol": 5144,
      "▁prev": 5145,
      "▁america": 5146,
      "%": 5147,
      "▁11,000": 5148,
      "▁clean": 5149,
      "▁upside": 5150,
      "▁far": 5151,
      "ests": 5152,
      "▁advis": 5153,
      "▁2:25": 5154,
      "▁sign": 5155,
      "▁climate": 5156,
      "aleck": 5157,
      "▁purchased": 5158,
      ".p": 5159,
      "▁sixty": 5160,
      "leg": 5161,
      "ont": 5162,
      "▁desk": 5163,
      "▁effort": 5164,
      "▁arg": 5165,
      "oes": 5166,
      "▁lo": 5167,
      "▁accepted": 5168,
      "ater": 5169,
      "▁'ve": 5170,
      "▁albe": 5171,
      "iate": 5172,
      "▁1738": 5173,
      "lae": 5174,
      "▁asia": 5175,
      "▁ach": 5176,
      "uction": 5177,
      "▁713-654-128": 5178,
      "▁opin": 5179,
      "▁03/2": 5180,
      "▁plans": 5181,
      "▁loves": 5182,
      "▁agric": 5183,
      ")": 5184,
      "▁201": 5185,
      "????????????????": 5186,
      "------------": 5187,
      "isb": 5188,
      "0072": 5189,
      "▁3,202.61": 5190,
      "wau": 5191,
      "▁2.00": 5192,
      "▁confident": 5193,
      "▁individ": 5194,
      "▁95": 5195,
      "▁park": 5196,
      "resh": 5197,
      "▁lines": 5198,
      "▁aust": 5199,
      "339": 5200,
      "▁1878": 5201,
      "▁jan": 5202,
      "key": 5203,
      "lo": 5204,
      "▁deliver": 5205,
      ":45": 5206,
      "▁ret": 5207,
      "▁priority": 5208,
      "sus": 5209,
      "▁tape": 5210,
      "aled": 5211,
      "▁spec": 5212,
      "▁dangerous": 5213,
      "▁rose": 5214,
      "▁dur": 5215,
      "▁remark": 5216,
      "▁starts": 5217,
      "▁minneapolis": 5218,
      "gill": 5219,
      "▁via": 5220,
      "▁killed": 5221,
      "▁!!!!!!!!!!!!!!!!!!!": 5222,
      "▁exc": 5223,
      "“": 5224,
      "ores": 5225,
      "▁tulsa": 5226,
      "▁square": 5227,
      "▁appropri": 5228,
      "▁estimated": 5229,
      "▁94": 5230,
      "▁describ": 5231,
      "▁1/4": 5232,
      "▁belong": 5233,
      "*{": 5234,
      "ro": 5235,
      "raz": 5236,
      "35": 5237,
      "▁8:15": 5238,
      "▁impro": 5239,
      "▁heav": 5240,
      "▁etc": 5241,
      "▁ho": 5242,
      "▁cooperation": 5243,
      "aken": 5244,
      "iers": 5245,
      "▁555": 5246,
      "▁adopt": 5247,
      "▁doubt": 5248,
      "itive": 5249,
      "17": 5250,
      "▁11:30": 5251,
      "▁tired": 5252,
      "▁thy": 5253,
      "▁>": 5254,
      "▁increasing": 5255,
      "▁>----------------------------------------------------------------------------|": 5256,
      "▁jumped": 5257,
      "▁made": 5258,
      "▁said": 5259,
      "▁1960": 5260,
      "▁approved": 5261,
      "▁skin": 5262,
      "▁august": 5263,
      "▁dre": 5264,
      "▁pepper": 5265,
      "umble": 5266,
      "▁rep": 5267,
      "▁......": 5268,
      "alys": 5269,
      "ep": 5270,
      "▁especially": 5271,
      "▁vir": 5272,
      "▁nmemdrft8-7": 5273,
      "▁making": 5274,
      "-50": 5275,
      "▁charlotte": 5276,
      "iture": 5277,
      "ø": 5278,
      "▁besides": 5279,
      "▁off": 5280,
      "▁^_^": 5281,
      "▁expectations": 5282,
      "▁scientology": 5283,
      "▁corner": 5284,
      "▁markets": 5285,
      "▁5.5": 5286,
      "▁breaking": 5287,
      "▁bom": 5288,
      "▁tough": 5289,
      "▁laws": 5290,
      "c": 5291,
      "▁11.5": 5292,
      "ude": 5293,
      "▁jewish": 5294,
      "▁mun": 5295,
      "▁medicine": 5296,
      "▁uses": 5297,
      "▁frame": 5298,
      "▁stretch": 5299,
      "▁balzac": 5300,
      "▁quick": 5301,
      "▁waters": 5302,
      "▁102": 5303,
      "▁hello": 5304,
      "▁30,000": 5305,
      "▁imagine": 5306,
      "jam": 5307,
      "siana": 5308,
      "greg": 5309,
      "▁07": 5310,
      "▁2500": 5311,
      "▁painting": 5312,
      "▁cooking": 5313,
      "aur": 5314,
      "ansen": 5315,
      "▁none": 5316,
      "▁enter": 5317,
      "▁loose": 5318,
      "▁fam": 5319,
      "▁(:": 5320,
      "▁bub": 5321,
      "▁divers": 5322,
      "ott": 5323,
      "71": 5324,
      "ction": 5325,
      "▁fair": 5326,
      "▁01/24/2001": 5327,
      "▁destroy": 5328,
      "▁1700": 5329,
      "▁earli": 5330,
      "▁inside": 5331,
      "ike": 5332,
      "erous": 5333,
      "▁studying": 5334,
      "▁1160": 5335,
      "▁11:45": 5336,
      "neath": 5337,
      "atter": 5338,
      "▁sky": 5339,
      "▁expressed": 5340,
      "ios": 5341,
      "▁tonight": 5342,
      "▁goals": 5343,
      "iately": 5344,
      "▁'0": 5345,
      "▁11:07": 5346,
      "▁code": 5347,
      "▁civil": 5348,
      "▁questions": 5349,
      "▁kn": 5350,
      ".com": 5351,
      "▁kore": 5352,
      "▁appropriate": 5353,
      "▁hope": 5354,
      "▁whil": 5355,
      "▁method": 5356,
      "pper": 5357,
      "▁dr": 5358,
      "▁areas": 5359,
      "▁e.": 5360,
      "ether": 5361,
      "▁281-435": 5362,
      "▁foods": 5363,
      "▁led": 5364,
      "▁cred": 5365,
      "▁iv": 5366,
      "kee": 5367,
      "▁salad": 5368,
      "▁gal": 5369,
      "eech": 5370,
      "▁encabalgamiento": 5371,
      "▁pour": 5372,
      "over": 5373,
      "▁2011": 5374,
      "▁couple": 5375,
      "▁shop": 5376,
      "▁tig": 5377,
      "▁160": 5378,
      "▁af": 5379,
      "▁kill": 5380,
      "▁—": 5381,
      "▁2002": 5382,
      "▁shr": 5383,
      "================": 5384,
      "▁marbles": 5385,
      "▁prime": 5386,
      "lish": 5387,
      "ration": 5388,
      "▁15,000": 5389,
      "▁aff": 5390,
      "▁marked": 5391,
      "▁passed": 5392,
      "▁mo": 5393,
      "▁ensure": 5394,
      "▁alloc": 5395,
      "▁mc": 5396,
      "▁thirty-five": 5397,
      "▁tickets": 5398,
      "▁05/25/2001": 5399,
      "▁camp": 5400,
      "▁friendly": 5401,
      "司": 5402,
      "▁banks": 5403,
      "▁spok": 5404,
      "▁mov": 5405,
      "▁14": 5406,
      "▁somebody": 5407,
      "▁hist": 5408,
      "▁experience": 5409,
      "▁montejo": 5410,
      "ortun": 5411,
      "▁cruise": 5412,
      "▁u.": 5413,
      "▁analysis_0712": 5414,
      "▁minutes": 5415,
      "▁snow": 5416,
      "ece": 5417,
      "▁pilot": 5418,
      "▁addiction": 5419,
      "▁population": 5420,
      "▁sudden": 5421,
      "▁lar": 5422,
      ":19": 5423,
      "▁continued": 5424,
      "▁stead": 5425,
      "▁800.713.8600": 5426,
      "▁bad": 5427,
      "owled": 5428,
      "▁definition": 5429,
      "▁fool": 5430,
      "▁ou": 5431,
      "ging": 5432,
      "▁univers": 5433,
      "▁angeles": 5434,
      "▁roman": 5435,
      "▁1892": 5436,
      "▁says": 5437,
      "elled": 5438,
      "▁buy": 5439,
      "ond": 5440,
      "porary": 5441,
      "▁lights": 5442,
      "edie": 5443,
      "oler": 5444,
      "tegr": 5445,
      ":48": 5446,
      "thern": 5447,
      "▁tomorrow": 5448,
      "ush": 5449,
      "olis": 5450,
      "▁blood": 5451,
      "ided": 5452,
      "▁1561": 5453,
      "os": 5454,
      "iss": 5455,
      "▁pray": 5456,
      "▁intel": 5457,
      "▁intern": 5458,
      "▁files": 5459,
      "▁screen": 5460,
      "▁42": 5461,
      "▁90": 5462,
      "▁christian": 5463,
      "▁element": 5464,
      "▁mach": 5465,
      "▁princip": 5466,
      "▁92": 5467,
      "zen": 5468,
      "▁often": 5469,
      "▁def": 5470,
      "▁easy": 5471,
      "▁rock": 5472,
      "▁gro": 5473,
      "▁methods": 5474,
      "▁1947": 5475,
      ":56": 5476,
      "▁1-800-991-9": 5477,
      "▁damage": 5478,
      "▁transaction": 5479,
      "acter": 5480,
      "▁safe": 5481,
      "▁1-800-991-9019": 5482,
      "gely": 5483,
      "▁shadow": 5484,
      "▁query": 5485,
      "▁dig": 5486,
      "▁1937": 5487,
      "▁reason": 5488,
      "134": 5489,
      "▁vodka": 5490,
      "▁strict": 5491,
      "▁202.456.1111": 5492,
      "▁brother": 5493,
      "▁bl": 5494,
      "▁512": 5495,
      "▁425": 5496,
      "ounced": 5497,
      "▁garage": 5498,
      "2000": 5499,
      "▁bal": 5500,
      "▁life": 5501,
      "▁track": 5502,
      "ally": 5503,
      "urn": 5504,
      "▁5/18": 5505,
      "oned": 5506,
      "65-3": 5507,
      "▁angry": 5508,
      "▁50": 5509,
      "▁stage": 5510,
      "▁flu": 5511,
      "aming": 5512,
      "▁mirror": 5513,
      "umer": 5514,
      "▁**": 5515,
      "▁correct": 5516,
      "▁micro": 5517,
      "▁mu": 5518,
      "il": 5519,
      "▁sym": 5520,
      "♥": 5521,
      "▁named": 5522,
      "▁filled": 5523,
      "▁beauveria": 5524,
      "▁1777": 5525,
      "▁original": 5526,
      "▁pair": 5527,
      "ana": 5528,
      "-2": 5529,
      "ca": 5530,
      "oose": 5531,
      "▁of": 5532,
      "▁250": 5533,
      "omet": 5534,
      "▁wrap": 5535,
      "ates": 5536,
      "▁ans": 5537,
      "▁gordon": 5538,
      "▁.2": 5539,
      "▁tacoma": 5540,
      "▁dose": 5541,
      "▁shared": 5542,
      "▁:d": 5543,
      "▁note": 5544,
      "▁thought": 5545,
      "gypt": 5546,
      "▁everything": 5547,
      "▁amongst": 5548,
      "icle": 5549,
      "▁nana": 5550,
      "▁08:30": 5551,
      "▁andy": 5552,
      "³": 5553,
      "inter": 5554,
      "iri": 5555,
      "5,000": 5556,
      "▁send": 5557,
      "▁danny": 5558,
      "da": 5559,
      "▁crimin": 5560,
      "ento": 5561,
      "rison": 5562,
      "▁cognitive": 5563,
      "▁nail": 5564,
      "▁built": 5565,
      "ward": 5566,
      "▁mem": 5567,
      "▁remembered": 5568,
      "▁opening": 5569,
      "▁canadian": 5570,
      "▁cous": 5571,
      "▁unh": 5572,
      "▁walk": 5573,
      "▁wentz": 5574,
      "▁skitt": 5575,
      "/h": 5576,
      "▁1875": 5577,
      "▁wiggle": 5578,
      "▁huma": 5579,
      "▁single": 5580,
      "6-8": 5581,
      "▁surr": 5582,
      "▁cert": 5583,
      "▁warm": 5584,
      "od": 5585,
      "▁feels": 5586,
      "▁entertain": 5587,
      "ister": 5588,
      "▁proposal": 5589,
      "▁res": 5590,
      "▁child": 5591,
      "84": 5592,
      "▁rh": 5593,
      "▁learned": 5594,
      "▁415.782.7822": 5595,
      "▁ky": 5596,
      "my": 5597,
      "▁furniture": 5598,
      "th": 5599,
      "pri": 5600,
      "▁catholic": 5601,
      "▁h-0": 5602,
      "▁dad": 5603,
      "ption": 5604,
      "▁tre": 5605,
      "▁01": 5606,
      "▁1914": 5607,
      "▁wil": 5608,
      "tra": 5609,
      "d": 5610,
      "men": 5611,
      "▁decisions": 5612,
      "▁lowest": 5613,
      "▁talks": 5614,
      "▁http://": 5615,
      "ons": 5616,
      "▁vi": 5617,
      "▁rol": 5618,
      "▁manuf": 5619,
      "haps": 5620,
      "▁425-415-": 5621,
      "▁subsc": 5622,
      "201": 5623,
      "▁03/08/2000": 5624,
      "▁korea": 5625,
      "ercial": 5626,
      "▁costs": 5627,
      "▁1958": 5628,
      "▁somewhere": 5629,
      "▁pushed": 5630,
      "▁6,000": 5631,
      "cell": 5632,
      "▁betw": 5633,
      "▁7.2": 5634,
      "▁serves": 5635,
      "▁sac": 5636,
      "▁wear": 5637,
      "▁1/8": 5638,
      "▁thom": 5639,
      "etime": 5640,
      "▁lead": 5641,
      "jo": 5642,
      "▁uv": 5643,
      "▁groups": 5644,
      "her": 5645,
      "▁dust": 5646,
      "▁+": 5647,
      "ital": 5648,
      "▁married": 5649,
      "▁730": 5650,
      "▁dim": 5651,
      "-46": 5652,
      "▁aug": 5653,
      "▁friday": 5654,
      "byl": 5655,
      "▁anthrax": 5656,
      "▁2": 5657,
      "▁1765": 5658,
      "!!!": 5659,
      "▁extent": 5660,
      "▁--": 5661,
      "itation": 5662,
      "▁creation": 5663,
      "▁agree": 5664,
      "▁pr": 5665,
      "▁ticket": 5666,
      "▁2022": 5667,
      "ernobyl": 5668,
      "just": 5669,
      "▁once": 5670,
      ",1": 5671,
      "▁quarter": 5672,
      "▁1847": 5673,
      "▁suggests": 5674,
      "▁sell": 5675,
      "▁visual": 5676,
      "▁ft": 5677,
      "cuz": 5678,
      "ian": 5679,
      "▁drink": 5680,
      "▁sick": 5681,
      "▁subst": 5682,
      "▁947": 5683,
      "▁trust": 5684,
      "▁vie": 5685,
      "▁ba": 5686,
      "▁emerg": 5687,
      "▁;)": 5688,
      "▁rang": 5689,
      "▁mouth": 5690,
      "▁driver": 5691,
      "031": 5692,
      "▁ny": 5693,
      "▁..........": 5694,
      "▁part": 5695,
      "▁changes": 5696,
      "▁cla": 5697,
      "▁started": 5698,
      "▁sites": 5699,
      "▁shad": 5700,
      "usal": 5701,
      "▁ultim": 5702,
      "▁literature": 5703,
      "▁contin": 5704,
      "▁refused": 5705,
      "▁mis": 5706,
      "▁thin": 5707,
      "ite": 5708,
      "bing": 5709,
      "ange": 5710,
      "ibility": 5711,
      ":51": 5712,
      "▁order": 5713,
      "▁president": 5714,
      "▁alternative": 5715,
      "▁aware": 5716,
      "▁language": 5717,
      "▁initial": 5718,
      "▁overall": 5719,
      "000": 5720,
      "▁closely": 5721,
      "apers": 5722,
      "oice": 5723,
      "▁denver": 5724,
      "▁bother": 5725,
      "▁portion": 5726,
      "▁god": 5727,
      "▁trying": 5728,
      "▁twenty-two": 5729,
      "▁m": 5730,
      "▁dozen": 5731,
      "▁dish": 5732,
      "▁focus": 5733,
      "▁wonder": 5734,
      "▁11/27/2000": 5735,
      "▁blue": 5736,
      "▁urban": 5737,
      "▁link": 5738,
      "▁buying": 5739,
      "/": 5740,
      "▁03:48": 5741,
      "60": 5742,
      "▁muscles": 5743,
      "▁driving": 5744,
      "gress": 5745,
      "▁attorn": 5746,
      "▁1599": 5747,
      "▁carefully": 5748,
      "▁philosoph": 5749,
      "otion": 5750,
      "▁stopped": 5751,
      "}": 5752,
      "▁120": 5753,
      "▁doughnut": 5754,
      "edule": 5755,
      "aim": 5756,
      "▁believe": 5757,
      "▁execut": 5758,
      "▁fundamental": 5759,
      "▁black": 5760,
      "▁petersburg": 5761,
      "▁bank": 5762,
      "▁serve": 5763,
      "16.718": 5764,
      "▁employment": 5765,
      "▁test": 5766,
      "elle": 5767,
      "▁scenes": 5768,
      "▁baking": 5769,
      "▁occasion": 5770,
      "▁cont": 5771,
      "▁popcorn": 5772,
      "zing": 5773,
      "elf": 5774,
      "▁josh": 5775,
      "▁fly": 5776,
      "om": 5777,
      "▁difference": 5778,
      "▁1505": 5779,
      "▁pill": 5780,
      "清": 5781,
      "▁database": 5782,
      "kk": 5783,
      "ρ": 5784,
      "▁nabe": 5785,
      "__": 5786,
      "▁ants": 5787,
      "▁1840": 5788,
      "▁afternoon": 5789,
      "▁sex": 5790,
      "▁same": 5791,
      "▁mail": 5792,
      "▁1.3": 5793,
      "ales": 5794,
      "ough": 5795,
      "▁welcome": 5796,
      "▁ladder": 5797,
      "▁cultural": 5798,
      "▁cheap": 5799,
      "▁twentieth": 5800,
      "▁question": 5801,
      "▁.": 5802,
      "▁manager": 5803,
      "▁what": 5804,
      "viatio": 5805,
      "▁mer": 5806,
      "▁31": 5807,
      "▁capac": 5808,
      "3-3": 5809,
      "▁delhi": 5810,
      "▁6.1": 5811,
      "▁russia": 5812,
      "▁bas": 5813,
      "▁cris": 5814,
      "urning": 5815,
      "▁crisis": 5816,
      "erre": 5817,
      "▁fourteen": 5818,
      "▁763736": 5819,
      "▁aut": 5820,
      "▁museum": 5821,
      "▁1709": 5822,
      "▁bern": 5823,
      "&": 5824,
      "▁96": 5825,
      "ayed": 5826,
      "▁jour": 5827,
      "▁goat": 5828,
      "▁gener": 5829,
      "880": 5830,
      "▁alleged": 5831,
      "craft": 5832,
      "▁moreau": 5833,
      "▁bird": 5834,
      "▁allowed": 5835,
      "▁1993": 5836,
      "0": 5837,
      "▁281-518": 5838,
      "▁eighteen": 5839,
      "▁corresp": 5840,
      "▁1859": 5841,
      "▁quart": 5842,
      "▁39": 5843,
      "▁320": 5844,
      "▁neighb": 5845,
      "▁elected": 5846,
      "▁development": 5847,
      "▁01/12/2001": 5848,
      "▁neg": 5849,
      "▁boots": 5850,
      "aps": 5851,
      "kana": 5852,
      "-b": 5853,
      "▁excel": 5854,
      "▁collection": 5855,
      "128": 5856,
      "▁dey": 5857,
      "ss": 5858,
      "▁waste": 5859,
      "2,000": 5860,
      "ere": 5861,
      "▁watched": 5862,
      "ract": 5863,
      "▁twenty": 5864,
      "▁brush": 5865,
      "▁carrying": 5866,
      "▁02": 5867,
      "aren": 5868,
      "▁modulo": 5869,
      "▁potential": 5870,
      "eared": 5871,
      "▁pm": 5872,
      "▁05/17/99": 5873,
      "▁veg": 5874,
      "图": 5875,
      "-n": 5876,
      "▁4,": 5877,
      "▁d'": 5878,
      "▁encour": 5879,
      "▁finish": 5880,
      "▁rice@enron": 5881,
      "▁pull": 5882,
      "ical": 5883,
      "▁**********": 5884,
      "▁2.0": 5885,
      "ults": 5886,
      "iver": 5887,
      "200": 5888,
      "▁410-468-3": 5889,
      "▁bought": 5890,
      ".x": 5891,
      "▁grand": 5892,
      "▁sight": 5893,
      "▁convention": 5894,
      "hib": 5895,
      "▁shock": 5896,
      "▁cop": 5897,
      "▁phr": 5898,
      "▁hand": 5899,
      "era": 5900,
      "▁stops": 5901,
      "▁bec": 5902,
      "ev": 5903,
      "▁pric": 5904,
      "▁desert": 5905,
      "▁allow": 5906,
      "▁declar": 5907,
      "stop": 5908,
      "▁putting": 5909,
      "£": 5910,
      "ex": 5911,
      "▁twist": 5912,
      "▁ut": 5913,
      "▁mist": 5914,
      "▁society": 5915,
      "▁purp": 5916,
      "▁ended": 5917,
      "0-3": 5918,
      "ib": 5919,
      "▁put": 5920,
      "▁rubber": 5921,
      "▁tied": 5922,
      "▁flash": 5923,
      "uses": 5924,
      "▁01:39:56": 5925,
      "==============================================": 5926,
      "gest": 5927,
      "▁12:12": 5928,
      "▁weapon": 5929,
      "▁insurance": 5930,
      "▁normal": 5931,
      "▁gard": 5932,
      "▁jason": 5933,
      "erved": 5934,
      "▁200": 5935,
      "idd": 5936,
      "▁45": 5937,
      "h": 5938,
      "sy": 5939,
      "▁jeff": 5940,
      "▁secretary": 5941,
      "▁fan": 5942,
      "▁rece": 5943,
      "▁qa": 5944,
      "-d": 5945,
      "at": 5946,
      "▁arr": 5947,
      "▁leader": 5948,
      "▁_________________________________________________": 5949,
      "▁113": 5950,
      "alle": 5951,
      "▁whe": 5952,
      "▁army": 5953,
      "▁near": 5954,
      "▁arriving": 5955,
      "3": 5956,
      "▁fav": 5957,
      "▁summ": 5958,
      "eak": 5959,
      "▁long": 5960,
      "den": 5961,
      "▁amid": 5962,
      "▁limit": 5963,
      "▁hanging": 5964,
      "▁prop": 5965,
      "fare": 5966,
      "▁11:16": 5967,
      "▁khins": 5968,
      "▁notwithstand": 5969,
      "ven": 5970,
      "▁own": 5971,
      "org": 5972,
      "▁sea": 5973,
      "▁prem": 5974,
      "ched": 5975,
      "▁congress": 5976,
      "▁terms": 5977,
      "omer": 5978,
      "▁08/16": 5979,
      "-m": 5980,
      "is_0712": 5981,
      ".c": 5982,
      "700": 5983,
      "▁sustain": 5984,
      "inews": 5985,
      "oni": 5986,
      "▁×": 5987,
      "▁hamster": 5988,
      "▁getting": 5989,
      "▁att": 5990,
      "▁suit": 5991,
      "▁maj": 5992,
      "▁thanks": 5993,
      "▁seriously": 5994,
      "▁b.": 5995,
      "▁declaration": 5996,
      "▁nope": 5997,
      "art": 5998,
      "▁fy": 5999,
      "▁23": 6000,
      "▁j": 6001,
      "ized": 6002,
      "▁wrong": 6003,
      "▁1805": 6004,
      "▁policies": 6005,
      "ault": 6006,
      "▁super": 6007,
      "▁caused": 6008,
      "▁phoenix": 6009,
      "▁11/0": 6010,
      ":40": 6011,
      "ifying": 6012,
      "-59": 6013,
      "▁ch": 6014,
      ":39": 6015,
      "▁user": 6016,
      "▁fields": 6017,
      "▁action": 6018,
      "▁employees": 6019,
      "ile": 6020,
      "ute": 6021,
      "▁€": 6022,
      "▁*****": 6023,
      "▁=)": 6024,
      "▁09": 6025,
      "▁tam": 6026,
      "▁japanese": 6027,
      "isl": 6028,
      "▁coal": 6029,
      "▁---------------------------------------------------------------------------": 6030,
      "▁forgot": 6031,
      "▁debra": 6032,
      "▁padaleck": 6033,
      "▁j.doc": 6034,
      "▁day": 6035,
      "enc": 6036,
      "▁back": 6037,
      "▁live": 6038,
      "icial": 6039,
      "▁protection": 6040,
      "10": 6041,
      "▁@": 6042,
      "▁anal": 6043,
      "▁decide": 6044,
      "▁runs": 6045,
      "▁applic": 6046,
      "▁francisco": 6047,
      "▁heard": 6048,
      "▁spirit": 6049,
      "▁feeling": 6050,
      "▁constitution": 6051,
      "▁trick": 6052,
      "▁lun": 6053,
      "▁1,200": 6054,
      "▁04:03": 6055,
      "roit": 6056,
      "yn": 6057,
      "▁-----": 6058,
      "mem": 6059,
      "▁susp": 6060,
      "▁assoc": 6061,
      "▁brown": 6062,
      "do": 6063,
      "▁bunny": 6064,
      "iness": 6065,
      "▁mweta": 6066,
      "▁cut": 6067,
      "@enron.com": 6068,
      "▁wars": 6069,
      "▁whatever": 6070,
      "athers": 6071,
      "▁majority": 6072,
      "▁chairs": 6073,
      "▁remember": 6074,
      "▁airlines": 6075,
      "▁elections": 6076,
      "▁alike": 6077,
      "▁influence": 6078,
      "▁right": 6079,
      "▁fl": 6080,
      "▁1614": 6081,
      "▁sept": 6082,
      "▁miami": 6083,
      "bi": 6084,
      "▁727": 6085,
      "▁placed": 6086,
      "fri": 6087,
      "3-": 6088,
      "clock": 6089,
      "▁rent": 6090,
      "eping": 6091,
      "▁approximately": 6092,
      "▁>--------------------------------": 6093,
      "▁padalecki": 6094,
      "▁lunch": 6095,
      "▁explan": 6096,
      "str": 6097,
      "▁flowers": 6098,
      "aked": 6099,
      "▁egg": 6100,
      "▁;-)": 6101,
      "▁2012": 6102,
      "/2004": 6103,
      "▁shobha-": 6104,
      "46-3393": 6105,
      "▁enfor": 6106,
      "▁might": 6107,
      "atures": 6108,
      "▁established": 6109,
      "▁khan@transredes": 6110,
      "▁wash": 6111,
      "▁tools": 6112,
      "▁ok": 6113,
      "ight": 6114,
      "▁sle": 6115,
      "98": 6116,
      "▁ideas": 6117,
      "les": 6118,
      "▁prepar": 6119,
      "claim": 6120,
      "time": 6121,
      "▁supp": 6122,
      "▁produce": 6123,
      "arts": 6124,
      "encies": 6125,
      "▁sa": 6126,
      "▁e.g.": 6127,
      "em": 6128,
      "▁concerning": 6129,
      "▁incre": 6130,
      "▁whenever": 6131,
      "▁until": 6132,
      "▁(a)": 6133,
      "▁dirty": 6134,
      "▁attract": 6135,
      "▁:)": 6136,
      "▁younger": 6137,
      "▁vacation": 6138,
      "▁1880": 6139,
      "▁+1": 6140,
      "▁languages": 6141,
      "/13": 6142,
      "–": 6143,
      ":34": 6144,
      "ective": 6145,
      "▁xsd": 6146,
      "▁67": 6147,
      "ological": 6148,
      "▁’ll": 6149,
      "iff": 6150,
      "▁companies": 6151,
      "▁rights": 6152,
      "▁neighbor": 6153,
      "▁miles": 6154,
      "▁1783": 6155,
      "ients": 6156,
      "▁arrest": 6157,
      "▁issues": 6158,
      "▁research": 6159,
      "ial": 6160,
      "▁time": 6161,
      "rible": 6162,
      "▁viol": 6163,
      "▁estimate": 6164,
      ".30": 6165,
      "▁week": 6166,
      "▁nature": 6167,
      "▁mosque": 6168,
      "▁local": 6169,
      "▁regular": 6170,
      "▁corn": 6171,
      "▁rice": 6172,
      "▁master": 6173,
      "▁jud": 6174,
      "▁anc": 6175,
      "▁summer": 6176,
      "▁manage": 6177,
      "icing": 6178,
      "▁bed": 6179,
      "▁consequ": 6180,
      "28": 6181,
      "▁basically": 6182,
      "▁reb": 6183,
      "▁1912": 6184,
      "▁tun": 6185,
      "olution": 6186,
      "▁bite": 6187,
      "▁'re": 6188,
      "▁camel": 6189,
      "▁from": 6190,
      "▁frequently": 6191,
      "▁416-8": 6192,
      "▁10/31": 6193,
      "▁edit": 6194,
      "▁tennis": 6195,
      "▁santa": 6196,
      "▁evening": 6197,
      "▁.?": 6198,
      "ians": 6199,
      "▁interconnect": 6200,
      "▁flag": 6201,
      "/1": 6202,
      "▁kent": 6203,
      "▁col": 6204,
      "▁litt": 6205,
      "▁swww": 6206,
      "rad": 6207,
      "▁open": 6208,
      "out": 6209,
      "▁p": 6210,
      "▁230": 6211,
      "▁2007": 6212,
      ":15": 6213,
      "3/2000": 6214,
      "-343": 6215,
      "▁wether": 6216,
      "▁predict": 6217,
      "▁confirm": 6218,
      "▁paris": 6219,
      "▁373": 6220,
      "▁cage": 6221,
      "▁para13": 6222,
      "▁177": 6223,
      "▁sometime": 6224,
      "▁entit": 6225,
      "▁sy": 6226,
      "▁h": 6227,
      "▁either": 6228,
      "▁content": 6229,
      "▁property": 6230,
      "▁+++++": 6231,
      "▁pericles": 6232,
      "▁smith": 6233,
      "▁shin": 6234,
      "ax": 6235,
      "iced": 6236,
      "▁20,000": 6237,
      "▁bus": 6238,
      "▁?!": 6239,
      "k.url": 6240,
      "ma": 6241,
      "▁transfer": 6242,
      "ook": 6243,
      "▁chaos": 6244,
      "▁good": 6245,
      "▁dance": 6246,
      "▁cond": 6247,
      "▁190": 6248,
      "li": 6249,
      "▁scen": 6250,
      "▁tent": 6251,
      "clus": 6252,
      "▁structures": 6253,
      "ager": 6254,
      "vember": 6255,
      "▁1": 6256,
      "▁offices": 6257,
      "▁legislative": 6258,
      "tto": 6259,
      "▁immediate": 6260,
      "on@ect": 6261,
      "osed": 6262,
      "▁415.782": 6263,
      "/9": 6264,
      "are": 6265,
      "▁memory": 6266,
      "▁tall": 6267,
      "sel": 6268,
      "▁sales": 6269,
      "▁cl": 6270,
      "▁reference": 6271,
      "▁bob": 6272,
      "lied": 6273,
      "▁inf": 6274,
      "▁holt": 6275,
      "/15/2001": 6276,
      "stand": 6277,
      "▁cromer": 6278,
      "▁responsibility": 6279,
      "▁ii": 6280,
      "▁anoder": 6281,
      "▁tw": 6282,
      "▁provides": 6283,
      "ago": 6284,
      "▁inh": 6285,
      "▁knowled": 6286,
      "red": 6287,
      "▁teams": 6288,
      "▁menu": 6289,
      "▁hol": 6290,
      "▁kev": 6291,
      "▁2.2": 6292,
      ":07": 6293,
      "▁core": 6294,
      "▁!!!?": 6295,
      "eline": 6296,
      "▁elsewhere": 6297,
      "▁read": 6298,
      "▁1977": 6299,
      "▁print": 6300,
      "new": 6301,
      "▁period": 6302,
      "▁08:50": 6303,
      "▁accept": 6304,
      "▁shar": 6305,
      "▁樋口": 6306,
      "▁begin": 6307,
      "▁fax": 6308,
      "▁willi": 6309,
      "▁pip": 6310,
      "▁yourself": 6311,
      "▁worried": 6312,
      "▁perf": 6313,
      "▁funds": 6314,
      "rel": 6315,
      "teenth": 6316,
      "▁interested": 6317,
      "▁experimental": 6318,
      "▁swing": 6319,
      "▁1972": 6320,
      "▁could": 6321,
      "▁http://www.": 6322,
      "▁04/2": 6323,
      "▁sever": 6324,
      "▁ble": 6325,
      "▁intellig": 6326,
      "▁california": 6327,
      "▁narr": 6328,
      "▁lots": 6329,
      "anch": 6330,
      "▁becuse": 6331,
      "▁except": 6332,
      "▁incred": 6333,
      "▁cost": 6334,
      "▁1589": 6335,
      "▁gr": 6336,
      "▁power": 6337,
      "▁white": 6338,
      "▁meals": 6339,
      "▁tower": 6340,
      "9999": 6341,
      "▁continue": 6342,
      "▁sol": 6343,
      "▁nap": 6344,
      "▁ground": 6345,
      "▁mot": 6346,
      "▁distingu": 6347,
      "ollow": 6348,
      "ph": 6349,
      "ek": 6350,
      "-h": 6351,
      "▁thousands": 6352,
      "▁jun": 6353,
      "▁objectives": 6354,
      "hing": 6355,
      "west": 6356,
      "uge": 6357,
      "e.": 6358,
      "▁epis": 6359,
      "▁char": 6360,
      "▁fle": 6361,
      "▁schol": 6362,
      "▁ob": 6363,
      "ole": 6364,
      "s.": 6365,
      "▁paying": 6366,
      "▁duty": 6367,
      "▁accident": 6368,
      "erson": 6369,
      "▁agents": 6370,
      "ett": 6371,
      "▁ord": 6372,
      "▁05908549": 6373,
      "▁perdu": 6374,
      "▁starting": 6375,
      "▁52": 6376,
      "▁go": 6377,
      "▁crit": 6378,
      "]": 6379,
      "▁not": 6380,
      "▁occ": 6381,
      "▁1871": 6382,
      "▁pres": 6383,
      "▁dise": 6384,
      "▁==----": 6385,
      ".16": 6386,
      "▁municip": 6387,
      "▁door": 6388,
      "▁ac": 6389,
      "tsbur": 6390,
      "▁kar": 6391,
      "▁larger": 6392,
      "▁active": 6393,
      "▁greater": 6394,
      "▁never": 6395,
      ":17": 6396,
      "▁1969": 6397,
      "▁44": 6398,
      "▁ire": 6399,
      "▁volunte": 6400,
      "▁toy": 6401,
      "ension": 6402,
      "ounts": 6403,
      "▁canada": 6404,
      "▁03:58": 6405,
      "▁2017": 6406,
      "a)": 6407,
      "▁weather": 6408,
      "▁170": 6409,
      "▁moved": 6410,
      "▁living": 6411,
      "▁unable": 6412,
      "ift": 6413,
      "ondon": 6414,
      "▁qaeda": 6415,
      "▁rate": 6416,
      "▁1974": 6417,
      "ics": 6418,
      "ateg": 6419,
      "▁mixed": 6420,
      "▁orig": 6421,
      ".ht": 6422,
      "▁helped": 6423,
      "▁pleasure": 6424,
      "▁bike": 6425,
      "▁century": 6426,
      "0010": 6427,
      "▁vietnam": 6428,
      "ah": 6429,
      "ron": 6430,
      "ub": 6431,
      ".123": 6432,
      "ql": 6433,
      "▁bid": 6434,
      "▁shape": 6435,
      "▁soon": 6436,
      "ability": 6437,
      "▁notes": 6438,
      "▁subsequ": 6439,
      "ross": 6440,
      "▁basil": 6441,
      "▁called": 6442,
      "▁ir": 6443,
      "▁service": 6444,
      "▁famil": 6445,
      "▁capital": 6446,
      "dy": 6447,
      "▁election": 6448,
      "▁lys": 6449,
      "▁crow": 6450,
      "▁1696": 6451,
      "▁pachom": 6452,
      "▁harry": 6453,
      "ars": 6454,
      "▁acad": 6455,
      "▁const": 6456,
      "▁independ": 6457,
      "▁xv": 6458,
      "▁speaking": 6459,
      "▁avail": 6460,
      "▁conflict": 6461,
      "-6": 6462,
      "ived": 6463,
      "▁2015": 6464,
      "ikh": 6465,
      "▁questar": 6466,
      "acle": 6467,
      "▁debate": 6468,
      "▁coup": 6469,
      "▁invol": 6470,
      "▁wolves": 6471,
      "▁tractor": 6472,
      "▁pub": 6473,
      "53": 6474,
      "iration": 6475,
      "51": 6476,
      "▁prod": 6477,
      ".9": 6478,
      "▁see": 6479,
      "▁treatment": 6480,
      "▁adjust": 6481,
      "▁1220": 6482,
      "ien": 6483,
      "±": 6484,
      "▁360": 6485,
      "▁gh": 6486,
      "▁anyone": 6487,
      "iated": 6488,
      "▁programme": 6489,
      "▁...": 6490,
      "▁f": 6491,
      "▁sam": 6492,
      "20-": 6493,
      "▁testing": 6494,
      "▁days": 6495,
      ".uk": 6496,
      "▁nash": 6497,
      "▁london": 6498,
      "▁architect": 6499,
      "▁..": 6500,
      "▁target": 6501,
      "rench": 6502,
      "ette": 6503,
      "▁16.3": 6504,
      "▁whereby": 6505,
      "▁tourists": 6506,
      "son": 6507,
      "▁feet": 6508,
      "▁1836": 6509,
      "ast": 6510,
      "▁‘": 6511,
      "▁map": 6512,
      "▁minus": 6513,
      "▁ham": 6514,
      "▁1843": 6515,
      "▁complet": 6516,
      "▁added": 6517,
      "▁bang": 6518,
      "▁differ": 6519,
      "vant": 6520,
      "▁initiative": 6521,
      "▁2016": 6522,
      "ud": 6523,
      "▁jim": 6524,
      "▁estim": 6525,
      "▁amount": 6526,
      "▁matter": 6527,
      "▁anybody": 6528,
      "▁they": 6529,
      "▁congrat": 6530,
      "▁term": 6531,
      "iwan": 6532,
      "▁russian": 6533,
      "▁media": 6534,
      "rition": 6535,
      "k.ur": 6536,
      ".m": 6537,
      "▁excited": 6538,
      "▁expert": 6539,
      "▁reprod": 6540,
      "8": 6541,
      "▁behalf": 6542,
      "▁version": 6543,
      "▁2005": 6544,
      "▁979": 6545,
      "▁755": 6546,
      "▁odd": 6547,
      "▁care": 6548,
      "▁currently": 6549,
      "▁immediately": 6550,
      "▁improvement": 6551,
      "▁romantic": 6552,
      "▁providing": 6553,
      "▁immed": 6554,
      "▁served": 6555,
      "▁head": 6556,
      "▁repe": 6557,
      "▁unfortun": 6558,
      "eap": 6559,
      "▁shell": 6560,
      "▁jord": 6561,
      "ation": 6562,
      "▁months": 6563,
      "[PAD]": 6564,
      "▁use": 6565,
      "tr": 6566,
      "▁operators": 6567,
      "▁bit": 6568,
      "▁9:30": 6569,
      "▁side": 6570,
      "na": 6571,
      "▁threw": 6572,
      "▁supplies": 6573,
      "▁install": 6574,
      "▁54": 6575,
      "▁cheek": 6576,
      "▁ke": 6577,
      "▁nest": 6578,
      "-4": 6579,
      "▁certainly": 6580,
      "asing": 6581,
      "▁hill": 6582,
      "▁900": 6583,
      "▁20.doc": 6584,
      "▁air": 6585,
      "▁cons": 6586,
      "isk": 6587,
      "▁claimed": 6588,
      "ه": 6589,
      "apes": 6590,
      "▁405": 6591,
      "▁hav": 6592,
      "▁12,000": 6593,
      "▁holding": 6594,
      "▁relax": 6595,
      "▁510": 6596,
      "▁versus": 6597,
      "▁97": 6598,
      "▁pal": 6599,
      "▁ga": 6600,
      "▁anti-": 6601,
      "▁repl": 6602,
      "night": 6603,
      "▁opportunities": 6604,
      "587": 6605,
      "▁713/8": 6606,
      "▁maint": 6607,
      "▁...................": 6608,
      "▁response": 6609,
      ":38": 6610,
      "jwww": 6611,
      "▁vers": 6612,
      "▁gu": 6613,
      "▁ourselves": 6614,
      "▁rules": 6615,
      "▁thir": 6616,
      ">": 6617,
      "▁goods": 6618,
      ".s": 6619,
      "ih": 6620,
      "▁straw": 6621,
      "▁cart": 6622,
      "▁cigarette": 6623,
      "▁digital": 6624,
      "par": 6625,
      "▁participation": 6626,
      "▁disco": 6627,
      "▁review": 6628,
      "▁l'": 6629,
      "eda": 6630,
      "__________": 6631,
      "▁future": 6632,
      "▁displ": 6633,
      "▁edge": 6634,
      "▁instruct": 6635,
      "▁wedding": 6636,
      "▁status": 6637,
      "▁cit": 6638,
      "itter": 6639,
      "▁asian": 6640,
      "▁713-6": 6641,
      "▁gi": 6642,
      "bow": 6643,
      "▁dollar": 6644,
      "▁village": 6645,
      "▁advice": 6646,
      "ants": 6647,
      "cing": 6648,
      "iel": 6649,
      "▁reserve": 6650,
      "enner": 6651,
      "▁specifically": 6652,
      "▁teen": 6653,
      "▁lat": 6654,
      "▁customer": 6655,
      "ibilities": 6656,
      "▁oblig": 6657,
      "▁z": 6658,
      "▁failed": 6659,
      "▁somet": 6660,
      "▁1877": 6661,
      "▁govern": 6662,
      "▁housing": 6663,
      "▁structure": 6664,
      "[CLS]": 6665,
      "▁plat": 6666,
      "▁yer": 6667,
      "aters": 6668,
      "▁pach": 6669,
      "▁lord": 6670,
      "▁definitely": 6671,
      "▁saturday": 6672,
      "▁8": 6673,
      "▁+++": 6674,
      "▁trash": 6675,
      "per": 6676,
      "▁183": 6677,
      "▁cuz": 6678,
      "▁strateg": 6679,
      "▁6:00": 6680,
      "▁1980": 6681,
      "▁leading": 6682,
      "rit": 6683,
      "ises": 6684,
      "▁empty": 6685,
      "▁53": 6686,
      "ke": 6687,
      "nel": 6688,
      "▁tour": 6689,
      "▁814014": 6690,
      "▁beat": 6691,
      "▁beliefs": 6692,
      "▁straight": 6693,
      "▁pri": 6694,
      "▁shown": 6695,
      "▁prom": 6696,
      "▁generation": 6697,
      "▁to": 6698,
      "▁included": 6699,
      "ain": 6700,
      "▁how": 6701,
      "▁hund": 6702,
      "▁chapter": 6703,
      "ger": 6704,
      "iles": 6705,
      "astic": 6706,
      "ously": 6707,
      "▁713-853": 6708,
      "▁cloth": 6709,
      "▁cream": 6710,
      "▁lip": 6711,
      "▁magic": 6712,
      "▁mama": 6713,
      "▁value": 6714,
      "▁pillow": 6715,
      "▁fantastic": 6716,
      "iban": 6717,
      "▁hen": 6718,
      "▁four": 6719,
      "▁mount": 6720,
      "ale": 6721,
      "ze": 6722,
      "▁performance": 6723,
      "▁situation": 6724,
      "▁england": 6725,
      "▁su": 6726,
      "cal": 6727,
      "elines": 6728,
      "▁independence": 6729,
      "▁kh": 6730,
      "▁tea": 6731,
      "▁anglo": 6732,
      "▁anyway": 6733,
      "▁wel": 6734,
      "▁broke": 6735,
      "▁programs": 6736,
      "▁doing": 6737,
      "▁guy": 6738,
      "414": 6739,
      "▁morality": 6740,
      "▁sandwich": 6741,
      "▁bac": 6742,
      "▁hou": 6743,
      "▁lives": 6744,
      "un": 6745,
      "▁je": 6746,
      "▁across": 6747,
      "▁ru": 6748,
      "▁enjoy": 6749,
      "ens": 6750,
      "▁contact": 6751,
      ".10": 6752,
      "▁church": 6753,
      "orm": 6754,
      "▁english": 6755,
      "▁naima": 6756,
      "▁one": 6757,
      "▁field": 6758,
      "▁graduate": 6759,
      "erv": 6760,
      "▁kevalam": 6761,
      "▁uk": 6762,
      "▁photograph": 6763,
      "ying": 6764,
      "▁arrang": 6765,
      "▁alt.": 6766,
      "▁it": 6767,
      "▁geograph": 6768,
      "▁size": 6769,
      "▁mix": 6770,
      "▁430": 6771,
      "▁ltte": 6772,
      "▁our": 6773,
      "enge": 6774,
      "ren": 6775,
      "▁result": 6776,
      "▁are": 6777,
      "▁appoint": 6778,
      "▁sir": 6779,
      "5th": 6780,
      "▁arm": 6781,
      "mo": 6782,
      "▁perfectly": 6783,
      "/16/2001": 6784,
      "▁goal": 6785,
      "▁chick": 6786,
      "▁11-20-2000": 6787,
      "ch": 6788,
      "ree": 6789,
      "▁credit": 6790,
      "sem": 6791,
      "▁ste": 6792,
      "▁montreal": 6793,
      "ov": 6794,
      "▁domain": 6795,
      "▁shoes": 6796,
      "round": 6797,
      "▁1910": 6798,
      "łodz": 6799,
      "iddle": 6800,
      "(": 6801,
      "▁entitled": 6802,
      "▁wilson": 6803,
      "▁passing": 6804,
      "nic": 6805,
      "l": 6806,
      "ove": 6807,
      "================================": 6808,
      "▁flow": 6809,
      "fast": 6810,
      "▁-fin": 6811,
      "cl": 6812,
      "▁express": 6813,
      "▁10/20/2000": 6814,
      "!?": 6815,
      "ut": 6816,
      "▁bottles": 6817,
      "▁adults": 6818,
      "▁75": 6819,
      "▁depart": 6820,
      "▁ancient": 6821,
      "utely": 6822,
      "b": 6823,
      "ry": 6824,
      "▁forced": 6825,
      "13.86": 6826,
      "ank": 6827,
      "▁800-553-3119": 6828,
      "▁vice": 6829,
      "▁====================================================": 6830,
      "▁345-3436": 6831,
      "▁70": 6832,
      "onse": 6833,
      "▁re-": 6834,
      "ening": 6835,
      "▁clos": 6836,
      "▁1790": 6837,
      "▁drag": 6838,
      "▁.......": 6839,
      "-780": 6840,
      "war": 6841,
      "▁imm": 6842,
      "pping": 6843,
      "▁....": 6844,
      "▁using": 6845,
      "▁distrib": 6846,
      "irt": 6847,
      "-9": 6848,
      "yr": 6849,
      "▁fem": 6850,
      "▁mir": 6851,
      "ertain": 6852,
      "▁fing": 6853,
      "▁arrived": 6854,
      "▁experiment": 6855,
      "▁hum": 6856,
      "▁termin": 6857,
      "▁zealand": 6858,
      "▁filter": 6859,
      "▁1932": 6860,
      "▁industrial": 6861,
      "▁10:5": 6862,
      "▁gave": 6863,
      ".831": 6864,
      "iday": 6865,
      "▁floor": 6866,
      "▁held": 6867,
      "emy": 6868,
      "▁means": 6869,
      "▁ren": 6870,
      "▁answ": 6871,
      "▁seemed": 6872,
      "09": 6873,
      "远": 6874,
      "yan": 6875,
      "▁7.3": 6876,
      "▁03/15/2001": 6877,
      "▁13": 6878,
      "▁facts": 6879,
      "▁face": 6880,
      "▁transportation": 6881,
      "▁pointed": 6882,
      "ategy": 6883,
      "!!!!": 6884,
      "eton@ect": 6885,
      "▁library": 6886,
      "▁fi": 6887,
      "19": 6888,
      "▁assess": 6889,
      "▁council": 6890,
      "▁whi": 6891,
      "▁separ": 6892,
      "▁ten": 6893,
      "ged": 6894,
      "▁beh": 6895,
      "▁alone": 6896,
      "▁papers": 6897,
      "▁pocket": 6898,
      "aced": 6899,
      "▁til": 6900,
      "▁unlike": 6901,
      "▁?": 6902,
      "▁close": 6903,
      "▁2004": 6904,
      "entially": 6905,
      "wik": 6906,
      "▁resident": 6907,
      "▁behav": 6908,
      "▁context": 6909,
      "▁challenges": 6910,
      "h-r": 6911,
      "▁repair": 6912,
      "▁thinks": 6913,
      "▁modern": 6914,
      "▁front": 6915,
      "▁som": 6916,
      "▁balls": 6917,
      "▁coord": 6918,
      "rist": 6919,
      "iger": 6920,
      "▁ninth": 6921,
      "▁me": 6922,
      "▁1846": 6923,
      "urday": 6924,
      "9933": 6925,
      "▁6.2.1": 6926,
      "▁9": 6927,
      ",000": 6928,
      "ement": 6929,
      "▁pie": 6930,
      "▁common": 6931,
      "▁tick": 6932,
      "▁visit": 6933,
      "▁10:46": 6934,
      "▁possess": 6935,
      "????": 6936,
      "mos": 6937,
      "▁afraid": 6938,
      "+----------------": 6939,
      "▁answer": 6940,
      "▁social": 6941,
      "▁vietn": 6942,
      "▁harmon": 6943,
      "▁understand": 6944,
      "▁rail": 6945,
      "▁lake": 6946,
      "▁val": 6947,
      "▁june": 6948,
      "▁reasonable": 6949,
      "▁hoo": 6950,
      "-c": 6951,
      "▁asleep": 6952,
      "▁international": 6953,
      "▁economy": 6954,
      "▁680": 6955,
      "山": 6956,
      "▁few": 6957,
      "▁butter": 6958,
      "▁bin": 6959,
      "four": 6960,
      "▁cinc": 6961,
      "▁com": 6962,
      "▁plane": 6963,
      "▁warhol": 6964,
      "alk": 6965,
      "▁cheese": 6966,
      "▁potty": 6967,
      "en": 6968,
      "▁ever": 6969,
      "▁%": 6970,
      "▁1990": 6971,
      "▁other": 6972,
      "▁take": 6973,
      "wor": 6974,
      "▁nt": 6975,
      "▁dear": 6976,
      "▁fore": 6977,
      "entions": 6978,
      "ooth": 6979,
      "▁motor": 6980,
      "▁touch": 6981,
      "▁pig": 6982,
      "▁danger": 6983,
      "▁forty-one": 6984,
      "▁workers": 6985,
      "▁human": 6986,
      "▁fif": 6987,
      "▁seat": 6988,
      "ably": 6989,
      "▁port": 6990,
      "301": 6991,
      "oh": 6992,
      "▁mh": 6993,
      "▁disapp": 6994,
      "boy": 6995,
      "ames": 6996,
      "▁houses": 6997,
      "lymp": 6998,
      "▁personally": 6999,
      "▁alt.animals": 7000,
      "▁.........": 7001,
      "▁metro": 7002,
      "▁everyday": 7003,
      "▁gather": 7004,
      "6": 7005,
      "▁missing": 7006,
      "low": 7007,
      "▁notwith": 7008,
      "fully": 7009,
      "▁winter": 7010,
      "▁713-793-": 7011,
      "▁pul": 7012,
      "▁galois": 7013,
      "ext": 7014,
      "▁balance": 7015,
      "▁turn": 7016,
      "af": 7017,
      "w": 7018,
      "och": 7019,
      "tern": 7020,
      "▁strongly": 7021,
      "▁825": 7022,
      "▁gross": 7023,
      "▁youn": 7024,
      "▁165": 7025,
      "▁nam": 7026,
      ".8": 7027,
      "▁nurs": 7028,
      "ri": 7029,
      "▁********************************": 7030,
      "▁inn": 7031,
      "▁calm": 7032,
      "ild": 7033,
      "▁milwau": 7034,
      "8806": 7035,
      "//": 7036,
      "▁recommended": 7037,
      "▁visitors": 7038,
      "▁efforts": 7039,
      "▁launch": 7040,
      "38": 7041,
      "▁nervous": 7042,
      "ially": 7043,
      "amb": 7044,
      "here": 7045,
      "********************************": 7046,
      "▁101": 7047,
      "▁000010": 7048,
      "▁nerv": 7049,
      "▁spider": 7050,
      "▁1984": 7051,
      "ples": 7052,
      "▁09/15": 7053,
      "▁nand": 7054,
      "ums": 7055,
      "▁21,000": 7056,
      "een": 7057,
      "▁imag": 7058,
      "▁johnson": 7059,
      "▁switch": 7060,
      "ten": 7061,
      "▁ol": 7062,
      "▁completely": 7063,
      "▁73": 7064,
      "▁16.379": 7065,
      "▁numbers": 7066,
      "▁actual": 7067,
      "▁multiple": 7068,
      "▁lanka": 7069,
      "ason": 7070,
      "▁airfare": 7071,
      "▁63": 7072,
      "ert": 7073,
      "▁rolling": 7074,
      "iving": 7075,
      "▁discover": 7076,
      "▁vill": 7077,
      "▁untill": 7078,
      "▁08/15/2000": 7079,
      "ds": 7080,
      "▁sin": 7081,
      "▁priced": 7082,
      "▁house": 7083,
      "▁non-": 7084,
      "lic": 7085,
      "▁mag": 7086,
      "37": 7087,
      "▁944": 7088,
      "▁tax": 7089,
      "▁exhib": 7090,
      ".htm": 7091,
      "▁832.676": 7092,
      "▁sim": 7093,
      "▁classical": 7094,
      "▁commission": 7095,
      "▁beer": 7096,
      "iques": 7097,
      "▁01810": 7098,
      "ado": 7099,
      "▁likely": 7100,
      "▁finding": 7101,
      "▁info": 7102,
      "▁within": 7103,
      "▁central": 7104,
      ",600": 7105,
      "▁writer": 7106,
      "arraf": 7107,
      "▁global": 7108,
      "▁correspond": 7109,
      "ure": 7110,
      "▁seen": 7111,
      "▁university": 7112,
      "king": 7113,
      "tle": 7114,
      "▁hey": 7115,
      "▁720": 7116,
      "-49": 7117,
      "▁comed": 7118,
      "▁prices": 7119,
      "▁per": 7120,
      "wood": 7121,
      "▁sun": 7122,
      "▁situ": 7123,
      "▁movies": 7124,
      "▁mic": 7125,
      "▁interp": 7126,
      "~": 7127,
      "uma": 7128,
      "▁plays": 7129,
      "·": 7130,
      "44": 7131,
      "▁269": 7132,
      "part": 7133,
      "▁sides": 7134,
      "▁’ve": 7135,
      "▁mur": 7136,
      "ved": 7137,
      "▁toward": 7138,
      "▁onto": 7139,
      "▁emerging": 7140,
      "▁daniel": 7141,
      "osoph": 7142,
      "▁rather": 7143,
      "ion": 7144,
      "▁copy": 7145,
      "▁tenn": 7146,
      "ilt": 7147,
      "▁south": 7148,
      "▁corpor": 7149,
      "room": 7150,
      "ecca": 7151,
      "▁stop": 7152,
      "▁citizens": 7153,
      "▁00": 7154,
      "oun": 7155,
      "uth": 7156,
      "▁505-625-8031": 7157,
      "oint": 7158,
      "▁items": 7159,
      "ices": 7160,
      "▁file": 7161,
      "ays": 7162,
      "port": 7163,
      "▁narrow": 7164,
      "▁09:45": 7165,
      "other": 7166,
      "▁processes": 7167,
      "▁43": 7168,
      "ra": 7169,
      "ked": 7170,
      "▁adult": 7171,
      "▁silence": 7172,
      "q": 7173,
      "▁building": 7174,
      "▁class": 7175,
      "▁covered": 7176,
      "▁fift": 7177,
      "▁uhhuh": 7178,
      "-ked": 7179,
      "▁energy": 7180,
      "800": 7181,
      "oman": 7182,
      "▁opp": 7183,
      "▁early": 7184,
      "▁there": 7185,
      "▁lived": 7186,
      "▁security": 7187,
      "roll": 7188,
      "▁respond": 7189,
      "▁keeping": 7190,
      "▁nic": 7191,
      "▁puts": 7192,
      "▁project": 7193,
      "ception": 7194,
      "6021": 7195,
      "▁02-05-02.doc": 7196,
      "▁internet": 7197,
      "ught": 7198,
      "▁resc": 7199,
      "ele": 7200,
      "▁return": 7201,
      "▁words": 7202,
      "▁cupc": 7203,
      "▁michael": 7204,
      "le": 7205,
      "▁ther": 7206,
      "▁affair": 7207,
      "▁possibly": 7208,
      "12": 7209,
      "▁market": 7210,
      "▁choose": 7211,
      "▁campaign": 7212,
      "▁08/16/2000": 7213,
      "▁afghan": 7214,
      "▁ingredients": 7215,
      "▁1966": 7216,
      "ators": 7217,
      "▁closed": 7218,
      "▁969": 7219,
      "▁iran": 7220,
      "▁assemb": 7221,
      "▁know": 7222,
      "where": 7223,
      "▁_____": 7224,
      "ulation": 7225,
      "▁gent": 7226,
      "▁positive": 7227,
      "uring": 7228,
      "▁rad": 7229,
      "▁major": 7230,
      "▁if": 7231,
      "▁28": 7232,
      "@t": 7233,
      "▁http": 7234,
      "▁song": 7235,
      "”": 7236,
      "▁☏": 7237,
      "▁area": 7238,
      "ots": 7239,
      "ator": 7240,
      "▁answered": 7241,
      "▁hea": 7242,
      "▁stated": 7243,
      "▁fur": 7244,
      "3736": 7245,
      "▁professor": 7246,
      "▁late": 7247,
      "▁tradition": 7248,
      "▁purs": 7249,
      "σ": 7250,
      "itt": 7251,
      "▁hair": 7252,
      "▁flood": 7253,
      "standing": 7254,
      "▁29": 7255,
      "▁multip": 7256,
      "▁discuss": 7257,
      "▁years": 7258,
      "▁sql": 7259,
      "ror": 7260,
      "ney": 7261,
      "▁jose": 7262,
      "▁nat": 7263,
      "▁card": 7264,
      "▁creat": 7265,
      "▁1841": 7266,
      "▁daddy": 7267,
      "▁db": 7268,
      "▁infrast": 7269,
      "ho": 7270,
      "▁unless": 7271,
      "▁happens": 7272,
      "▁q": 7273,
      "▁416-865-370": 7274,
      "ms": 7275,
      "▁happy": 7276,
      "▁conversation": 7277,
      "▁committee": 7278,
      "▁planet": 7279,
      "▁analysis": 7280,
      "▁12:3": 7281,
      "▁zawahiri": 7282,
      "▁view": 7283,
      "ogel": 7284,
      "▁instance": 7285,
      "▁save": 7286,
      "▁flavor": 7287,
      "▁chance": 7288,
      "’": 7289,
      "ine": 7290,
      "▁diplom": 7291,
      "▁very": 7292,
      "▁1978": 7293,
      "▁concerns": 7294,
      "ented": 7295,
      "doc": 7296,
      "▁initi": 7297,
      "▁dudley": 7298,
      "▁dyn": 7299,
      "▁03/0": 7300,
      "▁eth": 7301,
      "▁2013": 7302,
      ":02": 7303,
      "▁unto": 7304,
      "°": 7305,
      "89": 7306,
      "rou": 7307,
      "vin": 7308,
      "/8/00": 7309,
      "▁confl": 7310,
      "▁determined": 7311,
      "▁hop": 7312,
      "ends": 7313,
      "▁ansi-": 7314,
      "▁would": 7315,
      "▁women": 7316,
      "▁flower": 7317,
      "berry": 7318,
      "▁bun": 7319,
      "▁afford": 7320,
      "▁wanted": 7321,
      "alf": 7322,
      "▁process": 7323,
      "▁commissioner": 7324,
      "▁internal": 7325,
      "▁store": 7326,
      "▁disc": 7327,
      "▁prove": 7328,
      "▁noted": 7329,
      "la": 7330,
      "▁explor": 7331,
      "▁plac": 7332,
      "▁senate": 7333,
      "▁ris": 7334,
      "dr": 7335,
      "ential": 7336,
      "▁cult": 7337,
      "▁home": 7338,
      "▁l": 7339,
      "▁kinda": 7340,
      "▁747": 7341,
      "▁*": 7342,
      "▁blanket": 7343,
      "▁seating": 7344,
      "▁planning": 7345,
      "▁favour": 7346,
      "▁milwaukee": 7347,
      "-9004": 7348,
      "▁author": 7349,
      "▁actually": 7350,
      "▁89": 7351,
      "▁percentage": 7352,
      "▁surprising": 7353,
      "▁payment": 7354,
      "rup": 7355,
      "aging": 7356,
      "▁bulb": 7357,
      "▁united": 7358,
      "▁circle": 7359,
      "▁06/01/2001": 7360,
      "▁urs": 7361,
      "▁cute": 7362,
      "igration": 7363,
      "dden": 7364,
      "▁recently": 7365,
      "▁writing": 7366,
      "▁who": 7367,
      "▁numerous": 7368,
      "bank": 7369,
      "▁really": 7370,
      "▁study": 7371,
      "▁1610": 7372,
      "810": 7373,
      "ber": 7374,
      "▁29587": 7375,
      "▁upper": 7376,
      "▁+44": 7377,
      "33": 7378,
      "▁practice": 7379,
      "▁1701": 7380,
      "▁line": 7381,
      "rick": 7382,
      "▁members": 7383,
      "▁award": 7384,
      "▁ll": 7385,
      "▁dar": 7386,
      "▁trip": 7387,
      "▁72": 7388,
      "▁spac": 7389,
      "▁atl": 7390,
      "▁376": 7391,
      "oons": 7392,
      "▁focused": 7393,
      "▁number": 7394,
      "▁bow": 7395,
      "▁1588": 7396,
      "gether": 7397,
      "sm": 7398,
      "▁travel": 7399,
      "▁studied": 7400,
      ":55": 7401,
      "wise": 7402,
      "▁lies": 7403,
      "▁pages": 7404,
      "▁journ": 7405,
      "▁video": 7406,
      "ount": 7407,
      "peare": 7408,
      "019": 7409,
      "▁proble": 7410,
      "▁oz": 7411,
      "▁taste": 7412,
      "▁usd": 7413,
      "▁electricity": 7414,
      "▁consumption": 7415,
      "itting": 7416,
      "▁uhoh": 7417,
      "▁-stip": 7418,
      "iance": 7419,
      "▁159": 7420,
      "▁joint": 7421,
      "▁oakland": 7422,
      "▁l2": 7423,
      "▁devil": 7424,
      "▁necessary": 7425,
      "▁easily": 7426,
      "▁done": 7427,
      "▁grandm": 7428,
      "▁120,000": 7429,
      "use": 7430,
      "▁contemporary": 7431,
      "ograph": 7432,
      "▁surger": 7433,
      "-kedne": 7434,
      "▁11:35": 7435,
      "▁attempt": 7436,
      "ition": 7437,
      "▁bi": 7438,
      "▁increase": 7439,
      "y@ect": 7440,
      "▁spoon": 7441,
      "allow": 7442,
      "ements": 7443,
      "▁access": 7444,
      "iled": 7445,
      "▁lingu": 7446,
      "▁202.456.1414": 7447,
      "183": 7448,
      "▁tal": 7449,
      "umn": 7450,
      "▁2050": 7451,
      "▁sty": 7452,
      "ple": 7453,
      "▁terror": 7454,
      "ges": 7455,
      "▁shows": 7456,
      "▁sec": 7457,
      "▁07/17/2000": 7458,
      "▁2021": 7459,
      "▁facilities": 7460,
      "sp": 7461,
      "▁kick": 7462,
      "ordon": 7463,
      "▁weapons": 7464,
      "▁1754": 7465,
      "bur": 7466,
      "▁pretty": 7467,
      "▁paint": 7468,
      ".99": 7469,
      "▁ict": 7470,
      "▁748": 7471,
      "55": 7472,
      "▁850": 7473,
      "▁job": 7474,
      "▁surrounded": 7475,
      "▁61": 7476,
      "▁gul": 7477,
      "▁attended": 7478,
      "▁organ": 7479,
      "▁choice": 7480,
      "▁rain": 7481,
      "▁festival": 7482,
      "▁histor": 7483,
      "▁6.00": 7484,
      "▁particip": 7485,
      "▁2,000": 7486,
      "▁lawy": 7487,
      "▁num": 7488,
      "enix": 7489,
      "▁strength": 7490,
      "▁symp": 7491,
      "▁invited": 7492,
      "orton": 7493,
      "▁impress": 7494,
      "nut": 7495,
      "▁enron": 7496,
      "▁athens": 7497,
      "▁wait": 7498,
      "▁small": 7499,
      "▁saving": 7500,
      "▁bur": 7501,
      "▁713-79": 7502,
      "▁1.1": 7503,
      "olog": 7504,
      "▁02/2": 7505,
      "********": 7506,
      "▁rug": 7507,
      "}*{===<----": 7508,
      "r": 7509,
      "▁knock": 7510,
      "▁among": 7511,
      "▁short": 7512,
      "-460-3": 7513,
      "ingu": 7514,
      "▁supper": 7515,
      "▁eas": 7516,
      "▁soc": 7517,
      "▁713-853-": 7518,
      "▁listening": 7519,
      "822": 7520,
      "▁object": 7521,
      "▁objects": 7522,
      "ala": 7523,
      "▁sixteen": 7524,
      "▁while": 7525,
      "▁2.3": 7526,
      "▁knife": 7527,
      "▁afgh": 7528,
      "action": 7529,
      "▁please": 7530,
      "▁italian": 7531,
      "ters": 7532,
      "▁1613": 7533,
      "▁joy": 7534,
      "ua": 7535,
      "/17/2000": 7536,
      "▁convers": 7537,
      "▁tables": 7538,
      "-3989": 7539,
      "▁faith": 7540,
      "▁extra": 7541,
      "▁facebook": 7542,
      "▁fruit": 7543,
      "▁rescue": 7544,
      "icip": 7545,
      "▁worth": 7546,
      "▁legit": 7547,
      "▁migr": 7548,
      "▁teh": 7549,
      "ode": 7550,
      "▁station": 7551,
      "▁weas": 7552,
      "4/2000": 7553,
      "ool": 7554,
      "▁74419": 7555,
      "▁mei": 7556,
      "▁food": 7557,
      "▁piece": 7558,
      "▁175": 7559,
      "▁6.2": 7560,
      "▁marsh": 7561,
      "▁pivottable": 7562,
      "▁properties": 7563,
      "t": 7564,
      "no": 7565,
      "▁w/": 7566,
      "▁laugh": 7567,
      "▁sort": 7568,
      "amm": 7569,
      "▁function": 7570,
      "▁evolutionary": 7571,
      "▁7:30": 7572,
      "▁_": 7573,
      "▁1635": 7574,
      "▁kids": 7575,
      "▁1/2": 7576,
      "▁ben": 7577,
      "iful": 7578,
      "▁star": 7579,
      "▁rout": 7580,
      "▁3.": 7581,
      "unications": 7582,
      "▁amb": 7583,
      "▁acqu": 7584,
      "▁759933": 7585,
      "▁horrible": 7586,
      "▁sen": 7587,
      "▁7484": 7588,
      "ering": 7589,
      "▁fight": 7590,
      "fin": 7591,
      "▁intr": 7592,
      "outh": 7593,
      "oms": 7594,
      "▁meant": 7595,
      "ric": 7596,
      "oured": 7597,
      "▁mexico": 7598,
      "▁12:42": 7599,
      "++++": 7600,
      "▁concept": 7601,
      "▁server": 7602,
      "▁rapid": 7603,
      "▁worse": 7604,
      "ne": 7605,
      "▁trade": 7606,
      "▁email": 7607,
      "▁para": 7608,
      "otte": 7609,
      "▁material": 7610,
      "▁.!": 7611,
      "▁spread": 7612,
      "▁9/11": 7613,
      "▁rental": 7614,
      "▁place": 7615,
      "▁resources": 7616,
      "▁events": 7617,
      "▁dom": 7618,
      "orus": 7619,
      "ac": 7620,
      "▁3.5": 7621,
      "▁tennessee": 7622,
      "21": 7623,
      "▁half": 7624,
      "ils": 7625,
      "▁nuclear": 7626,
      "ael": 7627,
      "▁ano": 7628,
      ",008": 7629,
      "▁standing": 7630,
      "▁science": 7631,
      "ship": 7632,
      "▁under": 7633,
      "▁forth": 7634,
      "▁ast": 7635,
      "xce": 7636,
      "▁drove": 7637,
      "eth": 7638,
      "▁hole": 7639,
      "▁417": 7640,
      "▁suppose": 7641,
      "▁april": 7642,
      "and": 7643,
      "ulating": 7644,
      "ists": 7645,
      "▁standard": 7646,
      "▁favorite": 7647,
      "▁leads": 7648,
      "opment": 7649,
      "▁dial": 7650,
      "ision": 7651,
      "▁owner": 7652,
      "▁indust": 7653,
      "▁capacity": 7654,
      "▁reve": 7655,
      "61": 7656,
      "ention": 7657,
      "▁tr": 7658,
      "▁regards": 7659,
      "mon": 7660,
      "▁ukraine": 7661,
      "▁stri": 7662,
      "▁ec": 7663,
      "ann": 7664,
      "50": 7665,
      "▁specific": 7666,
      "▁argument": 7667,
      "▁poor": 7668,
      "▁alt": 7669,
      "▁1822": 7670,
      "▁educ": 7671,
      "ughter": 7672,
      "▁factor": 7673,
      "▁3,000": 7674,
      "▁div": 7675,
      "▁ge": 7676,
      "▁jokes": 7677,
      "▁1689": 7678,
      "ission": 7679,
      "▁1200": 7680,
      "▁inv": 7681,
      "▁nante": 7682,
      "ara": 7683,
      "▁psych": 7684,
      "y@enron_development": 7685,
      "▁1975": 7686,
      "xt": 7687,
      "819602175": 7688,
      "ued": 7689,
      "▁05/30/2001": 7690,
      "子": 7691,
      "▁bay": 7692,
      "▁important": 7693,
      "▁apr": 7694,
      "▁int": 7695,
      "alo": 7696,
      "▁83": 7697,
      "ime": 7698,
      "▁past": 7699,
      "dies": 7700,
      "▁cara": 7701,
      "▁fell": 7702,
      "▁(": 7703,
      "▁democracy": 7704,
      "▁command": 7705,
      ",000,000": 7706,
      "▁involve": 7707,
      "▁belg": 7708,
      "ced": 7709,
      "▁extended": 7710,
      "▁la": 7711,
      "▁looking": 7712,
      "▁match": 7713,
      "erve": 7714,
      "rr": 7715,
      "▁281-44": 7716,
      "▁pol": 7717,
      "▁address": 7718,
      "ous": 7719,
      "▁hurry": 7720,
      "▁their": 7721,
      "▁perhaps": 7722,
      ".676": 7723,
      "▁neighbour": 7724,
      "▁1530": 7725,
      "▁703": 7726,
      "▁yet": 7727,
      "▁an": 7728,
      "▁seek": 7729,
      "▁----": 7730,
      "▁swe": 7731,
      "▁sent": 7732,
      "▁10:45": 7733,
      "▁gall": 7734,
      "▁stopover": 7735,
      "▁1981": 7736,
      "ι": 7737,
      "▁3:00": 7738,
      "▁olivia": 7739,
      "▁cab": 7740,
      "eed": 7741,
      "▁caught": 7742,
      "▁5000": 7743,
      "-": 7744,
      "▁...............": 7745,
      "▁huge": 7746,
      "▁indian": 7747,
      "two": 7748,
      "▁succ": 7749,
      "▁3-5": 7750,
      "▁rooms": 7751,
      "▁vet": 7752,
      "ity": 7753,
      "▁dkk": 7754,
      "▁problem": 7755,
      "????????????????????????????????": 7756,
      "▁mid": 7757,
      "▁much": 7758,
      "land": 7759,
      "▁1949": 7760,
      "ind": 7761,
      "▁wikihow": 7762,
      "▁becomes": 7763,
      "gue": 7764,
      "▁ele": 7765,
      "▁bright": 7766,
      "▁aud": 7767,
      "ines": 7768,
      "▁grammar": 7769,
      "pet": 7770,
      "**": 7771,
      "▁p.s": 7772,
      "57": 7773,
      "▁mountains": 7774,
      "▁parents": 7775,
      "ram": 7776,
      "▁released": 7777,
      "▁1831": 7778,
      "▁audit": 7779,
      "▁sink": 7780,
      "▁dallas": 7781,
      "▁players": 7782,
      "▁e-mail": 7783,
      ".2461": 7784,
      "▁fus": 7785,
      "▁senior": 7786,
      "▁lad": 7787,
      "uct": 7788,
      "ected": 7789,
      "aa": 7790,
      "▁decent": 7791,
      "▁pittsbur": 7792,
      "▁cabin": 7793,
      "▁surv": 7794,
      "▁mush": 7795,
      "▁blog": 7796,
      "attle": 7797,
      "▁.doc": 7798,
      "77": 7799,
      "▁wro": 7800,
      "▁underst": 7801,
      "▁rec": 7802,
      "▁nab": 7803,
      "▁05": 7804,
      "▁cand": 7805,
      "▁50000": 7806,
      "▁jordan": 7807,
      "▁08": 7808,
      "▁saw": 7809,
      "φ": 7810,
      ":21": 7811,
      "2": 7812,
      "▁pract": 7813,
      "▁’re": 7814,
      "wet": 7815,
      "▁loo": 7816,
      "▁progr": 7817,
      "oses": 7818,
      "rael": 7819,
      "eapolis": 7820,
      "13": 7821,
      "▁v": 7822,
      "▁hamas": 7823,
      "▁committ": 7824,
      "rain": 7825,
      "zz": 7826,
      "空": 7827,
      "▁forg": 7828,
      "▁dan": 7829,
      "teen": 7830,
      "▁nation": 7831,
      "▁hopefully": 7832,
      "▁hours": 7833,
      "airs": 7834,
      "▁requirements": 7835,
      "▁510-642": 7836,
      "▁desc": 7837,
      "▁8.3": 7838,
      "▁bear": 7839,
      "elling": 7840,
      "ulations": 7841,
      "▁mean": 7842,
      "▁laid": 7843,
      "▁support": 7844,
      "▁bray": 7845,
      "▁distance": 7846,
      "▁theatre": 7847,
      "▁mine": 7848,
      "▁education": 7849,
      "▁innov": 7850,
      "off": 7851,
      "▁poo": 7852,
      "▁80435": 7853,
      "▁else": 7854,
      "▁colors": 7855,
      "▁counter": 7856,
      "▁collabor": 7857,
      "▁arms": 7858,
      "▁admin": 7859,
      "asons": 7860,
      "90": 7861,
      "go": 7862,
      "▁consist": 7863,
      "▁philadelp": 7864,
      "▁metal": 7865,
      "▁parts": 7866,
      "iere": 7867,
      "▁impl": 7868,
      "▁provisions": 7869,
      "eur": 7870,
      "▁folks": 7871,
      "▁activities": 7872,
      "▁euro": 7873,
      "▁greatest": 7874,
      "ɔ": 7875,
      "▁silver": 7876,
      ":32": 7877,
      "k": 7878,
      "▁draft": 7879,
      "tt": 7880,
      "ves": 7881,
      "▁dir": 7882,
      "▁fig": 7883,
      "▁47": 7884,
      "▁readers": 7885,
      "uel": 7886,
      "▁pere": 7887,
      "▁participants": 7888,
      "▁snake": 7889,
      "▁returned": 7890,
      "▁win": 7891,
      "bert": 7892,
      "▁2000": 7893,
      "/11/2004": 7894,
      "▁orders": 7895,
      "ief": 7896,
      "▁154": 7897,
      "▁wid": 7898,
      "▁finger": 7899,
      "he": 7900,
      "▁birth": 7901,
      "ow": 7902,
      "▁ryan": 7903,
      "16": 7904,
      "▁leaves": 7905,
      "▁norton": 7906,
      ".95": 7907,
      "▁1307": 7908,
      "oam": 7909,
      "▁economic": 7910,
      "▁wood": 7911,
      ".75": 7912,
      "93": 7913,
      "▁adequ": 7914,
      "▁樋": 7915,
      "▁10,000": 7916,
      "imum": 7917,
      "▁415.621": 7918,
      "▁’s": 7919,
      "▁vogelaviatiola": 7920,
      "-44": 7921,
      "▁1245": 7922,
      "▁1983": 7923,
      "▁my": 7924,
      "▁tear": 7925,
      "▁reached": 7926,
      "------": 7927,
      "ux": 7928,
      "ards": 7929,
      "bit": 7930,
      "▁moment": 7931,
      "▁ow": 7932,
      "▁appointment": 7933,
      "▁tho": 7934,
      "▁fusca": 7935,
      "▁subjects": 7936,
      "▁considerable": 7937,
      "▁offic": 7938,
      "▁species": 7939,
      "te": 7940,
      "▁produced": 7941,
      "▁microsoft": 7942,
      "▁pollution": 7943,
      "▁seats": 7944,
      "▁examples": 7945,
      "▁yep": 7946,
      "▁rob": 7947,
      "pite": 7948,
      "▁ya": 7949,
      "▁twenty-": 7950,
      "▁applications": 7951,
      "ik": 7952,
      "▁agreed": 7953,
      "▁forward": 7954,
      "▁ooh": 7955,
      "▁european": 7956,
      "▁hell": 7957,
      "▁officials": 7958,
      "▁change": 7959,
      "▁bare": 7960,
      "004": 7961,
      "▁street": 7962,
      "721": 7963,
      "▁strange": 7964,
      "▁cur": 7965,
      "▁3:30": 7966,
      "▁cereal": 7967,
      "es": 7968,
      "▁used": 7969,
      "▁associated": 7970,
      "▁listed": 7971,
      "▁1982": 7972,
      "▁\"": 7973,
      "line": 7974,
      ":28": 7975,
      "▁'em": 7976,
      "▁inspired": 7977,
      "▁wilt": 7978,
      "▁structural": 7979,
      "▁connected": 7980,
      "▁stress": 7981,
      "▁schedule": 7982,
      ".com/": 7983,
      "arr": 7984,
      "ias": 7985,
      "▁feel": 7986,
      "▁state": 7987,
      "▁citiz": 7988,
      "▁rib": 7989,
      "ronic": 7990,
      "▁now": 7991,
      "▁sur": 7992,
      "▁ins": 7993,
      "iveness": 7994,
      "5/2001": 7995,
      "▁thirteen": 7996,
      "verty": 7997,
      "ting": 7998,
      "▁mountain": 7999,
      "ought": 8000,
      "▁twent": 8001,
      "▁candidate": 8002,
      "▁agenda": 8003,
      "-#6": 8004,
      "▁traffic": 8005,
      "▁71": 8006,
      "▁10/2": 8007,
      "▁129": 8008,
      "▁ram": 8009,
      "▁college": 8010,
      "▁51": 8011,
      "isc": 8012,
      "▁639": 8013,
      "oth": 8014,
      "ries": 8015,
      "ta": 8016,
      "▁having": 8017,
      "icycle": 8018,
      "▁rem": 8019,
      "▁202": 8020,
      "▁refr": 8021,
      "54-": 8022,
      "▁several": 8023,
      "▁eleph": 8024,
      "▁witch": 8025,
      "▁bell": 8026,
      "▁leaders": 8027,
      "asy": 8028,
      "▁repeated": 8029,
      "▁fund": 8030,
      "▁grab": 8031,
      "▁horses": 8032,
      "▁inch": 8033,
      "ang": 8034,
      "▁pas": 8035,
      "▁benefit": 8036,
      "▁lear": 8037,
      "▁1976": 8038,
      "▁lie": 8039,
      "300": 8040,
      "▁pets": 8041,
      "ings": 8042,
      "esh": 8043,
      "▁games": 8044,
      "▁culture": 8045,
      "▁1.5": 8046,
      "▁ah": 8047,
      "▁conc": 8048,
      "▁arrive": 8049,
      "▁today": 8050,
      "▁toget": 8051,
      "▁noteboo": 8052,
      "24": 8053,
      "emic": 8054,
      "oid": 8055,
      "▁2019": 8056,
      "▁milk": 8057,
      "▁frank": 8058,
      "▁outer": 8059,
      "ts": 8060,
      "orders": 8061,
      "▁meaning": 8062,
      "▁[...": 8063,
      "▁ide": 8064,
      "▁<<": 8065,
      "▁2,300": 8066,
      "▁appeal": 8067,
      "▁colleagues": 8068,
      "▁source": 8069,
      "ok": 8070,
      "▁ca": 8071,
      "▁been": 8072,
      "stein": 8073,
      "▁program": 8074,
      "▁esc": 8075,
      "_00.doc": 8076,
      "air": 8077,
      "iders": 8078,
      "ection": 8079,
      "▁meal": 8080,
      "▁chann": 8081,
      "▁1945": 8082,
      "▁the": 8083,
      "amed": 8084,
      "▁why": 8085,
      "dam": 8086,
      "etch": 8087,
      "▁base": 8088,
      "/31": 8089,
      "oring": 8090,
      "▁aspect": 8091,
      "---------------": 8092,
      "▁powerful": 8093,
      "ervation": 8094,
      "▁james": 8095,
      "▁eighth": 8096,
      "▁we": 8097,
      "▁article": 8098,
      "▁spoke": 8099,
      "▁below": 8100,
      "▁age": 8101,
      "abor": 8102,
      "▁announced": 8103,
      "▁carried": 8104,
      "com": 8105,
      "of": 8106,
      "ring": 8107,
      "▁breath": 8108,
      "▁steps": 8109,
      "▁pock": 8110,
      "▁regard": 8111,
      "innati": 8112,
      "ocol": 8113,
      "▁prot": 8114,
      "▁3724": 8115,
      "▁rocks": 8116,
      "▁high": 8117,
      "▁30": 8118,
      "▁extrem": 8119,
      "▁fo": 8120,
      "ea": 8121,
      "▁stoy": 8122,
      "▁subm": 8123,
      "▁yeah": 8124,
      "▁theodorus": 8125,
      ":24": 8126,
      "!": 8127,
      "▁op": 8128,
      "▁tou": 8129,
      "ned": 8130,
      "▁italy": 8131,
      "▁mental": 8132,
      "▁899": 8133,
      "▁counterparty": 8134,
      "▁drawing": 8135,
      "▁forest": 8136,
      "▁n’t": 8137,
      "▁request": 8138,
      "az": 8139,
      "▁shopping": 8140,
      "▁!!!!!": 8141,
      "tain": 8142,
      "▁being": 8143,
      "2/2000": 8144,
      "igr": 8145,
      "▁le": 8146,
      "▁11:3": 8147,
      "▁conce": 8148,
      "rol": 8149,
      "▁september": 8150,
      "▁corporate": 8151,
      "▁shirt": 8152,
      "▁==": 8153,
      "▁inqu": 8154,
      "▁talk": 8155,
      "▁2001": 8156,
      "▁wak": 8157,
      "▁uh": 8158,
      "▁doll": 8159,
      "▁6400": 8160,
      "eless": 8161,
      "@enron": 8162,
      "▁teacher": 8163,
      "▁fest": 8164,
      "▁directive": 8165,
      "ared": 8166,
      "▁novel": 8167,
      "▁puzzle": 8168,
      ":1": 8169,
      "▁alright": 8170,
      "/26/2000": 8171,
      "▁ill": 8172,
      "▁pun": 8173,
      "ologies": 8174,
      "ember": 8175,
      "▁somewhat": 8176,
      "enty": 8177,
      "▁meet": 8178,
      "▁instit": 8179,
      "▁420": 8180,
      "▁commons": 8181,
      "▁students": 8182,
      "ino": 8183,
      "ula": 8184,
      ":50": 8185,
      "▁accom": 8186,
      "▁1.6": 8187,
      "▁4.9": 8188,
      "▁stuff": 8189,
      "`s": 8190,
      "▁successfully": 8191
    },
    "merges": [
      [
        "▁gu",
        "erre"
      ],
      [
        "▁ass",
        "um"
      ],
      [
        "▁bun",
        "ny"
      ],
      [
        "▁st",
        "at"
      ],
      [
        "▁a",
        "ud"
      ],
      [
        "▁th",
        "rou"
      ],
      [
        "▁s",
        "ell"
      ],
      [
        "▁mu",
        "st"
      ],
      [
        "▁h",
        "orn"
      ],
      [
        "▁comp",
        "reh"
      ],
      [
        "ain",
        "ed"
      ],
      [
        "c",
        "al"
      ],
      [
        "▁j",
        "u"
      ],
      [
        "▁pock",
        "et"
      ],
      [
        "▁dinos",
        "aur"
      ],
      [
        "▁c",
        "re"
      ],
      [
        "ac",
        "h"
      ],
      [
        "▁l",
        "o"
      ],
      [
        "▁foc",
        "used"
      ],
      [
        "▁",
        "urs"
      ],
      [
        "j",
        "ect"
      ],
      [
        "▁c",
        "ash"
      ],
      [
        "▁me",
        "et"
      ],
      [
        "▁expl",
        "ore"
      ],
      [
        "in",
        "ing"
      ],
      [
        "▁su",
        "ch"
      ],
      [
        "ir",
        "s"
      ],
      [
        "e",
        "au"
      ],
      [
        "▁pr",
        "ay"
      ],
      [
        "▁crit",
        "ic"
      ],
      [
        "▁p",
        "ock"
      ],
      [
        "▁mech",
        "an"
      ],
      [
        "▁th",
        "ick"
      ],
      [
        "▁re",
        "li"
      ],
      [
        "▁’",
        "’"
      ],
      [
        "'",
        "re"
      ],
      [
        "▁kitt",
        "en"
      ],
      [
        "▁down",
        "town"
      ],
      [
        "c",
        "t"
      ],
      [
        "▁cont",
        "rib"
      ],
      [
        "▁",
        "ire"
      ],
      [
        "▁employ",
        "ment"
      ],
      [
        "▁",
        "**"
      ],
      [
        "gr",
        "in"
      ],
      [
        "▁all",
        "oc"
      ],
      [
        "▁help",
        "ful"
      ],
      [
        "▁cor",
        "p"
      ],
      [
        "rou",
        "nd"
      ],
      [
        "▁step",
        "h"
      ],
      [
        "▁888",
        ".916.718"
      ],
      [
        "am",
        "es"
      ],
      [
        "▁invest",
        "ig"
      ],
      [
        "▁grand",
        "m"
      ],
      [
        "▁teach",
        "ers"
      ],
      [
        "▁f",
        "i"
      ],
      [
        "▁h",
        "u"
      ],
      [
        "▁",
        "ide"
      ],
      [
        "o",
        "s"
      ],
      [
        "▁det",
        "er"
      ],
      [
        "ed",
        "ie"
      ],
      [
        "**",
        "**"
      ],
      [
        "▁n",
        "ail"
      ],
      [
        "▁b",
        "ri"
      ],
      [
        "▁pad",
        "aleck"
      ],
      [
        "▁en",
        "v"
      ],
      [
        "▁c",
        "up"
      ],
      [
        "~*",
        "~*"
      ],
      [
        "r",
        "ide"
      ],
      [
        "▁d",
        "urs"
      ],
      [
        "s",
        "ix"
      ],
      [
        "▁relig",
        "ion"
      ],
      [
        "▁non",
        "stop"
      ],
      [
        "▁app",
        "arent"
      ],
      [
        "i",
        "-"
      ],
      [
        "▁c",
        "r"
      ],
      [
        "▁dep",
        "art"
      ],
      [
        "▁1.",
        "25"
      ],
      [
        "▁fun",
        "ny"
      ],
      [
        "▁experi",
        "ences"
      ],
      [
        "▁pu",
        "zz"
      ],
      [
        "▁183",
        "6"
      ],
      [
        "▁happen",
        "ed"
      ],
      [
        "/01",
        "/2001"
      ],
      [
        "▁sle",
        "ep"
      ],
      [
        "▁answ",
        "ered"
      ],
      [
        "▁german",
        "y"
      ],
      [
        "▁dis",
        "p"
      ],
      [
        "▁bu",
        "y"
      ],
      [
        "ap",
        "ers"
      ],
      [
        "▁en",
        "ough"
      ],
      [
        "um",
        "ents"
      ],
      [
        "us",
        "h"
      ],
      [
        "▁dri",
        "ving"
      ],
      [
        "▁any",
        "body"
      ],
      [
        "▁diff",
        "er"
      ],
      [
        "▁sub",
        "sc"
      ],
      [
        "▁bott",
        "les"
      ],
      [
        "▁stre",
        "am"
      ],
      [
        "l",
        "o"
      ],
      [
        "an",
        "k"
      ],
      [
        "▁num",
        "bers"
      ],
      [
        "▁mar",
        "ie"
      ],
      [
        "ak",
        "ing"
      ],
      [
        "▁15",
        "75"
      ],
      [
        "▁do",
        "cum"
      ],
      [
        "er",
        "no"
      ],
      [
        "▁creat",
        "ive"
      ],
      [
        "▁h",
        "amm"
      ],
      [
        "▁min",
        "utes"
      ],
      [
        "▁acc",
        "ident"
      ],
      [
        "▁c",
        "le"
      ],
      [
        "▁co",
        "m"
      ],
      [
        "▁sh",
        "oulder"
      ],
      [
        "▁pass",
        "ing"
      ],
      [
        "▁l",
        "em"
      ],
      [
        "▁c",
        "ast"
      ],
      [
        "7",
        "5"
      ],
      [
        "▁m",
        "ed"
      ],
      [
        "▁",
        "—"
      ],
      [
        "▁nin",
        "th"
      ],
      [
        "▁16",
        "3"
      ],
      [
        "15",
        "-"
      ],
      [
        "▁dress",
        "ed"
      ],
      [
        "▁r",
        "ul"
      ],
      [
        "▁8",
        "25"
      ],
      [
        "▁202.456.1",
        "111"
      ],
      [
        "▁ukrain",
        "e"
      ],
      [
        "▁tr",
        "ash"
      ],
      [
        "et",
        "ime"
      ],
      [
        "▁2.",
        "2"
      ],
      [
        "b",
        "c"
      ],
      [
        "z",
        "e"
      ],
      [
        "▁maj",
        "or"
      ],
      [
        "▁deter",
        "mine"
      ],
      [
        "▁st",
        "ation"
      ],
      [
        "▁6",
        "5"
      ],
      [
        "▁tr",
        "ain"
      ],
      [
        "▁le",
        "e"
      ],
      [
        "▁m",
        "ake"
      ],
      [
        "▁disc",
        "uss"
      ],
      [
        "▁for",
        "g"
      ],
      [
        "za",
        "i"
      ],
      [
        "▁art",
        "icle"
      ],
      [
        "▁4",
        ".9"
      ],
      [
        "▁inc",
        "red"
      ],
      [
        "▁ing",
        "red"
      ],
      [
        "▁e",
        "ither"
      ],
      [
        "▁a",
        "ll"
      ],
      [
        "al",
        "d"
      ],
      [
        "t",
        "ch"
      ],
      [
        "▁frequ",
        "ently"
      ],
      [
        "▁comm",
        "ons"
      ],
      [
        "▁hear",
        "t"
      ],
      [
        "▁prod",
        "uct"
      ],
      [
        "▁secur",
        "ity"
      ],
      [
        "▁went",
        "z"
      ],
      [
        "▁10",
        "39"
      ],
      [
        "▁e",
        "u"
      ],
      [
        "▁2.9",
        "75"
      ],
      [
        "sel",
        "f"
      ],
      [
        "▁too",
        "l"
      ],
      [
        "▁stud",
        "ent"
      ],
      [
        "▁8",
        "0"
      ],
      [
        "▁200",
        "8"
      ],
      [
        "▁80",
        "435"
      ],
      [
        "▁c",
        "ross"
      ],
      [
        "op",
        "e"
      ],
      [
        "▁o",
        "thers"
      ],
      [
        "res",
        "h"
      ],
      [
        "▁18",
        "3"
      ],
      [
        "▁4_28",
        "_00.doc"
      ],
      [
        "ure",
        "d"
      ],
      [
        "▁199",
        "5"
      ],
      [
        "▁fir",
        "m"
      ],
      [
        "▁us",
        "ual"
      ],
      [
        "▁progr",
        "ams"
      ],
      [
        "ap",
        "e"
      ],
      [
        "▁neighb",
        "or"
      ],
      [
        "▁langu",
        "age"
      ],
      [
        "▁41",
        "7"
      ],
      [
        "▁410",
        "-468-3"
      ],
      [
        "i",
        "ff"
      ],
      [
        "▁dr",
        "am"
      ],
      [
        "▁zer",
        "o"
      ],
      [
        "d",
        "y"
      ],
      [
        "▁n",
        "ick"
      ],
      [
        "▁s",
        "m"
      ],
      [
        "▁8",
        "60"
      ],
      [
        "▁hors",
        "ie"
      ],
      [
        "▁su",
        "n"
      ],
      [
        "▁indust",
        "rial"
      ],
      [
        "▁",
        "łodz"
      ],
      [
        "▁kn",
        "ow"
      ],
      [
        "▁we",
        "ek"
      ],
      [
        "▁peace",
        "ful"
      ],
      [
        "▁800.713.86",
        "00"
      ],
      [
        "▁t",
        "alk"
      ],
      [
        "▁put",
        "ting"
      ],
      [
        "▁hum",
        "ans"
      ],
      [
        "s",
        "d"
      ],
      [
        "ol",
        "ution"
      ],
      [
        "▁e",
        "gypt"
      ],
      [
        "▁environment",
        "al"
      ],
      [
        "ink",
        "ing"
      ],
      [
        "i",
        "z"
      ],
      [
        "▁16",
        "89"
      ],
      [
        "▁meas",
        "ures"
      ],
      [
        "ic",
        "ago"
      ],
      [
        "▁cry",
        "ing"
      ],
      [
        "▁mil",
        "wau"
      ],
      [
        "▁u",
        "k"
      ],
      [
        "▁them",
        "selves"
      ],
      [
        "▁resp",
        "ond"
      ],
      [
        "▁n",
        "umer"
      ],
      [
        "▁d",
        "am"
      ],
      [
        "▁pean",
        "ut"
      ],
      [
        "▁want",
        "ed"
      ],
      [
        "▁te",
        "eth"
      ],
      [
        "▁10",
        ":34"
      ],
      [
        "▁co",
        "ff"
      ],
      [
        "▁f",
        "re"
      ],
      [
        "▁120",
        "5"
      ],
      [
        "0",
        "31"
      ],
      [
        "1",
        "2"
      ],
      [
        "▁sh",
        "it"
      ],
      [
        "▁_____",
        "__"
      ],
      [
        "▁finish",
        "ed"
      ],
      [
        "▁challeng",
        "es"
      ],
      [
        "▁sm",
        "oke"
      ],
      [
        "▁mix",
        "ed"
      ],
      [
        "▁195",
        "7"
      ],
      [
        "▁on",
        "ce"
      ],
      [
        "d",
        "ed"
      ],
      [
        "▁infl",
        "u"
      ],
      [
        "▁2",
        ".3"
      ],
      [
        "▁arri",
        "ving"
      ],
      [
        "on",
        "y"
      ],
      [
        "▁us",
        "es"
      ],
      [
        "ap",
        "t"
      ],
      [
        "oll",
        "ow"
      ],
      [
        "▁de",
        "vil"
      ],
      [
        "el",
        "ines"
      ],
      [
        "▁!!!!!!!",
        "!!!"
      ],
      [
        "39",
        "3"
      ],
      [
        "ur",
        "al"
      ],
      [
        "us",
        "es"
      ],
      [
        "▁c",
        "on"
      ],
      [
        "▁con",
        "sequ"
      ],
      [
        "▁189",
        "0"
      ],
      [
        "u",
        "a"
      ],
      [
        "▁183",
        "1"
      ],
      [
        "▁accord",
        "ing"
      ],
      [
        "5",
        "1"
      ],
      [
        "▁counter",
        "fe"
      ],
      [
        "▁dan",
        "ny"
      ],
      [
        "▁11:3",
        "2"
      ],
      [
        "▁al",
        "le"
      ],
      [
        "▁sing",
        "ing"
      ],
      [
        "▁'",
        "s"
      ],
      [
        "▁tax",
        "i"
      ],
      [
        "▁estim",
        "ate"
      ],
      [
        "▁n",
        "orm"
      ],
      [
        "▁18",
        "19"
      ],
      [
        "ur",
        "t"
      ],
      [
        "▁d",
        "est"
      ],
      [
        "▁treat",
        "ed"
      ],
      [
        "or",
        "ial"
      ],
      [
        "▁m",
        "is"
      ],
      [
        "▁pr",
        "int"
      ],
      [
        "▁chall",
        "enge"
      ],
      [
        "▁e",
        "-m"
      ],
      [
        "▁h",
        "el"
      ],
      [
        "rans",
        "red"
      ],
      [
        "▁st",
        "ated"
      ],
      [
        "▁pro",
        "c"
      ],
      [
        "▁jo",
        "y"
      ],
      [
        "▁c",
        "orn"
      ],
      [
        "▁sur",
        "ger"
      ],
      [
        "▁t",
        "om"
      ],
      [
        "j",
        "o"
      ],
      [
        "a",
        "ke"
      ],
      [
        "▁aug",
        "ust"
      ],
      [
        "▁sour",
        "ces"
      ],
      [
        "▁creat",
        "ed"
      ],
      [
        "▁p",
        "ad"
      ],
      [
        "▁valle",
        "e"
      ],
      [
        "▁qu",
        "est"
      ],
      [
        "▁wr",
        "itten"
      ],
      [
        "▁36",
        "6"
      ],
      [
        "▁3",
        ":30"
      ],
      [
        "▁cond",
        "itions"
      ],
      [
        "▁10/2",
        "0/2000"
      ],
      [
        "o",
        "ve"
      ],
      [
        "▁tec",
        "hn"
      ],
      [
        "▁h",
        "und"
      ],
      [
        "a",
        "q"
      ],
      [
        "▁he",
        "at"
      ],
      [
        "▁a",
        "st"
      ],
      [
        "▁0",
        "5"
      ],
      [
        "▁l",
        "ake"
      ],
      [
        "▁htt",
        "p"
      ],
      [
        "-",
        "20"
      ],
      [
        "▁814",
        ".86"
      ],
      [
        "n",
        "y"
      ],
      [
        "▁trans",
        "fer"
      ],
      [
        "p",
        "or"
      ],
      [
        "▁s",
        "ur"
      ],
      [
        "▁en",
        "a"
      ],
      [
        "▁dut",
        "y"
      ],
      [
        "m",
        "p"
      ],
      [
        "▁egg",
        "s"
      ],
      [
        "▁f",
        "le"
      ],
      [
        "▁proced",
        "ure"
      ],
      [
        "▁k",
        "ar"
      ],
      [
        "ott",
        "able"
      ],
      [
        "▁f",
        "ast"
      ],
      [
        "in",
        "ary"
      ],
      [
        "▁e.g",
        "."
      ],
      [
        "▁abs",
        "ol"
      ],
      [
        "20",
        "-"
      ],
      [
        "▁",
        "im"
      ],
      [
        "l",
        "ish"
      ],
      [
        "▁be",
        "at"
      ],
      [
        "▁desc",
        "rib"
      ],
      [
        "▁cris",
        "is"
      ],
      [
        "in",
        "n"
      ],
      [
        "c",
        "ing"
      ],
      [
        "h",
        "-r"
      ],
      [
        "▁t",
        "own"
      ],
      [
        "▁s",
        "ides"
      ],
      [
        ":",
        "46"
      ],
      [
        "▁n",
        "ational"
      ],
      [
        "▁sal",
        "es"
      ],
      [
        "▁j",
        "ud"
      ],
      [
        "▁respons",
        "ibility"
      ],
      [
        "▁",
        "ou"
      ],
      [
        ",",
        "6"
      ],
      [
        "▁mem",
        "phis"
      ],
      [
        "bo",
        "ard"
      ],
      [
        "▁ver",
        "non"
      ],
      [
        "ol",
        "d"
      ],
      [
        "▁cl",
        "aim"
      ],
      [
        "-0",
        "1"
      ],
      [
        "▁ass",
        "oc"
      ],
      [
        "▁in",
        "st"
      ],
      [
        "99",
        "99"
      ],
      [
        "ik",
        "h"
      ],
      [
        "i",
        "est"
      ],
      [
        "r",
        "ou"
      ],
      [
        "▁gar",
        "age"
      ],
      [
        "▁",
        "'"
      ],
      [
        "m",
        "er"
      ],
      [
        "▁t",
        "o"
      ],
      [
        "▁docum",
        "ents"
      ],
      [
        "▁12",
        "22"
      ],
      [
        "▁thom",
        "as"
      ],
      [
        "-",
        "ked"
      ],
      [
        "▁da",
        "ily"
      ],
      [
        "▁d",
        "et"
      ],
      [
        "▁tur",
        "ning"
      ],
      [
        "at",
        "ive"
      ],
      [
        "▁e",
        "b"
      ],
      [
        "ak",
        "istan"
      ],
      [
        "▁fix",
        "ed"
      ],
      [
        "▁t",
        "ent"
      ],
      [
        "▁ben",
        "ch"
      ],
      [
        "▁level",
        "s"
      ],
      [
        "▁t",
        "il"
      ],
      [
        "▁4",
        "00"
      ],
      [
        "ic",
        "le"
      ],
      [
        "▁inv",
        "ol"
      ],
      [
        "▁po",
        "et"
      ],
      [
        "▁he",
        "ight"
      ],
      [
        "▁d",
        "ue"
      ],
      [
        "l",
        "ed"
      ],
      [
        "▁equ",
        "ip"
      ],
      [
        "/2",
        "000"
      ],
      [
        "▁me",
        "als"
      ],
      [
        "▁in",
        "to"
      ],
      [
        "2",
        "00"
      ],
      [
        "▁person",
        "ally"
      ],
      [
        "▁04:",
        "28"
      ],
      [
        "▁min",
        "us"
      ],
      [
        "▁713-8",
        "53"
      ],
      [
        "▁earli",
        "est"
      ],
      [
        "▁ad",
        "just"
      ],
      [
        "▁cop",
        "y"
      ],
      [
        "▁experim",
        "ental"
      ],
      [
        "▁",
        "łod"
      ],
      [
        "▁c",
        "ro"
      ],
      [
        "▁t",
        "ot"
      ],
      [
        "▁m",
        "aster"
      ],
      [
        "z",
        "en"
      ],
      [
        "en",
        "ue"
      ],
      [
        "▁hous",
        "es"
      ],
      [
        "▁th",
        "ree"
      ],
      [
        "▁counter",
        "part"
      ],
      [
        "▁w",
        "ar"
      ],
      [
        "▁g",
        "reat"
      ],
      [
        "▁know",
        "ing"
      ],
      [
        "▁713/8",
        "53"
      ],
      [
        "8",
        "2"
      ],
      [
        "▁pleas",
        "ure"
      ],
      [
        "▁nine",
        "ty"
      ],
      [
        "▁applic",
        "ation"
      ],
      [
        "in",
        "d"
      ],
      [
        "▁f",
        "if"
      ],
      [
        "▁jan",
        "uary"
      ],
      [
        "▁10",
        "1"
      ],
      [
        "▁cent",
        "er"
      ],
      [
        "il",
        "t"
      ],
      [
        "▁h",
        "os"
      ],
      [
        "▁r",
        "h"
      ],
      [
        "▁respons",
        "ible"
      ],
      [
        "▁mir",
        "ror"
      ],
      [
        "m",
        "ine"
      ],
      [
        "▁08",
        "/03"
      ],
      [
        "og",
        "ether"
      ],
      [
        "▁p",
        "urs"
      ],
      [
        "▁ver",
        "sus"
      ],
      [
        "un",
        "ch"
      ],
      [
        "▁a",
        "verage"
      ],
      [
        "▁ro",
        "le"
      ],
      [
        "▁pe",
        "op"
      ],
      [
        "f",
        "our"
      ],
      [
        "▁8",
        "9"
      ],
      [
        "▁li",
        "ved"
      ],
      [
        "▁c",
        "ute"
      ],
      [
        "▁s",
        "ea"
      ],
      [
        "▁do",
        "g"
      ],
      [
        "▁s",
        "am"
      ],
      [
        "▁in",
        "nov"
      ],
      [
        "▁f",
        "it"
      ],
      [
        "▁att",
        "orn"
      ],
      [
        "▁w",
        "ater"
      ],
      [
        "▁r",
        "iver"
      ],
      [
        "▁to",
        "y"
      ],
      [
        "▁st",
        "ud"
      ],
      [
        "▁g",
        "a"
      ],
      [
        "▁500",
        "00"
      ],
      [
        "ap",
        "er"
      ],
      [
        "al",
        "gami"
      ],
      [
        "▁airport",
        "s"
      ],
      [
        "▁th",
        "ir"
      ],
      [
        "▁min",
        "ister"
      ],
      [
        "▁8",
        ":30"
      ],
      [
        "▁sim",
        "p"
      ],
      [
        "▁...",
        ".."
      ],
      [
        "▁b",
        "ad"
      ],
      [
        "▁yout",
        "ube"
      ],
      [
        "m",
        "ing"
      ],
      [
        "ad",
        "es"
      ],
      [
        "▁bo",
        "x"
      ],
      [
[...]
