{
  "version": "1.0",
  "truncation": null,
  "padding": null,
  "added_tokens": [
    {
      "id": 1116,
      "content": "[UNK]",
      "single_word": false,
      "lstrip": false,
      "rstrip": false,
      "normalized": false,
      "special": true
    },
    {
      "id": 1632,
      "content": "[MASK]",
      "single_word": false,
      "lstrip": false,
      "rstrip": false,
      "normalized": false,
      "special": true
    },
    {
      "id": 8584,
      "content": "[CLS]",
      "single_word": false,
      "lstrip": false,
      "rstrip": false,
      "normalized": false,
      "special": true
    },
    {
      "id": 11379,
      "content": "[SEP]",
      "single_word": false,
      "lstrip": false,
      "rstrip": false,
      "normalized": false,
      "special": true
    },
    {
      "id": 12178,
      "content": "[PAD]",
      "single_word": false,
      "lstrip": false,
      "rstrip": false,
      "normalized": false,
      "special": true
    }
  ],
  "normalizer": {
    "type": "Sequence",
    "normalizers": [
      {
        "type": "NFD"
      },
      {
        "type": "Lowercase"
      },
      {
        "type": "StripAccents"
      }
    ]
  },
  "pre_tokenizer": {
    "type": "Sequence",
    "pretokenizers": [
      {
        "type": "Metaspace",
        "replacement": "▁",
        "prepend_scheme": "always",
        "split": true
      }
    ]
  },
  "post_processor": {
    "type": "TemplateProcessing",
    "single": [
      {
        "SpecialToken": {
          "id": "[CLS]",
          "type_id": 0
        }
      },
      {
        "Sequence": {
          "id": "A",
          "type_id": 0
        }
      },
      {
        "SpecialToken": {
          "id": "[SEP]",
          "type_id": 0
        }
      }
    ],
    "pair": [
      {
        "SpecialToken": {
          "id": "[CLS]",
          "type_id": 0
        }
      },
      {
        "Sequence": {
          "id": "A",
          "type_id": 0
        }
      },
      {
        "SpecialToken": {
          "id": "[SEP]",
          "type_id": 0
        }
      },
      {
        "Sequence": {
          "id": "B",
          "type_id": 1
        }
      },
      {
        "SpecialToken": {
          "id": "[SEP]",
          "type_id": 1
        }
      }
    ],
    "special_tokens": {
      "[CLS]": {
        "id": "[CLS]",
        "ids": [
          8584
        ],
        "tokens": [
          "[CLS]"
        ]
      },
      "[SEP]": {
        "id": "[SEP]",
        "ids": [
          11379
        ],
        "tokens": [
          "[SEP]"
        ]
      }
    }
  },
  "decoder": {
    "type": "Metaspace",
    "replacement": "▁",
    "prepend_scheme": "always",
    "split": true
  },
  "model": {
    "type": "Unigram",
    "unk_id": 1116,
    "vocab": [
      [
        "profit",
        -11.899278576534886
      ],
      [
        "▁jacobs",
        -13.379200867708528
      ],
      [
        "violet",
        -13.728750079438386
      ],
      [
        "▁prosper",
        -10.080216592856212
      ],
      [
        "▁unrest",
        -12.342576740736762
      ],
      [
        "▁welcome",
        -9.163598383140382
      ],
      [
        "gon",
        -11.216333894601517
      ],
      [
        "twenty",
        -11.271913807343168
      ],
      [
        "▁thirteen",
        -11.687834732174885
      ],
      [
        "▁driv",
        -8.744765231871838
      ],
      [
        "▁cath",
        -11.162594394934507
      ],
      [
        "▁fixture",
        -11.688404233934422
      ],
      [
        "vich",
        -12.614887932549063
      ],
      [
        "▁proportion",
        -11.065378708185026
      ],
      [
        "▁recipe",
        -10.942061138294013
      ],
      [
        "▁sense",
        -8.712814679242632
      ],
      [
        "▁amazing",
        -9.027143986399508
      ],
      [
        "etho",
        -12.187756915019783
      ],
      [
        "55",
        -11.29034389136408
      ],
      [
        "▁involve",
        -9.029128264276164
      ],
      [
        "evolutionar",
        -10.537970091868612
      ],
      [
        "▁tru",
        -9.802438826210963
      ],
      [
        "▁spiral",
        -11.487696396643129
      ],
      [
        "▁consistent",
        -10.174166794780154
      ],
      [
        "▁jaw",
        -11.69648975045567
      ],
      [
        "▁acro",
        -10.874596668297068
      ],
      [
        "▁lisa",
        -11.941259589044439
      ],
      [
        "▁seat",
        -8.643977433620778
      ],
      [
        "▁compuls",
        -12.138846484257463
      ],
      [
        "▁pashtun",
        -12.271024921967433
      ],
      [
        "81/",
        -13.487246071593466
      ],
      [
        "▁cran",
        -10.950993326631199
      ],
      [
        "co.",
        -11.64451470669305
      ],
      [
        "home",
        -11.620798826520243
      ],
      [
        "@e",
        -12.090087232157849
      ],
      [
        "-04",
        -14.123579800210047
      ],
      [
        "▁fried",
        -11.103922503943112
      ],
      [
        "eter",
        -11.834159184535453
      ],
      [
        "山",
        -12.833785825435129
      ],
      [
        "▁tie",
        -8.626873339883655
      ],
      [
        "▁bo",
        -11.551938346342482
      ],
      [
        "▁goat",
        -9.899759906246976
      ],
      [
        "▁initiate",
        -10.376718083524063
      ],
      [
        "▁sides",
        -10.51808645714146
      ],
      [
        "ribbi",
        -11.306851954071883
      ],
      [
        "oming",
        -11.768811367263895
      ],
      [
        "▁extradit",
        -11.75604044908593
      ],
      [
        "▁claudi",
        -11.941396102528604
      ],
      [
        "vous",
        -12.553446107218154
      ],
      [
        "▁pixie",
        -10.944458500625638
      ],
      [
        "▁vine",
        -10.858109034577339
      ],
      [
        "croft",
        -12.745824911614077
      ],
      [
        "que",
        -9.816876698840336
      ],
      [
        "▁treatment",
        -9.234435729401286
      ],
      [
        "▁loop",
        -10.942787440513829
      ],
      [
        "nd",
        -12.574555320074737
      ],
      [
        "▁broker",
        -11.243469123895155
      ],
      [
        "witche",
        -13.452555720404694
      ],
      [
        "▁mule",
        -11.960887158742034
      ],
      [
        "▁bock",
        -11.323787492478456
      ],
      [
        "▁dust",
        -9.479011163437233
      ],
      [
        "▁measur",
        -10.65689219921313
      ],
      [
        "▁guardian",
        -11.334832963598735
      ],
      [
        "▁hesitation",
        -11.687941510019003
      ],
      [
        "▁other",
        -6.1637655215940175
      ],
      [
        "jector",
        -12.268415599275537
      ],
      [
        "▁livelihood",
        -12.27164854712536
      ],
      [
        "▁venu",
        -11.156537059213145
      ],
      [
        "▁weird",
        -10.390299939885958
      ],
      [
        "▁promis",
        -10.611279048465141
      ],
      [
        "sul",
        -11.768335780939013
      ],
      [
        "▁mid-20",
        -13.418734948821479
      ],
      [
        "▁strike",
        -9.810128127346346
      ],
      [
        "▁sniff",
        -11.687703416684432
      ],
      [
        "▁play",
        -6.602180110944166
      ],
      [
        "▁where",
        -8.802452388749018
      ],
      [
        "▁nephew",
        -10.590893919448114
      ],
      [
        "85",
        -12.218760611373044
      ],
      [
        "▁insecur",
        -11.951475863606063
      ],
      [
        "rus",
        -13.597246338872274
      ],
      [
        "184",
        -12.62128093123546
      ],
      [
        "ο",
        -11.937691585547162
      ],
      [
        "▁smartwol",
        -12.81753129936654
      ],
      [
        "▁mia",
        -11.102226891272872
      ],
      [
        "▁perceiv",
        -11.862548970907277
      ],
      [
        "▁polite",
        -10.390498743581748
      ],
      [
        "▁exclusive",
        -11.055309593632382
      ],
      [
        "▁dra",
        -11.397091660772798
      ],
      [
        "as",
        -11.683377276244993
      ],
      [
        "globe",
        -10.385743647710548
      ],
      [
        "▁whi",
        -11.395813196033988
      ],
      [
        "daniela",
        -13.629463394013221
      ],
      [
        "string",
        -11.021069769334972
      ],
      [
        "stani",
        -13.543988743299835
      ],
      [
        "▁enthusias",
        -11.17259667688213
      ],
      [
        "▁gang",
        -11.00118058957411
      ],
      [
        "gan",
        -8.67652123182162
      ],
      [
        "▁reasonabl",
        -9.380334138544097
      ],
      [
        "▁thorough",
        -10.519490503767438
      ],
      [
        "▁`",
        -11.280003543173743
      ],
      [
        "ka",
        -9.462469678476062
      ],
      [
        "▁serpent",
        -11.687708974688778
      ],
      [
        "▁literat",
        -11.469248658478849
      ],
      [
        "1-",
        -13.88331746913178
      ],
      [
        "par",
        -13.357597323378913
      ],
      [
        "54",
        -12.936357879777361
      ],
      [
        "▁muc",
        -6.861187681563362
      ],
      [
        "ng",
        -9.253063729680559
      ],
      [
        "▁vigilant",
        -12.274421717585273
      ],
      [
        "kept",
        -8.681752012304464
      ],
      [
        "▁climb",
        -9.177433091050627
      ],
      [
        "food",
        -11.283504394515818
      ],
      [
        ".com",
        -8.452583343577157
      ],
      [
        "▁bath+",
        -11.321197178704669
      ],
      [
        "▁for",
        -5.030157282061143
      ],
      [
        "▁alto",
        -10.812414226109922
      ],
      [
        "▁descripti",
        -11.964832814231823
      ],
      [
        "bi",
        -9.696490419390328
      ],
      [
        "▁e",
        -11.439061779438205
      ],
      [
        "▁haphazard",
        -12.271024919402347
      ],
      [
        "raz",
        -12.288098988449617
      ],
      [
        "baath",
        -12.72936703990954
      ],
      [
        "father",
        -11.653516145745678
      ],
      [
        "34",
        -11.423907652486514
      ],
      [
        "▁reache",
        -10.336151501741366
      ],
      [
        "▁fa",
        -12.47731390070696
      ],
      [
        "▁vigorous",
        -11.487802446818888
      ],
      [
        "anna",
        -11.763191867768018
      ],
      [
        "thoma",
        -9.517939220329524
      ],
      [
        "shirt",
        -12.232492843880397
      ],
      [
        "▁grasshopper",
        -12.771096630800264
      ],
      [
        "▁rigor",
        -12.172801805440292
      ],
      [
        "▁ticket",
        -8.544847712256324
      ],
      [
        "▁repress",
        -12.114848419277898
      ],
      [
        "▁10:5",
        -11.912176536891272
      ],
      [
        "▁trace",
        -11.121886467385858
      ],
      [
        "castgobl.htm",
        -12.771024918841217
      ],
      [
        "▁antarctic",
        -11.938131581945518
      ],
      [
        "ewr",
        -11.940568608049203
      ],
      [
        "shal",
        -11.894227517962465
      ],
      [
        "▁poor",
        -8.535721901388484
      ],
      [
        "even",
        -11.842799758205976
      ],
      [
        "ampa",
        -8.958060741221669
      ],
      [
        "dale",
        -10.734242667530296
      ],
      [
        "▁apologi",
        -13.019593456660434
      ],
      [
        "▁upside",
        -10.230683487580022
      ],
      [
        "▁hesitate",
        -11.074544752877156
      ],
      [
        "european",
        -12.232210468638682
      ],
      [
        "86",
        -13.724592257316516
      ],
      [
        "▁worry",
        -9.74408944004383
      ],
      [
        "▁officer",
        -9.638921675089435
      ],
      [
        "111",
        -12.788292034875846
      ],
      [
        "▁conjecture",
        -12.271024918885125
      ],
      [
        "▁pois",
        -11.333552217442818
      ],
      [
        "▁glid",
        -12.52359750672339
      ],
      [
        "▁recreate",
        -11.917320398373862
      ],
      [
        "▁caper",
        -12.94684859270662
      ],
      [
        "erial",
        -12.74957940094157
      ],
      [
        "▁sell",
        -9.127424656925625
      ],
      [
        "trina",
        -10.89231954910543
      ],
      [
        "▁malfo",
        -10.455817294058724
      ],
      [
        "▁merit",
        -10.754489179927473
      ],
      [
        "▁metaphor",
        -11.687691644989723
      ],
      [
        "pepsi",
        -11.93991152655491
      ],
      [
        "▁exp",
        -12.072686050944045
      ],
      [
        "▁wizard",
        -10.036733443580845
      ],
      [
        "▁celebrate",
        -11.450206146880936
      ],
      [
        "▁palat",
        -12.209627133292512
      ],
      [
        "▁daydream",
        -12.271476911644507
      ],
      [
        "v",
        -8.308426154535228
      ],
      [
        "arren",
        -11.964474324390993
      ],
      [
        "▁coco",
        -10.173751983362305
      ],
      [
        "▁'s",
        -7.311381987660565
      ],
      [
        "research",
        -12.2327474915599
      ],
      [
        "▁sad",
        -9.219677191880958
      ],
      [
        "hail",
        -12.72703697833333
      ],
      [
        "▁kinsm",
        -12.598609007549049
      ],
      [
        "▁error",
        -9.421258830019289
      ],
      [
        "▁crystalli",
        -12.278453028551638
      ],
      [
        "c4",
        -12.781926475255968
      ],
      [
        "▁apologetic",
        -12.790028385061218
      ],
      [
        "-696",
        -14.0991084797417
      ],
      [
        "▁freez",
        -11.184695085302927
      ],
      [
        "pen",
        -12.296884026720637
      ],
      [
        "▁pound",
        -10.391801741254
      ],
      [
        "▁slip",
        -11.050676801150738
      ],
      [
        "generalization",
        -13.72526078987588
      ],
      [
        "▁hunt",
        -10.081654779745259
      ],
      [
        "▁t",
        -8.335420785946603
      ],
      [
        "▁acp",
        -12.294444894795118
      ],
      [
        "▁involvement",
        -10.455468384427927
      ],
      [
        "▁speci",
        -9.419204823004094
      ],
      [
        "alv",
        -10.95729916935027
      ],
      [
        "▁apple",
        -9.353553001722844
      ],
      [
        "▁descendant",
        -11.487848532632956
      ],
      [
        "▁acknowledge",
        -10.232333374430077
      ],
      [
        "▁lo",
        -9.680443866208737
      ],
      [
        "andy",
        -10.241894915144922
      ],
      [
        "▁fu",
        -10.818085774961895
      ],
      [
        "▁perve",
        -11.716235691192754
      ],
      [
        "iriya",
        -12.774903846927508
      ],
      [
        "▁put",
        -6.237759447536667
      ],
      [
        "motion",
        -13.457712457585465
      ],
      [
        "▁weight",
        -9.549188787451474
      ],
      [
        "▁in",
        -5.625432472469344
      ],
      [
        "ra",
        -10.343942317569537
      ],
      [
        "▁fetch",
        -11.68786597571241
      ],
      [
        "▁deduct",
        -11.940715726562603
      ],
      [
        "▁how",
        -8.861903242976682
      ],
      [
        "▁weasley",
        -9.569446934664981
      ],
      [
        ":5",
        -14.280357869335674
      ],
      [
        "bud",
        -12.562681981237304
      ],
      [
        "▁cpc",
        -12.276847222286536
      ],
      [
        "▁rollercoaster",
        -12.771024918844963
      ],
      [
        "▁resource",
        -9.387251370215484
      ],
      [
        "▁shand",
        -13.121220540020571
      ],
      [
        "▁bir",
        -12.24066654627576
      ],
      [
        "▁pressed",
        -12.10673036962353
      ],
      [
        "▁wildernes",
        -11.321151851714745
      ],
      [
        "▁dwarf",
        -10.844210069545367
      ],
      [
        "2007",
        -10.590895164732354
      ],
      [
        "▁hypnotiz",
        -12.097058046315075
      ],
      [
        "▁tatter",
        -12.774511923889808
      ],
      [
        "▁03:3",
        -13.301144353011441
      ],
      [
        "ms",
        -11.919613931885362
      ],
      [
        "▁unwilling",
        -12.271043391640895
      ],
      [
        "▁interview",
        -8.874069182878905
      ],
      [
        "ro",
        -10.31669784888232
      ],
      [
        "▁baha",
        -12.99453582458455
      ],
      [
        "ilk",
        -13.481009127421249
      ],
      [
        "inhabit",
        -13.732269286009466
      ],
      [
        "▁pho",
        -11.052627346286553
      ],
      [
        "▁geograph",
        -11.937546970544918
      ],
      [
        "▁combin",
        -11.327804169034314
      ],
      [
        "unta",
        -13.719251319694001
      ],
      [
        "▁shirt",
        -8.858339863134654
      ],
      [
        "▁flu",
        -11.46378789049423
      ],
      [
        "▁tran",
        -12.868945873770041
      ],
      [
        "▁excuse",
        -9.879759193511104
      ],
      [
        "▁10:",
        -12.180176153817651
      ],
      [
        "▁shep",
        -11.332641351614523
      ],
      [
        "grad",
        -12.99028314489308
      ],
      [
        "▁ironic",
        -10.754563764707884
      ],
      [
        "ful",
        -7.924630822897183
      ],
      [
        "▁eligib",
        -11.178197655152236
      ],
      [
        "storm",
        -11.90006620453752
      ],
      [
        "bean",
        -11.932299394976173
      ],
      [
        "5-9",
        -14.137390615099072
      ],
      [
        "▁oriental",
        -11.946097836419563
      ],
      [
        "mobile",
        -11.646211508558016
      ],
      [
        "▁milk",
        -7.776440351307286
      ],
      [
        "▁revers",
        -10.837126512251643
      ],
      [
        "▁caesar",
        -11.68779912839363
      ],
      [
        "▁oop",
        -12.700275758211907
      ],
      [
        "mala",
        -11.381139447916329
      ],
      [
        "▁rivalr",
        -12.276077980817387
      ],
      [
        "o@",
        -12.92012682392938
      ],
      [
        "tours",
        -13.394891764570408
      ],
      [
        "▁defend",
        -10.448849842177761
      ],
      [
        "▁monaster",
        -11.057159276958576
      ],
      [
        "▁num",
        -11.689565112383082
      ],
      [
        "every",
        -9.955181868268271
      ],
      [
        "6-",
        -13.67457463137944
      ],
      [
        "▁violat",
        -11.686560055620461
      ],
      [
        "▁kad",
        -12.801626777130872
      ],
      [
        "uri",
        -12.825034601697078
      ],
      [
        "▁building",
        -8.49238001915936
      ],
      [
        "▁crowd",
        -9.448093682038333
      ],
      [
        "▁grabb",
        -10.634165256154638
      ],
      [
        "itin",
        -11.201174102507906
      ],
      [
        "▁access",
        -7.918466840315139
      ],
      [
        "▁sometime",
        -8.026281844977754
      ],
      [
        "▁castle",
        -11.49600854358431
      ],
      [
        "▁rug",
        -9.815128823593644
      ],
      [
        "▁bona",
        -12.900626611487517
      ],
      [
        "▁i.",
        -12.729913140100805
      ],
      [
        "▁long-",
        -11.561128491724181
      ],
      [
        "▁radiant",
        -12.271789271596246
      ],
      [
        "▁brass",
        -10.849511601017591
      ],
      [
        "▁ali",
        -10.973937734596689
      ],
      [
        "▁wishe",
        -10.722476936709473
      ],
      [
        "▁histor",
        -11.00254411795728
      ],
      [
        "▁sj",
        -11.079100537701738
      ],
      [
        "▁bark",
        -11.556229616653056
      ],
      [
        "▁driveway",
        -11.692335115605708
      ],
      [
        "▁ugl",
        -10.759410492040603
      ],
      [
        "▁disadvantage",
        -12.27102492484887
      ],
      [
        "▁withdraw",
        -10.45279593341425
      ],
      [
        "help",
        -12.757863410658857
      ],
      [
        "▁context",
        -9.468111161291088
      ],
      [
        "▁gil",
        -11.33391771271156
      ],
      [
        "▁untouch",
        -12.27167724686408
      ],
      [
        "▁maz",
        -12.63330261806017
      ],
      [
        "i.imgur.com/",
        -12.271024918840546
      ],
      [
        "▁quiet",
        -9.291855120078878
      ],
      [
        "▁came",
        -7.576354369224418
      ],
      [
        "▁cold",
        -8.39053869046225
      ],
      [
        "ati",
        -12.199137673987181
      ],
      [
        "petshop",
        -12.784574261614058
      ],
      [
        "▁scroll",
        -12.27108149415593
      ],
      [
        "▁v-",
        -12.784488019523803
      ],
      [
        "▁joking",
        -11.17855832974578
      ],
      [
        "▁orphan",
        -11.937691858454086
      ],
      [
        "▁harbour",
        -11.178174598517858
      ],
      [
        "θ",
        -12.833785825435129
      ],
      [
        "▁procrastinati",
        -12.696124664373245
      ],
      [
        "▁unpai",
        -12.54378696948694
      ],
      [
        "▁gloat",
        -12.773524502638313
      ],
      [
        "▁assault",
        -10.452834797572404
      ],
      [
        "▁shopkeeper",
        -12.771278512349983
      ],
      [
        "▁profound",
        -11.05318862486903
      ],
      [
        "beth",
        -11.475480556026694
      ],
      [
        "bbc",
        -10.946516754670881
      ],
      [
        "scam",
        -12.82140918739523
      ],
      [
        "clamation",
        -11.687744878454268
      ],
      [
        "▁carpent",
        -11.938672223787238
      ],
      [
        "▁democratic",
        -9.520373473405943
      ],
      [
        "▁calm",
        -9.80369621647774
      ],
      [
        "▁humming",
        -11.96062300568499
      ],
      [
        "▁juror",
        -12.274035997711913
      ],
      [
        "▁parakeet",
        -10.519464654484405
      ],
      [
        "▁transfer",
        -9.91176734407943
      ],
      [
        "▁portrait",
        -11.178167840100633
      ],
      [
        "▁clay",
        -9.999050002707822
      ],
      [
        "n",
        -5.519064509348424
      ],
      [
        "▁scor",
        -11.391871539473751
      ],
      [
        "▁cocktail",
        -10.17328630736981
      ],
      [
        "ushi",
        -10.421341066113708
      ],
      [
        "▁210",
        -12.59373170075374
      ],
      [
        "!!!!!",
        -11.993799257598976
      ],
      [
        "▁thierry",
        -12.7711423509511
      ],
      [
        "sam",
        -13.179947593465911
      ],
      [
        "▁dharmad",
        -12.275747604045812
      ],
      [
        "▁semina",
        -11.322306382198795
      ],
      [
        "recht",
        -12.27487758042835
      ],
      [
        "minat",
        -12.59926025956432
      ],
      [
        "▁conceptualiz",
        -12.778011405332752
      ],
      [
        "▁friendl",
        -10.116825321968912
      ],
      [
        "▁robert",
        -9.671322795818254
      ],
      [
        "er",
        -5.988891500611392
      ],
      [
        "▁01/19/",
        -12.359978021860883
      ],
      [
        ":14",
        -12.457220388685272
      ],
      [
        "▁detract",
        -13.711720443291117
      ],
      [
        "▁mushroom",
        -10.519653910596336
      ],
      [
        "88",
        -12.87659355563473
      ],
      [
        "▁task",
        -9.312284787286542
      ],
      [
        "▁nowhere",
        -10.240859157203712
      ],
      [
        "psy",
        -12.624903118978066
      ],
      [
        "-b-n-nook-",
        -12.77102496810785
      ],
      [
        "lugu",
        -12.77192750554875
      ],
      [
        "anism",
        -13.443901295851898
      ],
      [
        "'re",
        -11.327156067801907
      ],
      [
        "▁spell",
        -9.19569812174753
      ],
      [
        "▁stu",
        -11.31759457752012
      ],
      [
        "▁gratifi",
        -13.727799259063177
      ],
      [
        "▁damn",
        -10.332866063449135
      ],
      [
        "▁case",
        -7.758551004232088
      ],
      [
        "▁charge",
        -8.523749112205376
      ],
      [
        "▁lay",
        -8.659272353617332
      ],
      [
        "▁pal",
        -11.011786454927975
      ],
      [
        "nte",
        -11.329980172230282
      ],
      [
        "/",
        -6.3884726436073205
      ],
      [
        "ial",
        -9.02542358480665
      ],
      [
        "ant",
        -9.168672877630856
      ],
      [
        "▁dori",
        -11.357380646172034
      ],
      [
        "▁creep",
        -11.487701458590399
      ],
      [
        "▁tai",
        -11.626074112168432
      ],
      [
        "▁killie",
        -12.157775662076551
      ],
      [
        "▁ea",
        -12.293290737812953
      ],
      [
        "▁wet-nurse",
        -12.77102491894749
      ],
      [
        "ock",
        -11.454422571505313
      ],
      [
        "parnass",
        -10.842312919454391
      ],
      [
        "▁peanutjak",
        -12.771026335079188
      ],
      [
        "urning",
        -12.925082194941382
      ],
      [
        "▁kuwait",
        -11.178167853639184
      ],
      [
        "-ne",
        -12.935764265284929
      ],
      [
        "hbow",
        -12.817832018228794
      ],
      [
        "hart",
        -11.031813940837573
      ],
      [
        "▁mass",
        -9.319475684163784
      ],
      [
        "ecutive",
        -12.771017651485858
      ],
      [
        "hee",
        -12.793696603107213
      ],
      [
        "▁future",
        -8.27024694663783
      ],
      [
        "▁profile",
        -10.667845020589416
      ],
      [
        "▁situat",
        -11.177611369324573
      ],
      [
        "▁whol",
        -11.333360530966202
      ],
      [
        "ncre",
        -11.980058673444756
      ],
      [
        "▁taiwan",
        -10.036736937217828
      ],
      [
        "▁messag",
        -11.684484762892899
      ],
      [
        "steps",
        -12.926557636840096
      ],
      [
        "che",
        -11.90097750775958
      ],
      [
        "▁curious",
        -10.390466606137846
      ],
      [
        "▁10,000",
        -11.468522943360597
      ],
      [
        "▁reported",
        -9.351432855705609
      ],
      [
        "▁trunk",
        -10.519472150008944
      ],
      [
        "oid",
        -11.357608478404986
      ],
      [
        "▁ebb",
        -11.955746231410542
      ],
      [
        "▁tickl",
        -11.363544506971907
      ],
      [
        "▁unru",
        -12.776858219960651
      ],
      [
        "▁08:3",
        -12.515232474275917
      ],
      [
        "rbara",
        -11.477645660884566
      ],
      [
        "ereader",
        -12.771663262624093
      ],
      [
        "▁roy",
        -12.808749291494141
      ],
      [
        "▁mysterious",
        -10.942214089038595
      ],
      [
        "▁łodz",
        -12.833783221425183
      ],
      [
        "▁acid",
        -11.812968534012015
      ],
      [
        "▁exam",
        -10.331221419098249
      ],
      [
        "▁unload",
        -11.488603507301097
      ],
      [
        "bulb",
        -12.732727812210795
      ],
      [
        "racle",
        -11.938714678803432
      ],
      [
        "nnis",
        -11.64205808318718
      ],
      [
        "paper",
        -11.44913668191269
      ],
      [
        "info.",
        -12.96701262426643
      ],
      [
        "▁neut",
        -12.773782025313269
      ],
      [
        "▁doin",
        -13.246082534411409
      ],
      [
        "▁savage",
        -10.45305650381771
      ],
      [
        "▁1.8",
        -13.505533095204397
      ],
      [
        "▁tremble",
        -12.879767109939227
      ],
      [
        "▁limb",
        -10.279254871447757
      ],
      [
        "▁yoyo",
        -10.942063672511331
      ],
      [
        "▁tupper",
        -12.43715603031335
      ],
      [
        "cane",
        -11.13937717550721
      ],
      [
        "concern",
        -12.802842023062661
      ],
      [
        "ła",
        -12.402987069181767
      ],
      [
        "▁shan",
        -12.347776084508748
      ],
      [
        "$",
        -6.573299397139614
      ],
      [
        "1/01",
        -12.746409468391521
      ],
      [
        "▁conclude",
        -9.9946566613845
      ],
      [
        "▁reconcili",
        -10.665016635522163
      ],
      [
        "nope",
        -10.16052372566733
      ],
      [
        "ggle",
        -13.35784339153121
      ],
      [
        "▁partnership",
        -10.390459609320258
      ],
      [
        "▁24",
        -9.636353922881266
      ],
      [
        "inter",
        -12.246162188309896
      ],
      [
        "▁crest",
        -11.940802126991567
      ],
      [
        "nd",
        -8.038269447322932
      ],
      [
        "▁wide",
        -8.741421786543565
      ],
      [
        "▁transit",
        -10.516773170275481
      ],
      [
        "▁sp",
        -12.671007000253535
      ],
      [
        "stool",
        -11.92421680500284
      ],
      [
        "avid",
        -11.937134411691318
      ],
      [
        "▁brend",
        -12.73737895847952
      ],
      [
        "ak",
        -11.082005571846397
      ],
      [
        "▁work",
        -6.468929091501935
      ],
      [
        "▁ansi",
        -10.390052378352504
      ],
      [
        "▁08:2",
        -12.405270304354552
      ],
      [
        "▁begin",
        -8.966992283624855
      ],
      [
        "▁psycho",
        -11.681877525082774
      ],
      [
        "▁bolt",
        -11.94431641270152
      ],
      [
        "▁solemn",
        -11.901897713112385
      ],
      [
        "449",
        -14.15307238737037
      ],
      [
        "▁biologist",
        -11.32416790492083
      ],
      [
        "▁two-",
        -12.27226349318375
      ],
      [
        "▁79",
        -13.348276525599443
      ],
      [
        "rez",
        -13.057736546319969
      ],
      [
        "ccp",
        -12.592018837074557
      ],
      [
        "▁religion",
        -9.715578214806577
      ],
      [
        "▁se",
        -10.095532432548879
      ],
      [
        "▁trillion",
        -12.771035228229042
      ],
      [
        "/hi/",
        -13.385973811533155
      ],
      [
        "ncr",
        -12.760459632661377
      ],
      [
        "▁square",
        -8.624507874026229
      ],
      [
        "%",
        -11.178163733832275
      ],
      [
        "▁admit",
        -10.479301819799014
      ],
      [
        "▁unbea",
        -12.620598077786543
      ],
      [
        "asher",
        -12.766581992855498
      ],
      [
        "▁exhausti",
        -12.878377866294262
      ],
      [
        "▁warning",
        -10.34364144469452
      ],
      [
        "icles",
        -9.425206877610412
      ],
      [
        "▁sonnet",
        -10.452943441735764
      ],
      [
        "▁merr",
        -12.775166582216919
      ],
      [
        "▁axe",
        -12.8111912871486
      ],
      [
        "▁ga",
        -8.592391054107052
      ],
      [
        "▁bernard",
        -10.942070835545112
      ],
      [
        "ceptib",
        -13.678510277092723
      ],
      [
        "▁celebration",
        -10.453123580216841
      ],
      [
        "ن",
        -12.833785825435129
      ],
      [
        "-fla",
        -11.937746634334216
      ],
      [
        "▁kendr",
        -12.607296816439124
      ],
      [
        "▁vautrin",
        -12.771024962337496
      ],
      [
        "▁productive",
        -10.985867492815363
      ],
      [
        "original",
        -13.733256009250875
      ],
      [
        "▁olympic",
        -10.519616280687757
      ],
      [
        "5-2",
        -13.171837843619866
      ],
      [
        "over",
        -10.135244341423348
      ],
      [
        "▁provide",
        -7.765210599452035
      ],
      [
        "▁11:0",
        -11.779412810543928
      ],
      [
        "▁precaution",
        -11.937691598891888
      ],
      [
        "say",
        -13.11618404827498
      ],
      [
        "▁hodg",
        -11.326548829581684
      ],
      [
        "graphic",
        -11.797587969950294
      ],
      [
        "▁thinnes",
        -13.348446419795323
      ],
      [
        "▁bagg",
        -10.951051012175721
      ],
      [
        "▁walrus",
        -12.271523584018539
      ],
      [
        "▁rating",
        -10.764545247398615
      ],
      [
        "169",
        -14.13230324013388
      ],
      [
        "▁infrequent",
        -12.771024919431188
      ],
      [
        "su.edu/",
        -12.916692191541246
      ],
      [
        "iri",
        -12.27631351564777
      ],
      [
        "▁there",
        -6.089283971427022
      ],
      [
        "656",
        -15.204647324905137
      ],
      [
        "▁nude",
        -11.68990349632138
      ],
      [
        "▁every",
        -7.080078169630708
      ],
      [
        "▁01:3",
        -12.365376718875854
      ],
      [
        "ague",
        -11.919462547840038
      ],
      [
        "▁defendant",
        -11.321297113644484
      ],
      [
        "▁spreading",
        -11.267962599725866
      ],
      [
        "ul",
        -12.818709659508759
      ],
      [
        "▁kh",
        -11.834523457572555
      ],
      [
        "▁civilian",
        -10.668264835399988
      ],
      [
        "go",
        -8.43913742340337
      ],
      [
        "▁dry",
        -8.749805165641732
      ],
      [
        "▁consequent",
        -10.84205678552796
      ],
      [
        "▁fren",
        -11.05966350476461
      ],
      [
        "▁unca",
        -13.227879498444654
      ],
      [
        "▁await",
        -10.751161186035898
      ],
      [
        "▁calvin",
        -12.272242122271393
      ],
      [
        "▁bounce",
        -11.215098949469564
      ],
      [
        "▁devo",
        -10.884307167734047
      ],
      [
        "▁negotiate",
        -11.078581807731725
      ],
      [
        "▁match",
        -9.21210156057542
      ],
      [
        "@p",
        -11.54886185781192
      ],
      [
        "▁prett",
        -7.854583673520578
      ],
      [
        "▁coupon",
        -10.592984969060435
      ],
      [
        "▁watchful",
        -12.31622603007582
      ],
      [
        "▁yak",
        -12.793747987525808
      ],
      [
        "oo",
        -10.573184319002312
      ],
      [
        ".1",
        -13.151530141619636
      ],
      [
        "spiration",
        -11.93532060283696
      ],
      [
        "gue",
        -11.192999618663142
      ],
      [
        "▁relativis",
        -11.363412231835508
      ],
      [
        "2",
        -10.53881921003439
      ],
      [
        "▁sandal",
        -11.348791495265496
      ],
      [
        "coal",
        -11.293245493096125
      ],
      [
        "▁youtube",
        -9.953154126386558
      ],
      [
        "▁perceive",
        -10.538602983206566
      ],
      [
        "▁hai",
        -11.934082386945454
      ],
      [
        "i",
        -9.80170027582974
      ],
      [
        "▁bre",
        -10.800258390722288
      ],
      [
        "▁jon",
        -11.383509671288015
      ],
      [
        "▁harve",
        -12.311001070349343
      ],
      [
        "ecker",
        -12.11457265026241
      ],
      [
        "▁utilis",
        -12.271024955973342
      ],
      [
        "▁imagine",
        -9.006911131163985
      ],
      [
        "▁wholesome",
        -12.272644690169482
      ],
      [
        "▁volta",
        -12.936714843679455
      ],
      [
        "▁tenure",
        -11.93785924631617
      ],
      [
        "▁bernoulli",
        -10.452795925618732
      ],
      [
        "▁geopolitic",
        -12.271045563050716
      ],
      [
        "▁soul",
        -10.524513467477822
      ],
      [
        "pal",
        -12.453399306718758
      ],
      [
        "▁supervis",
        -13.337630188602352
      ],
      [
        "▁festiv",
        -12.337839115043739
      ],
      [
        "sburg",
        -6.701282769664859
      ],
      [
        "170",
        -14.674369146106468
      ],
      [
        "pus",
        -12.384235293338715
      ],
      [
        "▁career",
        -9.22083875977734
      ],
      [
        "▁threat",
        -9.332120593429675
      ],
      [
        "commerc",
        -12.302658579615766
      ],
      [
        "00",
        -10.825008994298008
      ],
      [
        "▁selective",
        -11.692148662171919
      ],
      [
        "▁nurtur",
        -13.434273507109367
      ],
      [
        "▁google",
        -9.162004287206926
      ],
      [
        "▁buck",
        -10.280907175777038
      ],
      [
        "▁rams",
        -12.603329909451196
      ],
      [
        "▁chok",
        -13.671004589885676
      ],
      [
        "ound",
        -11.681530097334056
      ],
      [
        "▁heat",
        -8.949560841198016
      ],
      [
        "▁bland",
        -11.378531817641088
      ],
      [
        "▁s",
        -9.536036570880462
      ],
      [
        "ford",
        -9.750758910823668
      ],
      [
        "▁promote",
        -9.935925073272594
      ],
      [
        "elapse",
        -11.938036932786822
      ],
      [
        "▁provoke",
        -11.158586404485385
      ],
      [
        "31",
        -11.472524122656338
      ],
      [
        "▁dysfunction",
        -11.68779726105289
      ],
      [
        "08",
        -11.329350389901101
      ],
      [
        "back",
        -9.77116419315746
      ],
      [
        "lle",
        -11.518747435289725
      ],
      [
        "paint",
        -12.49126263608152
      ],
      [
        "▁spann",
        -11.959926764603177
      ],
      [
        "▁scorpion",
        -12.274074991207955
      ],
      [
        "▁tiptoe",
        -11.937699163297147
      ],
      [
        "fire",
        -11.283064828863091
      ],
      [
        "travi",
        -10.858299870678312
      ],
      [
        "275",
        -13.948612843905096
      ],
      [
        "ε",
        -12.271024918840546
      ],
      [
        "▁plumb",
        -12.34075075870596
      ],
      [
        "▁was",
        -5.269250295583504
      ],
      [
        "▁aquir",
        -12.784648626111704
      ],
      [
        "marque",
        -13.730518069804422
      ],
      [
        "▁down",
        -6.877744585322218
      ],
      [
        "▁dem",
        -9.823042892726786
      ],
      [
        "▁wu",
        -11.989006802138531
      ],
      [
        "mund",
        -12.072988250408624
      ],
      [
        "login",
        -12.319461921042068
      ],
      [
        "▁van",
        -9.55093929889825
      ],
      [
        "▁fro",
        -4.951061705951037
      ],
      [
        "▁evacuat",
        -13.228218055949585
      ],
      [
        "loan",
        -12.772490085236116
      ],
      [
        "▁02:",
        -13.328867592342894
      ],
      [
        "▁neurocogniti",
        -12.29568959606847
      ],
      [
        "tama",
        -11.270613007273903
      ],
      [
        "▁god",
        -9.228570150685648
      ],
      [
        "▁free",
        -7.928056576757955
      ],
      [
        "▁dal",
        -10.690078293862364
      ],
      [
        "d2",
        -11.807849006857676
      ],
      [
        "▁seri",
        -11.451286508145401
      ],
      [
        "▁1.5",
        -10.928556940654722
      ],
      [
        "▁reappear",
        -12.271024939049637
      ],
      [
        "▁201",
        -8.15549122295678
      ],
      [
        "▁ensure",
        -8.927332593340207
      ],
      [
        "▁eclipse",
        -11.937693511847979
      ],
      [
        "▁hibernat",
        -11.687725089137288
      ],
      [
        "▁gonzale",
        -12.487276274751306
      ],
      [
        "▁hairstyl",
        -12.582177189948712
      ],
      [
        "▁201-",
        -14.09272654832999
      ],
      [
        "6.8",
        -11.52194411340363
      ],
      [
        "▁refine",
        -11.577065668895932
      ],
      [
        "▁cast",
        -9.747106626952725
      ],
      [
        "▁strange",
        -9.992722614659542
      ],
      [
        "▁cordi",
        -12.935986826179585
      ],
      [
        "ill",
        -9.656857137731304
      ],
      [
        "▁antenna",
        -12.272758685286558
      ],
      [
        "▁surround",
        -9.931766087281071
      ],
      [
        "limb",
        -12.724727065774559
      ],
      [
        "enron.com",
        -11.952323091247
      ],
      [
        "▁ga",
        -12.271472656463636
      ],
      [
        "▁blow",
        -8.827572481448946
      ],
      [
        "ς",
        -12.271024918880494
      ],
      [
        "apul",
        -11.917956352548966
      ],
      [
        "ran",
        -10.343677427891167
      ],
      [
        "▁legion",
        -11.958321347547674
      ],
      [
        "ins",
        -12.84528629625656
      ],
      [
        "▁persuade",
        -11.211180567840957
      ],
      [
        "▁equip",
        -12.089920381522766
      ],
      [
        "▁corps",
        -11.142856408226276
      ],
      [
        "▁zoo",
        -9.955879503345974
      ],
      [
        "band",
        -10.87463427898313
      ],
      [
        "▁methodolog",
        -11.135699372340401
      ],
      [
        "bo",
        -11.596433781311088
      ],
      [
        "▁maid",
        -11.849535206197562
      ],
      [
        "▁avers",
        -12.318227466544139
      ],
      [
        "▁sway",
        -10.971266770810528
      ],
      [
        "▁archive",
        -11.186341682402587
      ],
      [
        "▁shaft",
        -12.863775453652591
      ],
      [
        "▁offende",
        -11.371753402737045
      ],
      [
        "▁peaceful",
        -9.68325166834375
      ],
      [
        "▁ballot",
        -11.688876933749178
      ],
      [
        "▁occupation",
        -10.223294324732333
      ],
      [
        "▁coin",
        -10.5929336634102
      ],
      [
        "▁eulog",
        -13.499820348897034
      ],
      [
        "▁confess",
        -11.487513323450559
      ],
      [
        "▁scale",
        -9.815445497789504
      ],
      [
        "dynamica",
        -11.937531721596816
      ],
      [
        "▁lifespan",
        -12.271186132825134
      ],
      [
        "▁unre",
        -12.641332112856592
      ],
      [
        "▁substanti",
        -10.957997483878982
      ],
      [
        "▁cost",
        -7.859169252006472
      ],
      [
        "▁insight",
        -10.080476767840425
      ],
      [
        "▁constructive",
        -11.690963707496437
      ],
      [
        "▁landowner",
        -11.939467790381043
      ],
      [
        "2.1",
        -13.661571770770541
      ],
      [
        "▁trimme",
        -12.780399878570172
      ],
      [
        "▁beatle",
        -10.127242914953383
      ],
      [
        "814",
        -13.419599756276149
      ],
      [
        "cognitive",
        -12.693430318069595
      ],
      [
        "▁know",
        -5.721743226984398
      ],
      [
        "▁simplifie",
        -12.274472690527833
      ],
      [
        "adie",
        -12.457615158488583
      ],
      [
        "osis",
        -13.108856745457096
      ],
      [
        "ch",
        -8.197892680772354
      ],
      [
        "route",
        -11.910125533462514
      ],
      [
        "▁petit",
        -11.955355654023244
      ],
      [
        "▁singer",
        -11.188798966986395
      ],
      [
        "▁triumph",
        -11.687691798540893
      ],
      [
        "▁circum",
        -9.80982693806705
      ],
      [
        "▁true",
        -8.717262175689232
      ],
      [
        "▁trim",
        -11.056642508386568
      ],
      [
        "▁29",
        -11.664104785589076
      ],
      [
        "▁spring",
        -9.29578112532017
      ],
      [
        "no",
        -10.794430943084201
      ],
      [
        "▁guest",
        -9.596756765695535
      ],
      [
        "sets",
        -13.570019035595752
      ],
      [
        "▁redeem",
        -11.48786969077437
      ],
      [
        "▁any",
        -8.313978061899988
      ],
      [
        "▁limo",
        -12.771343674125387
      ],
      [
        "▁transmit",
        -11.666788587928982
      ],
      [
        "▁deployment",
        -11.940124522031795
      ],
      [
        "368",
        -12.773220836068143
      ],
      [
        "dslr",
        -12.378719790208738
      ],
      [
        "▁brides",
        -12.803355922863457
      ],
      [
        "▁vau",
        -13.270003040305081
      ],
      [
        "endorf",
        -12.771516895148261
      ],
      [
        "r",
        -4.496868874099677
      ],
      [
        "▁include",
        -8.386153009119287
      ],
      [
        "bernet",
        -12.274970707582078
      ],
      [
        "▁economist",
        -10.846785269062064
      ],
      [
        "▁confla",
        -12.73313160751248
      ],
      [
        "▁whit",
        -10.846079565531575
      ],
      [
        "ruffl",
        -12.403733959835574
      ],
      [
        "▁disarm",
        -12.668297270057698
      ],
      [
        "ipher",
        -12.771378743476216
      ],
      [
        "▁bother",
        -9.65872048313188
      ],
      [
        "▁sav",
        -12.398318369633657
      ],
      [
        "▁assistan",
        -9.435637114811371
      ],
      [
        "bi",
        -11.031529250619979
      ],
      [
        "▁forgiven",
        -12.023182982444744
      ],
      [
        "▁downgrad",
        -12.96376078946864
      ],
      [
        "▁careful",
        -9.178461348281562
      ],
      [
        "▁laugh",
        -8.748384852905396
      ],
      [
        "▁hasidi",
        -11.374266306198201
      ],
      [
        "▁var",
        -13.716956606300801
      ],
      [
        "ountain",
        -10.941369353074997
      ],
      [
        "▁persever",
        -11.322411806444455
      ],
      [
        "/01",
        -12.978977334180982
      ],
      [
        "8/01",
        -14.138566737487656
      ],
      [
        "vitaliz",
        -13.39869633933691
      ],
      [
        "▁money",
        -7.849129487299011
      ],
      [
        "▁rotte",
        -12.07790004493205
      ],
      [
        "▁mesoamerica",
        -11.682649109309402
      ],
      [
        "▁brande",
        -12.353298744625771
      ],
      [
        "noth",
        -10.310046823389452
      ],
      [
        "sploid.com",
        -12.77102595184763
      ],
      [
        "athan",
        -13.602120894374284
      ],
      [
        "through",
        -9.996422686750291
      ],
      [
        "age",
        -11.003488229021976
      ],
      [
        "▁forge",
        -12.01223960510034
      ],
      [
        "▁locomoti",
        -10.66781473396026
      ],
      [
        "▁dashe",
        -12.895674059194366
      ],
      [
        "▁grand",
        -9.469911329115911
      ],
      [
        "▁scrape",
        -11.544103857160472
      ],
      [
        "▁shorts",
        -10.439982401684427
      ],
      [
        "▁1000",
        -10.355355157779499
      ],
      [
        "▁17,",
        -14.128355496279145
      ],
      [
        "▁30",
        -9.486190054048716
      ],
      [
        "▁revolt",
        -12.27102513074278
      ],
      [
        "▁eliot",
        -11.937909733071788
      ],
      [
        "interrupt",
        -12.731846027253649
      ],
      [
        "▁pekin",
        -13.53922202126799
      ],
      [
        "▁mora",
        -13.675328275547589
      ],
      [
        "through",
        -10.343789277758114
      ],
      [
        "▁50",
        -9.85620643860546
      ],
      [
        "238",
        -12.736357786554253
      ],
      [
        "▁injure",
        -12.489863238880675
      ],
      [
        "▁behave",
        -11.688952752187024
      ],
      [
        "▁flank",
        -12.271050851698902
      ],
      [
        "▁our",
        -6.8694529814894745
      ],
      [
        "▁zip",
        -11.172434664146287
      ],
      [
        "▁fisc",
        -10.842372984701555
      ],
      [
        "▁honor",
        -10.10571703725417
      ],
      [
        "▁obstacle",
        -10.590891168369057
      ],
      [
        "▁tempe",
        -12.288701569797727
      ],
      [
        "▁deco",
        -12.427494852400699
      ],
      [
        "▁82",
        -11.78840042592635
      ],
      [
        "▁glow",
        -10.039258432339945
      ],
      [
        "▁goe",
        -8.88917105659575
      ],
      [
        "▁slu",
        -13.713765235424258
      ],
      [
        "print",
        -11.278215893044663
      ],
      [
        "▁mono",
        -10.87721414727244
      ],
      [
        "▁account",
        -8.46190243093768
      ],
      [
        "▁washing",
        -10.318235407494512
      ],
      [
        "ujai",
        -11.673355928070329
      ],
      [
        "consi",
        -11.946173494760096
      ],
      [
        "▁stick",
        -9.010277298612937
      ],
      [
        "pt",
        -12.795280188258024
      ],
      [
        "▁mingle",
        -12.340157107574964
      ],
      [
        "erie",
        -11.20640837034595
      ],
      [
        "▁attende",
        -11.2357451756057
      ],
      [
        "108",
        -12.520739791687621
      ],
      [
        "▁intern",
        -11.505595237786238
      ],
      [
        "▁morph",
        -13.683000284106162
      ],
      [
        "▁abundant",
        -11.055816642729015
      ],
      [
        "▁vocal",
        -11.947841219949282
      ],
      [
        "▁anti",
        -10.178046758824147
      ],
      [
        "▁blanc",
        -10.592360385269659
      ],
      [
        "▁convention",
        -9.59708640036627
      ],
      [
        "▁crack",
        -10.034174757102289
      ],
      [
        "nson@enron",
        -11.833845510207494
      ],
      [
        "▁villa",
        -12.2812085780695
      ],
      [
        "▁deteriorati",
        -12.386906284710705
      ],
      [
        "restaurant",
        -13.732212970797718
      ],
      [
        "▁closing",
        -10.277914645348933
      ],
      [
        "▁acrylic",
        -11.937691870774568
      ],
      [
        "▁sea-",
        -12.866100121783502
      ],
      [
        "mock",
        -12.377282800191175
      ],
      [
        "005",
        -12.772300004159085
      ],
      [
        "zida",
        -12.816044546184774
      ],
      [
        "▁fault",
        -10.52110521050271
      ],
      [
        "400",
        -11.158984950287465
      ],
      [
        "▁pacific",
        -10.519479620156028
      ],
      [
        ".org/",
        -11.172592424768153
      ],
      [
        "▁bedroom",
        -9.653207863576474
      ],
      [
        "▁senator",
        -9.59654765548151
      ],
      [
        "▁pregnan",
        -10.452798367294303
      ],
      [
        "▁funnel",
        -10.752251250615537
      ],
      [
        "▁hop",
        -9.256632908834462
      ],
      [
        "▁vitamin",
        -11.321026156362509
      ],
      [
        "▁treatise",
        -11.488788164135737
      ],
      [
        "▁attentive",
        -11.181244688528636
      ],
      [
        "b",
        -8.37708298292025
      ],
      [
        "▁bumble",
        -11.321176682682948
      ],
      [
        "hook",
        -11.585544461326041
      ],
      [
        "▁demonstrate",
        -9.917108795063115
      ],
      [
        "▁pie",
        -9.530126433793525
      ],
      [
        "▁uv",
        -11.470446519040769
      ],
      [
        "▁flinch",
        -12.771196199625814
      ],
      [
        "▁mcmu",
        -12.773511942211838
      ],
      [
        "▁helicopter",
        -10.390295925599684
      ],
      [
        "▁remind",
        -9.471942234920657
      ],
      [
        "la",
        -10.269817022195172
      ],
      [
        "▁broad",
        -9.283795025973928
      ],
      [
        "sahar",
        -12.487383910263286
      ],
      [
        "▁hernan",
        -12.772367404633057
      ],
      [
        "▁criminal",
        -9.995129248289874
      ],
      [
        "▁kho",
        -13.732828558187462
      ],
      [
        "66",
        -12.073162576097861
      ],
      [
        "▁posit",
        -11.68758695268972
      ],
      [
        "▁princess",
        -11.505523470687592
      ],
      [
        "▁got",
        -9.69475897458434
      ],
      [
        "▁wav",
        -10.557976081825808
      ],
      [
        "▁wolf",
        -9.845118703561765
      ],
      [
        "ot",
        -13.94217627046138
      ],
      [
        "green",
        -12.235739790681185
      ],
      [
        "est",
        -7.604305913866614
      ],
      [
        "▁severe",
        -9.899865353148728
      ],
      [
        "▁campsite",
        -12.772089998409282
      ],
      [
        "▁pott",
        -9.128399092057645
      ],
      [
        "▁commit",
        -10.494763616435193
      ],
      [
        "▁horribl",
        -9.543261343163753
      ],
      [
        "merida",
        -10.751690612588774
      ],
      [
        "▁18",
        -9.022365567867354
      ],
      [
        "▁op",
        -10.736489948011068
      ],
      [
        "▁coordinate",
        -10.992491347392606
      ],
      [
        "▁locust",
        -11.687699207623764
      ],
      [
        "▁permission",
        -10.591642182176598
      ],
      [
        "▁bul",
        -11.752267813901293
      ],
      [
        "▁do",
        -5.572001641894483
      ],
      [
        "encamp",
        -12.777497961738213
      ],
      [
        "▁sussex",
        -10.942120590156993
      ],
      [
        "▁mac",
        -10.127755619846852
      ],
      [
        "▁claus",
        -11.304718238773454
      ],
      [
        "▁703",
        -13.389617785203246
      ],
      [
        "▁conscien",
        -11.241087395509677
      ],
      [
        "ur",
        -11.393468614066895
      ],
      [
        "▁disenfranchise",
        -12.271024939758576
      ],
      [
        "▁advanc",
        -11.748645111607367
      ],
      [
        "▁combination",
        -10.276234755516931
      ],
      [
        "cover",
        -12.253630847913264
      ],
      [
        "-------",
        -13.39979738792847
      ],
      [
        "rent",
        -11.478215618129266
      ],
      [
        "▁gentlem",
        -11.292054282163473
      ],
      [
        "h",
        -9.117748607228467
      ],
      [
        "mistic",
        -11.947979691147616
      ],
      [
        "▁assur",
        -10.860890752474742
      ],
      [
        "zen",
        -11.83405333420376
      ],
      [
        "▁smoker",
        -12.01086824621477
      ],
      [
        "▁interfer",
        -12.163288814771025
      ],
      [
        "▁quebec",
        -11.178179549785629
      ],
      [
        "astings",
        -11.324989226239614
      ],
      [
        "und",
        -8.394454848542383
      ],
      [
        "q",
        -15.518265406639655
      ],
      [
        "▁grape",
        -10.036892753689468
      ],
      [
        "ara",
        -11.080741039490933
      ],
      [
        "▁approx",
        -12.270998800831507
      ],
      [
        "alcoholic",
        -12.719101955387917
      ],
      [
        "relations",
        -12.733370403506713
      ],
      [
        "enchant",
        -12.233076538774444
      ],
      [
        "28",
        -10.97103305750776
      ],
      [
        "▁diminish",
        -12.072592899975358
      ],
      [
        "humou",
        -12.734685193305408
      ],
      [
        ".co.uk/",
        -11.71277543306137
      ],
      [
        "grift",
        -13.446756275078748
      ],
      [
        "▁slave",
        -10.339041199010467
      ],
      [
        "▁sean",
        -11.787593575257315
      ],
      [
        "▁shortage",
        -11.952080736485986
      ],
      [
        "arrow",
        -13.012583879493999
      ],
      [
        "▁offer",
        -8.167962577761394
      ],
      [
        "▁kenya",
        -10.937156015275201
      ],
      [
        "select",
        -13.72987338267105
      ],
      [
        "98",
        -10.894723327413537
      ],
      [
        "▁intersection",
        -11.688226679254399
      ],
      [
        "▁di",
        -9.299796853513923
      ],
      [
        "▁thre",
        -9.796899279818089
      ],
      [
        "woo",
        -13.641814115175377
      ],
      [
        "▁bobo",
        -10.337802295360751
      ],
      [
        "▁viril",
        -12.271382225801288
      ],
      [
        "–",
        -12.771024913001828
      ],
      [
        "rawle",
        -12.704691703689505
      ],
      [
        "▁parsi",
        -13.470076073498351
      ],
      [
        "▁communicat",
        -11.174597850526478
      ],
      [
        "▁depiction",
        -11.939182131189348
      ],
      [
        "▁9.",
        -14.140127953573415
      ],
      [
        "thi",
        -7.4687070885228275
      ],
      [
        "▁beckon",
        -12.273067063132219
      ],
      [
        "bat",
        -12.34496360472068
      ],
      [
        "▁pan",
        -9.323756312171358
      ],
      [
        "▁yell",
        -10.130859988827368
      ],
      [
        "▁hami",
        -13.274922241176482
      ],
      [
        "▁cockatiel",
        -11.937691598783848
      ],
      [
        "▁considerabl",
        -10.258472326349331
      ],
      [
        "car",
        -13.651944612455937
      ],
      [
        "▁day",
        -6.469461379751393
      ],
      [
        "▁shot",
        -9.422513390970224
      ],
      [
        "▁potter",
        -10.601482076252799
      ],
      [
        "sbur",
        -13.089000173242141
      ],
      [
        "▁blam",
        -12.07093297518282
      ],
      [
        "▁migrant",
        -10.667818546005007
      ],
      [
        "▁vintage",
        -10.84207099094114
      ],
      [
        "aneous",
        -11.945380990503452
      ],
      [
        "vocation",
        -12.771024243448181
      ],
      [
        "▁fan",
        -9.032499058170995
      ],
      [
        "190",
        -13.810053399207337
      ],
      [
        "runa",
        -12.355882225173941
      ],
      [
        "llo",
        -12.838040137222798
      ],
      [
        "etti",
        -12.33900790947011
      ],
      [
        "essi",
        -12.449912786814064
      ],
      [
        "▁blouse",
        -12.786071070093323
      ],
      [
        "▁jung",
        -12.856706534158416
      ],
      [
        "strophe",
        -12.771022968012394
      ],
      [
        "7-1.",
        -12.137812712626054
      ],
      [
        "▁artifact",
        -12.771039888293778
      ],
      [
        "graph",
        -12.491458622932191
      ],
      [
        "▁michael",
        -9.142011705858568
      ],
      [
        "cture",
        -13.693807038996457
      ],
      [
        "▁zac",
        -11.02143769728193
      ],
      [
        "▁mail",
        -9.161260664776282
      ],
      [
        "▁credit",
        -8.896213540204943
      ],
      [
        "▁stink",
        -11.321603243436552
      ],
      [
        "▁lurch",
        -12.771481389004066
      ],
      [
        "159",
        -14.034648351999111
      ],
      [
        "enni",
        -12.071365667322894
      ],
      [
        "▁register",
        -9.916605308763625
      ],
      [
        "mes",
        -13.602096232873869
      ],
      [
        "turn",
        -11.584355476195324
      ],
      [
        "▁harbor",
        -11.178170076951053
      ],
      [
        "ig",
        -11.34900700535625
      ],
      [
        "▁flee",
        -10.835842838457138
      ],
      [
        "▁anesthe",
        -12.773332395908263
      ],
      [
        "ion",
        -7.340023821218155
      ],
      [
        "▁massac",
        -11.188057470919949
      ],
      [
        "▁crunch",
        -11.687752511055654
      ],
      [
        "▁mut",
        -11.833328334797132
      ],
      [
        "▁dilute",
        -12.381112093989486
      ],
      [
        "▁1.4",
        -12.362851284027002
      ],
      [
        "▁walnut",
        -11.053209141657266
      ],
      [
        "anta",
        -13.688672399591814
      ],
      [
        "▁whoo",
        -11.474824911412242
      ],
      [
        "▁andrew",
        -10.390794524731467
      ],
      [
        "▁palestin",
        -11.487573366609066
      ],
      [
        "▁mari",
        -11.608463054468066
      ],
      [
        "▁jumble",
        -12.792275197632156
      ],
      [
        "▁j",
        -10.937809915570796
      ],
      [
        "179",
        -13.39745496023807
      ],
      [
        "▁rap",
        -12.615894447232824
      ],
      [
        "▁actor",
        -10.039772560768338
      ],
      [
        "50",
        -10.090879082816057
      ],
      [
        "150",
        -15.027533495975856
      ],
      [
        "▁trimmer",
        -12.775036086773154
      ],
      [
        "▁haul",
        -10.671043101667767
      ],
      [
        "▁coarse",
        -11.937702466417191
      ],
      [
        "▁tribunal",
        -12.771028600042388
      ],
      [
        "▁pump",
        -9.879574623937092
      ],
      [
        "▁russ",
        -13.37765375550532
      ],
      [
        "▁divers",
        -9.63673898568317
      ],
      [
        "born",
        -10.63044282196468
      ],
      [
        "hal",
        -12.11520426761416
      ],
      [
        "ough",
        -8.427482906163835
      ],
      [
        "▁sab",
        -13.454301680103782
      ],
      [
        "▁retir",
        -11.10029158619053
      ],
      [
        "▁shutter",
        -11.940243389979994
      ],
      [
        "trans",
        -12.234399508693889
      ],
      [
        "70",
        -10.4465463284253
      ],
      [
        "▁effe",
        -12.270987365124665
      ],
      [
        "100",
        -11.126169046448926
      ],
      [
        "immigrate",
        -12.31250702864704
      ],
      [
        "divide",
        -12.734108726807602
      ],
      [
        "how-to-",
        -12.77145745188739
      ],
      [
        "▁carolin",
        -9.884206962220206
      ],
      [
        "▁horn",
        -10.03892774128432
      ],
      [
        "▁week",
        -7.3458424122555375
      ],
      [
        "▁asset",
        -10.08122139452863
      ],
      [
        "▁pirate",
        -10.125697133592931
      ],
      [
        "110",
        -13.650665772775568
      ],
      [
        "▁motorcycle",
        -10.751848087835674
      ],
      [
        "▁carlo",
        -12.275182675584546
      ],
      [
        "bby",
        -10.182101585599025
      ],
      [
        "▁configur",
        -13.24153306837256
      ],
      [
        "▁disc",
        -12.817782720551913
      ],
      [
        "ign",
        -11.721372580589511
      ],
      [
        "▁trainer",
        -11.310611171980163
      ],
      [
        "▁anthropolog",
        -11.322002359147932
      ],
      [
        "▁equipment",
        -10.036802072510252
      ],
      [
        "▁neighborhood",
        -10.125720478725269
      ],
      [
        "▁to",
        -8.572932643268645
      ],
      [
        "▁merry",
        -10.670898857543893
      ],
      [
        "▁daughter",
        -9.011783025854005
      ],
      [
        "▁jude",
        -12.848757543932628
      ],
      [
        "▁luna",
        -10.679630489900255
      ],
      [
        "▁attitude",
        -10.036748490116072
      ],
      [
        "62",
        -12.786065695044039
      ],
      [
        "6-84",
        -14.806907614809187
      ],
      [
        "uit",
        -12.289312307441701
      ],
      [
        "▁wag",
        -11.356358217004512
      ],
      [
        "uchtman",
        -12.778454227701467
      ],
      [
        "▁decide",
        -9.337305267152693
      ],
      [
        "al",
        -10.361669615324121
      ],
      [
        "▁lifeboat",
        -11.48831389558275
      ],
      [
        "▁insid",
        -12.756306013498227
      ],
      [
        "▁difference",
        -8.564198770670178
      ],
      [
        "ichi",
        -11.555687011434749
      ],
      [
        "▁invitation",
        -10.332208659829355
      ],
      [
        "94",
        -12.022107636496195
      ],
      [
        "▁relocate",
        -12.544769144938726
      ],
      [
        "strial",
        -12.832350127752587
      ],
      [
        "▁shackle",
        -10.844200702602894
      ],
      [
        "▁!!",
        -8.519732313854663
      ],
      [
        "▁detour",
        -12.771047223307642
      ],
      [
        "▁purple",
        -9.682227265277469
      ],
      [
        "▁cough",
        -10.854826325658216
      ],
      [
        "mmy",
        -11.805582435502917
      ],
      [
        "▁stomach",
        -10.173285341156033
      ],
      [
        "design",
        -10.712229106482013
      ],
      [
        "▁complian",
        -10.993565763173304
      ],
      [
        "----",
        -10.450866178525061
      ],
      [
        "ngott",
        -11.822903105003782
      ],
      [
        "▁pave",
        -12.31520051719282
      ],
      [
        "▁dwelling",
        -12.332183823625396
      ],
      [
        "▁egypt",
        -9.421542372635574
      ],
      [
        "▁kosa",
        -12.805635507609955
      ],
      [
        "▁crescen",
        -12.271285265912324
      ],
      [
        "sexual",
        -11.899215992821022
      ],
      [
        "▁aja",
        -11.388328726537459
      ],
      [
        "ti",
        -12.411083627047377
      ],
      [
        "159",
        -13.577313733020397
      ],
      [
        "▁nerve",
        -11.178237247629779
      ],
      [
        "-00",
        -13.46859229998206
      ],
      [
        "7:3",
        -13.59615174620778
      ],
      [
        "▁depre",
        -13.61031099517504
      ],
      [
        "▁righ",
        -12.773503431406361
      ],
      [
        "▁paddistocksh",
        -11.93769167101776
      ],
      [
        "▁interconnect",
        -10.590919791212803
      ],
      [
        "▁tree",
        -8.627515160818984
      ],
      [
        "▁yama",
        -12.946806513286926
      ],
      [
        "880",
        -15.44640996818414
      ],
      [
        "▁arie",
        -12.110418550522517
      ],
      [
        "▁appear",
        -8.41862252369533
      ],
      [
        "▁conno",
        -12.772880278925685
      ],
      [
        "▁nathan",
        -11.79352141560613
      ],
      [
        "hou",
        -11.433501946333042
      ],
      [
        "▁upward",
        -11.690488449474913
      ],
      [
        "record",
        -12.232032297544535
      ],
      [
        "▁own",
        -7.3243863985855615
      ],
      [
        "net",
        -10.330432599169502
      ],
      [
        "▁teenage",
        -11.936076792319346
      ],
      [
        "matche",
        -13.249431001331692
      ],
      [
        "▁carrie",
        -9.613899712959405
      ],
      [
        "ton",
        -8.505511430127598
      ],
      [
        "▁trans",
        -9.619067442530168
      ],
      [
        "▁speculati",
        -11.39035402302905
      ],
      [
        "3.1",
        -12.945575938572823
      ],
      [
        "itz",
        -11.914813846403023
      ],
      [
        "▁dessert",
        -10.667817172653647
      ],
      [
        "▁over",
        -7.39373701817555
      ],
      [
        "▁......",
        -14.094307463614387
      ],
      [
        "▁60",
        -11.937715059059695
      ],
      [
        "ent",
        -9.41840076285051
      ],
      [
        "▁cor",
        -10.732409848009189
      ],
      [
        "▁899-4",
        -13.136770620605855
      ],
      [
        "??????????????",
        -12.573916463968978
      ],
      [
        "▁ultrasound",
        -11.937695952391309
      ],
      [
        "▁legislat",
        -11.106881210084625
      ],
      [
        "▁retard",
        -11.487724442540351
      ],
      [
        "sonic.net",
        -11.937751705157677
      ],
      [
        "train",
        -12.167285982365435
      ],
      [
        "▁monast",
        -12.359931763074728
      ],
      [
        "▁applaud",
        -12.328024508859858
      ],
      [
        "arriage",
        -10.982246373060672
      ],
      [
        "▁vegetarian",
        -11.330854940048425
      ],
      [
        "▁paper",
        -7.750195335096451
      ],
      [
        "witz",
        -10.523987332916297
      ],
      [
        "▁invoice",
        -10.790788880538244
      ],
      [
        "gorge",
        -11.489012651987958
      ],
      [
        "▁raffle",
        -12.271286935228252
      ],
      [
        "▁cauc",
        -12.772389904521205
      ],
      [
        "▁non",
        -9.749685132467587
      ],
      [
        "workers",
        -9.976283657654893
      ],
      [
        "▁sauce",
        -10.394420818301533
      ],
      [
        "▁dur",
        -11.543879909839234
      ],
      [
        "▁outcome",
        -10.125678286848974
      ],
      [
        "▁08/0",
        -12.957041608583907
      ],
      [
        "*****",
        -11.566808758753416
      ],
      [
        "▁electron",
        -12.782827421628621
      ],
      [
        "▁betray",
        -11.937914964864204
      ],
      [
        "oda",
        -13.178690811145522
      ],
      [
        "ta",
        -9.224748695931972
      ],
      [
        "▁commend",
        -11.966704268744193
      ],
      [
        "▁muscula",
        -12.787123171660374
      ],
      [
        "rous",
        -10.622234501840271
      ],
      [
        "ro",
        -11.369268642045476
      ],
      [
        "▁untie",
        -11.69302792478429
      ],
      [
        "▁programme",
        -8.871993023503348
      ],
      [
        "essie",
        -11.04380442293721
      ],
      [
        "j",
        -9.573412288293888
      ],
      [
        "▁defeat",
        -10.223315500582105
      ],
      [
        "▁astronaut",
        -11.178168687060532
      ],
      [
        "▁200,",
        -14.14712352768953
      ],
      [
        "▁webmas",
        -13.716824182877454
      ],
      [
        "▁emiss",
        -13.717095278757624
      ],
      [
        "tarian",
        -13.417553428327144
      ],
      [
        "▁memorial",
        -10.668399185700693
      ],
      [
        "▁wou",
        -13.229284662502392
      ],
      [
        "▁60,00",
        -13.953467716680118
      ],
      [
        "▁",
        -1.3739155028004877
      ],
      [
        "▁unpack",
        -12.27139379689773
      ],
      [
        "▁baron",
        -12.335433246114581
      ],
      [
        "▁syria",
        -9.421323912107951
      ],
      [
        "[UNK]",
        0.0
      ],
      [
        "▁review",
        -8.202631693330819
      ],
      [
        "▁vital",
        -10.38705174172738
      ],
      [
        "▁interpla",
        -11.945524355058978
      ],
      [
        "▁miss",
        -8.310437186491395
      ],
      [
        "▁mart",
        -11.060494852238076
      ],
      [
        "▁northwest",
        -9.45389160942591
      ],
      [
        "▁ric",
        -11.284776822761906
      ],
      [
        "/8/",
        -13.141982870234665
      ],
      [
        "bias",
        -12.219736439551708
      ],
      [
        "label",
        -13.717568665985958
      ],
      [
        "▁spore",
        -10.940992315312457
      ],
      [
        "▁stirr",
        -11.328458101742147
      ],
      [
        "-3",
        -13.712013158203703
      ],
      [
        "▁reach",
        -8.712322935710564
      ],
      [
        "rior",
        -12.843631543838391
      ],
      [
        "▁eager",
        -10.597088160680695
      ],
      [
        "▁toky",
        -9.99516609947113
      ],
      [
        "▁uk",
        -9.762275936099098
      ],
      [
        "▁e-mail",
        -9.398299076169907
      ],
      [
        "▁peder",
        -12.78184967752633
      ],
      [
        "▁bak",
        -9.991780067142807
      ],
      [
        "ff",
        -11.980794772189306
      ],
      [
        "▁local",
        -8.25082339332667
      ],
      [
        "▁comm",
        -12.052574725475669
      ],
      [
        "▁zone",
        -10.625439386056627
      ],
      [
        "▁booth",
        -11.337701758629022
      ],
      [
        "▁overlap",
        -12.284823885244723
      ],
      [
        "▁rip",
        -9.71122205579617
      ],
      [
        "shee",
        -12.532172446055409
      ],
      [
        "▁operational",
        -11.359809761706265
      ],
      [
        "▁thrash",
        -12.771226365631534
      ],
      [
        "▁weary",
        -12.143546577567612
      ],
      [
        "ethos",
        -12.924691927891413
      ],
      [
        "brill",
        -13.700886252753955
      ],
      [
        "317",
        -12.522027844751664
      ],
      [
        "▁richard",
        -9.214174753860537
      ],
      [
        "▁eva",
        -11.324161028238628
      ],
      [
        "▁homo",
        -12.898540826638595
      ],
      [
        "▁on",
        -6.888680401716107
      ],
      [
        "---=",
        -11.82789170959216
      ],
      [
        "44",
        -12.102883489506434
      ],
      [
        "▁statute",
        -10.842572443061192
      ],
      [
        "▁warwick",
        -10.753327508244322
      ],
      [
        "▁adjourn",
        -12.771025006324257
      ],
      [
        "▁06/01/200",
        -12.339716654186573
      ],
      [
        "o",
        -6.019413941308355
      ],
      [
        "unscreen",
        -12.879532419952952
      ],
      [
        "▁possesse",
        -11.180954143294862
      ],
      [
        "ontario",
        -9.492482834856231
      ],
      [
        "▁wail",
        -11.963404480173624
      ],
      [
        "▁dese",
        -12.147958461207073
      ],
      [
        "▁intelligib",
        -12.771024951812654
      ],
      [
        "▁kawa",
        -12.844466485428395
      ],
      [
        "▁goose",
        -10.668582169494577
      ],
      [
        "▁utterance",
        -11.93885965571454
      ],
      [
        "▁cooperati",
        -9.997440636518627
      ],
      [
        "66",
        -12.136076970436964
      ],
      [
        "▁leak",
        -10.754137021128956
      ],
      [
        "800.",
        -12.777623006555508
      ],
      [
        "▁d",
        -10.280019826971163
      ],
      [
        "▁women",
        -8.369508578465537
      ],
      [
        "▁earth",
        -8.614772700444025
      ],
      [
        "▁fl",
        -9.870849856033203
      ],
      [
        "▁dries",
        -11.529089195706502
      ],
      [
        "▁santo",
        -12.800710113523662
      ],
      [
        "▁vet",
        -9.51515879728895
      ],
      [
        "▁exo",
        -11.336825109221547
      ],
      [
        "eet",
        -13.02619663550597
      ],
      [
        "▁efficient",
        -9.68931958073651
      ],
      [
        "17034321_",
        -12.771024918880496
      ],
      [
        "▁excellent",
        -8.564058471903056
      ],
      [
        "lette",
        -11.943758003198942
      ],
      [
        "▁kal",
        -11.273183218625494
      ],
      [
        "▁itch",
        -11.316167281857576
      ],
      [
        "197",
        -11.99851441851724
      ],
      [
        "bon",
        -12.863753236312279
      ],
      [
        "▁17",
        -10.75115699870446
      ],
      [
        "▁dial",
        -10.071844017705603
      ],
      [
        "▁justify",
        -11.48773185111557
      ],
      [
        "▁healthie",
        -11.558459154990995
      ],
      [
        "▁pettigrew",
        -11.321074775117085
      ],
      [
        "▁1-800-",
        -12.663110100375743
      ],
      [
        "▁manga",
        -11.20016783724594
      ],
      [
        "▁historical",
        -9.662550528221812
      ],
      [
        "▁raiser",
        -12.402456926082287
      ],
      [
        "▁gis",
        -10.512233618311196
      ],
      [
        "▁appointe",
        -10.836190664599416
      ],
      [
        "patio",
        -12.277358641866462
      ],
      [
        "▁vision",
        -10.453064712279188
      ],
      [
        "▁interpretation",
        -10.592014432028325
      ],
      [
        "▁petrol",
        -10.754347869174957
      ],
      [
        "▁priest",
        -10.753169422404563
      ],
      [
        "▁wa",
        -11.64081789390056
      ],
      [
        "▁framework",
        -10.275993292688819
      ],
      [
        "▁nicki",
        -12.279529500959027
      ],
      [
        "▁conceivabl",
        -12.94161327531123
      ],
      [
        "clear",
        -13.033043829191742
      ],
      [
        "hood",
        -9.910471893302812
      ],
      [
        "taking",
        -8.032615871914599
      ],
      [
        "devour",
        -13.72910475819092
      ],
      [
        "▁us",
        -9.506253679050264
      ],
      [
        "jo",
        -11.103530424926497
      ],
      [
        "▁interi",
        -11.286037589760186
      ],
      [
        "▁sulf",
        -12.806686758076712
      ],
      [
        "▁fame",
        -10.337346448060373
      ],
      [
        "-out",
        -11.49376986200338
      ],
      [
        "▁topic",
        -9.810557255679287
      ],
      [
        "58",
        -11.951611418715437
      ],
      [
        "prudent",
        -13.729840955330696
      ],
      [
        "ria",
        -11.73691810135671
      ],
      [
        "even",
        -10.255110157750392
      ],
      [
        "▁pant",
        -9.274934976654905
      ],
      [
        "▁overwhelm",
        -11.663710735124445
      ],
      [
        "tentious",
        -13.149477560687277
      ],
      [
        "▁fill",
        -8.597562503260832
      ],
      [
        "▁exceed",
        -11.0271294162327
      ],
      [
        "▁vibrat",
        -13.388971192348327
      ],
      [
        "▁quer",
        -9.375787343304692
      ],
      [
        "open",
        -13.669219331884383
      ],
      [
        "▁su",
        -9.46412061798912
      ],
      [
        "nex",
        -8.430914246168548
      ],
      [
        "183",
        -12.30278992028547
      ],
      [
        "▁wandering",
        -11.075427827202404
      ],
      [
        "▁curs",
        -12.351577376041842
      ],
      [
        "▁support",
        -7.999011056599971
      ],
      [
        "▁sardin",
        -12.344466616766423
      ],
      [
        "19032951_3",
        -12.80803000451851
      ],
      [
        "▁methodical",
        -12.780633861555076
      ],
      [
        "▁skyscraper",
        -12.771024919351646
      ],
      [
        "alam",
        -12.77198971228069
      ],
      [
        "ju",
        -12.226505588446837
      ],
      [
        "72",
        -11.567392815125887
      ],
      [
        "▁braden",
        -12.777929991252527
      ],
      [
        "▁cleve",
        -8.504247153451434
      ],
      [
        "▁kahn",
        -12.271765261976036
      ],
      [
        "bu",
        -8.933136665927833
      ],
      [
        "▁cosplay",
        -11.488318431103654
      ],
      [
        "▁responsibl",
        -9.44481050101845
      ],
      [
        "ies",
        -6.236108686640891
      ],
      [
        "▁>>",
        -8.408942050936023
      ],
      [
        "▁destin",
        -10.518687433697288
      ],
      [
        "▁lora",
        -11.93861831347281
      ],
      [
        "▁ec",
        -9.49888221321268
      ],
      [
        "&",
        -8.721264882567068
      ],
      [
        "▁pro",
        -9.826410719532142
      ],
      [
        "===============",
        -10.485113607253007
      ],
      [
        "▁soothing",
        -12.271572176744597
      ],
      [
        "▁heart",
        -8.723493624564345
      ],
      [
        "pl",
        -11.628615207034397
      ],
      [
        "ons",
        -10.56595692661573
      ],
      [
        "▁balochi",
        -11.939134581910508
      ],
      [
        "98",
        -12.268541348299161
      ],
      [
        "▁vs",
        -11.575267346929792
      ],
      [
        "▁zero",
        -10.125976645229455
      ],
      [
        "cussion",
        -12.771029417961543
      ],
      [
        "mond",
        -10.64053206159421
      ],
      [
        "37.",
        -13.177392460549235
      ],
      [
        "▁goodw",
        -11.13849787026664
      ],
      [
        "▁cliffs",
        -13.452366588677299
      ],
      [
        "▁checker",
        -13.62716926958987
      ],
      [
        "▁publish",
        -9.936669911216917
      ],
      [
        "▁counsel",
        -10.452221334475347
      ],
      [
        "form",
        -11.743974029951112
      ],
      [
        "▁premise",
        -10.942058371798382
      ],
      [
        "680",
        -12.884090929504229
      ],
      [
        "▁appall",
        -11.937738644390974
      ],
      [
        "itch",
        -10.11300634228813
      ],
      [
        "▁full",
        -7.829066921185566
      ],
      [
        "▁refuge",
        -12.748980479946912
      ],
      [
        "ward",
        -11.834056055878488
      ],
      [
        "at",
        -8.945766389834308
      ],
      [
        "aka",
        -10.765471782886213
      ],
      [
        "▁front",
        -8.22180555682961
      ],
      [
        "what",
        -12.99167488051111
      ],
      [
        "▁brad",
        -10.853172441933289
      ],
      [
        "▁hehe",
        -12.285154872705577
      ],
      [
        "▁rhodesia",
        -12.265536099653561
      ],
      [
        "▁organi",
        -11.582234161139889
      ],
      [
        "feb",
        -13.72552375045103
      ],
      [
        "▁moistur",
        -10.668280147738528
      ],
      [
        "▁hatche",
        -13.19378051466155
      ],
      [
        "▁dempsey",
        -11.93769167879082
      ],
      [
        "▁lace",
        -11.378714647773265
      ],
      [
        "▁03:",
        -11.982710755806442
      ],
      [
        "▁syno",
        -12.991187271004996
      ],
      [
        "▁farmland",
        -12.80262336228313
      ],
      [
        "▁bond",
        -10.0476635361531
      ],
      [
        "▁subdue",
        -13.06524562766114
      ],
      [
        "▁pyramid",
        -10.751147801000839
      ],
      [
        "▁playwright",
        -10.667826380692425
      ],
      [
        "just",
        -12.706092648916718
      ],
      [
        "iling",
        -10.634783939744768
      ],
      [
        "▁outfit",
        -10.59138745774569
      ],
      [
        "▁mad",
        -9.521693967141598
      ],
      [
        "?var=",
        -12.271024920135886
      ],
      [
        "▁direction",
        -9.356472811274351
      ],
      [
        "▁755",
        -13.738721046877318
      ],
      [
        "▁procure",
        -12.771025754565493
      ],
      [
        "▁chocolate",
        -9.291821114705272
      ],
      [
        "▁intervention",
        -10.331543441358459
      ],
      [
        "grain",
        -13.09577751140307
      ],
      [
        "▁bann",
        -11.531968307856317
      ],
      [
        "ous",
        -8.013412851855474
      ],
      [
        "▁forty-",
        -12.336962208317317
      ],
      [
        "▁codependen",
        -11.967605059362096
      ],
      [
        "stain",
        -13.317548387480509
      ],
      [
        "4-79",
        -13.475737153577203
      ],
      [
        "0",
        -10.97769997123717
      ],
      [
        "gur",
        -11.979366142874603
      ],
      [
        "▁dec",
        -8.830716399304265
      ],
      [
        "▁todd",
        -11.328198673952544
      ],
      [
        "▁coral",
        -12.813824192009854
      ],
      [
        "▁pam",
        -12.855385015337886
      ],
      [
        "▁carry",
        -8.74786032819355
      ],
      [
        "▁01",
        -11.778088733885701
      ],
      [
        "▁specialist",
        -10.277847872627277
      ],
      [
        "tcher",
        -11.495374760181917
      ],
      [
        "rou",
        -8.854957786186286
      ],
      [
        "▁gymnas",
        -12.772178366956219
      ],
      [
        "descript",
        -12.489544203291654
      ],
      [
        "▁exact",
        -8.757051909046336
      ],
      [
        "▁possibilit",
        -9.776038697531295
      ],
      [
        "▁andrea",
        -11.326731735068307
      ],
      [
        "▁shopp",
        -9.524562236260689
      ],
      [
        "▁ash",
        -11.131696973318586
      ],
      [
        "▁muggle",
        -10.331474886500231
      ],
      [
        "▁might",
        -11.939640402724002
      ],
      [
        "▁crimea",
        -12.366538529979987
      ],
      [
        "▁multinational",
        -12.771039509024856
      ],
      [
        "▁cancel",
        -10.510747732023765
      ],
      [
        "▁paralympic",
        -10.452795925684246
      ],
      [
        "▁etc",
        -8.74595794265801
      ],
      [
        "▁bitter",
        -10.845588060041251
      ],
      [
        "▁nanda",
        -11.373803937697424
      ],
      [
        "▁worshiper",
        -12.803997156922014
      ],
      [
        "▁britanni",
        -12.774784153353425
      ],
      [
        "har",
        -12.794400267113716
      ],
      [
        "▁inheritance",
        -12.271917361227985
      ],
      [
        "▁david",
        -9.177941271524086
      ],
      [
        "nvas",
        -11.220397476231184
      ],
      [
        "gg",
        -11.751539155596346
      ],
      [
        "▁refere",
        -11.238005745034165
      ],
      [
        "▁dand",
        -9.850707535455877
      ],
      [
        "ille",
        -11.850120307589071
      ],
      [
        "▁phonolog",
        -12.771520411182259
      ],
      [
        "▁shy",
        -10.621931177496734
      ],
      [
        "011",
        -15.221037539552535
      ],
      [
        "au",
        -11.97032760426017
      ],
      [
        "shake",
        -13.64956032231358
      ],
      [
        "▁discourag",
        -10.942565101854285
      ],
      [
        "statement",
        -12.619431063188854
      ],
      [
        "102",
        -15.4425354296568
      ],
      [
        "▁endure",
        -11.676382465264693
      ],
      [
        "hez",
        -12.038969473472457
      ],
      [
        "mas",
        -9.159550601691219
      ],
      [
        "▁pala",
        -12.802520898452485
      ],
      [
        "▁kittie",
        -12.87955750604662
      ],
      [
        "▁620-294-",
        -12.665389467361315
      ],
      [
        "▁pas",
        -12.47871356481999
      ],
      [
        "wikipedia",
        -11.053168735607464
      ],
      [
        "▁bart",
        -11.66240338754041
      ],
      [
        "gri",
        -11.087957216298108
      ],
      [
        "▁mum",
        -10.036257282629286
      ],
      [
        "▁baby",
        -7.421681434444058
      ],
      [
        "▁bleed",
        -10.861051756438615
      ],
      [
        "▁audit",
        -10.276612711968497
      ],
      [
        "andro",
        -13.23476448124159
      ],
      [
        "id",
        -11.523085669888701
      ],
      [
        "▁declar",
        -10.889279765342447
      ],
      [
        "pover",
        -10.37245102086002
      ],
      [
        "▁rank",
        -9.99691420265277
      ],
      [
        "▁develop",
        -8.391948880344358
      ],
      [
        "▁apart",
        -9.743345699065912
      ],
      [
        "note",
        -12.743876876962208
      ],
      [
        "▁de",
        -13.020138656770019
      ],
      [
        ",9",
        -13.146070500982553
      ],
      [
        "▁marxist",
        -12.272356799828753
      ],
      [
        "healthy",
        -10.698294391435066
      ],
      [
        "▁spawn",
        -10.942073040050296
      ],
      [
        "▁guth",
        -12.302250425789246
      ],
      [
        "▁rowe",
        -12.518607133078088
      ],
      [
        "▁motivate",
        -11.670680305164165
      ],
      [
        "▁bhu",
        -11.94170790319946
      ],
      [
        "-living",
        -12.781630867420734
      ],
      [
        "▁car",
        -6.842997137262421
      ],
      [
        "hear",
        -12.140187242508556
      ],
      [
        "▁weav",
        -12.48416707873354
      ],
      [
        "kam",
        -12.893279529907172
      ],
      [
        "▁editors",
        -11.36141594605
      ],
      [
        "▁biochemi",
        -11.703429555052438
      ],
      [
        "▁guerrilla",
        -10.667817818827485
      ],
      [
        "▁focus",
        -8.808008085421903
      ],
      [
        "▁brief",
        -9.354325026296248
      ],
      [
        "▁early",
        -7.760326121382939
      ],
      [
        "die",
        -10.223377604815687
      ],
      [
        "▁shi",
        -9.982861565553893
      ],
      [
        "▁gwen",
        -12.27183146022217
      ],
      [
        "functional",
        -12.7318802096251
      ],
      [
        "price",
        -11.005079022783761
      ],
      [
        "▁cei",
        -11.457929639250217
      ],
      [
        "▁investment",
        -9.77713363017687
      ],
      [
        "▁plutocra",
        -12.771164081613849
      ],
      [
        "▁concern",
        -8.338358583153822
      ],
      [
        "▁thumb",
        -11.053175972857527
      ],
      [
        "hers",
        -14.748162080548967
      ],
      [
        "▁banish",
        -13.292139854066379
      ],
      [
        "▁licen",
        -11.859580602070697
      ],
      [
        "mulg",
        -12.280686027585448
      ],
      [
        "▁reduc",
        -9.974800995271526
      ],
      [
        "0,000",
        -10.195250905356877
      ],
      [
        "▁warren",
        -12.293025350608138
      ],
      [
        "trans",
        -10.240933231132955
      ],
      [
        "▁prohibition",
        -12.775955591747051
      ],
      [
        "▁s.",
        -10.599371767482832
      ],
      [
        "illo",
        -11.46722311793382
      ],
      [
        "▁evil-",
        -12.77826959630736
      ],
      [
        "▁penal",
        -11.699201957336367
      ],
      [
        "▁champion",
        -11.096742936711738
      ],
      [
        "59",
        -12.012136318615283
      ],
      [
        "▁extract",
        -10.225464254021976
      ],
      [
        "▁parano",
        -13.692301138501122
      ],
      [
        "populate",
        -13.733909860714055
      ],
      [
        "▁iraqiya",
        -12.782176815232852
      ],
      [
        "▁soap",
        -10.522853562229495
      ],
      [
        "▁42,00",
        -13.782910433321955
      ],
      [
        "▁packet",
        -11.496145309901117
      ],
      [
        "▁21,",
        -14.146030434996668
      ],
      [
        "value",
        -12.204619875422917
      ],
      [
        "inc",
        -8.135972559800303
      ],
      [
        "▁upgrad",
        -11.791017023772039
      ],
      [
        "▁manche",
        -11.97980410520186
      ],
      [
        "ional",
        -11.046199356130234
      ],
      [
        "economic",
        -13.733389174386238
      ],
      [
        "lari",
        -13.672786369848778
      ],
      [
        "▁veroni",
        -12.575949161309302
      ],
      [
        "▁hatch",
        -11.808190004314605
      ],
      [
        "▁decrease",
        -10.87173727204393
      ],
      [
        "sheet",
        -11.140651381540676
      ],
      [
        "1507",
        -13.383298432819583
      ],
      [
        "▁implie",
        -11.487693912007966
      ],
      [
        "▁behesht",
        -12.77102511788338
      ],
      [
        "▁mem",
        -8.742872535017423
      ],
      [
        "▁thirty",
        -9.777242291981953
      ],
      [
        "ight",
        -11.48442696785879
      ],
      [
        "▁fundamental",
        -9.354084747642597
      ],
      [
        "oven",
        -10.27592347478829
      ],
      [
        "▁correspondent",
        -12.771208781500702
      ],
      [
        "▁anti-semit",
        -12.937019480356346
      ],
      [
        "▁cress",
        -12.284007640098352
      ],
      [
        "▁form",
        -7.788411800552783
      ],
      [
        "▁thirt",
        -11.589558869595724
      ],
      [
        "▁setback",
        -11.94222279062928
      ],
      [
        "▁liaison",
        -12.771030334765236
      ],
      [
        "khol",
        -12.805474678037783
      ],
      [
        "▁lumino",
        -11.333286047432912
      ],
      [
        "▁interpol",
        -11.93769392143054
      ],
      [
        "▁card",
        -8.59746032696778
      ],
      [
        "▁ecu",
        -12.527976738709967
      ],
      [
        "droid",
        -12.771518297621688
      ],
      [
        "ax",
        -9.498075937158813
      ],
      [
        "▁royal",
        -9.879896159804689
      ],
      [
        "▁sufficient",
        -9.955071805149895
      ],
      [
        "▁hawk",
        -12.354167093739768
      ],
      [
        "od.com",
        -12.855353337815867
      ],
      [
        "???????????????",
        -11.554970775406666
      ],
      [
        "girl",
        -13.726896580049107
      ],
      [
        "▁lab",
        -9.86818934956857
      ],
      [
        "kansa",
        -11.422780669779202
      ],
      [
        "▁qualifi",
        -10.668847703498713
      ],
      [
        "adobe",
        -12.044838376820344
      ],
      [
        "▁saints",
        -12.150198858805162
      ],
      [
        "▁cruel",
        -10.275922440846838
      ],
      [
        "gree",
        -12.725181866128915
      ],
      [
        "▁rosario",
        -12.825499610381671
      ],
      [
        "233",
        -13.678237943553544
      ],
      [
        "▁theor",
        -8.712327955250288
      ],
      [
        "▁jones",
        -10.282270938427645
      ],
      [
        "rry",
        -10.425866491429703
      ],
      [
        "▁notabl",
        -11.115649039584214
      ],
      [
        "▁demand",
        -9.142261467672888
      ],
      [
        "ent",
        -10.352899478348686
      ],
      [
        "▁divine",
        -11.337924594802669
      ],
      [
        "▁compel",
        -11.481649024014507
      ],
      [
        "▁benit",
        -12.789125368008955
      ],
      [
        "ucas",
        -12.77617624642898
      ],
      [
        "▁envisage",
        -12.271036699430564
      ],
      [
        "▁wrongdo",
        -11.489740949461298
      ],
      [
        "▁extend",
        -9.411003669184256
      ],
      [
        "▁clarify",
        -11.178169481801483
      ],
      [
        "▁lev",
        -12.311278255831677
      ],
      [
        "▁alternate",
        -11.220948151546553
      ],
      [
        "▁cuisine",
        -11.321024998320633
      ],
      [
        "▁development",
        -8.496023517888062
      ],
      [
        "assemble",
        -12.73286501816849
      ],
      [
        "▁so",
        -11.218941534601761
      ],
      [
        "introduction",
        -12.14355664825429
      ],
      [
        "▁reproduc",
        -11.580808493253958
      ],
      [
        "▁displacement",
        -11.488348003373138
      ],
      [
        "gi",
        -12.08823898256273
      ],
      [
        "▁fellow",
        -9.498716136171328
      ],
      [
        "▁european",
        -8.411618776322424
      ],
      [
        "▁dong",
        -10.974608501885374
      ],
      [
        "▁10.",
        -12.227526544380565
      ],
      [
        "▁rbi",
        -11.946273853705462
      ],
      [
        "▁decor",
        -10.947809679175732
      ],
      [
        "▁vc",
        -11.111886830779426
      ],
      [
        "▁tib",
        -13.070383180692035
      ],
      [
        "▁infection",
        -10.842818861012963
      ],
      [
        "▁fac",
        -10.316733267226446
      ],
      [
        "▁prescient",
        -11.687776984577807
      ],
      [
        "minute",
        -13.729298209120754
      ],
      [
        "▁sha'",
        -11.321291435785785
      ],
      [
        "ctus",
        -11.968301917860032
      ],
      [
        "▁smog",
        -12.275303401098672
      ],
      [
        "▁w/",
        -13.028036467691177
      ],
      [
        "▁percentile",
        -10.590925451683322
      ],
      [
        "ack",
        -12.928599211651854
      ],
      [
        "▁falter",
        -11.687999591152728
      ],
      [
        "▁nas",
        -10.109476624994727
      ],
      [
        "▁plague",
        -11.178197803208782
      ],
      [
        "▁maul",
        -12.50176189151791
      ],
      [
        "▁sleigh",
        -12.778311654841328
      ],
      [
        "▁baathist",
        -11.937998504724376
      ],
      [
        "centre",
        -12.736315542805233
      ],
      [
        "▁agenc",
        -9.215646320935976
      ],
      [
        "▁working",
        -8.287187966365074
      ],
      [
        "▁frank",
        -9.639653586300765
      ],
      [
        "▁lank",
        -12.759623948637971
      ],
      [
        "inhales",
        -13.281371383635522
      ],
      [
        "▁effic",
        -12.77372847524069
      ],
      [
        "96/",
        -13.58763307569862
      ],
      [
        "▁mash",
        -11.50533107513219
      ],
      [
        "▁photos",
        -10.478388908784403
      ],
      [
        "duck",
        -12.879285635143736
      ],
      [
        "▁walle",
        -11.390093049288588
      ],
      [
        "ramon",
        -12.213210922443801
      ],
      [
        "▁regime",
        -9.995066820102418
      ],
      [
        "▁bless",
        -10.933509685268513
      ],
      [
        "ribbean",
        -12.767486358219216
      ],
      [
        "acion",
        -11.365745765385471
      ],
      [
        "taste",
        -12.735557380332683
      ],
      [
        "▁deport",
        -11.942467216167499
      ],
      [
        "▁supporter",
        -10.380139957767865
      ],
      [
        "ting",
        -7.593660369773193
      ],
      [
        "▁remnant",
        -11.93769211403371
      ],
      [
        "▁russian",
        -9.295929118712987
      ],
      [
        "rmal",
        -12.748498675541647
      ],
      [
        "10/20",
        -13.973159258028971
      ],
      [
        "▁wet",
        -9.390482360835637
      ],
      [
        "▁fitz",
        -12.281154032618145
      ],
      [
        "▁signifie",
        -12.780133724463735
      ],
      [
        "▁dissatisf",
        -11.321045863615812
      ],
      [
        "beauty",
        -9.421563097855133
      ],
      [
        "▁industrialist",
        -11.939431589794607
      ],
      [
        "oxi",
        -10.762126411064052
      ],
      [
        "▁mailto:galen",
        -12.771025082227398
      ],
      [
        "janu",
        -8.84836812224818
      ],
      [
        "furniture",
        -9.712529933698715
      ],
      [
        "▁urge",
        -10.341210738430643
      ],
      [
        "action",
        -11.556816398940446
      ],
      [
        "pakistan",
        -12.732979813067896
      ],
      [
        "▁space",
        -8.021829052152064
      ],
      [
        "▁ascend",
        -11.687750603604353
      ],
      [
        "▁unthink",
        -11.938001478005669
      ],
      [
        "▁200,000",
        -11.169756943986634
      ],
      [
        "▁c",
        -7.305209582171903
      ],
      [
        "▁imperial",
        -11.054396298123875
      ],
      [
        "▁judicia",
        -11.313386446287728
      ],
      [
        "ked",
        -12.468382147324212
      ],
      [
        "▁whale",
        -9.54318597175979
      ],
      [
        "angie",
        -12.821246558900642
      ],
      [
        "▁observ",
        -10.401052397575606
      ],
      [
        "▁bound",
        -10.174725860066935
      ],
      [
        "000",
        -12.033561010171681
      ],
      [
        "▁cheape",
        -7.863522081794162
      ],
      [
        "ization",
        -11.100233639206222
      ],
      [
        "▁jaz",
        -11.101122263845996
      ],
      [
        "agger",
        -13.664054918646018
      ],
      [
        "▁loom",
        -10.950886618814184
      ],
      [
        "ladder",
        -11.905598498527219
      ],
      [
        "▁hege",
        -12.77708821967488
      ],
      [
        "▁aphid",
        -12.771052441425233
      ],
      [
        "▁m-m",
        -12.829682648207083
      ],
      [
        "▁pollutant",
        -12.271294229949119
      ],
      [
        "/pages",
        -12.771104434763844
      ],
      [
        "▁jk",
        -13.013137617633399
      ],
      [
        "iewe",
        -11.690442279546767
      ],
      [
        "▁puree",
        -12.884892912102115
      ],
      [
        "ula",
        -11.5325592397742
      ],
      [
        "form",
        -13.6069871966102
      ],
      [
        "nca",
        -12.403582309077763
      ],
      [
        "▁tedd",
        -11.974008553924044
      ],
      [
        "get",
        -11.33405405661711
      ],
      [
        "▁cliff",
        -9.967293901069464
      ],
      [
        "▁pedicure",
        -11.687691602891734
      ],
      [
        "mother",
        -12.780369996904772
      ],
      [
        "raz",
        -12.216306027598762
      ],
      [
        "▁clink",
        -11.945086456070118
      ],
      [
        "▁roast",
        -10.942094272777041
      ],
      [
        "▁apologiz",
        -13.65973988704192
      ],
      [
        "×",
        -11.833785825435129
      ],
      [
        "12",
        -10.115966630470972
      ],
      [
        "▁super",
        -9.04943896582336
      ],
      [
        "▁capsule",
        -11.687694579614147
      ],
      [
        "cu",
        -11.356650890325701
      ],
      [
        "▁near",
        -8.462071939348817
      ],
      [
        "poibeau",
        -12.77102554266287
      ],
      [
        "▁inappropriate",
        -11.68769158554716
      ],
      [
        "▁demons",
        -11.96051597927801
      ],
      [
        "▁departure",
        -10.173511139684614
      ],
      [
        "upon",
        -12.92622239698004
      ],
      [
        "▁conclusion",
        -9.743844511968732
      ],
      [
        "▁xml",
        -8.856436320361386
      ],
      [
        "▁nandaro",
        -11.378131439771892
      ],
      [
        "½",
        -14.13677057935472
      ],
      [
        "[MASK]",
        0.0
      ],
      [
        "▁row",
        -9.346129963483953
      ],
      [
        "1602",
        -12.75286170753208
      ],
      [
        "▁ja",
        -12.309018936156052
      ],
      [
        "▁arr",
        -11.508863784435743
      ],
      [
        "▁artwork",
        -10.125988731459845
      ],
      [
        "wa",
        -12.083792402984447
      ],
      [
        "▁good-",
        -13.02219307752923
      ],
      [
        "▁zippe",
        -11.69867975070564
      ],
      [
        "▁flourish",
        -11.053335515359336
      ],
      [
        "fth",
        -10.18213701733694
      ],
      [
        "▁safe",
        -8.287358361877313
      ],
      [
        "▁tra",
        -10.949277205681254
      ],
      [
        "▁link",
        -8.635422815354058
      ],
      [
        "▁shave",
        -12.290382432971136
      ],
      [
        "▁chic",
        -8.19724647946007
      ],
      [
        "▁cuff",
        -12.2409669386087
      ],
      [
        "▁conservato",
        -12.271024922395764
      ],
      [
        "▁propos",
        -10.472135350399931
      ],
      [
        "▁rough",
        -9.467503571177236
      ],
      [
        "▁cane",
        -11.335335863183962
      ],
      [
        "bullfight",
        -12.772389140213882
      ],
      [
        "▁love",
        -7.27592935162896
      ],
      [
        "▁abundan",
        -11.682791042857508
      ],
      [
        "flower",
        -12.21612029753988
      ],
      [
        "34",
        -13.090324825971754
      ],
      [
        "guy",
        -11.157773862027376
      ],
      [
        "▁rigid",
        -11.487900724684946
      ],
      [
        "▁10:4",
        -12.397343587659027
      ],
      [
        "earth",
        -12.734044369774395
      ],
      [
        "▁eye",
        -7.663332598656543
      ],
      [
        "▁television",
        -9.596508487370633
      ],
      [
        "giving",
        -9.142384953428785
      ],
      [
        "▁resolve",
        -10.963516281518594
      ],
      [
        "▁accus",
        -10.793331047486706
      ],
      [
        "▁breakthrough",
        -11.689113254597247
      ],
      [
        "ura",
        -11.05574696324475
      ],
      [
        "'",
        -5.811804410257997
      ],
      [
        "▁name",
        -6.948482142051171
      ],
      [
        "▁channel",
        -9.62487912973235
      ],
      [
        "339",
        -11.238809738318704
      ],
      [
        "▁recite",
        -12.29435270564899
      ],
      [
        "▁entre",
        -11.532984266888292
      ],
      [
        "ruse",
        -11.5298074496698
      ],
      [
        "▁nev",
        -11.688407617698045
      ],
      [
        "ein",
        -15.518265406639655
      ],
      [
        "herself",
        -13.45138161859207
      ],
      [
        "▁hunche",
        -12.77464338399905
      ],
      [
        "shore",
        -10.925380983741604
      ],
      [
        "▁deadline",
        -11.054861987146262
      ],
      [
        "▁.........",
        -13.519393851272076
      ],
      [
        "box",
        -10.556188414334162
      ],
      [
        "▁fil",
        -10.678056777802396
      ],
      [
        "▁beginner",
        -11.380240277512112
      ],
      [
        "shrine",
        -12.725747940435616
      ],
      [
        "pi.",
        -12.787478660160291
      ],
      [
        "morning",
        -13.719865826123922
      ],
      [
        "▁lympho",
        -12.337539391790543
      ],
      [
        "▁luck",
        -9.11970613115524
      ],
      [
        "▁refer",
        -9.526989262062653
      ],
      [
        "bbl",
        -12.979433941816241
      ],
      [
        "ors",
        -11.776077782252447
      ],
      [
        "▁gazag",
        -12.278948605351385
      ],
      [
        "entine",
        -13.444968147309602
      ],
      [
        "system",
        -11.898962630227127
      ],
      [
        "yard",
        -10.685194754089508
      ],
      [
        "▁polytheis",
        -12.77102862806565
      ],
      [
        "▁countenance",
        -12.771039703990283
      ],
      [
        "u",
        -7.903191793250447
      ],
      [
        "▁regina",
        -11.937700580084948
      ],
      [
        "▁05:5",
        -13.15777586100445
      ],
      [
        "▁utiliz",
        -12.515142598487085
      ],
      [
        "▁medi",
        -10.698734112262914
      ],
      [
        "▁wee",
        -10.408531398555603
      ],
      [
        "embark",
        -12.729230041099827
      ],
      [
        "▁alexandr",
        -11.49919501463438
      ],
      [
        "polis",
        -8.060622179770988
      ],
      [
        "▁illustrate",
        -11.069175584255664
      ],
      [
        "▁india",
        -8.531676135239588
      ],
      [
        "▁bash",
        -11.79936331175092
      ],
      [
        "re",
        -7.418210813944742
      ],
      [
        "▁breeze",
        -11.321026451995833
      ],
      [
        "na",
        -12.93258871973241
      ],
      [
        "24",
        -12.096653605591769
      ],
      [
        "▁few",
        -7.5328408650622
      ],
      [
        "▁create",
        -8.24624002836422
      ],
      [
        "▁encircle",
        -12.771024918859116
      ],
      [
        "▁distinct",
        -11.94354169347396
      ],
      [
        "▁hood",
        -11.565507390960647
      ],
      [
        "atic",
        -11.34346250656026
      ],
      [
        "▁liv",
        -11.257139409772527
      ],
      [
        "antifraud",
        -12.771025586100766
      ],
      [
        "▁0.1",
        -13.296955699958513
      ],
      [
        "▁fourth",
        -9.468113900551128
      ],
      [
        "▁blaze",
        -11.937906770312702
      ],
      [
        "▁graphic",
        -10.399808647526124
      ],
      [
        "▁peter",
        -8.461092665457901
      ],
      [
        "奈",
        -12.833785825435129
      ],
      [
        "mount",
        -11.648301815991243
      ],
      [
        "-on",
        -13.071995853039812
      ],
      [
        "▁congest",
        -11.321036637017755
      ],
      [
        "▁acoustic",
        -12.271025450201966
      ],
      [
        "▁alex",
        -11.178256264529221
      ],
      [
        "▁owl",
        -10.000571504191104
      ],
      [
        "▁policymak",
        -11.186097550214484
      ],
      [
        "▁200",
        -7.835194488110916
      ],
      [
        "hen",
        -11.635308161272327
      ],
      [
        "6:00",
        -11.54136812453849
      ],
      [
        "▁stoke",
        -12.278623133078254
      ],
      [
        "▁sand",
        -10.135325054823396
      ],
      [
        "▁moslem",
        -10.669616779620267
      ],
      [
        "ife",
        -12.59075677883499
      ],
      [
        "▁2:30",
        -11.734134949673816
      ],
      [
        "▁drizzl",
        -13.434701370299603
      ],
      [
        "lys",
        -10.25405955036088
      ],
      [
        "▁furr",
        -13.070177774418132
      ],
      [
        "▁admirer",
        -12.809593437087141
      ],
      [
        "▁kw",
        -13.496524448528408
      ],
      [
        "inburg",
        -12.271513559844642
      ],
      [
        "▁832.676.",
        -13.136770579315863
      ],
      [
        "9:5",
        -13.21345167014526
      ],
      [
        "▁termin",
        -11.184406195674113
      ],
      [
        "vik",
        -12.270208807559833
      ],
      [
        "well",
        -10.547416033661259
      ],
      [
        "▁krist",
        -12.707191848607874
      ],
      [
        "▁backward",
        -10.669225068472619
      ],
      [
        "==",
        -10.802124173760925
      ],
      [
        "▁(",
        -7.71008126143902
      ],
      [
        "▁nav",
        -9.770402691421696
      ],
      [
        "▁scholar",
        -10.323578796658097
      ],
      [
        "▁saying",
        -8.772735773155677
      ],
      [
        "▁pric",
        -10.191303320883982
      ],
      [
        "itude",
        -11.517604043635856
      ],
      [
        "▁hugg",
        -11.715287093171789
      ],
      [
        "▁warlord",
        -11.938181724276602
      ],
      [
        "oom",
        -12.53596697715926
      ],
      [
        "▁vaga",
        -12.791054647539255
      ],
      [
        "eau",
        -10.944244681849543
      ],
      [
        "▁approv",
        -11.865186569102619
      ],
      [
        "▁position",
        -8.509193647929068
      ],
      [
        "▁ambassador",
        -11.321024918841626
      ],
      [
        "bun",
        -10.865137028520433
      ],
      [
        "▁nationalist",
        -12.289716059194696
      ],
      [
        "▁pinch",
        -10.837995699404324
      ],
      [
        "▁spoil",
        -11.322009960034391
      ],
      [
        "▁overhea",
        -12.462661600716094
      ],
      [
        "▁cashi",
        -12.12313564225202
      ],
      [
        "25",
        -11.938822767671649
      ],
      [
        "▁excited",
        -9.726298439799404
      ],
      [
        "▁brake",
        -12.272520427584471
      ],
      [
        "▁yo",
        -11.72382369226988
      ],
      [
        "▁international",
        -8.037630768109947
      ],
      [
        "▁wonderful",
        -9.075354977568995
      ],
      [
        "▁fi",
        -14.154370951148582
      ],
      [
        "▁shrewd",
        -12.810213721093918
      ],
      [
        "/articles/c",
        -12.771290981989193
      ],
      [
        "ebay",
        -12.895943239706945
      ],
      [
        "▁non-re",
        -12.897294096262332
      ],
      [
        "▁101",
        -12.534622449071785
      ],
      [
        "▁incentive",
        -10.667814942539275
      ],
      [
        "05/",
        -12.771421586909662
      ],
      [
        "and",
        -9.326300484328039
      ],
      [
        "▁vangie",
        -11.937941142058243
      ],
      [
        "ne",
        -8.790051701260115
      ],
      [
        "nestl",
        -13.711176518111081
      ],
      [
        "leen",
        -11.627284023512917
      ],
      [
        "▁deter",
        -12.792802115027724
      ],
      [
        "rdain",
        -12.33334459561655
      ],
      [
        "abul",
        -11.187044933964831
      ],
      [
        "▁bengal",
        -11.324074774101879
      ],
      [
        "olat",
        -12.508200557779952
      ],
      [
        "zal",
        -13.680080620002096
      ],
      [
        "▁173",
        -13.542186875789044
      ],
      [
        "spective",
        -13.029966488585387
      ],
      [
        "▁o'ne",
        -12.281402460089879
      ],
      [
        "▁shell",
        -9.881490213104946
      ],
      [
        "4/200",
        -11.696837855527704
      ],
      [
        "▁monday",
        -7.807030912487748
      ],
      [
        "▁purge",
        -12.771976352197482
      ],
      [
        "▁shop",
        -8.634681514336533
      ],
      [
        "▁phyl",
        -11.941690563400039
      ],
      [
        "▁<",
        -9.428811894508192
      ],
      [
        "▁deterr",
        -12.302003044682383
      ],
      [
        "herb",
        -12.753421876979298
      ],
      [
        "▁dissent",
        -12.771614288006136
      ],
      [
        "▁disclosure",
        -12.771566421999475
      ],
      [
        "wear",
        -11.191539974288267
      ],
      [
        "▁125",
        -12.781539555372706
      ],
      [
        "mmmm",
        -11.840105667858372
      ],
      [
        "▁swap",
        -10.95290526104371
      ],
      [
        "▁tom",
        -7.916845641689411
      ],
      [
        "▁guards",
        -10.965219022931267
      ],
      [
        "amas",
        -11.408240134955161
      ],
      [
        "▁some",
        -6.347888441191562
      ],
      [
        "ag",
        -12.393280713458324
      ],
      [
        "▁ky",
        -10.991093697415515
      ],
      [
        "fluorescent",
        -11.937592556612193
      ],
      [
        "nab",
        -11.450820924465402
      ],
      [
        "cision",
        -12.564919355084257
      ],
      [
        "▁steve",
        -9.912098874218493
      ],
      [
        "▁hydro",
        -10.842500912110985
      ],
      [
        "..",
        -11.613151332723898
      ],
      [
        "▁organ",
        -11.927504304813885
      ],
      [
        "▁re-establish",
        -12.771024918842661
      ],
      [
        "leopard",
        -13.729065040558863
      ],
      [
        "▁hankie",
        -12.812358931413595
      ],
      [
        "oodle",
        -10.735517839180812
      ],
      [
        "▁liberate",
        -12.27725256376398
      ],
      [
        "▁b",
        -10.16720176095756
      ],
      [
        "ginn",
        -11.51677083872962
      ],
      [
        "do",
        -9.30421038237662
      ],
      [
        "▁turg",
        -13.489806415960224
      ],
      [
        "▁heavy",
        -9.232981354789754
      ],
      [
        "▁geometric",
        -12.276357014830737
      ],
      [
        "▁consequence",
        -9.87956816605267
      ],
      [
        "▁mast",
        -12.351109470895901
      ],
      [
        "▁made",
        -7.045593571212478
      ],
      [
        "pain",
        -10.13375689093811
      ],
      [
        "▁bail",
        -12.27198707935755
      ],
      [
        "zak",
        -12.58442576987121
      ],
      [
        "leopold",
        -11.178167802950101
      ],
      [
        "▁advisor",
        -10.844856527930446
      ],
      [
        "▁meir",
        -11.178680290669146
      ],
      [
        "▁communicate",
        -10.944468088997448
      ],
      [
        "▁bef",
        -13.003209720930858
      ],
      [
        "▁log",
        -10.63757522752906
      ],
      [
        "▁+",
        -12.359034424904078
      ],
      [
        "▁donald",
        -10.942557486536677
      ],
      [
        "variation",
        -13.733760285247545
      ],
      [
        "religion",
        -12.232696367356338
      ],
      [
        "▁partner",
        -10.319552242410046
      ],
      [
        "▁monta",
        -11.89001759579862
      ],
      [
        "▁california",
        -8.716431880762592
      ],
      [
        "▁dav",
        -11.174077043999457
      ],
      [
        "▁terrif",
        -12.071465153220862
      ],
      [
        "▁rudol",
        -12.771062761092002
      ],
      [
        "▁c",
        -10.178172696842289
      ],
      [
        "▁suz",
        -11.942717059526627
      ],
      [
        "▁organisation",
        -10.52127617855543
      ],
      [
        "uffin",
        -11.737387297971972
      ],
      [
        "▁latin",
        -10.277359969468609
      ],
      [
        "▁how",
        -5.8597381293234045
      ],
      [
        "▁vega",
        -8.214068175317152
      ],
      [
        "▁waive",
        -10.842559485021368
      ],
      [
        "▁stephen",
        -11.053391365538914
      ],
      [
        "dict",
        -12.108261435810489
      ],
      [
        "▁drunke",
        -13.055383264908878
      ],
      [
        "▁funn",
        -8.620876673725245
      ],
      [
        "▁loud",
        -9.356874870894
      ],
      [
        "▁reassur",
        -12.462566015158195
      ],
      [
        "▁pe",
        -10.58493336870663
      ],
      [
        "▁sat",
        -8.881832972249015
      ],
      [
        "space",
        -11.693956413396403
      ],
      [
        "▁hoar",
        -12.793302752109469
      ],
      [
        "hav",
        -9.281154885061614
      ],
      [
        "cles",
        -12.804070278823158
      ],
      [
        "▁serve",
        -8.012539097749347
      ],
      [
        "s@e",
        -11.493874526824209
      ],
      [
        "▁temporar",
        -10.455272075386954
      ],
      [
        "▁11",
        -8.972238801626698
      ],
      [
        "333",
        -14.345008994232288
      ],
      [
        "▁printer",
        -11.99434390311603
      ],
      [
        "annibal",
        -12.827138604758472
      ],
      [
        "laim",
        -12.187490011408967
      ],
      [
        "▁connections",
        -10.828112249964592
      ],
      [
        "▁beautiful",
        -8.470853058922621
      ],
      [
        "▁middle",
        -8.470366497304823
      ],
      [
        "▁tul",
        -13.71202425761556
      ],
      [
        "alliance",
        -10.173932546106055
      ],
      [
        "tanza",
        -12.006253547051868
      ],
      [
        "▁sue",
        -10.093416392993817
      ],
      [
        "▁brut",
        -12.84354600104293
      ],
      [
        "▁agon",
        -12.603495008295207
      ],
      [
        "▁104",
        -13.100297995490417
      ],
      [
        "nia",
        -9.726279199909234
      ],
      [
        "▁rob",
        -10.23324613010222
      ],
      [
        "▁follow",
        -8.130827517318195
      ],
      [
        "▁firef",
        -13.178981546356368
      ],
      [
        "after",
        -11.63697640333626
      ],
      [
        "▁pando",
        -12.274044645308429
      ],
      [
        "▁blo",
        -12.723206569252461
      ],
      [
        "▁defin",
        -9.800956733371578
      ],
      [
        "ception",
        -12.086098978870893
      ],
      [
        "▁sulphur",
        -12.27102491925773
      ],
      [
        "nning",
        -12.964695795476587
      ],
      [
        "0-2",
        -13.137095825369885
      ],
      [
        "▁infant",
        -11.48782602140989
      ],
      [
        "▁correction",
        -11.497346712605648
      ],
      [
        "▁men",
        -8.191164594293141
      ],
      [
        "isation",
        -10.481439928435528
      ],
      [
        "987",
        -14.893421856703934
      ],
      [
        "▁0.00",
        -15.109614267568244
      ],
      [
        "▁glove",
        -9.880390091606358
      ],
      [
        "gnof",
        -12.771545873229435
      ],
      [
        "▁roadway",
        -12.280170470447548
      ],
      [
        "▁pr",
        -10.45027154150719
      ],
      [
        "▁demo",
        -11.111657638048138
      ],
      [
        "ck",
        -11.754176983081127
      ],
      [
        "▁souv",
        -12.778397812762844
      ],
      [
        "savic-",
        -12.771025066427894
      ],
      [
        "▁graduat",
        -11.486853358757559
      ],
      [
        "udge",
        -12.682361343223889
      ],
      [
        "▁goblin",
        -11.687698643667948
      ],
      [
        "▁para",
        -10.213229676076574
      ],
      [
        "26",
        -11.044531444058311
      ],
      [
        "▁marlen",
        -11.944045202986928
      ],
      [
        "448",
        -13.685044922631343
      ],
      [
        "mu",
        -12.904897371489005
      ],
      [
        "tome",
        -12.783272229788256
      ],
      [
        "▁depth",
        -10.752454550665238
      ],
      [
        "runner",
        -12.732122411922935
      ],
      [
        "nana",
        -9.662043387588838
      ],
      [
        "▁roll",
        -8.748244303384688
      ],
      [
        "▁accumulat",
        -11.472648396308243
      ],
      [
        "unga",
        -11.598701075666995
      ],
      [
        "▁",
        -3.5953845689148327
      ],
      [
        "▁instruction",
        -9.844030248358507
      ],
      [
        "▁struggl",
        -10.929299648186927
      ],
      [
        "▁wal",
        -10.352755438971261
      ],
      [
        "▁instruct",
        -11.103671252134138
      ],
      [
        "991",
        -12.803767022995844
      ],
      [
        "-------------",
        -10.204800430093533
      ],
      [
        "hole",
        -11.54467378976375
      ],
      [
        "valuation",
        -12.110494855715169
      ],
      [
        "▁translator",
        -12.272683200434361
      ],
      [
        "/rp/chernobyl/c0",
        -12.869264018866474
      ],
      [
        "pid",
        -12.199781872000257
      ],
      [
        "iteration",
        -12.77309533587258
      ],
      [
        "/",
        -9.20628404617688
      ],
      [
        "▁become",
        -8.142059709751521
      ],
      [
        "▁'60",
        -12.771024951232178
      ],
      [
        "wh",
        -12.456898445064779
      ],
      [
        "ter",
        -10.432873965842234
      ],
      [
        "▁res",
        -13.761319965363798
      ],
      [
        "napol",
        -12.517391103557882
      ],
      [
        "▁novel",
        -9.141879898838816
      ],
      [
        "▁mins",
        -11.316020539885928
      ],
      [
        "9/200",
        -11.994173130074634
      ],
      [
        "▁plac",
        -11.424200858230517
      ],
      [
        "▁rabbi",
        -12.266298057650832
      ],
      [
        "▁overcom",
        -10.754294041834036
      ],
      [
        "cion",
        -13.357598950459646
      ],
      [
        "▁forego",
        -12.335014823909601
      ],
      [
        "▁192",
        -11.94057202446741
      ],
      [
        "oral",
        -11.285129816686023
      ],
      [
        "productive",
        -11.900922662095182
      ],
      [
        "▁quartile",
        -10.037684636047572
      ],
      [
        "▁confine",
        -10.942091871349335
      ],
      [
        "ja",
        -12.135023217070913
      ],
      [
        "****",
        -11.720199025079861
      ],
      [
        "▁violen",
        -10.230721778255361
      ],
      [
        "^",
        -10.478257699563933
      ],
      [
        "▁stand",
        -11.833815694314197
      ],
      [
        "ened",
        -10.692459198977282
      ],
      [
        "▁favor",
        -10.198333626645255
      ],
      [
        "▁adam",
        -7.690652088565816
      ],
      [
        "▁beard",
        -10.172212092325005
      ],
      [
        "▁knot",
        -10.668146690273668
      ],
      [
        "▁ab",
        -11.009315530810374
      ],
      [
        "mi",
        -11.262929182395526
      ],
      [
        "▁logical",
        -11.344050461134499
      ],
      [
        "▁halt",
        -11.378860094874803
      ],
      [
        "▁04:3",
        -12.39975877017382
      ],
      [
        "ne",
        -10.32490622756281
      ],
      [
        "high",
        -11.687691151302708
      ],
      [
        "ove",
        -11.814824832607663
      ],
      [
        "▁stoop",
        -12.304662479502472
      ],
      [
        "6/",
        -13.566124420789025
      ],
      [
        "▁cruz",
        -12.771606574308308
      ],
      [
        "pole",
        -13.566515343481948
      ],
      [
        "▁total",
        -8.749461251665956
      ],
      [
        "1.8",
        -12.279299099288766
      ],
      [
        "▁robber",
        -11.1809599981548
      ],
      [
        "▁pray",
        -10.517885473366618
      ],
      [
        "der",
        -13.597667753359055
      ],
      [
        "▁8:",
        -14.495891278240808
      ],
      [
        "on",
        -10.927554331646157
      ],
      [
        "▁fernand",
        -12.152545085080478
      ],
      [
        "▁birthday",
        -8.544661149551171
      ],
      [
        "▁plotter",
        -12.27490975262134
      ],
      [
        "sight",
        -11.40920298912614
      ],
      [
        "▁jelli",
        -12.60306167863072
      ],
      [
        "occupy",
        -13.728655067189344
      ],
      [
        "▁troop",
        -9.896413368586819
      ],
      [
        "▁hon",
        -13.565894145380948
      ],
      [
        "▁hoax",
        -11.321940432035555
      ],
      [
        "@a",
        -11.548842638013548
      ],
      [
        "anda",
        -11.905471192220162
      ],
      [
        "▁perpetuate",
        -12.787013982415694
      ],
      [
        "▁focuse",
        -11.032181273209444
      ],
      [
        "▁secretary",
        -9.546067688371455
      ],
      [
        "▁brain",
        -9.306787388137078
      ],
      [
        "▁its",
        -7.72296247419334
      ],
      [
        "ct",
        -9.519962088824977
      ],
      [
        "aden",
        -11.835808419303513
      ],
      [
        "▁hit",
        -7.956945453730806
      ],
      [
        "▁coheren",
        -11.692857701777646
      ],
      [
        "▁solve",
        -10.400233085267262
      ],
      [
        "▁pseudonym",
        -11.687691595006303
      ],
      [
        "▁yu",
        -12.233343007926685
      ],
      [
        "▁revitalis",
        -12.794960660954112
      ],
      [
        "▁luther",
        -10.844477656691826
      ],
      [
        "tender",
        -13.165108806701198
      ],
      [
        "jacobs",
        -13.722338602302191
      ],
      [
        "▁=",
        -10.869655881095504
      ],
      [
        "▁kell",
        -11.12559098780228
      ],
      [
        "▁entit",
        -9.875799205523279
      ],
      [
        "▁supplement",
        -10.75122471351771
      ],
      [
        "▁lawsuit",
        -11.321025422997854
      ],
      [
        "▁waterway",
        -11.499953356075089
      ],
      [
        "enti",
        -12.154891043607538
      ],
      [
        "▁suf",
        -10.456491828551915
      ],
      [
        "▁interference",
        -10.944520557589883
      ],
      [
        "leur",
        -11.834203543590597
      ],
      [
        "issan",
        -11.02890805253289
      ],
      [
        "▁aha",
        -11.67280624013664
      ],
      [
        "▁04:0",
        -12.773739120218524
      ],
      [
        "▁cha",
        -11.250268752536988
      ],
      [
        "▁hedge",
        -10.669098297999927
      ],
      [
        "▁yemen",
        -11.692750920300945
      ],
      [
        "▁31",
        -10.323166577539656
      ],
      [
        "▁accompany",
        -12.350344709892777
      ],
      [
        "▁altho",
        -8.78807180982115
      ],
      [
        "77.9",
        -13.136809847545772
      ],
      [
        "empirical",
        -12.7311202285793
      ],
      [
        "▁enhance",
        -10.535142361603539
      ],
      [
        "▁sacrament",
        -11.937691600777816
      ],
      [
        "▁simulati",
        -13.120623650284507
      ],
      [
        "▁waiver",
        -10.670645593221316
      ],
      [
        "▁stopp",
        -8.837043180502244
      ],
      [
        "▁folded",
        -11.102688684683425
      ],
      [
        "00",
        -9.552396791548091
      ],
      [
        "▁late-",
        -12.329444696157559
      ],
      [
        "▁wel",
        -10.452125002941226
      ],
      [
        "▁oversea",
        -10.751270459834956
      ],
      [
        "▁--",
        -7.9405064469437665
      ],
      [
        "▁110",
        -11.62840249240278
      ],
      [
        "▁tail",
        -9.178751558747656
      ],
      [
        "▁addict",
        -10.66787885274194
      ],
      [
        ",00",
        -12.77109588532938
      ],
      [
        "▁vest",
        -10.754824689605012
      ],
      [
        "▁distant",
        -10.942108858445133
      ],
      [
        "▁salt",
        -8.06131751027824
      ],
      [
        "▁dat",
        -8.781383868073103
      ],
      [
        "plane",
        -11.644533054014264
      ],
      [
        "▁equalis",
        -13.007687395528045
      ],
      [
        "▁data",
        -7.696582431807802
      ],
      [
        "▁nin",
        -9.4993441318178
      ],
      [
        "▁propert",
        -8.364605058753625
      ],
      [
        "resume",
        -12.73199546929392
      ],
      [
        "watch",
        -12.23256699324777
      ],
      [
        "▁orangutan",
        -11.937691585568569
      ],
      [
        "▁islam",
        -10.23871981158026
      ],
      [
        "▁130",
        -11.559624943780829
      ],
      [
        "▁no",
        -6.215786342814156
      ],
      [
        "▁sa",
        -9.391262604333544
      ],
      [
        "▁dramatic",
        -10.332964478970426
      ],
      [
        "▁play+grou",
        -10.8686905613922
      ],
      [
        "▁appell",
        -13.448784043924478
      ],
      [
        "▁artist",
        -9.744574993258588
      ],
      [
        "proposal",
        -12.73302401897148
      ],
      [
        "▁hungarian",
        -12.77122203146874
      ],
      [
        "odor",
        -11.953798672628846
      ],
      [
        "▁gleam",
        -11.321197442827945
      ],
      [
        "▁eaves",
        -12.27264142647383
      ],
      [
        "thus",
        -10.133259834333966
      ],
      [
        "▁ramb",
        -12.775924416213313
      ],
      [
        "▁wow",
        -9.333522329934793
      ],
      [
        "lanc",
        -13.273406204606545
      ],
      [
        "▁physicist",
        -11.937691588224066
      ],
      [
        "▁scholars",
        -10.18121624071428
      ],
      [
        "▁pin",
        -9.688527738313223
      ],
      [
        "nver",
        -6.748758059610105
      ],
      [
        "▁atm",
        -12.281985210486383
      ],
      [
        "▁failure",
        -9.712602446359046
      ],
      [
        "▁contain",
        -8.94953495484532
      ],
      [
        "▁mile",
        -10.191581625708215
      ],
      [
        "▁marking",
        -12.028236256129022
      ],
      [
        "▁where",
        -6.205892156861981
      ],
      [
        "▁cogniti",
        -10.942423531984456
      ],
      [
        "▁lem",
        -11.67821432991899
      ],
      [
        "▁legal",
        -8.848074344517883
      ],
      [
        "▁imped",
        -13.63771057387206
      ],
      [
        "▁bozo",
        -10.452843960610785
      ],
      [
        "mers",
        -10.936307423385442
      ],
      [
        "▁l.",
        -10.803519393302707
      ],
      [
        "▁inter",
        -11.373820383720101
      ],
      [
        "▁sh",
        -10.592138988891902
      ],
      [
        "l-",
        -12.13759450753502
      ],
      [
        "-size",
        -12.628541845438626
      ],
      [
        "▁found",
        -7.634543749143943
      ],
      [
        "$t",
        -12.822858484187716
      ],
      [
        "▁curb",
        -11.178439383603223
      ],
      [
        "▁tab",
        -10.338706625327122
      ],
      [
        "▁dodg",
        -11.075614756704221
      ],
      [
        "▁returne",
        -12.226696986896018
      ],
      [
        "▁ride",
        -8.371742056065994
      ],
      [
        "▁shelter",
        -10.519757604446605
      ],
      [
        "▁max",
        -9.494389998404536
      ],
      [
        "▁italic",
        -12.777483877710997
      ],
      [
        "▁phu",
        -13.52872910372896
      ],
      [
        "▁ad",
        -10.112228209213773
      ],
      [
        "▁bitch",
        -11.97057912239316
      ],
      [
        "a-ra",
        -12.780300666968179
      ],
      [
        "▁enlarg",
        -12.641653975796121
      ],
      [
        "▁indoor",
        -10.751234477131757
      ],
      [
        "▁cann",
        -12.569827727845512
      ],
      [
        "▁refugee",
        -10.333506970159641
      ],
      [
        "▁slovenia",
        -11.687693277672656
      ],
      [
        "trophy",
        -12.218691424006424
      ],
      [
        "▁increasing",
        -9.421026301991088
      ],
      [
        "▁ideal",
        -10.289642546002835
      ],
      [
        "'",
        -4.0655443185469125
      ],
      [
        "▁douglas",
        -11.937717630163915
      ],
      [
        "ul",
        -12.144280310333304
      ],
      [
        "▁stylis",
        -12.645998451429328
      ],
      [
        "▁acute",
        -11.937748698460693
      ],
      [
        "law",
        -11.447632231573781
      ],
      [
        "▁yellow",
        -8.602982581840788
      ],
      [
        "▁napkin",
        -10.453054962048926
      ],
      [
        "assin",
        -12.78094602255416
      ],
      [
        "▁mineral",
        -11.179590469632059
      ],
      [
        "▁talle",
        -12.403525764052887
      ],
      [
        "npr",
        -12.77068729351155
      ],
      [
        "▁inde",
        -9.668788598090224
      ],
      [
        "dollar",
        -12.731329505047547
      ],
      [
        "▁academ",
        -10.641375373199605
      ],
      [
        "▁hospita",
        -12.78601922912712
      ],
      [
        "▁exceptional",
        -10.720722650340008
      ],
      [
        "▁uhh",
        -8.316814345696162
      ],
      [
        "▁dual",
        -11.671595521380032
      ],
      [
        "▁frost",
        -10.521193736763085
      ],
      [
        "patho",
        -12.776390753338486
      ],
      [
        "-care",
        -12.776627227982946
      ],
      [
        "▁expo",
        -12.738719786986067
      ],
      [
        "▁when",
        -6.4213386983217475
      ],
      [
        "govin",
        -12.976739425986551
      ],
      [
        "16",
        -13.335738709129995
      ],
      [
        "rift",
        -12.766015761658949
      ],
      [
        "▁alexand",
        -11.171201957939513
      ],
      [
        "▁commun",
        -12.979058086209188
      ],
      [
        "▁omni",
        -12.275100007171927
      ],
      [
        "▁dose",
        -10.201269727239893
      ],
      [
        "▁ambitious",
        -10.842061753042707
      ],
      [
        "▁www.",
        -10.489201441666456
      ],
      [
        "▁read",
        -7.142862125368756
      ],
      [
        "▁forest",
        -10.182718154788382
      ],
      [
        "isfa",
        -10.962135609281905
      ],
      [
        "he",
        -7.136458974037556
      ],
      [
        "▁158",
        -10.771498006496458
      ],
      [
        "51",
        -13.168608066560093
      ],
      [
        "chemical",
        -11.888893410234205
      ],
      [
        "▁afore",
        -12.31570293937571
      ],
      [
        "borenste",
        -13.72391564178238
      ],
      [
        "▁count",
        -8.281193064402776
      ],
      [
        "ul",
        -10.425178253413398
      ],
      [
        "▁amplifi",
        -12.77102493078819
      ],
      [
        "tters",
        -11.137106520621723
      ],
      [
        "▁definite",
        -8.924110384119079
      ],
      [
        "tu",
        -10.76028366073866
      ],
      [
        "▁nichol",
        -11.1782129446862
      ],
      [
        "▁parody",
        -12.271031565109524
      ],
      [
        "▁vulga",
        -12.771054382367064
      ],
      [
        "ratio",
        -13.693592973957482
      ],
      [
        "▁196",
        -10.370659192566032
      ],
      [
        "☏",
        -11.333785825435129
      ],
      [
        "large",
        -13.724956202433408
      ],
      [
        "ipe",
        -11.662679951986929
      ],
      [
        "▁distinguish",
        -10.335659490642072
      ],
      [
        "▁http://news.",
        -13.726287922417775
      ],
      [
        "▁300",
        -10.870247792781871
      ],
      [
        "▁blend",
        -10.840121442282252
      ],
      [
        "▁facult",
        -10.27591835650351
      ],
      [
        "---->",
        -11.77556405770272
      ],
      [
        "▁pigg",
        -12.526398057093667
      ],
      [
        "▁necessit",
        -11.178168538211679
      ],
      [
        "293",
        -12.271038056321773
      ],
      [
        "rush",
        -12.737359071835286
      ],
      [
        "fe",
        -11.211557085735926
      ],
      [
        "▁recipient",
        -10.036745453237767
      ],
      [
        "▁w.",
        -10.337941592541107
      ],
      [
        "▁toppe",
        -12.41347289300324
      ],
      [
        "ugga",
        -12.801131257269418
      ],
      [
        "▁john",
        -8.21204943643776
      ],
      [
        "▁disband",
        -12.77299976533891
      ],
      [
        "quili",
        -11.184270844714348
      ],
      [
        "6:5",
        -14.245778065733244
      ],
      [
        "clav",
        -12.760595555124885
      ],
      [
        "▁watch",
        -7.621427061048742
      ],
      [
        "▁gentrifi",
        -12.772793567243317
      ],
      [
        "▁dozen",
        -11.49103749729561
      ],
      [
        "lin",
        -10.322262210481833
      ],
      [
        "▁has",
        -6.848591457078751
      ],
      [
        "▁compare",
        -9.690476518085713
      ],
      [
        "▁inch",
        -10.35568982238376
      ],
      [
        "▁reckon",
        -12.271033245539796
      ],
      [
        "▁hearing",
        -9.542245421815602
      ],
      [
        "▁incite",
        -10.682413067888204
      ],
      [
        "▁ip",
        -9.903883800838553
      ],
      [
        "▁hour",
        -7.8831402478187655
      ],
      [
        "▁grum",
        -12.773583420397559
      ],
      [
        "▁penaliz",
        -12.275505842637989
      ],
      [
        "▁pilot",
        -9.569445483337702
      ],
      [
        "▁sp",
        -10.920726615482508
      ],
      [
        "▁work",
        -11.833785839142507
      ],
      [
        "▁anyway",
        -8.745555096741061
      ],
      [
        "▁suprema",
        -13.485041642364498
      ],
      [
        "▁hetero",
        -12.771033450810998
      ],
      [
        "ese",
        -13.969336546849245
      ],
      [
        "▁econom",
        -8.413674890791622
      ],
      [
        "▁coinciden",
        -10.870984969632742
      ],
      [
        "▁trumpet",
        -11.48813838142249
      ],
      [
        "▁right",
        -11.051770298862332
      ],
      [
        "ither",
        -9.673678781304908
      ],
      [
        "▁ol",
        -10.387598845353358
      ],
      [
        "ice",
        -10.671132192785878
      ],
      [
        "▁900",
        -12.658041398971825
      ],
      [
        "▁take",
        -6.237107942179385
      ],
      [
        "▁jolt",
        -12.77528637204345
      ],
      [
        "▁peru",
        -12.881426180277504
      ],
      [
        "▁natal",
        -12.287682995591991
      ],
      [
        "▁collaboration",
        -10.66781424071453
      ],
      [
        "movie",
        -13.732681976454543
      ],
      [
        "▁sales",
        -9.454580979733269
      ],
      [
        "▁3",
        -10.56255474600826
      ],
      [
        "arco",
        -12.252079155136865
      ],
      [
        "bbc.co.uk/",
        -12.751142013648277
      ],
      [
        "▁yack",
        -11.322061510512455
      ],
      [
        "▁normal",
        -8.999544988200824
      ],
      [
        "▁wi",
        -14.407127597437647
      ],
      [
        "▁formi",
        -12.21513920187545
      ],
      [
        "▁hong",
        -10.75236001997921
      ],
      [
        "▁offworlder",
        -12.771034222946556
      ],
      [
        "▁sooner",
        -10.35284563085993
      ],
      [
        "▁insurgent",
        -11.321051847511642
      ],
      [
        "rought",
        -8.78086422942604
      ],
      [
        "▁smooth",
        -10.051613922816424
      ],
      [
        "rosario",
        -12.719290283133208
      ],
      [
        "▁transform",
        -10.002239691347654
      ],
      [
        "webb",
        -10.574452841712757
      ],
      [
        "▁95",
        -12.338386007555426
      ],
      [
        "▁relationship",
        -9.252253688834342
      ],
      [
        "▁exclaim",
        -11.321031247696014
      ],
      [
        "▁sink",
        -9.570535206523903
      ],
      [
        "▁cro",
        -11.233275416953905
      ],
      [
        "▁back",
        -6.439929621419231
      ],
      [
        "▁harden",
        -13.116409555061388
      ],
      [
        "cou",
        -7.440679466282132
      ],
      [
        "▁uncle",
        -9.345682855846032
      ],
      [
        "▁naturalist",
        -12.12885667868274
      ],
      [
        "letter",
        -13.376311437796577
      ],
      [
        ".ell",
        -11.524396607758204
      ],
      [
        "4",
        -12.196605162217974
      ],
      [
        "availab",
        -12.233504658003694
      ],
      [
        "▁thwart",
        -11.693196907603681
      ],
      [
        "session",
        -13.7250900394892
      ],
      [
        "filter",
        -13.732833211953874
      ],
      [
        "▁explanation",
        -10.036733420560926
      ],
      [
        "▁picnic",
        -10.842095910058674
      ],
      [
        "▁modification",
        -10.942086224927543
      ],
      [
        "any",
        -12.632996616841746
      ],
      [
        "▁supplier",
        -11.493178500807241
      ],
      [
        "▁gna",
        -12.740342333517122
      ],
      [
        "▁runflat",
        -12.771024959436387
      ],
      [
        "hos",
        -10.117195108246431
      ],
      [
        "elected",
        -9.649413357402562
      ],
      [
        "▁optimiz",
        -12.433174006298685
      ],
      [
        "▁reactionar",
        -12.47831490959208
      ],
      [
        "▁!!!!!!!!!!!!!",
        -12.917860168581639
      ],
      [
        "rung",
        -13.65716477223657
      ],
      [
        "▁investigator",
        -12.273221113372825
      ],
      [
        "jean",
        -12.733134924650962
      ],
      [
        "ß",
        -12.833785825435129
      ],
      [
        "▁advertise",
        -11.612285118420901
      ],
      [
        "▁sweat",
        -10.839863542258668
      ],
      [
        "▁dere",
        -8.174445756763475
      ],
      [
        "y@e",
        -11.877703282032476
      ],
      [
        "▁mitch",
        -9.653319427577284
      ],
      [
        "y",
        -9.961283824744118
      ],
      [
        "thaw",
        -11.71298559601552
      ],
      [
        "▁spl",
        -12.146774924861692
      ],
      [
        "▁torrent",
        -12.772371715070243
      ],
      [
        "▁multiplie",
        -12.771037929163425
      ],
      [
        "▁griz",
        -12.774117199487364
      ],
      [
        "▁unifi",
        -12.776428720667948
      ],
      [
        "▁eng",
        -9.093817207928826
      ],
      [
        "▁sandwich",
        -9.291826491677178
      ],
      [
        "▁vin",
        -10.818602022898602
      ],
      [
        "ure",
        -10.133591688150167
      ],
      [
        "ck",
        -11.501990416744686
      ],
      [
        "▁twel",
        -10.390534795189271
      ],
      [
        "▁blade",
        -11.488350362677444
      ],
      [
        "1,000",
        -11.273927685449541
      ],
      [
        "▁invad",
        -12.23067543329395
      ],
      [
        "wei",
        -12.57802831019734
      ],
      [
        "▁tool",
        -9.37246851552802
      ],
      [
        "▁image",
        -8.71598746682755
      ],
      [
        "▁outdoor",
        -10.751219142244064
      ],
      [
        "▁ron",
        -9.319306308185269
      ],
      [
        "▁bun",
        -10.483405957266584
      ],
      [
        "▁09:5",
        -13.197391014154238
      ],
      [
        "believe",
        -12.731727823551534
      ],
      [
        "▁smos",
        -12.27169422840097
      ],
      [
        "▁extension",
        -10.751266791204857
      ],
      [
        "▁balloon",
        -9.333082801721007
      ],
      [
        "icu",
        -12.929286393037826
      ],
      [
        "▁fasten",
        -11.764081547943732
      ],
      [
        "▁syn",
        -11.778147206566619
      ],
      [
        "▁hymn",
        -11.487693079876333
      ],
      [
        "▁nest",
        -9.915997315107292
      ],
      [
        "▁conference",
        -9.012896575057681
      ],
      [
        "celer",
        -13.141764755387973
      ],
      [
        "▁recording",
        -10.239156214707638
      ],
      [
        "▁papa",
        -10.948644055570156
      ],
      [
        "▁magnet",
        -11.536439306939917
      ],
      [
        "▁labyrinth",
        -11.687691665213203
      ],
      [
        "grew",
        -9.518301236184323
      ],
      [
        "▁arth",
        -12.281824533824846
      ],
      [
        "▁prototype",
        -11.321037162941552
      ],
      [
        "583",
        -14.127899028574245
      ],
      [
        "▁chunk",
        -11.687928885689912
      ],
      [
        "▁insane",
        -11.69142783734624
      ],
      [
        "▁reek",
        -12.773477433086398
      ],
      [
        "▁tonne",
        -11.949530140629243
      ],
      [
        "story/chornobyl/",
        -12.771024918840544
      ],
      [
        ".html",
        -9.469616633204405
      ],
      [
        "▁08",
        -11.701778809336425
      ],
      [
        "▁clothes",
        -8.81922442031286
      ],
      [
        "-up",
        -10.75545244106753
      ],
      [
        "etting",
        -12.379473535097336
      ],
      [
        "▁anna",
        -11.079328088412133
      ],
      [
        "▁philippine",
        -10.452796001064428
      ],
      [
        "▁sunday",
        -7.9817316274073145
      ],
      [
        "6",
        -8.138127856803997
      ],
      [
        "oxon",
        -12.01575774882157
      ],
      [
        "▁friction",
        -11.938173178855374
      ],
      [
        "ving",
        -11.400132737932973
      ],
      [
        "▁investor",
        -11.055235017145241
      ],
      [
        "card",
        -11.149247033576918
      ],
      [
        "ailin",
        -11.488741686447055
      ],
      [
        "▁essential",
        -9.447517446139287
      ],
      [
        "▁curse",
        -10.897483312941375
      ],
      [
        "35",
        -11.398557063167647
      ],
      [
        ".taiwan",
        -12.771024920689113
      ],
      [
        "▁03:5",
        -12.716987644101394
      ],
      [
        "▁accumulate",
        -11.106257029692973
      ],
      [
        "▁debt",
        -10.390498102376183
      ],
      [
        "▁anti-",
        -10.51997319038674
      ],
      [
        "▁cook",
        -8.626932504004559
      ],
      [
        "ritten",
        -8.924135519096495
      ],
      [
        "buy",
        -11.461724757049586
      ],
      [
        "ty-",
        -14.613439696182796
      ],
      [
        "▁url",
        -13.723468021344447
      ],
      [
        "▁numbing",
        -12.865357518490036
      ],
      [
        "▁health",
        -8.286170198541065
      ],
      [
        "▁cape",
        -10.70474754093218
      ],
      [
        "_",
        -7.754997245263987
      ],
      [
        "▁farm",
        -9.442345292246475
      ],
      [
        "▁per",
        -7.829999112380185
      ],
      [
        "▁begu",
        -10.13988254749506
      ],
      [
        "▁era",
        -10.297087632556684
      ],
      [
        "nz",
        -11.370958843495167
      ],
      [
        "▁inste",
        -13.714236646597918
      ],
      [
        "pos",
        -10.531974967040128
      ],
      [
        "▁flatten",
        -12.272012858308942
      ],
      [
        "▁door",
        -8.056185438639002
      ],
      [
        "der",
        -9.911072845102526
      ],
      [
        "bread",
        -11.903363160058047
      ],
      [
        "▁sno",
        -13.679878897952639
      ],
      [
        "gourmet",
        -12.771029467533545
      ],
      [
        "▁commitment",
        -10.037093909622852
      ],
      [
        "▁public",
        -7.917158735049806
      ],
      [
        "▁aquariu",
        -11.19399831043321
      ],
      [
        "▁6,",
        -14.13778527497731
      ],
      [
        "▁mont",
        -11.406343531014489
      ],
      [
        "▁+4",
        -13.201922390698039
      ],
      [
        "▁pigme",
        -12.936761513232673
      ],
      [
        "▁peek",
        -10.945523946047986
      ],
      [
        "_",
        -4.842285251919584
      ],
      [
        "▁estimate",
        -9.119225003796716
      ],
      [
        "tel",
        -12.258190552242459
      ],
      [
        "▁4g",
        -12.775474884849523
      ],
      [
        "▁domini",
        -11.906287142242167
      ],
      [
        "▁relay",
        -12.779048086761374
      ],
      [
        "▁never",
        -7.301015815716045
      ],
      [
        "▁naji",
        -12.771330786912351
      ],
      [
        "usi",
        -10.751881598698503
      ],
      [
        "▁fake",
        -10.591363790427025
      ],
      [
        "rel",
        -12.394289109067811
      ],
      [
        "▁romance",
        -10.785347515494488
      ],
      [
        "▁tablet",
        -10.725285765951277
      ],
      [
        "▁appreciate",
        -9.376076803303292
      ],
      [
        "rbi",
        -13.032216881300702
      ],
      [
        "▁button",
        -8.574251669433048
      ],
      [
        "▁reflect",
        -9.090519938099138
      ],
      [
        "▁releas",
        -11.282406540998853
      ],
      [
        "▁onl",
        -7.077513409740566
      ],
      [
        "▁1-8",
        -14.246827685336344
      ],
      [
        "..........",
        -12.171017982803667
      ],
      [
        "ρ",
        -11.937691585507205
      ],
      [
        "ebay.co.uk/itm/",
        -12.271024918880405
      ],
      [
        "▁male",
        -9.339202156147657
      ],
      [
        "answer",
        -13.732953309130888
      ],
      [
        "▁rasp",
        -12.27234299926566
      ],
      [
        "▁assassin",
        -10.748957531668907
      ],
      [
        "think",
        -13.692411686323432
      ],
      [
        "▁highlight",
        -10.081733250829163
      ],
      [
        "▁nylon",
        -11.181240395143025
      ],
      [
        "▁02:2",
        -13.25195685742674
      ],
      [
        "▁09/",
        -14.713481892351869
      ],
      [
        "▁bumblebee",
        -11.937716886588124
      ],
      [
        "▁clamp",
        -12.772058853082644
      ],
      [
        "▁instill",
        -12.774438570699594
      ],
      [
        "▁speed",
        -9.560385465828816
      ],
      [
        "▁wakan",
        -11.833833698293466
      ],
      [
        "-fluorescent-",
        -12.7713217400955
      ],
      [
        "▁road",
        -8.47988077189402
      ],
      [
        "val",
        -10.471206202784089
      ],
      [
        "her",
        -11.4290825785431
      ],
      [
        "▁sorcer",
        -12.771070291744662
      ],
      [
        "▁acqui",
        -13.715209706009738
      ],
      [
        "▁chef",
        -10.591500768673246
      ],
      [
        "cov",
        -12.745332308759972
      ],
      [
        "▁arrange",
        -9.937049533033525
      ],
      [
        "▁169",
        -11.526929689379745
      ],
      [
        "▁table",
        -8.215776044926598
      ],
      [
        "quarter",
        -10.712550791459943
      ],
      [
        "ini",
        -11.5849967716095
      ],
      [
        "▁foli",
        -11.94610621257828
      ],
      [
        "▁buddhist",
        -11.054056805157146
      ],
      [
        "▁friendship",
        -10.39220763834918
      ],
      [
        "▁geographic",
        -11.481870317024473
      ],
      [
        "flie",
        -13.403757295704608
      ],
      [
        "▁gras",
        -12.236484552902896
      ],
      [
        "▁whip",
        -11.935082940191617
      ],
      [
        "defens",
        -12.236025890562015
      ],
      [
        "▁info@",
        -12.272050979293091
      ],
      [
        "▁griss",
        -12.85821744006137
      ],
      [
        "shoe",
        -12.941340341393405
      ],
      [
        "ama",
        -10.201356738949254
      ],
      [
        "▁fundamentalist",
        -11.179737219308377
      ],
      [
        "▁yrs",
        -12.198608459997716
      ],
      [
        "▁undergo",
        -11.69133019572521
      ],
      [
        "▁sifte",
        -12.271203058335592
      ],
      [
        "ping",
        -10.816402020998954
      ],
      [
        "2.7",
        -13.14138521051941
      ],
      [
        "▁reminisce",
        -12.771026898514904
      ],
      [
        "eve",
        -10.31123112989284
      ],
      [
        "▁leaf",
        -10.591624354398357
      ],
      [
        "berger",
        -11.582549264689094
      ],
      [
        "▁warp",
        -11.665891491435389
      ],
      [
        "▁retiree",
        -13.207852906013986
      ],
      [
        "▁convey",
        -11.053263785634819
      ],
      [
        "▁unchange",
        -11.937974868559905
      ],
      [
        "▁1996",
        -11.896248210198108
      ],
      [
        "▁flap",
        -11.319422901577074
      ],
      [
        "▁iron",
        -10.079219279645294
      ],
      [
        "▁eco",
        -10.33190238586662
      ],
      [
        "▁verbal",
        -12.338296817010997
      ],
      [
        "▁motivat",
        -12.821829159889893
      ],
      [
        "▁flutter",
        -12.27123941589335
      ],
      [
        "▁best",
        -7.223060004849218
      ],
      [
        "▁recessi",
        -13.090892186935625
      ],
      [
        "▁catacomb",
        -12.77102723379327
      ],
      [
        "▁about",
        -7.5400692306283545
      ],
      [
        "▁stamp",
        -11.290233991023403
      ],
      [
        "▁preach",
        -11.684809211027401
      ],
      [
        "▁sentiment",
        -11.318480174030334
      ],
      [
        "▁surge",
        -11.004332651504413
      ],
      [
        "▁communication",
        -9.469641113299977
      ],
      [
        "▁predator",
        -10.22329343377993
      ],
      [
        "▁horizontal",
        -11.178206730307416
      ],
      [
        "▁drown",
        -11.178265620760431
      ],
      [
        "▁modulate",
        -12.771053805484955
      ],
      [
        "▁procreati",
        -12.771088219210426
      ],
      [
        "▁calculat",
        -11.451736822159807
      ],
      [
        "▁quixot",
        -10.75114822453951
      ],
      [
        "▁convenient",
        -10.331472594877983
      ],
      [
        "hin",
        -10.374880887447764
      ],
      [
        "ity",
        -7.057959802844108
      ],
      [
        "▁cou",
        -10.858686679206002
      ],
      [
        "▁relativ",
        -12.597671249284106
      ],
      [
        "▁visualiz",
        -12.90538209968927
      ],
      [
        "▁kam",
        -11.998371256610428
      ],
      [
        "@h",
        -12.429555186948205
      ],
      [
        "▁swamp",
        -12.771637073526023
      ],
      [
        "▁a",
        -6.838605070155223
      ],
      [
        "ullen",
        -12.757064626343753
      ],
      [
        "▁house-el",
        -12.27183736879898
      ],
      [
        "▁me",
        -11.596167386121415
      ],
      [
        "/pdf/",
        -12.271143049273087
      ],
      [
        "▁outsider",
        -11.773954324442048
      ],
      [
        "affect",
        -12.73328259872895
      ],
      [
        "▁mon",
        -12.772607019781637
      ],
      [
        "▁michi",
        -10.331973516094214
      ],
      [
        "▁pun",
        -11.482953383746917
      ],
      [
        "strathmann",
        -12.271029988597334
      ],
      [
        "▁domesticat",
        -12.80343267892535
      ],
      [
        "▁hoist",
        -12.27904196782997
      ],
      [
        "▁gib",
        -11.699384346228586
      ],
      [
        "▁berdyc",
        -12.77102796852564
      ],
      [
        "▁sw",
        -10.329407870763276
      ],
      [
        "▁your",
        -5.91319889996456
      ],
      [
        ";",
        -12.303437246021387
      ],
      [
        "neil",
        -10.34150281991403
      ],
      [
        "▁dpr",
        -11.937810941081308
      ],
      [
        "▁fragment",
        -11.487691765106138
      ],
      [
        "▁twentieth",
        -9.955135804078997
      ],
      [
        "▁cease",
        -10.942265751874505
      ],
      [
        "▁disposa",
        -13.416928822309105
      ],
      [
        "▁punctuat",
        -12.886910097997045
      ],
      [
        "▁picannin",
        -12.771024927615905
      ],
      [
        "▁intuitive",
        -11.937769607590656
      ],
      [
        "▁inces",
        -12.891493516725221
      ],
      [
        "▁detaine",
        -12.164690452277041
      ],
      [
        "rack",
        -11.915475132069552
      ],
      [
        "▁soviet",
        -10.454243286789682
      ],
      [
        "ar",
        -8.773420338324083
      ],
      [
        "▁retail",
        -10.601441459406223
      ],
      [
        "▁jai",
        -10.730833623188724
      ],
      [
        "igh",
        -12.634214216105145
      ],
      [
        "▁technological",
        -10.39040513937008
      ],
      [
        "▁settle",
        -9.74106380241893
      ],
      [
        "araf",
        -11.207066981483427
      ],
      [
        "▁cater",
        -11.108907271251658
      ],
      [
        "▁coloni",
        -12.895521981645295
      ],
      [
        "thr",
        -11.182826915678534
      ],
      [
        "5-4",
        -14.479836965446822
      ],
      [
        "古",
        -12.833785825435129
      ],
      [
        "▁stump",
        -11.93772783206547
      ],
      [
        "hagi",
        -12.778429411233756
      ],
      [
        "aine",
        -10.528294195106865
      ],
      [
        "akes",
        -11.576361492430832
      ],
      [
        "▁complic",
        -12.267747171727525
      ],
      [
        "▁gambl",
        -10.944756952700537
      ],
      [
        "report",
        -13.636796343226436
      ],
      [
        "▁represent",
        -9.123694135965433
      ],
      [
        "▁pest",
        -11.170360349974434
      ],
      [
        "▁imagination",
        -10.5198336268014
      ],
      [
        "▁pair",
        -9.496403805460224
      ],
      [
        "ima",
        -12.423827845441572
      ],
      [
        "_",
        -4.782693395996079
      ],
      [
        "mutation",
        -10.334861396008304
      ],
      [
        "▁stubborn",
        -11.937711530071372
      ],
      [
        "▁attachment",
        -10.39105226949276
      ],
      [
        "acture",
        -11.957018755348962
      ],
      [
        "shaft",
        -12.219284024603157
      ],
      [
        "ullah",
        -11.403905238677256
      ],
      [
        "▁quill",
        -12.771836879191213
      ],
      [
        "corporate",
        -9.994227788863581
      ],
      [
        "▁calv",
        -13.662304215692407
      ],
      [
        "▁nut",
        -10.223915626804832
      ],
      [
        "lic",
        -11.564883093432266
      ],
      [
        "ko",
        -10.363588896815672
      ],
      [
        "▁mid-",
        -10.015106778133108
      ],
      [
        "▁fulfill",
        -10.75263689424613
      ],
      [
        "▁exterminat",
        -11.937743949133928
      ],
      [
        "role",
        -12.00074639738821
      ],
      [
        "lower",
        -12.342277708769133
      ],
      [
        "rishi",
        -12.775053513315532
      ],
      [
        "▁accommodate",
        -11.085595847861581
      ],
      [
        "▁demonstrat",
        -11.933315413163292
      ],
      [
        "▁short",
        -8.096853213219392
      ],
      [
        "▁grille",
        -11.986619890737353
      ],
      [
        "to-",
        -13.328866204295963
      ],
      [
        "▁bargain",
        -12.771097138560453
      ],
      [
        "/13/200",
        -12.943764559729503
      ],
      [
        "▁fat",
        -9.37070308933421
      ],
      [
        "ell",
        -11.871927484342326
      ],
      [
        "▁dilat",
        -13.047624160956277
      ],
      [
        "▁usi",
        -10.434073353173611
      ],
      [
        "en",
        -9.930597159475044
      ],
      [
        "▁painter",
        -11.523539840594989
      ],
      [
        "ostrom",
        -13.195992049686168
      ],
      [
        "▁cowboy",
        -9.71254067764961
      ],
      [
        "-ro",
        -12.959529662510288
      ],
      [
        "ared",
        -13.675294786071639
      ],
      [
        "▁indifferen",
        -11.54720245804573
      ],
      [
        "du",
        -14.463914734342401
      ],
      [
        "1-9",
        -13.133680507267583
      ],
      [
        "▁indonesian",
        -11.49738281446357
      ],
      [
        "-in",
        -11.62477305577537
      ],
      [
        "▁th-",
        -10.33390949673437
      ],
      [
        "▁wang",
        -11.402095146962688
      ],
      [
        "obstruct",
        -12.770999188081323
      ],
      [
        "ors",
        -9.965924980938311
      ],
      [
        "▁delegation",
        -12.271025275124964
      ],
      [
        "▁node",
        -11.383884607711991
      ],
      [
        "iotic",
        -11.443207426033178
      ],
      [
        "▁beef",
        -10.845434806938833
      ],
      [
        "ressed",
        -12.410557851740423
      ],
      [
        "▁aches",
        -13.027057849132065
      ],
      [
        "▁cut",
        -7.915109882909753
      ],
      [
        "▁h",
        -11.05111200066364
      ],
      [
        "▁condition",
        -8.72217526342849
      ],
      [
        "▁useful",
        -9.752026017065837
      ],
      [
        "shima",
        -10.393352148206949
      ],
      [
        "tta",
        -12.271023801024796
      ],
      [
        "▁gumm",
        -13.312068538808344
      ],
      [
        "▁small",
        -7.449204461528797
      ],
      [
        "▁avenue",
        -10.331643767500486
      ],
      [
        "▁hopeless",
        -11.060132247986067
      ],
      [
        "▁fit",
        -8.652313474936491
      ],
      [
        "▁section",
        -8.938543326822266
      ],
      [
        "▁tiger",
        -9.214547810918342
      ],
      [
        "rising",
        -10.022481125838052
      ],
      [
        "test",
        -11.377810942642606
      ],
      [
        "▁puebl",
        -12.271194278720662
      ],
      [
        "3",
        -10.442274137965578
      ],
      [
        "120",
        -14.38482441165698
      ],
      [
        "▁281-51",
        -14.136807499320867
      ],
      [
        "▁blink",
        -10.12580018960677
      ],
      [
        "▁definition",
        -9.880440606689682
      ],
      [
        "▁202.456.1",
        -12.340123241055275
      ],
      [
        "▁squire",
        -12.305720986815057
      ],
      [
        "▁institution",
        -9.301006867606564
      ],
      [
        "llery",
        -11.329201728248002
      ],
      [
        "▁fra",
        -12.492985568285592
      ],
      [
        "▁conquistador",
        -12.771024918840567
      ],
      [
        "▁protect",
        -8.869053020338168
      ],
      [
        "▁tragic",
        -11.053173151640726
      ],
      [
        "▁principal",
        -10.752001548010409
      ],
      [
        "748",
        -13.395315422654793
      ],
      [
        "3.9",
        -15.105236235809905
      ],
      [
        "▁vowel",
        -12.272161262668185
      ],
      [
        "▁creak",
        -12.273074131202156
      ],
      [
        "▁sweater",
        -10.126758290574536
      ],
      [
        "-see",
        -12.775024681319431
      ],
      [
        "▁crazie",
        -13.694314544563515
      ],
      [
        "▁973-",
        -13.136809148661035
      ],
      [
        "▁requirement",
        -9.14305148077176
      ],
      [
        "▁fanatic",
        -11.687933176017363
      ],
      [
        "asser",
        -11.944965733385814
      ],
      [
        "▁345-",
        -11.796213981224737
      ],
      [
        "▁buffet",
        -11.687857876636821
      ],
      [
        "▁vote",
        -8.63000697400393
      ],
      [
        "1918",
        -11.546116586931637
      ],
      [
        "9/11/",
        -14.264817947757411
      ],
      [
        "▁visual",
        -10.029317816851844
      ],
      [
        "▁dispute",
        -10.598377294928401
      ],
      [
        "478",
        -12.69529157028718
      ],
      [
        "2b",
        -12.722114938503934
      ],
      [
        "▁organize",
        -10.271356255876885
      ],
      [
        "▁resist",
        -10.331895029695836
      ],
      [
        "▁inter",
        -9.813585210963854
      ],
      [
        "▁branch",
        -10.760065838268059
      ],
      [
        "▁unfold",
        -11.487752359147594
      ],
      [
        "▁03/0",
        -11.442809681049695
      ],
      [
        "thal",
        -12.707847723102237
      ],
      [
        "▁marble",
        -9.776097398920275
      ],
      [
        "▁outline",
        -11.094199732288324
      ],
      [
        "▁stake",
        -11.696045722734514
      ],
      [
        "▁protein",
        -11.178271129656723
      ],
      [
        "uel",
        -10.584849839083612
      ],
      [
        "▁bust",
        -10.966586849770037
      ],
      [
        "(",
        -11.484595839537269
      ],
      [
        "w",
        -7.371528495809018
      ],
      [
        "%20",
        -12.27103677212858
      ],
      [
        "yours",
        -13.835769279562863
      ],
      [
        "▁detach",
        -12.27113876580619
      ],
      [
        "ov",
        -11.386597512417616
      ],
      [
        "tamus",
        -11.067495060400281
      ],
      [
        "▁26",
        -10.232134791583128
      ],
      [
        "▁influ",
        -11.938938453649344
      ],
      [
        "▁bien",
        -11.941454854745315
      ],
      [
        "eologis",
        -11.196736447100312
      ],
      [
        "▁measure",
        -8.782334261408318
      ],
      [
        "▁camel",
        -9.241829342069892
      ],
      [
        "aged",
        -12.095787045695664
      ],
      [
        "▁swo",
        -12.77159045121725
      ],
      [
        "▁saluta",
        -12.771430908616686
      ],
      [
        "go",
        -10.366859053500345
      ],
      [
        "budgie",
        -13.732286747938883
      ],
      [
        "▁famous",
        -9.519013391851388
      ],
      [
        "tification",
        -12.992063436077832
      ],
      [
        "▁email",
        -8.410701259766437
      ],
      [
        "▁tho",
        -8.708963387563907
      ],
      [
        "▁minded",
        -11.795064450152305
      ],
      [
        "▁detect",
        -10.84090129479852
      ],
      [
        "▁44",
        -11.794641251323517
      ],
      [
        "▁pow",
        -10.108923181324396
      ],
      [
        "▁kumar",
        -11.325380013445772
      ],
      [
        "apologetic",
        -13.724013038992382
      ],
      [
        "▁authorize",
        -12.012819644150555
      ],
      [
        "▁override",
        -12.271054954778243
      ],
      [
        ".a.b",
        -12.797922531760912
      ],
      [
        "▁candle",
        -10.520324546039081
      ],
      [
        "▁waz",
        -12.323565260662406
      ],
      [
        "▁duster",
        -12.363171464203585
      ],
      [
        "ley",
        -8.741575474937822
      ],
      [
        "▁update",
        -9.410169028233204
      ],
      [
        "words",
        -12.852698047892373
      ],
      [
        "nepco",
        -11.687946515072069
      ],
      [
        "▁caca",
        -12.27240866599375
      ],
      [
        "04/0",
        -14.183241206755312
      ],
      [
        "bath",
        -13.688819554349903
      ],
      [
        "▁prow",
        -12.79157021832205
      ],
      [
        "zio",
        -13.083832436532756
      ],
      [
        "spread",
        -11.014674422163383
      ],
      [
        "▁masj",
        -12.776189029256997
      ],
      [
        "▁lop",
        -13.71766516645053
      ],
      [
        "range",
        -11.833816507855474
      ],
      [
        "▁go",
        -11.944803889857337
      ],
      [
        "▁macadam",
        -12.772636760240355
      ],
      [
        "▁tin",
        -8.749852402155032
      ],
      [
        "▁evident",
        -10.590891473546405
      ],
      [
        "▁nur",
        -12.687062188072488
      ],
      [
        "▁employ",
        -9.289661121090957
      ],
      [
        "terin",
        -13.107445296581336
      ],
      [
        "▁belittl",
        -12.771392373438548
      ],
      [
        "surp",
        -12.830140119120124
      ],
      [
        "-whit",
        -12.789937393297407
      ],
      [
        "▁donkey",
        -9.955069179487964
      ],
      [
        "▁tinker",
        -12.771662669971713
      ],
      [
        "▁202-",
        -14.080987957304744
      ],
      [
        "culin",
        -12.221459737473795
      ],
      [
        "▁103",
        -13.542774831643694
      ],
      [
        "▁speech",
        -9.776037855607965
      ],
      [
        "▁talk",
        -7.099190004662044
      ],
      [
        "azi",
        -10.947020495906168
      ],
      [
        "▁hous",
        -9.97435488088803
      ],
      [
        "/chernobyl.htm",
        -11.698893297341616
      ],
      [
        "bus",
        -11.536865279544383
      ],
      [
        "▁ecs",
        -11.39393541148208
      ],
      [
        "▁synch",
        -13.314964216658092
      ],
      [
        "▁wha",
        -12.199710594564875
      ],
      [
        "▁beat",
        -9.520165746024643
      ],
      [
        "▁burning",
        -10.915436014860934
      ],
      [
        "ison",
        -10.526677725204083
      ],
      [
        "▁espeak",
        -11.937822143410786
      ],
      [
        "▁give",
        -6.618310073129168
      ],
      [
        "neck",
        -11.90396546411248
      ],
      [
        "writer",
        -11.649731397589134
      ],
      [
        "▁ringle",
        -12.496328712759311
      ],
      [
        "▁killi",
        -12.806724295985006
      ],
      [
        "▁bleach",
        -11.488204870121436
      ],
      [
        "with",
        -7.833760072330719
      ],
      [
        "13",
        -11.93768414224117
      ],
      [
        "▁aristocra",
        -12.088284421253352
      ],
      [
        "▁hostilit",
        -12.896944486156645
      ],
      [
        "▁better",
        -7.49854507172318
      ],
      [
        "de",
        -9.369169666168604
      ],
      [
        "▁minute",
        -7.780048279123015
      ],
      [
        "▁geometr",
        -10.84077619320835
      ],
      [
        "dec",
        -11.668569078427542
      ],
      [
        "▁song",
        -8.914746169895924
      ],
      [
        "▁cola",
        -11.909322635997967
      ],
      [
        "mile",
        -13.636090134448027
      ],
      [
        "tman",
        -13.63943311131088
      ],
      [
        "▁fresh",
        -8.937964082210542
      ],
      [
        "▁southwar",
        -11.961732715934717
      ],
      [
        "▁fu",
        -11.38044149697803
      ],
      [
        "▁abilit",
        -9.323988749918257
      ],
      [
        "▁du",
        -10.433267498874661
      ],
      [
        "anastacio",
        -12.771024919062942
      ],
      [
        "▁puzzl",
        -13.687764934008936
      ],
      [
        "grown",
        -12.802817133517081
      ],
      [
        "pack",
        -13.637662745508457
      ],
      [
        "▁financ",
        -11.067496548558394
      ],
      [
        "▁brains",
        -11.749773771013869
      ],
      [
        "▁fortunate",
        -11.053167891264005
      ],
      [
        "▁proper",
        -8.905014415716147
      ],
      [
        "collapsible",
        -12.772132117611662
      ],
      [
        "▁flow",
        -9.44331739145428
      ],
      [
        "▁159",
        -10.436268207533201
      ],
      [
        "▁76",
        -11.534173471198562
      ],
      [
        "▁resort",
        -10.452807658312619
      ],
      [
        "▁muk",
        -12.332228911751542
      ],
      [
        "▁bacteri",
        -12.273579233289373
      ],
      [
        "▁leav",
        -7.279293475313952
      ],
      [
        "9/11",
        -11.116867274471282
      ],
      [
        "ski",
        -12.042231313241379
      ],
      [
        "fide",
        -12.323696889413462
      ],
      [
        "▁trio",
        -12.370893203909109
      ],
      [
        "came",
        -8.754160884161843
      ],
      [
        "▁participati",
        -10.298025960600489
      ],
      [
        "loom",
        -12.803767173169945
      ],
      [
        "uire",
        -11.941827388225299
      ],
      [
        "▁minus",
        -12.276856854849894
      ],
      [
        "▁unprofessional",
        -12.771024918880496
      ],
      [
        "▁bundl",
        -13.536607612874562
      ],
      [
        "▁dime",
        -11.957576285021114
      ],
      [
        "bull",
        -12.744967918278904
      ],
      [
        "▁nepal",
        -12.27178163464923
      ],
      [
        "▁sainte",
        -12.530755743878256
      ],
      [
        "▁acr",
        -11.534372988407824
      ],
      [
        "▁kidd",
        -11.199068929026515
      ],
      [
        "270",
        -11.860042949136494
      ],
      [
        "▁switche",
        -12.025783994062794
      ],
      [
        "sium",
        -12.244137478112991
      ],
      [
        "▁decreas",
        -12.589825858584955
      ],
      [
        "ν",
        -12.771024918880496
      ],
      [
        "▁stabiliz",
        -11.694655182584674
      ],
      [
        "393",
        -11.979993705934664
      ],
      [
        "timid",
        -11.951272965007268
      ],
      [
        "nik",
        -11.391804607005728
      ],
      [
        "▁poach",
        -12.782428868083674
      ],
      [
        "▁example",
        -7.839584063790967
      ],
      [
        "▁beni",
        -13.650873335345914
      ],
      [
        "▁arbitrari",
        -12.343547915873714
      ],
      [
        "▁ran",
        -9.210816034403845
      ],
      [
        "▁startling",
        -11.950399029631459
      ],
      [
        "▁immobil",
        -12.275376327746933
      ],
      [
        "skilled",
        -11.020499533509367
      ],
      [
        "htm",
        -13.561726255925812
      ],
      [
        "▁queens",
        -12.192553982945094
      ],
      [
        "black",
        -13.732818209398967
      ],
      [
        "▁strap",
        -10.450657205956286
      ],
      [
        "▁mainstream",
        -11.05333823021925
      ],
      [
        "possess",
        -13.724959386985207
      ],
      [
        "ites",
        -11.875489969120657
      ],
      [
        "142",
        -13.600140993251276
      ],
      [
        "▁copyright",
        -9.810911484194529
      ],
      [
        "4.",
        -13.372752792048175
      ],
      [
        "▁takeoff",
        -11.495788062184385
      ],
      [
        "▁excite",
        -11.087117067173185
      ],
      [
        "▁vampire",
        -12.771024937093557
      ],
      [
        "respect",
        -13.73365710230267
      ],
      [
        "▁recognise",
        -11.243258555022347
      ],
      [
        "▁152",
        -15.203421698304805
      ],
      [
        "▁o'",
        -12.047994107110753
      ],
      [
        "▁clear",
        -8.073170186317311
      ],
      [
        "▁drag",
        -10.74881816052982
      ],
      [
        "▁sinhal",
        -11.928751469863444
      ],
      [
        "▁circular",
        -11.321034432885536
      ],
      [
        "▁applicant",
        -12.27142462044072
      ],
      [
        "▁torture",
        -11.33655412783875
      ],
      [
        "collie",
        -12.664537503803357
      ],
      [
        "enc",
        -12.091943752111558
      ],
      [
        "other",
        -9.642894568057304
      ],
      [
        "▁forget",
        -9.0915262373823
      ],
      [
        "▁kle",
        -10.752214939004459
      ],
      [
        "▁than",
        -7.291350501791546
      ],
      [
        "▁tidi",
        -11.498023717998581
      ],
      [
        "▁queue",
        -11.321030087698277
      ],
      [
        "03:4",
        -15.341353967809004
      ],
      [
        "▁glacier",
        -11.05316777605769
      ],
      [
        "842",
        -12.352497377056995
      ],
      [
        "ears",
        -12.86926896235265
      ],
      [
        "▁2051",
        -13.376212310261275
      ],
      [
        "▁issue",
        -7.886271882137513
      ],
      [
        "▁chronicle",
        -11.69797992389575
      ],
      [
        ".co.uk",
        -12.701196551312309
      ],
      [
        "▁doggie",
        -8.554505797909908
      ],
      [
        "▁pleasur",
        -12.761127855997895
      ],
      [
        "▁insignia",
        -12.7710253673033
      ],
      [
        "▁organiz",
        -10.752604029419157
      ],
      [
        "▁as",
        -6.878746681766298
      ],
      [
        "valier",
        -11.950567558924728
      ],
      [
        "ˈ",
        -12.771024918880496
      ],
      [
        "s4",
        -12.648375639455985
      ],
      [
        "▁irre",
        -11.456166867617135
      ],
      [
        "▁rur",
        -9.945217993965095
      ],
      [
        "▁shallow",
        -11.692745786668652
      ],
      [
        "▁jani",
        -12.125093846456867
      ],
      [
        "ee",
        -10.720525926017277
      ],
      [
        "doctor",
        -12.735948628473468
      ],
      [
        "▁search",
        -9.148471293524906
      ],
      [
        "▁geologist",
        -12.771334974998808
      ],
      [
        "rable",
        -11.076953573198157
      ],
      [
        "file",
        -11.614510943665314
      ],
      [
        "▁cross-",
        -10.844523745951614
      ],
      [
        "▁greete",
        -11.183641196559911
      ],
      [
        "eath",
        -11.715181701680768
      ],
      [
        "▁misfortune",
        -11.937691585578253
      ],
      [
        "158",
        -13.40478322388883
      ],
      [
        "▁doughnut",
        -9.843857727972075
      ],
      [
        "▁olymp",
        -11.907839523207723
      ],
      [
        "story",
        -12.553756619420133
      ],
      [
        "▁25.",
        -14.400507833653691
      ],
      [
        "-2",
        -11.920185692866024
      ],
      [
        "▁innovat",
        -12.769385383217159
      ],
      [
        "y-",
        -11.72574594371585
      ],
      [
        "bush",
        -11.90732940915664
      ],
      [
        "can",
        -12.123914938482908
      ],
      [
        "▁expansi",
        -10.426450326561511
      ],
      [
        "▁mustache",
        -12.785724720635823
      ],
      [
        "▁colo",
        -13.108232352072674
      ],
      [
        "▁chief",
        -9.624244865009523
      ],
      [
        "▁size",
        -8.918589670549286
      ],
      [
        "▁perch",
        -12.907579538980421
      ],
      [
        "▁gu",
        -11.83470245911374
      ],
      [
        "▁tele",
        -11.973608943513758
      ],
      [
        "▁islamist",
        -10.082448690286071
      ],
      [
        "▁octo",
        -9.051896506150467
      ],
      [
        "▁consol",
        -11.694583088890408
      ],
      [
        "▁sub-",
        -11.493107667895401
      ],
      [
        "▁01/2",
        -13.142620214681031
      ],
      [
        "▁str",
        -11.212083249767653
      ],
      [
        "▁shove",
        -11.48496613199536
      ],
      [
        "ounding",
        -11.719453571346282
      ],
      [
        "▁regrett",
        -12.01549957172718
      ],
      [
        "▁outbreak",
        -11.178268832803301
      ],
      [
        "▁apri",
        -8.421788720034796
      ],
      [
        "▁dissipate",
        -13.06569578497374
      ],
      [
        "▁modifi",
        -10.842079575593628
      ],
      [
        "▁new",
        -6.053669821779728
      ],
      [
        "▁plai",
        -13.4919563214513
      ],
      [
        "▁stewardess",
        -12.771211428181303
      ],
      [
        "▁fran",
        -11.978432206694835
      ],
      [
        "4-3",
        -14.138263700674802
      ],
      [
        "igh",
        -11.333586498143701
      ],
      [
        "toga",
        -11.878409773055017
      ],
      [
        "uf",
        -12.357263906685734
      ],
      [
        "▁encompass",
        -11.178167784239367
      ],
      [
        "hoe",
        -11.39528768767005
      ],
      [
        "▁kick",
        -9.59653547312439
      ],
      [
        "immigration",
        -10.223339810256252
      ],
      [
        "▁overall",
        -9.142117926059184
      ],
      [
        "▁marlow",
        -11.178303420946698
      ],
      [
        "▁preservati",
        -12.55683981132793
      ],
      [
        "·",
        -9.904817571414563
      ],
      [
        "▁mik",
        -11.681448669748123
      ],
      [
        "▁busie",
        -12.81529725317094
      ],
      [
        "▁polar",
        -10.83609436375513
      ],
      [
        "▁myco",
        -12.784887133564498
      ],
      [
        "▁fri",
        -10.867380465781142
      ],
      [
        "ella",
        -10.560460439387477
      ],
      [
        "▁philipin",
        -12.785571483922672
      ],
      [
        "▁pointe",
        -12.627479262789542
      ],
      [
        "▁agricultural",
        -10.334675271356804
      ],
      [
        "r",
        -6.3325037918759675
      ],
      [
        "▁house",
        -7.161816314794686
      ],
      [
        "▁continent",
        -8.437434959838772
      ],
      [
        "me",
        -10.64188401911555
      ],
      [
        "race",
        -11.750169983303135
      ],
      [
        "pose",
        -13.725752714191401
      ],
      [
        "21",
        -12.76704871477578
      ],
      [
        "▁metro",
        -10.16705500821707
      ],
      [
        "▁06",
        -14.83179025567944
      ],
      [
        "20",
        -12.763839703968557
      ],
      [
        "▁bout",
        -11.333496370193409
      ],
      [
        "▁fo",
        -12.838710837665342
      ],
      [
        "shakes",
        -12.814335894205612
      ],
      [
        "wield",
        -13.731453611871437
      ],
      [
        "▁yoshi",
        -12.771090783141753
      ],
      [
        "▁all-",
        -13.443267750911396
      ],
      [
        "▁drool",
        -12.271158044491903
      ],
      [
        "odder",
        -12.667298197765238
      ],
      [
        "350",
        -12.885860862238697
      ],
      [
        "▁contend",
        -12.276892362420034
      ],
      [
        "▁1.1",
        -12.839654478651052
      ],
      [
        "▁over",
        -7.215890673759658
      ],
      [
        "▁examination",
        -10.845698452198127
      ],
      [
        "▁option",
        -8.629324760603573
      ],
      [
        "▁progressive",
        -11.181254013478304
      ],
      [
        "▁nip",
        -12.757982075488112
      ],
      [
        "dding",
        -13.192298373781627
      ],
      [
        "▁singular",
        -12.271289400740462
      ],
      [
        "ographic",
        -12.494828020116042
      ],
      [
        "▁document",
        -8.49788146092613
      ],
      [
        "ans",
        -11.365661282671361
      ],
      [
        "▁cove",
        -12.881069854713317
      ],
      [
        "vocal",
        -13.732829701306471
      ],
      [
        "▁leg",
        -8.567505592193633
      ],
      [
        "▁fluent",
        -12.012584663685397
      ],
      [
        "andi",
        -12.83477122878123
      ],
      [
        "minica",
        -12.810202880608397
      ],
      [
        "▁propose",
        -9.069591722304178
      ],
      [
        "775",
        -14.140826648569249
      ],
      [
        "▁inversion",
        -11.938795447595034
      ],
      [
        "▁theatre",
        -9.958066270857966
      ],
      [
        "▁retriev",
        -12.08258347761641
      ],
      [
        "▁occasion",
        -9.856827879613164
      ],
      [
        "▁bronz",
        -10.842072258946242
      ],
      [
        "-1.",
        -11.02071138088458
      ],
      [
        "▁subsidiar",
        -11.692738520213434
      ],
      [
        "ego",
        -9.380097919460528
      ],
      [
        "▁01:09",
        -13.137174343487052
      ],
      [
        "▁cardinal",
        -11.17818384991023
      ],
      [
        "ect",
        -11.733665998967979
      ],
      [
        "▁rubb",
        -11.01367726243986
      ],
      [
        "▁chance",
        -8.883166955776305
      ],
      [
        "598",
        -13.839166517124484
      ],
      [
        "▁alternative",
        -9.421055049368544
      ],
      [
        "▁martin",
        -10.275010618248425
      ],
      [
        "1.5",
        -12.304039930639782
      ],
      [
        "frey",
        -11.940868219288488
      ],
      [
        "▁liber",
        -11.284585949186184
      ],
      [
        "▁clog",
        -11.941419510741246
      ],
      [
        "▁exclusi",
        -11.94313442292355
      ],
      [
        "bre",
        -13.17297113686798
      ],
      [
        "▁stipe",
        -12.27126864047899
      ],
      [
        "▁aisle",
        -11.05326821176221
      ],
      [
        "▁indonesia",
        -10.746536370820472
      ],
      [
        "▁repetiti",
        -11.321036753648421
      ],
      [
        "▁da",
        -9.249071758621959
      ],
      [
        "ative",
        -10.362021985715007
      ],
      [
        "ometer",
        -12.79457972316609
      ],
      [
        "▁brit",
        -9.245496886245157
      ],
      [
        "jones",
        -12.232164752869929
      ],
      [
        "strong",
        -12.732553187341392
      ],
      [
        "▁decorat",
        -13.031813316054093
      ],
      [
        "@i",
        -12.847052754394966
      ],
      [
        "yankee",
        -12.72882944356301
      ],
      [
        "hhhhhh",
        -12.77102493357064
      ],
      [
        "ern",
        -9.13268833190529
      ],
      [
        "▁pigeon",
        -11.937890298506858
      ],
      [
        "49",
        -12.046337643457095
      ],
      [
        "▁gender",
        -9.809392584184158
      ],
      [
        "ipod",
        -12.017611250252934
      ],
      [
        "beresford",
        -12.271055403530955
      ],
      [
        "▁len",
        -11.205245835148578
      ],
      [
        "ho",
        -11.46116058329199
      ],
      [
        "▁ouste",
        -13.157300119634808
      ],
      [
        "▁squir",
        -13.618989898446006
      ],
      [
        "/23/200",
        -12.34064088726252
      ],
      [
        "daro",
        -12.83364613195101
      ],
      [
        "▁chemical",
        -9.627987921184976
      ],
      [
        "▁mind",
        -8.179453489203954
      ],
      [
        "▁phantom",
        -11.687692018422801
      ],
      [
        "▁asymmetric",
        -11.178169320623745
      ],
      [
        "▁sali",
        -11.879832592600234
      ],
      [
        "▁thanks",
        -7.759802748881231
      ],
      [
        "▁sovereign",
        -10.519462601230423
      ],
      [
        "▁metaphysic",
        -12.271151718830321
      ],
      [
        "▁explicit",
        -11.32102529291751
      ],
      [
        "▁emerge",
        -10.901096899457578
      ],
      [
        "▁bush",
        -7.689224225547353
      ],
      [
        "▁probabilit",
        -11.487830084542786
      ],
      [
        "▁flam",
        -12.753857892342525
      ],
      [
        "oatme",
        -10.749239563514742
      ],
      [
        "chum",
        -12.454660297130014
      ],
      [
        "▁transnational",
        -12.271047884474829
      ],
      [
        "▁22",
        -10.168178807948134
      ],
      [
        "▁sealing",
        -12.480149449798143
      ],
      [
        "▁violate",
        -12.85446095933439
      ],
      [
        "▁introduce",
        -9.536927535545741
      ],
      [
        "▁km",
        -10.95361056434702
      ],
      [
        "ex",
        -9.281783810318018
      ],
      [
        "▁gorse",
        -12.782937503996907
      ],
      [
        "▁mann",
        -10.419239949141907
      ],
      [
        "▁!!!!",
        -9.884799963893974
      ],
      [
        "▁30,",
        -14.133461492039805
      ],
      [
        "cruising",
        -12.771089664523274
      ],
      [
        "▁jia",
        -13.154101649821424
      ],
      [
        "▁overthro",
        -12.523680825786776
      ],
      [
        "9",
        -11.466649511569717
      ],
      [
        "▁++++",
        -13.721107324527646
      ],
      [
        "sullivan",
        -11.687691588318703
      ],
      [
        "▁rath",
        -8.556708560923367
      ],
      [
        "▁constellat",
        -12.771187704342543
      ],
      [
        "▁format",
        -9.308072519324202
      ],
      [
        "rational",
        -12.924680474753595
      ],
      [
        "▁damag",
        -11.778185134132922
      ],
      [
        "▁succumb",
        -12.271025674739981
      ],
      [
        "niz",
        -12.977710360079456
      ],
      [
        "646-",
        -10.793300965609518
      ],
      [
        "g",
        -6.298432668733279
      ],
      [
        "▁#",
        -13.65519821920551
      ],
      [
        "hich",
        -14.237104677914536
      ],
      [
        "77",
        -12.614120500178377
      ],
      [
        "▁stole",
        -10.52687195354179
      ],
      [
        "wa",
        -9.327411686636298
      ],
      [
        "vo",
        -10.761637091185175
      ],
      [
        "198",
        -12.614044660337438
      ],
      [
        "▁still",
        -7.083346168706199
      ],
      [
        "ome-",
        -13.253216061512147
      ],
      [
        "ferplast-",
        -12.771024918963969
      ],
      [
        "▁nightmare",
        -11.17818240338509
      ],
      [
        "▁04",
        -11.318655228848783
      ],
      [
        "hiri",
        -9.448859894482338
      ],
      [
        "92",
        -10.519483038575359
      ],
      [
        "▁distinctive",
        -12.271810920036819
      ],
      [
        "93",
        -11.856309454895468
      ],
      [
        "▁word",
        -8.2498730649288
      ],
      [
        "▁ivan",
        -11.687798219301143
      ],
      [
        "▁couch",
        -10.039568503949887
      ],
      [
        "▁rate",
        -8.361940939180613
      ],
      [
        "ove",
        -12.445527802350513
      ],
      [
        "accenture",
        -12.272580733050711
      ],
      [
        "▁mick",
        -12.911868510815472
      ],
      [
        "▁service",
        -7.26350281330444
      ],
      [
        "▁cub",
        -11.347656619638556
      ],
      [
        "med",
        -12.349045699628935
      ],
      [
        "▁f",
        -14.121066608634777
      ],
      [
        "▁figur",
        -12.138182123902865
      ],
      [
        "germany",
        -10.864457814158026
      ],
      [
        "pent",
        -13.154279074643012
      ],
      [
        "ieve",
        -11.954943138706978
      ],
      [
        "▁learn",
        -7.873802318592158
      ],
      [
        "▁poop",
        -10.174095010043805
      ],
      [
        "thograph",
        -12.798782618940262
      ],
      [
        "▁buzzer",
        -11.948141470110784
      ],
      [
        "▁affiliate",
        -11.539098943243445
      ],
      [
        "▁glint",
        -12.77109541440444
      ],
      [
        "▁5",
        -11.392499700155382
      ],
      [
        "▁lotus",
        -12.413045295647455
      ],
      [
        "▁muscle",
        -9.596498581704179
      ],
      [
        "keep",
        -11.954679538723997
      ],
      [
        "▁guitar",
        -11.053169752313465
      ],
      [
        "▁onion",
        -10.24415460085649
      ],
      [
        "▁batt",
        -11.515416873618063
      ],
      [
        "▁beet",
        -11.589947642811346
      ],
      [
        "▁mobil",
        -13.697543034347836
      ],
      [
        "tus-",
        -13.714948421929565
      ],
      [
        "knowledge",
        -13.732319187749498
      ],
      [
        "dden",
        -9.878418758922862
      ],
      [
        "▁loo",
        -10.64824756016133
      ],
      [
        "▁beaver",
        -11.321525325758294
      ],
      [
        "▁lawless",
        -12.291254497492416
      ],
      [
        "▁tract",
        -12.317343440335053
      ],
      [
        "514",
        -14.796244535458388
      ],
      [
        "...@usa.",
        -12.771337000625195
      ],
      [
        "▁steamboat",
        -12.79019068266717
      ],
      [
        "?id=",
        -12.349145944729127
      ],
      [
        "-",
        -7.378524570998245
      ],
      [
        "▁what",
        -5.09320280019549
      ],
      [
        "izzi",
        -13.521075837383849
      ],
      [
        "argument",
        -11.649547414759255
      ],
      [
        "▁154",
        -12.837464354786793
      ],
      [
        "▁shower",
        -9.801393808577973
      ],
      [
        "96",
        -11.613919797726455
      ],
      [
        ".com/photos/",
        -12.771024922965674
      ],
      [
        "▁goddess",
        -12.771252673100332
      ],
      [
        "▁nutriti",
        -12.99781661679533
      ],
      [
        "▁publisher",
        -11.206028702013718
      ],
      [
        "▁22",
        -10.942093549436613
      ],
      [
        "▁conviction",
        -10.668302607855521
      ],
      [
        "20s",
        -11.621636886014507
      ],
      [
        "▁aft",
        -12.836827706927231
      ],
      [
        "01",
        -10.77805322712215
      ],
      [
        "▁pale",
        -10.34940423390073
      ],
      [
[...]
