{
  "version": "1.0",
  "truncation": null,
  "padding": null,
  "added_tokens": [
    {
      "id": 386,
      "content": "[SEP]",
      "single_word": false,
      "lstrip": false,
      "rstrip": false,
      "normalized": false,
      "special": true
    },
    {
      "id": 1584,
      "content": "[CLS]",
      "single_word": false,
      "lstrip": false,
      "rstrip": false,
      "normalized": false,
      "special": true
    },
    {
      "id": 6170,
      "content": "[UNK]",
      "single_word": false,
      "lstrip": false,
      "rstrip": false,
      "normalized": false,
      "special": true
    },
    {
      "id": 6763,
      "content": "[MASK]",
      "single_word": false,
      "lstrip": false,
      "rstrip": false,
      "normalized": false,
      "special": true
    },
    {
      "id": 7101,
      "content": "[PAD]",
      "single_word": false,
      "lstrip": false,
      "rstrip": false,
      "normalized": false,
      "special": true
    }
  ],
  "normalizer": {
    "type": "Sequence",
    "normalizers": [
      {
        "type": "NFD"
      },
      {
        "type": "Lowercase"
      },
      {
        "type": "StripAccents"
      }
    ]
  },
  "pre_tokenizer": {
    "type": "Sequence",
    "pretokenizers": [
      {
        "type": "Metaspace",
        "replacement": "▁",
        "prepend_scheme": "always",
        "split": true
      }
    ]
  },
  "post_processor": {
    "type": "TemplateProcessing",
    "single": [
      {
        "SpecialToken": {
          "id": "[CLS]",
          "type_id": 0
        }
      },
      {
        "Sequence": {
          "id": "A",
          "type_id": 0
        }
      },
      {
        "SpecialToken": {
          "id": "[SEP]",
          "type_id": 0
        }
      }
    ],
    "pair": [
      {
        "SpecialToken": {
          "id": "[CLS]",
          "type_id": 0
        }
      },
      {
        "Sequence": {
          "id": "A",
          "type_id": 0
        }
      },
      {
        "SpecialToken": {
          "id": "[SEP]",
          "type_id": 0
        }
      },
      {
        "Sequence": {
          "id": "B",
          "type_id": 1
        }
      },
      {
        "SpecialToken": {
          "id": "[SEP]",
          "type_id": 1
        }
      }
    ],
    "special_tokens": {
      "[CLS]": {
        "id": "[CLS]",
        "ids": [
          1584
        ],
        "tokens": [
          "[CLS]"
        ]
      },
      "[SEP]": {
        "id": "[SEP]",
        "ids": [
          386
        ],
        "tokens": [
          "[SEP]"
        ]
      }
    }
  },
  "decoder": {
    "type": "Metaspace",
    "replacement": "▁",
    "prepend_scheme": "always",
    "split": true
  },
  "model": {
    "type": "BPE",
    "dropout": null,
    "unk_token": "[UNK]",
    "continuing_subword_prefix": null,
    "end_of_word_suffix": null,
    "fuse_unk": false,
    "byte_fallback": false,
    "ignore_merges": false,
    "vocab": {
      "▁text": 0,
      "▁taxi": 1,
      "6-8": 2,
      "▁jih": 3,
      "▁saudi": 4,
      "ather": 5,
      "▁future": 6,
      "▁vac": 7,
      "183": 8,
      "_00.doc": 9,
      "uh": 10,
      "/13/2001": 11,
      "etary": 12,
      "▁polic": 13,
      "dd": 14,
      "▁face": 15,
      "ule": 16,
      "ken": 17,
      "▁al": 18,
      "▁dev": 19,
      "▁fbi": 20,
      "▁&": 21,
      "▁resources": 22,
      "▁tiny": 23,
      "▁strange": 24,
      "▁determine": 25,
      "▁manufact": 26,
      "▁approved": 27,
      "▁decisions": 28,
      "▁07/14/2000": 29,
      "ount": 30,
      "▁mi": 31,
      "▁subst": 32,
      "▁busy": 33,
      "▁equipment": 34,
      "▁spin": 35,
      "▁sign": 36,
      "▁1868": 37,
      "▁asia": 38,
      "▁713-646-3393": 39,
      "algami": 40,
      "▁favorite": 41,
      ".8317": 42,
      "▁tul": 43,
      "▁(b)": 44,
      "▁excell": 45,
      "sel": 46,
      "▁baltim": 47,
      "▁08/03/2000": 48,
      "▁animal": 49,
      "▁story": 50,
      "▁6.8": 51,
      "▁bern": 52,
      "▁aut": 53,
      "ary": 54,
      "▁context": 55,
      "▁advice": 56,
      "▁telev": 57,
      "▁respect": 58,
      "▁brain": 59,
      "d": 60,
      "▁23": 61,
      "▁change": 62,
      "oint": 63,
      "▁potty": 64,
      "▁1928": 65,
      "emic": 66,
      "▁per": 67,
      "==============================================": 68,
      "▁concent": 69,
      "▁considering": 70,
      "pr": 71,
      "▁techn": 72,
      "ute": 73,
      "ihow": 74,
      "▁agriculture": 75,
      "▁{": 76,
      "▁look": 77,
      "▁espec": 78,
      "·": 79,
      "▁832": 80,
      "▁att": 81,
      "▁recon": 82,
      "▁padaleck": 83,
      "图": 84,
      "▁aircraft": 85,
      "▁poo": 86,
      "ottable": 87,
      "▁01:14": 88,
      "ogether": 89,
      "▁inst": 90,
      "▁hit": 91,
      "461": 92,
      "▁04:28": 93,
      "bert": 94,
      "▁january": 95,
      "▁century": 96,
      "erno": 97,
      "▁1902": 98,
      "▁05/03/2001": 99,
      "▁paseo": 100,
      "▁thous": 101,
      "▁gro": 102,
      "▁der": 103,
      "▁susp": 104,
      "▁extra": 105,
      "▁bigger": 106,
      "▁now": 107,
      "▁1951": 108,
      "6": 109,
      "▁run": 110,
      "▁location": 111,
      "▁affected": 112,
      "▁viet": 113,
      "▁03": 114,
      "arant": 115,
      "▁airpl": 116,
      "▁lem": 117,
      "▁simp": 118,
      ":18": 119,
      "ost": 120,
      "ash": 121,
      "▁uhoh": 122,
      "▁event": 123,
      "▁disapp": 124,
      "ister": 125,
      "▁must": 126,
      "-991-9": 127,
      "▁great": 128,
      "▁1599": 129,
      "▁price": 130,
      "▁neg": 131,
      "ann": 132,
      "▁ai": 133,
      "▁814014": 134,
      "▁kitch": 135,
      "rict": 136,
      "▁2500": 137,
      "▁bee": 138,
      "▁glob": 139,
      "▁few": 140,
      "▁94": 141,
      "▁belg": 142,
      "▁his": 143,
      "▁4.0": 144,
      "▁god": 145,
      "▁church": 146,
      "▁191": 147,
      "▁grammar": 148,
      "▁danger": 149,
      "▁whereby": 150,
      "ded": 151,
      "▁cens": 152,
      "ising": 153,
      "▁l'": 154,
      "3/2000": 155,
      "▁gone": 156,
      "▁hotel": 157,
      "ass": 158,
      "▁713-654-03": 159,
      "▁covered": 160,
      "▁test": 161,
      "▁although": 162,
      "▁lab": 163,
      "ft": 164,
      "▁stead": 165,
      "▁wall": 166,
      "equ": 167,
      "ct": 168,
      "▁proc": 169,
      "tc": 170,
      "▁chann": 171,
      "▁supposed": 172,
      "iately": 173,
      "▁santa": 174,
      "▁force": 175,
      "ps": 176,
      "her": 177,
      "▁03/27/2001": 178,
      "▁amounts": 179,
      "▁leading": 180,
      "435": 181,
      "ion": 182,
      "▁legisl": 183,
      "▁fortun": 184,
      "▁11/29/2000": 185,
      "▁catholic": 186,
      "ival": 187,
      "▁collect": 188,
      "mission": 189,
      "▁1530": 190,
      "▁statement": 191,
      "▁rot": 192,
      "▁november": 193,
      "▁ya": 194,
      "▁perman": 195,
      "oted": 196,
      "▁listen": 197,
      "▁217": 198,
      "▁match": 199,
      "▁dyn": 200,
      "▁interp": 201,
      "▁fut": 202,
      "▁8:30": 203,
      ">": 204,
      "▁environment": 205,
      "▁smart": 206,
      "▁gave": 207,
      "▁this": 208,
      "▁changes": 209,
      "r": 210,
      "▁your": 211,
      "▁gun": 212,
      "▁studied": 213,
      "▁09/16": 214,
      "ford": 215,
      "▁danny": 216,
      "▁unkn": 217,
      "▁readers": 218,
      "▁dand": 219,
      "▁120,000": 220,
      "▁compan": 221,
      "atives": 222,
      "▁critic": 223,
      "▁fair": 224,
      "▁terms": 225,
      "alk": 226,
      "ercial": 227,
      "▁1608": 228,
      "▁grow": 229,
      "▁hog": 230,
      "▁512": 231,
      "▁vice": 232,
      "▁mohamed": 233,
      "▁listing": 234,
      "▁amendments": 235,
      "▁ones": 236,
      "ums": 237,
      "▁st": 238,
      "▁completed": 239,
      "▁reject": 240,
      "▁202": 241,
      "-s": 242,
      "▁28,000": 243,
      "ante": 244,
      "▁pressure": 245,
      "▁earned": 246,
      "▁period": 247,
      "▁_______": 248,
      "▁state": 249,
      "▁3,": 250,
      "▁!!!": 251,
      "▁fix": 252,
      "▁knows": 253,
      "▁mathemat": 254,
      "▁(c)": 255,
      "▁processes": 256,
      "▁glasses": 257,
      "▁legit": 258,
      "▁succeed": 259,
      "▁03/08/2000": 260,
      "▁.?": 261,
      "▁month": 262,
      "▁plane": 263,
      "erous": 264,
      "▁1944": 265,
      "atically": 266,
      "▁swing": 267,
      "▁5:30": 268,
      "✉": 269,
      "▁fast": 270,
      "▁theat": 271,
      "▁-ect": 272,
      "▁listed": 273,
      "east": 274,
      "▁gal": 275,
      "/25/2001": 276,
      ":58": 277,
      "▁belief": 278,
      "uth": 279,
      "utes": 280,
      "▁decl": 281,
      "ina": 282,
      "▁concepts": 283,
      "cept": 284,
      "▁equip": 285,
      "▁makes": 286,
      "oun": 287,
      "▁risk": 288,
      "▁401": 289,
      "ł": 290,
      ";": 291,
      "▁common": 292,
      "▁imposs": 293,
      "▁sl": 294,
      "▁kam": 295,
      "▁disappoint": 296,
      "30": 297,
      "▁3/9": 298,
      "▁interests": 299,
      "▁priced": 300,
      "▁somewhat": 301,
      "67": 302,
      "apolis": 303,
      "▁.2": 304,
      "▁schedule": 305,
      "▁delivery": 306,
      "▁six": 307,
      "ois": 308,
      "▁sciss": 309,
      "▁becom": 310,
      "▁nation": 311,
      "3-": 312,
      "0010": 313,
      "▁runs": 314,
      "▁07/1": 315,
      "▁rank": 316,
      "▁trump": 317,
      "▁430": 318,
      "▁!": 319,
      "▁wikinews": 320,
      "▁ans": 321,
      "▁cocktail": 322,
      "get": 323,
      "▁cy": 324,
      "▁planning": 325,
      "▁normally": 326,
      "▁the": 327,
      "▁shower": 328,
      "▁ahead": 329,
      "▁fift": 330,
      "▁situation": 331,
      "▁vers": 332,
      "▁bears": 333,
      "▁action": 334,
      "▁eighteen": 335,
      "yl": 336,
      "$": 337,
      "42": 338,
      "ind": 339,
      "▁mich": 340,
      "▁incl": 341,
      "dy": 342,
      "▁10:30": 343,
      ".com/": 344,
      "▁crazy": 345,
      "▁enj": 346,
      "▁appropri": 347,
      "▁lys": 348,
      "ective": 349,
      "▁ep": 350,
      "▁345": 351,
      "▁heard": 352,
      "▁issued": 353,
      "arter": 354,
      "▁folks": 355,
      "▁[...]": 356,
      "▁bid": 357,
      "▁charge": 358,
      "▁repeated": 359,
      ".doc": 360,
      "▁assum": 361,
      "▁xsd": 362,
      "▁04:": 363,
      "▁percell": 364,
      "dp": 365,
      "▁testing": 366,
      "▁draft": 367,
      "bers": 368,
      "▁ice": 369,
      "▁1-800-991-9": 370,
      "how": 371,
      "▁zeal": 372,
      "▁vietnam": 373,
      "▁claims": 374,
      "ervation": 375,
      "▁trad": 376,
      "▁cara": 377,
      "▁decision": 378,
      "xt": 379,
      "▁experi": 380,
      "▁cons": 381,
      "▁middle": 382,
      "▁01/2": 383,
      "▁loc": 384,
      "@ect": 385,
      "[SEP]": 386,
      "▁1997": 387,
      "▁live": 388,
      "▁ok": 389,
      "▁exactly": 390,
      "▁8:00": 391,
      "apers": 392,
      "▁+1": 393,
      "ism": 394,
      "unications": 395,
      "▁includ": 396,
      "pe": 397,
      "▁believes": 398,
      "▁protected": 399,
      "▁1689": 400,
      "▁trails": 401,
      "▁:d": 402,
      "inting": 403,
      "▁yesterday": 404,
      "▁wonderful": 405,
      "▁session": 406,
      "▁315-460-33": 407,
      "▁play": 408,
      "▁naim": 409,
      "aviatio": 410,
      "▁standards": 411,
      "▁hous": 412,
      "▁1888": 413,
      "▁5.5": 414,
      "ec": 415,
      "▁texas": 416,
      "▁read": 417,
      "▁putting": 418,
      "▁alloc": 419,
      "▁***": 420,
      "▁observed": 421,
      "▁summer": 422,
      "▁established": 423,
      "▁funds": 424,
      "▁decent": 425,
      "▁team": 426,
      "▁du": 427,
      "▁const": 428,
      "▁pop": 429,
      "▁appeared": 430,
      "▁impossible": 431,
      "ا": 432,
      "▁×": 433,
      "▁miles": 434,
      ".9": 435,
      "3": 436,
      "▁814": 437,
      "▁nineteen": 438,
      "▁score": 439,
      "▁neighborhood": 440,
      "▁888.916.718": 441,
      "ening": 442,
      "▁stupid": 443,
      "▁je": 444,
      "▁a.m.": 445,
      "▁newark": 446,
      "▁taiwan": 447,
      "▁smok": 448,
      "iger": 449,
      "ual": 450,
      "▁advert": 451,
      "▁promise": 452,
      "▁1836": 453,
      "▁collective": 454,
      "▁prior": 455,
      "▁pants": 456,
      "▁being": 457,
      "▁ski": 458,
      "oug": 459,
      "▁near": 460,
      "six": 461,
      "▁choo": 462,
      "ield": 463,
      "▁riding": 464,
      "▁poet": 465,
      "▁closed": 466,
      "▁dursleys": 467,
      "▁daniel": 468,
      "▁se": 469,
      "▁unh": 470,
      "ocol": 471,
      "▁goriot": 472,
      "▁lik": 473,
      "▁********************************": 474,
      "ز": 475,
      "ified": 476,
      "▁transmission": 477,
      "sh": 478,
      "▁encour": 479,
      "▁german": 480,
      "▁646-8420": 481,
      "▁histor": 482,
      "ization": 483,
      "▁hire": 484,
      "▁1801": 485,
      "▁bir": 486,
      "▁17": 487,
      ".1234": 488,
      "▁lines": 489,
      "▁zer": 490,
      "y@enron_development": 491,
      "▁previous": 492,
      "▁propos": 493,
      "▁quino": 494,
      "▁ingred": 495,
      "▁laid": 496,
      "▁estimate": 497,
      "▁los": 498,
      "▁tel": 499,
      "▁guarantee": 500,
      "▁pas": 501,
      "ury": 502,
      "▁everyday": 503,
      ".s": 504,
      "▁gym": 505,
      "▁considered": 506,
      "fin": 507,
      "▁places": 508,
      "▁romantic": 509,
      "▁forty-eight": 510,
      "▁counter": 511,
      "▁bu": 512,
      "ll": 513,
      "▁service": 514,
      "0-3": 515,
      "▁it's": 516,
      "▁donkey": 517,
      "▁whoo": 518,
      "oud": 519,
      "-#6": 520,
      "▁508": 521,
      "▁helped": 522,
      "▁ll": 523,
      "▁names": 524,
      "▁ld2": 525,
      "▁minneapolis": 526,
      "▁things": 527,
      "▁begins": 528,
      "▁perfect": 529,
      "ence": 530,
      "▁asked": 531,
      "▁))": 532,
      "▁excellent": 533,
      "▁analy": 534,
      "▁imp": 535,
      "1.": 536,
      "eck": 537,
      "▁somehow": 538,
      "▁hundreds": 539,
      "▁bound": 540,
      "▁identified": 541,
      "-01": 542,
      "▁tur": 543,
      "clud": 544,
      "▁amidst": 545,
      "{": 546,
      "▁set": 547,
      "▁produce": 548,
      "gypt": 549,
      "▁mac": 550,
      "!!!!": 551,
      "▁shoes": 552,
      "▁structure": 553,
      "▁europe": 554,
      "▁08/03": 555,
      "▁dh": 556,
      "▁king": 557,
      "▁possibly": 558,
      "3c": 559,
      "▁branch": 560,
      "▁arab": 561,
      "▁nothing": 562,
      "▁dese": 563,
      "▁6:00": 564,
      "▁simple": 565,
      "2-": 566,
      "山": 567,
      "▁moreau": 568,
      "wood": 569,
      "lo": 570,
      "▁whereas": 571,
      "▁highlight": 572,
      "▁airport": 573,
      "▁health": 574,
      "▁emphas": 575,
      "===": 576,
      "body": 577,
      "▁kat": 578,
      "itted": 579,
      "▁60,000": 580,
      "▁university": 581,
      "eap": 582,
      "26": 583,
      "▁770": 584,
      "▁mass": 585,
      "▁land": 586,
      "▁diego": 587,
      "oulder": 588,
      "▁forms": 589,
      "uss": 590,
      "▁mine": 591,
      "▁fol": 592,
      "▁central": 593,
      "▁72,000": 594,
      ":0": 595,
      "▁festival": 596,
      "▁share": 597,
      "p": 598,
      "▁australia": 599,
      "ro": 600,
      "pri": 601,
      "▁405": 602,
      "ator": 603,
      "▁addition": 604,
      "▁arr": 605,
      "▁here": 606,
      "ids": 607,
      "▁bump": 608,
      "ing": 609,
      "-m": 610,
      "▁children": 611,
      "▁studying": 612,
      "β": 613,
      "▁hol": 614,
      "83": 615,
      ".61": 616,
      "▁towns": 617,
      "▁aesth": 618,
      "▁honest": 619,
      "▁desire": 620,
      "▁clean": 621,
      "jwww": 622,
      "▁ow": 623,
      "▁pleased": 624,
      "▁port": 625,
      "▁literature": 626,
      "▁+": 627,
      "▁advanced": 628,
      "-p": 629,
      "▁values": 630,
      "³": 631,
      "------------": 632,
      "▁2017": 633,
      "21": 634,
      "▁>--------------------------------": 635,
      "▁datab": 636,
      "▁1972": 637,
      "siana": 638,
      "▁exact": 639,
      "om": 640,
      "ario": 641,
      "▁08": 642,
      "▁!!!!!!!!!!!!!!!": 643,
      "▁writer": 644,
      "▁husband": 645,
      "▁vlog": 646,
      "▁pean": 647,
      "▁forster": 648,
      "▁reference": 649,
      "▁swed": 650,
      "sm": 651,
      "ibility": 652,
      "▁713-853-3098": 653,
      "uding": 654,
      "▁sin": 655,
      "▁troops": 656,
      "ative": 657,
      "men": 658,
      "34": 659,
      "▁contain": 660,
      "▁proper": 661,
      "▁inspired": 662,
      "▁noted": 663,
      "▁article": 664,
      "▁11:45": 665,
      "unte": 666,
      "▁wonder": 667,
      "tail": 668,
      "▁corn": 669,
      "▁shirt": 670,
      "▁included": 671,
      "▁argent": 672,
      "isl": 673,
      "▁165": 674,
      "▁turns": 675,
      "“": 676,
      "▁mean": 677,
      "--------+----------------": 678,
      "▁chemical": 679,
      "▁stops": 680,
      "lin": 681,
      "▁progress": 682,
      "▁934": 683,
      "-27": 684,
      "irt": 685,
      "▁title": 686,
      "▁successfully": 687,
      "den": 688,
      "▁business": 689,
      "▁valley": 690,
      "▁represent": 691,
      "▁parts": 692,
      "▁core": 693,
      "ians": 694,
      "▁noise": 695,
      "us": 696,
      "▁unfortun": 697,
      "▁guess": 698,
      "wa": 699,
      "▁connecting": 700,
      "ipt": 701,
      "▁david": 702,
      "▁cred": 703,
      "▁replication": 704,
      "▁delicious": 705,
      "60": 706,
      "▁analys": 707,
      "iter": 708,
      "▁purple": 709,
      "▁expert": 710,
      "▁universal": 711,
      "▁sect": 712,
      "ome": 713,
      "▁a": 714,
      "▁scared": 715,
      "viatio": 716,
      "▁mob": 717,
      "▁tower": 718,
      "ose": 719,
      "▁who": 720,
      "▁unp": 721,
      "itten": 722,
      "al.doc": 723,
      "▁twelve": 724,
      "▁1958": 725,
      "▁obt": 726,
      ":40": 727,
      "琴": 728,
      "▁courses": 729,
      "▁root": 730,
      "▁tim": 731,
      "▁ups": 732,
      "▁blackline": 733,
      "ained": 734,
      "▁complex": 735,
      "▁administration": 736,
      "▁1500": 737,
      "▁olivia": 738,
      "▁..........": 739,
      "▁01:09": 740,
      "▁scheduled": 741,
      "▁cc": 742,
      "▁aff": 743,
      "▁pri": 744,
      "▁aug": 745,
      "▁between": 746,
      "y": 747,
      "▁comed": 748,
      "orn": 749,
      "▁dinosaur": 750,
      "▁exception": 751,
      "▁37": 752,
      "ech": 753,
      "▁nasa": 754,
      "ww": 755,
      "▁tickets": 756,
      "iety": 757,
      "riage": 758,
      "▁11:16": 759,
      "▁sk": 760,
      "▁ang": 761,
      "▁daughter": 762,
      "▁visited": 763,
      "▁sp": 764,
      "▁dipl": 765,
      "▁roman": 766,
      "▁british": 767,
      "▁competition": 768,
      "▁distance": 769,
      "▁publicly": 770,
      "▁factor": 771,
      "▁1.25": 772,
      "▁predict": 773,
      "▁12:3": 774,
      "▁hon": 775,
      "▁y": 776,
      "hn": 777,
      "drft8-7": 778,
      "▁components": 779,
      "ped": 780,
      "▁sad": 781,
      "▁coo": 782,
      "▁twent": 783,
      "....": 784,
      "▁tig": 785,
      "rison": 786,
      "▁pat": 787,
      "▁tralee": 788,
      "5": 789,
      "▁hum": 790,
      "▁yoga": 791,
      "7/2001": 792,
      "▁in": 793,
      "▁567.77": 794,
      "▁190": 795,
      "▁concerns": 796,
      "▁nice": 797,
      "▁traffic": 798,
      "▁muslim": 799,
      "ident": 800,
      "ast": 801,
      "▁1039": 802,
      "▁answer": 803,
      "bha": 804,
      "▁wash": 805,
      "ulations": 806,
      "▁53": 807,
      "-d": 808,
      "50": 809,
      "asy": 810,
      "▁pink": 811,
      "bel": 812,
      "▁stup": 813,
      "er": 814,
      "eness": 815,
      "▁term": 816,
      "▁purp": 817,
      "▁sufficient": 818,
      "iot": 819,
      "▁balloon": 820,
      "eric": 821,
      "▁led": 822,
      "istan": 823,
      "▁insur": 824,
      "▁profess": 825,
      "▁****": 826,
      "▁ide": 827,
      "rou": 828,
      "▁ess": 829,
      "▁cheese": 830,
      "-468-3": 831,
      "▁arm": 832,
      "▁basically": 833,
      "▁fa": 834,
      "▁1/4": 835,
      "▁regime": 836,
      "▁fin": 837,
      "▁auth": 838,
      "▁historic": 839,
      "▁o'clock": 840,
      "▁gl": 841,
      "▁ninety-nine": 842,
      "▁russ": 843,
      "ste": 844,
      "▁sch": 845,
      "▁activities": 846,
      ",00": 847,
      "▁italian": 848,
      "▁1600": 849,
      "▁1955": 850,
      "4014": 851,
      "▁1593": 852,
      "tern": 853,
      "▁positive": 854,
      "▁cla": 855,
      "▁stopping": 856,
      "8196021": 857,
      "▁issues": 858,
      "▁spring": 859,
      "ases": 860,
      "▁ship": 861,
      "▁beatles": 862,
      "og": 863,
      "47": 864,
      "▁feet": 865,
      "gin": 866,
      "ancing": 867,
      "0s": 868,
      "▁easier": 869,
      "▁ment": 870,
      "▁room": 871,
      "▁believe": 872,
      "▁place": 873,
      "▁yourselves": 874,
      "▁230": 875,
      "▁ann": 876,
      "elly": 877,
      "▁christian": 878,
      "b": 879,
      "▁fan": 880,
      "▁car": 881,
      "▁showing": 882,
      "▁okay": 883,
      "▁alright": 884,
      "ant": 885,
      "ont": 886,
      "▁spread": 887,
      "▁1245": 888,
      "▁pretty": 889,
      "▁light": 890,
      "mer": 891,
      "▁journal": 892,
      "▁subject": 893,
      "like": 894,
      "▁dis": 895,
      "▁skin": 896,
      "▁enjambment": 897,
      "▁80,000": 898,
      "▁seconds": 899,
      "▁(a)": 900,
      "▁papers": 901,
      "▁missing": 902,
      "▁400": 903,
      "27": 904,
      "▁might": 905,
      "▁agre": 906,
      "eless": 907,
      "▁entirely": 908,
      "▁scale": 909,
      "▁punch": 910,
      "▁cro": 911,
      "▁2004": 912,
      "▁such": 913,
      "▁fest": 914,
      "▁luc": 915,
      "▁3:30": 916,
      "▁ships": 917,
      "▁scholars": 918,
      "▁amend": 919,
      "▁7:00": 920,
      "▁world": 921,
      "eare": 922,
      "+----------------": 923,
      "af": 924,
      "▁376": 925,
      "▁eng": 926,
      "▁guy": 927,
      "▁training": 928,
      "▁greatest": 929,
      "▁fif": 930,
      "erv": 931,
      "▁pictures": 932,
      "stop": 933,
      "▁china": 934,
      "▁normal": 935,
      "jects": 936,
      "ants": 937,
      "▁finish": 938,
      ":42": 939,
      "▁regard": 940,
      "▁mental": 941,
      "▁options": 942,
      "▁115": 943,
      "-23": 944,
      "▁----==": 945,
      "▁reli": 946,
      "/17/99": 947,
      "▁announced": 948,
      "静": 949,
      "k.url": 950,
      "▁structures": 951,
      "▁programm": 952,
      "▁airline": 953,
      "▁client": 954,
      "ص": 955,
      "reat": 956,
      "▁struct": 957,
      "▁d.": 958,
      "▁relief": 959,
      "▁evening": 960,
      "▁doctor": 961,
      ",000,000,000": 962,
      "ably": 963,
      "▁time": 964,
      "ag": 965,
      "iation": 966,
      "▁5000": 967,
      "▁complic": 968,
      "▁lovely": 969,
      ":48": 970,
      "▁foods": 971,
      "▁sunni": 972,
      "www": 973,
      "▁particip": 974,
      "▁59": 975,
      "▁hub": 976,
      "ade": 977,
      "▁vis": 978,
      "ater": 979,
      "▁1925": 980,
      "▁1611": 981,
      "/h": 982,
      "▁713-654-128": 983,
      "▁163": 984,
      "▁exposure": 985,
      "▁safe": 986,
      "▁wheel": 987,
      "c": 988,
      "raph": 989,
      "▁france": 990,
      "ra": 991,
      "band": 992,
      "▁widely": 993,
      "▁start": 994,
      "▁seem": 995,
      "with": 996,
      "ask": 997,
      "tering": 998,
      "▁limited": 999,
      "▁knew": 1000,
      "head": 1001,
      "▁ours": 1002,
      "ell": 1003,
      "▁princip": 1004,
      "ster": 1005,
      "gress": 1006,
      "▁menu": 1007,
      "▁hear": 1008,
      "ering": 1009,
      "▁thirty": 1010,
      "▁fore": 1011,
      "orial": 1012,
      "▁grad": 1013,
      "▁fun": 1014,
      "▁2008": 1015,
      "osh": 1016,
      "▁aboard": 1017,
      "▁slight": 1018,
      "ark": 1019,
      "========": 1020,
      "ension": 1021,
      "tra": 1022,
      "14": 1023,
      "▁bell": 1024,
      "▁lucky": 1025,
      "enty": 1026,
      "able": 1027,
      "▁desper": 1028,
      "▁surround": 1029,
      "▁gul": 1030,
      "▁discussion": 1031,
      "iate": 1032,
      "▁clim": 1033,
      "葉": 1034,
      "▁sight": 1035,
      "▁highest": 1036,
      "▁sixth": 1037,
      "▁durs": 1038,
      "2,000": 1039,
      "▁201": 1040,
      "▁enfor": 1041,
      "▁nam": 1042,
      "rupt": 1043,
      "▁paid": 1044,
      "▁dream": 1045,
      "▁ect": 1046,
      "▁van": 1047,
      "▁dut": 1048,
      "▁uhh": 1049,
      "▁268": 1050,
      "itude": 1051,
      "▁''": 1052,
      "▁releases": 1053,
      "▁paral": 1054,
      "▁opening": 1055,
      "~": 1056,
      "▁build": 1057,
      "▁pict": 1058,
      "▁even": 1059,
      "▁table": 1060,
      "▁h-0": 1061,
      "樋": 1062,
      "▁pittsburgh": 1063,
      "cel": 1064,
      "▁dallas": 1065,
      "▁everyone": 1066,
      "ica": 1067,
      "oney": 1068,
      "▁release": 1069,
      "▁trade": 1070,
      "▁sql": 1071,
      "▁surger": 1072,
      "▁par": 1073,
      "▁meals": 1074,
      "▁phone": 1075,
      "▁lope": 1076,
      "▁cond": 1077,
      "▁education": 1078,
      "▁fam": 1079,
      "▁dim": 1080,
      "aw": 1081,
      "▁nonstop": 1082,
      "▁andaman": 1083,
      "▁female": 1084,
      "▁five": 1085,
      "▁shows": 1086,
      "▁contrib": 1087,
      "ime": 1088,
      "▁basic": 1089,
      "eing": 1090,
      "▁slow": 1091,
      "▁416-865-370": 1092,
      "▁poverty": 1093,
      "▁sunn": 1094,
      "▁facts": 1095,
      "enda": 1096,
      "▁race": 1097,
      "▁thousands": 1098,
      "porary": 1099,
      "▁states": 1100,
      "▁direct": 1101,
      "▁thanks": 1102,
      "▁mar": 1103,
      "@enron_development": 1104,
      "▁m": 1105,
      "▁763736": 1106,
      "▁emph": 1107,
      "▁529999": 1108,
      "▁char": 1109,
      "▁treatment": 1110,
      "bby": 1111,
      "▁stipulation": 1112,
      "d-#693": 1113,
      "▁snow": 1114,
      "▁without": 1115,
      "▁713-79": 1116,
      "▁border": 1117,
      "▁involved": 1118,
      "▁won": 1119,
      "▁cash": 1120,
      "1/2001": 1121,
      "▁bare": 1122,
      "▁trail": 1123,
      "▁seventeen": 1124,
      "▁cub": 1125,
      "four": 1126,
      "▁with": 1127,
      "▁d'": 1128,
      "▁stores": 1129,
      "▁saud": 1130,
      "▁row": 1131,
      "▁khinss": 1132,
      "own": 1133,
      "½": 1134,
      "▁bur": 1135,
      "▁eyes": 1136,
      "gel": 1137,
      "ged": 1138,
      "▁adding": 1139,
      "▁resc": 1140,
      "▁substantial": 1141,
      ".676": 1142,
      "e.": 1143,
      "tered": 1144,
      "▁mouth": 1145,
      "verty": 1146,
      "ird": 1147,
      "▁administr": 1148,
      "day": 1149,
      "ains": 1150,
      "out": 1151,
      "▁discussed": 1152,
      "▁ltte": 1153,
      "▁reprod": 1154,
      "▁.doc": 1155,
      "▁records": 1156,
      "ives": 1157,
      "▁container": 1158,
      "▁uk": 1159,
      "ration": 1160,
      "▁behav": 1161,
      "▁–": 1162,
      "▁execut": 1163,
      "▁literary": 1164,
      "▁appro": 1165,
      "▁milk": 1166,
      "▁territ": 1167,
      "▁enter": 1168,
      "idge": 1169,
      "ously": 1170,
      "aging": 1171,
      "▁princ": 1172,
      "▁activity": 1173,
      "▁fe": 1174,
      "=": 1175,
      "300": 1176,
      "ber": 1177,
      "erry": 1178,
      "inary": 1179,
      "▁420": 1180,
      "▁1988": 1181,
      "sters": 1182,
      "oned": 1183,
      "son": 1184,
      "▁insp": 1185,
      "app": 1186,
      "▁background": 1187,
      "▁perhaps": 1188,
      "▁sweater": 1189,
      "▁pu": 1190,
      "▁england": 1191,
      "▁4": 1192,
      "▁pret": 1193,
      "▁q": 1194,
      "▁fant": 1195,
      "▁.........": 1196,
      "▁1300": 1197,
      "▁strong": 1198,
      "▁greater": 1199,
      "46": 1200,
      "989": 1201,
      "▁gaz": 1202,
      "▁mind": 1203,
      "▁sor": 1204,
      "▁tro": 1205,
      "▁&amp;": 1206,
      "▁ir": 1207,
      "▁04/30/2001": 1208,
      "ool": 1209,
      "▁customers": 1210,
      "!": 1211,
      "/01": 1212,
      "---": 1213,
      "our": 1214,
      "▁began": 1215,
      "▁3.1": 1216,
      "▁1962": 1217,
      "▁showed": 1218,
      "▁bottles": 1219,
      "ban": 1220,
      "/200": 1221,
      "▁687": 1222,
      "134": 1223,
      "▁40": 1224,
      "stick": 1225,
      "▁louis": 1226,
      "ula": 1227,
      "▁kinds": 1228,
      "▁army": 1229,
      "▁steve": 1230,
      "78": 1231,
      "▁'ve": 1232,
      "▁webs": 1233,
      "▁646-84": 1234,
      "ings": 1235,
      "rans": 1236,
      "▁starts": 1237,
      "▁acc": 1238,
      "▁governments": 1239,
      "▁enjoyed": 1240,
      "▁mostly": 1241,
      "▁kim": 1242,
      "oub": 1243,
      "▁ninety": 1244,
      "▁classical": 1245,
      "▁fusca": 1246,
      "▁412": 1247,
      "standing": 1248,
      "▁matt": 1249,
      "▁fashion": 1250,
      "▁use": 1251,
      "ation": 1252,
      "▁depart": 1253,
      "▁beauveria": 1254,
      "▁remove": 1255,
      "▁products": 1256,
      "ati": 1257,
      "▁prop": 1258,
      "ablish": 1259,
      "ry": 1260,
      "-h": 1261,
      "ought": 1262,
      "5-02.doc": 1263,
      "▁lol": 1264,
      "▁838": 1265,
      "umn": 1266,
      "i-": 1267,
      "▁shar": 1268,
      "re": 1269,
      "ioned": 1270,
      "▁domin": 1271,
      "▁be": 1272,
      "▁themselves": 1273,
      "▁eb": 1274,
      "▁introd": 1275,
      "▁loo": 1276,
      "▁14": 1277,
      "▁sex": 1278,
      "▁truth": 1279,
      "▁10:25": 1280,
      "▁orland": 1281,
      "eech": 1282,
      "▁wide": 1283,
      "▁trust": 1284,
      "ingu": 1285,
      "inn": 1286,
      "▁sounds": 1287,
      "▁customer": 1288,
      "▁levels": 1289,
      "▁sc": 1290,
      "▁society": 1291,
      "▁airlines": 1292,
      "▁£": 1293,
      "▁tele": 1294,
      "----------------": 1295,
      "▁america": 1296,
      "ael": 1297,
      "rier": 1298,
      ".782": 1299,
      "▁ger": 1300,
      "zing": 1301,
      "▁oneself": 1302,
      "ish": 1303,
      "▁ton": 1304,
      "▁tv": 1305,
      "iat": 1306,
      "▁weight": 1307,
      "itation": 1308,
      "▁bo": 1309,
      "▁chang": 1310,
      "▁*": 1311,
      "igr": 1312,
      "err": 1313,
      "▁looks": 1314,
      "▁42,000": 1315,
      "istic": 1316,
      "kins": 1317,
      "▁clock": 1318,
      "▁1947": 1319,
      "109": 1320,
      "utely": 1321,
      "▁vietn": 1322,
      "omer": 1323,
      "cil": 1324,
      "▁according": 1325,
      "]": 1326,
      "▁island": 1327,
      "▁prepare": 1328,
      "▁bank": 1329,
      "▁success": 1330,
      "▁voices": 1331,
      ",5": 1332,
      "lying": 1333,
      "▁jihad": 1334,
      "ften": 1335,
      "▁exist": 1336,
      "▁div": 1337,
      "▁mist": 1338,
      "▁143": 1339,
      "▁detail": 1340,
      "▁anth": 1341,
      "▁twa": 1342,
      "▁shin": 1343,
      "▁11,000": 1344,
      "▁occas": 1345,
      "▁20:00": 1346,
      "▁dish": 1347,
      "ada": 1348,
      "osite": 1349,
      "▁unit": 1350,
      "▁01/12/2001": 1351,
      "▁coming": 1352,
      "inated": 1353,
      "▁1110": 1354,
      "▁mm": 1355,
      "▁clin": 1356,
      "▁winter": 1357,
      "▁travel": 1358,
      "▁thank": 1359,
      "▁somet": 1360,
      "▁crime": 1361,
      "▁o'": 1362,
      "oices": 1363,
      "▁court": 1364,
      "▁ar": 1365,
      "v": 1366,
      "▁fourth": 1367,
      "▁barn": 1368,
      "ester": 1369,
      "▁scient": 1370,
      "▁207": 1371,
      "▁dropped": 1372,
      "___________": 1373,
      "▁away": 1374,
      "ror": 1375,
      "▁hu": 1376,
      "▁adam": 1377,
      "▁dram": 1378,
      "-3": 1379,
      "▁lee": 1380,
      "ely": 1381,
      "res": 1382,
      ":21": 1383,
      "▁west": 1384,
      "elling": 1385,
      "▁’ll": 1386,
      "▁deliver": 1387,
      "ix": 1388,
      "ited": 1389,
      "▁ear": 1390,
      "▁cos": 1391,
      "▁florida": 1392,
      "▁assist": 1393,
      "▁consc": 1394,
      "▁motion": 1395,
      "▁1819": 1396,
      "▁reviews": 1397,
      "cond": 1398,
      "▁communications": 1399,
      "▁ackn": 1400,
      "▁2.975": 1401,
      "▁attach": 1402,
      "oured": 1403,
      "▁sources": 1404,
      "▁remain": 1405,
      "▁wish": 1406,
      "▁nail": 1407,
      "▁each": 1408,
      "▁...............": 1409,
      "▁drive": 1410,
      "▁’’": 1411,
      "▁20": 1412,
      "▁spend": 1413,
      "ona": 1414,
      "pan": 1415,
      "eds": 1416,
      "▁billion": 1417,
      "▁270": 1418,
      "▁taliban": 1419,
      "▁stre": 1420,
      "▁1981": 1421,
      "ler": 1422,
      "▁thinking": 1423,
      "utions": 1424,
      "▁htt": 1425,
      "▁video": 1426,
      "▁2.15": 1427,
      "▁hoo": 1428,
      "▁2010": 1429,
      "▁stars": 1430,
      ".4": 1431,
      "▁compl": 1432,
      "-46": 1433,
      "▁federal": 1434,
      "▁1977": 1435,
      "▁behin": 1436,
      "▁ny": 1437,
      "39": 1438,
      "▁hours": 1439,
      "▁civil": 1440,
      "use": 1441,
      "▁jo": 1442,
      "▁usd": 1443,
      "aming": 1444,
      "▁rab": 1445,
      "▁415.782": 1446,
      "▁----": 1447,
      "▁current": 1448,
      "y@ect": 1449,
      "▁s’": 1450,
      "▁shakespeare": 1451,
      "▁seems": 1452,
      "▁979": 1453,
      "▁1200": 1454,
      "▁bowl": 1455,
      "▁flying": 1456,
      "ɛ": 1457,
      "▁helping": 1458,
      "▁ro": 1459,
      "▁sue": 1460,
      "▁cincinnati": 1461,
      "▁transm": 1462,
      "▁civ": 1463,
      "45": 1464,
      "▁vince": 1465,
      "▁burn": 1466,
      "eda": 1467,
      "▁decide": 1468,
      "ship": 1469,
      "ias": 1470,
      "▁jim": 1471,
      "▁draw": 1472,
      "▁1,6": 1473,
      "://": 1474,
      "▁explore": 1475,
      "▁mut": 1476,
      "880": 1477,
      "▁polit": 1478,
      "[": 1479,
      "▁47,500": 1480,
      "▁ground": 1481,
      "▁andy": 1482,
      "▁anti": 1483,
      "▁received": 1484,
      "lines": 1485,
      "▁korea": 1486,
      "▁athens": 1487,
      "▁05/01/2001": 1488,
      "▁poll": 1489,
      ".n": 1490,
      "▁since": 1491,
      "▁excel": 1492,
      "清": 1493,
      "▁historical": 1494,
      "▁washing": 1495,
      "▁2022": 1496,
      "▁nt": 1497,
      "▁michael": 1498,
      "uc": 1499,
      "▁mag": 1500,
      "▁september": 1501,
      "37": 1502,
      "▁canad": 1503,
      "lik": 1504,
      "▁khan@transredes": 1505,
      "▁braz": 1506,
      "▁constitu": 1507,
      "▁inc": 1508,
      "▁valid": 1509,
      "▁łodz": 1510,
      "▁stick": 1511,
      "▁********": 1512,
      "▁prem": 1513,
      "▁enough": 1514,
      "▁nav": 1515,
      "aiss": 1516,
      "▁41": 1517,
      "▁area": 1518,
      "▁`s": 1519,
      "▁mil": 1520,
      "▁rescue": 1521,
      "▁gives": 1522,
      "▁shown": 1523,
      "ter": 1524,
      "gr": 1525,
      "▁settled": 1526,
      "▁banana": 1527,
      "▁poss": 1528,
      "▁opinion": 1529,
      "house": 1530,
      "ower": 1531,
      "▁09:01": 1532,
      "▁shorts": 1533,
      "▁falling": 1534,
      "ves": 1535,
      "▁wig": 1536,
      "non": 1537,
      "▁ter": 1538,
      "▁express": 1539,
      "▁plat": 1540,
      "iew": 1541,
      "▁stuck": 1542,
      "▁technology": 1543,
      "ital": 1544,
      "▁kind": 1545,
      "▁3,500": 1546,
      "sem": 1547,
      "agon": 1548,
      "▁hey": 1549,
      "rep": 1550,
      "▁02/27/2001": 1551,
      "▁democracy": 1552,
      "▁secret": 1553,
      "mas": 1554,
      "iques": 1555,
      "▁called": 1556,
      "▁learned": 1557,
      "atter": 1558,
      "▁satisf": 1559,
      "▁liquid": 1560,
      "ceed": 1561,
      "▁2015": 1562,
      "43": 1563,
      "▁part": 1564,
      "▁thirty-five": 1565,
      "▁important": 1566,
      "▁weeks": 1567,
      "ine": 1568,
      "▁million": 1569,
      "▁11:32": 1570,
      "▁alligator": 1571,
      "▁experim": 1572,
      "▁charlotte": 1573,
      "gely": 1574,
      "▁łodzian": 1575,
      "▁employment": 1576,
      "▁agricult": 1577,
      "▁arriving": 1578,
      "▁lanka": 1579,
      "-7": 1580,
      "▁special": 1581,
      ".11": 1582,
      "▁#": 1583,
      "[CLS]": 1584,
      "ious": 1585,
      "thers": 1586,
      "▁campaign": 1587,
      "++": 1588,
      "thing": 1589,
      "▁boat": 1590,
      "▁treated": 1591,
      "sy": 1592,
      "▁glow": 1593,
      "▁11/27/2000": 1594,
      "▁applied": 1595,
      "▁strateg": 1596,
      "op": 1597,
      "▁interconn": 1598,
      "mos": 1599,
      "▁aft": 1600,
      "▁during": 1601,
      "▁stories": 1602,
      "▁1890": 1603,
      "▁pricing": 1604,
      "ata": 1605,
      "▁method": 1606,
      "▁exce": 1607,
      "▁lesson": 1608,
      "▁mic": 1609,
      "bur": 1610,
      "▁tou": 1611,
      "▁fighting": 1612,
      "▁466": 1613,
      "▁line": 1614,
      "uel": 1615,
      "▁?!?": 1616,
      "▁substant": 1617,
      "te": 1618,
      "▁past": 1619,
      "▁seventh": 1620,
      "▁718": 1621,
      "▁relations": 1622,
      "est": 1623,
      "▁cigare": 1624,
      "▁palest": 1625,
      "▁meant": 1626,
      "▁stay": 1627,
      "▁french": 1628,
      "ogn": 1629,
      "▁volunte": 1630,
      "j": 1631,
      "76": 1632,
      "irts": 1633,
      "▁microphone": 1634,
      "▁^": 1635,
      "▁warhol": 1636,
      "▁power": 1637,
      "49": 1638,
      "▁************************************************": 1639,
      "▁416-865-3": 1640,
      "▁flav": 1641,
      "itting": 1642,
      "▁threat": 1643,
      "peare": 1644,
      "▁questar": 1645,
      "enner": 1646,
      "▁pot": 1647,
      "子": 1648,
      "▁ultim": 1649,
      "ky": 1650,
      "±": 1651,
      "▁occurred": 1652,
      "ma": 1653,
      "ices": 1654,
      "▁1973": 1655,
      "▁iranian": 1656,
      "▁amazing": 1657,
      "elines": 1658,
      "▁dav": 1659,
      "▁estimated": 1660,
      "▁dwww": 1661,
      "▁sexual": 1662,
      "▁canc": 1663,
      "▁saturday": 1664,
      "▁11:30": 1665,
      "▁generation": 1666,
      "ress": 1667,
      "igning": 1668,
      "▁fed": 1669,
      "▁wou": 1670,
      "▁kar": 1671,
      "▁harry": 1672,
      "▁weap": 1673,
      "ole": 1674,
      "ip": 1675,
      "▁sat": 1676,
      "▁200": 1677,
      "▁blood": 1678,
      "▁les": 1679,
      "9/2001": 1680,
      "▁celebr": 1681,
      "br": 1682,
      "▁unemploy": 1683,
      "ground": 1684,
      "75": 1685,
      "▁fourteen": 1686,
      "iciency": 1687,
      "▁net": 1688,
      "▁domain": 1689,
      "ulated": 1690,
      "77": 1691,
      "▁grandm": 1692,
      "▁tomato": 1693,
      "▁horn": 1694,
      "▁beg": 1695,
      "▁strength": 1696,
      "&": 1697,
      "▁'71": 1698,
      "▁somewhere": 1699,
      "▁ye": 1700,
      "▁1115": 1701,
      "▁flat": 1702,
      "▁nap": 1703,
      "▁bedroom": 1704,
      "▁stat": 1705,
      "▁thinks": 1706,
      "▁cont": 1707,
      "▁experts": 1708,
      "▁death": 1709,
      "▁diff": 1710,
      "▁upstairs": 1711,
      "aska": 1712,
      "ym": 1713,
      "hi": 1714,
      "▁commons": 1715,
      "mp": 1716,
      "ull": 1717,
      "▁presence": 1718,
      "▁infl": 1719,
      "ore": 1720,
      "▁claim": 1721,
      "alo": 1722,
      "▁ign": 1723,
      "▁initial": 1724,
      "▁convention": 1725,
      "▁urs": 1726,
      "arent": 1727,
      "▁duck": 1728,
      "▁regards": 1729,
      "▁stock": 1730,
      "▁para": 1731,
      "▁1610": 1732,
      "amm": 1733,
      "ext": 1734,
      "▁memphis": 1735,
      "__________": 1736,
      "▁difference": 1737,
      "▁flash": 1738,
      "▁bomb": 1739,
      "▁remo": 1740,
      "ett": 1741,
      "▁pachom": 1742,
      "▁1986": 1743,
      "▁trans": 1744,
      "ff": 1745,
      "▁1993": 1746,
      "▁liber": 1747,
      "▁empty": 1748,
      "▁depends": 1749,
      "▁economy": 1750,
      "ball": 1751,
      "bits": 1752,
      "ortun": 1753,
      "otte": 1754,
      "▁1583": 1755,
      "▁peter": 1756,
      "▁160": 1757,
      "▁breast": 1758,
      "▁852": 1759,
      "4/2001": 1760,
      "▁cru": 1761,
      "36": 1762,
      "▁oper": 1763,
      "▁soup": 1764,
      "▁11-20-2000": 1765,
      "▁snitch": 1766,
      "▁demonstr": 1767,
      "▁consist": 1768,
      "▁error": 1769,
      "ft8-7": 1770,
      "unch": 1771,
      "▁cuz": 1772,
      "▁d": 1773,
      "cl": 1774,
      "mm": 1775,
      "499": 1776,
      "▁exc": 1777,
      "innati": 1778,
      "▁ul": 1779,
      "▁rs": 1780,
      "▁laugh": 1781,
      "▁game": 1782,
      "▁!!!!!!!": 1783,
      "▁>----------------------------------------------------------------------------|": 1784,
      "ana": 1785,
      "▁....": 1786,
      "bha-": 1787,
      "▁dall": 1788,
      "▁western": 1789,
      "grin": 1790,
      "▁for": 1791,
      "▁than": 1792,
      "ider": 1793,
      "▁cath": 1794,
      "▁adopt": 1795,
      "▁schools": 1796,
      "▁joint": 1797,
      "▁gentle": 1798,
      "▁houston": 1799,
      "ib": 1800,
      "▁eating": 1801,
      "▁whoever": 1802,
      "▁surgery": 1803,
      "cab": 1804,
      "ert": 1805,
      "▁result": 1806,
      "019": 1807,
      "▁smaller": 1808,
      "▁1598": 1809,
      "▁four": 1810,
      "▁medic": 1811,
      "▁fold": 1812,
      "▁ninth": 1813,
      "▁notwithstand": 1814,
      "▁lunch": 1815,
      "▁occur": 1816,
      "▁escape": 1817,
      "▁100": 1818,
      "▁whole": 1819,
      ".831": 1820,
      "▁furniture": 1821,
      "▁br": 1822,
      "▁stand": 1823,
      "▁11/08/2000": 1824,
      ".d": 1825,
      "▁ontario": 1826,
      "一": 1827,
      "▁ma": 1828,
      "▁?????": 1829,
      "▁3.5": 1830,
      "▁18,000": 1831,
      "nesday": 1832,
      "ern": 1833,
      "▁income": 1834,
      "▁tiger": 1835,
      "elp": 1836,
      "uate": 1837,
      "▁jack": 1838,
      "▁whom": 1839,
      "▁?": 1840,
      "▁18": 1841,
      "▁analysis": 1842,
      "▁l2": 1843,
      "▁moved": 1844,
      "24": 1845,
      "▁matters": 1846,
      "▁do": 1847,
      "▁tape": 1848,
      ":30": 1849,
      "▁richard": 1850,
      "▁year": 1851,
      "▁6/1": 1852,
      "ics": 1853,
      "▁39": 1854,
      "ds": 1855,
      "▁bn": 1856,
      "aries": 1857,
      "▁electric": 1858,
      "▁one": 1859,
      "s": 1860,
      "▁plant": 1861,
      "▁88": 1862,
      "▁unto": 1863,
      "ny": 1864,
      "▁luck": 1865,
      "▁beat": 1866,
      "▁momma": 1867,
      ".6": 1868,
      "▁phoenix": 1869,
      "▁pach": 1870,
      "▁:-)": 1871,
      "ette": 1872,
      "▁win": 1873,
      "/03/2001": 1874,
      "▁jokes": 1875,
      "▁until": 1876,
      "▁effect": 1877,
      "▁westchester": 1878,
      "▁oz": 1879,
      "igned": 1880,
      "▁o": 1881,
      "▁13": 1882,
      "mon": 1883,
      "▁-%": 1884,
      "/8/00": 1885,
      "ne": 1886,
      "ores": 1887,
      "74": 1888,
      "dr": 1889,
      "town": 1890,
      "▁101": 1891,
      "▁!?": 1892,
      "acters": 1893,
      "▁fal": 1894,
      "▁entered": 1895,
      "▁food": 1896,
      "eet": 1897,
      "▁suddenly": 1898,
      "▁airplane": 1899,
      "▁its": 1900,
      "▁house": 1901,
      "▁http://www": 1902,
      "▁weapons": 1903,
      "ares": 1904,
      "lic": 1905,
      "▁formica": 1906,
      "ouble": 1907,
      "▁employ": 1908,
      "▁ta": 1909,
      "▁=)": 1910,
      "ibreat": 1911,
      "7": 1912,
      "▁1724": 1913,
      "ologies": 1914,
      "▁job": 1915,
      "ove": 1916,
      "▁houses": 1917,
      "▁committee": 1918,
      "room": 1919,
      "▁furn": 1920,
      "▁ec": 1921,
      "▁files": 1922,
      "▁book": 1923,
      "enced": 1924,
      "▁how": 1925,
      "oring": 1926,
      "▁deriv": 1927,
      "▁asking": 1928,
      "▁te": 1929,
      "▁josh": 1930,
      "och": 1931,
      "▁ap": 1932,
      "▁enemy": 1933,
      "▁neu": 1934,
      "▁smell": 1935,
      "▁walls": 1936,
      "▁atl": 1937,
      "▁meth": 1938,
      "▁bom": 1939,
      "ocr": 1940,
      "▁subsc": 1941,
      "▁igts": 1942,
      "▁toy": 1943,
      "▁sem": 1944,
      "▁rapidly": 1945,
      "▁able": 1946,
      "▁worked": 1947,
      "▁knock": 1948,
      "▁metro": 1949,
      "▁pock": 1950,
      "▁touch": 1951,
      "▁happ": 1952,
      "▁secure": 1953,
      "▁capacity": 1954,
      "▁majority": 1955,
      "▁planet": 1956,
      "▁ther": 1957,
      "▁african": 1958,
      "▁tells": 1959,
      "▁licens": 1960,
      "▁attended": 1961,
      "▁meh-r": 1962,
      "▁milwaukee": 1963,
      "umble": 1964,
      "alam": 1965,
      "▁town": 1966,
      "▁policy": 1967,
      "▁after": 1968,
      "▁w3c": 1969,
      "▁wednesday": 1970,
      "▁recommended": 1971,
      "▁assemb": 1972,
      "rial": 1973,
      "▁vict": 1974,
      "▁cre": 1975,
      "viat": 1976,
      "▁throu": 1977,
      "tle": 1978,
      "▁scientology": 1979,
      "isco": 1980,
      "▁800.713.86": 1981,
      "********************************": 1982,
      "neath": 1983,
      "▁directly": 1984,
      "92": 1985,
      "ins": 1986,
      "▁@": 1987,
      "▁253": 1988,
      "▁inter": 1989,
      "▁constit": 1990,
      "▁iu": 1991,
      "▁1.4": 1992,
      "▁march": 1993,
      "▁breaking": 1994,
      "▁cute": 1995,
      "▁manuf": 1996,
      "▁presentation": 1997,
      "▁pieces": 1998,
      "▁6871082": 1999,
      "▁please": 2000,
      "▁07/17/2000": 2001,
      "▁design": 2002,
      "▁double": 2003,
      "▁counterpart": 2004,
      "▁7:30": 2005,
      "▁placed": 2006,
      "▁11:07": 2007,
      "▁conf": 2008,
      "▁concer": 2009,
      "▁sust": 2010,
      "▁publish": 2011,
      "▁protect": 2012,
      "ensive": 2013,
      "66": 2014,
      "▁any": 2015,
      "▁finding": 2016,
      "▁desert": 2017,
      "ath": 2018,
      "▁11.5": 2019,
      "▁moment": 2020,
      "night": 2021,
      "▁old": 2022,
      "ties": 2023,
      "25": 2024,
      "▁them": 2025,
      "▁minus": 2026,
      "▁prov": 2027,
      "▁expl": 2028,
      "▁......": 2029,
      "▁total": 2030,
      "raft": 2031,
      "▁miss": 2032,
      "▁all": 2033,
      "▁chem": 2034,
      "▁website": 2035,
      "ame": 2036,
      "tt": 2037,
      "▁n’t": 2038,
      "▁leader": 2039,
      "▁450": 2040,
      "59": 2041,
      "▁sar": 2042,
      "▁wak": 2043,
      "▁-----": 2044,
      "▁join": 2045,
      "▁integr": 2046,
      "▁jose": 2047,
      "▁know": 2048,
      "▁theirs": 2049,
      "▁da": 2050,
      "▁comp": 2051,
      "▁receive": 2052,
      "ored": 2053,
      "▁trying": 2054,
      "▁purch": 2055,
      "▁causes": 2056,
      "alth": 2057,
      "▁forget": 2058,
      "▁manager": 2059,
      "▁store": 2060,
      "▁followed": 2061,
      "▁toronto": 2062,
      "▁features": 2063,
      "t": 2064,
      "ental": 2065,
      "ally": 2066,
      "▁750": 2067,
      "ied": 2068,
      "▁bott": 2069,
      "huh": 2070,
      "▁1-8": 2071,
      "▁ano": 2072,
      "qu": 2073,
      "▁dir": 2074,
      "▁technologies": 2075,
      "▁case": 2076,
      "▁check": 2077,
      "ees": 2078,
      "16": 2079,
      "▁thousand": 2080,
      "▁extent": 2081,
      "yal": 2082,
      "▁non-": 2083,
      "▁role": 2084,
      "▁aim": 2085,
      "▁6:30": 2086,
      "▁muscles": 2087,
      "▁autom": 2088,
      "▁bang": 2089,
      "▁1843": 2090,
      "ategy": 2091,
      "▁jump": 2092,
      "▁writ": 2093,
      "▁ever": 2094,
      "ient": 2095,
      "▁leaves": 2096,
      "▁turned": 2097,
      "▁tal": 2098,
      "▁orient": 2099,
      "▁settle": 2100,
      "▁spirit": 2101,
      "cast": 2102,
      "▁705": 2103,
      "▁purpose": 2104,
      "log": 2105,
      "▁sanders": 2106,
      "isf": 2107,
      "ustom": 2108,
      "▁dog": 2109,
      "▁intellig": 2110,
      "▁revolution": 2111,
      "▁seating": 2112,
      "▁personal": 2113,
      "▁upside": 2114,
      "▁devil": 2115,
      "▁exch": 2116,
      "▁260": 2117,
      "80": 2118,
      "▁713-853-1696": 2119,
      "clus": 2120,
      "▁713-793-": 2121,
      "▁has": 2122,
      "▁demon": 2123,
      "arrass": 2124,
      "▁best": 2125,
      "▁constitution": 2126,
      "▁pain": 2127,
      "▁neither": 2128,
      "nondelibreaten": 2129,
      "▁uh": 2130,
      "▁end": 2131,
      "▁doors": 2132,
      "under": 2133,
      "umer": 2134,
      "▁spac": 2135,
      "▁bugs": 2136,
      "15-": 2137,
      ",": 2138,
      "▁terrible": 2139,
      "▁70": 2140,
      "▁high": 2141,
      "▁cha": 2142,
      "▁had": 2143,
      "▁619": 2144,
      "▁holt": 2145,
      "▁nmemdrft8-7-01": 2146,
      "▁60": 2147,
      "▁03/09/2000": 2148,
      "▁2,300": 2149,
      "life": 2150,
      "▁afford": 2151,
      "ilities": 2152,
      "389": 2153,
      "▁---->===}*{===<----": 2154,
      "▁`": 2155,
      "▁hoc": 2156,
      "fi": 2157,
      "▁recip": 2158,
      "▁massive": 2159,
      "▁household": 2160,
      "▁pro": 2161,
      "ius": 2162,
      "▁rec": 2163,
      "▁attract": 2164,
      "**********************************": 2165,
      "aren": 2166,
      "rr": 2167,
      "▁cou": 2168,
      "▁broke": 2169,
      "▁1978": 2170,
      "▁713/8": 2171,
      "▁river": 2172,
      "astic": 2173,
      "eenth": 2174,
      "-460-3": 2175,
      "▁curren": 2176,
      "▁baby": 2177,
      "▁encabalgamiento": 2178,
      "▁bodies": 2179,
      "0th": 2180,
      "ef": 2181,
      "▁tickle": 2182,
      "▁apple": 2183,
      "▁users": 2184,
      "au": 2185,
      "▁offered": 2186,
      "▁provided": 2187,
      "▁ass": 2188,
      "gu": 2189,
      "awah": 2190,
      "▁finger": 2191,
      "▁nante": 2192,
      "▁spider": 2193,
      "▁wanted": 2194,
      "▁g": 2195,
      "/2": 2196,
      "pp": 2197,
      "▁09/15": 2198,
      "▁li": 2199,
      "▁!!!!": 2200,
      "▁rough": 2201,
      "rel": 2202,
      "▁watch": 2203,
      "igration": 2204,
      "ode": 2205,
      "▁wol": 2206,
      "▁did": 2207,
      "▁develop": 2208,
      "▁rush": 2209,
      "▁pittsbur": 2210,
      "▁families": 2211,
      "================================": 2212,
      "iss": 2213,
      "▁string": 2214,
      "icial": 2215,
      "ences": 2216,
      "adelp": 2217,
      "▁,": 2218,
      "▁notes": 2219,
      "▁adults": 2220,
      "▁opposite": 2221,
      "idden": 2222,
      "▁an": 2223,
      "▁main": 2224,
      "▁laws": 2225,
      "▁attrib": 2226,
      "ap": 2227,
      "▁50000": 2228,
      "back": 2229,
      "elf": 2230,
      "▁78": 2231,
      "▁likely": 2232,
      "▁english": 2233,
      "0072": 2234,
      "▁blackl": 2235,
      "▁human": 2236,
      "▁fiction": 2237,
      "ak": 2238,
      "ronic": 2239,
      "▁stage": 2240,
      "▁1875": 2241,
      "▁dec": 2242,
      "▁thin": 2243,
      "li": 2244,
      "▁281-443-3744": 2245,
      "lig": 2246,
      "▁afghanistan": 2247,
      "la": 2248,
      "pt": 2249,
      "▁9/11": 2250,
      "▁concern": 2251,
      "/16": 2252,
      ":03": 2253,
      "here": 2254,
      "▁but": 2255,
      "-00": 2256,
      "▁rural": 2257,
      "▁-----------------": 2258,
      "▁expect": 2259,
      "▁hel": 2260,
      "▁famil": 2261,
      "5/2001": 2262,
      "berry": 2263,
      "--------------------------------------------": 2264,
      "▁circum": 2265,
      "▁pull": 2266,
      "▁suffer": 2267,
      "▁entitled": 2268,
      "▁po": 2269,
      "▁talk": 2270,
      "”": 2271,
      "aid": 2272,
      "▁indian": 2273,
      "▁horrible": 2274,
      "▁connected": 2275,
      ":02": 2276,
      "▁meat": 2277,
      "ively": 2278,
      "2-6": 2279,
      "▁120": 2280,
      "3.6": 2281,
      "▁geograph": 2282,
      "4": 2283,
      "ric": 2284,
      "01": 2285,
      "ea": 2286,
      "▁410-468-3": 2287,
      "▁rid": 2288,
      "▁sending": 2289,
      "▁chat": 2290,
      "ok": 2291,
      "301": 2292,
      "▁purs": 2293,
      "▁pric": 2294,
      "▁bread": 2295,
      "▁el": 2296,
      "omen": 2297,
      "ility": 2298,
      "▁owned": 2299,
      "▁galois": 2300,
      "▁jam": 2301,
      "/7": 2302,
      "▁dogg": 2303,
      "▁6.1": 2304,
      "eo": 2305,
      "-8": 2306,
      "▁status": 2307,
      "▁vet": 2308,
      "▁microsoft": 2309,
      "ograph": 2310,
      "▁seat": 2311,
      "▁47": 2312,
      "▁ant": 2313,
      "▁front": 2314,
      "▁08/0": 2315,
      "▁240": 2316,
      "▁ob": 2317,
      "ither": 2318,
      "▁probably": 2319,
      "eb": 2320,
      "▁wine": 2321,
      "▁religion": 2322,
      "▁pre": 2323,
      "▁ne": 2324,
      "▁ris": 2325,
      "▁!!!!!!": 2326,
      "▁neighb": 2327,
      "▁created": 2328,
      "▁1800": 2329,
      "reh": 2330,
      "ʊ": 2331,
      "▁---------------------------------": 2332,
      ".16": 2333,
      "▁accepted": 2334,
      "▁comments": 2335,
      "▁2": 2336,
      "▁06": 2337,
      "stem": 2338,
      "▁could": 2339,
      "▁gent": 2340,
      "▁pal": 2341,
      "s/": 2342,
      "▁over": 2343,
      "ilit": 2344,
      "real": 2345,
      "▁re": 2346,
      "▁lies": 2347,
      "▁prod": 2348,
      "▁committ": 2349,
      "tr": 2350,
      "▁cliff": 2351,
      "▁nut": 2352,
      "▁official": 2353,
      "pped": 2354,
      "▁loss": 2355,
      "▁000010": 2356,
      "▁intended": 2357,
      "▁departing": 2358,
      "▁length": 2359,
      "icles": 2360,
      "aine": 2361,
      "▁coord": 2362,
      "▁mentioned": 2363,
      "▁least": 2364,
      "▁achieve": 2365,
      "ney": 2366,
      "▁730": 2367,
      "▁message": 2368,
      "▁1504": 2369,
      "▁1949": 2370,
      "▁usual": 2371,
      "▁hamas": 2372,
      "▁3.8": 2373,
      "▁cray": 2374,
      "▁cent": 2375,
      "izes": 2376,
      "▁mater": 2377,
      "▁vot": 2378,
      "▁squir": 2379,
      "▁foot": 2380,
      "▁sitting": 2381,
      "▁arrow": 2382,
      "roy": 2383,
      "▁popular": 2384,
      "▁pray": 2385,
      "▁15,000": 2386,
      "@t": 2387,
      "ane": 2388,
      "▁email": 2389,
      "load": 2390,
      "▁function": 2391,
      "▁black": 2392,
      "▁1841": 2393,
      "ty": 2394,
      "▁1588": 2395,
      "▁spr": 2396,
      "...@": 2397,
      "▁11/2": 2398,
      "▁alleged": 2399,
      "▁ill": 2400,
      "▁anthrax": 2401,
      "▁1623": 2402,
      "▁band": 2403,
      "▁canadian": 2404,
      "▁81": 2405,
      "teen": 2406,
      "}*{===<----": 2407,
      "▁co": 2408,
      "▁forster@enron": 2409,
      "gers": 2410,
      "▁charl": 2411,
      "▁166": 2412,
      "aken": 2413,
      "▁\"": 2414,
      "▁85": 2415,
      "▁record": 2416,
      "▁yea": 2417,
      "▁manage": 2418,
      "▁strict": 2419,
      "▁former": 2420,
      "▁650": 2421,
      "▁20,000": 2422,
      "ught": 2423,
      "▁bat": 2424,
      "ops": 2425,
      "▁vegas": 2426,
      "▁circumstances": 2427,
      "ieth": 2428,
      "▁knife": 2429,
      "▁display": 2430,
      "▁target": 2431,
      "come": 2432,
      "▁problem": 2433,
      "▁1983": 2434,
      "▁lea": 2435,
      "▁2:30": 2436,
      "▁organization": 2437,
      "▁und": 2438,
      "▁whose": 2439,
      "▁star": 2440,
      "▁movies": 2441,
      "▁trash": 2442,
      "▁traveling": 2443,
      "▁girls": 2444,
      "▁policies": 2445,
      "▁flow": 2446,
      "▁505-625-8031": 2447,
      "▁relig": 2448,
      "▁fruit": 2449,
      "▁evolution": 2450,
      "▁kill": 2451,
      "▁proceed": 2452,
      "▁goo": 2453,
      "▁broken": 2454,
      "▁liqu": 2455,
      "▁ret": 2456,
      "▁chair": 2457,
      "▁etc.": 2458,
      "▁fork": 2459,
      "▁years": 2460,
      "▁137": 2461,
      "▁freedom": 2462,
      "▁ba": 2463,
      "▁twenty": 2464,
      "▁manag": 2465,
      "▁v": 2466,
      "'re": 2467,
      "aining": 2468,
      "▁tear": 2469,
      "0/2000": 2470,
      "▁ii": 2471,
      "▁post": 2472,
      "▁swe": 2473,
      "▁dance": 2474,
      "inct": 2475,
      "▁especially": 2476,
      "▁>": 2477,
      "▁japanese": 2478,
      "▁s/he": 2479,
      "▁greet": 2480,
      "ception": 2481,
      "况": 2482,
      "▁1967": 2483,
      "▁gold": 2484,
      "ise": 2485,
      "▁anti-": 2486,
      "aur": 2487,
      "le": 2488,
      "ellow": 2489,
      "▁attacks": 2490,
      ":44": 2491,
      "▁straight": 2492,
      "cross": 2493,
      "▁contribution": 2494,
      "}*{": 2495,
      "▁1994": 2496,
      "________": 2497,
      "▁industry": 2498,
      "▁bi": 2499,
      "ulty": 2500,
      "ction": 2501,
      "▁offer": 2502,
      "▁di": 2503,
      "▁button": 2504,
      "gar": 2505,
      "▁say": 2506,
      "▁possible": 2507,
      "▁staff": 2508,
      "▁aband": 2509,
      "▁ciao": 2510,
      "▁rise": 2511,
      "▁24": 2512,
      "▁supplies": 2513,
      "▁attached": 2514,
      "▁mos": 2515,
      "▁1754": 2516,
      "fare": 2517,
      "▁lu": 2518,
      "▁tren": 2519,
      "▁congr": 2520,
      "▁down": 2521,
      "ming": 2522,
      "▁controls": 2523,
      "▁heav": 2524,
      "▁truly": 2525,
      "▁kay": 2526,
      "▁vast": 2527,
      "▁intelligence": 2528,
      "▁wear": 2529,
      "▁andril": 2530,
      "▁expand": 2531,
      "ush": 2532,
      "▁egyptian": 2533,
      "k": 2534,
      "▁senior": 2535,
      "▁host": 2536,
      "rick": 2537,
      "▁software": 2538,
      "▁hamster": 2539,
      "ard": 2540,
      "’t": 2541,
      "▁beauty": 2542,
      "ent": 2543,
      "▁custom": 2544,
      "▁islamic": 2545,
      "ay": 2546,
      "▁thought": 2547,
      "▁225": 2548,
      "▁5,000": 2549,
      "▁associate": 2550,
      "▁tong": 2551,
      "ize": 2552,
      "▁dinos": 2553,
      "▁thomas": 2554,
      "▁meet": 2555,
      "▁abs": 2556,
      "oni": 2557,
      "▁renew": 2558,
      "▁oakland": 2559,
      "▁coc": 2560,
      "ised": 2561,
      ":25": 2562,
      "▁!!!?": 2563,
      "▁elected": 2564,
      "▁ol": 2565,
      "▁pushed": 2566,
      "▁bad": 2567,
      "▁behavior": 2568,
      "▁em": 2569,
      "▁transp": 2570,
      "▁cake": 2571,
      "aster": 2572,
      "▁couple": 2573,
      "▁blanket": 2574,
      "▁03/0": 2575,
      "▁revised": 2576,
      "u": 2577,
      "▁7.2": 2578,
      "▁713-853": 2579,
      "▁yeah": 2580,
      "h": 2581,
      "▁888.916.7184": 2582,
      "oma": 2583,
      "▁against": 2584,
      "▁players": 2585,
      "▁3-5": 2586,
      "▁gulf": 2587,
      "▁00": 2588,
      "▁175": 2589,
      "▁beaut": 2590,
      "▁11/10/2000": 2591,
      "iere": 2592,
      "▁invited": 2593,
      "▁1561": 2594,
      "▁fig": 2595,
      "▁course": 2596,
      "ف": 2597,
      "▁or": 2598,
      ".8": 2599,
      "▁inside": 2600,
      "gl": 2601,
      "▁close": 2602,
      "▁09:": 2603,
      "▁refr": 2604,
      "▁x": 2605,
      "▁fifteen": 2606,
      "▁—": 2607,
      "587": 2608,
      "▁rem": 2609,
      "ig": 2610,
      "▁huit": 2611,
      "ald": 2612,
      "▁h": 2613,
      "▁independence": 2614,
      "▁dressed": 2615,
      "▁w/": 2616,
      "▁report": 2617,
      "▁shop": 2618,
      "03": 2619,
      "▁complet": 2620,
      "▁achie": 2621,
      "▁make": 2622,
      "▁tonight": 2623,
      "pite": 2624,
      "▁democr": 2625,
      "▁1846": 2626,
      "▁compar": 2627,
      "▁trading": 2628,
      "du": 2629,
      "▁hug": 2630,
      "ushing": 2631,
      "▁dough": 2632,
      "▁climate": 2633,
      "▁create": 2634,
      "iner": 2635,
      "za": 2636,
      "▁built": 2637,
      "<": 2638,
      "orus": 2639,
      "iled": 2640,
      "-8031": 2641,
      "▁works": 2642,
      "▁heads": 2643,
      "▁silver": 2644,
      "▁comes": 2645,
      ",000": 2646,
      "▁bush": 2647,
      "▁contact": 2648,
      "stances": 2649,
      "▁65": 2650,
      "▁knowing": 2651,
      "▁1505": 2652,
      "▁crisis": 2653,
      "▁ev": 2654,
      "/2000": 2655,
      "soft": 2656,
      "▁may": 2657,
      "▁pump": 2658,
      "▁approach": 2659,
      "▁buildings": 2660,
      "ently": 2661,
      "▁relationship": 2662,
      "ibilities": 2663,
      "▁269": 2664,
      "ger": 2665,
      "▁stood": 2666,
      "▁spos": 2667,
      "▁items": 2668,
      "▁(": 2669,
      "▁implementing": 2670,
      "▁1": 2671,
      "▁yo": 2672,
      "!?": 2673,
      "▁typ": 2674,
      "▁deal": 2675,
      "▁prevent": 2676,
      "▁declar": 2677,
      "▁saying": 2678,
      "▁shad": 2679,
      "▁facebook": 2680,
      "▁stopped": 2681,
      "▁bunch": 2682,
      "▁israeli": 2683,
      "alle": 2684,
      "▁huma": 2685,
      "▁ignor": 2686,
      "▁smile": 2687,
      "▁day": 2688,
      "▁small": 2689,
      "f": 2690,
      "▁04:03": 2691,
      "▁tourists": 2692,
      "▁train": 2693,
      "▁syria": 2694,
      "▁balance": 2695,
      "▁throat": 2696,
      "▁waiting": 2697,
      "▁beach": 2698,
      "▁apart": 2699,
      "▁sho": 2700,
      "▁rob": 2701,
      "ically": 2702,
      "▁facilities": 2703,
      "resh": 2704,
      "▁william": 2705,
      "lus": 2706,
      "▁latest": 2707,
      "bal": 2708,
      "▁results": 2709,
      "▁pros": 2710,
      "▁agents": 2711,
      "▁150,000": 2712,
      "▁everybody": 2713,
      "▁od": 2714,
      "▁tor": 2715,
      "▁toky": 2716,
      "▁squ": 2717,
      "▁hurts": 2718,
      "▁counterfe": 2719,
      "▁inv": 2720,
      "ented": 2721,
      "phone": 2722,
      "igator": 2723,
      "▁..": 2724,
      "ides": 2725,
      ".713.86": 2726,
      "ency": 2727,
      "▁interested": 2728,
      "▁nana": 2729,
      "8-3": 2730,
      "▁fuel": 2731,
      "▁acqu": 2732,
      "imum": 2733,
      "▁wor": 2734,
      "ya": 2735,
      "▁345-99": 2736,
      "▁91": 2737,
      "▁birthday": 2738,
      "▁1976": 2739,
      "ades": 2740,
      ":14": 2741,
      "▁env": 2742,
      "▁wid": 2743,
      "ill": 2744,
      "▁bottom": 2745,
      "▁alongside": 2746,
      "▁thr": 2747,
      "▁speech": 2748,
      "▁portion": 2749,
      "▁ste": 2750,
      "▁repe": 2751,
      "▁1980": 2752,
      "▁01/24/2001": 2753,
      "ke": 2754,
      "▁ld2d-#693": 2755,
      "▁monday": 2756,
      "ugh": 2757,
      "uf": 2758,
      "▁2020": 2759,
      "▁needs": 2760,
      "▁smooth": 2761,
      "▁8": 2762,
      "▁yourself": 2763,
      "ential": 2764,
      "sequ": 2765,
      "2/2001": 2766,
      "▁entit": 2767,
      "zer": 2768,
      "▁key": 2769,
      "ason": 2770,
      "▁song": 2771,
      "▁mir": 2772,
      "uge": 2773,
      "▁format": 2774,
      "▁suit": 2775,
      "▁850": 2776,
      "lers": 2777,
      "▁gri": 2778,
      "d-#6": 2779,
      "et": 2780,
      "ful": 2781,
      "enn": 2782,
      "olis": 2783,
      "▁highly": 2784,
      "ational": 2785,
      "erved": 2786,
      "▁sides": 2787,
      "▁republican": 2788,
      "▁similar": 2789,
      "▁saving": 2790,
      "▁agent": 2791,
      "▁so": 2792,
      "▁recently": 2793,
      "▁sub": 2794,
      "▁07:24": 2795,
      "▁long": 2796,
      "sid": 2797,
      "▁202.456": 2798,
      "ye": 2799,
      "▁1832": 2800,
      "▁will": 2801,
      "akistan": 2802,
      "▁minor": 2803,
      "▁coff": 2804,
      "veland": 2805,
      "▁chinese": 2806,
      "▁1660": 2807,
      "▁holding": 2808,
      "▁magazine": 2809,
      "▁scott": 2810,
      "▁skills": 2811,
      "_^": 2812,
      "aters": 2813,
      "iny": 2814,
      "▁hosp": 2815,
      "ommend": 2816,
      "▁dent": 2817,
      "▁rap": 2818,
      "▁quickly": 2819,
      ".70": 2820,
      "dden": 2821,
      "▁already": 2822,
      "▁mov": 2823,
      "▁creative": 2824,
      "▁cheek": 2825,
      "df": 2826,
      "▁755": 2827,
      "▁baba": 2828,
      "▁musharraf": 2829,
      ".2": 2830,
      "ope": 2831,
      "▁rel": 2832,
      "53": 2833,
      "▁bought": 2834,
      "uit": 2835,
      "ي": 2836,
      "rad": 2837,
      "▁lean": 2838,
      "▁2021": 2839,
      "▁safety": 2840,
      "vern": 2841,
      "▁de": 2842,
      "ized": 2843,
      "▁530": 2844,
      "▁enforcement": 2845,
      "ic": 2846,
      "▁times": 2847,
      "▁281-435-0295": 2848,
      "▁shut": 2849,
      "▁known": 2850,
      "▁bar": 2851,
      "▁transport": 2852,
      "▁print": 2853,
      "▁lord": 2854,
      "▁switch": 2855,
      "▁713-654-": 2856,
      "----------": 2857,
      "▁flood": 2858,
      "les": 2859,
      "▁bos": 2860,
      "▁281": 2861,
      "▁1848": 2862,
      "▁03/21/2001": 2863,
      "▁p.s": 2864,
      "▁brown": 2865,
      "▁aud": 2866,
      "▁patient": 2867,
      "ordon": 2868,
      "4/2000": 2869,
      "sych": 2870,
      "▁belie": 2871,
      "▁-": 2872,
      "▁independ": 2873,
      "ι": 2874,
      "▁restaur": 2875,
      "z": 2876,
      "▁implementation": 2877,
      "uals": 2878,
      "▁union": 2879,
      "▁prosper": 2880,
      "▁yet": 2881,
      "▁altern": 2882,
      "▁kick": 2883,
      "▁mr": 2884,
      "▁another": 2885,
      "▁washington": 2886,
      "een": 2887,
      "▁345-3436": 2888,
      "▁allowed": 2889,
      "▁vs.": 2890,
      "90": 2891,
      "▁rout": 2892,
      "key": 2893,
      "esc": 2894,
      "谿": 2895,
      "ii": 2896,
      "▁rev": 2897,
      "ai": 2898,
      "▁wan": 2899,
      "▁numerous": 2900,
      "wide": 2901,
      "▁buy": 2902,
      "▁mel": 2903,
      "▁tract": 2904,
      "self": 2905,
      "▁became": 2906,
      "▁thro": 2907,
      "▁guarant": 2908,
      "▁handle": 2909,
      "▁pollution": 2910,
      "▁reason": 2911,
      "▁patter": 2912,
      "▁him": 2913,
      "▁modulo": 2914,
      "▁found": 2915,
      "▁give": 2916,
      "▁366": 2917,
      "▁missed": 2918,
      "▁link": 2919,
      "▁ut": 2920,
      "▁425-415-": 2921,
      "▁bus": 2922,
      "▁.": 2923,
      "rec": 2924,
      ".1": 2925,
      "xce": 2926,
      "▁sample": 2927,
      "▁eggs": 2928,
      "nic": 2929,
      ".45": 2930,
      "▁08:30": 2931,
      "▁1604": 2932,
      "▁parking": 2933,
      "▁nervous": 2934,
      "▁qa": 2935,
      "▁lion": 2936,
      "asa": 2937,
      "▁happened": 2938,
      "▁nandaro": 2939,
      "!!!!!!!!": 2940,
      "▁ku": 2941,
      "▁died": 2942,
      "▁taste": 2943,
      "▁10/26/2000": 2944,
      "s.": 2945,
      "▁dans": 2946,
      "dred": 2947,
      "ort": 2948,
      "▁sup": 2949,
      "▁simply": 2950,
      "▁duty": 2951,
      "▁s/h": 2952,
      "▁1859": 2953,
      "▁62": 2954,
      "ates": 2955,
      "where": 2956,
      "▁among": 2957,
      "▁told": 2958,
      "▁spot": 2959,
      "▁active": 2960,
      "co": 2961,
      "fore": 2962,
      "ament": 2963,
      "▁afric": 2964,
      "w": 2965,
      "20-": 2966,
      "▁days": 2967,
      "ars": 2968,
      "▁1.75": 2969,
      "▁sector": 2970,
      "▁answered": 2971,
      "▁dan": 2972,
      "▁anyway": 2973,
      "128": 2974,
      "▁feature": 2975,
      "▁feels": 2976,
      "▁1954": 2977,
      "▁fy": 2978,
      "▁cold": 2979,
      "▁shakes": 2980,
      "▁esp": 2981,
      "▁1.5": 2982,
      "▁standing": 2983,
      "acter": 2984,
      "▁cupc": 2985,
      "▁ha": 2986,
      "▁harv": 2987,
      "ado": 2988,
      "▁interact": 2989,
      "tain": 2990,
      "▁ukrain": 2991,
      "itch": 2992,
      "▁arg": 2993,
      "▁details": 2994,
      "▁3.": 2995,
      "▁karen": 2996,
      "verse": 2997,
      "▁mad": 2998,
      "▁earli": 2999,
      "▁character": 3000,
      "▁stretch": 3001,
      "▁713": 3002,
      "▁applic": 3003,
      "▁fill": 3004,
      "iday": 3005,
      "ek": 3006,
      "-518": 3007,
      "ining": 3008,
      "▁ed": 3009,
      "▁fit": 3010,
      "▁pl": 3011,
      "▁aunt": 3012,
      "▁chagrin": 3013,
      "form": 3014,
      "▁need": 3015,
      "▁2.00": 3016,
      "▁713/853": 3017,
      "▁pepper": 3018,
      "▁1900": 3019,
      "▁44,000": 3020,
      "▁mama": 3021,
      "▁norton": 3022,
      "uation": 3023,
      "▁whi": 3024,
      "▁petersburg": 3025,
      "8806": 3026,
      "▁decade": 3027,
      "▁killing": 3028,
      "▁researchers": 3029,
      "▁afghan": 3030,
      "▁alt": 3031,
      "▁research": 3032,
      "osed": 3033,
      "mine": 3034,
      "▁neighbor": 3035,
      "▁58": 3036,
      "▁careful": 3037,
      "▁burbank": 3038,
      "▁saw": 3039,
      "▁exerc": 3040,
      "uction": 3041,
      "▁foc": 3042,
      "lies": 3043,
      "▁600": 3044,
      "ned": 3045,
      "▁played": 3046,
      "▁156": 3047,
      "▁1991": 3048,
      "▁€": 3049,
      "▁5/18": 3050,
      "▁meaning": 3051,
      ".": 3052,
      "▁equal": 3053,
      "▁authorities": 3054,
      "0": 3055,
      "▁moral": 3056,
      "▁mo": 3057,
      "▁gorio": 3058,
      ":15": 3059,
      "▁1799": 3060,
      "|": 3061,
      "▁cock": 3062,
      "▁require": 3063,
      ":56": 3064,
      "▁cleveland": 3065,
      "84": 3066,
      "air": 3067,
      "▁required": 3068,
      "▁penal": 3069,
      "▁elimin": 3070,
      "▁tec": 3071,
      "▁individual": 3072,
      "▁plenty": 3073,
      "▁crying": 3074,
      "▁representative": 3075,
      "▁witch": 3076,
      ":05": 3077,
      "▁yes": 3078,
      "ways": 3079,
      "elled": 3080,
      "▁vod": 3081,
      "▁snake": 3082,
      "▁origin": 3083,
      "29": 3084,
      "▁push": 3085,
      "ublic": 3086,
      "▁claimed": 3087,
      "▁---=": 3088,
      "▁1564": 3089,
      "l": 3090,
      "▁mix": 3091,
      "▁afgh": 3092,
      "▁across": 3093,
      "oin": 3094,
      "▁good": 3095,
      "▁bre": 3096,
      "▁longer": 3097,
      "▁charged": 3098,
      "▁phot": 3099,
      "▁chief": 3100,
      "▁revenue": 3101,
      "▁oak": 3102,
      "▁99": 3103,
      "▁rules": 3104,
      "ammed": 3105,
      "▁rol": 3106,
      "▁process": 3107,
      "▁numbers": 3108,
      "▁hand": 3109,
      "▁experimental": 3110,
      ":52": 3111,
      "▁tab": 3112,
      "ishing": 3113,
      "▁delta": 3114,
      "ript": 3115,
      "▁sal": 3116,
      "▁stan": 3117,
      "▁suff": 3118,
      "▁campa": 3119,
      "-642": 3120,
      "▁impro": 3121,
      "bye": 3122,
      "▁network": 3123,
      "▁discovered": 3124,
      "athy": 3125,
      "▁8.3": 3126,
      "‘": 3127,
      "uct": 3128,
      "▁remained": 3129,
      "▁october": 3130,
      "onn": 3131,
      "ertain": 3132,
      "▁traged": 3133,
      "▁2012": 3134,
      "▁catch": 3135,
      "▁person": 3136,
      "▁block": 3137,
      "onto": 3138,
      "6021": 3139,
      "▁350": 3140,
      "α": 3141,
      "▁10": 3142,
      "urch": 3143,
      "▁lower": 3144,
      "chester": 3145,
      "▁better": 3146,
      "▁345-9945": 3147,
      "▁dress": 3148,
      "▁33": 3149,
      "▁1940": 3150,
      "/8": 3151,
      "▁summ": 3152,
      "▁1892": 3153,
      "▁tend": 3154,
      "▁whe": 3155,
      "▁merely": 3156,
      "▁takes": 3157,
      "dies": 3158,
      "ob": 3159,
      "▁02-0": 3160,
      "▁ate": 3161,
      "▁maint": 3162,
      "▁460": 3163,
      "▁surrounded": 3164,
      "▁edit": 3165,
      "ific": 3166,
      "▁/": 3167,
      "▁excited": 3168,
      "▁sta": 3169,
      "▁salon": 3170,
      "▁159": 3171,
      "▁fundamental": 3172,
      "▁migr": 3173,
      ":16": 3174,
      "▁animals": 3175,
      "▁max": 3176,
      "▁flowers": 3177,
      "ve": 3178,
      "▁cle": 3179,
      "▁interest": 3180,
      "▁76": 3181,
      "▁+45": 3182,
      "▁140": 3183,
      "iration": 3184,
      "•": 3185,
      "▁terrorist": 3186,
      "▁05908549": 3187,
      "/31": 3188,
      "▁prime": 3189,
      "▁socks": 3190,
      "▁6.2.1": 3191,
      "▁11/0": 3192,
      "fer": 3193,
      "▁44": 3194,
      "▁stra": 3195,
      "▁nash": 3196,
      "▁1849": 3197,
      "▁deter": 3198,
      "▁stayed": 3199,
      "enron.com": 3200,
      "▁sole": 3201,
      "▁acad": 3202,
      "▁developed": 3203,
      "▁twenty-": 3204,
      "▁operation": 3205,
      "▁conference": 3206,
      "▁confident": 3207,
      "▁fus": 3208,
      "▁art": 3209,
      "▁swim": 3210,
      "▁nearly": 3211,
      "cceed": 3212,
      "ware": 3213,
      "▁women": 3214,
      "▁steps": 3215,
      "▁680": 3216,
      "▁weak": 3217,
      "▁resident": 3218,
      "▁psych": 3219,
      "▁isl": 3220,
      "▁request": 3221,
      "▁moon": 3222,
      "▁hes": 3223,
      "▁palestinian": 3224,
      "▁fool": 3225,
      "▁2.0": 3226,
      "aling": 3227,
      "asks": 3228,
      "▁united": 3229,
      "▁convers": 3230,
      "ama": 3231,
      "▁dem": 3232,
      "奈": 3233,
      "od": 3234,
      "▁useful": 3235,
      "grad": 3236,
      "▁self": 3237,
      "ages": 3238,
      "▁significant": 3239,
      "▁group": 3240,
      "▁visit": 3241,
      "▁peau": 3242,
      "ley": 3243,
      "▁169": 3244,
      "▁chapter": 3245,
      "▁0": 3246,
      "▁essential": 3247,
      "▁actual": 3248,
      "▁chaos": 3249,
      ",1": 3250,
      "byl": 3251,
      ":38": 3252,
      "▁doo": 3253,
      "/11": 3254,
      "ires": 3255,
      "▁u.s.": 3256,
      "vey": 3257,
      "sus": 3258,
      "▁hm": 3259,
      "▁con": 3260,
      "▁87": 3261,
      "▁~": 3262,
      "ph": 3263,
      "verage": 3264,
      "inny": 3265,
      "lear": 3266,
      "cle": 3267,
      "ron": 3268,
      "clusion": 3269,
      "▁accident": 3270,
      "-780": 3271,
      "▁guerre": 3272,
      "ipe": 3273,
      "▁seriously": 3274,
      "▁tam": 3275,
      "▁shackl": 3276,
      "▁amongst": 3277,
      "chi": 3278,
      "uated": 3279,
      "▁ireland": 3280,
      "▁>>": 3281,
      "▁frequently": 3282,
      "▁american": 3283,
      "amb": 3284,
      "'": 3285,
      "▁argument": 3286,
      "▁answ": 3287,
      "▁73": 3288,
      "▁confirm": 3289,
      "▁doub": 3290,
      "▁nor": 3291,
      "▁mayor": 3292,
      "inking": 3293,
      "sp": 3294,
      "▁fem": 3295,
      "▁315-460-3": 3296,
      "▁mountains": 3297,
      "▁bright": 3298,
      "▁fish": 3299,
      "▁lighting": 3300,
      "▁=": 3301,
      "▁doughnut": 3302,
      "▁base": 3303,
      "lim": 3304,
      "▁cool": 3305,
      "▁lists": 3306,
      "/01/2001": 3307,
      "▁prepar": 3308,
      "▁war": 3309,
      "▁yout": 3310,
      "▁mount": 3311,
      "▁1.00": 3312,
      "▁1805": 3313,
      "▁their": 3314,
      "▁ideas": 3315,
      "▁except": 3316,
      "▁sorry": 3317,
      "▁107": 3318,
      "ɑ": 3319,
      "▁☏": 3320,
      "54-": 3321,
      "▁camp": 3322,
      "▁2:25": 3323,
      "▁500": 3324,
      "▁fares": 3325,
      "▁25": 3326,
      "▁db": 3327,
      "▁election": 3328,
      "▁craw": 3329,
      "▁1/2": 3330,
      "▁sweetie": 3331,
      "▁images": 3332,
      "▁val": 3333,
      "▁pip": 3334,
      "▁some": 3335,
      "▁sri": 3336,
      "▁rather": 3337,
      "▁bask": 3338,
      "▁un": 3339,
      "▁vogelaviatio": 3340,
      "▁cell": 3341,
      "sc": 3342,
      "oot": 3343,
      "▁product": 3344,
      "▁1699": 3345,
      "▁montreal": 3346,
      "------": 3347,
      "ents": 3348,
      "▁ga": 3349,
      "/2004": 3350,
      "▁usually": 3351,
      "▁cart": 3352,
      "▁1580": 3353,
      "▁giv": 3354,
      "▁date": 3355,
      "▁burst": 3356,
      "▁rocks": 3357,
      "amed": 3358,
      "als": 3359,
      "▁9": 3360,
      "▁80": 3361,
      "▁rich": 3362,
      "olog": 3363,
      "▁.!": 3364,
      "▁want": 3365,
      "▁quart": 3366,
      "nondelibreat": 3367,
      "▁loan": 3368,
      "▁proposal": 3369,
      "▁**": 3370,
      "▁confir": 3371,
      "▁copy": 3372,
      "▁1696": 3373,
      "▁horsie": 3374,
      "unk": 3375,
      "▁11/7": 3376,
      "▁33,000": 3377,
      "ano": 3378,
      "light": 3379,
      "▁silk": 3380,
      "▁single": 3381,
      "▁1602": 3382,
      "iles": 3383,
      "▁authority": 3384,
      "il": 3385,
      "▁...................": 3386,
      "▁successful": 3387,
      "▁history": 3388,
      "▁i": 3389,
      "▁man": 3390,
      "▁calm": 3391,
      "▁captain": 3392,
      "it": 3393,
      "▁70.85": 3394,
      "ten": 3395,
      "▁quest": 3396,
      "▁==----": 3397,
      "▁fle": 3398,
      "▁shall": 3399,
      "8/2000": 3400,
      "sey": 3401,
      "atch": 3402,
      "rup": 3403,
      "▁lots": 3404,
      "▁3": 3405,
      "pre": 3406,
      "go": 3407,
      "▁1777": 3408,
      "▁sleepy": 3409,
      "£": 3410,
      "-6": 3411,
      "▁mummy": 3412,
      "▁phen": 3413,
      "▁thing": 3414,
      "▁vide": 3415,
      "gan": 3416,
      "’": 3417,
      "▁window": 3418,
      "▁likes": 3419,
      "ached": 3420,
      "▁buck": 3421,
      "iers": 3422,
      "▁bla": 3423,
      "▁market": 3424,
      "▁desc": 3425,
      "icip": 3426,
      "▁sn": 3427,
      "▁safet": 3428,
      "▁crack": 3429,
      "▁imm": 3430,
      "▁tar": 3431,
      "▁ord": 3432,
      "▁lar": 3433,
      "▁inform": 3434,
      "▁dw": 3435,
      "▁arrival": 3436,
      "▁pit": 3437,
      "▁energ": 3438,
      "an@t": 3439,
      "▁505-625": 3440,
      "82": 3441,
      "▁5:00": 3442,
      "▁conditions": 3443,
      "opment": 3444,
      "▁3724": 3445,
      "▁pho": 3446,
      "ature": 3447,
      "▁most": 3448,
      "▁funct": 3449,
      "▁fac": 3450,
      "▁media": 3451,
      "▁blue": 3452,
      "▁trained": 3453,
      "▁crowd": 3454,
      "pper": 3455,
      "bol": 3456,
      "gest": 3457,
      ".00": 3458,
      "▁stairs": 3459,
      "ude": 3460,
      "▁nmemdrft8-7": 3461,
      "▁deep": 3462,
      "▁del": 3463,
      "bank": 3464,
      "eeze": 3465,
      "▁multip": 3466,
      "▁ensure": 3467,
      "▁sour": 3468,
      ":51": 3469,
      "▁subjects": 3470,
      "▁fact": 3471,
      "▁som": 3472,
      "▁joy": 3473,
      "iting": 3474,
      "▁10/31": 3475,
      "erves": 3476,
      "▁legislation": 3477,
      "▁weather": 3478,
      "▁hen": 3479,
      "▁na": 3480,
      "aled": 3481,
      "▁religious": 3482,
      "▁itself": 3483,
      "▁lad": 3484,
      "asons": 3485,
      "▁teeth": 3486,
      "▁notwith": 3487,
      "lac": 3488,
      "▁wolf": 3489,
      "▁pers": 3490,
      "▁rang": 3491,
      "eland": 3492,
      "▁said": 3493,
      "oc": 3494,
      "▁originally": 3495,
      "7/2000": 3496,
      "▁favor": 3497,
      "▁recommend": 3498,
      "▁apprec": 3499,
      "uela": 3500,
      "lish": 3501,
      "▁202.456.2461": 3502,
      "▁1609": 3503,
      "▁week": 3504,
      "oman": 3505,
      "▁appropriate": 3506,
      "▁u.": 3507,
      "▁explan": 3508,
      "iqu": 3509,
      "▁825": 3510,
      "▁compreh": 3511,
      "hing": 3512,
      "enix": 3513,
      "▁84": 3514,
      "side": 3515,
      "▁clear": 3516,
      "▁seven": 3517,
      "▁photograph": 3518,
      "▁_________________________________________________": 3519,
      "▁dining": 3520,
      "▁p": 3521,
      "ρ": 3522,
      "-1": 3523,
      "▁det": 3524,
      "▁sites": 3525,
      "▁trick": 3526,
      "▁no": 3527,
      "urning": 3528,
      "▁pleasure": 3529,
      "▁else": 3530,
      "▁witness": 3531,
      "▁google": 3532,
      "ond": 3533,
      "▁4_28": 3534,
      "at": 3535,
      "▁meal": 3536,
      "▁answers": 3537,
      "▁responsibility": 3538,
      "202": 3539,
      "▁graduate": 3540,
      "▁brief": 3541,
      "apt": 3542,
      "arr": 3543,
      "friend": 3544,
      "-kedne": 3545,
      "▁diversity": 3546,
      "▁focus": 3547,
      "▁turning": 3548,
      "▁ken": 3549,
      "▁neigh": 3550,
      "▁lawy": 3551,
      "9999": 3552,
      "no": 3553,
      "▁pul": 3554,
      "▁attem": 3555,
      "rop": 3556,
      "ikh": 3557,
      "ram": 3558,
      "urs": 3559,
      "▁kid": 3560,
      "▁gdp": 3561,
      "▁ted": 3562,
      "ender": 3563,
      "▁gross": 3564,
      "act": 3565,
      "▁road": 3566,
      "▁05/17/99": 3567,
      "▁nabe": 3568,
      "▁417": 3569,
      "▁peanut": 3570,
      "▁evolutionary": 3571,
      "▁list": 3572,
      "▁living": 3573,
      "▁shi": 3574,
      "▁proud": 3575,
      "ate": 3576,
      "irl": 3577,
      "▁larger": 3578,
      "200": 3579,
      "iddle": 3580,
      "▁drink": 3581,
      "▁maintain": 3582,
      "lect": 3583,
      "▁hors": 3584,
      "▁1307": 3585,
      "▁510-642": 3586,
      "tto": 3587,
      "▁particular": 3588,
      "▁channel": 3589,
      "▁wearing": 3590,
      "/99": 3591,
      "▁cogn": 3592,
      "cement": 3593,
      "▁sports": 3594,
      "▁’ve": 3595,
      "▁name": 3596,
      "▁philadelphia": 3597,
      "▁cit": 3598,
      "▁marked": 3599,
      "▁-------------------------------------------------": 3600,
      "rain": 3601,
      "ional": 3602,
      "▁protection": 3603,
      "▁county": 3604,
      "▁transfer": 3605,
      "▁seattle": 3606,
      "▁albeit": 3607,
      "▁hurry": 3608,
      "▁baking": 3609,
      "▁broad": 3610,
      "▁arrived": 3611,
      "▁teh": 3612,
      "▁appear": 3613,
      "▁gender": 3614,
      "tw": 3615,
      "▁appeal": 3616,
      "▁vir": 3617,
      "▁interv": 3618,
      "▁kansas": 3619,
      "▁crow": 3620,
      "▁lift": 3621,
      "ober": 3622,
      "▁awesome": 3623,
      "-696": 3624,
      "▁park": 3625,
      "ackl": 3626,
      "▁pi": 3627,
      "ashed": 3628,
      "▁where": 3629,
      "▁cat": 3630,
      "▁3/8/00": 3631,
      "▁clos": 3632,
      "▁style": 3633,
      "▁toast": 3634,
      "▁advantage": 3635,
      "33": 3636,
      "▁finished": 3637,
      "▁dg": 3638,
      "▁3:00": 3639,
      "▁bas": 3640,
      "▁1966": 3641,
      "▁thurs": 3642,
      "▁syn": 3643,
      "▁return": 3644,
      "eling": 3645,
      "ump": 3646,
      "▁cause": 3647,
      "****": 3648,
      "@enron.com": 3649,
      "▁khan@t": 3650,
      "ural": 3651,
      "ibald": 3652,
      "▁mart": 3653,
      "▁relax": 3654,
      "ately": 3655,
      "-435": 3656,
      "▁attempt": 3657,
      "▁beyond": 3658,
      "▁exercise": 3659,
      "iveness": 3660,
      "in": 3661,
      "▁vi": 3662,
      "▁ride": 3663,
      "▁1787": 3664,
      "on": 3665,
      "▁attack": 3666,
      "-343": 3667,
      "▁students": 3668,
      "▁totally": 3669,
      "▁general": 3670,
      "burg": 3671,
      "▁cir": 3672,
      "▁dinner": 3673,
      "fl": 3674,
      "▁eu": 3675,
      "▁55": 3676,
      "▁different": 3677,
      "▁family": 3678,
      "gh": 3679,
      "▁partners": 3680,
      "▁magic": 3681,
      "iron": 3682,
      "▁garage": 3683,
      "▁signed": 3684,
      "ql": 3685,
      "▁http": 3686,
      "▁region": 3687,
      "▁j": 3688,
      "▁1950": 3689,
      "▁yer": 3690,
      "estic": 3691,
      "▁+++": 3692,
      "▁shell": 3693,
      "uled": 3694,
      "mar": 3695,
      "▁officials": 3696,
      "▁tr": 3697,
      "▁nine": 3698,
      "▁bones": 3699,
      "▁elect": 3700,
      "▁situ": 3701,
      "▁ash": 3702,
      "口": 3703,
      "ʒ": 3704,
      "▁cities": 3705,
      "lied": 3706,
      "ects": 3707,
      "▁57": 3708,
      "▁communication": 3709,
      "▁quant": 3710,
      "▁dol": 3711,
      "▁april": 3712,
      "face": 3713,
      "▁flag": 3714,
      "▁mixed": 3715,
      "▁wed": 3716,
      "▁go": 3717,
      "▁operators": 3718,
      "iro": 3719,
      "▁dollar": 3720,
      "▁govern": 3721,
      "▁-2-": 3722,
      "▁dey": 3723,
      "▁picked": 3724,
      "▁emb": 3725,
      "▁tractor": 3726,
      "▁'re": 3727,
      "▁very": 3728,
      "▁gramm": 3729,
      "▁jobs": 3730,
      "▁incred": 3731,
      "▁alone": 3732,
      "▁bab": 3733,
      "▁atmosphere": 3734,
      "▁1616": 3735,
      "▁stop": 3736,
      "▁edu": 3737,
      "iful": 3738,
      "▁there": 3739,
      "▁plastic": 3740,
      "▁rose": 3741,
      "▁distingu": 3742,
      "itely": 3743,
      "φ": 3744,
      "▁fr": 3745,
      "phis": 3746,
      ".g": 3747,
      "____": 3748,
      "▁legos": 3749,
      "▁drove": 3750,
      "▁caused": 3751,
      "▁hund": 3752,
      "ville": 3753,
      "▁sport": 3754,
      "▁cruise": 3755,
      "▁before": 3756,
      "▁xv": 3757,
      "▁82": 3758,
      "▁http://": 3759,
      "▁roll": 3760,
      "▁conven": 3761,
      "▁olymp": 3762,
      "远": 3763,
      "▁wentz": 3764,
      "▁315": 3765,
      "▁candidate": 3766,
      "▁639": 3767,
      "▁copies": 3768,
      "▁ena": 3769,
      "▁respond": 3770,
      "▁proble": 3771,
      "▁elevator": 3772,
      "▁nerv": 3773,
      "▁jour": 3774,
      "▁improvement": 3775,
      "▁field": 3776,
      "ribe": 3777,
      "▁threw": 3778,
      "fast": 3779,
      "ces": 3780,
      "▁supp": 3781,
      "▁tool": 3782,
      "▁☎": 3783,
      "▁gisb": 3784,
      "▁penn": 3785,
      "▁humans": 3786,
      "ner": 3787,
      "▁bite": 3788,
      "▁dkk": 3789,
      "uring": 3790,
      "▁concerned": 3791,
      "▁1647": 3792,
      "▁however": 3793,
      "▁internet": 3794,
      "▁experiences": 3795,
      "wards": 3796,
      "▁ou": 3797,
      "▁floor": 3798,
      "▁bub": 3799,
      "aper": 3800,
      "▁guidelines": 3801,
      "▁sle": 3802,
      "▁belong": 3803,
      "▁grant": 3804,
      "▁reality": 3805,
      "▁crop": 3806,
      "▁des": 3807,
      "▁super": 3808,
      "fet": 3809,
      "▁jew": 3810,
      "▁distrib": 3811,
      "anger": 3812,
      "▁03:48": 3813,
      "▁present": 3814,
      "ises": 3815,
      "▁side": 3816,
      "▁goods": 3817,
      "urt": 3818,
      "ging": 3819,
      "arch": 3820,
      "▁truck": 3821,
      "▁bathroom": 3822,
      "inews": 3823,
      "▁carolina": 3824,
      "▁program": 3825,
      "off": 3826,
      "right": 3827,
      "▁refused": 3828,
      "ros": 3829,
      "entions": 3830,
      "▁sam": 3831,
      "▁supper": 3832,
      "▁others": 3833,
      "ys": 3834,
      "▁chance": 3835,
      ".15": 3836,
      "hia": 3837,
      "▁law": 3838,
      "esth": 3839,
      "▁suggested": 3840,
      "▁gener": 3841,
      "▁pin": 3842,
      "▁which": 3843,
      "el": 3844,
      "▁screen": 3845,
      "▁01/26/2001": 3846,
      "▁definition": 3847,
      "▁paint": 3848,
      "▁major": 3849,
      "▁shark": 3850,
      "▁compon": 3851,
      "▁released": 3852,
      "▁drinks": 3853,
      "arily": 3854,
      "▁|": 3855,
      "ted": 3856,
      "▁pivottable": 3857,
      "▁explain": 3858,
      "▁1100": 3859,
      "▁1613": 3860,
      "▁due": 3861,
      "▁besides": 3862,
      "bie": 3863,
      "▁site": 3864,
      "▁ge": 3865,
      "▁voice": 3866,
      "▁methods": 3867,
      "x": 3868,
      "▁seventy": 3869,
      "▁willing": 3870,
      "▁indust": 3871,
      "▁ded": 3872,
      "on@ect": 3873,
      "▁3.7": 3874,
      "ateg": 3875,
      "▁amaz": 3876,
      "▁888": 3877,
      "▁remark": 3878,
      "▁agric": 3879,
      "▁unlike": 3880,
      "anim": 3881,
      "▁hotels": 3882,
      "▁01/19/2001": 3883,
      "ex": 3884,
      "▁trial": 3885,
      "▁military": 3886,
      "wise": 3887,
      "▁floating": 3888,
      "▁termin": 3889,
      "▁425": 3890,
      "▁04/16/2001": 3891,
      "▁med": 3892,
      "▁proposed": 3893,
      "­": 3894,
      "▁expected": 3895,
      "▁political": 3896,
      "▁asp": 3897,
      "-9004": 3898,
      "▁increasing": 3899,
      "▁christmas": 3900,
      "▁strain": 3901,
      "▁well": 3902,
      "▁changed": 3903,
      "a)": 3904,
      "▁129": 3905,
      "▁mal": 3906,
      "▁hour": 3907,
      "▁contr": 3908,
      "ift": 3909,
      "▁surprised": 3910,
      "▁158": 3911,
      "o": 3912,
      "uts": 3913,
      "conn": 3914,
      "▁shelf": 3915,
      "▁22": 3916,
      "▁dam": 3917,
      "▁steph": 3918,
      "▁‘’": 3919,
      "▁apparent": 3920,
      "▁b.": 3921,
      "ould": 3922,
      "▁horses": 3923,
      "▁z": 3924,
      "five": 3925,
      "▁shared": 3926,
      "ult": 3927,
      "津": 3928,
      "œ": 3929,
      "ain": 3930,
      "am": 3931,
      "▁dollars": 3932,
      "ml": 3933,
      "en": 3934,
      "▁anywhere": 3935,
      "▁demand": 3936,
      "igu": 3937,
      "▁num": 3938,
      "otion": 3939,
      "▁c.": 3940,
      "rael": 3941,
      "uch": 3942,
      "▁1179": 3943,
      "▁addiction": 3944,
      "▁me": 3945,
      "▁statements": 3946,
      "▁comedie": 3947,
      "▁closer": 3948,
      "▁driver": 3949,
      "▁painting": 3950,
      ".10": 3951,
      "▁mor": 3952,
      "++++": 3953,
      "▁signs": 3954,
      "▁don": 3955,
      "ret": 3956,
      "ep": 3957,
      "▁26": 3958,
      "▁seek": 3959,
      "▁pretend": 3960,
      "▁dri": 3961,
      "iance": 3962,
      "▁underst": 3963,
      "▁first": 3964,
      "▁settlement": 3965,
      "▁late": 3966,
      "▁morning": 3967,
      "▁sandwich": 3968,
      "▁1575": 3969,
      "▁average": 3970,
      "cing": 3971,
      "▁months": 3972,
      "▁basil": 3973,
      "▁battle": 3974,
      "▁cas": 3975,
      "corn": 3976,
      "▁procedure": 3977,
      "▁individ": 3978,
      "▁canada": 3979,
      "▁ran": 3980,
      "▁notice": 3981,
      "k.ur": 3982,
      "▁clothing": 3983,
      "▁11:0": 3984,
      "▁illusions": 3985,
      "▁support": 3986,
      "aped": 3987,
      "▁public": 3988,
      "▁along": 3989,
      "▁185": 3990,
      "▁legs": 3991,
      "mem": 3992,
      "▁defense": 3993,
      "▁suggests": 3994,
      "@": 3995,
      "sl": 3996,
      "▁brit": 3997,
      "======": 3998,
      "414": 3999,
      "▁killed": 4000,
      "rible": 4001,
      "▁philosoph": 4002,
      "▁hundred": 4003,
      "▁1896": 4004,
      "▁34": 4005,
      "▁odd": 4006,
      "▁202.456.1414": 4007,
      "▁e.g": 4008,
      "▁electricity": 4009,
      "▁view": 4010,
      "▁twenty-four": 4011,
      "orio": 4012,
      "744": 4013,
      "▁vallee": 4014,
      "▁2005": 4015,
      "▁consequences": 4016,
      "▁yours": 4017,
      "▁jordan": 4018,
      "▁we": 4019,
      "kk": 4020,
      "▁fee": 4021,
      "▁choose": 4022,
      "▁prec": 4023,
      ">===": 4024,
      "▁dist": 4025,
      "▁if": 4026,
      "ity": 4027,
      "▁home": 4028,
      "▁progr": 4029,
      "▁ex": 4030,
      "aff": 4031,
      "▁walking": 4032,
      "▁certainly": 4033,
      "▁tun": 4034,
      "▁kent": 4035,
      "▁iraq": 4036,
      "▁cruc": 4037,
      "ending": 4038,
      "▁city": 4039,
      "other": 4040,
      "▁insurance": 4041,
      "▁contract": 4042,
      "▁connection": 4043,
      "▁penny": 4044,
      "angu": 4045,
      "▁defe": 4046,
      "ge": 4047,
      "oo": 4048,
      "▁jer": 4049,
      "▁46": 4050,
      "ges": 4051,
      "uments": 4052,
      "ounded": 4053,
      "▁cover": 4054,
      "aleck": 4055,
      ",6": 4056,
      "id": 4057,
      "▁bl": 4058,
      "▁67": 4059,
      "▁wake": 4060,
      "anta": 4061,
      "▁reve": 4062,
      "ued": 4063,
      "▁girl": 4064,
      "▁enh": 4065,
      "▁emerg": 4066,
      "▁forced": 4067,
      "▁government": 4068,
      "▁concerning": 4069,
      "alys": 4070,
      "▁regarding": 4071,
      "▁season": 4072,
      "▁relevant": 4073,
      "▁greek": 4074,
      "▁moh": 4075,
      "▁governor": 4076,
      "▁fine": 4077,
      "▁w": 4078,
      "▁booked": 4079,
      "▁esc": 4080,
      "▁inch": 4081,
      "to": 4082,
      "7/99": 4083,
      "acle": 4084,
      "▁image": 4085,
      "▁arrang": 4086,
      "▁confl": 4087,
      "▁informacion": 4088,
      "▁cultural": 4089,
      "▁exec": 4090,
      "ologist": 4091,
      "nov": 4092,
      "▁1820": 4093,
      "▁32": 4094,
      "________________________________": 4095,
      "58": 4096,
      "▁waited": 4097,
      "▁hot": 4098,
      "▁begun": 4099,
      "________________": 4100,
      "ible": 4101,
      "▁needed": 4102,
      ".7": 4103,
      "▁shit": 4104,
      "▁haf": 4105,
      "/13": 4106,
      "▁minute": 4107,
      "▁pm": 4108,
      "▁strike": 4109,
      "▁oct": 4110,
      "v.": 4111,
      "▁conclusion": 4112,
      "▁295870": 4113,
      "▁err": 4114,
      "▁credit": 4115,
      "▁company": 4116,
      "ters": 4117,
      "▁29587": 4118,
      "▁die": 4119,
      "▁28": 4120,
      "▁pie": 4121,
      "que": 4122,
      "▁scan": 4123,
      "▁tu": 4124,
      "▁lun": 4125,
      "▁52": 4126,
      "▁-2-f.doc": 4127,
      "▁chairs": 4128,
      "▁hea": 4129,
      "▁words": 4130,
      "▁medicine": 4131,
      "▁given": 4132,
      "▁1691": 4133,
      "▁11/7/08": 4134,
      "▁station": 4135,
      "▁mode": 4136,
      "▁atlanta": 4137,
      "ploy": 4138,
      "ors": 4139,
      "▁1220": 4140,
      "▁advance": 4141,
      "▁critics": 4142,
      "▁judg": 4143,
      "▁once": 4144,
      "▁chicken": 4145,
      "▁structural": 4146,
      "▁sec": 4147,
      "▁4:50": 4148,
      "▁air": 4149,
      "▁75": 4150,
      "▁mexic": 4151,
      "akes": 4152,
      "▁severe": 4153,
      "inter": 4154,
      "ests": 4155,
      "unic": 4156,
      "se": 4157,
      "▁hus": 4158,
      "-3989": 4159,
      "erg": 4160,
      "▁popcorn": 4161,
      "▁12,000": 4162,
      "word": 4163,
      "/30/2001": 4164,
      "▁um": 4165,
      ":28": 4166,
      "▁rapid": 4167,
      "ø": 4168,
      "▁apparently": 4169,
      "▁cop": 4170,
      "ring": 4171,
      "▁generally": 4172,
      "▁monkey": 4173,
      "▁quality": 4174,
      "▁abo": 4175,
      "▁towards": 4176,
      "fa": 4177,
      "my": 4178,
      "▁ath": 4179,
      ",9": 4180,
      "▁red": 4181,
      "a": 4182,
      "▁mot": 4183,
      "ah": 4184,
      "ac": 4185,
      "▁crit": 4186,
      "▁200,000": 4187,
      "▁susan": 4188,
      "▁nations": 4189,
      "▁1562": 4190,
      "ived": 4191,
      "▁opin": 4192,
      "▁61": 4193,
      "icult": 4194,
      "▁enc": 4195,
      "▁iv": 4196,
      "▁flu": 4197,
      "bo": 4198,
      "▁t": 4199,
      "▁office": 4200,
      "▁713-853-3989": 4201,
      "º": 4202,
      "▁1971": 4203,
      "▁leadership": 4204,
      "▁murder": 4205,
      "▁177": 4206,
      "▁next": 4207,
      "▁1995": 4208,
      "bs": 4209,
      "/26/2000": 4210,
      "▁conduct": 4211,
      "▁walked": 4212,
      "▁question": 4213,
      "▁related": 4214,
      "▁10:00": 4215,
      "▁capt": 4216,
      "▁type": 4217,
      "ple": 4218,
      "55": 4219,
      "▁12.": 4220,
      "▁nature": 4221,
      "+": 4222,
      "▁below": 4223,
      "▁constituency": 4224,
      "em": 4225,
      "▁ninety-n": 4226,
      "▁b/c": 4227,
      "▁besid": 4228,
      "古": 4229,
      "ayed": 4230,
      "▁newspaper": 4231,
      "▁4-12": 4232,
      "▁web": 4233,
      "▁palestin": 4234,
      "▁bug": 4235,
      "▁---->===": 4236,
      "▁equival": 4237,
      "▁hard": 4238,
      "▁been": 4239,
      "▁huh": 4240,
      "▁415.621": 4241,
      "▁care": 4242,
      "▁nandakk": 4243,
      "▁cases": 4244,
      "▁pres": 4245,
      "craft": 4246,
      "▁;)": 4247,
      "▁pig": 4248,
      "jo": 4249,
      "▁paul": 4250,
      "▁prom": 4251,
      "▁morality": 4252,
      "-98": 4253,
      "▁_________________________________": 4254,
      "-49": 4255,
      "▁4:30": 4256,
      "▁complete": 4257,
      "ral": 4258,
      "▁international": 4259,
      "ting": 4260,
      "▁aware": 4261,
      "▁lat": 4262,
      "▁ey": 4263,
      "▁russian": 4264,
      "▁third": 4265,
      "▁breakfast": 4266,
      "going": 4267,
      "▁news": 4268,
      "▁mei": 4269,
      "▁money": 4270,
      "▁1878": 4271,
      "▁versus": 4272,
      "▁critical": 4273,
      "ide": 4274,
      "▁brought": 4275,
      "ian": 4276,
      "▁frame": 4277,
      "rest": 4278,
      "▁sunday": 4279,
      "ients": 4280,
      "▁atop": 4281,
      "▁9221": 4282,
      "▁tacoma": 4283,
      "υ": 4284,
      "allow": 4285,
      "▁movie": 4286,
      "▁759933": 4287,
      "▁198": 4288,
      "enge": 4289,
      "93": 4290,
      "enue": 4291,
      "▁occup": 4292,
      "▁tit": 4293,
      "▁pad": 4294,
      "▁scen": 4295,
      "▁influence": 4296,
      "▁stip": 4297,
      "▁emp": 4298,
      "▁advis": 4299,
      "▁anne": 4300,
      "of": 4301,
      "▁fir": 4302,
      "▁resour": 4303,
      "▁litt": 4304,
      "arraf": 4305,
      "15": 4306,
      "▁subm": 4307,
      "▁birds": 4308,
      "▁1833": 4309,
      "▁came": 4310,
      "▁focused": 4311,
      "▁speed": 4312,
      "▁surprising": 4313,
      "▁05/25/2001": 4314,
      "▁sol": 4315,
      "▁intr": 4316,
      "▁mom": 4317,
      "▁cia": 4318,
      "▁about": 4319,
      "ocent": 4320,
      "▁not": 4321,
      "▁padalecki": 4322,
      "▁juice": 4323,
      "▁comb": 4324,
      "▁explained": 4325,
      "▁comple": 4326,
      "▁debate": 4327,
      "▁should": 4328,
      "▁effective": 4329,
      "▁alcalde": 4330,
      "▁clearly": 4331,
      "ios": 4332,
      "▁loved": 4333,
      "ood": 4334,
      "▁citizens": 4335,
      "▁low": 4336,
      "▁hill": 4337,
      "▁degree": 4338,
      "♥": 4339,
      "▁reflect": 4340,
      "▁s": 4341,
      "-4": 4342,
      "ka": 4343,
      "▁chickens": 4344,
      "osure": 4345,
      "ild": 4346,
      "▁mess": 4347,
      "att": 4348,
      "▁held": 4349,
      "noon": 4350,
      "▁assem": 4351,
      "▁hal": 4352,
      "▁category": 4353,
      "40": 4354,
      "▁ref": 4355,
      "▁alread": 4356,
      "▁cloth": 4357,
      "▁realize": 4358,
      "ank": 4359,
      "▁orders": 4360,
      "esday": 4361,
      "ich": 4362,
      "▁private": 4363,
      "▁coun": 4364,
      "▁counterparty": 4365,
      "▁ip": 4366,
      "▁oblig": 4367,
      "ck": 4368,
      "▁carefully": 4369,
      "▁production": 4370,
      "▁arrives": 4371,
      "▁glad": 4372,
      ":32": 4373,
      "▁planned": 4374,
      "▁plans": 4375,
      "▁tulsa": 4376,
      "▁sales": 4377,
      "▁483": 4378,
      "▁depend": 4379,
      "▁unt": 4380,
      "▁shops": 4381,
      "▁tot": 4382,
      "▁correspond": 4383,
      "▁mat": 4384,
      "▁fat": 4385,
      "war": 4386,
      "▁7.3": 4387,
      "▁1929": 4388,
      "oses": 4389,
      "▁bit": 4390,
      "▁16": 4391,
      "▁stress": 4392,
      "▁1230": 4393,
      "-3393": 4394,
      "▁ten": 4395,
      "▁ask": 4396,
      "▁mitch": 4397,
      "004": 4398,
      "▁im": 4399,
      "ho": 4400,
      "▁fax": 4401,
      "▁like": 4402,
      "☏": 4403,
      "▁|--------+----------------": 4404,
      ".p": 4405,
      "ots": 4406,
      "▁01810": 4407,
      "ʃ": 4408,
      "▁mathematics": 4409,
      "▁culture": 4410,
      "▁familiar": 4411,
      "▁surpr": 4412,
      "▁friday": 4413,
      "ows": 4414,
      "▁poor": 4415,
      "▁2.5": 4416,
      "▁wild": 4417,
      "▁it": 4418,
      "▁paren": 4419,
      "▁6.00": 4420,
      "▁sy": 4421,
      "▁install": 4422,
      "▁performance": 4423,
      "▁surr": 4424,
      "ugg": 4425,
      "▁plus": 4426,
      "urn": 4427,
      "▁.......": 4428,
      "▁aust": 4429,
      "▁santorum": 4430,
      "▁adequ": 4431,
      "**": 4432,
      "ements": 4433,
      "▁restrict": 4434,
      "▁05/30/2001": 4435,
      "▁tip": 4436,
      "▁197": 4437,
      "ansas": 4438,
      "712": 4439,
      "▁wars": 4440,
      "▁blind": 4441,
      "▁deals": 4442,
      ":07": 4443,
      "▁stomach": 4444,
      "▁fly": 4445,
      "▁wilt": 4446,
      "▁1822": 4447,
      "▁ke": 4448,
      "85": 4449,
      "9": 4450,
      "▁invol": 4451,
      "▁eff": 4452,
      "▁finally": 4453,
      "▁guid": 4454,
      "▁mother": 4455,
      "olution": 4456,
      "▁arms": 4457,
      "▁priv": 4458,
      "▁01:39": 4459,
      "amental": 4460,
      "▁1,": 4461,
      "▁virt": 4462,
      "▁frank": 4463,
      "▁4.6": 4464,
      "▁====================================================": 4465,
      "rect": 4466,
      "▁spending": 4467,
      "▁variety": 4468,
      "▁ready": 4469,
      "▁driving": 4470,
      "ons": 4471,
      "▁nandarou": 4472,
      "▁update": 4473,
      "▁boot": 4474,
      "▁candid": 4475,
      "▁track": 4476,
      "▁nope": 4477,
      "▁july": 4478,
      "▁wood": 4479,
      "iously": 4480,
      "▁hang": 4481,
      "ache": 4482,
      ".0": 4483,
      "▁1585": 4484,
      "-2": 4485,
      "▁tail": 4486,
      "▁prefer": 4487,
      ".718": 4488,
      "ooth": 4489,
      "▁rock": 4490,
      "2.doc": 4491,
      "▁chris": 4492,
      "▁detailed": 4493,
      "▁negative": 4494,
      "▁raining": 4495,
      "867": 4496,
      "▁comparison": 4497,
      "▁16.379": 4498,
      "oon": 4499,
      "▁skittles": 4500,
      "▁800-553-3119": 4501,
      "ancy": 4502,
      "▁seeking": 4503,
      "elt": 4504,
      "▁existing": 4505,
      "▁national": 4506,
      "▁calc": 4507,
      "▁79": 4508,
      "▁views": 4509,
      "▁involve": 4510,
      "-84": 4511,
      "▁1614": 4512,
      "▁disease": 4513,
      "▁guys": 4514,
      "▁ur": 4515,
      "▁sister": 4516,
      "leys": 4517,
      "▁notebook.url": 4518,
      "▁only": 4519,
      "▁opp": 4520,
      "▁beneath": 4521,
      "▁.....": 4522,
      "▁---------------------------------------------------------------------------": 4523,
      "▁pred": 4524,
      "▁rat": 4525,
      "▁!!!!!!!!!!": 4526,
      "▁natural": 4527,
      "al": 4528,
      "▁wow": 4529,
      "xic": 4530,
      "aves": 4531,
      "▁'em": 4532,
      "▁cra": 4533,
      "▁damage": 4534,
      "▁additional": 4535,
      "▁madam": 4536,
      "▁he": 4537,
      "09": 4538,
      "▁-stip": 4539,
      "▁rule": 4540,
      "▁713/": 4541,
      "▁whether": 4542,
      "▁03/02/2001": 4543,
      "nut": 4544,
      "▁principle": 4545,
      "▁reports": 4546,
      "ets": 4547,
      "▁alliance": 4548,
      "ens": 4549,
      "▁1926": 4550,
      "▁exam": 4551,
      "▁49": 4552,
      "▁section": 4553,
      "▁pack": 4554,
      "ision": 4555,
      "▁selection": 4556,
      "takana": 4557,
      "uk": 4558,
      "▁library": 4559,
      "▁immediate": 4560,
      "▁eleven": 4561,
      "▁02": 4562,
      "▁620-294-": 4563,
      "ared": 4564,
      "▁unless": 4565,
      "71": 4566,
      "▁back": 4567,
      "▁decades": 4568,
      "▁piece": 4569,
      "▁tent": 4570,
      "ried": 4571,
      "▁imag": 4572,
      "▁appreciate": 4573,
      "▁6400": 4574,
      "▁closely": 4575,
      "▁contin": 4576,
      "▁noticed": 4577,
      "▁responsible": 4578,
      "031": 4579,
      "▁pub": 4580,
      "▁pets": 4581,
      "▁just": 4582,
      "▁discuss": 4583,
      "▁fingers": 4584,
      "wor": 4585,
      "c)": 4586,
      "▁rele": 4587,
      "ar": 4588,
      "▁boom": 4589,
      "▁senator": 4590,
      "▁accur": 4591,
      "▁tri": 4592,
      "▁spec": 4593,
      "▁8:15": 4594,
      "▁ocean": 4595,
      "▁sens": 4596,
      "▁bel": 4597,
      "ict": 4598,
      "▁early": 4599,
      "▁727": 4600,
      "------->": 4601,
      "▁pizza": 4602,
      "ples": 4603,
      "▁----------------------------------------------------------------------": 4604,
      "▁streets": 4605,
      "▁sustain": 4606,
      "▁2002": 4607,
      "time": 4608,
      "/26": 4609,
      "▁specifically": 4610,
      "(": 4611,
      "..": 4612,
      "▁practice": 4613,
      "-0": 4614,
      "▁james": 4615,
      "▁friends": 4616,
      ".77": 4617,
      "▁solid": 4618,
      "▁af": 4619,
      "▁capac": 4620,
      "▁1222": 4621,
      "▁43": 4622,
      "▁beside": 4623,
      "emy": 4624,
      "▁1959": 4625,
      "▁reply": 4626,
      "▁mile": 4627,
      "yn": 4628,
      "▁gon": 4629,
      "g": 4630,
      "uma": 4631,
      "▁considerable": 4632,
      "▁etc": 4633,
      "algamiento": 4634,
      "▁tummy": 4635,
      "ien": 4636,
      "ily": 4637,
      "▁713-8": 4638,
      "oons": 4639,
      "57": 4640,
      "-59": 4641,
      "▁+++++": 4642,
      "▁several": 4643,
      "iving": 4644,
      "▁address": 4645,
      "stip": 4646,
      "▁intel": 4647,
      "ong": 4648,
      "▁age": 4649,
      "▁re-": 4650,
      "ici": 4651,
      "▁800-5": 4652,
      "▁205": 4653,
      "13": 4654,
      "▁1992": 4655,
      "▁kev": 4656,
      "ru": 4657,
      "▁running": 4658,
      "▁transl": 4659,
      "▁713-6": 4660,
      "▁valle": 4661,
      "==": 4662,
      "▁12/2": 4663,
      "omm": 4664,
      "ical": 4665,
      "▁lopez": 4666,
      "▁camera": 4667,
      "kes": 4668,
      "▁b/": 4669,
      "θ": 4670,
      "▁zealand": 4671,
      "▁’d": 4672,
      "ms": 4673,
      "ulous": 4674,
      "/": 4675,
      "ough": 4676,
      "eapolis": 4677,
      "aking": 4678,
      "▁mweta": 4679,
      "▁01/1": 4680,
      "▁shock": 4681,
      "▁carol": 4682,
      "vert": 4683,
      "we": 4684,
      ".916.718": 4685,
      "▁quinn": 4686,
      "▁kitchen": 4687,
      "▁bye": 4688,
      "▁rub": 4689,
      "1-9": 4690,
      "ɔ": 4691,
      "▁query": 4692,
      "▁sell": 4693,
      "▁environmental": 4694,
      "▁protest": 4695,
      "▁appears": 4696,
      "▁body": 4697,
      "▁study": 4698,
      "used": 4699,
      "▁police": 4700,
      "▁phil": 4701,
      "▁": 4702,
      "▁daily": 4703,
      "▁alberta": 4704,
      "▁up": 4705,
      "▁10:5": 4706,
      "mo": 4707,
      "une": 4708,
      "====": 4709,
      "ory": 4710,
      "▁kn": 4711,
      "▁reasons": 4712,
      "▁505": 4713,
      "uj": 4714,
      "▁free": 4715,
      "▁last": 4716,
      "▁species": 4717,
      "▁hospital": 4718,
      "▁son": 4719,
      "800": 4720,
      "▁1:00": 4721,
      "▁having": 4722,
      "▁determined": 4723,
      "▁glor": 4724,
      "n": 4725,
      "eared": 4726,
      "▁aid": 4727,
      "▁colour": 4728,
      "eng": 4729,
      "▁named": 4730,
      "▁dat": 4731,
      "▁nest": 4732,
      "ock": 4733,
      "▁parents": 4734,
      "▁cheap": 4735,
      "▁fall": 4736,
      "▁$": 4737,
      "▁certific": 4738,
      "▁quick": 4739,
      "▁owners": 4740,
      "▁pay": 4741,
      "▁jan": 4742,
      "hood": 4743,
      "ago": 4744,
      "▁soc": 4745,
      "▁movement": 4746,
      "▁warm": 4747,
      "▁added": 4748,
      "▁2000": 4749,
      "▁eight": 4750,
      "▁basis": 4751,
      "▁imagine": 4752,
      "uff": 4753,
      "▁iso": 4754,
      "▁uses": 4755,
      "▁09/15/99": 4756,
      "▁mech": 4757,
      "▁promised": 4758,
      "▁elements": 4759,
      "▁absol": 4760,
      "▁strategy": 4761,
      "▁ast": 4762,
      "antic": 4763,
      "▁divers": 4764,
      "aced": 4765,
      "▁way": 4766,
      "west": 4767,
      "umb": 4768,
      "▁elections": 4769,
      "▁09/16/99": 4770,
      "▁questions": 4771,
      "lae": 4772,
      "on@enron": 4773,
      "▁head": 4774,
      "▁pan": 4775,
      "▁filter": 4776,
      "▁mainly": 4777,
      "▁12:42": 4778,
      "ember": 4779,
      "▁nand": 4780,
      "▁tex": 4781,
      "▁plants": 4782,
      "▁spl": 4783,
      "▁weekend": 4784,
      "▁joke": 4785,
      "▁warming": 4786,
      "▁ab": 4787,
      "ham": 4788,
      "▁serves": 4789,
      "itter": 4790,
      "▁sink": 4791,
      "osition": 4792,
      "▁1877": 4793,
      "ese": 4794,
      "▁veh": 4795,
      "▁ele": 4796,
      "icious": 4797,
      "????????": 4798,
      "▁mur": 4799,
      "▁sac": 4800,
      "▁1592": 4801,
      "▁anybody": 4802,
      "▁professional": 4803,
      "▁http://www.": 4804,
      "▁12/26/2000": 4805,
      "▁dad": 4806,
      "▁su": 4807,
      "▁tom": 4808,
      "▁online": 4809,
      "▁&amp": 4810,
      "▁pool": 4811,
      "▁polar": 4812,
      "▁hav": 4813,
      "be": 4814,
      "▁mitchell": 4815,
      "book": 4816,
      "ape": 4817,
      "▁brenner": 4818,
      "▁amendment": 4819,
      "▁--": 4820,
      "▁jason": 4821,
      "▁community": 4822,
      "ν": 4823,
      "▁village": 4824,
      "▁08/16": 4825,
      "11": 4826,
      "▁sweet": 4827,
      "ice": 4828,
      "▁---------------------------------------------------------------------": 4829,
      "▁angry": 4830,
      "▁systems": 4831,
      "▁conn": 4832,
      "▁circle": 4833,
      "▁bulb": 4834,
      "low": 4835,
      "isions": 4836,
      "atory": 4837,
      "gue": 4838,
      "▁11:3": 4839,
      "ts": 4840,
      "▁mus": 4841,
      "▁324": 4842,
      "▁who's": 4843,
      "/1": 4844,
      "▁condition": 4845,
      "▁potential": 4846,
      "48": 4847,
      "▁104": 4848,
      "ud": 4849,
      "▁loves": 4850,
      "eed": 4851,
      "▁3,202": 4852,
      "just": 4853,
      "▁territory": 4854,
      "▁robin": 4855,
      "▁---": 4856,
      "▁har": 4857,
      "▁mum": 4858,
      "▁rack": 4859,
      "819": 4860,
      "zac": 4861,
      "▁scre": 4862,
      "▁978": 4863,
      "-50": 4864,
      "▁01/25/2001": 4865,
      "8": 4866,
      "oes": 4867,
      "▁mommy": 4868,
      "▁garden": 4869,
      "▁ding": 4870,
      "▁cour": 4871,
      "rax": 4872,
      "▁swww": 4873,
      "▁brush": 4874,
      "▁transportation": 4875,
      "▁regist": 4876,
      "▁asian": 4877,
      "ures": 4878,
      "▁wind": 4879,
      "▁yep": 4880,
      "▁brother": 4881,
      "arm": 4882,
      "▁moving": 4883,
      "▁worst": 4884,
      "▁238": 4885,
      "▁713-654-0365": 4886,
      "▁you": 4887,
      "▁08/15": 4888,
      "▁fort": 4889,
      "▁11:36": 4890,
      "▁come": 4891,
      "▁upper": 4892,
      "▁watched": 4893,
      "▁european": 4894,
      "erc": 4895,
      ")": 4896,
      "▁adopted": 4897,
      "▁click": 4898,
      "▁nmem": 4899,
      "31": 4900,
      "▁shackleton@ect": 4901,
      "▁le": 4902,
      "ς": 4903,
      "▁soph": 4904,
      "▁fifth": 4905,
      "▁l": 4906,
      "case": 4907,
      ".m": 4908,
      "▁weas": 4909,
      "▁plac": 4910,
      "▁er": 4911,
      "▁initi": 4912,
      "▁38": 4913,
      "▁millions": 4914,
      "im": 4915,
      "▁music": 4916,
      "▁map": 4917,
      "▁data": 4918,
      "/4": 4919,
      "ance": 4920,
      "▁materials": 4921,
      "▁av": 4922,
      "▁0590": 4923,
      "▁properly": 4924,
      "▁december": 4925,
      "▁en": 4926,
      "▁703": 4927,
      "▁sant": 4928,
      "▁arch": 4929,
      "▁7484": 4930,
      "▁50": 4931,
      "▁count": 4932,
      "▁joined": 4933,
      "▁comput": 4934,
      "ounced": 4935,
      "▁11-20-": 4936,
      "▁forty-one": 4937,
      "35": 4938,
      "▁hurt": 4939,
      "▁estim": 4940,
      "▁energy": 4941,
      "▁łod": 4942,
      "▁reasonable": 4943,
      "▁sheet": 4944,
      "▁fi": 4945,
      "▁act": 4946,
      "ung": 4947,
      "essee": 4948,
      "▁dise": 4949,
      "▁municip": 4950,
      "▁pleas": 4951,
      "fully": 4952,
      "▁twenty-six": 4953,
      "▁hate": 4954,
      "▁anim": 4955,
      "▁position": 4956,
      "esome": 4957,
      "▁coast": 4958,
      "ights": 4959,
      "▁sometimes": 4960,
      "▁dc": 4961,
      "▁bray": 4962,
      "▁symbol": 4963,
      "▁expressed": 4964,
      "▁recording": 4965,
      "▁bill": 4966,
      "▁off": 4967,
      "▁beh": 4968,
      "▁tour": 4969,
      "▁nandakke": 4970,
      "▁rom": 4971,
      "iring": 4972,
      "☎": 4973,
      "▁yard": 4974,
      "claim": 4975,
      "▁defin": 4976,
      "▁affect": 4977,
      "▁helps": 4978,
      "▁189": 4979,
      "ele": 4980,
      "▁ghost": 4981,
      "▁1145": 4982,
      "▁tight": 4983,
      "▁05": 4984,
      "ala": 4985,
      "▁heat": 4986,
      "▁eval": 4987,
      "rew": 4988,
      "▁fro": 4989,
      "σ": 4990,
      "▁969": 4991,
      "▁accompl": 4992,
      "▁mission": 4993,
      "▁parliament": 4994,
      "72": 4995,
      "abor": 4996,
      "▁mwet": 4997,
      "▁281-44": 4998,
      "▁because": 4999,
      "▁swimming": 5000,
      "teboo": 5001,
      "▁1.3": 5002,
      "▁cowboy": 5003,
      "oe": 5004,
      "▁toget": 5005,
      "▁tag": 5006,
      ".85": 5007,
      "▁mhm": 5008,
      "▁1/8": 5009,
      "ink": 5010,
      "ogel": 5011,
      "fort": 5012,
      "▁quinoa": 5013,
      "▁nat": 5014,
      "▁rubber": 5015,
      "▁eastern": 5016,
      "▁user": 5017,
      "acts": 5018,
      "▁supreme": 5019,
      "▁2006": 5020,
      "▁!!!!!!!!!!!!!!!!!!!": 5021,
      "inger": 5022,
      "ou": 5023,
      "ton": 5024,
      "▁used": 5025,
      "▁reform": 5026,
      "▁investment": 5027,
      "▁fright": 5028,
      "ax": 5029,
      "▁2009": 5030,
      "▁bridge": 5031,
      "▁fab": 5032,
      "—": 5033,
      "▁sh": 5034,
      "owled": 5035,
      "▁take": 5036,
      "▁forg": 5037,
      "▁actions": 5038,
      "▁load": 5039,
      "▁hop": 5040,
      "▁bever": 5041,
      "-12": 5042,
      "▁top": 5043,
      "▁puppy": 5044,
      "▁forth": 5045,
      "▁suppose": 5046,
      "▁lived": 5047,
      "▁pencil": 5048,
      "▁ho": 5049,
      "▁pow": 5050,
      "810": 5051,
      "▁depending": 5052,
      "eries": 5053,
      "▁74419": 5054,
      "▁categ": 5055,
      "ح": 5056,
      "-w": 5057,
      "▁airports": 5058,
      "▁300": 5059,
      "▁hope": 5060,
      "ughter": 5061,
      "▁seen": 5062,
      "▁1989": 5063,
      "▁ft": 5064,
      "▁sel": 5065,
      "▁assoc": 5066,
      "▁license": 5067,
      "▁upon": 5068,
      "▁800.713.8600": 5069,
      "▁stella": 5070,
      "▁understand": 5071,
      "▁liter": 5072,
      "▁baseball": 5073,
      "▁sett": 5074,
      "eal": 5075,
      "_0": 5076,
      "▁din": 5077,
      "ivid": 5078,
      "▁model": 5079,
      "ov": 5080,
      "icide": 5081,
      "▁frozen": 5082,
      "ager": 5083,
      "▁:?": 5084,
      "man": 5085,
      "▁find": 5086,
      "▁tax": 5087,
      "▁include": 5088,
      "2-0": 5089,
      "▁corp": 5090,
      "▁learning": 5091,
      "▁code": 5092,
      "ling": 5093,
      "▁executive": 5094,
      ",8": 5095,
      "▁san": 5096,
      "ento": 5097,
      "rem": 5098,
      "▁rh": 5099,
      "和": 5100,
      "▁published": 5101,
      "▁pir": 5102,
      "▁tho": 5103,
      "▁dur": 5104,
      "▁wal": 5105,
      "▁hom": 5106,
      "bit": 5107,
      "▁1880": 5108,
      "▁collabor": 5109,
      "▁communic": 5110,
      "▁offers": 5111,
      "▁afternoon": 5112,
      "imin": 5113,
      "▁immed": 5114,
      "▁elephant": 5115,
      "▁object": 5116,
      "▁seeing": 5117,
      "▁rib": 5118,
      "▁ursula": 5119,
      "▁tennessee": 5120,
      "▁apartment": 5121,
      "▁participants": 5122,
      "▁281-518": 5123,
      "▁2.7": 5124,
      "▁democratic": 5125,
      "ox": 5126,
      "▁keeping": 5127,
      "▁2014": 5128,
      "▁k": 5129,
      "▁listening": 5130,
      "▁fur": 5131,
      "rition": 5132,
      "▁scientific": 5133,
      "ulating": 5134,
      "▁log": 5135,
      "▁meas": 5136,
      "▁1974": 5137,
      "▁mud": 5138,
      "▁doggie": 5139,
      "▁hungry": 5140,
      "▁water": 5141,
      "▁master": 5142,
      "ities": 5143,
      "▁access": 5144,
      "▁carry": 5145,
      "▁2:00": 5146,
      "▁860": 5147,
      "▁avo": 5148,
      "▁half": 5149,
      "▁seats": 5150,
      "96": 5151,
      "ran": 5152,
      "▁1000": 5153,
      "yr": 5154,
      "▁think": 5155,
      "ue": 5156,
      "ote": 5157,
      "▁10:45": 5158,
      "▁does": 5159,
      "▁!!": 5160,
      "▁creation": 5161,
      "wh": 5162,
      "▁mun": 5163,
      "wet": 5164,
      "▁rep": 5165,
      "▁apply": 5166,
      "▁soon": 5167,
      "▁tac": 5168,
      "▁deg": 5169,
      "▁154": 5170,
      "▁agreement": 5171,
      "por": 5172,
      "▁properties": 5173,
      "*{": 5174,
      "▁requirements": 5175,
      "row": 5176,
      "▁mary": 5177,
      "▁amount": 5178,
      "set": 5179,
      "▁rese": 5180,
      "▁system": 5181,
      "▁fo": 5182,
      "▁overall": 5183,
      "▁app": 5184,
      "/10": 5185,
      "ality": 5186,
      "▁americ": 5187,
      "▁7": 5188,
      "▁drop": 5189,
      "32": 5190,
      "▁cycle": 5191,
      "▁schol": 5192,
      "▁c": 5193,
      "▁tast": 5194,
      "▁penc": 5195,
      "'s": 5196,
      "iking": 5197,
      "▁ancient": 5198,
      "▁knowledge": 5199,
      "▁when": 5200,
      "▁nin": 5201,
      "▁engine": 5202,
      "▁easily": 5203,
      "▁195": 5204,
      "▁understanding": 5205,
      "▁teaching": 5206,
      "orrow": 5207,
      "▁smoke": 5208,
      "▁arrog": 5209,
      "▁mill": 5210,
      "▁salad": 5211,
      "▁yellow": 5212,
      "▁citiz": 5213,
      "▁effects": 5214,
      "▁bone": 5215,
      "▁younger": 5216,
      "▁regular": 5217,
      "▁wil": 5218,
      "▁lost": 5219,
      "▁agree": 5220,
      "▁thick": 5221,
      "▁sick": 5222,
      "▁ladder": 5223,
      "▁refer": 5224,
      ".2461": 5225,
      "▁5/1": 5226,
      "▁karzai": 5227,
      "▁work": 5228,
      "▁member": 5229,
      "▁suicide": 5230,
      "▁11:35": 5231,
      "▁let": 5232,
      "▁110": 5233,
      "▁new": 5234,
      "294-": 5235,
      "▁solution": 5236,
      "▁mathem": 5237,
      "▁’": 5238,
      "▁harmon": 5239,
      "iar": 5240,
      "▁starting": 5241,
      "▁grew": 5242,
      "▁goals": 5243,
      "▁colle": 5244,
      "▁10/23/2000": 5245,
      "▁negot": 5246,
      "▁golden": 5247,
      "▁increase": 5248,
      "▁us": 5249,
      "▁content": 5250,
      "▁indianapolis": 5251,
      "▁applications": 5252,
      "▁earlier": 5253,
      "fr": 5254,
      "ating": 5255,
      "vo": 5256,
      "▁realized": 5257,
      "▁rabbit": 5258,
      "▁austral": 5259,
      "th": 5260,
      "▁within": 5261,
      "/0": 5262,
      "zen": 5263,
      "▁30,000": 5264,
      "▁langu": 5265,
      "cent": 5266,
      "▁entire": 5267,
      "▁jen": 5268,
      "▁uns": 5269,
      "▁hamm": 5270,
      "nondel": 5271,
      "▁ukraine": 5272,
      "▁describe": 5273,
      "ased": 5274,
      "▁410": 5275,
      "part": 5276,
      "▁pron": 5277,
      "▁lou": 5278,
      "▁professor": 5279,
      "▁ends": 5280,
      "▁indic": 5281,
      "▁spell": 5282,
      "▁tools": 5283,
      ",600": 5284,
      "▁diplom": 5285,
      "▁minn": 5286,
      "▁types": 5287,
      "▁sto": 5288,
      "▁staying": 5289,
      "▁vent": 5290,
      "▁aw": 5291,
      "more": 5292,
      ".ur": 5293,
      "▁la": 5294,
      "▁behalf": 5295,
      "▁saved": 5296,
      "▁fairly": 5297,
      "▁tw": 5298,
      "▁woud": 5299,
      "▁1635": 5300,
      "▁1-800-991-9019": 5301,
      "▁38,000": 5302,
      "▁analyst": 5303,
      "▁geor": 5304,
      "ered": 5305,
      "▁5.8": 5306,
      "ad": 5307,
      "▁filled": 5308,
      "▁worth": 5309,
      "▁345-343": 5310,
      "▁salt": 5311,
      "▁egg": 5312,
      "ppy": 5313,
      "▁impl": 5314,
      "▁5.6": 5315,
      "…": 5316,
      "89": 5317,
      "▁route": 5318,
      "▁impress": 5319,
      "▁op": 5320,
      "ated": 5321,
      "▁-----------------------------------------------------------------------": 5322,
      "gami": 5323,
      "ince": 5324,
      "▁415": 5325,
      "▁possess": 5326,
      "▁68": 5327,
      "ive": 5328,
      "51": 5329,
      "▁perf": 5330,
      "-10": 5331,
      "▁tow": 5332,
      "▁mosquito": 5333,
      "▁trouble": 5334,
      "▁900": 5335,
      "111": 5336,
      "▁viol": 5337,
      "▁2003": 5338,
      "▁mistake": 5339,
      "▁contents": 5340,
      "▁bond": 5341,
      "ers": 5342,
      "▁fre": 5343,
      "▁obv": 5344,
      "erve": 5345,
      "▁27": 5346,
      "▁2,": 5347,
      "▁powerful": 5348,
      "▁efforts": 5349,
      "▁wondering": 5350,
      "▁pr": 5351,
      "2": 5352,
      "17": 5353,
      "aps": 5354,
      "▁ig": 5355,
      "▁102": 5356,
      "▁opened": 5357,
      "▁unfortunately": 5358,
      "▁accommod": 5359,
      "▁cer": 5360,
      "▁californ": 5361,
      "▁london": 5362,
      "▁ballet": 5363,
      "▁dom": 5364,
      "▁fing": 5365,
      "▁bulldozer": 5366,
      "av": 5367,
      "▁otherwise": 5368,
      "▁mexico": 5369,
      "1696": 5370,
      "str": 5371,
      "▁veg": 5372,
      "▁sha": 5373,
      "rib": 5374,
      "tip": 5375,
      "▁com": 5376,
      "▁full": 5377,
      "▁…": 5378,
      "▁royal": 5379,
      "▁games": 5380,
      "▁pillow": 5381,
      "▁2001": 5382,
      "▁1835": 5383,
      "ired": 5384,
      "▁wave": 5385,
      "▁feed": 5386,
      "▁teach": 5387,
      "▁dose": 5388,
      "▁11": 5389,
      "▁gets": 5390,
      "▁incorpor": 5391,
      "if": 5392,
      "▁fell": 5393,
      "gle": 5394,
      "▁rome": 5395,
      "▁:(": 5396,
      "▁destroy": 5397,
      "▁330": 5398,
      "▁1932": 5399,
      "▁edge": 5400,
      "ns": 5401,
      "▁shadow": 5402,
      "▁john": 5403,
      "▁expertise": 5404,
      "#": 5405,
      "▁bud": 5406,
      "is_0712": 5407,
      "ˈ": 5408,
      "▁cut": 5409,
      "▁rooms": 5410,
      "▁failed": 5411,
      "/15/2001": 5412,
      "▁anything": 5413,
      ".net": 5414,
      "-9": 5415,
      "▁continued": 5416,
      "▁kiss": 5417,
      ":": 5418,
      "▁dollie": 5419,
      "▁gh": 5420,
      "▁francisco": 5421,
      "▁multiple": 5422,
      "▁farm": 5423,
      "▁hall": 5424,
      "▁cere": 5425,
      "▁fully": 5426,
      "▁mid-": 5427,
      "▁foundation": 5428,
      "▁babies": 5429,
      "ite": 5430,
      "ills": 5431,
      "▁08:50": 5432,
      "▁04/2": 5433,
      "▁climb": 5434,
      "▁wik": 5435,
      "▁wikihow": 5436,
      "▁hy": 5437,
      "road": 5438,
      "ker": 5439,
      "▁legal": 5440,
      "oth": 5441,
      "▁offices": 5442,
      "▁provisions": 5443,
      "▁vogelaviatiolap": 5444,
      "▁alt.": 5445,
      ".621": 5446,
      "ked": 5447,
      "wich": 5448,
      "▁indeed": 5449,
      ":1": 5450,
      "▁1847": 5451,
      "▁anglo": 5452,
      "▁66": 5453,
      "▁receiving": 5454,
      "▁journ": 5455,
      "▁whenever": 5456,
      "▁hou": 5457,
      "▁================================================": 5458,
      "▁var": 5459,
      "ification": 5460,
      "▁_____": 5461,
      ":39": 5462,
      "▁failure": 5463,
      "▁east": 5464,
      "kin": 5465,
      "▁....................": 5466,
      "▁square": 5467,
      "▁hur": 5468,
      "▁3,202.61": 5469,
      "▁recent": 5470,
      "▁meeting": 5471,
      "encies": 5472,
      "▁1939": 5473,
      "▁too": 5474,
      "▁(:": 5475,
      "▁worry": 5476,
      "▁theod": 5477,
      "ls": 5478,
      "▁rad": 5479,
      "▁markets": 5480,
      "▁teacher": 5481,
      "acion": 5482,
      "▁bul": 5483,
      "▁0000108806": 5484,
      "acio": 5485,
      "▁08:00": 5486,
      "▁813": 5487,
      "==============": 5488,
      "▁doll": 5489,
      "enth": 5490,
      "igh": 5491,
      "▁thy": 5492,
      "▁twentieth": 5493,
      "ly": 5494,
      "▁directive": 5495,
      "▁surprise": 5496,
      "▁al.": 5497,
      "41": 5498,
      "iz": 5499,
      "▁6.2": 5500,
      "ozer": 5501,
      "▁marriage": 5502,
      ".c": 5503,
      "η": 5504,
      "▁tree": 5505,
      "ward": 5506,
      "▁rights": 5507,
      "▁companies": 5508,
      "65-3": 5509,
      "د": 5510,
      "▁suck": 5511,
      "▁reliable": 5512,
      "▁cereal": 5513,
      "▁fight": 5514,
      "▁that": 5515,
      "▁ict": 5516,
      "boy": 5517,
      "▁1779": 5518,
      "/97": 5519,
      "ick": 5520,
      "????": 5521,
      "▁enron": 5522,
      "▁prob": 5523,
      "▁get": 5524,
      "▁leads": 5525,
      "▁obs": 5526,
      "8549": 5527,
      "▁southern": 5528,
      "65": 5529,
      "▁labor": 5530,
      "▁continental": 5531,
      "\"": 5532,
      "▁pract": 5533,
      "▁chall": 5534,
      ".86": 5535,
      "▁24,000": 5536,
      "ured": 5537,
      "▁conclud": 5538,
      "▁definitely": 5539,
      "▁they": 5540,
      "▁accom": 5541,
      "king": 5542,
      "▁une": 5543,
      "▁comfortable": 5544,
      "▁-ect-kedne": 5545,
      "▁student": 5546,
      "-5": 5547,
      "onom": 5548,
      "▁organ": 5549,
      "▁cous": 5550,
      "-c": 5551,
      "▁shopping": 5552,
      "▁succ": 5553,
      "▁08/17/2000": 5554,
      "▁para13": 5555,
      "▁humaine": 5556,
      "▁tomorrow": 5557,
      "▁cabin": 5558,
      "▁into": 5559,
      "▁stated": 5560,
      "▁johnson": 5561,
      "▁calls": 5562,
      "osoph": 5563,
      "53-3119": 5564,
      "▁ourselves": 5565,
      "▁passing": 5566,
      "▁flies": 5567,
      "▁ka": 5568,
      "▁judge": 5569,
      "▁peoples": 5570,
      "▁coach": 5571,
      "▁large": 5572,
      "▁true": 5573,
      "▁teen": 5574,
      "▁^_^": 5575,
      "μ": 5576,
      "▁prompt": 5577,
      "▁her": 5578,
      "/17/2000": 5579,
      "ua": 5580,
      "▁happens": 5581,
      "▁form": 5582,
      "▁42": 5583,
      "▁piz": 5584,
      "3098": 5585,
      "▁discount": 5586,
      "▁collected": 5587,
      "ummy": 5588,
      "▁camel": 5589,
      "ition": 5590,
      "▁tired": 5591,
      "▁hanging": 5592,
      "org": 5593,
      "▁cig": 5594,
      "▁1952": 5595,
      "▁recru": 5596,
      "▁bath": 5597,
      "▁discip": 5598,
      "inc": 5599,
      "oul": 5600,
      "▁sugg": 5601,
      "▁748": 5602,
      ":19": 5603,
      "▁parties": 5604,
      "▁wet": 5605,
      "▁becomes": 5606,
      "▁those": 5607,
      "▁nato": 5608,
      "ema": 5609,
      "▁bay": 5610,
      "▁challenges": 5611,
      "▁colors": 5612,
      "▁sever": 5613,
      "▁beliefs": 5614,
      "▁got": 5615,
      "▁perdues": 5616,
      "▁audience": 5617,
      "▁ent": 5618,
      "3-3744": 5619,
      "▁1914": 5620,
      "▁fav": 5621,
      "▁downtown": 5622,
      "▁“": 5623,
      "▁programme": 5624,
      "▁languages": 5625,
      "▁ont": 5626,
      "vel": 5627,
      "▁instance": 5628,
      "▁rece": 5629,
      "▁sched": 5630,
      "tejo": 5631,
      "▁econom": 5632,
      "▁hiking": 5633,
      "▁traff": 5634,
      "▁colon": 5635,
      "ined": 5636,
      "▁21,000": 5637,
      "/10/2004": 5638,
      ":35": 5639,
      "▁peaceful": 5640,
      "uced": 5641,
      "▁institutions": 5642,
      "▁requested": 5643,
      "▁both": 5644,
      "board": 5645,
      "▁10/2": 5646,
      "▁wilson": 5647,
      "▁columb": 5648,
      "aph": 5649,
      "ays": 5650,
      "▁pilot": 5651,
      "▁looked": 5652,
      "ril": 5653,
      "▁range": 5654,
      "▁thirteen": 5655,
      "rod": 5656,
      "▁urban": 5657,
      "ans": 5658,
      "ione": 5659,
      "▁open": 5660,
      "▁orange": 5661,
      "▁dele": 5662,
      "▁3889": 5663,
      "▁document": 5664,
      "▁justice": 5665,
      "▁exhib": 5666,
      "^": 5667,
      "▁beer": 5668,
      "▁nwww": 5669,
      "▁bra": 5670,
      "▁remembered": 5671,
      "▁club": 5672,
      "imes": 5673,
      "2000": 5674,
      "▁contemporary": 5675,
      "▁every": 5676,
      "▁12:1": 5677,
      "▁bringing": 5678,
      "ints": 5679,
      "▁always": 5680,
      "▁drug": 5681,
      "ning": 5682,
      "▁flo": 5683,
      "▁1969": 5684,
      "glo": 5685,
      "ile": 5686,
      "▁beau": 5687,
      "cy": 5688,
      "23": 5689,
      "▁202.456.1": 5690,
      "▁biological": 5691,
      "roit": 5692,
      "▁1.": 5693,
      "▁neat": 5694,
      "exp": 5695,
      "▁material": 5696,
      "ev": 5697,
      "imp": 5698,
      "▁turkey": 5699,
      "▁perdu": 5700,
      "▁conscious": 5701,
      "53-3": 5702,
      "▁vernon": 5703,
      "司": 5704,
      "▁mirror": 5705,
      "▁tenn": 5706,
      "ses": 5707,
      "▁micro": 5708,
      "/11/2004": 5709,
      "▁cards": 5710,
      "▁break": 5711,
      "▁christ": 5712,
      "▁willi": 5713,
      "▁202.456.1111": 5714,
      "ject": 5715,
      "▁agency": 5716,
      "ross": 5717,
      "▁eas": 5718,
      "▁1765": 5719,
      "▁720": 5720,
      "▁fare": 5721,
      "jam": 5722,
      "▁marsh": 5723,
      "gether": 5724,
      ",950": 5725,
      "ifies": 5726,
      "▁pol": 5727,
      "atively": 5728,
      "▁09": 5729,
      "▁objectives": 5730,
      "ments": 5731,
      "▁gen": 5732,
      "*": 5733,
      "▁%": 5734,
      "▁ability": 5735,
      "++++++++": 5736,
      "▁dozen": 5737,
      "raid": 5738,
      "▁cars": 5739,
      "▁98": 5740,
      "61": 5741,
      "▁95": 5742,
      "▁199": 5743,
      "age": 5744,
      "▁partic": 5745,
      "sd": 5746,
      "▁real": 5747,
      "▁interview": 5748,
      "▁liberty": 5749,
      "▁36": 5750,
      "▁12:30": 5751,
      "▁twel": 5752,
      "ison": 5753,
      "▁alth": 5754,
      "▁joe": 5755,
      "bre": 5756,
      "iture": 5757,
      "▁commissioner": 5758,
      "ang": 5759,
      "▁thursday": 5760,
      "▁review": 5761,
      "▁flower": 5762,
      "▁stuff": 5763,
      "▁consequ": 5764,
      "xim": 5765,
      "▁israel": 5766,
      "▁xiii": 5767,
      "▁10/20/2000": 5768,
      "▁stone": 5769,
      "veria": 5770,
      "▁ring": 5771,
      "--------": 5772,
      "▁wast": 5773,
      "▁744": 5774,
      "▁egypt": 5775,
      "oss": 5776,
      "▁slightly": 5777,
      "▁separ": 5778,
      "▁extended": 5779,
      "pa": 5780,
      "ume": 5781,
      "-r": 5782,
      "▁296": 5783,
      "ruct": 5784,
      "hib": 5785,
      "ether": 5786,
      "▁areas": 5787,
      "▁alber": 5788,
      "▁196": 5789,
      "▁item": 5790,
      "ection": 5791,
      "▁1996": 5792,
      "▁07": 5793,
      "▁sleeping": 5794,
      "▁translation": 5795,
      "▁wa": 5796,
      "▁10:56": 5797,
      "▁ways": 5798,
      "▁people": 5799,
      "▁writers": 5800,
      "ther": 5801,
      "int": 5802,
      "▁resp": 5803,
      "▁maybe": 5804,
      "▁search": 5805,
      "▁elev": 5806,
      "▁completely": 5807,
      "▁theory": 5808,
      "▁repair": 5809,
      "▁str": 5810,
      "bi": 5811,
      "▁2030": 5812,
      "▁following": 5813,
      "ying": 5814,
      "▁heart": 5815,
      "▁bother": 5816,
      "ith": 5817,
      "▁abe": 5818,
      "▁reported": 5819,
      ":17": 5820,
      "iw": 5821,
      "▁unf": 5822,
      "▁01:0": 5823,
      ",008": 5824,
      "▁2.2": 5825,
      "▁was": 5826,
      "aked": 5827,
      "iced": 5828,
      "▁span": 5829,
      "▁confer": 5830,
      "▁series": 5831,
      "822": 5832,
      "ution": 5833,
      "▁butter": 5834,
      "▁opportun": 5835,
      "▁1160": 5836,
      ":11": 5837,
      "▁wiz": 5838,
      "▁attorn": 5839,
      "vers": 5840,
      "▁happening": 5841,
      "▁05:37": 5842,
      "uses": 5843,
      "▁sen": 5844,
      "▁!!!!!": 5845,
      "▁hos": 5846,
      "▁twenty-two": 5847,
      "▁alle": 5848,
      "▁aspect": 5849,
      "▁2.6": 5850,
      "▁consider": 5851,
      "▁sold": 5852,
      "m": 5853,
      "▁mention": 5854,
      "▁telling": 5855,
      "▁medical": 5856,
      "▁anal": 5857,
      "ial": 5858,
      "▁sur": 5859,
      "▁example": 5860,
      "▁wiggle": 5861,
      "--": 5862,
      "▁try": 5863,
      "▁parad": 5864,
      "uted": 5865,
      "▁opportunity": 5866,
      "▁passed": 5867,
      "▁sudden": 5868,
      "▁amid": 5869,
      "▁immediately": 5870,
      "▁absolutely": 5871,
      "ks": 5872,
      "▁reb": 5873,
      "▁ple": 5874,
      "▁mr.": 5875,
      "▁minister": 5876,
      "▁sarah": 5877,
      "▁seemed": 5878,
      "ο": 5879,
      "▁b": 5880,
      "▁]": 5881,
      "▁!!!!!!!!!!!!!": 5882,
      "ving": 5883,
      "▁tradition": 5884,
      "▁anymore": 5885,
      "▁frequ": 5886,
      "▁impact": 5887,
      "-625": 5888,
      "▁814.86": 5889,
      "▁space": 5890,
      ".75": 5891,
      "-44": 5892,
      "▁spain": 5893,
      "▁anyone": 5894,
      "▁math": 5895,
      "▁adjust": 5896,
      "▁5": 5897,
      "▁laden": 5898,
      "haps": 5899,
      "▁requ": 5900,
      "▁bob": 5901,
      "▁awoh": 5902,
      "apes": 5903,
      "▁928": 5904,
      "▁lank": 5905,
      "uries": 5906,
      "▁sym": 5907,
      "▁sure": 5908,
      "87": 5909,
      "▁developing": 5910,
      "▁30": 5911,
      "▁presented": 5912,
      "▁speaker": 5913,
      "▁everything": 5914,
      "orders": 5915,
      "▁250": 5916,
      "▁various": 5917,
      "pet": 5918,
      "its": 5919,
      "▁personally": 5920,
      "▁stands": 5921,
      "▁89": 5922,
      "▁looking": 5923,
      "▁mail": 5924,
      "▁singing": 5925,
      "is": 5926,
      "▁zero": 5927,
      "▁____________________________________________________________": 5928,
      "▁council": 5929,
      ",000,000": 5930,
      "▁2016": 5931,
      "▁cook": 5932,
      "▁degrees": 5933,
      "ul": 5934,
      "▁cooperation": 5935,
      "▁americans": 5936,
      "▁21": 5937,
      "▁4.9": 5938,
      "▁wro": 5939,
      "▁16.3": 5940,
      "▁classes": 5941,
      "cc": 5942,
      "▁unles": 5943,
      "iness": 5944,
      "▁lest": 5945,
      "▁1943": 5946,
      "omet": 5947,
      "▁.x": 5948,
      "▁incre": 5949,
      "▁metal": 5950,
      "3-3": 5951,
      "▁>----------------------------------------------------------------------------": 5952,
      "▁dud": 5953,
      ".25": 5954,
      "▁e-m": 5955,
      "ced": 5956,
      "ito": 5957,
      "▁issue": 5958,
      "▁honey": 5959,
      "▁ought": 5960,
      "▁cage": 5961,
      "▁laur": 5962,
      "▁gre": 5963,
      "▁peters": 5964,
      "▁2007": 5965,
      "▁sus": 5966,
      "▁couch": 5967,
      "▁suffering": 5968,
      "▁challenge": 5969,
      "▁newsp": 5970,
      "▁become": 5971,
      "▁ag": 5972,
      "art": 5973,
      "▁award": 5974,
      "▁betw": 5975,
      "ork": 5976,
      "ace": 5977,
      "▁corner": 5978,
      "▁making": 5979,
      "▁happen": 5980,
      "▁africa": 5981,
      "ange": 5982,
      "▁unif": 5983,
      "▁june": 5984,
      "▁nar": 5985,
      "/2005": 5986,
      "▁flor": 5987,
      "-ked": 5988,
      "28": 5989,
      "▁physical": 5990,
      "91": 5991,
      "▁gray": 5992,
      ".99": 5993,
      "▁replaced": 5994,
      "athers": 5995,
      "ه": 5996,
      "▁lingu": 5997,
      "▁york": 5998,
      "▁toys": 5999,
      "▁businesses": 6000,
      "▁stopover": 6001,
      "▁_": 6002,
      "▁pakistan": 6003,
      "▁drawing": 6004,
      "▁party": 6005,
      "98": 6006,
      "▁satan": 6007,
      "ug": 6008,
      "▁st.": 6009,
      "▁cross": 6010,
      "▁expression": 6011,
      "▁a.": 6012,
      "▁01:39:56": 6013,
      "▁bal": 6014,
      "▁3,000": 6015,
      "▁chicago": 6016,
      "▁210": 6017,
      "▁pac": 6018,
      "æ": 6019,
      "▁minutes": 6020,
      "▁n": 6021,
      "▁declaration": 6022,
      "ness": 6023,
      "▁turistica": 6024,
      "▁sophie": 6025,
      "▁none": 6026,
      "ivia": 6027,
      "▁cam": 6028,
      "-": 6029,
      "▁fred": 6030,
      "▁”": 6031,
      "▁boots": 6032,
      "▁night": 6033,
      "▁vote": 6034,
      "▁qu": 6035,
      "▁gordon": 6036,
      "▁import": 6037,
      "▁specific": 6038,
      "▁feel": 6039,
      "▁gard": 6040,
      "▁playing": 6041,
      "eral": 6042,
      "▁california": 6043,
      "▁storm": 6044,
      "▁hidden": 6045,
      "▁prev": 6046,
      "▁trees": 6047,
      "erre": 6048,
      "▁2100": 6049,
      ":57": 6050,
      "▁anc": 6051,
      "ris": 6052,
      "▁pulled": 6053,
      "ach": 6054,
      "ability": 6055,
      "ih": 6056,
      "/15": 6057,
      "▁attend": 6058,
      "▁glove": 6059,
      "▁92": 6060,
      "********": 6061,
      "▁50,000": 6062,
      "▁min": 6063,
      "▁cur": 6064,
      "▁bac": 6065,
      "▁4:00": 6066,
      "▁married": 6067,
      "ere": 6068,
      "▁bunny": 6069,
      "▁leaders": 6070,
      "ault": 6071,
      "iwan": 6072,
      "▁points": 6073,
      "▁financ": 6074,
      "▁sev": 6075,
      "▁increased": 6076,
      "}": 6077,
      "▁beautiful": 6078,
      "▁secur": 6079,
      "▁def": 6080,
      "▁adm": 6081,
      "▁sea": 6082,
      "▁ful": 6083,
      "▁ca": 6084,
      "ride": 6085,
      "▁archit": 6086,
      "▁eye": 6087,
      "ories": 6088,
      "unt": 6089,
      "▁1975": 6090,
      "▁syri": 6091,
      "▁two": 6092,
      "fri": 6093,
      "▁947": 6094,
      "▁contracts": 6095,
      "▁exhibit": 6096,
      "ord": 6097,
      "▁disaster": 6098,
      ",0": 6099,
      "▁flight": 6100,
      "▁et": 6101,
      "▁serv": 6102,
      "▁desk": 6103,
      ":01": 6104,
      "▁???": 6105,
      "▁hello": 6106,
      "▁italy": 6107,
      "▁mult": 6108,
      "▁auster": 6109,
      "▁benefits": 6110,
      "▁airfare": 6111,
      "▁george": 6112,
      "▁posted": 6113,
      "▁hair": 6114,
      "▁1968": 6115,
      "88": 6116,
      "▁gr": 6117,
      "▁02/2": 6118,
      "▁dism": 6119,
      "▁ryan": 6120,
      "▁were": 6121,
      "▁carrying": 6122,
      "ze": 6123,
      "▁hist": 6124,
      "ri": 6125,
      "▁415.782.7822": 6126,
      "▁ve": 6127,
      "▁dr.": 6128,
      "is_0": 6129,
      "▁wee": 6130,
      "▁vs": 6131,
      "ca": 6132,
      "▁conce": 6133,
      "▁khins": 6134,
      "▁again": 6135,
      "outh": 6136,
      "▁arrive": 6137,
      "▁boo": 6138,
      "▁relatively": 6139,
      "ik": 6140,
      "▁1945": 6141,
      "▁xslt": 6142,
      "▁indo": 6143,
      "ston": 6144,
      "ument": 6145,
      "▁u": 6146,
      "▁today": 6147,
      "liament": 6148,
      "▁drinking": 6149,
      "▁chick": 6150,
      "iri": 6151,
      "dulo": 6152,
      "boo": 6153,
      "▁limit": 6154,
      "▁che": 6155,
      "▁card": 6156,
      "▁excuse": 6157,
      "▁atmos": 6158,
      "▁control": 6159,
      "▁leon": 6160,
      "▁anoder": 6161,
      "▁2019": 6162,
      "idence": 6163,
      "▁though": 6164,
      "▁regions": 6165,
      "▁rain": 6166,
      "order": 6167,
      "▁grandmother": 6168,
      "using": 6169,
      "[UNK]": 6170,
      "▁guard": 6171,
      "eight": 6172,
      "▁uhhuh": 6173,
      "▁vie": 6174,
      "▁ears": 6175,
      "amp": 6176,
      "▁felt": 6177,
      "▁source": 6178,
      "▁growth": 6179,
      "▁'0": 6180,
      "-79": 6181,
      "▁pill": 6182,
      "▁wo": 6183,
      "▁==============================================================================": 6184,
      "▁outer": 6185,
      "alf": 6186,
      "▁opportunities": 6187,
      "acy": 6188,
      "▁participation": 6189,
      "iders": 6190,
      "▁descri": 6191,
      "▁bassiana": 6192,
      "▁nurs": 6193,
      "▁i.": 6194,
      "▁banks": 6195,
      "▁obviously": 6196,
      "▁column": 6197,
      "asc": 6198,
      "hip": 6199,
      "▁theodorus": 6200,
      "▁zawah": 6201,
      "▁information": 6202,
      "▁can": 6203,
      "▁adv": 6204,
      "leg": 6205,
      "▁individuals": 6206,
      "ique": 6207,
      "▁funny": 6208,
      "▁hind": 6209,
      "bage": 6210,
      "▁ident": 6211,
      "eping": 6212,
      "▁stream": 6213,
      "▁quote": 6214,
      "▁experience": 6215,
      "4-79": 6216,
      "ulation": 6217,
      "cell": 6218,
      "▁models": 6219,
      "so": 6220,
      "▁exper": 6221,
      "▁non": 6222,
      "uclear": 6223,
      "▁1579": 6224,
      "▁displ": 6225,
      "two": 6226,
      "▁sometime": 6227,
      "▁step": 6228,
      "▁thirty-": 6229,
      "▁outside": 6230,
      "▁12:12": 6231,
      ".org": 6232,
      "▁lake": 6233,
      "▁injury": 6234,
      "▁sara": 6235,
      "▁show": 6236,
      "▁heavy": 6237,
      "▁spray": 6238,
      "▁instructions": 6239,
      "▁magn": 6240,
      "▁718-780": 6241,
      "ances": 6242,
      "▁point": 6243,
      "▁1937": 6244,
      "▁ram": 6245,
      "▁interesting": 6246,
      "721": 6247,
      ":5": 6248,
      "/08": 6249,
      "▁hold": 6250,
      "▁expensive": 6251,
      "▁concept": 6252,
      "most": 6253,
      "▁crimin": 6254,
      "ed": 6255,
      "▁thus": 6256,
      "▁pere": 6257,
      "▁circ": 6258,
      "▁shobha-": 6259,
      "▁many": 6260,
      "▁innovation": 6261,
      "▁lo": 6262,
      "▁members": 6263,
      "22": 6264,
      "▁norm": 6265,
      "▁1709": 6266,
      "zy": 6267,
      "▁avoid": 6268,
      "uz": 6269,
      "▁construction": 6270,
      "▁bed": 6271,
      "▁j.doc": 6272,
      "ota": 6273,
      "▁1830": 6274,
      "ually": 6275,
      "▁bon": 6276,
      "▁something": 6277,
      "//": 6278,
      "----": 6279,
      "▁myself": 6280,
      "▁mh": 6281,
      "▁seis": 6282,
      "▁onto": 6283,
      "▁workers": 6284,
      "▁40,000": 6285,
      "▁-final.doc": 6286,
      "oms": 6287,
      "▁effort": 6288,
      "▁our": 6289,
      "rical": 6290,
      "▁sli": 6291,
      "▁2,000": 6292,
      "▁fail": 6293,
      "▁mechan": 6294,
      "oke": 6295,
      "▁write": 6296,
      "▁cinc": 6297,
      "▁1.6": 6298,
      "new": 6299,
      "▁ext": 6300,
      "ats": 6301,
      "²": 6302,
      "▁appoint": 6303,
      "▁puts": 6304,
      "▁vacation": 6305,
      "▁delhi": 6306,
      "▁unknown": 6307,
      "▁e.": 6308,
      "▁lowest": 6309,
      "▁tick": 6310,
      "▁account": 6311,
      "▁tenth": 6312,
      "▁breat": 6313,
      "tegr": 6314,
      "▁02/13/2001": 6315,
      "7th": 6316,
      "-415-": 6317,
      "▁copyright": 6318,
      "▁prep": 6319,
      "68": 6320,
      "▁03/15/2001": 6321,
      "▁yester": 6322,
      "▁04:17": 6323,
      "▁'s": 6324,
      "ail": 6325,
      "▁tem": 6326,
      "▁gi": 6327,
      "hold": 6328,
      "ti": 6329,
      "ansen": 6330,
      "all": 6331,
      "▁prim": 6332,
      "▁teams": 6333,
      "▁repres": 6334,
      "▁attention": 6335,
      "▁easy": 6336,
      "enron": 6337,
      "▁kitten": 6338,
      "▁nobody": 6339,
      "▁n't": 6340,
      "▁tourist": 6341,
      "▁71": 6342,
      "▁compared": 6343,
      "▁sing": 6344,
      "per": 6345,
      "▁arrest": 6346,
      "▁decline": 6347,
      "▁under": 6348,
      "▁wrote": 6349,
      "▁56": 6350,
      "iped": 6351,
      "-0295": 6352,
      "▁glass": 6353,
      "ibly": 6354,
      "▁examples": 6355,
      "▁muse": 6356,
      "rast": 6357,
      "▁dishes": 6358,
      "▁director": 6359,
      "▁diss": 6360,
      "▁ens": 6361,
      "iet": 6362,
      "▁ju": 6363,
      "▁violence": 6364,
      "▁commission": 6365,
      "▁friendly": 6366,
      "▁w.": 6367,
      "ure": 6368,
      "▁aside": 6369,
      "▁zawahiri": 6370,
      "▁career": 6371,
      "ounds": 6372,
      "€": 6373,
      "▁eighth": 6374,
      "ot": 6375,
      "by": 6376,
      "▁angel": 6377,
      "▁6,000": 6378,
      "▁<<": 6379,
      "▁local": 6380,
      "▁1291": 6381,
      "▁spear": 6382,
      "usion": 6383,
      "▁wel": 6384,
      "▁described": 6385,
      "teenth": 6386,
      "▁measure": 6387,
      "▁ver": 6388,
      "▁prot": 6389,
      "▁growing": 6390,
      "▁gall": 6391,
      "▁pic": 6392,
      "▁empt": 6393,
      "▁03:58": 6394,
      "▁property": 6395,
      "▁cigarette": 6396,
      "▁adult": 6397,
      "▁ped": 6398,
      "▁welcome": 6399,
      "ense": 6400,
      "▁;-)": 6401,
      "▁programs": 6402,
      "▁11/28/2000": 6403,
      "ption": 6404,
      "▁consum": 6405,
      "▁wh": 6406,
      "▁paying": 6407,
      "▁chocolate": 6408,
      "▁palacio": 6409,
      "▁initiative": 6410,
      "▁accord": 6411,
      "▁qaeda": 6412,
      "▁cromer": 6413,
      "▁scary": 6414,
      "▁bow": 6415,
      "▁wait": 6416,
      "▁television": 6417,
      "▁countries": 6418,
      "oam": 6419,
      "▁fields": 6420,
      "akk": 6421,
      "▁letter": 6422,
      "ij": 6423,
      "kn": 6424,
      "▁lock": 6425,
      "▁largest": 6426,
      "usions": 6427,
      "-l": 6428,
      "2/2000": 6429,
      "▁bun": 6430,
      "▁sugar": 6431,
      "read": 6432,
      "▁lip": 6433,
      "▁plays": 6434,
      "▁laura": 6435,
      "▁determin": 6436,
      "▁am": 6437,
      "/03": 6438,
      "for": 6439,
      "▁pa": 6440,
      "▁:p": 6441,
      "▁1970": 6442,
      "19": 6443,
      "▁says": 6444,
      "295": 6445,
      "▁conv": 6446,
      "▁enjamb": 6447,
      "▁direction": 6448,
      "▁value": 6449,
      "▁continues": 6450,
      "▁tables": 6451,
      "449": 6452,
      "▁e": 6453,
      "miss": 6454,
      "▁pleasant": 6455,
      "▁ital": 6456,
      "▁based": 6457,
      "▁dar": 6458,
      "gill": 6459,
      "ws": 6460,
      "▁flavor": 6461,
      "9/2000": 6462,
      "▁have": 6463,
      "▁commercial": 6464,
      "▁letters": 6465,
      "icago": 6466,
      "▁spir": 6467,
      "▁proced": 6468,
      "▁strongly": 6469,
      "▁giving": 6470,
      "iod": 6471,
      "▁really": 6472,
      "▁windows": 6473,
      "▁produc": 6474,
      "dam": 6475,
      "▁1910": 6476,
      "velop": 6477,
      "lined": 6478,
      "eur": 6479,
      "▁mrs": 6480,
      "▁64": 6481,
      "mark": 6482,
      "ven": 6483,
      "▁113": 6484,
      "▁nashville": 6485,
      "ivers": 6486,
      "cuz": 6487,
      "aq": 6488,
      "▁281-435": 6489,
      "▁enjoy": 6490,
      "itive": 6491,
      "ilt": 6492,
      "▁noon": 6493,
      "▁03/2": 6494,
      "▁primary": 6495,
      "▁pakistani": 6496,
      "ella": 6497,
      "▁fresh": 6498,
      "▁balls": 6499,
      "▁february": 6500,
      "employ": 6501,
      "▁film": 6502,
      "▁goat": 6503,
      "▁tru": 6504,
      "▁board": 6505,
      "▁whale": 6506,
      "▁neck": 6507,
      "iel": 6508,
      "▁grass": 6509,
      "▁acknowled": 6510,
      "ess": 6511,
      "▁ocho": 6512,
      "▁hearing": 6513,
      "▁epis": 6514,
      "▁181": 6515,
      "ination": 6516,
      "ened": 6517,
      "bing": 6518,
      "um": 6519,
      "▁launch": 6520,
      "▁carro": 6521,
      ":50": 6522,
      "▁studies": 6523,
      "gets": 6524,
      "▁split": 6525,
      "▁implement": 6526,
      "▁th": 6527,
      "▁01": 6528,
      "▁shoot": 6529,
      "▁mont": 6530,
      "antly": 6531,
      "del": 6532,
      "rol": 6533,
      "▁written": 6534,
      "▁at": 6535,
      "got": 6536,
      "gam": 6537,
      "▁henry": 6538,
      "▁dial": 6539,
      "▁eventually": 6540,
      "▁1205": 6541,
      "▁shot": 6542,
      "▁713-654-1281": 6543,
      "▁cris": 6544,
      "let": 6545,
      "38": 6546,
      "▁mu": 6547,
      "▁puzz": 6548,
      "▁mosqu": 6549,
      "ales": 6550,
      "▁oil": 6551,
      ":27": 6552,
      "selves": 6553,
      "▁asleep": 6554,
      "▁number": 6555,
      "▁michelle": 6556,
      "▁shr": 6557,
      "▁leigh": 6558,
      "▁forty": 6559,
      "▁ordered": 6560,
      "▁stir": 6561,
      "▁collection": 6562,
      "otted": 6563,
      "▁done": 6564,
      "▁quiet": 6565,
      "▁phr": 6566,
      "▁ind": 6567,
      "▁freed": 6568,
      "fe": 6569,
      "▁balzac": 6570,
      "▁influ": 6571,
      "ver": 6572,
      "▁dre": 6573,
      "▁memory": 6574,
      "▁differ": 6575,
      "▁mer": 6576,
      "1": 6577,
      "▁challeng": 6578,
      "bruary": 6579,
      "▁1831": 6580,
      "rit": 6581,
      "▁serve": 6582,
      "▁___________": 6583,
      "▁29": 6584,
      "less": 6585,
      "line": 6586,
      "▁helpful": 6587,
      "▁dangerous": 6588,
      "▁accomm": 6589,
      "▁option": 6590,
      "▁cooking": 6591,
      "▁paper": 6592,
      "▁kept": 6593,
      "`": 6594,
      "▁kitt": 6595,
      "▁reading": 6596,
      "▁04": 6597,
      "▁amb": 6598,
      "▁3.2": 6599,
      "▁jews": 6600,
      "▁short": 6601,
      "▁healthy": 6602,
      "bon": 6603,
      "▁twice": 6604,
      "▁xsl": 6605,
      "▁documents": 6606,
      "▁leaving": 6607,
      "▁colleag": 6608,
      "▁discover": 6609,
      "▁president": 6610,
      "▁country": 6611,
      "▁sent": 6612,
      "▁department": 6613,
      "▁gather": 6614,
      "▁raise": 6615,
      "▁noone": 6616,
      "▁quite": 6617,
      "vely": 6618,
      "▁innov": 6619,
      "▁see": 6620,
      "de": 6621,
      "▁whil": 6622,
      "▁180": 6623,
      "ifying": 6624,
      "▁0.0": 6625,
      "▁bea": 6626,
      "▁scar": 6627,
      "▁02-05-02.doc": 6628,
      "▁disco": 6629,
      "▁eth": 6630,
      "▁ach": 6631,
      "iv": 6632,
      "▁ric": 6633,
      "▁col": 6634,
      ":24": 6635,
      "▁treat": 6636,
      "▁dogs": 6637,
      "▁talking": 6638,
      "ief": 6639,
      "eter": 6640,
      "▁bet": 6641,
      "aro": 6642,
      "▁pockets": 6643,
      "an": 6644,
      "▁cutting": 6645,
      "▁marbles": 6646,
      "▁numer": 6647,
      "▁1590": 6648,
      "▁lights": 6649,
      "ook": 6650,
      "▁inj": 6651,
      "▁bench": 6652,
      "▁watching": 6653,
      "▁✉": 6654,
      "▁went": 6655,
      "▁360": 6656,
      "ida": 6657,
      "oid": 6658,
      "▁are": 6659,
      "▁recall": 6660,
      "▁wr": 6661,
      "▁box": 6662,
      "ips": 6663,
      "ellig": 6664,
      "▁96": 6665,
      ":37": 6666,
      "▁india": 6667,
      "▁e-mail": 6668,
      "▁dudley": 6669,
      "▁deb": 6670,
      "ransred": 6671,
      "▁932": 6672,
      "/30": 6673,
      "▁marie": 6674,
      "▁'m": 6675,
      "▁wealth": 6676,
      "ino": 6677,
      "▁taught": 6678,
      "eau": 6679,
      "▁imper": 6680,
      "▁noteboo": 6681,
      "▁global": 6682,
      "▁project": 6683,
      "▁out": 6684,
      "▁currency": 6685,
      "▁approval": 6686,
      "▁inqu": 6687,
      "▁2.": 6688,
      "▁right": 6689,
      ".7822": 6690,
      "vember": 6691,
      "▁explor": 6692,
      "▁1,200": 6693,
      "▁herself": 6694,
      "▁sleep": 6695,
      "▁adop": 6696,
      "▁il": 6697,
      "8-7": 6698,
      "▁groups": 6699,
      "▁yog": 6700,
      "▁os": 6701,
      "▁'ll": 6702,
      "▁*****": 6703,
      "▁48": 6704,
      "▁blank": 6705,
      "▁ben": 6706,
      "pl": 6707,
      "▁press": 6708,
      "ene": 6709,
      "▁earth": 6710,
      "ε": 6711,
      "▁hat": 6712,
      "▁510": 6713,
      "▁instruct": 6714,
      "▁aspects": 6715,
      "end": 6716,
      "9.3": 6717,
      "illing": 6718,
      "b)": 6719,
      "▁benef": 6720,
      "tica": 6721,
      "▁wrap": 6722,
      "▁93": 6723,
      "▁coron": 6724,
      "what": 6725,
      "▁toward": 6726,
      "oh": 6727,
      "▁agreed": 6728,
      "▁more": 6729,
      "▁1:30": 6730,
      "▁recorder": 6731,
      "icing": 6732,
      "▁rail": 6733,
      "ables": 6734,
      "▁6871082#": 6735,
      "▁academic": 6736,
      "▁cor": 6737,
      "▁dep": 6738,
      "▁knowled": 6739,
      "▁+44": 6740,
      "▁player": 6741,
      "▁ky": 6742,
      "stairs": 6743,
      "ara": 6744,
      "▁temperature": 6745,
      "▁1998": 6746,
      "icy": 6747,
      "az": 6748,
      "▁4_28_00.doc": 6749,
      "▁follows": 6750,
      "▁drag": 6751,
      "▁percentage": 6752,
      "▁forward": 6753,
      "▁jwww": 6754,
      "▁10,000": 6755,
      "▁center": 6756,
      "▁whilst": 6757,
      "▁1982": 6758,
      "▁talks": 6759,
      "rees": 6760,
      "ble": 6761,
      "ards": 6762,
      "[MASK]": 6763,
      "ames": 6764,
      "▁[": 6765,
      "▁avail": 6766,
      "▁1596": 6767,
      "leep": 6768,
      "▁differences": 6769,
      "339": 6770,
      "▁fil": 6771,
      "▁dirty": 6772,
      "stein": 6773,
      ":20": 6774,
      "▁including": 6775,
      "20": 6776,
      "▁2050": 6777,
      "▁gar": 6778,
      "▁320": 6779,
      "▁straw": 6780,
      "▁objects": 6781,
      "ites": 6782,
      "▁pure": 6783,
      "▁sort": 6784,
      "▁piec": 6785,
      "▁serving": 6786,
      "▁occ": 6787,
      "▁prices": 6788,
      "▁hun": 6789,
      "▁select": 6790,
      "-b": 6791,
      "▁tre": 6792,
      "ology": 6793,
      "▁sa": 6794,
      "▁extremely": 6795,
      "▁password": 6796,
      "ause": 6797,
      "▁rac": 6798,
      "▁pass": 6799,
      "▁modern": 6800,
      "▁int": 6801,
      "atures": 6802,
      "ol": 6803,
      "▁boston": 6804,
      "ies": 6805,
      "▁little": 6806,
      "#6": 6807,
      "iban": 6808,
      "00": 6809,
      "▁means": 6810,
      "▁note": 6811,
      "clock": 6812,
      "gth": 6813,
      "▁jap": 6814,
      "era": 6815,
      "▁youn": 6816,
      "▁hell": 6817,
      "▁ph": 6818,
      "ially": 6819,
      "▁perm": 6820,
      "▁commit": 6821,
      "▁visual": 6822,
      "▁11608": 6823,
      "874": 6824,
      "▁uv": 6825,
      "▁pun": 6826,
      "▁falls": 6827,
      "▁brows": 6828,
      "▁frag": 6829,
      "490": 6830,
      "icient": 6831,
      "▁1738": 6832,
      "▁regional": 6833,
      "▁veget": 6834,
      "▁screw": 6835,
      "▁follow": 6836,
      "łod": 6837,
      "ipping": 6838,
      "▁height": 6839,
      "▁redlined": 6840,
      "▁slide": 6841,
      "▁800": 6842,
      "▁150": 6843,
      "▁learn": 6844,
      "▁ago": 6845,
      "-99": 6846,
      "▁boxes": 6847,
      "▁rug": 6848,
      "▁dolph": 6849,
      "ero": 6850,
      ".95": 6851,
      "ones": 6852,
      "▁available": 6853,
      "ecess": 6854,
      "▁infrastructure": 6855,
      "▁ended": 6856,
      "▁restaurants": 6857,
      "▁iraqi": 6858,
      "ners": 6859,
      "ch": 6860,
      "▁never": 6861,
      "▁tie": 6862,
      "▁iss": 6863,
      "▁inf": 6864,
      "▁payment": 6865,
      "▁elsewhere": 6866,
      "/16/2001": 6867,
      "▁surv": 6868,
      "▁ins": 6869,
      "▁kevalam": 6870,
      "▁cheapest": 6871,
      "ructure": 6872,
      "ott": 6873,
      "▁mc": 6874,
      "▁cab": 6875,
      "▁12": 6876,
      "▁stren": 6877,
      "ological": 6878,
      "▁1,000": 6879,
      "▁surface": 6880,
      "e": 6881,
      "▁capital": 6882,
      "▁green": 6883,
      "▁750,000": 6884,
      "▁‘": 6885,
      "▁designed": 6886,
      "rant": 6887,
      "isk": 6888,
      "▁reached": 6889,
      "orton": 6890,
      "▁brings": 6891,
      "▁dark": 6892,
      "▁color": 6893,
      "~*~*~*~*": 6894,
      "▁transaction": 6895,
      "▁stom": 6896,
      "▁832.676": 6897,
      "ashion": 6898,
      "▁still": 6899,
      "▁ah": 6900,
      "▁analysis_0712": 6901,
      "ha": 6902,
      "ə": 6903,
      "-)": 6904,
      "stand": 6905,
      "hol": 6906,
      "▁:": 6907,
      "...": 6908,
      "ow": 6909,
      "▁r": 6910,
      "ce": 6911,
      "▁trav": 6912,
      "▁distort": 6913,
      "▁magaz": 6914,
      "▁owner": 6915,
      "▁tell": 6916,
      "▁rude": 6917,
      "▁conflict": 6918,
      "▁rates": 6919,
      "▁ros": 6920,
      "▁nic": 6921,
      "red": 6922,
      "▁clothes": 6923,
      "itable": 6924,
      "▁ban": 6925,
      "raz": 6926,
      "ase": 6927,
      "▁gas": 6928,
      "▁experienced": 6929,
      "▁returned": 6930,
      "▁apar": 6931,
      "▁economic": 6932,
      "▁trale": 6933,
      ":45": 6934,
      "▁bro": 6935,
      "ract": 6936,
      "▁waste": 6937,
      "▁tra": 6938,
      "uary": 6939,
      "▁activ": 6940,
      "▁figure": 6941,
      "▁would": 6942,
      "raf": 6943,
      "▁legislative": 6944,
      "▁08/16/2000": 6945,
      "–": 6946,
      "▁nick": 6947,
      "▁positions": 6948,
      "▁purchased": 6949,
      "▁standard": 6950,
      "▁170": 6951,
      "▁social": 6952,
      "ondon": 6953,
      "▁leave": 6954,
      "▁continue": 6955,
      "▁cult": 6956,
      "§": 6957,
      "▁terror": 6958,
      "▁trip": 6959,
      "▁invest": 6960,
      ".ht": 6961,
      "▁located": 6962,
      "▁expectations": 6963,
      "▁tied": 6964,
      "▁batter": 6965,
      "▁formed": 6966,
      "anc": 6967,
      "▁beginning": 6968,
      "▁******************************************************************": 6969,
      "▁is": 6970,
      "▁domestic": 6971,
      "▁tall": 6972,
      "▁conc": 6973,
      "ular": 6974,
      "▁lim": 6975,
      "▁science": 6976,
      "▁somebody": 6977,
      "▁incor": 6978,
      "▁cod": 6979,
      "▁ble": 6980,
      "▁f": 6981,
      "▁hers": 6982,
      "▁albe": 6983,
      "▁chocol": 6984,
      "▁100,000": 6985,
      "ها": 6986,
      "▁620-": 6987,
      "▁recover": 6988,
      "▁iran": 6989,
      "▁served": 6990,
      "¢": 6991,
      "▁1850": 6992,
      "▁ch": 6993,
      "lebr": 6994,
      "bar": 6995,
      "▁sty": 6996,
      "▁falluj": 6997,
      "▁export": 6998,
      "rench": 6999,
      "▁cup": 7000,
      "▁oc": 7001,
      "▁life": 7002,
      "▁certain": 7003,
      "▁republic": 7004,
      "▁dr": 7005,
      "ils": 7006,
      "attle": 7007,
      "▁flex": 7008,
      "▁630": 7009,
      "▁06/01/2001": 7010,
      "▁response": 7011,
      "▁ac": 7012,
      "▁mohammed": 7013,
      "▁899": 7014,
      "ω": 7015,
      "▁behind": 7016,
      "▁notwithstanding": 7017,
      "▁financial": 7018,
      "▁77": 7019,
      "▁ra": 7020,
      "▁peace": 7021,
      "port": 7022,
      "▁montejo": 7023,
      "ium": 7024,
      "▁entertain": 7025,
      "▁樋": 7026,
      "▁young": 7027,
      "_28": 7028,
      "▁soldiers": 7029,
      "▁whatever": 7030,
      "epend": 7031,
      "rated": 7032,
      "oler": 7033,
      "▁theatre": 7034,
      "▁5.3": 7035,
      "asp": 7036,
      "▁2,500": 7037,
      "▁03:3": 7038,
      "▁343": 7039,
      "▁ham": 7040,
      "▁ooh": 7041,
      "▁remains": 7042,
      "▁sky": 7043,
      "▁appearance": 7044,
      "▁lose": 7045,
      "▁pen": 7046,
      "▁coal": 7047,
      "▁lady": 7048,
      "▁assistance": 7049,
      "ree": 7050,
      "-20-": 7051,
      "ey": 7052,
      "▁silence": 7053,
      "▁disc": 7054,
      "▁prof": 7055,
      "▁pericles": 7056,
      "▁lear": 7057,
      "▁approximately": 7058,
      "▁why": 7059,
      "▁add": 7060,
      "val": 7061,
      "ece": 7062,
      "▁soil": 7063,
      "▁slowly": 7064,
      "sa": 7065,
      "▁emerging": 7066,
      "lf": 7067,
      "▁ticket": 7068,
      "▁server": 7069,
      "▁4.": 7070,
      "▁smith": 7071,
      "▁removed": 7072,
      "▁spent": 7073,
      "▁!.": 7074,
      "▁ce": 7075,
      "orum": 7076,
      "▁repl": 7077,
      "澹": 7078,
      "▁narr": 7079,
      "ampa": 7080,
      "▁08/15/2000": 7081,
      "ided": 7082,
      "▁iii": 7083,
      "▁working": 7084,
      "▁cap": 7085,
      "▁japan": 7086,
      "▁13011": 7087,
      "▁alex": 7088,
      "▁taking": 7089,
      "kana": 7090,
      "eth": 7091,
      "▁outs": 7092,
      "▁further": 7093,
      "▁hung": 7094,
      "▁63": 7095,
      "▁4,": 7096,
      "▁forgot": 7097,
      "▁museum": 7098,
      "▁51": 7099,
      "▁arri": 7100,
      "[PAD]": 7101,
      "▁713-853-": 7102,
      "▁creating": 7103,
      "elds": 7104,
      "▁interconnect": 7105,
      "▁pe": 7106,
      "▁goal": 7107,
      "▁1840": 7108,
      "ake": 7109,
      "over": 7110,
      "▁digital": 7111,
      "▁樋口": 7112,
      "▁experiment": 7113,
      "tsbur": 7114,
      "▁tough": 7115,
      "▁9:30": 7116,
      "▁accept": 7117,
      "h-r": 7118,
      "▁mand": 7119,
      "▁throw": 7120,
      "ession": 7121,
      "▁iron": 7122,
      "illion": 7123,
      "▁russia": 7124,
      "rist": 7125,
      "pts": 7126,
      "sex": 7127,
      "ists": 7128,
      "▁80435": 7129,
      "▁these": 7130,
      "ams": 7131,
      "▁colleagues": 7132,
      "▁contem": 7133,
      "▁upd": 7134,
      "▁refuge": 7135,
      ".html": 7136,
      "▁currently": 7137,
      "▁child": 7138,
      "▁res": 7139,
      "iling": 7140,
      "8/2001": 7141,
      ":00": 7142,
      "▁events": 7143,
      "▁commun": 7144,
      "▁debra": 7145,
      "▁=---": 7146,
      "▁1560": 7147,
      "eding": 7148,
      "▁54": 7149,
      "▁.3": 7150,
      "▁tampa": 7151,
      "▁setting": 7152,
      ".uk": 7153,
      "oice": 7154,
      "▁gu": 7155,
      "▁occasion": 7156,
      "▁90": 7157,
      "▁vodka": 7158,
      "▁operations": 7159,
      "▁lead": 7160,
      "▁less": 7161,
      "81": 7162,
      "icle": 7163,
      "▁piv": 7164,
      "do": 7165,
      "44": 7166,
      "▁quarter": 7167,
      "▁2.9": 7168,
      "▁nook": 7169,
      "▁fifty": 7170,
      "odes": 7171,
      "▁spanish": 7172,
      "▁coll": 7173,
      "▁perfectly": 7174,
      "oup": 7175,
      "zz": 7176,
      "ions": 7177,
      "▁foreign": 7178,
      "空": 7179,
      "▁69": 7180,
      "▁absor": 7181,
      "▁2013": 7182,
      "▁uncle": 7183,
      "▁dust": 7184,
      "ن": 7185,
      "▁friend": 7186,
      "▁1783": 7187,
      "edie": 7188,
      "▁**********": 7189,
      "▁comfort": 7190,
      "▁famous": 7191,
      "▁shape": 7192,
      "▁population": 7193,
      "▁tennis": 7194,
      "▁03:00": 7195,
      "par": 7196,
      "doc": 7197,
      "ivity": 7198,
      "nel": 7199,
      "▁leg": 7200,
      "▁problems": 7201,
      "▁providing": 7202,
      "inging": 7203,
      "▁phys": 7204,
      "▁cal": 7205,
      "▁priority": 7206,
      "si": 7207,
      "ect": 7208,
      "12": 7209,
      "▁§": 7210,
      "illa": 7211,
      "▁incom": 7212,
      "med": 7213,
      "▁produced": 7214,
      "▁mem": 7215,
      "▁maj": 7216,
      "eable": 7217,
      "▁visitors": 7218,
      "▁unable": 7219,
      "▁exp": 7220,
      "▁remind": 7221,
      "▁above": 7222,
      "▁himself": 7223,
      "▁milwau": 7224,
      "▁bear": 7225,
      "▁stri": 7226,
      "▁pet": 7227,
      "▁underneath": 7228,
      "▁calling": 7229,
      "▁97": 7230,
      "etic": 7231,
      "▁identity": 7232,
      "---------------": 7233,
      "▁street": 7234,
      "▁sm": 7235,
      "▁potato": 7236,
      "▁2011": 7237,
      "▁bin": 7238,
      "ved": 7239,
      "▁congrat": 7240,
      "▁mod": 7241,
      "▁path": 7242,
      "▁ire": 7243,
      "edge": 7244,
      "▁talked": 7245,
      "▁ser": 7246,
      "elle": 7247,
      "▁school": 7248,
      "old": 7249,
      "eline": 7250,
      "▁cow": 7251,
      "▁suprem": 7252,
      "d2": 7253,
      "isation": 7254,
      "▁10:46": 7255,
      "ew": 7256,
      "▁second": 7257,
      "ren": 7258,
      "▁220": 7259,
      "▁lives": 7260,
      "▁till": 7261,
      "▁sixteen": 7262,
      "▁baltimore": 7263,
      "▁via": 7264,
      "▁1918": 7265,
      "▁sit": 7266,
      "▁alternative": 7267,
      "▁packed": 7268,
      "▁element": 7269,
      "wn": 7270,
      "▁detroit": 7271,
      "▁1584": 7272,
      "▁subsequ": 7273,
      "ends": 7274,
      "▁ad": 7275,
      ":46": 7276,
      "▁three": 7277,
      "ike": 7278,
      "119": 7279,
      "▁univers": 7280,
      "iff": 7281,
      "ected": 7282,
      "▁comment": 7283,
      "5th": 7284,
      "▁germany": 7285,
      "way": 7286,
      "▁machine": 7287,
      "▁347": 7288,
      "▁improve": 7289,
      "▁glo": 7290,
      "▁silly": 7291,
      "roll": 7292,
      "▁thoughts": 7293,
      "dom": 7294,
      "▁benefit": 7295,
      "airs": 7296,
      "▁neighbour": 7297,
      "enes": 7298,
      "▁together": 7299,
      "▁1774": 7300,
      "▁rental": 7301,
      ".123": 7302,
      "▁poetry": 7303,
      "▁college": 7304,
      "▁turis": 7305,
      "▁she": 7306,
      "▁-----------------------------------------------------------------": 7307,
      "▁size": 7308,
      "▁sixty": 7309,
      "▁’s": 7310,
      "▁unique": 7311,
      "▁mexican": 7312,
      "▁wedding": 7313,
      "▁unc": 7314,
      "▁idea": 7315,
      "▁older": 7316,
      "▁independent": 7317,
      "▁measures": 7318,
      "▁evol": 7319,
      "▁nab": 7320,
      "irs": 7321,
      "▁xml": 7322,
      "▁!!!!!!!!!!!": 7323,
      "================": 7324,
      "▁men": 7325,
      "▁pos": 7326,
      "▁becuse": 7327,
      "▁blog": 7328,
      "▁formal": 7329,
      "raw": 7330,
      "▁sally": 7331,
      "ues": 7332,
      "na": 7333,
      "ub": 7334,
      "▁orig": 7335,
      "▁bag": 7336,
      "olly": 7337,
      "▁spoke": 7338,
      "▁hopefully": 7339,
      "▁speaking": 7340,
      "▁serious": 7341,
      "▁building": 7342,
      "\\": 7343,
      "▁version": 7344,
      "▁coat": 7345,
      "▁thom": 7346,
      "▁writing": 7347,
      "▁congress": 7348,
      "▁1987": 7349,
      "wik": 7350,
      "ound": 7351,
      "▁jean": 7352,
      "/9": 7353,
      "▁eleph": 7354,
      "▁rice": 7355,
      "▁forever": 7356,
      ":34": 7357,
      "▁islands": 7358,
      "st": 7359,
      "▁signific": 7360,
      "▁move": 7361,
      "▁iod": 7362,
      "▁regulation": 7363,
      "▁jun": 7364,
      "▁much": 7365,
      "▁later": 7366,
      "▁dry": 7367,
      "▁uniform": 7368,
      "****************": 7369,
      "iii": 7370,
      "▁zoo": 7371,
      "animals": 7372,
      ".30": 7373,
      "▁meh-risk": 7374,
      "iber": 7375,
      "▁ron": 7376,
      "ternal": 7377,
      "zai": 7378,
      "▁corpor": 7379,
      "aint": 7380,
      "▁conver": 7381,
      "ife": 7382,
      "▁pointed": 7383,
      "▁thru": 7384,
      "▁1990": 7385,
      "▁fellow": 7386,
      "▁jumped": 7387,
      "▁correct": 7388,
      "????????????????": 7389,
      "▁big": 7390,
      "resp": 7391,
      "▁narrow": 7392,
      "▁coinc": 7393,
      "▁1829": 7394,
      "▁??": 7395,
      "▁extrem": 7396,
      "usal": 7397,
      "▁thir": 7398,
      "led": 7399,
      "▁novel": 7400,
      "▁kitty": 7401,
      "▁astride": 7402,
      "▁|--------+----------------------->": 7403,
      "inner": 7404,
      "13.86": 7405,
      "▁19": 7406,
      "▁cand": 7407,
      "▁application": 7408,
      "▁sept": 7409,
      "▁….": 7410,
      "▁blow": 7411,
      "eak": 7412,
      "▁teachers": 7413,
      "▁cast": 7414,
      "ami": 7415,
      "▁kids": 7416,
      "▁reg": 7417,
      "▁eat": 7418,
      "▁35": 7419,
      "▁left": 7420,
      "▁management": 7421,
      "▁,?": 7422,
      "ission": 7423,
      "▁affair": 7424,
      "ee": 7425,
      "▁command": 7426,
      "▁goes": 7427,
      "▁send": 7428,
      "▁waters": 7429,
      "▁put": 7430,
      "▁consumption": 7431,
      "▁puzzle": 7432,
      "mail": 7433,
      "isb": 7434,
      "▁by": 7435,
      ".3": 7436,
      "▁plate": 7437,
      "▁same": 7438,
      "1082": 7439,
      "ery": 7440,
      "etch": 7441,
      "▁approxim": 7442,
      "▁untill": 7443,
      "▁wrong": 7444,
      "▁575": 7445,
      "rif": 7446,
      "▁kh": 7447,
      "ʻ": 7448,
      "▁services": 7449,
      "▁instead": 7450,
      "▁'d": 7451,
      "▁describ": 7452,
      "up": 7453,
      "▁advant": 7454,
      "▁architect": 7455,
      "▁informed": 7456,
      "▁dest": 7457,
      "▁tort": 7458,
      "▁costs": 7459,
      "der": 7460,
      "▁’re": 7461,
      "▁alcal": 7462,
      "▁also": 7463,
      "▁author": 7464,
      "▁<": 7465,
      "not": 7466,
      "▁housing": 7467,
      "夏": 7468,
      "▁choice": 7469,
      "▁miami": 7470,
      "▁1.1": 7471,
      "▁robert": 7472,
      "▁dig": 7473,
      "as": 7474,
      "▁las": 7475,
      "▁docum": 7476,
      "▁feeling": 7477,
      "▁tokyo": 7478,
      "ld": 7479,
      "▁1790": 7480,
      "orm": 7481,
      "▁other": 7482,
      "▁going": 7483,
      "uck": 7484,
      "▁fear": 7485,
      "▁percell,": 7486,
      "▁projects": 7487,
      "▁transform": 7488,
      "iver": 7489,
      "▁ale": 7490,
      "▁den": 7491,
      "▁cost": 7492,
      "5,000": 7493,
      "▁jeff": 7494,
      "▁vogel": 7495,
      "<----": 7496,
      "itt": 7497,
      "▁andrillae": 7498,
      "▁defined": 7499,
      "gg": 7500,
      "▁father": 7501,
      "▁finance": 7502,
      "▁apr": 7503,
      "▁efficiency": 7504,
      "▁accurate": 7505,
      "edule": 7506,
      "▁faces": 7507,
      "▁alike": 7508,
      "com": 7509,
      "▁grand": 7510,
      "▁comm": 7511,
      "▁ingredients": 7512,
      "▁inh": 7513,
      "▁rul": 7514,
      "▁bulld": 7515,
      "arts": 7516,
      "▁shoe": 7517,
      "▁around": 7518,
      "▁decided": 7519,
      "▁mike": 7520,
      "▁minimum": 7521,
      "▁forty-": 7522,
      "q": 7523,
      "greg": 7524,
      "▁4.7": 7525,
      "▁favour": 7526,
      "▁carried": 7527,
      "▁shoulder": 7528,
      "▁skitt": 7529,
      "▁lot": 7530,
      "or": 7531,
      "▁appointment": 7532,
      "▁3/4": 7533,
      "wau": 7534,
      "▁mid": 7535,
      "▁shake": 7536,
      "ention": 7537,
      "ire": 7538,
      "▁using": 7539,
      "▁northwest": 7540,
      "are": 7541,
      "▁oh": 7542,
      "asing": 7543,
      "▁cl": 7544,
      "ß": 7545,
      "▁pour": 7546,
      "▁percent": 7547,
      "▁wolves": 7548,
      "▁pair": 7549,
      "▁disney": 7550,
      "▁111": 7551,
      "▁vill": 7552,
      "▁ren": 7553,
      "▁lic": 7554,
      "▁delivered": 7555,
      "▁dirt": 7556,
      ":29": 7557,
      "▁south": 7558,
      "▁met": 7559,
      "▁1965": 7560,
      "▁03/28/2001": 7561,
      "▁415.621.8317": 7562,
      "ior": 7563,
      "▁conversation": 7564,
      "▁sense": 7565,
      "vant": 7566,
      "▁provides": 7567,
      "@enron": 7568,
      "▁kore": 7569,
      "▁dere": 7570,
      "ier": 7571,
      "▁wi": 7572,
      "79": 7573,
      "▁qual": 7574,
      "▁computer": 7575,
      "▁offic": 7576,
      "he": 7577,
      "yan": 7578,
      "▁cooked": 7579,
      "▁;": 7580,
      "▁clay": 7581,
      "iest": 7582,
      "▁taken": 7583,
      "▁my": 7584,
      "▁1594": 7585,
      "gre": 7586,
      "ries": 7587,
      "▁1700": 7588,
      "tim": 7589,
      "▁plan": 7590,
      "▁sw": 7591,
      "ie": 7592,
      "▁forces": 7593,
      "▁grab": 7594,
      "bow": 7595,
      "▁prepared": 7596,
      "▁spect": 7597,
      "▁soft": 7598,
      "ut": 7599,
      "0.doc": 7600,
      "ack": 7601,
      "aim": 7602,
      "▁raised": 7603,
      "onse": 7604,
      "▁own": 7605,
      "▁happy": 7606,
      "▁woman": 7607,
      "▁page": 7608,
      "▁technical": 7609,
      "▁introduced": 7610,
      "▁artwork": 7611,
      "icycle": 7612,
      "ir": 7613,
      "▁scene": 7614,
      "▁assume": 7615,
      "▁alt.animals": 7616,
      "/10/2000": 7617,
      "▁development": 7618,
      "ever": 7619,
      "▁original": 7620,
      "▁rate": 7621,
      "819602175": 7622,
      "▁ber": 7623,
      "izations": 7624,
      "▁recogn": 7625,
      "▁northern": 7626,
      "-f": 7627,
      "▁suggest": 7628,
      "▁·": 7629,
      "▁basket": 7630,
      "▁311": 7631,
      "▁islam": 7632,
      "▁weapon": 7633,
      "▁dead": 7634,
      "isc": 7635,
      "▁iodine": 7636,
      "▁interviews": 7637,
      "▁fri": 7638,
      "▁373": 7639,
      "▁liked": 7640,
      "▁walk": 7641,
      "▁exchange": 7642,
      "▁birth": 7643,
      "▁as": 7644,
      "illed": 7645,
      "▁54,000": 7646,
      "▁1776": 7647,
      "aged": 7648,
      "_de": 7649,
      "ux": 7650,
      "▁no-6": 7651,
      "▁1701": 7652,
      "▁doing": 7653,
      "ify": 7654,
      "▁scr": 7655,
      "▁administ": 7656,
      "▁747": 7657,
      "▁45": 7658,
      "▁passion": 7659,
      "▁spoken": 7660,
      "tch": 7661,
      "▁cycl": 7662,
      "===<----": 7663,
      "eis": 7664,
      "▁lay": 7665,
      "▁20.doc": 7666,
      "▁centre": 7667,
      "ign": 7668,
      ":55": 7669,
      "erson": 7670,
      "and": 7671,
      "oll": 7672,
      "itions": 7673,
      "▁2.3": 7674,
      "▁bec": 7675,
      "▁someone": 7676,
      "▁sir": 7677,
      "▁creat": 7678,
      "▁reach": 7679,
      ".com": 7680,
      "ucing": 7681,
      "▁183": 7682,
      "▁purchase": 7683,
      "▁keep": 7684,
      "▁particularly": 7685,
      "▁what": 7686,
      "▁1920": 7687,
      "▁characters": 7688,
      "f.doc": 7689,
      "ead": 7690,
      "▁stillman": 7691,
      "▁consult": 7692,
      "▁212": 7693,
      "land": 7694,
      "▁compet": 7695,
      "▁ansi-": 7696,
      "▁sil": 7697,
      "▁level": 7698,
      "ight": 7699,
      "▁pocket": 7700,
      "▁wants": 7701,
      "▁jelly": 7702,
      "ur": 7703,
      "▁fund": 7704,
      "▁industrial": 7705,
      "▁task": 7706,
      "▁sav": 7707,
      "ecca": 7708,
      "@enron_de": 7709,
      "▁vol": 7710,
      "▁orlando": 7711,
      "▁jud": 7712,
      "ience": 7713,
      "▁n'": 7714,
      "▁took": 7715,
      "▁corporate": 7716,
      "▁doubt": 7717,
      "%": 7718,
      "ust": 7719,
      "▁admin": 7720,
      "????????????????????????????????": 7721,
      "ʁ": 7722,
      "▁24.7": 7723,
      "▁boys": 7724,
      "oph": 7725,
      "▁jul": 7726,
      "action": 7727,
      "▁202.45": 7728,
      "/26/2001": 7729,
      "▁visa": 7730,
      "▁audit": 7731,
      "10": 7732,
      "▁evidence": 7733,
      "▁telephone": 7734,
      "▁youtube": 7735,
      "▁maris": 7736,
      "▁11:00": 7737,
      "cles": 7738,
      "▁cr": 7739,
      "▁calif": 7740,
      "--------------------------------": 7741,
      "▁perform": 7742,
      "▁books": 7743,
      "▁p.s.": 7744,
      "bc": 7745,
      "▁call": 7746,
      "▁0.00": 7747,
      "łodz": 7748,
      "▁worse": 7749,
      "`s": 7750,
      "▁es": 7751,
      "▁medium": 7752,
      "▁mis": 7753,
      "▁prove": 7754,
      "rog": 7755,
      "▁bike": 7756,
      "etime": 7757,
      "izing": 7758,
      "yond": 7759,
      "▁intellect": 7760,
      "▁sees": 7761,
      "/00": 7762,
      "reg": 7763,
      "▁negoti": 7764,
      "▁chines": 7765,
      "▁from": 7766,
      "▁twist": 7767,
      "▁turn": 7768,
      "▁coffee": 7769,
      "▁efficient": 7770,
      "▁assess": 7771,
      "▁info": 7772,
      "▁tea": 7773,
      "▁spoon": 7774,
      "oa": 7775,
      "▁flights": 7776,
      "anced": 7777,
      "hin": 7778,
      "▁necess": 7779,
      "e@enron": 7780,
      "000": 7781,
      "ement": 7782,
      "×": 7783,
      "▁rice@enron": 7784,
      "ransredes": 7785,
      "▁higher": 7786,
      "actions": 7787,
      "▁philadelp": 7788,
      "▁==": 7789,
      "?": 7790,
      "▁economies": 7791,
      "ony": 7792,
      "/2001": 7793,
      "▁init": 7794,
      "▁bottle": 7795,
      "▁nose": 7796,
      "entially": 7797,
      "▁922": 7798,
      "ollow": 7799,
      "▁infrast": 7800,
      "ulate": 7801,
      "▁cats": 7802,
      "??": 7803,
      "▁rolling": 7804,
      "▁rare": 7805,
      "▁[...": 7806,
      "▁confidential": 7807,
      "▁necessarily": 7808,
      "▁euro": 7809,
      "393": 7810,
      "▁sim": 7811,
      "▁robot": 7812,
      "▁sou": 7813,
      "▁ty": 7814,
      ".5": 7815,
      "▁acts": 7816,
      "▁peop": 7817,
      "▁2018": 7818,
      "▁sun": 7819,
      "▁returning": 7820,
      "▁help": 7821,
      "urday": 7822,
      "ave": 7823,
      "▁1605": 7824,
      "da": 7825,
      "▁04:37": 7826,
      "▁dear": 7827,
      "i": 7828,
      "▁300,000": 7829,
      "ults": 7830,
      "▁kinda": 7831,
      "▁district": 7832,
      "▁buying": 7833,
      "▁1985": 7834,
      "▁'": 7835,
      "▁drew": 7836,
      "▁uma": 7837,
      "▁aer": 7838,
      "es": 7839,
      "▁everywhere": 7840,
      "▁franc": 7841,
      "▁id": 7842,
      "▁grounds": 7843,
      "round": 7844,
      "tte": 7845,
      "201": 7846,
      "work": 7847,
      "▁while": 7848,
      "un": 7849,
      "▁belly": 7850,
      "▁huge": 7851,
      "▁far": 7852,
      "▁1780": 7853,
      "▁through": 7854,
      "▁03:20": 7855,
      "▁1984": 7856,
      "▁1589": 7857,
      "▁mon": 7858,
      "▁afraid": 7859,
      "▁agenda": 7860,
      "▁01:58": 7861,
      "70": 7862,
      "▁often": 7863,
      "▁stoy": 7864,
      "▁v.": 7865,
      "▁firm": 7866,
      "▁class": 7867,
      "▁pages": 7868,
      "▁secretary": 7869,
      "~*~*": 7870,
      "cum": 7871,
      "▁love": 7872,
      "▁bird": 7873,
      "▁dancing": 7874,
      "one": 7875,
      "ernobyl": 7876,
      "▁doct": 7877,
      "▁instit": 7878,
      "▁earliest": 7879,
      "▁despite": 7880,
      "▁and": 7881,
      "▁save": 7882,
      "▁6": 7883,
      "bed": 7884,
      "aa": 7885,
      "▁door": 7886,
      "ength": 7887,
      "▁i.e.": 7888,
      "▁dando": 7889,
      "ia": 7890,
      "▁milit": 7891,
      "▁libr": 7892,
      "▁mark": 7893,
      "▁rent": 7894,
      "▁naima": 7895,
      "▁language": 7896,
      "aman": 7897,
      "lackl": 7898,
      "▁speak": 7899,
      "▁remember": 7900,
      "▁1957": 7901,
      "min": 7902,
      "▁internal": 7903,
      "gn": 7904,
      "ding": 7905,
      "ilar": 7906,
      "▁charlie": 7907,
      "iated": 7908,
      "▁til": 7909,
      "ping": 7910,
      "▁throughout": 7911,
      "arian": 7912,
      "▁to": 7913,
      "▁construct": 7914,
      "▁944": 7915,
      "▁cleaning": 7916,
      "ht": 7917,
      "anie": 7918,
      "▁cathol": 7919,
      "und": 7920,
      "▁columbus": 7921,
      "9933": 7922,
      "ched": 7923,
      "ipped": 7924,
      "▁31": 7925,
      "▁hi": 7926,
      "▁fantastic": 7927,
      "▁tank": 7928,
      "▁separate": 7929,
      "lymp": 7930,
      "▁faith": 7931,
      "oose": 7932,
      "▁born": 7933,
      "▁awful": 7934,
      "▁opt": 7935,
      "mber": 7936,
      "ss": 7937,
      "▁queries": 7938,
      "▁cert": 7939,
      "▁provide": 7940,
      "kee": 7941,
      "▁denver": 7942,
      "▁alive": 7943,
      "▁connect": 7944,
      "▁toes": 7945,
      "▁weekly": 7946,
      "▁lick": 7947,
      "ouse": 7948,
      ".m.": 7949,
      "▁hor": 7950,
      "pping": 7951,
      "22,000": 7952,
      "▁constantly": 7953,
      "▁imple": 7954,
      "eld": 7955,
      ",7": 7956,
      "ous": 7957,
      "▁allow": 7958,
      "........": 7959,
      "▁555": 7960,
      "ations": 7961,
      "▁bring": 7962,
      "enc": 7963,
      "▁ing": 7964,
      "▁oce": 7965,
      "▁mach": 7966,
      ".htm": 7967,
      "▁security": 7968,
      "▁budget": 7969,
      "-n": 7970,
      "▁hands": 7971,
      "46-3393": 7972,
      "▁1-800": 7973,
      "700": 7974,
      "▁either": 7975,
      "-20": 7976,
      "▁weasley": 7977,
      "ato": 7978,
      "▁difficult": 7979,
      ":13": 7980,
      "▁employees": 7981,
      "▁eighty": 7982,
      "▁1912": 7983,
      "~*": 7984,
      "▁fuck": 7985,
      "▁saddam": 7986,
      "▁male": 7987,
      "▁manner": 7988,
      "▁cream": 7989,
      "▁coup": 7990,
      "▁north": 7991,
      "▁worms": 7992,
      "▁lack": 7993,
      "ounts": 7994,
      "▁e.g.": 7995,
      "▁senate": 7996,
      "7.77": 7997,
      "▁1960": 7998,
      "▁dro": 7999,
      "ands": 8000,
      "▁intern": 8001,
      "▁1871": 8002,
      "▁file": 8003,
      "▁72": 8004,
      "_": 8005,
      "os": 8006,
      "▁respons": 8007,
      "eton@ect": 8008,
      "mony": 8009,
      "▁.xsl": 8010,
      "▁corresp": 8011,
      "bles": 8012,
      ".st": 8013,
      "ication": 8014,
      "▁mosque": 8015,
      "▁equ": 8016,
      "▁83": 8017,
      "▁buttons": 8018,
      "▁changing": 8019,
      "5-0": 8020,
      "▁picture": 8021,
      "▁spok": 8022,
      "▁1603": 8023,
      "ta": 8024,
      "▁125": 8025,
      "velopment": 8026,
      "▁abb": 8027,
      "▁motor": 8028,
      "▁temper": 8029,
      "▁scenes": 8030,
      "▁loose": 8031,
      "▁pur": 8032,
      "▁granted": 8033,
      "▁-fin": 8034,
      "iding": 8035,
      "phere": 8036,
      "▁10:34": 8037,
      "▁wether": 8038,
      "▁mush": 8039,
      "▁worried": 8040,
      "▁om": 8041,
      "▁tuesday": 8042,
      "▁round": 8043,
      "▁ball": 8044,
      "▁encab": 8045,
      "▁psychology": 8046,
      "▁hide": 8047,
      "iction": 8048,
      "ab": 8049,
      "▁cookies": 8050,
      "▁charles": 8051,
      "▁investig": 8052,
      "nd": 8053,
      "▁1964": 8054,
      "▁sand": 8055,
      "▁order": 8056,
      ",500": 8057,
      "▁1821": 8058,
      "▁establish": 8059,
      "▁therefore": 8060,
      "▁1999": 8061,
      "ist": 8062,
      "▁lie": 8063,
      "▁actually": 8064,
      "▁?!": 8065,
      "▁ven": 8066,
      "▁rest": 8067,
      "▁nuclear": 8068,
      "▁cooper": 8069,
      "▁700": 8070,
      "▁airl": 8071,
      "▁matter": 8072,
      "16.718": 8073,
      "▁grown": 8074,
      "▁believed": 8075,
      "ear": 8076,
      "esh": 8077,
      "io": 8078,
      "▁tried": 8079,
      "anda": 8080,
      "!!": 8081,
      "▁presents": 8082,
      "▁wife": 8083,
      "▁’m": 8084,
      "▁09:14": 8085,
      "▁horse": 8086,
      "▁fans": 8087,
      "ube": 8088,
      "▁416-8": 8089,
      "▁educ": 8090,
      "▁================================": 8091,
      "▁fl": 8092,
      "▁...": 8093,
      "-------": 8094,
      "▁646": 8095,
      "iao": 8096,
      "▁pick": 8097,
      "▁inn": 8098,
      "▁paris": 8099,
      "18": 8100,
      "▁wand": 8101,
      "▁vogelaviatiola": 8102,
      "▁emergency": 8103,
      "°": 8104,
      "vin": 8105,
      "▁bri": 8106,
      "▁environ": 8107,
      "▁loud": 8108,
      "ines": 8109,
      "▁est": 8110,
      "▁associated": 8111,
      "▁jord": 8112,
      "▁nutrition": 8113,
      "▁importance": 8114,
      "▁fixed": 8115,
      "▁started": 8116,
      "▁necessary": 8117,
      "▁cry": 8118,
      "▁trillion": 8119,
      "ght": 8120,
      "▁130": 8121,
      "▁pil": 8122,
      ":3": 8123,
      "▁ru": 8124,
      "vil": 8125,
      "▁getting": 8126,
      "ished": 8127,
      "els": 8128,
      "▁restaurant": 8129,
      "▁mouse": 8130,
      "ale": 8131,
      "▁symp": 8132,
      "ment": 8133,
      "cal": 8134,
      "▁made": 8135,
      "▁jewish": 8136,
      "▁)": 8137,
      "oy": 8138,
      "▁breath": 8139,
      "▁on": 8140,
      "▁database": 8141,
      "anch": 8142,
      "▁chap": 8143,
      "99": 8144,
      ".x": 8145,
      "▁09:45": 8146,
      "▁wit": 8147,
      "▁15": 8148,
      "▁begin": 8149,
      "▁stud": 8150,
      "▁white": 8151,
      "▁august": 8152,
      "tride": 8153,
      "▁ants": 8154,
      "▁moder": 8155,
      "▁of": 8156,
      "istics": 8157,
      "▁daddy": 8158,
      "__": 8159,
      "▁forest": 8160,
      "3736": 8161,
      "▁reserve": 8162,
      "▁then": 8163,
      "▁final": 8164,
      "▁cognitive": 8165,
      "▁dragon": 8166,
      "idd": 8167,
      "▁includes": 8168,
      "▁almost": 8169,
      "▁fire": 8170,
      "▁hole": 8171,
      "!!!": 8172,
      "▁mountain": 8173,
      "▁caught": 8174,
      "uing": 8175,
      "uce": 8176,
      "▁:)": 8177,
      "ators": 8178,
      "▁boy": 8179,
      "ipp": 8180,
      "▁disp": 8181,
      "▁word": 8182,
      ":23": 8183,
      "ended": 8184,
      "thern": 8185,
      "4-": 8186,
      "gy": 8187,
      "▁angeles": 8188,
      "▁202.7": 8189,
      "▁sound": 8190,
      "atic": 8191
    },
    "merges": [
      [
        "▁the",
        "at"
      ],
      [
        "ep",
        "end"
      ],
      [
        "▁f",
        "urn"
      ],
      [
        "▁not",
        "ice"
      ],
      [
        "▁fi",
        "ft"
      ],
      [
        "▁en",
        "a"
      ],
      [
        "ud",
        "e"
      ],
      [
        "▁am",
        "ount"
      ],
      [
        "3",
        "7"
      ],
      [
        "▁10",
        ":45"
      ],
      [
        "▁n",
        "o"
      ],
      [
        "▁copy",
        "right"
      ],
      [
        "▁183",
        "2"
      ],
      [
        "▁sh",
        "ell"
      ],
      [
        "-",
        "50"
      ],
      [
        "▁w",
        "/"
      ],
      [
        "▁cl",
        "ass"
      ],
      [
        "▁wou",
        "d"
      ],
      [
        "▁off",
        "er"
      ],
      [
        "▁c",
        "ame"
      ],
      [
        "▁open",
        "ing"
      ],
      [
        "▁7",
        "2"
      ],
      [
        "▁",
        "ow"
      ],
      [
        "▁a",
        "r"
      ],
      [
        "▁face",
        "book"
      ],
      [
        "r",
        "ans"
      ],
      [
        "▁t",
        "ake"
      ],
      [
        "▁gu",
        "ys"
      ],
      [
        "▁un",
        "employ"
      ],
      [
        "▁appro",
        "ach"
      ],
      [
        "▁bo",
        "ston"
      ],
      [
        "▁fe",
        "ed"
      ],
      [
        "▁friend",
        "ly"
      ],
      [
        "▁",
        "ess"
      ],
      [
        "▁execut",
        "ive"
      ],
      [
        "▁;",
        ")"
      ],
      [
        "▁help",
        "ful"
      ],
      [
        "▁",
        "oc"
      ],
      [
        "g",
        "et"
      ],
      [
        "▁i",
        "v"
      ],
      [
        "▁sp",
        "ent"
      ],
      [
        "▁10",
        ":25"
      ],
      [
        "▁bo",
        "y"
      ],
      [
        "erc",
        "ial"
      ],
      [
        "▁a",
        "verage"
      ],
      [
        "▁act",
        "ual"
      ],
      [
        "▁h",
        "uge"
      ],
      [
        "▁a",
        "gre"
      ],
      [
        "▁experi",
        "enced"
      ],
      [
        "el",
        "ine"
      ],
      [
        "os",
        "es"
      ],
      [
        "▁09",
        "/15"
      ],
      [
        "▁im",
        "ple"
      ],
      [
        "▁dis",
        "p"
      ],
      [
        "▁ingred",
        "ients"
      ],
      [
        "▁list",
        "en"
      ],
      [
        "▁18",
        "47"
      ],
      [
        "ing",
        "u"
      ],
      [
        "▁claim",
        "ed"
      ],
      [
        "▁sl",
        "ight"
      ],
      [
        "erno",
        "byl"
      ],
      [
        "▁l",
        "ast"
      ],
      [
        "▁5",
        "4"
      ],
      [
        "▁a",
        "pr"
      ],
      [
        "e",
        "w"
      ],
      [
        "▁ass",
        "oc"
      ],
      [
        "▁08",
        "/16"
      ],
      [
        "u",
        "ding"
      ],
      [
        "▁m",
        "ech"
      ],
      [
        "▁your",
        "s"
      ],
      [
        "▁w",
        "ou"
      ],
      [
        "c",
        "onn"
      ],
      [
        "▁act",
        "s"
      ],
      [
        "ut",
        "e"
      ],
      [
        "▁und",
        "er"
      ],
      [
        "▁t",
        "am"
      ],
      [
        "▁sar",
        "ah"
      ],
      [
        "▁part",
        "ies"
      ],
      [
        "▁11",
        "00"
      ],
      [
        "▁writ",
        "ers"
      ],
      [
        "▁1",
        "-8"
      ],
      [
        "▁prod",
        "uced"
      ],
      [
        "▁d",
        "av"
      ],
      [
        "▁cab",
        "in"
      ],
      [
        "▁202",
        ".45"
      ],
      [
        "▁disc",
        "ount"
      ],
      [
        "id",
        "es"
      ],
      [
        "▁stre",
        "ets"
      ],
      [
        "st",
        "ers"
      ],
      [
        "/",
        "/"
      ],
      [
        "l",
        "s"
      ],
      [
        "▁r",
        "ice"
      ],
      [
        "ou",
        "g"
      ],
      [
        "9",
        "6"
      ],
      [
        "▁h",
        "ind"
      ],
      [
        "▁d",
        "ay"
      ],
      [
        "▁bo",
        "at"
      ],
      [
        "▁sun",
        "day"
      ],
      [
        "▁nat",
        "ural"
      ],
      [
        "▁c",
        "ities"
      ],
      [
        "▁sel",
        "f"
      ],
      [
        "sel",
        "f"
      ],
      [
        "▁kh",
        "an@t"
      ],
      [
        "▁n'",
        "t"
      ],
      [
        "ast",
        "ic"
      ],
      [
        "▁progr",
        "ams"
      ],
      [
        "▁im",
        "per"
      ],
      [
        "▁six",
        "th"
      ],
      [
        "ort",
        "on"
      ],
      [
        ".",
        "p"
      ],
      [
        "ul",
        "l"
      ],
      [
        "▁week",
        "end"
      ],
      [
        "20",
        "-"
      ],
      [
        "▁dir",
        "ty"
      ],
      [
        "od",
        "e"
      ],
      [
        "▁pict",
        "ures"
      ],
      [
        "▁16",
        ".3"
      ],
      [
        "▁mar",
        "riage"
      ],
      [
        "ol",
        "er"
      ],
      [
        "ib",
        "ald"
      ],
      [
        "▁ch",
        "all"
      ],
      [
        "3",
        "-3"
      ],
      [
        "▁show",
        "s"
      ],
      [
        "▁danger",
        "ous"
      ],
      [
        "▁med",
        "ical"
      ],
      [
        "▁exact",
        "ly"
      ],
      [
        "▁car",
        "ried"
      ],
      [
        "ort",
        "un"
      ],
      [
        "1",
        "-9"
      ],
      [
        "▁p",
        "ress"
      ],
      [
        "▁ro",
        "s"
      ],
      [
        "▁lead",
        "er"
      ],
      [
        "▁rec",
        "all"
      ],
      [
        "▁4",
        "_28"
      ],
      [
        "▁70",
        "5"
      ],
      [
        "▁tr",
        "illion"
      ],
      [
        "▁bas",
        "k"
      ],
      [
        "is",
        "on"
      ],
      [
        "▁a",
        "l"
      ],
      [
        "e",
        "ct"
      ],
      [
        "▁follow",
        "ing"
      ],
      [
        "ol",
        "ly"
      ],
      [
        "ic",
        "ago"
      ],
      [
        "▁03",
        ":58"
      ],
      [
        "▁wor",
        "ld"
      ],
      [
        "▁sh",
        "ad"
      ],
      [
        "▁eff",
        "icient"
      ],
      [
        "▁for",
        "ces"
      ],
      [
        "d",
        "el"
      ],
      [
        "▁2",
        ".0"
      ],
      [
        "▁sat",
        "urday"
      ],
      [
        ":",
        "29"
      ],
      [
        "▁in",
        "to"
      ],
      [
        "▁m",
        "ir"
      ],
      [
        "▁equ",
        "al"
      ],
      [
        "▁lo",
        "ved"
      ],
      [
        "8",
        "4"
      ],
      [
        "▁apprec",
        "iate"
      ],
      [
        "aw",
        "ah"
      ],
      [
        "▁n",
        "ations"
      ],
      [
        "▁p",
        "oo"
      ],
      [
        "▁ro",
        "om"
      ],
      [
        "▁appro",
        "ved"
      ],
      [
        "act",
        "ion"
      ],
      [
        "▁des",
        "pite"
      ],
      [
        "▁",
        "it"
      ],
      [
        "oun",
        "d"
      ],
      [
        ".",
        "doc"
      ],
      [
        "▁505",
        "-625"
      ],
      [
        "i",
        "er"
      ],
      [
        "el",
        "ds"
      ],
      [
        "▁inc",
        "red"
      ],
      [
        "ac",
        "ion"
      ],
      [
        "8",
        "8"
      ],
      [
        "▁f",
        "are"
      ],
      [
        "▁hur",
        "ts"
      ],
      [
        "▁veg",
        "as"
      ],
      [
        "7",
        "1"
      ],
      [
        "▁mus",
        "cles"
      ],
      [
        "4",
        "7"
      ],
      [
        "▁01",
        "/1"
      ],
      [
        "▁com",
        "b"
      ],
      [
        "▁",
        "."
      ],
      [
        "▁hear",
        "d"
      ],
      [
        "▁tac",
        "oma"
      ],
      [
        "it",
        "ions"
      ],
      [
        "▁specific",
        "ally"
      ],
      [
        "▁betw",
        "een"
      ],
      [
        "▁pal",
        "est"
      ],
      [
        "▁646-84",
        "20"
      ],
      [
        "▁br",
        "it"
      ],
      [
        "en",
        "e"
      ],
      [
        "▁naim",
        "a"
      ],
      [
        "▁5",
        "30"
      ],
      [
        "y",
        "m"
      ],
      [
        "▁03/2",
        "8/2001"
      ],
      [
        "▁",
        "n"
      ],
      [
        "▁was",
        "hing"
      ],
      [
        "▁eight",
        "een"
      ],
      [
        "▁1.",
        "1"
      ],
      [
        "▁oper",
        "ations"
      ],
      [
        "i",
        "ly"
      ],
      [
        "o",
        "ke"
      ],
      [
        "▁c",
        "it"
      ],
      [
        "-",
        "#6"
      ],
      [
        "▁p",
        "ot"
      ],
      [
        "▁",
        "x"
      ],
      [
        "▁br",
        "ought"
      ],
      [
        "▁m",
        "id"
      ],
      [
        "▁treat",
        "ed"
      ],
      [
        "▁wor",
        "se"
      ],
      [
        ":",
        "30"
      ],
      [
        "g",
        "ot"
      ],
      [
        "▁32",
        "4"
      ],
      [
        "▁1",
        "/2"
      ],
      [
        "tw",
        "o"
      ],
      [
        "▁03",
        "/0"
      ],
      [
        "▁s",
        "ar"
      ],
      [
        "▁pr",
        "im"
      ],
      [
        ".8",
        "6"
      ],
      [
        "▁19",
        "25"
      ],
      [
        "▁te",
        "ach"
      ],
      [
        "j",
        "o"
      ],
      [
        "▁28",
        ",000"
      ],
      [
        "▁no",
        "ne"
      ],
      [
        "f",
        "i"
      ],
      [
        "▁28",
        "1"
      ],
      [
        "▁e",
        "ver"
      ],
      [
        "m",
        "ail"
      ],
      [
        "▁att",
        "ach"
      ],
      [
        "▁8",
        "3"
      ],
      [
        "▁p",
        "en"
      ],
      [
        "▁wh",
        "om"
      ],
      [
        "▁fl",
        "o"
      ],
      [
        "▁gu",
        "y"
      ],
      [
        "▁ir",
        "aq"
      ],
      [
        "▁t",
        "reat"
      ],
      [
        "▁a",
        "w"
      ],
      [
        "▁or",
        "ange"
      ],
      [
        "▁r",
        "ich"
      ],
      [
        "▁17",
        "99"
      ],
      [
        "▁",
        "in"
      ],
      [
        "▁inform",
        "ation"
      ],
      [
        "▁stand",
        "ing"
      ],
      [
        "▁sh",
        "i"
      ],
      [
        "▁s",
        "ong"
      ],
      [
        "▁trans",
        "m"
      ],
      [
        "▁22",
        "5"
      ],
      [
        "▁fil",
        "es"
      ],
      [
        "ul",
        "ations"
      ],
      [
        "▁le",
        "g"
      ],
      [
        "ur",
        "ies"
      ],
      [
        "▁inf",
        "rast"
      ],
      [
        "▁repe",
        "ated"
      ],
      [
        "▁fac",
        "ilities"
      ],
      [
        "▁cock",
        "tail"
      ],
      [
        "g",
        "r"
      ],
      [
        "▁04",
        "/16/2001"
      ],
      [
        "▁rem",
        "ove"
      ],
      [
        "at",
        "ors"
      ],
      [
        "ic",
        "ed"
      ],
      [
        "▁281",
        "-435"
      ],
      [
        "▁f",
        "ans"
      ],
      [
        "▁rep",
        "rod"
      ],
      [
        "iv",
        "ing"
      ],
      [
        "▁ha",
        "ve"
      ],
      [
        "▁re",
        "ce"
      ],
      [
        "▁50",
        "8"
      ],
      [
        "▁07/1",
        "7/2000"
      ],
      [
        "▁flo",
        "ating"
      ],
      [
        "▁col",
        "umn"
      ],
      [
        "▁ont",
        "ario"
      ],
      [
        "▁----",
        ">==="
      ],
      [
        "4",
        "2"
      ],
      [
        "▁supp",
        "osed"
      ],
      [
        "▁dis",
        "aster"
      ],
      [
        "ri",
        "ble"
      ],
      [
        "▁more",
        "au"
      ],
      [
        "oo",
        "d"
      ],
      [
        "▁call",
        "ed"
      ],
      [
        "▁un",
        "c"
      ],
      [
        "▁p",
        "e"
      ],
      [
        "▁m",
        "ention"
      ],
      [
        "▁f",
        "y"
      ],
      [
        "▁f",
        "a"
      ],
      [
        "▁z",
        "eal"
      ],
      [
        "▁ind",
        "ust"
      ],
      [
        "ion",
        "al"
      ],
      [
        "▁",
        "`"
      ],
      [
        "▁-ect",
        "-kedne"
      ],
      [
        "cl",
        "us"
      ],
      [
        "▁11",
        "79"
      ],
      [
        "▁p",
        "le"
      ],
      [
        "▁en",
        "v"
      ],
      [
        "g",
        "e"
      ],
      [
        "▁play",
        "er"
      ],
      [
        "▁un",
        "h"
      ],
      [
        "▁f",
        "uel"
      ],
      [
        "▁",
        "h"
      ],
      [
        "▁10/2",
        "3/2000"
      ],
      [
        "łod",
        "z"
      ],
      [
        "▁bir",
        "th"
      ],
      [
        "▁v",
        "ide"
      ],
      [
        "▁d",
        "urs"
      ],
      [
        "▁khins",
        "s"
      ],
      [
        "▁pur",
        "ple"
      ],
      [
        "▁offic",
        "ial"
      ],
      [
        "cl",
        "ud"
      ],
      [
        "▁ident",
        "ity"
      ],
      [
        "▁jump",
        "ed"
      ],
      [
        "ec",
        "e"
      ],
      [
        "!",
        "!"
      ],
      [
        ":",
        "5"
      ],
      [
        "ak",
        "istan"
      ],
      [
        "▁clos",
        "er"
      ],
      [
        "c",
        "c"
      ],
      [
        "▁",
        "ident"
      ],
      [
        "▁cons",
        "um"
      ],
      [
        "▁tri",
        "ed"
      ],
      [
        ":",
        "//"
      ],
      [
        "_",
        "^"
      ],
      [
        "l",
        "ine"
      ],
      [
        "▁consider",
        "ed"
      ],
      [
        "7",
        "th"
      ],
      [
        "erv",
        "ation"
      ],
      [
        "▁1",
        "/4"
      ],
      [
        "▁11",
        "15"
      ],
      [
        "▁190",
        "2"
      ],
      [
        "▁em",
        "b"
      ],
      [
        "▁fall",
        "ing"
      ],
      [
        "ac",
        "ed"
      ],
      [
        "▁k",
        "iss"
      ],
      [
        "▁c",
        "ir"
      ],
      [
        "▁br",
        "anch"
      ],
      [
        "dd",
        "en"
      ],
      [
        "▁f",
        "at"
      ],
      [
        "w",
        "ar"
      ],
      [
        "▁level",
        "s"
      ],
      [
        "ver",
        "age"
      ],
      [
        "▁f",
        "ant"
      ],
      [
        "▁s",
        "y"
      ],
      [
        "▁7",
        "9"
      ],
      [
        "u",
        "nd"
      ],
      [
        "▁su",
        "cceed"
      ],
      [
        "▁lik",
        "es"
      ],
      [
        "▁s",
        "ect"
      ],
      [
        "em",
        "ents"
      ],
      [
        "▁s",
        "ho"
      ],
      [
        "el",
        "t"
      ],
      [
        "▁immed",
        "iate"
      ],
      [
        "▁comp",
        "et"
      ],
      [
        "@",
        "enron.com"
      ],
      [
        "▁3",
        ",500"
      ],
      [
        "▁pro",
        "c"
      ],
      [
        "▁6",
        "80"
      ],
      [
        "et",
        "h"
      ],
      [
        "▁r",
        "ule"
      ],
      [
        "▁bec",
        "om"
      ],
      [
        "▁4",
        "."
      ],
      [
        "r",
        "ain"
      ],
      [
        "▁stay",
        "ed"
      ],
      [
        "▁amaz",
        "ing"
      ],
      [
        "▁ro",
        "ad"
      ],
      [
        "▁bo",
        "dies"
      ],
      [
        ":3",
        "4"
      ],
      [
        "g",
        "o"
      ],
      [
        "▁sand",
        "wich"
      ],
      [
        "▁v",
        "ir"
      ],
      [
        "▁he",
        "ad"
      ],
      [
        "▁tro",
        "ops"
      ],
      [
        "▁com",
        "ments"
      ],
      [
        "ent",
        "ed"
      ],
      [
        "▁lat",
        "est"
      ],
      [
        ":3",
        "8"
      ],
      [
        "▁sn",
        "itch"
      ],
      [
        "▁0",
        "1"
      ],
      [
        "▁cl",
        "oth"
      ],
      [
        "anc",
        "es"
      ],
      [
        "r",
        "ical"
      ],
      [
        "▁t",
        "akes"
      ],
      [
        "▁s",
        "ign"
      ],
      [
        "▁r",
        "ude"
      ],
      [
        "▁att",
        "end"
      ],
      [
        "g",
        "l"
      ],
      [
        "▁ep",
        "is"
      ],
      [
        "▁713-654-",
        "128"
      ],
      [
        "g",
        "an"
      ],
      [
        "▁198",
        "2"
      ],
      [
        ".7",
        "18"
      ],
      [
        "▁prim",
        "ary"
      ],
      [
        "▁159",
        "6"
      ],
      [
        "▁man",
        "age"
      ],
      [
        "▁part",
        "s"
      ],
      [
        "▁",
        "ict"
      ],
      [
        "c",
        "ent"
      ],
      [
        "▁mess",
        "age"
      ],
      [
        "-",
        "-"
      ],
      [
        "7",
        "/2001"
      ],
      [
        "▁sw",
        "ing"
      ],
      [
        "▁c",
        "ould"
      ],
      [
        "ph",
        "ere"
      ],
      [
        "m",
        "ed"
      ],
      [
        "▁wi",
        "th"
      ],
      [
        "▁twenty-",
        "two"
      ],
      [
        "t",
        "t"
      ],
      [
        "▁9",
        "78"
      ],
      [
        "m",
        "ore"
      ],
      [
        "al",
        "s"
      ],
      [
        "▁m",
        "ar"
      ],
      [
        "▁3",
        "50"
      ],
      [
        "▁infrast",
        "ructure"
      ],
      [
        "▁chang",
        "ed"
      ],
      [
        "ou",
        "gh"
      ],
      [
        "▁6",
        "9"
      ],
      [
        "ph",
        "is"
      ],
      [
        "▁r",
        "ight"
      ],
      [
        "▁remember",
        "ed"
      ],
      [
        "▁re",
        "ally"
      ],
      [
        "8",
        "3"
      ],
      [
        "▁5",
        "0"
      ],
      [
        "▁m",
        "atch"
      ],
      [
        "ant",
        "ic"
      ],
      [
        "▁c",
        "ry"
      ],
      [
        "▁pill",
        "ow"
      ],
      [
        "as",
        "s"
      ],
      [
        "in",
        "ary"
      ],
      [
        "f",
        "t"
      ],
      [
        "ber",
        "t"
      ],
      [
        "▁bur",
        "st"
      ],
      [
        "▁l",
        "ater"
      ],
      [
        "65",
        "-3"
      ],
      [
        "▁app",
        "arent"
      ],
      [
        "l",
        "i"
      ],
      [
        "▁over",
        "all"
      ],
      [
        "est",
        "ic"
      ],
      [
        "▁help",
        "ed"
      ],
      [
        "▁muse",
        "um"
      ],
      [
        "▁g",
        "ym"
      ],
      [
        "▁21",
        "2"
      ],
      [
        "▁ne",
        "xt"
      ],
      [
        "▁st",
        "ores"
      ],
      [
        "▁a",
        "ch"
      ],
      [
        "air",
        "s"
      ],
      [
        "▁ang",
        "el"
      ],
      [
        "▁terror",
        "ist"
      ],
      [
        "u",
        "b"
      ],
      [
        "▁an",
        "im"
      ],
      [
        "▁res",
        "c"
      ],
      [
        "qu",
        "e"
      ],
      [
        "▁fl",
        "ower"
      ],
      [
        "w",
        "ich"
      ],
      [
        "g",
        "ami"
      ],
      [
        "▁06",
        "/01/2001"
      ],
      [
        "▁dis",
        "pl"
      ],
      [
        "▁rep",
[...]
