{
  "version": "1.0",
  "truncation": null,
  "padding": null,
  "added_tokens": [
    {
      "id": 997,
      "content": "[UNK]",
      "single_word": false,
      "lstrip": false,
      "rstrip": false,
      "normalized": false,
      "special": true
    },
    {
      "id": 2471,
      "content": "[PAD]",
      "single_word": false,
      "lstrip": false,
      "rstrip": false,
      "normalized": false,
      "special": true
    },
    {
      "id": 2841,
      "content": "[CLS]",
      "single_word": false,
      "lstrip": false,
      "rstrip": false,
      "normalized": false,
      "special": true
    },
    {
      "id": 3373,
      "content": "[SEP]",
      "single_word": false,
      "lstrip": false,
      "rstrip": false,
      "normalized": false,
      "special": true
    },
    {
      "id": 3860,
      "content": "[MASK]",
      "single_word": false,
      "lstrip": false,
      "rstrip": false,
      "normalized": false,
      "special": true
    }
  ],
  "normalizer": {
    "type": "Sequence",
    "normalizers": [
      {
        "type": "NFD"
      },
      {
        "type": "Lowercase"
      },
      {
        "type": "StripAccents"
      }
    ]
  },
  "pre_tokenizer": {
    "type": "Sequence",
    "pretokenizers": [
      {
        "type": "Metaspace",
        "replacement": "▁",
        "prepend_scheme": "always",
        "split": true
      }
    ]
  },
  "post_processor": {
    "type": "TemplateProcessing",
    "single": [
      {
        "SpecialToken": {
          "id": "[CLS]",
          "type_id": 0
        }
      },
      {
        "Sequence": {
          "id": "A",
          "type_id": 0
        }
      },
      {
        "SpecialToken": {
          "id": "[SEP]",
          "type_id": 0
        }
      }
    ],
    "pair": [
      {
        "SpecialToken": {
          "id": "[CLS]",
          "type_id": 0
        }
      },
      {
        "Sequence": {
          "id": "A",
          "type_id": 0
        }
      },
      {
        "SpecialToken": {
          "id": "[SEP]",
          "type_id": 0
        }
      },
      {
        "Sequence": {
          "id": "B",
          "type_id": 1
        }
      },
      {
        "SpecialToken": {
          "id": "[SEP]",
          "type_id": 1
        }
      }
    ],
    "special_tokens": {
      "[CLS]": {
        "id": "[CLS]",
        "ids": [
          2841
        ],
        "tokens": [
          "[CLS]"
        ]
      },
      "[SEP]": {
        "id": "[SEP]",
        "ids": [
          3373
        ],
        "tokens": [
          "[SEP]"
        ]
      }
    }
  },
  "decoder": {
    "type": "Metaspace",
    "replacement": "▁",
    "prepend_scheme": "always",
    "split": true
  },
  "model": {
    "type": "Unigram",
    "unk_id": 997,
    "vocab": [
      [
        "▁customer",
        -8.466936804475827
      ],
      [
        "/21/200",
        -13.001555604525423
      ],
      [
        "9.3",
        -14.113070844606728
      ],
      [
        "▁whole",
        -8.014134468616886
      ],
      [
        "▁0590",
        -13.23014613029047
      ],
      [
        "ign",
        -9.281940187064972
      ],
      [
        "▁in",
        -10.559781155066872
      ],
      [
        "▁stand",
        -11.833815694314197
      ],
      [
        "ig",
        -8.338245687720697
      ],
      [
        "1/13/200",
        -13.410633610127514
      ],
      [
        "▁194",
        -10.650689352601228
      ],
      [
        "▁risk",
        -8.956420314468527
      ],
      [
        "m",
        -5.968008717968256
      ],
      [
        "_______________",
        -10.368062127986821
      ],
      [
        "▁iraq",
        -8.375385278747695
      ],
      [
        "▁iran",
        -8.698886423181982
      ],
      [
        "▁q",
        -9.218875718650828
      ],
      [
        "▁global",
        -8.770704664112628
      ],
      [
        "▁200,000",
        -11.169756943986634
      ],
      [
        "oach",
        -9.287346454368125
      ],
      [
        "▁inter",
        -11.373820383720101
      ],
      [
        "▁win",
        -9.353503107474642
      ],
      [
        "▁fall",
        -7.952996807523438
      ],
      [
        "▁daughter",
        -9.137256604017558
      ],
      [
        "▁ba",
        -7.864008324699796
      ],
      [
        "▁pr",
        -9.426108997092987
      ],
      [
        "room",
        -9.37236372896799
      ],
      [
        "▁writer",
        -9.092590946354285
      ],
      [
        "▁)",
        -8.872842140444845
      ],
      [
        "▁ro",
        -8.380676648100279
      ],
      [
        "them",
        -9.499452395420116
      ],
      [
        "6/",
        -13.566124420789025
      ],
      [
        "▁decide",
        -9.463288256737279
      ],
      [
        "▁solution",
        -9.23332132375319
      ],
      [
        "3.1",
        -12.945575938572823
      ],
      [
        "▁11/2",
        -13.632092236267711
      ],
      [
        "s",
        -7.82004737457296
      ],
      [
        "▁allow",
        -8.820990037057554
      ],
      [
        "▁consider",
        -8.116765615889669
      ],
      [
        "24",
        -10.79235968292323
      ],
      [
        "▁:",
        -7.256476862053417
      ],
      [
        "250",
        -13.491759104348043
      ],
      [
        "888",
        -14.243603115788293
      ],
      [
        "▁le",
        -8.11012967911066
      ],
      [
        "▁suit",
        -9.283135083341412
      ],
      [
        "▁happ",
        -8.244998459925089
      ],
      [
        "▁b",
        -6.928886776619579
      ],
      [
        "▁o'c",
        -8.471190629962623
      ],
      [
        "▁japane",
        -9.443014882361268
      ],
      [
        "▁xv",
        -13.162449918911665
      ],
      [
        "▁militar",
        -8.552935495445297
      ],
      [
        "6-",
        -13.674574631379441
      ],
      [
        "853-3",
        -14.140827607357918
      ],
      [
        "▁leader",
        -9.318890686610604
      ],
      [
        "▁print",
        -9.173599572633712
      ],
      [
        "▁hoc",
        -11.122093153997735
      ],
      [
        "▁new",
        -6.165316119612404
      ],
      [
        "▁driv",
        -8.846800497726601
      ],
      [
        "▁woman",
        -8.596368750148525
      ],
      [
        "j",
        -7.738235191963689
      ],
      [
        "▁staff",
        -8.487008771436097
      ],
      [
        "▁nation",
        -8.493221874516212
      ],
      [
        "77.9",
        -13.136809847545772
      ],
      [
        "▁track",
        -9.152646529049779
      ],
      [
        "▁wash",
        -8.717640736864396
      ],
      [
        "▁40",
        -10.154022803970175
      ],
      [
        "▁650",
        -13.191743379778192
      ],
      [
        "▁hands",
        -8.644163836495892
      ],
      [
        "▁measure",
        -8.843334497481088
      ],
      [
        "▁hug",
        -8.673235280943608
      ],
      [
        "▁stopp",
        -8.975349021007768
      ],
      [
        "▁camp",
        -8.871768595770135
      ],
      [
        "▁reflect",
        -9.022016065270943
      ],
      [
        "/16/",
        -14.183274814702697
      ],
      [
        "▁wheel",
        -9.341045251857551
      ],
      [
        "416",
        -15.207281602474177
      ],
      [
        "▁61",
        -11.866436017991857
      ],
      [
        "▁momm",
        -9.109018317258517
      ],
      [
        "▁article",
        -8.931514531714825
      ],
      [
        "ran",
        -8.712925263363157
      ],
      [
        "▁bring",
        -8.028826587772635
      ],
      [
        "372",
        -12.895773325174972
      ],
      [
        "96/",
        -13.58763307569861
      ],
      [
        "90",
        -11.918338620993051
      ],
      [
        "▁clothes",
        -8.896366026768241
      ],
      [
        "▁cho",
        -9.108383058366654
      ],
      [
        "en",
        -10.985878271782054
      ],
      [
        "=============",
        -11.216882392454107
      ],
      [
        "▁san",
        -6.3522289742939755
      ],
      [
        "▁course",
        -8.059215663877014
      ],
      [
        "▁tho",
        -8.708963387563909
      ],
      [
        "▁23",
        -10.030498826871938
      ],
      [
        "▁apartment",
        -9.45914834815667
      ],
      [
        "▁hoo",
        -9.477694750119108
      ],
      [
        "▁court",
        -8.614331039911885
      ],
      [
        "▁96",
        -12.535367664760887
      ],
      [
        "oc",
        -9.067274792690018
      ],
      [
        "▁bill",
        -8.653457007336172
      ],
      [
        "▁tell",
        -7.001529896655604
      ],
      [
        "▁remain",
        -8.487005901795708
      ],
      [
        "▁worst",
        -9.459898459817815
      ],
      [
        "6.8",
        -11.52194411340363
      ],
      [
        "▁build",
        -9.11565323356609
      ],
      [
        "▁sense",
        -8.793414736986076
      ],
      [
        "▁drink",
        -8.12921314097227
      ],
      [
        "▁correct",
        -8.87078803900549
      ],
      [
        "ial",
        -7.971403122952554
      ],
      [
        "▁kh",
        -11.834523457572555
      ],
      [
        "▁hang",
        -9.12327716518514
      ],
      [
        "ul",
        -12.818709659508759
      ],
      [
        "▁twenty-f",
        -12.946639624578598
      ],
      [
        "▁company",
        -8.222510104264845
      ],
      [
        "co",
        -11.294682586699293
      ],
      [
        "▁attract",
        -9.479837688291516
      ],
      [
        "▁services",
        -8.906277508582328
      ],
      [
        "▁on",
        -6.8886804017161065
      ],
      [
        "▁simpl",
        -8.811087065123843
      ],
      [
        "▁where",
        -6.3303864986321985
      ],
      [
        "908",
        -13.98920289307353
      ],
      [
        "▁wonder",
        -8.698905957585577
      ],
      [
        "▁29",
        -11.664104785589076
      ],
      [
        "▁dog",
        -7.758679361021735
      ],
      [
        "▁lo",
        -8.15480119145138
      ],
      [
        "▁e",
        -11.439061779438207
      ],
      [
        "▁so",
        -12.84490938257262
      ],
      [
        "que",
        -8.404514644194837
      ],
      [
        "▁source",
        -8.587537859194317
      ],
      [
        "▁well",
        -6.467894724136594
      ],
      [
        "ier",
        -8.857155260113991
      ],
      [
        "▁254",
        -14.829903551071723
      ],
      [
        "est",
        -7.2638654368414715
      ],
      [
        "233",
        -13.678237943553544
      ],
      [
        "48-",
        -13.886555118997332
      ],
      [
        "▁luck",
        -9.201284092354715
      ],
      [
        "▁1.1",
        -12.839654478651052
      ],
      [
        "▁books",
        -8.90395587564355
      ],
      [
        "▁5/1",
        -12.79150994845858
      ],
      [
        "▁ba",
        -11.474094207813557
      ],
      [
        "▁sick",
        -9.236105372964726
      ],
      [
        "▁saying",
        -8.896075748815
      ],
      [
        "▁high",
        -7.304286923076325
      ],
      [
        "-6",
        -12.344996043092538
      ],
      [
        "018",
        -13.097555483422406
      ],
      [
        "4",
        -7.806431209066834
      ],
      [
        "▁bu",
        -5.83388619210857
      ],
      [
        "ff",
        -8.215000325948925
      ],
      [
        "α",
        -11.833785825395173
      ],
      [
        "▁us",
        -9.506253679050264
      ],
      [
        "▁dra",
        -11.397091660772798
      ],
      [
        "ating",
        -8.949278652868351
      ],
      [
        "4-",
        -13.552675663638237
      ],
      [
        "▁believe",
        -7.941718895976133
      ],
      [
        "▁gr",
        -8.940966751633571
      ],
      [
        "▁dad",
        -8.351794705872948
      ],
      [
        "95",
        -11.454904720194879
      ],
      [
        "▁les",
        -14.569714431125766
      ],
      [
        "▁go",
        -5.255380411753386
      ],
      [
        "▁do",
        -6.7340541368657005
      ],
      [
        "▁ours",
        -11.486000418694196
      ],
      [
        "▁ar",
        -6.938284200336329
      ],
      [
        "▁bomb",
        -9.285446769149551
      ],
      [
        "fifty",
        -13.529294893685876
      ],
      [
        "▁mexic",
        -9.457496184890255
      ],
      [
        "▁town",
        -8.337678950584829
      ],
      [
        "ct",
        -9.519962088824975
      ],
      [
        "0.2",
        -14.1427018553399
      ],
      [
        "▁a",
        -7.553362449753704
      ],
      [
        "45",
        -10.75905829108645
      ],
      [
        "▁01/2",
        -13.14262021468103
      ],
      [
        "▁tire",
        -8.832365390621545
      ],
      [
        "▁xs",
        -11.866820475824259
      ],
      [
        "▁gri",
        -9.093158576266752
      ],
      [
        "171",
        -13.819819207365457
      ],
      [
        "▁425-",
        -14.137749306873557
      ],
      [
        "▁you",
        -4.2509584929832425
      ],
      [
        "▁75",
        -10.786024161906028
      ],
      [
        "▁8.",
        -12.09011977899719
      ],
      [
        "880",
        -15.44640996818414
      ],
      [
        "▁sky",
        -8.995728439981795
      ],
      [
        "▁713/853-",
        -13.13677060122929
      ],
      [
        "▁now",
        -6.137152089125765
      ],
      [
        "!!!!!!!!!!",
        -11.520021148139234
      ],
      [
        "▁style",
        -9.05009030508094
      ],
      [
        "mo",
        -11.05508503396024
      ],
      [
        "ick",
        -8.815580966292197
      ],
      [
        "▁try",
        -7.099828766322751
      ],
      [
        "▁tie",
        -8.871693403340057
      ],
      [
        ".00",
        -11.139862778496186
      ],
      [
        "oul",
        -7.370660610853058
      ],
      [
        "▁technical",
        -9.437727653408743
      ],
      [
        "▁z",
        -11.679987020174599
      ],
      [
        "▁show",
        -6.045238655600852
      ],
      [
        "▁315-460-334",
        -13.136770579354721
      ],
      [
        "▁iu",
        -11.539925515610605
      ],
      [
        "▁temp",
        -9.25024760440739
      ],
      [
        "you",
        -7.21641018486248
      ],
      [
        "▁tank",
        -9.138322846520841
      ],
      [
        "▁1338",
        -13.184186855170024
      ],
      [
        "▁510",
        -14.65838821448321
      ],
      [
        "1:1",
        -14.344002145884028
      ],
      [
        "der",
        -11.612089083720626
      ],
      [
        "▁ha",
        -9.472018468067569
      ],
      [
        "▁48",
        -11.650344269400826
      ],
      [
        "▁yoursel",
        -9.209680784957506
      ],
      [
        "▁please",
        -6.655538084228437
      ],
      [
        "836",
        -13.541867489895994
      ],
      [
        "______________",
        -10.890899768835993
      ],
      [
        "▁support",
        -8.033570006278703
      ],
      [
        "▁rock",
        -8.463473539954041
      ],
      [
        "1.75",
        -12.636868206891616
      ],
      [
        "▁mo",
        -7.6567912715782995
      ],
      [
        "▁buy",
        -7.960327122718979
      ],
      [
        "bb",
        -8.841923596694693
      ],
      [
        "▁th",
        -8.061117238200358
      ],
      [
        "91",
        -11.94434201620654
      ],
      [
        "▁past",
        -8.374079492420162
      ],
      [
        "▁above",
        -9.321117826801455
      ],
      [
        "▁capacit",
        -9.339652444279714
      ],
      [
        "▁hm",
        -9.189168691099376
      ],
      [
        "▁189",
        -11.15103278247761
      ],
      [
        "der",
        -13.597667753359051
      ],
      [
        "▁pink",
        -9.484336818354326
      ],
      [
        "088",
        -14.609238966070613
      ],
      [
        "▁similar",
        -9.049603576178495
      ],
      [
        "▁green",
        -8.228646246075812
      ],
      [
        "▁11:16:",
        -13.156524772672467
      ],
      [
        "389",
        -14.104025639813528
      ],
      [
        "ut",
        -11.225827436522898
      ],
      [
        "▁obvious",
        -9.377711942698387
      ],
      [
        "▁182",
        -11.921712514434295
      ],
      [
        "1000",
        -13.790121036013629
      ],
      [
        "▁1.5",
        -10.928556940654722
      ],
      [
        "▁surround",
        -9.417338183245398
      ],
      [
        "ook",
        -9.212274363111531
      ],
      [
        "▁russian",
        -9.424099899491626
      ],
      [
        "▁movie",
        -8.490661238715285
      ],
      [
        "1/8",
        -12.30354400335542
      ],
      [
        "▁prett",
        -7.970090002706426
      ],
      [
        "▁1/",
        -13.887911633017264
      ],
      [
        "▁treat",
        -8.701189388748887
      ],
      [
        "▁forgot",
        -9.168263893134126
      ],
      [
        "ar",
        -8.96739030467699
      ],
      [
        "▁snake",
        -9.479843065123575
      ],
      [
        "he",
        -7.136458974037557
      ],
      [
        "01",
        -10.69383216144587
      ],
      [
        "▁fill",
        -8.724057199394569
      ],
      [
        "▁quick",
        -8.403088566148249
      ],
      [
        "▁california",
        -8.81395422527767
      ],
      [
        "▁twi",
        -8.96465989225911
      ],
      [
        "▁challenge",
        -9.329117604198906
      ],
      [
        "-59",
        -13.070384567929212
      ],
      [
        "▁3",
        -10.461879651757403
      ],
      [
        "▁cor",
        -9.14226948466284
      ],
      [
        "▁doctor",
        -8.570049751681912
      ],
      [
        "kee",
        -7.976470203812447
      ],
      [
        "ance",
        -7.7432585332357515
      ],
      [
        "▁long",
        -6.823392798277003
      ],
      [
        "▁speak",
        -8.624089345065224
      ],
      [
        "▁policy",
        -8.866523402484223
      ],
      [
        "483",
        -13.516001727325241
      ],
      [
        "32",
        -11.669857894312882
      ],
      [
        "▁claim",
        -8.561911248881554
      ],
      [
        "▁friday",
        -8.096277143588452
      ],
      [
        "▁francisco",
        -6.61919322909907
      ],
      [
        "▁throw",
        -8.544612872558414
      ],
      [
        "▁an",
        -6.4124937552070085
      ],
      [
        "3-3",
        -13.158791324548858
      ],
      [
        "???????????????",
        -11.554970775406666
      ],
      [
        "▁195",
        -10.468279737945544
      ],
      [
        "let",
        -8.954312172598478
      ],
      [
        "by",
        -8.921716996317237
      ],
      [
        "▁6/",
        -14.986465349723124
      ],
      [
        "78",
        -11.48576980660741
      ],
      [
        "▁it",
        -7.425108546980831
      ],
      [
        "56",
        -12.270905061205726
      ],
      [
        "▁529999",
        -13.136774160688278
      ],
      [
        "▁memor",
        -8.983818163722479
      ],
      [
        "6867",
        -13.1370270105642
      ],
      [
        "▁7:3",
        -12.107649224653706
      ],
      [
        "▁f",
        -14.121066608634772
      ],
      [
        "hers",
        -14.748162080548967
      ],
      [
        "▁197",
        -9.69459253888492
      ],
      [
        "▁whe",
        -8.779464586792185
      ],
      [
        "▁book",
        -7.3348330514564495
      ],
      [
        "5.0",
        -14.634618052259844
      ],
      [
        "▁mak",
        -7.852869009868516
      ],
      [
        "▁01:3",
        -12.365376718875854
      ],
      [
        "▁cry",
        -9.085279096331416
      ],
      [
        "▁755",
        -13.738721046877318
      ],
      [
        "▁02:3",
        -14.039135444681833
      ],
      [
        "748",
        -13.395315422654793
      ],
      [
        "▁en",
        -7.406324160778273
      ],
      [
        "▁requirement",
        -9.269196157595784
      ],
      [
        "▁hospital",
        -9.216654417390163
      ],
      [
        "▁1.",
        -12.094938996564373
      ],
      [
        "▁[",
        -8.845600951931221
      ],
      [
        "▁35",
        -10.996138419717752
      ],
      [
        "▁205",
        -12.660918673195054
      ],
      [
        "!!!!!!!!!!!!!!!",
        -11.787504311478639
      ],
      [
        "----------",
        -11.627260667774785
      ],
      [
        "g",
        -6.298432668733279
      ],
      [
        "low",
        -8.599710657972288
      ],
      [
        "'",
        -8.557040239238049
      ],
      [
        "130",
        -14.874720468683947
      ],
      [
        "▁sara",
        -8.512201333346667
      ],
      [
        "ity",
        -6.9598362307071495
      ],
      [
        "-46",
        -14.683129009797762
      ],
      [
        "!!",
        -8.680316007598034
      ],
      [
        "▁gone",
        -8.554883353947012
      ],
      [
        "tu",
        -11.618331073044228
      ],
      [
        "internet",
        -8.825590452305224
      ],
      [
        "▁discussion",
        -9.462267424378581
      ],
      [
        "▁anyway",
        -8.871137879543578
      ],
      [
        "x",
        -10.142917686087705
      ],
      [
        "▁penn",
        -9.076588521702242
      ],
      [
        "▁na",
        -11.357453840286972
      ],
      [
        "▁150",
        -11.06156230055472
      ],
      [
        "7:3",
        -13.59615174620778
      ],
      [
        "▁difference",
        -8.689471876169746
      ],
      [
        "▁fixed",
        -9.333412058029293
      ],
      [
        "asnondelibreaten",
        -11.833786315327183
      ],
      [
        "▁object",
        -9.034844309929719
      ],
      [
        "v",
        -10.803216070016004
      ],
      [
        "▁modu",
        -11.333804758297122
      ],
      [
        "▁639",
        -13.138918451395154
      ],
      [
        "▁ton",
        -9.313993778128054
      ],
      [
        "▁best",
        -7.351765805524213
      ],
      [
        "▁financial",
        -8.82506533676229
      ],
      [
        "▁development",
        -8.615410014724759
      ],
      [
        "▁03:",
        -11.982710755806442
      ],
      [
        "3",
        -9.772266817123711
      ],
      [
        "▁sp",
        -8.004672064945499
      ],
      [
        "▁change",
        -7.529481757579184
      ],
      [
        "▁60,00",
        -13.953467716680118
      ],
      [
        "200,000",
        -15.24025698438958
      ],
      [
        "▁(",
        -7.710081261439022
      ],
      [
        "▁note",
        -8.668737389537004
      ],
      [
        "▁manage",
        -8.8232996821932
      ],
      [
        "▁r",
        -10.787481821924922
      ],
      [
        "▁child",
        -8.471181286660201
      ],
      [
        "ami",
        -8.25693671035533
      ],
      [
        "▁again",
        -7.123884226758554
      ],
      [
        "▁photograph",
        -9.078025570392285
      ],
      [
        "▁...",
        -8.8342426881669
      ],
      [
        "▁ok",
        -8.486245695946849
      ],
      [
        "▁other",
        -6.288896977530215
      ],
      [
        "▁gon",
        -6.920525873760533
      ],
      [
        "▁no",
        -7.909575133478279
      ],
      [
        "not",
        -9.213458832237539
      ],
      [
        "▁standing",
        -9.471853076702946
      ],
      [
        "▁white",
        -8.018706093022354
      ],
      [
        "ott",
        -9.410100417656071
      ],
      [
        "▁fel",
        -8.420485704895073
      ],
      [
        ";",
        -5.847096126235187
      ],
      [
        "▁save",
        -8.80732772472192
      ],
      [
        "606",
        -13.08386531655481
      ],
      [
        ".9",
        -13.237707183940275
      ],
      [
        "ho",
        -15.256809929066954
      ],
      [
        "▁718",
        -12.70140278258359
      ],
      [
        "▁bed",
        -8.361339988649735
      ],
      [
        "incin",
        -9.043479078396043
      ],
      [
        "▁fail",
        -9.304109995523763
      ],
      [
        "230",
        -14.095816919097267
      ],
      [
        "▁station",
        -8.811991768344281
      ],
      [
        "▁get",
        -5.830814678986
      ],
      [
        "▁exist",
        -8.615224431346014
      ],
      [
        "id",
        -10.679683010652342
      ],
      [
        "6/200",
        -15.097693619441639
      ],
      [
        "es",
        -11.94218996587961
      ],
      [
        "▁for",
        -10.508521129987447
      ],
      [
        "1-51",
        -14.136826951535193
      ],
      [
        "▁pric",
        -10.191303320883982
      ],
      [
        "▁vii",
        -14.792669293226949
      ],
      [
        "▁responsibilit",
        -9.417319489815608
      ],
      [
        "r",
        -5.390927117246314
      ],
      [
        "▁5.1",
        -13.468397919273812
      ],
      [
        "ty-",
        -14.61343969618281
      ],
      [
        "▁24.",
        -14.394829616307645
      ],
      [
        "▁dec",
        -8.185402736637872
      ],
      [
        "▁pop",
        -8.88687128080565
      ],
      [
        "▁11/29/",
        -11.588860208461057
      ],
      [
        "▁not",
        -5.826808915645819
      ],
      [
        "▁simple",
        -9.25948605580195
      ],
      [
        "▁sandwich",
        -9.417319771534952
      ],
      [
        "ior",
        -8.992303881116104
      ],
      [
        "▁danc",
        -9.472831881069402
      ],
      [
        "▁to",
        -6.35662362462921
      ],
      [
        "even",
        -10.255110157750392
      ],
      [
        "▁ben",
        -9.036344534000268
      ],
      [
        "▁kind",
        -7.226958355986993
      ],
      [
        "▁different",
        -7.623924759984851
      ],
      [
        "ade",
        -9.148209155988173
      ],
      [
        "▁za",
        -9.205715390120456
      ],
      [
        "72",
        -11.567392815125887
      ],
      [
        "▁201-",
        -14.09272654832999
      ],
      [
        "▁separate",
        -9.322710807573849
      ],
      [
        "149",
        -13.721615169170054
      ],
      [
        "▁inter",
        -8.46022428201506
      ],
      [
        "ping",
        -8.903447818100231
      ],
      [
        "41",
        -12.725585459944702
      ],
      [
        "▁928",
        -14.21094168812489
      ],
      [
        "▁x",
        -8.812121397259158
      ],
      [
        "▁#",
        -9.37756217200701
      ],
      [
        "▁203.",
        -13.141448739224419
      ],
      [
        "5-9",
        -14.137390615099072
      ],
      [
        "8/200",
        -11.740197949817686
      ],
      [
        "▁6",
        -8.907968840771389
      ],
      [
        "▁na",
        -11.199504350597582
      ],
      [
        "polis",
        -8.186168000525893
      ],
      [
        "6",
        -8.138127856803997
      ],
      [
        "ma",
        -10.331830571402174
      ],
      [
        "▁hour",
        -7.915317067221075
      ],
      [
        "▁right",
        -11.051770298862332
      ],
      [
        "▁auster",
        -9.45858177534136
      ],
      [
        "▁easi",
        -8.869087993692785
      ],
      [
        "▁super",
        -8.670207929065622
      ],
      [
        "▁leave",
        -7.248980221707027
      ],
      [
        "▁pictures",
        -9.086368124088244
      ],
      [
        "▁east",
        -8.604034617263736
      ],
      [
        "▁strateg",
        -9.417322866764238
      ],
      [
        "somethin",
        -10.193071307488484
      ],
      [
        "187",
        -12.753397997597109
      ],
      [
        "▁rose",
        -9.369828435343674
      ],
      [
        "tic",
        -7.550327470381053
      ],
      [
        "3/4",
        -12.323964283376021
      ],
      [
        "582",
        -13.102324567069683
      ],
      [
        "▁license",
        -8.64181516889321
      ],
      [
        ".1",
        -13.151530141619636
      ],
      [
        "×",
        -11.833785825435129
      ],
      [
        "▁transport",
        -7.607249264941007
      ],
      [
        "46",
        -11.619091125597334
      ],
      [
        "▁cri",
        -8.850982704990425
      ],
      [
        "▁target",
        -9.377711894345303
      ],
      [
        "bru",
        -8.880569168605343
      ],
      [
        "art",
        -8.920651376889344
      ],
      [
        "ie",
        -7.400553069533786
      ],
      [
        "q",
        -15.518065406639655
      ],
      [
        "▁bye",
        -9.451484346456063
      ],
      [
        "▁publish",
        -8.956203777057869
      ],
      [
        "▁space",
        -8.141103972494037
      ],
      [
        "▁advance",
        -9.233322264096248
      ],
      [
        "/",
        -11.86295882992016
      ],
      [
        "/08",
        -13.1520347351975
      ],
      [
        "we",
        -8.08422633573031
      ],
      [
        "▁season",
        -9.340218801756293
      ],
      [
        "h",
        -9.117748607228467
      ],
      [
        "age",
        -11.003488229021976
      ],
      [
        "242",
        -14.03003538722958
      ],
      [
        "▁50,",
        -14.133980551149136
      ],
      [
        "▁hol",
        -9.368614190354268
      ],
      [
        "03/",
        -13.793640388604164
      ],
      [
        "▁night",
        -7.411750940611163
      ],
      [
        "▁kitchen",
        -9.21665511843467
      ],
      [
        "on",
        -6.20484890720046
      ],
      [
        "yond",
        -9.85779799892806
      ],
      [
        "▁non-",
        -9.092721433577362
      ],
      [
        "▁281-",
        -14.130872119281483
      ],
      [
        "▁protection",
        -9.252358658623871
      ],
      [
        "▁&",
        -9.8279021695494
      ],
      [
        "one",
        -10.618925815360097
      ],
      [
        "▁movement",
        -9.401028900958266
      ],
      [
        "▁roman",
        -7.7262340949204065
      ],
      [
        "▁1.6",
        -12.34208568727186
      ],
      [
        "▁relationship",
        -9.377712092116525
      ],
      [
        "163",
        -15.14065267998616
      ],
      [
        "▁moon",
        -9.371780109731455
      ],
      [
        "▁30,",
        -14.133461492039805
      ],
      [
        "▁paint",
        -9.249223511027019
      ],
      [
        "06",
        -12.319308541197813
      ],
      [
        "▁generat",
        -9.436348314165311
      ],
      [
        "35-",
        -12.600562428656753
      ],
      [
        "▁09:2",
        -12.432918097703686
      ],
      [
        "368",
        -12.773220836068143
      ],
      [
        "▁boy",
        -8.154039556316734
      ],
      [
        "▁34",
        -11.55316952087386
      ],
      [
        "859",
        -12.901515156474916
      ],
      [
        "▁famil",
        -7.690217645415596
      ],
      [
        "▁si",
        -10.890988714903548
      ],
      [
        "▁key",
        -8.580191064805202
      ],
      [
        "▁death",
        -8.403153146077976
      ],
      [
        "▁02",
        -12.852745059953298
      ],
      [
        "▁reason",
        -8.154685171973998
      ],
      [
        "▁van",
        -9.22929272081095
      ],
      [
        "▁ticket",
        -8.670118717659758
      ],
      [
        "▁when",
        -7.1746790269173095
      ],
      [
        "here",
        -8.182881477863504
      ],
      [
        "▁46",
        -11.362534726783958
      ],
      [
        "gi",
        -11.87950964443083
      ],
      [
        "****************",
        -9.647989595493517
      ],
      [
        "▁51",
        -12.853110873290898
      ],
      [
        "▁car",
        -6.800361926803768
      ],
      [
        "4-3",
        -14.138263700674802
      ],
      [
        "ons",
        -10.56595692661573
      ],
      [
        "rench",
        -8.763932936891983
      ],
      [
        "▁seek",
        -8.97932723430932
      ],
      [
        "51",
        -13.168608066560093
      ],
      [
        "▁3",
        -8.585018104094017
      ],
      [
        "▁benefit",
        -8.956203834511657
      ],
      [
        "cal",
        -9.20407584604426
      ],
      [
        "-----------",
        -11.0313601562369
      ],
      [
        "▁air",
        -7.402936138943131
      ],
      [
        "▁display",
        -9.00861891466375
      ],
      [
        "▁178",
        -11.993874165942232
      ],
      [
        "▁853-",
        -14.134241513096976
      ],
      [
        "▁dish",
        -9.448174478367768
      ],
      [
        "c",
        -5.810137483510256
      ],
      [
        "▁shirt",
        -8.89448096449406
      ],
      [
        "rry",
        -8.830956450210097
      ],
      [
        "having",
        -8.25480320721967
      ],
      [
        "040",
        -14.25756983765908
      ],
      [
        "▁82",
        -11.78840042592635
      ],
      [
        "▁06:1",
        -13.63227185671778
      ],
      [
        "#",
        -8.99009556207349
      ],
      [
        "16:",
        -14.198968335694197
      ],
      [
        "▁away",
        -7.588429204491961
      ],
      [
        "▁129",
        -12.292761266971034
      ],
      [
        "▁12",
        -8.716716429943682
      ],
      [
        "11",
        -10.407366820278076
      ],
      [
        "▁110",
        -11.62840249240278
      ],
      [
        "▁b",
        -8.234301792178819
      ],
      [
        "▁birthday",
        -8.67016535774053
      ],
      [
        "▁50",
        -9.85620643860546
      ],
      [
        "▁20,000",
        -11.18698593061998
      ],
      [
        "in",
        -6.530014506079228
      ],
      [
        "te",
        -15.405337077280542
      ],
      [
        "92",
        -12.130184995798194
      ],
      [
        "▁134",
        -14.919254389209478
      ],
      [
        "▁im",
        -8.537550822823485
      ],
      [
        "▁outside",
        -8.367781422575794
      ],
      [
        "▁connect",
        -9.105572392138432
      ],
      [
        "▁55,",
        -13.499818052039403
      ],
      [
        "▁debate",
        -9.438007504331111
      ],
      [
        "▁contract",
        -9.01952217036407
      ],
      [
        "▁increase",
        -8.587503366591687
      ],
      [
        "1507",
        -13.383298432819583
      ],
      [
        "▁david",
        -9.30291563676381
      ],
      [
        "▁department",
        -9.023307413585151
      ],
      [
        "2000",
        -9.70736640342331
      ],
      [
        "▁tip",
        -9.359150190155818
      ],
      [
        "1981",
        -13.177681765788966
      ],
      [
        "▁use",
        -6.727165163165881
      ],
      [
        "▁back",
        -6.541148634886515
      ],
      [
        "▁ti",
        -8.516038583366361
      ],
      [
        "▁texa",
        -8.719147810234261
      ],
      [
        "▁econom",
        -8.437004820376927
      ],
      [
        "1,",
        -14.673378306135053
      ],
      [
        "▁where",
        -8.802452388749018
      ],
      [
        "▁713/8",
        -14.340536229756822
      ],
      [
        "▁refer",
        -9.315646740539501
      ],
      [
        "▁at",
        -8.801486665589227
      ],
      [
        "▁bright",
        -9.361559164616367
      ],
      [
        "▁ble",
        -9.318490523864861
      ],
      [
        "▁environmental",
        -9.4677735527223
      ],
      [
        "▁conc",
        -9.097007757390232
      ],
      [
        "ise",
        -8.712360853994433
      ],
      [
        "▁02:1",
        -12.451409666312614
      ],
      [
        "76",
        -11.504346634557045
      ],
      [
        "▁a",
        -6.419568800409828
      ],
      [
        "67.7",
        -12.63684079713223
      ],
      [
        "▁93",
        -12.904965541539621
      ],
      [
        "...",
        -9.005493748066165
      ],
      [
        "▁born",
        -8.65598801312891
      ],
      [
        "2,000",
        -10.97749512582482
      ],
      [
        "66",
        -12.073162576097861
      ],
      [
        "▁>>",
        -8.408942050936023
      ],
      [
        "▁never",
        -7.426569446895361
      ],
      [
        "▁former",
        -9.040386747581543
      ],
      [
        "istan",
        -9.047922897781412
      ],
      [
        "ne",
        -12.218300795250947
      ],
      [
        ".3",
        -12.322597446836587
      ],
      [
        "306",
        -13.62520520153245
      ],
      [
        "▁888",
        -15.102084738941228
      ],
      [
        "▁gene",
        -9.353516034189944
      ],
      [
        "▁side",
        -8.056787216542324
      ],
      [
        "▁congress",
        -9.18413204735796
      ],
      [
        "▁mountain",
        -9.216654721351713
      ],
      [
        "and",
        -3.8970350390850186
      ],
      [
        "▁h",
        -11.05111200066364
      ],
      [
        "713-",
        -15.202423208569172
      ],
      [
        "▁07/1",
        -11.467963282922426
      ],
      [
        "▁reference",
        -9.233544933395274
      ],
      [
        "b",
        -5.330992993415272
      ],
      [
        "▁common",
        -8.410505660944112
      ],
      [
        "5-4",
        -14.479836965446822
      ],
      [
        "▁ron",
        -9.318195536959863
      ],
      [
        "3/10/",
        -13.858668163224241
      ],
      [
        "▁3-52",
        -13.137000630792741
      ],
      [
        "▁natural",
        -8.651160630872383
      ],
      [
        "65",
        -11.062979589335495
      ],
      [
        "%",
        -7.579075707415162
      ],
      [
        "▁04:",
        -12.413054408096652
      ],
      [
        "▁175",
        -13.119651219121018
      ],
      [
        "▁39",
        -12.103642793380354
      ],
      [
        "▁repeat",
        -9.378004115269183
      ],
      [
        "um",
        -7.195936018384947
      ],
      [
        "▁130",
        -11.559624943780829
      ],
      [
        "▁250",
        -11.689807638237173
      ],
      [
        "▁2:30",
        -11.734134949673816
      ],
      [
        "▁42,000",
        -12.744463221080972
      ],
      [
        "▁140",
        -13.557539680807714
      ],
      [
        "do",
        -9.304210382376619
      ],
      [
        "▁situation",
        -8.802976107959458
      ],
      [
        "▁alon",
        -8.69157456885372
      ],
      [
        "▁un",
        -6.949505867999902
      ],
      [
        "▁210",
        -12.59373170075374
      ],
      [
        "▁xi",
        -13.037780232626263
      ],
      [
        "▁cha",
        -11.250268752536995
      ],
      [
        "▁up",
        -6.86298117974918
      ],
      [
        "▁english",
        -8.552868894697612
      ],
      [
        "▁farm",
        -9.463778130953875
      ],
      [
        "▁192",
        -11.94057202446741
      ],
      [
        "our",
        -8.449365008953343
      ],
      [
        "▁reserve",
        -9.358488085811818
      ],
      [
        "▁novel",
        -8.996557960240636
      ],
      [
        "ver",
        -11.024067939475756
      ],
      [
        ",300",
        -12.803982360712018
      ],
      [
        "ated",
        -8.14417362803356
      ],
      [
        "▁they",
        -5.616133746390841
      ],
      [
        "|",
        -9.70691813184516
      ],
      [
        "▁196",
        -10.370659192566032
      ],
      [
        "▁!",
        -6.755596490218561
      ],
      [
        "02",
        -11.000492439779539
      ],
      [
        "▁slight",
        -9.252247658738895
      ],
      [
        "▁800",
        -11.291539897011337
      ],
      [
        "▁fifty",
        -10.236686281632453
      ],
      [
        "wa",
        -14.382662615359285
      ],
      [
        "id",
        -11.523085669888701
      ],
      [
        ".2",
        -12.489296254993784
      ],
      [
        "6-84",
        -14.806907614809187
      ],
      [
        "▁619-",
        -13.152424125381135
      ],
      [
        "▁sam",
        -7.230643045010175
      ],
      [
        "▁expert",
        -9.233322288233788
      ],
      [
        "it",
        -6.929193823584653
      ],
      [
        "▁health",
        -8.305347860226686
      ],
      [
        "▁w/o",
        -13.283869278045032
      ],
      [
        "▁school",
        -7.306817209297451
      ],
      [
        "▁sunday",
        -8.107214613726656
      ],
      [
        "▁propert",
        -8.495621845838272
      ],
      [
        "▁mix",
        -9.024684375137006
      ],
      [
        "am",
        -12.966085211699605
      ],
      [
        "ling",
        -7.929749040505826
      ],
      [
        "ent",
        -10.352899478348686
      ],
      [
        "▁01/25/200",
        -12.666143543723848
      ],
      [
        "▁do",
        -5.569588503419654
      ],
      [
        "ba",
        -8.442408036886821
      ],
      [
        "-20",
        -14.062585561929335
      ],
      [
        "rg",
        -11.834427539130624
      ],
      [
        "ma",
        -13.489069089140447
      ],
      [
        "ill",
        -10.131124135757073
      ],
      [
        "allas",
        -6.940086865768157
      ],
      [
        "▁spider",
        -9.377737114398595
      ],
      [
        "▁door",
        -8.127555876375599
      ],
      [
        "▁critic",
        -9.194602700856649
      ],
      [
        "▁meeting",
        -8.467471764150293
      ],
      [
        "▁cold",
        -8.526486346327324
      ],
      [
        "▁brown",
        -9.302927936950582
      ],
      [
        "▁qu",
        -8.751746564549723
      ],
      [
        "▁was",
        -7.401714394676815
      ],
      [
        "▁fax",
        -9.252485094935327
      ],
      [
        "orrow",
        -8.136880108973667
      ],
      [
        "ninety",
        -15.073850301185406
      ],
      [
        "樋",
        -11.333785825435129
      ],
      [
        "▁religious",
        -9.397319896840088
      ],
      [
        "▁discover",
        -9.107321138211672
      ],
      [
        "row",
        -9.080148648220085
      ],
      [
        "ver",
        -7.870001327357097
      ],
      [
        "▁cat",
        -7.885527890535573
      ],
      [
        "▁53",
        -11.83521502435301
      ],
      [
        "▁pott",
        -9.050398777073429
      ],
      [
        "---=",
        -11.82789170959216
      ],
      [
        "▁5.8",
        -13.211594130304274
      ],
      [
        "814",
        -13.41959975627615
      ],
      [
        "▁j",
        -10.937809915570798
      ],
      [
        "how",
        -9.453405709065056
      ],
      [
        "▁eas",
        -8.490011894250035
      ],
      [
        "ting",
        -7.021256811106911
      ],
      [
        "5",
        -8.49499032666159
      ],
      [
        "shoul",
        -9.890237644806534
      ],
      [
        "77",
        -12.614120500178377
      ],
      [
        "▁2",
        -10.556276463566192
      ],
      [
        "▁t",
        -8.335420785946603
      ],
      [
        "▁dinner",
        -8.253589716824996
      ],
      [
        "345-",
        -13.370892840682906
      ],
      [
        "▁mommy",
        -6.828050079635062
      ],
      [
        "▁120",
        -10.933966636273306
      ],
      [
        "▁successful",
        -9.200662283829073
      ],
      [
        "▁225",
        -12.177426783633818
      ],
      [
        "▁460",
        -13.649907694200532
      ],
      [
        ".",
        -6.418002661842817
      ],
      [
        "▁indiana",
        -8.50820937047688
      ],
      [
        "ph",
        -8.422004053556654
      ],
      [
        "▁4",
        -8.742783755132502
      ],
      [
        "n",
        -9.616052484599335
      ],
      [
        "ase",
        -10.78973269745037
      ],
      [
        "▁hell",
        -8.674321740884157
      ],
      [
        "ennes",
        -11.4152029478778
      ],
      [
        "195",
        -14.098294440862105
      ],
      [
        "▁per",
        -10.524772088798718
      ],
      [
        "▁orange",
        -9.06368863199884
      ],
      [
        "▁sai",
        -6.464694710125677
      ],
      [
        "ist",
        -7.575286803880958
      ],
      [
        "▁rep",
        -8.763637895111716
      ],
      [
        "▁why",
        -7.0177420575112714
      ],
      [
        "22",
        -10.750684418784664
      ],
      [
        "296",
        -12.485626599436337
      ],
      [
        "▁10/2",
        -13.225127566197031
      ],
      [
        "▁game",
        -7.686935382945099
      ],
      [
        "ion",
        -6.44149572483276
      ],
      [
        "▁hear",
        -7.336917028142592
      ],
      [
        "▁die",
        -7.918433343401407
      ],
      [
        "3:2",
        -15.15680264399381
      ],
      [
        "▁receive",
        -8.6259965447626
      ],
      [
        "▁ear",
        -9.482445896107494
      ],
      [
        "▁sound",
        -8.326542185238385
      ],
      [
        "washington",
        -7.311773059098636
      ],
      [
        "▁check",
        -8.129158903877165
      ],
      [
        "▁pe",
        -8.69348870597367
      ],
      [
        "▁close",
        -7.780009932448988
      ],
      [
        "wo",
        -11.00704601879946
      ],
      [
        "713-853-3",
        -14.69068872296564
      ],
      [
        "▁ther",
        -6.904655898983939
      ],
      [
        "▁draw",
        -7.923417618671356
      ],
      [
        "▁rest",
        -8.357267310280875
      ],
      [
        "▁11/",
        -12.525804538246268
      ],
      [
        "▁under",
        -8.387445511989108
      ],
      [
        "▁replace",
        -9.378756057119327
      ],
      [
        "▁mother",
        -7.937312854097387
      ],
      [
        "▁agree",
        -8.640949134365044
      ],
      [
        "4.",
        -14.018402976933867
      ],
      [
        "place",
        -9.434332709484206
      ],
      [
        "▁8:",
        -14.495891278240808
      ],
      [
        "▁particular",
        -8.168910858612637
      ],
      [
        "▁produce",
        -8.641814921981414
      ],
      [
        "▁wou",
        -13.229284662502392
      ],
      [
        "her",
        -7.767715035430991
      ],
      [
        "▁36",
        -11.01212807405217
      ],
      [
        "05",
        -11.33380875399571
      ],
      [
        "▁09:",
        -12.264147356493273
      ],
      [
        "▁dead",
        -8.488587797024852
      ],
      [
        "▁applie",
        -9.437981343054203
      ],
      [
        "land",
        -6.90719114552788
      ],
      [
        "▁very",
        -6.380647254253594
      ],
      [
        "▁month",
        -7.661263725797658
      ],
      [
        "▁apple",
        -9.305684417843906
      ],
      [
        "1:00",
        -11.411252376672223
      ],
      [
        "1918",
        -11.546116586931637
      ],
      [
        "▁paper",
        -7.874754310344524
      ],
      [
        "▁main",
        -8.281627675159033
      ],
      [
        "0981",
        -14.135593250866743
      ],
      [
        "uff",
        -9.183323010426106
      ],
      [
        "▁12/26/200",
        -12.666535639137336
      ],
      [
        "until",
        -11.234173630287195
      ],
      [
        "▁the",
        -9.24450712759215
      ],
      [
        "▁201",
        -8.15549122295678
      ],
      [
        "▁t",
        -11.219338199887599
      ],
      [
        "▁floor",
        -8.410823350701232
      ],
      [
        "64-7",
        -13.572722259480487
      ],
      [
        "▁local",
        -8.367155005268057
      ],
      [
        "0072",
        -13.439753158054558
      ],
      [
        "cal",
        -11.155704790119795
      ],
      [
        "3.",
        -15.003059156334114
      ],
      [
        "▁ph",
        -8.911239665927491
      ],
      [
        "aden",
        -11.83580841930351
      ],
      [
        "ant",
        -7.771913969583044
      ],
      [
        "1",
        -7.526925805932847
      ],
      [
        "iv",
        -8.364024096655697
      ],
      [
        "ty",
        -7.831104756596416
      ],
      [
        "?????",
        -11.077398246995248
      ],
      [
        "▁animal",
        -8.134721613395833
      ],
      [
        "▁earth",
        -8.740105103077067
      ],
      [
        "▁ma",
        -8.017112226473932
      ],
      [
        "ap",
        -8.145506936056783
      ],
      [
        "▁supposed",
        -8.936985577081632
      ],
      [
        "▁bowl",
        -9.011021689531791
      ],
      [
        "▁wha",
        -9.743228513517918
      ],
      [
        "ter",
        -10.432873965842234
      ],
      [
        "▁house",
        -7.274917757727704
      ],
      [
        "▁303-",
        -13.136798001269481
      ],
      [
        "6-9",
        -12.684351220659938
      ],
      [
        "erre",
        -11.834469720779595
      ],
      [
        "b",
        -6.32537973211012
      ],
      [
        "▁97",
        -13.586404668654046
      ],
      [
        "ator",
        -9.013621663302487
      ],
      [
        "-004",
        -14.199300681685395
      ],
      [
        "▁communit",
        -8.59636045923212
      ],
      [
        "▁corner",
        -9.200605827196561
      ],
      [
        "ate",
        -7.264486358758152
      ],
      [
        "▁bun",
        -9.298187841374073
      ],
      [
        "▁term",
        -8.262691444169427
      ],
      [
        "▁woul",
        -6.090018846673981
      ],
      [
        "got",
        -12.9597684416641
      ],
      [
        "115",
        -14.50242871484168
      ],
      [
        "▁ye",
        -7.862836672991425
      ],
      [
        "▁agreement",
        -8.606130150243182
      ],
      [
        "▁cou",
        -10.858686679206002
      ],
      [
        "▁year",
        -6.533411759999649
      ],
      [
        "▁c",
        -9.43580686398338
      ],
      [
        "stella",
        -11.33379892341695
      ],
      [
        "▁n'",
        -6.273185656304505
      ],
      [
        "▁bite",
        -8.994047791491422
      ],
      [
        "▁sand",
        -11.379848541685982
      ],
      [
        "▁j",
        -7.408547457695581
      ],
      [
        "ture",
        -8.411480260299175
      ],
      [
        "--------",
        -11.160764127950657
      ],
      [
        "▁careful",
        -9.304289284637445
      ],
      [
        "han",
        -8.712874978533407
      ],
      [
        "▁sleep",
        -8.195794072268583
      ],
      [
        "▁actual",
        -7.776133301890357
      ],
      [
        "range",
        -11.833816507855477
      ],
      [
        "il",
        -6.945403971323207
      ],
      [
        "0",
        -7.942014689472322
      ],
      [
        "hol",
        -8.708623042667957
      ],
      [
        "ms",
        -11.919613931885365
      ],
      [
        "▁187",
        -11.728130844442214
      ],
      [
        "beside",
        -13.177654069771513
      ],
      [
        "rought",
        -8.849283837263279
      ],
      [
        "987",
        -14.893421856703934
      ],
      [
        "▁eng",
        -8.882648323949994
      ],
      [
        "▁flo",
        -9.47493465235748
      ],
      [
        "▁bag",
        -8.472880162673748
      ],
      [
        "▁date",
        -8.582679340268426
      ],
      [
        "▁force",
        -8.226163264373263
      ],
      [
        "▁land",
        -8.163169286121263
      ],
      [
        "▁period",
        -8.455634343455467
      ],
      [
        "mi",
        -10.350978540918216
      ],
      [
        "am",
        -7.768135859811433
      ],
      [
        ".com",
        -8.34008198346841
      ],
      [
        "▁yours",
        -10.490369004197085
      ],
      [
        "813",
        -12.636830846163312
      ],
      [
        "▁inde",
        -9.451503762286501
      ],
      [
        "▁sexual",
        -9.358490974295862
      ],
      [
        "▁vega",
        -8.339773056898313
      ],
      [
        "then",
        -6.388216966940169
      ],
      [
        "0",
        -10.782683652942984
      ],
      [
        "ga",
        -10.834148832479924
      ],
      [
        "190",
        -13.810053399207337
      ],
      [
        "eight",
        -11.168835799980743
      ],
      [
        "▁190",
        -11.796319890941167
      ],
      [
        "▁tra",
        -8.812125900310537
      ],
      [
        "ward",
        -11.834056055878488
      ],
      [
        "▁screen",
        -9.479842432968237
      ],
      [
        "▁explain",
        -8.605281237073928
      ],
      [
        "▁hotel",
        -8.504123090563006
      ],
      [
        "▁jump",
        -8.792110093993298
      ],
      [
        "▁ham",
        -8.897939982664708
      ],
      [
        "▁attend",
        -8.943552896883071
      ],
      [
        "1/200",
        -13.247358491964661
      ],
      [
        "form",
        -11.74397402995111
      ],
      [
        "21",
        -11.158998581851863
      ],
      [
        "▁necessar",
        -8.87078733228203
      ],
      [
        "958",
        -13.341006206325527
      ],
      [
        "ur",
        -10.5066774424536
      ],
      [
        "▁meet",
        -8.549044851524343
      ],
      [
        "▁opinion",
        -9.358483151541456
      ],
      [
        "u",
        -6.4222678400216475
      ],
      [
        "▁human",
        -8.055001211149769
      ],
      [
        "6:5",
        -14.245778065733244
      ],
      [
        ",000,000",
        -11.965997843955401
      ],
      [
        "▁taco",
        -9.129668645108982
      ],
      [
        "▁11.",
        -12.246845594090738
      ],
      [
        "gri",
        -11.087957216298108
      ],
      [
        "ow",
        -11.530249375954355
      ],
      [
        "▁cow",
        -9.222389023674035
      ],
      [
        "way",
        -8.425097892577401
      ],
      [
        "▁376",
        -14.053687754394758
      ],
      [
        "▁expect",
        -8.860987714708688
      ],
      [
        "▁help",
        -6.983886387995887
      ],
      [
        "▁dat",
        -10.961870180146766
      ],
      [
        "hich",
        -14.237104677914536
      ],
      [
        "lace",
        -11.855295916706593
      ],
      [
        "19",
        -10.456865167975522
      ],
      [
        "x",
        -7.389941655910621
      ],
      [
        "▁clean",
        -8.018541165034154
      ],
      [
        "*****",
        -11.566808758753416
      ],
      [
        "▁1,6",
        -13.60865191385368
      ],
      [
        "z",
        -11.587180466242845
      ],
      [
        "▁fun",
        -8.237537716603985
      ],
      [
        "ler",
        -8.875838062815488
      ],
      [
        "day",
        -9.086683858512618
      ],
      [
        "ment",
        -7.044500395971916
      ],
      [
        ".37",
        -13.779820701624006
      ],
      [
        "▁juic",
        -9.022076909764671
      ],
      [
        "head",
        -8.766458726024013
      ],
      [
        "363",
        -14.556768785455315
      ],
      [
        "bal",
        -10.581441968368038
      ],
      [
        "▁tiger",
        -9.339666933079412
      ],
      [
        "▁tuesday",
        -8.043747939839925
      ],
      [
        "▁ya",
        -14.202852529658717
      ],
      [
        "▁p",
        -9.90999624969824
      ],
      [
        "▁half",
        -8.559099409172752
      ],
      [
        "cia",
        -11.334118227712164
      ],
      [
        "▁person",
        -7.8820255338065826
      ],
      [
        "▁4.",
        -11.34728232688808
      ],
      [
        "▁welcome",
        -9.267528089630378
      ],
      [
        "▁works",
        -9.140894629748711
      ],
      [
        "▁375",
        -13.567938652830124
      ],
      [
        "▁made",
        -7.171192307671957
      ],
      [
        "▁hop",
        -9.255239106991883
      ],
      [
        "▁blue",
        -8.300430566511789
      ],
      [
        "2-20",
        -13.143407717162013
      ],
      [
        "▁vacation",
        -9.458570413108083
      ],
      [
        "▁record",
        -8.192387930378501
      ],
      [
        "▁handle",
        -9.456435398949045
      ],
      [
        "▁n",
        -10.854310079964955
      ],
      [
        "36",
        -11.65262285376474
      ],
      [
        "▁",
        -1.3739155028004877
      ],
      [
        "▁educat",
        -11.888247019117516
      ],
      [
        "▁locate",
        -9.437937709866972
      ],
      [
        "▁hot",
        -8.19354142034331
      ],
      [
        "\\",
        -11.833785825435129
      ],
      [
        "▁chance",
        -9.008704083824156
      ],
      [
        "760",
        -13.82235795581947
      ],
      [
        "▁pay",
        -8.20729259092504
      ],
      [
        "▁1.8",
        -13.505533095204397
      ],
      [
        "▁5",
        -8.813230402229319
      ],
      [
        "▁199",
        -8.832557886515348
      ],
      [
        "8389",
        -13.541293472806034
      ],
      [
        "▁out",
        -6.816256364628311
      ],
      [
        "00",
        -9.552396791548091
      ],
      [
        "/26/200",
        -11.340770759941888
      ],
      [
        "▁twa",
        -9.419144142525125
      ],
      [
        "j",
        -12.63677057935472
      ],
      [
        "ly",
        -4.5774113969845
      ],
      [
        "▁200,",
        -14.14712352768953
      ],
      [
        "▁body",
        -8.749245870183064
      ],
      [
        "▁election",
        -9.036884679602524
      ],
      [
        "▁04:5",
        -13.362917933474566
      ],
      [
        "ard",
        -8.465365078071507
      ],
      [
        "/25/200",
        -12.112325426631577
      ],
      [
        "▁202",
        -11.617891900155046
      ],
      [
        "nti",
        -11.70323711919211
      ],
      [
        "af",
        -13.774373078014472
      ],
      [
        "▁1-8",
        -14.246827685336344
      ],
      [
        "▁sc",
        -8.393453553289536
      ],
      [
        "▁to",
        -11.047449325321436
      ],
      [
        "▁op",
        -9.410963210879657
      ],
      [
        "ch",
        -6.615790907789596
      ],
      [
        "▁para",
        -9.095461738780365
      ],
      [
        "▁carry",
        -8.874870589804512
      ],
      [
        "▁conference",
        -9.137249321808206
      ],
      [
        "▁405",
        -13.318467009434519
      ],
      [
        "nia",
        -9.26027699979371
      ],
      [
        "▁metal",
        -9.386733782918563
      ],
      [
        "▁put",
        -6.317205586011593
      ],
      [
        "ve",
        -7.179020698767759
      ],
      [
        "▁activit",
        -8.689452500007512
      ],
      [
        "▁415.",
        -13.853516783498604
      ],
      [
        "▁chi",
        -11.906643426785514
      ],
      [
        "▁wall",
        -8.814699817942223
      ],
      [
        "▁opportunit",
        -8.995169198593423
      ],
      [
        "▁ha",
        -8.148079909553115
      ],
      [
        "3.7",
        -14.341387363873036
      ],
      [
        "ritten",
        -9.049634338073206
      ],
      [
        "▁duck",
        -9.093012334788327
      ],
      [
        "hav",
        -9.281154885061614
      ],
      [
        "▁tha",
        -4.704439761942432
      ],
      [
        "▁mo",
        -11.730657660372195
      ],
      [
        "ara",
        -11.66586477604424
      ],
      [
        "▁government",
        -7.905508617095933
      ],
      [
        "▁!!!!",
        -9.884799963893974
      ],
      [
        "▁people",
        -6.4750262662327325
      ],
      [
        "▁cut",
        -8.036058299590657
      ],
      [
        "▁section",
        -9.06369677004811
      ],
      [
        "oth",
        -11.630005899227083
      ],
      [
        "▁05:3",
        -12.668251370718806
      ],
      [
        "14",
        -10.356076179222695
      ],
      [
        "▁includ",
        -8.21763408261381
      ],
      [
        "▁212",
        -12.060189136539739
      ],
      [
        "yon",
        -14.389299085700891
      ],
      [
        "474",
        -14.504383402546411
      ],
      [
        "01",
        -10.77805322712215
      ],
      [
        "▁kitt",
        -8.967830619930798
      ],
      [
        "▁card",
        -8.613361188467715
      ],
      [
        "ll",
        -11.63392656839943
      ],
      [
        "▁beat",
        -8.863964255086392
      ],
      [
        "373",
        -11.658286692588108
      ],
      [
        "f",
        -6.3315229325161955
      ],
      [
        "▁81",
        -14.132712190650901
      ],
      [
        "▁1,0",
        -14.58135672868335
      ],
      [
        "▁week",
        -7.42353420028597
      ],
      [
        "▁gain",
        -9.42771359818227
      ],
      [
        "@",
        -10.078275383865435
      ],
      [
        "jo",
        -11.43397011805476
      ],
      [
        "▁american",
        -7.215073173516174
      ],
      [
        "202.6",
        -12.915949819819229
      ],
      [
        "▁muc",
        -6.973535614468271
      ],
      [
        "▁field",
        -8.046149516013326
      ],
      [
        "whom",
        -13.147185253957925
      ],
      [
        "fi",
        -8.932123348483838
      ],
      [
        "1.5",
        -12.304039930639782
      ],
      [
        "▁366",
        -12.639888687731418
      ],
      [
        "▁hand",
        -7.497518979261562
      ],
      [
        "▁jeff",
        -9.18415399286867
      ],
      [
        "▁age",
        -8.443478993561214
      ],
      [
        "8",
        -10.549383621644612
      ],
      [
        "▁attack",
        -8.605283229577338
      ],
      [
        "o",
        -5.205643195539958
      ],
      [
        "[UNK]",
        0.0
      ],
      [
        "fro",
        -7.918171548395994
      ],
      [
        "ked",
        -10.891497111084522
      ],
      [
        "▁85",
        -12.357745637678043
      ],
      [
        "900",
        -12.649802691990901
      ],
      [
        "hin",
        -10.374880887447764
      ],
      [
        "ada",
        -9.15558329932448
      ],
      [
        ":0",
        -13.245667444997434
      ],
      [
        "▁del",
        -11.06091041640448
      ],
      [
        "lan",
        -9.40165689300834
      ],
      [
        "▁science",
        -9.001748761538906
      ],
      [
        "▁0.1",
        -13.296955699958513
      ],
      [
        "▁410-468-3",
        -13.136770579350877
      ],
      [
        "▁companie",
        -9.358562124000587
      ],
      [
        "▁want",
        -5.831740931120217
      ],
      [
        "▁times",
        -8.658193721260975
      ],
      [
        "ob",
        -11.496845026184019
      ],
      [
        "▁sent",
        -8.506926507513953
      ],
      [
        "no",
        -10.6955255510563
      ],
      [
        "▁hide",
        -9.401148749252206
      ],
      [
        "-33",
        -14.126752647604532
      ],
      [
        "▁representative",
        -9.458704575995933
      ],
      [
        "415",
        -15.196552822100086
      ],
      [
        "▁fu",
        -10.818085774961895
      ],
      [
        "▁e.g",
        -11.33402471195896
      ],
      [
        "▁row",
        -9.459549204836994
      ],
      [
        "ght",
        -14.671549717397362
      ],
      [
        "▁lu",
        -11.835344235695308
      ],
      [
        "▁balti",
        -7.1057036716394215
      ],
      [
        "▁art",
        -8.340513606055428
      ],
      [
        "i",
        -2.8124076435862975
      ],
      [
        "▁mathematic",
        -9.21665441523272
      ],
      [
        "▁some",
        -8.474755848595635
      ],
      [
        "si",
        -11.213306943358026
      ],
      [
        "▁short",
        -8.074919767007621
      ],
      [
        "▁com",
        -9.718636425590535
      ],
      [
        "▁personal",
        -8.514229975620651
      ],
      [
        "▁turist",
        -11.335733798982876
      ],
      [
        "▁18:",
        -13.104846448394458
      ],
      [
        "▁thursday",
        -7.950998537577148
      ],
      [
        "▁power",
        -8.151682927716847
      ],
      [
        "▁sh",
        -8.650262038363719
      ],
      [
        ",500",
        -10.760021148299018
      ],
      [
        "▁public",
        -7.93710943194348
      ],
      [
        ":00",
        -9.712247828919523
      ],
      [
        "▁approach",
        -9.152634606693947
      ],
      [
        "▁com",
        -8.7242924317773
      ],
      [
        "▁learn",
        -7.974593705190157
      ],
      [
        "io",
        -8.65433998279381
      ],
      [
        "ney",
        -9.016085564131828
      ],
      [
        "di",
        -11.345092246721594
      ],
      [
        "de",
        -9.369169666168602
      ],
      [
        "28",
        -10.97103305750776
      ],
      [
        "let",
        -11.33634975264456
      ],
      [
        "over",
        -10.135244341423348
      ],
      [
        "59,",
        -14.128729149811772
      ],
      [
        "▁281-518-",
        -13.136774397976367
      ],
      [
        "▁pat",
        -9.246598164130866
      ],
      [
        "▁dr",
        -8.45195268702559
      ],
      [
        "den",
        -9.270461745767943
      ],
      [
        "▁spen",
        -9.279798267960073
      ],
      [
        "bec",
        -9.720690803025342
      ],
      [
        "in",
        -10.121798497307283
      ],
      [
        "▁collect",
        -9.181638368721284
      ],
      [
        "▁alt",
        -14.290942961919017
      ],
      [
        "▁hu",
        -10.54529047320942
      ],
      [
        "or",
        -6.600107834567395
      ],
      [
        "▁democra",
        -9.07743194857009
      ],
      [
        "▁hub",
        -11.366333878990952
      ],
      [
        "✉",
        -11.333785825435129
      ],
      [
        "moi",
        -11.88521742952827
      ],
      [
        "sterda",
        -8.725999996569229
      ],
      [
        "1030",
        -15.236251623969013
      ],
      [
        "▁22",
        -10.168178807948134
      ],
      [
        "my",
        -8.402523764829516
      ],
      [
        "▁universit",
        -8.345357537422469
      ],
      [
        "▁afternoon",
        -7.853360221099013
      ],
      [
        "▁table",
        -8.156468420105256
      ],
      [
        "▁answer",
        -8.381243890602551
      ],
      [
        "▁06/01/200",
        -12.339716654186573
      ],
      [
        "▁ski",
        -9.196183477616515
      ],
      [
        "5:5",
        -15.21029726114531
      ],
      [
        "ia",
        -7.56042000740755
      ],
      [
        "▁chocolate",
        -9.417319540117488
      ],
      [
        "▁touch",
        -8.64250328341635
      ],
      [
        "ong",
        -8.800996149081914
      ],
      [
        "▁05:5",
        -13.15777586100445
      ],
      [
        ":5",
        -14.280357869335674
      ],
      [
        "▁through",
        -7.510134204880654
      ],
      [
        "½",
        -14.13677057935472
      ],
      [
        "▁ta",
        -8.020093458518847
      ],
      [
        "▁u.s.",
        -9.122098148383625
      ],
      [
        "sixt",
        -14.516672584551015
      ],
      [
        "▁feel",
        -7.631612183078572
      ],
      [
        "▁88",
        -13.04942698006511
      ],
      [
        "▁rich",
        -9.399923998795042
      ],
      [
        "▁183",
        -10.543131175840324
      ],
      [
        "▁reach",
        -8.65273279334581
      ],
      [
        "▁12/",
        -14.078541079163124
      ],
      [
        "ound",
        -8.95286447858274
      ],
      [
        "▁desk",
        -9.172263309435863
      ],
      [
        "▁proposal",
        -9.152633956561754
      ],
      [
        "▁03:1",
        -12.490305688520102
      ],
      [
        "▁+",
        -9.251141440656454
      ],
      [
        "-84",
        -13.610000242966729
      ],
      [
        "gen",
        -8.8430279038182
      ],
      [
        "▁tri",
        -8.028709916646662
      ],
      [
        "wa",
        -8.416591560051394
      ],
      [
        "ge",
        -8.139565776436296
      ],
      [
        "▁select",
        -9.337985547290014
      ],
      [
        "st.",
        -7.961080282360186
      ],
      [
        "▁du",
        -11.406419735949775
      ],
      [
        "▁got",
        -6.575460791453855
      ],
      [
        "▁fat",
        -9.075277988164977
      ],
      [
        "▁hard",
        -7.741128957604253
      ],
      [
        "▁carrie",
        -9.409804468852743
      ],
      [
        "▁fan",
        -8.95586788580983
      ],
      [
        "744",
        -12.115352357480173
      ],
      [
        "▁window",
        -8.511292351040394
      ],
      [
        "through",
        -10.343789277758114
      ],
      [
        "12",
        -10.505726646373436
      ],
      [
        "▁1-800-",
        -12.663110100375741
      ],
      [
        "▁regional",
        -9.273699075971575
      ],
      [
        "▁robin",
        -9.304126490438026
      ],
      [
        "755",
        -14.450526138564245
      ],
      [
        "▁monday",
        -7.932528626202647
      ],
      [
        "ke",
        -8.197326124056413
      ],
      [
        "▁leav",
        -7.397352012425666
      ],
      [
        "▁doggie",
        -8.67989770955515
      ],
      [
        "~",
        -9.582223498820056
      ],
      [
        "▁1754",
        -12.676592216331013
      ],
      [
        "▁be",
        -6.7243931281676685
      ],
      [
        "nter",
        -11.334028696955503
      ],
      [
        "to",
        -7.957486178082443
      ],
      [
        "▁sell",
        -9.144320960983352
      ],
      [
        "707",
        -13.147084992139547
      ],
      [
        "---------",
        -11.42153724811176
      ],
      [
        "▁perfect",
        -8.894458389270971
      ],
      [
        "gg",
        -8.33360750247629
      ],
      [
        "▁wide",
        -8.832873757790885
      ],
      [
        "▁poet",
        -9.290557250469163
      ],
      [
        "▁built",
        -9.33962983214521
      ],
      [
        "▁shin",
        -9.342011397497858
      ],
      [
        "425",
        -14.180756138798783
      ],
      [
        "▁i",
        -7.921597679038832
      ],
      [
        "▁relative",
        -9.418641229994778
      ],
      [
        "▁choose",
        -9.200267041357325
      ],
      [
        ",",
        -2.069537032793109
      ],
      [
        "▁pan",
        -8.578623874468914
      ],
      [
        "y",
        -4.088388950837395
      ],
      [
        "rio",
        -11.368284490750389
      ],
      [
        "▁416",
        -14.782803597790648
      ],
      [
        "▁ship",
        -8.853183430174465
      ],
      [
        "▁281",
        -12.76221967779616
      ],
      [
        "▁55",
        -11.36494310179424
      ],
      [
        "ept",
        -9.456805362320319
      ],
      [
        "▁kill",
        -8.504169585782346
      ],
      [
        "▁will",
        -9.290706436399965
      ],
      [
        "▁713.8",
        -14.139852382530703
      ],
      [
        "▁wil",
        -9.233489701380488
      ],
      [
        "▁study",
        -8.14038480794115
      ],
      [
        "l",
        -6.231528932805014
      ],
      [
        "-5",
        -13.761965689359293
      ],
      [
        "▁gu",
        -11.83470245911374
      ],
      [
        "▁director",
        -9.401279684286715
      ],
      [
        "▁abilit",
        -9.458429502825519
      ],
      [
        "▁afghan",
        -9.063688081431916
      ],
      [
        "▁lik",
        -6.44259785808957
      ],
      [
        "39",
        -11.637206619097427
      ],
      [
        "▁180",
        -11.117175652875956
      ],
      [
        "▁small",
        -7.574705259943814
      ],
      [
        "▁control",
        -8.266257615497242
      ],
      [
        "81",
        -13.965359039704348
      ],
      [
        "▁crom",
        -9.397401215106774
      ],
      [
        "▁type",
        -8.048894339631772
      ],
      [
        "▁russia",
        -9.451554106252448
      ],
      [
        ".8",
        -14.11670206142243
      ],
      [
        "▁42",
        -11.224730240689345
      ],
      [
        "ki",
        -11.834820000021837
      ],
      [
        "▁al",
        -9.593659622937922
      ],
      [
        "graph",
        -9.284978186357648
      ],
      [
        "535",
        -13.34204307208362
      ],
      [
        "ve",
        -6.802310410472683
      ],
      [
        "▁draft",
        -9.122098193489965
      ],
      [
        "▁04:4",
        -12.694115992812023
      ],
      [
        "rou",
        -8.854957786186286
      ],
      [
        "▁713-8",
        -14.144922617056224
      ],
      [
        "▁somethin",
        -7.378481269236485
      ],
      [
        "▁demand",
        -9.267764845560109
      ],
      [
        "▁hu",
        -7.767487986879568
      ],
      [
        "l",
        -9.630335043596833
      ],
      [
        "▁68",
        -13.449249827824033
      ],
      [
        "134",
        -13.188304911748338
      ],
      [
        "▁western",
        -9.459063563353494
      ],
      [
        "▁bo",
        -11.551938346342482
      ],
      [
        "ese",
        -13.969336546849249
      ],
      [
        "ours",
        -13.891153374149829
      ],
      [
        "▁late",
        -7.834379668823789
      ],
      [
        "▁nice",
        -7.6312034328629545
      ],
      [
        "▁ra",
        -7.864630054001814
      ],
      [
        "▁circle",
        -9.189127684803035
      ],
      [
        "▁goal",
        -9.261072047832112
      ],
      [
        "▁was",
        -5.269250295583504
      ],
      [
        "ch",
        -11.427146876420403
      ],
      [
        "▁6:",
        -15.21017344784904
      ],
      [
        "▁cash",
        -9.399326700659085
      ],
      [
        "▁exchange",
        -9.458560990902521
      ],
      [
        "inst",
        -8.311210208200965
      ],
      [
        "ca",
        -8.016332254324864
      ],
      [
        "▁toys",
        -9.0430042854149
      ],
      [
        "37,0",
        -14.136448329617062
      ],
      [
        "▁decision",
        -8.709150859755374
      ],
      [
        "▁song",
        -9.051696356655228
      ],
      [
        "oo",
        -10.573184319002312
      ],
      [
        "twe",
        -7.82087300365329
      ],
      [
        "▁meaning",
        -9.43516245025275
      ],
      [
        "▁involv",
        -8.739440411174712
      ],
      [
        "▁713-6",
        -13.034209030646098
      ],
      [
        "415-",
        -14.13691236344024
      ],
      [
        "▁quer",
        -9.141005751000835
      ],
      [
        "six",
        -10.787426841008156
      ],
      [
        "301",
        -13.51243129067659
      ],
      [
        "an",
        -8.57482120710274
      ],
      [
        "74",
        -12.34134876797
      ],
      [
        "ot",
        -13.94217627046138
      ],
      [
        "red",
        -11.151396409060967
      ],
      [
        "▁neck",
        -9.20048405653802
      ],
      [
        "▁percent",
        -9.357951579456499
      ],
      [
        "▁strong",
        -8.325570007715264
      ],
      [
        "▁image",
        -8.837018348044026
      ],
      [
        "▁lower",
        -9.295224184371286
      ],
      [
        "▁ever",
        -14.412819073874982
      ],
      [
        "▁though",
        -8.616290882458149
      ],
      [
        "▁60",
        -10.413109585665811
      ],
      [
        "▁!!!!!!",
        -11.049216165262706
      ],
      [
        "▁basic",
        -8.959807901599682
      ],
      [
        "tan",
        -8.943866801071248
      ],
      [
        ":46",
        -13.579038763616385
      ],
      [
        "p",
        -9.077018352588304
      ],
      [
        "184",
        -12.62128093123546
      ],
      [
        "▁185",
        -11.266486185287965
      ],
      [
        "...............",
        -11.472085322917493
      ],
      [
        "cho",
        -11.189655478675734
      ],
      [
        "650",
        -14.807816924349003
      ],
      [
        "▁daily",
        -8.709479327931545
      ],
      [
        "▁funn",
        -8.634259803309977
      ],
      [
        "any",
        -9.173355829436742
      ],
      [
        "▁co",
        -11.924018800984362
      ],
      [
        "▁28",
        -10.454550929746874
      ],
      [
        "▁1",
        -10.229035535106615
      ],
      [
        "▁ar",
        -8.59444266163257
      ],
      [
        "▁bad",
        -7.803689797883016
      ],
      [
        "▁press",
        -8.907300424867906
      ],
      [
        "▁brit",
        -9.103986955656644
      ],
      [
        "▁ou",
        -10.262009073803753
      ],
      [
        "▁64",
        -12.54155585686422
      ],
      [
        "▁154",
        -12.837464354786793
      ],
      [
        "▁til",
        -14.239400027983454
      ],
      [
        "ill",
        -9.453818242452195
      ],
      [
        "▁yellow",
        -8.709187613460623
      ],
      [
        "098",
        -13.688847105212474
      ],
      [
        "▁con",
        -7.473643817539984
      ],
      [
        "▁york",
        -7.72274335684789
      ],
      [
        "nature",
        -9.208546941985716
      ],
      [
        "30",
        -9.658731711958618
      ],
      [
        "▁253",
        -12.845769189610536
      ],
      [
        "▁202.",
        -14.066961326149343
      ],
      [
        "▁fear",
        -9.219452584421449
      ],
      [
        "▁range",
        -9.488820665401722
      ],
      [
        "▁test",
        -8.19301428417343
      ],
      [
        "▁spot",
        -9.137418892337003
      ],
      [
        "▁concern",
        -8.463473497425397
      ],
      [
        "him",
        -9.53100735965861
      ],
      [
        "▁phone",
        -8.228640163044583
      ],
      [
        "158",
        -13.40478322388883
      ],
      [
        "▁tent",
        -9.425463567275704
      ],
      [
        "828-",
        -13.137496001915123
      ],
      [
        "==",
        -10.802124173760925
      ],
      [
        "▁excellent",
        -8.689443345147737
      ],
      [
        "ester",
        -9.360892092528687
      ],
      [
        "under",
        -10.713415379023516
      ],
      [
        "▁207",
        -13.14865086461803
      ],
      [
        "▁spa",
        -8.895556345533514
      ],
      [
        "▁sixt",
        -10.805887792387185
      ],
      [
        "▁37",
        -11.88765483250735
      ],
      [
        "▁to",
        -8.298286431205742
      ],
      [
        "▁u",
        -8.673568592083258
      ],
      [
        "▁vote",
        -8.727720465532151
      ],
      [
        "bby",
        -9.282550075019149
      ],
      [
        "5.6",
        -13.1400501831892
      ],
      [
        "▁king",
        -9.167495426394733
      ],
      [
        "▁76",
        -11.534173471198562
      ],
      [
        "-40",
        -14.138646239169773
      ],
      [
        "ula",
        -11.5325592397742
      ],
      [
        "▁ob",
        -9.244003303825203
      ],
      [
        "▁launch",
        -9.302916467452288
      ],
      [
        "▁star",
        -8.14527790040605
      ],
      [
        "▁paul",
        -8.119814649359714
      ],
      [
        "▁wa",
        -11.753053668244322
      ],
      [
        "^",
        -10.478257699563935
      ],
      [
        "▁twenty",
        -8.382907412662831
      ],
      [
        "-04",
        -14.123579800210047
      ],
      [
        "ac",
        -11.991757960654494
      ],
      [
        "▁employ",
        -9.24961456355694
      ],
      [
        "55",
        -11.29034389136408
      ],
      [
        "68",
        -12.36399916790613
      ],
      [
        "md",
        -11.141550706240368
      ],
      [
        "qu",
        -13.484418413916822
      ],
      [
        "▁sa",
        -11.392299626641806
      ],
      [
        "▁report",
        -7.817262282848566
      ],
      [
        "▁noon",
        -8.50844939746029
      ],
      [
        "hi",
        -9.424581281491143
      ],
      [
        "▁10:3",
        -12.310518676031215
      ],
      [
        "▁+4",
        -13.201922390698039
      ],
      [
        "pre",
        -11.826766477842504
      ],
      [
        "▁program",
        -8.650539981645998
      ],
      [
        "▁44",
        -11.794641251323517
      ],
      [
        "▁previous",
        -9.397320691123902
      ],
      [
        "▁popular",
        -9.216656727367196
      ],
      [
        "▁cheap",
        -8.847228811780482
      ],
      [
        "▁rath",
        -8.622339746213
      ],
      [
        "tu",
        -8.698470255939217
      ],
      [
        "▁bush",
        -7.815454602702461
      ],
      [
        "▁y",
        -14.205440082008943
      ],
      [
        "▁acc",
        -10.4426701642256
      ],
      [
        "▁thi",
        -5.393002986392686
      ],
      [
        "▁bra",
        -9.310555841840522
      ],
      [
        "▁marri",
        -9.439966671673657
      ],
      [
        "▁fift",
        -10.360459669577798
      ],
      [
        "▁piece",
        -8.02383157896596
      ],
      [
        "▁dream",
        -9.233336185447587
      ],
      [
        "1,6",
        -13.58883323936137
      ],
      [
        "6.3",
        -14.15124683494006
      ],
      [
        "ut",
        -11.124828315595805
      ],
      [
        "▁529",
        -14.148934904333597
      ],
      [
        "▁experience",
        -7.937109431998954
      ],
      [
        "hos",
        -10.117195108246433
      ],
      [
        "▁tam",
        -8.641980672463568
      ],
      [
        "la",
        -7.448072295591106
      ],
      [
        "▁sort",
        -8.642911609795204
      ],
      [
        "▁forget",
        -9.21665989680845
      ],
      [
        "16",
        -10.36257830423802
      ],
      [
        "▁uh",
        -7.396638407131301
      ],
      [
        "18",
        -11.156516477548015
      ],
      [
        "▁saturday",
        -8.140337292772891
      ],
      [
        "858",
        -14.142649939049774
      ],
      [
        "▁h-02",
        -12.636821816479888
      ],
      [
        "”",
        -6.541188097635501
      ],
      [
        "▁hi",
        -7.478900208156903
      ],
      [
        "facebook",
        -9.428099048457657
      ],
      [
        "▁fast",
        -8.960691326408938
      ],
      [
        "▁202-",
        -14.080987957304744
      ],
      [
        "▁par",
        -11.828129688036489
      ],
      [
        ":30",
        -9.919950766679145
      ],
      [
        "▁taste",
        -8.9830624085963
      ],
      [
        "▁lives",
        -9.08188302847339
      ],
      [
        "▁f",
        -6.932738154048342
      ],
      [
        "▁08:0",
        -12.552782992181449
      ],
      [
        "▁observ",
        -8.943549198377998
      ],
      [
        "▁until",
        -8.319056567480276
      ],
      [
        "▁4",
        -9.981226615369412
      ],
      [
        "▁initial",
        -9.184138248324551
      ],
      [
        "▁bee",
        -9.337284152115924
      ],
      [
        "▁01:09",
        -13.137174343487052
      ],
      [
        "▁191",
        -11.896980550058402
      ],
      [
        "s",
        -2.6832207985066727
      ],
      [
        "▁flight",
        -5.13634912581686
      ],
      [
        "▁face",
        -7.917214705659844
      ],
      [
        "▁arriv",
        -7.87132353617478
      ],
      [
        "▁enjoy",
        -8.298721826529349
      ],
      [
        "▁think",
        -6.277539420584063
      ],
      [
        "ula",
        -8.419505169167849
      ],
      [
        "▁04",
        -11.318655228848783
      ],
      [
        "▁10,000",
        -11.468522943360597
      ],
      [
        ".5",
        -11.877263202958114
      ],
      [
        "pos",
        -10.531974967040128
      ],
      [
        "self",
        -7.580187025236798
      ],
      [
        "2.7",
        -13.14138521051941
      ],
      [
        "▁snow",
        -9.267535015827457
      ],
      [
        "▁climb",
        -9.302912806792664
      ],
      [
        "▁online",
        -9.345065539222007
      ],
      [
        "burban",
        -9.417746827345699
      ],
      [
        "▁gentl",
        -9.46114334349636
      ],
      [
        "▁perform",
        -9.267428060819277
      ],
      [
        "870",
        -12.325971475335379
      ],
      [
        "▁1.4",
        -12.362851284027002
      ],
      [
        "▁05",
        -11.350817077834545
      ],
      [
        "▁des",
        -9.820925513461214
      ],
      [
        "▁normal",
        -9.039408267063543
      ],
      [
        "▁aw",
        -8.873379297897902
      ],
      [
        "▁morning",
        -7.076127055766016
      ],
      [
        "–",
        -5.86425365958129
      ],
      [
        "▁richard",
        -9.339831224164172
      ],
      [
        ".80",
        -14.353379162439051
      ],
      [
        "ik",
        -11.833857830146387
      ],
      [
        "like",
        -9.114470217332373
      ],
      [
        "▁de",
        -13.020138656770023
      ],
      [
        "986",
        -15.106985701431281
      ],
      [
        "ment",
        -9.51561824584022
      ],
      [
        "▁5.",
        -12.276806535242752
      ],
      [
        "ition",
        -9.127816098095735
      ],
      [
        "121",
        -13.863877334317046
      ],
      [
        "matic",
        -11.833787411555353
      ],
      [
        "auv",
        -11.334233271583926
      ],
      [
        "▁economic",
        -8.548063199715806
      ],
      [
        "▁about",
        -7.665124534009342
      ],
      [
        "1:",
        -14.542473638832032
      ],
      [
        "▁re",
        -10.964379486458848
      ],
      [
        "▁dollar",
        -8.312360726638037
      ],
      [
        "▁mention",
        -8.860124567583966
      ],
      [
        "▁indicat",
        -9.267883234574334
      ],
      [
        "▁184",
        -11.262160856172258
      ],
      [
        "▁few",
        -7.658770214582771
      ],
      [
        "▁0.3",
        -13.34791874631892
      ],
      [
        "▁lunch",
        -8.61429943124376
      ],
      [
        "ether",
        -7.974193418872432
      ],
      [
        "#",
        -12.793241489426944
      ],
      [
        "▁prevent",
        -9.37771929746769
      ],
      [
        "ib",
        -9.100983143059239
      ],
      [
        "▁08:5",
        -12.695296350327888
      ],
      [
        "514",
        -14.796244535458388
      ],
      [
        "8-9",
        -14.116498766605678
      ],
      [
        "be",
        -8.125530184423784
      ],
      [
        "▁05/0",
        -13.800770594177061
      ],
      [
        "&",
        -9.184131940291
      ],
      [
        "on",
        -10.927554331646155
      ],
      [
        "▁settle",
        -9.479967768007409
      ],
      [
        "re",
        -9.464589152516979
      ],
      [
        "▁trust",
        -9.093463956594574
      ],
      [
        "***",
        -10.342156866963231
      ],
      [
        "▁shop",
        -8.716554426331921
      ],
      [
        "▁7.",
        -12.563655679205034
      ],
      [
        "el",
        -11.736101132493474
      ],
      [
        "▁any",
        -6.499089214725912
      ],
      [
        "988",
        -13.709422723261254
      ],
      [
        ",10",
        -14.134301008475443
      ],
      [
        "up",
        -7.945150414157003
      ],
      [
        "419",
        -15.147059457703024
      ],
      [
        "▁wakan",
        -11.833833698293466
      ],
      [
        "▁have",
        -5.49594958171741
      ],
      [
        "▁nandaro",
        -11.378131439771892
      ],
      [
        "999",
        -12.577476596359821
      ],
      [
        "▁service",
        -7.385787973910443
      ],
      [
        "▁euro",
        -9.303436355193707
      ],
      [
        "▁m",
        -11.005205169478106
      ],
      [
        "400",
        -11.158984950287465
      ],
      [
        "▁at",
        -10.976289584009784
      ],
      [
        "▁713-",
        -11.018494241629348
      ],
      [
        "▁female",
        -9.397324191051233
      ],
      [
        "▁make",
        -6.3146914622615204
      ],
      [
        "▁wh",
        -11.334780390968685
      ],
      [
        "▁thu",
        -9.157580957891149
      ],
      [
        "rui",
        -11.834054007462155
      ],
      [
        "toward",
        -12.052568335774453
      ],
      [
        "▁wi",
        -14.407127597437647
      ],
      [
        "▁interesting",
        -9.02093022651853
      ],
      [
        "ation",
        -6.265723474904461
      ],
      [
        "▁him",
        -6.551944350379654
      ],
      [
        "te",
        -8.200154064759577
      ],
      [
        "ro",
        -11.369268642045476
      ],
      [
        "▁statu",
        -9.16867907759687
      ],
      [
        ":13",
        -14.84515451780603
      ],
      [
        "393",
        -11.979993705934664
      ],
      [
        "▁cousin",
        -11.833838526586176
      ],
      [
        "▁01/1",
        -11.985543249189035
      ],
      [
        "▁bone",
        -9.445336473516052
      ],
      [
        "▁able",
        -8.197164151208376
      ],
      [
        "ber",
        -8.218154199560123
      ],
      [
        "▁5:",
        -13.578265554939463
      ],
      [
        ".",
        -10.366278973944398
      ],
      [
        "3",
        -7.777164305662692
      ],
      [
        "▁individual",
        -9.008502530910537
      ],
      [
        "▁compar",
        -9.156098633530162
      ],
      [
        "▁amid",
        -11.533324385705862
      ],
      [
        "sel",
        -11.095865953535217
      ],
      [
        "▁attach",
        -8.37410053232264
      ],
      [
        "▁nine",
        -9.205736100991716
      ],
      [
        "▁bo",
        -6.041901389493599
      ],
      [
        "▁et",
        -9.566894945876847
      ],
      [
        "apita",
        -11.833815009729172
      ],
      [
        "▁ant",
        -11.860894755500919
      ],
      [
        "0.8",
        -12.754940125285833
      ],
      [
        "179",
        -13.39745496023807
      ],
      [
        "▁machine",
        -9.267515509682298
      ],
      [
        "▁michael",
        -9.267511657376819
      ],
      [
        "▁christ",
        -8.991952155429228
      ],
      [
        "▁tea",
        -8.735294306497288
      ],
      [
        "▁91",
        -13.654755750579634
      ],
      [
        "6/9",
        -12.808934602602188
      ],
      [
        "8",
        -8.969752075568259
      ],
      [
        "▁water",
        -7.407185368231337
      ],
      [
        "’",
        -7.123051210512561
      ],
      [
        "mp",
        -7.778525514431884
      ],
      [
        "stip",
        -11.00046197669406
      ],
      [
        "▁every",
        -9.104257892657136
      ],
      [
        "st",
        -6.520657291895866
      ],
      [
        "ow",
        -8.665562147318964
      ],
      [
        "▁professional",
        -8.943545549190905
      ],
      [
        "▁stillman",
        -9.095977626586404
      ],
      [
        "▁sen",
        -9.186263401958538
      ],
      [
        "wau",
        -8.160369840895928
      ],
      [
        "▁author",
        -8.907924360174873
      ],
      [
        "▁application",
        -8.870860323932611
      ],
      [
        "aima",
        -9.127047648349816
      ],
      [
        "37.",
        -13.177392460549235
      ],
      [
        "▁161",
        -11.458814305941754
      ],
      [
        "d",
        -7.957113490295205
      ],
      [
        "whil",
        -10.789586528270528
      ],
      [
        "▁email",
        -8.535990976883408
      ],
      [
        "▁fact",
        -7.982333429154997
      ],
      [
        "industry",
        -9.184141764804597
      ],
      [
        "msel",
        -12.496307117546552
      ],
      [
        "73",
        -12.572276549803448
      ],
      [
        "▁problem",
        -7.711670384366869
      ],
      [
        "right",
        -8.273522008051504
      ],
      [
        "▁stand",
        -8.403275827192548
      ],
      [
        "/10/200",
        -11.680262662674137
      ],
      [
        "▁x",
        -10.277760178101257
      ],
      [
        "▁peter",
        -8.535274866371044
      ],
      [
        "▁estimate",
        -9.23332206282069
      ],
      [
        "wise",
        -9.084918910057233
      ],
      [
        "▁10:5",
        -11.912176536891272
      ],
      [
        "▁cheape",
        -8.059707439221047
      ],
      [
        "your",
        -8.818172243492093
      ],
      [
        "▁'",
        -8.499373499932924
      ],
      [
        "&",
        -10.750452492101797
      ],
      [
        "747",
        -12.054775261011347
      ],
      [
        "▁weapon",
        -9.092466611229273
      ],
      [
        "▁associate",
        -9.321094436421
      ],
      [
        "▁ma",
        -10.677501707364895
      ],
      [
        "me",
        -9.799251337819435
      ],
      [
        "▁climate",
        -9.33961297865113
      ],
      [
        "▁middle",
        -8.57005088348302
      ],
      [
        "776",
        -12.023279956286235
      ],
      [
        "343",
        -12.390815633755022
      ],
      [
        "ere",
        -10.431743240538172
      ],
      [
        "▁eye",
        -7.7383944678817596
      ],
      [
        "▁wiki",
        -9.301132751635121
      ],
      [
        "▁dinosaur",
        -8.99516919915065
      ],
      [
        "▁thirt",
        -11.589558869595727
      ],
      [
        "800-",
        -13.222800058092481
      ],
      [
        "nine",
        -11.357421453356467
      ],
      [
        "▁argument",
        -9.438009380250433
      ],
      [
        "▁04:1",
        -12.256999863441552
      ],
      [
        "▁over",
        -7.317003890912325
      ],
      [
        "▁plane",
        -8.84135033592889
      ],
      [
        "▁sad",
        -9.00089231625266
      ],
      [
        "/",
        -7.807649408801963
      ],
      [
        "1.0",
        -14.848236296224862
      ],
      [
        "▁path",
        -9.453428611366956
      ],
      [
        "▁market",
        -8.2416604732171
      ],
      [
        "▁scar",
        -8.676299686393158
      ],
      [
        "▁25",
        -9.47633880356933
      ],
      [
        "▁beach",
        -8.625127323510679
      ],
      [
        "▁creative",
        -9.419036456332506
      ],
      [
        "▁mark",
        -8.433802814841112
      ],
      [
        "nt",
        -8.229536812642731
      ],
      [
        "▁often",
        -8.298752740171434
      ],
      [
        "▁forty-",
        -12.336962208317319
      ],
      [
        "▁question",
        -7.967671605006728
      ],
      [
        "▁standards",
        -9.357858980849075
      ],
      [
        "▁165",
        -13.333829689480131
      ],
      [
        "▁busy",
        -8.967659238411784
      ],
      [
        "▁leas",
        -7.916156262882128
      ],
      [
        "o",
        -8.471522179778704
      ],
      [
        "▁fo",
        -12.595832372441105
      ],
      [
        "aine",
        -10.528294195106865
      ],
      [
        "▁imagine",
        -9.122097810249327
      ],
      [
        "▁260",
        -13.873155210873321
      ],
      [
        "▁5,",
        -14.439061198417926
      ],
      [
        "/03/200",
        -12.146972687042123
      ],
      [
        "▁met",
        -8.407022798764137
      ],
      [
        "94",
        -12.022107636496195
      ],
      [
        "994",
        -12.619595990323594
      ],
      [
        "▁had",
        -6.524047177080441
      ],
      [
        "▁moral",
        -8.762084221321373
      ],
      [
        "▁16",
        -9.237816764183773
      ],
      [
        "▁sha",
        -8.713700683610444
      ],
      [
        "▁surface",
        -9.437727655413447
      ],
      [
        "▁version",
        -9.321107518969331
      ],
      [
        "▁safe",
        -8.381472408601297
      ],
      [
        "cy",
        -7.950367526259003
      ],
      [
        "....",
        -10.495299798696006
      ],
      [
        "▁listen",
        -8.749738043853295
      ],
      [
        "▁coming",
        -8.158538310037521
      ],
      [
        "▁13",
        -9.708661677019629
      ],
      [
        "‘",
        -14.136770579354708
      ],
      [
        "▁dc",
        -8.145385871074929
      ],
      [
        "▁method",
        -8.83630250105598
      ],
      [
        "▁pencil",
        -9.049608429899273
      ],
      [
        "▁ga",
        -7.524515666659405
      ],
      [
        "3-",
        -14.52960505613413
      ],
      [
        "re",
        -6.801905974082538
      ],
      [
        "▁+1",
        -12.26268493713398
      ],
      [
        "▁document",
        -8.623384389050628
      ],
      [
        "▁se",
        -8.275472266587789
      ],
      [
        "_",
        -4.842285251919584
      ],
      [
        "89",
        -10.199888421912359
      ],
      [
        "▁cover",
        -8.464929252740955
      ],
      [
        "agr",
        -10.984714191306647
      ],
      [
        "▁your",
        -5.91319889996456
      ],
      [
        "69",
        -11.839517049892248
      ],
      [
        "▁mr",
        -7.819645212629676
      ],
      [
        "150",
        -15.027533495975852
      ],
      [
        "-7",
        -12.297963295908984
      ],
      [
        "had",
        -7.888036462142847
      ],
      [
        "▁add",
        -7.952258815523312
      ],
      [
        "▁mia",
        -11.835498122457036
      ],
      [
        "n",
        -4.9763626086880635
      ],
      [
        "▁fee",
        -8.444985718813658
      ],
      [
        "435",
        -13.081662452102297
      ],
      [
        "▁rabbit",
        -9.479838386115853
      ],
      [
        "ssi",
        -11.28931369261818
      ],
      [
        "▁ca",
        -8.130361962406909
      ],
      [
        "▁pain",
        -9.049276137121003
      ],
      [
        "▁perdu",
        -10.615085990278022
      ],
      [
        "▁etc",
        -8.87142913322548
      ],
      [
        "ow",
        -13.920453066150827
      ],
      [
        "2/",
        -14.043906342491137
      ],
      [
        "489",
        -13.150968250883603
      ],
      [
        "bert",
        -10.242654352680248
      ],
      [
        "▁dat",
        -8.891943523212506
      ],
      [
        "▁sometime",
        -8.15180021967446
      ],
      [
        "get",
        -11.632255918019082
      ],
      [
        "▁dadd",
        -7.248343020021337
      ],
      [
        "▁independent",
        -9.422645738098316
      ],
      [
        "▁st",
        -7.3162558644608175
      ],
      [
        "▁pen",
        -8.550203771091986
      ],
      [
        "<",
        -7.273053706688606
      ],
      [
        "ze",
        -10.628007461540824
      ],
      [
        "▁22,",
        -14.13564255438126
      ],
      [
        "▁_",
        -4.574614726291932
      ],
      [
        "▁20",
        -10.758623086612115
      ],
      [
        "▁heart",
        -8.84250165629578
      ],
      [
        "▁state",
        -7.084784572624046
      ],
      [
        "▁str",
        -8.929131828557663
      ],
      [
        "▁united",
        -7.446268066316317
      ],
      [
        "▁char",
        -7.85709602940751
      ],
      [
        "920",
        -12.849170236525223
      ],
      [
        "20-2",
        -13.170838406954257
      ],
      [
        "▁murder",
        -9.302916919835535
      ],
      [
        "▁08:2",
        -12.405270304354552
      ],
      [
        "thirty",
        -12.183877326748673
      ],
      [
        "▁president",
        -7.807897979675755
      ],
      [
        "ect",
        -8.327070345160179
      ],
      [
        "▁chang",
        -9.29428301087292
      ],
      [
        "▁soon",
        -8.305441629013618
      ],
      [
        "▁maintain",
        -9.200626103584723
      ],
      [
        "ification",
        -9.321985469496273
      ],
      [
        "3-16",
        -14.136905767427562
      ],
      [
        "▁'s",
        -7.4286311711759225
      ],
      [
        "ton@e",
        -11.320930134632315
      ],
      [
        "to",
        -10.339334777003861
      ],
      [
        "▁difficult",
        -8.561414820270276
      ],
      [
        "co",
        -7.77316913429432
      ],
      [
        "▁top",
        -8.12305106527343
      ],
      [
        "▁mode",
        -9.146403984005811
      ],
      [
        "▁right",
        -6.365197453296573
      ],
      [
        "ough",
        -7.869987987627028
      ],
      [
        "2-66",
        -13.1405769931651
      ],
      [
        "▁detail",
        -8.670124713738677
      ],
      [
        "▁google",
        -9.285057413080233
      ],
      [
        "ine",
        -8.365569771497185
      ],
      [
        "▁ones",
        -12.644688079861359
      ],
      [
        "530",
        -12.305600989107393
      ],
      [
        "u",
        -9.36905735747882
      ],
      [
        "kept",
        -8.816366762532649
      ],
      [
        "▁shoul",
        -7.016245635624688
      ],
      [
        "▁sub",
        -8.658869461967162
      ],
      [
        "▁true",
        -8.844486774276842
      ],
      [
        "02",
        -11.277532520438841
      ],
      [
        "▁parliament",
        -8.906504748914196
      ],
      [
        "ell",
        -7.934407067217776
      ],
      [
        "table",
        -8.678623382765833
      ],
      [
        "rote",
        -8.88774214037524
      ],
      [
        "☎",
        -11.833785825435129
      ],
      [
        "▁resource",
        -9.250270440065396
      ],
      [
        "311",
        -13.198320466201267
      ],
      [
        "▁mill",
        -9.334516367393032
      ],
      [
        "ou",
        -9.381210504395051
      ],
      [
        "▁system",
        -8.028513379639403
      ],
      [
        "▁200",
        -7.835194488110916
      ],
      [
        "adelphi",
        -7.111725521570292
      ],
      [
        "mm",
        -11.33518421489015
      ],
      [
        "▁statement",
        -9.367110581213284
      ],
      [
        "▁accident",
        -9.152633926960858
      ],
      [
        "▁166",
        -11.901068853582828
      ],
      [
        "ago",
        -8.145972882155217
      ],
      [
        "'",
        -5.811804410257997
      ],
      [
        "0/200",
        -13.144123309107325
      ],
      [
        "ner",
        -11.893441421125145
      ],
      [
        "tha",
        -7.447652869023349
      ],
      [
        "▁pant",
        -9.385128034454176
      ],
      [
        "▁feeling",
        -9.09826684951171
      ],
      [
        "▁border",
        -9.479901969804425
      ],
      [
        "▁bathroom",
        -9.358573516342458
      ],
      [
        "▁camel",
        -9.37973939318536
      ],
      [
        "2:2",
        -12.83644508027026
      ],
      [
        "▁bar",
        -8.071273315480267
      ],
      [
        "▁pro",
        -8.052041597224846
      ],
      [
        "tter",
        -8.918767816572103
      ],
      [
        "▁su",
        -7.744578658365108
      ],
      [
        "▁six",
        -8.466198163007565
      ],
      [
        "▁heat",
        -8.850924179609608
      ],
      [
        "111",
        -12.788292034875846
      ],
      [
        "▁713.",
        -15.35656633532893
      ],
      [
        "▁deal",
        -8.071334748305066
      ],
      [
        "▁10:",
        -12.180176153817651
      ],
      [
        "04/0",
        -14.183241206755312
      ],
      [
        "bo",
        -11.596433781311088
      ],
      [
        "▁jo",
        -8.881615430799823
      ],
      [
        "▁pi",
        -9.098907352307265
      ],
      [
        "▁dis",
        -7.639820818334892
      ],
      [
        "▁size",
        -9.039476916277597
      ],
      [
        "▁adam",
        -7.816248448657431
      ],
      [
        "▁jose",
        -8.957217217278583
      ],
      [
        "▁octo",
        -9.16979101096211
      ],
      [
        "tho",
        -11.220322659418953
      ],
      [
        "▁66",
        -12.565870066596311
      ],
      [
        "abo",
        -13.226014168214702
      ],
      [
        "7,5",
        -14.136437153738301
      ],
      [
        "▁count",
        -8.389434935915597
      ],
      [
        "put",
        -9.465915930202083
      ],
      [
        "▁for",
        -8.892020744218405
      ],
      [
        "gar",
        -9.10978003501774
      ],
      [
        ".7",
        -12.93833858127602
      ],
      [
        "284",
        -14.231690287536495
      ],
      [
        "▁08:1",
        -13.967495779385969
      ],
      [
        "05",
        -10.948316364981569
      ],
      [
        "▁media",
        -9.023361139596279
      ],
      [
        "▁mind",
        -8.253193736297868
      ],
      [
        "▁old",
        -7.357478987282643
      ],
      [
        "▁in",
        -6.438660467612767
      ],
      [
        "▁wednesday",
        -7.6138609492557325
      ],
      [
        "▁u",
        -13.936497440614524
      ],
      [
        "out",
        -8.79875215010852
      ],
      [
        "▁freedom",
        -9.137263977326423
      ],
      [
        "▁06/0",
        -14.136984329702415
      ],
      [
        "val",
        -11.348403420490468
      ],
      [
        "▁link",
        -8.76035684786639
      ],
      [
        "▁equal",
        -8.7707046698573
      ],
      [
        "37",
        -11.580435140051025
      ],
      [
        "rs",
        -10.527302468335112
      ],
      [
        "▁move",
        -7.975882236602133
      ],
      [
        "928",
        -14.76729306089482
      ],
      [
        ")",
        -4.6644456325462995
      ],
      [
        "▁special",
        -8.3739270774801
      ],
      [
        "▁willing",
        -9.463562159207086
      ],
      [
        "▁did",
        -7.5413585664766245
      ],
      [
        "fte",
        -8.871126370217365
      ],
      [
        "▁element",
        -9.092493755545314
      ],
      [
        "▁01/19/",
        -12.359978021860883
      ],
      [
        "w",
        -10.535206273216964
      ],
      [
        "ors",
        -9.035631897303897
      ],
      [
        "947",
        -13.616937605241425
      ],
      [
        "▁#",
        -13.65519821920551
      ],
      [
        "altho",
        -11.741346848193063
      ],
      [
        "71",
        -11.60846397450329
      ],
      [
        "656",
        -15.204647324905137
      ],
      [
        "▁70",
        -10.827511708373175
      ],
      [
        "▁performance",
        -9.37820211189143
      ],
      [
        "_",
        -4.782693395996079
      ],
      [
        "▁20",
        -8.49387196891552
      ],
      [
        "▁an",
        -7.7833474039064106
      ],
      [
        "170",
        -14.674369146106468
      ],
      [
        "▁exact",
        -8.882558196589452
      ],
      [
        "▁feature",
        -9.417325303551872
      ],
      [
        "iz",
        -8.276154834026684
      ],
      [
        "abilit",
        -8.993232555272602
      ],
      [
        "ir",
        -7.613886122212392
      ],
      [
        "▁ni",
        -8.78296279954453
      ],
      [
        "▁wan",
        -6.811400397092409
      ],
      [
        "169",
        -14.132303240133883
      ],
      [
        "52",
        -12.892883250364989
      ],
      [
        "kk",
        -10.129784113247265
      ],
      [
        "▁ri",
        -8.778915234489823
      ],
      [
        "5",
        -7.525741223050759
      ],
      [
        "countries",
        -8.41080273761471
      ],
      [
        "▁figure",
        -8.651161005150467
      ],
      [
        "▁03/0",
        -11.442809681049695
      ],
      [
        "▁phil",
        -7.058950833716642
      ],
      [
        "thou",
        -11.455493883691979
      ],
      [
        "1/01",
        -12.746409468391521
      ],
      [
        "▁113",
        -13.113565674700755
      ],
      [
        "571",
        -14.156374722740878
      ],
      [
        "▁spend",
        -9.008415453343208
      ],
      [
        "▁6.",
        -13.152792151780694
      ],
      [
        "mine",
        -11.79533885365613
      ],
      [
        "▁va",
        -9.055599985141688
      ],
      [
        ":32",
        -12.490201473690343
      ],
      [
        "ists",
        -9.052134638839956
      ],
      [
        "▁casta",
        -11.83379842846121
      ],
      [
        "▁filter",
        -8.73968876944629
      ],
      [
        "-",
        -4.291460331790701
      ],
      [
        "3.30",
        -13.842287739511173
      ],
      [
        "uch",
        -7.7365543413815185
      ],
      [
        "▁unl",
        -9.680113489348741
      ],
      [
        "where",
        -11.75353131760598
      ],
      [
        "1602",
        -12.75286170753208
      ],
      [
        "al",
        -9.879150985532643
      ],
      [
        "▁any",
        -8.460412774370067
      ],
      [
        "▁na",
        -8.151332163933816
      ],
      [
        "?",
        -3.1139181233845843
      ],
      [
        "▁real",
        -6.515121601978277
      ],
      [
        "▁item",
        -8.67981566881572
      ],
      [
        "▁decade",
        -9.250611710093224
      ],
      [
        "▁62",
        -12.292935032403635
      ],
      [
        "▁inside",
        -9.051821142161216
      ],
      [
        "±",
        -14.13677057935472
      ],
      [
        "▁a",
        -9.349514141884656
      ],
      [
        "▁port",
        -8.911652126279181
      ],
      [
        "!!!!",
        -9.691707156797472
      ],
      [
        "@",
        -8.770704637354378
      ],
      [
        "▁pass",
        -8.122029868508768
      ],
      [
        "ban",
        -8.863998678055278
      ],
      [
        "▁describe",
        -8.87078709403538
      ],
      [
        "el",
        -7.249964921174017
      ],
      [
        "▁her",
        -6.810160130538002
      ],
      [
        "▁mass",
        -9.052316903576198
      ],
      [
        "▁breakfast",
        -8.689442434269353
      ],
      [
        "▁come",
        -6.622907201550287
      ],
      [
        "▁file",
        -8.085936698541158
      ],
      [
        "ough",
        -8.427482906163835
      ],
      [
        "▁o",
        -9.672946019114775
      ],
      [
        "ami",
        -11.171813005991753
      ],
      [
        "▁us",
        -11.512281127981279
      ],
      [
        "/27/200",
        -11.799692145187812
      ],
      [
        "ude",
        -11.343820274385248
      ],
      [
        "▁sixt",
        -9.339728533482056
      ],
      [
        "84",
        -12.264908599423453
      ],
      [
        "▁215",
        -12.77746616942131
      ],
      [
        "e",
        -7.9839449649842855
      ],
      [
        "▁02:",
        -13.328867592342894
      ],
      [
        "38",
        -11.571807773434363
      ],
      [
        "▁24",
        -9.636353922881266
      ],
      [
        "▁`",
        -11.280003543173743
      ],
      [
        "id",
        -7.339463188296636
      ],
      [
        "▁so",
        -5.549549276191814
      ],
      [
        "!!!!!!",
        -10.851202100899231
      ],
      [
        "▁thou",
        -10.500572065356513
      ],
      [
        "▁49",
        -12.296047747943508
      ],
      [
        "ee",
        -13.339296558323804
      ],
      [
        "2.5",
        -13.146120449771661
      ],
      [
        "713",
        -13.11923726866352
      ],
      [
        ":00:5",
        -13.430406807019484
      ],
      [
        "en",
        -9.930597159475044
      ],
      [
        "▁/",
        -8.874696097338479
      ],
      [
        "onto",
        -8.438593295706436
      ],
      [
        "▁take",
        -6.356664569782491
      ],
      [
        "ha",
        -9.601993731172115
      ],
      [
        "80",
        -10.680973208443643
      ],
      [
        "or",
        -11.559536562033585
      ],
      [
        "ball",
        -9.180405061590378
      ],
      [
        "which",
        -9.262264540950643
      ],
      [
        "▁08:",
        -12.89396013580267
      ],
      [
        "leur",
        -11.834203543590597
      ],
      [
        "▁surviv",
        -9.339614064115855
      ],
      [
        "eral",
        -11.845563440408633
      ],
      [
        "▁africa",
        -9.41035655663188
      ],
      [
        "▁remember",
        -7.686309270822543
      ],
      [
        "▁pretend",
        -9.479863453829646
      ],
      [
        "▁con",
        -10.832625508225734
      ],
      [
        "▁138",
        -12.92362701465887
      ],
      [
        "ville",
        -8.825174274258941
      ],
      [
        "▁open",
        -7.4791654533338985
      ],
      [
        "€",
        -10.750452492101797
      ],
      [
        "▁form",
        -11.39195798495936
      ],
      [
        "▁moment",
        -8.655126256217176
      ],
      [
        "▁181",
        -12.6722014366133
      ],
      [
        "▁quiet",
        -9.417379651943339
      ],
      [
        "25/01",
        -14.13408639190938
      ],
      [
        "&",
        -8.721264882567068
      ],
      [
        "y",
        -9.961283824744118
      ],
      [
        "i",
        -9.80170027582974
      ],
      [
        "▁turn",
        -7.568144309718592
      ],
      [
        "4,",
        -13.63281336500848
      ],
      [
        "log",
        -8.684252143108036
      ],
      [
        "ifie",
        -9.268583316643015
      ],
      [
        "▁seat",
        -8.796786051361217
      ],
      [
        "use",
        -9.199202023701332
      ],
      [
        "ng",
        -8.028157028814409
      ],
      [
        "▁rain",
        -8.774566461397919
      ],
      [
        "▁wonderful",
        -9.201008475360108
      ],
      [
        "991",
        -12.803767022995844
      ],
      [
        "▁hi",
        -9.53953082797686
      ],
      [
        "▁la",
        -7.417438781615468
      ],
      [
        "▁spring",
        -9.41772606685329
      ],
      [
        "▁abo",
        -9.942026802887208
      ],
      [
        "other",
        -12.279273453871173
      ],
      [
        "eve",
        -10.31123112989284
      ],
      [
        "60",
        -10.949356537605158
      ],
      [
        "▁expens",
        -8.553385723005409
      ],
      [
        "ng",
        -7.3269460566366735
      ],
      [
        "▁country",
        -7.9374095229821195
      ],
      [
        "================",
        -9.93165574775562
      ],
      [
        "▁160",
        -10.48923474133084
      ],
      [
        "▁b",
        -10.167201760957562
      ],
      [
        "che",
        -11.83366373947532
      ],
      [
        "-4",
        -12.857549285628796
      ],
      [
        "▁hold",
        -8.15313570184476
      ],
      [
        "naiss",
        -11.833792202418863
      ],
      [
        "▁price",
        -7.749061059209247
      ],
      [
        "▁2",
        -8.323821680644631
      ],
      [
        "▁rate",
        -8.502301486008594
      ],
      [
        "▁#",
        -9.271507836159145
      ],
      [
        "▁52",
        -13.489944193561968
      ],
      [
        "▁814",
        -13.626596620227598
      ],
      [
        "▁box",
        -8.19773036974215
      ],
      [
        "▁express",
        -8.929417914309537
      ],
      [
        "▁even",
        -6.873178278929947
      ],
      [
        "▁according",
        -8.818681673590882
      ],
      [
        "▁71",
        -12.27401445262819
      ],
      [
        "▁saw",
        -7.888727547702498
      ],
      [
        "[",
        -6.198132057417013
      ],
      [
        "ug",
        -8.756244557765033
      ],
      [
        "▁develop",
        -8.37321975814184
      ],
      [
        "with",
        -7.833760072330719
      ],
      [
        "▁168",
        -12.511084376247195
      ],
      [
        "696",
        -12.743389716032905
      ],
      [
        "▁bell",
        -9.3670936031942
      ],
      [
        "▁winter",
        -9.064270977641193
      ],
      [
        "▁wake",
        -9.45874376421201
      ],
      [
        "▁value",
        -8.285975436350224
      ],
      [
        "me",
        -8.0372145555318
      ],
      [
        "ill",
        -8.081649989663585
      ],
      [
        "42",
        -12.274953641953008
      ],
      [
        "▁future",
        -8.395686887099995
      ],
      [
        "▁citizens",
        -9.216606301738508
      ],
      [
        "acio",
        -11.783930075849659
      ],
      [
        "▁india",
        -8.655951773765649
      ],
      [
        "▁slow",
        -8.721176168855834
      ],
      [
        "620",
        -14.246999949014942
      ],
      [
        "ein",
        -15.518265406639655
      ],
      [
        "▁their",
        -6.577564744618091
      ],
      [
        "7:4",
        -13.733506680232077
      ],
      [
        "came",
        -8.857316094309306
      ],
      [
        "▁time",
        -6.171470959961684
      ],
      [
        "▁relat",
        -8.997234803855578
      ],
      [
        "=---",
        -11.827184960077153
      ],
      [
        "▁chair",
        -8.27970114490211
      ],
      [
        ":39:",
        -13.171812098358995
      ],
      [
        "ur",
        -11.393468614066895
      ],
      [
        "▁1000",
        -10.355355157779499
      ],
      [
        "▁north",
        -8.235852191569844
      ],
      [
        "▁rec",
        -11.836390683277891
      ],
      [
        "▁line",
        -7.679004719538242
      ],
      [
        "▁joke",
        -8.803312039348478
      ],
      [
        "▁fare",
        -7.33981947661013
      ],
      [
        "▁friends",
        -8.193579564449253
      ],
      [
        "p",
        -7.972623554296507
      ],
      [
        "▁up",
        -6.475747422416015
      ],
      [
        "31",
        -11.692241147114807
      ],
      [
        "▁interest",
        -7.884183071692004
      ],
      [
        "993",
        -12.980437086431529
      ],
      [
        "▁ru",
        -8.709262451429161
      ],
      [
        "elve",
        -8.718995318874825
      ],
      [
        "most",
        -8.09726704073584
      ],
      [
        "47",
        -11.295163113814404
      ],
      [
        "432",
        -13.678790289678101
      ],
      [
        "▁george",
        -8.605281653238041
      ],
      [
        "ure",
        -8.624355134773031
      ],
      [
        "hey",
        -14.089121439372072
      ],
      [
        "▁picture",
        -8.384252107684983
      ],
      [
        "▁wind",
        -9.135769864530083
      ],
      [
        ":",
        -5.169352985407191
      ],
      [
        "▁toy",
        -9.18634661431784
      ],
      [
        "34",
        -11.423907652486516
      ],
      [
        "ook",
        -11.669820182477455
      ],
      [
        "▁accept",
        -8.5359902248609
      ],
      [
        "6:00",
        -11.54136812453849
      ],
      [
        "177",
        -13.361139344580995
      ],
      [
        "▁cup",
        -8.504102855402973
      ],
      [
        "4/200",
        -11.696837855527704
      ],
      [
        "▁th",
        -5.884171476561597
      ],
      [
        "m",
        -9.434558845565434
      ],
      [
        "▁adopt",
        -9.28506079737508
      ],
      [
        "09",
        -11.908274916734841
      ],
      [
        "▁96/",
        -13.462906433389357
      ],
      [
        "▁944-",
        -13.13846371516161
      ],
      [
        "▁10,",
        -14.137997860855918
      ],
      [
        "munic",
        -10.47263822377592
      ],
      [
        "ax",
        -8.953014012554288
      ],
      [
        "17",
        -10.530853205999772
      ],
      [
        "▁horsie",
        -9.008507360296054
      ],
      [
        "d",
        -4.114341191525112
      ],
      [
        "/28/200",
        -11.29149863706367
      ],
      [
        "▁8:3",
        -12.739873861330425
      ],
      [
        "▁especial",
        -8.660594467122333
      ],
      [
        "▁mam",
        -9.232711548908597
      ],
      [
        "▁intelligence",
        -9.437727653063284
      ],
      [
        "icles",
        -9.47415876164063
      ],
      [
        "▁gra",
        -8.157646178477867
      ],
      [
        "is",
        -7.588739761077403
      ],
      [
        "k",
        -9.838251410787471
      ],
      [
        "▁studie",
        -8.719265601142766
      ],
      [
        "igh",
        -11.333586498143701
      ],
      [
        "▁1.2",
        -12.884990035352798
      ],
      [
        "339",
        -11.238809738318704
      ],
      [
        "ca",
        -10.50055351711131
      ],
      [
        "▁per",
        -7.465536829958841
      ],
      [
        "▁121",
        -14.581591867325715
      ],
      [
        "▁boat",
        -8.650284950100124
      ],
      [
        "▁response",
        -8.918699875219943
      ],
      [
        "584",
        -13.069565258838212
      ],
      [
        "▁electric",
        -9.250374721898478
      ],
      [
        "n",
        -3.3255869364285555
      ],
      [
        "▁11:2",
        -12.486466669457386
      ],
      [
        "029",
        -14.571113188046223
      ],
      [
        "as",
        -11.683377276244991
      ],
      [
        "509",
        -14.165141654191874
      ],
      [
        "▁11:3",
        -11.271903610617212
      ],
      [
        "57",
        -11.891159420239507
      ],
      [
        "3.0",
        -14.167747683965414
      ],
      [
        "▁team",
        -8.52977066952731
      ],
      [
        "▁64.7",
        -13.148243418369379
      ],
      [
        "79",
        -11.29484954084604
      ],
      [
        "(",
        -4.749593983020589
      ],
      [
        "▁addition",
        -9.428457389860654
      ],
      [
        "▁sa",
        -8.263256492080123
      ],
      [
        "▁bottle",
        -8.906508878151929
      ],
      [
        "▁abou",
        -6.522750562308343
      ],
      [
        "▁can",
        -8.655796546149432
      ],
      [
        "r",
        -9.397823026701388
      ],
      [
        "▁our",
        -6.8694529814894745
      ],
      [
        "▁\"",
        -8.78674515612092
      ],
      [
        "▁900",
        -12.658041398971825
      ],
      [
        "▁pull",
        -8.440342531566156
      ],
      [
        "▁manager",
        -9.207004879277692
      ],
      [
        "▁another",
        -7.52354668913458
      ],
      [
        "▁059085495",
        -13.136770580472842
      ],
      [
        "▁twenty-",
        -12.16465112501011
      ],
      [
        "▁gun",
        -9.329251026728027
      ],
      [
        "2:3",
        -14.199321364264764
      ],
      [
        "per",
        -11.823718792668409
      ],
      [
        "▁depart",
        -8.640730814050844
      ],
      [
        "333",
        -14.345008994232288
      ],
      [
        "n@enron",
        -11.729776130192164
      ],
      [
        "▁ec",
        -9.204466119048512
      ],
      [
        "9",
        -8.142959650847832
      ],
      [
        "8/01",
        -14.138566737487656
      ],
      [
        "▁thousand",
        -9.47983761589992
      ],
      [
        "▁detr",
        -9.12885969313563
      ],
      [
        "acion",
        -11.365745765385471
      ],
      [
        "ackl",
        -11.41247990272296
      ],
      [
        "▁first",
        -6.407064579153715
      ],
      [
        "00:",
        -14.117195805228246
      ],
      [
        "▁care",
        -8.248981595006228
      ],
      [
        "▁attempt",
        -8.847664937528982
      ],
      [
        "▁whos",
        -9.510403012777239
      ],
      [
        "▁base",
        -7.784773430758982
      ],
      [
        "▁la",
        -9.448892749659029
      ],
      [
        "▁ho",
        -8.029852649326273
      ],
      [
        "▁sever",
        -8.042072041928101
      ],
      [
        "▁306",
        -14.143148896271562
      ],
      [
        "▁salt",
        -8.186672379131807
      ],
      [
        "▁whom",
        -9.933139747952437
      ],
      [
        "▁d",
        -10.280019826971163
      ],
      [
        "▁class",
        -7.41419007016784
      ],
      [
        "9",
        -8.635468173052683
      ],
      [
        "▁wait",
        -7.701144037577288
      ],
      [
        "▁holding",
        -9.335634709137253
      ],
      [
        "▁lot",
        -7.3544779458254785
      ],
      [
        "75",
        -11.071151051921955
      ],
      [
        "--",
        -6.730423465345394
      ],
      [
        "g",
        -9.85599899805753
      ],
      [
        "one",
        -8.564066777187822
      ],
      [
        "665",
        -14.029149014813683
      ],
      [
        "▁award",
        -9.483640792162157
      ],
      [
        "▁couple",
        -8.535992633842405
      ],
      [
        "▁friend",
        -7.729455722612003
      ],
      [
        "▁tom",
        -7.957814130123761
      ],
      [
        "▁set",
        -7.7908788884237525
      ],
      [
        "▁rec",
        -8.871032993191386
      ],
      [
        "000",
        -12.033561010171681
      ],
      [
        "▁questions",
        -8.42883104358518
      ],
      [
        "25",
        -10.167856393966188
      ],
      [
        "15",
        -10.272007946672396
      ],
      [
        "al",
        -5.719901030597803
      ],
      [
        "▁bread",
        -9.10729183071847
      ],
      [
        "▁tw",
        -9.14012390288319
      ],
      [
        "▁18",
        -9.022365567867356
      ],
      [
        "se",
        -10.1164354117084
      ],
      [
        "-94",
        -14.161600023403992
      ],
      [
        "ught",
        -8.455100814478431
      ],
      [
        "▁stock",
        -9.45989104929193
      ],
      [
        "▁ones",
        -9.157528673661453
      ],
      [
        "___________",
        -10.848298036816363
      ],
      [
        "t",
        -2.6296534203519837
      ],
      [
        "▁12:4",
        -13.516124200810152
      ],
      [
        "▁401",
        -14.13652949020046
      ],
      [
        "▁202.456.1",
        -12.340123241055275
      ],
      [
        "▁usual",
        -8.388843450976974
      ],
      [
        "▁china",
        -8.425219458995342
      ],
      [
        "6.7",
        -13.00722535416523
      ],
      [
        "▁order",
        -7.784069344065936
      ],
      [
        "▁plan",
        -8.30650218729406
      ],
      [
        "wi",
        -8.782008284836754
      ],
      [
        "▁street",
        -8.19833094395371
      ],
      [
        "▁has",
        -6.935440177997947
      ],
      [
        "199",
        -11.808463155916124
      ],
      [
        "99",
        -10.04345582405485
      ],
      [
        "▁105",
        -13.812547057226544
      ],
      [
        "▁ac",
        -8.72849576719444
      ],
      [
        "▁self",
        -8.906536943298097
      ],
      [
        "▁hair",
        -8.01395832510704
      ],
      [
        "xsl",
        -10.981309638386165
      ],
      [
        "▁lego",
        -9.396970437877538
      ],
      [
        "▁bridge",
        -9.417598753678721
      ],
      [
        "1960",
        -11.315720686444237
      ],
      [
        "▁too",
        -6.357359606552462
      ],
      [
        "▁propose",
        -9.06369589093162
      ],
      [
        "yet",
        -8.781469504832618
      ],
      [
        "▁>",
        -9.25200696802715
      ],
      [
        "448",
        -13.685044922631343
      ],
      [
        "▁led",
        -9.392628584895078
      ],
      [
        "▁entire",
        -8.792097210213818
      ],
      [
        "1:4",
        -14.232888692478268
      ],
      [
        "▁m",
        -9.468035479108513
      ],
      [
        "▁wish",
        -8.772867135140297
      ],
      [
        "ache",
        -9.2047898675983
      ],
      [
        "-----",
        -11.828237302032942
      ],
      [
        "▁nose",
        -8.727774450963965
      ],
      [
        "ative",
        -9.328075495436508
      ],
      [
        "12",
        -10.115966630470972
      ],
      [
        "▁video",
        -8.802967022553727
      ],
      [
        "838",
        -11.947564887353263
      ],
      [
        "4.7",
        -12.15067148440598
      ],
      [
        "al.",
        -10.696464705405322
      ],
      [
        "▁dangerous",
        -9.321227290789272
      ],
      [
        "pe",
        -13.042329633844208
      ],
      [
        "249",
        -14.261623159528837
      ],
      [
        "▁effect",
        -8.718285105658385
      ],
      [
        "the",
        -5.642825194949209
      ],
      [
        "▁heavy",
        -9.358481269033254
      ],
      [
        "▁510-642-",
        -13.136770579314764
      ],
      [
        "▁warm",
        -8.66712169278605
      ],
      [
        "ans",
        -11.365661282671361
      ],
      [
        "==============",
        -10.933782317407932
      ],
      [
        "▁israel",
        -8.916499859838606
      ],
      [
        "▁receiv",
        -9.148245788328584
      ],
      [
        "bur",
        -8.799752796105526
      ],
      [
        "▁713-79",
        -14.137051361386526
      ],
      [
        "3.6",
        -13.500323944744153
      ],
      [
        "▁summer",
        -8.70915304437245
      ],
      [
        "▁lu",
        -8.65779055645698
      ],
      [
        "▁122",
        -14.496571227426573
      ],
      [
        "ies",
        -6.245779430837089
      ],
      [
        "口",
        -11.333785825435129
      ],
      [
        "et",
        -7.40900309027625
      ],
      [
        "350",
        -12.885860862238697
      ],
      [
        "▁subject",
        -8.679733769747534
      ],
      [
        "▁office",
        -7.914370879502322
      ],
      [
        "▁s",
        -12.258378671938004
      ],
      [
        ".16",
        -14.099913540792532
      ],
      [
        "z",
        -11.758838788587859
      ],
      [
        "▁overall",
        -9.267620697961158
      ],
      [
        "▁dry",
        -8.897774706436149
      ],
      [
        "nt",
        -15.500372919647573
      ],
      [
        "▁brief",
        -9.397319788816871
      ],
      [
        "1/2",
        -11.189346582601061
      ],
      [
        "▁among",
        -8.705769502659557
      ],
      [
        "sa",
        -10.695860057288726
      ],
      [
        "▁mess",
        -9.350750057702106
      ],
      [
        "▁11:0",
        -11.779412810543928
      ],
      [
        "▁5",
        -11.486037404032146
      ],
      [
        "▁international",
        -8.16313022423994
      ],
      [
        "▁determine",
        -9.137252438523475
      ],
      [
        "▁view",
        -8.02085085885247
      ],
      [
        "▁evening",
        -8.250203668818394
      ],
      [
        "▁conversation",
        -9.152635135900173
      ],
      [
        "stead",
        -8.280668333769
      ],
      [
        "▁du",
        -8.315982365261156
      ],
      [
        "▁left",
        -7.896576691700168
      ],
      [
        "▁fe",
        -8.37614216638367
      ],
      [
        "▁break",
        -8.425352470361611
      ],
      [
        "▁me",
        -8.801239114016099
      ],
      [
        "▁eastern",
        -9.285421281427753
      ],
      [
        "▁trip",
        -7.6171272280313325
      ],
      [
        "▁qu",
        -9.977230063862478
      ],
      [
        "▁sister",
        -9.078127862201187
      ],
      [
        "▁clear",
        -8.198340153352461
      ],
      [
        "▁truck",
        -8.556163145659767
      ],
      [
        "il",
        -11.044022491264839
      ],
      [
        "▁choice",
        -9.137364226853677
      ],
      [
        "ism",
        -8.037118565267317
      ],
      [
        "▁11/0",
        -12.309214898187186
      ],
      [
        "▁mom",
        -7.881066692942189
      ],
      [
        "orland",
        -8.515462419079277
      ],
      [
        "ness",
        -7.710406897402901
      ],
      [
        "oun",
        -11.10653329383833
      ],
      [
        "her",
        -11.334030496893174
      ],
      [
        "▁spell",
        -9.32249520293006
      ],
      [
        "▁bear",
        -8.072137983948192
      ],
      [
        "▁718-780-0",
        -13.13677057931521
      ],
      [
        "▁environment",
        -9.043529787999816
      ],
      [
        "9/200",
        -11.994173130074634
      ],
      [
        "916",
        -13.315553684963554
      ],
      [
        "▁home",
        -7.148845412766445
      ],
      [
        "ip",
        -8.106814888374581
      ],
      [
        "e",
        -4.31585204783889
      ],
      [
        "▁day",
        -6.593518791607408
      ],
      [
        "▁atlant",
        -6.80533860402621
      ],
      [
        "▁respect",
        -8.689442727417958
      ],
      [
        "8",
        -8.166321644259856
      ],
      [
        "nea",
        -14.363243559794505
      ],
      [
        "▁11",
        -8.972238801626698
      ],
      [
        "▁owner",
        -8.860649405906557
      ],
      [
        "eck",
        -9.053006282495291
      ],
      [
        "▁wild",
        -9.20355195540764
      ],
      [
        "▁08",
        -11.701778809336425
      ],
      [
        "/4",
        -14.507837677050663
      ],
      [
        "▁tow",
        -9.212732133102016
      ],
      [
        "▁arab",
        -8.943645700470405
      ],
      [
        "tw",
        -10.822631328216058
      ],
      [
        "70",
        -11.821631001181984
      ],
      [
        "▁generation",
        -9.439359008644853
      ],
      [
        "▁skill",
        -9.267886954774834
      ],
      [
        "▁620-294-",
        -12.665389467361315
      ],
      [
        "▁son",
        -9.072459893514075
      ],
      [
        "▁am",
        -7.504540412758822
      ],
      [
        "550",
        -14.138024971197327
      ],
      [
        "4.4",
        -13.305398854713754
      ],
      [
        "tra",
        -8.192058384072823
      ],
      [
        "▁850",
        -12.738656435075244
      ],
      [
        "▁.",
        -6.116290613496916
      ],
      [
        "ha",
        -10.276535708534153
      ],
      [
        "▁186",
        -13.602023377258487
      ],
      [
        "mi",
        -8.328297470704738
      ],
      [
        "▁watch",
        -7.726459587710223
      ],
      [
        "193",
        -14.38386731268611
      ],
      [
        "▁ask",
        -7.346104784541154
      ],
      [
        "▁run",
        -8.237245478969747
      ],
      [
        "▁remind",
        -9.479931203211212
      ],
      [
        "▁157",
        -12.084632893631422
      ],
      [
        "arra",
        -9.419719874814358
      ],
      [
        "▁ago",
        -8.403763783103205
      ],
      [
        "▁03/2",
        -13.199689666990963
      ],
      [
        "er",
        -8.738737201953922
      ],
      [
        "▁jer",
        -8.947095692311773
      ],
      [
        "▁100",
        -9.714914411262882
      ],
      [
        "▁still",
        -7.208717687390162
      ],
      [
        "▁black",
        -8.059216796126368
      ],
      [
        "▁h-00",
        -14.077939751247342
      ],
      [
        "▁cultural",
        -9.063688071138198
      ],
      [
        "ua",
        -8.94098830068903
      ],
      [
        "ov",
        -8.684273091579184
      ],
      [
        "min",
        -8.351432278294237
      ],
      [
        "o",
        -2.821872209097938
      ],
      [
        "bever",
        -11.340099135873395
      ],
      [
        "someon",
        -11.278191597539164
      ],
      [
        "▁magic",
        -9.092572860610453
      ],
      [
        "ous",
        -7.753065982711499
      ],
      [
        "bo",
        -8.115289965453382
      ],
      [
        "inc",
        -8.1359725598003
      ],
      [
        "▁trouble",
        -8.918699870505279
      ],
      [
        "ally",
        -7.656257354018051
      ],
      [
        "▁near",
        -8.588593832158658
      ],
      [
        "▁is",
        -6.925834268543755
      ],
      [
        "▁chicken",
        -8.527663203247066
      ],
      [
        "▁send",
        -8.369763564530729
      ],
      [
        "▁center",
        -8.918777664326518
      ],
      [
        "▁mm",
        -8.913408442266327
      ],
      [
        "ung",
        -9.13499072233341
      ],
      [
        "in",
        -6.8126454986383775
      ],
      [
        "▁over",
        -7.215890673759658
      ],
      [
        "ou",
        -11.274927960313955
      ],
      [
        "se",
        -10.75939678579618
      ],
      [
        "▁effective",
        -9.269005580703237
      ],
      [
        "1",
        -7.860746011381004
      ],
      [
        "round",
        -7.77048312425168
      ],
      [
        "4-79",
        -13.475737153577203
      ],
      [
        "▁w",
        -8.44909452292899
      ],
      [
        "▁action",
        -8.376132064816296
      ],
      [
        "▁room",
        -7.475437549398591
      ],
      [
        "270",
        -11.860042949136494
      ],
      [
        "▁ya",
        -8.900324049215381
      ],
      [
        "▁’",
        -10.228851442284377
      ],
      [
        "▁2.0",
        -11.449299207262337
      ],
      [
        "▁say",
        -6.528208512843556
      ],
      [
        "▁770",
        -13.561149847827563
      ],
      [
        "▁attention",
        -8.699246431356801
      ],
      [
        "▁mumm",
        -8.487997427687564
      ],
      [
        "4-0",
        -13.976970355796805
      ],
      [
        "so",
        -6.647691394852842
      ],
      [
        ".99",
        -13.829769440686343
      ],
      [
        "2.4",
        -14.15936974051795
      ],
      [
        "▁le",
        -10.86344947938667
      ],
      [
        "iv",
        -11.534717983037272
      ],
      [
        "cus",
        -14.750903904043147
      ],
      [
        "▁miss",
        -8.300908098283447
      ],
      [
        "tra",
        -11.286326700046635
      ],
      [
        "277",
        -14.07244370210741
      ],
      [
        "▁09/",
        -14.713481892351867
      ],
      [
        "045",
        -14.051548089164978
      ],
      [
        "466",
        -11.802185778398112
      ],
      [
        "ama",
        -9.072256725874857
      ],
      [
        "nson@enron",
        -11.833845510207494
      ],
      [
        "▁legislati",
        -9.397329022844511
      ],
      [
        "ee",
        -10.720525926017277
      ],
      [
        "▁=",
        -10.869655881095504
      ],
      [
        "د",
        -11.833785825435129
      ],
      [
        "▁continu",
        -9.377225429800335
      ],
      [
        "▁region",
        -8.855094648305986
      ],
      [
        "▁city",
        -7.08900132846103
      ],
      [
        "▁08:3",
        -12.515232474275917
      ],
      [
        "ft",
        -10.860161527332979
      ],
      [
        "48",
        -11.190259833701614
      ],
      [
        "ight",
        -9.357746732889968
      ],
      [
        "▁connection",
        -8.690503634231327
      ],
      [
        "ll",
        -8.07882068783164
      ],
      [
        "b",
        -9.498189642449134
      ],
      [
        "---->",
        -11.77556405770272
      ],
      [
        "▁ex",
        -8.427774897017361
      ],
      [
        "▁152",
        -15.203421698304805
      ],
      [
        "port",
        -9.347758820682472
      ],
      [
        "▁2.",
        -12.031407598511363
      ],
      [
        "▁hey",
        -7.820241034561922
      ],
      [
        "▁serve",
        -8.130137942141157
      ],
      [
        "▁60,",
        -14.127858255991535
      ],
      [
        "▁11:",
        -12.774231487304524
      ],
      [
        "for",
        -6.699129353135136
      ],
      [
        "/16",
        -14.567007781419006
      ],
      [
        "▁be",
        -11.273560827601584
      ],
      [
        "▁10:4",
        -12.397343587659027
      ],
      [
        "▁eggs",
        -9.025928156034912
      ],
      [
        "▁281-4",
        -12.337157708975122
      ],
      [
        "▁167",
        -13.95653885147384
      ],
      [
        "▁sch",
        -11.042520271932212
      ],
      [
        "▁!!!!!!!!!!",
        -11.698363094807423
      ],
      [
        "-8",
        -12.581491700602657
      ],
      [
        "▁_",
        -7.4897439148777085
      ],
      [
        "▁second",
        -7.752874367135832
      ],
      [
        "what",
        -7.995404486710124
      ],
      [
        "▁713-654-",
        -12.338945399348273
      ],
      [
        "▁worth",
        -8.20658266051677
      ],
      [
        "▁ball",
        -7.984127301677495
      ],
      [
        "▁cost",
        -7.930841934260759
      ],
      [
        "▁task",
        -9.438406082583946
      ],
      [
        "922",
        -12.522603151732726
      ],
      [
        "▁202.456.",
        -13.13539424992046
      ],
      [
        "▁for",
        -5.030157282061143
      ],
      [
        "00,000",
        -13.506341496060433
      ],
      [
        "▁terribl",
        -9.384530569014213
      ],
      [
        "▁73",
        -12.691161218511667
      ],
      [
        "des",
        -12.595929635241493
      ],
      [
        "▁500",
        -10.955114086710612
      ],
      [
        "▁p",
        -6.971191907334957
      ],
      [
        "▁authorit",
        -9.300806463721969
      ],
      [
        "▁straight",
        -9.285057345847179
      ],
      [
        "▁14",
        -9.756769856757689
      ],
      [
        "▁42,00",
        -13.782910433321955
      ],
      [
        "**********",
        -11.222325853193087
      ],
      [
        "▁mi",
        -11.290189893230615
      ],
      [
        "▁350",
        -11.93683533752407
      ],
      [
        "▁95",
        -12.338386007555426
      ],
      [
        "▁love",
        -7.364179385736136
      ],
      [
        "/29/200",
        -13.527257651397825
      ],
      [
        "/11/200",
        -12.790331325970003
      ],
      [
        "▁were",
        -8.561856678746626
      ],
      [
        "▁hav",
        -6.307941970917242
      ],
      [
        "4-449",
        -13.136787201776146
      ],
      [
        "▁committee",
        -9.039404905147737
      ],
      [
        "▁cre",
        -9.146761474322211
      ],
      [
        "ster",
        -11.33481441047147
      ],
      [
        "ization",
        -9.424486519676286
      ],
      [
        "▁ka",
        -8.55097014870329
      ],
      [
        "uk",
        -8.960605887137618
      ],
      [
        "▁103",
        -13.542774831643694
      ],
      [
        "5/",
        -12.852576072044881
      ],
      [
        "▁07:",
        -12.030054931065973
      ],
      [
        "▁knowledge",
        -9.035717065352483
      ],
      [
        "▁release",
        -9.137257433623976
      ],
      [
        "▁;",
        -8.155138699324173
      ],
      [
        "▁ja",
        -8.75489157243334
      ],
      [
        "/08/",
        -13.300465877902393
      ],
      [
        "ere",
        -6.9532010779803795
      ],
      [
        "▁eight",
        -9.059025391871746
      ],
      [
        "ve",
        -10.988946458107845
      ],
      [
        "▁male",
        -9.46980516154485
      ],
      [
        "▁discuss",
        -8.63093987568281
      ],
      [
        "9",
        -11.755654067596886
      ],
      [
        "▁last",
        -7.142041284498853
      ],
      [
        "ca",
        -8.252335262780884
      ],
      [
        "☏",
        -11.333785825435129
      ],
      [
        "ible",
        -9.196143436331143
      ],
      [
        "3",
        -8.118052244684277
      ],
      [
        "▁92",
        -11.352258743075414
      ],
      [
        "28",
        -11.333881110935947
      ],
      [
        "===",
        -10.728766094539285
      ],
      [
        "3.8",
        -12.702689943172382
      ],
      [
        "▁oka",
        -6.763203402000117
      ],
      [
        "1.3",
        -11.69160675419613
      ],
      [
        "am",
        -11.474157171086144
      ],
      [
        "▁12:",
        -12.101167411589993
      ],
      [
        "ri",
        -11.447435099548533
      ],
      [
        "-",
        -6.356993500672363
      ],
      [
        "nda",
        -8.975231535341857
      ],
      [
        "oit",
        -9.218151564269208
      ],
      [
        "▁what",
        -5.09320280019549
      ],
      [
        "▁coast",
        -9.33970354179852
      ],
      [
        "▁amount",
        -8.318722455269208
      ],
      [
        "▁cage",
        -9.177868758447403
      ],
      [
        "▁promot",
        -9.339617434028039
      ],
      [
        "▁need",
        -6.315856772210232
      ],
      [
        "hat",
        -7.3915594095763515
      ],
      [
        "▁01:5",
        -12.124920194609327
      ],
      [
        "▁fort",
        -8.140659229984955
      ],
      [
        "▁terr",
        -9.426215588396751
      ],
      [
        "67",
        -11.822474206709575
      ],
      [
        "▁how",
        -8.861903242976682
      ],
      [
        "§",
        -11.833785825435129
      ],
      [
        "▁code",
        -8.701200383260678
      ],
      [
        "▁site",
        -8.614808128189022
      ],
      [
        "▁herself",
        -10.235000470458207
      ],
      [
        "▁treatment",
        -9.360188140913941
      ],
      [
        "bei",
        -9.843238950922233
      ],
      [
        "▁10.",
        -12.227526544380565
      ],
      [
        "re",
        -7.418210813944743
      ],
      [
        "▁light",
        -7.629553508006208
      ],
      [
        "▁0.00",
        -15.109614267568244
      ],
      [
        "▁deep",
        -8.919565352815548
      ],
      [
        "▁format",
        -9.31197093788241
      ],
      [
        "ern",
        -8.89672716777547
      ],
      [
        "▁barn",
        -9.384713544748749
      ],
      [
        "▁c",
        -6.3899847351046315
      ],
      [
        "▁12:42",
        -13.166541441986316
      ],
      [
        "▁cheese",
        -8.918811434316613
      ],
      [
        "▁281-51",
        -14.136807499320867
      ],
      [
        "▁forward",
        -8.527755422434613
      ],
      [
        "▁app",
        -9.094287011807959
      ],
      [
        "ner",
        -9.133533080036347
      ],
      [
        "▁not",
        -11.602694169155521
      ],
      [
        "27",
        -10.991960113745264
      ],
      [
        "▁02:2",
        -13.25195685742674
      ],
      [
        "▁25.",
        -14.400507833653691
      ],
      [
        "▁issue",
        -7.9939131771123
      ],
      [
        "ex",
        -9.28178381031801
      ],
      [
        "▁***",
        -11.499181947681452
      ],
      [
        "▁student",
        -8.503068395692749
      ],
      [
        "where",
        -8.072700902504359
      ],
      [
        "175",
        -13.89952388135222
      ],
      [
        "0.9",
        -15.298300968100728
      ],
      [
        "919",
        -14.487614837274576
      ],
      [
        "▁?",
        -6.993488358114005
      ],
      [
        "_______",
        -10.805570786638603
      ],
      [
        "▁bike",
        -9.340251002493488
      ],
      [
        "▁america",
        -8.634866750741248
      ],
      [
        "▁influence",
        -9.418069889521977
      ],
      [
        "▁film",
        -9.036787325173155
      ],
      [
        "461",
        -13.307979721832814
      ],
      [
        "▁see",
        -5.934218152544884
      ],
      [
        "▁3,",
        -11.986573016429368
      ],
      [
        "ward",
        -8.880695661209415
      ],
      [
        "▁ninet",
        -11.980756886517543
      ],
      [
        "▁6/1",
        -13.68037551197092
      ],
      [
        "▁16,",
        -14.139170133244484
      ],
      [
        "▁1940",
        -12.335329628465026
      ],
      [
        "▁713/",
        -13.066201541249049
      ],
      [
        "mar",
        -11.87875920010933
      ],
      [
        "▁713-853-",
        -12.650615157195254
      ],
      [
        "$",
        -13.701907056799467
      ],
      [
        "nab",
        -11.450820924465399
      ],
      [
        "▁law",
        -8.03589962893776
      ],
      [
        "750",
        -14.563579567680097
      ],
      [
        "▁chic",
        -8.254649751031184
      ],
      [
        "history",
        -8.596385151016023
      ],
      [
        "▁reasonabl",
        -9.426903967162524
      ],
      [
        "▁lack",
        -8.995420384128039
      ],
      [
        "2.6",
        -12.444938920687479
      ],
      [
        "4:5",
        -14.567715117453758
      ],
      [
        "108",
        -12.520739791687621
      ],
      [
        "▁list",
        -6.724935285476686
      ],
      [
        "▁facilit",
        -9.267511747915615
      ],
      [
        "u",
        -5.730887179067299
      ],
      [
        "[PAD]",
        0.0
      ],
      [
        "43",
        -12.249869721942224
      ],
      [
        "▁beautiful",
        -8.596352649492474
      ],
      [
        "▁foreign",
        -9.152700024442902
      ],
      [
        "yoursel",
        -12.14637731604893
      ],
      [
        "7",
        -8.305378306802192
      ],
      [
        "▁population",
        -9.03571595590969
      ],
      [
        "-f",
        -11.867378889831972
      ],
      [
        "▁german",
        -9.20028939871354
      ],
      [
        "▁agenc",
        -9.340041153471464
      ],
      [
        "▁!!",
        -8.519732313854664
      ],
      [
        "que",
        -11.476850546345958
      ],
      [
        "**",
        -11.101205993619278
      ],
      [
        "▁evidence",
        -9.339612961542672
      ],
      [
        "▁women",
        -8.49501001346341
      ],
      [
        "▁less",
        -8.205940347737268
      ],
      [
        "▁no-4",
        -13.278173271145704
      ],
      [
        ":48",
        -13.969906159124326
      ],
      [
        "▁let",
        -6.657253422921517
      ],
      [
        "▁ab",
        -8.67270013629925
      ],
      [
        ".12",
        -13.146163943071922
      ],
      [
        "▁173",
        -13.542186875789044
      ],
      [
        "/9",
        -15.447297605292762
      ],
      [
        "▁9",
        -10.074828539813632
      ],
      [
        "64",
        -12.106504557730869
      ],
      [
        "▁.2",
        -12.818583968968841
      ],
      [
        "238",
        -12.736357786554251
      ],
      [
        "194",
        -14.455714472316119
      ],
      [
        "▁war",
        -7.760594321913668
      ],
      [
        "▁earlie",
        -7.928002129149236
      ],
      [
        "53-3",
        -13.165316267144016
      ],
      [
        "wh",
        -12.456898445064779
      ],
      [
        "▁brain",
        -9.268975673971514
      ],
      [
        "▁fix",
        -8.863041534418361
      ],
      [
        "▁suffer",
        -9.18414865621412
      ],
      [
        "▁quit",
        -8.523315041221952
      ],
      [
        "▁li",
        -7.8671418341701775
      ],
      [
        "▁angel",
        -8.6234208627253
      ],
      [
        "▁tax",
        -8.967388484282994
      ],
      [
        "▁1996",
        -11.89624821019811
      ],
      [
        ">",
        -8.485528575884175
      ],
      [
        "nte",
        -11.329980172230282
      ],
      [
        "g",
        -6.096330494060682
      ],
      [
        ".",
        -1.4798978484674539
      ],
      [
        "nver",
        -6.543175981558249
      ],
      [
        "-20",
        -11.85227201413492
      ],
      [
        "▁ka",
        -11.80448258593769
      ],
      [
        "▁call",
        -6.7216416894606965
      ],
      [
        "▁front",
        -8.269957627238659
      ],
      [
        "▁ah",
        -8.644166417501275
      ],
      [
        "▁240",
        -13.106045885865703
      ],
      [
        "720",
        -13.183827365458086
      ],
      [
        "883",
        -14.15438031203266
      ],
      [
        "▁food",
        -7.270885616640191
      ],
      [
        "▁wif",
        -8.480385675790949
      ],
      [
        "▁scientology",
        -9.458560998889725
      ],
      [
        "▁favorite",
        -9.008574841421147
      ],
      [
        "▁tape",
        -8.872795819167841
      ],
      [
        "▁06:",
        -13.142659191789653
      ],
      [
        "▁address",
        -8.570047398591552
      ],
      [
        "▁no-",
        -13.47376073561761
      ],
      [
        "▁them",
        -6.589170159202508
      ],
      [
        "▁extreme",
        -8.88255182763218
      ],
      [
        "▁973-",
        -13.136809148661035
      ],
      [
        "ed",
        -3.965677494332292
      ],
      [
        "▁one",
        -6.836813497303867
      ],
      [
        "more",
        -6.93931928247482
      ],
      [
        "om",
        -12.821276219444899
      ],
      [
        "▁god",
        -9.310029383370294
      ],
      [
        "▁09/1",
        -12.073086897726844
      ],
      [
        "600",
        -11.637633919009222
      ],
      [
        "▁broke",
        -8.25355523330639
      ],
      [
        "du",
        -14.463914734342394
      ],
      [
        "▁search",
        -9.200286336227126
      ],
      [
        "▁10:1",
        -14.856075921306758
      ],
      [
        "▁bre",
        -9.172852735254448
      ],
      [
        "001",
        -12.849675556321584
      ],
      [
        "thr",
        -11.182826915678538
      ],
      [
        "t",
        -8.622881059948114
      ],
      [
        "·",
        -9.904817571414563
      ],
      [
        "▁web",
        -8.79462554103955
      ],
      [
        "▁tour",
        -9.077610363846318
      ],
      [
        "line",
        -8.479136179438735
      ],
      [
        "▁47",
        -12.395029450852924
      ],
      [
        "▁16.",
        -14.199282383172985
      ],
      [
        "▁br",
        -10.94773012055678
      ],
      [
        "▁computer",
        -8.825074330416612
      ],
      [
        "▁rat",
        -9.043856318786691
      ],
      [
        "100,000",
        -15.487655502934642
      ],
      [
        "▁111",
        -12.80605270452926
      ],
      [
        "160",
        -12.373121820272267
      ],
      [
        "▁whil",
        -7.852958576257973
      ],
      [
        "ther",
        -7.090046076519716
      ],
      [
        "▁hope",
        -7.9620062092618165
      ],
      [
        "eries",
        -9.125916097601708
      ],
      [
        "6.1",
        -12.319184560544816
      ],
      [
        "▁banana",
        -8.931202189121102
      ],
      [
        "2-46",
        -13.18303338315813
      ],
      [
        "▁600",
        -11.992235792398532
      ],
      [
        "▁marriage",
        -9.168872666662818
      ],
      [
        "▁fla",
        -9.231904641082048
      ],
      [
        "▁airport",
        -7.914527219907147
      ],
      [
        "cu",
        -8.714580363342133
      ],
      [
        "▁hundred",
        -9.481396688621842
      ],
      [
        "▁45",
        -11.407942744300977
      ],
      [
        "▁832.676.",
        -13.136770579315863
      ],
      [
        "▁allowed",
        -9.280557163694084
      ],
      [
        "▁immediate",
        -9.137249338937497
      ],
      [
        "▁mont",
        -8.55342472002734
      ],
      [
        "▁8",
        -9.408204222629287
      ],
      [
        "▁335",
        -13.289610428496676
      ],
      [
        "▁pa",
        -7.979554195531552
      ],
      [
        "▁pivot",
        -9.23332245535191
      ],
      [
        "la",
        -10.269817022195172
      ],
      [
        "▁red",
        -7.8614364107523915
      ],
      [
        "▁practice",
        -9.175821333046333
      ],
      [
        "▁certain",
        -8.210341734413243
      ],
      [
        "▁capital",
        -8.96902775803622
      ],
      [
        "▁absolute",
        -9.267511614295342
      ],
      [
        "▁’",
        -8.643293563333359
      ],
      [
        "um",
        -10.357854736078675
      ],
      [
        "▁wo",
        -11.941090509525177
      ],
      [
        "500",
        -11.860447827041964
      ],
      [
        "▁major",
        -8.461192528997785
      ],
      [
        "▁south",
        -8.090960897067845
      ],
      [
        "▁pal",
        -11.623352589811217
      ],
      [
        "▁stopover",
        -9.16856835747033
      ],
      [
        "54",
        -12.936357879777361
      ],
      [
        "▁down",
        -6.955512669546513
      ],
      [
        "mus",
        -9.408800247951717
      ],
      [
        "▁impress",
        -9.425645623569222
      ],
      [
        "▁spoke",
        -8.894793938609986
      ],
      [
        "35",
        -11.398557063167647
      ],
      [
        "▁750",
        -12.229681738664153
      ],
      [
        "▁2.",
        -11.0544669463262
      ],
      [
        "fi",
        -11.32805404988979
      ],
      [
        "usi",
        -10.751881598698496
      ],
      [
        "5,7",
        -13.612706607221204
      ],
      [
        "▁square",
        -8.749761878767423
      ],
      [
        "▁limit",
        -8.742638482598206
      ],
      [
        "▁act",
        -8.296104074190776
      ],
      [
        "sie",
        -11.754802446786904
      ],
      [
        "▁went",
        -7.305383842011238
      ],
      [
        "ish",
        -7.983739829070976
      ],
      [
        "▁mari",
        -11.608463054468066
      ],
      [
        "age",
        -7.609327764005607
      ],
      [
        "▁sport",
        -9.482010940174444
      ],
      [
        "▁plant",
        -8.663925308143618
      ],
      [
        "▁uhh",
        -8.45384459621051
      ],
      [
        "ite",
        -8.550272744267982
      ],
      [
        "out",
        -7.858831281268998
      ],
      [
        "▁0.",
        -13.638150010343118
      ],
      [
        "8:",
        -13.917734500659606
      ],
      [
        "▁he",
        -8.534720388220435
      ],
      [
        "im",
        -7.706164698662051
      ],
      [
        "29",
        -11.000795650078883
      ],
      [
        "+",
        -9.375196107582328
      ],
      [
        "▁defin",
        -9.09243326522773
      ],
      [
        "▁breath",
        -9.339630642775514
      ],
      [
        "▁164",
        -13.046176533905449
      ],
      [
        "▁10:46",
        -13.191033757998555
      ],
      [
        "ana",
        -9.942388696697838
      ],
      [
        "▁with",
        -5.2317098867092025
      ],
      [
        "▁world",
        -7.192082914332565
      ],
      [
        "▁10.9",
        -13.49551542024026
      ],
      [
        "▁begin",
        -8.995053743415895
      ],
      [
        "_____________",
        -11.525029049914908
      ],
      [
        "9025",
        -13.941520505513104
      ],
      [
        "real",
        -8.968296233379672
      ],
      [
        "e",
        -3.1746558395188593
      ],
      [
        "ever",
        -10.99252029374719
      ],
      [
        "lock",
        -8.284784692874336
      ],
      [
        "at",
        -10.216755346387043
      ],
      [
        "k",
        -6.070529180937508
      ],
      [
        "cou",
        -7.440679466282132
      ],
      [
        "▁keep",
        -7.549489584849413
      ],
      [
        "0,000",
        -10.195250905356877
      ],
      [
        "▁101",
        -12.534622449071785
      ],
      [
        "▁pin",
        -9.226219411562406
      ],
      [
        "a",
        -8.241796670952791
      ],
      [
        "later",
        -8.00961419456725
      ],
      [
        "▁03",
        -11.284359577117705
      ],
      [
        "▁ig",
        -11.51413377136796
      ],
      [
        "▁surprise",
        -8.749761682488774
      ],
      [
        "le",
        -6.156208793046737
      ],
      [
        "▁party",
        -8.392480052123636
      ],
      [
        "!",
        -5.053267665729648
      ],
      [
        "▁mont",
        -11.406343531014489
      ],
      [
        "▁2000",
        -9.714470099810217
      ],
      [
        "do",
        -9.846160357156576
      ],
      [
        "will",
        -9.026017628551928
      ],
      [
        "▁shal",
        -8.887905078232698
      ],
      [
        "▁young",
        -8.112558615669563
      ],
      [
        "▁text",
        -8.944112004130112
      ],
      [
        "▁administration",
        -9.23395969019624
      ],
      [
        "▁factor",
        -9.098206871256597
      ],
      [
        "ne",
        -10.32490622756281
      ],
      [
        "▁deliver",
        -8.836302419392005
      ],
      [
        "▁eu",
        -9.218965206608047
      ],
      [
        "▁point",
        -7.604953291364946
      ],
      [
        "aught",
        -9.216016350606033
      ],
      [
        "▁join",
        -8.761611441660243
      ],
      [
        "▁tu",
        -8.598809402587051
      ],
      [
        "val",
        -9.232370327390083
      ],
      [
        "▁1",
        -8.106310199785788
      ],
      [
        "▁69",
        -13.421823213516547
      ],
      [
        "▁1030",
        -14.191480154345427
      ],
      [
        "▁hum",
        -9.448611413692879
      ],
      [
        ".62",
        -13.211030304685309
      ],
      [
        "▁fit",
        -8.657267832670456
      ],
      [
        "va",
        -8.99857129951463
      ],
      [
        "able",
        -7.157157010501142
      ],
      [
        "▁peace",
        -8.709295350438492
      ],
      [
        "▁introduc",
        -8.982011362448398
      ],
      [
        "▁ensure",
        -9.056670866353993
      ],
      [
        "oz",
        -13.09651911333736
      ],
      [
        "▁10/31/",
        -13.136852295825433
      ],
      [
        "sburg",
        -6.826333676900715
      ],
      [
        "“",
        -6.515170392843602
      ],
      [
        "▁litera",
        -9.02941976478841
      ],
      [
        "ors",
        -11.776077782252447
      ],
      [
        "▁beside",
        -10.020238870103876
      ],
      [
        "ink",
        -9.169075642938147
      ],
      [
        "/01/200",
        -12.253837409322447
      ],
      [
        "▁shape",
        -9.361451619547784
      ],
      [
        "▁fire",
        -8.381478063018474
      ],
      [
        "▁155",
        -13.15109811699319
      ],
      [
        "▁fo",
        -8.84266740213289
      ],
      [
        "another",
        -10.357494289543581
      ],
      [
        "rice",
        -11.031928129019633
      ],
      [
        "$",
        -6.573299397139614
      ],
      [
        "▁constitution",
        -9.417319489817231
      ],
      [
        "▁her",
        -8.88294077427687
      ],
      [
        "▁follow",
        -8.257495573670635
      ],
      [
        "▁pm",
        -7.143833198925833
      ],
      [
        "grew",
        -9.48165071121786
      ],
      [
        "▁drop",
        -9.133219905071801
      ],
      [
        "▁purpose",
        -9.122097794115687
      ],
      [
        "▁3-5",
        -14.178510138455286
      ],
      [
        "sh",
        -11.580471676368932
      ],
      [
        "▁quin",
        -8.26767448257892
      ],
      [
        ".html",
        -9.4411483478697
      ],
      [
        "▁vi",
        -8.399841972136993
      ],
      [
        "▁word",
        -8.372734462772268
      ],
      [
        "82",
        -12.695234607868187
      ],
      [
        "▁814.863.",
        -13.136770579314764
      ],
      [
        "▁like",
        -5.812901594015099
      ],
      [
        "▁che",
        -8.09254794576394
      ],
      [
        "▁7:",
        -14.019212079305508
      ],
      [
        "▁de",
        -5.953690385181636
      ],
      [
        "mas",
        -8.903198891689637
      ],
      [
        "▁effort",
        -8.709147316691247
      ],
      [
        "▁|",
        -9.754805093749667
      ],
      [
        "▁character",
        -8.870788179967155
      ],
      [
        "ive",
        -7.072697790879858
      ],
      [
        "▁stop",
        -7.728362152868244
      ],
      [
        "63",
        -13.001747287727072
      ],
      [
        "▁3.",
        -11.838486170755697
      ],
      [
        "▁give",
        -6.663791035394665
      ],
      [
        "▁four",
        -8.194599694491092
      ],
      [
        "▁pen",
        -11.910450438494662
      ],
      [
        "▁she",
        -8.90900784542834
      ],
      [
        "▁job",
        -7.85095512315574
      ],
      [
        "t",
        -4.855431475116227
      ],
      [
        "▁0.05",
        -13.136790309889701
      ],
      [
        "▁sat",
        -8.760824251425891
      ],
      [
        "▁offer",
        -8.228699293885931
      ],
      [
        "▁civil",
        -9.107511223837708
      ],
      [
        "▁central",
        -9.200261268772064
      ],
      [
        "7/200",
        -11.393922540536888
      ],
      [
        "▁sevent",
        -11.493210934503715
      ],
      [
        "7/9",
        -12.765859434088394
      ],
      [
        "▁min",
        -12.21839882115609
      ],
      [
        "▁standard",
        -9.268628420925303
      ],
      [
        "464",
        -15.254803851314197
      ],
      [
        "]",
        -6.130793076695081
      ],
      [
        "*",
        -8.451504526190725
      ],
      [
        "an@",
        -11.833734850128128
      ],
      [
        "▁713-793-",
        -13.13677076999933
      ],
      [
        "▁river",
        -8.894960140568601
      ],
      [
        "▁rid",
        -9.313196286378393
      ],
      [
        "▁smell",
        -9.137267359189961
      ],
      [
        "▁threat",
        -9.45776654071281
      ],
      [
        "▁agent",
        -9.459580307141533
      ],
      [
        "ak",
        -8.371234189928265
      ],
      [
        "▁315",
        -13.155477789292316
      ],
      [
        "-200",
        -14.147349975607732
      ],
      [
        "om",
        -8.375282610503437
      ],
      [
        "▁32",
        -11.230927335086662
      ],
      [
        "▁better",
        -7.624404749596124
      ],
      [
        "▁trans",
        -8.99432784093039
      ],
      [
        ".322",
        -13.137284014680993
      ],
      [
        "▁avoid",
        -9.107172503120278
      ],
      [
        ";",
        -12.303437246021387
      ],
      [
        "/8/",
        -13.141982870234665
      ],
      [
        "▁my",
        -5.717040750618234
      ],
      [
        "▁one",
        -6.33960201211124
      ],
      [
        "▁john",
        -8.269185049672725
      ],
      [
        "▁shoe",
        -8.471207512857436
      ],
      [
        "bi",
        -11.03152925061998
      ],
      [
        "▁adult",
        -9.267522862061087
      ],
      [
        "▁most",
        -7.114565288015806
      ],
      [
        "▁serious",
        -8.770719245777553
      ],
      [
        "▁life",
        -7.423548496518453
      ],
      [
        "▁toast",
        -8.906543134094544
      ],
      [
        "▁idea",
        -7.9420338199056575
      ],
      [
        "5-2",
        -13.171837843619866
      ],
      [
        "▁....",
        -10.491737081619904
      ],
      [
        "▁bec",
        -6.743294393000098
      ],
      [
        "ft",
        -14.523025007239074
      ],
      [
        "▁cap",
        -11.042763508224242
      ],
      [
        "▁access",
        -8.04375481951472
      ],
      [
        "09/",
        -13.576926037779202
      ],
      [
        "▁network",
        -9.479897033600011
      ],
      [
        "!!!!!!!!!!!!!!!!",
        -11.406486109637537
      ],
      [
        ":50",
        -14.104129210442572
      ],
      [
        "▁345-",
        -11.796213981224737
      ],
      [
        "ri",
        -7.147276753752398
      ],
      [
        "▁cake",
        -9.251620867004046
      ],
      [
        "urs",
        -11.334386090581136
      ],
      [
        "nc",
        -13.143028727913359
      ],
      [
        "▁yo",
        -11.72382369226988
      ],
      [
        "a",
        -3.033586768312313
      ],
      [
        "▁w",
        -7.000356910635805
      ],
      [
        "▁17",
        -9.290161455670848
      ],
      [
        "nasa",
        -9.21089138090376
      ],
      [
        "und",
        -8.394454848542383
      ],
      [
        "hal",
        -12.11520426761416
      ],
      [
        "ice",
        -9.380189855670036
      ],
      [
        "00",
        -11.338619248245914
      ],
      [
        "▁milk",
        -7.9035435467874215
      ],
      [
        "▁commission",
        -8.432082682872998
      ],
      [
        "▁men",
        -8.272479640613323
      ],
      [
        "▁sorr",
        -8.698408973198056
      ],
      [
        "▁implement",
        -8.982011316213576
      ],
      [
        "▁whil",
        -9.25138915413512
      ],
      [
        "59",
        -12.012136318615285
      ],
      [
        "▁focus",
        -8.82508048018904
      ],
      [
        "▁fa",
        -9.027971678539867
      ],
      [
        "▁paris",
        -8.983831156883138
      ],
      [
        "▁europe",
        -8.738643113534511
      ],
      [
        "▁continue",
        -8.360140942795713
      ],
      [
        ".4",
        -12.436816092376471
      ],
      [
        "c",
        -8.583264543799583
      ],
      [
        "▁root",
        -9.250392531515134
      ],
      [
        "▁review",
        -8.285734789753
      ],
      [
        "phis",
        -8.89676085730484
      ],
      [
        "▁08/0",
        -12.957041608583907
      ],
      [
        "▁leaders",
        -9.357159366454384
      ],
      [
        "▁recent",
        -8.305765529182342
      ],
      [
        "▁catch",
        -8.88623275356953
      ],
      [
        "▁continent",
        -8.56141484780617
      ],
      [
        "giving",
        -9.218170616975675
      ],
      [
        "ps",
        -11.805325689791168
      ],
      [
        "▁alre",
        -7.760373454554562
      ],
      [
        "▁06",
        -14.83179025567944
      ],
      [
        "@",
        -10.554571148747016
      ],
      [
        "50",
        -10.090879082816057
      ],
      [
        "▁wet",
        -9.467737134454339
      ],
      [
        "275",
        -13.948612843905096
      ],
      [
        "▁minute",
        -7.90544277499122
      ],
      [
        "▁which",
        -6.3952446191528125
      ],
      [
        "▁38",
        -10.592551675736491
      ],
      [
        "zen",
        -11.834053334203755
      ],
      [
        "▁bulldo",
        -9.479837666752845
      ],
      [
        "1/",
        -13.869957499964796
      ],
      [
        "▁promise",
        -9.200295703057108
      ],
      [
        "93",
        -11.85630945489547
      ],
      [
        "▁private",
        -9.152731880492148
      ],
      [
        "▁include",
        -8.551138632842516
      ],
      [
        "[CLS]",
        0.0
      ],
      [
        "▁more",
        -6.131523263062251
      ],
      [
        "▁k",
        -7.377484938904233
      ],
      [
        "▁propos",
        -11.833816316062954
      ],
      [
        "▁12.4",
        -12.675189927992927
      ],
      [
        "▁tol",
        -7.606090584739392
      ],
      [
        "▁chine",
        -9.458804677150583
      ],
      [
        ",",
        -14.062328514601079
      ],
      [
        "▁other",
        -10.00918580141893
      ],
      [
        "ne",
        -7.410849862552654
      ],
      [
        "▁575",
        -13.298948382838432
      ],
      [
        "26",
        -11.044531444058311
      ],
      [
        "▁mov",
        -8.352837758320664
      ],
      [
        "110",
        -13.650665772775566
      ],
      [
        "62",
        -12.786065695044039
      ],
      [
        "ti",
        -11.721458890591762
      ],
      [
        "▁programme",
        -8.969842060668356
      ],
      [
        "▁matter",
        -8.410777112056355
      ],
      [
        "▁road",
        -8.527815339463732
      ],
      [
        "▁percentage",
        -9.153042650529773
      ],
      [
        "▁laugh",
        -8.871818216869805
      ],
      [
        "nati",
        -9.021036664708447
      ],
      [
        "5",
        -11.2014486825648
      ],
      [
        "▁result",
        -8.107094758642335
      ],
      [
        "/31/200",
        -14.531245091965793
      ],
      [
        "▁are",
        -7.251485683306447
      ],
      [
        "04",
        -11.055407844624849
      ],
      [
        "▁193",
        -11.572276976136822
      ],
      [
        "2/22/200",
        -13.318763253437512
      ],
      [
        "/16/200",
        -11.522972034904177
      ],
      [
        "ry",
        -7.846355199563948
      ],
      [
        "▁little",
        -6.850834289904474
      ],
      [
        "▁of",
        -5.314681426468249
      ],
      [
        "▁09",
        -12.321597955198031
      ],
      [
        "▁step",
        -8.51919523518397
      ],
      [
        "ily",
        -8.908191325943104
      ],
      [
        "▁coffee",
        -8.931045904356257
      ],
      [
        "▁mari",
        -9.443073299457419
      ],
      [
        "▁03:5",
        -12.716987644101394
      ],
      [
        "s",
        -3.2339556402487695
      ],
      [
        "▁cook",
        -8.740813154708885
      ],
      [
        "▁cruise",
        -9.339612981150038
      ],
      [
        "▁fro",
        -4.951061705951037
      ],
      [
        "▁k",
        -11.022160819746752
      ],
      [
        "▁shar",
        -9.096575464472181
      ],
      [
        "ine",
        -11.05431148575052
      ],
      [
        "▁march",
        -8.838795193610267
      ],
      [
        "▁h",
        -9.927331136986188
      ],
      [
        "▁15",
        -8.984665687247123
      ],
      [
        "h",
        -4.251603060837546
      ],
      [
        "kin",
        -9.147166564881264
      ],
      [
        "▁05:",
        -13.864709534199491
      ],
      [
        "x",
        -9.923621729153174
      ],
      [
        "831",
        -13.883646719328423
      ],
      [
        "3:5",
        -14.208247099564232
      ],
      [
        "ady",
        -7.72493519321034
      ],
      [
        "▁explor",
        -9.23332187576857
      ],
      [
        "▁3,20",
        -14.285822218088654
      ],
      [
        "0.00",
        -12.093399042272235
      ],
      [
        "ls",
        -11.685671346963833
      ],
      [
        "▁energy",
        -8.561415531862526
      ],
      [
        "ic",
        -6.916887632679161
      ],
      [
        "ie",
        -10.957348115487262
      ],
      [
        "▁21",
        -9.720348909308502
      ],
      [
        "ww",
        -11.333822930986164
      ],
      [
        "▁172",
        -13.09131332977712
      ],
      [
        "▁early",
        -7.885513161119622
      ],
      [
        "canada",
        -9.207455906658074
      ],
      [
        "▁the",
        -3.2262610317436575
      ],
      [
        "of",
        -7.711049108475501
      ],
      [
        "▁music",
        -8.814181669613612
      ],
      [
        "▁lead",
        -8.48072085801997
      ],
      [
        "some",
        -9.085706270044335
      ],
      [
        "▁head",
        -7.455726300054692
      ],
      [
        "▁um",
        -7.036908117612676
      ],
      [
        "▁du",
        -10.433267498874658
      ],
      [
        "▁official",
        -8.679734561007695
      ],
      [
        "janu",
        -9.012529184372063
      ],
      [
        "▁west",
        -8.459183731517161
      ],
      [
        "te",
        -10.853311653238517
      ],
      [
        "▁02:4",
        -13.19370597151417
      ],
      [
        "07",
        -11.86690334019674
      ],
      [
        "ang",
        -11.833863112049684
      ],
      [
        "lin",
        -8.669889247315794
      ],
      [
        "eau",
        -10.944244681849543
      ],
      [
        "▁‘",
        -9.464789161370845
      ],
      [
        "▁lie",
        -9.265321697314791
      ],
      [
        "▁message",
        -8.750039384167764
      ],
      [
        "▁part",
        -7.214034911025166
      ],
      [
        "v",
        -8.162352736604976
      ],
      [
        "▁978",
        -14.088774827596918
      ],
      [
        "▁every",
        -7.080078169630707
      ],
      [
        "▁haf",
        -7.8423561384863545
      ],
      [
        "▁176",
        -13.441094984774196
      ],
      [
        "▁qu",
        -11.69859529127919
      ],
      [
        "ton",
        -8.44393098595527
      ],
      [
        "y",
        -5.310532547169549
      ],
      [
        "▁ninety",
        -11.07772853787612
      ],
      [
        "h",
        -4.869333663300907
      ],
      [
        "646-",
        -10.793300965609518
      ],
      [
        "▁thing",
        -6.696696390503224
      ],
      [
        "▁success",
        -9.320641879552777
      ],
      [
        "▁04:3",
        -12.39975877017382
      ],
      [
        "???",
        -11.362839390116866
      ],
      [
        "▁115",
        -13.452826453989035
      ],
      [
        "fr",
        -13.6376372973617
      ],
      [
        "seven",
        -11.950148330680463
      ],
      [
        "▁bank",
        -9.008644020305056
      ],
      [
        "▁micro",
        -9.39620824257533
      ],
      [
        "man",
        -7.558719227012472
      ],
      [
        "▁indian",
        -9.011320480352442
      ],
      [
        "6",
        -11.333785825435129
      ],
      [
        "▁parent",
        -8.578927561185768
      ],
      [
        "---------------",
        -9.308357502044146
      ],
      [
        "▁creat",
        -8.801459216929164
      ],
      [
        "▁102",
        -12.015717884418418
      ],
      [
        "ho",
        -11.461160583291992
      ],
      [
        "▁mem",
        -8.784776181654259
      ],
      [
        "478",
        -12.69529157028718
      ],
      [
        "▁finger",
        -8.680933932740388
      ],
      [
        "when",
        -10.093911075754406
      ],
      [
        "ell",
        -11.871927484342326
      ],
      [
        "▁share",
        -8.922815607555453
      ],
      [
        "▁dere",
        -8.2851525035041
      ],
      [
        "▁$",
        -8.88609295041069
      ],
      [
        "▁w",
        -10.342911633810916
      ],
      [
        "▁kid",
        -8.188162141055615
      ],
      [
        "me",
        -8.491665941977898
      ],
      [
        "281",
        -13.08571318027819
      ],
      [
        "▁stuff",
        -8.346394656993702
      ],
      [
        "23",
        -10.346114600887256
      ],
      [
        "▁16.3",
        -12.63810091809569
      ],
      [
        "▁hall",
        -9.395913248595198
      ],
      [
        "▁o",
        -10.961654798814939
      ],
      [
        "▁705",
        -13.150366755684853
      ],
      [
        "▁leg",
        -8.238585087274288
      ],
      [
        "tte",
        -9.114181070885595
      ],
      [
        "igh",
        -12.634214216105145
      ],
      [
        "▁education",
        -8.770704693436638
      ],
      [
        "58",
        -11.951611418715437
      ],
      [
        "▁483",
        -12.866366678941011
      ],
      [
        "▁http://www.",
        -8.487008448751101
      ],
      [
        "▁07:5",
        -13.366398234128265
      ],
      [
        "side",
        -8.765355711292925
      ],
      [
        "▁65",
        -11.678712553193165
      ],
      [
        "▁pri",
        -11.348572751093645
      ],
      [
        "▁72",
        -12.15083050910019
      ],
      [
        "▁sq",
        -9.311085010968924
      ],
      [
        "▁tog",
        -8.10919747813125
      ],
      [
        "▁pig",
        -9.369181804127194
      ],
      [
        "▁structure",
        -9.063688071770724
      ],
      [
        "▁thirty",
        -9.777242291981953
      ],
      [
        "▁bird",
        -8.425289795079221
      ],
      [
        "-10",
        -14.133997772797096
      ],
      [
        "an",
        -6.926761948213764
      ],
      [
        "▁basi",
        -9.301586439885288
      ],
      [
        "-90",
        -13.068844075328698
      ],
      [
        "▁many",
        -6.905827656353487
      ],
      [
        "2",
        -7.896452976926304
      ],
      [
        "▁shi",
        -9.290639511708537
      ],
      [
        "▁group",
        -7.581125817888864
      ],
      [
        "804",
        -15.394592738338083
      ],
      [
        "▁in",
        -5.625432472469344
      ],
      [
        "▁regular",
        -9.15263396182148
      ],
      [
        "nix",
        -8.260684047589304
      ],
      [
        "▁post",
        -8.082860672158626
      ],
      [
        "information",
        -7.458320215083143
      ],
      [
        "3.9",
        -15.105236235809905
      ],
      [
        "▁direct",
        -8.498970148065773
      ],
      [
        "▁we",
        -6.530690589681938
      ],
      [
        "▁11:4",
        -12.172957016856623
      ],
      [
        "9/11/",
        -14.264817947757411
      ],
      [
        "et",
        -10.675836850049606
      ],
      [
        "uh",
        -8.320668914799748
      ],
      [
        "▁co",
        -7.608662646971909
      ],
      [
        "198",
        -12.614044660337438
      ],
      [
        "▁bla",
        -11.153801094753153
      ],
      [
        "▁oil",
        -8.615610593247059
      ],
      [
        "▁grant",
        -9.379595921572697
      ],
      [
        "▁al",
        -7.856982673714978
      ],
      [
        "4-6",
        -14.856897830413907
      ],
      [
        "led",
        -8.561223773640947
      ],
      [
        "▁cross",
        -8.882601384987055
      ],
      [
        "▁eat",
        -6.944106996930494
      ],
      [
        "▁b/",
        -12.079815656165398
      ],
      [
        "011",
        -15.22103753955253
      ],
      [
        "_0",
        -10.554922362196779
      ],
      [
        "▁m",
        -6.894612805083696
      ],
      [
        "com",
        -8.5141931365871
      ],
      [
        "ck",
        -11.501990416744686
      ],
      [
        "▁jan",
        -9.415534310511545
      ],
      [
        "▁guess",
        -8.455898557350597
      ],
      [
        "▁user",
        -9.218026813084803
      ],
      [
        "▁language",
        -8.043747694198618
      ],
      [
        "▁af",
        -10.680045281053738
      ],
      [
        "300",
        -11.818994592795601
      ],
      [
        "▁apply",
        -9.132918392127742
      ],
      [
        "▁10",
        -8.18158323818868
      ],
      [
        "▁laura",
        -7.896577501300375
      ],
      [
        "▁distribut",
        -9.377711646729807
      ],
      [
        "▁sea",
        -7.963269238900618
      ],
      [
        "▁ma",
        -10.186220961378396
      ],
      [
        "noth",
        -10.310046823389449
      ],
      [
        "ها",
        -11.833785825409558
      ],
      [
        "houston",
        -8.293769357863145
      ],
      [
        "▁5.3",
        -12.917050090092495
      ],
      [
        "▁bak",
        -9.469875784274443
      ],
      [
        "today",
        -7.258309210528477
      ],
      [
        "▁data",
        -7.774998910312053
      ],
      [
        "▁position",
        -8.639536937081633
      ],
      [
        "v",
        -6.637390567748724
      ],
      [
        "taking",
        -8.142583171213966
      ],
      [
        "▁320",
        -12.642809539566734
      ],
      [
        "▁9.",
        -14.140127953573415
      ],
      [
        "thin",
        -7.525429256744984
      ],
      [
        "ship",
        -8.619687396246924
      ],
      [
        "how",
        -12.00020881905705
      ],
      [
        "▁belong",
        -9.30292248374547
      ],
      [
        "▁just",
        -5.99834896920404
      ],
      [
        "▁pre",
        -7.8929852617624885
      ],
      [
        "▁match",
        -9.18500587117051
      ],
      [
        "▁gas",
        -8.870657060510489
      ],
      [
        "microsoft",
        -9.321095238929525
      ],
      [
        "as",
        -9.405082315508245
      ],
      [
        "5:1",
        -12.952843723349199
      ],
      [
        "▁mouth",
        -8.760213784343858
      ],
      [
        "▁–",
        -8.830259373919713
      ],
      [
        "374",
        -14.171634080521564
      ],
      [
        "▁us",
        -6.626421391711564
      ],
      [
        "▁out",
        -6.916244102671383
      ],
      [
        "1/30/",
        -14.050747197655259
      ],
      [
        "ka",
        -9.052917900272035
      ],
      [
        "▁pitt",
        -6.928270392283776
      ],
      [
        "▁kne",
        -8.397810095460974
      ],
      [
        "▁2,2",
        -13.414392304097612
      ],
      [
        "1",
        -9.7911173076794
      ],
      [
        "ion",
        -11.21408476222782
      ],
      [
        "▁3/9/",
        -13.141521256888392
      ],
      [
        "▁korea",
        -9.358529051436395
      ],
      [
        "▁become",
        -8.266273394390149
      ],
      [
        "ce",
        -6.5269895898694905
      ],
      [
        "ed",
        -9.811572089528623
      ],
      [
        "ce",
        -12.10047152210219
      ],
      [
        "ation",
        -10.323213255553187
      ],
      [
        "▁ever",
        -7.942229594798344
      ],
      [
        "▁master",
        -9.417619448669582
      ],
      [
        "▁me",
        -11.596167386121415
      ],
      [
        "fore",
        -8.831458765007323
      ],
      [
        "▁brother",
        -8.943547904229508
      ],
      [
        "night",
        -9.151461935808936
      ],
      [
        "▁156",
        -11.352272366395722
      ],
      [
        "▁*",
        -9.609198289345132
      ],
      [
        "▁apri",
        -8.545779646290505
      ],
      [
        "▁noise",
        -9.220706296893482
      ],
      [
        "on",
        -8.513306147673212
      ],
      [
        "vi",
        -13.271633197609209
      ],
      [
        "▁all",
        -7.36381571866882
      ],
      [
        "▁balzac",
        -8.605281244455933
      ],
      [
        "▁inc",
        -8.725250090019678
      ],
      [
        "fift",
        -13.78385295110786
      ],
      [
        "lys",
        -10.25405955036088
      ],
      [
        "------------",
        -10.630566914886277
      ],
      [
        "87",
        -11.624567727260336
      ],
      [
        "at",
        -11.735037344101686
      ],
      [
        "▁finish",
        -8.298791037512773
      ],
      [
        "330",
        -13.120737973817718
      ],
      [
        "tar",
        -9.390873903757036
      ],
      [
        "5-5",
        -14.771435945680578
      ],
      [
        "▁",
        -3.6523744629450476
      ],
      [
        "▁mil",
        -7.810684850678914
      ],
      [
        "▁hit",
        -8.069167359074193
      ],
      [
        "▁05908",
        -14.137857475199201
      ],
      [
        "▁harr",
        -7.994555857934575
      ],
      [
        "20",
        -9.664350029724119
      ],
      [
        "▁federal",
        -9.302921081023673
      ],
      [
        "159",
        -14.034648351999111
      ],
      [
        "▁carol",
        -9.469062360446758
      ],
      [
        "▁06:2",
        -12.823132787264766
      ],
      [
        "▁intend",
        -9.285147534024091
      ],
      [
        "▁comp",
        -8.338081157888505
      ],
      [
        "▁sw",
        -8.701361567285623
      ],
      [
        "▁486",
        -12.653032614800075
      ],
      [
        "ess",
        -10.471468821381702
      ],
      [
        "▁dear",
        -9.354996641669977
      ],
      [
        "▁arrive",
        -7.998778604269178
      ],
      [
        "if",
        -8.379036809334306
      ],
      [
        "▁walk",
        -7.679194140199732
      ],
      [
        "▁202.4",
        -14.138177894591795
      ],
      [
        "▁79",
        -13.348276525599443
      ],
      [
        "le",
        -9.291517426822528
      ],
      [
        "or",
        -9.02650783446284
      ],
      [
        "ac",
        -7.671151142865232
      ],
      [
        "▁223",
        -13.579519920084984
      ],
      [
        "▁full",
        -7.951226508436741
      ],
      [
        "▁,",
        -8.356357715006416
      ],
      [
        "▁secret",
        -9.479269031270722
      ],
      [
        "less",
        -8.147620233894948
      ],
      [
        "▁reli",
        -9.485358987219955
      ],
      [
        "nd",
        -8.038269447322932
      ],
      [
        "be",
        -11.65358394877458
      ],
      [
        "z",
        -6.898449859787358
      ],
      [
        "▁ko",
        -9.33664654446504
      ],
      [
        "▁0",
        -12.590165494098185
      ],
      [
        "90",
        -11.556925731215681
      ],
      [
        "▁cleve",
        -8.596598378718156
      ],
      [
        "▁original",
        -8.77723676968968
      ],
      [
        "ever",
        -9.015581108515743
      ],
      [
        "▁415",
        -11.58093456553975
      ],
      [
        "1530",
        -12.901235037960074
      ],
      [
        "---",
        -10.562408915400244
      ],
      [
        "ome",
        -8.970686798042294
      ],
      [
        "▁end",
        -7.468463941033079
      ],
      [
        "they",
        -8.51994232805994
      ],
      [
        "ley",
        -8.52289814027371
      ],
      [
        "▁fresh",
        -9.049659124195593
      ],
      [
        "▁713-853-3",
        -10.96826864569135
      ],
      [
        "▁way",
        -6.527088376330729
      ],
      [
        "security",
        -8.511195542049105
      ],
      [
        "▁depend",
        -9.070047726089676
      ],
      [
        "▁role",
        -8.851534101756588
      ],
      [
        "▁ag",
        -9.062038990771534
      ],
      [
        "▁voice",
        -8.63263360789163
      ],
      [
        "1.",
        -10.975907898287584
      ],
      [
        "▁27",
        -10.732058639073955
      ],
      [
        "▁tree",
        -8.76353953119877
      ],
      [
        "▁skin",
        -9.408308491706626
      ],
      [
        "les",
        -13.952486469106422
      ],
      [
        "▁travel",
        -8.059220193429141
      ],
      [
        "▁pet",
        -8.526081080849192
      ],
      [
        "▁4,",
        -13.54847460893589
      ],
      [
        "▁respond",
        -9.397319582307512
      ],
      [
        "lta",
        -8.506766985088579
      ],
      [
        "▁story",
        -8.53893376897219
      ],
      [
        "▁some",
        -6.347888441191562
      ],
      [
        "woul",
        -8.996040675627027
      ],
      [
        "▁vi",
        -10.603769107239945
      ],
      [
        "▁on",
        -6.120852885470934
      ],
      [
        "004",
        -12.193711620918602
      ],
      [
        "mu",
        -12.904897371489005
      ],
      [
        "1-",
        -13.88331746913178
      ],
      [
        "2.1",
        -13.661571770770541
      ],
      [
        "▁members",
        -8.846924023561048
      ],
      [
        "lve",
        -15.294268364475524
      ],
      [
        "▁pack",
        -8.996847472949725
      ],
      [
        "03",
        -10.997704795848549
      ],
      [
        "/17/",
        -12.886927881943858
      ],
      [
        "ad",
        -11.29363953844414
      ],
      [
        "der",
        -8.368736154867895
      ],
      [
        "na",
        -7.532758845571233
      ],
      [
        "2-3",
        -14.137626843077042
      ],
      [
        "be",
        -7.17887837628711
      ],
      [
        "▁g",
        -10.973761537441948
      ],
      [
        "▁v",
        -10.383004732620629
      ],
      [
        "▁guy",
        -7.799578142842087
      ],
      [
        "▁career",
        -9.359673286835307
      ],
      [
        "▁painting",
        -9.4657053033708
      ],
      [
        "▁mean",
        -7.006517564451174
      ],
      [
        "▁ge",
        -8.756685726088506
      ],
      [
        "▁research",
        -8.381242427491518
      ],
      [
        "▁total",
        -8.760402233104454
      ],
      [
        "857",
        -13.99478226486609
      ],
      [
        "324",
        -13.101879675234535
      ],
      [
        "237",
        -13.823535084092079
      ],
      [
        "33",
        -11.518810232972719
      ],
      [
        "▁minne",
        -9.064856351970965
      ],
      [
        "whos",
        -12.609213014906798
      ],
      [
        "▁restaurant",
        -8.519392082582367
      ],
      [
        "25-",
        -13.398557885729506
      ],
      [
        "▁case",
        -7.871649774993831
      ],
      [
        "▁button",
        -8.699249206325431
      ],
      [
        "ict",
        -9.27616764300043
      ],
      [
        "▁s",
        -9.536036570880462
      ],
      [
        "▁title",
        -9.458675931298345
      ],
      [
        "▁working",
        -8.412682604420574
      ],
      [
        "1,5",
        -13.143611588264069
      ],
      [
        "▁08/1",
        -12.915334419237052
      ],
      [
        "rick",
        -9.054948935291522
      ],
      [
        "▁ears",
        -9.421733762359802
      ],
      [
        "century",
        -8.956210006349774
      ],
      [
        "▁21,",
        -14.146030434996668
      ],
      [
        "drew",
        -9.481266162932126
      ],
      [
        "i",
        -5.892702216880954
      ],
      [
        "▁505",
        -12.496806499314392
      ],
      [
        "▁great",
        -6.94173455512452
      ],
      [
        "▁shakespeare",
        -8.298721723030969
      ],
      [
        "▁03:3",
        -13.301144353011441
      ],
      [
        "▁2051",
        -13.376212310261275
      ],
      [
        "▁d",
        -9.553231019557948
      ],
      [
        "▁board",
        -8.894643066878457
      ],
      [
        "▁271",
        -13.991854088309573
      ],
      [
        "▁wine",
        -9.074356694013222
      ],
      [
        "▁trade",
        -8.814306883299565
      ],
      [
        "▁sign",
        -8.223109350517074
      ],
      [
        "----------------",
        -8.665339290745422
      ],
      [
        "▁suggest",
        -8.697621377325525
      ],
      [
        "▁he",
        -8.181341627242087
      ],
      [
        "was",
        -8.237389634384785
      ],
      [
        "▁fund",
        -8.666767172477947
      ],
      [
        "414",
        -13.14622484673741
      ],
      [
        "▁di",
        -9.299796853513925
      ],
      [
        "▁41",
        -11.462132681209736
      ],
      [
        "1-9",
        -13.133680507267583
      ],
      [
        "▁thes",
        -7.428819531863239
      ],
      [
        "▁important",
        -8.097147459271259
      ],
      [
        "▁talk",
        -7.224617508601694
      ],
      [
        "▁comment",
        -8.624209708606559
      ],
      [
        "▁ran",
[...]
