{
  "version": "1.0",
  "truncation": null,
  "padding": null,
  "added_tokens": [
    {
      "id": 772,
      "content": "[SEP]",
      "single_word": false,
      "lstrip": false,
      "rstrip": false,
      "normalized": false,
      "special": true
    },
    {
      "id": 3107,
      "content": "[CLS]",
      "single_word": false,
      "lstrip": false,
      "rstrip": false,
      "normalized": false,
      "special": true
    },
    {
      "id": 12278,
      "content": "[UNK]",
      "single_word": false,
      "lstrip": false,
      "rstrip": false,
      "normalized": false,
      "special": true
    },
    {
      "id": 13500,
      "content": "[MASK]",
      "single_word": false,
      "lstrip": false,
      "rstrip": false,
      "normalized": false,
      "special": true
    },
    {
      "id": 14214,
      "content": "[PAD]",
      "single_word": false,
      "lstrip": false,
      "rstrip": false,
      "normalized": false,
      "special": true
    }
  ],
  "normalizer": {
    "type": "Sequence",
    "normalizers": [
      {
        "type": "NFD"
      },
      {
        "type": "Lowercase"
      },
      {
        "type": "StripAccents"
      }
    ]
  },
  "pre_tokenizer": {
    "type": "Sequence",
    "pretokenizers": [
      {
        "type": "Metaspace",
        "replacement": "▁",
        "prepend_scheme": "always",
        "split": true
      }
    ]
  },
  "post_processor": {
    "type": "TemplateProcessing",
    "single": [
      {
        "SpecialToken": {
          "id": "[CLS]",
          "type_id": 0
        }
      },
      {
        "Sequence": {
          "id": "A",
          "type_id": 0
        }
      },
      {
        "SpecialToken": {
          "id": "[SEP]",
          "type_id": 0
        }
      }
    ],
    "pair": [
      {
        "SpecialToken": {
          "id": "[CLS]",
          "type_id": 0
        }
      },
      {
        "Sequence": {
          "id": "A",
          "type_id": 0
        }
      },
      {
        "SpecialToken": {
          "id": "[SEP]",
          "type_id": 0
        }
      },
      {
        "Sequence": {
          "id": "B",
          "type_id": 1
        }
      },
      {
        "SpecialToken": {
          "id": "[SEP]",
          "type_id": 1
        }
      }
    ],
    "special_tokens": {
      "[CLS]": {
        "id": "[CLS]",
        "ids": [
          3107
        ],
        "tokens": [
          "[CLS]"
        ]
      },
      "[SEP]": {
        "id": "[SEP]",
        "ids": [
          772
        ],
        "tokens": [
          "[SEP]"
        ]
      }
    }
  },
  "decoder": {
    "type": "Metaspace",
    "replacement": "▁",
    "prepend_scheme": "always",
    "split": true
  },
  "model": {
    "type": "BPE",
    "dropout": null,
    "unk_token": "[UNK]",
    "continuing_subword_prefix": null,
    "end_of_word_suffix": null,
    "fuse_unk": false,
    "byte_fallback": false,
    "ignore_merges": false,
    "vocab": {
      "▁classic": 0,
      "▁wite": 1,
      "▁text": 2,
      "▁trials": 3,
      "▁taxi": 4,
      "▁jih": 5,
      "6-8": 6,
      "▁advertising": 7,
      "▁fried": 8,
      "▁saudi": 9,
      "ather": 10,
      "▁candy": 11,
      "▁codes": 12,
      "▁future": 13,
      "▁protocol": 14,
      "▁vac": 15,
      "oped": 16,
      "▁immigrants": 17,
      "▁loans": 18,
      "▁anch": 19,
      "183": 20,
      "_00.doc": 21,
      "uh": 22,
      "/13/2001": 23,
      "etary": 24,
      "▁dickens": 25,
      "▁polic": 26,
      "▁reop": 27,
      "▁thursdays": 28,
      "▁defining": 29,
      "ico": 30,
      "▁camping": 31,
      "dd": 32,
      "▁lessons": 33,
      "▁morph": 34,
      "▁struggling": 35,
      "▁face": 36,
      "ule": 37,
      "▁brad": 38,
      "▁withdrawn": 39,
      "▁buyer": 40,
      "ken": 41,
      "▁negotiations": 42,
      "▁al": 43,
      "▁editions": 44,
      "▁dev": 45,
      "▁mutual": 46,
      "▁fbi": 47,
      "▁sew": 48,
      "▁mosc": 49,
      "▁eol": 50,
      "▁&": 51,
      "▁evac": 52,
      "▁resources": 53,
      "▁tiny": 54,
      "▁strange": 55,
      "▁determine": 56,
      "▁manufact": 57,
      "▁approved": 58,
      "▁nephew": 59,
      "▁bath+room": 60,
      "▁decisions": 61,
      "▁promising": 62,
      "▁07/14/2000": 63,
      "▁damp": 64,
      "▁batman": 65,
      "ount": 66,
      "▁imagination": 67,
      "▁mi": 68,
      "ollah": 69,
      "▁subst": 70,
      "▁busy": 71,
      "adel": 72,
      "▁equipment": 73,
      "▁politics": 74,
      "▁punched": 75,
      "▁spin": 76,
      "▁sign": 77,
      "▁wra": 78,
      "▁groc": 79,
      "▁tol": 80,
      "▁wikimedia": 81,
      "▁1868": 82,
      "▁asia": 83,
      "▁sadr": 84,
      "▁713-646-3393": 85,
      "▁impacts": 86,
      "▁cape": 87,
      "▁cott": 88,
      "▁endless": 89,
      "algami": 90,
      "▁obstacles": 91,
      "▁favorite": 92,
      ".8317": 93,
      "▁tul": 94,
      "ople": 95,
      "▁bib": 96,
      "▁(b)": 97,
      "▁excell": 98,
      "sel": 99,
      "▁sled": 100,
      "▁baltim": 101,
      "▁jerry": 102,
      "▁toll": 103,
      "▁08/03/2000": 104,
      "▁traci": 105,
      "▁appreh": 106,
      "▁shares": 107,
      "▁anxious": 108,
      "▁hull": 109,
      "▁inexpensive": 110,
      "▁carn": 111,
      "iev": 112,
      "▁taj": 113,
      "▁animal": 114,
      "▁collapse": 115,
      "▁artillery": 116,
      "idable": 117,
      "▁story": 118,
      "▁jennifer": 119,
      "▁recipients": 120,
      "▁francois": 121,
      "anal": 122,
      "▁6.8": 123,
      "▁defeated": 124,
      "▁talented": 125,
      "semin": 126,
      "▁singapore": 127,
      "▁kevin": 128,
      "▁bern": 129,
      "▁aut": 130,
      "ary": 131,
      "▁inhabit": 132,
      "▁context": 133,
      "▁advice": 134,
      "▁telev": 135,
      "▁respect": 136,
      "▁brain": 137,
      "d": 138,
      "▁23": 139,
      "▁twisted": 140,
      "▁tik": 141,
      "▁change": 142,
      "stellar": 143,
      "▁exceptional": 144,
      "oint": 145,
      "▁potty": 146,
      "▁alcohol": 147,
      "▁murders": 148,
      "▁1928": 149,
      "▁proclaim": 150,
      "▁ginny": 151,
      "emic": 152,
      "▁per": 153,
      "==============================================": 154,
      "▁alternatives": 155,
      "▁concent": 156,
      "▁considering": 157,
      "▁claiming": 158,
      "pr": 159,
      "▁techn": 160,
      "▁pimple": 161,
      "▁setup": 162,
      "ute": 163,
      "ihow": 164,
      "▁endeavor": 165,
      "▁agriculture": 166,
      "▁jenna": 167,
      "▁as400": 168,
      "▁scanning": 169,
      "▁wif": 170,
      "▁olympics": 171,
      "▁mailman": 172,
      "▁{": 173,
      "▁volunteer": 174,
      "▁deadline": 175,
      "▁argues": 176,
      "▁exhibits": 177,
      "▁look": 178,
      "▁lig": 179,
      "▁espec": 180,
      "▁compel": 181,
      "▁enterpr": 182,
      "·": 183,
      "▁832": 184,
      "▁canon": 185,
      "▁float": 186,
      "▁att": 187,
      "▁recon": 188,
      "▁padaleck": 189,
      "图": 190,
      "▁aircraft": 191,
      "▁headband": 192,
      "▁poo": 193,
      "ottable": 194,
      "▁prohib": 195,
      "▁forgotten": 196,
      "▁functioning": 197,
      "▁01:14": 198,
      "ogether": 199,
      "▁neglig": 200,
      "▁inst": 201,
      "▁hit": 202,
      "461": 203,
      "▁remaining": 204,
      "▁04:28": 205,
      "▁petition": 206,
      "▁emotion": 207,
      "bert": 208,
      "▁tut": 209,
      "▁january": 210,
      "eration": 211,
      "▁century": 212,
      "erno": 213,
      "▁1902": 214,
      "▁05/03/2001": 215,
      "▁agrees": 216,
      "▁bells": 217,
      "▁bwww": 218,
      "▁paseo": 219,
      "▁monumental": 220,
      "▁thous": 221,
      "▁deserted": 222,
      "▁gro": 223,
      "▁der": 224,
      "▁mere": 225,
      "▁susp": 226,
      "▁yacht": 227,
      "▁extra": 228,
      "▁kw": 229,
      "iasm": 230,
      "▁bigger": 231,
      "▁now": 232,
      "▁1951": 233,
      "6": 234,
      "▁run": 235,
      "▁location": 236,
      "▁affected": 237,
      "▁graphic": 238,
      "▁beaches": 239,
      "▁nah": 240,
      "▁viet": 241,
      "▁mort": 242,
      "▁03": 243,
      "arant": 244,
      "▁airpl": 245,
      "▁lem": 246,
      "▁simp": 247,
      ":18": 248,
      "ost": 249,
      "ash": 250,
      "▁chin": 251,
      "▁senses": 252,
      "▁uhoh": 253,
      "▁fiscal": 254,
      "▁event": 255,
      "▁disapp": 256,
      "ister": 257,
      "▁must": 258,
      "02": 259,
      "-991-9": 260,
      "▁cabbage": 261,
      "▁productive": 262,
      "▁great": 263,
      "gal": 264,
      "▁coordination": 265,
      "▁1599": 266,
      "▁represented": 267,
      "▁alt.animals.c": 268,
      "▁price": 269,
      "▁perse": 270,
      "▁neg": 271,
      "ann": 272,
      "▁ai": 273,
      "▁814014": 274,
      "▁kitch": 275,
      "rict": 276,
      "▁addressed": 277,
      "▁champ": 278,
      "vance": 279,
      "▁2500": 280,
      "▁bee": 281,
      "keep": 282,
      "▁glob": 283,
      "▁few": 284,
      "▁94": 285,
      "▁lorie": 286,
      "▁belg": 287,
      "▁his": 288,
      "mn": 289,
      "▁random": 290,
      "itated": 291,
      "▁4.0": 292,
      "▁attracting": 293,
      "▁god": 294,
      "box": 295,
      "ishment": 296,
      "▁frontiers": 297,
      "▁church": 298,
      "▁blond": 299,
      "▁191": 300,
      "▁straps": 301,
      "▁advisor": 302,
      "▁grammar": 303,
      "▁danger": 304,
      "▁whereby": 305,
      "ded": 306,
      "▁cens": 307,
      "▁ostr": 308,
      "ising": 309,
      "▁l'": 310,
      "3/2000": 311,
      "▁gone": 312,
      "▁dip": 313,
      "▁predators": 314,
      "akan": 315,
      "▁hotel": 316,
      "▁olive": 317,
      "ass": 318,
      "▁713-654-03": 319,
      "rane": 320,
      "▁covered": 321,
      "▁test": 322,
      "▁socc": 323,
      "▁tehr": 324,
      "▁although": 325,
      "▁salesman": 326,
      "▁steam": 327,
      "▁lab": 328,
      "ft": 329,
      "▁bund": 330,
      "▁stead": 331,
      "gig": 332,
      "▁wall": 333,
      "equ": 334,
      "▁ratt": 335,
      "ct": 336,
      "▁empan": 337,
      "▁diaper": 338,
      "▁proc": 339,
      "tc": 340,
      "▁chann": 341,
      "▁bureaucr": 342,
      "▁guaranty": 343,
      "▁supposed": 344,
      "iately": 345,
      "▁santa": 346,
      "▁gathering": 347,
      "▁force": 348,
      "▁vertical": 349,
      "ps": 350,
      "her": 351,
      "▁03/27/2001": 352,
      "▁amounts": 353,
      "▁subsequent": 354,
      "▁leading": 355,
      "▁debris": 356,
      "▁nobel": 357,
      "435": 358,
      "ion": 359,
      "▁legisl": 360,
      "▁horizon": 361,
      "▁fortun": 362,
      "onut": 363,
      "60s": 364,
      "▁queb": 365,
      "▁11/29/2000": 366,
      "▁catholic": 367,
      "ival": 368,
      "▁collect": 369,
      "▁balloons": 370,
      "▁redistrib": 371,
      "▁receipt": 372,
      "mission": 373,
      "▁sla": 374,
      "report": 375,
      "▁neoc": 376,
      "▁1530": 377,
      "▁statement": 378,
      "▁rot": 379,
      "▁equally": 380,
      "▁insurg": 381,
      "▁november": 382,
      "▁ya": 383,
      "▁1960s": 384,
      "▁perman": 385,
      "▁deemed": 386,
      "▁rarely": 387,
      "▁relaxing": 388,
      "▁demonstrated": 389,
      "oted": 390,
      "▁requiring": 391,
      "▁listen": 392,
      "▁217": 393,
      "▁match": 394,
      "▁undert": 395,
      "▁dyn": 396,
      "▁interp": 397,
      "▁booking": 398,
      "▁fut": 399,
      "bled": 400,
      "▁8:30": 401,
      "▁collaborative": 402,
      ">": 403,
      "▁environment": 404,
      "▁smart": 405,
      "▁afterwards": 406,
      "▁gave": 407,
      "▁superior": 408,
      "▁this": 409,
      "▁changes": 410,
      "▁cleric": 411,
      "▁hamilton": 412,
      "▁peek": 413,
      "r": 414,
      "▁your": 415,
      "▁vacc": 416,
      "▁gun": 417,
      "▁studied": 418,
      "▁achievement": 419,
      "ford": 420,
      "▁readers": 421,
      "▁danny": 422,
      "▁unkn": 423,
      "▁09/16": 424,
      "▁dand": 425,
      "▁notch": 426,
      "▁120,000": 427,
      "▁pon": 428,
      "▁sensitivity": 429,
      "▁compan": 430,
      "▁persons": 431,
      "atives": 432,
      "▁critic": 433,
      "▁fair": 434,
      "▁terms": 435,
      "alk": 436,
      "▁tigers": 437,
      "ercial": 438,
      "ription": 439,
      "▁1608": 440,
      "▁grow": 441,
      "maid": 442,
      "pir": 443,
      "▁hog": 444,
      "s.pdf": 445,
      "▁decor": 446,
      "▁512": 447,
      "▁advised": 448,
      "▁vice": 449,
      "▁tradem": 450,
      "▁mohamed": 451,
      "▁listing": 452,
      "▁amendments": 453,
      "▁cried": 454,
      "▁muscle": 455,
      "oubtedly": 456,
      "▁ones": 457,
      "▁williams": 458,
      "▁stro": 459,
      "ums": 460,
      "▁wise": 461,
      "▁st": 462,
      "▁completed": 463,
      "▁reject": 464,
      "▁202": 465,
      "-s": 466,
      "▁28,000": 467,
      "ante": 468,
      "▁pressure": 469,
      "▁earned": 470,
      "▁period": 471,
      "▁_______": 472,
      "ioch": 473,
      "▁sneeze": 474,
      "ders": 475,
      ".co.uk": 476,
      "▁state": 477,
      "▁behaviour": 478,
      "▁3,": 479,
      "▁biggest": 480,
      "▁apost": 481,
      "▁!!!": 482,
      "▁fix": 483,
      "▁knows": 484,
      "▁mathemat": 485,
      "▁packing": 486,
      "▁(c)": 487,
      "▁processes": 488,
      "▁dresses": 489,
      "▁glasses": 490,
      "▁misunder": 491,
      "▁legit": 492,
      "▁tickles": 493,
      "▁succeed": 494,
      "▁03/08/2000": 495,
      "▁burned": 496,
      "erous": 497,
      "▁month": 498,
      "▁plane": 499,
      "▁.?": 500,
      "▁clients": 501,
      "▁coupled": 502,
      "▁1944": 503,
      "▁continuously": 504,
      "▁caut": 505,
      "atically": 506,
      "▁skip": 507,
      "irical": 508,
      "oven": 509,
      "▁spine": 510,
      "iffer": 511,
      "▁swing": 512,
      "▁infinite": 513,
      "▁5:30": 514,
      "▁obligation": 515,
      "✉": 516,
      "▁fast": 517,
      "▁theat": 518,
      "▁-ect": 519,
      "▁listed": 520,
      "▁volleyball": 521,
      "east": 522,
      "▁gal": 523,
      "/25/2001": 524,
      "itally": 525,
      ":58": 526,
      "▁interference": 527,
      "▁belief": 528,
      "▁amster": 529,
      "▁guadel": 530,
      "uth": 531,
      "▁exchanged": 532,
      "utes": 533,
      "▁syntactic": 534,
      "▁decl": 535,
      "ina": 536,
      "▁concepts": 537,
      "cept": 538,
      "▁equip": 539,
      "▁tablet": 540,
      "▁makes": 541,
      "▁shiny": 542,
      "▁underwear": 543,
      "▁compact": 544,
      "oun": 545,
      "▁risk": 546,
      "▁nc": 547,
      "▁interrog": 548,
      "▁401": 549,
      "▁anthrop": 550,
      "▁uniqu": 551,
      "▁entertainment": 552,
      "▁orth": 553,
      "ł": 554,
      "▁surviv": 555,
      ";": 556,
      "▁common": 557,
      "▁propose": 558,
      "▁enorm": 559,
      "▁introduce": 560,
      "▁costly": 561,
      "▁attain": 562,
      "▁imposs": 563,
      "▁salty": 564,
      "▁kin": 565,
      "▁neoclassical": 566,
      "▁horiz": 567,
      "▁concrete": 568,
      "▁harrow": 569,
      "▁sl": 570,
      "▁disappoint": 571,
      "▁kam": 572,
      "▁biew": 573,
      "▁kend": 574,
      "30": 575,
      "▁3/9": 576,
      "▁blah": 577,
      "▁interests": 578,
      "▁lucy": 579,
      "▁priced": 580,
      "asible": 581,
      "▁locom": 582,
      "▁somewhat": 583,
      "67": 584,
      "▁restruct": 585,
      "apolis": 586,
      "▁chess": 587,
      "-e": 588,
      "▁.2": 589,
      "▁yoko": 590,
      "▁introducing": 591,
      "▁singer": 592,
      "▁operating": 593,
      "cill": 594,
      "umental": 595,
      "▁schedule": 596,
      "▁puppet": 597,
      "▁trop": 598,
      "▁radiation": 599,
      "▁delivery": 600,
      "lane": 601,
      "▁six": 602,
      "ois": 603,
      "▁sciss": 604,
      "zona": 605,
      "icity": 606,
      "▁treas": 607,
      "▁queen": 608,
      "▁becom": 609,
      "▁nails": 610,
      "▁nation": 611,
      "3-": 612,
      "uggle": 613,
      "▁runs": 614,
      "▁07/1": 615,
      "0010": 616,
      "▁rank": 617,
      "▁trump": 618,
      "▁430": 619,
      "▁wikinews": 620,
      "▁!": 621,
      "vas": 622,
      "▁ans": 623,
      "▁cocktail": 624,
      "get": 625,
      "▁cy": 626,
      "▁planning": 627,
      "▁normally": 628,
      "▁the": 629,
      "▁shower": 630,
      "▁prey": 631,
      "▁ideally": 632,
      "▁23rd": 633,
      "▁ahead": 634,
      "▁fift": 635,
      "▁scored": 636,
      "▁carbon": 637,
      "▁situation": 638,
      "▁petroleum": 639,
      "▁co-": 640,
      "▁vers": 641,
      "zed": 642,
      "▁bears": 643,
      ".edu/": 644,
      "▁ramp": 645,
      "▁action": 646,
      "▁ling": 647,
      "▁virginia": 648,
      "▁eighteen": 649,
      "▁damned": 650,
      "yl": 651,
      "$": 652,
      "star": 653,
      "▁raphael": 654,
      "▁posters": 655,
      "42": 656,
      "play": 657,
      "▁sher": 658,
      "▁http://www.4gamer.net/news/image/2005.09/2005": 659,
      "▁spill": 660,
      "@esaibos.com": 661,
      "ind": 662,
      "04": 663,
      "▁bc": 664,
      "▁mich": 665,
      "▁evolve": 666,
      "▁incl": 667,
      "▁extraordinary": 668,
      "▁aka": 669,
      "ardy": 670,
      "▁nig": 671,
      "dy": 672,
      "▁10:30": 673,
      ".com/": 674,
      "▁ian": 675,
      "▁crazy": 676,
      "▁absent": 677,
      "▁princess": 678,
      "▁jail": 679,
      "▁enj": 680,
      "▁appropri": 681,
      "ective": 682,
      "▁lys": 683,
      "▁concert": 684,
      "▁maize": 685,
      "▁impose": 686,
      "▁compressor": 687,
      "estone": 688,
      "▁facilitate": 689,
      "▁ep": 690,
      "▁wooden": 691,
      "▁opponent": 692,
      "▁345": 693,
      "▁heard": 694,
      "▁issued": 695,
      "▁palestinians": 696,
      "▁intends": 697,
      "▁abdul": 698,
      "arter": 699,
      "▁depot": 700,
      "▁cargill": 701,
      "▁folks": 702,
      "▁[...]": 703,
      "▁searches": 704,
      "▁websites": 705,
      "▁bid": 706,
      "▁urine": 707,
      "▁servant": 708,
      "▁wiped": 709,
      "▁charge": 710,
      "▁deficit": 711,
      "▁repeated": 712,
      "▁assum": 713,
      ".doc": 714,
      "▁takeoff": 715,
      "▁fabio": 716,
      "▁inherent": 717,
      "▁gag": 718,
      "▁grace": 719,
      "▁testing": 720,
      "▁04:": 721,
      "▁xsd": 722,
      "dp": 723,
      "▁percell": 724,
      "▁irr": 725,
      "▁leonardo": 726,
      "▁draft": 727,
      "▁indig": 728,
      "▁neighbourhood": 729,
      "▁officially": 730,
      "bers": 731,
      "▁ice": 732,
      "▁1-800-991-9": 733,
      "▁dedication": 734,
      "▁oath": 735,
      "▁loop": 736,
      "how": 737,
      "▁zeal": 738,
      "▁vietnam": 739,
      "▁claims": 740,
      "▁cows": 741,
      "pread": 742,
      "▁undergraduate": 743,
      "ervation": 744,
      "▁trad": 745,
      "utory": 746,
      "▁eco": 747,
      "▁cara": 748,
      "▁derived": 749,
      "▁decision": 750,
      "▁grizz": 751,
      "▁robots": 752,
      "▁feared": 753,
      "xt": 754,
      "▁experi": 755,
      "▁toxic": 756,
      "▁cons": 757,
      "▁cen": 758,
      "▁middle": 759,
      "▁01/2": 760,
      "▁parenteau": 761,
      "▁automatically": 762,
      "▁sexually": 763,
      "▁loc": 764,
      "ateral": 765,
      "asion": 766,
      "▁congressional": 767,
      "▁protects": 768,
      "@ect": 769,
      "▁braver": 770,
      "▁clinton": 771,
      "[SEP]": 772,
      "▁1997": 773,
      "leum": 774,
      "▁oops": 775,
      "▁carnival": 776,
      "▁live": 777,
      "▁gigantic": 778,
      "▁fry": 779,
      "▁ok": 780,
      "▁identical": 781,
      "▁exactly": 782,
      "▁contacts": 783,
      "▁8:00": 784,
      "▁squirt": 785,
      "apers": 786,
      "▁justin": 787,
      "▁+1": 788,
      "ism": 789,
      "▁balanced": 790,
      "▁refrigerator": 791,
      "je": 792,
      "▁closest": 793,
      "▁fridays": 794,
      "gie": 795,
      "oton": 796,
      "unications": 797,
      "▁registration": 798,
      "▁includ": 799,
      "▁boil": 800,
      "▁contributions": 801,
      "pe": 802,
      "▁believes": 803,
      "▁obama": 804,
      "▁salute": 805,
      "▁protected": 806,
      "▁1689": 807,
      "isd": 808,
      "▁generators": 809,
      "▁woke": 810,
      "▁province": 811,
      "inting": 812,
      "▁:d": 813,
      "▁trails": 814,
      "▁anna": 815,
      "▁worthy": 816,
      "▁yesterday": 817,
      "▁wonderful": 818,
      "▁session": 819,
      "▁315-460-33": 820,
      "▁play": 821,
      "▁saitama": 822,
      "▁dine": 823,
      "▁submitted": 824,
      "▁answering": 825,
      "▁ridic": 826,
      "▁shibu": 827,
      "▁naim": 828,
      "aviatio": 829,
      "▁hay": 830,
      "▁gentlemen": 831,
      "▁pocketbook": 832,
      "news/image/2005.09": 833,
      "▁standards": 834,
      "▁hous": 835,
      "▁1888": 836,
      "▁thorough": 837,
      "▁bless": 838,
      "▁5.5": 839,
      "eded": 840,
      "ec": 841,
      "▁sock": 842,
      "▁anytime": 843,
      "▁squeeze": 844,
      "▁lid": 845,
      "▁texas": 846,
      "▁read": 847,
      "▁putting": 848,
      "▁affairs": 849,
      "▁enrongss": 850,
      "▁carrier": 851,
      "▁alloc": 852,
      "▁mister": 853,
      "▁crane": 854,
      "▁observed": 855,
      "▁***": 856,
      "▁summer": 857,
      "istor": 858,
      "▁nich": 859,
      "▁equals": 860,
      "▁hospitals": 861,
      "▁established": 862,
      "▁funds": 863,
      "▁decent": 864,
      "▁marginal": 865,
      "▁resem": 866,
      "▁oregon": 867,
      "▁team": 868,
      "▁maintains": 869,
      "ieved": 870,
      "▁du": 871,
      "▁const": 872,
      "izz": 873,
      ".un": 874,
      "▁defence": 875,
      "▁canned": 876,
      "▁chronic": 877,
      "▁shortest": 878,
      "▁tid": 879,
      "▁pop": 880,
      "▁appeared": 881,
      "▁wandering": 882,
      "▁magazines": 883,
      "itz": 884,
      "▁jenn": 885,
      "▁impossible": 886,
      "▁fillmore": 887,
      "▁miles": 888,
      "ا": 889,
      ".9": 890,
      "▁×": 891,
      "▁ideal": 892,
      "ocked": 893,
      "3": 894,
      "▁que": 895,
      "▁814": 896,
      "▁preced": 897,
      "▁lev": 898,
      "▁score": 899,
      "▁neighborhood": 900,
      "▁false": 901,
      "▁nineteen": 902,
      "▁888.916.718": 903,
      "▁adoption": 904,
      "ening": 905,
      "▁stupid": 906,
      "umbling": 907,
      "▁je": 908,
      "▁a.m.": 909,
      "▁newark": 910,
      "▁planes": 911,
      "water": 912,
      "vals": 913,
      "▁a1": 914,
      "▁beaver": 915,
      "▁taiwan": 916,
      "▁genetic": 917,
      "▁smok": 918,
      "front": 919,
      "iger": 920,
      "ual": 921,
      "▁advert": 922,
      "▁promise": 923,
      "ishly": 924,
      "▁1836": 925,
      "▁simpl": 926,
      "▁collective": 927,
      "▁tony": 928,
      "▁dump": 929,
      "▁prior": 930,
      "▁photographers": 931,
      "▁pants": 932,
      "▁recre": 933,
      "assing": 934,
      "▁returns": 935,
      "▁contributing": 936,
      "▁being": 937,
      "▁rumsfeld": 938,
      "▁jurisdiction": 939,
      "▁ski": 940,
      "oug": 941,
      "▁sic": 942,
      "▁near": 943,
      "▁stepped": 944,
      "six": 945,
      "psu": 946,
      "▁choo": 947,
      "▁pierre": 948,
      "ield": 949,
      "▁riding": 950,
      "▁sucks": 951,
      "▁poet": 952,
      "▁closed": 953,
      "▁convinc": 954,
      "▁dursleys": 955,
      "▁succeeded": 956,
      "▁daniel": 957,
      "▁ascertain": 958,
      "▁se": 959,
      "oga": 960,
      "bro": 961,
      "▁neurol": 962,
      "▁unh": 963,
      "▁requirement": 964,
      "▁programming": 965,
      "▁comprom": 966,
      "workers": 967,
      "ucker": 968,
      "▁similarly": 969,
      "▁sofa": 970,
      "ocol": 971,
      "lest": 972,
      "▁bent": 973,
      "▁goriot": 974,
      "▁lik": 975,
      ".org/": 976,
      "ز": 977,
      "▁********************************": 978,
      "▁toystore": 979,
      "▁hajj": 980,
      "ified": 981,
      "▁transmission": 982,
      "sh": 983,
      "▁embass": 984,
      "tery": 985,
      "▁encour": 986,
      "▁linda": 987,
      "▁german": 988,
      "▁646-8420": 989,
      "▁histor": 990,
      "ization": 991,
      "▁explo": 992,
      "▁junior": 993,
      "▁hire": 994,
      "▁logic": 995,
      "▁1801": 996,
      "▁bir": 997,
      "▁17": 998,
      ".1234": 999,
      "▁lines": 1000,
      "▁nov": 1001,
      "▁virtuous": 1002,
      "▁zer": 1003,
      "ruction": 1004,
      "▁quino": 1005,
      "▁previous": 1006,
      "▁propos": 1007,
      "▁ingred": 1008,
      "▁estimate": 1009,
      "▁laid": 1010,
      "y@enron_development": 1011,
      "▁overt": 1012,
      "ieve": 1013,
      "▁styrofoam": 1014,
      "▁tropical": 1015,
      "▁referee": 1016,
      "▁krist": 1017,
      "▁tankers": 1018,
      "▁los": 1019,
      "▁tel": 1020,
      "▁guarantee": 1021,
      "▁superf": 1022,
      "▁occupied": 1023,
      "▁pas": 1024,
      "▁racing": 1025,
      "ury": 1026,
      "▁everyday": 1027,
      "▁gym": 1028,
      ".s": 1029,
      "▁considered": 1030,
      "fin": 1031,
      "▁discouraging": 1032,
      "▁places": 1033,
      "▁romantic": 1034,
      ".ell": 1035,
      "▁journey": 1036,
      "▁handker": 1037,
      "▁floyd": 1038,
      "▁forty-eight": 1039,
      "▁counter": 1040,
      "▁bu": 1041,
      "osing": 1042,
      "su": 1043,
      "ll": 1044,
      "▁service": 1045,
      "0-3": 1046,
      "don": 1047,
      "▁it's": 1048,
      "▁harris": 1049,
      "▁presumably": 1050,
      "kward": 1051,
      "▁donkey": 1052,
      "ugal": 1053,
      "▁whoo": 1054,
      "oud": 1055,
      "▁sunglasses": 1056,
      "▁incomes": 1057,
      "▁convey": 1058,
      "▁resolution": 1059,
      "-#6": 1060,
      "▁508": 1061,
      "▁helped": 1062,
      "▁araf": 1063,
      "put": 1064,
      "▁ll": 1065,
      "▁marks": 1066,
      "▁names": 1067,
      "▁ld2": 1068,
      "▁tended": 1069,
      "▁minneapolis": 1070,
      "▁things": 1071,
      "▁foreigner": 1072,
      "▁begins": 1073,
      "▁perfect": 1074,
      "▁justification": 1075,
      "ence": 1076,
      "▁console": 1077,
      "▁asked": 1078,
      "▁))": 1079,
      "ailand": 1080,
      "▁directives": 1081,
      "▁excellent": 1082,
      "▁divor": 1083,
      "ita": 1084,
      "▁analy": 1085,
      "▁urge": 1086,
      "▁imp": 1087,
      "1.": 1088,
      "vi": 1089,
      "▁atta": 1090,
      "eck": 1091,
      "▁counterfeiting": 1092,
      "▁somehow": 1093,
      "▁hundreds": 1094,
      "▁bound": 1095,
      "▁twelf": 1096,
      "▁neare": 1097,
      "▁integrity": 1098,
      "▁hippopotamus": 1099,
      "▁councill": 1100,
      "▁sf": 1101,
      "enues": 1102,
      "▁identified": 1103,
      "▁wandered": 1104,
      "▁headaches": 1105,
      "-01": 1106,
      "▁tur": 1107,
      "▁sv": 1108,
      "clud": 1109,
      "▁belongs": 1110,
      "▁amidst": 1111,
      "▁set": 1112,
      "▁produce": 1113,
      "{": 1114,
      "▁extinction": 1115,
      "▁apolog": 1116,
      "▁homeopath": 1117,
      "▁reduced": 1118,
      "ading": 1119,
      "gypt": 1120,
      "▁mac": 1121,
      "!!!!": 1122,
      "▁tighten": 1123,
      "▁shoes": 1124,
      "▁structure": 1125,
      "▁europe": 1126,
      "bour": 1127,
      "▁absorb": 1128,
      "quis": 1129,
      "▁fewer": 1130,
      "▁gaming": 1131,
      "▁melting": 1132,
      "▁padd": 1133,
      "▁wildcard": 1134,
      "▁08/03": 1135,
      "▁reservation": 1136,
      "▁dh": 1137,
      "▁pre-": 1138,
      "▁king": 1139,
      "▁possibly": 1140,
      "▁legitimate": 1141,
      "cut": 1142,
      "▁suspicion": 1143,
      "3c": 1144,
      "▁branch": 1145,
      "▁allowing": 1146,
      "▁arab": 1147,
      "▁nothing": 1148,
      "▁chant": 1149,
      "▁dese": 1150,
      "▁6:00": 1151,
      "▁simple": 1152,
      "▁axis": 1153,
      "udge": 1154,
      "▁moreau": 1155,
      "山": 1156,
      "2-": 1157,
      "wood": 1158,
      "lo": 1159,
      "▁www": 1160,
      "▁whereas": 1161,
      "▁contrast": 1162,
      "▁highlight": 1163,
      "▁statute": 1164,
      "▁reasonably": 1165,
      "▁airport": 1166,
      "▁uncomfortable": 1167,
      "▁browser": 1168,
      "▁health": 1169,
      "▁drift": 1170,
      "▁nanny": 1171,
      "amus": 1172,
      "▁notebook": 1173,
      "▁emphas": 1174,
      "===": 1175,
      "body": 1176,
      "▁kat": 1177,
      "umbled": 1178,
      "itted": 1179,
      "▁60,000": 1180,
      "worms": 1181,
      "▁university": 1182,
      "eap": 1183,
      "otional": 1184,
      "26": 1185,
      "▁mass": 1186,
      "▁770": 1187,
      "▁land": 1188,
      "▁purely": 1189,
      "▁diego": 1190,
      "▁sidd": 1191,
      "oulder": 1192,
      "▁forms": 1193,
      "uss": 1194,
      "lace": 1195,
      "▁mine": 1196,
      "▁crawl": 1197,
      "▁fol": 1198,
      "▁central": 1199,
      "▁homes": 1200,
      "▁72,000": 1201,
      ":0": 1202,
      "▁wav": 1203,
      "▁festival": 1204,
      "peed": 1205,
      "▁share": 1206,
      "father": 1207,
      "▁representation": 1208,
      "▁autumn": 1209,
      "▁width": 1210,
      "▁ekr": 1211,
      "▁remarked": 1212,
      "p": 1213,
      "acc": 1214,
      "▁namely": 1215,
      "▁assets": 1216,
      "▁sudan": 1217,
      "▁australia": 1218,
      "▁overwh": 1219,
      "▁http://www.c": 1220,
      "▁brooklyn": 1221,
      "ro": 1222,
      "pri": 1223,
      "▁405": 1224,
      "ator": 1225,
      "▁addition": 1226,
      "ocado": 1227,
      "▁exclud": 1228,
      "▁makeup": 1229,
      "▁robinson": 1230,
      "▁arr": 1231,
      "▁here": 1232,
      "▁corruption": 1233,
      "▁shy": 1234,
      "ocks": 1235,
      "ids": 1236,
      "▁bump": 1237,
      "▁gates": 1238,
      "ing": 1239,
      "▁korean": 1240,
      "▁pediat": 1241,
      "-m": 1242,
      "▁invested": 1243,
      "▁children": 1244,
      "▁bankrupt": 1245,
      "▁gradually": 1246,
      "▁studying": 1247,
      "β": 1248,
      "▁brutal": 1249,
      "▁earn": 1250,
      "▁hogwarts": 1251,
      "▁hol": 1252,
      "▁towns": 1253,
      "83": 1254,
      ".61": 1255,
      "▁aesth": 1256,
      "▁soy": 1257,
      "▁honest": 1258,
      "▁desire": 1259,
      "▁clean": 1260,
      "▁limits": 1261,
      "jwww": 1262,
      "▁ow": 1263,
      "▁pleased": 1264,
      "▁flir": 1265,
      "roduct": 1266,
      "▁port": 1267,
      "pled": 1268,
      "▁literature": 1269,
      "▁+": 1270,
      "▁gardens": 1271,
      "▁allowance": 1272,
      "▁advanced": 1273,
      "ety": 1274,
      "▁batteries": 1275,
      "▁rising": 1276,
      "-p": 1277,
      "▁values": 1278,
      "▁cave": 1279,
      "▁interstellar": 1280,
      "▁ink": 1281,
      "▁proceeding": 1282,
      "▁subscrib": 1283,
      "▁stub": 1284,
      "³": 1285,
      "------------": 1286,
      "▁crushing": 1287,
      "▁2017": 1288,
      "21": 1289,
      "▁datab": 1290,
      "▁>--------------------------------": 1291,
      "▁probability": 1292,
      "▁1972": 1293,
      "▁demands": 1294,
      "▁soviet": 1295,
      "▁astron": 1296,
      "▁reward": 1297,
      "esley": 1298,
      "siana": 1299,
      "▁pirate": 1300,
      "▁exact": 1301,
      "▁cav": 1302,
      "om": 1303,
      "oameric": 1304,
      "ario": 1305,
      "▁08": 1306,
      "▁repet": 1307,
      "▁mailing": 1308,
      "▁kennedy": 1309,
      "▁yaz": 1310,
      "▁!!!!!!!!!!!!!!!": 1311,
      ".ca": 1312,
      "▁eee": 1313,
      "▁dragged": 1314,
      "▁writer": 1315,
      "1st": 1316,
      "▁rathbun": 1317,
      "▁husband": 1318,
      "▁vlog": 1319,
      "▁remainder": 1320,
      "person": 1321,
      ".d.": 1322,
      "isp": 1323,
      "▁pean": 1324,
      "▁forster": 1325,
      "▁reference": 1326,
      "▁swed": 1327,
      "esco": 1328,
      "sm": 1329,
      "upunct": 1330,
      "▁myth": 1331,
      "ibility": 1332,
      "▁713-853-3098": 1333,
      "uding": 1334,
      "jal": 1335,
      "▁approximation": 1336,
      "▁amending": 1337,
      "▁sin": 1338,
      "▁troops": 1339,
      "▁compuls": 1340,
      "▁monitor": 1341,
      "ative": 1342,
      "▁electrical": 1343,
      "yah": 1344,
      "mines": 1345,
      "▁crick": 1346,
      "▁advise": 1347,
      "men": 1348,
      "▁coin": 1349,
      "▁bronze": 1350,
      "34": 1351,
      "▁contain": 1352,
      "▁proper": 1353,
      "▁inspired": 1354,
      "▁noted": 1355,
      "▁article": 1356,
      "▁11:45": 1357,
      "▁undertaken": 1358,
      "▁bludgers": 1359,
      "▁grade": 1360,
      "▁handsome": 1361,
      "unte": 1362,
      "▁tastes": 1363,
      "▁unhappy": 1364,
      "▁wonder": 1365,
      "▁judging": 1366,
      "▁devon": 1367,
      "tail": 1368,
      "▁corn": 1369,
      "▁russians": 1370,
      "▁shirt": 1371,
      "▁included": 1372,
      "▁injustice": 1373,
      "▁argent": 1374,
      "▁exem": 1375,
      "isl": 1376,
      "▁monthly": 1377,
      "▁hydrogen": 1378,
      "▁rebels": 1379,
      "▁invoked": 1380,
      "▁ulterior": 1381,
      "▁165": 1382,
      "▁britney": 1383,
      "▁turns": 1384,
      "▁correctly": 1385,
      "“": 1386,
      "▁generous": 1387,
      "▁cant": 1388,
      "▁mean": 1389,
      "--------+----------------": 1390,
      "▁chemical": 1391,
      "▁communicate": 1392,
      "▁spank": 1393,
      "▁secular": 1394,
      "station": 1395,
      "▁stops": 1396,
      "lin": 1397,
      "▁responsibilities": 1398,
      "▁progress": 1399,
      "▁934": 1400,
      "-27": 1401,
      "iant": 1402,
      "htub": 1403,
      "irt": 1404,
      "▁legitim": 1405,
      "jj": 1406,
      "▁title": 1407,
      "▁successfully": 1408,
      "itudes": 1409,
      "▁appearing": 1410,
      "▁ralph": 1411,
      "den": 1412,
      "itama": 1413,
      "▁business": 1414,
      "▁valley": 1415,
      "▁represent": 1416,
      "▁parts": 1417,
      "▁core": 1418,
      "ians": 1419,
      "▁belonged": 1420,
      "▁noise": 1421,
      "us": 1422,
      "▁quidditch": 1423,
      "▁unfortun": 1424,
      "▁filters": 1425,
      "ountry": 1426,
      "mental": 1427,
      "▁guess": 1428,
      "wa": 1429,
      "▁connecting": 1430,
      "▁robes": 1431,
      "iy": 1432,
      "ingly": 1433,
      "▁spores": 1434,
      "ipt": 1435,
      "▁david": 1436,
      "▁cred": 1437,
      "▁orientation": 1438,
      "▁2nd": 1439,
      "▁replication": 1440,
      "▁delicious": 1441,
      "60": 1442,
      "▁goodbye": 1443,
      "▁analys": 1444,
      ".go": 1445,
      "▁barcl": 1446,
      "▁katrina": 1447,
      "▁nicobar": 1448,
      "▁compulsive": 1449,
      "iter": 1450,
      "zan": 1451,
      "▁purple": 1452,
      "▁retrie": 1453,
      "▁expert": 1454,
      "▁universal": 1455,
      "▁sect": 1456,
      "▁dresser": 1457,
      "aneously": 1458,
      "ome": 1459,
      "▁powell": 1460,
      "▁a": 1461,
      "▁poiss": 1462,
      "▁foolish": 1463,
      "▁scared": 1464,
      "viatio": 1465,
      "▁legacy": 1466,
      "▁mob": 1467,
      "▁tower": 1468,
      "ose": 1469,
      "▁mangal": 1470,
      "▁organize": 1471,
      "▁travelled": 1472,
      "▁jons": 1473,
      "▁gotted": 1474,
      "▁who": 1475,
      "▁unp": 1476,
      "itten": 1477,
      "▁furthermore": 1478,
      "▁filing": 1479,
      "▁bosnia": 1480,
      "al.doc": 1481,
      "▁sensing": 1482,
      "▁twelve": 1483,
      "▁antioch": 1484,
      "▁1958": 1485,
      "▁obt": 1486,
      ":40": 1487,
      "▁nationality": 1488,
      "琴": 1489,
      "▁courses": 1490,
      "▁wherever": 1491,
      "▁joshua": 1492,
      "▁politicians": 1493,
      "▁root": 1494,
      "▁supers": 1495,
      "clusions": 1496,
      "▁tim": 1497,
      "▁pest": 1498,
      "▁unaccept": 1499,
      "▁ups": 1500,
      "▁complex": 1501,
      "ained": 1502,
      "▁blackline": 1503,
      "▁administration": 1504,
      "▁regulated": 1505,
      "▁sfo": 1506,
      "▁1500": 1507,
      "▁flirting": 1508,
      "▁olivia": 1509,
      "▁3rd": 1510,
      "▁..........": 1511,
      "▁01:09": 1512,
      "▁association": 1513,
      "▁freezing": 1514,
      "▁scheduled": 1515,
      "▁cc": 1516,
      "▁aff": 1517,
      "▁wis": 1518,
      "▁pri": 1519,
      "▁termination": 1520,
      "▁aug": 1521,
      "▁between": 1522,
      "▁comed": 1523,
      "y": 1524,
      "orn": 1525,
      "▁cloud": 1526,
      "▁tet": 1527,
      "▁dinosaur": 1528,
      "▁exception": 1529,
      "▁37": 1530,
      "▁conditioning": 1531,
      "ech": 1532,
      "▁nasa": 1533,
      "instein": 1534,
      "▁ercot": 1535,
      "ww": 1536,
      "▁tickets": 1537,
      "iety": 1538,
      "▁jacob": 1539,
      "riage": 1540,
      "▁alter": 1541,
      "▁healing": 1542,
      "▁covid": 1543,
      "▁11:16": 1544,
      "▁discomfort": 1545,
      "▁sk": 1546,
      "▁rescued": 1547,
      "▁ang": 1548,
      "▁daughter": 1549,
      "▁wednesdays": 1550,
      "▁broadcasting": 1551,
      "▁visited": 1552,
      "▁inning": 1553,
      "▁duties": 1554,
      "▁sp": 1555,
      "▁dipl": 1556,
      "▁sheikh": 1557,
      "▁roman": 1558,
      "▁british": 1559,
      "▁candles": 1560,
      "▁competition": 1561,
      "▁intellectual": 1562,
      "▁referring": 1563,
      "▁twin": 1564,
      "▁blows": 1565,
      "▁distance": 1566,
      "▁cabinet": 1567,
      "▁publicly": 1568,
      "▁exhausted": 1569,
      "▁boost": 1570,
      "va": 1571,
      "anges": 1572,
      "▁electron": 1573,
      "▁equine": 1574,
      "▁lawsuit": 1575,
      "▁factor": 1576,
      "▁predict": 1577,
      "▁1.25": 1578,
      "▁12:3": 1579,
      "▁hon": 1580,
      "▁y": 1581,
      "▁assassinated": 1582,
      "▁cul": 1583,
      "▁noises": 1584,
      "▁inspire": 1585,
      "hn": 1586,
      "▁partnership": 1587,
      "drft8-7": 1588,
      "obar": 1589,
      "▁components": 1590,
      "ped": 1591,
      "▁sad": 1592,
      "▁html": 1593,
      "▁yaw": 1594,
      "▁coo": 1595,
      "▁twent": 1596,
      "▁tasty": 1597,
      "▁kidna": 1598,
      "....": 1599,
      "▁tig": 1600,
      "rison": 1601,
      "▁pat": 1602,
      "▁transported": 1603,
      "▁tralee": 1604,
      "▁bure": 1605,
      "▁openly": 1606,
      "5": 1607,
      "o-": 1608,
      "▁hum": 1609,
      "▁lettuce": 1610,
      "▁yoga": 1611,
      "7/2001": 1612,
      "▁in": 1613,
      "▁567.77": 1614,
      "▁varying": 1615,
      "▁190": 1616,
      "▁concerns": 1617,
      "▁burger": 1618,
      "▁nice": 1619,
      "▁traffic": 1620,
      "▁annoy": 1621,
      "▁muslim": 1622,
      "ident": 1623,
      "▁curt": 1624,
      "ast": 1625,
      "▁dryer": 1626,
      "▁joh": 1627,
      "▁1039": 1628,
      "▁guerr": 1629,
      "▁answer": 1630,
      "bha": 1631,
      "▁wash": 1632,
      "ulations": 1633,
      "▁pooh": 1634,
      "▁aber": 1635,
      "▁53": 1636,
      "-d": 1637,
      "▁escaped": 1638,
      "▁reduces": 1639,
      "50": 1640,
      "asy": 1641,
      "▁exists": 1642,
      "▁pink": 1643,
      "bel": 1644,
      "▁derivatives": 1645,
      "▁stup": 1646,
      "er": 1647,
      "eness": 1648,
      "▁beverage": 1649,
      "▁likewise": 1650,
      "▁term": 1651,
      "▁conviction": 1652,
      "▁purp": 1653,
      "▁sufficient": 1654,
      "iot": 1655,
      "▁balloon": 1656,
      "eric": 1657,
      "▁hunt": 1658,
      "▁led": 1659,
      "istan": 1660,
      "▁holder": 1661,
      "osal": 1662,
      "▁insur": 1663,
      "▁harmony": 1664,
      "▁deput": 1665,
      "see": 1666,
      "▁mailto:": 1667,
      "▁fundamentalist": 1668,
      "▁profess": 1669,
      "▁****": 1670,
      "▁ide": 1671,
      "rou": 1672,
      "▁ess": 1673,
      "▁cheese": 1674,
      "-468-3": 1675,
      "▁arm": 1676,
      "▁farmers": 1677,
      "▁prolong": 1678,
      "▁chu": 1679,
      "▁backed": 1680,
      "▁basically": 1681,
      "▁fa": 1682,
      "▁perfume": 1683,
      "▁1/4": 1684,
      "▁regime": 1685,
      "▁lime": 1686,
      "▁fin": 1687,
      "▁auth": 1688,
      "▁historic": 1689,
      "▁o'clock": 1690,
      "▁skilled": 1691,
      "▁gl": 1692,
      "▁ninety-nine": 1693,
      "▁russ": 1694,
      "ste": 1695,
      "▁cozy": 1696,
      "▁departments": 1697,
      "▁dy": 1698,
      "▁sch": 1699,
      "▁activities": 1700,
      ",00": 1701,
      "▁italian": 1702,
      "▁neuro": 1703,
      "▁travelers": 1704,
      "▁1600": 1705,
      "▁1955": 1706,
      "4014": 1707,
      "▁1593": 1708,
      "▁exciting": 1709,
      "tern": 1710,
      "▁sincer": 1711,
      "▁positive": 1712,
      "▁cla": 1713,
      "▁ozone": 1714,
      "▁pave": 1715,
      "▁stopping": 1716,
      "8196021": 1717,
      "▁issues": 1718,
      "▁spring": 1719,
      "iley": 1720,
      "ases": 1721,
      "▁ship": 1722,
      "▁interpret": 1723,
      "▁beatles": 1724,
      "▁pops": 1725,
      "▁strolled": 1726,
      "og": 1727,
      "47": 1728,
      "▁feet": 1729,
      "gin": 1730,
      "▁playstation": 1731,
      "ancing": 1732,
      "0s": 1733,
      "▁involving": 1734,
      "▁dun": 1735,
      "▁easier": 1736,
      "▁conversational": 1737,
      "▁bees": 1738,
      "▁taller": 1739,
      "▁manufacturers": 1740,
      "▁ment": 1741,
      "▁skill": 1742,
      "mania": 1743,
      "▁scrape": 1744,
      "▁room": 1745,
      "▁believe": 1746,
      "udd": 1747,
      "▁oval": 1748,
      "▁sympt": 1749,
      "▁horror": 1750,
      "kman": 1751,
      "▁place": 1752,
      "▁invo": 1753,
      "▁yourselves": 1754,
      "rants": 1755,
      "▁230": 1756,
      "▁acupunct": 1757,
      "▁ann": 1758,
      "rof": 1759,
      "elly": 1760,
      "▁tat": 1761,
      "▁christian": 1762,
      "b": 1763,
      "▁modification": 1764,
      "▁fan": 1765,
      "▁car": 1766,
      "▁showing": 1767,
      "▁okay": 1768,
      "▁alright": 1769,
      "ant": 1770,
      "ings.com": 1771,
      "▁substances": 1772,
      "▁awards": 1773,
      "field": 1774,
      "ont": 1775,
      "▁spread": 1776,
      "▁poland": 1777,
      "▁inexp": 1778,
      "▁smells": 1779,
      "▁hamper": 1780,
      "▁1245": 1781,
      "▁pretty": 1782,
      "▁subsequently": 1783,
      "▁light": 1784,
      "mer": 1785,
      "orter": 1786,
      "▁journal": 1787,
      "▁subject": 1788,
      "ki": 1789,
      "like": 1790,
      "▁approached": 1791,
      "▁soap": 1792,
      "▁bookstore": 1793,
      "▁earthworms": 1794,
      "▁dis": 1795,
      "▁holds": 1796,
      "▁skin": 1797,
      "▁enjambment": 1798,
      "▁80,000": 1799,
      "▁stations": 1800,
      "▁seconds": 1801,
      "▁por": 1802,
      "▁papers": 1803,
      "▁(a)": 1804,
      "▁deserve": 1805,
      "▁missing": 1806,
      "▁insights": 1807,
      "▁firing": 1808,
      "▁400": 1809,
      "27": 1810,
      "▁might": 1811,
      "▁delays": 1812,
      "▁agre": 1813,
      "eless": 1814,
      "▁higu": 1815,
      "▁entirely": 1816,
      "▁ordinary": 1817,
      "▁scale": 1818,
      "▁ballerina": 1819,
      "▁punch": 1820,
      "▁aaf": 1821,
      "▁cro": 1822,
      "▁scoring": 1823,
      "▁roared": 1824,
      "▁2004": 1825,
      "▁such": 1826,
      "▁subscribe": 1827,
      "▁indigenous": 1828,
      "▁fest": 1829,
      "▁luc": 1830,
      "orse": 1831,
      "▁description": 1832,
      "▁3:30": 1833,
      "▁friendships": 1834,
      "▁ships": 1835,
      "▁scholars": 1836,
      "▁self-": 1837,
      "▁ngu": 1838,
      "▁lamb": 1839,
      "▁howard": 1840,
      "▁brushing": 1841,
      "▁amend": 1842,
      "▁7:00": 1843,
      "▁tran": 1844,
      "▁malfoy": 1845,
      "▁world": 1846,
      "eare": 1847,
      "▁locust": 1848,
      "▁plaintiffs": 1849,
      "▁lonely": 1850,
      "▁happier": 1851,
      "+----------------": 1852,
      "▁rick": 1853,
      "▁artists": 1854,
      "▁financially": 1855,
      "▁venture": 1856,
      "af": 1857,
      "▁376": 1858,
      "▁eng": 1859,
      "▁guy": 1860,
      "▁training": 1861,
      "▁warning": 1862,
      "▁curator": 1863,
      "▁greatest": 1864,
      "▁entrepreneurial": 1865,
      "deroy": 1866,
      "▁fif": 1867,
      "▁junk": 1868,
      "erv": 1869,
      "ules": 1870,
      "otes": 1871,
      "▁enr": 1872,
      "▁cuisine": 1873,
      "▁pictures": 1874,
      "▁autonomy": 1875,
      "stop": 1876,
      "▁china": 1877,
      "▁okinawa": 1878,
      "▁peer": 1879,
      "▁normal": 1880,
      "jects": 1881,
      "ants": 1882,
      "▁philosophers": 1883,
      "▁finish": 1884,
      ":42": 1885,
      "▁regard": 1886,
      "▁mental": 1887,
      "▁welcomed": 1888,
      "▁options": 1889,
      "▁mystery": 1890,
      "▁deliber": 1891,
      "▁115": 1892,
      "-23": 1893,
      "▁----==": 1894,
      "▁reli": 1895,
      "▁frustration": 1896,
      "▁epc": 1897,
      "▁pettigrew": 1898,
      "▁pervez": 1899,
      "/17/99": 1900,
      "▁aggressive": 1901,
      "▁announced": 1902,
      "▁dislike": 1903,
      "▁harb": 1904,
      "▁precise": 1905,
      "fk": 1906,
      "静": 1907,
      "k.url": 1908,
      "▁structures": 1909,
      "killed": 1910,
      "▁programm": 1911,
      "▁airline": 1912,
      "▁client": 1913,
      "ص": 1914,
      "▁caf": 1915,
      "reat": 1916,
      "▁struct": 1917,
      "▁relief": 1918,
      "▁d.": 1919,
      "▁evening": 1920,
      "▁registered": 1921,
      "▁alito": 1922,
      "▁auntie": 1923,
      "▁doctor": 1924,
      ",000,000,000": 1925,
      "abel": 1926,
      "▁sucked": 1927,
      "▁tripped": 1928,
      "ably": 1929,
      "▁time": 1930,
      "▁torch": 1931,
      "▁contains": 1932,
      "▁exporting": 1933,
      "▁hob": 1934,
      "ag": 1935,
      "▁antique": 1936,
      "▁knocked": 1937,
      "iation": 1938,
      "▁occupation": 1939,
      "▁atlantic": 1940,
      "▁abbreviation": 1941,
      "▁brill": 1942,
      "▁cz": 1943,
      "▁complic": 1944,
      "▁5000": 1945,
      "▁lovely": 1946,
      "▁rene": 1947,
      "▁guerrillas": 1948,
      "▁mycel": 1949,
      ":48": 1950,
      "▁foods": 1951,
      "▁applause": 1952,
      "▁extending": 1953,
      "▁sunni": 1954,
      "▁tempt": 1955,
      "www": 1956,
      "▁particip": 1957,
      "▁59": 1958,
      "▁hub": 1959,
      "▁iraqis": 1960,
      "ade": 1961,
      "▁vis": 1962,
      "▁ba'ath": 1963,
      "▁naq": 1964,
      "▁null": 1965,
      "ater": 1966,
      "▁initiatives": 1967,
      "▁1925": 1968,
      "▁heaven": 1969,
      "▁sony": 1970,
      "airah": 1971,
      "▁generated": 1972,
      "▁glac": 1973,
      "▁1611": 1974,
      "/h": 1975,
      "▁713-654-128": 1976,
      "▁163": 1977,
      "▁solas": 1978,
      "▁exposure": 1979,
      "▁edison": 1980,
      "▁drives": 1981,
      "▁repairs": 1982,
      "▁commitment": 1983,
      "▁safe": 1984,
      "▁wheel": 1985,
      "c": 1986,
      "raph": 1987,
      "▁france": 1988,
      "ra": 1989,
      "▁lav": 1990,
      "band": 1991,
      "▁widely": 1992,
      "▁choices": 1993,
      "▁dentist": 1994,
      "▁expense": 1995,
      "▁unequ": 1996,
      "▁start": 1997,
      "▁seem": 1998,
      "with": 1999,
      "ask": 2000,
      "▁unfortunate": 2001,
      "tering": 2002,
      "▁limited": 2003,
      "▁knew": 2004,
      "head": 2005,
      "▁ours": 2006,
      "▁mild": 2007,
      "ell": 2008,
      "▁waive": 2009,
      "▁mezza": 2010,
      "▁princip": 2011,
      "▁spectacular": 2012,
      "▁futures": 2013,
      "ster": 2014,
      "▁flexibility": 2015,
      "▁surroundings": 2016,
      "▁jumps": 2017,
      "▁oct.": 2018,
      "▁alban": 2019,
      "gress": 2020,
      "▁menu": 2021,
      "▁hear": 2022,
      "▁intriguing": 2023,
      "ering": 2024,
      "▁thirty": 2025,
      "▁fore": 2026,
      "▁infected": 2027,
      "orial": 2028,
      "▁grad": 2029,
      "▁fun": 2030,
      "▁entree": 2031,
      "▁2008": 2032,
      "ologue": 2033,
      "▁fulf": 2034,
      "osh": 2035,
      "▁aboard": 2036,
      "▁focusing": 2037,
      "▁slight": 2038,
      "▁pickle": 2039,
      "ark": 2040,
      "▁objective": 2041,
      "========": 2042,
      "▁discrim": 2043,
      "▁eager": 2044,
      "ension": 2045,
      "tra": 2046,
      "▁comp.s": 2047,
      "14": 2048,
      "▁bell": 2049,
      "▁stain": 2050,
      "▁reminder": 2051,
      "▁lucky": 2052,
      "enty": 2053,
      "able": 2054,
      "▁desper": 2055,
      "comm": 2056,
      "▁dart": 2057,
      "pot": 2058,
      "▁surround": 2059,
      "▁gul": 2060,
      "▁discussion": 2061,
      "▁rapport": 2062,
      "imedia": 2063,
      "▁roadgrad": 2064,
      "iate": 2065,
      "▁unl": 2066,
      "kind": 2067,
      "▁clim": 2068,
      "unciation": 2069,
      "▁walter": 2070,
      "葉": 2071,
      "isms": 2072,
      "▁sight": 2073,
      "▁patty": 2074,
      "▁highest": 2075,
      "▁sixth": 2076,
      "lie": 2077,
      "▁luther": 2078,
      "▁crad": 2079,
      "▁regulatory": 2080,
      "▁durs": 2081,
      "2,000": 2082,
      "▁functionality": 2083,
      "▁enfor": 2084,
      "▁201": 2085,
      "▁avocado": 2086,
      "▁shipped": 2087,
      "▁nam": 2088,
      "rupt": 2089,
      "▁paid": 2090,
      "▁scrib": 2091,
      "▁dream": 2092,
      "▁ect": 2093,
      "▁van": 2094,
      "▁dut": 2095,
      "encing": 2096,
      "inely": 2097,
      "▁cartoon": 2098,
      "▁uhh": 2099,
      "▁268": 2100,
      "itude": 2101,
      "▁paral": 2102,
      "▁''": 2103,
      "▁releases": 2104,
      "▁printing": 2105,
      "▁burnt": 2106,
      "▁accounting": 2107,
      "▁opening": 2108,
      "acam": 2109,
      "~": 2110,
      "▁teleph": 2111,
      "▁clarify": 2112,
      "▁build": 2113,
      "▁pict": 2114,
      "▁localist": 2115,
      "▁even": 2116,
      "▁table": 2117,
      "▁h-0": 2118,
      "▁refuse": 2119,
      "樋": 2120,
      "▁grid": 2121,
      "▁mcc": 2122,
      "▁creates": 2123,
      "▁pittsburgh": 2124,
      "▁licensed": 2125,
      "▁losing": 2126,
      "cel": 2127,
      "▁dallas": 2128,
      "inent": 2129,
      "▁everyone": 2130,
      "▁allegations": 2131,
      "▁davis": 2132,
      "ica": 2133,
      "oney": 2134,
      "▁release": 2135,
      "▁pioneers": 2136,
      "▁mushroom": 2137,
      "▁trade": 2138,
      "▁sql": 2139,
      "▁surger": 2140,
      "▁reporter": 2141,
      "▁par": 2142,
      "▁labyr": 2143,
      "▁meals": 2144,
      "▁phone": 2145,
      "▁dottie": 2146,
      "▁lope": 2147,
      "▁cond": 2148,
      "coming": 2149,
      "▁backpack": 2150,
      "▁fence": 2151,
      "▁hunh": 2152,
      "▁analyses": 2153,
      "▁education": 2154,
      "▁fam": 2155,
      "▁dim": 2156,
      "aw": 2157,
      "▁brian": 2158,
      "▁cryst": 2159,
      "▁nonstop": 2160,
      "▁andaman": 2161,
      "▁overpriced": 2162,
      "▁organisation": 2163,
      "▁female": 2164,
      "▁five": 2165,
      "▁shows": 2166,
      "▁contrib": 2167,
      "▁presum": 2168,
      "▁syd": 2169,
      "ime": 2170,
      "▁basic": 2171,
      "▁reflects": 2172,
      "eing": 2173,
      "▁slow": 2174,
      "▁poverty": 2175,
      "▁sunn": 2176,
      "▁416-865-370": 2177,
      "▁facts": 2178,
      "enda": 2179,
      "▁race": 2180,
      "▁musicians": 2181,
      "win": 2182,
      "▁barbeque": 2183,
      "▁silic": 2184,
      "▁thousands": 2185,
      "porary": 2186,
      "▁instructor": 2187,
      "▁demonstration": 2188,
      "▁states": 2189,
      "▁direct": 2190,
      "izers": 2191,
      "ppo": 2192,
      "▁thanks": 2193,
      "▁sophistic": 2194,
      "▁mar": 2195,
      "@enron_development": 2196,
      "▁m": 2197,
      "▁emph": 2198,
      "▁763736": 2199,
      "▁529999": 2200,
      "▁lam": 2201,
      "▁char": 2202,
      "▁oreg": 2203,
      "▁stall": 2204,
      "▁treatment": 2205,
      "iott": 2206,
      "bby": 2207,
      "▁stipulation": 2208,
      "d-#693": 2209,
      "rate": 2210,
      "▁snow": 2211,
      "▁folio": 2212,
      "▁magnificent": 2213,
      "mail.com": 2214,
      "▁fitting": 2215,
      "▁without": 2216,
      "▁713-79": 2217,
      "▁sticker": 2218,
      "▁yup": 2219,
      "▁border": 2220,
      "▁motionless": 2221,
      "▁involved": 2222,
      "▁poem": 2223,
      "▁allegedly": 2224,
      "▁won": 2225,
      "▁cash": 2226,
      "▁bare": 2227,
      "▁seed": 2228,
      "1/2001": 2229,
      "▁trail": 2230,
      "▁seventeen": 2231,
      "▁cub": 2232,
      "▁coincidence": 2233,
      "four": 2234,
      "▁unemployment": 2235,
      "▁with": 2236,
      "▁stores": 2237,
      "▁saud": 2238,
      "▁d'": 2239,
      "esis": 2240,
      "▁terminal": 2241,
      "itivity": 2242,
      "▁row": 2243,
      "▁khinss": 2244,
      "own": 2245,
      ".co": 2246,
      "▁bur": 2247,
      "½": 2248,
      "▁eyes": 2249,
      "mond": 2250,
      "gel": 2251,
      "point": 2252,
      "ged": 2253,
      "▁emperor": 2254,
      "▁tested": 2255,
      "▁picnic": 2256,
      "▁nostr": 2257,
      "▁adding": 2258,
      "irus": 2259,
      "▁resc": 2260,
      "▁substantial": 2261,
      "▁aggregate": 2262,
      ".676": 2263,
      "e.": 2264,
      "tered": 2265,
      "▁mouth": 2266,
      "verty": 2267,
      "ird": 2268,
      "▁administr": 2269,
      "▁orchestra": 2270,
      "day": 2271,
      "ains": 2272,
      "out": 2273,
      "▁discussed": 2274,
      "uku": 2275,
      "▁ltte": 2276,
      "▁tricks": 2277,
      "▁reprod": 2278,
      "▁.doc": 2279,
      "▁records": 2280,
      "▁oo": 2281,
      "▁giraffe": 2282,
      "ives": 2283,
      "▁container": 2284,
      "▁trips": 2285,
      "▁acknowledge": 2286,
      "▁uk": 2287,
      "ration": 2288,
      "▁behav": 2289,
      "▁–": 2290,
      "▁barger": 2291,
      "▁execut": 2292,
      "▁literary": 2293,
      "▁depth": 2294,
      "▁appro": 2295,
      "▁milk": 2296,
      "▁territ": 2297,
      "▁fel": 2298,
      "▁enter": 2299,
      "▁heather": 2300,
      "▁gathered": 2301,
      "idge": 2302,
      "ously": 2303,
      "▁transc": 2304,
      "aging": 2305,
      "▁princ": 2306,
      "▁affluent": 2307,
      "▁activity": 2308,
      "▁fe": 2309,
      "▁ax": 2310,
      "@esa": 2311,
      "=": 2312,
      "beque": 2313,
      "300": 2314,
      "ber": 2315,
      "erry": 2316,
      "inary": 2317,
      "▁celebrity": 2318,
      "▁420": 2319,
      "▁deleted": 2320,
      "▁clou": 2321,
      "▁smallest": 2322,
      "▁accurately": 2323,
      "▁1988": 2324,
      "▁array": 2325,
      "sters": 2326,
      "oned": 2327,
      "son": 2328,
      "▁insp": 2329,
      "force": 2330,
      "▁nasty": 2331,
      "app": 2332,
      "▁copied": 2333,
      "▁ques": 2334,
      "ymp": 2335,
      "▁background": 2336,
      "▁olmec": 2337,
      "▁halls": 2338,
      "▁perhaps": 2339,
      "▁sweater": 2340,
      "▁pu": 2341,
      "▁pins": 2342,
      "▁zurbaran": 2343,
      "▁england": 2344,
      "▁supporting": 2345,
      "bridge": 2346,
      "▁4": 2347,
      "yon": 2348,
      "matic": 2349,
      "▁greeting": 2350,
      "▁pret": 2351,
      "▁q": 2352,
      "▁fant": 2353,
      "▁.........": 2354,
      "▁1300": 2355,
      "▁strong": 2356,
      "▁greater": 2357,
      "▁lengthy": 2358,
      "46": 2359,
      "▁humor": 2360,
      "989": 2361,
      "▁requesting": 2362,
      "▁bm": 2363,
      "▁gaz": 2364,
      "▁mind": 2365,
      "▁kos": 2366,
      "▁desir": 2367,
      "▁jumping": 2368,
      "▁ouij": 2369,
      "▁rath": 2370,
      "▁conservative": 2371,
      "▁sor": 2372,
      "▁tro": 2373,
      "▁ir": 2374,
      "▁04/30/2001": 2375,
      "▁&amp;": 2376,
      "▁seeds": 2377,
      "▁classified": 2378,
      "ool": 2379,
      "▁palm": 2380,
      "oking": 2381,
      "▁customers": 2382,
      "▁ecodes": 2383,
      "!": 2384,
      "/01": 2385,
      "▁regarded": 2386,
      "▁participated": 2387,
      "anan": 2388,
      "---": 2389,
      "our": 2390,
      "▁witnesses": 2391,
      "▁heel": 2392,
      "▁began": 2393,
      "▁3.1": 2394,
      "ouch": 2395,
      "▁1962": 2396,
      "▁sensitive": 2397,
      "▁showed": 2398,
      "▁bottles": 2399,
      "ban": 2400,
      "-y": 2401,
      "/200": 2402,
      "▁687": 2403,
      "anes": 2404,
      "▁engineer": 2405,
      "▁complain": 2406,
      "▁boarding": 2407,
      "▁zip": 2408,
      "▁zion": 2409,
      "▁whisper": 2410,
      "134": 2411,
      "▁rays": 2412,
      "▁enabled": 2413,
      "▁helmet": 2414,
      "▁40": 2415,
      "▁syntax": 2416,
      "▁styl": 2417,
      "stick": 2418,
      "▁apartments": 2419,
      "▁louis": 2420,
      "-cage": 2421,
      "ula": 2422,
      "online": 2423,
      "▁sum": 2424,
      "▁kinds": 2425,
      "▁army": 2426,
      "▁steve": 2427,
      "ensen": 2428,
      "▁responded": 2429,
      "78": 2430,
      "▁seventeenth": 2431,
      "▁'ve": 2432,
      "▁webs": 2433,
      "▁646-84": 2434,
      "▁j.": 2435,
      "ings": 2436,
      "▁starts": 2437,
      "rans": 2438,
      "▁diarr": 2439,
      "▁reconst": 2440,
      "▁acc": 2441,
      "▁defensive": 2442,
      "▁professors": 2443,
      "▁governments": 2444,
      "▁enjoyed": 2445,
      "▁bosom": 2446,
      "▁mostly": 2447,
      "▁kim": 2448,
      "▁conscience": 2449,
      "oub": 2450,
      "▁difficulty": 2451,
      "▁ninety": 2452,
      "▁metals": 2453,
      "▁classical": 2454,
      "▁unre": 2455,
      "▁rhodes": 2456,
      "▁fusca": 2457,
      "▁412": 2458,
      "standing": 2459,
      "▁matt": 2460,
      "▁fashion": 2461,
      "▁l.": 2462,
      "▁principles": 2463,
      "▁use": 2464,
      "ation": 2465,
      "▁depart": 2466,
      "▁beauveria": 2467,
      "▁betty": 2468,
      "▁remove": 2469,
      "▁purse": 2470,
      "▁products": 2471,
      "beth": 2472,
      "▁dash": 2473,
      "ati": 2474,
      "▁prop": 2475,
      "▁mississipp": 2476,
      "ablish": 2477,
      "▁raph": 2478,
      "ry": 2479,
      "-h": 2480,
      "ought": 2481,
      "▁lol": 2482,
      "5-02.doc": 2483,
      "▁838": 2484,
      "▁portland": 2485,
      "umn": 2486,
      "▁emer": 2487,
      "ologists": 2488,
      "▁claire": 2489,
      "i-": 2490,
      "▁shar": 2491,
      "re": 2492,
      "ioned": 2493,
      "▁domin": 2494,
      "▁denied": 2495,
      "▁austin": 2496,
      "▁be": 2497,
      "▁themselves": 2498,
      "▁eb": 2499,
      "▁squared": 2500,
      "▁introd": 2501,
      "▁loo": 2502,
      "▁14": 2503,
      "▁sex": 2504,
      "▁truth": 2505,
      "▁10:25": 2506,
      "▁nodd": 2507,
      "▁merchant": 2508,
      "▁bog": 2509,
      "▁nursery": 2510,
      "▁orland": 2511,
      "eech": 2512,
      "▁sweat": 2513,
      "▁replacing": 2514,
      "▁wide": 2515,
      "▁trust": 2516,
      "▁outcom": 2517,
      "▁danc": 2518,
      "▁holders": 2519,
      "ingu": 2520,
      "inn": 2521,
      "▁sounds": 2522,
      "▁goode": 2523,
      "▁customer": 2524,
      "▁authors": 2525,
      "▁levels": 2526,
      "▁significantly": 2527,
      "▁sc": 2528,
      "▁heightened": 2529,
      "▁society": 2530,
      "▁airlines": 2531,
      "▁£": 2532,
      "▁shouted": 2533,
      "▁cin": 2534,
      "▁tele": 2535,
      "----------------": 2536,
      "▁telephones": 2537,
      "▁america": 2538,
      "ael": 2539,
      "▁underground": 2540,
      "▁containing": 2541,
      "▁elaborate": 2542,
      "rier": 2543,
      "▁shed": 2544,
      "isible": 2545,
      ".782": 2546,
      "▁ger": 2547,
      "▁craig": 2548,
      "zing": 2549,
      "▁mayonnaise": 2550,
      "▁oneself": 2551,
      "ish": 2552,
      "▁ton": 2553,
      "▁tv": 2554,
      "iat": 2555,
      "▁weight": 2556,
      "owned": 2557,
      "iciary": 2558,
      "itation": 2559,
      "▁pilgrims": 2560,
      "▁bo": 2561,
      "▁l'enf": 2562,
      "▁tooth": 2563,
      "▁chang": 2564,
      "igr": 2565,
      "▁*": 2566,
      "▁stew": 2567,
      "▁martyrs": 2568,
      "err": 2569,
      "▁looks": 2570,
      "▁42,000": 2571,
      "▁ana": 2572,
      "▁wildlife": 2573,
      "▁apron": 2574,
      "▁crappy": 2575,
      "istic": 2576,
      "kins": 2577,
      "▁clock": 2578,
      "▁vietn": 2579,
      "▁1947": 2580,
      "utely": 2581,
      "109": 2582,
      "▁aimed": 2583,
      "▁cuck": 2584,
      "omer": 2585,
      "eplace": 2586,
      "cil": 2587,
      "▁gw": 2588,
      "▁according": 2589,
      "]": 2590,
      "▁entrance": 2591,
      "▁moustache": 2592,
      "▁island": 2593,
      "▁prepare": 2594,
      "▁bank": 2595,
      "▁success": 2596,
      "▁voices": 2597,
      "▁freedoms": 2598,
      ",5": 2599,
      "lying": 2600,
      "▁jihad": 2601,
      "ften": 2602,
      "▁exist": 2603,
      "▁div": 2604,
      "▁mist": 2605,
      "▁143": 2606,
      "▁eliminated": 2607,
      "▁detail": 2608,
      "▁whatsoever": 2609,
      "▁anth": 2610,
      "unity": 2611,
      "▁twa": 2612,
      "▁shin": 2613,
      "▁zeus": 2614,
      "▁11,000": 2615,
      "licts": 2616,
      "▁occas": 2617,
      "▁20:00": 2618,
      "▁guaranteed": 2619,
      "▁dish": 2620,
      "▁destiny": 2621,
      "ada": 2622,
      "▁unit": 2623,
      "osite": 2624,
      "▁comedy": 2625,
      "▁igu": 2626,
      "▁feelings": 2627,
      "▁01/12/2001": 2628,
      "▁coming": 2629,
      "▁therap": 2630,
      ".c.": 2631,
      "inated": 2632,
      "▁borgin": 2633,
      "▁highlighting": 2634,
      "▁1110": 2635,
      "▁mm": 2636,
      "▁resist": 2637,
      "▁clin": 2638,
      "▁guards": 2639,
      "▁winter": 2640,
      "▁download": 2641,
      "▁travel": 2642,
      "▁thank": 2643,
      "▁somet": 2644,
      "▁arrange": 2645,
      "▁magical": 2646,
      "▁punishment": 2647,
      "▁producers": 2648,
      "▁olympic": 2649,
      "▁crime": 2650,
      "▁lant": 2651,
      "▁o'": 2652,
      "oices": 2653,
      "▁mold": 2654,
      "▁outlets": 2655,
      "▁court": 2656,
      "▁ar": 2657,
      "v": 2658,
      "▁fourth": 2659,
      "▁www.": 2660,
      "▁punchline": 2661,
      "▁barn": 2662,
      "ester": 2663,
      "▁scient": 2664,
      "▁courts": 2665,
      "▁cooker": 2666,
      "▁oppress": 2667,
      "▁duration": 2668,
      "▁dropped": 2669,
      "▁207": 2670,
      "urbar": 2671,
      "___________": 2672,
      "▁tyler": 2673,
      "▁shale": 2674,
      "▁away": 2675,
      "▁hippop": 2676,
      "ifications": 2677,
      "▁spacetime": 2678,
      "ror": 2679,
      "▁hjalmar": 2680,
      "▁hu": 2681,
      "▁missile": 2682,
      "▁reception": 2683,
      "▁mish": 2684,
      "▁opposed": 2685,
      "▁adam": 2686,
      "▁dram": 2687,
      "▁radical": 2688,
      "▁observation": 2689,
      "-3": 2690,
      "▁lee": 2691,
      "▁cooperate": 2692,
      "ely": 2693,
      "▁motiv": 2694,
      "▁smiled": 2695,
      "▁consistently": 2696,
      "res": 2697,
      "▁neatly": 2698,
      "abad": 2699,
      ":21": 2700,
      "▁west": 2701,
      "elling": 2702,
      "▁’ll": 2703,
      "▁descriptions": 2704,
      "▁failures": 2705,
      "▁waves": 2706,
      "▁preferences": 2707,
      "▁neolog": 2708,
      "▁permitted": 2709,
      "▁eric": 2710,
      "▁paine": 2711,
      "▁deliver": 2712,
      "ix": 2713,
      "▁inevitable": 2714,
      "eez": 2715,
      "cling": 2716,
      "erals": 2717,
      "▁marshm": 2718,
      "ited": 2719,
      "▁ear": 2720,
      "▁cos": 2721,
      "▁invented": 2722,
      "▁amuse": 2723,
      "▁cosm": 2724,
      "▁florida": 2725,
      "▁bum": 2726,
      "▁romeo": 2727,
      "▁glacier": 2728,
      "elong": 2729,
      "▁assist": 2730,
      "▁chomsky": 2731,
      "bum": 2732,
      "▁consc": 2733,
      "▁motion": 2734,
      "▁shade": 2735,
      "▁1819": 2736,
      "▁travels": 2737,
      "▁rais": 2738,
      "▁pilgrimage": 2739,
      "▁reviews": 2740,
      "cond": 2741,
      "▁communications": 2742,
      "▁ackn": 2743,
      "▁2.975": 2744,
      "▁attach": 2745,
      "oured": 2746,
      "▁sources": 2747,
      "▁remain": 2748,
      "rele": 2749,
      "▁wish": 2750,
      "▁nail": 2751,
      "0's": 2752,
      "▁each": 2753,
      "oding": 2754,
      "▁cognition": 2755,
      "▁...............": 2756,
      "▁fancy": 2757,
      "rels": 2758,
      "▁drive": 2759,
      "▁revision": 2760,
      "▁fung": 2761,
      "▁’’": 2762,
      "▁20": 2763,
      "etti": 2764,
      "▁spend": 2765,
      "▁strang": 2766,
      "ona": 2767,
      "▁applies": 2768,
      "pan": 2769,
      "ander": 2770,
      "eds": 2771,
      "▁butt": 2772,
      "cp": 2773,
      "▁billion": 2774,
      "▁taliban": 2775,
      "▁270": 2776,
      "▁stre": 2777,
      "▁lasts": 2778,
      "▁1981": 2779,
      "▁ml": 2780,
      "ler": 2781,
      "▁thinking": 2782,
      "▁prest": 2783,
      "▁compli": 2784,
      "utions": 2785,
      "▁arrivals": 2786,
      "▁htt": 2787,
      "▁video": 2788,
      "▁fist": 2789,
      "aka": 2790,
      "▁2.15": 2791,
      "▁hoo": 2792,
      "▁2010": 2793,
      "▁descended": 2794,
      "▁curves": 2795,
      "▁adn": 2796,
      "▁stars": 2797,
      ".4": 2798,
      "▁compl": 2799,
      "-46": 2800,
      "▁federal": 2801,
      "▁1977": 2802,
      "▁header": 2803,
      "▁behin": 2804,
      "▁puerto": 2805,
      "▁ny": 2806,
      "39": 2807,
      "▁hours": 2808,
      "▁civil": 2809,
      "use": 2810,
      "▁midwest": 2811,
      "▁dependent": 2812,
      "▁labrad": 2813,
      ".fr": 2814,
      "▁opinions": 2815,
      "▁librarians": 2816,
      "▁thunder": 2817,
      ".blogspot.com/": 2818,
      "▁factors": 2819,
      "stone": 2820,
      "▁jo": 2821,
      "▁myst": 2822,
      "▁usd": 2823,
      "aming": 2824,
      "▁circles": 2825,
      "▁admit": 2826,
      "essions": 2827,
      "▁michigan": 2828,
      "▁rab": 2829,
      "ibos.com": 2830,
      "▁selling": 2831,
      "▁415.782": 2832,
      "▁----": 2833,
      "▁abrupt": 2834,
      "▁p.": 2835,
      "▁current": 2836,
      "▁alternatively": 2837,
      "▁specify": 2838,
      "▁eerie": 2839,
      "y@ect": 2840,
      "▁marvel": 2841,
      "▁vel": 2842,
      "▁pillars": 2843,
      "▁aberde": 2844,
      "▁quad": 2845,
      "▁sed": 2846,
      "▁informative": 2847,
      "leon": 2848,
      "▁starvation": 2849,
      "▁s’": 2850,
      "uffling": 2851,
      "▁shakespeare": 2852,
      "▁seems": 2853,
      "▁1200": 2854,
      "▁979": 2855,
      "▁modes": 2856,
      "▁bowl": 2857,
      "▁flying": 2858,
      "▁telesc": 2859,
      "▁indication": 2860,
      "▁collins": 2861,
      ".j": 2862,
      "ɛ": 2863,
      "▁helping": 2864,
      "▁ro": 2865,
      "▁sue": 2866,
      "▁saucepan": 2867,
      "▁correlation": 2868,
      "▁cincinnati": 2869,
      "▁transm": 2870,
      "▁incentive": 2871,
      "▁civ": 2872,
      "▁vince": 2873,
      "45": 2874,
      "▁dwell": 2875,
      "▁tournament": 2876,
      "▁laughed": 2877,
      "▁burn": 2878,
      "eda": 2879,
      "▁crunch": 2880,
      "▁decide": 2881,
      "▁libya": 2882,
      "ship": 2883,
      "ias": 2884,
      "▁modified": 2885,
      "▁renting": 2886,
      "▁jim": 2887,
      "▁draw": 2888,
      "▁1,6": 2889,
      "://": 2890,
      "▁explore": 2891,
      "imir": 2892,
      "▁shore": 2893,
      "▁mut": 2894,
      "880": 2895,
      "▁polit": 2896,
      "rich": 2897,
      "[": 2898,
      "▁mid-1": 2899,
      "▁digitally": 2900,
      "▁47,500": 2901,
      "▁uncover": 2902,
      "▁ground": 2903,
      "▁andy": 2904,
      "▁anti": 2905,
      "▁nomination": 2906,
      "▁received": 2907,
      "lines": 2908,
      "▁curb": 2909,
      "▁korea": 2910,
      "cr": 2911,
      "▁hp": 2912,
      "▁athens": 2913,
      "▁poll": 2914,
      "▁05/01/2001": 2915,
      ".n": 2916,
      "▁lifetime": 2917,
      "▁motives": 2918,
      "▁excel": 2919,
      "▁since": 2920,
      "dham": 2921,
      "▁masterpi": 2922,
      "▁childcare": 2923,
      "清": 2924,
      "wright": 2925,
      "ygen": 2926,
      "▁historical": 2927,
      "roid": 2928,
      "▁tuna": 2929,
      "▁washing": 2930,
      "▁troub": 2931,
      "▁lately": 2932,
      "▁2022": 2933,
      "▁nt": 2934,
      "▁michael": 2935,
      "▁upi": 2936,
      "uc": 2937,
      "▁mag": 2938,
      "▁september": 2939,
      "37": 2940,
      "▁collectively": 2941,
      "▁canad": 2942,
      "▁idiot": 2943,
      "▁phenomen": 2944,
      "asts": 2945,
      "lik": 2946,
      "▁khan@transredes": 2947,
      "▁braz": 2948,
      "▁worksh": 2949,
      "iguing": 2950,
      "▁constitu": 2951,
      "▁inc": 2952,
      "▁bailey": 2953,
      "▁valid": 2954,
      "▁pione": 2955,
      "▁uneasy": 2956,
      "▁łodz": 2957,
      "▁stick": 2958,
      "ribly": 2959,
      "▁vul": 2960,
      "▁prem": 2961,
      "▁********": 2962,
      "▁wishes": 2963,
      "▁titled": 2964,
      "▁enough": 2965,
      "▁tofu": 2966,
      "▁nav": 2967,
      "▁kidding": 2968,
      "aiss": 2969,
      "view": 2970,
      "▁41": 2971,
      "▁beard": 2972,
      "▁area": 2973,
      "▁honour": 2974,
      "▁doughnuts": 2975,
      "▁hesit": 2976,
      "▁`s": 2977,
      "▁judiciary": 2978,
      "▁mil": 2979,
      "▁rescue": 2980,
      "▁gives": 2981,
      "▁agg": 2982,
      "▁alt.animals.": 2983,
      "▁shown": 2984,
      "▁sydney": 2985,
      "ter": 2986,
      "gr": 2987,
      "▁settled": 2988,
      "ila": 2989,
      "▁productivity": 2990,
      "alities": 2991,
      "▁banana": 2992,
      "▁celebrating": 2993,
      "▁poss": 2994,
      "▁opinion": 2995,
      "▁diary": 2996,
      "house": 2997,
      "▁pilots": 2998,
      "olit": 2999,
      "▁prince": 3000,
      "orable": 3001,
      "ower": 3002,
      "▁cited": 3003,
      "law": 3004,
      "▁shorts": 3005,
      "▁09:01": 3006,
      "▁virgin": 3007,
      "▁falling": 3008,
      "ves": 3009,
      "▁networks": 3010,
      "▁wig": 3011,
      "non": 3012,
      "▁ter": 3013,
      "▁ambit": 3014,
      "▁upr": 3015,
      "▁express": 3016,
      "▁provision": 3017,
      "found": 3018,
      "▁awww": 3019,
      "▁plat": 3020,
      "▁fran": 3021,
      "▁assigned": 3022,
      "iew": 3023,
      "▁stuck": 3024,
      "▁matching": 3025,
      "▁technology": 3026,
      "▁lazy": 3027,
      "ital": 3028,
      "▁kind": 3029,
      "▁maple": 3030,
      "▁clar": 3031,
      "▁compat": 3032,
      "sem": 3033,
      "▁3,500": 3034,
      "agon": 3035,
      "utz": 3036,
      "▁hey": 3037,
      "rep": 3038,
      "▁ownership": 3039,
      "▁02/27/2001": 3040,
      "▁sheep": 3041,
      "▁architectural": 3042,
      "▁democracy": 3043,
      "▁crab": 3044,
      "▁slower": 3045,
      "▁secret": 3046,
      "▁sits": 3047,
      "fahan": 3048,
      "mas": 3049,
      "iques": 3050,
      "▁covering": 3051,
      "▁frogs": 3052,
      "▁called": 3053,
      "shed": 3054,
      "▁learned": 3055,
      "atter": 3056,
      "▁satisf": 3057,
      "▁neil": 3058,
      "▁removal": 3059,
      "▁liquid": 3060,
      "▁netherlands": 3061,
      "ceed": 3062,
      "▁sain": 3063,
      "▁sacrifice": 3064,
      "▁intention": 3065,
      "▁mins": 3066,
      "▁ceremony": 3067,
      "▁2015": 3068,
      "▁purposes": 3069,
      "▁unlikely": 3070,
      "43": 3071,
      "▁part": 3072,
      "▁thirty-five": 3073,
      "▁important": 3074,
      "▁weeks": 3075,
      "ine": 3076,
      "▁million": 3077,
      "erce": 3078,
      "▁ducks": 3079,
      "▁alligator": 3080,
      "▁11:32": 3081,
      "▁tresp": 3082,
      "▁profit": 3083,
      "▁evacuated": 3084,
      "▁experim": 3085,
      "▁charlotte": 3086,
      "▁bleachers": 3087,
      "gely": 3088,
      "▁attachments": 3089,
      "▁civilized": 3090,
      "▁łodzian": 3091,
      "▁reflecting": 3092,
      "▁trauma": 3093,
      "▁employment": 3094,
      "▁correl": 3095,
      "▁agricult": 3096,
      "▁arriving": 3097,
      "▁transparency": 3098,
      "▁destination": 3099,
      "▁hoped": 3100,
      "▁lanka": 3101,
      "▁mou": 3102,
      "-7": 3103,
      "▁special": 3104,
      ".11": 3105,
      "▁#": 3106,
      "[CLS]": 3107,
      "ious": 3108,
      "thers": 3109,
      "▁campaign": 3110,
      "iculous": 3111,
      "▁macaroni": 3112,
      "▁anthony": 3113,
      "++": 3114,
      "thing": 3115,
      "▁ms.": 3116,
      "▁boat": 3117,
      "▁treated": 3118,
      "sy": 3119,
      "▁updates": 3120,
      "▁glow": 3121,
      "▁11/27/2000": 3122,
      "▁sauv": 3123,
      "▁applied": 3124,
      "▁strateg": 3125,
      "op": 3126,
      "▁interconn": 3127,
      "▁huck": 3128,
      "mos": 3129,
      "▁manusc": 3130,
      "▁professionals": 3131,
      "/d": 3132,
      "▁reads": 3133,
      "▁aft": 3134,
      "▁dies": 3135,
      "▁worlds": 3136,
      "▁during": 3137,
      "▁stories": 3138,
      "▁1890": 3139,
      "▁ahmed": 3140,
      "▁pricing": 3141,
      "▁incompreh": 3142,
      "igrew": 3143,
      "ata": 3144,
      "▁method": 3145,
      "▁hack": 3146,
      "▁prospects": 3147,
      "▁lesson": 3148,
      "▁exce": 3149,
      "▁mic": 3150,
      "▁sail": 3151,
      "entives": 3152,
      "bur": 3153,
      "▁tou": 3154,
      "pat": 3155,
      "▁fighting": 3156,
      "arity": 3157,
      "▁466": 3158,
      "▁handy": 3159,
      "▁roles": 3160,
      "encer": 3161,
      "▁line": 3162,
      "uel": 3163,
      "▁?!?": 3164,
      "▁statutory": 3165,
      "▁substant": 3166,
      "▁p.m.": 3167,
      "▁hasidim": 3168,
      "▁ivan": 3169,
      "te": 3170,
      "▁extreme": 3171,
      "▁hano": 3172,
      "▁rational": 3173,
      "▁past": 3174,
      "ocate": 3175,
      "▁seventh": 3176,
      "▁vegetarian": 3177,
      "issance": 3178,
      "▁718": 3179,
      "▁relations": 3180,
      "▁arguments": 3181,
      "▁chiro": 3182,
      "est": 3183,
      "▁cigare": 3184,
      "▁palest": 3185,
      "▁luxurious": 3186,
      "▁wink": 3187,
      "pro": 3188,
      "▁chalk": 3189,
      "▁brave": 3190,
      "▁meant": 3191,
      "▁rah": 3192,
      "▁stay": 3193,
      "▁sounded": 3194,
      "illas": 3195,
      "▁leopold": 3196,
      "reen": 3197,
      "▁french": 3198,
      "ogn": 3199,
      "▁volunte": 3200,
      "j": 3201,
      "irts": 3202,
      "76": 3203,
      "▁microphone": 3204,
      "▁rigid": 3205,
      "▁continents": 3206,
      ".pdf": 3207,
      "▁^": 3208,
      "▁civilian": 3209,
      "▁warhol": 3210,
      "▁power": 3211,
      "49": 3212,
      "▁incident": 3213,
      "▁************************************************": 3214,
      "▁416-865-3": 3215,
      "▁flav": 3216,
      "▁messages": 3217,
      "itting": 3218,
      "▁ug": 3219,
      "abling": 3220,
      "▁threat": 3221,
      "ello": 3222,
      "ora": 3223,
      "peare": 3224,
      "bish": 3225,
      "▁questar": 3226,
      "uded": 3227,
      "▁submit": 3228,
      "▁congratulate": 3229,
      "▁orbit": 3230,
      "enner": 3231,
      "▁weasleys": 3232,
      "▁pot": 3233,
      "▁ultim": 3234,
      "子": 3235,
      "▁sailed": 3236,
      "▁damascus": 3237,
      "ky": 3238,
      "±": 3239,
      "▁guild": 3240,
      "▁occurred": 3241,
      "▁overcome": 3242,
      "ma": 3243,
      "ices": 3244,
      "▁1973": 3245,
      "▁iranian": 3246,
      "▁amazing": 3247,
      "▁displaced": 3248,
      "elines": 3249,
      "▁dav": 3250,
      "entary": 3251,
      "▁jeffrey": 3252,
      "▁estimated": 3253,
      "▁assisting": 3254,
      "amon": 3255,
      "▁scratching": 3256,
      "▁protein": 3257,
      "▁quotes": 3258,
      "▁dwww": 3259,
      "▁hook": 3260,
      "▁youth": 3261,
      "▁sexual": 3262,
      "▁fisheries": 3263,
      "▁bleeding": 3264,
      "▁canc": 3265,
      "▁saturday": 3266,
      "▁11:30": 3267,
      "▁arrows": 3268,
      "▁coupons": 3269,
      "▁generation": 3270,
      "rete": 3271,
      "▁viewing": 3272,
      "▁amazingly": 3273,
      "ress": 3274,
      "▁decre": 3275,
      "▁football": 3276,
      "▁courtney": 3277,
      "▁glance": 3278,
      "▁accustomed": 3279,
      "igning": 3280,
      "▁fed": 3281,
      "▁kar": 3282,
      "▁wou": 3283,
      "▁sponsored": 3284,
      "▁harry": 3285,
      "▁weap": 3286,
      "owed": 3287,
      "ole": 3288,
      "ip": 3289,
      "▁sat": 3290,
      "▁200": 3291,
      "▁pyr": 3292,
      "▁blood": 3293,
      "▁defend": 3294,
      "▁patch": 3295,
      "▁les": 3296,
      "9/2001": 3297,
      "▁manufacturer": 3298,
      "▁celebr": 3299,
      "▁hr": 3300,
      "▁scenic": 3301,
      "▁universe": 3302,
      "br": 3303,
      "▁unemploy": 3304,
      "ground": 3305,
      "iciency": 3306,
      "75": 3307,
      "▁fourteen": 3308,
      "▁net": 3309,
      "▁baff": 3310,
      "bucks": 3311,
      "asiness": 3312,
      "▁domain": 3313,
      "ulated": 3314,
      "77": 3315,
      "▁grandm": 3316,
      "▁tomato": 3317,
      "▁horn": 3318,
      "issipp": 3319,
      "▁sid": 3320,
      "▁beg": 3321,
      "ignon": 3322,
      "▁strength": 3323,
      "&": 3324,
      "▁'71": 3325,
      "▁voldemort": 3326,
      "▁soften": 3327,
      "▁somewhere": 3328,
      "▁ye": 3329,
      "▁cpa": 3330,
      "▁emper": 3331,
      "▁complained": 3332,
      "▁accidentally": 3333,
      "▁1115": 3334,
      "▁flat": 3335,
      "▁ecosystem": 3336,
      "▁nap": 3337,
      "▁bedroom": 3338,
      "▁liv": 3339,
      "▁stat": 3340,
      "inned": 3341,
      "agne": 3342,
      "▁thinks": 3343,
      "▁cont": 3344,
      "▁experts": 3345,
      "▁newspapers": 3346,
      "▁death": 3347,
      "▁panc": 3348,
      "otts": 3349,
      "▁striking": 3350,
      ".xls": 3351,
      "▁diff": 3352,
      "▁upstairs": 3353,
      "aska": 3354,
      "▁solely": 3355,
      "ym": 3356,
      "hi": 3357,
      "▁commons": 3358,
      "▁dock": 3359,
      "mp": 3360,
      "▁wings": 3361,
      "▁gin": 3362,
      "ull": 3363,
      "wiki": 3364,
      "▁thrones": 3365,
      "▁stung": 3366,
      "▁museums": 3367,
      "▁presence": 3368,
      "xon": 3369,
      "▁porch": 3370,
      "▁infl": 3371,
      "▁conforms": 3372,
      "ore": 3373,
      "forward": 3374,
      "▁claim": 3375,
      "▁syrup": 3376,
      "▁pregn": 3377,
      "alo": 3378,
      "▁ignorant": 3379,
      "▁ign": 3380,
      "▁initial": 3381,
      "▁convention": 3382,
      "▁urs": 3383,
      "arent": 3384,
      "▁duck": 3385,
      "▁regards": 3386,
      "▁stock": 3387,
      "▁para": 3388,
      "▁1610": 3389,
      "amm": 3390,
      "ext": 3391,
      "▁memphis": 3392,
      "chant": 3393,
      "__________": 3394,
      "▁difference": 3395,
      "▁norwe": 3396,
      "▁catastroph": 3397,
      "▁flash": 3398,
      "▁epistemic": 3399,
      "▁mankind": 3400,
      "▁jersey": 3401,
      "▁congratulations": 3402,
      "▁shaped": 3403,
      "▁bomb": 3404,
      "▁inquiry": 3405,
      "▁complement": 3406,
      "▁negotiated": 3407,
      "eman": 3408,
      "▁remo": 3409,
      "ett": 3410,
      "▁spikes": 3411,
      "iterranean": 3412,
      "▁pachom": 3413,
      "▁nichol": 3414,
      "▁conspir": 3415,
      "▁1986": 3416,
      "▁trans": 3417,
      "▁asset": 3418,
      "ff": 3419,
      "▁faculty": 3420,
      "▁1993": 3421,
      "▁liber": 3422,
      "▁empty": 3423,
      "▁cathy": 3424,
      "▁depends": 3425,
      "▁ugh": 3426,
      "▁timely": 3427,
      "▁harbor": 3428,
      "▁economy": 3429,
      "ball": 3430,
      "bits": 3431,
      "mike": 3432,
      "▁disin": 3433,
      "ortun": 3434,
      "otte": 3435,
      "▁beating": 3436,
      "▁settlements": 3437,
      "iversary": 3438,
      "▁pine": 3439,
      "▁peter": 3440,
      "▁1583": 3441,
      "▁strengthening": 3442,
      "jatra": 3443,
      "▁160": 3444,
      "▁documented": 3445,
      "▁widespread": 3446,
      "▁peanuts": 3447,
      "▁admissions": 3448,
      "▁breast": 3449,
      "▁landsc": 3450,
      "▁852": 3451,
      "4/2001": 3452,
      "vet": 3453,
      "▁cru": 3454,
      "36": 3455,
      "▁awareness": 3456,
      "▁°": 3457,
      "▁frustrated": 3458,
      "▁oper": 3459,
      "web": 3460,
      "▁ox": 3461,
      "sed": 3462,
      "▁geographical": 3463,
      "▁reaff": 3464,
      "▁soup": 3465,
      "▁snitch": 3466,
      "▁11-20-2000": 3467,
      "▁granger": 3468,
      "▁chatting": 3469,
      "▁demonstr": 3470,
      "▁consist": 3471,
      "▁error": 3472,
      "ft8-7": 3473,
      "▁slee": 3474,
      "unch": 3475,
      "▁exagger": 3476,
      "▁raw": 3477,
      "▁cuz": 3478,
      "▁d": 3479,
      "cl": 3480,
      "mm": 3481,
      "499": 3482,
      "▁exc": 3483,
      "innati": 3484,
      "▁ul": 3485,
      "▁rs": 3486,
      "▁memorial": 3487,
      "▁laugh": 3488,
      "▁game": 3489,
      "▁installed": 3490,
      "▁!!!!!!!": 3491,
      "▁curve": 3492,
      "▁vic": 3493,
      "▁>----------------------------------------------------------------------------|": 3494,
      "ana": 3495,
      "▁thri": 3496,
      "▁....": 3497,
      "=1": 3498,
      "bha-": 3499,
      "▁dall": 3500,
      "▁western": 3501,
      "grin": 3502,
      "▁for": 3503,
      "▁nurse": 3504,
      "▁embedded": 3505,
      "▁than": 3506,
      "▁perceptions": 3507,
      "▁contempl": 3508,
      "ider": 3509,
      "▁owing": 3510,
      "▁interviewers": 3511,
      "▁cath": 3512,
      "▁adopt": 3513,
      "▁schools": 3514,
      "▁joint": 3515,
      "▁meditation": 3516,
      "▁stacked": 3517,
      "▁gentle": 3518,
      "▁houston": 3519,
      "▁byebye": 3520,
      "ib": 3521,
      "look": 3522,
      "▁eating": 3523,
      "▁whoever": 3524,
      "▁uneasiness": 3525,
      "▁surgery": 3526,
      "▁philippines": 3527,
      "▁saturdays": 3528,
      "cab": 3529,
      "▁persistent": 3530,
      "▁wins": 3531,
      "ert": 3532,
      "▁result": 3533,
      "019": 3534,
      "▁smaller": 3535,
      "▁1598": 3536,
      "▁four": 3537,
      "▁package": 3538,
      "▁medic": 3539,
      "ector": 3540,
      "▁upcoming": 3541,
      "▁co-f": 3542,
      "▁fold": 3543,
      "▁ninth": 3544,
      "▁notwithstand": 3545,
      "▁kurtz": 3546,
      "▁lunch": 3547,
      "▁occur": 3548,
      "▁escape": 3549,
      "▁d.c.": 3550,
      "▁heck": 3551,
      "▁100": 3552,
      "▁permission": 3553,
      "▁whole": 3554,
      "well": 3555,
      "ahu": 3556,
      ".831": 3557,
      "▁forbidden": 3558,
      "▁instructed": 3559,
      "arents": 3560,
      "▁furniture": 3561,
      "▁br": 3562,
      "▁shinjuku": 3563,
      "▁stand": 3564,
      "▁nationwide": 3565,
      "▁11/08/2000": 3566,
      "▁mariner": 3567,
      "▁ja": 3568,
      ".d": 3569,
      "▁forwarded": 3570,
      "▁anticip": 3571,
      "▁ontario": 3572,
      "一": 3573,
      "▁virtually": 3574,
      "▁cargo": 3575,
      "▁petsmart": 3576,
      "▁ma": 3577,
      "▁maria": 3578,
      "▁?????": 3579,
      "▁goose": 3580,
      "▁3.5": 3581,
      "nesday": 3582,
      "ern": 3583,
      "▁18,000": 3584,
      "▁income": 3585,
      "▁notify": 3586,
      "▁tiger": 3587,
      "▁relativ": 3588,
      "▁armies": 3589,
      "▁portions": 3590,
      "▁sinking": 3591,
      "▁percentiles": 3592,
      "elp": 3593,
      "▁natives": 3594,
      "▁accent": 3595,
      "▁arkansas": 3596,
      "uate": 3597,
      "▁financed": 3598,
      "▁bubbles": 3599,
      "▁quebec": 3600,
      "▁watered": 3601,
      "▁jack": 3602,
      "▁hussein": 3603,
      "▁whom": 3604,
      "▁?": 3605,
      "▁compens": 3606,
      "▁proposing": 3607,
      "▁18": 3608,
      "▁banned": 3609,
      "▁priorities": 3610,
      "▁analysis": 3611,
      "▁accessible": 3612,
      "-fl": 3613,
      "▁uncom": 3614,
      "▁l2": 3615,
      "▁comparative": 3616,
      "▁conformity": 3617,
      "▁moved": 3618,
      "24": 3619,
      "▁matters": 3620,
      "▁osaka": 3621,
      "▁kus": 3622,
      "▁relics": 3623,
      "▁slipped": 3624,
      "ensible": 3625,
      "▁do": 3626,
      "▁tape": 3627,
      ":30": 3628,
      "▁richard": 3629,
      "▁alphabet": 3630,
      "▁year": 3631,
      "▁robber": 3632,
      "▁6/1": 3633,
      "unia": 3634,
      "ics": 3635,
      "▁39": 3636,
      "ras": 3637,
      "▁antiqu": 3638,
      "ds": 3639,
      "aries": 3640,
      "▁electric": 3641,
      "▁bn": 3642,
      "▁one": 3643,
      "s": 3644,
      "▁plant": 3645,
      "▁88": 3646,
      "▁unto": 3647,
      "▁emphasize": 3648,
      "▁motive": 3649,
      "▁heading": 3650,
      "▁obvious": 3651,
      "▁embarrass": 3652,
      "▁pled": 3653,
      "▁patrick": 3654,
      "ny": 3655,
      "▁luck": 3656,
      "▁steel": 3657,
      "▁seam": 3658,
      "▁beat": 3659,
      "▁momma": 3660,
      ".6": 3661,
      "▁phoenix": 3662,
      "▁transactions": 3663,
      "▁extensive": 3664,
      "enos": 3665,
      "▁pach": 3666,
      "▁:-)": 3667,
      "ette": 3668,
      "▁libriv": 3669,
      "▁britain": 3670,
      "▁descend": 3671,
      "▁win": 3672,
      "/03/2001": 3673,
      "▁jokes": 3674,
      "cat": 3675,
      "▁auck": 3676,
      "▁hamburg": 3677,
      "▁producing": 3678,
      "▁wrongdo": 3679,
      "▁suspended": 3680,
      "net": 3681,
      "▁until": 3682,
      "rayed": 3683,
      "rim": 3684,
      "email": 3685,
      "▁effect": 3686,
      "▁westchester": 3687,
      "▁oz": 3688,
      "igned": 3689,
      "▁dna": 3690,
      "▁scorp": 3691,
      "▁o": 3692,
      "▁pushing": 3693,
      "▁constant": 3694,
      "▁ninet": 3695,
      "▁turnpike": 3696,
      "▁habitat": 3697,
      "▁stare": 3698,
      "acht": 3699,
      "▁appell": 3700,
      "▁13": 3701,
      "▁chill": 3702,
      "mon": 3703,
      "▁-%": 3704,
      "▁pairs": 3705,
      "wig": 3706,
      "/8/00": 3707,
      "▁ewww": 3708,
      "ne": 3709,
      "ores": 3710,
      "74": 3711,
      "dr": 3712,
      "town": 3713,
      "▁101": 3714,
      "acters": 3715,
      "▁!?": 3716,
      "isters": 3717,
      "▁vagu": 3718,
      "▁fal": 3719,
      "▁entered": 3720,
      "▁food": 3721,
      "eet": 3722,
      "▁hamburger": 3723,
      "▁ecodesign": 3724,
      "▁traditionally": 3725,
      "▁suddenly": 3726,
      "▁airplane": 3727,
      "▁its": 3728,
      "▁consume": 3729,
      "▁house": 3730,
      "▁http://www": 3731,
      "▁weapons": 3732,
      "ares": 3733,
      "▁determination": 3734,
      "lic": 3735,
      "▁formica": 3736,
      "▁creek": 3737,
      "▁ambition": 3738,
      "ouble": 3739,
      "▁poses": 3740,
      "▁employ": 3741,
      "▁ta": 3742,
      "▁absence": 3743,
      "pack": 3744,
      "▁=)": 3745,
      "ibreat": 3746,
      "▁resting": 3747,
      "▁lyn": 3748,
      "7": 3749,
      "ologies": 3750,
      "▁1724": 3751,
      "▁muggle": 3752,
      "▁horsies": 3753,
      "▁job": 3754,
      "ove": 3755,
      "▁guit": 3756,
      "▁adjustments": 3757,
      "▁houses": 3758,
      "▁committee": 3759,
      "room": 3760,
      "▁furn": 3761,
      "▁ec": 3762,
      "▁files": 3763,
      "▁book": 3764,
      "enced": 3765,
      "▁how": 3766,
      "oring": 3767,
      "▁deriv": 3768,
      "oupe": 3769,
      "▁ethnocentrism": 3770,
      "▁popeye": 3771,
      "▁asking": 3772,
      "▁paulo": 3773,
      "▁te": 3774,
      "▁josh": 3775,
      "och": 3776,
      "▁ap": 3777,
      "▁enemy": 3778,
      "▁bombings": 3779,
      "▁researching": 3780,
      "▁liquidweb": 3781,
      "▁neu": 3782,
      "▁label": 3783,
      "▁blinked": 3784,
      "▁shaikh": 3785,
      "▁smell": 3786,
      "▁requests": 3787,
      "▁todd": 3788,
      "▁walls": 3789,
      "▁sharon": 3790,
      "▁atl": 3791,
      "▁rode": 3792,
      "▁attachment": 3793,
      "▁meth": 3794,
      "▁generate": 3795,
      "▁ward": 3796,
      "▁bom": 3797,
      "▁investigation": 3798,
      "▁martyr": 3799,
      "itative": 3800,
      "▁spacecraft": 3801,
      "ocr": 3802,
      "▁subsc": 3803,
      "▁ak": 3804,
      "▁waving": 3805,
      "imony": 3806,
      "▁igts": 3807,
      "awk": 3808,
      "engers": 3809,
      "▁gil": 3810,
      "herd": 3811,
      "▁toy": 3812,
      "▁sem": 3813,
      "▁rapidly": 3814,
      "▁knot": 3815,
      "▁vlad": 3816,
      "▁able": 3817,
      "▁worked": 3818,
      "▁zo": 3819,
      "▁knock": 3820,
      "▁tunisia": 3821,
      "▁gorbach": 3822,
      "▁bureauc": 3823,
      "▁authentic": 3824,
      "▁metro": 3825,
      "▁pock": 3826,
      "▁bumped": 3827,
      "▁touch": 3828,
      "▁org": 3829,
      "▁discussing": 3830,
      "▁lung": 3831,
      "▁happ": 3832,
      "▁morocco": 3833,
      "▁secure": 3834,
      "▁capacity": 3835,
      "▁fuss": 3836,
      "▁majority": 3837,
      "ader": 3838,
      ".jpg": 3839,
      "enna": 3840,
      "▁tore": 3841,
      "ensed": 3842,
      "▁interval": 3843,
      "▁possibilities": 3844,
      "▁planet": 3845,
      "▁tile": 3846,
      "omic": 3847,
      "▁solved": 3848,
      "▁significance": 3849,
      "unh": 3850,
      "▁ther": 3851,
      "▁african": 3852,
      "▁declaring": 3853,
      "▁iq": 3854,
      "▁tells": 3855,
      "▁adapted": 3856,
      "▁shone": 3857,
      "▁madrid": 3858,
      "▁rhym": 3859,
      "uity": 3860,
      "▁licens": 3861,
      "▁ell": 3862,
      "▁attended": 3863,
      "itarian": 3864,
      "▁meh-r": 3865,
      "uffy": 3866,
      "▁milwaukee": 3867,
      "umble": 3868,
      "▁combined": 3869,
      "▁nicely": 3870,
      "alam": 3871,
      "cht": 3872,
      "▁suite": 3873,
      "▁town": 3874,
      "bone": 3875,
      "▁consideration": 3876,
      "▁validity": 3877,
      "▁suggesting": 3878,
      "▁translates": 3879,
      "▁perro": 3880,
      "▁policy": 3881,
      "▁disappeared": 3882,
      "▁after": 3883,
      "ffin": 3884,
      "▁temp": 3885,
      "▁w3c": 3886,
      "▁dries": 3887,
      "gregation": 3888,
      "▁wednesday": 3889,
      "▁overfl": 3890,
      "▁recommended": 3891,
      "▁assemb": 3892,
      "▁allerg": 3893,
      "-col": 3894,
      "points": 3895,
      "rial": 3896,
      "▁frust": 3897,
      "▁scramb": 3898,
      "▁vict": 3899,
      "▁colored": 3900,
      "▁cre": 3901,
      "▁entities": 3902,
      "viat": 3903,
      "tle": 3904,
      "▁malf": 3905,
      "▁throu": 3906,
      "▁endang": 3907,
      "▁scientology": 3908,
      "isco": 3909,
      "▁800.713.86": 3910,
      "********************************": 3911,
      "neath": 3912,
      "▁checked": 3913,
      "▁stranger": 3914,
      "▁angles": 3915,
      "▁notified": 3916,
      "▁directly": 3917,
      "92": 3918,
      "ins": 3919,
      "▁farmer": 3920,
      "▁@": 3921,
      "bir": 3922,
      "▁forwarding": 3923,
      "▁253": 3924,
      "▁inter": 3925,
      "▁constit": 3926,
      "▁iu": 3927,
      "ilis": 3928,
      "parnasse": 3929,
      "▁credential": 3930,
      "▁1.4": 3931,
      "alling": 3932,
      "▁overth": 3933,
      "▁march": 3934,
      "group": 3935,
      "▁keeps": 3936,
      "▁breaking": 3937,
      "tie": 3938,
      "▁cute": 3939,
      "▁erase": 3940,
      "▁manuf": 3941,
      "ictions": 3942,
      "▁presentation": 3943,
      "▁kenya": 3944,
      "▁pieces": 3945,
      "▁6871082": 3946,
      "▁please": 3947,
      "▁07/17/2000": 3948,
      "▁beetle": 3949,
      "▁design": 3950,
      "▁double": 3951,
      "vd": 3952,
      "▁posed": 3953,
      "▁counterpart": 3954,
      "▁7:30": 3955,
      "▁placed": 3956,
      "▁11:07": 3957,
      "▁fragile": 3958,
      "▁conf": 3959,
      "▁farms": 3960,
      "enga": 3961,
      "owl": 3962,
      "▁legitimacy": 3963,
      "wash": 3964,
      "▁expon": 3965,
      "sh-e": 3966,
      "▁fabric": 3967,
      "▁kwww": 3968,
      "▁casually": 3969,
      "▁concer": 3970,
      "▁weeds": 3971,
      "▁situations": 3972,
      "▁citrus": 3973,
      "▁sust": 3974,
      "▁s-": 3975,
      "▁publish": 3976,
      "▁doggies": 3977,
      "▁protect": 3978,
      "ensive": 3979,
      "66": 3980,
      "oard": 3981,
      "icts": 3982,
      "▁estimates": 3983,
      "▁any": 3984,
      "▁finding": 3985,
      "▁desert": 3986,
      "▁mecca": 3987,
      "▁tug": 3988,
      "ath": 3989,
      "night": 3990,
      "▁moment": 3991,
      "▁11.5": 3992,
      "▁colom": 3993,
      "▁cind": 3994,
      "▁recreat": 3995,
      "▁closet": 3996,
      "erto": 3997,
      "▁old": 3998,
      "ura": 3999,
      "▁motorcy": 4000,
      "ties": 4001,
      "▁cyn": 4002,
      "25": 4003,
      "▁swallow": 4004,
      "▁coher": 4005,
      "▁them": 4006,
      "▁flour": 4007,
      "▁minus": 4008,
      "▁prov": 4009,
      "▁machines": 4010,
      "▁expl": 4011,
      "▁non-avian": 4012,
      "▁linking": 4013,
      "▁triv": 4014,
      "▁......": 4015,
      "▁tray": 4016,
      "▁total": 4017,
      "raft": 4018,
      "▁miss": 4019,
      "▁moist": 4020,
      "▁all": 4021,
      "▁chem": 4022,
      "▁website": 4023,
      "▁theropod": 4024,
      "▁abundant": 4025,
      "ame": 4026,
      "▁completing": 4027,
      "▁dread": 4028,
      "oculars": 4029,
      "▁iqr": 4030,
      "▁chao": 4031,
      "▁injust": 4032,
      "▁residential": 4033,
      "▁nyc": 4034,
      "tt": 4035,
      "▁moust": 4036,
      "▁n’t": 4037,
      "▁leader": 4038,
      "▁450": 4039,
      "59": 4040,
      "▁incentives": 4041,
      "▁geographic": 4042,
      "▁sar": 4043,
      "▁carvings": 4044,
      "▁bars": 4045,
      "search": 4046,
      "▁maintenance": 4047,
      "▁bicycle": 4048,
      "▁wak": 4049,
      "ipop": 4050,
      "▁chop": 4051,
      "▁-----": 4052,
      "▁join": 4053,
      "▁roost": 4054,
      "▁integr": 4055,
      "▁jose": 4056,
      "▁know": 4057,
      "nets": 4058,
      "▁poles": 4059,
      "▁occasionally": 4060,
      "▁theirs": 4061,
      "▁permits": 4062,
      "▁da": 4063,
      "▁receive": 4064,
      "▁comp": 4065,
      "▁presently": 4066,
      "ored": 4067,
      "▁trying": 4068,
      "▁purch": 4069,
      "▁enthusiasm": 4070,
      "▁http://www.4gamer.net/news/image/2005.09/2005091903": 4071,
      "▁causes": 4072,
      "▁nym": 4073,
      "▁reserves": 4074,
      "alth": 4075,
      "▁forget": 4076,
      "▁economically": 4077,
      "▁boing": 4078,
      "▁explains": 4079,
      "▁manager": 4080,
      "▁popsicle": 4081,
      "river": 4082,
      "▁league": 4083,
      "▁store": 4084,
      "▁followed": 4085,
      "▁toronto": 4086,
      "▁features": 4087,
      "t": 4088,
      "ental": 4089,
      "▁rip": 4090,
      "▁define": 4091,
      "ally": 4092,
      "▁750": 4093,
      "insula": 4094,
      "▁dissemination": 4095,
      "ied": 4096,
      "▁bott": 4097,
      "▁knowledg": 4098,
      "▁phd": 4099,
      "anas": 4100,
      "▁alan": 4101,
      "huh": 4102,
      "gia": 4103,
      "▁1-8": 4104,
      "▁repaired": 4105,
      "▁ano": 4106,
      "otic": 4107,
      "qu": 4108,
      "▁compliance": 4109,
      "▁preparation": 4110,
      "▁raf": 4111,
      "▁minimal": 4112,
      "▁dir": 4113,
      "▁technologies": 4114,
      "▁filthy": 4115,
      "▁case": 4116,
      "▁check": 4117,
      "▁pile": 4118,
      "▁borrow": 4119,
      "▁nag": 4120,
      "▁trim": 4121,
      "▁loyal": 4122,
      "ees": 4123,
      "16": 4124,
      "▁thousand": 4125,
      "▁rely": 4126,
      "▁macbeth": 4127,
      "▁deer": 4128,
      "▁extent": 4129,
      "▁encourage": 4130,
      "big": 4131,
      "▁eleg": 4132,
      "▁membership": 4133,
      "yal": 4134,
      "▁plut": 4135,
      "yard": 4136,
      "▁ensured": 4137,
      "▁statistics": 4138,
      "▁scottish": 4139,
      "▁kicking": 4140,
      "▁sprouts": 4141,
      "ripts": 4142,
      "▁extract": 4143,
      "▁gods": 4144,
      "▁non-": 4145,
      "▁endea": 4146,
      "▁uniquely": 4147,
      "▁compensate": 4148,
      "▁role": 4149,
      "▁mujah": 4150,
      "▁aim": 4151,
      "▁deem": 4152,
      "▁filtering": 4153,
      "▁6:30": 4154,
      "▁muscles": 4155,
      "wikihow": 4156,
      "▁twink": 4157,
      "▁transwestern": 4158,
      "amo": 4159,
      "tax": 4160,
      "▁autom": 4161,
      "▁bapt": 4162,
      "▁bang": 4163,
      "▁policeman": 4164,
      "▁1843": 4165,
      "▁exhibited": 4166,
      "▁lottery": 4167,
      "▁molec": 4168,
      "▁doggy": 4169,
      "ategy": 4170,
      "liver": 4171,
      "▁jump": 4172,
      "▁plun": 4173,
      "▁writ": 4174,
      "-down": 4175,
      "▁ever": 4176,
      "ient": 4177,
      "▁sentence": 4178,
      "▁pew": 4179,
      "▁leaves": 4180,
      "▁turned": 4181,
      "▁tal": 4182,
      "▁orient": 4183,
      "▁settle": 4184,
      "▁deploy": 4185,
      "▁spirit": 4186,
      "▁neoclass": 4187,
      "cast": 4188,
      "rav": 4189,
      "▁705": 4190,
      "▁undergrad": 4191,
      "▁purpose": 4192,
      "▁guilt": 4193,
      "log": 4194,
      "antanamo": 4195,
      "▁sanders": 4196,
      "ching": 4197,
      "▁gorbachev": 4198,
      "▁poetic": 4199,
      "isf": 4200,
      "▁subs": 4201,
      "▁native": 4202,
      "▁arabia": 4203,
      "▁rolled": 4204,
      "ustom": 4205,
      "▁dog": 4206,
      "▁officers": 4207,
      "▁factory": 4208,
      "▁intellig": 4209,
      "▁revolution": 4210,
      "ocrats": 4211,
      "▁seating": 4212,
      "▁personal": 4213,
      "▁denise": 4214,
      "▁blur": 4215,
      "bound": 4216,
      "▁upside": 4217,
      "▁snakes": 4218,
      "▁devil": 4219,
      "iences": 4220,
      "▁exch": 4221,
      "▁260": 4222,
      "80": 4223,
      "▁observations": 4224,
      "▁713-853-1696": 4225,
      "clus": 4226,
      "▁parent": 4227,
      "▁713-793-": 4228,
      "▁gear": 4229,
      "▁has": 4230,
      "▁demon": 4231,
      "arrass": 4232,
      "▁inhabitants": 4233,
      "▁best": 4234,
      "▁constitution": 4235,
      "▁pain": 4236,
      "oko": 4237,
      "▁neither": 4238,
      "▁guadeloupe": 4239,
      "nondelibreaten": 4240,
      "▁uh": 4241,
      "▁end": 4242,
      "▁suspected": 4243,
      "▁improvements": 4244,
      "▁doors": 4245,
      "▁mcg": 4246,
      "under": 4247,
      "80s": 4248,
      "▁parallel": 4249,
      "▁spac": 4250,
      "umer": 4251,
      "▁bugs": 4252,
      "▁naval": 4253,
      "▁hauled": 4254,
      "▁darker": 4255,
      "15-": 4256,
      ",": 4257,
      "isted": 4258,
      "▁terrible": 4259,
      "argement": 4260,
      "▁tommy": 4261,
      "▁70": 4262,
      "▁high": 4263,
      "▁cha": 4264,
      "▁had": 4265,
      "▁holt": 4266,
      "▁619": 4267,
      "▁nmemdrft8-7-01": 4268,
      "▁60": 4269,
      "▁03/09/2000": 4270,
      "▁fault": 4271,
      "▁2,300": 4272,
      "▁patients": 4273,
      "life": 4274,
      "▁bert": 4275,
      "▁afford": 4276,
      "▁twilight": 4277,
      "▁greetings": 4278,
      "ilities": 4279,
      "389": 4280,
      "▁dialog": 4281,
      "▁mit": 4282,
      "▁sandra": 4283,
      "▁---->===}*{===<----": 4284,
      "▁partnerships": 4285,
      "tta": 4286,
      "▁`": 4287,
      "▁spices": 4288,
      "▁poems": 4289,
      "▁hoc": 4290,
      "▁hambal": 4291,
      "fi": 4292,
      "▁notions": 4293,
      "▁recip": 4294,
      "▁massive": 4295,
      "▁household": 4296,
      "▁pro": 4297,
      "ius": 4298,
      "▁rec": 4299,
      "▁daughters": 4300,
      "▁attract": 4301,
      "**********************************": 4302,
      "aren": 4303,
      "rr": 4304,
      "▁cou": 4305,
      "▁broke": 4306,
      "▁1978": 4307,
      "▁713/8": 4308,
      "▁river": 4309,
      "astic": 4310,
      "▁morgan": 4311,
      "eenth": 4312,
      "-460-3": 4313,
      "▁finest": 4314,
      "▁obser": 4315,
      "▁curren": 4316,
      "▁baby": 4317,
      "▁consensus": 4318,
      "▁encabalgamiento": 4319,
      "▁bodies": 4320,
      "0th": 4321,
      "▁awkward": 4322,
      "ef": 4323,
      "▁tickle": 4324,
      "▁columns": 4325,
      "bern": 4326,
      "▁transmedia": 4327,
      "▁persistence": 4328,
      "atm": 4329,
      "▁apple": 4330,
      "▁users": 4331,
      "70s": 4332,
      "▁obligations": 4333,
      "au": 4334,
      "▁offered": 4335,
      "▁provided": 4336,
      "▁ass": 4337,
      "▁p&": 4338,
      "gu": 4339,
      "awah": 4340,
      "▁fled": 4341,
      "▁finger": 4342,
      "▁nante": 4343,
      "▁systematic": 4344,
      "▁landings": 4345,
      "▁cu": 4346,
      "▁spider": 4347,
      "▁wanted": 4348,
      "▁confirms": 4349,
      "▁maintaining": 4350,
      "▁g": 4351,
      "▁manual": 4352,
      "/2": 4353,
      "▁caves": 4354,
      "pp": 4355,
      "hous": 4356,
      "▁09/15": 4357,
      "▁exploring": 4358,
      "itzer": 4359,
      "eller": 4360,
      "▁hong": 4361,
      "▁scope": 4362,
      "▁hurting": 4363,
      "▁sufficiently": 4364,
      "▁planted": 4365,
      "▁li": 4366,
      "▁!!!!": 4367,
      "organ": 4368,
      "▁rough": 4369,
      "▁acquiring": 4370,
      "rel": 4371,
      "▁watch": 4372,
      "▁satellite": 4373,
      "igration": 4374,
      "▁convince": 4375,
      "dering": 4376,
      "ode": 4377,
      "▁syrian": 4378,
      "osc": 4379,
      "▁wol": 4380,
      "▁did": 4381,
      "▁develop": 4382,
      "▁rush": 4383,
      "aud": 4384,
      "▁pittsbur": 4385,
      "▁families": 4386,
      "▁depths": 4387,
      "▁bearing": 4388,
      "================================": 4389,
      "iss": 4390,
      "▁string": 4391,
      "▁athlet": 4392,
      "icial": 4393,
      "ences": 4394,
      "adelp": 4395,
      "▁notes": 4396,
      "▁,": 4397,
      "▁fungus": 4398,
      "▁adults": 4399,
      "▁converted": 4400,
      "▁profession": 4401,
      "▁invention": 4402,
      "▁sj": 4403,
      "▁bridges": 4404,
      "▁consumer": 4405,
      "▁opposite": 4406,
      "idden": 4407,
      "▁an": 4408,
      "▁main": 4409,
      "▁podcast": 4410,
      "▁laws": 4411,
      "▁attrib": 4412,
      "ap": 4413,
      "▁marcel": 4414,
      "▁conserv": 4415,
      "▁50000": 4416,
      "back": 4417,
      "▁ansi-92": 4418,
      "elf": 4419,
      "▁78": 4420,
      "▁heating": 4421,
      "▁gut": 4422,
      "▁likely": 4423,
      "▁english": 4424,
      "0072": 4425,
      "▁cher": 4426,
      "▁conqu": 4427,
      "▁spaw": 4428,
      "▁blackl": 4429,
      "▁human": 4430,
      "iki": 4431,
      "▁fiction": 4432,
      "▁woo": 4433,
      "▁perspective": 4434,
      "▁commentary": 4435,
      "saoui": 4436,
      "ak": 4437,
      "ronic": 4438,
      "▁stage": 4439,
      "▁1875": 4440,
      "▁arrangement": 4441,
      "▁seated": 4442,
      "▁dec": 4443,
      "▁thin": 4444,
      "▁sponge": 4445,
      "li": 4446,
      "▁verify": 4447,
      "▁281-443-3744": 4448,
      "▁execution": 4449,
      "▁sculpt": 4450,
      "lig": 4451,
      "▁exile": 4452,
      "▁afghanistan": 4453,
      "la": 4454,
      "▁screaming": 4455,
      "os.com": 4456,
      "51_": 4457,
      "▁galleries": 4458,
      "lets": 4459,
      "pt": 4460,
      "ream": 4461,
      "▁9/11": 4462,
      "rint": 4463,
      "▁glanced": 4464,
      "▁dea": 4465,
      "▁concern": 4466,
      "/16": 4467,
      "▁abandoned": 4468,
      "▁lym": 4469,
      "▁outcome": 4470,
      "▁elbow": 4471,
      "▁unbel": 4472,
      ":03": 4473,
      "here": 4474,
      "▁but": 4475,
      "▁rural": 4476,
      "-00": 4477,
      "▁dab": 4478,
      "▁-----------------": 4479,
      "▁joseph": 4480,
      "▁expect": 4481,
      "▁hel": 4482,
      "▁famil": 4483,
      "5/2001": 4484,
      "berry": 4485,
      "--------------------------------------------": 4486,
      "▁circum": 4487,
      "▁reass": 4488,
      "▁pull": 4489,
      "▁suffer": 4490,
      "▁entitled": 4491,
      "▁po": 4492,
      "▁talk": 4493,
      "itty": 4494,
      "”": 4495,
      "▁actress": 4496,
      "▁satanism": 4497,
      "▁merida": 4498,
      "aid": 4499,
      "▁indian": 4500,
      "▁horrible": 4501,
      "▁connected": 4502,
      "▁votes": 4503,
      "▁grumble": 4504,
      ":02": 4505,
      "▁abuse": 4506,
      "▁preventing": 4507,
      "▁meat": 4508,
      "ively": 4509,
      "2-6": 4510,
      "▁well-": 4511,
      "▁lon": 4512,
      "▁120": 4513,
      "3.6": 4514,
      "▁geograph": 4515,
      "4": 4516,
      "▁sang": 4517,
      "ric": 4518,
      "01": 4519,
      "▁identifying": 4520,
      "uster": 4521,
      "▁lone": 4522,
      "ea": 4523,
      "▁410-468-3": 4524,
      "▁transwest": 4525,
      "▁rid": 4526,
      "dge": 4527,
      "▁sending": 4528,
      "▁punct": 4529,
      "▁chat": 4530,
      "▁gam": 4531,
      "▁surveillance": 4532,
      "▁encouraged": 4533,
      "▁obl": 4534,
      "ok": 4535,
      "▁committed": 4536,
      "301": 4537,
      "▁http://www.4gamer.net/news/image/2005.09": 4538,
      "▁exercises": 4539,
      "▁passionate": 4540,
      "▁purs": 4541,
      "▁pric": 4542,
      "▁bread": 4543,
      "▁el": 4544,
      "▁cliffy": 4545,
      "▁impression": 4546,
      "omen": 4547,
      "ility": 4548,
      "▁owned": 4549,
      "▁galois": 4550,
      "▁panic": 4551,
      "▁fernand": 4552,
      "▁lumin": 4553,
      "▁recommendation": 4554,
      "▁jam": 4555,
      "/7": 4556,
      "▁leisure": 4557,
      "▁dogg": 4558,
      "▁6.1": 4559,
      "▁charity": 4560,
      "eo": 4561,
      "a.": 4562,
      "▁mainland": 4563,
      "ebe": 4564,
      "▁arthur": 4565,
      "eces": 4566,
      "ocratic": 4567,
      "▁putin": 4568,
      "zema": 4569,
      "-8": 4570,
      "▁status": 4571,
      "▁rubble": 4572,
      "aroo": 4573,
      "▁vet": 4574,
      "▁microsoft": 4575,
      "▁stickerbirds": 4576,
      "▁sump": 4577,
      "▁implemented": 4578,
      "ograph": 4579,
      "▁valuable": 4580,
      "▁seat": 4581,
      "▁tabennese": 4582,
      "▁47": 4583,
      "▁diana": 4584,
      "▁sway": 4585,
      "▁pennsylv": 4586,
      "▁ant": 4587,
      "▁front": 4588,
      "▁jones": 4589,
      "▁nowhere": 4590,
      "▁08/0": 4591,
      "▁240": 4592,
      "rons": 4593,
      "▁ob": 4594,
      "ither": 4595,
      "rating": 4596,
      "▁probably": 4597,
      "▁migrant": 4598,
      "eb": 4599,
      "▁austria": 4600,
      "▁wine": 4601,
      "▁superb": 4602,
      "▁religion": 4603,
      "▁presidents": 4604,
      "inform": 4605,
      "▁pre": 4606,
      "▁ne": 4607,
      "▁ris": 4608,
      "▁travis": 4609,
      "▁stink": 4610,
      "▁filling": 4611,
      "▁!!!!!!": 4612,
      "▁neighb": 4613,
      "liness": 4614,
      "▁created": 4615,
      "▁terry": 4616,
      "reh": 4617,
      "▁polish": 4618,
      "▁median": 4619,
      "▁doctors": 4620,
      "▁1800": 4621,
      "erm": 4622,
      "▁moslem": 4623,
      "ʊ": 4624,
      "▁---------------------------------": 4625,
      ".16": 4626,
      "▁accepted": 4627,
      "▁comments": 4628,
      "▁2": 4629,
      "▁06": 4630,
      "stem": 4631,
      "▁harbour": 4632,
      "▁could": 4633,
      "▁manh": 4634,
      "asser": 4635,
      "▁gent": 4636,
      "▁heights": 4637,
      "▁enlargement": 4638,
      "▁pal": 4639,
      "▁christchurch": 4640,
      "s/": 4641,
      "▁over": 4642,
      "▁piano": 4643,
      "ilit": 4644,
      "real": 4645,
      "▁re": 4646,
      "▁bull": 4647,
      "▁fundamentally": 4648,
      "▁intense": 4649,
      "adar": 4650,
      "▁lies": 4651,
      "▁sinh": 4652,
      "▁prod": 4653,
      "▁committ": 4654,
      "▁grandpa": 4655,
      "▁exposed": 4656,
      "tr": 4657,
      "▁cliff": 4658,
      "▁nut": 4659,
      "▁grande": 4660,
      "▁spor": 4661,
      "▁official": 4662,
      "lause": 4663,
      "pped": 4664,
      "▁beware": 4665,
      "▁essex": 4666,
      "▁inex": 4667,
      "▁loss": 4668,
      "▁000010": 4669,
      "▁intended": 4670,
      "▁guessed": 4671,
      "▁storage": 4672,
      "▁departing": 4673,
      "▁length": 4674,
      "▁intermed": 4675,
      "▁backwards": 4676,
      "icles": 4677,
      "aine": 4678,
      "▁swept": 4679,
      "istrib": 4680,
      "▁enjoyable": 4681,
      "▁designated": 4682,
      "▁autobiograph": 4683,
      "▁coord": 4684,
      "▁inc.": 4685,
      "▁mentioned": 4686,
      "▁pastor": 4687,
      "▁least": 4688,
      "▁achieve": 4689,
      "ney": 4690,
      "▁730": 4691,
      "▁wtc": 4692,
      "▁chasing": 4693,
      "▁message": 4694,
      "▁1504": 4695,
      "▁mason": 4696,
      "▁actor": 4697,
      "▁1949": 4698,
      "pheric": 4699,
      "▁usual": 4700,
      "▁hamas": 4701,
      "▁3.8": 4702,
      "▁condem": 4703,
      "▁hitting": 4704,
      "▁cray": 4705,
      "▁themes": 4706,
      "▁cent": 4707,
      "▁vacuum": 4708,
      "▁outcomes": 4709,
      "izes": 4710,
      "▁transformation": 4711,
      "▁pioneer": 4712,
      "▁hym": 4713,
      "▁mater": 4714,
      "▁securities": 4715,
      "▁vot": 4716,
      "▁dubai": 4717,
      "▁republicans": 4718,
      "values": 4719,
      "▁iguazu": 4720,
      "▁squir": 4721,
      "▁chalmers": 4722,
      "▁shame": 4723,
      "▁foot": 4724,
      "▁empirical": 4725,
      "enses": 4726,
      "▁sitting": 4727,
      "▁arrow": 4728,
      "iograph": 4729,
      "▁neologism": 4730,
      "▁knights": 4731,
      "▁verd": 4732,
      "roy": 4733,
      "▁embr": 4734,
      "▁grumbles": 4735,
      "▁popular": 4736,
      "▁pray": 4737,
      "keys": 4738,
      "▁15,000": 4739,
      "@t": 4740,
      "ane": 4741,
      "▁email": 4742,
      "load": 4743,
      "▁function": 4744,
      "ologically": 4745,
      "▁black": 4746,
      "▁1841": 4747,
      "▁ferry": 4748,
      "ty": 4749,
      "▁frightened": 4750,
      "ppers": 4751,
      "▁painful": 4752,
      "▁1588": 4753,
      "▁represents": 4754,
      "▁warmer": 4755,
      "▁spr": 4756,
      "...@": 4757,
      "▁helicopters": 4758,
      "▁phant": 4759,
      "▁adaptation": 4760,
      "▁11/2": 4761,
      "▁mant": 4762,
      "▁alleged": 4763,
      "▁ill": 4764,
      "▁anthrax": 4765,
      "avian": 4766,
      "▁1623": 4767,
      "▁band": 4768,
      "▁balances": 4769,
      "▁canadian": 4770,
      "▁crust": 4771,
      "▁81": 4772,
      "▁canvas": 4773,
      "teen": 4774,
      "}*{===<----": 4775,
      "▁uncont": 4776,
      "▁yelling": 4777,
      "▁co": 4778,
      "▁grim": 4779,
      "▁forster@enron": 4780,
      "▁luncht": 4781,
      "gers": 4782,
      "▁charl": 4783,
      "▁asap": 4784,
      "▁dates": 4785,
      "vere": 4786,
      "▁locations": 4787,
      "▁hindu": 4788,
      "▁fixing": 4789,
      "▁166": 4790,
      "aken": 4791,
      "▁\"": 4792,
      "▁refriger": 4793,
      "▁85": 4794,
      "▁record": 4795,
      "▁yea": 4796,
      "▁manage": 4797,
      "▁schema": 4798,
      "▁strict": 4799,
      "▁former": 4800,
      "▁contrary": 4801,
      "▁migrants": 4802,
      "▁eurostar": 4803,
      "▁pouring": 4804,
      "▁650": 4805,
      "▁20,000": 4806,
      "ught": 4807,
      "▁vom": 4808,
      "▁suspic": 4809,
      "▁disneyland": 4810,
      "▁bat": 4811,
      "ops": 4812,
      "▁vegas": 4813,
      "▁circumstances": 4814,
      "▁bobby": 4815,
      "▁pilgr": 4816,
      "ieth": 4817,
      "▁spectac": 4818,
      "▁males": 4819,
      "▁percentile": 4820,
      "▁gail": 4821,
      "▁enhance": 4822,
      "▁knife": 4823,
      "▁display": 4824,
      "▁target": 4825,
      "▁ruler": 4826,
      "come": 4827,
      "▁problem": 4828,
      "▁1983": 4829,
      "▁lea": 4830,
      "▁mysterious": 4831,
      "▁greece": 4832,
      "▁joking": 4833,
      "▁2:30": 4834,
      "▁organization": 4835,
      "▁und": 4836,
      "▁whose": 4837,
      "ression": 4838,
      "▁star": 4839,
      "▁movies": 4840,
      "▁trash": 4841,
      "▁communist": 4842,
      "▁chocolates": 4843,
      "▁condemned": 4844,
      "▁potter": 4845,
      "▁traveling": 4846,
      "▁chart": 4847,
      "▁girls": 4848,
      "▁policies": 4849,
      "▁flow": 4850,
      "▁founder": 4851,
      "▁allergic": 4852,
      "▁survive": 4853,
      "▁deeply": 4854,
      "▁trusted": 4855,
      "▁physic": 4856,
      "▁characterized": 4857,
      "▁505-625-8031": 4858,
      "▁barrett": 4859,
      "▁relig": 4860,
      "▁fruit": 4861,
      "▁evolution": 4862,
      "▁eec": 4863,
      "▁kill": 4864,
      "▁proceed": 4865,
      "▁accordingly": 4866,
      "▁goo": 4867,
      "▁flirt": 4868,
      "▁broken": 4869,
      "▁liqu": 4870,
      "▁ret": 4871,
      "▁chair": 4872,
      "▁adh": 4873,
      "▁etc.": 4874,
      "▁fork": 4875,
      "▁constitutional": 4876,
      "▁norway": 4877,
      "▁pseud": 4878,
      "▁tatt": 4879,
      "▁patterns": 4880,
      "▁years": 4881,
      "▁subtle": 4882,
      "▁137": 4883,
      "▁freedom": 4884,
      "▁dried": 4885,
      "▁genius": 4886,
      "▁ba": 4887,
      "▁dodge": 4888,
      "▁boeing": 4889,
      "berts": 4890,
      "▁gloria": 4891,
      "▁mushrooms": 4892,
      "▁twenty": 4893,
      "▁manag": 4894,
      "▁stadium": 4895,
      "▁v": 4896,
      "'re": 4897,
      "▁woods": 4898,
      "▁posts": 4899,
      "aining": 4900,
      "▁tear": 4901,
      "0/2000": 4902,
      "umber": 4903,
      "▁moreover": 4904,
      "▁mechanic": 4905,
      "▁ii": 4906,
      "▁post": 4907,
      "▁swe": 4908,
      "▁dance": 4909,
      "inct": 4910,
      "▁bren": 4911,
      "▁ark": 4912,
      "▁posting": 4913,
      "▁especially": 4914,
      "▁evans": 4915,
      "▁hilar": 4916,
      "▁>": 4917,
      "▁japanese": 4918,
      "▁s/he": 4919,
      "▁greet": 4920,
      "oust": 4921,
      "/chernobyl": 4922,
      "▁eats": 4923,
      "▁specialist": 4924,
      "▁expenses": 4925,
      "▁supporter": 4926,
      "ception": 4927,
      "况": 4928,
      "▁1967": 4929,
      "▁gold": 4930,
      "▁terrell": 4931,
      "▁continuation": 4932,
      "▁df": 4933,
      "▁limous": 4934,
      "▁appet": 4935,
      "▁naked": 4936,
      "▁reluct": 4937,
      "ise": 4938,
      "▁evaluate": 4939,
      "▁anti-": 4940,
      "▁gifts": 4941,
      "aur": 4942,
      "le": 4943,
      "▁childhood": 4944,
      "ellow": 4945,
      "▁partially": 4946,
      "▁attacks": 4947,
      ":44": 4948,
      "▁involves": 4949,
      "▁acquisition": 4950,
      "▁conventional": 4951,
      "▁straight": 4952,
      "cross": 4953,
      "▁contribution": 4954,
      "▁policymakers": 4955,
      "}*{": 4956,
      "k.": 4957,
      "itage": 4958,
      "▁capabilities": 4959,
      "▁1994": 4960,
      "________": 4961,
      "▁industry": 4962,
      "-by": 4963,
      "▁bi": 4964,
      "ulty": 4965,
      "ction": 4966,
      "▁strawberry": 4967,
      "▁buzz": 4968,
      "▁borders": 4969,
      "▁comic": 4970,
      "▁prosec": 4971,
      "▁offer": 4972,
      "isan": 4973,
      "▁commod": 4974,
      "▁di": 4975,
      "▁pup": 4976,
      "▁button": 4977,
      "gar": 4978,
      "▁compress": 4979,
      "▁inspector": 4980,
      "▁say": 4981,
      "▁medieval": 4982,
      "▁possible": 4983,
      "▁staff": 4984,
      "▁aband": 4985,
      "▁ciao": 4986,
      "▁shrug": 4987,
      "▁poodle": 4988,
      "▁rise": 4989,
      "▁greeted": 4990,
      "▁vinny": 4991,
      "▁bron": 4992,
      "▁congregation": 4993,
      "▁squashed": 4994,
      "▁24": 4995,
      "▁supplies": 4996,
      "▁measured": 4997,
      "▁sender": 4998,
      "▁attached": 4999,
      "▁mos": 5000,
      "fare": 5001,
      "▁1754": 5002,
      "▁slim": 5003,
      "▁lu": 5004,
      "▁tren": 5005,
      "▁congr": 5006,
      "▁ignorance": 5007,
      "▁down": 5008,
      "▁cosplay": 5009,
      "ming": 5010,
      "▁inflation": 5011,
      "▁controls": 5012,
      "▁announcement": 5013,
      "▁heav": 5014,
      "▁policing": 5015,
      "▁truly": 5016,
      "▁kay": 5017,
      "▁vast": 5018,
      "▁sochi": 5019,
      "▁patrons": 5020,
      "▁assass": 5021,
      "▁lions": 5022,
      "▁intelligence": 5023,
      "▁yan": 5024,
      "▁treatise": 5025,
      "▁wear": 5026,
      "▁expand": 5027,
      "▁egyptian": 5028,
      "ush": 5029,
      "▁andril": 5030,
      "k": 5031,
      "▁senior": 5032,
      "▁host": 5033,
      "rick": 5034,
      "▁optim": 5035,
      "▁aesthetics": 5036,
      "▁software": 5037,
      "/p": 5038,
      "▁hamster": 5039,
      "▁trucks": 5040,
      "▁purchases": 5041,
      "ard": 5042,
      "▁enthus": 5043,
      "’t": 5044,
      "▁beauty": 5045,
      "ent": 5046,
      "occo": 5047,
      "▁custom": 5048,
      "▁stronger": 5049,
      "▁utility": 5050,
      "▁surrender": 5051,
      "▁islamic": 5052,
      "▁infant": 5053,
      "ay": 5054,
      "▁embarrassing": 5055,
      "▁lipsticks": 5056,
      "▁thought": 5057,
      "▁darkness": 5058,
      "cho": 5059,
      "▁225": 5060,
      "▁capable": 5061,
      "▁5,000": 5062,
      "▁smoking": 5063,
      "▁gambling": 5064,
      "o.": 5065,
      "▁associate": 5066,
      "▁municipality": 5067,
      "▁tong": 5068,
      "▁mour": 5069,
      "zzy": 5070,
      "▁unst": 5071,
      "ize": 5072,
      "▁dinos": 5073,
      "▁thomas": 5074,
      "▁overwhel": 5075,
      "▁abc": 5076,
      "▁si": 5077,
      "▁meet": 5078,
      "▁respectively": 5079,
      "▁abs": 5080,
      "oni": 5081,
      "▁renew": 5082,
      "▁domains": 5083,
      "▁opener": 5084,
      "▁nancy": 5085,
      "▁oakland": 5086,
      "▁coc": 5087,
      "har": 5088,
      "ised": 5089,
      ":25": 5090,
      "▁!!!?": 5091,
      "▁pushed": 5092,
      "▁ol": 5093,
      "▁elected": 5094,
      "▁mozilla": 5095,
      "▁handled": 5096,
      "▁potentially": 5097,
      "▁bad": 5098,
      "▁prints": 5099,
      "▁agricultural": 5100,
      "▁acceptable": 5101,
      "▁hood": 5102,
      "▁behavior": 5103,
      "▁em": 5104,
      "▁transp": 5105,
      "▁nim": 5106,
      "▁blinking": 5107,
      "media": 5108,
      "▁stardust": 5109,
      "▁cake": 5110,
      "▁willingness": 5111,
      "aster": 5112,
      "▁topic": 5113,
      "▁charco": 5114,
      "ones@": 5115,
      "alous": 5116,
      "▁couple": 5117,
      "▁blanket": 5118,
      "ceptions": 5119,
      "▁unlim": 5120,
      "▁wizards": 5121,
      "▁dang": 5122,
      "▁photographic": 5123,
      "▁03/0": 5124,
      "-g": 5125,
      "fts": 5126,
      "▁cookie": 5127,
      "▁sovereignty": 5128,
      "▁revised": 5129,
      "u": 5130,
      "▁leonard": 5131,
      "▁7.2": 5132,
      "store": 5133,
      "▁constitute": 5134,
      "▁launched": 5135,
      "▁713-853": 5136,
      "▁subur": 5137,
      "▁yeah": 5138,
      "h": 5139,
      "▁888.916.7184": 5140,
      "oma": 5141,
      "▁immers": 5142,
      "▁sonnets": 5143,
      "▁xbox": 5144,
      "▁against": 5145,
      "shire": 5146,
      "▁vari": 5147,
      "▁kenneth": 5148,
      ".net/news/image/2005.09": 5149,
      "▁players": 5150,
      "▁corps": 5151,
      "▁inclusive": 5152,
      "▁onions": 5153,
      "▁certainty": 5154,
      "▁3-5": 5155,
      "riers": 5156,
      "▁engaging": 5157,
      "clusive": 5158,
      "▁gulf": 5159,
      "▁00": 5160,
      "▁sustainable": 5161,
      "▁175": 5162,
      "acked": 5163,
      "▁avoided": 5164,
      "▁beaut": 5165,
      "anagi": 5166,
      "▁intend": 5167,
      "oral": 5168,
      "▁leather": 5169,
      "emical": 5170,
      "▁overd": 5171,
      "▁vehicle": 5172,
      "▁11/10/2000": 5173,
      "▁flexible": 5174,
      "iph": 5175,
      "iere": 5176,
      "urtz": 5177,
      "▁purchasing": 5178,
      "▁invited": 5179,
      "▁1561": 5180,
      "▁bible": 5181,
      "▁fig": 5182,
      "▁course": 5183,
      "▁shrimp": 5184,
      "▁mechanism": 5185,
      "ف": 5186,
      "▁sunburn": 5187,
      "▁or": 5188,
      ".8": 5189,
      "▁forum": 5190,
      "▁affordable": 5191,
      "▁elephants": 5192,
      "▁inside": 5193,
      "gl": 5194,
      "▁close": 5195,
      "inating": 5196,
      "▁dul": 5197,
      "▁homeopathy": 5198,
      "▁rotating": 5199,
      "▁worthwhile": 5200,
      "lands": 5201,
      "▁refr": 5202,
      "▁plain": 5203,
      "▁09:": 5204,
      "▁x": 5205,
      "▁fifteen": 5206,
      "▁—": 5207,
      "587": 5208,
      "▁garbage": 5209,
      "▁essentially": 5210,
      "▁rem": 5211,
      "▁exclus": 5212,
      "▁pose": 5213,
      "ig": 5214,
      "▁chath": 5215,
      "▁huit": 5216,
      "▁intake": 5217,
      "ald": 5218,
      "▁h": 5219,
      "▁independence": 5220,
      "▁rachel": 5221,
      "▁dressed": 5222,
      "▁nix": 5223,
      "▁w/": 5224,
      "▁secondly": 5225,
      "▁lobster": 5226,
      "▁marshall": 5227,
      "▁report": 5228,
      "▁programmes": 5229,
      "▁shop": 5230,
      "03": 5231,
      "itual": 5232,
      "▁complet": 5233,
      "▁comparable": 5234,
      "▁achie": 5235,
      "▁procedures": 5236,
      "▁make": 5237,
      "▁tonight": 5238,
      "pite": 5239,
      "▁democr": 5240,
      "▁trading": 5241,
      "▁compar": 5242,
      "▁1846": 5243,
      "athan": 5244,
      "▁bedding": 5245,
      "▁debts": 5246,
      "▁gis": 5247,
      "du": 5248,
      "▁oth": 5249,
      "▁prayer": 5250,
      "▁adequately": 5251,
      "▁assort": 5252,
      "▁marketing": 5253,
      "▁hug": 5254,
      "ushing": 5255,
      "▁lwww": 5256,
      "▁dough": 5257,
      "▁climate": 5258,
      "▁collecting": 5259,
      "▁create": 5260,
      "▁databases": 5261,
      "▁giov": 5262,
      "▁metrop": 5263,
      "iner": 5264,
      "▁controlling": 5265,
      "za": 5266,
      "▁built": 5267,
      "<": 5268,
      "▁hipp": 5269,
      "▁armen": 5270,
      "orus": 5271,
      "rors": 5272,
      "▁mco": 5273,
      "iled": 5274,
      "-8031": 5275,
      "▁works": 5276,
      "▁founders": 5277,
      "▁heads": 5278,
      "▁silver": 5279,
      "▁attorneys": 5280,
      "▁officer": 5281,
      "▁comes": 5282,
      "▁gest": 5283,
      "▁ignored": 5284,
      ",000": 5285,
      "▁absurd": 5286,
      "▁bush": 5287,
      "▁contact": 5288,
      "stances": 5289,
      "▁knowing": 5290,
      "▁65": 5291,
      "▁pett": 5292,
      "▁frequent": 5293,
      "▁sticks": 5294,
      "▁ps": 5295,
      "▁crisis": 5296,
      "▁ev": 5297,
      "/2000": 5298,
      "▁1505": 5299,
      "▁reluctant": 5300,
      "soft": 5301,
      "▁may": 5302,
      "▁pump": 5303,
      "▁approach": 5304,
      "▁dying": 5305,
      "▁toilet": 5306,
      "▁treaty": 5307,
      "▁summar": 5308,
      "▁gels": 5309,
      "▁buildings": 5310,
      "ently": 5311,
      "▁relationship": 5312,
      "▁licenses": 5313,
      "▁strikes": 5314,
      "ibilities": 5315,
      "▁269": 5316,
      "ger": 5317,
      "▁stood": 5318,
      "lessly": 5319,
      "▁reversal": 5320,
      "▁spos": 5321,
      "▁items": 5322,
      "▁(": 5323,
      "▁implementing": 5324,
      "▁spiders": 5325,
      "▁1": 5326,
      "▁yo": 5327,
      "!?": 5328,
      "▁typ": 5329,
      "▁execute": 5330,
      "▁deal": 5331,
      "▁hoping": 5332,
      "▁scarf": 5333,
      "▁chernobyl": 5334,
      "▁sull": 5335,
      "▁abandon": 5336,
      "▁prevent": 5337,
      "▁declar": 5338,
      "▁saying": 5339,
      "▁capture": 5340,
      "oting": 5341,
      "▁shad": 5342,
      "▁facebook": 5343,
      "▁engineering": 5344,
      "▁stopped": 5345,
      "▁collapsed": 5346,
      "▁limerick": 5347,
      "▁combat": 5348,
      "▁crush": 5349,
      "▁bunch": 5350,
      "▁israeli": 5351,
      "alle": 5352,
      "▁thumb": 5353,
      "▁restriction": 5354,
      "▁huma": 5355,
      "▁ignor": 5356,
      "▁smile": 5357,
      "asses": 5358,
      "jud": 5359,
      "▁day": 5360,
      "▁small": 5361,
      "f": 5362,
      "▁tourists": 5363,
      "▁04:03": 5364,
      "▁arizona": 5365,
      "▁ich": 5366,
      "▁tang": 5367,
      "▁bombing": 5368,
      "▁cohesion": 5369,
      "▁hokkaido": 5370,
      "▁train": 5371,
      "▁syria": 5372,
      "▁balance": 5373,
      "▁kabul": 5374,
      "▁gerry": 5375,
      "▁throat": 5376,
      "▁waiting": 5377,
      "▁vine": 5378,
      "▁pennies": 5379,
      "▁byron": 5380,
      "▁proceeds": 5381,
      "▁voting": 5382,
      "▁pall": 5383,
      "▁grabbed": 5384,
      "▁immigration": 5385,
      "ao": 5386,
      "▁reviewed": 5387,
      "▁wire": 5388,
      "▁beach": 5389,
      "▁checks": 5390,
      "renched": 5391,
      "▁apart": 5392,
      "▁sho": 5393,
      "▁rob": 5394,
      "▁pap": 5395,
      "▁adapt": 5396,
      "▁hotdog": 5397,
      "ically": 5398,
      "▁facilities": 5399,
      "inity": 5400,
      "500": 5401,
      "resh": 5402,
      "▁william": 5403,
      "lus": 5404,
      "▁lords": 5405,
      "▁latest": 5406,
      "bal": 5407,
      "▁hockey": 5408,
      "▁gloom": 5409,
      "▁results": 5410,
      "▁pros": 5411,
      "▁agents": 5412,
      "▁150,000": 5413,
      "▁everybody": 5414,
      "▁od": 5415,
      "▁tasting": 5416,
      "▁tor": 5417,
      "▁baggage": 5418,
      "▁isda": 5419,
      "▁toky": 5420,
      "▁functional": 5421,
      "▁harmonised": 5422,
      "▁monks": 5423,
      "dt": 5424,
      "▁reck": 5425,
      "▁squ": 5426,
      "▁quartiles": 5427,
      "...@gmail.com": 5428,
      "▁hurts": 5429,
      "▁counterfe": 5430,
      "▁inv": 5431,
      "▁so-called": 5432,
      "ented": 5433,
      "▁sunk": 5434,
      "phone": 5435,
      "igator": 5436,
      "▁rides": 5437,
      "▁phill": 5438,
      "eu": 5439,
      "▁..": 5440,
      "▁refusing": 5441,
      "ides": 5442,
      ".713.86": 5443,
      "ency": 5444,
      "oks": 5445,
      "▁interested": 5446,
      "rum": 5447,
      "▁nana": 5448,
      "▁arabs": 5449,
      "▁jerusal": 5450,
      "▁fuel": 5451,
      "▁acqu": 5452,
      "8-3": 5453,
      "imum": 5454,
      "▁colonial": 5455,
      "sen": 5456,
      "cohol": 5457,
      "▁wor": 5458,
      "ya": 5459,
      "▁oatmeal": 5460,
      "▁345-99": 5461,
      "▁91": 5462,
      "▁tupper": 5463,
      "icking": 5464,
      "▁birthday": 5465,
      "▁resol": 5466,
      "▁1976": 5467,
      "▁huckle": 5468,
      "flies": 5469,
      "▁indef": 5470,
      "ades": 5471,
      "▁freely": 5472,
      "▁sunshine": 5473,
      ":14": 5474,
      "▁env": 5475,
      "▁chardonnay": 5476,
      "▁wid": 5477,
      "▁dischar": 5478,
      "▁passes": 5479,
      "ill": 5480,
      "aste": 5481,
      "▁bottom": 5482,
      "▁experiments": 5483,
      "▁alongside": 5484,
      "roedter": 5485,
      "▁thr": 5486,
      "▁speech": 5487,
      "▁portion": 5488,
      "▁ste": 5489,
      "▁repe": 5490,
      "▁1980": 5491,
      "ressed": 5492,
      "▁cros": 5493,
      "teous": 5494,
      "▁broom": 5495,
      "▁pattern": 5496,
      "▁reapp": 5497,
      "▁joining": 5498,
      "▁jurisd": 5499,
      "▁restricted": 5500,
      "▁haha": 5501,
      "▁dreamed": 5502,
      "▁01/24/2001": 5503,
      "▁fits": 5504,
      "ke": 5505,
      "▁shoo": 5506,
      "▁ld2d-#693": 5507,
      "▁monday": 5508,
      "ugh": 5509,
      "▁buses": 5510,
      "▁juliet": 5511,
      ".b": 5512,
      "miah": 5513,
      "uf": 5514,
      "▁findings": 5515,
      "▁armored": 5516,
      "▁2020": 5517,
      "▁needs": 5518,
      "▁proclaimed": 5519,
      "▁smooth": 5520,
      "▁8": 5521,
      "▁dare": 5522,
      "▁yourself": 5523,
      "▁diet": 5524,
      "ential": 5525,
      "sequ": 5526,
      "2/2001": 5527,
      "▁entit": 5528,
      "zer": 5529,
      "▁key": 5530,
      "▁larry": 5531,
      "ason": 5532,
      "▁song": 5533,
      "▁mir": 5534,
      "▁radio": 5535,
      "uge": 5536,
      "▁defended": 5537,
      "▁produces": 5538,
      "▁format": 5539,
      "▁chef": 5540,
      "▁clip": 5541,
      "ais": 5542,
      "▁suit": 5543,
      "▁850": 5544,
      "▁scrub": 5545,
      "food": 5546,
      "▁ware": 5547,
      "▁lifted": 5548,
      "▁hitler": 5549,
      "lers": 5550,
      "▁gri": 5551,
      "▁lect": 5552,
      "▁gay": 5553,
      "▁chamber": 5554,
      "d-#6": 5555,
      "et": 5556,
      "ful": 5557,
      "▁shia": 5558,
      "enn": 5559,
      "olis": 5560,
      "▁protested": 5561,
      "▁institute": 5562,
      "▁illness": 5563,
      "▁highly": 5564,
      "▁yar": 5565,
      "▁cancel": 5566,
      "ational": 5567,
      "▁switzerland": 5568,
      "erved": 5569,
      "▁shri": 5570,
      "▁sides": 5571,
      "▁logical": 5572,
      "anged": 5573,
      "birds": 5574,
      "▁republican": 5575,
      "▁honorable": 5576,
      "▁similar": 5577,
      "▁latin": 5578,
      "▁saving": 5579,
      "enteenth": 5580,
      "▁agent": 5581,
      "▁beans": 5582,
      "▁carrots": 5583,
      "▁spots": 5584,
      "▁so": 5585,
      "▁midas": 5586,
      "▁drawer": 5587,
      "▁audiences": 5588,
      "utical": 5589,
      "▁ave": 5590,
      "▁renee": 5591,
      "▁separated": 5592,
      "▁recently": 5593,
      "▁francis": 5594,
      "▁sub": 5595,
      "▁1970s": 5596,
      "▁variation": 5597,
      "▁newfound": 5598,
      "▁07:24": 5599,
      "▁encoun": 5600,
      "▁agreements": 5601,
      "▁long": 5602,
      "sid": 5603,
      "ye": 5604,
      "▁202.456": 5605,
      "ambling": 5606,
      "▁1832": 5607,
      "▁will": 5608,
      "▁maps": 5609,
      "akistan": 5610,
      "▁minor": 5611,
      "▁interpre": 5612,
      "▁coff": 5613,
      "veland": 5614,
      "▁chinese": 5615,
      "▁play+": 5616,
      "ographic": 5617,
      "▁charming": 5618,
      "▁1660": 5619,
      "▁holding": 5620,
      "▁magazine": 5621,
      "▁blanc": 5622,
      "▁scott": 5623,
      "▁skills": 5624,
      "_^": 5625,
      "▁popped": 5626,
      "aters": 5627,
      "▁targeting": 5628,
      "▁jr.": 5629,
      "▁gwww": 5630,
      "iny": 5631,
      "▁hosp": 5632,
      "▁organizing": 5633,
      "▁yield": 5634,
      "dog": 5635,
      "▁strol": 5636,
      "bun": 5637,
      "▁shipping": 5638,
      "▁argentina": 5639,
      "/2005.09": 5640,
      "▁paintings": 5641,
      "ommend": 5642,
      "▁customs": 5643,
      "▁marking": 5644,
      "▁dent": 5645,
      "▁rap": 5646,
      "▁blueberry": 5647,
      "▁contex": 5648,
      "▁draco": 5649,
      "▁rhinoc": 5650,
      "▁powers": 5651,
      "▁hatfill": 5652,
      "▁perling": 5653,
      "atient": 5654,
      "ething": 5655,
      "▁quickly": 5656,
      ".70": 5657,
      "dden": 5658,
      "▁already": 5659,
      "▁mov": 5660,
      "▁cheek": 5661,
      "▁creative": 5662,
      "▁nord": 5663,
      "▁thanksg": 5664,
      "▁accum": 5665,
      "▁judged": 5666,
      "df": 5667,
      "▁guacamole": 5668,
      "▁755": 5669,
      "▁baba": 5670,
      "▁musharraf": 5671,
      "▁hann": 5672,
      ".2": 5673,
      "▁deserves": 5674,
      "ope": 5675,
      "▁rel": 5676,
      "53": 5677,
      "▁ironic": 5678,
      "▁bought": 5679,
      "ateful": 5680,
      "ahar": 5681,
      "▁asc": 5682,
      "▁tah": 5683,
      "uit": 5684,
      "▁slavery": 5685,
      "▁attendance": 5686,
      "ي": 5687,
      "rad": 5688,
      "▁lean": 5689,
      "onym": 5690,
      "▁rag": 5691,
      "onia": 5692,
      "gged": 5693,
      "▁2021": 5694,
      "▁carrot": 5695,
      "▁headset": 5696,
      "▁safety": 5697,
      "lyn": 5698,
      "vern": 5699,
      "/index": 5700,
      "▁notably": 5701,
      "agan": 5702,
      "-cl": 5703,
      "▁vaccine": 5704,
      "▁transmitted": 5705,
      "▁de": 5706,
      "ized": 5707,
      "▁530": 5708,
      "▁enforcement": 5709,
      "▁managing": 5710,
      "ic": 5711,
      "▁dess": 5712,
      "▁pc": 5713,
      "▁meg": 5714,
      "▁times": 5715,
      "▁collections": 5716,
      "▁281-435-0295": 5717,
      "▁shut": 5718,
      "▁known": 5719,
      "▁bar": 5720,
      "▁bust": 5721,
      "▁transport": 5722,
      "▁emerged": 5723,
      "▁print": 5724,
      "▁rebuild": 5725,
      "▁lord": 5726,
      "▁kand": 5727,
      "▁switch": 5728,
      "▁713-654-": 5729,
      "----------": 5730,
      "arded": 5731,
      "▁lawyers": 5732,
      "▁endangered": 5733,
      "▁flood": 5734,
      "▁bind": 5735,
      "les": 5736,
      "▁faint": 5737,
      "▁commonplace": 5738,
      "▁nickn": 5739,
      "▁bos": 5740,
      "▁awa": 5741,
      "▁pard": 5742,
      "▁primarily": 5743,
      "▁281": 5744,
      "▁1848": 5745,
      "▁violent": 5746,
      "▁dolls": 5747,
      "▁03/21/2001": 5748,
      "▁patient": 5749,
      "▁brown": 5750,
      "▁aud": 5751,
      "▁p.s": 5752,
      "▁redeem": 5753,
      "▁strengthen": 5754,
      "▁tehran": 5755,
      "ordon": 5756,
      "4/2000": 5757,
      "sych": 5758,
      "▁belie": 5759,
      "▁-": 5760,
      "▁modest": 5761,
      "▁independ": 5762,
      "ι": 5763,
      "▁restaur": 5764,
      "▁confidence": 5765,
      "z": 5766,
      "otra": 5767,
      "▁broader": 5768,
      "▁flakes": 5769,
      "▁deliberate": 5770,
      "apping": 5771,
      "▁trot": 5772,
      "▁implementation": 5773,
      "▁30th": 5774,
      "▁samuel": 5775,
      "uals": 5776,
      "▁union": 5777,
      "▁inequality": 5778,
      "▁prosper": 5779,
      "▁traders": 5780,
      "▁yet": 5781,
      "▁altern": 5782,
      "uations": 5783,
      "urf": 5784,
      "▁stolen": 5785,
      "▁revenues": 5786,
      "▁kick": 5787,
      "▁latter": 5788,
      "▁mr": 5789,
      "▁evely": 5790,
      "▁describing": 5791,
      "inski": 5792,
      "▁rewards": 5793,
      "▁another": 5794,
      "▁rats": 5795,
      "▁britt": 5796,
      "▁ferr": 5797,
      "ullah": 5798,
      "▁washington": 5799,
      "ounding": 5800,
      "▁strongest": 5801,
      "een": 5802,
      "▁345-3436": 5803,
      "▁allowed": 5804,
      "▁vs.": 5805,
      "90": 5806,
      "▁catalog": 5807,
      "▁rout": 5808,
      "key": 5809,
      "esc": 5810,
      "谿": 5811,
      "▁sci": 5812,
      "▁sings": 5813,
      "▁figured": 5814,
      "ii": 5815,
      "▁immigr": 5816,
      "▁rev": 5817,
      "ai": 5818,
      "▁responses": 5819,
      "▁interrupted": 5820,
      "▁wan": 5821,
      "wide": 5822,
      "▁numerous": 5823,
      "rev": 5824,
      "▁instinct": 5825,
      "▁buy": 5826,
      "▁mel": 5827,
      "▁tract": 5828,
      "self": 5829,
      "▁became": 5830,
      "▁superseding": 5831,
      "▁tact": 5832,
      "▁vintage": 5833,
      "▁thro": 5834,
      "▁guarant": 5835,
      "omed": 5836,
      "▁handle": 5837,
      "▁pollution": 5838,
      "▁northeast": 5839,
      "▁delay": 5840,
      "▁reason": 5841,
      "▁grandma": 5842,
      "▁patter": 5843,
      "▁him": 5844,
      "▁modulo": 5845,
      "▁alert": 5846,
      "▁profits": 5847,
      "▁aafia": 5848,
      "▁celebration": 5849,
      "▁generations": 5850,
      "▁non-bondad": 5851,
      "▁found": 5852,
      "▁give": 5853,
      "▁366": 5854,
      "▁missed": 5855,
      "▁rotation": 5856,
      "▁lasted": 5857,
      "▁link": 5858,
      "▁ut": 5859,
      "▁425-415-": 5860,
      "▁bus": 5861,
      "▁ripe": 5862,
      "▁sweep": 5863,
      "var": 5864,
      "▁.": 5865,
      "rec": 5866,
      ".1": 5867,
      "▁pitter": 5868,
      "xce": 5869,
      "▁harsh": 5870,
      "▁maya": 5871,
      "▁sample": 5872,
      "▁eggs": 5873,
      "▁flaw": 5874,
      "nic": 5875,
      "▁valentine": 5876,
      ".45": 5877,
      "▁08:30": 5878,
      "▁dismiss": 5879,
      "▁1604": 5880,
      "▁bananas": 5881,
      "▁parking": 5882,
      "▁nervous": 5883,
      "▁passage": 5884,
      "▁qa": 5885,
      "▁lion": 5886,
      "asa": 5887,
      "▁ultr": 5888,
      "▁happened": 5889,
      "▁nandaro": 5890,
      "!!!!!!!!": 5891,
      "▁ku": 5892,
      "▁weakness": 5893,
      "▁targets": 5894,
      "▁died": 5895,
      "▁taste": 5896,
      "azz": 5897,
      "▁10/26/2000": 5898,
      "n.": 5899,
      "s.": 5900,
      "▁dans": 5901,
      "▁paralympic": 5902,
      "dred": 5903,
      "▁solicit": 5904,
      "ort": 5905,
      "▁surprises": 5906,
      "▁ethics": 5907,
      "▁indicate": 5908,
      "▁sup": 5909,
      "▁seld": 5910,
      "▁simply": 5911,
      "▁cotton": 5912,
      "▁re-e": 5913,
      "▁duty": 5914,
      "▁newsgroup": 5915,
      "orth": 5916,
      "onnay": 5917,
      "▁counted": 5918,
      "▁s/h": 5919,
      "▁campus": 5920,
      "▁tags": 5921,
      "▁1859": 5922,
      "ieu": 5923,
      "▁anderson": 5924,
      "-com": 5925,
      "▁62": 5926,
      "ates": 5927,
      "where": 5928,
      "▁among": 5929,
      "grade": 5930,
      "umph": 5931,
      "▁told": 5932,
      "▁barclays": 5933,
      "▁installing": 5934,
      "▁hints": 5935,
      "ipple": 5936,
      "▁updated": 5937,
      "▁spot": 5938,
      "▁dum": 5939,
      "atia": 5940,
      "▁painted": 5941,
      "▁active": 5942,
      "co": 5943,
      "▁clause": 5944,
      "fore": 5945,
      "▁twelfth": 5946,
      "90s": 5947,
      "ament": 5948,
      "▁timing": 5949,
      "▁afric": 5950,
      "w": 5951,
      "20-": 5952,
      "▁jeremy": 5953,
      "▁days": 5954,
      "ars": 5955,
      "▁workforce": 5956,
      "▁sector": 5957,
      "▁1.75": 5958,
      "▁answered": 5959,
      "▁bearded": 5960,
      "▁prevention": 5961,
      "▁dan": 5962,
      "▁anyway": 5963,
      "128": 5964,
      "▁stim": 5965,
      "▁whol": 5966,
      "▁feature": 5967,
      "▁squeak": 5968,
      "▁feels": 5969,
      "▁gift": 5970,
      "ords": 5971,
      "▁lawn": 5972,
      "▁fox": 5973,
      "▁1954": 5974,
      "▁fy": 5975,
      "▁leaning": 5976,
      "▁insist": 5977,
      "▁cold": 5978,
      "▁scrap": 5979,
      "▁shakes": 5980,
      "▁esp": 5981,
      "▁1.5": 5982,
      "▁standing": 5983,
      "atherine": 5984,
      "acter": 5985,
      "▁cupc": 5986,
      "wind": 5987,
      "▁ha": 5988,
      "▁harv": 5989,
      "ado": 5990,
      "▁dispute": 5991,
      "oto": 5992,
      "▁interact": 5993,
      "tain": 5994,
      "▁tanks": 5995,
      "▁threats": 5996,
      "aaaa": 5997,
      "azu": 5998,
      "▁lipstick": 5999,
      "essed": 6000,
      "▁ukrain": 6001,
      "itch": 6002,
      "gled": 6003,
      "▁arg": 6004,
      "▁details": 6005,
      "▁3.": 6006,
      "▁mcdonald": 6007,
      "▁karen": 6008,
      "verse": 6009,
      "▁pse": 6010,
      "▁mad": 6011,
      "lier": 6012,
      "▁earli": 6013,
      "▁minnesota": 6014,
      "▁nuts": 6015,
      "▁precious": 6016,
      "▁character": 6017,
      "▁stretch": 6018,
      "▁buried": 6019,
      "bod": 6020,
      "izabeth": 6021,
      "▁713": 6022,
      "▁applic": 6023,
      "▁fill": 6024,
      "ima": 6025,
      "▁compete": 6026,
      "▁holy": 6027,
      "iday": 6028,
      "acles": 6029,
      "ek": 6030,
      ".clair@enron.com": 6031,
      "-518": 6032,
      "ining": 6033,
      "▁ed": 6034,
      "▁pivotchart": 6035,
      "▁graph": 6036,
      "▁harmonisation": 6037,
      "▁borne": 6038,
      "▁impart": 6039,
      "▁doctr": 6040,
      "▁fit": 6041,
      "▁pl": 6042,
      "▁aunt": 6043,
      "▁rabbits": 6044,
      "▁chagrin": 6045,
      "form": 6046,
      "▁need": 6047,
      "▁belgium": 6048,
      "▁mornings": 6049,
      "▁repeatedly": 6050,
      "▁2.00": 6051,
      "▁713/853": 6052,
      "▁pepper": 6053,
      "▁relat": 6054,
      "child": 6055,
      "▁1900": 6056,
      "▁norton": 6057,
      "▁mama": 6058,
      "▁epm": 6059,
      "uation": 6060,
      "▁44,000": 6061,
      "▁whi": 6062,
      "bee": 6063,
      "▁empower": 6064,
      "▁mare": 6065,
      "▁petersburg": 6066,
      "▁numb": 6067,
      "8806": 6068,
      "▁oatm": 6069,
      "▁occurring": 6070,
      "▁processor": 6071,
      "▁decade": 6072,
      "▁killing": 6073,
      "▁shuffling": 6074,
      "▁researchers": 6075,
      "▁afghan": 6076,
      "▁affil": 6077,
      "▁alt": 6078,
      "▁research": 6079,
      "▁anyways": 6080,
      "▁strictly": 6081,
      "osed": 6082,
      "▁tracking": 6083,
      "mine": 6084,
      "▁blount": 6085,
      "▁neighbor": 6086,
      "▁fu": 6087,
      "▁varied": 6088,
      "▁packet": 6089,
      "▁wrapped": 6090,
      "▁discom": 6091,
      "idding": 6092,
      "▁58": 6093,
      "▁quarters": 6094,
      "▁scotland": 6095,
      "▁paw": 6096,
      "▁careful": 6097,
      "▁burbank": 6098,
      "▁saw": 6099,
      "▁proportion": 6100,
      "ipper": 6101,
      "▁exerc": 6102,
      "uction": 6103,
      "ottie": 6104,
      "▁addresses": 6105,
      "▁foc": 6106,
      "lies": 6107,
      "▁600": 6108,
      "▁stephen": 6109,
      "ned": 6110,
      "▁wang": 6111,
      "▁played": 6112,
      "▁accommodation": 6113,
      "pers": 6114,
      "▁mwww": 6115,
      "▁classroom": 6116,
      "▁wizard": 6117,
      "▁distracting": 6118,
      "▁extraord": 6119,
      "cedented": 6120,
      "▁reaches": 6121,
      "▁156": 6122,
      "▁undoubtedly": 6123,
      "▁1991": 6124,
      "▁€": 6125,
      "▁5/18": 6126,
      "▁meaning": 6127,
      "▁chute": 6128,
      "▁incorrect": 6129,
      ".": 6130,
      "cliff": 6131,
      "▁equal": 6132,
      "image/2005.09": 6133,
      "esses": 6134,
      "▁airbnb": 6135,
      "▁teppy": 6136,
      "▁authorities": 6137,
      "0": 6138,
      "oodle": 6139,
      "▁moral": 6140,
      "▁rebu": 6141,
      "▁participating": 6142,
      "▁copying": 6143,
      "▁mo": 6144,
      "▁gorio": 6145,
      ":15": 6146,
      "▁1799": 6147,
      "|": 6148,
      "▁cock": 6149,
      "▁require": 6150,
      "▁stanford": 6151,
      "▁slic": 6152,
      ":56": 6153,
      "▁venus": 6154,
      "vid": 6155,
      "▁cleveland": 6156,
      "▁penal": 6157,
      "air": 6158,
      "▁required": 6159,
      "▁bernoul": 6160,
      "84": 6161,
      "fox": 6162,
      "▁elimin": 6163,
      "▁tec": 6164,
      "▁individual": 6165,
      "▁plenty": 6166,
      "▁crying": 6167,
      "▁corp.": 6168,
      "▁representative": 6169,
      "▁witch": 6170,
      "▁moisture": 6171,
      "▁claus": 6172,
      "▁olds": 6173,
      ".org/wiki": 6174,
      "ways": 6175,
      "▁yes": 6176,
      ":05": 6177,
      "elled": 6178,
      "&e": 6179,
      "▁reporting": 6180,
      "attering": 6181,
      "▁theore": 6182,
      "▁vod": 6183,
      "▁snake": 6184,
      "▁origin": 6185,
      "29": 6186,
      "▁decree": 6187,
      "▁peninsula": 6188,
      "▁murph": 6189,
      "▁push": 6190,
      "ublic": 6191,
      "▁claimed": 6192,
      "▁brilliant": 6193,
      "▁beast": 6194,
      "▁sab": 6195,
      "▁attracted": 6196,
      "▁---=": 6197,
      "▁ehow": 6198,
      "▁1564": 6199,
      "▁immunity": 6200,
      "▁volunt": 6201,
      "l": 6202,
      "▁theater": 6203,
      "▁implications": 6204,
      "▁mix": 6205,
      "▁afgh": 6206,
      "▁across": 6207,
      "oin": 6208,
      "▁bes": 6209,
      "▁vold": 6210,
      "▁good": 6211,
      "▁bre": 6212,
      "▁longer": 6213,
      "▁charged": 6214,
      "▁phot": 6215,
      "▁chief": 6216,
      "▁revenue": 6217,
      "▁crayon": 6218,
      "▁storing": 6219,
      "▁stirrup": 6220,
      "▁oak": 6221,
      "▁99": 6222,
      "▁yogurt": 6223,
      "▁enabling": 6224,
      "▁rules": 6225,
      "ammed": 6226,
      "▁rol": 6227,
      "▁process": 6228,
      "▁ruby": 6229,
      "▁slides": 6230,
      "▁numbers": 6231,
      "▁gir": 6232,
      "▁hand": 6233,
      "▁interf": 6234,
      "▁experimental": 6235,
      ":52": 6236,
      "▁tab": 6237,
      "ishing": 6238,
      "▁delta": 6239,
      "▁cottage": 6240,
      "aki": 6241,
      "ript": 6242,
      "▁tuck": 6243,
      "▁sal": 6244,
      "▁stan": 6245,
      "▁reminded": 6246,
      "▁campaigns": 6247,
      "▁suff": 6248,
      "▁gradu": 6249,
      "▁campa": 6250,
      "-642": 6251,
      "▁sie": 6252,
      "▁impro": 6253,
      "▁debr": 6254,
      "▁lbs": 6255,
      "bye": 6256,
      "▁network": 6257,
      "▁discovered": 6258,
      "athy": 6259,
      "▁accordance": 6260,
      "▁8.3": 6261,
      "onda": 6262,
      "▁1st": 6263,
      "‘": 6264,
      "▁ease": 6265,
      "uct": 6266,
      "▁remained": 6267,
      "▁mitig": 6268,
      "▁nicer": 6269,
      "shore": 6270,
      "▁october": 6271,
      "onn": 6272,
      "ador": 6273,
      "▁donna": 6274,
      "'ath": 6275,
      "ertain": 6276,
      "▁beings": 6277,
      "▁intercept": 6278,
      "▁traged": 6279,
      "ican": 6280,
      "▁2012": 6281,
      "▁catch": 6282,
      "▁person": 6283,
      "▁block": 6284,
      "▁staring": 6285,
      "▁publishing": 6286,
      "ocity": 6287,
      "▁refresh": 6288,
      "▁rud": 6289,
      "▁privileged": 6290,
      "ifer": 6291,
      "onto": 6292,
      "6021": 6293,
      "▁350": 6294,
      "α": 6295,
      "▁10": 6296,
      "urch": 6297,
      "▁lower": 6298,
      "chester": 6299,
      "▁better": 6300,
      "▁345-9945": 6301,
      "▁incub": 6302,
      "▁mol": 6303,
      "▁dress": 6304,
      "▁33": 6305,
      "▁1940": 6306,
      "/8": 6307,
      "▁blended": 6308,
      "▁summ": 6309,
      "▁1892": 6310,
      "▁1980s": 6311,
      "▁previously": 6312,
      "▁understood": 6313,
      "▁exclusive": 6314,
      "▁idiots": 6315,
      "▁tend": 6316,
      "▁whe": 6317,
      "▁merely": 6318,
      "▁knight": 6319,
      "▁jamie": 6320,
      "▁takes": 6321,
      "dies": 6322,
      "▁signature": 6323,
      "▁replace": 6324,
      "▁libraries": 6325,
      "ryn": 6326,
      "ob": 6327,
      "▁02-0": 6328,
      "▁spelling": 6329,
      "▁ate": 6330,
      "▁proph": 6331,
      "▁colonel": 6332,
      "▁maint": 6333,
      "▁460": 6334,
      "▁targeted": 6335,
      "▁surrounded": 6336,
      "▁sept.": 6337,
      "▁edit": 6338,
      "▁speakers": 6339,
      "▁noisy": 6340,
      "ific": 6341,
      "▁convinced": 6342,
      "▁assure": 6343,
      "▁/": 6344,
      "▁excited": 6345,
      "▁clouds": 6346,
      "▁sta": 6347,
      "▁salon": 6348,
      "▁lets": 6349,
      "▁159": 6350,
      "▁fundamental": 6351,
      "▁structured": 6352,
      "▁migr": 6353,
      "▁firms": 6354,
      "▁interaction": 6355,
      "▁expecting": 6356,
      ":16": 6357,
      "▁modem": 6358,
      "▁animals": 6359,
      "▁needles": 6360,
      "▁freight": 6361,
      "▁max": 6362,
      "▁flowers": 6363,
      "ve": 6364,
      "▁cle": 6365,
      "pes": 6366,
      "▁interest": 6367,
      "▁76": 6368,
      "opular": 6369,
      "▁+45": 6370,
      "▁140": 6371,
      "▁chee": 6372,
      "▁nierman": 6373,
      "iration": 6374,
      "▁terrorist": 6375,
      "•": 6376,
      "▁05908549": 6377,
      "▁viewers": 6378,
      "▁prime": 6379,
      "/31": 6380,
      "rus": 6381,
      "▁contexts": 6382,
      "▁admiration": 6383,
      "▁socks": 6384,
      "▁tay": 6385,
      "▁6.2.1": 6386,
      "▁11/0": 6387,
      "▁headquarters": 6388,
      "fer": 6389,
      "ortium": 6390,
      "▁wy": 6391,
      "▁44": 6392,
      "▁stra": 6393,
      "▁cem": 6394,
      "▁nash": 6395,
      "▁1849": 6396,
      "▁bath+": 6397,
      "▁slip": 6398,
      "▁deter": 6399,
      "▁spanking": 6400,
      "▁stayed": 6401,
      "▁seized": 6402,
      "enron.com": 6403,
      "▁yidd": 6404,
      "▁stored": 6405,
      "▁sole": 6406,
      "▁techniques": 6407,
      "agen": 6408,
      "unctional": 6409,
      "▁pledge": 6410,
      "▁acad": 6411,
      "▁developed": 6412,
      "▁admitted": 6413,
      "▁twenty-": 6414,
      "▁operation": 6415,
      "▁conference": 6416,
      "▁irrit": 6417,
      "▁confident": 6418,
      "▁fus": 6419,
      "jection": 6420,
      "acarias": 6421,
      "▁versa": 6422,
      "▁judgment": 6423,
      "▁exhaust": 6424,
      "▁art": 6425,
      "aceutical": 6426,
      "▁swim": 6427,
      "▁nearly": 6428,
      "▁filed": 6429,
      "▁refund": 6430,
      "cceed": 6431,
      "ware": 6432,
      "▁palace": 6433,
      "rian": 6434,
      "▁deeper": 6435,
      "▁women": 6436,
      "▁steps": 6437,
      "▁680": 6438,
      "▁ern": 6439,
      "▁propaganda": 6440,
      "▁weak": 6441,
      "▁resident": 6442,
      "▁psych": 6443,
      "▁isl": 6444,
      "▁request": 6445,
      "▁upload": 6446,
      "▁crews": 6447,
      "▁moon": 6448,
      "▁inher": 6449,
      "string": 6450,
      "▁hes": 6451,
      "▁palestinian": 6452,
      "▁wanting": 6453,
      "▁colleges": 6454,
      "▁embed": 6455,
      "▁fool": 6456,
      "▁2.0": 6457,
      "aling": 6458,
      "asks": 6459,
      "▁lego": 6460,
      "▁horribly": 6461,
      "▁united": 6462,
      "▁puff": 6463,
      "orous": 6464,
      "▁convers": 6465,
      "ama": 6466,
      "idency": 6467,
      "▁discovery": 6468,
      "▁dem": 6469,
      "▁pyramid": 6470,
      "▁stating": 6471,
      "奈": 6472,
      "od": 6473,
      "▁useful": 6474,
      "grad": 6475,
      "▁amy": 6476,
      "▁self": 6477,
      "pool": 6478,
      "ages": 6479,
      "▁holoca": 6480,
      "▁hence": 6481,
      "▁graduated": 6482,
      "▁significant": 6483,
      "▁group": 6484,
      "▁visit": 6485,
      "▁zacarias": 6486,
      "▁rifle": 6487,
      "asant": 6488,
      "▁peau": 6489,
      "▁loads": 6490,
      "ley": 6491,
      "▁chapter": 6492,
      "▁169": 6493,
      "emies": 6494,
      "▁0": 6495,
      "▁nonsense": 6496,
      "▁empathy": 6497,
      "▁opposition": 6498,
      "▁essential": 6499,
      "▁aston": 6500,
      "▁hedge": 6501,
      "▁incompet": 6502,
      "▁actual": 6503,
      "▁chaos": 6504,
      "▁ske": 6505,
      "▁surviving": 6506,
      ",1": 6507,
      "▁rhonda": 6508,
      "▁kr": 6509,
      "byl": 6510,
      "▁augment": 6511,
      "▁sympath": 6512,
      ":38": 6513,
      "▁banknot": 6514,
      "▁nicholas": 6515,
      "▁doo": 6516,
      "/11": 6517,
      "ires": 6518,
      "▁u.s.": 6519,
      "vey": 6520,
      "sus": 6521,
      "▁hm": 6522,
      "▁brazil": 6523,
      "▁con": 6524,
      "chief": 6525,
      "▁87": 6526,
      "▁~": 6527,
      "▁spagh": 6528,
      "▁forming": 6529,
      "▁winds": 6530,
      "ph": 6531,
      "verage": 6532,
      "inny": 6533,
      "▁bucks": 6534,
      "lear": 6535,
      "cle": 6536,
      "ron": 6537,
      "▁annual": 6538,
      "▁swinging": 6539,
      "clusion": 6540,
      "▁accident": 6541,
      "▁freak": 6542,
      "-780": 6543,
      "▁guerre": 6544,
      "▁feasible": 6545,
      "ipe": 6546,
      "▁seriously": 6547,
      "▁tam": 6548,
      "▁shackl": 6549,
      "▁pent": 6550,
      "▁amongst": 6551,
      "chi": 6552,
      "uated": 6553,
      "▁saf": 6554,
      "▁blew": 6555,
      "▁ireland": 6556,
      "owning": 6557,
      "▁>>": 6558,
      "▁frequently": 6559,
      "nasse": 6560,
      "▁american": 6561,
      "aurs": 6562,
      "amb": 6563,
      "▁tin": 6564,
      "▁argentine": 6565,
      "'": 6566,
      "▁yang": 6567,
      "▁argument": 6568,
      "▁uncertainty": 6569,
      "▁elderly": 6570,
      "▁lufthansa": 6571,
      "▁answ": 6572,
      "▁confirm": 6573,
      "▁73": 6574,
      "▁doub": 6575,
      "▁peacefully": 6576,
      "▁insurgency": 6577,
      "▁roots": 6578,
      "▁nor": 6579,
      "▁bozo": 6580,
      "▁mayor": 6581,
      "▁shelter": 6582,
      "inking": 6583,
      "▁caring": 6584,
      "sp": 6585,
      "▁unhapp": 6586,
      "▁spong": 6587,
      "▁subd": 6588,
      "▁dipped": 6589,
      "▁symbols": 6590,
      "▁allawi": 6591,
      "▁fem": 6592,
      "▁315-460-3": 6593,
      "▁mountains": 6594,
      "nuts": 6595,
      "▁bright": 6596,
      "▁fish": 6597,
      "▁lighting": 6598,
      "▁=": 6599,
      "▁secondary": 6600,
      "▁evaluator": 6601,
      "▁kil": 6602,
      "▁gravity": 6603,
      "▁doughnut": 6604,
      "▁base": 6605,
      "▁toile": 6606,
      "lim": 6607,
      "▁cool": 6608,
      "▁lists": 6609,
      "▁compare": 6610,
      "ancement": 6611,
      "▁snail": 6612,
      "/01/2001": 6613,
      "▁prepar": 6614,
      "▁feat": 6615,
      "▁tarzan": 6616,
      "▁war": 6617,
      "▁crucial": 6618,
      "▁prett": 6619,
      "▁yout": 6620,
      "▁estate": 6621,
      "▁mount": 6622,
      "▁1.00": 6623,
      "▁1805": 6624,
      "▁universities": 6625,
      "▁their": 6626,
      "▁cupcakes": 6627,
      "▁possession": 6628,
      "▁criticism": 6629,
      "▁vib": 6630,
      "iterrane": 6631,
      "▁ideas": 6632,
      "▁except": 6633,
      "▁sss": 6634,
      "▁sh-": 6635,
      "andy": 6636,
      "▁sorry": 6637,
      "▁sleeve": 6638,
      "▁janice": 6639,
      "▁107": 6640,
      "▁reserved": 6641,
      "▁elpaso": 6642,
      "ɑ": 6643,
      "▁☏": 6644,
      "54-": 6645,
      "▁camp": 6646,
      "▁iphone": 6647,
      "▁2:25": 6648,
      "▁500": 6649,
      "▁somm": 6650,
      "▁fares": 6651,
      "▁25": 6652,
      "rums": 6653,
      "▁hardest": 6654,
      "elpaso": 6655,
      "iots": 6656,
      "▁db": 6657,
      "▁lawyer": 6658,
      "aneous": 6659,
      "▁coalition": 6660,
      "▁election": 6661,
      "▁buttered": 6662,
      "▁craw": 6663,
      "index": 6664,
      "▁1/2": 6665,
      "▁sweetie": 6666,
      "▁images": 6667,
      "▁val": 6668,
      "▁pasta": 6669,
      "▁reimbur": 6670,
      "▁dave": 6671,
      "▁pip": 6672,
      "▁some": 6673,
      "▁prestigious": 6674,
      "▁sri": 6675,
      "▁rather": 6676,
      "▁extensible": 6677,
      "▁expanding": 6678,
      "▁bask": 6679,
      "▁pursue": 6680,
      "▁un": 6681,
      "atom": 6682,
      "▁vogelaviatio": 6683,
      "▁sustained": 6684,
      "▁pursuit": 6685,
      "▁airborne": 6686,
      "▁hostile": 6687,
      "▁cell": 6688,
      "▁julien": 6689,
      "sc": 6690,
      "oot": 6691,
      "▁product": 6692,
      "▁1699": 6693,
      "▁montreal": 6694,
      "------": 6695,
      "▁wilkins": 6696,
      "ents": 6697,
      "▁ga": 6698,
      "▁tech": 6699,
      "/2004": 6700,
      "▁usually": 6701,
      "▁cart": 6702,
      "erving": 6703,
      "▁masses": 6704,
      "▁1580": 6705,
      "▁individually": 6706,
      "▁giv": 6707,
      "oir": 6708,
      "▁prototy": 6709,
      "▁displac": 6710,
      "▁date": 6711,
      "▁couns": 6712,
      "▁burst": 6713,
      "▁rocks": 6714,
      "▁farrier": 6715,
      "▁mosul": 6716,
      "▁ripped": 6717,
      "▁dizzy": 6718,
      "▁bruce": 6719,
      "▁treating": 6720,
      "amed": 6721,
      "▁wax": 6722,
      "▁origins": 6723,
      "als": 6724,
      "▁9": 6725,
      "▁80": 6726,
      "▁vehicles": 6727,
      "▁rich": 6728,
      "olog": 6729,
      "▁vendors": 6730,
      "▁.!": 6731,
      "▁judges": 6732,
      "▁happily": 6733,
      "▁nguyen": 6734,
      "▁monetary": 6735,
      "▁want": 6736,
      "▁quart": 6737,
      "-st": 6738,
      "▁hubbard": 6739,
      "▁loan": 6740,
      "nondelibreat": 6741,
      "▁proposal": 6742,
      "▁**": 6743,
      "▁confir": 6744,
      "▁copy": 6745,
      "▁1696": 6746,
      "▁vision": 6747,
      "▁m80": 6748,
      "▁owes": 6749,
      "▁horsie": 6750,
      "unk": 6751,
      "▁11/7": 6752,
      "▁anticipate": 6753,
      "▁33,000": 6754,
      "▁fired": 6755,
      "ano": 6756,
      "▁neph": 6757,
      "▁default": 6758,
      "▁happiness": 6759,
      "▁ehr": 6760,
      "hole": 6761,
      "light": 6762,
      "▁aladar": 6763,
      "▁silk": 6764,
      "▁coconut": 6765,
      "▁sundays": 6766,
      "▁counters": 6767,
      "fill": 6768,
      "attered": 6769,
      "▁quoted": 6770,
      "▁artworks": 6771,
      "▁single": 6772,
      "▁transformative": 6773,
      "▁concentrate": 6774,
      "▁1602": 6775,
      "▁obtained": 6776,
      "▁amsterdam": 6777,
      "▁reader": 6778,
      "▁sunlight": 6779,
      "▁textile": 6780,
      "▁scientists": 6781,
      "iles": 6782,
      "▁campbell": 6783,
      "▁confused": 6784,
      "▁authority": 6785,
      "▁populations": 6786,
      "▁owns": 6787,
      "▁athe": 6788,
      "▁poke": 6789,
      "▁squares": 6790,
      "▁gala": 6791,
      "il": 6792,
      "▁successful": 6793,
      "▁unity": 6794,
      "▁...................": 6795,
      "▁shaking": 6796,
      "▁history": 6797,
      "▁awarded": 6798,
      "brew": 6799,
      "▁traditions": 6800,
      "▁stove": 6801,
      "▁i": 6802,
      "obile": 6803,
      "▁man": 6804,
      "▁calm": 6805,
      "▁captain": 6806,
      "▁compound": 6807,
      "it": 6808,
      "▁70.85": 6809,
      "▁ecosy": 6810,
      "2951_": 6811,
      "ches": 6812,
      "▁sloven": 6813,
      "ten": 6814,
      "▁quest": 6815,
      "▁==----": 6816,
      "▁fle": 6817,
      "▁shall": 6818,
      "8/2000": 6819,
      "▁montana": 6820,
      "▁khan": 6821,
      "sey": 6822,
      "atch": 6823,
      "rup": 6824,
      "▁pending": 6825,
      "▁lots": 6826,
      "▁transition": 6827,
      "▁evenings": 6828,
      "pre": 6829,
      "▁3": 6830,
      "go": 6831,
      "▁sleepy": 6832,
      "▁1777": 6833,
      "▁chos": 6834,
      "▁disabled": 6835,
      "ihu": 6836,
      "£": 6837,
      "-6": 6838,
      "▁mummy": 6839,
      "▁phen": 6840,
      "▁thing": 6841,
      "▁barrel": 6842,
      "▁outdo": 6843,
      "▁vide": 6844,
      "gan": 6845,
      "’": 6846,
      "▁confidentiality": 6847,
      "▁vessel": 6848,
      "▁dimensions": 6849,
      "▁spont": 6850,
      "▁window": 6851,
      "▁crown": 6852,
      "▁visitor": 6853,
      "▁itiner": 6854,
      "▁likes": 6855,
      "▁landed": 6856,
      "▁chew": 6857,
      "ached": 6858,
      "apped": 6859,
      "▁buck": 6860,
      "iers": 6861,
      "▁valent": 6862,
      "▁bla": 6863,
      "▁market": 6864,
      "▁desc": 6865,
      "icip": 6866,
      "▁sn": 6867,
      "▁ancest": 6868,
      "▁safet": 6869,
      "▁queue": 6870,
      "▁flesh": 6871,
      "▁routes": 6872,
      "▁crack": 6873,
      "▁actors": 6874,
      "▁dots": 6875,
      "▁roly": 6876,
      "▁jur": 6877,
      "beat": 6878,
      "▁imm": 6879,
      "▁dinosaurs": 6880,
      "▁dismissed": 6881,
      "▁tar": 6882,
      "▁ord": 6883,
      "▁charitable": 6884,
      "▁badge": 6885,
      "iac": 6886,
      "▁lar": 6887,
      "▁leash": 6888,
      "me": 6889,
      "▁inform": 6890,
      "▁spokes": 6891,
      "▁dw": 6892,
      "▁grumb": 6893,
      "▁boundaries": 6894,
      "▁shook": 6895,
      "▁arrival": 6896,
      "▁pit": 6897,
      "ocation": 6898,
      "▁hideout": 6899,
      "▁energ": 6900,
      "an@t": 6901,
      "▁pro-": 6902,
      "▁imaginary": 6903,
      "▁505-625": 6904,
      "▁occasions": 6905,
      "▁conditions": 6906,
      "▁5:00": 6907,
      "82": 6908,
      "▁headline": 6909,
      "▁devast": 6910,
      "▁obsf": 6911,
      "opment": 6912,
      "▁3724": 6913,
      "▁genetically": 6914,
      "▁distribution": 6915,
      "▁pho": 6916,
      "ature": 6917,
      "▁most": 6918,
      "▁funct": 6919,
      "▁fac": 6920,
      "▁media": 6921,
      "▁blue": 6922,
      "▁trained": 6923,
      "▁crowd": 6924,
      "▁identify": 6925,
      "▁rums": 6926,
      "▁bta": 6927,
      "▁mini": 6928,
      "▁essie": 6929,
      "▁carroll": 6930,
      "▁hats": 6931,
      "pper": 6932,
      "bol": 6933,
      "dron": 6934,
      "arians": 6935,
      "▁flop": 6936,
      "▁carey": 6937,
      "▁5th": 6938,
      "alt": 6939,
      "▁portra": 6940,
      "gest": 6941,
      "▁establishing": 6942,
      "▁increases": 6943,
      "▁builders": 6944,
      ".00": 6945,
      "▁grampy": 6946,
      "▁stairs": 6947,
      "ude": 6948,
      "▁nmemdrft8-7": 6949,
      "▁gif": 6950,
      "▁deep": 6951,
      "▁inspiration": 6952,
      "▁del": 6953,
      "▁arrested": 6954,
      "-and": 6955,
      "▁solo": 6956,
      "bank": 6957,
      "eeze": 6958,
      "▁multip": 6959,
      "▁calendar": 6960,
      "▁carl": 6961,
      "uling": 6962,
      "▁ensure": 6963,
      "▁sour": 6964,
      ":51": 6965,
      "▁myster": 6966,
      "▁parish": 6967,
      "▁destruction": 6968,
      "▁subjects": 6969,
      "▁fact": 6970,
      "▁participate": 6971,
      "▁som": 6972,
      "▁uncertain": 6973,
      "▁mia": 6974,
      "▁tabled": 6975,
      "▁joy": 6976,
      "iting": 6977,
      "▁billing": 6978,
      "▁10/31": 6979,
      "▁wikipedia": 6980,
      "erves": 6981,
      "▁legislation": 6982,
      "▁weather": 6983,
      "▁tana": 6984,
      "▁hen": 6985,
      "▁departures": 6986,
      "▁newer": 6987,
      "▁na": 6988,
      "▁assassination": 6989,
      "▁misc": 6990,
      "▁mistaken": 6991,
      "aled": 6992,
      "▁holes": 6993,
      "▁religious": 6994,
      "▁itself": 6995,
      "▁lad": 6996,
      "asons": 6997,
      "aded": 6998,
      "▁teeth": 6999,
      "▁notwith": 7000,
      "lac": 7001,
      "▁wolf": 7002,
      "▁barack": 7003,
      "▁circular": 7004,
      "▁pers": 7005,
      "▁rang": 7006,
      "eland": 7007,
      "▁exchanges": 7008,
      "▁said": 7009,
      "oc": 7010,
      "▁originally": 7011,
      "guard": 7012,
      "7/2000": 7013,
      "iscal": 7014,
      "▁sealed": 7015,
      "▁muffin": 7016,
      "▁rhinoceros": 7017,
      "▁premium": 7018,
      "▁favor": 7019,
      "▁recommend": 7020,
      "sylv": 7021,
      "alid": 7022,
      "hand": 7023,
      "▁ms": 7024,
      "▁apprec": 7025,
      "▁criter": 7026,
      "▁availability": 7027,
      "uela": 7028,
      "▁medal": 7029,
      "lish": 7030,
      "▁202.456.2461": 7031,
      "▁chalabi": 7032,
      "▁1609": 7033,
      "▁wheat": 7034,
      "▁week": 7035,
      "oman": 7036,
      "▁appropriate": 7037,
      "▁elena": 7038,
      "▁pyth": 7039,
      "plete": 7040,
      "▁dynamic": 7041,
      "▁caus": 7042,
      "▁oklahoma": 7043,
      "▁u.": 7044,
      "▁explan": 7045,
      "iqu": 7046,
      "▁825": 7047,
      "▁advantages": 7048,
      "▁compreh": 7049,
      "▁drafted": 7050,
      "▁tempor": 7051,
      "▁meiring": 7052,
      "hing": 7053,
      "enix": 7054,
      "anga": 7055,
      "▁ketchup": 7056,
      "▁84": 7057,
      "▁y-": 7058,
      "side": 7059,
      "▁clear": 7060,
      "▁seven": 7061,
      "ested": 7062,
      "▁anem": 7063,
      "▁photograph": 7064,
      "▁_________________________________________________": 7065,
      "▁dining": 7066,
      "▁households": 7067,
      "▁disorder": 7068,
      "▁p": 7069,
      "ρ": 7070,
      "-1": 7071,
      "ggies": 7072,
      "▁searching": 7073,
      "▁messed": 7074,
      "▁det": 7075,
      "▁arena": 7076,
      "▁sites": 7077,
      "gate": 7078,
      "▁trick": 7079,
      "▁fascinating": 7080,
      "▁no": 7081,
      "▁cuts": 7082,
      "4th": 7083,
      "▁chantilly": 7084,
      "▁achieving": 7085,
      "iment": 7086,
      "urning": 7087,
      "▁toss": 7088,
      "▁signal": 7089,
      "▁oy": 7090,
      "▁disciplines": 7091,
      "▁pleasure": 7092,
      "▁else": 7093,
      "▁witness": 7094,
      "▁google": 7095,
      "ond": 7096,
      "▁4_28": 7097,
      "at": 7098,
      "mart": 7099,
      "▁hagrid": 7100,
      "▁meal": 7101,
      "▁answers": 7102,
      "▁lifet": 7103,
      "▁hated": 7104,
      "▁creativity": 7105,
      "▁fishie": 7106,
      "▁responsibility": 7107,
      "▁powder": 7108,
      "202": 7109,
      "▁graduate": 7110,
      "▁brief": 7111,
      "▁obstacle": 7112,
      "▁referend": 7113,
      "apt": 7114,
      "▁evalu": 7115,
      "▁figures": 7116,
      "▁noida": 7117,
      "erald": 7118,
      "arr": 7119,
      "▁inner": 7120,
      "▁temperatures": 7121,
      "friend": 7122,
      "uv": 7123,
      "-kedne": 7124,
      "▁silent": 7125,
      "▁cupboard": 7126,
      "▁thron": 7127,
      "▁georgia": 7128,
      "▁tire": 7129,
      "▁plates": 7130,
      "▁montalvo": 7131,
      "▁diversity": 7132,
      "▁focus": 7133,
      "iard": 7134,
      "being": 7135,
      "▁turning": 7136,
      "aping": 7137,
      "▁ken": 7138,
      "▁neigh": 7139,
      "▁lawy": 7140,
      "▁nineteenth": 7141,
      "▁appli": 7142,
      "▁quaffle": 7143,
      "9999": 7144,
      "no": 7145,
      "▁mosquitoes": 7146,
      "▁pul": 7147,
      "▁attem": 7148,
      "rop": 7149,
      "ikh": 7150,
      "ram": 7151,
      "urs": 7152,
      "▁kid": 7153,
      "▁coordinator": 7154,
      "▁stealing": 7155,
      "▁diving": 7156,
      "▁gdp": 7157,
      "mans": 7158,
      "▁pharmaceutical": 7159,
      "▁ted": 7160,
      "▁molly": 7161,
      "ender": 7162,
      "▁cheer": 7163,
      "▁gross": 7164,
      "▁economists": 7165,
      "iana": 7166,
      "act": 7167,
      "▁cleaned": 7168,
      "▁starving": 7169,
      "▁ambulance": 7170,
      "▁sacrif": 7171,
      "▁jesus": 7172,
      "▁road": 7173,
      "▁stability": 7174,
      "▁pdt": 7175,
      "▁05/17/99": 7176,
      "▁nabe": 7177,
      "▁peanut": 7178,
      "▁tens": 7179,
      "▁417": 7180,
      "▁managers": 7181,
      "▁esther": 7182,
      "▁evolutionary": 7183,
      "▁list": 7184,
      "▁living": 7185,
      "▁intervals": 7186,
      "▁cm": 7187,
      "▁shi": 7188,
      "▁proud": 7189,
      "ate": 7190,
      "▁gentleman": 7191,
      "irl": 7192,
      "▁eleventh": 7193,
      "▁employee": 7194,
      "▁larger": 7195,
      "▁cross-s": 7196,
      "200": 7197,
      "▁faster": 7198,
      "iddle": 7199,
      "▁asylum": 7200,
      "▁drink": 7201,
      "▁maintain": 7202,
      "▁thirtieth": 7203,
      "smith": 7204,
      "lect": 7205,
      "▁profitable": 7206,
      "▁formula": 7207,
      "▁au": 7208,
      "▁cyclone": 7209,
      "▁hors": 7210,
      "▁1307": 7211,
      "▁510-642": 7212,
      "▁negotiating": 7213,
      "tto": 7214,
      "ttes": 7215,
      "▁particular": 7216,
      "▁channel": 7217,
      "▁wearing": 7218,
      "▁era": 7219,
      "▁outdoors": 7220,
      "▁dire": 7221,
      "/99": 7222,
      "▁cogn": 7223,
      "cement": 7224,
      "▁anton": 7225,
      "▁sports": 7226,
      "▁existence": 7227,
      "▁discharge": 7228,
      "▁evacuation": 7229,
      "pi": 7230,
      "▁contacted": 7231,
      "▁’ve": 7232,
      "▁name": 7233,
      "▁philadelphia": 7234,
      "▁saint": 7235,
      "▁cit": 7236,
      "▁sisters": 7237,
      "▁marked": 7238,
      "▁headache": 7239,
      "▁enrich": 7240,
      "enders": 7241,
      "▁-------------------------------------------------": 7242,
      "▁ornament": 7243,
      "rain": 7244,
      "▁grave": 7245,
      "ional": 7246,
      "elia": 7247,
      "▁inade": 7248,
      "▁protection": 7249,
      "▁county": 7250,
      "▁cuban": 7251,
      "▁transfer": 7252,
      "▁seattle": 7253,
      "▁oven": 7254,
      "▁albeit": 7255,
      "alia": 7256,
      "uting": 7257,
      "irect": 7258,
      "▁hurry": 7259,
      "▁honestly": 7260,
      "▁baking": 7261,
      "▁broad": 7262,
      "▁arrived": 7263,
      "▁external": 7264,
      "▁unus": 7265,
      "▁dfw": 7266,
      "▁indiffer": 7267,
      "▁teh": 7268,
      "▁appear": 7269,
      "▁cox": 7270,
      "▁fost": 7271,
      "▁gender": 7272,
      "aware": 7273,
      "tw": 7274,
      "▁appeal": 7275,
      "▁headquart": 7276,
      "▁vir": 7277,
      "▁interv": 7278,
      "▁kansas": 7279,
      "▁shirts": 7280,
      "▁crow": 7281,
      "▁lift": 7282,
      "ober": 7283,
      "▁applicable": 7284,
      "▁blown": 7285,
      "▁bags": 7286,
      "▁awesome": 7287,
      "-696": 7288,
      "▁explanations": 7289,
      "▁park": 7290,
      "ackl": 7291,
      "▁pi": 7292,
      "ashed": 7293,
      "▁expired": 7294,
      "▁prote": 7295,
      "▁swings": 7296,
      "▁where": 7297,
      "▁cat": 7298,
      "▁limitation": 7299,
      "▁philipp": 7300,
      "▁equivalence": 7301,
      "▁identification": 7302,
      "▁3/8/00": 7303,
      "▁supply": 7304,
      "rie": 7305,
      "▁carol.st": 7306,
      "▁clos": 7307,
      "▁style": 7308,
      "▁toast": 7309,
      "▁advantage": 7310,
      "▁improving": 7311,
      "▁interior": 7312,
      "▁prize": 7313,
      "▁cannon": 7314,
      "hart": 7315,
      "▁phase": 7316,
      "▁prominent": 7317,
      "▁commonly": 7318,
      "▁weird": 7319,
      "▁finished": 7320,
      "33": 7321,
      "▁dg": 7322,
      "▁abstract": 7323,
      "▁ambitious": 7324,
      "▁aggression": 7325,
      "▁rounds": 7326,
      "▁3:00": 7327,
      "▁bas": 7328,
      "▁1966": 7329,
      "▁fleeing": 7330,
      "bat": 7331,
      "▁infection": 7332,
      "▁thurs": 7333,
      "▁microw": 7334,
      "hone": 7335,
      "▁syn": 7336,
      "▁mantra": 7337,
      "▁return": 7338,
      "▁jeop": 7339,
      "▁carol.st.clair@enron.com": 7340,
      "▁advent": 7341,
      "▁vangu": 7342,
      "eling": 7343,
      "ump": 7344,
      "▁cause": 7345,
      "@enron.com": 7346,
      "****": 7347,
      "▁alley": 7348,
      "▁badly": 7349,
      "pdf": 7350,
      "inite": 7351,
      "▁nier": 7352,
      "▁khan@t": 7353,
      "▁splend": 7354,
      "ural": 7355,
      "▁batch": 7356,
      "▁memorable": 7357,
      "▁chapters": 7358,
      "▁archive": 7359,
      "ibald": 7360,
      "▁reaching": 7361,
      "▁visas": 7362,
      "▁mart": 7363,
      "▁enrongss.xls": 7364,
      "▁relax": 7365,
      "▁festivals": 7366,
      "ately": 7367,
      "▁curry": 7368,
      "▁myanmar": 7369,
      "-435": 7370,
      "▁attempt": 7371,
      "▁beyond": 7372,
      "▁pom": 7373,
      "▁exercise": 7374,
      "▁conferences": 7375,
      "▁mate": 7376,
      "alph": 7377,
      "iveness": 7378,
      "in": 7379,
      "▁vi": 7380,
      "▁voters": 7381,
      "▁drain": 7382,
      "▁realization": 7383,
      "▁pointing": 7384,
      "▁shahar": 7385,
      "▁ride": 7386,
      "on": 7387,
      "▁1787": 7388,
      "▁continent": 7389,
      "▁bullet": 7390,
      "▁attack": 7391,
      "-343": 7392,
      "▁duke": 7393,
      "▁students": 7394,
      "▁totally": 7395,
      "▁tourism": 7396,
      "▁general": 7397,
      "burg": 7398,
      "▁ras": 7399,
      "▁cir": 7400,
      "▁aqu": 7401,
      "▁dinner": 7402,
      "fl": 7403,
      "▁meow": 7404,
      "icated": 7405,
      "▁eu": 7406,
      "▁different": 7407,
      "▁family": 7408,
      "▁55": 7409,
      "▁intervening": 7410,
      "gh": 7411,
      "▁partners": 7412,
      "▁magic": 7413,
      "▁bulbs": 7414,
      "▁bh": 7415,
      "▁intact": 7416,
      "iron": 7417,
      "▁audio": 7418,
      "▁garage": 7419,
      "▁oriented": 7420,
      "▁dominant": 7421,
      "▁styles": 7422,
      "▁simult": 7423,
      "r.": 7424,
      "▁assumed": 7425,
      "▁signed": 7426,
      "ql": 7427,
      "▁forehead": 7428,
      "@p": 7429,
      "▁discl": 7430,
      "▁seiz": 7431,
      "lio": 7432,
      "▁http": 7433,
      "▁region": 7434,
      "▁j": 7435,
      "estic": 7436,
      "▁1950": 7437,
      "▁yer": 7438,
      "▁mah": 7439,
      "▁gramp": 7440,
      "▁champagne": 7441,
      "▁+++": 7442,
      "▁ninny": 7443,
      "▁visible": 7444,
      "▁shell": 7445,
      "uled": 7446,
      "mar": 7447,
      "▁corners": 7448,
      "▁officials": 7449,
      "▁dennis": 7450,
      "▁tr": 7451,
      "▁bones": 7452,
      "▁nine": 7453,
      "▁elect": 7454,
      "▁turtle": 7455,
      "▁situ": 7456,
      "▁ash": 7457,
      "口": 7458,
      "ʒ": 7459,
      "pent": 7460,
      "▁directed": 7461,
      "▁hesitate": 7462,
      "▁cities": 7463,
      "lied": 7464,
      "▁liz": 7465,
      "▁priest": 7466,
      "-like": 7467,
      "▁roughly": 7468,
      "ects": 7469,
      "▁57": 7470,
      "▁operator": 7471,
      "▁photo": 7472,
      "▁communication": 7473,
      "▁quant": 7474,
      "▁dol": 7475,
      "▁pajamas": 7476,
      "▁fought": 7477,
      "▁sale": 7478,
      "▁kpa": 7479,
      "▁sympathy": 7480,
      "▁revealed": 7481,
      "▁april": 7482,
      "lem": 7483,
      "▁cuis": 7484,
      "face": 7485,
      "▁flag": 7486,
      "▁mixed": 7487,
      "▁performed": 7488,
      "▁margin": 7489,
      "▁claws": 7490,
      "▁wellington": 7491,
      "▁wed": 7492,
      "▁go": 7493,
      "▁operators": 7494,
      "iro": 7495,
      "▁dobby": 7496,
      "ptions": 7497,
      "▁dollar": 7498,
      "▁govern": 7499,
      "▁-2-": 7500,
      "icop": 7501,
      "▁sought": 7502,
      "▁picked": 7503,
      "▁dey": 7504,
      "▁emb": 7505,
      "▁tractor": 7506,
      "▁wai": 7507,
      "▁'re": 7508,
      "▁designs": 7509,
      "▁very": 7510,
      "▁exceed": 7511,
      "▁helicop": 7512,
      "▁gramm": 7513,
      "▁jobs": 7514,
      "▁incred": 7515,
      "▁llms": 7516,
      "▁thawed": 7517,
      "▁alone": 7518,
      "▁bab": 7519,
      "▁atmosphere": 7520,
      "▁1616": 7521,
      "ocular": 7522,
      "▁possibility": 7523,
      "▁stop": 7524,
      "▁spiritual": 7525,
      "▁edu": 7526,
      "▁laser": 7527,
      "iful": 7528,
      "▁there": 7529,
      "▁plastic": 7530,
      "▁proprietary": 7531,
      "▁forgiveness": 7532,
      "▁rose": 7533,
      "▁distingu": 7534,
      "itely": 7535,
      "▁diagram": 7536,
      "φ": 7537,
      "▁harm": 7538,
      "icked": 7539,
      "▁triumph": 7540,
      "▁fr": 7541,
      "▁faithful": 7542,
      "phis": 7543,
      ".g": 7544,
      "____": 7545,
      "▁legos": 7546,
      "▁drove": 7547,
      "▁sag": 7548,
      "▁caused": 7549,
      "▁lap": 7550,
      "ira": 7551,
      "▁someplace": 7552,
      "▁hund": 7553,
      "▁importantly": 7554,
      "ville": 7555,
      "▁sport": 7556,
      "▁cruise": 7557,
      "▁before": 7558,
      "▁pork": 7559,
      "ationally": 7560,
      "▁crackers": 7561,
      "▁xv": 7562,
      "▁82": 7563,
      "▁supernatural": 7564,
      "▁http://": 7565,
      "▁roll": 7566,
      "▁conven": 7567,
      "▁olymp": 7568,
      "▁affirm": 7569,
      "远": 7570,
      "▁feb.": 7571,
      "▁discrimination": 7572,
      "▁gaps": 7573,
      "▁wentz": 7574,
      "▁ames": 7575,
      "▁candidate": 7576,
      "▁315": 7577,
      "▁copies": 7578,
      "▁639": 7579,
      "▁sushi": 7580,
      "▁ena": 7581,
      "▁respond": 7582,
      "▁proble": 7583,
      "▁focuses": 7584,
      "▁elevator": 7585,
      "▁tours": 7586,
      "▁nerv": 7587,
      "▁considerably": 7588,
      "▁jour": 7589,
      "▁zurbar": 7590,
      "ilyn": 7591,
      "▁mycelium": 7592,
      "▁improvement": 7593,
      "▁field": 7594,
      "ribe": 7595,
      "▁englishman": 7596,
      "▁strat": 7597,
      "weight": 7598,
      "▁threw": 7599,
      "fast": 7600,
      "ces": 7601,
      "▁prestig": 7602,
      "▁supp": 7603,
      "▁tool": 7604,
      "▁amended": 7605,
      "▁unrelated": 7606,
      "▁wondered": 7607,
      "▁component": 7608,
      "▁toler": 7609,
      "▁abst": 7610,
      "▁☎": 7611,
      "▁bubble": 7612,
      "▁gisb": 7613,
      "▁presidential": 7614,
      "▁continuing": 7615,
      "erina": 7616,
      "▁penn": 7617,
      "▁reinfor": 7618,
      "▁waff": 7619,
      "▁composed": 7620,
      "▁humans": 7621,
      "ner": 7622,
      "onent": 7623,
      "air@enron.com": 7624,
      "▁weary": 7625,
      "▁envelop": 7626,
      "▁bite": 7627,
      "▁dkk": 7628,
      "▁nons": 7629,
      "roph": 7630,
      "uring": 7631,
      "▁nonna": 7632,
      "ails": 7633,
      "aganda": 7634,
      "▁passenger": 7635,
      "▁concerned": 7636,
      "▁experiences": 7637,
      "▁however": 7638,
      "▁internet": 7639,
      "▁1647": 7640,
      "▁elastic": 7641,
      "▁precision": 7642,
      "wards": 7643,
      "▁ou": 7644,
      "▁floor": 7645,
      "▁bub": 7646,
      "aper": 7647,
      "▁guidelines": 7648,
      "▁stab": 7649,
      "▁wasted": 7650,
      "▁needing": 7651,
      "▁bce": 7652,
      "▁frighten": 7653,
      "▁chalkboard": 7654,
      "▁gimp": 7655,
      "▁sle": 7656,
      "▁belong": 7657,
      "▁grant": 7658,
      "ikes": 7659,
      "▁sov": 7660,
      "▁reality": 7661,
      "▁crop": 7662,
      "▁des": 7663,
      "▁super": 7664,
      "fet": 7665,
      "▁jew": 7666,
      "▁oppose": 7667,
      "▁distrib": 7668,
      "anger": 7669,
      "▁03:48": 7670,
      "▁particles": 7671,
      "▁present": 7672,
      "ises": 7673,
      "▁side": 7674,
      "▁dancers": 7675,
      "▁separation": 7676,
      "▁hier": 7677,
      "▁goods": 7678,
      "urt": 7679,
      "ging": 7680,
      "▁sigh": 7681,
      "arch": 7682,
      "▁truck": 7683,
      "▁inquiries": 7684,
      "▁bathroom": 7685,
      "inews": 7686,
      "inal": 7687,
      "▁moo": 7688,
      "▁carolina": 7689,
      "▁meanwhile": 7690,
      "▁program": 7691,
      "off": 7692,
      "asters": 7693,
      "right": 7694,
      "▁phones": 7695,
      "▁controvers": 7696,
      "▁refused": 7697,
      "▁stoo": 7698,
      "▁clam": 7699,
      "ros": 7700,
      "entions": 7701,
      "▁sam": 7702,
      "▁seeks": 7703,
      "▁supper": 7704,
      "▁stem": 7705,
      "▁others": 7706,
      "ys": 7707,
      "▁chance": 7708,
      ".15": 7709,
      "arat": 7710,
      "hia": 7711,
      "▁law": 7712,
      "esth": 7713,
      "▁suggested": 7714,
      "▁umb": 7715,
      "▁hiroshima": 7716,
      "▁premise": 7717,
      "▁gener": 7718,
      "▁pin": 7719,
      "▁screen": 7720,
      "el": 7721,
      "▁which": 7722,
      "▁01/26/2001": 7723,
      "▁hosting": 7724,
      "▁definition": 7725,
      "▁paint": 7726,
      "▁bacon": 7727,
      "▁tigger": 7728,
      "▁moderate": 7729,
      "▁taipe": 7730,
      "▁railway": 7731,
      "▁major": 7732,
      "▁shark": 7733,
      "▁compon": 7734,
      "▁veteran": 7735,
      "▁released": 7736,
      "▁drinks": 7737,
      "▁supporters": 7738,
      "▁ideation": 7739,
      "zes": 7740,
      "verted": 7741,
      "arily": 7742,
      "ulatory": 7743,
      "▁|": 7744,
      "artney": 7745,
      "▁maker": 7746,
      "▁90s": 7747,
      "▁kum": 7748,
      "▁laundry": 7749,
      "▁unexp": 7750,
      "▁utilities": 7751,
      "ted": 7752,
      "▁pivottable": 7753,
      "▁sanct": 7754,
      "▁seemingly": 7755,
      "▁explain": 7756,
      "▁1100": 7757,
      "▁1613": 7758,
      "▁due": 7759,
      "▁composition": 7760,
      "▁routine": 7761,
      "▁failing": 7762,
      "▁clark": 7763,
      "▁dull": 7764,
      "▁besides": 7765,
      "bie": 7766,
      "inea": 7767,
      "▁site": 7768,
      "▁arrogance": 7769,
      "uum": 7770,
      "▁ge": 7771,
      "ahan": 7772,
      "▁voice": 7773,
      "▁cocoa": 7774,
      "▁methods": 7775,
      "▁ansi-89": 7776,
      "x": 7777,
      "▁seventy": 7778,
      "▁sails": 7779,
      "▁willing": 7780,
      "▁indust": 7781,
      "▁ded": 7782,
      "on@ect": 7783,
      "▁talent": 7784,
      "acer": 7785,
      "▁skirts": 7786,
      "▁3.7": 7787,
      "▁paralymp": 7788,
      "▁favorable": 7789,
      "ateg": 7790,
      "▁banner": 7791,
      "▁amaz": 7792,
      "py": 7793,
      "mers": 7794,
      "▁888": 7795,
      "▁remark": 7796,
      "▁durham": 7797,
      "▁agric": 7798,
      "anim": 7799,
      "▁steak": 7800,
      "▁hotels": 7801,
      "▁unlike": 7802,
      "▁01/19/2001": 7803,
      "ippers": 7804,
      "▁wides": 7805,
      "▁stopovers": 7806,
      "ex": 7807,
      "spot.com/": 7808,
      "▁trial": 7809,
      "▁military": 7810,
      "onents": 7811,
      "wise": 7812,
      "▁floating": 7813,
      "▁obsession": 7814,
      "▁termin": 7815,
      "▁425": 7816,
      "▁04/16/2001": 7817,
      "▁addicted": 7818,
      "etery": 7819,
      "▁summit": 7820,
      "▁appealing": 7821,
      "▁med": 7822,
      "▁proposed": 7823,
      "▁remarks": 7824,
      "▁encounter": 7825,
      "oration": 7826,
      "­": 7827,
      "▁halal": 7828,
      "▁marg": 7829,
      "▁expected": 7830,
      "▁political": 7831,
      "▁asp": 7832,
      "▁increasing": 7833,
      "▁christmas": 7834,
      "▁strain": 7835,
      "-9004": 7836,
      "▁ties": 7837,
      "▁mothers": 7838,
      "▁muggles": 7839,
      "▁dasovich": 7840,
      "▁persec": 7841,
      "▁well": 7842,
      "▁hierarch": 7843,
      "▁changed": 7844,
      "a)": 7845,
      "▁129": 7846,
      "▁cham": 7847,
      "▁mal": 7848,
      "▁hour": 7849,
      "▁tsar": 7850,
      "▁nina": 7851,
      "▁unpre": 7852,
      "utan": 7853,
      "▁contr": 7854,
      "ift": 7855,
      "▁surprised": 7856,
      "▁158": 7857,
      "▁surve": 7858,
      "▁karl": 7859,
      "▁homemade": 7860,
      "▁diesel": 7861,
      "o": 7862,
      "uts": 7863,
      "conn": 7864,
      "▁kleenex": 7865,
      "▁shelf": 7866,
      "▁22": 7867,
      "▁parach": 7868,
      "▁dam": 7869,
      "▁grape": 7870,
      "▁circling": 7871,
      "▁distant": 7872,
      "▁steph": 7873,
      "lessness": 7874,
      "▁‘’": 7875,
      "▁apparent": 7876,
      "▁b.": 7877,
      "ould": 7878,
      "▁horses": 7879,
      "▁revers": 7880,
      "▁supernat": 7881,
      "▁z": 7882,
      "five": 7883,
      "▁shared": 7884,
      "ult": 7885,
      "agh": 7886,
      "津": 7887,
      "œ": 7888,
      "ain": 7889,
      "▁easter": 7890,
      "▁declined": 7891,
      "ivan": 7892,
      "ulpt": 7893,
      "am": 7894,
      "▁candle": 7895,
      "▁dollars": 7896,
      "ml": 7897,
      "en": 7898,
      "▁anywhere": 7899,
      "▁demand": 7900,
      "image": 7901,
      "igu": 7902,
      "▁jerome": 7903,
      "▁num": 7904,
      "▁democrats": 7905,
      "▁forecast": 7906,
      "▁tant": 7907,
      "▁waved": 7908,
      "▁bumble": 7909,
      "otion": 7910,
      "▁thrown": 7911,
      "▁featured": 7912,
      "▁c.": 7913,
      "elberger": 7914,
      "▁thirds": 7915,
      "▁offering": 7916,
      "rael": 7917,
      "▁limb": 7918,
      "▁wong": 7919,
      "uch": 7920,
      "▁consistent": 7921,
      "isure": 7922,
      "▁interventions": 7923,
      "▁principal": 7924,
      "▁gotten": 7925,
      "▁1179": 7926,
      "▁addiction": 7927,
      "▁airb": 7928,
      "plus": 7929,
      "eeting": 7930,
      "▁worm": 7931,
      "▁me": 7932,
      "▁reducing": 7933,
      "▁contained": 7934,
      "▁statements": 7935,
      "▁cruel": 7936,
      "▁palestine": 7937,
      "uten": 7938,
      "affle": 7939,
      "▁conducting": 7940,
      "▁pee": 7941,
      "▁comedie": 7942,
      "▁miser": 7943,
      "▁bombs": 7944,
      "aces": 7945,
      "▁neural": 7946,
      "warts": 7947,
      "▁closer": 7948,
      "▁intim": 7949,
      "▁driver": 7950,
      "▁pag": 7951,
      "▁crops": 7952,
      "▁painting": 7953,
      ".10": 7954,
      "▁mor": 7955,
      "++++": 7956,
      "▁signs": 7957,
      "▁don": 7958,
      "ret": 7959,
      "ep": 7960,
      "▁26": 7961,
      "▁seek": 7962,
      "▁pretend": 7963,
      "▁disrupt": 7964,
      "▁enrononline": 7965,
      "▁dri": 7966,
      "iance": 7967,
      "▁gots": 7968,
      "▁hards": 7969,
      "▁tob": 7970,
      "▁terrif": 7971,
      "▁underst": 7972,
      "ieval": 7973,
      "▁settlement": 7974,
      "▁first": 7975,
      "▁facing": 7976,
      "▁late": 7977,
      "▁rein": 7978,
      "▁giant": 7979,
      "▁morning": 7980,
      "▁hilton": 7981,
      "▁arrogant": 7982,
      "▁tidily": 7983,
      "▁sandwich": 7984,
      "▁1575": 7985,
      "▁wakes": 7986,
      "▁average": 7987,
      "▁announ": 7988,
      "cing": 7989,
      "▁months": 7990,
      "▁agra": 7991,
      "▁basil": 7992,
      "▁battle": 7993,
      "▁cheers": 7994,
      "▁shel": 7995,
      "▁cas": 7996,
      "corn": 7997,
      "▁procedure": 7998,
      "▁individ": 7999,
      "▁resolved": 8000,
      "▁canada": 8001,
      "▁ran": 8002,
      "▁rand": 8003,
      "▁notice": 8004,
      "ths": 8005,
      "▁hens": 8006,
      "k.ur": 8007,
      "▁crude": 8008,
      "▁clothing": 8009,
      "isely": 8010,
      "uter": 8011,
      "ena": 8012,
      "▁11:0": 8013,
      "▁illusions": 8014,
      "▁highlights": 8015,
      "▁walker": 8016,
      "▁support": 8017,
      "▁invoice": 8018,
      "aped": 8019,
      "▁remod": 8020,
      "▁public": 8021,
      "▁along": 8022,
      "▁185": 8023,
      "▁legs": 8024,
      "▁wrest": 8025,
      "mem": 8026,
      "▁crisp": 8027,
      "▁indefin": 8028,
      "▁defense": 8029,
      "▁suggests": 8030,
      "esar": 8031,
      "@": 8032,
      "▁debbie": 8033,
      "6/": 8034,
      "sl": 8035,
      "▁brit": 8036,
      "▁bloody": 8037,
      "======": 8038,
      "▁honda": 8039,
      "▁elabor": 8040,
      "esty": 8041,
      "414": 8042,
      "▁unsure": 8043,
      "woman": 8044,
      "coon": 8045,
      "▁killed": 8046,
      "rible": 8047,
      "▁philosoph": 8048,
      "▁hundred": 8049,
      "▁1896": 8050,
      "▁34": 8051,
      "ruption": 8052,
      "▁hmm": 8053,
      "bor": 8054,
      "▁odd": 8055,
      "▁verb": 8056,
      "▁professionally": 8057,
      "▁restored": 8058,
      "▁enormous": 8059,
      "▁earthqu": 8060,
      "▁202.456.1414": 8061,
      "▁e.g": 8062,
      "▁electricity": 8063,
      "▁satisfy": 8064,
      "▁view": 8065,
      "▁twenty-four": 8066,
      "orio": 8067,
      "arf": 8068,
      "▁scent": 8069,
      "744": 8070,
      "▁vallee": 8071,
      "▁imported": 8072,
      "▁defines": 8073,
      "▁2005": 8074,
      "▁paralympics": 8075,
      "▁rainy": 8076,
      "▁resumed": 8077,
      "▁consequences": 8078,
      "▁jordan": 8079,
      "▁yours": 8080,
      "▁we": 8081,
      "arked": 8082,
      "▁hydro": 8083,
      "kk": 8084,
      "▁fee": 8085,
      "▁boards": 8086,
      "▁choose": 8087,
      "▁unload": 8088,
      "▁prec": 8089,
      ">===": 8090,
      "▁homeland": 8091,
      "▁dedicated": 8092,
      "▁jerk": 8093,
      "▁dist": 8094,
      "▁if": 8095,
      "ity": 8096,
      "▁regret": 8097,
      "▁distinguished": 8098,
      "▁professionalism": 8099,
      "▁eul": 8100,
      "▁home": 8101,
      "▁progr": 8102,
      "▁relationships": 8103,
      "▁initiate": 8104,
      "▁ex": 8105,
      "aff": 8106,
      "▁mixture": 8107,
      "ody": 8108,
      "▁walking": 8109,
      "▁certainly": 8110,
      "▁democrat": 8111,
      "▁ayman": 8112,
      "▁tun": 8113,
      "▁illusion": 8114,
      "▁centers": 8115,
      "▁toaster": 8116,
      "▁kent": 8117,
      "arse": 8118,
      "▁recipe": 8119,
      "▁iraq": 8120,
      "▁cruc": 8121,
      "ending": 8122,
      "▁city": 8123,
      "other": 8124,
      "▁insurance": 8125,
      "▁substance": 8126,
      "▁embarrassment": 8127,
      "▁jay": 8128,
      "▁heavier": 8129,
      "▁contract": 8130,
      "▁connection": 8131,
      "▁penny": 8132,
      "▁funding": 8133,
      "▁retained": 8134,
      "▁versions": 8135,
      "angu": 8136,
      "active": 8137,
      "▁explanation": 8138,
      "▁promotion": 8139,
      "▁defe": 8140,
      "ge": 8141,
      "▁attacked": 8142,
      "▁designer": 8143,
      "oo": 8144,
      "▁relent": 8145,
      "▁courage": 8146,
      "▁drivers": 8147,
      "▁jer": 8148,
      "▁46": 8149,
      "ges": 8150,
      "uments": 8151,
      "ounded": 8152,
      "▁cover": 8153,
      "▁indicates": 8154,
      "aleck": 8155,
      "▁departs": 8156,
      ",6": 8157,
      "id": 8158,
      "▁interpreted": 8159,
      "eff": 8160,
      "▁bl": 8161,
      "▁67": 8162,
      "▁conducted": 8163,
      "▁hoax": 8164,
      "▁wake": 8165,
      "oved": 8166,
      "anta": 8167,
      "▁keen": 8168,
      "▁bour": 8169,
      "franch": 8170,
      "▁reve": 8171,
      "ued": 8172,
      "▁girl": 8173,
      "hop": 8174,
      "▁monsters": 8175,
      "▁enh": 8176,
      "▁emerg": 8177,
      "▁forced": 8178,
      "▁government": 8179,
      "▁concerning": 8180,
      "▁cheeks": 8181,
      "alys": 8182,
      "imm": 8183,
      "▁recruiting": 8184,
      "▁regarding": 8185,
      "▁season": 8186,
      "▁relevant": 8187,
      "▁gate": 8188,
      "▁greek": 8189,
      "▁moh": 8190,
      "▁governor": 8191,
      "▁fine": 8192,
      "▁w": 8193,
      "pring": 8194,
      "▁booked": 8195,
      "▁rum": 8196,
      "▁extremist": 8197,
      "▁inch": 8198,
      "▁esc": 8199,
      "fly": 8200,
      "to": 8201,
      "7/99": 8202,
      "acle": 8203,
      "▁gum": 8204,
      "▁image": 8205,
      "▁arrang": 8206,
      "▁confl": 8207,
      "alog": 8208,
      "▁informacion": 8209,
      "▁btw": 8210,
      "▁cultural": 8211,
      "▁demanded": 8212,
      "▁floren": 8213,
      "▁kosovo": 8214,
      "▁exec": 8215,
      "▁innocent": 8216,
      "ologist": 8217,
      "▁tamils": 8218,
      "nov": 8219,
      "/c": 8220,
      "▁mullah": 8221,
      "▁prevail": 8222,
      "▁benefited": 8223,
      "▁1820": 8224,
      "▁32": 8225,
      "▁marvelous": 8226,
      "▁bobo": 8227,
      "________________________________": 8228,
      "▁groan": 8229,
      "▁waited": 8230,
      "58": 8231,
      "▁hot": 8232,
      "▁begun": 8233,
      "▁slippers": 8234,
      "________________": 8235,
      "▁corpus": 8236,
      "ible": 8237,
      "▁needed": 8238,
      "bl": 8239,
      "▁shit": 8240,
      ".7": 8241,
      "▁injured": 8242,
      "▁haf": 8243,
      "/13": 8244,
      "▁horm": 8245,
      "▁minute": 8246,
      "illery": 8247,
      "▁pm": 8248,
      "▁implicated": 8249,
      "▁strike": 8250,
      "▁divine": 8251,
      "▁yazid": 8252,
      "▁oct": 8253,
      "▁stripes": 8254,
      "▁revisions": 8255,
      "▁strawberries": 8256,
      "v.": 8257,
      "▁stirring": 8258,
      "▁trem": 8259,
      "asse": 8260,
      "▁conclusion": 8261,
      "▁295870": 8262,
      "▁m.": 8263,
      "▁err": 8264,
      "▁cares": 8265,
      "▁examined": 8266,
      "▁credit": 8267,
      "▁company": 8268,
      "▁pod": 8269,
      "▁thais": 8270,
      "ters": 8271,
      "▁29587": 8272,
      "▁genuine": 8273,
      "▁die": 8274,
      "▁28": 8275,
      "▁candidates": 8276,
      "▁permit": 8277,
      "▁chas": 8278,
      "▁tale": 8279,
      "▁pie": 8280,
      "▁stressful": 8281,
      "que": 8282,
      "▁scan": 8283,
      "▁tu": 8284,
      "▁lun": 8285,
      "▁u.s": 8286,
      "▁pale": 8287,
      "▁fridge": 8288,
      "▁chairs": 8289,
      "▁52": 8290,
      "▁-2-f.doc": 8291,
      "▁hea": 8292,
      "▁malaysia": 8293,
      "-faced": 8294,
      "▁golf": 8295,
      "▁hasid": 8296,
      "▁acceler": 8297,
      "▁words": 8298,
      "▁medicine": 8299,
      "▁given": 8300,
      "▁patri": 8301,
      "▁1691": 8302,
      "▁11/7/08": 8303,
      "▁paragraph": 8304,
      "▁unn": 8305,
      "▁brains": 8306,
      "▁contest": 8307,
      "▁station": 8308,
      "▁lamp": 8309,
      "▁mode": 8310,
      "▁atlanta": 8311,
      "▁judy": 8312,
      "ploy": 8313,
      "ors": 8314,
      "▁1220": 8315,
      "▁entry": 8316,
      "▁advance": 8317,
      "▁critics": 8318,
      "▁cuckoo": 8319,
      "▁judg": 8320,
      "▁once": 8321,
      "▁chicken": 8322,
      "onna": 8323,
      "▁reveal": 8324,
      "▁memor": 8325,
      "▁casc": 8326,
      "▁consortium": 8327,
      "▁structural": 8328,
      "▁sec": 8329,
      "▁leung": 8330,
      "▁4:50": 8331,
      "▁air": 8332,
      "▁75": 8333,
      "▁kuwait": 8334,
      "rell": 8335,
      "▁mexic": 8336,
      "▁baghdad": 8337,
      "akes": 8338,
      "▁severe": 8339,
      "inter": 8340,
      "▁mhc": 8341,
      "ests": 8342,
      "▁fitness": 8343,
      "unic": 8344,
      "se": 8345,
      "hea": 8346,
      "▁hus": 8347,
      "-3989": 8348,
      "▁pace": 8349,
      "tact": 8350,
      "erg": 8351,
      "▁popcorn": 8352,
      "▁12,000": 8353,
      "▁pony": 8354,
      "word": 8355,
      "▁rapid": 8356,
      "▁um": 8357,
      "/30/2001": 8358,
      ":28": 8359,
      "ø": 8360,
      "▁delighted": 8361,
      "▁threatens": 8362,
      "pal": 8363,
      "▁apparently": 8364,
      "▁gallon": 8365,
      "▁swirl": 8366,
      "ooking": 8367,
      "▁annoyed": 8368,
      "▁chosen": 8369,
      "▁cop": 8370,
      "▁symptoms": 8371,
      "▁retrosp": 8372,
      "ring": 8373,
      "▁generally": 8374,
      "▁monkey": 8375,
      "▁quality": 8376,
      "▁abo": 8377,
      "▁towards": 8378,
      "fa": 8379,
      "my": 8380,
      "▁ath": 8381,
      "▁johann": 8382,
      ",9": 8383,
      "▁volume": 8384,
      "▁red": 8385,
      "a": 8386,
      "▁mot": 8387,
      "▁wines": 8388,
      "▁firmly": 8389,
      "ah": 8390,
      "ac": 8391,
      "▁fucking": 8392,
      "▁crit": 8393,
      "▁200,000": 8394,
      "oween": 8395,
      "▁coke": 8396,
      "▁welfare": 8397,
      "▁susan": 8398,
      "▁nations": 8399,
      "▁reveals": 8400,
      "▁1562": 8401,
      "ived": 8402,
      "▁opin": 8403,
      "▁luna": 8404,
      "▁technique": 8405,
      "▁mars": 8406,
      "▁61": 8407,
      "icult": 8408,
      "▁enc": 8409,
      "▁victory": 8410,
      "▁iv": 8411,
      "▁shining": 8412,
      "▁providers": 8413,
      "▁flu": 8414,
      "bo": 8415,
      "▁t": 8416,
      "▁observ": 8417,
      "▁stair": 8418,
      "▁withd": 8419,
      "▁complaint": 8420,
      "▁office": 8421,
      "▁limousine": 8422,
      "esota": 8423,
      "▁angle": 8424,
      "▁chard": 8425,
      "▁713-853-3989": 8426,
      "º": 8427,
      "▁leadership": 8428,
      "▁1971": 8429,
      "▁murder": 8430,
      "▁cakes": 8431,
      "▁177": 8432,
      "▁next": 8433,
      "▁1995": 8434,
      "bs": 8435,
      "▁wisdom": 8436,
      "/26/2000": 8437,
      "▁conduct": 8438,
      "▁http://www.b": 8439,
      "▁walked": 8440,
      "▁question": 8441,
      "lades": 8442,
      "▁related": 8443,
      "fall": 8444,
      "▁10:00": 8445,
      "▁towel": 8446,
      "▁capt": 8447,
      "▁type": 8448,
      "ple": 8449,
      "55": 8450,
      "▁12.": 8451,
      "▁nature": 8452,
      "+": 8453,
      "ola": 8454,
      "▁below": 8455,
      "▁constituency": 8456,
      "▁laying": 8457,
      "em": 8458,
      "▁ninety-n": 8459,
      "▁b/c": 8460,
      "ague": 8461,
      "▁besid": 8462,
      "古": 8463,
      "▁explaining": 8464,
      "▁lob": 8465,
      "ayed": 8466,
      "▁newspaper": 8467,
      "▁switched": 8468,
      "oui": 8469,
      "▁4-12": 8470,
      "▁exclaim": 8471,
      "ot.com/": 8472,
      "▁notion": 8473,
      "▁web": 8474,
      "▁palestin": 8475,
      "▁bug": 8476,
      "▁equival": 8477,
      "▁---->===": 8478,
      "uous": 8479,
      "▁param": 8480,
      "▁hard": 8481,
      "▁been": 8482,
      "▁ua": 8483,
      "▁huh": 8484,
      "▁415.621": 8485,
      "▁jugg": 8486,
      "▁snuffy": 8487,
      "▁care": 8488,
      "▁nandakk": 8489,
      "▁cases": 8490,
      "▁pres": 8491,
      "craft": 8492,
      "▁;)": 8493,
      "▁pig": 8494,
      "jo": 8495,
      "oli": 8496,
      "▁errors": 8497,
      "▁preferred": 8498,
      "▁paul": 8499,
      "▁prom": 8500,
      "after": 8501,
      "▁culturally": 8502,
      "▁morality": 8503,
      "-98": 8504,
      "▁_________________________________": 8505,
      "-49": 8506,
      "▁pete": 8507,
      "▁4:30": 8508,
      "▁attempts": 8509,
      "▁complete": 8510,
      "▁gand": 8511,
      "ral": 8512,
      "▁enterprise": 8513,
      "▁degenerate": 8514,
      "▁international": 8515,
      "▁pea": 8516,
      "aha": 8517,
      "▁inapp": 8518,
      "ting": 8519,
      "▁syntact": 8520,
      "▁t-": 8521,
      "▁aware": 8522,
      "▁checking": 8523,
      "▁lat": 8524,
      "▁ey": 8525,
      "▁maternal": 8526,
      "▁dressing": 8527,
      "▁russian": 8528,
      "▁soda": 8529,
      "▁documentation": 8530,
      "▁third": 8531,
      "▁cameras": 8532,
      "▁carries": 8533,
      "▁breakfast": 8534,
      "▁fert": 8535,
      "▁joan": 8536,
      "▁prompted": 8537,
      "143": 8538,
      "going": 8539,
      "▁news": 8540,
      "▁checkers": 8541,
      "▁coverage": 8542,
      "▁mei": 8543,
      "▁hostess": 8544,
      "▁lantern": 8545,
      "▁money": 8546,
      "▁1878": 8547,
      "▁critical": 8548,
      "▁versus": 8549,
      "▁reservations": 8550,
      "iov": 8551,
      "ide": 8552,
      "▁brought": 8553,
      "ian": 8554,
      "▁frame": 8555,
      "rest": 8556,
      "▁typical": 8557,
      "▁rocket": 8558,
      "▁sunday": 8559,
      "mec": 8560,
      "▁urler": 8561,
      "ients": 8562,
      "odox": 8563,
      "▁atop": 8564,
      "ibiot": 8565,
      "▁accuracy": 8566,
      "▁ohio": 8567,
      "▁bondad": 8568,
      "▁pays": 8569,
      "▁jacket": 8570,
      "▁9221": 8571,
      "▁intensive": 8572,
      "▁diag": 8573,
      "▁tacoma": 8574,
      "υ": 8575,
      "allow": 8576,
      "▁bits": 8577,
      "▁movie": 8578,
      "9th": 8579,
      "▁philosophy": 8580,
      "▁759933": 8581,
      "▁198": 8582,
      "enge": 8583,
      "enue": 8584,
      "93": 8585,
      "▁monde": 8586,
      "portion": 8587,
      "▁occup": 8588,
      "▁tit": 8589,
      "▁http://en.": 8590,
      "derick": 8591,
      "▁freezer": 8592,
      "▁pad": 8593,
      "▁atomic": 8594,
      "▁prosp": 8595,
      "▁scen": 8596,
      "oulders": 8597,
      "▁films": 8598,
      "▁influence": 8599,
      "▁goodness": 8600,
      "▁underlying": 8601,
      "▁ekrapels@esaibos.com": 8602,
      "▁geomet": 8603,
      "▁proust": 8604,
      "▁stip": 8605,
      "▁femoral": 8606,
      "▁emp": 8607,
      "▁waterfall": 8608,
      "▁falled": 8609,
      "▁advis": 8610,
      "▁dost": 8611,
      "▁anne": 8612,
      "▁achieved": 8613,
      "of": 8614,
      "▁fir": 8615,
      "▁victims": 8616,
      "▁resour": 8617,
      "thansa": 8618,
      "▁litt": 8619,
      "arraf": 8620,
      "▁ultimately": 8621,
      "▁chi": 8622,
      "▁renewed": 8623,
      "▁impe": 8624,
      "actory": 8625,
      "▁subm": 8626,
      "15": 8627,
      "▁sword": 8628,
      "▁birds": 8629,
      "6th": 8630,
      "▁provinc": 8631,
      "▁1833": 8632,
      "▁came": 8633,
      "▁focused": 8634,
      "▁speed": 8635,
      "▁characteristics": 8636,
      "▁cherry": 8637,
      "▁checkout": 8638,
      "▁surprising": 8639,
      "▁vegetables": 8640,
      "▁05/25/2001": 8641,
      "▁sol": 8642,
      "▁intr": 8643,
      "▁stressed": 8644,
      "▁lifestyle": 8645,
      "▁mom": 8646,
      "▁roses": 8647,
      "-sh": 8648,
      "▁cia": 8649,
      "▁about": 8650,
      "osexual": 8651,
      "ocent": 8652,
      "▁specialists": 8653,
      "▁farther": 8654,
      "▁not": 8655,
      "▁spilled": 8656,
      "▁plural": 8657,
      "▁licking": 8658,
      "▁storms": 8659,
      "▁expectation": 8660,
      "▁glen": 8661,
      "▁rainbow": 8662,
      "▁padalecki": 8663,
      "▁juice": 8664,
      "▁comb": 8665,
      "▁explained": 8666,
      "▁comple": 8667,
      "▁debate": 8668,
      "arine": 8669,
      "ignment": 8670,
      "▁effective": 8671,
      "▁should": 8672,
      "▁alcalde": 8673,
      "▁barrels": 8674,
      "▁clearly": 8675,
      "embers": 8676,
      "ios": 8677,
      "▁emma": 8678,
      "▁drying": 8679,
      "▁thoroughly": 8680,
      "▁loved": 8681,
      "itively": 8682,
      "ood": 8683,
      "gen": 8684,
      "▁entering": 8685,
      "▁citizens": 8686,
      "▁sadat": 8687,
      "▁low": 8688,
      "lv": 8689,
      "▁hill": 8690,
      "ahe": 8691,
      "▁degree": 8692,
      "♥": 8693,
      "▁creature": 8694,
      "▁reflect": 8695,
      "kong": 8696,
      "▁harder": 8697,
      "▁s": 8698,
      "-4": 8699,
      "▁misunderstanding": 8700,
      "▁hardly": 8701,
      "ka": 8702,
      "▁chickens": 8703,
      "▁loving": 8704,
      "osure": 8705,
      "ild": 8706,
      "▁unclear": 8707,
      "▁mess": 8708,
      "▁scream": 8709,
      "att": 8710,
      "▁substantive": 8711,
      "▁computing": 8712,
      "eree": 8713,
      "▁held": 8714,
      "noon": 8715,
      "▁assem": 8716,
      "▁hal": 8717,
      "▁healthier": 8718,
      "▁category": 8719,
      "40": 8720,
      "▁ref": 8721,
      "▁ongoing": 8722,
      "▁attitudes": 8723,
      "▁kicked": 8724,
      "▁alread": 8725,
      "▁lent": 8726,
      "▁realize": 8727,
      "▁orders": 8728,
      "▁cloth": 8729,
      "ank": 8730,
      "esday": 8731,
      "▁survived": 8732,
      "ich": 8733,
      "tha": 8734,
      "▁private": 8735,
      "illo": 8736,
      "▁coun": 8737,
      "▁crossing": 8738,
      "▁counterparty": 8739,
      "▁ip": 8740,
      "▁oblig": 8741,
      "ck": 8742,
      "▁carefully": 8743,
      "▁aro": 8744,
      "▁staircase": 8745,
      "▁production": 8746,
      "▁arrives": 8747,
      "outs": 8748,
      "▁twirl": 8749,
      "product": 8750,
      "▁handed": 8751,
      "▁hee": 8752,
      "▁mma": 8753,
      "▁shores": 8754,
      "▁glad": 8755,
      ":32": 8756,
      "itis": 8757,
      "▁dioxide": 8758,
      "▁planned": 8759,
      "▁plans": 8760,
      "▁tulsa": 8761,
      "▁obtain": 8762,
      "▁sales": 8763,
      "▁483": 8764,
      "▁depend": 8765,
      "▁unt": 8766,
      "▁detective": 8767,
      "▁knowledgeable": 8768,
      "▁crap": 8769,
      "▁shops": 8770,
      "▁robust": 8771,
      "▁tot": 8772,
      "▁fourteenth": 8773,
      "▁correspond": 8774,
      "▁pro-beijing": 8775,
      "▁mat": 8776,
      "▁http://www.4gamer.net/news/image/2005.09/2005091": 8777,
      "▁fat": 8778,
      "war": 8779,
      "oses": 8780,
      "▁1929": 8781,
      "▁7.3": 8782,
      "▁bit": 8783,
      "▁16": 8784,
      "▁seas": 8785,
      "▁susanna": 8786,
      "▁communities": 8787,
      "▁stress": 8788,
      "▁1230": 8789,
      "bling": 8790,
      "▁compliments": 8791,
      "-3393": 8792,
      "▁ten": 8793,
      "▁ask": 8794,
      "▁guidance": 8795,
      "▁mitch": 8796,
      "004": 8797,
      "▁im": 8798,
      "esion": 8799,
      "ho": 8800,
      "▁environments": 8801,
      "▁fax": 8802,
      "▁civic": 8803,
      "▁like": 8804,
      "☏": 8805,
      "▁|--------+----------------": 8806,
      ".p": 8807,
      "ots": 8808,
      "▁01810": 8809,
      "ʃ": 8810,
      "▁ze": 8811,
      "▁enact": 8812,
      "▁mathematics": 8813,
      "▁cuba": 8814,
      "▁culture": 8815,
      "▁familiar": 8816,
      "▁surpr": 8817,
      "▁friday": 8818,
      "ows": 8819,
      "▁packages": 8820,
      "▁poor": 8821,
      "▁2.5": 8822,
      "▁wild": 8823,
      "▁preserve": 8824,
      "▁it": 8825,
      "▁paren": 8826,
      "▁6.00": 8827,
      "▁shobhajatra": 8828,
      "▁sy": 8829,
      "comp": 8830,
      "▁install": 8831,
      "▁performance": 8832,
      "▁scenery": 8833,
      "▁persist": 8834,
      "▁lur": 8835,
      "▁negotiation": 8836,
      "▁handling": 8837,
      "inoc": 8838,
      "▁surr": 8839,
      "▁judicial": 8840,
      "vor": 8841,
      "ugg": 8842,
      "▁antibiotics": 8843,
      "▁plus": 8844,
      "▁rhino": 8845,
[...]
