{
  "version": "1.0",
  "truncation": null,
  "padding": null,
  "added_tokens": [
    {
      "id": 2919,
      "content": "[CLS]",
      "single_word": false,
      "lstrip": false,
      "rstrip": false,
      "normalized": false,
      "special": true
    },
    {
      "id": 5618,
      "content": "[MASK]",
      "single_word": false,
      "lstrip": false,
      "rstrip": false,
      "normalized": false,
      "special": true
    },
    {
      "id": 11204,
      "content": "[PAD]",
      "single_word": false,
      "lstrip": false,
      "rstrip": false,
      "normalized": false,
      "special": true
    },
    {
      "id": 11983,
      "content": "[UNK]",
      "single_word": false,
      "lstrip": false,
      "rstrip": false,
      "normalized": false,
      "special": true
    },
    {
      "id": 15820,
      "content": "[SEP]",
      "single_word": false,
      "lstrip": false,
      "rstrip": false,
      "normalized": false,
      "special": true
    }
  ],
  "normalizer": {
    "type": "Sequence",
    "normalizers": [
      {
        "type": "NFD"
      },
      {
        "type": "Lowercase"
      },
      {
        "type": "StripAccents"
      }
    ]
  },
  "pre_tokenizer": {
    "type": "Sequence",
    "pretokenizers": [
      {
        "type": "Metaspace",
        "replacement": "▁",
        "prepend_scheme": "always",
        "split": true
      }
    ]
  },
  "post_processor": {
    "type": "TemplateProcessing",
    "single": [
      {
        "SpecialToken": {
          "id": "[CLS]",
          "type_id": 0
        }
      },
      {
        "Sequence": {
          "id": "A",
          "type_id": 0
        }
      },
      {
        "SpecialToken": {
          "id": "[SEP]",
          "type_id": 0
        }
      }
    ],
    "pair": [
      {
        "SpecialToken": {
          "id": "[CLS]",
          "type_id": 0
        }
      },
      {
        "Sequence": {
          "id": "A",
          "type_id": 0
        }
      },
      {
        "SpecialToken": {
          "id": "[SEP]",
          "type_id": 0
        }
      },
      {
        "Sequence": {
          "id": "B",
          "type_id": 1
        }
      },
      {
        "SpecialToken": {
          "id": "[SEP]",
          "type_id": 1
        }
      }
    ],
    "special_tokens": {
      "[CLS]": {
        "id": "[CLS]",
        "ids": [
          2919
        ],
        "tokens": [
          "[CLS]"
        ]
      },
      "[SEP]": {
        "id": "[SEP]",
        "ids": [
          15820
        ],
        "tokens": [
          "[SEP]"
        ]
      }
    }
  },
  "decoder": {
    "type": "Metaspace",
    "replacement": "▁",
    "prepend_scheme": "always",
    "split": true
  },
  "model": {
    "type": "Unigram",
    "unk_id": 11983,
    "vocab": [
      [
        "insula",
        -10.909970574537862
      ],
      [
        "▁lihaib",
        -12.771025606645795
      ],
      [
        "▁revenue",
        -9.916657221648252
      ],
      [
        "▁and",
        -10.843541831848249
      ],
      [
        "ka",
        -9.462469678476062
      ],
      [
        "one",
        -7.505439725207756
      ],
      [
        "▁barrac",
        -12.868103424609576
      ],
      [
        "▁programmer",
        -13.013193419985393
      ],
      [
        "▁initiative",
        -9.809483346079332
      ],
      [
        "generalization",
        -13.72526078987588
      ],
      [
        "▁decorat",
        -13.031813316054091
      ],
      [
        "▁su",
        -9.464120617989122
      ],
      [
        "▁descendant",
        -11.487848532632956
      ],
      [
        "eral",
        -11.845563440408633
      ],
      [
        "▁katherin",
        -11.938883871432456
      ],
      [
        "▁tentative",
        -12.27166785086389
      ],
      [
        "▁124",
        -12.957445890925836
      ],
      [
        "▁taxi",
        -10.041528748031457
      ],
      [
        "▁closing",
        -10.277914645348933
      ],
      [
        "▁steps",
        -9.433483485824073
      ],
      [
        "▁outward",
        -11.322949226440935
      ],
      [
        "-b",
        -11.56849203654989
      ],
      [
        "▁replac",
        -10.802801356664279
      ],
      [
        "▁van",
        -9.55093929889825
      ],
      [
        "▁dirt",
        -8.651547687024628
      ],
      [
        "▁armenian",
        -11.179681042059672
      ],
      [
        "▁certain",
        -8.085923568764741
      ],
      [
        "der",
        -9.911072845102526
      ],
      [
        "▁broadcast",
        -10.275932196325744
      ],
      [
        "▁female",
        -9.271819749451994
      ],
      [
        "▁li",
        -12.400345616303753
      ],
      [
        "▁evident",
        -10.590891473546405
      ],
      [
        "-of-the-",
        -13.650929239113394
      ],
      [
        "adorama",
        -12.771233643101034
      ],
      [
        "▁bart",
        -11.66240338754041
      ],
      [
        "▁deb",
        -11.980849869929894
      ],
      [
        "▁vau",
        -13.270003040305081
      ],
      [
        "care",
        -10.804070875372984
      ],
      [
        "▁prayerful",
        -12.774527656055092
      ],
      [
        "▁had",
        -6.4077211948751165
      ],
      [
        "▁add",
        -7.885037266552459
      ],
      [
        "▁li",
        -9.833723559422006
      ],
      [
        "raz",
        -12.288098988449617
      ],
      [
        "▁canop",
        -11.937750387404341
      ],
      [
        "▁male",
        -9.339202156147657
      ],
      [
        "▁muhamm",
        -11.937698245940489
      ],
      [
        "66",
        -12.136076970436953
      ],
      [
        "▁determinant",
        -12.772066323110316
      ],
      [
        "rence",
        -11.660784564236533
      ],
      [
        "short",
        -13.734158210451941
      ],
      [
        "▁76",
        -11.534173471198564
      ],
      [
        "ence",
        -9.546866182161564
      ],
      [
        "▁shinz",
        -10.765341572535748
      ],
      [
        "▁husa",
        -13.172414466073889
      ],
      [
        "in/",
        -13.488847829405003
      ],
      [
        "▁video",
        -8.699615823333257
      ],
      [
        "▁5",
        -8.813230402229319
      ],
      [
        "▁airport",
        -7.788935029333188
      ],
      [
        "37",
        -12.331917746806008
      ],
      [
        "8011",
        -13.265494279497794
      ],
      [
        "▁repose",
        -12.8532437472733
      ],
      [
        "vous",
        -12.553446107218154
      ],
      [
        "▁simpl",
        -8.851675573993063
      ],
      [
        "▁espeak",
        -11.937822143410786
      ],
      [
        "▁improper",
        -12.771025174503428
      ],
      [
        "▁condense",
        -11.6878100770872
      ],
      [
        "583",
        -14.127899028574245
      ],
      [
        "▁volta",
        -12.936714843679455
      ],
      [
        "▁reason",
        -8.008277299169304
      ],
      [
        "▁suspicio",
        -11.320365635902283
      ],
      [
        "▁gai",
        -11.485292361298043
      ],
      [
        "▁300",
        -10.870247792781871
      ],
      [
        "avage",
        -12.838381629231884
      ],
      [
        "▁ponc",
        -12.675047615096595
      ],
      [
        "1",
        -9.973635362692884
      ],
      [
        "▁hmmm",
        -11.938561837777172
      ],
      [
        "▁headache",
        -10.942401112658686
      ],
      [
        "▁external",
        -10.31499705528825
      ],
      [
        "▁night",
        -7.3225187343142295
      ],
      [
        "▁fifty",
        -10.236686281632453
      ],
      [
        "▁reckless",
        -12.271048086151657
      ],
      [
        "ualit",
        -12.815279023061853
      ],
      [
        "ut",
        -11.124828315595806
      ],
      [
        "▁felici",
        -12.271710424192669
      ],
      [
        "▁deep",
        -8.909455406582445
      ],
      [
        "▁trouble",
        -8.797952202050485
      ],
      [
        "▁margaret",
        -11.687691940156714
      ],
      [
        "gator",
        -12.726198653301857
      ],
      [
        "▁prejudice",
        -11.321024918855434
      ],
      [
        "858",
        -14.142649939049774
      ],
      [
        "▁3",
        -8.585018104094017
      ],
      [
        "▁02:2",
        -13.25195685742674
      ],
      [
        "▁pee",
        -10.490666942158963
      ],
      [
        "▁qui",
        -10.907825683516242
      ],
      [
        "rake",
        -12.359133705594408
      ],
      [
        "▁delicious",
        -9.809375611639368
      ],
      [
        "▁22,",
        -14.13564255438126
      ],
      [
        "▁texa",
        -8.629496271547978
      ],
      [
        "▁urin",
        -10.942427776597278
      ],
      [
        "grin",
        -12.854004987911791
      ],
      [
        "▁sale",
        -10.164476776015857
      ],
      [
        "▁atrocit",
        -11.937691760599781
      ],
      [
        "▁spoon",
        -9.882330661998505
      ],
      [
        "▁12.4",
        -12.675189927992927
      ],
      [
        "▁horses",
        -10.151165203199758
      ],
      [
        "▁arsenal",
        -12.771989832456892
      ],
      [
        "▁bloom",
        -11.053340671904042
      ],
      [
        "unic",
        -14.169007212126958
      ],
      [
        "▁fitful",
        -12.799794618046109
      ],
      [
        "▁box",
        -8.260758712933153
      ],
      [
        "▁am",
        -9.866600663869718
      ],
      [
        "▁water",
        -7.326630233903892
      ],
      [
        "▁groan",
        -11.178412916947485
      ],
      [
        "▁4.",
        -14.174409290499899
      ],
      [
        "▁eternal",
        -11.691311019178551
      ],
      [
        "▁negotiation",
        -10.173941998965581
      ],
      [
        "▁vlogg",
        -12.364133946941495
      ],
      [
        "▁editor",
        -10.314669405902578
      ],
      [
        "▁assur",
        -10.860890752474742
      ],
      [
        "▁trigger",
        -11.053214747472015
      ],
      [
        "▁brita",
        -11.266975077337845
      ],
      [
        "▁redistribut",
        -11.68769160918289
      ],
      [
        "fid",
        -12.179832456372521
      ],
      [
        "▁haye",
        -12.814381255145308
      ],
      [
        "▁yea",
        -6.43198801397359
      ],
      [
        "832",
        -13.25468514613769
      ],
      [
        "▁exposure",
        -9.682231250619903
      ],
      [
        "▁puk",
        -13.222836877375249
      ],
      [
        "▁keyword",
        -12.272834652972481
      ],
      [
        "▁sap",
        -11.046574861390464
      ],
      [
        "-fla",
        -11.937746634334216
      ],
      [
        "▁household",
        -9.995200189332262
      ],
      [
        "▁dramatist",
        -12.771230763194595
      ],
      [
        "▁farc",
        -12.667132085374767
      ],
      [
        "▁inscr",
        -12.26937212267267
      ],
      [
        "▁artifact",
        -12.771039888293778
      ],
      [
        "▁confidence",
        -10.224430378369961
      ],
      [
        "▁mh",
        -9.769646276500175
      ],
      [
        "▁quad",
        -12.892215747206132
      ],
      [
        "▁geopolitic",
        -12.271045563050716
      ],
      [
        "seven",
        -11.950148330680463
      ],
      [
        "▁dissent",
        -12.771614288006136
      ],
      [
        "▁apologetic",
        -12.790028385061218
      ],
      [
        "▁belt",
        -10.083858126446547
      ],
      [
        "▁estimat",
        -13.024273976041743
      ],
      [
        "▁nov",
        -8.694879589491203
      ],
      [
        "▁vegetarian",
        -11.330854940048425
      ],
      [
        "▁heave",
        -12.773939743544858
      ],
      [
        "bean",
        -11.932299394976173
      ],
      [
        "▁owe",
        -10.428647237004009
      ],
      [
        "27",
        -10.991960113745264
      ],
      [
        "▁pursu",
        -10.983680189249075
      ],
      [
        "ouch",
        -12.596279137222126
      ],
      [
        "0072",
        -13.439753158054558
      ],
      [
        "▁outline",
        -11.094199732288324
      ],
      [
        "ike",
        -11.001961787835697
      ],
      [
        "▁mess",
        -9.453931917759402
      ],
      [
        "▁saint",
        -10.320249004994903
      ],
      [
        "▁humiliat",
        -13.286562077169568
      ],
      [
        "▁united",
        -7.320445391741941
      ],
      [
        "▁purcha",
        -13.696730334154816
      ],
      [
        "▁magn",
        -11.64896221773638
      ],
      [
        "57",
        -11.891159420239507
      ],
      [
        "▁dori",
        -11.357380646172034
      ],
      [
        "▁message",
        -8.624998333866724
      ],
      [
        "tique",
        -11.681323004458875
      ],
      [
        "▁prune",
        -12.772155358433096
      ],
      [
        "in",
        -10.121798497307285
      ],
      [
        "69",
        -11.839517049892248
      ],
      [
        "▁promise",
        -9.154769986636623
      ],
      [
        "▁communist",
        -10.393032178324608
      ],
      [
        "sburg",
        -6.701282769664859
      ],
      [
        "lates",
        -11.659649245351194
      ],
      [
        "quin",
        -11.652992441983224
      ],
      [
        "▁glad",
        -9.252219436869352
      ],
      [
        "▁bulb",
        -9.846028466105544
      ],
      [
        "cus",
        -14.750903904043147
      ],
      [
        "▁demonstrat",
        -11.933315413163289
      ],
      [
        "▁devote",
        -10.395833836270544
      ],
      [
        "ah",
        -10.26007837898284
      ],
      [
        "asser",
        -11.94496573338581
      ],
      [
        "▁outcast",
        -12.773738343843052
      ],
      [
        "zzin",
        -12.793386161694936
      ],
      [
        "▁flag",
        -9.543042410247374
      ],
      [
        "0,000",
        -10.195250905356877
      ],
      [
        "▁nei",
        -12.1854130081014
      ],
      [
        "▁angel",
        -8.52683209654578
      ],
      [
        "led",
        -9.793512873700342
      ],
      [
        "▁hansk",
        -11.7744996056149
      ],
      [
        "100",
        -11.126169046448926
      ],
      [
        "▁before",
        -8.594264723349406
      ],
      [
        "▁08/1",
        -12.915334419237052
      ],
      [
        "apr",
        -12.761695658241619
      ],
      [
        "▁introduce",
        -9.536927535545741
      ],
      [
        "bu",
        -12.282115131703442
      ],
      [
        "just",
        -12.706092648916735
      ],
      [
        "heater",
        -12.568436728730408
      ],
      [
        "澹",
        -12.833785825435129
      ],
      [
        "1/2",
        -11.189346582601061
      ],
      [
        "rogen",
        -12.08808753806369
      ],
      [
        "rdles",
        -12.781862386662901
      ],
      [
        "▁abbot",
        -11.937707620599834
      ],
      [
        "ham",
        -9.998275979464042
      ],
      [
        "▁organizer",
        -12.848874593075477
      ],
      [
        "▁delay",
        -10.126102012040619
      ],
      [
        "▁sexual",
        -9.235626164867462
      ],
      [
        "rina",
        -11.866548814814722
      ],
      [
        "▁06/01/200",
        -12.339716654186573
      ],
      [
        "▁marc",
        -11.36702764233468
      ],
      [
        "children",
        -11.653764981622329
      ],
      [
        "▁bapti",
        -13.655618794329097
      ],
      [
        "▁blaze",
        -11.937906770312702
      ],
      [
        "▁mailing",
        -10.692571906369682
      ],
      [
        "poibeau",
        -12.77102554266287
      ],
      [
        "▁observation",
        -10.276767997646491
      ],
      [
        "rinn",
        -11.086878613349402
      ],
      [
        "▁tread",
        -12.275037081114101
      ],
      [
        "▁kissing",
        -12.156295323707115
      ],
      [
        "▁bow",
        -9.82752217656559
      ],
      [
        "▁smug",
        -12.271026558814865
      ],
      [
        "▁perr",
        -10.871309809157
      ],
      [
        "▁gem",
        -11.131966750583114
      ],
      [
        "bundle",
        -12.728554384364767
      ],
      [
        "▁majorit",
        -9.726812828059105
      ],
      [
        "▁mi",
        -11.290189893230613
      ],
      [
        "scam",
        -12.82140918739523
      ],
      [
        "▁shell",
        -9.881490213104946
      ],
      [
        "▁priest",
        -10.753169422404563
      ],
      [
        "▁jana",
        -11.203426605496132
      ],
      [
        "mine",
        -11.79533885365613
      ],
      [
        "▁update",
        -9.410169028233204
      ],
      [
        "▁metal",
        -9.256622936906556
      ],
      [
        "84",
        -12.264908599423453
      ],
      [
        "▁supporter",
        -10.380139957767865
      ],
      [
        "al",
        -6.318447710076003
      ],
      [
        "▁implement",
        -8.856511394801277
      ],
      [
        "▁fi",
        -12.276772853692052
      ],
      [
        "▁knock",
        -9.468109760597066
      ],
      [
        "engue",
        -13.331726559098598
      ],
      [
        "table",
        -8.85162440036796
      ],
      [
        "ize",
        -9.671354800948738
      ],
      [
        "▁comedian",
        -11.688848416498134
      ],
      [
        "bodi",
        -12.984360091006103
      ],
      [
        "idget",
        -12.839041706201689
      ],
      [
        "▁dutch",
        -11.054347605752646
      ],
      [
        "ck",
        -11.501990416744686
      ],
      [
        "▁fight",
        -8.541089991810024
      ],
      [
        "▁occur",
        -9.974438837500056
      ],
      [
        "▁dynam",
        -13.516028504175482
      ],
      [
        "▁impression",
        -10.391561414883618
      ],
      [
        "85",
        -12.218760611373044
      ],
      [
        "▁madam",
        -9.444882522311879
      ],
      [
        "▁runner",
        -11.085658879956537
      ],
      [
        "kka",
        -12.820586720232937
      ],
      [
        "30",
        -9.658731711958618
      ],
      [
        "official",
        -11.649348420524968
      ],
      [
        "▁auditor",
        -12.274726699039237
      ],
      [
        "▁kurd",
        -12.396870262043777
      ],
      [
        "▁file",
        -7.951375675129915
      ],
      [
        "▁preach",
        -11.684809211027401
      ],
      [
        "aged",
        -12.095787045695662
      ],
      [
        "th",
        -13.300727225114223
      ],
      [
        "hat",
        -12.481567758692712
      ],
      [
        "her",
        -7.76771503543099
      ],
      [
        "183",
        -12.30278992028547
      ],
      [
        "▁knit",
        -12.763471918946168
      ],
      [
        "▁avail",
        -9.186033512836936
      ],
      [
        "torical",
        -12.77223530820747
      ],
      [
        "static",
        -11.944971457818024
      ],
      [
        ".b.",
        -12.049850962101106
      ],
      [
        "▁thermo",
        -11.937750492557036
      ],
      [
        "▁amin",
        -11.510102761746982
      ],
      [
        "▁bru",
        -11.459606209377156
      ],
      [
        "approve",
        -12.733692905267214
      ],
      [
        "▁fire",
        -8.405103585204603
      ],
      [
        "or",
        -11.559536562033587
      ],
      [
        "▁many",
        -6.778663455800115
      ],
      [
        "lla",
        -13.042193289045917
      ],
      [
        "er",
        -8.73873720195392
      ],
      [
        "read",
        -11.211394947208113
      ],
      [
        "vi",
        -13.271633197609209
      ],
      [
        "483",
        -13.516001727325241
      ],
      [
        "iro",
        -11.028842095006745
      ],
      [
        "orno",
        -12.273991413104481
      ],
      [
        "epic",
        -11.370594919457814
      ],
      [
        "tra",
        -11.286326700046635
      ],
      [
        "proof",
        -12.732557420078383
      ],
      [
        ".99",
        -13.829769440686343
      ],
      [
        "▁trust",
        -9.055256010409646
      ],
      [
        "▁go",
        -11.944803889857337
      ],
      [
        "wear",
        -11.191539974288267
      ],
      [
        "intend",
        -12.735156386585395
      ],
      [
        "ops",
        -12.982210879288049
      ],
      [
        "▁temp",
        -11.413519611214639
      ],
      [
        "▁with",
        -10.644170103195178
      ],
      [
        "▁waitress",
        -10.667858094881096
      ],
      [
        "-rate",
        -11.758257625169865
      ],
      [
        "▁canoe",
        -11.938318922471776
      ],
      [
        "ustache",
        -11.177362825398792
      ],
      [
        "▁ocean",
        -9.844294809283426
      ],
      [
        "▁shrugg",
        -11.488144345199094
      ],
      [
        "3-16",
        -14.136905767427562
      ],
      [
        "thr",
        -11.182826915678534
      ],
      [
        ".78",
        -14.47481841691544
      ],
      [
        "herb",
        -12.753421876979305
      ],
      [
        "▁dre",
        -12.880850419538493
      ],
      [
        "▁polan",
        -10.649444942097709
      ],
      [
        "▁12:4",
        -13.516124200810152
      ],
      [
        "configure",
        -13.079336219206537
      ],
      [
        "▁163",
        -12.509491590173866
      ],
      [
        "▁gramp",
        -10.844456656306205
      ],
      [
        "▁no-",
        -13.47376073561761
      ],
      [
        "▁tortur",
        -13.626993854940967
      ],
      [
        "▁min",
        -10.34825462118952
      ],
      [
        "lette",
        -11.943758003198942
      ],
      [
        "mul",
        -11.833896043499934
      ],
      [
        "inth",
        -12.327358724807873
      ],
      [
        "▁influen",
        -10.590986564226577
      ],
      [
        "ear",
        -13.112130995609686
      ],
      [
        "▁cel",
        -13.552060087659006
      ],
      [
        "▁polaroid",
        -10.275921742300685
      ],
      [
        "mma",
        -12.694404551471447
      ],
      [
        "shal",
        -11.894227517962465
      ],
      [
        "50",
        -10.090879082816057
      ],
      [
        "▁ide",
        -13.271005410087644
      ],
      [
        "▁167",
        -13.956538851473839
      ],
      [
        "rap",
        -12.080181867705868
      ],
      [
        "essi",
        -12.449912786814064
      ],
      [
        "▁en",
        -7.6978877221486135
      ],
      [
        "▁infern",
        -12.774131694632578
      ],
      [
        "▁dilution",
        -12.771394931948421
      ],
      [
        "▁gapin",
        -12.810397423016125
      ],
      [
        "▁warne",
        -11.235299160568223
      ],
      [
        "▁version",
        -9.197547530393393
      ],
      [
        "▁oakl",
        -9.939265850684421
      ],
      [
        "▁revers",
        -10.837126512251645
      ],
      [
        "▁certifi",
        -11.930417538721931
      ],
      [
        "▁signall",
        -11.966381940561297
      ],
      [
        "▁panth",
        -12.4726716179506
      ],
      [
        "illiard",
        -12.778875947135226
      ],
      [
        ".m.",
        -11.895520203021501
      ],
      [
        "righteous",
        -12.808918456858368
      ],
      [
        "ific",
        -9.493922301888361
      ],
      [
        "rape",
        -11.35216906575305
      ],
      [
        "ological",
        -10.557615380163773
      ],
      [
        "▁02:4",
        -13.19370597151417
      ],
      [
        "when",
        -10.093911075754406
      ],
      [
        "▁deadline",
        -11.054861987146262
      ],
      [
        "▁loyal",
        -11.321283034968824
      ],
      [
        "▁drumstick",
        -12.271051789286396
      ],
      [
        "▁chain",
        -10.277916427938417
      ],
      [
        "affle",
        -11.252152528332552
      ],
      [
        "0000",
        -13.705120895521137
      ],
      [
        "...@usa.",
        -12.771337000625195
      ],
      [
        "▁punish",
        -11.937402725256575
      ],
      [
        "▁upper",
        -10.070677967796625
      ],
      [
        "▁zip",
        -11.172434664146287
      ],
      [
        "▁fourteen",
        -11.178259674534512
      ],
      [
        "uncan",
        -12.28475871377605
      ],
      [
        "▁recommendation",
        -10.087024403324186
      ],
      [
        "▁cavern",
        -11.937822670266861
      ],
      [
        "▁electron",
        -12.782827421628621
      ],
      [
        "▁713-654-",
        -12.338945399348273
      ],
      [
        "▁ad",
        -13.069983555914995
      ],
      [
        "frey",
        -11.940868219288488
      ],
      [
        "their",
        -9.446301580601954
      ],
      [
        "▁rabin",
        -12.773022022744048
      ],
      [
        "▁snack",
        -10.45280269433322
      ],
      [
        "▁carve",
        -11.398799247170661
      ],
      [
        "▁co-owne",
        -12.771321980221357
      ],
      [
        "7:3",
        -13.59615174620778
      ],
      [
        "well",
        -10.547416033661259
      ],
      [
        "▁washing",
        -10.318235407494512
      ],
      [
        "tion",
        -12.18006846808419
      ],
      [
        "▁books",
        -8.869066131289934
      ],
      [
        "▁don",
        -9.516565426204346
      ],
      [
        "▁plane",
        -8.978943073873094
      ],
      [
        "-head",
        -11.986929839691294
      ],
      [
        "▁ambulance",
        -10.75114768440716
      ],
      [
        "11-",
        -13.161902737639597
      ],
      [
        "▁hour",
        -7.8831402478187655
      ],
      [
        "▁historic",
        -10.209439845010861
      ],
      [
        "▁translation",
        -9.916857940393674
      ],
      [
        "▁initial",
        -9.05863298986868
      ],
      [
        "▁bert",
        -11.244477569220141
      ],
      [
        "▁usi",
        -10.434073353173611
      ],
      [
        "kash",
        -10.544107282789941
      ],
      [
        "▁overflow",
        -11.688070905125922
      ],
      [
        "▁chunk",
        -11.687928885689912
      ],
      [
        "143",
        -12.771073909851655
      ],
      [
        "coal",
        -11.293245493096125
      ],
      [
        "▁gra",
        -10.647215656969808
      ],
      [
        "chemistry",
        -11.508268249833838
      ],
      [
        ".enron.com",
        -12.77381937994672
      ],
      [
        "▁both",
        -9.853021443392569
      ],
      [
        "▁cleric",
        -10.943173059701428
      ],
      [
        "▁wou",
        -13.229284662502392
      ],
      [
        "surf",
        -12.714642823311516
      ],
      [
        "▁amphi",
        -12.771288016197797
      ],
      [
        "▁claus",
        -11.304718238773454
      ],
      [
        "ators",
        -11.322879976361271
      ],
      [
        "resolve",
        -12.7357803067681
      ],
      [
        "▁wai-",
        -12.275492148927025
      ],
      [
        "▁prepared",
        -9.563861907011514
      ],
      [
        "▁sticker",
        -10.68537459352208
      ],
      [
        "▁elevator",
        -9.776055758918528
      ],
      [
        "▁transition",
        -10.27843793600777
      ],
      [
        "▁vintage",
        -10.84207099094114
      ],
      [
        "▁compound",
        -10.519480462786905
      ],
      [
        "▁min",
        -12.218398821156091
      ],
      [
        "3.8",
        -12.702689943172382
      ],
      [
        "rio",
        -11.368284490750389
      ],
      [
        "yard",
        -10.685194754089508
      ],
      [
        "▁serpent",
        -11.687708974688782
      ],
      [
        "193",
        -14.38386731268611
      ],
      [
        "▁mound",
        -11.939360790169445
      ],
      [
        "▁rhodesian",
        -12.780172689725559
      ],
      [
        "crust",
        -12.393791479268593
      ],
      [
        "▁co",
        -11.082967748862702
      ],
      [
        "▁tee",
        -12.051917512325364
      ],
      [
        "▁squ",
        -13.700658491699896
      ],
      [
        "ington",
        -11.145723595615285
      ],
      [
        "▁sch",
        -11.042520271932212
      ],
      [
        "▁controll",
        -11.32614274306232
      ],
      [
        "▁glass",
        -8.576904705188431
      ],
      [
        "troy",
        -12.31711293537601
      ],
      [
        "▁relative",
        -9.292401008265685
      ],
      [
        "loan",
        -12.772490085236116
      ],
      [
        "▁assistan",
        -9.435637114811371
      ],
      [
        "▁advertise",
        -11.612285118420901
      ],
      [
        "▁francis",
        -11.05571083357284
      ],
      [
        "▁zippe",
        -11.69867975070564
      ],
      [
        "▁personal",
        -8.569073251421635
      ],
      [
        "▁dealership",
        -11.178610546232036
      ],
      [
        "▁location",
        -8.783184749830792
      ],
      [
        "▁editors",
        -11.36141594605
      ],
      [
        "▁efficien",
        -10.16849390512325
      ],
      [
        "erra",
        -12.847165898298034
      ],
      [
        "alam",
        -12.771989712280691
      ],
      [
        "▁alleged",
        -10.128888384177387
      ],
      [
        "mi",
        -10.350978540918216
      ],
      [
        "woman",
        -11.649584605025527
      ],
      [
        "▁flame",
        -11.184390205854799
      ],
      [
        "▁president",
        -7.6833183013355795
      ],
      [
        "nca",
        -12.403582309077763
      ],
      [
        "lia",
        -13.569863146691478
      ],
      [
        "▁gospel",
        -11.48772910322774
      ],
      [
        "▁request",
        -8.525677880670354
      ],
      [
        "▁discredit",
        -12.77115401858621
      ],
      [
        "▁revise",
        -10.304131805593514
      ],
      [
        "▁vietnam",
        -9.596468568358045
      ],
      [
        "▁malac",
        -12.917065050174983
      ],
      [
        "▁comp",
        -11.339162366062508
      ],
      [
        "▁brai",
        -12.943131172967771
      ],
      [
        "▁region",
        -8.734371069200465
      ],
      [
        "▁extensive",
        -10.45290853526611
      ],
      [
        "aching",
        -12.882181008087658
      ],
      [
        "**************",
        -12.41740498694943
      ],
      [
        "▁calendar",
        -10.519469458307736
      ],
      [
        "▁maniac",
        -11.937759883289154
      ],
      [
        "▁resonate",
        -12.771032503041662
      ],
      [
        "woo",
        -13.641814115175377
      ],
      [
        "▁complement",
        -11.05316815587164
      ],
      [
        "▁xv",
        -13.162449918911665
      ],
      [
        "▁blackline",
        -11.943692798681155
      ],
      [
        "▁raid",
        -11.05483139638761
      ],
      [
        "4503",
        -12.771107719311784
      ],
      [
        "uard",
        -12.308082924086976
      ],
      [
        "▁apprehensi",
        -11.687694416117791
      ],
      [
        "paper",
        -11.44913668191269
      ],
      [
        "▁profit",
        -9.814120259184238
      ],
      [
        "▁silkie",
        -10.603442107597477
      ],
      [
        "appelle",
        -12.417701883354457
      ],
      [
        "▁mutilat",
        -11.876506753617962
      ],
      [
        "▁quin",
        -8.280769087586435
      ],
      [
        "▁brim",
        -12.7849703659419
      ],
      [
        "tu",
        -11.618331073044228
      ],
      [
        "▁inhabit",
        -11.692902932829131
      ],
      [
        "▁horse",
        -8.005628658395885
      ],
      [
        "▁prerequisite",
        -11.937748464152687
      ],
      [
        "al",
        -9.879150985532643
      ],
      [
        "▁currenc",
        -9.87957271757537
      ],
      [
        "▁utiliz",
        -12.515142598487085
      ],
      [
        "▁rom",
        -11.282763908237797
      ],
      [
        "ocre",
        -11.93927961824082
      ],
      [
        "▁amen",
        -12.593065660720733
      ],
      [
        "▁copyright",
        -9.810911484194529
      ],
      [
        "8,8",
        -13.136802463436528
      ],
      [
        "▁vacat",
        -12.773109386569601
      ],
      [
        "▁fastene",
        -13.441304586837774
      ],
      [
        "qu",
        -13.726881833055192
      ],
      [
        "ridge",
        -10.628733116850587
      ],
      [
        "▁ton",
        -10.646729838551583
      ],
      [
        "▁met",
        -8.697074375226915
      ],
      [
        "▁fifteen",
        -10.523208807659708
      ],
      [
        "▁devol",
        -12.797933129248555
      ],
      [
        "▁bust",
        -10.966586849770037
      ],
      [
        "y",
        -5.310532547169549
      ],
      [
        "▁whee",
        -11.05623901353594
      ],
      [
        "▁coat",
        -9.856826399576349
      ],
      [
        "holster",
        -11.949295406419559
      ],
      [
        "▁insult",
        -10.670510905522107
      ],
      [
        "▁spokes",
        -11.05993017085557
      ],
      [
        "tair",
        -11.531546556045102
      ],
      [
        "▁scandal",
        -11.937914412901332
      ],
      [
        "▁guarant",
        -11.051299086063889
      ],
      [
        "rock",
        -12.1621962725517
      ],
      [
        "▁amid",
        -11.533324385705862
      ],
      [
        "▁chec",
        -12.639227028802345
      ],
      [
        "▁attorney",
        -10.036733409803904
      ],
      [
        "▁belonging",
        -12.402230118003283
      ],
      [
        "lo",
        -9.686887479395796
      ],
      [
        "▁freeze",
        -10.602062362012926
      ],
      [
        "wikipedia",
        -11.053168735607464
      ],
      [
        "▁sms",
        -11.970100993981475
      ],
      [
        "▁abb",
        -11.893219902715748
      ],
      [
        "▁fright",
        -12.852595024356532
      ],
      [
        "famous",
        -12.733111301450247
      ],
      [
        "▁blackb",
        -13.33435633313257
      ],
      [
        "▁window",
        -8.386212845496097
      ],
      [
        "▁mast",
        -12.351109470895901
      ],
      [
        "▁muslim",
        -9.880427737057387
      ],
      [
        "▁prepayment",
        -12.27102503094932
      ],
      [
        "inka",
        -13.325397431393784
      ],
      [
        "▁observ",
        -10.401052397575603
      ],
      [
        "▁?",
        -6.9934883581140035
      ],
      [
        "▁prolif",
        -12.191573455599668
      ],
      [
        "piece",
        -11.89851263471526
      ],
      [
        "▁l'e",
        -10.337012014284383
      ],
      [
        "▁shirts",
        -11.315399278906993
      ],
      [
        "vich",
        -12.614887932549061
      ],
      [
        "▁08/0",
        -12.957041608583907
      ],
      [
        "▁investigat",
        -11.474624430980013
      ],
      [
        "lages",
        -12.042843840800003
      ],
      [
        "▁hav",
        -10.724106208928315
      ],
      [
        "droid",
        -12.771518297621542
      ],
      [
        "workers",
        -9.976283657654893
      ],
      [
        "xt",
        -12.343904911487094
      ],
      [
        "▁grabb",
        -10.634165256154638
      ],
      [
        "band",
        -10.87463427898313
      ],
      [
        "▁important",
        -7.971769248826035
      ],
      [
        "▁xeno",
        -12.771088018850309
      ],
      [
        "tangle",
        -11.881843919984354
      ],
      [
        "▁killer",
        -11.357527221680012
      ],
      [
        "commerc",
        -12.302658579615763
      ],
      [
        "▁rap",
        -12.615894447232824
      ],
      [
        "▁nodd",
        -11.595945879459396
      ],
      [
        "▁imperfection",
        -12.771024919061272
      ],
      [
        "▁reveal",
        -9.852581274733687
      ],
      [
        "aring",
        -13.546838966292466
      ],
      [
        "hich",
        -14.237104677914536
      ],
      [
        "cup",
        -12.762630506788511
      ],
      [
        "▁lewis",
        -11.321734762875794
      ],
      [
        "▁scale",
        -9.815445497789504
      ],
      [
        "▁habitat",
        -11.248734615343631
      ],
      [
        "▁non-violen",
        -12.777110199086595
      ],
      [
        "▁checkers",
        -11.580547249561139
      ],
      [
        "oregon",
        -10.92991700456696
      ],
      [
        "▁transit",
        -10.516773170275481
      ],
      [
        "bert",
        -10.242654352680248
      ],
      [
        "▁200,",
        -14.14712352768953
      ],
      [
        "▁wet-nurse",
        -12.77102491894749
      ],
      [
        "▁fac",
        -10.316733267226445
      ],
      [
        "▁abo",
        -9.942026802887208
      ],
      [
        "▁713/8",
        -14.340536229756822
      ],
      [
        "sippi",
        -10.51917531402085
      ],
      [
        "▁114",
        -13.672578331648024
      ],
      [
        "if",
        -10.983017135113453
      ],
      [
        "▁devi",
        -13.595536368909471
      ],
      [
        "▁monta",
        -11.890017595798625
      ],
      [
        "▁lisa",
        -11.941259589044439
      ],
      [
        "▁bibl",
        -11.102756902516255
      ],
      [
        "▁hug",
        -8.613435810714293
      ],
      [
        "red",
        -10.328440666964909
      ],
      [
        "▁buyer",
        -11.278940307453647
      ],
      [
        "▁vern",
        -9.778422147018894
      ],
      [
        "up",
        -9.571776430989441
      ],
      [
        "▁penal",
        -11.699201957336367
      ],
      [
        "▁biod",
        -12.00730973137312
      ],
      [
        "▁indicati",
        -12.05370247534159
      ],
      [
        "▁cancellation",
        -11.688507326409932
      ],
      [
        "cular",
        -10.56175181533875
      ],
      [
        "homa",
        -11.211867257100742
      ],
      [
        "▁loan",
        -9.399992151825298
      ],
      [
        "▁bowl",
        -8.885102476270593
      ],
      [
        "▁academi",
        -12.410279257235572
      ],
      [
        "tiers",
        -13.249062264178804
      ],
      [
        "▁purple",
        -9.682227265277469
      ],
      [
        "otto",
        -13.575182211495108
      ],
      [
        "▁magazine",
        -9.80937112135819
      ],
      [
        "ferr",
        -12.097785180280853
      ],
      [
        "▁effic",
        -12.77372847524069
      ],
      [
        "eval",
        -11.722576046305502
      ],
      [
        "▁deal",
        -8.12987272765628
      ],
      [
        "|",
        -9.706918131845164
      ],
      [
        "ecomm",
        -11.895900605454536
      ],
      [
        "▁de",
        -13.02013865677002
      ],
      [
        "onis",
        -12.397277565685702
      ],
      [
        "4-",
        -13.552675663638237
      ],
      [
        "▁contribut",
        -11.349658585020645
      ],
      [
        "venue",
        -12.223354456277272
      ],
      [
        "hunt",
        -12.642736111597365
      ],
      [
        "runa",
        -12.355882225173941
      ],
      [
        "airbnb",
        -10.751147862516405
      ],
      [
        "h",
        -9.117748607228467
      ],
      [
        "▁control",
        -8.213158584384855
      ],
      [
        "▁brand",
        -10.445081720901237
      ],
      [
        "▁petition",
        -11.17900402395624
      ],
      [
        "▁nourish",
        -12.320381572883175
      ],
      [
        "ccp",
        -12.592018837074557
      ],
      [
        "▁cruel",
        -10.275922440846838
      ],
      [
        "▁soci",
        -12.789395290875767
      ],
      [
        "▁play+grou",
        -10.868690561392196
      ],
      [
        "▁replace",
        -9.607796711242282
      ],
      [
        "erous",
        -13.10190855501497
      ],
      [
        "▁aim",
        -9.606113338696282
      ],
      [
        "pha",
        -12.838728145612928
      ],
      [
        "-an",
        -12.87445401488136
      ],
      [
        "▁doctor",
        -8.480018895048438
      ],
      [
        "▁donkey",
        -9.955069179487964
      ],
      [
        "ib",
        -13.633299196486595
      ],
      [
        "▁shark",
        -9.74547587176037
      ],
      [
        "uz",
        -12.361995108720608
      ],
      [
        "▁ma",
        -10.677501707364895
      ],
      [
        "44",
        -12.102883489506446
      ],
      [
        "ye",
        -12.846015260932829
      ],
      [
        "ated",
        -10.183199856482407
      ],
      [
        "important",
        -12.23207328708532
      ],
      [
        "hou",
        -11.43350194633304
      ],
      [
        "▁afore",
        -12.315702939375711
      ],
      [
        "taulbee",
        -12.771026760877401
      ],
      [
        "▁dumb",
        -10.591466651130165
      ],
      [
        "folio",
        -10.781630759249175
      ],
      [
        "▁creek",
        -10.842062727100869
      ],
      [
        "▁3-5",
        -14.178510138455286
      ],
      [
        "▁antiquit",
        -11.49736492776583
      ],
      [
        "ur",
        -10.844631267559638
      ],
      [
        "ntry",
        -12.867200527291812
      ],
      [
        "▁glaze",
        -11.687692041721164
      ],
      [
        "addle",
        -11.360458075326095
      ],
      [
        "▁peer",
        -11.189939923523228
      ],
      [
        "anuk",
        -12.86418967692597
      ],
      [
        "▁anthropolog",
        -11.322002359147932
      ],
      [
        "▁irregular",
        -12.771024965748435
      ],
      [
        "genda",
        -10.18216829857965
      ],
      [
        "▁vivi",
        -11.469866258129654
      ],
      [
        "▁ok",
        -8.365073073697065
      ],
      [
        "▁k",
        -11.02216081974675
      ],
      [
        "▁comparison",
        -10.08122873991749
      ],
      [
        "▁expression",
        -9.845897593419942
      ],
      [
        "rre",
        -12.785449329254636
      ],
      [
        "▁granddaughter",
        -11.937693048882375
      ],
      [
        "▁expecta",
        -12.03845044520262
      ],
      [
        "▁?!?",
        -13.647540773753782
      ],
      [
        "▁crate",
        -11.065139986331879
      ],
      [
        "bul",
        -11.822307506419225
      ],
      [
        "▁alias",
        -11.699991872506942
      ],
      [
        "▁twenty-",
        -12.271024934107624
      ],
      [
        "▁include",
        -8.386153009119287
      ],
      [
        "▁musli",
        -12.786967680360593
      ],
      [
        "andbag",
        -13.695582037470148
      ],
      [
        "▁snoo",
        -12.272391219248357
      ],
      [
        "▁gym",
        -10.12579115801853
      ],
      [
        "▁lavator",
        -11.688542226931501
      ],
      [
        "▁extinct",
        -12.770377073042875
      ],
      [
        "▁donat",
        -12.329381189199722
      ],
      [
        "▁possibl",
        -7.798796028923774
      ],
      [
        "▁hitch",
        -12.30780001168475
      ],
      [
        "mayur...",
        -12.704135256971979
      ],
      [
        "▁dealer",
        -10.353923069851856
      ],
      [
        "▁73",
        -12.691161218511667
      ],
      [
        "▁bump",
        -9.743907710101125
      ],
      [
        "ix",
        -12.696653061457788
      ],
      [
        "du",
        -12.226091588455985
      ],
      [
        "▁percentile",
        -10.590925451683322
      ],
      [
        "▁43",
        -12.118601240506226
      ],
      [
        "▁abou",
        -6.522750562308343
      ],
      [
        "maker",
        -12.123962021802871
      ],
      [
        "▁kenne",
        -10.91978318848825
      ],
      [
        "▁fra",
        -12.492985568285588
      ],
      [
        "ach",
        -10.517438948825294
      ],
      [
        "▁adh",
        -13.180816517369696
      ],
      [
        "34",
        -13.090324825971752
      ],
      [
        "durham",
        -11.178524221420663
      ],
      [
        "▁laboratori",
        -13.657287253792243
      ],
      [
        "imbe",
        -13.220081335584739
      ],
      [
        "store",
        -10.354762353120947
      ],
      [
        "▁montr",
        -13.627617247714422
      ],
      [
        "aragu",
        -11.938104275076153
      ],
      [
        "▁dispers",
        -11.6937943193577
      ],
      [
        "spective",
        -13.029966488585387
      ],
      [
        "parnass",
        -10.842312919454388
      ],
      [
        "▁peek",
        -10.945523946047986
      ],
      [
        "▁30",
        -11.053215980612269
      ],
      [
        "ament",
        -11.42709927794382
      ],
      [
        "▁steril",
        -11.937928756965892
      ],
      [
        "ami",
        -8.224386150422728
      ],
      [
        "▁admit",
        -10.479301819799014
      ],
      [
        "▁harrow",
        -11.180520279250578
      ],
      [
        "▁elm",
        -12.177608526709578
      ],
      [
        "▁passionate",
        -11.178734789979343
      ],
      [
        "▁slan",
        -12.64979343087707
      ],
      [
        "▁drought",
        -12.81810764168836
      ],
      [
        "▁specific",
        -8.524596701948816
      ],
      [
        "▁sizzl",
        -12.823744243653207
      ],
      [
        "▁tap",
        -10.447693957545257
      ],
      [
        "ex",
        -9.281783810318018
      ],
      [
        "▁b",
        -7.279666368017974
      ],
      [
        "pur",
        -12.299009795912772
      ],
      [
        "▁nav",
        -9.770402691421696
      ],
      [
        "▁hobb",
        -11.848177179500993
      ],
      [
        "▁'60",
        -12.771024951232178
      ],
      [
        "▁fishie",
        -11.291891027893284
      ],
      [
        "conne",
        -11.333805720331656
      ],
      [
        "▁emer",
        -11.904359821686437
      ],
      [
        "▁astronomer",
        -12.276471620353146
      ],
      [
        "28",
        -11.333881110935947
      ],
      [
        "jin",
        -12.42863322812298
      ],
      [
        ".org/h",
        -13.648610527405493
      ],
      [
        "▁lu",
        -11.835344235695308
      ],
      [
        "▁reli",
        -9.553214976161998
      ],
      [
        "inent",
        -12.486785611531495
      ],
      [
        "▁driver",
        -9.539943597164932
      ],
      [
        "!!!!!!!!!!!!!!!!",
        -11.406486109637537
      ],
      [
        "cade",
        -13.332857133401268
      ],
      [
        "▁conv",
        -12.762313071010766
      ],
      [
        "age",
        -11.003488229021976
      ],
      [
        "▁arms",
        -9.30284980730337
      ],
      [
        "▁hassle",
        -11.331859177602043
      ],
      [
        "▁handle",
        -9.358272373095756
      ],
      [
        "▁permission",
        -10.591642182176598
      ],
      [
        "▁olive",
        -11.097695039808238
      ],
      [
        "▁failure",
        -9.712602446359046
      ],
      [
        "dict",
        -12.108261435810489
      ],
      [
        "42.",
        -13.724713672705958
      ],
      [
        "▁true",
        -8.717262175689232
      ],
      [
        "rote",
        -9.017427670767091
      ],
      [
        "bourg",
        -11.644405614674604
      ],
      [
        "▁as",
        -6.878746681766298
      ],
      [
        "tepp",
        -10.77690586541881
      ],
      [
        "▁hatch",
        -11.808190004314605
      ],
      [
        "wt_",
        -12.778940636960305
      ],
      [
        "▁minimum",
        -9.916697603757392
      ],
      [
        "▁temple",
        -10.276202293076805
      ],
      [
        "▁mosco",
        -11.053316458046336
      ],
      [
        "▁shakespeare",
        -8.173221813635005
      ],
      [
        "ar",
        -8.96739030467699
      ],
      [
        "ris",
        -10.491595483652752
      ],
      [
        "▁explain",
        -8.479782400557099
      ],
      [
        "2000",
        -12.27417694876022
      ],
      [
        "▁tongue",
        -10.223302787887299
      ],
      [
        "▁nee",
        -12.056348300318247
      ],
      [
        "▁spine",
        -11.534109255476727
      ],
      [
        "▁smil",
        -10.57650491170493
      ],
      [
        "▁contract",
        -8.996111718513756
      ],
      [
        "▁environment",
        -8.918875902083945
      ],
      [
        "▁nort",
        -10.135265303465058
      ],
      [
        "▁specifie",
        -10.753178518403315
      ],
      [
        "▁flexibilit",
        -11.056091579872765
      ],
      [
        "▁socialist",
        -11.057239967739086
      ],
      [
        "▁j",
        -10.937809915570798
      ],
      [
        "▁effe",
        -12.270987365124665
      ],
      [
        "*************",
        -12.742044969050148
      ],
      [
        "renz",
        -13.144905242911701
      ],
      [
        "▁isi",
        -11.432946812485598
      ],
      [
        "720",
        -13.183827365458086
      ],
      [
        "▁unthink",
        -11.938001478005669
      ],
      [
        "▁strategic",
        -11.18335439528865
      ],
      [
        "▁accent",
        -11.05277603433385
      ],
      [
        "▁manual",
        -10.223483237660684
      ],
      [
        "variabl",
        -12.77012700071994
      ],
      [
        "▁1.0",
        -13.891586422040152
      ],
      [
        "▁spare",
        -11.088325854506692
      ],
      [
        "▁gif",
        -11.3887395293413
      ],
      [
        "▁infection",
        -10.842818861012963
      ],
      [
        "▁fun",
        -8.21675498543527
      ],
      [
        "▁elbow",
        -10.751148910851308
      ],
      [
        "▁towel",
        -9.916750877301748
      ],
      [
        "▁beach",
        -8.498174015493353
      ],
      [
        "▁charm",
        -10.235285410833258
      ],
      [
        "▁unl",
        -9.680113489348734
      ],
      [
        "aden",
        -11.835808419303513
      ],
      [
        "▁ka",
        -9.794270332031976
      ],
      [
        "▁real",
        -6.447094046216681
      ],
      [
        "enlighten",
        -13.731117890794138
      ],
      [
        "▁hesitant",
        -11.957315019229805
      ],
      [
        "▁ethi",
        -12.761399608871049
      ],
      [
        "▁cra",
        -11.738526597795301
      ],
      [
        "▁expel",
        -12.765426012466916
      ],
      [
        "▁pani",
        -10.5222310052072
      ],
      [
        "▁hamper",
        -11.68784291916159
      ],
      [
        "▁intruder",
        -12.271629115003002
      ],
      [
        "▁energetic",
        -11.937693221277819
      ],
      [
        "endorf",
        -12.771516895148261
      ],
      [
        "▁silk",
        -10.737364125747987
      ],
      [
        "▁dick",
        -10.915749364641686
      ],
      [
        "head",
        -8.691959368316997
      ],
      [
        "▁mem",
        -8.742872535017423
      ],
      [
        "57",
        -11.325032455504559
      ],
      [
        "▁yamano",
        -12.275295500927834
      ],
      [
        "▁touchstone",
        -12.774444337303692
      ],
      [
        "ro",
        -12.15625738665959
      ],
      [
        "▁glea",
        -12.940299875842534
      ],
      [
        "-see",
        -12.775024681319431
      ],
      [
        "▁independent",
        -9.29543920288602
      ],
      [
        "▁exile",
        -10.942340173647354
      ],
      [
        "▁nestl",
        -12.992225268617275
      ],
      [
        "w",
        -7.371528495809018
      ],
      [
        "hat",
        -7.3915594095763515
      ],
      [
        "▁trumpet",
        -11.48813838142249
      ],
      [
        "<",
        -7.273053706688606
      ],
      [
        "▁propa",
        -10.673648769863885
      ],
      [
        "▁vertical",
        -11.321037778844925
      ],
      [
        "▁soccer",
        -10.942062959938912
      ],
      [
        "▁indonesia",
        -10.746536370820472
      ],
      [
        "columbia",
        -10.23220573517129
      ],
      [
        "▁illness",
        -11.322634212667602
      ],
      [
        "▁non-re",
        -12.897294096262332
      ],
      [
        "elle",
        -13.153288106933044
      ],
      [
        "▁barre",
        -13.378731703946695
      ],
      [
        "▁cass",
        -11.710389384462639
      ],
      [
        "▁totalitarian",
        -11.937750620913343
      ],
      [
        "▁fulfill",
        -10.75263689424613
      ],
      [
        "▁anthr",
        -9.543673524212151
      ],
      [
        "▁suppose",
        -9.82698333814301
      ],
      [
        "▁vote",
        -8.63000697400393
      ],
      [
        "▁me",
        -10.451061185956231
      ],
      [
        "shaft",
        -12.219284024603157
      ],
      [
        "▁territori",
        -12.57306707979349
      ],
      [
        "▁mathematical",
        -10.540595460968941
      ],
      [
        "3.",
        -12.78095354980127
      ],
      [
        "▁ingredient",
        -10.036733419100656
      ],
      [
        "▁‘",
        -9.464789161370842
      ],
      [
        "▁stubborn",
        -11.937711530071372
      ],
      [
        "▁compensate",
        -11.178167789044343
      ],
      [
        "▁boutique",
        -12.271037216695557
      ],
      [
        "▁consume",
        -10.873547322022286
      ],
      [
        "▁crumple",
        -11.48774723875109
      ],
      [
        "▁body",
        -8.625550819198237
      ],
      [
        "hbow",
        -12.817832018228794
      ],
      [
        "bbc.co.uk/",
        -12.751142013648275
      ],
      [
        "▁auster",
        -9.33312200488118
      ],
      [
        "▁athen",
        -9.812101298363299
      ],
      [
        "▁basel",
        -12.521676475456854
      ],
      [
        "▁element",
        -8.966979742850643
      ],
      [
        "bumrungrad",
        -12.771031536823067
      ],
      [
        "/pages",
        -12.77110443476388
      ],
      [
        "▁|",
        -9.754805093749667
      ],
      [
        "techniques",
        -12.122755449502279
      ],
      [
        "choke",
        -11.711781053032437
      ],
      [
        "▁exclude",
        -11.903397243399374
      ],
      [
        "▁prep",
        -11.929275979344798
      ],
      [
        ".8",
        -14.11670206142243
      ],
      [
        "▁dav",
        -11.174077043999459
      ],
      [
        "▁kyle.jones@ra",
        -12.271026950231807
      ],
      [
        "▁curse",
        -10.897483312941375
      ],
      [
        "rays",
        -11.90781633254403
      ],
      [
        "▁youn",
        -12.920232968151545
      ],
      [
        "▁line",
        -7.575687118592803
      ],
      [
        "▁monet",
        -10.958456137185223
      ],
      [
        "hai",
        -12.449413438634446
      ],
      [
        "large",
        -13.724956202433408
      ],
      [
        "msel",
        -12.496307117546552
      ],
      [
        "▁dismisse",
        -11.56038644884412
      ],
      [
        "▁jesu",
        -10.592995384485882
      ],
      [
        "astic",
        -12.988442742507669
      ],
      [
        "▁kahn",
        -12.271765261976038
      ],
      [
        "idual",
        -13.001112994029276
      ],
      [
        "▁curate",
        -13.421201318640787
      ],
      [
        "▁laurel",
        -12.779128890162788
      ],
      [
        "▁spani",
        -9.684868326677664
      ],
      [
        "▁46",
        -11.362534726783958
      ],
      [
        "▁goose",
        -10.668582169494577
      ],
      [
        "_",
        -7.754997245263987
      ],
      [
        "▁197",
        -9.69459253888492
      ],
      [
        "lace",
        -11.855295916706593
      ],
      [
        "▁quest",
        -10.368487324942507
      ],
      [
        "2/",
        -11.940873122669306
      ],
      [
        "▁2000",
        -9.714470099810217
      ],
      [
        "which",
        -9.262264540950643
      ],
      [
        "▁clutch",
        -11.937691629803927
      ],
      [
        "▁shadow",
        -9.844641604530043
      ],
      [
        "▁hoho",
        -12.272068702423901
      ],
      [
        "motion",
        -13.457712457585467
      ],
      [
        "▁soul",
        -10.524513467477822
      ],
      [
        "▁30,0",
        -14.113596497784208
      ],
      [
        "▁palac",
        -12.759988141751585
      ],
      [
        "▁reluctan",
        -12.266043691766452
      ],
      [
        "less",
        -8.307095608514997
      ],
      [
        "uvr",
        -12.023385965794546
      ],
      [
        "175",
        -13.89952388135222
      ],
      [
        "▁savi",
        -13.728175430671712
      ],
      [
        "▁octo",
        -9.051896506150467
      ],
      [
        "pack",
        -13.637662745508457
      ],
      [
        "▁decision",
        -8.58367416454994
      ],
      [
        "▁appropriation",
        -10.844421077355051
      ],
      [
        "1/8",
        -12.30354400335542
      ],
      [
        "▁scissor",
        -10.223287083176098
      ],
      [
        "▁chine",
        -10.174543033218193
      ],
      [
        "0",
        -10.782683652942984
      ],
      [
        "love",
        -13.319398958068065
      ],
      [
        "▁jelli",
        -12.603061678630716
      ],
      [
        "▁license",
        -8.549734218544184
      ],
      [
        "▁orchestra",
        -10.667814263123358
      ],
      [
        "▁attack",
        -8.480321317388771
      ],
      [
        "usi",
        -10.751881598698503
      ],
      [
        "▁arrow",
        -9.881326776478023
      ],
      [
        "▁decorate",
        -12.549267528489485
      ],
      [
        "posed",
        -12.372184283124373
      ],
      [
        "▁cut",
        -7.915109882909753
      ],
      [
        "▁clay",
        -9.999050002707822
      ],
      [
        "▁pimple",
        -11.178457035298468
      ],
      [
        "▁controversial",
        -11.181282950674412
      ],
      [
        "▁partisan",
        -12.244911272322938
      ],
      [
        "▁extradite",
        -12.624311891395092
      ],
      [
        "araf",
        -11.207066981483427
      ],
      [
        "▁capture",
        -10.173361408052486
      ],
      [
        "mez",
        -11.562416178141168
      ],
      [
        "▁bu",
        -5.83388619210857
      ],
      [
        "▁m1",
        -12.27035151935806
      ],
      [
        "▁gnome",
        -11.178171339096032
      ],
      [
        "▁tail",
        -9.178751558747656
      ],
      [
        "▁rustl",
        -12.04995794620556
      ],
      [
        "▁forth",
        -9.801713274643173
      ],
      [
        "▁regina",
        -11.937700580084948
      ],
      [
        "caribbean",
        -10.84259186772603
      ],
      [
        "mock",
        -12.377282800191175
      ],
      [
        "evel",
        -11.881075522496404
      ],
      [
        "▁kay",
        -9.683184196181744
      ],
      [
        ".x",
        -10.583177836037848
      ],
      [
        "▁erase",
        -11.011641144502924
      ],
      [
        "bell",
        -10.5780434009997
      ],
      [
        "itive",
        -11.5061803284364
      ],
      [
        "▁42,00",
        -13.782910433321955
      ],
      [
        "leur",
        -11.834203543590593
      ],
      [
        "▁lag",
        -11.93497658162641
      ],
      [
        "▁value",
        -8.176458583374021
      ],
      [
        "▁d",
        -9.553231019557947
      ],
      [
        "ves",
        -10.411447126366902
      ],
      [
        "▁chatter",
        -11.945525063481242
      ],
      [
        "asis",
        -11.962728997898349
      ],
      [
        "▁dais",
        -11.346476218088506
      ],
      [
        "lari",
        -13.672786369848778
      ],
      [
        "▁erect",
        -11.688077610801509
      ],
      [
        "teacher",
        -13.733947037437156
      ],
      [
        "empirical",
        -12.7311202285793
      ],
      [
        "henna",
        -13.459291127093532
      ],
      [
        "▁discharge",
        -11.321024926539849
      ],
      [
        "▁menace",
        -11.937987788263843
      ],
      [
        "▁rums",
        -11.413712369814773
      ],
      [
        "▁collection",
        -9.625098864908422
      ],
      [
        "▁mar",
        -10.401359365061806
      ],
      [
        "mercury",
        -10.751156119004843
      ],
      [
        "anders",
        -10.775984352920917
      ],
      [
        "▁pit",
        -11.29250287143519
      ],
      [
        "▁cost-effective",
        -11.687691736550759
      ],
      [
        "▁confirmation",
        -11.498245820158038
      ],
      [
        "▁termin",
        -11.184406195674113
      ],
      [
        "▁sequence",
        -10.752046747393976
      ],
      [
        "rece",
        -12.623314329642294
      ],
      [
        "107",
        -12.935676077658503
      ],
      [
        "▁eight",
        -9.059025391871746
      ],
      [
        "▁airfare",
        -9.880086044190612
      ],
      [
        "mor",
        -13.22662618153365
      ],
      [
        "▁toilet",
        -10.519490817392247
      ],
      [
        "▁kha",
        -11.669005645881944
      ],
      [
        "▁m-",
        -12.98542073608795
      ],
      [
        "▁confident",
        -10.223172483919827
      ],
      [
        "▁braden",
        -12.777929991252527
      ],
      [
        "n",
        -5.519064509348425
      ],
      [
        "nasa",
        -9.097994503694679
      ],
      [
        "change",
        -13.709682952040898
      ],
      [
        "cris",
        -12.73394466099109
      ],
      [
        "▁chat",
        -10.581095709844927
      ],
      [
        "▁teache",
        -12.62490981377118
      ],
      [
        "▁magic",
        -9.174711496993254
      ],
      [
        "▁nai",
        -11.318185011435293
      ],
      [
        "▁cuc",
        -10.669591485440158
      ],
      [
        "▁/",
        -8.874696097338475
      ],
      [
        "ratify",
        -12.219378623915471
      ],
      [
        "▁publisher",
        -11.206028702013718
      ],
      [
        "▁gr",
        -11.134879156247369
      ],
      [
        "therland",
        -10.709465466234313
      ],
      [
        "▁grapple",
        -12.799512729006848
      ],
      [
        "▁mumb",
        -12.30959282430905
      ],
      [
        "▁nev",
        -11.688407617698045
      ],
      [
        "▁shuttle",
        -10.751163700487387
      ],
      [
        "restaurant",
        -13.732212970797718
      ],
      [
        "tastic",
        -12.761097500320496
      ],
      [
        "▁boyfriend",
        -10.751217698552948
      ],
      [
        "dom",
        -10.420248988122175
      ],
      [
        "▁over-",
        -11.8916313656566
      ],
      [
        "friend",
        -12.486680654169023
      ],
      [
        "???",
        -11.362839390116868
      ],
      [
        "▁earning",
        -11.742933997989068
      ],
      [
        "▁barne",
        -11.259890908433583
      ],
      [
        "▁roads",
        -11.485452012019051
      ],
      [
        "▁detach",
        -12.271138765806192
      ],
      [
        "▁worsen",
        -12.35786474248555
      ],
      [
        "▁catch",
        -8.757749565015171
      ],
      [
        ".k.",
        -13.717723324890045
      ],
      [
        "▁chun",
        -13.552830826610714
      ],
      [
        "arcelo",
        -12.193230794806858
      ],
      [
        "▁instrument",
        -10.667814247565538
      ],
      [
        "▁wid",
        -11.176691513609239
      ],
      [
        "a",
        -3.033586768312313
      ],
      [
        "▁07:",
        -12.030054931065974
      ],
      [
        "ly",
        -4.551989708774343
      ],
      [
        "▁bobb",
        -10.928390282827003
      ],
      [
        "▁cross-section",
        -11.321804873607629
      ],
      [
        "▁apr",
        -11.951635479666628
      ],
      [
        "▁analyz",
        -12.370911824248518
      ],
      [
        "▁detention",
        -11.689348053012921
      ],
      [
        "rez",
        -13.057736546319969
      ],
      [
        "s",
        -3.2339556402487712
      ],
      [
        "75",
        -11.071151051921955
      ],
      [
        "▁light",
        -7.530362200636359
      ],
      [
        "▁recieve",
        -11.487699381220558
      ],
      [
        "▁prior",
        -9.681975753190367
      ],
      [
        "▁experience",
        -7.814034814205732
      ],
      [
        "▁curtain",
        -10.942058667046394
      ],
      [
        "ou",
        -12.23812452584015
      ],
      [
        "▁marble",
        -9.776097398920275
      ],
      [
        "53",
        -12.926587056744161
      ],
      [
        "▁reckon",
        -12.271033245539796
      ],
      [
        "▁move",
        -7.808080500978917
      ],
      [
        "▁free",
        -7.928056576757955
      ],
      [
        "-f",
        -11.867378889831972
      ],
      [
        "▁pirate",
        -10.125697133592931
      ],
      [
        "▁broke",
        -8.177119833687811
      ],
      [
        "▁preservati",
        -12.55683981132793
      ],
      [
        "ore",
        -12.117485135914382
      ],
      [
        "do",
        -9.846160357156576
      ],
      [
        "▁retro",
        -12.269889917208586
      ],
      [
        "▁reap",
        -11.686422928558601
      ],
      [
        "▁norma",
        -12.446787246579197
      ],
      [
        "social",
        -13.381717156672334
      ],
      [
        "▁ukrainian",
        -10.844218413605667
      ],
      [
        "onnais",
        -10.943006704232154
      ],
      [
        "▁lid",
        -11.288195124550127
      ],
      [
        "▁kool",
        -12.272047975242424
      ],
      [
        "▁brave",
        -10.659379904964311
      ],
      [
        "▁chris",
        -9.484609048464268
      ],
      [
        "'",
        -5.811804410257997
      ],
      [
        "group",
        -12.229203008609243
      ],
      [
        "▁affirm",
        -11.48765710975911
      ],
      [
        "where",
        -11.75353131760598
      ],
      [
        "oxon",
        -12.01575774882157
      ],
      [
        "md",
        -11.141550706240368
      ],
      [
        "▁lady",
        -9.469560550032481
      ],
      [
        "▁hungr",
        -9.385990844694225
      ],
      [
        "▁multi",
        -10.671702765899695
      ],
      [
        "▁senseless",
        -11.945507130787117
      ],
      [
        "distinct",
        -13.731031276906789
      ],
      [
        "olomit",
        -12.304981737921482
      ],
      [
        "rough",
        -12.356819406430677
      ],
      [
        "/18",
        -12.914085421570176
      ],
      [
        "▁livelihood",
        -12.27164854712536
      ],
      [
        "▁pastor",
        -11.494399206590902
      ],
      [
        "whil",
        -10.789586528270528
      ],
      [
        "’",
        -7.123051210512561
      ],
      [
        "▁radi",
        -10.454887446352382
      ],
      [
        "▁number",
        -7.1407375071254044
      ],
      [
        "▁mins",
        -11.316020539885928
      ],
      [
        "▁exemption",
        -12.771315389867715
      ],
      [
        "▁register",
        -9.916605308763625
      ],
      [
        "▁81",
        -14.132712190650901
      ],
      [
        "che",
        -11.900977507759578
      ],
      [
        "▁tau",
        -11.17301112630913
      ],
      [
        "▁1/",
        -13.887911633017264
      ],
      [
        "▁berdyc",
        -12.771027968525644
      ],
      [
        "▁railway",
        -10.751500047627646
      ],
      [
        "▁abrupt",
        -11.687691646488574
      ],
      [
        "▁713-853-",
        -12.650615157195254
      ],
      [
        "▁calme",
        -12.895557872528538
      ],
      [
        "▁earn",
        -10.670479856096843
      ],
      [
        "________________",
        -9.675548522665636
      ],
      [
        "▁07",
        -14.85886526325713
      ],
      [
        "▁al",
        -7.856982673714978
      ],
      [
        "▁pant",
        -9.274934976654905
      ],
      [
        "▁involve",
        -9.029128264276164
      ],
      [
        "man",
        -12.141727430762016
      ],
      [
        "▁blizzard",
        -11.68769159117101
      ],
      [
        "▁creat",
        -9.20003173820627
      ],
      [
        "▁scroll",
        -12.27108149415593
      ],
      [
        "▁cart",
        -11.149159398820984
      ],
      [
        "hard",
        -11.96666061154179
      ],
      [
        "gel",
        -11.565112937311959
      ],
      [
        "▁202-",
        -14.080987957304744
      ],
      [
        "ible",
        -9.953605949338941
      ],
      [
        "▁downgrad",
        -12.963760789468642
      ],
      [
        "shake",
        -13.64956032231358
      ],
      [
        "aja",
        -10.818905304154402
      ],
      [
        "▁whiske",
        -13.61609978486559
      ],
      [
        "▁10,",
        -14.137997860855918
      ],
      [
        "▁nation",
        -8.366999374784056
      ],
      [
        "œ",
        -12.833785825435129
      ],
      [
        "▁pictures",
        -8.960196453408477
      ],
      [
        "bound",
        -11.282722482673728
      ],
      [
        "▁direct",
        -8.375839342928
      ],
      [
        "001",
        -12.849675556321584
      ],
      [
        "spiritual",
        -12.732736287271223
      ],
      [
        "rah",
        -10.517368723059008
      ],
      [
        "▁confusi",
        -10.464043171553406
      ],
      [
        "665",
        -14.029149014813683
      ],
      [
        "▁breyer",
        -11.944964591962524
      ],
      [
        "▁milk",
        -7.776440351307286
      ],
      [
        "36",
        -11.652622853764742
      ],
      [
        "▁fame",
        -10.337346448060373
      ],
      [
        "▁af",
        -10.681620322034854
      ],
      [
        "▁debutan",
        -12.84337590283237
      ],
      [
        "mark",
        -10.621917972637679
      ],
      [
        "▁fantas",
        -9.375161815466406
      ],
      [
        "▁sem",
        -11.874476277397633
      ],
      [
        "▁ebb",
        -11.955746231410538
      ],
      [
        "▁grumbl",
        -12.696827894393238
      ],
      [
        "port",
        -10.902393954912327
      ],
      [
        "▁panama",
        -10.942408385418204
      ],
      [
        "▁disobedien",
        -11.937931234427559
      ],
      [
        "▁structure",
        -8.940602130377624
      ],
      [
        "aught",
        -8.80776384810802
      ],
      [
        "enti",
        -12.154891043607538
      ],
      [
        "▁iodise",
        -11.170365585037302
      ],
      [
        "▁dept",
        -12.274858671285841
      ],
      [
        "▁immun",
        -11.488411962096096
      ],
      [
        "▁consent",
        -10.755100158793853
      ],
      [
        "lier",
        -11.569713778949092
      ],
      [
        "▁cane",
        -11.335335863183962
      ],
      [
        "moleste",
        -13.422121741792672
      ],
      [
        "▁arbitrar",
        -11.888611545159605
      ],
      [
        "449",
        -14.15307238737037
      ],
      [
        "cuba",
        -11.89893466807211
      ],
      [
        "▁geometr",
        -10.84077619320835
      ],
      [
        "hinn",
        -11.928698482410951
      ],
      [
        "▁sc",
        -10.92278751992093
      ],
      [
        "▁jaff",
        -11.489322559353285
      ],
      [
        "▁enforc",
        -12.31424262971906
      ],
      [
        "▁starch",
        -11.498594797444333
      ],
      [
        "83",
        -12.269689501822032
      ],
      [
        "iction",
        -10.208830396174184
      ],
      [
        "▁whil",
        -7.852958576257973
      ],
      [
        "▁mea",
        -13.20492108077581
      ],
      [
        "▁coil",
        -11.49149498360734
      ],
      [
        "internet",
        -8.700040823313046
      ],
      [
        "▁parm",
        -11.334180711227564
      ],
      [
        "▁appeal",
        -9.809627024633599
      ],
      [
        "▁knowledge",
        -8.910829588656497
      ],
      [
        "se",
        -10.116435411708396
      ],
      [
        "conference",
        -12.604875181279473
      ],
      [
        "andy",
        -10.241894915144922
      ],
      [
        "sc",
        -12.953296218781974
      ],
      [
        "1990",
        -11.179726178731531
      ],
      [
        "▁uphold",
        -11.939123922876183
      ],
      [
        "ris",
        -12.625913776138265
      ],
      [
        "▁cabbage",
        -10.7511531742798
      ],
      [
        "ucei",
        -12.78221640461423
      ],
      [
        "rational",
        -12.924680474753595
      ],
      [
        "steamboat",
        -13.72393198425926
      ],
      [
        "▁bray",
        -9.42398363156472
      ],
      [
        "▁mu",
        -11.027751101871818
      ],
      [
        "▁report",
        -7.756703079653569
      ],
      [
        "▁scholars",
        -10.18121624071428
      ],
      [
        "real",
        -8.87686779890781
      ],
      [
        "daily",
        -12.738616834458261
      ],
      [
        "ncin",
        -13.558407084832833
      ],
      [
        "▁d'et",
        -12.302202262167324
      ],
      [
        "live",
        -13.236154381340434
      ],
      [
        "▁gal",
        -11.00165630977661
      ],
      [
        "▁basic",
        -8.83250828517955
      ],
      [
        "▁clear",
        -8.073170186317311
      ],
      [
        "▁ba",
        -9.891256062925736
      ],
      [
        "▁surgeon",
        -10.84360028087723
      ],
      [
        "net",
        -10.330432599169502
      ],
      [
        "war",
        -12.294744634745067
      ],
      [
        "▁vautrin",
        -12.771024962337496
      ],
      [
        "any",
        -9.173355829436742
      ],
      [
        "▁was",
        -5.269250295583504
      ],
      [
        "doubt",
        -11.44971286729507
      ],
      [
        "nfant",
        -10.452761054289732
      ],
      [
        "tering",
        -11.955156624475029
      ],
      [
        "rahu",
        -11.694914210849197
      ],
      [
        "▁wi",
        -11.262385832930065
      ],
      [
        "▁skull",
        -11.321024931496192
      ],
      [
        "3.30",
        -13.842287739511173
      ],
      [
        "look",
        -11.021916326349881
      ],
      [
        "mines",
        -12.216062001507836
      ],
      [
        "uff",
        -11.575844210681685
      ],
      [
        "▁unlock",
        -11.710133047961296
      ],
      [
        "▁spo",
        -9.76267961728645
      ],
      [
        "▁tick",
        -11.799207460707299
      ],
      [
        "ar",
        -12.863075526209965
      ],
      [
        "▁pres",
        -13.544882545199373
      ],
      [
        "▁burning",
        -10.915436014860934
      ],
      [
        "cin",
        -11.946006716036976
      ],
      [
        "▁caca",
        -12.27240866599375
      ],
      [
        "▁playful",
        -13.027141216278796
      ],
      [
        "cache",
        -13.726498755198946
      ],
      [
        "/42",
        -12.77102506522652
      ],
      [
        "▁track",
        -9.029502525982792
      ],
      [
        "▁distort",
        -10.941423641687889
      ],
      [
        "▁folder",
        -11.067165350356763
      ],
      [
        "▁griss",
        -12.858217440061374
      ],
      [
        "kpa",
        -11.503513320364354
      ],
      [
        "hygien",
        -12.271036764174967
      ],
      [
        "▁magnet",
        -11.536439306939917
      ],
      [
        "▁",
        -3.595384568914831
      ],
      [
        "lam",
        -11.414288032594797
      ],
      [
        "f",
        -4.036213711664914
      ],
      [
        "▁soon",
        -8.294961486067711
      ],
      [
        "▁scientist",
        -9.825429077629634
      ],
      [
        "▁646-",
        -12.991578501901367
      ],
      [
        "nte",
        -11.329980172230284
      ],
      [
        "ould",
        -12.161060577409936
      ],
      [
        "▁russian",
        -9.295929118712987
      ],
      [
        "19032951_4",
        -12.364847159398298
      ],
      [
        "▁shone",
        -11.18114767576062
      ],
      [
        "▁russia",
        -9.329269592259166
      ],
      [
        "▁hurry",
        -9.880041004042127
      ],
      [
        "▁apath",
        -12.777957710944483
      ],
      [
        "▁horn",
        -10.03892774128432
      ],
      [
        "▁arise",
        -11.194920158417421
      ],
      [
        "▁inexp",
        -11.036777923214236
      ],
      [
        "▁turb",
        -12.317406884871705
      ],
      [
        "staikos",
        -12.774267220710309
      ],
      [
        "▁twa",
        -9.288908725683786
      ],
      [
        "▁clue",
        -11.32103983498273
      ],
      [
        "▁china",
        -8.299897727319347
      ],
      [
        "▁legislati",
        -9.410839847653879
      ],
      [
        "biblio",
        -12.783852794337399
      ],
      [
        "▁pearl",
        -11.488230304647603
      ],
      [
        "▁hold",
        -8.10080720317428
      ],
      [
        "u",
        -7.903191793250447
      ],
      [
        "ø",
        -12.833785825435129
      ],
      [
        "▁sla",
        -12.335474944779664
      ],
      [
        "▁distracted",
        -12.338895679099851
      ],
      [
        "▁background",
        -9.880550168061108
      ],
      [
        "▁tho",
        -8.708963387563907
      ],
      [
        "ibilit",
        -10.74907256446204
      ],
      [
        "▁tile",
        -10.848793776071338
      ],
      [
        "▁opportunit",
        -8.869913634605021
      ],
      [
        "▁indirect",
        -11.178167790055062
      ],
      [
        "▁vital",
        -10.38705174172738
      ],
      [
        "▁custom",
        -9.737801481225073
      ],
      [
        "▁pope",
        -10.815466633832102
      ],
      [
        "▁frown",
        -11.688108518753008
      ],
      [
        "▁perfection",
        -11.847118551911413
      ],
      [
        "▁sniff",
        -11.687703416684432
      ],
      [
        "▁structural",
        -10.050887491617571
      ],
      [
        "▁tomato",
        -10.12567239709298
      ],
      [
        "▁anger",
        -10.842492728936506
      ],
      [
        "▁drag",
        -10.74881816052982
      ],
      [
        "▁high-",
        -12.455189941450662
      ],
      [
        "-fire",
        -12.77457701694342
      ],
      [
        "▁lop",
        -13.717665166450537
      ],
      [
        "accenture",
        -12.272580733050711
      ],
      [
        "▁500",
        -10.955114086710612
      ],
      [
        "▁x",
        -10.277760178101254
      ],
      [
        "▁gaz",
        -11.862607603179908
      ],
      [
        "▁vigorous",
        -11.487802446818888
      ],
      [
        "n",
        -9.616052484599335
      ],
      [
        "▁eras",
        -11.001086616309951
      ],
      [
        "▁pric",
        -10.191303320883982
      ],
      [
        "local",
        -13.73384952694256
      ],
      [
        "▁disrupt",
        -10.667118041501727
      ],
      [
        "▁fabulous",
        -11.178170713055753
      ],
      [
        "▁adam",
        -7.690652088565816
      ],
      [
        "▁202.4",
        -14.138177894591795
      ],
      [
        "man@e",
        -12.817118239485756
      ],
      [
        "kie",
        -12.47193979457045
      ],
      [
        "conced",
        -13.717233213029512
      ],
      [
        "▁a.m.",
        -10.276317288402367
      ],
      [
        "▁nurtur",
        -13.434273507109367
      ],
      [
        "▁propert",
        -8.364605058753625
      ],
      [
        "▁graphic",
        -10.399808647526124
      ],
      [
        "▁vin",
        -10.818602022898604
      ],
      [
        "▁modification",
        -10.942086224927543
      ],
      [
        "ter",
        -10.432873965842234
      ],
      [
        "▁cliffs",
        -13.4523665886773
      ],
      [
        "▁struggle",
        -10.131359483769483
      ],
      [
        "▁bay",
        -9.744828062625007
      ],
      [
        "art",
        -13.093796388490144
      ],
      [
        "▁flow",
        -9.44331739145428
      ],
      [
        "▁shrew",
        -12.24883188111153
      ],
      [
        "see",
        -12.675076924778498
      ],
      [
        "n'",
        -9.381928970317361
      ],
      [
        "3-3",
        -13.158791324548858
      ],
      [
        ".p.",
        -13.670713508196878
      ],
      [
        "▁floor",
        -8.284896276561962
      ],
      [
        "▁garg",
        -12.306863464830716
      ],
      [
        "▁scorn",
        -12.315009930490751
      ],
      [
        "ational",
        -12.203971442537636
      ],
      [
        "▁beg",
        -10.023836911963839
      ],
      [
        "▁endure",
        -11.676382465264693
      ],
      [
        "▁crook",
        -11.687782799596292
      ],
      [
        "▁d'",
        -11.991204330988092
      ],
      [
        "nver",
        -6.748758059610105
      ],
      [
        "▁undertake",
        -10.591000548755929
      ],
      [
        "▁grocer",
        -11.158659368697908
      ],
      [
        "▁soften",
        -12.919120980932746
      ],
      [
        "ch",
        -12.085012431138926
      ],
      [
        "ken",
        -12.383397848050798
      ],
      [
        "▁civi",
        -10.518159141932818
      ],
      [
        "ni",
        -12.057522744570429
      ],
      [
        "▁interjection",
        -11.053167775985484
      ],
      [
        "▁1.",
        -12.094938996564373
      ],
      [
        "4-3",
        -14.138263700674802
      ],
      [
        "▁ugl",
        -10.759410492040603
      ],
      [
        "limp",
        -12.276080744364679
      ],
      [
        "▁gullib",
        -12.401199464929404
      ],
      [
        "▁generalization",
        -12.796280729130018
      ],
      [
        "▁provoke",
        -11.158586404485385
      ],
      [
        "▁admission",
        -11.487894304250755
      ],
      [
        "67",
        -13.61606973550646
      ],
      [
        "▁lina",
        -12.573399291703716
      ],
      [
        "eological",
        -11.96731927160531
      ],
      [
        "▁reassur",
        -12.462566015158195
      ],
      [
        "dw",
        -12.848581974628713
      ],
      [
        "▁lett",
        -11.061828687669914
      ],
      [
        "-cage-",
        -12.271025122798875
      ],
      [
        "▁din",
        -9.841042533797038
      ],
      [
        "▁x36",
        -12.271103170064222
      ],
      [
        "inter",
        -12.246162188309896
      ],
      [
        "▁rip",
        -9.71122205579617
      ],
      [
        "▁quarter",
        -9.791096550289211
      ],
      [
        "boro",
        -11.280647296985745
      ],
      [
        "▁magick",
        -12.353663085430414
      ],
      [
        "▁canape",
        -12.771081854721082
      ],
      [
        "▁fil",
        -10.678056777802396
      ],
      [
        "mention",
        -12.88195025341052
      ],
      [
        "▁phy",
        -13.183882944274552
      ],
      [
        "▁original",
        -8.65037225448328
      ],
      [
        "lt.",
        -12.282062373103603
      ],
      [
        "▁–",
        -8.83025937391971
      ],
      [
        "▁camp",
        -8.93790399739756
      ],
      [
        "▁cod",
        -10.941306471430842
      ],
      [
        "take",
        -11.02433264860213
      ],
      [
        "used",
        -8.901950401398395
      ],
      [
        "▁cleaner",
        -10.712756208662451
      ],
      [
        "▁recurr",
        -12.23868391392369
      ],
      [
        "▁shrewd",
        -12.810213721093918
      ],
      [
        "▁brian",
        -10.457100120794168
      ],
      [
        "▁cheque",
        -11.938119192630293
      ],
      [
        "bald",
        -10.401678172841203
      ],
      [
        "rity",
        -11.357057224740869
      ],
      [
        "▁saf",
        -12.211793947647818
      ],
      [
        "▁tons",
        -10.531424766846161
      ],
      [
        "▁amplifi",
        -12.77102493078819
      ],
      [
        "▁ar",
        -10.524785217097024
      ],
      [
        "▁jac",
        -11.939867650386898
      ],
      [
        "▁census",
        -10.51948720213806
      ],
      [
        "▁whe",
        -11.820095574382382
      ],
      [
        "ski",
        -12.042231313241379
      ],
      [
        "▁stake",
        -11.696045722734514
      ],
      [
        "▁art",
        -8.371726870589836
      ],
      [
        "xite",
        -13.235557595511027
      ],
      [
        "▁display",
        -8.883026519516676
      ],
      [
        "▁legend",
        -10.591140052901673
      ],
      [
        "▁tun",
        -12.40578227512601
      ],
      [
        "censor",
        -12.501843577407595
      ],
      [
        "llor",
        -12.622336930652702
      ],
      [
        "▁shop",
        -8.634681514336533
      ],
      [
        "▁ali",
        -10.97393773459669
      ],
      [
        "rodin",
        -12.829518651597418
      ],
      [
        "persistent",
        -13.733700623777873
      ],
      [
        "▁10.",
        -12.227526544380565
      ],
      [
        "horse",
        -12.54650277923731
      ],
      [
        "▁key",
        -8.54082391528149
      ],
      [
        "chord",
        -13.562212319477954
      ],
      [
        "hocke",
        -11.122845218360679
      ],
      [
        "▁hick",
        -12.34885872715229
      ],
      [
        "attack",
        -12.73302324585201
      ],
      [
        "▁apple",
        -9.353553001722844
      ],
      [
        "▁generat",
        -9.894761360914261
      ],
      [
        "▁limitation",
        -10.39539010040167
      ],
      [
        "out",
        -9.263236778794568
      ],
      [
        "▁rode",
        -10.337663510674258
      ],
      [
        "eologis",
        -11.196736447100312
      ],
      [
        "▁=",
        -10.869655881095504
      ],
      [
        "▁bulls",
        -12.794793585129026
      ],
      [
        "▁horizon",
        -11.321343413958699
      ],
      [
        "▁terrace",
        -12.273314830942969
      ],
      [
        "estor",
        -13.064562394839806
      ],
      [
        "▁armchair",
        -12.271330236861834
      ],
      [
        "▁human",
        -8.031773613535318
      ],
      [
        "▁dand",
        -9.850707535455877
      ],
      [
        "▁marci",
        -11.202705153672866
      ],
      [
        "dresser",
        -12.23060576071679
      ],
      [
        "▁kend",
        -13.31879002435112
      ],
      [
        "16",
        -13.335738709129888
      ],
      [
        "▁nik",
        -11.776231344462632
      ],
      [
        "▁kath",
        -10.523431709510152
      ],
      [
        "▁epi",
        -10.929906157032448
      ],
      [
        "duck",
        -12.879285635143736
      ],
      [
        "▁kipp",
        -13.63343807562583
      ],
      [
        "▁sch",
        -11.105615882516611
      ],
      [
        "▁buba",
        -11.32162077526448
      ],
      [
        "▁secret",
        -9.454333070180235
      ],
      [
        "▁carrie",
        -9.613899712959405
      ],
      [
        "▁naturalist",
        -12.12885667868274
      ],
      [
        "rove",
        -9.921126073363725
      ],
      [
        "▁permeate",
        -12.271035405241022
      ],
      [
        "gcp",
        -12.732643510793945
      ],
      [
        "▁mitten",
        -12.77111722195984
      ],
      [
        "tte",
        -9.513176272221262
      ],
      [
        "▁frame",
        -9.99523368563353
      ],
      [
        "▁nan",
        -12.25253368878968
      ],
      [
        "▁rebelli",
        -12.184807252996714
      ],
      [
        "▁representative",
        -9.333572042445665
      ],
      [
        "▁co",
        -8.904656448230618
      ],
      [
        "▁kro",
        -13.597468369181604
      ],
      [
        "▁azzam",
        -12.773175153950643
      ],
      [
        "stain",
        -13.317548387480514
      ],
      [
        "▁convention",
        -9.59708640036627
      ],
      [
        "ist",
        -8.876461395104915
      ],
      [
        "▁crayon",
        -10.08050941417212
      ],
      [
        "unit",
        -13.710423202346755
      ],
      [
        "▁mere",
        -9.736936110871353
      ],
      [
        "▁stelle",
        -12.805679194544958
      ],
      [
        "▁job",
        -7.863934615544019
      ],
      [
        "▁achiev",
        -10.171010293555158
      ],
      [
        "▁detail",
        -8.544865571091288
      ],
      [
        "▁fray",
        -11.953583476601887
      ],
      [
        "▁releas",
        -11.28240654099885
      ],
      [
        "▁łodz",
        -12.833783221425183
      ],
      [
        "$$",
        -11.687718784621106
      ],
      [
        "▁inflation",
        -10.667909255758545
      ],
      [
        "▁rave",
        -11.949350345317923
      ],
      [
        "tan",
        -10.293532286935195
      ],
      [
        "fi",
        -11.328054049889788
      ],
      [
        "▁lament",
        -11.964689168967828
      ],
      [
        "7/9",
        -12.765859434088394
      ],
      [
        "▁annual",
        -9.880772549002284
      ],
      [
        "▁stirrup",
        -10.942178029872021
      ],
      [
        "▁journalist",
        -11.214764125155282
      ],
      [
        "!!!!!!!!!!!!!!",
        -12.295588014338717
      ],
      [
        "tag",
        -11.926742771727605
      ],
      [
        "▁florid",
        -9.518672735542715
      ],
      [
        "!!!!",
        -9.691707156797474
      ],
      [
        "▁brutal",
        -11.437894794634866
      ],
      [
        "▁immens",
        -12.260633395461564
      ],
      [
        "▁unravel",
        -12.27118568130923
      ],
      [
        "▁teach",
        -10.26370529433906
      ],
      [
        "▁paradigm",
        -11.487693393787302
      ],
      [
        "▁pears",
        -12.877602439440885
      ],
      [
        "▁relian",
        -12.341886192677629
      ],
      [
        "▁downsiz",
        -13.126944325088246
      ],
      [
        "▁pull",
        -8.336410152986165
      ],
      [
        "▁moment",
        -8.526182710012856
      ],
      [
        "▁recommend",
        -8.198951833439198
      ],
      [
        "▁tham",
        -11.26713278775613
      ],
      [
        "▁infertil",
        -11.937703889680794
      ],
      [
        "▁morta",
        -12.893952937432111
      ],
      [
        "uk",
        -10.728204001982624
      ],
      [
        "coat",
        -11.28418501679419
      ],
      [
        "▁egypt",
        -9.421542372635574
      ],
      [
        "5",
        -10.694333750275536
      ],
      [
        "▁deteriorate",
        -11.381394510091514
      ],
      [
        "ps.",
        -12.097903778654935
      ],
      [
        "▁what",
        -5.09320280019549
      ],
      [
        "secrat",
        -12.777719936995336
      ],
      [
        "▁bc",
        -10.810165663142394
      ],
      [
        "▁morning",
        -6.950680026616309
      ],
      [
        "▁grandma",
        -10.174431505378145
      ],
      [
        "▁mater",
        -12.800149542408803
      ],
      [
        "▁http://news.",
        -13.726287922417816
      ],
      [
        "▁prevalen",
        -11.687790645516412
      ],
      [
        "/forum/",
        -12.771030715538926
      ],
      [
        "sion",
        -10.424354767085728
      ],
      [
        "▁monarch",
        -10.842070845557068
      ],
      [
        "▁366",
        -12.639888687731418
      ],
      [
        "▁provocation",
        -11.487899797938905
      ],
      [
        "▁lava",
        -11.9884572288973
      ],
      [
        "▁regret",
        -10.3165136843079
      ],
      [
        "▁enclos",
        -11.847180595959774
      ],
      [
        "eet",
        -13.026196635505968
      ],
      [
        "nforcement",
        -10.1024472787549
      ],
      [
        "▁alter",
        -10.403380494915734
      ],
      [
        "city",
        -11.446592089729227
      ],
      [
        "▁com",
        -9.986242493050487
      ],
      [
        "▁pro",
        -12.087576576142846
      ],
      [
        "▁ya",
        -12.898998956236886
      ],
      [
        "▁abu",
        -12.659050262975363
      ],
      [
        "▁god",
        -9.228570150685648
      ],
      [
        "▁hopki",
        -12.97453589276314
      ],
      [
        "39",
        -11.637206619097427
      ],
      [
        "ire",
        -11.360514358261332
      ],
      [
        "▁armenia",
        -12.266590629314686
      ],
      [
        "▁disgusting",
        -12.310382285559362
      ],
      [
        "▁fourth",
        -9.468113900551128
      ],
      [
        "zem",
        -11.035336853363994
      ],
      [
        "▁committment",
        -12.771697553181145
      ],
      [
        ".net",
        -9.877666652163677
      ],
      [
        "▁27",
        -11.93774816861383
      ],
      [
        "▁less",
        -8.081663408408101
      ],
      [
        "▁wagg",
        -11.945076249699245
      ],
      [
        "compaq.com",
        -11.053883235450744
      ],
      [
        "▁flashes",
        -12.485866409061542
      ],
      [
        "oose",
        -11.373428647165948
      ],
      [
        "▁david",
        -9.177941271524086
      ],
      [
        "▁richard",
        -9.214174753860537
      ],
      [
        "▁non",
        -9.749685132467587
      ],
      [
        "▁typo",
        -12.772463930575807
      ],
      [
        "▁…",
        -9.423272303804795
      ],
      [
        "▁are",
        -7.145531265747977
      ],
      [
        "uri",
        -11.894408370198882
      ],
      [
        "▁lymph",
        -12.208655751506814
      ],
      [
        "▁postpone",
        -11.405036864163037
      ],
      [
        "aimed",
        -12.146847218571837
      ],
      [
        "handler",
        -13.68526984252621
      ],
      [
        "isse",
        -12.086253886900012
      ],
      [
        "▁emotional",
        -10.952279036605972
      ],
      [
        "oces",
        -12.897569169501748
      ],
      [
        "▁abnormal",
        -12.27103062301842
      ],
      [
        "▁0",
        -12.590165494098184
      ],
      [
        "▁capita",
        -12.78095329738648
      ],
      [
        "cato",
        -11.946515533569777
      ],
      [
        "▁decepti",
        -12.492573872140301
      ],
      [
        "▁ti",
        -10.39515390191051
      ],
      [
        "▁heavi",
        -10.223286145817305
      ],
      [
        "▁polluter",
        -12.279744646721454
      ],
      [
        "▁mumbl",
        -12.99847048988943
      ],
      [
        "cture",
        -13.693807038996459
      ],
      [
        "wa",
        -12.083792402984447
      ],
      [
        "▁updat",
        -12.244806141089336
      ],
      [
        "▁lens",
        -11.413237430105626
      ],
      [
        "▁imper",
        -11.842697742911147
      ],
      [
        "▁practis",
        -13.20885413295291
      ],
      [
        "▁plumb",
        -12.34075075870596
      ],
      [
        "▁sulphur",
        -12.27102491925773
      ],
      [
        "raz",
        -12.216306027598762
      ],
      [
        "shoe",
        -12.941340341393396
      ],
      [
        "▁da",
        -13.348798848459843
      ],
      [
        "▁bla",
        -11.153801094753153
      ],
      [
        "ozen",
        -9.916278138248533
      ],
      [
        "ellen",
        -11.944308985310117
      ],
      [
        "▁dab",
        -10.932624278258885
      ],
      [
        "▁crocodil",
        -12.271024921417371
      ],
      [
        "gara",
        -11.954461009560596
      ],
      [
        "▁scene",
        -9.421047166399372
      ],
      [
        "cent",
        -10.823422790160254
      ],
      [
        "z",
        -8.513776215451227
      ],
      [
        "▁squirte",
        -13.483002835238063
      ],
      [
        "▁daw",
        -11.378178876505107
      ],
      [
        "eck",
        -12.128021416698637
      ],
      [
        "▁predict",
        -10.037039386842535
      ],
      [
        "▁37",
        -11.88765483250735
      ],
      [
        "▁bitch",
        -11.97057912239316
      ],
      [
        "out",
        -7.858831281268998
      ],
      [
        "▁theft",
        -11.687766065865821
      ],
      [
        "▁crom",
        -9.2732910931672
      ],
      [
        "▁skimm",
        -11.948183107961691
      ],
      [
        "▁monster",
        -9.712843741587722
      ],
      [
        "▁mid",
        -9.46688288545224
      ],
      [
        "▁girlfriend",
        -10.223337690642772
      ],
      [
        "▁crown",
        -10.845741555657472
      ],
      [
        "713.86",
        -12.636824810014524
      ],
      [
        "bb",
        -11.953589324145495
      ],
      [
        "▁success",
        -9.420677732766043
      ],
      [
        "▁motors",
        -12.591846266514962
      ],
      [
        "▁suffering",
        -9.989409081390667
      ],
      [
        "▁branch",
        -10.760065838268059
      ],
      [
        "popular",
        -11.449592635277359
      ],
      [
        "▁disarm",
        -12.668297270057698
      ],
      [
        "▁flag-",
        -12.790380620329412
      ],
      [
        "ing",
        -9.928808428270834
      ],
      [
        "sis",
        -12.693411606486883
      ],
      [
        "▁kon",
        -12.674440493137688
      ],
      [
        "▁wing",
        -10.414429110014012
      ],
      [
        "▁lotf",
        -13.102317455227633
      ],
      [
        "▁fascinat",
        -10.767510341758424
      ],
      [
        "▁affirmative",
        -12.771164684268212
      ],
      [
        "▁lounge",
        -11.487698219841857
      ],
      [
        "▁citr",
        -11.523112306599515
      ],
      [
        "eye",
        -12.03173654359087
      ],
      [
        "▁thought",
        -7.473682830390388
      ],
      [
        "▁dia",
        -13.086237827269645
      ],
      [
        "▁padd",
        -11.833270606523731
      ],
      [
        "▁ground",
        -7.511000339399028
      ],
      [
        "▁consen",
        -11.480617684877242
      ],
      [
        "▁mel",
        -10.679492560517843
      ],
      [
        "▁nash",
        -8.999511191950436
      ],
      [
        "05",
        -11.333808753995704
      ],
      [
        "▁cropduster",
        -11.937693280478804
      ],
      [
        "▁bilb",
        -12.302661952191364
      ],
      [
        "pover",
        -10.37245102086002
      ],
      [
        "ki",
        -12.612514497577099
      ],
      [
        "4-6",
        -14.856897830413907
      ],
      [
        "24",
        -10.79235968292323
      ],
      [
        "▁prohibition",
        -12.775955591747051
      ],
      [
        "▁281-4",
        -12.337157708975122
      ],
      [
        "clear",
        -13.033043829191742
      ],
      [
        "▁depress",
        -11.939819595929658
      ],
      [
        "▁enchant",
        -12.865299404968226
      ],
      [
        "▁traged",
        -10.125687550825472
      ],
      [
        "▁combine",
        -10.17059698893397
      ],
      [
        "▁concede",
        -13.240353127060532
      ],
      [
        "▁back",
        -6.439929621419231
      ],
      [
        "▁trainer",
        -11.310611171980165
      ],
      [
        "▁dut",
        -9.761847293230907
      ],
      [
        "emona",
        -12.993893676324175
      ],
      [
        "ecker",
        -12.11457265026241
      ],
      [
        "▁cub",
        -11.347656619638556
      ],
      [
        "▁salad",
        -9.544311282491861
      ],
      [
        "▁absor",
        -12.769974966724213
      ],
      [
        "▁betta",
        -11.97358389318823
      ],
      [
        "▁multiple",
        -10.080214869572686
      ],
      [
        "▁mitch",
        -9.653319427577284
      ],
      [
        "?var=",
        -12.27102492013591
      ],
      [
        "▁hi",
        -8.20497667528024
      ],
      [
        "▁lesson",
        -9.550908371119709
      ],
      [
        "light",
        -9.787493304109189
      ],
      [
        "▁pleasure",
        -9.91719712262989
      ],
      [
        "▁05:",
        -13.864709534199491
      ],
      [
        "ibra",
        -13.62029731802884
      ],
      [
        "▁smok",
        -10.298602289706487
      ],
      [
        "▁guardia",
        -10.58835474449521
      ],
      [
        "▁winter",
        -8.938271952999607
      ],
      [
        "▁47",
        -12.395029450852924
      ],
      [
        "▁toil",
        -11.95534531367246
      ],
      [
        "!",
        -11.178167775983392
      ],
      [
        "#",
        -12.793241489426944
      ],
      [
        "ical",
        -8.83701131838244
      ],
      [
        "空",
        -12.833785825435129
      ],
      [
        "▁coff",
        -13.568542127785793
      ],
      [
        "fertilize",
        -13.732908437998878
      ],
      [
        "hi",
        -10.870713028715667
      ],
      [
        "▁interven",
        -10.94196066323911
      ],
      [
        "▁evolv",
        -10.461227263065467
      ],
      [
        "12",
        -10.115966630470972
      ],
      [
        "▁latin",
        -10.27735996946861
      ],
      [
        "solubl",
        -11.938023662357338
      ],
      [
        "onald",
        -13.386004529032242
      ],
      [
        "▁shu",
        -11.605474654976895
      ],
      [
        "wiki",
        -11.654863285398736
      ],
      [
        "▁850",
        -12.738656435075244
      ],
      [
        "▁clatter",
        -11.940027829201435
      ],
      [
        ",000",
        -9.14239492692628
      ],
      [
        "▁l.p",
        -12.817984553812025
      ],
      [
        "dispens",
        -11.937860655173795
      ],
      [
        "ed",
        -9.811572089528623
      ],
      [
        "▁sandwich",
        -9.291826491677178
      ],
      [
        "▁maria",
        -11.715515423327307
      ],
      [
        "▁place",
        -6.805931458064666
      ],
      [
        "guide",
        -12.743175499797413
      ],
      [
        "▁switch",
        -10.208291133616264
      ],
      [
        "▁thrift",
        -11.178182145333931
      ],
      [
        "say",
        -13.11618404827498
      ],
      [
        "▁precise",
        -9.74515904176554
      ],
      [
        "▁hung",
        -9.86647129388336
      ],
      [
        "▁neo",
        -10.600541080240207
      ],
      [
        "nana",
        -9.662043387588838
      ],
      [
        "▁carpet",
        -10.842527139429773
      ],
      [
        "corp.",
        -11.075493180346236
      ],
      [
        "▁trailer",
        -11.190127834841359
      ],
      [
        "▁subtle",
        -11.321069086042911
      ],
      [
        "▁plan",
        -8.24218555388225
      ],
      [
        "▁clip",
        -10.459290285960769
      ],
      [
        "▁mad",
        -9.521693967141598
      ],
      [
        "▁herself",
        -10.235000470458207
      ],
      [
        "▁marsh",
        -12.269869498158089
      ],
      [
        "lected",
        -12.76094343186615
      ],
      [
        "hua",
        -11.356132178922108
      ],
      [
        "▁articulat",
        -11.937691631715083
      ],
      [
        "▁favorite",
        -8.883008716693354
      ],
      [
        "▁pancr",
        -12.776415874910901
      ],
      [
        "▁macke",
        -12.78453672022234
      ],
      [
        "▁genes",
        -11.009101964216502
      ],
      [
        "calzo",
        -13.71489172581607
      ],
      [
        "▁area",
        -7.581083465610427
      ],
      [
        "▁elect",
        -10.626021067955413
      ],
      [
        "▁halt",
        -11.378860094874803
      ],
      [
        "ware",
        -9.664186661923734
      ],
      [
        "▁gala",
        -11.702631264584346
      ],
      [
        "▁hunche",
        -12.774643383999049
      ],
      [
        "▁phu",
        -13.528729103728962
      ],
      [
        "▁qu",
        -11.349687545604123
      ],
      [
        "▁200",
        -7.835194488110916
      ],
      [
        "bias",
        -12.219736439551708
      ],
      [
        "▁cam",
        -13.560396254174337
      ],
      [
        "▁rams",
        -12.603329909451197
      ],
      [
        "ther",
        -9.816198836317017
      ],
      [
        "kat",
        -10.909520301264195
      ],
      [
        "****************",
        -9.647989595493517
      ],
      [
        "▁jong",
        -12.285763934122796
      ],
      [
        "▁jordan",
        -10.275746002012342
      ],
      [
        "▁moham",
        -10.171012349595554
      ],
      [
        "▁has",
        -6.848591457078751
      ],
      [
        "▁arrogan",
        -11.482875406956547
      ],
      [
        "▁worm",
        -9.76191744687536
      ],
      [
        "▁mach",
        -11.993781064601764
      ],
      [
        "▁kos",
        -12.053302668939516
      ],
      [
        "doctor",
        -12.735948628473466
      ],
      [
        "pepsi",
        -11.93991152655491
      ],
      [
        "▁wait",
        -7.62888129834162
      ],
      [
        "▁traveller",
        -11.501980331923136
      ],
      [
        "▁lear",
        -10.94358538162402
      ],
      [
        "▁river",
        -8.789148816525994
      ],
      [
        "▁sponsor",
        -10.751164505538458
      ],
      [
        "▁ou",
        -10.262009073803753
      ],
      [
        "▁explod",
        -12.090930910172734
      ],
      [
        "▁afterward",
        -10.080238951155533
      ],
      [
        "▁shorthand",
        -12.773450887302529
      ],
      [
        "jones@e",
        -12.78280121455302
      ],
      [
        "▁muscula",
        -12.787123171660376
      ],
      [
        "haz",
        -12.577682490640758
      ],
      [
        "▁instant",
        -10.174397629426068
      ],
      [
        "▁jacobs",
        -13.379200867708528
      ],
      [
        "trina",
        -10.89231954910543
      ],
      [
        "▁154",
        -12.837464354786793
      ],
      [
        "▁horribl",
        -9.543261343163753
      ],
      [
        "}",
        -11.333785825435129
      ],
      [
        "▁dada",
        -11.17321667106772
      ],
      [
        "▁grandson",
        -12.27337381855356
      ],
      [
        "▁hau",
        -12.753008223545823
      ],
      [
        "▁nanda",
        -11.373803937697424
      ],
      [
        "-ferret-cage",
        -12.771305113719809
      ],
      [
        "rdon",
        -9.948414300064211
      ],
      [
        "▁medica",
        -9.651600998394716
      ],
      [
        "▁alchem",
        -13.727953020272022
      ],
      [
        "▁aw",
        -8.844585833961844
      ],
      [
        "acia",
        -12.35067822828685
      ],
      [
        "▁spen",
        -8.968166960507443
      ],
      [
        "▁sep",
        -13.50592728809402
      ],
      [
        "▁thr",
        -8.152049216504125
      ],
      [
        "▁shovel",
        -11.055652006072538
      ],
      [
        "▁crumbl",
        -11.926163203716277
      ],
      [
        "▁teaching",
        -9.695177397784795
      ],
      [
        "71",
        -11.60846397450329
      ],
      [
        "▁vehicle",
        -9.809371998290747
      ],
      [
        "surgery",
        -10.04751816862867
      ],
      [
        "values",
        -11.227392804242173
      ],
      [
        "▁five",
        -12.348662870367757
      ],
      [
        "▁beatle",
        -10.127242914953383
      ],
      [
        "▁implant",
        -11.487699032831506
      ],
      [
        "linguistic",
        -12.732980649107592
      ],
      [
        "and",
        -10.665447951536812
      ],
      [
        "▁apron",
        -11.488930424743995
      ],
      [
        "ashim",
        -12.792109001825114
      ],
      [
        "▁invent",
        -10.221905616170625
      ],
      [
        "▁mcg",
        -11.311842152829668
      ],
      [
        "▁krist",
        -12.707191848607874
      ],
      [
        "▁roger",
        -11.321401914046538
      ],
      [
        "▁rank",
        -9.99691420265277
      ],
      [
        "▁reform",
        -10.222343602962525
      ],
      [
        "▁favourite",
        -11.938033959006251
      ],
      [
        "▁music",
        -8.818213750095747
      ],
      [
        "~",
        -9.582223498820056
      ],
      [
        "▁exercis",
        -11.834210044261127
      ],
      [
        "▁96/",
        -13.462906433389357
      ],
      [
        "▁06/0",
        -14.136984329702415
      ],
      [
        "degenerate",
        -11.48769164491409
      ],
      [
        "6",
        -8.138127856803997
      ],
      [
        "▁cre",
        -11.443819471975635
      ],
      [
        "▁num",
        -11.689565112383082
      ],
      [
        "▁pound",
        -10.391801741254
      ],
      [
        "▁overload",
        -12.774612573837642
      ],
      [
        "山",
        -12.833785825435129
      ],
      [
        "▁byr",
        -10.85908050699996
      ],
      [
        "onia",
        -10.935221471102944
      ],
      [
        "crazy",
        -10.161328598765765
      ],
      [
        "▁barrette",
        -11.955776893485655
      ],
      [
        "+",
        -10.687331104362515
      ],
      [
        "hill",
        -11.35088808273894
      ],
      [
        "▁cenot",
        -12.780310919701527
      ],
      [
        "ble",
        -13.325705585333473
      ],
      [
        "▁congratulation",
        -10.842056973470775
      ],
      [
        "▁bonn",
        -12.518489556223095
      ],
      [
        "▁use",
        -6.596342102290537
      ],
      [
        "▁scammer",
        -11.688482077562767
      ],
      [
        "3-32",
        -14.140185884914017
      ],
      [
        "biscu",
        -12.77151261182729
      ],
      [
        "▁156",
        -11.352272366395722
      ],
      [
        "▁horrif",
        -12.274058958012661
      ],
      [
        "ample",
        -12.805755590924715
      ],
      [
        "▁cele",
        -13.58030031591843
      ],
      [
        "▁hegemon",
        -12.771091811292417
      ],
      [
        "▁donut",
        -12.808022350363776
      ],
      [
        "▁well",
        -6.348680697706744
      ],
      [
        "▁haste",
        -11.937250495022374
      ],
      [
        "borg",
        -11.320000993971512
      ],
      [
        "▁jak",
        -12.312203437977981
      ],
      [
        "▁lynn",
        -11.953320848618691
      ],
      [
        "▁hurtle",
        -13.276868501603785
      ],
      [
        "▁inspire",
        -9.87800220157507
      ],
      [
        "▁roar",
        -9.743973459266439
      ],
      [
        "▁balzac",
        -8.47978131491601
      ],
      [
        "▁coordinat",
        -11.612092914598982
      ],
      [
        "▁channel",
        -9.62487912973235
      ],
      [
        "▁rail",
        -10.080156657509935
      ],
      [
        "▁tragic",
        -11.053173151640726
      ],
      [
        "▁kep",
        -12.637245833858715
      ],
      [
        "▁gib",
        -11.699384346228586
      ],
      [
        "▁va",
        -10.43169694455526
      ],
      [
        "▁acrylic",
        -11.937691870774568
      ],
      [
        "weaponize",
        -11.966152109849606
      ],
      [
        "▁dwelling",
        -12.332183823625396
      ],
      [
        "▁129",
        -12.292761266971034
      ],
      [
        "▁k",
        -8.466481655722358
      ],
      [
        "▁-",
        -6.672550242218494
      ],
      [
        "▁minor",
        -10.35203094668341
      ],
      [
        "pressed",
        -13.500718910571761
      ],
      [
        "▁detective",
        -10.591276807737572
      ],
      [
        "▁philosopher",
        -10.758801363547358
      ],
      [
        "▁hankie",
        -12.812358931413595
      ],
      [
        "▁dillard",
        -12.271085840968947
      ],
      [
        "▁get",
        -9.018875979559912
      ],
      [
        "▁elaborate",
        -10.94205667869055
      ],
      [
        "305",
        -14.449579635922536
      ],
      [
        "▁crash",
        -10.087202478812525
      ],
      [
        "▁reject",
        -10.125666258625651
      ],
      [
        "bu",
        -8.933136665927833
      ],
      [
        "▁yarn",
        -11.68779153288372
      ],
      [
        "▁harmonis",
        -10.444113429406142
      ],
      [
        "187",
        -12.753397997597109
      ],
      [
        "▁killing",
        -10.00347607923452
      ],
      [
        "▁problem",
        -7.586170141214148
      ],
      [
        "2000",
        -9.70736640342331
      ],
      [
        "▁secretion",
        -12.793235221600316
      ],
      [
        "▁sid",
        -11.56414447088602
      ],
      [
        "▁pinch",
        -10.837995699404324
      ],
      [
        "▁noon",
        -8.377573727683348
      ],
      [
        "▁flexibl",
        -11.057594326298153
      ],
      [
        "!!!!!!!!!!!",
        -12.790094382530567
      ],
      [
        "▁patro",
        -11.939530063076624
      ],
      [
        "-",
        -7.378524570998245
      ],
      [
        "ow",
        -10.620396625819371
      ],
      [
        "zer",
        -9.232960750336773
      ],
      [
        "▁steward",
        -12.778904408244529
      ],
      [
        "▁friendli",
        -13.123141975934383
      ],
      [
        "▁47",
        -12.332413685132002
      ],
      [
        "▁ripple",
        -11.695927922481326
      ],
      [
        "▁hotdog",
        -11.489210259278492
      ],
      [
        "▁yack",
        -11.322061510512455
      ],
      [
        "▁x33",
        -11.93991825188356
      ],
      [
        "▁pulle",
        -12.349083150562187
      ],
      [
        "▁regime",
        -9.995066820102418
      ],
      [
        "▁spru",
        -12.939562922779107
      ],
      [
        "▁oka",
        -6.637594034817865
      ],
      [
        "valenc",
        -12.846219330932941
      ],
      [
        "▁glimmer",
        -12.771025056070732
      ],
      [
        "▁where",
        -8.802452388749018
      ],
      [
        "hol",
        -9.179843414434613
      ],
      [
        "▁unrel",
        -11.86563834396023
      ],
      [
        "▁folk",
        -9.847178860899405
      ],
      [
        "▁retaliat",
        -12.049611192552137
      ],
      [
        "▁settler",
        -10.52462464148243
      ],
      [
        "kha",
        -13.620988252282125
      ],
      [
        "respect",
        -13.73365710230267
      ],
      [
        "▁magnific",
        -10.453841991155196
      ],
      [
        "▁pots",
        -13.309837920505549
      ],
      [
        "▁obl",
        -12.722384941511116
      ],
      [
        "▁devil",
        -9.879883230561958
      ],
      [
        "▁cheu",
        -11.928922819750555
      ],
      [
        "washington",
        -7.186604175804263
      ],
      [
        "/~",
        -12.771092500946189
      ],
      [
        "for",
        -13.304615301027066
      ],
      [
        "aboo",
        -12.75702056814236
      ],
      [
        "▁presiden",
        -11.314670851177256
      ],
      [
        "▁simple",
        -9.115782360874555
      ],
      [
        "▁jacket",
        -10.331773651230753
      ],
      [
        "▁procedure",
        -9.44453654702903
      ],
      [
        "▁expell",
        -12.27636427245838
      ],
      [
        "▁faz",
        -12.774433580375021
      ],
      [
        "▁queue",
        -11.321030087698277
      ],
      [
        "▁exact",
        -8.757051909046336
      ],
      [
        "▁179",
        -12.177181067986169
      ],
      [
        "▁gu",
        -11.83470245911374
      ],
      [
        "▁balochi",
        -11.939134581910508
      ],
      [
        "▁blend",
        -10.84012144228225
      ],
      [
        "▁opossum",
        -12.2710249407847
      ],
      [
        "▁marg",
        -12.86486957603505
      ],
      [
        "▁172",
        -13.09131332977712
      ],
      [
        "▁105",
        -13.812547057226544
      ],
      [
        "▁muggle",
        -10.331474886500231
      ],
      [
        "▁metaphysic",
        -12.271151718830321
      ],
      [
        "▁shand",
        -13.12122054002057
      ],
      [
        "▁swing",
        -9.383467288778466
      ],
      [
        "▁climb",
        -9.177433091050627
      ],
      [
        "▁bengal",
        -11.324074774101879
      ],
      [
        "3/10/",
        -13.858668163224241
      ],
      [
        "713-853-3",
        -14.69068872296564
      ],
      [
        ">",
        -8.485528575884176
      ],
      [
        "▁hostilit",
        -12.896944486156645
      ],
      [
        "▁par",
        -10.847458532643536
      ],
      [
        "▁diminishe",
        -12.518066815034064
      ],
      [
        "▁cho",
        -12.937881227017018
      ],
      [
        "▁urgent",
        -10.751284022894007
      ],
      [
        ".edu",
        -12.750964056390956
      ],
      [
        "▁forc",
        -12.577520839258913
      ],
      [
        "ntact",
        -11.69101493209715
      ],
      [
        "▁reference",
        -9.1163840438889
      ],
      [
        "shi",
        -13.214415987742727
      ],
      [
        "▁agel",
        -11.201662259577493
      ],
      [
        "ins",
        -12.84528629625656
      ],
      [
        "-in-",
        -12.272193148973834
      ],
      [
        "▁stooge",
        -11.688715674789849
      ],
      [
        "▁negotiate",
        -11.078581807731725
      ],
      [
        "arriage",
        -10.982246373060672
      ],
      [
        "▁comp.sources.",
        -11.687691585560374
      ],
      [
        "▁corresponding",
        -11.330683516014963
      ],
      [
        "▁whats",
        -11.26542166168438
      ],
      [
        "▁pattern",
        -9.996569816869243
      ],
      [
        "▁solv",
        -10.928449119015276
      ],
      [
        "coli",
        -11.937441279969983
      ],
      [
        "▁tiger",
        -9.214547810918342
      ],
      [
        "▁creature",
        -10.842275463231639
      ],
      [
        "▁fireplace",
        -11.053857616802393
      ],
      [
        "erre",
        -11.834469720779595
      ],
      [
        "28",
        -11.378940060574218
      ],
      [
        "minate",
        -11.750390542524816
      ],
      [
        "▁since",
        -10.353748570839585
      ],
      [
        "railroad",
        -11.937692213552655
      ],
      [
        "mar",
        -11.878759200109332
      ],
      [
        "▁kendr",
        -12.607296816439124
      ],
      [
        "ß",
        -12.833785825435129
      ],
      [
        "▁driv",
        -8.744765231871838
      ],
      [
        "▁instigate",
        -12.271024988000061
      ],
      [
        "▁apologize",
        -11.06175387638933
      ],
      [
        "▁definite",
        -8.924110384119079
      ],
      [
        "▁general",
        -7.982615391036728
      ],
      [
        "▁any",
        -8.313978061899988
      ],
      [
        "▁korea",
        -9.233412547175622
      ],
      [
        "▁deposit",
        -10.641193673706951
      ],
      [
        "▁bending",
        -11.191743903592187
      ],
      [
        "ity",
        -7.057959802844108
      ],
      [
        "▁stun",
        -11.392040132642732
      ],
      [
        "▁lie",
        -9.055313516594756
      ],
      [
        "▁develope",
        -11.645383865976193
      ],
      [
        "▁rath",
        -8.556708560923367
      ],
      [
        "4/200",
        -11.696837855527704
      ],
      [
        "▁225",
        -12.177426783633818
      ],
      [
        "▁digg",
        -10.675598706837912
      ],
      [
        "▁01/2",
        -13.14262021468103
      ],
      [
        "▁stroke",
        -11.693405665138867
      ],
      [
        "xx",
        -12.929198159530694
      ],
      [
        "ratio",
        -13.693592973957482
      ],
      [
        "▁crescen",
        -12.27128526591233
      ],
      [
        "▁normall",
        -11.501313969182466
      ],
      [
        "▁wir",
        -12.677735126091504
      ],
      [
        "▁shan",
        -12.34777608450875
      ],
      [
        "▁hig",
        -10.388500427920253
      ],
      [
        "▁cha",
        -11.250268752536988
      ],
      [
        "▁journey",
        -10.173285284310602
      ],
      [
        "▁appetiz",
        -11.937691599335224
      ],
      [
        "▁annoyance",
        -12.775543292515428
      ],
      [
        "▁malar",
        -12.725437980992677
      ],
      [
        "▁augustin",
        -13.029726443125497
      ],
      [
        "▁haze",
        -12.46094630832275
      ],
      [
        "ex",
        -13.23860932400026
      ],
      [
        "▁preface",
        -11.487711035480674
      ],
      [
        "▁contribute",
        -10.02830082286619
      ],
      [
        "▁scott",
        -9.78157780970104
      ],
      [
        "▁massacre",
        -11.754410202993721
      ],
      [
        "▁piccadill",
        -12.271125412530633
      ],
      [
        "ryan",
        -9.91803749065544
      ],
      [
        "▁mango",
        -11.968032691273155
      ],
      [
        "aris",
        -13.140331865443233
      ],
      [
        "▁dog",
        -7.640505127272489
      ],
      [
        "▁duster",
        -12.363171464203585
      ],
      [
        "▁ji",
        -12.359967820454228
      ],
      [
        "▁gymnas",
        -12.772178366956219
      ],
      [
        "hog",
        -13.729270817355184
      ],
      [
        "▁entrench",
        -11.937862510110488
      ],
      [
        "▁u.",
        -11.12884631915573
      ],
      [
        "4",
        -7.806431209066835
      ],
      [
        "▁.......",
        -12.942341377205102
      ],
      [
        "▁seamstress",
        -12.27102511851845
      ],
      [
        "▁relativis",
        -11.363412231835508
      ],
      [
        "▁pier",
        -10.544007679223432
      ],
      [
        "▁swirl",
        -11.48769444212164
      ],
      [
        "▁trini",
        -11.832612072120137
      ],
      [
        "▁sprinkl",
        -12.27106064486875
      ],
      [
        "▁dinner",
        -8.128212543324667
      ],
      [
        "▁syrup",
        -10.842057327631808
      ],
      [
        "lled",
        -12.399659886897119
      ],
      [
        "▁kan",
        -10.61296631879014
      ],
      [
        "▁eric",
        -11.187144671116991
      ],
      [
        "▁small",
        -7.449204461528797
      ],
      [
        "▁andaman",
        -9.995069489209708
      ],
      [
        "▁admitt",
        -13.231840267462893
      ],
      [
        "▁rep",
        -10.148949753296769
      ],
      [
        "▁pett",
        -12.465529876378087
      ],
      [
        "ima",
        -12.423827845441581
      ],
      [
        "▁tomm",
        -10.890393133082549
      ],
      [
        "▁chic",
        -8.19724647946007
      ],
      [
        "▁crouche",
        -11.938801397004069
      ],
      [
        "akan",
        -12.241331569319104
      ],
      [
        "▁dinosaur",
        -8.869676176337919
      ],
      [
        "th",
        -7.353972408991394
      ],
      [
        "▁attribute",
        -10.514556991192649
      ],
      [
        "▁weak",
        -10.217063647476271
      ],
      [
        "▁importan",
        -10.343523196076234
      ],
      [
        "▁wash",
        -8.791874007591318
      ],
      [
        "▁vice",
        -9.725347587378076
      ],
      [
        "een",
        -10.134809323558137
      ],
      [
        "▁guadeloupe",
        -10.751147574288767
      ],
      [
        "171",
        -13.819819207365457
      ],
      [
        "▁888",
        -15.102084738941228
      ],
      [
        "▁connections",
        -10.828112249964592
      ],
      [
        "▁stead",
        -11.922919359473937
      ],
      [
        "▁please",
        -6.530199793389457
      ],
      [
        "▁burp",
        -11.69104854031632
      ],
      [
        "ibbon",
        -12.770998414699884
      ],
      [
        "▁runflat",
        -12.771024959436387
      ],
      [
        "▁stretch",
        -9.443871858174088
      ],
      [
        "civet",
        -11.180804659519637
      ],
      [
        "▁+45",
        -12.642880847425277
      ],
      [
        "▁self-",
        -10.518790069712749
      ],
      [
        "▁impose",
        -11.262945422730905
      ],
      [
        "▁mauri",
        -12.915880373413124
      ],
      [
        "tenance",
        -10.84292160146014
      ],
      [
        "▁factotum",
        -12.271025320646848
      ],
      [
        "emp",
        -13.622027445582287
      ],
      [
        "cott",
        -12.028115483768604
      ],
      [
        "▁inhal",
        -11.533437083336555
      ],
      [
        "▁brick",
        -10.592190314645514
      ],
      [
        "llah",
        -10.727723554335093
      ],
      [
        "▁translat",
        -11.113921475386743
      ],
      [
        "170",
        -14.674369146106468
      ],
      [
        "▁impo",
        -13.71574347294216
      ],
      [
        "shop",
        -11.057537798189799
      ],
      [
        "▁sagin",
        -12.773886429014267
      ],
      [
        "ailin",
        -11.488741686447053
      ],
      [
        "▁smack",
        -11.178172372929795
      ],
      [
        "▁indige",
        -11.321711866420808
      ],
      [
        "felines.",
        -12.771027634627501
      ],
      [
        "▁alpha",
        -12.783090127496404
      ],
      [
        "▁distinction",
        -10.519614937282334
      ],
      [
        "▁straighten",
        -11.703328143388351
      ],
      [
        "oda",
        -13.178690811145522
      ],
      [
        "▁social",
        -8.303978583839312
      ],
      [
        "▁ne",
        -9.752435587208844
      ],
      [
        "▁evacuate",
        -10.988065785980794
      ],
      [
        "eiji",
        -13.257142350095522
      ],
      [
        "ance",
        -7.981951880339642
      ],
      [
        "▁rattl",
        -11.720341688128723
      ],
      [
        "▁wel",
        -10.452125002941226
      ],
      [
        "▁woods",
        -11.15621949689127
      ],
      [
        "▁chef",
        -10.591500768673246
      ],
      [
        "▁acqui",
        -13.715209706009743
      ],
      [
        "lugu",
        -12.77192750554875
      ],
      [
        "▁reuse",
        -13.655268365805771
      ],
      [
        "▁on",
        -6.888680401716107
      ],
      [
        "▁inste",
        -13.71423664659792
      ],
      [
        "▁gentlem",
        -11.292054282163473
      ],
      [
        "▁pot",
        -10.198510705836648
      ],
      [
        "▁virgi",
        -10.39074555195985
      ],
      [
        "▁cascade",
        -12.28380569875234
      ],
      [
        "10",
        -9.765559445705975
      ],
      [
        "▁exercise",
        -9.608853159435835
      ],
      [
        "▁carpent",
        -11.93867222378724
      ],
      [
        "▁petunia",
        -10.519462751098155
      ],
      [
        "smut",
        -12.271594386469797
      ],
      [
        "▁funnel",
        -10.752251250615537
      ],
      [
        "▁consist",
        -10.45230822261459
      ],
      [
        "▁al",
        -9.59365962293792
      ],
      [
        "▁1",
        -11.807037596623159
      ],
      [
        "▁hoo",
        -10.543572762489786
      ],
      [
        "▁meir",
        -11.178680290669146
      ],
      [
        "▁flopp",
        -11.945743611656725
      ],
      [
        "▁1930",
        -12.271024944226012
      ],
      [
        "4.7",
        -12.15067148440598
      ],
      [
        "jj",
        -10.752411902458382
      ],
      [
        "▁citi",
        -9.210682858273511
      ],
      [
        "ters",
        -12.836988302490498
      ],
      [
        "▁bore",
        -12.18356490969834
      ],
      [
        "ect",
        -11.733665998967979
      ],
      [
        "pulse",
        -12.27049709718004
      ],
      [
        "▁...............",
        -13.349509917108678
      ],
      [
        "▁spur",
        -11.9338980512381
      ],
      [
        "ca",
        -8.252335262780884
      ],
      [
        "▁8:3",
        -12.739873861330425
      ],
      [
        "die",
        -10.223377604815687
      ],
      [
        "▁exe",
        -12.055889767457835
      ],
      [
        "▁hijacker",
        -11.937691585850054
      ],
      [
        "▁liar",
        -12.273685196279214
      ],
      [
        "▁p&",
        -11.178956958948065
      ],
      [
        "tutorial",
        -13.731019084191974
      ],
      [
        "▁creative",
        -9.293847552582928
      ],
      [
        "▁persecut",
        -11.687692341018618
      ],
      [
        "▁plead",
        -11.730548742755412
      ],
      [
        "▁dynamic",
        -10.390371108991783
      ],
      [
        "▁eliminat",
        -11.932702549833127
      ],
      [
        "▁esp",
        -12.280478828913344
      ],
      [
        "▁wide-",
        -12.815083425741484
      ],
      [
        "▁bann",
        -11.531968307856317
      ],
      [
        "atomic",
        -11.487299963298092
      ],
      [
        "▁virtuo",
        -11.492259720409097
      ],
      [
        "▁ac",
        -10.260361104346092
      ],
      [
        "▁boost",
        -10.53193615735358
      ],
      [
        "sh",
        -11.580471676368933
      ],
      [
        "▁perpetua",
        -11.931245795608941
      ],
      [
        "▁abbe",
        -11.950384898683291
      ],
      [
        "▁equator",
        -12.77106675541644
      ],
      [
        "-supplies/",
        -12.771304635267972
      ],
      [
        "ginn",
        -11.51677083872962
      ],
      [
        "▁penalise",
        -12.271826307955061
      ],
      [
        "▁blindfold",
        -12.771040001705847
      ],
      [
        "▁popul",
        -11.769231935247674
      ],
      [
        "ours",
        -12.332390364283658
      ],
      [
        "▁ph.",
        -11.691685919022337
      ],
      [
        "▁persia",
        -12.267615975585281
      ],
      [
        "▁interrogate",
        -12.850734802311516
      ],
      [
        "▁jiu",
        -12.272011733271874
      ],
      [
        "▁settle",
        -9.74106380241893
      ],
      [
        "▁greete",
        -11.183641196559913
      ],
      [
        "▁counsel",
        -10.452221334475347
      ],
      [
        "tcliff",
        -12.621707944632726
      ],
      [
        "▁po",
        -11.008071481084977
      ],
      [
        "▁norwegian",
        -11.487691585507442
      ],
      [
        "our",
        -11.818521937071932
      ],
      [
        "▁broom",
        -10.676654993324274
      ],
      [
        "▁advancement",
        -11.695014623024251
      ],
      [
        "▁gree",
        -10.899000227903045
      ],
      [
        "▁b",
        -10.16720176095756
      ],
      [
        "▁respond",
        -9.354241005924587
      ],
      [
        "▁scream",
        -10.173363934915292
      ],
      [
        "ears",
        -12.869268962352649
      ],
      [
        "▁spann",
        -11.959926764603175
      ],
      [
        "lincoln",
        -12.771030456785725
      ],
      [
        "militar",
        -12.726816833096517
      ],
      [
        "▁stig",
        -13.412035053462585
      ],
      [
        "▁lu",
        -9.840953056148255
      ],
      [
        "▁pal",
        -11.011786454927975
      ],
      [
        "21st",
        -11.17887821315822
      ],
      [
        "▁scrambl",
        -11.91790478046913
      ],
      [
        "▁mistress",
        -12.271052200166322
      ],
      [
        "beginners",
        -13.348354759798893
      ],
      [
        "▁silver",
        -9.516899630728059
      ],
      [
        "killed",
        -9.826705243293603
      ],
      [
        "▁mia",
        -11.835498122457036
      ],
      [
        "name",
        -10.581545766077532
      ],
      [
        "▁sta",
        -12.247379962559881
      ],
      [
        "pression",
        -11.371496488120634
      ],
      [
        "▁600",
        -11.992235792398532
      ],
      [
        "▁centralize",
        -12.302149794660517
      ],
      [
        "6:5",
        -14.245778065733244
      ],
      [
        "▁old",
        -7.3385351628289825
      ],
      [
        "▁inevitabl",
        -10.519462844923941
      ],
      [
        "▁punishment",
        -11.053411273176987
      ],
      [
        "▁adult",
        -9.142057309654328
      ],
      [
        "▁excess",
        -10.529931608227685
      ],
      [
        "-20",
        -14.062585561929335
      ],
      [
        "▁reput",
        -12.33378747942354
      ],
      [
        "▁281-518-",
        -13.136774397976367
      ],
      [
        "▁blade",
        -11.488350362677444
      ],
      [
        "sett",
        -11.42564189308769
      ],
      [
        "rent",
        -11.478215618129267
      ],
      [
        "▁useful",
        -9.752026017065837
      ],
      [
        "▁11.",
        -12.246845594090738
      ],
      [
        "▁advis",
        -12.972402463995957
      ],
      [
        "▁reward",
        -10.331783769733233
      ],
      [
        "▁officer",
        -9.638921675089435
      ],
      [
        "▁expans",
        -13.080068865319422
      ],
      [
        "izzi",
        -13.52107583738385
      ],
      [
        "▁runn",
        -8.81138605063844
      ],
      [
        "▁thieve",
        -11.95416551547091
      ],
      [
        "▁mingle",
        -12.340157107574962
      ],
      [
        "ander",
        -13.438109718162139
      ],
      [
        "▁del",
        -11.060910416404479
      ],
      [
        "▁axe",
        -12.8111912871486
      ],
      [
        "to",
        -11.282468141848708
      ],
      [
        "▁bourg",
        -11.735268301926968
      ],
      [
        "▁157",
        -12.084632893631422
      ],
      [
        "▁take",
        -6.237107942179385
      ],
      [
        "define",
        -13.138963469517954
      ],
      [
        "▁>",
        -9.25200696802715
      ],
      [
        "▁hutt",
        -12.202238324123982
      ],
      [
        "kush",
        -12.82333471350725
      ],
      [
        "▁bou",
        -12.825487659162427
      ],
      [
        "▁untie",
        -11.69302792478429
      ],
      [
        "▁flush",
        -11.939607688886436
      ],
      [
        "itarian",
        -12.771986346556803
      ],
      [
        "▁occupie",
        -11.053167878099458
      ],
      [
        "mund",
        -12.072988250408624
      ],
      [
        "pent",
        -13.154279074643012
      ],
      [
        "▁equivalen",
        -10.843764056402613
      ],
      [
        "▁marlen",
        -11.94404520298692
      ],
      [
        "▁station",
        -8.679756692121972
      ],
      [
        "▁bath+",
        -11.321197178704669
      ],
      [
        "▁crucial",
        -10.173843572658448
      ],
      [
        "▁swimm",
        -9.956001763936548
      ],
      [
        "▁foods",
        -10.35743818037427
      ],
      [
        "▁transmitt",
        -11.109865003789148
      ],
      [
        "▁joll",
        -11.996350198972939
      ],
      [
        "▁3",
        -10.562554746008258
      ],
      [
        "▁345-",
        -11.796213981224737
      ],
      [
        "gorge",
        -11.489012651987958
      ],
      [
        "shield",
        -12.22773833502689
      ],
      [
        "▁detector",
        -11.93971892322572
      ],
      [
        "...",
        -9.005493748066167
      ],
      [
        "▁hahaha",
        -12.771246649944718
      ],
      [
        "▁calc",
        -12.777416320045269
      ],
      [
        "▁lit",
        -10.735389868393513
      ],
      [
        "ere",
        -12.161093486031731
      ],
      [
        "iary",
        -12.399441234980847
      ],
      [
        "issu",
        -12.797155964838314
      ],
      [
        "apologetic",
        -13.724013038992382
      ],
      [
        "jai",
        -12.644142752952908
      ],
      [
        "▁starr",
        -11.531963036077855
      ],
      [
        "▁pre-fab",
        -12.771025033914853
      ],
      [
        "▁bubble",
        -9.879614711968017
      ],
      [
        "▁hon",
        -13.565894145380948
      ],
      [
        "▁uh",
        -7.2775824444014905
      ],
      [
        "▁483",
        -12.866366678941011
      ],
      [
        "!!!!!!!",
        -11.378490256407192
      ],
      [
        "▁souvenir",
        -12.771024945763486
      ],
      [
        "dan",
        -11.181267619385988
      ],
      [
        "▁colomb",
        -11.321084856369326
      ],
      [
        "▁til",
        -12.301726577056355
      ],
      [
        "thograph",
        -12.798782618940262
      ],
      [
        "▁joine",
        -11.792631769972544
      ],
      [
        "ip",
        -12.178015072371542
      ],
      [
        "▁clump",
        -11.938820070926965
      ],
      [
        "▁ric",
        -11.284776822761907
      ],
      [
        "▁energy",
        -8.436206229233992
      ],
      [
        "▁stu",
        -11.31759457752012
      ],
      [
        "/21/200",
        -13.001555604525423
      ],
      [
        "▁collaps",
        -12.318761472555089
      ],
      [
        "och",
        -12.918959700262555
      ],
      [
        "consi",
        -11.946173494760098
      ],
      [
        "▁wil",
        -12.654613728656043
      ],
      [
        "▁hub",
        -11.366333878990952
      ],
      [
        "8/01",
        -14.138566737487656
      ],
      [
        "▁adopt",
        -9.159658775389747
      ],
      [
        "▁valid",
        -10.275033958472543
      ],
      [
        "▁hike",
        -11.739690896863879
      ],
      [
        "▁jia",
        -13.154101649821428
      ],
      [
        "▁blood",
        -9.19516757105282
      ],
      [
        "▁x3",
        -12.110870370394355
      ],
      [
        "arling",
        -12.91275585039828
      ],
      [
        "121",
        -13.863877334317046
      ],
      [
        "baath",
        -12.729367039909544
      ],
      [
        "▁kine",
        -12.57681968486899
      ],
      [
        "▁cancel",
        -10.510747732023765
      ],
      [
        "▁4.",
        -11.34728232688808
      ],
      [
        "▁perve",
        -11.716235691192754
      ],
      [
        "▁glisten",
        -11.93769220996791
      ],
      [
        "ase",
        -10.78973269745037
      ],
      [
        "credit",
        -13.733778905977788
      ],
      [
        "irr",
        -12.829351814011266
      ],
      [
        "▁6/1",
        -13.680375511970919
      ],
      [
        "▁active",
        -9.550458635502546
      ],
      [
        "▁comfort",
        -10.52427729978768
      ],
      [
        "!!!!!!!!!!!!!",
        -12.30698754839941
      ],
      [
        "▁bathroom",
        -9.233058033756842
      ],
      [
        "▁consultant",
        -12.27290581291799
      ],
      [
        "3",
        -9.772266817123713
      ],
      [
        "▁spence",
        -11.712372643450642
      ],
      [
        "▁reciproc",
        -11.937691585514388
      ],
      [
        "▁desperat",
        -12.85468903692011
      ],
      [
        "▁sj",
        -11.079100537701738
      ],
      [
        "▁bernard",
        -10.942070835545112
      ],
      [
        "▁booz",
        -12.278133964029148
      ],
      [
        "broad",
        -10.413503207281135
      ],
      [
        "▁cur",
        -11.638933819015957
      ],
      [
        "▁416-865-370",
        -12.667278132134355
      ],
      [
        "▁soak",
        -10.936603298325002
      ],
      [
        "▁insecur",
        -11.951475863606063
      ],
      [
        "▁crushe",
        -12.54582554189362
      ],
      [
        "▁india",
        -8.531676135239588
      ],
      [
        "▁tor",
        -8.137728991097376
      ],
      [
        "ile",
        -11.870530406756517
      ],
      [
        "▁transact",
        -12.77018866870162
      ],
      [
        "wart",
        -10.317850694067541
      ],
      [
        "▁passion",
        -10.279719718984444
      ],
      [
        "structure",
        -13.721703988003894
      ],
      [
        "got",
        -12.9597684416641
      ],
      [
        "▁chamber",
        -10.751188912505913
      ],
      [
        "▁budd",
        -10.446999528718639
      ],
      [
        "▁dualit",
        -12.859535528047287
      ],
      [
        "oming",
        -11.768811367263895
      ],
      [
        "to",
        -10.339334777003861
      ],
      [
        "▁prophet",
        -10.945837062531197
      ],
      [
        "▁disadvantage",
        -12.27102492484887
      ],
      [
        "▁pa",
        -9.68578111468014
      ],
      [
        "▁advert",
        -10.520561557170847
      ],
      [
        "programmes",
        -13.45468183806747
      ],
      [
        "▁redden",
        -12.808196924185339
      ],
      [
        "▁presume",
        -11.688145187853435
      ],
      [
        "▁.32",
        -14.792785263810408
      ],
      [
        "▁pheno",
        -12.24893491085319
      ],
      [
        "▁supplie",
        -10.340582007694014
      ],
      [
        "▁cosm",
        -11.695979404121212
      ],
      [
        "▁kansa",
        -8.510107757168509
      ],
      [
        "▁capr",
        -13.235954990637296
      ],
      [
        "▁domin",
        -12.548617372418356
      ],
      [
        "wig",
        -10.8958632392089
      ],
      [
        "scape",
        -11.938412213761755
      ],
      [
        "ksm",
        -11.205878351249234
      ],
      [
        "▁guine",
        -10.670042433102445
      ],
      [
        "mike",
        -8.856429272855694
      ],
      [
        "fluent",
        -11.438655837047975
      ],
      [
        "▁fortie",
        -10.820886765515176
      ],
      [
        "▁nanc",
        -10.881533727840322
      ],
      [
        "iri",
        -12.27631351564777
      ],
      [
        "▁08:0",
        -12.552782992181449
      ],
      [
        "inburg",
        -12.271513559844642
      ],
      [
        "▁bil",
        -11.503810032817338
      ],
      [
        "▁hurt",
        -8.318463872677631
      ],
      [
        "▁swim",
        -10.17222132302193
      ],
      [
        "tyler",
        -11.051153778674085
      ],
      [
        "▁contingent",
        -12.272274126403218
      ],
      [
        "enos",
        -11.181490156242058
      ],
      [
        "aire",
        -11.527976900470591
      ],
      [
        "77",
        -12.614120500178377
      ],
      [
        "▁moto",
        -12.7752986292666
      ],
      [
        "▁kent",
        -9.922484047122593
      ],
      [
        "▁tempt",
        -13.672809803034834
      ],
      [
        "kee",
        -8.004581105559133
      ],
      [
        "coming",
        -10.78428875000018
      ],
      [
        "lender",
        -12.413601976425161
      ],
      [
        "▁fal",
        -12.161057113031559
      ],
      [
        "▁dissatisf",
        -11.321045863615812
      ],
      [
        "hundred",
        -12.469625072036138
      ],
      [
        "▁abundan",
        -11.682791042857508
      ],
      [
        "▁government",
        -7.779980431184556
      ],
      [
        "gur",
        -11.979366142874603
      ],
      [
        "cited",
        -11.9910264994968
      ],
      [
        "▁arrangement",
        -9.917174660111236
      ],
      [
        "▁kn",
        -12.404742774922447
      ],
      [
        "▁repair",
        -9.142569246119862
      ],
      [
        "ta",
        -13.295403756520322
      ],
      [
        "▁flew",
        -10.667988761910237
      ],
      [
        "2-20",
        -13.143407717162013
      ],
      [
        "▁lavish",
        -12.271028805692753
      ],
      [
        "▁an",
        -6.4124937552070085
      ],
      [
        "▁pea",
        -11.136137467423406
      ],
      [
        "view",
        -10.711960720293195
      ],
      [
        "▁characteristic",
        -10.753269987225362
      ],
      [
        "pm",
        -10.910803217760098
      ],
      [
        "cc",
        -11.563268951894766
      ],
      [
        "winds",
        -11.651785058686649
      ],
      [
        "▁whisper",
        -10.842059240047954
      ],
      [
        "▁supplier",
        -11.493178500807241
      ],
      [
        "▁slipper",
        -10.598444988833762
      ],
      [
        "▁yum",
        -11.95642185555182
      ],
      [
        "▁stunt",
        -12.288104816528445
      ],
      [
        "5-",
        -13.511921763867814
      ],
      [
        "▁curricul",
        -12.23541971851069
      ],
      [
        "se",
        -10.759396785796183
      ],
      [
        "▁zac",
        -11.02143769728193
      ],
      [
        "map",
        -12.25731546538694
      ],
      [
        "▁producer",
        -10.046877767173548
      ],
      [
        "▁assassinate",
        -11.32492457341762
      ],
      [
        "▁antig",
        -12.601429633032607
      ],
      [
        "▁follow",
        -8.130827517318195
      ],
      [
        "eta",
        -9.564740455031949
      ],
      [
        "ibble",
        -12.971995059150897
      ],
      [
        "▁central",
        -9.124706542098671
      ],
      [
        "naire",
        -12.940305238354611
      ],
      [
        "▁locat",
        -11.89298025957086
      ],
      [
        "zeng",
        -12.424161168570564
      ],
      [
        "▁risk",
        -8.832129357431555
      ],
      [
        "▁rename",
        -11.945877283387489
      ],
      [
        "▁carne",
        -10.902487916648898
      ],
      [
        "2",
        -10.538819210034388
      ],
      [
        "▁evans",
        -10.998597790038184
      ],
      [
        "▁identifie",
        -9.776044122463443
      ],
      [
        "▁brain",
        -9.306787388137078
      ],
      [
        "▁weblog",
        -12.27141651074736
      ],
      [
        "▁persu",
        -12.776901014362448
      ],
      [
        "weather",
        -12.733550171201903
      ],
      [
        "bond",
        -11.026732676225684
      ],
      [
        "kept",
        -8.681752012304464
      ],
      [
        "▁750",
        -12.229681738664153
      ],
      [
        "▁510-642-",
        -13.136770579314764
      ],
      [
        "atta",
        -12.241038137187177
      ],
      [
        "▁guth",
        -12.30225042578925
      ],
      [
        "▁shre",
        -11.931390794731872
      ],
      [
        "▁declar",
        -10.889279765342447
      ],
      [
        "▁russ",
        -13.377653755505312
      ],
      [
        "▁hairstyl",
        -12.582177189948709
      ],
      [
        "twenty",
        -11.271913807343168
      ],
      [
        "zola",
        -11.943174181344117
      ],
      [
        "-",
        -4.2914603317907005
      ],
      [
        "▁clark",
        -11.491385380126822
      ],
      [
        "▁reconstruct",
        -11.876776644459401
      ],
      [
        "scale",
        -11.905341699143776
      ],
      [
        "▁flie",
        -9.786389637578026
      ],
      [
        "location",
        -11.55925886484914
      ],
      [
        "▁bram",
        -13.583274477295488
      ],
      [
        "▁manufacture",
        -11.456300009737031
      ],
      [
        "freeze",
        -12.231930919296405
      ],
      [
        "▁frogg",
        -12.259515300570554
      ],
      [
        "▁bon",
        -11.541878356723414
      ],
      [
        "▁corpora",
        -12.267629013503564
      ],
      [
        "▁defi",
        -11.65639533774973
      ],
      [
        "▁facult",
        -10.27591835650351
      ],
      [
        "▁striking",
        -10.942056793726847
      ],
      [
        "▁fuss",
        -11.059114982851101
      ],
      [
        "imag",
        -13.689705557446539
      ],
      [
        "viabl",
        -13.65000831048324
      ],
      [
        "▁ridiculous",
        -10.84212537875476
      ],
      [
        "▁queen",
        -10.862078708911413
      ],
      [
        "▁libr",
        -11.065305813259158
      ],
      [
        "▁minus",
        -12.276856854849894
      ],
      [
        "▁insur",
        -9.668436115628175
      ],
      [
        "▁re-elect",
        -11.706345143749177
      ],
      [
        "▁contribution",
        -9.609763487113302
      ],
      [
        "▁ab",
        -11.009315530810373
      ],
      [
        "anish",
        -13.685983796282315
      ],
      [
        "▁feather",
        -9.776197841816732
      ],
      [
        "▁glen",
        -11.48027665278649
      ],
      [
        "mec",
        -10.57763543975337
      ],
      [
        "off",
        -10.177103808200409
      ],
      [
        "▁exploit",
        -10.842056875324733
      ],
      [
        "▁hut",
        -11.031820940061476
      ],
      [
        "▁conflate",
        -13.026076532243728
      ],
      [
        "▁ambassador",
        -11.321024918841626
      ],
      [
        "▁ascetic",
        -11.687714356342942
      ],
      [
        "▁chateau",
        -12.27138747652835
      ],
      [
        "▁launcher",
        -11.729705831522026
      ],
      [
        "▁literal",
        -10.220681000192126
      ],
      [
        "▁taunt",
        -11.938198023609866
      ],
      [
        "▁late",
        -7.841079872615565
      ],
      [
        "l.",
        -12.54114272108977
      ],
      [
        "▁uppercas",
        -12.782496917401872
      ],
      [
        "▁bonus",
        -11.322559543985987
      ],
      [
        "▁cultural",
        -8.940167763278254
      ],
      [
        "ry@enron",
        -11.848195031338767
      ],
      [
        "▁dilut",
        -13.434264262019848
      ],
      [
        "▁permissi",
        -12.63400475673771
      ],
      [
        "▁multiplie",
        -12.771037929163425
      ],
      [
        "▁marketplace",
        -12.274455743224923
      ],
      [
        "▁enforce",
        -11.385304122398612
      ],
      [
        "▁fashion",
        -10.128481744243299
      ],
      [
        "▁decei",
        -12.793743511515107
      ],
      [
        "-size",
        -12.628541845438626
      ],
      [
        "▁overall",
        -9.142117926059184
      ],
      [
        "▁bloody",
        -10.846417317462613
      ],
      [
        "620",
        -14.246999949014942
      ],
      [
        "exhausti",
        -12.224414438093401
      ],
      [
        "▁disposa",
        -13.41692882230911
      ],
      [
        "▁51",
        -12.853110873290898
      ],
      [
        "▁fab",
        -12.751020966142542
      ],
      [
        "650",
        -14.807816924349003
      ],
      [
        "thirty",
        -12.183877326748673
      ],
      [
        "▁child",
        -8.346402045167022
      ],
      [
        "▁indiana",
        -8.381465214687736
      ],
      [
        "▁gimm",
        -12.77115463328076
      ],
      [
        "▁o'c",
        -8.37285993363732
      ],
      [
        "▁quadr",
        -12.835092152450127
      ],
      [
        "ا",
        -12.833785825398444
      ],
      [
        "clock",
        -11.727864825242133
      ],
      [
        "▁tant",
        -11.515397395232997
      ],
      [
        "▁barb",
        -11.122910597253032
      ],
      [
        "▁influ",
        -11.938938453649344
      ],
      [
        "hear",
        -12.140187242508556
      ],
      [
        "▁froth",
        -12.77505563906902
      ],
      [
        "▁greeting",
        -10.33609113564849
      ],
      [
        "f-",
        -11.064041680389467
      ],
      [
        "ile",
        -12.729286221543994
      ],
      [
        "▁enterprise",
        -10.842927906126402
      ],
      [
        "▁strip",
        -10.642690877825794
      ],
      [
        "922",
        -12.522603151732726
      ],
      [
        "▁philip",
        -11.325978413441156
      ],
      [
        "ugge",
        -12.770680740753868
      ],
      [
        "▁lord",
        -10.131717748259728
      ],
      [
        "▁pool",
        -9.758339218205256
      ],
      [
        "▁turn",
        -7.44566673299254
      ],
      [
        "▁apples",
        -11.064731109965845
      ],
      [
        "▁gravit",
        -11.075176199333315
      ],
      [
        "▁sadr",
        -11.340690580602963
      ],
      [
        "dish",
        -11.296225397469717
      ],
      [
        "ell",
        -11.871927484342326
      ],
      [
        "members",
        -12.746378175484114
      ],
      [
        "▁trunk",
        -10.519472150008944
      ],
      [
        "▁die",
        -8.057179910759185
      ],
      [
        "cha",
        -12.098391471455832
      ],
      [
        "▁intellectual",
        -10.223285778690714
      ],
      [
        "rado",
        -11.349301113651752
      ],
      [
        "▁03:4",
        -12.536190960354327
      ],
      [
        "▁twenty-f",
        -12.946639624578596
      ],
      [
        "▁abo",
        -12.294097976718358
      ],
      [
        "enron@e",
        -12.771024640767054
      ],
      [
        "emma",
        -10.548182546709164
      ],
      [
        "nce",
        -11.447446105333947
      ],
      [
        "they",
        -8.51994232805994
      ],
      [
        "▁intertext",
        -12.272339757748995
      ],
      [
        "▁goggl",
        -13.257673568715612
      ],
      [
        "▁mw",
        -9.584486875786913
      ],
      [
        "▁corner",
        -9.264345518022349
      ],
      [
        "▁nagg",
        -12.779763694954152
      ],
      [
        "trivan",
        -13.557583731002609
      ],
      [
        "▁formation",
        -12.02588648407334
      ],
      [
        "▁strapp",
        -12.79969142920488
      ],
      [
        "▁we",
        -11.031951154787404
      ],
      [
        "▁tummy",
        -9.776143651579552
      ],
      [
        "▁international",
        -8.037630768109947
      ],
      [
        "▁carry",
        -8.74786032819355
      ],
      [
        "▁advocate",
        -11.48769158599841
      ],
      [
        "▁estimate",
        -9.119225003796716
      ],
      [
        "▁copper",
        -11.937725654892104
      ],
      [
        "umara",
        -12.772598799948256
      ],
      [
        "▁domino",
        -11.689044416609697
      ],
      [
        "▁carni",
        -10.592506058465757
      ],
      [
        "▁business",
        -7.779955117239607
      ],
      [
        "▁plant",
        -8.526813124392387
      ],
      [
        "▁mixture",
        -10.519572626652506
      ],
      [
        "▁stephen",
        -11.053391365538914
      ],
      [
        "hiv",
        -12.719754316731974
      ],
      [
        "▁evacuat",
        -13.228218055949583
      ],
      [
        "▁gua",
        -10.252766285723043
      ],
      [
        "▁align",
        -11.940229277270793
      ],
      [
        "▁up",
        -6.475747422416015
      ],
      [
        "▁petri",
        -12.32955859309803
      ],
      [
        "▁terribl",
        -9.254060597216991
      ],
      [
        "▁strong",
        -8.200403239249017
      ],
      [
        "3",
        -10.44227413796558
      ],
      [
        "▁po",
        -9.973674005390842
      ],
      [
        "345-",
        -13.370892840682906
      ],
      [
        "citation",
        -13.529572609913577
      ],
      [
        "▁baron",
        -12.335433246114581
      ],
      [
        "▁50,",
        -14.133980551149136
      ],
      [
        "▁177",
        -10.99413094039157
      ],
      [
        "▁pel",
        -12.774833086456404
      ],
      [
        "▁[",
        -8.84560095193122
      ],
      [
        "oursel",
        -11.26406108510363
      ],
      [
        "029",
        -14.571113188046223
      ],
      [
        "▁that",
        -9.043178361988634
      ],
      [
        "ol",
        -10.023625215197768
      ],
      [
        "▁reposit",
        -13.612032184519245
      ],
      [
        "▁brag",
        -13.646567595789717
      ],
      [
        "▁marking",
        -12.028236256129022
      ],
      [
        "up",
        -9.084873353512815
      ],
      [
        "▁industrialist",
        -11.939431589794607
      ],
      [
        "ever",
        -7.490676714588052
      ],
      [
        "▁theolog",
        -12.959149606198402
      ],
      [
        "▁hospital",
        -9.124766813551542
      ],
      [
        "▁molecul",
        -11.20084787929737
      ],
      [
        "▁hoove",
        -12.651481246324366
      ],
      [
        "▁flipp",
        -11.700614831769833
      ],
      [
        "poly",
        -11.631933393073142
      ],
      [
        "▁abbreviation",
        -11.053167776861596
      ],
      [
        "id=",
        -11.639671824674236
      ],
      [
        "▁attribut",
        -11.95759795433451
      ],
      [
        "▁.2",
        -12.818583968968841
      ],
      [
        "▁paddistocksh",
        -11.93769167101775
      ],
      [
        "ha",
        -9.601993731172117
      ],
      [
        "process",
        -12.232932216596499
      ],
      [
        "▁weekend",
        -9.011915090337943
      ],
      [
        "▁iot",
        -11.938722194848221
      ],
      [
        "▁asyl",
        -10.458381563352386
      ],
      [
        "essie",
        -11.04380442293721
      ],
      [
        "▁redeem",
        -11.48786969077437
      ],
      [
        "▁aphid",
        -12.771052441425233
      ],
      [
        "-form",
        -11.689601032521098
      ],
      [
        "▁chatt",
        -11.019744184084697
      ],
      [
        "russel",
        -11.356913009730754
      ],
      [
        "mona",
        -13.598854212644572
      ],
      [
        "▁marginal",
        -12.279032519907698
      ],
      [
        "ida",
        -10.104367638237713
      ],
      [
        "▁somethin",
        -7.378481269236485
      ],
      [
        "▁invasi",
        -10.942095951731849
      ],
      [
        "▁grum",
        -12.773583420397559
      ],
      [
        "▁speck",
        -11.693007239374024
      ],
      [
        "▁gentil",
        -12.771603458931706
      ],
      [
        "kinaw",
        -10.23547974738146
      ],
      [
        "19",
        -10.456865167975522
      ],
      [
        "▁indulge",
        -12.024517770520548
      ],
      [
        "▁sent",
        -8.4663570374647
      ],
      [
        "▁ottle",
        -12.772475151891646
      ],
      [
        "▁appointment",
        -9.712551705773633
      ],
      [
        "▁gum",
        -10.656267834892171
      ],
      [
        "▁sigh",
        -10.937067965604363
      ],
      [
        "▁spontaneous",
        -12.271251722246493
      ],
      [
        "clusion",
        -13.479792938709988
      ],
      [
        "▁boast",
        -11.180389409068788
      ],
      [
        "tangi",
        -13.725705961781147
      ],
      [
        "ture",
        -10.116525441997368
      ],
      [
        "one",
        -10.618925815360097
      ],
      [
        "iling",
        -10.634783939744768
      ],
      [
        "yaho",
        -12.277508037202423
      ],
      [
        "had",
        -12.799048928546274
      ],
      [
        "ch",
        -8.197892680772354
      ],
      [
        "▁offer",
        -8.167962577761394
      ],
      [
        "▁helicopter",
        -10.390295925599684
      ],
      [
        "▁heap",
        -11.938964969262262
      ],
      [
        "▁socio-",
        -12.771296892976373
      ],
      [
        "▁universidad",
        -11.937694863800035
      ],
      [
        "▁hop",
        -11.83466611609779
      ],
      [
        "kel",
        -11.675713460633206
      ],
      [
        "▁impe",
        -11.696844745527159
      ],
      [
        "▁limb",
        -10.279254871447757
      ],
      [
        "call",
        -12.89765881635029
      ],
      [
        "huff",
        -12.86607409176559
      ],
      [
        "▁correlat",
        -11.321039450276961
      ],
      [
        "▁pay",
        -8.083696239427066
      ],
      [
        "▁imprison",
        -10.667814244305625
      ],
      [
        "argument",
        -11.649547414759255
      ],
      [
        "▁++",
        -13.436075599114549
      ],
      [
        "ll",
        -11.63392656839943
      ],
      [
        "▁100",
        -9.714914411262882
      ],
      [
        "▁brigade",
        -11.690968705393889
      ],
      [
        "▁capitaliz",
        -12.478878507995852
      ],
      [
        "▁relativ",
        -12.597671249284108
      ],
      [
        "kistan",
        -12.82374539699424
      ],
      [
        "▁host",
        -9.491603520472465
      ],
      [
        "▁asp",
        -13.394476970580783
      ],
      [
        "琴",
        -12.833785825435129
      ],
      [
        "10/20",
        -13.973159258028971
      ],
      [
        "▁astronom",
        -12.265607756995493
      ],
      [
        "▁dollar",
        -8.186979842646153
      ],
      [
        "▁starter",
        -12.77016571416303
      ],
      [
        "urs",
        -11.334386090581136
      ],
      [
        "▁classmate",
        -12.272993785575025
      ],
      [
        "▁gorse",
        -12.782937503996907
      ],
      [
        "▁arbitrari",
        -12.343547915873714
      ],
      [
        "▁alfa",
        -13.123403739160949
      ],
      [
        "6",
        -10.26599511151797
      ],
      [
        "333",
        -14.345008994232288
      ],
      [
        "▁fo",
        -12.838710837665342
      ],
      [
        "▁gener",
        -10.459652214110182
      ],
      [
        "canada",
        -9.076212878743947
      ],
      [
        "▁1.6",
        -12.34208568727186
      ],
      [
        "19-2",
        -14.135609393524858
      ],
      [
        "cile",
        -12.089836697053984
      ],
      [
        "▁bond",
        -10.047663536153099
      ],
      [
        "after",
        -11.63697640333626
      ],
      [
        "▁demo",
        -11.111657638048138
      ],
      [
        "▁cul",
        -11.7301598699961
      ],
      [
        "▁cow",
        -9.080757271103298
      ],
      [
        "t&",
        -11.970752693303162
      ],
      [
        "level",
        -12.73842365596187
      ],
      [
        "skitt",
        -13.715990797339833
      ],
      [
        "▁hat",
        -8.497842149105196
      ],
      [
        "3/4",
        -12.323964283376021
      ],
      [
        "▁vladi",
        -11.321024924313683
      ],
      [
        "ology",
        -12.168127090924367
      ],
      [
        "▁bunk",
        -11.49736732466651
      ],
      [
        "▁sealing",
        -12.480149449798143
      ],
      [
        "▁pu",
        -10.986192588383584
      ],
      [
        "▁robotic",
        -11.693997785665397
      ],
      [
        "▁conceptualiz",
        -12.778011405332755
      ],
      [
        "te",
        -10.853311653238517
      ],
      [
        "ced",
        -12.752075754843505
      ],
      [
        "calf",
        -11.529826154473866
      ],
      [
        "▁beneficiar",
        -12.943696140839366
      ],
      [
        "81/",
        -13.487246071593475
      ],
      [
        "rations",
        -12.491177346469147
      ],
      [
        "▁division",
        -9.844638388336918
      ],
      [
        "▁trivia",
        -11.930174224362588
      ],
      [
        "rise",
        -11.919168930655324
      ],
      [
        "▁architectural",
        -11.194742525434389
      ],
      [
        "▁jo",
        -10.076107961138003
      ],
      [
        "▁post",
        -8.30038995195396
      ],
      [
        "▁rope",
        -10.4528410042971
      ],
      [
        "▁tob",
        -11.716843047239971
      ],
      [
        "spaceflight",
        -12.771087665261744
      ],
      [
        "gate",
        -11.347888978168545
      ],
      [
        "▁di",
        -8.187060580328158
      ],
      [
        "inhales",
        -13.281371383635518
      ],
      [
        "comprehend",
        -12.771024923821829
      ],
      [
        "missiv",
        -12.77670025726203
      ],
      [
        "hingy",
        -12.68212429047286
      ],
      [
        "▁unc",
        -13.225864895254716
      ],
      [
        "7&",
        -13.444762322869474
      ],
      [
        "ria",
        -11.73691810135671
      ],
      [
        "fill",
        -11.021985724068747
      ],
      [
        "▁search",
        -9.148471293524906
      ],
      [
        "59",
        -12.012136318615285
      ],
      [
        "▁will",
        -9.24605846161403
      ],
      [
        "▁hege",
        -12.77708821967488
      ],
      [
        "akes",
        -11.576361492430832
      ],
      [
        "▁rang",
        -10.13573466934331
      ],
      [
        "cap",
        -12.933563407044753
      ],
      [
        ".us",
        -13.02517708188723
      ],
      [
        "▁peace",
        -8.64461842137532
      ],
      [
        "▁absent",
        -10.673908665613073
      ],
      [
        "▁you",
        -11.582074324605305
      ],
      [
        "▁offens",
        -11.461760694410172
      ],
      [
        "▁sport",
        -9.357616770458497
      ],
      [
        "ze",
        -11.233394971205229
      ],
      [
        "828-",
        -13.137496001915123
      ],
      [
        "communication",
        -12.733014089148073
      ],
      [
        "351",
        -12.271734169149793
      ],
      [
        "▁underpinn",
        -12.773069328587495
      ],
      [
        "▁burke",
        -12.271923547238162
      ],
      [
        "political",
        -13.730392201363795
      ],
      [
        "ombard",
        -12.770628371620075
      ],
      [
        "▁dock",
        -11.082922227136638
      ],
      [
        "tation",
        -13.413940053262293
      ],
      [
        "ter",
        -9.167958002228128
      ],
      [
        "chan",
        -13.448786881018389
      ],
      [
        "▁signoff",
        -11.178890432837717
      ],
      [
        "ur",
        -10.5066774424536
      ],
      [
        "▁noise",
        -9.093442802863276
      ],
      [
        "776",
        -12.023279956286235
      ],
      [
        "▁pregnan",
        -10.452798367294303
      ],
      [
        "acture",
        -11.957018755348962
      ],
      [
        "▁flock",
        -11.963636841702044
      ],
      [
        "▁accurate",
        -9.845963564515523
      ],
      [
        "7.3",
        -12.70913607973589
      ],
      [
        "▁contributor",
        -12.27556568345537
      ],
      [
        "▁acquitt",
        -12.771069811197
      ],
      [
        "▁pol",
        -11.285661276914093
      ],
      [
        "▁res",
        -13.761319965363796
      ],
      [
        "▁subdu",
        -13.259274601489976
      ],
      [
        "▁loss",
        -9.869672316509153
      ],
      [
        "retta",
        -11.9141864305576
      ],
      [
        "▁24",
        -9.636353922881266
      ],
      [
        "▁masse",
        -11.966305028889161
      ],
      [
        "▁supplement",
        -10.75122471351771
      ],
      [
        "ice",
        -10.671132192785878
      ],
      [
        "▁husk",
        -12.293899956541011
      ],
      [
        "▁favorabl",
        -11.58122076799142
      ],
      [
        "▁hami",
        -13.274922241176482
      ],
      [
        "▁realist",
        -10.399955784896154
      ],
      [
        "▁hyper",
        -11.689127138478597
      ],
      [
        "oise",
        -12.067213743643661
      ],
      [
        "rift",
        -12.766015761658949
      ],
      [
        "▁forum",
        -10.459905129392702
      ],
      [
        "[",
        -12.771024918880496
      ],
      [
        "ura",
        -11.05574696324475
      ],
      [
        "▁galle",
        -12.812421025290538
      ],
      [
        "@i",
        -12.84705275439496
      ],
      [
        "▁massage",
        -11.490318048123994
      ],
      [
        "▁qualit",
        -8.292803398280194
      ],
      [
        "▁scenario",
        -10.3314723961986
      ],
      [
        "▁contractor",
        -11.187331795844182
      ],
      [
        "▁pinpoint",
        -12.77123675587023
      ],
      [
        "chronic",
        -13.042056684528083
      ],
      [
        "▁though",
        -8.493401804165082
      ],
      [
        "▁islamist",
        -10.082448690286071
      ],
      [
        "▁certificate",
        -10.129745803559697
      ],
      [
        "▁fluff",
        -11.05597111804646
      ],
      [
        "al",
        -10.361669615324121
      ],
      [
        "▁enroll",
        -11.688499362570369
      ],
      [
        "ils",
        -11.189769926351836
      ],
      [
        "▁stab",
        -11.70927005667626
      ],
      [
        "▁conspira",
        -11.487691597469109
      ],
      [
        "▁scharf",
        -12.271058264251431
      ],
      [
        "hru",
        -12.827575579354837
      ],
      [
        "▁aroma",
        -11.796631235675799
      ],
      [
        "▁240",
        -13.106045885865703
      ],
      [
        "▁leban",
        -10.753313469376023
      ],
      [
        "sonic.net",
        -11.93775170515766
      ],
      [
        "▁hugg",
        -11.715287093171789
      ],
      [
        "median",
        -11.013249412734034
      ],
      [
        "adequate",
        -11.98711789397736
      ],
      [
        "▁distress",
        -12.27106973503174
      ],
      [
        "▁aft",
        -12.836827706927231
      ],
      [
        ".6",
        -13.37572137921408
      ],
      [
        "▁fi",
        -14.154370951148582
      ],
      [
        "“",
        -6.515170392843602
      ],
      [
        "-dslr-",
        -12.774325543087667
      ],
      [
        "▁tutorial",
        -11.944952464808402
      ],
      [
        ">>",
        -10.623999691705132
      ],
      [
        "▁catalog",
        -11.519805211418184
      ],
      [
        "▁resemble",
        -11.520714677292336
      ],
      [
        "leen",
        -11.627284023512916
      ],
      [
        "▁foss",
        -11.963734918860885
      ],
      [
        "iture",
        -12.306597024417758
      ],
      [
        "▁0.05",
        -13.136790309889701
      ],
      [
        "le",
        -7.096916322400643
      ],
      [
        "▁transformati",
        -11.875037073748429
      ],
      [
        "▁behave",
        -11.688952752187024
      ],
      [
        "so",
        -6.584119861661964
      ],
      [
        "graph",
        -12.491458622932191
      ],
      [
        "▁jafar",
        -11.499833672163664
      ],
      [
        "1,",
        -14.673378306135053
      ],
      [
        "write",
        -13.580019822118674
      ],
      [
        "▁chouan",
        -12.771186900269424
      ],
      [
        "ulf",
        -13.581160263910851
      ],
      [
        "▁lend",
        -11.989373350031801
      ],
      [
        "▁second-",
        -11.727312159595332
      ],
      [
        "▁mini-",
        -12.272458642950225
      ],
      [
        "▁according",
        -8.693495186282604
      ],
      [
        "▁memoir",
        -10.751183445389968
      ],
      [
        "ti",
        -11.721458890591762
      ],
      [
        "▁sara",
        -8.387410189491597
      ],
      [
        "▁recite",
        -12.294352705648988
      ],
      [
        "▁aristocrat",
        -11.58417639022477
      ],
      [
        "▁scorpio",
        -12.766065042787742
      ],
      [
        "nonym",
        -10.944557569313117
      ],
      [
        "grade",
        -11.631009745235959
      ],
      [
        "▁dila",
        -13.30441986224564
      ],
      [
        "`",
        -11.307802325334926
      ],
      [
        "▁painting",
        -9.338134997613142
      ],
      [
        "▁lega",
        -10.445830851845756
      ],
      [
        "▁yawn",
        -11.32143861203171
      ],
      [
        "▁enhanc",
        -12.18223533047324
      ],
      [
        "▁pranks",
        -12.271585827449275
      ],
      [
        "▁abdul",
        -11.261791599030861
      ],
      [
        "▁adhere",
        -12.384157533049688
      ],
      [
        "/01",
        -12.978977334180982
      ],
      [
        "itude",
        -11.517604043635856
      ],
      [
        "▁uran",
        -12.84260346586187
      ],
      [
        "▁23",
        -10.030498826871938
      ],
      [
        "▁nam",
        -10.767186663273295
      ],
      [
        "▁geograph",
        -11.937546970544918
      ],
      [
        "inism",
        -12.822792585255671
      ],
      [
        "▁!!!!!!",
        -11.049216165262704
      ],
      [
        "nik",
        -11.391804607005728
      ],
      [
        "▁fluent",
        -12.012584663685397
      ],
      [
        "opher",
        -10.70034284528143
      ],
      [
        "illin",
        -12.935865143511736
      ],
      [
        "▁....",
        -10.491737081619904
      ],
      [
        "420",
        -13.637063103502197
      ],
      [
        "operations",
        -12.438737519174682
      ],
      [
        "▁transp",
        -12.845827358026785
      ],
      [
        "▁elizabeth",
        -10.751147573987314
      ],
      [
        "18/",
        -14.138103351134408
      ],
      [
        "enovate",
        -11.687660860905828
      ],
      [
        "rack",
        -11.915475132069552
      ],
      [
        "▁pre-e",
        -13.010707305452097
      ],
      [
        "▁hire",
        -9.948603565507993
      ],
      [
        "▁keen",
        -10.830931347045773
      ],
      [
        "▁supple",
        -12.770454684755299
      ],
      [
        "▁locate",
        -9.379792752675682
      ],
      [
        "▁analytic",
        -11.489500052301835
      ],
      [
        "▁info@",
        -12.272050979293097
      ],
      [
        "▁let",
        -6.544467096717447
      ],
      [
        "▁sick",
        -9.109803067572283
      ],
      [
        "ف",
        -12.833785825435129
      ],
      [
        "▁morph",
        -13.683000284106162
      ],
      [
        "▁corrupti",
        -12.496572326804053
      ],
      [
        "cooper",
        -12.732431489660991
      ],
      [
        "get",
        -13.245362460261243
      ],
      [
        "▁sin",
        -10.974806028051116
      ],
      [
        "cargill",
        -10.223314256871282
      ],
      [
        "clause",
        -12.732368137543217
      ],
      [
        "pl",
        -11.628615207034395
      ],
      [
        "▁2",
        -11.194826221527975
      ],
      [
        "▁roadway",
        -12.280170470447548
      ],
      [
        "▁penalt",
        -10.759648167918318
      ],
      [
        "▁respectful",
        -10.945231610881331
      ],
      [
        "▁geometric",
        -12.276357014830737
      ],
      [
        "akin",
        -12.642234539576735
      ],
      [
        "were",
        -13.682562872252992
      ],
      [
        "▁zone",
        -10.625439386056627
      ],
      [
        "ql",
        -11.420683513906084
      ],
      [
        ")",
        -4.6644456325463
      ],
      [
        "▁flapp",
        -12.795123848099191
      ],
      [
        "tra",
        -9.657570608654877
      ],
      [
        "▁remark",
        -9.76383202076653
      ],
      [
        "▁hunter",
        -11.707328572361758
      ],
      [
        "▁chew",
        -10.27650325259544
      ],
      [
        "sfo",
        -11.723716914706943
      ],
      [
        "▁probab",
        -12.20367533582008
      ],
      [
        "▁breakfast",
        -8.563943955483424
      ],
      [
        "▁op",
        -10.73648994801107
      ],
      [
        "bour",
        -12.89380299570476
      ],
      [
        "ctu",
        -12.134035743430363
      ],
      [
        "49",
        -12.046337643457095
      ],
      [
        "▁derivative",
        -9.955066741223892
      ],
      [
        "▁giga",
        -13.707043815652389
      ],
      [
        "▁ban",
        -10.641777024873901
      ],
      [
        "▁prize",
        -10.275975941912822
      ],
      [
        "▁storefront",
        -12.772643073767632
      ],
      [
        "▁code",
        -8.608836374102463
      ],
      [
        "39",
        -13.692418417651787
      ],
      [
        "▁indicate",
        -9.685963560282667
      ],
      [
        "▁pri",
        -11.348572751093647
      ],
      [
        "▁perch",
        -12.907579538980421
      ],
      [
        "▁sea",
        -7.994623863060849
      ],
      [
        "▁vaga",
        -12.791054647539255
      ],
      [
        "1:",
        -14.54247363883203
      ],
      [
        "▁row",
        -9.346129963483953
      ],
      [
        "▁trance",
        -12.274889832257612
      ],
      [
        "▁even",
        -6.763263606964352
      ],
      [
        "▁repute",
        -13.306845130208504
      ],
      [
        "▁ec",
        -9.49888221321268
      ],
      [
        "▁consequence",
        -9.87956816605267
      ],
      [
        "▁exhibit",
        -9.518046205234219
      ],
      [
        "▁accomodat",
        -11.937692025663395
      ],
      [
        "▁86",
        -12.79031758953321
      ],
      [
        "▁38",
        -10.592551675736491
      ],
      [
        "▁midwest",
        -10.595631304913958
      ],
      [
        "▁lack",
        -8.869795308288374
      ],
      [
        "▁770",
        -13.561149847827563
      ],
      [
        "▁baath",
        -11.956448781342695
      ],
      [
        "▁distributor",
        -12.777015127609694
      ],
      [
        "▁drown",
        -11.178265620760431
      ],
      [
        "urant",
        -12.772860668219911
      ],
      [
        "▁cripple",
        -11.937706328381198
      ],
      [
        ":00",
        -9.712247828919523
      ],
      [
        "ove",
        -12.445527802350513
      ],
      [
        "▁ant",
        -11.860894755500915
      ],
      [
        "▁loc",
        -12.125835237962606
      ],
      [
        "▁cha",
        -9.888931334754512
      ],
      [
        "▁tug",
        -10.842084043484277
      ],
      [
        "▁interpretation",
        -10.592014432028325
      ],
      [
        "▁sovereign",
        -10.519462601230423
      ],
      [
        "▁kra",
        -12.29975264800211
      ],
      [
        "napol",
        -12.517391103557879
      ],
      [
        "▁different",
        -7.508521806021959
      ],
      [
        "▁boat",
        -8.519920887376216
      ],
      [
        "▁empire",
        -11.178167883095261
      ],
      [
        "how",
        -12.00020881905705
      ],
      [
        "▁merg",
        -12.506006958774485
      ],
      [
        "▁bowe",
        -12.694461045076572
      ],
      [
        "▁submitt",
        -10.531461490107805
      ],
      [
        "▁repri",
        -12.813705421500925
      ],
      [
        "abo",
        -13.4393374251526
      ],
      [
        "to",
        -8.568824384538232
      ],
      [
        "▁pollutant",
        -12.271294229949119
      ],
      [
        "▁examine",
        -10.335320211514293
      ],
      [
        "▁ju",
        -12.091573502807867
      ],
      [
        "▁striv",
        -10.772022547614304
      ],
      [
        "xl",
        -11.848180246930774
      ],
      [
        "▁dosto",
        -12.77988409377872
      ],
      [
        "ov",
        -11.386597512417618
      ],
      [
        "▁norm",
        -10.701516229587181
      ],
      [
        "▁enhance",
        -10.535142361603539
      ],
      [
        "▁retail",
        -10.601441459406223
      ],
      [
        "shakes",
        -12.814335894205612
      ],
      [
        "asnondelibreaten",
        -11.833786315327183
      ],
      [
        "▁gustav",
        -11.964091548195102
      ],
      [
        "uc",
        -11.927679734974966
      ],
      [
        "▁insecurit",
        -13.475684898216075
      ],
      [
        "▁exception",
        -10.142414733980065
      ],
      [
        "▁numeric",
        -12.772336703093865
      ],
      [
        "▁mysterious",
        -10.942214089038595
      ],
      [
        "▁murder",
        -9.416968879988966
      ],
      [
        "▁ray",
        -9.968500516799471
      ],
      [
        "▁ghaza",
        -12.771362881861622
      ],
      [
        "▁expansi",
        -10.426450326561511
      ],
      [
        "[CLS]",
        0.0
      ],
      [
        "▁jess",
        -10.893005920365354
      ],
      [
        "lotte",
        -8.361948391806447
      ],
      [
        "▁erik",
        -11.937872333943208
      ],
      [
        "▁capabilit",
        -10.331657005169587
      ],
      [
        "▁inaugura",
        -11.488001741720916
      ],
      [
        "photography",
        -11.602127138700833
      ],
      [
        "▁inter",
        -9.813585210963854
      ],
      [
        "unh",
        -12.090958139393953
      ],
      [
        "broke",
        -12.735325720917164
      ],
      [
        "▁grai",
        -12.460667759740012
      ],
      [
        "▁kat",
        -11.603346899761238
      ],
      [
        "▁fabi",
        -11.492624960068731
      ],
      [
        "▁filipino",
        -12.77102493533198
      ],
      [
        "▁kingdom",
        -10.390395349414732
      ],
      [
        "wa",
        -9.327411686636298
      ],
      [
        "▁realiz",
        -10.56733488524753
      ],
      [
        "in",
        -6.8126454986383775
      ],
      [
        "down",
        -10.059011562882215
      ],
      [
        "list",
        -11.477499810391173
      ],
      [
        "▁blur",
        -12.270388859693607
      ],
      [
        "▁chandelier",
        -11.937691598241594
      ],
      [
        "ke",
        -10.360650032923113
      ],
      [
        "inuit",
        -12.271625633591059
      ],
      [
        "▁anna",
        -11.079328088412133
      ],
      [
        "▁well-",
        -11.411225940410349
      ],
      [
        "▁12:42",
        -13.166541441986316
      ],
      [
        "▁raisin",
        -11.669493496174328
      ],
      [
        "found",
        -12.276843776786766
      ],
      [
        "▁ecc",
        -12.475813559950488
      ],
      [
        "▁metabol",
        -12.594373036435082
      ],
      [
        "consum",
        -12.97917611205517
      ],
      [
        "▁hospita",
        -12.786019229127117
      ],
      [
        "▁louis",
        -8.733955205646343
      ],
      [
        "-stain",
        -12.771489338830843
      ],
      [
        "▁1030",
        -14.191480154345427
      ],
      [
        "bbie",
        -10.50507119842176
      ],
      [
        "▁designate",
        -11.085916165704738
      ],
      [
        "▁misfortune",
        -11.937691585578253
      ],
      [
        "▁displease",
        -12.771025033878852
      ],
      [
        "▁danny",
        -9.569529855695919
      ],
      [
        "▁hyperlink",
        -12.771037306670106
      ],
      [
        "▁praise",
        -10.528923992709782
      ],
      [
        "▁productiv",
        -10.320896983686197
      ],
      [
        "▁permanent",
        -10.223285631064215
      ],
      [
        "uke",
        -10.446659398922202
      ],
      [
        "▁successful",
        -9.076619171330098
      ],
      [
        "▁stopp",
        -8.837043180502244
      ],
      [
        "▁taper",
        -11.07934461933521
      ],
      [
        "▁fist",
        -11.503325375200124
      ],
      [
        "a-da",
        -12.555875732035812
      ],
      [
        "▁advance",
        -9.227280155012155
      ],
      [
        "▁reassure",
        -11.594361006926597
      ],
      [
        "▁mek",
        -12.283155805998817
      ],
      [
        "▁harvest",
        -10.45332825493628
      ],
      [
        "▁speech",
        -9.776037855607964
      ],
      [
        "▁past",
        -8.379963428371191
      ],
      [
        "ison",
        -10.526677725204083
      ],
      [
        "ms",
        -11.919613931885362
      ],
      [
        "▁ranking",
        -12.131807615582954
      ],
      [
        "-mak",
        -12.309672870686832
      ],
      [
        "▁squeez",
        -12.58414266934491
      ],
      [
        "▁liza",
        -12.752044098731114
      ],
      [
        "▁crush",
        -10.78597685373635
      ],
      [
        "▁how",
        -8.861903242976682
      ],
      [
        "▁prison",
        -10.938452964313937
      ],
      [
        "▁legislat",
        -11.106881210084623
      ],
      [
        "game",
        -12.73638720881321
      ],
      [
        "59,",
        -14.128729149811772
      ],
      [
        "▁messag",
        -11.684484762892899
      ],
      [
        "▁acc",
        -10.442670164225598
      ],
      [
        "▁story",
        -8.414758993731734
      ],
      [
        "▁burger",
        -10.667873172765905
      ],
      [
        "▁sa",
        -9.391262604333546
      ],
      [
        "▁memorial",
        -10.668399185700693
      ],
      [
        "▁masj",
        -12.776189029256997
      ],
      [
        "owed",
        -12.697269664720302
      ],
      [
        "▁neurolog",
        -11.549615803286216
      ],
      [
        "▁",
        -1.3739155028004877
      ],
      [
        "▁27",
        -10.732058639073955
      ],
      [
        "chiba",
        -11.488831721530598
      ],
      [
        "▁challeng",
        -10.586586147629259
      ],
      [
        "▁sp",
        -10.920726615482506
      ],
      [
        "ron.com",
        -12.859529594059007
      ],
      [
        "▁spectacular",
        -10.590891193851833
      ],
      [
        "▁05:3",
        -12.668251370718806
      ],
      [
        "▁335",
        -13.289610428496676
      ],
      [
        "ausch",
        -12.819351779634648
      ],
      [
        "▁product",
        -8.20667209902329
      ],
      [
        "▁retract",
        -12.69938248360112
      ],
      [
        "bro",
        -12.197640388031763
      ],
      [
        "moon",
        -12.742008601968422
      ],
      [
        "▁invade",
        -12.840644918072323
      ],
      [
        "▁interpret",
        -10.353402451017407
      ],
      [
        "orefront",
        -12.842924309566747
      ],
      [
        "▁'",
        -9.94311635916527
      ],
      [
        "▁professional",
        -8.81868493798937
      ],
      [
        "▁riches",
        -11.815674763422502
      ],
      [
        "▁crab",
        -11.060372177806041
      ],
      [
        "▁deserve",
        -10.331531461925847
      ],
      [
        "ishi",
        -13.45967001163117
      ],
      [
        "c",
        -6.053272481059237
      ],
      [
        "▁12:0",
        -12.672542544953671
      ],
      [
        "ha",
        -10.276535708534153
      ],
      [
        "▁stifle",
        -12.271025470086997
      ],
      [
        "▁glamo",
        -11.266221202787714
      ],
      [
        "▁dwarf",
        -10.844210069545367
      ],
      [
        "▁fortune",
        -10.452805879688658
      ],
      [
        "▁apartment",
        -9.333434631148561
      ],
      [
        "▁venu",
        -11.156537059213145
      ],
      [
        "▁ker",
        -11.21819332502225
      ],
      [
        "rous",
        -10.622234501840271
      ],
      [
        "▁observator",
        -12.771162894376406
      ],
      [
        "▁edward",
        -9.99534264662632
      ],
      [
        "▁minorit",
        -10.905883101156666
      ],
      [
        "▁tog",
        -7.984001669389438
      ],
      [
        "▁proto",
        -11.141650517648351
      ],
      [
        "▁experiment",
        -9.909929098579607
      ],
      [
        "-out",
        -11.49376986200338
      ],
      [
        "▁beside",
        -11.694727223843978
      ],
      [
        "▁garc",
        -12.08735735683906
      ],
      [
        "▁pret",
        -12.264050682928149
      ],
      [
        "▁careful",
        -9.178461348281562
      ],
      [
        "cinna",
        -10.842854151362275
      ],
      [
        "▁luncheon",
        -11.68816159583864
      ],
      [
        "▁hang",
        -8.997515797125317
      ],
      [
        ":m",
        -12.28813280345467
      ],
      [
        "ino",
        -11.442656562307326
      ],
      [
        "▁catastroph",
        -12.750503220434625
      ],
      [
        "1950",
        -12.272492544277936
      ],
      [
        "lung",
        -12.73579709688808
      ],
      [
        "ault",
        -12.82397304640307
      ],
      [
        "atherin",
        -11.56253547387431
      ],
      [
        "redirect",
        -12.771025707124148
      ],
      [
        "▁very",
        -6.256917658958747
      ],
      [
        "/8",
        -12.703324266057189
      ],
      [
        "oka",
        -12.83294292877692
      ],
      [
        "apor",
        -10.942944850011125
      ],
      [
        "▁perception",
        -10.842161813770762
      ],
      [
        "▁neuro",
        -10.901623053412532
      ],
      [
        "▁venge",
        -12.3359421917472
      ],
      [
        "▁vulnerab",
        -11.053145633773045
      ],
      [
        "▁suspend",
        -11.178167834242487
      ],
      [
        "▁exclusive",
        -11.055309593632382
      ],
      [
        "▁traffick",
        -11.207373551141597
      ],
      [
        "ulation",
        -12.059833895601844
      ],
      [
        "▁for",
        -10.508521129987447
      ],
      [
        "▁empirical",
        -11.18733824703405
      ],
      [
        "▁scient",
        -9.57087471415161
      ],
      [
        "proxim",
        -11.938316413101722
      ],
      [
        "▁caul",
        -11.674592902791211
      ],
      [
        "▁atm",
        -12.281985210486383
      ],
      [
        "▁naturalis",
        -12.249056977801889
      ],
      [
        "▁parachute",
        -11.687691586439666
      ],
      [
        "▁authori",
        -12.70834798120145
      ],
      [
        "sullivan",
        -11.6876915883187
      ],
      [
        "▁one",
        -6.703143481594612
      ],
      [
        "▁hetero",
        -12.771033450811002
      ],
      [
        "▁kari",
        -11.108878788999736
      ],
      [
        "stuar",
        -11.302512810778286
      ],
      [
        "▁pleasur",
        -12.761127855997895
      ],
      [
        "▁coordinati",
        -10.582478751805292
      ],
      [
        "▁meow",
        -10.276068507847882
      ],
      [
        "ndi",
        -11.862362591743297
      ],
      [
        "it",
        -8.786222667178972
      ],
      [
        "otis",
        -10.53075887287424
      ],
      [
        "▁coz",
        -10.592747770579216
      ],
      [
        "▁anticipat",
        -11.554216311783565
      ],
      [
        "▁reveren",
        -11.715455715618807
      ],
      [
        "▁worker",
        -9.925099771813011
      ],
      [
        "▁baboo",
        -12.843557080496574
      ],
      [
        "2.htm",
        -12.62045274712083
      ],
      [
        "▁stick",
        -9.010277298612937
      ],
      [
        "erno",
        -12.834028763676212
      ],
      [
        "▁hers",
        -12.827484547626566
      ],
      [
        "▁cognitive",
        -10.08322882114519
      ],
      [
        "quili",
        -11.184270844714355
      ],
      [
        "▁ronn",
        -11.553425619291303
      ],
      [
        "information",
        -7.326725036468212
      ],
      [
        "▁yor",
        -13.643864780075436
      ],
      [
        "▁ours",
        -11.486000418694196
      ],
      [
        "munic",
        -10.472638223775926
      ],
      [
        "fe",
        -11.211557085735926
      ],
      [
        "▁scam",
        -11.557798003212392
      ],
      [
        "▁sex",
        -9.682892952062888
      ],
      [
        "▁statue",
        -10.374439868336918
      ],
      [
        "▁williams",
        -11.392191687608783
      ],
      [
        "▁eyebrow",
        -11.687691944507044
      ],
      [
        "rat",
        -12.017678604027854
      ],
      [
        "ritis",
        -12.178338773134232
      ],
      [
        "nna",
        -12.905493034759864
      ],
      [
        "▁tir",
        -12.786273873687
      ],
      [
        "cca",
        -10.725171901425318
      ],
      [
        "▁brother",
        -8.81820856713465
      ],
      [
        "▁bail",
        -12.27198707935755
      ],
      [
        "▁psalm",
        -12.771044587883516
      ],
      [
        "▁lamb",
        -10.676822534866783
      ],
      [
        "▁reappear",
        -12.271024939049635
      ],
      [
        "▁care",
        -8.129399895844612
      ],
      [
        "4",
        -10.387873153875859
      ],
      [
        "saib",
        -11.474396831631156
      ],
      [
        "▁heavy",
        -9.232981354789754
      ],
      [
        "▁bell",
        -9.394371164851755
      ],
      [
        "▁syria",
        -9.421323912107951
      ],
      [
        "▁rot",
        -10.61122038757042
      ],
      [
        "▁chal",
        -10.944341054908971
      ],
      [
        "▁cord",
        -10.64144667426995
      ],
      [
        "ania",
        -10.525527851988292
      ],
      [
        "▁reread",
        -12.789455068726705
      ],
      [
        "gnof",
        -12.771545873229435
      ],
      [
        "cious",
        -11.34171026211518
      ],
      [
        "▁raptor",
        -12.771056057772451
      ],
      [
        "jani",
        -13.675847301377113
      ],
      [
        "adobe",
        -12.044838376820344
      ],
      [
        "interference",
        -13.734181234222149
      ],
      [
        "▁poo",
        -9.958939928868144
      ],
      [
        "eiche",
        -13.65590242730865
      ],
      [
        "▁av",
        -13.367145336733245
      ],
      [
        "pakistan",
        -12.732979813067896
      ],
      [
        "veallpeople.org/",
        -12.278554489254988
      ],
      [
        "▁constrain",
        -12.78344685689847
      ],
      [
        "▁incite",
        -10.682413067888202
      ],
      [
        "▁obliterat",
        -12.771025214237437
      ],
      [
        "▁multinational",
        -12.771039509024856
      ],
      [
        "▁attn",
        -12.271881781278472
      ],
      [
        "ign",
        -11.72137258058951
      ],
      [
        "▁scheme",
        -10.590902741375334
      ],
      [
        "▁1.2",
        -12.884990035352798
      ],
      [
        "▁ques",
        -11.86941972493624
      ],
      [
        "▁inherent",
        -11.178168066332045
      ],
      [
        "▁ni",
        -10.814888720447627
      ],
      [
        "▁compatib",
        -11.17823284906739
      ],
      [
        "▁rooster",
        -11.68787323893004
      ],
      [
        "▁certificat",
        -12.746632916643318
      ],
      [
        "▁anti-",
        -10.51997319038674
      ],
      [
        "185",
        -14.936288602100408
      ],
      [
        "▁sour",
        -11.703334186756825
      ],
      [
        "▁flash",
[...]
