{
  "version": "1.0",
  "truncation": null,
  "padding": null,
  "added_tokens": [
    {
      "id": 5454,
      "content": "[PAD]",
      "single_word": false,
      "lstrip": false,
      "rstrip": false,
      "normalized": false,
      "special": true
    },
    {
      "id": 6193,
      "content": "[UNK]",
      "single_word": false,
      "lstrip": false,
      "rstrip": false,
      "normalized": false,
      "special": true
    },
    {
      "id": 6618,
      "content": "[SEP]",
      "single_word": false,
      "lstrip": false,
      "rstrip": false,
      "normalized": false,
      "special": true
    },
    {
      "id": 10773,
      "content": "[CLS]",
      "single_word": false,
      "lstrip": false,
      "rstrip": false,
      "normalized": false,
      "special": true
    },
    {
      "id": 13325,
      "content": "[MASK]",
      "single_word": false,
      "lstrip": false,
      "rstrip": false,
      "normalized": false,
      "special": true
    }
  ],
  "normalizer": {
    "type": "Sequence",
    "normalizers": [
      {
        "type": "NFD"
      },
      {
        "type": "Lowercase"
      },
      {
        "type": "StripAccents"
      }
    ]
  },
  "pre_tokenizer": {
    "type": "Sequence",
    "pretokenizers": [
      {
        "type": "Metaspace",
        "replacement": "▁",
        "prepend_scheme": "always",
        "split": true
      }
    ]
  },
  "post_processor": {
    "type": "TemplateProcessing",
    "single": [
      {
        "SpecialToken": {
          "id": "[CLS]",
          "type_id": 0
        }
      },
      {
        "Sequence": {
          "id": "A",
          "type_id": 0
        }
      },
      {
        "SpecialToken": {
          "id": "[SEP]",
          "type_id": 0
        }
      }
    ],
    "pair": [
      {
        "SpecialToken": {
          "id": "[CLS]",
          "type_id": 0
        }
      },
      {
        "Sequence": {
          "id": "A",
          "type_id": 0
        }
      },
      {
        "SpecialToken": {
          "id": "[SEP]",
          "type_id": 0
        }
      },
      {
        "Sequence": {
          "id": "B",
          "type_id": 1
        }
      },
      {
        "SpecialToken": {
          "id": "[SEP]",
          "type_id": 1
        }
      }
    ],
    "special_tokens": {
      "[CLS]": {
        "id": "[CLS]",
        "ids": [
          10773
        ],
        "tokens": [
          "[CLS]"
        ]
      },
      "[SEP]": {
        "id": "[SEP]",
        "ids": [
          6618
        ],
        "tokens": [
          "[SEP]"
        ]
      }
    }
  },
  "decoder": {
    "type": "Metaspace",
    "replacement": "▁",
    "prepend_scheme": "always",
    "split": true
  },
  "model": {
    "type": "BPE",
    "dropout": null,
    "unk_token": "[UNK]",
    "continuing_subword_prefix": null,
    "end_of_word_suffix": null,
    "fuse_unk": false,
    "byte_fallback": false,
    "ignore_merges": false,
    "vocab": {
      "apolis": 0,
      "▁imple": 1,
      "▁kosovo": 2,
      "▁417": 3,
      "▁pri": 4,
      "42": 5,
      "fur": 6,
      "▁wakes": 7,
      "▁winking": 8,
      "sem": 9,
      "▁structural": 10,
      "▁charitable": 11,
      "▁shape": 12,
      "▁calc": 13,
      "▁bland": 14,
      "▁inequ": 15,
      "▁nov.": 16,
      "▁meals": 17,
      "▁doctors": 18,
      "▁strang": 19,
      "▁129": 20,
      "▁relax": 21,
      "▁cartoons": 22,
      "▁preferences": 23,
      "▁claus": 24,
      "ler": 25,
      "ads": 26,
      "▁names": 27,
      "▁1/8": 28,
      "▁headed": 29,
      "▁sniff": 30,
      "▁apost": 31,
      "ieth": 32,
      "oc": 33,
      "isco": 34,
      "▁loose": 35,
      "▁math": 36,
      "▁abstract": 37,
      "ooking": 38,
      "▁dramatically": 39,
      "▁stuck": 40,
      "-49": 41,
      "▁mich": 42,
      "▁against": 43,
      "▁becomes": 44,
      "▁theodorus": 45,
      "▁pivotchart": 46,
      "▁lorie": 47,
      "▁great": 48,
      "▁least": 49,
      "▁unusual": 50,
      "ece": 51,
      "▁discount": 52,
      "▁fee": 53,
      "version": 54,
      "▁players": 55,
      "▁privileged": 56,
      "▁describing": 57,
      "!!!": 58,
      "▁specified": 59,
      "▁quilis": 60,
      "▁relates": 61,
      "▁karl": 62,
      "▁ros": 63,
      "▁expansion": 64,
      "▁loud": 65,
      "▁1608": 66,
      "▁shiite": 67,
      "▁thorough": 68,
      "▁tigers": 69,
      "encies": 70,
      "▁spices": 71,
      "ective": 72,
      "▁23": 73,
      "▁young": 74,
      "▁overc": 75,
      "▁corn": 76,
      "ju": 77,
      "pp": 78,
      "nia": 79,
      "elle": 80,
      "▁plane": 81,
      "------------": 82,
      "▁defeated": 83,
      "▁orleans": 84,
      "▁had": 85,
      "▁susp": 86,
      "▁ko": 87,
      "anta": 88,
      "▁neo": 89,
      "▁greeting": 90,
      "▁leaders": 91,
      "▁seiz": 92,
      "▁ruth": 93,
      "▁overse": 94,
      "▁empty": 95,
      "▁wounds": 96,
      "▁dislike": 97,
      "▁guid": 98,
      "icit": 99,
      "▁uniform": 100,
      "▁clinics": 101,
      "ract": 102,
      "▁apprec": 103,
      "▁borgin": 104,
      "▁ag": 105,
      "ization": 106,
      "▁ebs": 107,
      "▁responsibility": 108,
      "▁borne": 109,
      "▁secur": 110,
      "▁veh": 111,
      "▁orland": 112,
      "▁squeeze": 113,
      "▁influenced": 114,
      "▁modified": 115,
      "▁chicken": 116,
      "▁letting": 117,
      "ince": 118,
      "▁indiana": 119,
      "▁paul": 120,
      "▁format": 121,
      "▁handful": 122,
      "▁nov": 123,
      ":11": 124,
      "▁cloud": 125,
      "ly": 126,
      "▁last": 127,
      "▁visit": 128,
      "▁shut": 129,
      "ru": 130,
      "▁ua": 131,
      "▁michigan": 132,
      "oked": 133,
      "▁inspector": 134,
      "▁presents": 135,
      "▁incredible": 136,
      "▁mosquitoes": 137,
      "▁mike": 138,
      "▁500": 139,
      "ps": 140,
      "▁blast": 141,
      "▁fusion": 142,
      "▁she": 143,
      "▁rape": 144,
      "▁origin": 145,
      "▁johann": 146,
      "▁confirmed": 147,
      "▁yacht": 148,
      "▁completely": 149,
      "▁conventional": 150,
      "▁again": 151,
      "▁told": 152,
      "▁papers": 153,
      "▁oc": 154,
      "▁struck": 155,
      "▁haven": 156,
      "▁founders": 157,
      "▁hi": 158,
      "▁****": 159,
      "beth": 160,
      "▁dis": 161,
      "▁seesaw": 162,
      "▁analysis_0712": 163,
      "iana": 164,
      "▁charged": 165,
      "ns": 166,
      "▁curly": 167,
      "▁safet": 168,
      "▁complicated": 169,
      "▁substantive": 170,
      "▁1160": 171,
      "▁padaleck": 172,
      "▁weekly": 173,
      "▁containers": 174,
      "rosh": 175,
      "▁claw": 176,
      "▁believes": 177,
      "ryn": 178,
      "▁stip": 179,
      "▁taiwan": 180,
      "▁wander": 181,
      "▁hmm": 182,
      "▁pit": 183,
      "▁icing": 184,
      "atter": 185,
      "▁continued": 186,
      "ained": 187,
      "▁insert": 188,
      "▁nobody": 189,
      "▁varied": 190,
      "▁demonstration": 191,
      "▁manner": 192,
      "r": 193,
      "ager": 194,
      "▁whil": 195,
      "/99": 196,
      "▁bell": 197,
      "▁substance": 198,
      "▁pup": 199,
      "▁substantially": 200,
      "▁official": 201,
      "▁involved": 202,
      "▁regional": 203,
      "▁microsoft": 204,
      "▁1500": 205,
      "▁wilt": 206,
      "▁file": 207,
      "▁refresh": 208,
      "▁driving": 209,
      "▁chall": 210,
      "▁0000108806": 211,
      "▁pillars": 212,
      "▁tipp": 213,
      "/16": 214,
      "▁chill": 215,
      "▁garden": 216,
      "▁not": 217,
      "vel": 218,
      "▁5.8": 219,
      "▁nicer": 220,
      "ue": 221,
      "▁quaffle": 222,
      "▁withdraw": 223,
      "/2004": 224,
      "5th": 225,
      "▁lin": 226,
      "▁sunk": 227,
      "▁laugh": 228,
      "▁straw": 229,
      "▁launching": 230,
      "amped": 231,
      "▁)": 232,
      "▁159": 233,
      "dred": 234,
      "rism": 235,
      "▁interrupted": 236,
      "band": 237,
      "▁sul": 238,
      "▁them": 239,
      "▁ex": 240,
      "▁dishes": 241,
      "▁struct": 242,
      "▁pock": 243,
      "anced": 244,
      "▁.!": 245,
      "▁innocent": 246,
      "▁designated": 247,
      "▁coordinator": 248,
      "▁auck": 249,
      "▁willingness": 250,
      "▁farm": 251,
      "▁interpret": 252,
      "▁rug": 253,
      "w": 254,
      "ript": 255,
      "▁subsequently": 256,
      "▁lip": 257,
      "▁fallen": 258,
      "▁idiot": 259,
      "ge": 260,
      "▁wondering": 261,
      "▁oldest": 262,
      "▁dedicated": 263,
      "▁kabul": 264,
      "▁gas": 265,
      "▁fung": 266,
      "▁dough": 267,
      "▁aim": 268,
      "▁lion": 269,
      "▁chat": 270,
      "▁taxes": 271,
      "▁750,000": 272,
      "▁debate": 273,
      "▁convey": 274,
      "▁rabbit": 275,
      "▁bringing": 276,
      "▁examine": 277,
      "▁hasid": 278,
      "▁batteries": 279,
      "▁1964": 280,
      "ess": 281,
      "▁organ": 282,
      "▁story": 283,
      "zales": 284,
      "form": 285,
      "▁temple": 286,
      "▁fa": 287,
      "▁345-343": 288,
      "▁overnight": 289,
      "ise": 290,
      "ways": 291,
      "um": 292,
      "ax": 293,
      "▁into": 294,
      "ocks": 295,
      "▁wh": 296,
      "▁case": 297,
      "▁hundred": 298,
      "▁broken": 299,
      "vd": 300,
      "-house": 301,
      "▁calend": 302,
      "▁regularly": 303,
      "▁630": 304,
      "▁essie": 305,
      "fish": 306,
      "▁11:07": 307,
      "▁majority": 308,
      "ey": 309,
      "▁nostr": 310,
      "iologist": 311,
      "ido": 312,
      "▁=": 313,
      "▁legend": 314,
      "▁donald": 315,
      "▁cosplay": 316,
      "▁accomplish": 317,
      "▁scenes": 318,
      "▁11:00": 319,
      "▁agricultural": 320,
      "▁lear": 321,
      "▁mariner": 322,
      "81": 323,
      "▁foreign": 324,
      "▁coupled": 325,
      "urt": 326,
      "▁nerv": 327,
      "▁intr": 328,
      "pent": 329,
      "▁activ": 330,
      "wh": 331,
      "▁emerg": 332,
      "▁state": 333,
      "esley": 334,
      "▁know": 335,
      "▁writing": 336,
      "▁flex": 337,
      "▁tons": 338,
      "ately": 339,
      "ihow": 340,
      "▁proc": 341,
      "una": 342,
      "▁66": 343,
      "▁hatfill": 344,
      "▁nasty": 345,
      "▁listing": 346,
      "▁substances": 347,
      "estone": 348,
      "news/": 349,
      "▁psychology": 350,
      "▁ba": 351,
      "gin": 352,
      ".net/": 353,
      "▁achievements": 354,
      "▁drugs": 355,
      "▁elastic": 356,
      "uma": 357,
      "▁sh": 358,
      "ih": 359,
      "▁worst": 360,
      "▁oily": 361,
      "▁estimates": 362,
      "▁arises": 363,
      "▁forget": 364,
      "▁soccer": 365,
      "▁84": 366,
      "▁muggle": 367,
      "▁arbitr": 368,
      "▁municipalities": 369,
      "▁arvn": 370,
      "▁chocol": 371,
      "xim": 372,
      "pled": 373,
      "▁halls": 374,
      ".5": 375,
      "formed": 376,
      "▁fifth": 377,
      "▁encoun": 378,
      "▁ugh": 379,
      "▁engineer": 380,
      "▁kr": 381,
      "▁joke": 382,
      "▁facilit": 383,
      "ounts": 384,
      "▁first": 385,
      "▁commercial": 386,
      "sd": 387,
      "▁pom": 388,
      "big": 389,
      "▁journals": 390,
      "▁kh": 391,
      "▁genetically": 392,
      "♥": 393,
      "▁estate": 394,
      "▁blows": 395,
      "▁sav": 396,
      "▁iq": 397,
      "▁mechan": 398,
      "▁responsibilities": 399,
      "▁professors": 400,
      "▁festival": 401,
      "enet": 402,
      "▁terrell": 403,
      "▁buyer": 404,
      "▁sleepy": 405,
      "▁negligence": 406,
      "▁tho": 407,
      "▁braz": 408,
      "▁bathroom": 409,
      "▁camel": 410,
      "▁aggress": 411,
      "atched": 412,
      "▁property": 413,
      "▁pockets": 414,
      "▁kyle": 415,
      "▁p&l": 416,
      "▁clear": 417,
      "▁pledged": 418,
      "▁electronic": 419,
      "ervation": 420,
      "▁instinct": 421,
      "▁inning": 422,
      "▁distant": 423,
      "▁letters": 424,
      "▁institution": 425,
      "ett": 426,
      "licts": 427,
      "worm": 428,
      "▁1848": 429,
      "▁bta": 430,
      "rosp": 431,
      "zac": 432,
      "▁tre": 433,
      "▁all": 434,
      "▁09/15": 435,
      "▁800-5": 436,
      "▁pediat": 437,
      "▁nerve": 438,
      "▁ev": 439,
      "▁innov": 440,
      "▁1585": 441,
      "▁memory": 442,
      "▁twww": 443,
      "▁role": 444,
      "pping": 445,
      "lo": 446,
      "▁beer": 447,
      "▁january": 448,
      "▁?????": 449,
      "▁talks": 450,
      "▁grumbles": 451,
      "▁tah": 452,
      "▁response": 453,
      "port": 454,
      "▁detect": 455,
      "▁random": 456,
      "oshikii": 457,
      "▁relent": 458,
      "▁doug": 459,
      "▁flowing": 460,
      "▁arrogance": 461,
      "▁forgotten": 462,
      "▁amazing": 463,
      "▁spoke": 464,
      "fahan": 465,
      "▁am": 466,
      "▁bible": 467,
      "roid": 468,
      "▁colom": 469,
      "▁equity": 470,
      "▁become": 471,
      "▁aged": 472,
      "▁believed": 473,
      "▁1991": 474,
      "▁interventions": 475,
      "▁standing": 476,
      "ene": 477,
      "▁airline": 478,
      "omatic": 479,
      "▁59": 480,
      "▁raw": 481,
      "▁1600": 482,
      "▁sha'lan": 483,
      "▁affection": 484,
      "▁income": 485,
      "▁arrest": 486,
      "▁0.0": 487,
      "▁1.4": 488,
      "▁cred": 489,
      "▁jama": 490,
      "▁likewise": 491,
      "▁soot": 492,
      "alt": 493,
      "ira": 494,
      "fr": 495,
      "▁histories": 496,
      "▁mish": 497,
      "ace": 498,
      "▁foc": 499,
      "▁washing": 500,
      "&e": 501,
      "uel": 502,
      "▁foreigners": 503,
      "▁anger": 504,
      "▁olympics": 505,
      "▁bul": 506,
      "▁surpr": 507,
      "▁rum": 508,
      "▁coastal": 509,
      "paul": 510,
      "▁dere": 511,
      "ured": 512,
      "▁influ": 513,
      "▁invented": 514,
      "▁stinging": 515,
      "▁grams": 516,
      "inations": 517,
      "019": 518,
      "tax": 519,
      "▁lottery": 520,
      "▁hass": 521,
      "▁federation": 522,
      "lah": 523,
      "▁lands": 524,
      "▁recording": 525,
      "▁gesture": 526,
      "▁roberts": 527,
      "▁participation": 528,
      "▁restrictions": 529,
      "▁mes": 530,
      "ops": 531,
      "▁airl": 532,
      "▁queries": 533,
      "ronic": 534,
      "▁;": 535,
      "▁reserved": 536,
      "▁sheet": 537,
      "uce": 538,
      "▁cowboy": 539,
      "xy": 540,
      "▁fernand": 541,
      "▁indians": 542,
      "▁compete": 543,
      "▁referring": 544,
      "▁mandatory": 545,
      "▁chapters": 546,
      "ο": 547,
      "ang": 548,
      "idge": 549,
      "▁1947": 550,
      "▁8:15": 551,
      "osc": 552,
      "at": 553,
      "ach": 554,
      "▁possessed": 555,
      "berg": 556,
      "▁flour": 557,
      "▁seas": 558,
      "▁granger": 559,
      "▁customizing": 560,
      "▁boards": 561,
      "▁rhinoceros": 562,
      "▁specialized": 563,
      "▁forum": 564,
      "▁pharm": 565,
      "▁apparently": 566,
      "▁magn": 567,
      "search": 568,
      "mare": 569,
      "omed": 570,
      "▁access": 571,
      "▁addicted": 572,
      "▁committ": 573,
      "▁wound": 574,
      "▁tomato": 575,
      "▁sky": 576,
      "▁destroy": 577,
      "▁plen": 578,
      "emor": 579,
      "▁1179": 580,
      "en": 581,
      "▁harmonisation": 582,
      "▁patterns": 583,
      "▁gil": 584,
      "uggle": 585,
      "rol": 586,
      "▁n’t": 587,
      "▁del": 588,
      "▁color": 589,
      "▁runner": 590,
      "ell": 591,
      "ature": 592,
      "▁lying": 593,
      "▁unst": 594,
      "▁wizard": 595,
      "▁congregation": 596,
      "▁enter": 597,
      "▁electoral": 598,
      "▁booking": 599,
      "workers": 600,
      "▁delay": 601,
      "▁california": 602,
      "ives": 603,
      "▁customers": 604,
      "▁suspect": 605,
      "▁415.621.8317": 606,
      "▁tasted": 607,
      "ment": 608,
      "▁ways": 609,
      "▁140": 610,
      "9/2001": 611,
      "au": 612,
      "▁hem": 613,
      "▁pairs": 614,
      "▁court": 615,
      "▁compulsive": 616,
      "▁third": 617,
      "▁rept": 618,
      "▁talent": 619,
      "▁1847": 620,
      "▁taco": 621,
      "▁alf": 622,
      "▁collects": 623,
      "▁peaceful": 624,
      "▁liby": 625,
      "▁wear": 626,
      "▁recreat": 627,
      "▁thirty-": 628,
      "▁figure": 629,
      "▁chim": 630,
      "▁sweater": 631,
      "ender": 632,
      "ball": 633,
      "▁vague": 634,
      "▁special": 635,
      "▁hann": 636,
      "iros": 637,
      "cil": 638,
      "ymp": 639,
      "▁greatly": 640,
      "▁moves": 641,
      "isandy": 642,
      "▁7:30": 643,
      "▁labrador": 644,
      "▁birdie": 645,
      "▁silic": 646,
      "▁winter": 647,
      "ial": 648,
      "▁b.": 649,
      "▁pas": 650,
      "▁disruptive": 651,
      "▁scrib": 652,
      "▁adam": 653,
      "ne": 654,
      "▁wonderful": 655,
      "▁matt": 656,
      "▁150,000": 657,
      "insed": 658,
      "▁agencies": 659,
      "▁urban": 660,
      "▁doll": 661,
      "▁some": 662,
      "▁licenses": 663,
      "▁takes": 664,
      "▁nook": 665,
      "▁newer": 666,
      "anged": 667,
      "▁reportedly": 668,
      "▁royal": 669,
      "ind": 670,
      "▁phen": 671,
      "▁ware": 672,
      "▁fasc": 673,
      "▁nicobar": 674,
      "▁transit": 675,
      "▁leash": 676,
      "静": 677,
      "▁whereas": 678,
      "▁draw": 679,
      "eff": 680,
      "▁scratching": 681,
      "▁pony": 682,
      "▁rush": 683,
      "▁regime": 684,
      "▁60,000": 685,
      "▁ld2": 686,
      "▁shackleton": 687,
      "▁blame": 688,
      "aria": 689,
      "▁heaven": 690,
      "▁islands": 691,
      "▁ans": 692,
      "▁jumped": 693,
      "▁blur": 694,
      "zo": 695,
      "orter": 696,
      "▁sincerely": 697,
      "▁kitt": 698,
      "▁update": 699,
      "▁freezing": 700,
      "▁202.456.1111": 701,
      "oty": 702,
      "▁appreciate": 703,
      "▁proponents": 704,
      "▁shin": 705,
      "stock": 706,
      "▁cookies": 707,
      "power": 708,
      "▁750": 709,
      "▁adult": 710,
      "▁percell,": 711,
      "▁nephew": 712,
      "▁asymmetrical": 713,
      "▁europe": 714,
      "▁stampede": 715,
      "▁arrival": 716,
      "▁lengthy": 717,
      "▁plague": 718,
      "500": 719,
      "▁166": 720,
      "▁facility": 721,
      "d2": 722,
      "▁mist": 723,
      "▁roared": 724,
      "▁winner": 725,
      "▁banana": 726,
      "▁boulev": 727,
      "▁data": 728,
      "ere": 729,
      "▁legs": 730,
      "▁clam": 731,
      "▁massachusetts": 732,
      "▁prev": 733,
      "▁changes": 734,
      "▁doc": 735,
      "▁2020": 736,
      "▁professionals": 737,
      "▁aesth": 738,
      "rimin": 739,
      "▁personal": 740,
      "▁threatened": 741,
      "ask": 742,
      "▁its": 743,
      "▁bites": 744,
      "▁race": 745,
      "eak": 746,
      "▁fdi": 747,
      "tt": 748,
      "▁interpretation": 749,
      "ries": 750,
      "-6": 751,
      "▁coff": 752,
      "▁nature": 753,
      "igger": 754,
      "▁discret": 755,
      "▁could": 756,
      "▁delicious": 757,
      "sus": 758,
      "▁virt": 759,
      "▁tol": 760,
      "▁tem": 761,
      "▁outside": 762,
      "co": 763,
      "▁session": 764,
      "▁baseball": 765,
      "▁five": 766,
      "▁structures": 767,
      "▁meter": 768,
      "▁asy": 769,
      "smith": 770,
      "come": 771,
      "▁cuis": 772,
      "▁wives": 773,
      "▁military": 774,
      "▁sadr": 775,
      "lib": 776,
      "▁combination": 777,
      "▁dam": 778,
      "▁partnerships": 779,
      "▁415.782.7822": 780,
      "▁chant": 781,
      "nik": 782,
      "▁increasing": 783,
      "ε": 784,
      ".com/wikihow": 785,
      "▁rolling": 786,
      "tc": 787,
      "▁capture": 788,
      "▁build": 789,
      "▁posted": 790,
      "dd": 791,
      "▁beliefs": 792,
      "▁guardia": 793,
      "▁bes": 794,
      "▁aug": 795,
      "of": 796,
      "cle": 797,
      "▁dancing": 798,
      "▁modify": 799,
      "▁art": 800,
      "ario": 801,
      "▁italy": 802,
      "roit": 803,
      "~*": 804,
      "arch": 805,
      "▁vib": 806,
      "ime": 807,
      "▁proposals": 808,
      "▁ink": 809,
      "ards": 810,
      "dan": 811,
      "▁notions": 812,
      "xce": 813,
      "▁yorkshire": 814,
      "▁liberty": 815,
      "ellow": 816,
      "vin": 817,
      "▁ripped": 818,
      "▁hiking": 819,
      "ril": 820,
      "▁handle": 821,
      "gn": 822,
      "▁hurting": 823,
      "isia": 824,
      "▁deem": 825,
      "▁1,6": 826,
      "▁rounds": 827,
      "▁solved": 828,
      "asks": 829,
      "▁showed": 830,
      "yal": 831,
      "▁auch": 832,
      "▁comfortable": 833,
      "▁astronauts": 834,
      "▁defining": 835,
      "eman": 836,
      "▁otherwise": 837,
      "▁ps": 838,
      "▁badge": 839,
      "▁gel": 840,
      "▁diverse": 841,
      "▁locust": 842,
      "▁chomsky": 843,
      "▁roly": 844,
      "▁addition": 845,
      "▁positions": 846,
      "sing": 847,
      "▁penc": 848,
      "▁interjection": 849,
      "▁hano": 850,
      "▁permission": 851,
      "▁methodology": 852,
      "▁interested": 853,
      "▁isl": 854,
      "▁obstacle": 855,
      "ishing": 856,
      "▁deter": 857,
      "▁needed": 858,
      "asiness": 859,
      "▁determine": 860,
      "▁cro": 861,
      "alle": 862,
      "▁ladder": 863,
      "bee": 864,
      "ay": 865,
      "▁uncover": 866,
      "▁breaking": 867,
      "ists": 868,
      "▁1939": 869,
      "▁sym": 870,
      "eech": 871,
      "▁poems": 872,
      "ough": 873,
      "▁incl": 874,
      "▁duty": 875,
      "▁gym": 876,
      "▁pilgr": 877,
      "▁supp": 878,
      "▁charlie": 879,
      "▁43": 880,
      "▁invitation": 881,
      "▁pyram": 882,
      "dam": 883,
      "▁reve": 884,
      "▁compact": 885,
      "▁invested": 886,
      "▁shrimp": 887,
      "ver": 888,
      "▁squirrels": 889,
      "▁stad": 890,
      "▁snail": 891,
      "▁scholarship": 892,
      "ayed": 893,
      "▁---=": 894,
      "▁1994": 895,
      "▁powder": 896,
      "gue": 897,
      "▁surge": 898,
      "agger": 899,
      "dge": 900,
      "▁seld": 901,
      "utory": 902,
      "▁supper": 903,
      "▁individ": 904,
      "4-79": 905,
      "▁separation": 906,
      "▁analy": 907,
      "enerate": 908,
      "▁suspicious": 909,
      "sty": 910,
      "wik": 911,
      "▁creating": 912,
      "ources": 913,
      "▁identifying": 914,
      "▁☏": 915,
      "▁commands": 916,
      "owled": 917,
      "▁gall": 918,
      "brew": 919,
      "▁label": 920,
      "uit": 921,
      "▁toky": 922,
      "▁cia": 923,
      "▁fuel": 924,
      "▁invoice": 925,
      "▁anytime": 926,
      "ive": 927,
      "▁marl": 928,
      "▁clinic": 929,
      "▁stopover": 930,
      "▁nearest": 931,
      "▁inclined": 932,
      "▁01/2": 933,
      "▁spikes": 934,
      "ollah": 935,
      "▁11.5": 936,
      "▁belongs": 937,
      "lem": 938,
      "▁twenty": 939,
      "urity": 940,
      "▁knowled": 941,
      "▁tech": 942,
      "▁swirl": 943,
      "gers": 944,
      "iciary": 945,
      "vid": 946,
      "▁emer": 947,
      "▁lower": 948,
      "oured": 949,
      "being": 950,
      "▁crack": 951,
      "▁concerns": 952,
      "▁marlow": 953,
      "▁ideation": 954,
      "▁deduct": 955,
      "▁past": 956,
      "▁delic": 957,
      "▁fact": 958,
      "▁bunk": 959,
      "▁elect": 960,
      "▁robe": 961,
      "▁civilian": 962,
      "▁inviting": 963,
      "▁alley": 964,
      "▁dollie": 965,
      "▁bachel": 966,
      "▁sept.": 967,
      "▁comedy": 968,
      "▁fre": 969,
      "▁respects": 970,
      "▁lease": 971,
      "▁metal": 972,
      "▁appropriate": 973,
      "▁http://www.4gamer.net/news/image/2005.09/20050919032951_": 974,
      "▁earthworms": 975,
      "▁cave": 976,
      "▁nonstop": 977,
      "▁mid": 978,
      "▁pharmaceutical": 979,
      "▁probability": 980,
      "▁moo": 981,
      "▁lyr": 982,
      "▁ridiculous": 983,
      "▁andrillae": 984,
      "▁prison": 985,
      "ory": 986,
      "unks": 987,
      "▁afford": 988,
      "▁innovative": 989,
      "▁equival": 990,
      "▁partnership": 991,
      "▁unanim": 992,
      "▁subd": 993,
      "ys": 994,
      "▁mess": 995,
      "55": 996,
      "▁soliloqu": 997,
      "comm": 998,
      "▁coll": 999,
      "▁wikimedia": 1000,
      "-on": 1001,
      "usted": 1002,
      "▁12.": 1003,
      "▁shame": 1004,
      "▁ceiling": 1005,
      "▁argentina": 1006,
      "▁diandra": 1007,
      "▁classic": 1008,
      "▁asyl": 1009,
      "▁reactions": 1010,
      "regard": 1011,
      "▁agra": 1012,
      "▁beyond": 1013,
      "erto": 1014,
      "▁parake": 1015,
      "▁sql": 1016,
      "omen": 1017,
      "▁chuck": 1018,
      "▁courses": 1019,
      "ez": 1020,
      "▁raising": 1021,
      "▁friendsh": 1022,
      "▁cri": 1023,
      "▁talk": 1024,
      "ouched": 1025,
      "entive": 1026,
      "-46": 1027,
      "▁tac": 1028,
      "▁attractive": 1029,
      "▁reapp": 1030,
      "▁attentive": 1031,
      "ient": 1032,
      "▁command": 1033,
      "aff": 1034,
      "▁wrong": 1035,
      "▁discover": 1036,
      "▁match": 1037,
      "▁say": 1038,
      "▁securities": 1039,
      "astic": 1040,
      "▁unfortunately": 1041,
      "▁holders": 1042,
      "▁invest": 1043,
      "▁stor": 1044,
      "leen": 1045,
      "▁6/1": 1046,
      "▁dinos": 1047,
      "ʊ": 1048,
      "edule": 1049,
      "▁spots": 1050,
      "▁6.2": 1051,
      "res": 1052,
      "▁confl": 1053,
      "▁1699": 1054,
      "▁airport": 1055,
      "▁comments": 1056,
      "orno": 1057,
      "▁mystery": 1058,
      "ili": 1059,
      "▁magicians": 1060,
      "▁questioning": 1061,
      ".org": 1062,
      "▁stoo": 1063,
      "ond": 1064,
      "▁bath+": 1065,
      "club": 1066,
      "▁inches": 1067,
      "▁glance": 1068,
      "▁activities": 1069,
      "▁moslem": 1070,
      "▁highest": 1071,
      "▁monkey": 1072,
      "▁vegetables": 1073,
      "▁encouraging": 1074,
      "▁jury": 1075,
      "▁motionless": 1076,
      "raid": 1077,
      "▁roar": 1078,
      "▁everything": 1079,
      "▁puzzle": 1080,
      "▁mcc": 1081,
      "▁oppose": 1082,
      "iz": 1083,
      "▁nons": 1084,
      "ansa": 1085,
      "▁170": 1086,
      "300": 1087,
      "▁anticip": 1088,
      "▁probably": 1089,
      "▁sa": 1090,
      "▁subsid": 1091,
      "▁ken": 1092,
      "▁a": 1093,
      "▁value": 1094,
      "▁plural": 1095,
      "ide": 1096,
      "water": 1097,
      "▁just": 1098,
      "▁flats": 1099,
      "▁hose": 1100,
      "▁fol": 1101,
      "▁rather": 1102,
      "▁block": 1103,
      "▁reliable": 1104,
      "▁&": 1105,
      "iversary": 1106,
      "▁must": 1107,
      "▁doughnuts": 1108,
      "ation": 1109,
      "▁persons": 1110,
      "andra": 1111,
      "▁thrones": 1112,
      "▁chatting": 1113,
      "mart": 1114,
      "▁thron": 1115,
      "▁rope": 1116,
      "▁lords": 1117,
      "▁empan": 1118,
      "▁lwww": 1119,
      "▁oh": 1120,
      "orum": 1121,
      "▁involvement": 1122,
      "▁_______": 1123,
      "▁balzac": 1124,
      "ux": 1125,
      "iration": 1126,
      "▁controls": 1127,
      "▁entities": 1128,
      "▁display": 1129,
      "acht": 1130,
      "▁artificial": 1131,
      "▁toes": 1132,
      "▁mets": 1133,
      ":27": 1134,
      "▁transformative": 1135,
      "▁prevail": 1136,
      "▁scamm": 1137,
      "▁ecc": 1138,
      "▁twelf": 1139,
      "▁ever": 1140,
      "▁pc": 1141,
      "▁daily": 1142,
      "▁behavior": 1143,
      "▁collection": 1144,
      "icking": 1145,
      "▁jeans": 1146,
      "▁preach": 1147,
      "▁anyways": 1148,
      "▁bus": 1149,
      "▁korean": 1150,
      "▁constructed": 1151,
      "▁detective": 1152,
      "▁q": 1153,
      "▁orig": 1154,
      "▁provide": 1155,
      "eless": 1156,
      "▁def": 1157,
      "13.86": 1158,
      "▁outer": 1159,
      "four": 1160,
      "▁stations": 1161,
      "▁obsession": 1162,
      ".com": 1163,
      "ea": 1164,
      "▁1978": 1165,
      "keep": 1166,
      "▁rab": 1167,
      "▁cloth": 1168,
      "▁grandpa": 1169,
      "78": 1170,
      "▁ansi-92": 1171,
      "-class": 1172,
      "ello": 1173,
      "▁hair": 1174,
      "▁glow": 1175,
      "▁158": 1176,
      "▁colleges": 1177,
      "▁civilization": 1178,
      "▁forb": 1179,
      "▁excellent": 1180,
      "▁isolated": 1181,
      "▁rhinoc": 1182,
      "▁shibu": 1183,
      "bs": 1184,
      "akan": 1185,
      "▁11:35": 1186,
      "▁documents": 1187,
      "▁procrast": 1188,
      "▁discretion": 1189,
      "▁unsure": 1190,
      "▁gras": 1191,
      "▁okay": 1192,
      "▁creat": 1193,
      "▁decl": 1194,
      "▁video": 1195,
      "▁moust": 1196,
      "▁worlds": 1197,
      "▁reim": 1198,
      "▁aquar": 1199,
      "▁refugees": 1200,
      "▁pear": 1201,
      "▁hut": 1202,
      "mmet": 1203,
      "▁distinct": 1204,
      "▁respected": 1205,
      "▁shells": 1206,
      "▁lapt": 1207,
      "ults": 1208,
      "▁dock": 1209,
      "▁craft": 1210,
      "▁debr": 1211,
      "▁seller": 1212,
      "▁ethics": 1213,
      "▁tresp": 1214,
      "▁?": 1215,
      "▁profit": 1216,
      "icago": 1217,
      "▁down": 1218,
      "▁embarrassing": 1219,
      "▁move": 1220,
      "▁picnic": 1221,
      "▁hospitals": 1222,
      "▁50000": 1223,
      "▁18,000": 1224,
      "▁bobo": 1225,
      "▁notion": 1226,
      "▁fascinating": 1227,
      "▁strong": 1228,
      "▁connected": 1229,
      "▁tails": 1230,
      "▁entering": 1231,
      "acam": 1232,
      "leep": 1233,
      "▁homeopath": 1234,
      "▁dear": 1235,
      "▁swift": 1236,
      "▁18": 1237,
      ".go": 1238,
      "▁once": 1239,
      "icop": 1240,
      "▁britt": 1241,
      "▁dare": 1242,
      "▁abundance": 1243,
      "ensed": 1244,
      "▁finds": 1245,
      "▁evaluate": 1246,
      "▁woud": 1247,
      "▁airpl": 1248,
      "als": 1249,
      "▁ten": 1250,
      "▁mobile": 1251,
      "▁snow": 1252,
      "▁democrats": 1253,
      "▁281-435": 1254,
      "▁billions": 1255,
      "on@enron": 1256,
      "▁sperm": 1257,
      "▁meiring": 1258,
      "dham": 1259,
      "▁vlad": 1260,
      "▁realized": 1261,
      "▁fat": 1262,
      "ter": 1263,
      "aries": 1264,
      "▁practices": 1265,
      "▁immed": 1266,
      "▁376": 1267,
      "▁contrary": 1268,
      "▁appreciation": 1269,
      "oulders": 1270,
      "pin": 1271,
      "▁feedback": 1272,
      "▁sand": 1273,
      "rey": 1274,
      "▁sk": 1275,
      "▁17": 1276,
      "▁guacamole": 1277,
      "▁basically": 1278,
      "▁stun": 1279,
      "▁31": 1280,
      "alvo": 1281,
      "▁ecosystem": 1282,
      "▁wil": 1283,
      "▁campaign": 1284,
      "▁kil": 1285,
      "ilities": 1286,
      "▁sweat": 1287,
      ".net/news/image/2005.09": 1288,
      "▁coincidence": 1289,
      "o-": 1290,
      "▁diction": 1291,
      "▁comed": 1292,
      "▁12": 1293,
      "▁ren": 1294,
      "▁harmonica": 1295,
      "▁shaw": 1296,
      "▁populated": 1297,
      "▁drawn": 1298,
      "▁sunlight": 1299,
      "▁answers": 1300,
      "▁rud": 1301,
      "▁veteran": 1302,
      "ceed": 1303,
      "▁tick": 1304,
      "▁stirrup": 1305,
      "▁01/24/2001": 1306,
      "++": 1307,
      "00": 1308,
      "▁regist": 1309,
      "▁scholars": 1310,
      "▁savage": 1311,
      "▁perro": 1312,
      "▁swiss": 1313,
      "▁practice": 1314,
      "▁albeit": 1315,
      "▁sectors": 1316,
      "▁waving": 1317,
      "▁mecca": 1318,
      "▁penny": 1319,
      "▁loc": 1320,
      "-by": 1321,
      "▁bin": 1322,
      "▁heav": 1323,
      "▁city": 1324,
      "gy": 1325,
      "▁medical": 1326,
      "▁disrupt": 1327,
      "inea": 1328,
      "driver": 1329,
      "uling": 1330,
      "▁ultr": 1331,
      "▁popeye": 1332,
      "▁curved": 1333,
      "▁lam": 1334,
      "▁accustomed": 1335,
      "▁quickly": 1336,
      "▁frontiers": 1337,
      "▁glue": 1338,
      "fet": 1339,
      "▁yellowstone": 1340,
      "▁nandaro": 1341,
      "▁doctrine": 1342,
      "ange": 1343,
      "▁sor": 1344,
      "▁exile": 1345,
      "▁firms": 1346,
      "▁wires": 1347,
      "▁labrad": 1348,
      "▁manhattan": 1349,
      "▁vol": 1350,
      "▁bears": 1351,
      "▁alberta": 1352,
      "▁wentz": 1353,
      "▁what": 1354,
      "▁ignorance": 1355,
      "▁aircraft": 1356,
      "▁har": 1357,
      "▁'m": 1358,
      "▁1579": 1359,
      "▁divers": 1360,
      "▁ancest": 1361,
      "▁farrier": 1362,
      "▁spacecraft": 1363,
      "▁lob": 1364,
      "▁beck": 1365,
      "▁athe": 1366,
      "▁watering": 1367,
      "▁401": 1368,
      "------->": 1369,
      "▁leader": 1370,
      "ommend": 1371,
      "0": 1372,
      "▁broadcast": 1373,
      "▁ip": 1374,
      "▁indigenous": 1375,
      "▁dar": 1376,
      "▁chal": 1377,
      "▁imprison": 1378,
      "▁dreamed": 1379,
      "▁medal": 1380,
      "ipper": 1381,
      "▁esc": 1382,
      "▁decent": 1383,
      "ument": 1384,
      "▁sar": 1385,
      "ping": 1386,
      "_0": 1387,
      "▁gardens": 1388,
      "▁institutional": 1389,
      "jal": 1390,
      "▁completion": 1391,
      "▁cleaner": 1392,
      "▁aspir": 1393,
      "▁counties": 1394,
      "pa": 1395,
      "▁h": 1396,
      "▁entrance": 1397,
      "iel": 1398,
      "ersonal": 1399,
      "▁thawed": 1400,
      "▁commonplace": 1401,
      "isms": 1402,
      "▁blackl": 1403,
      "▁urler": 1404,
      "▁lost": 1405,
      "▁camping": 1406,
      "▁diaper": 1407,
      "▁keeping": 1408,
      "▁required": 1409,
      "pre": 1410,
      "▁unto": 1411,
      "att": 1412,
      "▁ideally": 1413,
      "▁’’": 1414,
      "▁entrep": 1415,
      "▁failure": 1416,
      "▁sleeve": 1417,
      "▁circus": 1418,
      "▁flaubert": 1419,
      "▁grand": 1420,
      "▁huma": 1421,
      "▁brilliant": 1422,
      "▁picks": 1423,
      "▁yellow": 1424,
      "▁balloons": 1425,
      "▁kings": 1426,
      "▁inter": 1427,
      "ye": 1428,
      "load": 1429,
      "▁desk": 1430,
      "▁wit": 1431,
      "▁responses": 1432,
      "ression": 1433,
      "▁characteristics": 1434,
      "ade": 1435,
      "8": 1436,
      "▁ie": 1437,
      "▁tens": 1438,
      "▁manufacturing": 1439,
      "▁crayon": 1440,
      "▁loyal": 1441,
      ",950": 1442,
      "istrib": 1443,
      "▁relation": 1444,
      "▁institute": 1445,
      "▁leban": 1446,
      "yen": 1447,
      "▁totally": 1448,
      "▁a.": 1449,
      "▁congressional": 1450,
      "▁notebook.url": 1451,
      "▁democr": 1452,
      "▁painful": 1453,
      "▁prosp": 1454,
      "▁.xsl": 1455,
      "▁nav": 1456,
      "▁altogether": 1457,
      "▁py": 1458,
      "▁final": 1459,
      "▁negoti": 1460,
      "▁fall": 1461,
      "▁199": 1462,
      "▁trained": 1463,
      "▁nwww": 1464,
      "▁t": 1465,
      "▁famil": 1466,
      "▁allocated": 1467,
      "▁hok": 1468,
      "▁family": 1469,
      "▁religious": 1470,
      "14": 1471,
      "▁838": 1472,
      "▁marg": 1473,
      "▁successor": 1474,
      "▁somm": 1475,
      "▁feb.": 1476,
      "▁went": 1477,
      "apers": 1478,
      "▁mous": 1479,
      "derick": 1480,
      "an@t": 1481,
      "▁racial": 1482,
      "▁umbrella": 1483,
      "ح": 1484,
      "▁entree": 1485,
      "2": 1486,
      "▁corruption": 1487,
      "▁methods": 1488,
      "▁lenn": 1489,
      "”": 1490,
      "▁pyr": 1491,
      "▁hopeless": 1492,
      "▁organizations": 1493,
      "▁program": 1494,
      "not": 1495,
      "▁although": 1496,
      "mem": 1497,
      "▁amendments": 1498,
      "▁blowing": 1499,
      "▁succeed": 1500,
      "▁cer": 1501,
      "▁281-435-0295": 1502,
      "▁accommod": 1503,
      "▁hunh": 1504,
      "▁frederick": 1505,
      "▁dies": 1506,
      "attered": 1507,
      "▁irish": 1508,
      "<----": 1509,
      "▁arctic": 1510,
      "▁lord": 1511,
      "▁santorum": 1512,
      "940": 1513,
      "▁tickets": 1514,
      "esome": 1515,
      "▁semantics": 1516,
      "▁substit": 1517,
      "▁warmth": 1518,
      "ises": 1519,
      "erick": 1520,
      "▁certainty": 1521,
      "▁48": 1522,
      "ovo": 1523,
      "▁assured": 1524,
      "▁brooms": 1525,
      "▁stub": 1526,
      "illery": 1527,
      "▁pdt": 1528,
      "peare": 1529,
      "▁coc": 1530,
      "▁itself": 1531,
      "fi": 1532,
      "▁pivot": 1533,
      "▁oval": 1534,
      "iri": 1535,
      "▁major": 1536,
      "vo": 1537,
      "sid": 1538,
      "▁slightly": 1539,
      "instein": 1540,
      "▁civ": 1541,
      "▁secret": 1542,
      "▁marble": 1543,
      "▁attendance": 1544,
      "▁newark": 1545,
      "▁thirty-five": 1546,
      "▁to": 1547,
      "▁puts": 1548,
      "▁weak": 1549,
      "▁closest": 1550,
      "▁rib": 1551,
      "essions": 1552,
      "▁observe": 1553,
      "▁jet": 1554,
      "8-7": 1555,
      "▁play+ground": 1556,
      "▁real": 1557,
      "▁gdp": 1558,
      "illed": 1559,
      "▁sd": 1560,
      "▁weekday": 1561,
      "tegr": 1562,
      "▁east": 1563,
      "▁broader": 1564,
      "▁philly": 1565,
      "▁10th": 1566,
      ":02": 1567,
      "▁shore": 1568,
      "▁prosperity": 1569,
      "1.": 1570,
      "▁il": 1571,
      "▁unaware": 1572,
      "▁remed": 1573,
      "▁jelly": 1574,
      "▁cheese": 1575,
      "▁independence": 1576,
      "▁blackline": 1577,
      "▁bean": 1578,
      "▁exact": 1579,
      "▁thy": 1580,
      "▁reduced": 1581,
      "▁tower": 1582,
      "▁honda": 1583,
      "▁estimated": 1584,
      "▁realists": 1585,
      "eed": 1586,
      "奈": 1587,
      "▁twirl": 1588,
      "▁expense": 1589,
      "▁knee": 1590,
      "▁can": 1591,
      "eller": 1592,
      "▁whereby": 1593,
      "▁childhood": 1594,
      "ensity": 1595,
      "▁doing": 1596,
      "▁warning": 1597,
      "enue": 1598,
      "▁voters": 1599,
      "▁asc": 1600,
      "▁strain": 1601,
      "▁neigh": 1602,
      "erson": 1603,
      "nb": 1604,
      "▁saucepan": 1605,
      "ours": 1606,
      "▁malfoy": 1607,
      "▁ronn": 1608,
      "bre": 1609,
      "▁r.": 1610,
      "83": 1611,
      "▁popped": 1612,
      "unction": 1613,
      "▁ze": 1614,
      "▁bowls": 1615,
      "▁recorder": 1616,
      "▁dilemm": 1617,
      "▁collaborative": 1618,
      "▁pie": 1619,
      "ild": 1620,
      "▁treat": 1621,
      "▁prominent": 1622,
      "▁language": 1623,
      "▁quebec": 1624,
      "▁football": 1625,
      "▁priv": 1626,
      "▁despite": 1627,
      "η": 1628,
      "??": 1629,
      "▁brook": 1630,
      "▁183": 1631,
      "▁died": 1632,
      "▁celebrations": 1633,
      ".org/": 1634,
      "▁dealer": 1635,
      "▁paralymp": 1636,
      "▁---": 1637,
      "▁winds": 1638,
      "▁exploring": 1639,
      "▁chand": 1640,
      "clus": 1641,
      "▁oil": 1642,
      "▁www.": 1643,
      "text": 1644,
      "igible": 1645,
      "▁1892": 1646,
      "++++++++": 1647,
      "▁scissors": 1648,
      "▁three": 1649,
      "▁recruiting": 1650,
      "lain": 1651,
      "▁faces": 1652,
      "▁interconn": 1653,
      "owl": 1654,
      "▁shirts": 1655,
      "▁poverty": 1656,
      "▁damned": 1657,
      "▁belonged": 1658,
      "hab": 1659,
      "▁islam": 1660,
      "▁pray": 1661,
      "▁choms": 1662,
      "[": 1663,
      "▁axis": 1664,
      "▁ship": 1665,
      "▁cabin": 1666,
      "▁rights": 1667,
      "▁wal": 1668,
      "▁rider": 1669,
      "▁corresponding": 1670,
      "▁homosexuality": 1671,
      "▁danger": 1672,
      "▁viv": 1673,
      "▁monopoly": 1674,
      "▁suggests": 1675,
      "▁editor": 1676,
      "▁sun": 1677,
      "▁warwick": 1678,
      "<": 1679,
      "▁argues": 1680,
      "▁inevitably": 1681,
      "as": 1682,
      "▁horn": 1683,
      "ject": 1684,
      "▁s’": 1685,
      "▁concluded": 1686,
      "▁landed": 1687,
      "-20": 1688,
      "▁horror": 1689,
      "▁1/2": 1690,
      "y@enron_development": 1691,
      "▁fig": 1692,
      "▁jons": 1693,
      "▁divor": 1694,
      "▁poly": 1695,
      "▁milky": 1696,
      "0s": 1697,
      "▁perling": 1698,
      "▁chas": 1699,
      "▁mind": 1700,
      "▁nutrition": 1701,
      "▁proceeded": 1702,
      "▁glen": 1703,
      "▁6.00": 1704,
      "-up": 1705,
      "▁yesterday": 1706,
      "▁recognized": 1707,
      "▁competitive": 1708,
      "▁mr.": 1709,
      "▁murder": 1710,
      "imony": 1711,
      "▁kane": 1712,
      "▁departure": 1713,
      "▁chamber": 1714,
      "▁licensor": 1715,
      "by": 1716,
      "▁notebook": 1717,
      "ampa": 1718,
      "▁reduce": 1719,
      "ento": 1720,
      "▁posts": 1721,
      "▁tex": 1722,
      "▁uma": 1723,
      "itting": 1724,
      "▁oakland": 1725,
      "ray": 1726,
      "▁partner": 1727,
      "▁fisheries": 1728,
      "▁miller": 1729,
      "▁people": 1730,
      "▁cleaning": 1731,
      "awi": 1732,
      "▁confir": 1733,
      "▁nmem": 1734,
      "atus": 1735,
      "enga": 1736,
      "▁perfectly": 1737,
      "▁wether": 1738,
      "▁amm": 1739,
      "▁cere": 1740,
      "▁hospital": 1741,
      "▁pat": 1742,
      "▁patter": 1743,
      "▁happened": 1744,
      "▁hew": 1745,
      "▁series": 1746,
      "otra": 1747,
      "▁hitler": 1748,
      "▁midas": 1749,
      "▁remark": 1750,
      "▁800-553-3119": 1751,
      "▁samples": 1752,
      "▁tummy": 1753,
      "gled": 1754,
      "osis": 1755,
      "▁sunglasses": 1756,
      ".782": 1757,
      "anim": 1758,
      "▁deg": 1759,
      "▁priority": 1760,
      "▁blood": 1761,
      "▁smoke": 1762,
      ".consum": 1763,
      "▁3.7": 1764,
      "▁introduce": 1765,
      "38": 1766,
      "▁ourselves": 1767,
      "unh": 1768,
      "web": 1769,
      "▁faithful": 1770,
      "▁farms": 1771,
      "▁sensitive": 1772,
      "▁cult": 1773,
      "▁economics": 1774,
      "▁roman": 1775,
      "▁fail": 1776,
      "▁shots": 1777,
      "▁sophie": 1778,
      "▁pigs": 1779,
      "▁financing": 1780,
      "▁concer": 1781,
      "mn": 1782,
      "▁cruelty": 1783,
      "▁thr": 1784,
      "▁relationships": 1785,
      "▁hard": 1786,
      "▁battles": 1787,
      "▁joshua": 1788,
      "▁carnival": 1789,
      "▁restriction": 1790,
      "▁proof": 1791,
      "▁thirty": 1792,
      "▁landing": 1793,
      "▁represents": 1794,
      "▁near": 1795,
      "▁captured": 1796,
      "▁abund": 1797,
      ":55": 1798,
      "▁mr": 1799,
      "boat": 1800,
      "▁ol": 1801,
      "▁steadily": 1802,
      "▁preference": 1803,
      "▁1918": 1804,
      "ه": 1805,
      "▁dash": 1806,
      "▁diplomacy": 1807,
      "▁shopping": 1808,
      "▁assassinated": 1809,
      "bling": 1810,
      "ano": 1811,
      "ocked": 1812,
      "▁groan": 1813,
      "▁forth": 1814,
      "▁12:1": 1815,
      "▁current": 1816,
      "▁groups": 1817,
      "▁categ": 1818,
      "▁buildings": 1819,
      "▁quinn": 1820,
      ".m": 1821,
      "\\": 1822,
      "▁inv": 1823,
      "-460-3": 1824,
      "▁ask": 1825,
      "▁mitchell": 1826,
      "▁rig": 1827,
      "▁russell": 1828,
      "ork": 1829,
      "ilight": 1830,
      "▁dan": 1831,
      "▁upright": 1832,
      "▁spore": 1833,
      "▁originally": 1834,
      "▁carvings": 1835,
      "▁fount": 1836,
      "▁delta": 1837,
      "ot": 1838,
      "laim": 1839,
      "▁aud": 1840,
      "ggy": 1841,
      "▁hay": 1842,
      "▁server": 1843,
      "▁annual": 1844,
      "▁objective": 1845,
      "ipping": 1846,
      "▁3724": 1847,
      "▁jacob": 1848,
      "▁stu": 1849,
      "▁sit": 1850,
      "▁magazine": 1851,
      "▁occur": 1852,
      "-)": 1853,
      "▁claims": 1854,
      "▁cliff": 1855,
      "▁1738": 1856,
      "▁management": 1857,
      "▁bent": 1858,
      ":0": 1859,
      "▁lego": 1860,
      "▁utilities": 1861,
      "▁patrick": 1862,
      "▁at": 1863,
      "▁endeavor": 1864,
      "▁identified": 1865,
      "▁necessarily": 1866,
      "▁antibiot": 1867,
      "▁signed": 1868,
      "▁neighbours": 1869,
      "▁kend": 1870,
      "▁greet": 1871,
      "▁damasc": 1872,
      "▁chop": 1873,
      "rof": 1874,
      "琴": 1875,
      "▁vietn": 1876,
      "▁spa": 1877,
      "ther": 1878,
      "izing": 1879,
      "▁click": 1880,
      "par": 1881,
      "▁core": 1882,
      "▁frequ": 1883,
      "▁temples": 1884,
      "▁dict": 1885,
      "▁acts": 1886,
      "▁daisy": 1887,
      "▁goriot": 1888,
      "▁equip": 1889,
      "7/99": 1890,
      "▁myst": 1891,
      "weight": 1892,
      "▁complic": 1893,
      "nis": 1894,
      "▁prep": 1895,
      "▁outlets": 1896,
      ".g": 1897,
      "asc": 1898,
      "▁detroit": 1899,
      "▁dip": 1900,
      "▁(": 1901,
      "▁univer": 1902,
      "▁09/15/99": 1903,
      "▁hills": 1904,
      "▁critical": 1905,
      "ilton": 1906,
      "▁half": 1907,
      "▁89": 1908,
      "▁database": 1909,
      "▁few": 1910,
      ":46": 1911,
      "▁martyrs": 1912,
      "▁failures": 1913,
      "▁supermark": 1914,
      "▁exceptionally": 1915,
      "▁appoint": 1916,
      "▁anybody": 1917,
      "op": 1918,
      "21": 1919,
      "▁tags": 1920,
      "▁mans": 1921,
      "▁enjoyable": 1922,
      "▁horse": 1923,
      "arse": 1924,
      "▁commented": 1925,
      "▁presence": 1926,
      "▁shobhajatra": 1927,
      "▁v": 1928,
      "▁upside": 1929,
      "????????????????": 1930,
      "▁visits": 1931,
      "▁formed": 1932,
      "▁mutation": 1933,
      "▁saddle": 1934,
      "▁derivatives": 1935,
      "▁foam": 1936,
      "▁stepping": 1937,
      "▁solution": 1938,
      "-415-": 1939,
      "▁forms": 1940,
      "▁fed": 1941,
      "▁composed": 1942,
      "jj": 1943,
      "▁predators": 1944,
      "▁tanks": 1945,
      "ale": 1946,
      "iger": 1947,
      "▁360": 1948,
      "▁reinfor": 1949,
      "▁patty": 1950,
      "▁shower": 1951,
      "usters": 1952,
      "▁dresser": 1953,
      "▁grow": 1954,
      "agement": 1955,
      "hand": 1956,
      "▁201": 1957,
      "▁soo": 1958,
      "▁fatal": 1959,
      "▁tripped": 1960,
      "▁exce": 1961,
      "▁dragon": 1962,
      "fer": 1963,
      "▁insects": 1964,
      "▁safer": 1965,
      "▁patch": 1966,
      "▁hover": 1967,
      "▁provinc": 1968,
      "▁versus": 1969,
      "▁adver": 1970,
      "ptive": 1971,
      "▁jac": 1972,
      "▁hack": 1973,
      "estic": 1974,
      "after": 1975,
      ".718": 1976,
      "ari": 1977,
      "▁ii": 1978,
      "▁denied": 1979,
      "chart": 1980,
      "▁requirement": 1981,
      "3c": 1982,
      "▁cert": 1983,
      "▁tehran": 1984,
      "▁geared": 1985,
      "olution": 1986,
      "▁dazzling": 1987,
      "▁strait": 1988,
      "004": 1989,
      "▁==----": 1990,
      "▁718-780": 1991,
      "▁comic": 1992,
      "▁fac": 1993,
      "▁treatments": 1994,
      "▁fitness": 1995,
      "▁disease": 1996,
      "▁doggie": 1997,
      "▁suppose": 1998,
      ".3": 1999,
      "▁==": 2000,
      "▁fitting": 2001,
      "8th": 2002,
      "903": 2003,
      "▁bridges": 2004,
      "▁encabalgamiento": 2005,
      "▁cell": 2006,
      "iqu": 2007,
      "osite": 2008,
      "▁expanding": 2009,
      "▁nar": 2010,
      "▁commit": 2011,
      "▁03/21/2001": 2012,
      "▁companies": 2013,
      "▁frightened": 2014,
      "▁experiment": 2015,
      "▁explore": 2016,
      "▁laura": 2017,
      "ahe": 2018,
      "▁panel": 2019,
      "oy": 2020,
      "-ch": 2021,
      "zan": 2022,
      "▁living": 2023,
      "▁backpack": 2024,
      "ba": 2025,
      "▁shadow": 2026,
      "amar": 2027,
      "▁1580": 2028,
      "▁knights": 2029,
      "(": 2030,
      "▁łodzian": 2031,
      "▁hats": 2032,
      "▁jar": 2033,
      "▁pets": 2034,
      "▁ty": 2035,
      "ri": 2036,
      "eline": 2037,
      "▁ingredients": 2038,
      "▁party": 2039,
      "set": 2040,
      "▁advertising": 2041,
      ",500": 2042,
      "**********************************": 2043,
      "▁album": 2044,
      "96": 2045,
      "▁yogurt": 2046,
      "▁foundation": 2047,
      "▁unhapp": 2048,
      "▁sufaat": 2049,
      "▁confirming": 2050,
      "▁held": 2051,
      "ific": 2052,
      "▁behin": 2053,
      "▁enj": 2054,
      "▁campbell": 2055,
      "where": 2056,
      "uct": 2057,
      "▁suck": 2058,
      "_28": 2059,
      "▁indones": 2060,
      "▁gotted": 2061,
      "enz": 2062,
      "▁shackleton@ect": 2063,
      "▁patient": 2064,
      "▁quality": 2065,
      "▁harsh": 2066,
      "▁orders": 2067,
      "▁inquiry": 2068,
      "▁connectionstring": 2069,
      "▁nj": 2070,
      "---------------": 2071,
      "▁tribal": 2072,
      "▁prompt": 2073,
      "2,000": 2074,
      "▁contacts": 2075,
      "▁evening": 2076,
      "elf": 2077,
      "▁dow": 2078,
      "▁record": 2079,
      "▁ignoring": 2080,
      "▁accustom": 2081,
      "▁conscious": 2082,
      "▁administrative": 2083,
      "pper": 2084,
      "!!!!": 2085,
      "▁divide": 2086,
      "▁97": 2087,
      "▁directors": 2088,
      "ashion": 2089,
      "▁feature": 2090,
      "▁deliberate": 2091,
      "▁univers": 2092,
      "rial": 2093,
      "800": 2094,
      "▁punch": 2095,
      "▁manufacturers": 2096,
      "y@ect": 2097,
      "▁noses": 2098,
      "▁possibly": 2099,
      "▁limited": 2100,
      "inqu": 2101,
      "▁solicit": 2102,
      "ategy": 2103,
      "▁san": 2104,
      "▁fle": 2105,
      "▁sauv": 2106,
      "▁balances": 2107,
      "/16/2001": 2108,
      "▁blueberry": 2109,
      "▁u": 2110,
      "▁call": 2111,
      "▁flu": 2112,
      "▁2002": 2113,
      "▁neolog": 2114,
      "▁dignit": 2115,
      "▁bumble": 2116,
      "▁span": 2117,
      "arency": 2118,
      "ility": 2119,
      "▁false": 2120,
      "▁asap": 2121,
      "▁hol": 2122,
      "▁describ": 2123,
      "▁cozy": 2124,
      "iated": 2125,
      "gam": 2126,
      "▁orientation": 2127,
      "ibility": 2128,
      "▁chinese": 2129,
      "▁criminals": 2130,
      "▁sake": 2131,
      "▁832.676": 2132,
      "▁imperial": 2133,
      "ded": 2134,
      "▁bludgers": 2135,
      "▁consum": 2136,
      "bers": 2137,
      "▁eb": 2138,
      "▁drawer": 2139,
      "▁whist": 2140,
      "▁obtained": 2141,
      "▁recon": 2142,
      "@": 2143,
      "▁peace": 2144,
      "▁conduct": 2145,
      "77": 2146,
      "▁.?": 2147,
      "▁1960s": 2148,
      "▁myth": 2149,
      "zzy": 2150,
      "03": 2151,
      "▁functions": 2152,
      "▁cooked": 2153,
      "▁gene": 2154,
      "▁nest": 2155,
      "▁sure": 2156,
      "nament": 2157,
      "▁jonathan": 2158,
      "▁civilized": 2159,
      "▁cocktail": 2160,
      "unct": 2161,
      "▁ehow": 2162,
      "▁future": 2163,
      "/d": 2164,
      "uter": 2165,
      "▁860": 2166,
      "▁lymph": 2167,
      "tw": 2168,
      "▁favorite": 2169,
      "▁gloves": 2170,
      "▁gon": 2171,
      "▁dum": 2172,
      "tch": 2173,
      "▁agreements": 2174,
      "▁lift": 2175,
      "▁sixteen": 2176,
      "thew": 2177,
      "▁stability": 2178,
      "▁resp": 2179,
      "▁scarf": 2180,
      "▁45": 2181,
      "bat": 2182,
      "▁repairs": 2183,
      "ibilities": 2184,
      "▁anthony": 2185,
      "▁unconscious": 2186,
      "▁40": 2187,
      "occo": 2188,
      "▁gels": 2189,
      "▁comple": 2190,
      "▁armored": 2191,
      "▁whilst": 2192,
      "verse": 2193,
      "ric": 2194,
      "▁flavor": 2195,
      "▁wait": 2196,
      "▁creates": 2197,
      "fly": 2198,
      "▁numer": 2199,
      "▁strictly": 2200,
      "izes": 2201,
      "▁deaths": 2202,
      "▁ivan": 2203,
      "▁gimp": 2204,
      "ɔ": 2205,
      "▁alone": 2206,
      "oust": 2207,
      "▁mixture": 2208,
      "▁cinnamon": 2209,
      "▁dine": 2210,
      "▁cincinnati": 2211,
      "▁abroad": 2212,
      "▁poured": 2213,
      "▁prevented": 2214,
      "▁basil": 2215,
      "▁underst": 2216,
      "ino": 2217,
      "▁depth": 2218,
      "onda": 2219,
      "▁324": 2220,
      "▁inquir": 2221,
      "▁specification": 2222,
      "▁ian": 2223,
      "▁depths": 2224,
      "▁cries": 2225,
      "▁excessive": 2226,
      "erce": 2227,
      "▁differ": 2228,
      "183": 2229,
      "▁rushed": 2230,
      "▁technologies": 2231,
      "▁tremendous": 2232,
      "▁4_28_00.doc": 2233,
      "awk": 2234,
      "▁rear": 2235,
      "▁spores": 2236,
      "wich": 2237,
      "▁cows": 2238,
      "▁chose": 2239,
      "▁dudley": 2240,
      "▁chocolates": 2241,
      "ruption": 2242,
      "▁claire": 2243,
      "gmail.com": 2244,
      "▁madam": 2245,
      "▁arth": 2246,
      "anger": 2247,
      ".m.": 2248,
      "▁became": 2249,
      "▁dripping": 2250,
      "▁1981": 2251,
      "ow": 2252,
      "▁enrongss.xls": 2253,
      "agraph": 2254,
      "▁follows": 2255,
      "▁beings": 2256,
      "inction": 2257,
      "aid": 2258,
      "▁tippy": 2259,
      "lier": 2260,
      "▁sovereign": 2261,
      "▁listed": 2262,
      "▁bathtub": 2263,
      "▁whoo": 2264,
      "▁23rd": 2265,
      "▁functioning": 2266,
      "▁proved": 2267,
      "▁poles": 2268,
      "sed": 2269,
      "▁ee": 2270,
      "▁lest": 2271,
      "▁dry": 2272,
      "▁ambulance": 2273,
      "▁saw": 2274,
      "▁944": 2275,
      "▁recipe": 2276,
      "ican": 2277,
      ",1": 2278,
      "▁defin": 2279,
      "▁mi": 2280,
      "▁mohamed": 2281,
      "▁dil": 2282,
      "▁commodity": 2283,
      "▁transl": 2284,
      "▁derived": 2285,
      "▁consciousness": 2286,
      "▁flat": 2287,
      "▁instance": 2288,
      "▁corporation": 2289,
      "▁hosts": 2290,
      "▁kus": 2291,
      "▁decided": 2292,
      "▁please": 2293,
      "▁company": 2294,
      "▁years": 2295,
      "▁shuttle": 2296,
      "▁different": 2297,
      "▁11:3": 2298,
      "etime": 2299,
      "▁international": 2300,
      "▁mechanics": 2301,
      "▁integrity": 2302,
      "8-3": 2303,
      "▁profession": 2304,
      "▁stra": 2305,
      "▁115": 2306,
      "▁wins": 2307,
      "▁shahar": 2308,
      "▁be": 2309,
      "-23": 2310,
      "▁outcom": 2311,
      "▁category": 2312,
      "gary": 2313,
      "▁pyjamas": 2314,
      "▁memorable": 2315,
      "▁imposing": 2316,
      "▁bedroom": 2317,
      "▁important": 2318,
      "▁pushes": 2319,
      "▁bye": 2320,
      "▁cottage": 2321,
      "▁keeps": 2322,
      "look": 2323,
      "alf": 2324,
      "acter": 2325,
      "▁companion": 2326,
      "ake": 2327,
      "▁agree": 2328,
      "▁contributions": 2329,
      "ky": 2330,
      "aaaa": 2331,
      "light": 2332,
      "▁parade": 2333,
      "▁terrible": 2334,
      "enc": 2335,
      "▁awoh": 2336,
      "▁quartile": 2337,
      "▁recovery": 2338,
      "▁looking": 2339,
      "play": 2340,
      "ert": 2341,
      "▁ent": 2342,
      "▁sites": 2343,
      "ioch": 2344,
      "▁pad": 2345,
      "▁borg": 2346,
      "c.": 2347,
      "act": 2348,
      "▁rece": 2349,
      "▁iod": 2350,
      "▁lawy": 2351,
      "pts": 2352,
      "▁insurgents": 2353,
      "▁indianapolis": 2354,
      "▁indicates": 2355,
      "eda": 2356,
      "▁oreg": 2357,
      "▁terrified": 2358,
      "▁wednesday": 2359,
      "ension": 2360,
      "amble": 2361,
      "▁think": 2362,
      "▁cigarette": 2363,
      "▁meantime": 2364,
      "▁demanding": 2365,
      "ites": 2366,
      "▁prec": 2367,
      "ened": 2368,
      "▁hurry": 2369,
      "▁words": 2370,
      "▁theod": 2371,
      "hajatra": 2372,
      "▁debra": 2373,
      "▁maria": 2374,
      "resp": 2375,
      "▁condemned": 2376,
      "▁dissatisf": 2377,
      "▁outs": 2378,
      "▁guard": 2379,
      "▁bleeding": 2380,
      "▁drug": 2381,
      "▁correspond": 2382,
      "▁et": 2383,
      "▁hub": 2384,
      "▁good": 2385,
      "▁vigor": 2386,
      "gle": 2387,
      "▁pursue": 2388,
      "▁gis": 2389,
      "▁purple": 2390,
      "▁coord": 2391,
      "icts": 2392,
      "▁enormous": 2393,
      "▁knocked": 2394,
      "▁touched": 2395,
      "▁powerful": 2396,
      "▁centuries": 2397,
      "▁nut": 2398,
      "况": 2399,
      "▁sir": 2400,
      "▁nashville": 2401,
      "▁purpose": 2402,
      "▁mcg": 2403,
      "cr": 2404,
      "▁documented": 2405,
      "▁sent": 2406,
      "▁socc": 2407,
      "icles": 2408,
      "▁prepare": 2409,
      "▁subtle": 2410,
      "▁discovery": 2411,
      "▁shook": 2412,
      "▁lovely": 2413,
      "▁....................": 2414,
      "▁chew": 2415,
      "▁using": 2416,
      "▁industry": 2417,
      "▁administ": 2418,
      "▁laden": 2419,
      "▁paused": 2420,
      "▁poor": 2421,
      "▁large": 2422,
      "ughter": 2423,
      "▁scen": 2424,
      "▁comprom": 2425,
      "▁muse": 2426,
      "▁implementation": 2427,
      ".asp": 2428,
      "▁--": 2429,
      "▁wid": 2430,
      "▁plants": 2431,
      "▁significance": 2432,
      "▁repeating": 2433,
      "▁riverside": 2434,
      "▁providers": 2435,
      "her": 2436,
      "▁streets": 2437,
      "▁distinguished": 2438,
      "▁rod": 2439,
      "▁************************************************": 2440,
      "▁itinerary": 2441,
      "▁jih": 2442,
      "▁grants": 2443,
      "iguing": 2444,
      "▁contex": 2445,
      "▁ext": 2446,
      "▁romeo": 2447,
      "▁nights": 2448,
      "▁52": 2449,
      "▁tool": 2450,
      "▁beaches": 2451,
      "▁amid": 2452,
      "med": 2453,
      "▁bun": 2454,
      "▁plaint": 2455,
      "澹": 2456,
      "▁hect": 2457,
      "▁goats": 2458,
      "▁child": 2459,
      "▁kids": 2460,
      "▁citiz": 2461,
      "▁minute": 2462,
      "▁doubt": 2463,
      "▁give": 2464,
      "apsed": 2465,
      "▁trot": 2466,
      "▁iranian": 2467,
      "▁os": 2468,
      "▁roll": 2469,
      "▁arrog": 2470,
      "880": 2471,
      "▁saying": 2472,
      "▁median": 2473,
      "▁forgot": 2474,
      "▁evolutionary": 2475,
      "▁overs": 2476,
      "▁longest": 2477,
      "▁hulk": 2478,
      "▁instruct": 2479,
      "▁mand": 2480,
      "▁6,000": 2481,
      "▁4th": 2482,
      "▁devon": 2483,
      "aking": 2484,
      "▁prag": 2485,
      "▁den": 2486,
      "▁rule": 2487,
      "▁marx": 2488,
      "▁landings": 2489,
      "▁bce": 2490,
      "▁abuse": 2491,
      "▁liv": 2492,
      "▁nabe": 2493,
      "12": 2494,
      "▁forwarding": 2495,
      "▁postp": 2496,
      "▁knowing": 2497,
      "▁03:58": 2498,
      "▁opposite": 2499,
      "fu": 2500,
      "▁abb": 2501,
      "33": 2502,
      "▁romance": 2503,
      "▁cant": 2504,
      "▁account": 2505,
      "▁premise": 2506,
      "▁kevin": 2507,
      "erous": 2508,
      "bor": 2509,
      "▁works": 2510,
      "ii": 2511,
      "▁motives": 2512,
      "▁ple": 2513,
      "▁sides": 2514,
      "▁surveillance": 2515,
      "▁tab": 2516,
      "▁”": 2517,
      "▁context": 2518,
      "▁disin": 2519,
      "▁mutual": 2520,
      "ivity": 2521,
      "▁shakes": 2522,
      "oul": 2523,
      "▁recorded": 2524,
      "ching": 2525,
      "▁datash": 2526,
      "▁aster": 2527,
      "▁individually": 2528,
      "▁mornings": 2529,
      "▁known": 2530,
      "▁sponsored": 2531,
      "▁gab": 2532,
      "▁titanic": 2533,
      "▁arrows": 2534,
      "▁alban": 2535,
      "▁tob": 2536,
      "▁questionna": 2537,
      "▁valentine": 2538,
      "▁couch": 2539,
      "otamus": 2540,
      "_1": 2541,
      "star": 2542,
      "▁carr": 2543,
      "▁beach": 2544,
      "ima": 2545,
      "▁łod": 2546,
      "▁wallet": 2547,
      "abul": 2548,
      "ese": 2549,
      "oons": 2550,
      "▁counted": 2551,
      "▁ordering": 2552,
      "▁olivia": 2553,
      "▁adequ": 2554,
      "stip": 2555,
      "20s": 2556,
      ".45": 2557,
      "▁phenomenon": 2558,
      "▁google": 2559,
      "▁stap": 2560,
      "▁changing": 2561,
      "▁retired": 2562,
      "ocate": 2563,
      "sh": 2564,
      "▁jo": 2565,
      "oub": 2566,
      "▁fi": 2567,
      "▁jack": 2568,
      "▁agricult": 2569,
      "▁dick": 2570,
      "▁attitude": 2571,
      "▁dialog": 2572,
      "mate": 2573,
      "▁bruce": 2574,
      "28": 2575,
      "eurs": 2576,
      "▁finished": 2577,
      "▁dead": 2578,
      "▁receiving": 2579,
      "obiograph": 2580,
      "▁uncom": 2581,
      "▁1821": 2582,
      "▁kevalam": 2583,
      "://": 2584,
      "▁com": 2585,
      "▁ye": 2586,
      "atm": 2587,
      "▁wishes": 2588,
      "▁unlim": 2589,
      "▁recognize": 2590,
      "▁fred": 2591,
      "rench": 2592,
      "▁remainder": 2593,
      "▁anal": 2594,
      "▁deserve": 2595,
      "nes": 2596,
      "▁dissemination": 2597,
      "▁doctor": 2598,
      "▁montreal": 2599,
      "▁sequence": 2600,
      "▁!!!": 2601,
      "uf": 2602,
      "▁dave": 2603,
      "ses": 2604,
      "▁iguazu": 2605,
      "▁latest": 2606,
      "▁8:30": 2607,
      "▁bake": 2608,
      "▁tr": 2609,
      "▁reputation": 2610,
      "▁covering": 2611,
      "▁tore": 2612,
      "▁incorrect": 2613,
      "▁elaborate": 2614,
      "▁improvements": 2615,
      "angle": 2616,
      "ansion": 2617,
      ".8": 2618,
      "▁redlined": 2619,
      "▁couples": 2620,
      "el": 2621,
      "▁prevent": 2622,
      "▁realist": 2623,
      "utes": 2624,
      "hy": 2625,
      "pal": 2626,
      "▁continue": 2627,
      "▁datab": 2628,
      "▁caul": 2629,
      "▁paper": 2630,
      "ability": 2631,
      "c": 2632,
      "rom": 2633,
      "rict": 2634,
      "▁success": 2635,
      "▁inspection": 2636,
      ".123": 2637,
      "}*{===<----": 2638,
      "mines": 2639,
      "▁·": 2640,
      "▁ave": 2641,
      "▁missiles": 2642,
      "omend": 2643,
      "393": 2644,
      "▁expertise": 2645,
      "▁zawah": 2646,
      "▁philipp": 2647,
      "ahu": 2648,
      "▁previously": 2649,
      "▁filthy": 2650,
      "▁smiling": 2651,
      "▁columbia": 2652,
      "▁effectively": 2653,
      "▁fuzzy": 2654,
      "▁11,000": 2655,
      "▁writ": 2656,
      "ona": 2657,
      "▁gently": 2658,
      "▁dramat": 2659,
      "oys": 2660,
      "inct": 2661,
      "▁carefully": 2662,
      "esion": 2663,
      "▁elephant": 2664,
      "▁intern": 2665,
      "▁fungi": 2666,
      "▁arrive": 2667,
      "▁basketball": 2668,
      "com": 2669,
      "▁dro": 2670,
      "▁complim": 2671,
      "▁statute": 2672,
      "▁lay": 2673,
      "▁min": 2674,
      "id=": 2675,
      "▁epistemic": 2676,
      "▁subjects": 2677,
      "asts": 2678,
      "▁lik": 2679,
      "▁airports": 2680,
      "▁resem": 2681,
      "▁prote": 2682,
      "▁player": 2683,
      "▁returned": 2684,
      "▁goode": 2685,
      "ibly": 2686,
      "▁technology": 2687,
      "ij": 2688,
      "▁pools": 2689,
      "▁sheltered": 2690,
      "▁floren": 2691,
      "▁elsewhere": 2692,
      "▁ss": 2693,
      "▁forward": 2694,
      "▁runs": 2695,
      "▁anymore": 2696,
      "▁commonly": 2697,
      "▁heck": 2698,
      "▁intelligence": 2699,
      "▁trip": 2700,
      "▁successfully": 2701,
      "bing": 2702,
      "▁batter": 2703,
      "▁padalecki": 2704,
      "▁evidently": 2705,
      "▁installing": 2706,
      "▁suggesting": 2707,
      "▁focuses": 2708,
      "oice": 2709,
      "akes": 2710,
      "▁deliver": 2711,
      "▁unless": 2712,
      "▁security": 2713,
      "▁shoo": 2714,
      "ern": 2715,
      "▁28,000": 2716,
      "▁§": 2717,
      "5-02.doc": 2718,
      "ga": 2719,
      "▁squares": 2720,
      "eney": 2721,
      "iped": 2722,
      "▁breed": 2723,
      "▁xml": 2724,
      "▁529999": 2725,
      "▁acupunct": 2726,
      "▁airplanes": 2727,
      "ud": 2728,
      "▁bob": 2729,
      "▁713-6": 2730,
      "▁fulfilled": 2731,
      "pay": 2732,
      "▁initiated": 2733,
      "▁eleven": 2734,
      "▁principles": 2735,
      "▁legacy": 2736,
      ",600": 2737,
      "bol": 2738,
      "4/2001": 2739,
      "/26/2001": 2740,
      "oss": 2741,
      ".ca": 2742,
      "▁sponge": 2743,
      "▁truth": 2744,
      "▁pacific": 2745,
      "▁straps": 2746,
      "▁private": 2747,
      "▁05:37": 2748,
      "▁wholes": 2749,
      "▁…": 2750,
      "gami": 2751,
      "▁hosting": 2752,
      "▁conf": 2753,
      "▁highly": 2754,
      "oa": 2755,
      "▁cindy": 2756,
      "▁northeast": 2757,
      "agon": 2758,
      "itivity": 2759,
      "ths": 2760,
      "▁fishie": 2761,
      "▁groceries": 2762,
      "▁fortier": 2763,
      "ner": 2764,
      "▁index": 2765,
      "▁2009": 2766,
      "▁retract": 2767,
      "▁ne": 2768,
      "▁taxi": 2769,
      "▁responsible": 2770,
      "▁cle": 2771,
      "leum": 2772,
      "▁mama": 2773,
      "▁merchant": 2774,
      "ds": 2775,
      "▁kwww": 2776,
      "▁lifting": 2777,
      "▁displac": 2778,
      "▁listened": 2779,
      "▁clos": 2780,
      "▁measures": 2781,
      "▁determination": 2782,
      "▁:?": 2783,
      "▁um": 2784,
      "zai": 2785,
      "aining": 2786,
      "wikihow": 2787,
      "▁swallow": 2788,
      "▁austral": 2789,
      "aiss": 2790,
      "ressed": 2791,
      "▁gilderoy": 2792,
      "aware": 2793,
      "▁caring": 2794,
      "▁t-": 2795,
      "▁honore": 2796,
      "pl": 2797,
      "!?": 2798,
      "ann": 2799,
      "arent": 2800,
      "▁om": 2801,
      "▁penal": 2802,
      "▁>----------------------------------------------------------------------------|": 2803,
      "▁cam": 2804,
      "pdf": 2805,
      "illance": 2806,
      "▁lufthansa": 2807,
      "▁clothes": 2808,
      "▁wtc": 2809,
      "▁dey": 2810,
      "uction": 2811,
      "▁pag": 2812,
      "essee": 2813,
      "-col": 2814,
      "▁morocco": 2815,
      "▁transc": 2816,
      "▁ulterior": 2817,
      "▁neu": 2818,
      "▁precious": 2819,
      "roduct": 2820,
      "▁descriptions": 2821,
      "▁set": 2822,
      "▁reason": 2823,
      "▁directive": 2824,
      "▁remain": 2825,
      "▁800.713.8600": 2826,
      "aki": 2827,
      "▁course": 2828,
      "▁lar": 2829,
      "▁syntactic": 2830,
      "▁name": 2831,
      "▁recc": 2832,
      "▁meow": 2833,
      "aring": 2834,
      "▁bernoulli": 2835,
      "is": 2836,
      "/13": 2837,
      "6": 2838,
      "▁jew": 2839,
      "ppers": 2840,
      "▁broadway": 2841,
      "▁un": 2842,
      "▁alar": 2843,
      "▁...": 2844,
      "▁uss": 2845,
      "▁killed": 2846,
      "▁governing": 2847,
      "~*~*~*~*": 2848,
      "icip": 2849,
      "▁ninety": 2850,
      "▁conclude": 2851,
      "athy": 2852,
      "achusetts": 2853,
      "▁fixed": 2854,
      "▁enables": 2855,
      "▁replied": 2856,
      "viatio": 2857,
      "▁restruct": 2858,
      "etch": 2859,
      "ille": 2860,
      "▁charming": 2861,
      "▁quino": 2862,
      "▁fran": 2863,
      "▁’re": 2864,
      "▁taipe": 2865,
      "▁holds": 2866,
      "▁purch": 2867,
      "▁thumb": 2868,
      "▁supernat": 2869,
      "▁hus": 2870,
      "▁putting": 2871,
      "esis": 2872,
      "▁professionalism": 2873,
      "▁come": 2874,
      "▁driven": 2875,
      "▁classified": 2876,
      "▁linked": 2877,
      "▁beau": 2878,
      "▁gradually": 2879,
      "otte": 2880,
      "▁press": 2881,
      "▁fold": 2882,
      "▁banks": 2883,
      "attan": 2884,
      "oll": 2885,
      "▁have": 2886,
      "▁scholar": 2887,
      "▁enemy": 2888,
      "anan": 2889,
      "▁closing": 2890,
      "▁pir": 2891,
      "▁boring": 2892,
      "ggies": 2893,
      "▁chea": 2894,
      "pri": 2895,
      "mania": 2896,
      "▁perf": 2897,
      "▁supplement": 2898,
      "child": 2899,
      "▁jay": 2900,
      "▁readers": 2901,
      "ogn": 2902,
      "▁.x": 2903,
      "▁receive": 2904,
      ":15": 2905,
      "▁rice": 2906,
      "rees": 2907,
      "▁how": 2908,
      "▁loi": 2909,
      "▁streams": 2910,
      "▁brig": 2911,
      "▁o'": 2912,
      "▁bel": 2913,
      "▁authentic": 2914,
      "▁relat": 2915,
      "▁furniture": 2916,
      "▁abo": 2917,
      "▁network": 2918,
      "▁anch": 2919,
      "▁wife": 2920,
      "▁contain": 2921,
      "▁adequate": 2922,
      "▁packages": 2923,
      "‘": 2924,
      "▁multiple": 2925,
      "▁ties": 2926,
      "▁quiet": 2927,
      ".clair@enron.com": 2928,
      "-down": 2929,
      "eter": 2930,
      "▁pull": 2931,
      "▁identical": 2932,
      "▁trib": 2933,
      "▁ritual": 2934,
      "▁judy": 2935,
      "▁uniqu": 2936,
      "▁twentieth": 2937,
      "▁virtual": 2938,
      "▁wag": 2939,
      "▁inherent": 2940,
      "▁removal": 2941,
      "mos": 2942,
      "▁santa": 2943,
      "▁i.e.": 2944,
      "▁panties": 2945,
      "▁cock": 2946,
      "▁perdues": 2947,
      "▁pled": 2948,
      "▁reminder": 2949,
      "▁tolerate": 2950,
      "▁playing": 2951,
      "▁indian": 2952,
      "▁treaty": 2953,
      "▁eyebrow": 2954,
      "old": 2955,
      "unctional": 2956,
      "▁couns": 2957,
      "▁11/7": 2958,
      "▁800": 2959,
      "▁jfk": 2960,
      "enance": 2961,
      "▁moment": 2962,
      "▁iodised": 2963,
      "▁res": 2964,
      "ains": 2965,
      "▁poll": 2966,
      "▁educational": 2967,
      "▁filter": 2968,
      "▁jump": 2969,
      "▁verd": 2970,
      "space": 2971,
      "▁rapporteur": 2972,
      "▁`": 2973,
      "▁fans": 2974,
      "oding": 2975,
      "▁cre": 2976,
      "▁consist": 2977,
      "▁inn": 2978,
      "▁criminal": 2979,
      "▁dign": 2980,
      "ur": 2981,
      "▁1754": 2982,
      "▁institutions": 2983,
      "issipp": 2984,
      "▁gentlemen": 2985,
      "▁dang": 2986,
      "▁enact": 2987,
      "▁annoyed": 2988,
      "ople": 2989,
      "▁ears": 2990,
      "▁5:30": 2991,
      "▁arizona": 2992,
      "▁1635": 2993,
      "▁patri": 2994,
      "▁dress": 2995,
      "▁dart": 2996,
      "▁indication": 2997,
      "▁!!!!!!!!!!!!!!!": 2998,
      "▁beware": 2999,
      "▁islamabad": 3000,
      "inter": 3001,
      "▁dessert": 3002,
      "▁94": 3003,
      "▁concentration": 3004,
      "▁fert": 3005,
      "▁obtain": 3006,
      "clock": 3007,
      "▁sorts": 3008,
      "▁stem": 3009,
      "▁ignor": 3010,
      "▁dim": 3011,
      "▁abbrev": 3012,
      "▁replac": 3013,
      "▁monastery": 3014,
      "▁1970s": 3015,
      "▁replaced": 3016,
      "½": 3017,
      "▁often": 3018,
      "▁42": 3019,
      "▁dism": 3020,
      "▁sacrifice": 3021,
      "▁pert": 3022,
      "▁greatest": 3023,
      "▁banglades": 3024,
      "▁mel": 3025,
      "iest": 3026,
      "▁proper": 3027,
      "▁settlement": 3028,
      "▁contrad": 3029,
      "▁ontario": 3030,
      "assing": 3031,
      "▁shoulder": 3032,
      "ize": 3033,
      "▁armies": 3034,
      "▁mode": 3035,
      "▁warn": 3036,
      "▁quart": 3037,
      "/200": 3038,
      "▁occ": 3039,
      "▁instruments": 3040,
      "▁cats": 3041,
      "olit": 3042,
      "▁statement": 3043,
      "▁centres": 3044,
      "▁flew": 3045,
      "▁laur": 3046,
      "▁viewers": 3047,
      "umed": 3048,
      "▁urg": 3049,
      "▁loves": 3050,
      "▁affect": 3051,
      "▁fashioned": 3052,
      "▁tin": 3053,
      "▁attack": 3054,
      "▁contents": 3055,
      "shire": 3056,
      "iff": 3057,
      "▁chase": 3058,
      "▁ou": 3059,
      "▁historical": 3060,
      "cles": 3061,
      "▁conviction": 3062,
      "▁fake": 3063,
      "▁references": 3064,
      "rev": 3065,
      "ulpt": 3066,
      "▁relevant": 3067,
      "urch": 3068,
      "▁servant": 3069,
      "▁claim": 3070,
      "▁----": 3071,
      "▁1590": 3072,
      "rod": 3073,
      "ß": 3074,
      "▁raf": 3075,
      "▁leverage": 3076,
      "▁renee": 3077,
      "--------": 3078,
      "▁rifle": 3079,
      "▁magnificent": 3080,
      "▁so-called": 3081,
      "▁identification": 3082,
      "▁ran": 3083,
      "rim": 3084,
      "`s": 3085,
      "▁epist": 3086,
      "▁scene": 3087,
      ":44": 3088,
      "gl": 3089,
      "▁tur": 3090,
      "▁crying": 3091,
      "▁his": 3092,
      "-0295": 3093,
      "off": 3094,
      "▁dg": 3095,
      "▁informacion": 3096,
      "▁jeep": 3097,
      "▁22nd": 3098,
      "▁hamburg": 3099,
      "▁certificates": 3100,
      "▁pop": 3101,
      "ories": 3102,
      "▁bos": 3103,
      "▁prohib": 3104,
      "▁hat": 3105,
      "▁managers": 3106,
      "eting": 3107,
      "▁crisp": 3108,
      "▁1783": 3109,
      "▁syrup": 3110,
      "▁separate": 3111,
      "53": 3112,
      "▁tenth": 3113,
      "▁mummy": 3114,
      "▁amending": 3115,
      "▁register": 3116,
      "▁insc": 3117,
      "▁specim": 3118,
      "▁bones": 3119,
      "▁650": 3120,
      "iots": 3121,
      "▁spectac": 3122,
      "▁sunn": 3123,
      "▁1709": 3124,
      "▁0590": 3125,
      "▁09:01": 3126,
      "▁css": 3127,
      "ients": 3128,
      "▁tou": 3129,
      "▁myster": 3130,
      "ations": 3131,
      "ste": 3132,
      "▁505-625-8031": 3133,
      "64": 3134,
      "▁dimension": 3135,
      "▁gre": 3136,
      "▁suprem": 3137,
      "▁ad": 3138,
      "▁greetings": 3139,
      "▁observation": 3140,
      "▁neighbour": 3141,
      "▁oxygen": 3142,
      "ə": 3143,
      "▁bandaid": 3144,
      "▁door": 3145,
      "▁org": 3146,
      "▁moderate": 3147,
      "unch": 3148,
      "arian": 3149,
      "▁shed": 3150,
      "achers": 3151,
      "▁cyclone": 3152,
      "▁moussaoui": 3153,
      "ottable": 3154,
      "▁mum": 3155,
      "▁stephen": 3156,
      "▁infected": 3157,
      "▁tasty": 3158,
      "▁necessity": 3159,
      "▁ended": 3160,
      "▁stole": 3161,
      "▁holy": 3162,
      "▁july": 3163,
      "▁swap": 3164,
      "▁laure": 3165,
      "▁homeopathy": 3166,
      "▁beater": 3167,
      "****************": 3168,
      "▁applic": 3169,
      "▁philip": 3170,
      "▁absolute": 3171,
      "▁crab": 3172,
      "▁gallery": 3173,
      "▁entered": 3174,
      "ically": 3175,
      "▁various": 3176,
      "oir": 3177,
      "▁vo": 3178,
      "hr": 3179,
      "▁acqu": 3180,
      "▁holly": 3181,
      "-sh": 3182,
      "▁466": 3183,
      "▁unesco": 3184,
      "usions": 3185,
      "▁engaging": 3186,
      "▁liquidweb": 3187,
      "ecess": 3188,
      "▁thirsty": 3189,
      "▁nt": 3190,
      "▁marvel": 3191,
      "gor": 3192,
      "▁cogn": 3193,
      "▁proced": 3194,
      "▁futures": 3195,
      "▁declined": 3196,
      "@esaibos.com": 3197,
      "ol": 3198,
      "ula": 3199,
      "▁strategic": 3200,
      "▁planet": 3201,
      "▁ensuring": 3202,
      "▁francis": 3203,
      "▁merry": 3204,
      "▁inland": 3205,
      "▁mir": 3206,
      "met": 3207,
      ",00": 3208,
      "▁kidney": 3209,
      "▁copying": 3210,
      "▁bodies": 3211,
      "▁pac": 3212,
      "▁neural": 3213,
      "▁a&e": 3214,
      "▁hierarch": 3215,
      "▁swed": 3216,
      "▁summar": 3217,
      "▁piled": 3218,
      "▁accompl": 3219,
      "▁lawn": 3220,
      "▁hist": 3221,
      "▁crews": 3222,
      "▁supplies": 3223,
      "▁156": 3224,
      "▁brushing": 3225,
      "elong": 3226,
      "▁seconds": 3227,
      "▁hyatt": 3228,
      "▁bronze": 3229,
      "▁plenty": 3230,
      "▁bucket": 3231,
      "▁personally": 3232,
      "▁understanding": 3233,
      "▁ai": 3234,
      "put": 3235,
      "-8031": 3236,
      "▁outright": 3237,
      "▁journey": 3238,
      "▁doubts": 3239,
      "▁aggregate": 3240,
      "▁expanded": 3241,
      "▁policymakers": 3242,
      "▁disneyland": 3243,
      "▁nap": 3244,
      "▁electrical": 3245,
      "emy": 3246,
      "▁yahoo!": 3247,
      "▁smells": 3248,
      "▁uvb": 3249,
      "▁tal": 3250,
      "▁publicly": 3251,
      "eap": 3252,
      "▁searching": 3253,
      "rons": 3254,
      "▁scenery": 3255,
      "▁candid": 3256,
      "▁volume": 3257,
      "ements": 3258,
      "sole": 3259,
      "▁pre-": 3260,
      "▁becuse": 3261,
      "▁surface": 3262,
      "▁communist": 3263,
      "▁auto": 3264,
      "▁grad": 3265,
      "▁jewish": 3266,
      "▁temp": 3267,
      "▁au": 3268,
      "pton": 3269,
      "▁shipped": 3270,
      "▁curs": 3271,
      "▁evil": 3272,
      "otic": 3273,
      "▁florida": 3274,
      "yon": 3275,
      "1st": 3276,
      "▁fill": 3277,
      "b)": 3278,
      "tedly": 3279,
      "▁jose": 3280,
      "av": 3281,
      "▁solving": 3282,
      "aly": 3283,
      "asis": 3284,
      "ad": 3285,
      "aya": 3286,
      "▁alloc": 3287,
      "▁sheriff": 3288,
      "var": 3289,
      "▁committed": 3290,
      "▁homes": 3291,
      "urf": 3292,
      "▁1584": 3293,
      "/15/2001": 3294,
      "▁weapons": 3295,
      "▁leahy": 3296,
      "▁safely": 3297,
      "▁ninth": 3298,
      "▁lone": 3299,
      "▁forest": 3300,
      "vil": 3301,
      "▁erasmus": 3302,
      "rane": 3303,
      "▁ignored": 3304,
      "▁busy": 3305,
      "ero": 3306,
      "▁nationwide": 3307,
      "▁happily": 3308,
      "inking": 3309,
      "▁shelter": 3310,
      "▁delete": 3311,
      "▁added": 3312,
      "▁1.": 3313,
      "▁25": 3314,
      "▁courtney": 3315,
      "▁tonight": 3316,
      "▁enterpr": 3317,
      "▁gladly": 3318,
      "▁pancakes": 3319,
      "▁shipping": 3320,
      "vert": 3321,
      "how": 3322,
      "▁immigrants": 3323,
      "ati": 3324,
      "▁milwau": 3325,
      "orse": 3326,
      "▁require": 3327,
      "▁brand": 3328,
      "▁costly": 3329,
      "▁degenerate": 3330,
      "▁.2": 3331,
      "▁defeat": 3332,
      "▁belly": 3333,
      "more": 3334,
      "▁inch": 3335,
      "▁oak": 3336,
      "▁based": 3337,
      "rate": 3338,
      "0072": 3339,
      "▁alcalde": 3340,
      "▁hand": 3341,
      "▁bub": 3342,
      "▁asks": 3343,
      "▁g.": 3344,
      "▁osama": 3345,
      "▁ekr": 3346,
      "▁mentioned": 3347,
      "▁glam": 3348,
      "▁grammar": 3349,
      "▁cow": 3350,
      "online": 3351,
      "▁11608": 3352,
      "rian": 3353,
      "▁jaff": 3354,
      "▁6400": 3355,
      "▁everywhere": 3356,
      "ota": 3357,
      "▁evaluator": 3358,
      "▁1973": 3359,
      "▁affil": 3360,
      "▁kim": 3361,
      "▁martin": 3362,
      "▁unles": 3363,
      "▁boeing": 3364,
      "▁scope": 3365,
      "cht": 3366,
      "▁disappeared": 3367,
      "town": 3368,
      "▁socially": 3369,
      "▁himself": 3370,
      "▁sen": 3371,
      "▁lemon": 3372,
      "▁preval": 3373,
      "itters": 3374,
      "▁unexpectedly": 3375,
      "▁conflict": 3376,
      "▁sometimes": 3377,
      "▁vict": 3378,
      "▁dys": 3379,
      "▁licensing": 3380,
      "▁firstly": 3381,
      "▁breast": 3382,
      "render": 3383,
      "bod": 3384,
      "▁romantic": 3385,
      "▁ray": 3386,
      "▁vintage": 3387,
      "▁dul": 3388,
      "▁sudden": 3389,
      "▁treatment": 3390,
      "▁11/27/2000": 3391,
      "▁philadelphia": 3392,
      "▁dong": 3393,
      "▁ras": 3394,
      "lessness": 3395,
      "▁largely": 3396,
      "▁sequ": 3397,
      "▁69": 3398,
      "▁headband": 3399,
      "▁cover": 3400,
      ":19": 3401,
      "ushing": 3402,
      "-50": 3403,
      "▁doggy": 3404,
      "▁ansi-": 3405,
      "▁beating": 3406,
      "▁alarm": 3407,
      "▁enabling": 3408,
      "it": 3409,
      "▁arm": 3410,
      "▁281": 3411,
      "▁rect": 3412,
      "▁unbeliev": 3413,
      "▁grip": 3414,
      "▁toys": 3415,
      "ml": 3416,
      "▁conn": 3417,
      "▁locations": 3418,
      "ership": 3419,
      "▁scientific": 3420,
      "▁johnson": 3421,
      "kman": 3422,
      "on": 3423,
      "▁1900": 3424,
      "▁body": 3425,
      "▁sanct": 3426,
      "▁less": 3427,
      "▁basic": 3428,
      "▁pitter": 3429,
      "▁everyone": 3430,
      "▁categor": 3431,
      "▁represent": 3432,
      "▁baking": 3433,
      "▁copy": 3434,
      "▁observed": 3435,
      "▁volunteer": 3436,
      "▁ahab": 3437,
      "▁nurs": 3438,
      "▁squir": 3439,
      "▁cooking": 3440,
      "▁olmec": 3441,
      "▁rainbow": 3442,
      "▁prompted": 3443,
      "▁prints": 3444,
      "▁leaning": 3445,
      "19": 3446,
      "imum": 3447,
      "▁medic": 3448,
      "▁saddam": 3449,
      "ily": 3450,
      "▁boil": 3451,
      "▁araf": 3452,
      "omin": 3453,
      "▁scientists": 3454,
      "rect": 3455,
      "▁decor": 3456,
      "▁obt": 3457,
      "ict": 3458,
      "irts": 3459,
      "▁smelled": 3460,
      "ropri": 3461,
      "▁>>": 3462,
      "▁fil": 3463,
      "▁percentiles": 3464,
      "▁convince": 3465,
      "▁husband": 3466,
      "▁sum": 3467,
      "▁unhunh": 3468,
      "▁frust": 3469,
      "▁dries": 3470,
      "▁solas": 3471,
      "▁mater": 3472,
      "▁kandahar": 3473,
      "food": 3474,
      "aming": 3475,
      "▁overcome": 3476,
      "▁peek": 3477,
      "▁pages": 3478,
      "▁novelist": 3479,
      "▁jerome": 3480,
      "▁fighting": 3481,
      "▁825": 3482,
      "▁tunnel": 3483,
      "edter": 3484,
      "▁vogelaviatio": 3485,
      "▁bothered": 3486,
      "esa": 3487,
      "umin": 3488,
      "iring": 3489,
      "▁childcare": 3490,
      "▁1989": 3491,
      "▁pinot": 3492,
      "▁langu": 3493,
      "▁fifteenth": 3494,
      "▁exit": 3495,
      "clusion": 3496,
      "远": 3497,
      "▁mullah": 3498,
      "▁communities": 3499,
      "▁nervous": 3500,
      "▁products": 3501,
      "▁1613": 3502,
      "▁1801": 3503,
      "mat": 3504,
      "▁russian": 3505,
      "▁invasion": 3506,
      "▁shortly": 3507,
      "▁+++++": 3508,
      "▁100": 3509,
      "ologies": 3510,
      "▁colour": 3511,
      "attering": 3512,
      "▁monit": 3513,
      "▁unload": 3514,
      "▁preferred": 3515,
      "inn": 3516,
      "▁ages": 3517,
      "▁jord": 3518,
      "ruct": 3519,
      "▁buggy": 3520,
      "uation": 3521,
      "▁toxic": 3522,
      "▁2015": 3523,
      "arine": 3524,
      "▁slippers": 3525,
      "▁grown": 3526,
      "▁melting": 3527,
      "▁becom": 3528,
      "▁julien": 3529,
      "▁202.7": 3530,
      "derm": 3531,
      "▁rhonda": 3532,
      "▁852": 3533,
      "▁make": 3534,
      "iquette": 3535,
      "▁35": 3536,
      "▁1": 3537,
      "▁catch": 3538,
      "▁lantern": 3539,
      "▁abandoned": 3540,
      "▁vary": 3541,
      "▁deep": 3542,
      "▁abdul": 3543,
      "▁angle": 3544,
      "▁stopovers": 3545,
      "▁equal": 3546,
      "▁hu": 3547,
      "▁supers": 3548,
      "▁department": 3549,
      "▁advice": 3550,
      "▁dominated": 3551,
      "▁stom": 3552,
      "▁phant": 3553,
      "▁vill": 3554,
      "▁restored": 3555,
      "rel": 3556,
      "20-": 3557,
      "iner": 3558,
      "▁teachers": 3559,
      "h": 3560,
      "▁offers": 3561,
      "▁killing": 3562,
      "▁yup": 3563,
      "▁charge": 3564,
      "▁awful": 3565,
      "▁unlik": 3566,
      "ber": 3567,
      "▁lose": 3568,
      "stick": 3569,
      "5": 3570,
      "84": 3571,
      "▁drops": 3572,
      "▁888.916.7184": 3573,
      "▁policy": 3574,
      "▁pl": 3575,
      "▁id": 3576,
      "▁fuj": 3577,
      "▁adj": 3578,
      "▁cruel": 3579,
      "▁620-294-": 3580,
      "▁1833": 3581,
      "▁fluff": 3582,
      "▁processor": 3583,
      "▁disney": 3584,
      "▁consideration": 3585,
      "▁accomm": 3586,
      "▁knives": 3587,
      "▁milan": 3588,
      "▁maker": 3589,
      "ine": 3590,
      "▁wasted": 3591,
      "ennese": 3592,
      "▁1871": 3593,
      "▁reconciliation": 3594,
      "________": 3595,
      "▁him": 3596,
      "▁ap": 3597,
      "▁amster": 3598,
      "▁stoy": 3599,
      "▁send": 3600,
      "back": 3601,
      "▁stat": 3602,
      "aced": 3603,
      "led": 3604,
      "▁change": 3605,
      "▁subur": 3606,
      "-98": 3607,
      "▁turns": 3608,
      "▁measured": 3609,
      "▁ekrapels@esaibos.com": 3610,
      "for": 3611,
      "▁wild": 3612,
      "▁keep": 3613,
      "▁ahmed": 3614,
      "▁colin": 3615,
      "▁pap": 3616,
      "▁afternoon": 3617,
      "▁railway": 3618,
      "▁necess": 3619,
      "uffy": 3620,
      "▁bloody": 3621,
      "▁sleeping": 3622,
      "▁revenues": 3623,
      "▁adjusted": 3624,
      "▁cand": 3625,
      "▁occasionally": 3626,
      "▁neoclassical": 3627,
      "king": 3628,
      "▁typically": 3629,
      "▁victims": 3630,
      "▁tokyo": 3631,
      "▁leisure": 3632,
      "▁3,": 3633,
      "▁businessmen": 3634,
      "▁n't": 3635,
      "▁religion": 3636,
      "▁members": 3637,
      "▁shift": 3638,
      "▁dating": 3639,
      "▁warm": 3640,
      "aint": 3641,
      "▁inhabit": 3642,
      "▁fairy": 3643,
      "▁nim": 3644,
      "▁bry": 3645,
      "gu": 3646,
      "/10/2004": 3647,
      "inny": 3648,
      "priced": 3649,
      "▁martyr": 3650,
      "▁referend": 3651,
      "iting": 3652,
      "▁business": 3653,
      "▁sri": 3654,
      "ington": 3655,
      "▁sympt": 3656,
      "▁representatives": 3657,
      "▁desire": 3658,
      "▁finals": 3659,
      "ride": 3660,
      "6021": 3661,
      "▁vs": 3662,
      "▁yourselves": 3663,
      "-642": 3664,
      "▁mailto:": 3665,
      "▁nand": 3666,
      "▁designs": 3667,
      "or": 3668,
      "▁closer": 3669,
      "obar": 3670,
      "▁towed": 3671,
      "▁exam": 3672,
      "ting": 3673,
      "▁10": 3674,
      "▁seem": 3675,
      "oin": 3676,
      "▁mood": 3677,
      "ta": 3678,
      "▁albe": 3679,
      "/01": 3680,
      "▁1610": 3681,
      "▁debris": 3682,
      "▁xiii": 3683,
      "rid": 3684,
      "▁symbols": 3685,
      "leon": 3686,
      "▁boo": 3687,
      "▁brian": 3688,
      "ian": 3689,
      "▁output": 3690,
      "▁bi": 3691,
      "▁coconut": 3692,
      "▁davis": 3693,
      "▁western": 3694,
      "▁war": 3695,
      "▁sel": 3696,
      "ed": 3697,
      "▁encouraged": 3698,
      "▁austria": 3699,
      "▁explanation": 3700,
      "▁capable": 3701,
      "▁pimple": 3702,
      "val": 3703,
      "▁hund": 3704,
      "▁rarely": 3705,
      "▁heater": 3706,
      "▁beginning": 3707,
      "orton": 3708,
      "idays": 3709,
      "r.": 3710,
      "▁americas": 3711,
      "▁tickles": 3712,
      "▁gm": 3713,
      "road": 3714,
      "arents": 3715,
      "▁shad": 3716,
      "▁renew": 3717,
      "▁dinosaurs": 3718,
      "▁’s": 3719,
      "▁3,202": 3720,
      "▁hav": 3721,
      "▁outdo": 3722,
      "▁cooper": 3723,
      "▁1925": 3724,
      "▁pledge": 3725,
      ".jpg": 3726,
      "▁sensor": 3727,
      "▁flowers": 3728,
      "▁northern": 3729,
      "▁mhm": 3730,
      "▁sant": 3731,
      "▁programming": 3732,
      "▁grandmother": 3733,
      "▁ve": 3734,
      "itarian": 3735,
      "ashes": 3736,
      "▁trading": 3737,
      "...@": 3738,
      "▁because": 3739,
      "▁starving": 3740,
      "▁annex": 3741,
      "▁segment": 3742,
      "▁fourth": 3743,
      "endous": 3744,
      "▁reef": 3745,
      "fire": 3746,
      "▁hey": 3747,
      "▁persian": 3748,
      "▁1.1": 3749,
      "▁sal": 3750,
      "_00.doc": 3751,
      "-and": 3752,
      "▁pg&e": 3753,
      "▁ver": 3754,
      "▁transform": 3755,
      "▁uva": 3756,
      "▁arrogant": 3757,
      "top": 3758,
      "▁temperature": 3759,
      "▁enjoy": 3760,
      "nic": 3761,
      "xture": 3762,
      "▁appreciated": 3763,
      "▁revol": 3764,
      "▁interim": 3765,
      "▁consortium": 3766,
      "▁took": 3767,
      "oly": 3768,
      "/30": 3769,
      "▁useless": 3770,
      "f.doc": 3771,
      "▁dsl": 3772,
      "▁chagrin": 3773,
      "▁accommodations": 3774,
      "▁judged": 3775,
      "▁cross": 3776,
      "▁badly": 3777,
      "▁101": 3778,
      "▁david": 3779,
      "eis": 3780,
      "▁ruin": 3781,
      "▁co": 3782,
      "▁considers": 3783,
      "▁08/16/2000": 3784,
      "▁diff": 3785,
      "▁08:50": 3786,
      "▁jungle": 3787,
      "▁dolph": 3788,
      "▁barger": 3789,
      "▁during": 3790,
      "▁locking": 3791,
      "▁northwest": 3792,
      "▁tested": 3793,
      "ling": 3794,
      "▁disappointment": 3795,
      "▁engage": 3796,
      "▁electron": 3797,
      "▁scrub": 3798,
      "▁dest": 3799,
      "▁hum": 3800,
      "▁monks": 3801,
      "arked": 3802,
      "▁occurs": 3803,
      "▁tsar": 3804,
      "▁particip": 3805,
      "▁ch": 3806,
      "▁gives": 3807,
      "▁throwing": 3808,
      "▁threw": 3809,
      "ograph": 3810,
      "▁corps": 3811,
      "▁presently": 3812,
      "▁wings": 3813,
      "▁pork": 3814,
      "▁flexible": 3815,
      "aman": 3816,
      "▁curves": 3817,
      "294-": 3818,
      "▁shuffling": 3819,
      "uration": 3820,
      "▁sp": 3821,
      "▁bout": 3822,
      "▁directly": 3823,
      "▁purely": 3824,
      "▁fan": 3825,
      "▁however": 3826,
      "utan": 3827,
      "ission": 3828,
      "employ": 3829,
      "inte": 3830,
      "▁components": 3831,
      "os": 3832,
      "▁chap": 3833,
      "▁legos": 3834,
      "ʃ": 3835,
      "▁encour": 3836,
      "▁depend": 3837,
      "-h": 3838,
      "▁fam": 3839,
      "▁compar": 3840,
      "▁edu": 3841,
      "▁gorio": 3842,
      "▁eas": 3843,
      "▁1560": 3844,
      "▁preventing": 3845,
      "▁fab": 3846,
      "▁ju": 3847,
      "▁6.8": 3848,
      "▁kleen": 3849,
      "▁average": 3850,
      "▁qu": 3851,
      "-27": 3852,
      "▁timothy": 3853,
      "▁lent": 3854,
      "▁specific": 3855,
      "▁lights": 3856,
      "▁cin": 3857,
      "▁acceler": 3858,
      "▁comparable": 3859,
      "inting": 3860,
      "▁sue": 3861,
      "▁folder": 3862,
      "▁gigantic": 3863,
      "ummy": 3864,
      "▁right": 3865,
      "▁headline": 3866,
      "▁oregon": 3867,
      "ce": 3868,
      "eness": 3869,
      "my": 3870,
      "▁taylor": 3871,
      "▁1996": 3872,
      "▁machine": 3873,
      "▁engineering": 3874,
      "▁yaz": 3875,
      "head": 3876,
      "▁cigare": 3877,
      "▁suited": 3878,
      "▁bw": 3879,
      "▁1977": 3880,
      "▁welf": 3881,
      "▁kilomet": 3882,
      "▁on": 3883,
      "▁glor": 3884,
      "lan": 3885,
      "use": 3886,
      "▁salty": 3887,
      "▁hunt": 3888,
      "▁ox": 3889,
      "official": 3890,
      "rier": 3891,
      "▁tips": 3892,
      "▁laser": 3893,
      "▁stored": 3894,
      "▁represented": 3895,
      "▁bp": 3896,
      "▁edges": 3897,
      "ice": 3898,
      "▁lets": 3899,
      "▁calif": 3900,
      "hib": 3901,
      "▁japanese": 3902,
      "▁administr": 3903,
      ":30": 3904,
      "▁suggestion": 3905,
      "▁legislation": 3906,
      "▁emphasize": 3907,
      "▁814": 3908,
      "▁belief": 3909,
      "sylv": 3910,
      "▁disability": 3911,
      "ften": 3912,
      "▁notice": 3913,
      "▁iron": 3914,
      "▁grid": 3915,
      "▁motivation": 3916,
      "▁04:37": 3917,
      "iley": 3918,
      "▁nu": 3919,
      "phis": 3920,
      "▁chin": 3921,
      "▁naming": 3922,
      "▁shale": 3923,
      "▁30th": 3924,
      "▁qx": 3925,
      "▁canad": 3926,
      "▁careful": 3927,
      "▁spect": 3928,
      "▁gulf": 3929,
      "▁route": 3930,
      "▁era": 3931,
      "▁.....": 3932,
      "▁lumin": 3933,
      "▁mob": 3934,
      "▁cradle": 3935,
      "ellation": 3936,
      "▁oy": 3937,
      "128": 3938,
      "▁smack": 3939,
      "▁wednesdays": 3940,
      "alph": 3941,
      "▁stella": 3942,
      "amental": 3943,
      "▁attempting": 3944,
      "▁coup": 3945,
      "▁chalabi": 3946,
      "▁crosses": 3947,
      "▁inspired": 3948,
      "▁said": 3949,
      "▁interceptor": 3950,
      "▁employment": 3951,
      "▁ang": 3952,
      "▁arrang": 3953,
      "bruary": 3954,
      "3098": 3955,
      "▁neg": 3956,
      "▁cutting": 3957,
      "▁experience": 3958,
      "▁immediate": 3959,
      "▁54": 3960,
      "▁translating": 3961,
      "▁supporter": 3962,
      "▁domain": 3963,
      "▁2.00": 3964,
      "▁friendly": 3965,
      "birds": 3966,
      "ff": 3967,
      "▁messaging": 3968,
      "▁vegan": 3969,
      "▁monde": 3970,
      "▁clut": 3971,
      "▁ab": 3972,
      "lel": 3973,
      "▁computers": 3974,
      "▁banner": 3975,
      "▁engels": 3976,
      "▁teacher": 3977,
      "▁kpa": 3978,
      "▁fift": 3979,
      "▁damascus": 3980,
      "ounced": 3981,
      "▁monitoring": 3982,
      "▁roy": 3983,
      "▁periods": 3984,
      "▁smok": 3985,
      "-like": 3986,
      "▁pachomius": 3987,
      "▁behaviors": 3988,
      "erals": 3989,
      "▁newly": 3990,
      "▁713-793-": 3991,
      "▁in": 3992,
      "▁pleased": 3993,
      "▁steak": 3994,
      "▁brass": 3995,
      "ums": 3996,
      "▁lexical": 3997,
      "▁hino": 3998,
      "▁shrew": 3999,
      "▁cheney": 4000,
      "orp": 4001,
      "▁cannon": 4002,
      "ometer": 4003,
      "▁permanent": 4004,
      "▁pee": 4005,
      "▁fever": 4006,
      "▁trafficking": 4007,
      "▁away": 4008,
      "▁shaped": 4009,
      "▁i.": 4010,
      "▁sli": 4011,
      "▁expectancy": 4012,
      "μ": 4013,
      "▁jal": 4014,
      "▁muq": 4015,
      "▁vote": 4016,
      "490": 4017,
      "inges": 4018,
      "▁confidence": 4019,
      "▁tuck": 4020,
      "▁oops": 4021,
      "▁kurtz": 4022,
      "▁hopes": 4023,
      "▁code": 4024,
      "ows": 4025,
      "▁metropolitan": 4026,
      "▁refused": 4027,
      "▁crap": 4028,
      "nesday": 4029,
      "▁memoir": 4030,
      "▁margin": 4031,
      "ette": 4032,
      "▁princip": 4033,
      "arraf": 4034,
      "▁targets": 4035,
      "▁protocol": 4036,
      "▁relevance": 4037,
      "ft": 4038,
      "▁345-99": 4039,
      "▁societ": 4040,
      "▁deeper": 4041,
      "▁quite": 4042,
      "▁establish": 4043,
      "▁revers": 4044,
      "▁fare": 4045,
      "lackl": 4046,
      "oqu": 4047,
      "▁dut": 4048,
      "▁!!!!": 4049,
      "▁retrie": 4050,
      "▁flor": 4051,
      "43": 4052,
      "▁lys": 4053,
      "▁image": 4054,
      "▁fishing": 4055,
      "▁refund": 4056,
      "aging": 4057,
      "inez": 4058,
      "▁cooperation": 4059,
      "▁ouij": 4060,
      "▁abundant": 4061,
      "▁pe": 4062,
      "▁econom": 4063,
      "▁bot": 4064,
      "▁posture": 4065,
      "▁spoken": 4066,
      "▁funeral": 4067,
      "▁ironically": 4068,
      "▁continents": 4069,
      "▁relations": 4070,
      "▁stephanie": 4071,
      "▁dunn": 4072,
      "▁congratulations": 4073,
      "▁rah": 4074,
      "▁surely": 4075,
      "▁applications": 4076,
      "ented": 4077,
      "ctic": 4078,
      "ile": 4079,
      "▁slide": 4080,
      "▁points": 4081,
      "▁'ve": 4082,
      "▁forbidden": 4083,
      "▁web": 4084,
      "01": 4085,
      "▁mitig": 4086,
      "▁adorn": 4087,
      "▁flea": 4088,
      "upunct": 4089,
      "asible": 4090,
      "▁meeting": 4091,
      "▁slipped": 4092,
      "ateful": 4093,
      "▁petunia": 4094,
      "osexual": 4095,
      "▁phr": 4096,
      "▁lawyer": 4097,
      "▁petsmart": 4098,
      "▁hydrogen": 4099,
      "pite": 4100,
      "▁34": 4101,
      "▁bec": 4102,
      "cc": 4103,
      "▁values": 4104,
      "nondelibreat": 4105,
      "▁locked": 4106,
      "▁bits": 4107,
      "▁tet": 4108,
      "▁stared": 4109,
      "▁1602": 4110,
      "expl": 4111,
      "▁moist": 4112,
      "▁er": 4113,
      "▁environment": 4114,
      "▁chapter": 4115,
      "▁imp": 4116,
      "▁imposs": 4117,
      "▁br": 4118,
      "▁10:34": 4119,
      "-435": 4120,
      "▁announcement": 4121,
      "▁03": 4122,
      "▁alan": 4123,
      "▁iu": 4124,
      "▁adverts": 4125,
      "▁dent": 4126,
      "▁brains": 4127,
      "▁3.2": 4128,
      "▁cups": 4129,
      "h-r": 4130,
      "▁morm": 4131,
      "▁undermine": 4132,
      "▁26": 4133,
      "/7": 4134,
      "▁conservative": 4135,
      "▁regulations": 4136,
      "▁flop": 4137,
      "▁warming": 4138,
      "▁reception": 4139,
      "een": 4140,
      "utely": 4141,
      "▁extraord": 4142,
      "▁miracle": 4143,
      "▁located": 4144,
      "▁mweta": 4145,
      "▁rescue": 4146,
      "▁ms": 4147,
      "▁accidents": 4148,
      "▁example": 4149,
      "▁16.379": 4150,
      "▁flows": 4151,
      "▁festiv": 4152,
      ".831": 4153,
      "▁edwards": 4154,
      "▁nose": 4155,
      "▁sing": 4156,
      "▁compaq": 4157,
      "▁gracious": 4158,
      "▁factory": 4159,
      "▁enjoys": 4160,
      "rough": 4161,
      "▁opposition": 4162,
      "▁trades": 4163,
      "▁fro": 4164,
      "▁rack": 4165,
      "▁stealing": 4166,
      "▁survive": 4167,
      "▁compat": 4168,
      "▁reintrod": 4169,
      "▁waved": 4170,
      "▁paradise": 4171,
      "▁powers": 4172,
      "y": 4173,
      "ots": 4174,
      "▁temper": 4175,
      "▁oven": 4176,
      "▁irrit": 4177,
      "▁collaboration": 4178,
      "▁let": 4179,
      "867": 4180,
      "▁sloven": 4181,
      "▁massive": 4182,
      "▁fault": 4183,
      "▁bondad": 4184,
      "▁bog": 4185,
      "uge": 4186,
      "▁177": 4187,
      "ear": 4188,
      "▁soy": 4189,
      "▁instructed": 4190,
      "▁rejected": 4191,
      "▁nurse": 4192,
      "▁exist": 4193,
      "▁occasion": 4194,
      "▁presidency": 4195,
      "▁mines": 4196,
      "rax": 4197,
      "▁packet": 4198,
      "▁chiba": 4199,
      "ers": 4200,
      "icycle": 4201,
      "les": 4202,
      "aine": 4203,
      "▁co-": 4204,
      "dies": 4205,
      "▁environ": 4206,
      "▁women": 4207,
      "-518": 4208,
      "▁13011": 4209,
      "▁enlargement": 4210,
      "▁600": 4211,
      "isp": 4212,
      "ernand": 4213,
      "▁perdu": 4214,
      "▁opportunity": 4215,
      "▁p.": 4216,
      "▁anim": 4217,
      "▁act": 4218,
      "▁concerning": 4219,
      "▁incentive": 4220,
      "▁pret": 4221,
      "▁[": 4222,
      "▁crayons": 4223,
      "worth": 4224,
      "▁moore": 4225,
      "▁shinjuku": 4226,
      "▁song": 4227,
      "▁willing": 4228,
      "▁xslt": 4229,
      "▁iso": 4230,
      "▁diego": 4231,
      "▁fuck": 4232,
      "non": 4233,
      "▁height": 4234,
      "▁dri": 4235,
      "fort": 4236,
      "▁categories": 4237,
      "alia": 4238,
      "▁713-654-1281": 4239,
      "/0": 4240,
      "▁fract": 4241,
      "▁de": 4242,
      "▁listen": 4243,
      "▁reint": 4244,
      "▁operational": 4245,
      "-8": 4246,
      "▁movements": 4247,
      "▁noida": 4248,
      "▁gir": 4249,
      "active": 4250,
      "▁raccoon": 4251,
      "oot": 4252,
      "▁rul": 4253,
      "▁ern": 4254,
      "ikii": 4255,
      "▁illust": 4256,
      "▁tournament": 4257,
      "▁epc": 4258,
      "▁human": 4259,
      "▁entertainment": 4260,
      "▁earl": 4261,
      "▁screen": 4262,
      "ʒ": 4263,
      "▁times": 4264,
      "orders": 4265,
      "▁unim": 4266,
      "▁212": 4267,
      "▁fut": 4268,
      "▁gaza": 4269,
      "a.": 4270,
      "▁5/18": 4271,
      "'s": 4272,
      "▁actually": 4273,
      "▁1974": 4274,
      "unition": 4275,
      "▁infant": 4276,
      "▁immunity": 4277,
      "▁mart": 4278,
      "▁800.713.86": 4279,
      "▁built": 4280,
      "▁olymp": 4281,
      "▁joh": 4282,
      "iron": 4283,
      "product": 4284,
      "▁distribution": 4285,
      "▁j": 4286,
      "▁creek": 4287,
      "ause": 4288,
      "▁offered": 4289,
      "▁belgium": 4290,
      "▁surprise": 4291,
      "omic": 4292,
      "▁stadium": 4293,
      "▁drinks": 4294,
      "▁webs": 4295,
      "▁harmonised": 4296,
      "erc": 4297,
      "▁replacement": 4298,
      "don": 4299,
      "▁oz": 4300,
      "▁argent": 4301,
      "▁preferably": 4302,
      "x": 4303,
      "▁spl": 4304,
      "juku": 4305,
      "▁gala": 4306,
      "▁;)": 4307,
      "▁warmer": 4308,
      "▁affecting": 4309,
      "▁helpful": 4310,
      "c)": 4311,
      "▁inside": 4312,
      "▁cocoa": 4313,
      "▁3889": 4314,
      "▁realization": 4315,
      "▁senses": 4316,
      "▁2.2": 4317,
      "▁vess": 4318,
      "▁carl": 4319,
      "▁87": 4320,
      "▁rocky": 4321,
      "▁raised": 4322,
      "▁hospitality": 4323,
      "▁01:0": 4324,
      "▁hesit": 4325,
      "▁sensible": 4326,
      "▁consequences": 4327,
      "▁tele": 4328,
      "=": 4329,
      "▁centers": 4330,
      "▁worthwhile": 4331,
      "ants": 4332,
      "irus": 4333,
      "i-": 4334,
      "▁mitch": 4335,
      "▁laughter": 4336,
      "▁insulting": 4337,
      "▁testing": 4338,
      "▁voting": 4339,
      "▁shia": 4340,
      "▁stone": 4341,
      "▁communications": 4342,
      "▁dehy": 4343,
      "▁don": 4344,
      "▁03/02/2001": 4345,
      "rep": 4346,
      "▁spokesman": 4347,
      "ottie": 4348,
      "▁prospects": 4349,
      "▁father": 4350,
      "▁trale": 4351,
      "▁mic": 4352,
      "▁mos": 4353,
      "▁elementary": 4354,
      "bug": 4355,
      "▁cuz": 4356,
      "▁max": 4357,
      "ipedia": 4358,
      "4": 4359,
      "bey": 4360,
      "▁migrated": 4361,
      "▁lex": 4362,
      "▁inexp": 4363,
      "▁whatever": 4364,
      "▁particularly": 4365,
      "▁malays": 4366,
      "▁si": 4367,
      "iced": 4368,
      "▁commission": 4369,
      "▁gifts": 4370,
      "▁anderson": 4371,
      "▁audience": 4372,
      "fill": 4373,
      "▁behaviour": 4374,
      "▁ret": 4375,
      "▁al.": 4376,
      "▁disag": 4377,
      "ential": 4378,
      "tha": 4379,
      "46-3393": 4380,
      "▁hydro": 4381,
      "▁fifty": 4382,
      "▁initially": 4383,
      "▁boot": 4384,
      "▁anyone": 4385,
      "▁wolf": 4386,
      "▁yummy": 4387,
      "▁rules": 4388,
      "▁mothers": 4389,
      "▁direct": 4390,
      "usc": 4391,
      "▁pi": 4392,
      "▁tourism": 4393,
      "rates": 4394,
      "oil": 4395,
      "▁facebook": 4396,
      "46": 4397,
      "▁if": 4398,
      "▁interesting": 4399,
      "▁e": 4400,
      "iet": 4401,
      "▁assoc": 4402,
      "thor": 4403,
      "▁paula": 4404,
      "time": 4405,
      "▁simon": 4406,
      "▁greater": 4407,
      "▁sheep": 4408,
      "▁bn": 4409,
      "antanamo": 4410,
      "▁artillery": 4411,
      "▁photographic": 4412,
      ".blogspot.com/": 4413,
      "land": 4414,
      "▁extrem": 4415,
      "enteenth": 4416,
      "▁peacefully": 4417,
      "elberger": 4418,
      "verage": 4419,
      "▁television": 4420,
      "▁bond": 4421,
      "▁chased": 4422,
      "▁byron": 4423,
      "▁noon": 4424,
      "▁youtube": 4425,
      "▁mountain": 4426,
      "▁tracking": 4427,
      "▁automatically": 4428,
      "▁so-c": 4429,
      "eny": 4430,
      "▁luck": 4431,
      "▁use": 4432,
      "▁1504": 4433,
      "▁caucas": 4434,
      "▁uneasy": 4435,
      "▁posting": 4436,
      "liness": 4437,
      "▁employee": 4438,
      "▁structured": 4439,
      "▁divine": 4440,
      "ieval": 4441,
      "wide": 4442,
      "ignation": 4443,
      "▁9": 4444,
      "▁defended": 4445,
      "oped": 4446,
      "cliff": 4447,
      "▁pur": 4448,
      "▁shoe": 4449,
      "▁whenever": 4450,
      "dering": 4451,
      "▁wig": 4452,
      "/13/2001": 4453,
      "▁111": 4454,
      "umber": 4455,
      "ishment": 4456,
      "k.url": 4457,
      "▁manusc": 4458,
      "enda": 4459,
      "▁!!!?": 4460,
      "▁poiss": 4461,
      "oint": 4462,
      "▁mathematical": 4463,
      "▁african": 4464,
      "▁hebrew": 4465,
      "▁lat": 4466,
      ".00": 4467,
      "very": 4468,
      "▁happen": 4469,
      "▁|--------+----------------------->": 4470,
      "oca": 4471,
      "▁prefer": 4472,
      "ished": 4473,
      "▁quantity": 4474,
      "▁holoca": 4475,
      "▁traditionally": 4476,
      "▁hourly": 4477,
      "▁ld2d-#693": 4478,
      "iori": 4479,
      "▁guardian": 4480,
      "031": 4481,
      "▁fair": 4482,
      "▁universities": 4483,
      "▁twenty-": 4484,
      "▁olympic": 4485,
      "▁pean": 4486,
      "▁arrivals": 4487,
      "▁turistica": 4488,
      "▁possess": 4489,
      "▁elev": 4490,
      "▁blanc": 4491,
      "▁upr": 4492,
      "ais": 4493,
      "outh": 4494,
      "▁ho": 4495,
      "▁straight": 4496,
      "rome": 4497,
      "▁worthy": 4498,
      "▁persistent": 4499,
      "▁bulb": 4500,
      "▁method": 4501,
      "▁defend": 4502,
      "g": 4503,
      "▁continent": 4504,
      "--------+----------------": 4505,
      "▁developments": 4506,
      "▁polit": 4507,
      "▁paulo": 4508,
      "▁cells": 4509,
      "▁very": 4510,
      "▁far": 4511,
      "▁,": 4512,
      "▁508": 4513,
      ".85": 4514,
      "▁level": 4515,
      "▁principal": 4516,
      "▁exploration": 4517,
      "▁ninety-n": 4518,
      "▁failing": 4519,
      "▁board": 4520,
      "▁pencil": 4521,
      "here": 4522,
      "▁consent": 4523,
      "rit": 4524,
      "▁reveal": 4525,
      "▁age": 4526,
      "▁zer": 4527,
      "▁hier": 4528,
      "▁introd": 4529,
      "▁explaining": 4530,
      "ria": 4531,
      "▁dissemin": 4532,
      "▁like": 4533,
      "23": 4534,
      "▁than": 4535,
      "▁sufficient": 4536,
      "▁shout": 4537,
      "202": 4538,
      "▁tractor": 4539,
      "▁email": 4540,
      "▁judg": 4541,
      "▁eager": 4542,
      "▁bunn": 4543,
      "antics": 4544,
      "▁poke": 4545,
      "▁none": 4546,
      "▁trac": 4547,
      "▁1965": 4548,
      "eal": 4549,
      "▁amazed": 4550,
      "-468-3": 4551,
      "▁acquis": 4552,
      "▁knew": 4553,
      "▁seats": 4554,
      "gie": 4555,
      "▁proposing": 4556,
      "▁percentile": 4557,
      "▁imper": 4558,
      "▁311": 4559,
      "▁[...": 4560,
      "2-0": 4561,
      "▁waiver": 4562,
      "▁simultaneously": 4563,
      "▁paths": 4564,
      "▁finishing": 4565,
      "▁breasts": 4566,
      "▁promise": 4567,
      "▁concent": 4568,
      "▁instructor": 4569,
      "▁twisted": 4570,
      "▁salt": 4571,
      "▁trying": 4572,
      "▁300": 4573,
      "▁obsf": 4574,
      "art": 4575,
      "▁compel": 4576,
      "▁circles": 4577,
      "▁demanded": 4578,
      "▁republicans": 4579,
      "▁w": 4580,
      "▁wind": 4581,
      "▁ursula": 4582,
      "nel": 4583,
      "▁latter": 4584,
      "itated": 4585,
      "▁presum": 4586,
      "wau": 4587,
      "▁discovered": 4588,
      "▁pocketbook": 4589,
      "▁cryst": 4590,
      "▁vag": 4591,
      "▁recip": 4592,
      "▁arrives": 4593,
      "▁professional": 4594,
      "▁philosoph": 4595,
      "▁lacking": 4596,
      "▁berry": 4597,
      "▁particle": 4598,
      "▁beloved": 4599,
      "▁glitter": 4600,
      "▁net": 4601,
      "▁mwet": 4602,
      "eding": 4603,
      "▁compass": 4604,
      "▁transported": 4605,
      "▁loo": 4606,
      "▁suspicion": 4607,
      "▁illegal": 4608,
      "rets": 4609,
      "▁gov": 4610,
      "-m": 4611,
      "▁bee": 4612,
      "▁1596": 4613,
      "udge": 4614,
      "ographic": 4615,
      "▁publications": 4616,
      "▁welfare": 4617,
      "▁chefs": 4618,
      "▁lot": 4619,
      "▁embr": 4620,
      "▁barcl": 4621,
      "▁stupid": 4622,
      "▁execution": 4623,
      "▁pass": 4624,
      "ively": 4625,
      "arily": 4626,
      "▁experimental": 4627,
      "/00": 4628,
      "▁twelfth": 4629,
      "▁trigger": 4630,
      "oration": 4631,
      "▁abol": 4632,
      "▁-final.doc": 4633,
      "▁discussions": 4634,
      "▁printing": 4635,
      "hing": 4636,
      "▁efficiency": 4637,
      "beque": 4638,
      "▁tennis": 4639,
      "▁qual": 4640,
      "ral": 4641,
      "▁83": 4642,
      "▁smith": 4643,
      "▁resist": 4644,
      "▁barbeque": 4645,
      "▁nowhere": 4646,
      "▁stayed": 4647,
      "▁cd": 4648,
      "ables": 4649,
      "▁dogg": 4650,
      "▁silence": 4651,
      "▁ensure": 4652,
      "▁alber": 4653,
      "▁outr": 4654,
      "98": 4655,
      "▁tabennese": 4656,
      "▁appetite": 4657,
      "▁manners": 4658,
      "▁1.25": 4659,
      "▁through": 4660,
      "▁naughty": 4661,
      "1-9": 4662,
      "▁culturally": 4663,
      "▁flooding": 4664,
      "▁clar": 4665,
      "enf": 4666,
      "▁birthday": 4667,
      "20": 4668,
      "ptions": 4669,
      "▁condem": 4670,
      "ference": 4671,
      "▁symptoms": 4672,
      "▁spear": 4673,
      "▁usi": 4674,
      "▁bare": 4675,
      "ust": 4676,
      "▁recre": 4677,
      "▁investments": 4678,
      "▁spacetime": 4679,
      "▁1940": 4680,
      "▁repl": 4681,
      "▁inhab": 4682,
      "▁includ": 4683,
      ":40": 4684,
      "▁hotels": 4685,
      "▁entity": 4686,
      "▁hamas": 4687,
      "▁beans": 4688,
      "▁filed": 4689,
      "▁engine": 4690,
      "5,000": 4691,
      "▁vodka": 4692,
      "▁!!!!!!!!!!": 4693,
      "▁899": 4694,
      "▁counterfeit": 4695,
      "etary": 4696,
      ".un": 4697,
      "wart": 4698,
      "ething": 4699,
      "▁hy": 4700,
      "▁carry": 4701,
      "▁lips": 4702,
      "▁forwarded": 4703,
      "▁huit": 4704,
      "▁sixty": 4705,
      "▁profits": 4706,
      "raft": 4707,
      "▁skill": 4708,
      "▁oriented": 4709,
      "▁candles": 4710,
      "▁produc": 4711,
      "▁08/03": 4712,
      "▁feel": 4713,
      "▁mor": 4714,
      "▁3/8/00": 4715,
      "cing": 4716,
      "▁teasp": 4717,
      "ored": 4718,
      "▁banknot": 4719,
      "▁boundaries": 4720,
      "▁jen": 4721,
      "▁techn": 4722,
      "▁opposed": 4723,
      "▁shanna": 4724,
      "sticks": 4725,
      "▁reward": 4726,
      "▁building": 4727,
      "@p": 4728,
      "▁6:00": 4729,
      "▁fence": 4730,
      "ahar": 4731,
      "inth": 4732,
      "▁joyce": 4733,
      "pe": 4734,
      "case": 4735,
      "▁debut": 4736,
      "▁skills": 4737,
      "▁rag": 4738,
      "▁pew": 4739,
      "▁drinking": 4740,
      "▁background": 4741,
      "▁sweep": 4742,
      "essed": 4743,
      "bby": 4744,
      "▁army": 4745,
      "etheless": 4746,
      "▁playstation": 4747,
      "▁digital": 4748,
      "▁newspapers": 4749,
      "▁202.456.2461": 4750,
      "▁utility": 4751,
      "▁llc": 4752,
      "▁conquer": 4753,
      "▁bock": 4754,
      "▁strip": 4755,
      "asp": 4756,
      "▁diss": 4757,
      "▁90s": 4758,
      "ti": 4759,
      "orm": 4760,
      "rem": 4761,
      "▁taste": 4762,
      "▁resulted": 4763,
      "▁cathy": 4764,
      "▁dryer": 4765,
      "▁crossed": 4766,
      "rent": 4767,
      "▁weakness": 4768,
      "urally": 4769,
      "▁period": 4770,
      "▁boats": 4771,
      "▁alab": 4772,
      "▁remaining": 4773,
      "▁pyramid": 4774,
      "▁rise": 4775,
      "▁up": 4776,
      "ably": 4777,
      "▁premium": 4778,
      "elds": 4779,
      "▁he": 4780,
      "▁autom": 4781,
      "roleum": 4782,
      "▁impression": 4783,
      "▁enr": 4784,
      "▁tablet": 4785,
      "▁drafting": 4786,
      "▁toe": 4787,
      "▁local": 4788,
      "umn": 4789,
      "ley": 4790,
      "▁starbucks": 4791,
      "▁curb": 4792,
      "▁vendors": 4793,
      "oug": 4794,
      "▁w.": 4795,
      "▁girlfriend": 4796,
      "▁seattle": 4797,
      "▁helmet": 4798,
      ".77": 4799,
      "acters": 4800,
      "itted": 4801,
      "velopment": 4802,
      "we": 4803,
      "▁gregg": 4804,
      "-th": 4805,
      "idence": 4806,
      "▁karen": 4807,
      "▁pest": 4808,
      "▁senate": 4809,
      "▁facing": 4810,
      "▁organic": 4811,
      "▁details": 4812,
      "aired": 4813,
      "▁ansi": 4814,
      "▁victor": 4815,
      "▁seized": 4816,
      "▁2003": 4817,
      "aph": 4818,
      "▁28": 4819,
      "▁boys": 4820,
      "▁nuts": 4821,
      "river": 4822,
      "ents": 4823,
      "thers": 4824,
      "▁coffee": 4825,
      "uing": 4826,
      "▁zawahiri": 4827,
      "9/2000": 4828,
      "science": 4829,
      "▁publish": 4830,
      "itama": 4831,
      "▁2017": 4832,
      "ec": 4833,
      "ص": 4834,
      "▁courage": 4835,
      "▁heart": 4836,
      "▁minor": 4837,
      "▁04/2": 4838,
      "▁qualified": 4839,
      "▁ministry": 4840,
      "▁hussein": 4841,
      "▁09/16/99": 4842,
      "▁defines": 4843,
      "▁operating": 4844,
      "▁puzz": 4845,
      "htub": 4846,
      "▁temperatures": 4847,
      "-#6": 4848,
      "▁explanations": 4849,
      "▁191": 4850,
      "▁occasions": 4851,
      "▁bom": 4852,
      "▁drunk": 4853,
      "▁awww": 4854,
      "▁other": 4855,
      "▁pick": 4856,
      "▁tenn": 4857,
      "out": 4858,
      "▁1997": 4859,
      "▁aa": 4860,
      "anga": 4861,
      "▁depart": 4862,
      "▁associ": 4863,
      "ont": 4864,
      "▁error": 4865,
      "adar": 4866,
      "▁noble": 4867,
      "▁sway": 4868,
      "▁horrible": 4869,
      "▁lingu": 4870,
      "'re": 4871,
      "▁paralympic": 4872,
      "___________": 4873,
      "▁arrange": 4874,
      "rael": 4875,
      "▁track": 4876,
      "▁versions": 4877,
      "▁departs": 4878,
      "▁devoted": 4879,
      "▁topic": 4880,
      "▁vacc": 4881,
      "▁1960": 4882,
      "▁difference": 4883,
      "idency": 4884,
      "▁prud": 4885,
      "▁transwestern": 4886,
      "????": 4887,
      "wash": 4888,
      "谿": 4889,
      "▁accept": 4890,
      "▁genes": 4891,
      "▁formula": 4892,
      "▁seis": 4893,
      "▁scored": 4894,
      "rich": 4895,
      "▁rare": 4896,
      "▁marbles": 4897,
      "wor": 4898,
      "▁factor": 4899,
      "ls": 4900,
      "▁burning": 4901,
      "▁fyi": 4902,
      "eare": 4903,
      "ma": 4904,
      "ensions": 4905,
      "▁traveled": 4906,
      "▁intensity": 4907,
      "▁mature": 4908,
      "▁dropped": 4909,
      "▁read": 4910,
      "ube": 4911,
      "▁william": 4912,
      "aren": 4913,
      "▁cit": 4914,
      "☎": 4915,
      "▁te": 4916,
      "esses": 4917,
      "▁713-853-": 4918,
      "▁resident": 4919,
      "▁gave": 4920,
      "▁http://www.4gamer.net/news/image/2005.09/2005091": 4921,
      "▁auntie": 4922,
      "▁woke": 4923,
      "435": 4924,
      "▁india": 4925,
      "-00": 4926,
      "▁contact": 4927,
      "▁---------------------------------": 4928,
      "▁hiss": 4929,
      "zza": 4930,
      "▁newfound": 4931,
      "lv": 4932,
      "▁pride": 4933,
      "▁complaining": 4934,
      ".org/wiki": 4935,
      "▁supported": 4936,
      "▁attempted": 4937,
      "al.doc": 4938,
      ".0": 4939,
      "▁cameras": 4940,
      "▁saud": 4941,
      "▁disagre": 4942,
      "ible": 4943,
      "▁hugo": 4944,
      "feld": 4945,
      "▁catholic": 4946,
      "▁tricks": 4947,
      "▁preserving": 4948,
      "hop": 4949,
      "▁1-800": 4950,
      "▁office": 4951,
      ";": 4952,
      "ton": 4953,
      "craft": 4954,
      "▁leaf": 4955,
      "▁outdoors": 4956,
      "group": 4957,
      "▁yog": 4958,
      "▁blount": 4959,
      "▁dna": 4960,
      "ume": 4961,
      "▁shrug": 4962,
      "▁controversial": 4963,
      "point": 4964,
      "▁bug": 4965,
      "cept": 4966,
      "▁27": 4967,
      "▁madrid": 4968,
      "▁pay": 4969,
      "▁product": 4970,
      "▁ambit": 4971,
      "▁cra": 4972,
      "▁ukraine": 4973,
      "▁483": 4974,
      "葉": 4975,
      "cuz": 4976,
      "lest": 4977,
      "isd": 4978,
      "▁100,000": 4979,
      "▁wax": 4980,
      "▁stages": 4981,
      "@enron_development": 4982,
      "▁performance": 4983,
      "itude": 4984,
      "▁sci": 4985,
      "▁strive": 4986,
      "▁instit": 4987,
      "parnasse": 4988,
      "▁participant": 4989,
      "oth": 4990,
      "▁dynam": 4991,
      "▁29": 4992,
      "▁climbed": 4993,
      "▁53": 4994,
      "▁hotline": 4995,
      "▁dallas": 4996,
      ",8": 4997,
      "▁morph": 4998,
      "2-6": 4999,
      "▁rub": 5000,
      ".8317": 5001,
      "rors": 5002,
      "▁scheme": 5003,
      "gan": 5004,
      "▁ast": 5005,
      "▁traveler": 5006,
      "▁considerable": 5007,
      "▁abst": 5008,
      "▁privacy": 5009,
      "▁incorpor": 5010,
      "anny": 5011,
      "▁1954": 5012,
      "▁montalvo": 5013,
      "▁ethn": 5014,
      "▁lime": 5015,
      "▁dignity": 5016,
      "ipop": 5017,
      "▁leave": 5018,
      "▁gifu": 5019,
      "▁deleted": 5020,
      "ments": 5021,
      "oices": 5022,
      "ordon": 5023,
      "▁epic": 5024,
      "writer": 5025,
      "▁aggressive": 5026,
      "▁polic": 5027,
      "▁archit": 5028,
      "▁disappointed": 5029,
      "esday": 5030,
      "▁dr": 5031,
      "drft8-7": 5032,
      "▁officers": 5033,
      "▁01/26/2001": 5034,
      "▁headquarters": 5035,
      "▁crude": 5036,
      "▁april": 5037,
      "▁uhh": 5038,
      "▁couple": 5039,
      "▁overth": 5040,
      "▁kennedy": 5041,
      "ribe": 5042,
      "▁×": 5043,
      "nov": 5044,
      "▁wong": 5045,
      "▁(:": 5046,
      "▁smart": 5047,
      "▁instr": 5048,
      "▁wants": 5049,
      "▁happ": 5050,
      "ondon": 5051,
      "▁laws": 5052,
      "▁thursdays": 5053,
      "▁old": 5054,
      "▁steve": 5055,
      "▁ground": 5056,
      "▁imprisoned": 5057,
      "icide": 5058,
      "▁med": 5059,
      "▁authorship": 5060,
      "▁isfahan": 5061,
      "are": 5062,
      "▁-----------------------------------------------------------------------": 5063,
      "aug": 5064,
      "acks": 5065,
      "▁space": 5066,
      "▁portions": 5067,
      "•": 5068,
      "▁visible": 5069,
      "bish": 5070,
      "▁_____": 5071,
      "▁solve": 5072,
      "▁secure": 5073,
      "▁[...]": 5074,
      "▁profess": 5075,
      "▁paperwork": 5076,
      "▁circular": 5077,
      "▁sv": 5078,
      "▁merely": 5079,
      "▁unlikely": 5080,
      "▁expl": 5081,
      "asa": 5082,
      "▁yields": 5083,
      "▁04:28": 5084,
      "▁luna": 5085,
      "▁interrog": 5086,
      "▁damn": 5087,
      "iful": 5088,
      "iss": 5089,
      "▁hated": 5090,
      "▁histor": 5091,
      "tsbur": 5092,
      "ences": 5093,
      "▁heights": 5094,
      "▁2.0": 5095,
      "▁env": 5096,
      "▁musicians": 5097,
      "▁3": 5098,
      ",000,000,000": 5099,
      "▁employees": 5100,
      "▁integration": 5101,
      "▁airplane": 5102,
      "▁preparing": 5103,
      "▁coin": 5104,
      "▁arkansas": 5105,
      "sters": 5106,
      "▁passport": 5107,
      "▁establishment": 5108,
      "▁stamp": 5109,
      "ppo": 5110,
      "▁exper": 5111,
      "▁mediterranean": 5112,
      "▁cut": 5113,
      "▁global": 5114,
      "▁films": 5115,
      "▁shr": 5116,
      "▁superf": 5117,
      "▁spac": 5118,
      "▁sched": 5119,
      "▁transp": 5120,
      "thing": 5121,
      "stein": 5122,
      "▁lu": 5123,
      "▁hoping": 5124,
      "ailand": 5125,
      "▁input": 5126,
      "▁av": 5127,
      "-ked": 5128,
      "==": 5129,
      "▁ackn": 5130,
      "▁altern": 5131,
      "7": 5132,
      "▁love": 5133,
      "ok": 5134,
      "iant": 5135,
      "▁bless": 5136,
      "▁justice": 5137,
      "▁footage": 5138,
      "▁reaff": 5139,
      "▁bro": 5140,
      "▁adh": 5141,
      "▁passion": 5142,
      "▁202.45": 5143,
      "icing": 5144,
      "▁pho": 5145,
      "▁renewed": 5146,
      "se": 5147,
      "lebr": 5148,
      "▁should": 5149,
      "▁03/2": 5150,
      "▁38": 5151,
      "▁correspondence": 5152,
      "▁spine": 5153,
      "▁agre": 5154,
      "▁scrap": 5155,
      "▁sorry": 5156,
      "▁gloria": 5157,
      "▁jimmy": 5158,
      "alling": 5159,
      "▁107": 5160,
      "▁negotiated": 5161,
      "▁screws": 5162,
      "hear": 5163,
      "▁owes": 5164,
      "▁friendship": 5165,
      "▁styrofoam": 5166,
      "▁oblig": 5167,
      "lin": 5168,
      "▁01:14": 5169,
      "▁pipeline": 5170,
      "▁beak": 5171,
      "▁appeared": 5172,
      "▁stickerbirds": 5173,
      "36": 5174,
      "▁pope": 5175,
      "▁mistaken": 5176,
      "adel": 5177,
      "▁keral": 5178,
      "▁legally": 5179,
      "ding": 5180,
      "▁tip": 5181,
      "▁charles": 5182,
      "▁brutal": 5183,
      "▁circumstances": 5184,
      "▁transitional": 5185,
      "▁residential": 5186,
      "▁bother": 5187,
      "arts": 5188,
      "▁hurts": 5189,
      "igs": 5190,
      "’t": 5191,
      "▁connections": 5192,
      "▁reimbur": 5193,
      "▁justification": 5194,
      "▁ele": 5195,
      "irs": 5196,
      "▁labour": 5197,
      "ogical": 5198,
      "▁rain": 5199,
      "▁emperor": 5200,
      "▁3:00": 5201,
      "▁recommended": 5202,
      "▁under": 5203,
      "▁24": 5204,
      "▁jove": 5205,
      "▁lap": 5206,
      "ikes": 5207,
      "▁02/27/2001": 5208,
      "▁woods": 5209,
      "▁plate": 5210,
      "nal": 5211,
      "uate": 5212,
      "▁scrape": 5213,
      "▁feeding": 5214,
      "▁kat": 5215,
      "▁adults": 5216,
      "▁versa": 5217,
      "▁pitch": 5218,
      "▁revis": 5219,
      "▁slic": 5220,
      "▁trop": 5221,
      "▁fing": 5222,
      "▁guerrillas": 5223,
      "▁does": 5224,
      "▁21,000": 5225,
      "▁mason": 5226,
      "n": 5227,
      "▁injury": 5228,
      "▁dav": 5229,
      "ples": 5230,
      "imp": 5231,
      "▁will": 5232,
      "▁igu": 5233,
      "▁selected": 5234,
      "▁1986": 5235,
      "▁{": 5236,
      "▁policing": 5237,
      "▁stress": 5238,
      "▁syri": 5239,
      "▁carne": 5240,
      "819602175": 5241,
      "▁disappear": 5242,
      "▁dickens": 5243,
      "▁reduces": 5244,
      "▁grain": 5245,
      "▁15th": 5246,
      "▁idle": 5247,
      "phone": 5248,
      "▁hardest": 5249,
      "acious": 5250,
      "▁expect": 5251,
      "▁gathering": 5252,
      "▁fell": 5253,
      "▁improved": 5254,
      "▁lawyers": 5255,
      "▁initial": 5256,
      "▁supernatural": 5257,
      "▁remember": 5258,
      "▁protected": 5259,
      "fin": 5260,
      "▁limous": 5261,
      "▁hur": 5262,
      "uj": 5263,
      "▁eval": 5264,
      "▁sacred": 5265,
      "cho": 5266,
      "▁spiritual": 5267,
      "▁revision": 5268,
      "▁left": 5269,
      "▁resil": 5270,
      "▁promotion": 5271,
      "▁habitat": 5272,
      "eu": 5273,
      "▁informative": 5274,
      "▁advisor": 5275,
      "▁ac": 5276,
      "▁hibern": 5277,
      "▁mushroom": 5278,
      "▁consequently": 5279,
      "▁ste": 5280,
      "▁area": 5281,
      "rs": 5282,
      "▁variation": 5283,
      "▁vent": 5284,
      "▁everyday": 5285,
      "▁obama": 5286,
      "ou": 5287,
      "▁morning": 5288,
      "▁microw": 5289,
      "▁crust": 5290,
      "▁transactions": 5291,
      "wise": 5292,
      "ody": 5293,
      "▁happier": 5294,
      "oon": 5295,
      "▁conducted": 5296,
      "atures": 5297,
      "▁following": 5298,
      "▁eastern": 5299,
      "▁delhi": 5300,
      "▁scrut": 5301,
      "▁reaching": 5302,
      "▁watch": 5303,
      "ins": 5304,
      "-in": 5305,
      "aim": 5306,
      "und": 5307,
      "▁05/01/2001": 5308,
      "▁sla": 5309,
      "▁http": 5310,
      "▁journ": 5311,
      "▁before": 5312,
      "irt": 5313,
      "▁tidily": 5314,
      "attle": 5315,
      "olis": 5316,
      "▁barn": 5317,
      "▁remarks": 5318,
      "▁pending": 5319,
      "▁07/14/2000": 5320,
      "▁1.3": 5321,
      "▁faculty": 5322,
      "▁squirt": 5323,
      "illo": 5324,
      "▁paste": 5325,
      "▁lb": 5326,
      "▁feather": 5327,
      "▁tik": 5328,
      "asons": 5329,
      "▁generous": 5330,
      "cut": 5331,
      "▁wildlife": 5332,
      "▁fish": 5333,
      "▁naked": 5334,
      "▁flirt": 5335,
      "▁vogelaviatiola": 5336,
      "▁prototy": 5337,
      "owning": 5338,
      "▁ketchup": 5339,
      "▁persistence": 5340,
      "▁nas": 5341,
      "▁payments": 5342,
      "ov": 5343,
      "▁muslims": 5344,
      "▁ins": 5345,
      "▁touch": 5346,
      "cher": 5347,
      "▁murderer": 5348,
      "]": 5349,
      "7/2001": 5350,
      "▁assessing": 5351,
      "ounding": 5352,
      "▁twelve": 5353,
      "cast": 5354,
      "▁10:5": 5355,
      "urtz": 5356,
      "▁looks": 5357,
      "etically": 5358,
      "orus": 5359,
      "ieu": 5360,
      "▁pair": 5361,
      "▁sup": 5362,
      "▁evaluation": 5363,
      "▁cord": 5364,
      "▁higu": 5365,
      "asty": 5366,
      "▁symbol": 5367,
      "▁researchers": 5368,
      "▁entrepreneurial": 5369,
      "▁rescued": 5370,
      "????????????????????????????????": 5371,
      "▁pricing": 5372,
      "▁learned": 5373,
      "▁here": 5374,
      "▁seated": 5375,
      "▁june": 5376,
      "▁adaptation": 5377,
      "▁struggle": 5378,
      "▁575": 5379,
      "▁bitter": 5380,
      "▁intention": 5381,
      "▁nik": 5382,
      "▁taper": 5383,
      "onent": 5384,
      "▁yi": 5385,
      "▁knowledgeable": 5386,
      "▁columbus": 5387,
      "▁focusing": 5388,
      "▁top": 5389,
      "enix": 5390,
      "▁pow": 5391,
      "▁718": 5392,
      "▁relief": 5393,
      "$": 5394,
      "▁197": 5395,
      "inging": 5396,
      "▁start": 5397,
      "▁support": 5398,
      "▁sweetie": 5399,
      "▁expressed": 5400,
      "▁supposedly": 5401,
      ":1": 5402,
      "et": 5403,
      "▁submitted": 5404,
      "stop": 5405,
      "▁fest": 5406,
      "▁scheduled": 5407,
      "▁requires": 5408,
      "▁census": 5409,
      "▁etc.": 5410,
      "▁coach": 5411,
      "▁continues": 5412,
      "tte": 5413,
      "▁partic": 5414,
      "▁contacted": 5415,
      "▁honesty": 5416,
      "▁crime": 5417,
      "▁allow": 5418,
      "▁mayonna": 5419,
      "sh-e": 5420,
      "▁emissions": 5421,
      "▁fry": 5422,
      "▁barrel": 5423,
      "▁bold": 5424,
      "▁gag": 5425,
      "▁interests": 5426,
      "▁suspic": 5427,
      "e.": 5428,
      "v": 5429,
      "iar": 5430,
      "▁houses": 5431,
      "▁phoebe": 5432,
      "oameric": 5433,
      "▁cart": 5434,
      "▁searches": 5435,
      "▁elk": 5436,
      ":21": 5437,
      "▁713-646-3393": 5438,
      "▁alternatives": 5439,
      "▁dennis": 5440,
      "▁ftu": 5441,
      "_^": 5442,
      "▁pile": 5443,
      "▁researching": 5444,
      "▁toast": 5445,
      "▁uses": 5446,
      "▁&amp": 5447,
      "▁fighter": 5448,
      "doc": 5449,
      "▁expon": 5450,
      "▁190": 5451,
      "▁zeus": 5452,
      "▁staying": 5453,
      "[PAD]": 5454,
      "▁eczema": 5455,
      "▁shep": 5456,
      "mon": 5457,
      "▁arab": 5458,
      "onic": 5459,
      "▁yelling": 5460,
      "clusive": 5461,
      "▁buenos": 5462,
      "65": 5463,
      "aping": 5464,
      "▁rides": 5465,
      "▁opening": 5466,
      "▁rome": 5467,
      "▁continuing": 5468,
      "▁sput": 5469,
      "▁lisa": 5470,
      "▁08/16": 5471,
      "▁available": 5472,
      "▁robot": 5473,
      "▁aw": 5474,
      "▁lifelong": 5475,
      "▁hitting": 5476,
      "akistan": 5477,
      "▁ancient": 5478,
      "▁ano": 5479,
      "▁dutch": 5480,
      "▁photographs": 5481,
      "▁75": 5482,
      "itis": 5483,
      "▁horsie": 5484,
      "▁pon": 5485,
      "▁citizens": 5486,
      "uten": 5487,
      "▁congratulate": 5488,
      "▁hod": 5489,
      "▁510-642": 5490,
      "▁dale": 5491,
      "▁carrot": 5492,
      "▁wif": 5493,
      "▁programs": 5494,
      "▁travelers": 5495,
      "▁volunteers": 5496,
      "▁wiz": 5497,
      "▁enrich": 5498,
      "▁tells": 5499,
      "uits": 5500,
      "ki": 5501,
      "-3989": 5502,
      "▁fears": 5503,
      "▁francisco": 5504,
      "▁survived": 5505,
      "▁mute": 5506,
      "abling": 5507,
      "inews": 5508,
      "▁flau": 5509,
      "▁reviews": 5510,
      "▁stories": 5511,
      "65-3": 5512,
      "▁opinion": 5513,
      "▁restricted": 5514,
      "▁dirt": 5515,
      "▁together": 5516,
      "ement": 5517,
      "▁validity": 5518,
      "▁soften": 5519,
      "▁spiral": 5520,
      "▁principle": 5521,
      "▁antique": 5522,
      "▁splend": 5523,
      "run": 5524,
      "▁syria": 5525,
      "▁upd": 5526,
      "olf": 5527,
      "▁absent": 5528,
      "▁relying": 5529,
      "▁establishments": 5530,
      "▁integr": 5531,
      "▁financially": 5532,
      "▁club": 5533,
      "icated": 5534,
      "▁n-": 5535,
      "ishly": 5536,
      "▁goose": 5537,
      "▁soldiers": 5538,
      "▁405": 5539,
      "▁distingu": 5540,
      "▁20th": 5541,
      "@esa": 5542,
      "roy": 5543,
      "▁susan": 5544,
      "▁64": 5545,
      "mes": 5546,
      "▁kn": 5547,
      "▁see": 5548,
      "▁london": 5549,
      "stream": 5550,
      "樋": 5551,
      "▁animation": 5552,
      "▁carib": 5553,
      "▁vulnerable": 5554,
      "▁appliances": 5555,
      "▁grind": 5556,
      "▁picking": 5557,
      "▁conj": 5558,
      "▁faint": 5559,
      "▁look": 5560,
      "▁never": 5561,
      "▁funds": 5562,
      "▁interven": 5563,
      "▁bm": 5564,
      "jects": 5565,
      "▁thousand": 5566,
      "▁_________________________________": 5567,
      "▁erase": 5568,
      "▁kitch": 5569,
      "▁wilder": 5570,
      "▁groom": 5571,
      "▁5:00": 5572,
      "▁10:00": 5573,
      "▁1972": 5574,
      "▁jugg": 5575,
      "▁lazy": 5576,
      "▁wildcard": 5577,
      "▁consequ": 5578,
      "▁cinc": 5579,
      "▁usa": 5580,
      "▁beast": 5581,
      "▁breeding": 5582,
      "▁spreadsheet": 5583,
      "▁stup": 5584,
      "▁13": 5585,
      "▁argued": 5586,
      "ant": 5587,
      "ils": 5588,
      "ration": 5589,
      "▁che": 5590,
      "▁pin": 5591,
      "▁broad": 5592,
      "▁considered": 5593,
      "boys": 5594,
      "▁fragile": 5595,
      "▁potential": 5596,
      "▁governments": 5597,
      "uting": 5598,
      "▁circuit": 5599,
      "▁trad": 5600,
      "▁hermione": 5601,
      "▁days": 5602,
      "▁gand": 5603,
      "iliar": 5604,
      "▁dining": 5605,
      "▁traged": 5606,
      "▁absol": 5607,
      "▁as": 5608,
      "▁contr": 5609,
      "▁onions": 5610,
      "▁palestine": 5611,
      "▁pointed": 5612,
      "▁tracks": 5613,
      "▁end": 5614,
      "▁distracting": 5615,
      "▁92": 5616,
      "▁stronger": 5617,
      "bles": 5618,
      "93": 5619,
      "elson": 5620,
      "▁actions": 5621,
      "view": 5622,
      "▁respectfully": 5623,
      "&": 5624,
      "▁impossible": 5625,
      "▁filters": 5626,
      "▁deny": 5627,
      "ilization": 5628,
      "▁percentage": 5629,
      "enth": 5630,
      "▁harmony": 5631,
      "▁canadian": 5632,
      "bur": 5633,
      "▁l'enf": 5634,
      "▁dorm": 5635,
      "▁acceptable": 5636,
      "oler": 5637,
      "erve": 5638,
      "▁1966": 5639,
      "ema": 5640,
      "▁jill": 5641,
      "▁aust": 5642,
      "-w": 5643,
      "▁august": 5644,
      "▁hed": 5645,
      "▁em": 5646,
      "esy": 5647,
      "▁ruy": 5648,
      "▁weap": 5649,
      "es": 5650,
      "▁ic": 5651,
      "▁sneak": 5652,
      "izz": 5653,
      "▁explained": 5654,
      "▁invol": 5655,
      "▁ado": 5656,
      "▁obst": 5657,
      "▁locomotive": 5658,
      "================================": 5659,
      "isure": 5660,
      "▁trucks": 5661,
      "▁enov": 5662,
      "aded": 5663,
      "▁satanism": 5664,
      "elt": 5665,
      "▁impartial": 5666,
      "▁eligible": 5667,
      "▁train": 5668,
      "▁knowledg": 5669,
      "▁exciting": 5670,
      "▁347": 5671,
      "▁dc": 5672,
      "v.": 5673,
      "▁indeed": 5674,
      "▁immediately": 5675,
      "▁potentially": 5676,
      "▁corp.": 5677,
      "▁applying": 5678,
      "▁pian": 5679,
      "▁walker": 5680,
      "▁behav": 5681,
      "▁opera": 5682,
      "▁needles": 5683,
      "▁loans": 5684,
      "▁go": 5685,
      "▁stated": 5686,
      "▁chip": 5687,
      "▁dame": 5688,
      "▁goodness": 5689,
      "ith": 5690,
      "esty": 5691,
      "▁poster": 5692,
      "▁laundry": 5693,
      "ulous": 5694,
      "#6": 5695,
      "▁-----------------------------------------------------------------": 5696,
      "▁gates": 5697,
      "▁bath+room": 5698,
      "?": 5699,
      "ix": 5700,
      "▁hide": 5701,
      "▁spells": 5702,
      "▁rel": 5703,
      "▁safe": 5704,
      "ieve": 5705,
      "▁mother": 5706,
      "▁forecast": 5707,
      "▁81": 5708,
      "orie": 5709,
      "▁surrounded": 5710,
      "▁attach": 5711,
      "▁kent": 5712,
      "▁neighbors": 5713,
      "▁count": 5714,
      "▁satisfy": 5715,
      "▁ronald": 5716,
      "opod": 5717,
      "▁conserv": 5718,
      "▁mt": 5719,
      "▁correct": 5720,
      "▁customs": 5721,
      "▁hon": 5722,
      "▁traff": 5723,
      "▁kitten": 5724,
      "▁03/27/2001": 5725,
      "▁print": 5726,
      "▁delight": 5727,
      "▁**": 5728,
      "▁promising": 5729,
      "oman": 5730,
      "▁possibility": 5731,
      "ares": 5732,
      "▁potato": 5733,
      "▁lor": 5734,
      "▁kum": 5735,
      "▁reforms": 5736,
      "▁scream": 5737,
      "▁kwok": 5738,
      "▁alignment": 5739,
      "▁encourage": 5740,
      "▁tasting": 5741,
      "▁tana": 5742,
      "…": 5743,
      "▁spir": 5744,
      "ugg": 5745,
      "bondad": 5746,
      "▁actual": 5747,
      "▁1999": 5748,
      "▁breach": 5749,
      "▁casual": 5750,
      "▁taj": 5751,
      "▁called": 5752,
      "▁asking": 5753,
      "▁departures": 5754,
      "▁33": 5755,
      "▁inex": 5756,
      "ensus": 5757,
      "▁related": 5758,
      "▁terms": 5759,
      "▁unf": 5760,
      "▁several": 5761,
      "▁chairman": 5762,
      "▁town": 5763,
      "▁taught": 5764,
      "▁pupp": 5765,
      "▁cases": 5766,
      "▁hockey": 5767,
      "▁casc": 5768,
      "▁paint": 5769,
      "ipped": 5770,
      "▁journal": 5771,
      "get": 5772,
      "▁compound": 5773,
      "▁spaces": 5774,
      "▁mathemat": 5775,
      "▁bump": 5776,
      "edience": 5777,
      "▁jersey": 5778,
      "▁sword": 5779,
      "▁8:00": 5780,
      "▁1987": 5781,
      "aneously": 5782,
      "▁terry": 5783,
      "▁tri": 5784,
      "▁branch": 5785,
      "▁donkey": 5786,
      "▁1926": 5787,
      "haps": 5788,
      "▁perfection": 5789,
      "▁common": 5790,
      "ancement": 5791,
      "▁cass": 5792,
      "▁accuracy": 5793,
      "▁responded": 5794,
      "▁china": 5795,
      "▁dl": 5796,
      "▁5th": 5797,
      "wikipedia": 5798,
      "theless": 5799,
      "▁ce": 5800,
      "ador": 5801,
      "▁proportion": 5802,
      "wn": 5803,
      "30": 5804,
      "▁impl": 5805,
      "▁extensible": 5806,
      "▁title": 5807,
      "▁stops": 5808,
      "▁games": 5809,
      "▁outf": 5810,
      "▁renaissance": 5811,
      "▁remarkably": 5812,
      "▁vcu": 5813,
      "apes": 5814,
      "▁thereby": 5815,
      "▁spider": 5816,
      "▁marking": 5817,
      "▁burden": 5818,
      "▁varying": 5819,
      "▁places": 5820,
      "gypt": 5821,
      "itty": 5822,
      "▁cas": 5823,
      "▁169": 5824,
      "▁kiss": 5825,
      "▁ak": 5826,
      "rist": 5827,
      "▁difficult": 5828,
      "▁additional": 5829,
      "▁legit": 5830,
      "▁incentives": 5831,
      "▁crowds": 5832,
      "▁dollars": 5833,
      "▁y": 5834,
      "▁obl": 5835,
      "ico": 5836,
      "▁fired": 5837,
      "▁emily": 5838,
      "▁negotiation": 5839,
      "▁doctr": 5840,
      "▁hagrid": 5841,
      "▁negotiating": 5842,
      "▁recover": 5843,
      "▁sov": 5844,
      "▁330": 5845,
      "▁bon": 5846,
      "▁vivid": 5847,
      "ext": 5848,
      "▁carroll": 5849,
      "▁wire": 5850,
      "▁addresses": 5851,
      "▁applicable": 5852,
      "▁nandakke": 5853,
      "▁brothers": 5854,
      "▁sugar": 5855,
      "fast": 5856,
      "▁wrestle": 5857,
      "▁earthqu": 5858,
      "▁summer": 5859,
      "!!!!!!!!": 5860,
      "eplace": 5861,
      "▁evolving": 5862,
      "▁radi": 5863,
      "0010": 5864,
      "▁transferred": 5865,
      "▁free": 5866,
      "▁ay": 5867,
      "▁behind": 5868,
      "unic": 5869,
      "▁something": 5870,
      "▁ris": 5871,
      "l": 5872,
      "▁06/01/2001": 5873,
      "▁arguments": 5874,
      "▁fellows": 5875,
      "▁flav": 5876,
      "▁advis": 5877,
      "▁highlighted": 5878,
      "▁headaches": 5879,
      "▁snuffy": 5880,
      "▁buddhist": 5881,
      "▁cartoon": 5882,
      "▁sick": 5883,
      "▁belie": 5884,
      "▁kath": 5885,
      "▁:)": 5886,
      "▁spong": 5887,
      "▁sharing": 5888,
      "▁樋口": 5889,
      "▁national": 5890,
      "▁mal": 5891,
      "▁ordered": 5892,
      "▁damage": 5893,
      "@ect": 5894,
      "▁08": 5895,
      "▁forster@enron": 5896,
      "▁optional": 5897,
      "ider": 5898,
      "▁blow": 5899,
      "▁endang": 5900,
      "▁courts": 5901,
      "leans": 5902,
      "orescent": 5903,
      "ah": 5904,
      "▁characters": 5905,
      "▁generate": 5906,
      "▁porch": 5907,
      "▁850": 5908,
      "▁picked": 5909,
      "▁room": 5910,
      "▁fishes": 5911,
      "ji": 5912,
      "▁steal": 5913,
      "▁jean": 5914,
      "▁sab": 5915,
      "-01": 5916,
      "▁senior": 5917,
      "▁thought": 5918,
      "▁worked": 5919,
      "▁cleaned": 5920,
      "▁licensed": 5921,
      "iculous": 5922,
      "▁fundament": 5923,
      "▁mosc": 5924,
      "▁ticket": 5925,
      "▁swung": 5926,
      "▁regulated": 5927,
      "ilis": 5928,
      "▁blind": 5929,
      "▁witness": 5930,
      "ful": 5931,
      "-": 5932,
      "▁dismissed": 5933,
      "▁brad": 5934,
      "▁single": 5935,
      "▁1928": 5936,
      "▁vehicle": 5937,
      "▁a1": 5938,
      "▁415.621": 5939,
      "▁reference": 5940,
      "oes": 5941,
      "▁armed": 5942,
      "111": 5943,
      "▁popular": 5944,
      "▁minerals": 5945,
      ":23": 5946,
      "▁dots": 5947,
      "▁merit": 5948,
      "▁girl": 5949,
      "gged": 5950,
      "▁assert": 5951,
      "+": 5952,
      "field": 5953,
      "▁bookstore": 5954,
      "▁monday": 5955,
      "▁famous": 5956,
      "cling": 5957,
      "▁manipulating": 5958,
      "▁chips": 5959,
      "▁registration": 5960,
      "▁swedish": 5961,
      "▁prot": 5962,
      "▁anc": 5963,
      "ng": 5964,
      "▁plug": 5965,
      "lish": 5966,
      "▁control": 5967,
      "▁educated": 5968,
      "ques": 5969,
      "▁ach": 5970,
      "iture": 5971,
      "▁accur": 5972,
      "▁discomfort": 5973,
      "▁lur": 5974,
      "▁libya": 5975,
      "▁646-8420": 5976,
      "▁oper": 5977,
      "▁interior": 5978,
      "▁29587": 5979,
      "▁anton": 5980,
      "▁gu": 5981,
      "▁kaoshikii": 5982,
      "▁enh": 5983,
      "▁wrapped": 5984,
      "▁fri": 5985,
      "▁|": 5986,
      "▁conflicts": 5987,
      "▁spanking": 5988,
      "/index": 5989,
      "*": 5990,
      ".co": 5991,
      "▁booth": 5992,
      "actory": 5993,
      "▁sexual": 5994,
      "▁wilkins": 5995,
      "▁operation": 5996,
      "▁wealthy": 5997,
      "▁equivalent": 5998,
      "▁helicopter": 5999,
      "▁conven": 6000,
      "▁dall": 6001,
      "▁patron": 6002,
      "▁junk": 6003,
      "▁owned": 6004,
      "▁tires": 6005,
      "▁********": 6006,
      "▁pic": 6007,
      "ae": 6008,
      "–": 6009,
      "▁harp": 6010,
      "aper": 6011,
      "erry": 6012,
      "▁worsh": 6013,
      "▁shakespearean": 6014,
      "night": 6015,
      "▁memor": 6016,
      "▁phillip": 6017,
      "▁eleg": 6018,
      "▁torch": 6019,
      "▁mosque": 6020,
      "▁adding": 6021,
      "▁ferc": 6022,
      "▁solar": 6023,
      "▁fisher": 6024,
      "▁mexican": 6025,
      "g&e": 6026,
      "▁episode": 6027,
      "▁ripe": 6028,
      "▁that": 6029,
      "adelp": 6030,
      "eared": 6031,
      "▁numerous": 6032,
      "ram": 6033,
      "▁cab": 6034,
      "▁strength": 6035,
      "▁fit": 6036,
      "walk": 6037,
      "▁.3": 6038,
      "▁resolve": 6039,
      "▁girls": 6040,
      "▁snowboard": 6041,
      "▁teen": 6042,
      "▁gl": 6043,
      "▁lack": 6044,
      "istry": 6045,
      "~*~*": 6046,
      "▁amidst": 6047,
      "▁som": 6048,
      "▁nyl": 6049,
      "lass": 6050,
      "▁joined": 6051,
      "▁massage": 6052,
      "veland": 6053,
      "▁flights": 6054,
      "▁frost": 6055,
      "▁hardness": 6056,
      "ra": 6057,
      "▁commun": 6058,
      "▁ambitious": 6059,
      "▁ari": 6060,
      "@n": 6061,
      "▁sanders": 6062,
      "▁put": 6063,
      "▁–": 6064,
      "▁1724": 6065,
      "▁proclaim": 6066,
      "▁disco": 6067,
      "▁quinoa": 6068,
      "²": 6069,
      "standing": 6070,
      "alities": 6071,
      "▁gw": 6072,
      "▁initiative": 6073,
      "▁page": 6074,
      "▁inher": 6075,
      "▁1245": 6076,
      "16": 6077,
      "▁eliminated": 6078,
      "▁sou": 6079,
      "▁scores": 6080,
      "▁silkies": 6081,
      "▁gonzales": 6082,
      "▁80435": 6083,
      "ocol": 6084,
      "▁gotten": 6085,
      "ier": 6086,
      "▁814014": 6087,
      "▁blanche": 6088,
      "spot.com/": 6089,
      "▁harv": 6090,
      "▁torrance": 6091,
      "▁bwi": 6092,
      "vn": 6093,
      "▁newsgroup": 6094,
      "▁publishing": 6095,
      "61": 6096,
      "▁advantages": 6097,
      "▁marcel": 6098,
      "▁destiny": 6099,
      "▁quarter": 6100,
      "▁powell": 6101,
      "山": 6102,
      "▁proceedings": 6103,
      "▁floyd": 6104,
      "▁prel": 6105,
      "▁linguistic": 6106,
      "▁spark": 6107,
      "▁refugee": 6108,
      "▁thoughts": 6109,
      "▁fled": 6110,
      "▁null": 6111,
      "▁arts": 6112,
      "▁bearded": 6113,
      "▁invite": 6114,
      "▁adapt": 6115,
      "▁bees": 6116,
      "▁patrons": 6117,
      "▁conclusion": 6118,
      "▁fir": 6119,
      "▁place": 6120,
      "▁3,202.61": 6121,
      "▁democrat": 6122,
      "▁outcomes": 6123,
      "▁£": 6124,
      "▁jwww": 6125,
      "▁artists": 6126,
      ".25": 6127,
      "▁lugg": 6128,
      "▁hardly": 6129,
      "igh": 6130,
      "▁licens": 6131,
      "▁pounds": 6132,
      "▁bioch": 6133,
      "▁non": 6134,
      "▁pollution": 6135,
      "▁weeds": 6136,
      "▁site": 6137,
      "▁six": 6138,
      "▁overt": 6139,
      "▁cir": 6140,
      "▁attem": 6141,
      "▁owls": 6142,
      "▁tighten": 6143,
      "d-#6": 6144,
      "▁tensions": 6145,
      "▁backwards": 6146,
      "q": 6147,
      "▁thanks": 6148,
      "▁truly": 6149,
      "▁mathematic": 6150,
      "▁theropod": 6151,
      "▁hesitate": 6152,
      "▁agreed": 6153,
      ".n": 6154,
      "▁978": 6155,
      "▁geomet": 6156,
      "▁airlines": 6157,
      "▁exceed": 6158,
      "▁broadcasting": 6159,
      "▁05": 6160,
      "▁graphic": 6161,
      "▁aladar": 6162,
      "aked": 6163,
      "▁932": 6164,
      "▁claws": 6165,
      "▁reasoned": 6166,
      "ct": 6167,
      "▁defence": 6168,
      "39": 6169,
      "▁natural": 6170,
      "œ": 6171,
      "▁calm": 6172,
      "dle": 6173,
      "mail.com": 6174,
      "▁viewed": 6175,
      "▁hearing": 6176,
      "▁fungus": 6177,
      "▁celebrated": 6178,
      "ran": 6179,
      "uted": 6180,
      "▁vie": 6181,
      "▁sac": 6182,
      "▁88": 6183,
      "▁society": 6184,
      "▁mexico": 6185,
      "▁parts": 6186,
      "▁foo": 6187,
      "▁custom": 6188,
      "veria": 6189,
      "▁dealt": 6190,
      "▁ind": 6191,
      "▁leonardo": 6192,
      "[UNK]": 6193,
      "▁ladies": 6194,
      "▁extension": 6195,
      "▁thames": 6196,
      "▁constantly": 6197,
      "war": 6198,
      "asse": 6199,
      "▁55": 6200,
      "beat": 6201,
      "athan": 6202,
      "▁currently": 6203,
      "▁tail": 6204,
      "onsc": 6205,
      "▁entire": 6206,
      "▁christopher": 6207,
      "▁waited": 6208,
      "▁30,000": 6209,
      "▁inventory": 6210,
      "▁wed": 6211,
      "▁upon": 6212,
      "▁atroph": 6213,
      "▁bang": 6214,
      "▁produces": 6215,
      "oring": 6216,
      "▁sale": 6217,
      "▁cross-sectional": 6218,
      "▁04:17": 6219,
      "▁sain": 6220,
      "▁gramm": 6221,
      "enger": 6222,
      "▁ruled": 6223,
      "▁sounds": 6224,
      "▁event": 6225,
      "▁warfare": 6226,
      "▁tap": 6227,
      "▁feathers": 6228,
      "▁tooth": 6229,
      "▁receipt": 6230,
      "he": 6231,
      "ased": 6232,
      "▁1616": 6233,
      "▁campaigns": 6234,
      "▁281-44": 6235,
      "▁defense": 6236,
      "▁snap": 6237,
      "▁gift": 6238,
      "▁indefin": 6239,
      "im": 6240,
      "▁students": 6241,
      "▁sett": 6242,
      "▁judge": 6243,
      "▁included": 6244,
      "▁77": 6245,
      "▁das": 6246,
      "▁pronunciation": 6247,
      "▁remarkable": 6248,
      "eral": 6249,
      "▁paniotis": 6250,
      "▁cu": 6251,
      "▁aut": 6252,
      "▁vulner": 6253,
      "▁compassion": 6254,
      "▁painted": 6255,
      "▁musician": 6256,
      "▁uniquely": 6257,
      "ł": 6258,
      "▁e-m": 6259,
      "▁funct": 6260,
      "▁reporting": 6261,
      "▁ahead": 6262,
      "▁lions": 6263,
      "▁102": 6264,
      "▁directives": 6265,
      "▁grape": 6266,
      "▁d": 6267,
      "▁running": 6268,
      "▁1689": 6269,
      "▁mud": 6270,
      "lands": 6271,
      "▁indef": 6272,
      "▁organizing": 6273,
      "raz": 6274,
      "erable": 6275,
      "▁snitch": 6276,
      "/17/99": 6277,
      "▁bagh": 6278,
      "▁fountain": 6279,
      "▁tut": 6280,
      "▁roles": 6281,
      "▁lag": 6282,
      "▁brenner": 6283,
      "▁scanning": 6284,
      "▁effective": 6285,
      "pat": 6286,
      "▁undergraduate": 6287,
      "▁unhappy": 6288,
      "▁greg": 6289,
      "verty": 6290,
      "▁drying": 6291,
      "▁cris": 6292,
      "▁diver": 6293,
      "ilt": 6294,
      "▁ger": 6295,
      "▁prov": 6296,
      "▁consequence": 6297,
      "▁empirical": 6298,
      "▁….": 6299,
      "▁lott": 6300,
      "▁adequately": 6301,
      "▁1902": 6302,
      "▁understands": 6303,
      "▁proceeds": 6304,
      "▁baath": 6305,
      "▁vegetarian": 6306,
      "▁female": 6307,
      "▁46": 6308,
      "huh": 6309,
      "▁dy": 6310,
      "rums": 6311,
      "-c": 6312,
      "▁253": 6313,
      "alk": 6314,
      "kind": 6315,
      "▁levels": 6316,
      "▁deer": 6317,
      "▁lightning": 6318,
      "▁range": 6319,
      "ogel": 6320,
      "aud": 6321,
      "▁chief": 6322,
      "▁skitt": 6323,
      "arking": 6324,
      "▁creature": 6325,
      "▁ft.": 6326,
      "▁labor": 6327,
      "▁broker": 6328,
      "▁moisture": 6329,
      "acion": 6330,
      "▁permits": 6331,
      "▁productivity": 6332,
      "▁peanuts": 6333,
      "▁throu": 6334,
      "lev": 6335,
      "ning": 6336,
      "▁chair": 6337,
      "eds": 6338,
      "▁constituency": 6339,
      "▁bit": 6340,
      "▁disciplines": 6341,
      "▁buy": 6342,
      "▁pict": 6343,
      "▁meth": 6344,
      "▁risk": 6345,
      "▁tunisia": 6346,
      "▁nope": 6347,
      "▁☎": 6348,
      "▁": 6349,
      "▁beneath": 6350,
      "▁demonstrates": 6351,
      "▁corner": 6352,
      "▁bull": 6353,
      "▁....": 6354,
      "▁compli": 6355,
      "ɛ": 6356,
      "▁compensate": 6357,
      "==============": 6358,
      "▁saved": 6359,
      "▁fluid": 6360,
      "10": 6361,
      "▁---------------------------------------------------------------------------": 6362,
      "▁acquisition": 6363,
      "▁securing": 6364,
      "za": 6365,
      "▁646-84": 6366,
      "▁colon": 6367,
      "▁choices": 6368,
      "▁sic": 6369,
      "erv": 6370,
      "▁lind": 6371,
      "▁ess": 6372,
      "▁knight": 6373,
      "▁biod": 6374,
      "▁forever": 6375,
      "▁nancy": 6376,
      "▁conditional": 6377,
      "▁prob": 6378,
      "▁1829": 6379,
      "▁sees": 6380,
      "-2": 6381,
      "▁travis": 6382,
      "▁wherever": 6383,
      "inary": 6384,
      "ʻ": 6385,
      "igned": 6386,
      "▁baltimore": 6387,
      "▁th": 6388,
      "▁playwright": 6389,
      "▁overwh": 6390,
      "▁popcorn": 6391,
      "an": 6392,
      "ami": 6393,
      "▁corners": 6394,
      "▁bells": 6395,
      "ures": 6396,
      "▁nasa": 6397,
      "▁mil": 6398,
      "▁attorn": 6399,
      "▁boyfriend": 6400,
      "eys": 6401,
      "▁mainly": 6402,
      "▁conspir": 6403,
      "▁technique": 6404,
      "flies": 6405,
      "▁repe": 6406,
      "▁esther": 6407,
      "▁term": 6408,
      "▁extent": 6409,
      "▁colonel": 6410,
      "▁christoph": 6411,
      "eric": 6412,
      "rif": 6413,
      "▁propose": 6414,
      "/26/2000": 6415,
      "▁62": 6416,
      "▁phone": 6417,
      "▁annoying": 6418,
      "▁curtain": 6419,
      "▁musharraf": 6420,
      "▁symph": 6421,
      "▁^_^": 6422,
      "-79": 6423,
      "▁virtually": 6424,
      "▁saitama": 6425,
      "▁vanished": 6426,
      "ias": 6427,
      "ois": 6428,
      "▁certificate": 6429,
      "▁exception": 6430,
      "▁interviews": 6431,
      "ort": 6432,
      "▁rec": 6433,
      "▁phys": 6434,
      "▁starts": 6435,
      ":29": 6436,
      "cement": 6437,
      "▁1998": 6438,
      "▁it's": 6439,
      "▁sm": 6440,
      "▁p.m.": 6441,
      "▁fal": 6442,
      "▁multiply": 6443,
      "▁mccartney": 6444,
      "▁disclaim": 6445,
      "▁electric": 6446,
      "▁screwdriver": 6447,
      "ifies": 6448,
      "▁approximately": 6449,
      "▁asserted": 6450,
      "▁713-654-": 6451,
      "▁punct": 6452,
      "▁youth": 6453,
      "▁covid": 6454,
      "▁.........": 6455,
      "▁school": 6456,
      "▁restaurant": 6457,
      "iety": 6458,
      "▁chocolate": 6459,
      "▁bleachers": 6460,
      "▁1592": 6461,
      "▁calculations": 6462,
      "▁scam": 6463,
      "▁44,000": 6464,
      "▁bay": 6465,
      "▁bite": 6466,
      "▁compreh": 6467,
      "cond": 6468,
      "▁stood": 6469,
      "▁trump": 6470,
      "vis": 6471,
      "▁candidates": 6472,
      "▁manufactured": 6473,
      "▁briefly": 6474,
      "/1": 6475,
      "▁renata": 6476,
      "▁tatt": 6477,
      "▁prey": 6478,
      "▁bill": 6479,
      "▁transmitted": 6480,
      "ird": 6481,
      "▁120,000": 6482,
      "▁join": 6483,
      "aster": 6484,
      "▁sleeves": 6485,
      "igration": 6486,
      "▁cos": 6487,
      "▁mare": 6488,
      "rition": 6489,
      "▁8": 6490,
      "▁hugh": 6491,
      "α": 6492,
      "▁oct.": 6493,
      "▁devised": 6494,
      "▁shovel": 6495,
      "▁designed": 6496,
      "▁1957": 6497,
      "di": 6498,
      "▁lean": 6499,
      "▁processing": 6500,
      "▁colonial": 6501,
      "▁beverage": 6502,
      "▁colours": 6503,
      "▁damp": 6504,
      "▁2nd": 6505,
      "▁1307": 6506,
      "▁ordinary": 6507,
      "▁undergrad": 6508,
      "▁sciss": 6509,
      "semin": 6510,
      "asses": 6511,
      "air@enron.com": 6512,
      "▁suspected": 6513,
      "▁destruction": 6514,
      "▁eco": 6515,
      "▁designer": 6516,
      "asing": 6517,
      "▁montejo": 6518,
      "▁power": 6519,
      "▁hel": 6520,
      "▁vietnamese": 6521,
      "ght": 6522,
      "▁note": 6523,
      "▁rot": 6524,
      "▁gravity": 6525,
      "rie": 6526,
      "▁imported": 6527,
      "▁being": 6528,
      "▁availability": 6529,
      "▁freely": 6530,
      "▁transfer": 6531,
      "▁transaction": 6532,
      "▁**********": 6533,
      "esth": 6534,
      "▁ornament": 6535,
      "▁lyn": 6536,
      "▁engineers": 6537,
      "▁jeff": 6538,
      "▁managing": 6539,
      "▁they": 6540,
      "aroo": 6541,
      "▁articles": 6542,
      "erre": 6543,
      "▁buttered": 6544,
      "▁dust": 6545,
      "▁1993": 6546,
      "ainted": 6547,
      "▁diana": 6548,
      "▁mujah": 6549,
      "▁christianity": 6550,
      "▁elder": 6551,
      "▁academic": 6552,
      "▁eyes": 6553,
      "▁volley": 6554,
      "4gamer": 6555,
      "ove": 6556,
      "bound": 6557,
      "▁mer": 6558,
      "▁carney": 6559,
      "▁remembered": 6560,
      "▁cay": 6561,
      "▁deed": 6562,
      "▁pakistan": 6563,
      "▁unique": 6564,
      "▁figures": 6565,
      "▁813": 6566,
      "▁motive": 6567,
      "▁concert": 6568,
      "▁mask": 6569,
      "▁2050": 6570,
      "▁mayko": 6571,
      "▁constitute": 6572,
      "▁eight": 6573,
      "▁hind": 6574,
      "▁muscles": 6575,
      "▁2004": 6576,
      "▁nante": 6577,
      "▁columns": 6578,
      "▁engagement": 6579,
      "▁tools": 6580,
      "▁intervention": 6581,
      "oping": 6582,
      "▁worker": 6583,
      "▁quant": 6584,
      "▁frisco": 6585,
      "▁6.1": 6586,
      "▁anth": 6587,
      "▁vlog": 6588,
      "▁telephones": 6589,
      "▁tire": 6590,
      "▁fourteenth": 6591,
      "▁four": 6592,
      "▁att": 6593,
      "▁elizabeth": 6594,
      "▁drift": 6595,
      "▁ending": 6596,
      "▁lif": 6597,
      "urn": 6598,
      "======": 6599,
      "▁rachel": 6600,
      "da": 6601,
      "▁appearance": 6602,
      "▁kar": 6603,
      "▁aims": 6604,
      "▁angel": 6605,
      "▁80": 6606,
      "▁governor": 6607,
      "▁ansi-89": 6608,
      "▁cooker": 6609,
      "▁bird": 6610,
      "ging": 6611,
      "▁widely": 6612,
      "▁!!": 6613,
      "▁flower": 6614,
      "▁divisions": 6615,
      "▁attracting": 6616,
      "du": 6617,
      "[SEP]": 6618,
      "▁bright": 6619,
      "gamer": 6620,
      "▁fore": 6621,
      "▁sox": 6622,
      "▁themes": 6623,
      "▁banking": 6624,
      "▁reviewed": 6625,
      "▁missed": 6626,
      "▁library": 6627,
      "▁hr": 6628,
      "▁1937": 6629,
      "▁enfor": 6630,
      "▁caught": 6631,
      "xon": 6632,
      "omer": 6633,
      "icked": 6634,
      "▁grizz": 6635,
      "▁gloom": 6636,
      "▁france": 6637,
      "▁41": 6638,
      "-9": 6639,
      "22,000": 6640,
      "▁cried": 6641,
      "bert": 6642,
      "▁electricity": 6643,
      "▁slip": 6644,
      "erged": 6645,
      "etics": 6646,
      "▁continuation": 6647,
      "▁dursleys": 6648,
      "pes": 6649,
      "▁mant": 6650,
      "bel": 6651,
      "▁lennon": 6652,
      "reml": 6653,
      "▁caf": 6654,
      "▁mis": 6655,
      "▁header": 6656,
      "▁elimin": 6657,
      "ut": 6658,
      "▁leg": 6659,
      "▁----==": 6660,
      "▁pixie": 6661,
      "▁11:36": 6662,
      "itative": 6663,
      "▁va": 6664,
      "▁mat": 6665,
      "rupt": 6666,
      "icult": 6667,
      "▁aqu": 6668,
      "▁sustainable": 6669,
      "▁cans": 6670,
      "▁irrele": 6671,
      "▁posters": 6672,
      "ucker": 6673,
      "▁serpent": 6674,
      "note": 6675,
      "▁prim": 6676,
      "▁musical": 6677,
      "embers": 6678,
      "▁museums": 6679,
      "▁en": 6680,
      "▁manif": 6681,
      "▁heavy": 6682,
      "▁laptop": 6683,
      "▁jokes": 6684,
      "aku": 6685,
      "▁nail": 6686,
      "▁pach": 6687,
      "ither": 6688,
      "▁establishing": 6689,
      "▁khins": 6690,
      "▁blown": 6691,
      "▁brooklyn": 6692,
      "▁resour": 6693,
      "▁mac": 6694,
      "▁impress": 6695,
      "▁house": 6696,
      "part": 6697,
      "▁1910": 6698,
      "▁compensation": 6699,
      "▁mo": 6700,
      "oos": 6701,
      "n.": 6702,
      "si": 6703,
      "▁photographers": 6704,
      "▁influential": 6705,
      "▁vietnam": 6706,
      "▁ammunition": 6707,
      "roll": 6708,
      "ame": 6709,
      "▁touching": 6710,
      "▁ole": 6711,
      "-b": 6712,
      "▁ob": 6713,
      "▁import": 6714,
      "▁drive": 6715,
      "▁1877": 6716,
      "oculars": 6717,
      "▁terminal": 6718,
      "▁44": 6719,
      "most": 6720,
      "▁staircase": 6721,
      "90s": 6722,
      "▁constant": 6723,
      "down": 6724,
      "▁british": 6725,
      "▁teh": 6726,
      "▁charity": 6727,
      "ects": 6728,
      "▁bench": 6729,
      "awed": 6730,
      "itten": 6731,
      "▁terrorists": 6732,
      "▁strings": 6733,
      "roedter": 6734,
      "▁prospect": 6735,
      "▁kitchen": 6736,
      "▁conditioning": 6737,
      "▁296": 6738,
      "▁hen": 6739,
      "▁ich": 6740,
      "zes": 6741,
      "▁across": 6742,
      "▁strange": 6743,
      "▁edit": 6744,
      "▁remains": 6745,
      "▁silent": 6746,
      "▁flaw": 6747,
      "onse": 6748,
      "▁llms": 6749,
      "▁making": 6750,
      "▁infrastructure": 6751,
      "bour": 6752,
      "▁zurbaran": 6753,
      "▁11:45": 6754,
      "▁rivers": 6755,
      "▁sweeping": 6756,
      "▁clair": 6757,
      "▁03/28/2001": 6758,
      "▁twitter": 6759,
      "▁phill": 6760,
      "ator": 6761,
      "▁zip": 6762,
      "▁locomot": 6763,
      "▁wagon": 6764,
      "isons": 6765,
      "▁rough": 6766,
      "ister": 6767,
      "▁619": 6768,
      "▁opened": 6769,
      "sych": 6770,
      "▁downtown": 6771,
      "-343": 6772,
      "▁earth": 6773,
      "▁fin": 6774,
      "▁unknown": 6775,
      "▁orchest": 6776,
      "▁y-": 6777,
      "▁alph": 6778,
      "▁integrated": 6779,
      "▁entry": 6780,
      "▁crew": 6781,
      "▁pleasant": 6782,
      "oui": 6783,
      "▁controlling": 6784,
      "▁ont": 6785,
      "uman": 6786,
      "rating": 6787,
      "▁memphis": 6788,
      "▁figured": 6789,
      "▁w3c": 6790,
      "▁aband": 6791,
      "▁used": 6792,
      "▁jam": 6793,
      "▁license": 6794,
      "▁spiderman": 6795,
      "▁veto": 6796,
      "▁unemployed": 6797,
      "▁aer": 6798,
      "▁limitations": 6799,
      "▁examples": 6800,
      "▁insight": 6801,
      "▁gut": 6802,
      "▁unconsc": 6803,
      "▁purchased": 6804,
      "▁optim": 6805,
      "▁desper": 6806,
      "▁contexts": 6807,
      "em": 6808,
      "▁advent": 6809,
      "▁potatoes": 6810,
      "▁disorders": 6811,
      "▁distances": 6812,
      "▁ped": 6813,
      "aged": 6814,
      "▁guards": 6815,
      "▁shinza": 6816,
      "bridge": 6817,
      "▁tofu": 6818,
      "▁zo": 6819,
      "cp": 6820,
      "▁30": 6821,
      "▁dubai": 6822,
      "▁cuba": 6823,
      "▁science": 6824,
      "rast": 6825,
      "▁auster": 6826,
      "▁obser": 6827,
      "▁hoc": 6828,
      "▁financ": 6829,
      "▁travel": 6830,
      "▁wel": 6831,
      "▁counterfeiting": 6832,
      "▁hostile": 6833,
      "▁laughs": 6834,
      "▁created": 6835,
      "▁alligator": 6836,
      "ز": 6837,
      "53-3": 6838,
      "▁fame": 6839,
      "▁unfamiliar": 6840,
      "▁acknowledge": 6841,
      "▁darin": 6842,
      "igrew": 6843,
      "uses": 6844,
      "▁discl": 6845,
      "▁calling": 6846,
      "▁select": 6847,
      "▁530": 6848,
      "▁pail": 6849,
      "▁throughout": 6850,
      "▁nic": 6851,
      "▁lon": 6852,
      "▁pudding": 6853,
      "mi": 6854,
      "under": 6855,
      "▁chantilly": 6856,
      "▁run": 6857,
      "▁her": 6858,
      "▁neatly": 6859,
      "▁stick": 6860,
      "gate": 6861,
      "▁***": 6862,
      "▁dung": 6863,
      "▁switched": 6864,
      "▁sink": 6865,
      "eton@ect": 6866,
      "▁document": 6867,
      "▁eh": 6868,
      "▁baker": 6869,
      "▁exchanged": 6870,
      "▁m80": 6871,
      "yan": 6872,
      "▁subs": 6873,
      "▁plastic": 6874,
      "▁decrease": 6875,
      "▁advert": 6876,
      "▁upi": 6877,
      "▁migrants": 6878,
      "▁aboard": 6879,
      "▁gentleman": 6880,
      "▁life": 6881,
      "▁enterprise": 6882,
      "▁origins": 6883,
      "▁referred": 6884,
      "▁verse": 6885,
      "▁abbreviation": 6886,
      "▁procedures": 6887,
      "▁worse": 6888,
      "▁nonsense": 6889,
      "▁squashed": 6890,
      "▁sister": 6891,
      "▁10/20/2000": 6892,
      "2-": 6893,
      "▁queue": 6894,
      "▁friedrich": 6895,
      "▁ding": 6896,
      "▁backward": 6897,
      "▁khan@transredes": 6898,
      "▁shine": 6899,
      "▁slides": 6900,
      "▁socotra": 6901,
      "▁unclear": 6902,
      "book": 6903,
      "▁provides": 6904,
      "▁spos": 6905,
      "/15": 6906,
      "▁coron": 6907,
      "91": 6908,
      "▁pud": 6909,
      "uku": 6910,
      "▁http://www.4gamer.net/news/image/2005.09": 6911,
      "▁nether": 6912,
      "▁internet": 6913,
      "▁answer": 6914,
      "▁with": 6915,
      "▁surrender": 6916,
      "▁offer": 6917,
      "▁biden": 6918,
      "▁staff": 6919,
      "▁describes": 6920,
      "▁hole": 6921,
      "la": 6922,
      "▁12:12": 6923,
      "▁compared": 6924,
      "ely": 6925,
      "▁benefit": 6926,
      "oma": 6927,
      "▁checking": 6928,
      "onut": 6929,
      "▁uk": 6930,
      "▁funded": 6931,
      "▁katrina": 6932,
      "tered": 6933,
      "▁pu": 6934,
      "▁grilled": 6935,
      "▁independ": 6936,
      "▁979": 6937,
      "▁wanted": 6938,
      "▁obs": 6939,
      "▁infinite": 6940,
      "maid": 6941,
      "▁ought": 6942,
      "▁trailer": 6943,
      "▁landscape": 6944,
      "▁thom": 6945,
      "▁susanna": 6946,
      "▁planted": 6947,
      "uz": 6948,
      "▁flakes": 6949,
      "iary": 6950,
      "▁plot": 6951,
      "▁202.456.1414": 6952,
      "▁dentist": 6953,
      "▁whale": 6954,
      "▁shi": 6955,
      "▁ginny": 6956,
      "▁42,000": 6957,
      "▁det": 6958,
      "▁drove": 6959,
      "▁hate": 6960,
      "▁matter": 6961,
      "▁bou": 6962,
      "▁habits": 6963,
      "▁l.": 6964,
      "▁bucks": 6965,
      "▁dire": 6966,
      "▁50": 6967,
      "▁continental": 6968,
      "▁motel": 6969,
      "j": 6970,
      "▁sandwiches": 6971,
      "▁so": 6972,
      "▁hards": 6973,
      "▁equals": 6974,
      "▁reasons": 6975,
      "gence": 6976,
      "▁diesel": 6977,
      "▁post": 6978,
      "▁investigation": 6979,
      "▁cat": 6980,
      "▁afraid": 6981,
      "▁slave": 6982,
      "▁tug": 6983,
      "a)": 6984,
      "▁bulldozer": 6985,
      "▁conform": 6986,
      "▁sunday": 6987,
      "ic": 6988,
      "▁terre": 6989,
      "ium": 6990,
      "▁fresh": 6991,
      "▁subst": 6992,
      "▁strategy": 6993,
      "▁head": 6994,
      "▁guadeloupe": 6995,
      "▁descended": 6996,
      "entary": 6997,
      "▁try": 6998,
      "▁pasta": 6999,
      "iation": 7000,
      "othy": 7001,
      "▁injust": 7002,
      "▁reserv": 7003,
      "▁embedded": 7004,
      "▁fashion": 7005,
      "▁10:30": 7006,
      "▁gwww": 7007,
      "▁declaration": 7008,
      "▁mann": 7009,
      "▁hostess": 7010,
      "▁wellington": 7011,
      "▁impro": 7012,
      "▁tru": 7013,
      "▁autof": 7014,
      "▁accepting": 7015,
      "▁agent": 7016,
      "▁colleagues": 7017,
      "▁savings": 7018,
      ".htm": 7019,
      "▁rental": 7020,
      "▁implicated": 7021,
      "row": 7022,
      "▁subjected": 7023,
      "▁$": 7024,
      "▁tam": 7025,
      "dging": 7026,
      "▁declar": 7027,
      "▁define": 7028,
      "▁1799": 7029,
      "▁bib": 7030,
      "work": 7031,
      "▁curry": 7032,
      "iers": 7033,
      "▁dollar": 7034,
      "▁reaches": 7035,
      "▁rathbun": 7036,
      "▁group": 7037,
      "▁charl": 7038,
      "▁terrorism": 7039,
      "▁ngu": 7040,
      "22": 7041,
      "▁ruby": 7042,
      "ø": 7043,
      "▁ath": 7044,
      "ounded": 7045,
      "▁1609": 7046,
      "▁incre": 7047,
      "▁hym": 7048,
      "▁turnpike": 7049,
      "ygen": 7050,
      "▁front": 7051,
      "▁civet": 7052,
      "▁fruity": 7053,
      "coming": 7054,
      "▁mosqu": 7055,
      "▁strateg": 7056,
      "▁rapidly": 7057,
      "▁signals": 7058,
      "olitan": 7059,
      "▁08/15/2000": 7060,
      "▁window": 7061,
      "▁why": 7062,
      "▁assem": 7063,
      "▁ali": 7064,
      "▁councill": 7065,
      "▁jenn": 7066,
      "ustom": 7067,
      "▁legislature": 7068,
      "▁renting": 7069,
      "oph": 7070,
      "▁rains": 7071,
      "▁donated": 7072,
      "▁models": 7073,
      "▁logical": 7074,
      "▁re-e": 7075,
      "▁neoc": 7076,
      "▁genuinely": 7077,
      "▁one": 7078,
      "▁415.782": 7079,
      "ughters": 7080,
      "tact": 7081,
      "ini": 7082,
      "▁toll": 7083,
      "▁masterpi": 7084,
      "▁missing": 7085,
      "sp": 7086,
      "▁programm": 7087,
      "▁2.": 7088,
      "▁america": 7089,
      "▁provider": 7090,
      "▁intoler": 7091,
      "▁paragraph": 7092,
      "▁row": 7093,
      "▁sidd": 7094,
      "▁radiation": 7095,
      "▁training": 7096,
      "▁brings": 7097,
      "▁initiatives": 7098,
      "▁online": 7099,
      "▁admissions": 7100,
      ">===": 7101,
      "▁1583": 7102,
      "▁veget": 7103,
      "▁whistle": 7104,
      "▁deliberately": 7105,
      "▁muscle": 7106,
      "▁vold": 7107,
      ":3": 7108,
      "▁ict": 7109,
      "▁jerry": 7110,
      "▁suite": 7111,
      "▁accountant": 7112,
      ".b": 7113,
      "▁extr": 7114,
      "▁passing": 7115,
      "▁notch": 7116,
      "image": 7117,
      "▁ark": 7118,
      "▁oatmeal": 7119,
      "▁hook": 7120,
      "@t": 7121,
      "bond": 7122,
      "▁militant": 7123,
      "ocrats": 7124,
      "▁predatory": 7125,
      "▁detailed": 7126,
      "▁unnecessary": 7127,
      "▁alth": 7128,
      "▁blah": 7129,
      "tip": 7130,
      "▁florence": 7131,
      "cl": 7132,
      "▁obligations": 7133,
      "▁l": 7134,
      "iev": 7135,
      "▁astride": 7136,
      "▁metals": 7137,
      "achel": 7138,
      "▁privile": 7139,
      "▁news": 7140,
      "▁swept": 7141,
      "▁golden": 7142,
      "▁garbage": 7143,
      "▁proceeding": 7144,
      "▁900": 7145,
      "▁kidding": 7146,
      "▁motorcycle": 7147,
      "▁ji": 7148,
      "▁1589": 7149,
      "naissance": 7150,
      "▁original": 7151,
      "▁indicated": 7152,
      "▁rath": 7153,
      "▁btw": 7154,
      "▁jazz": 7155,
      "▁insurgency": 7156,
      "▁zeal": 7157,
      "mar": 7158,
      "▁total": 7159,
      "-l": 7160,
      "▁trademark": 7161,
      "▁buses": 7162,
      "erving": 7163,
      "▁eating": 7164,
      "▁written": 7165,
      "▁billion": 7166,
      "itive": 7167,
      "▁pennsylv": 7168,
      "▁ocean": 7169,
      "▁ted": 7170,
      "▁meat": 7171,
      "3-3744": 7172,
      ".fr": 7173,
      "▁exposure": 7174,
      "▁writers": 7175,
      "▁bumpa": 7176,
      "▁respectively": 7177,
      "▁rising": 7178,
      "▁1878": 7179,
      "kana": 7180,
      "▁burned": 7181,
      "▁reserve": 7182,
      "inence": 7183,
      "▁sang": 7184,
      "rest": 7185,
      "▁americ": 7186,
      "▁yuck": 7187,
      "▁archive": 7188,
      "▁intake": 7189,
      "▁richmond": 7190,
      "▁triv": 7191,
      "▁associate": 7192,
      "▁tall": 7193,
      "▁amounts": 7194,
      "▁jenna": 7195,
      "ces": 7196,
      "▁oklahoma": 7197,
      "▁illness": 7198,
      "ology": 7199,
      "▁chalmers": 7200,
      "4/2000": 7201,
      "▁1890": 7202,
      "▁andy": 7203,
      "▁unple": 7204,
      "▁manual": 7205,
      "▁provision": 7206,
      "▁battle": 7207,
      "board": 7208,
      "▁sam": 7209,
      "€": 7210,
      "▁weas": 7211,
      "▁mailto": 7212,
      "▁aka": 7213,
      "▁timer": 7214,
      "ug": 7215,
      "▁tant": 7216,
      "▁radio": 7217,
      "▁04:": 7218,
      "▁1959": 7219,
      "beijing": 7220,
      "▁males": 7221,
      "▁corporations": 7222,
      "bie": 7223,
      "▁sonnets": 7224,
      "▁glob": 7225,
      "▁albania": 7226,
      "unciation": 7227,
      "iwan": 7228,
      "▁leopold": 7229,
      "itz": 7230,
      "▁crane": 7231,
      "▁moscow": 7232,
      "▁beaver": 7233,
      "▁1800": 7234,
      "▁woman": 7235,
      "▁struggling": 7236,
      "mas": 7237,
      "▁hanging": 7238,
      "▁4_28": 7239,
      "▁waive": 7240,
      "▁vision": 7241,
      "▁ske": 7242,
      "▁tacoma": 7243,
      "▁belt": 7244,
      "▁thous": 7245,
      "iday": 7246,
      "▁becoming": 7247,
      "▁qaeda": 7248,
      "▁hor": 7249,
      "▁9:30": 7250,
      "rible": 7251,
      "▁envelopes": 7252,
      "gets": 7253,
      "ones": 7254,
      "▁pedic": 7255,
      "▁scale": 7256,
      "▁tried": 7257,
      "▁dial": 7258,
      "▁airbnb": 7259,
      "▁bri": 7260,
      "▁separating": 7261,
      "onnay": 7262,
      "▁evans": 7263,
      "..": 7264,
      "▁sting": 7265,
      "▁assets": 7266,
      "▁tragedies": 7267,
      "raved": 7268,
      "▁st.": 7269,
      "11": 7270,
      "▁maris": 7271,
      "anna": 7272,
      "iment": 7273,
      "▁reads": 7274,
      "▁approxim": 7275,
      "▁removed": 7276,
      "ether": 7277,
      "ulating": 7278,
      "▁hilar": 7279,
      "▁175": 7280,
      "▁pushing": 7281,
      "▁theatrical": 7282,
      "▁arri": 7283,
      "pped": 7284,
      "uent": 7285,
      "▁sixteenth": 7286,
      "▁2019": 7287,
      "▁die": 7288,
      ".uk": 7289,
      "▁rs": 7290,
      "▁))": 7291,
      "▁warned": 7292,
      "▁participating": 7293,
      ":32": 7294,
      "anche": 7295,
      "ι": 7296,
      "▁ralph": 7297,
      "/01/2001": 7298,
      "action": 7299,
      "▁ski": 7300,
      "ger": 7301,
      "▁!": 7302,
      "ications": 7303,
      "▁keen": 7304,
      "▁parallel": 7305,
      "▁stay": 7306,
      "reg": 7307,
      "▁maybe": 7308,
      "gen": 7309,
      "▁geometry": 7310,
      "▁diagram": 7311,
      "▁proceed": 7312,
      "umes": 7313,
      "▁1888": 7314,
      "ones@": 7315,
      "▁peanut": 7316,
      "so": 7317,
      "agic": 7318,
      "▁intriguing": 7319,
      "pan": 7320,
      "▁explorer": 7321,
      "ved": 7322,
      "▁pennsylvania": 7323,
      "▁07/17/2000": 7324,
      "▁345": 7325,
      "▁armen": 7326,
      "▁expectation": 7327,
      "▁increased": 7328,
      "▁orbit": 7329,
      "▁pocket": 7330,
      "▁fate": 7331,
      "▁solely": 7332,
      "▁ours": 7333,
      "▁rene": 7334,
      "ko": 7335,
      "enron.com": 7336,
      "▁retain": 7337,
      "▁well-": 7338,
      "isk": 7339,
      "▁possession": 7340,
      "▁dud": 7341,
      "▁food": 7342,
      "▁addressed": 7343,
      "read": 7344,
      "itter": 7345,
      "▁wiggleworm": 7346,
      "301": 7347,
      "▁signal": 7348,
      "æ": 7349,
      "tering": 7350,
      "▁ports": 7351,
      "▁asset": 7352,
      "emort": 7353,
      "▁tract": 7354,
      "▁ign": 7355,
      "0-3": 7356,
      "9999": 7357,
      "▁dates": 7358,
      "▁ear": 7359,
      "▁capability": 7360,
      "▁beetle": 7361,
      "bl": 7362,
      "▁corpor": 7363,
      "▁yo": 7364,
      "berry": 7365,
      "▁63": 7366,
      "▁owe": 7367,
      "▁hall": 7368,
      "edie": 7369,
      "▁study": 7370,
      "▁brown": 7371,
      "une": 7372,
      "▁sec": 7373,
      "▁inhabitants": 7374,
      "▁alphab": 7375,
      "▁mining": 7376,
      "▁encl": 7377,
      "▁guaranty": 7378,
      "▁objections": 7379,
      "▁seal": 7380,
      "▁mosquito": 7381,
      "▁coco": 7382,
      "right": 7383,
      "▁comb": 7384,
      "ife": 7385,
      "▁clean": 7386,
      ".co.uk": 7387,
      "▁litter": 7388,
      "▁mathematics": 7389,
      "innati": 7390,
      "▁drag": 7391,
      "reat": 7392,
      "▁transmission": 7393,
      "▁bert": 7394,
      "▁tren": 7395,
      "▁isabel": 7396,
      "lig": 7397,
      "▁accent": 7398,
      "▁oct": 7399,
      "▁awards": 7400,
      "▁bring": 7401,
      "▁dr.": 7402,
      "abilities": 7403,
      "▁unfortunate": 7404,
      "▁iraq": 7405,
      "▁luf": 7406,
      "▁eastman": 7407,
      "▁photos": 7408,
      "▁1647": 7409,
      "▁enron.xls": 7410,
      "▁err": 7411,
      "apt": 7412,
      "810": 7413,
      "eau": 7414,
      "▁fund": 7415,
      "▁maint": 7416,
      "▁frontier": 7417,
      "▁peroxide": 7418,
      "▁attracted": 7419,
      "▁cabins": 7420,
      "▁enemies": 7421,
      "▁esp": 7422,
      "▁sarah": 7423,
      "▁general": 7424,
      "▁dose": 7425,
      "▁687": 7426,
      "▁heather": 7427,
      "▁reservation": 7428,
      "▁halloween": 7429,
      "▁perfume": 7430,
      "▁unif": 7431,
      "chester": 7432,
      "▁mont": 7433,
      "▁millennium": 7434,
      "▁150": 7435,
      "ness": 7436,
      "▁worried": 7437,
      "▁federal": 7438,
      "▁performed": 7439,
      "▁paine": 7440,
      "▁ryan": 7441,
      "▁nicholas": 7442,
      "▁colle": 7443,
      "lyn": 7444,
      "▁besides": 7445,
      "▁dand": 7446,
      "▁browser": 7447,
      "auts": 7448,
      "▁concepts": 7449,
      "▁comment": 7450,
      "▁breakthrough": 7451,
      "▁conforms": 7452,
      "ashing": 7453,
      "▁marri": 7454,
      "▁ozone": 7455,
      "▁gob": 7456,
      "▁challeng": 7457,
      "▁line": 7458,
      "▁debbie": 7459,
      "▁soap": 7460,
      "▁rogers": 7461,
      "▁hp": 7462,
      "▁heel": 7463,
      "onto": 7464,
      "▁diseases": 7465,
      "▁conferences": 7466,
      "▁financed": 7467,
      "▁undertaken": 7468,
      "▁existed": 7469,
      "▁mostly": 7470,
      "▁profitable": 7471,
      "▁e.g": 7472,
      "▁relativ": 7473,
      "▁apologize": 7474,
      "▁wood": 7475,
      "▁diapers": 7476,
      "organ": 7477,
      "▁gib": 7478,
      "▁re": 7479,
      "▁along": 7480,
      "▁raining": 7481,
      "▁kinds": 7482,
      "▁1841": 7483,
      "9th": 7484,
      "▁scare": 7485,
      "▁furthermore": 7486,
      "▁yazid": 7487,
      "▁kenneth": 7488,
      "▁happy": 7489,
      "▁pim": 7490,
      "bard": 7491,
      "▁mim": 7492,
      "▁polar": 7493,
      "▁kenya": 7494,
      "▁wikinews": 7495,
      "selves": 7496,
      "ationally": 7497,
      "▁fridays": 7498,
      "▁neat": 7499,
      "▁trash": 7500,
      "▁ferry": 7501,
      "▁clin": 7502,
      "▁visitor": 7503,
      "ione": 7504,
      "▁crick": 7505,
      "▁jordan": 7506,
      "▁bar": 7507,
      "▁1205": 7508,
      "▁welcoming": 7509,
      "72": 7510,
      "▁communication": 7511,
      "isations": 7512,
      "ville": 7513,
      "▁189": 7514,
      "hol": 7515,
      "▁refin": 7516,
      "▁importantly": 7517,
      "▁spit": 7518,
      "▁events": 7519,
      "▁kand": 7520,
      "esque": 7521,
      "▁merc": 7522,
      "▁cous": 7523,
      "▁roads": 7524,
      "▁transportation": 7525,
      "▁thinks": 7526,
      "▁risks": 7527,
      "hee": 7528,
      "▁yaw": 7529,
      "▁climbing": 7530,
      "▁extensive": 7531,
      "▁holding": 7532,
      "▁roof": 7533,
      "▁telev": 7534,
      "▁~": 7535,
      "▁apply": 7536,
      "▁ecodesign": 7537,
      "ification": 7538,
      "▁essential": 7539,
      "▁ll": 7540,
      "▁occupation": 7541,
      "▁specialists": 7542,
      "▁regarded": 7543,
      "▁swim": 7544,
      "▁trav": 7545,
      "▁antiqu": 7546,
      "40": 7547,
      "▁discip": 7548,
      "▁ton": 7549,
      "▁compliment": 7550,
      "iv": 7551,
      "▁rags": 7552,
      "ats": 7553,
      "ittal": 7554,
      "le": 7555,
      "▁par": 7556,
      "▁shoulders": 7557,
      "▁peas": 7558,
      "sheet": 7559,
      "▁murph": 7560,
      "iffer": 7561,
      "ty": 7562,
      "▁loved": 7563,
      "▁dominant": 7564,
      "onym": 7565,
      "▁dwww": 7566,
      "▁mouth": 7567,
      "▁those": 7568,
      "igr": 7569,
      "▁505-625": 7570,
      "▁diving": 7571,
      "▁appro": 7572,
      "ensen": 7573,
      "▁adv": 7574,
      "▁mon": 7575,
      "▁recently": 7576,
      "▁screw": 7577,
      "▁numb": 7578,
      "▁discour": 7579,
      "▁fridge": 7580,
      "▁today": 7581,
      "▁sitara": 7582,
      "epend": 7583,
      "icemail": 7584,
      "▁pioneers": 7585,
      "▁chan": 7586,
      "▁get": 7587,
      "▁producer": 7588,
      "▁parakeet": 7589,
      "▁2.15": 7590,
      "▁loll": 7591,
      "eight": 7592,
      "▁warranties": 7593,
      "▁equality": 7594,
      "▁http://www.4gamer.net/news/image/2005.09/2005": 7595,
      "▁euro": 7596,
      "▁hagr": 7597,
      "▁receptionist": 7598,
      "▁riding": 7599,
      "▁difficulty": 7600,
      "▁jurisdiction": 7601,
      "▁02": 7602,
      "▁unaccept": 7603,
      "▁leonard": 7604,
      "0/2000": 7605,
      "▁influence": 7606,
      "▁yourself": 7607,
      "▁practicing": 7608,
      "jah": 7609,
      "▁involving": 7610,
      "▁user": 7611,
      "▁cool": 7612,
      "▁11:0": 7613,
      "▁mile": 7614,
      "▁prest": 7615,
      "▁fiction": 7616,
      "▁eleventh": 7617,
      "▁shade": 7618,
      "ificent": 7619,
      "▁inform": 7620,
      "▁naim": 7621,
      "▁lipsticks": 7622,
      "▁collateral": 7623,
      "▁government": 7624,
      "▁subscrib": 7625,
      "peed": 7626,
      "▁arthur": 7627,
      "ack": 7628,
      "encer": 7629,
      "▁rat": 7630,
      "夏": 7631,
      "▁secondary": 7632,
      "▁==============================================================================": 7633,
      "▁explic": 7634,
      "quart": 7635,
      "emic": 7636,
      "▁melt": 7637,
      "glo": 7638,
      "▁from": 7639,
      "▁challenges": 7640,
      "▁standards": 7641,
      "▁legisl": 7642,
      "eras": 7643,
      "▁tag": 7644,
      "▁approach": 7645,
      "anda": 7646,
      "▁itch": 7647,
      "▁these": 7648,
      "▁crappy": 7649,
      "dad": 7650,
      "riv": 7651,
      "▁jana": 7652,
      "▁tit": 7653,
      "ato": 7654,
      "▁1774": 7655,
      "2951_": 7656,
      "▁thwart": 7657,
      "▁answering": 7658,
      "ee": 7659,
      "d-#693": 7660,
      "▁genius": 7661,
      "▁intel": 7662,
      "▁hunting": 7663,
      "▁ny": 7664,
      "▁compuls": 7665,
      "▁bow": 7666,
      "▁hedwig": 7667,
      "▁eras": 7668,
      "uela": 7669,
      "▁jerusal": 7670,
      "▁cracked": 7671,
      "▁resulting": 7672,
      "▁nation": 7673,
      "3/2000": 7674,
      "▁recommend": 7675,
      "58": 7676,
      "▁highlighting": 7677,
      "wards": 7678,
      "▁inc.": 7679,
      "▁tiny": 7680,
      "▁newton": 7681,
      "ified": 7682,
      "▁sweet": 7683,
      "▁tribe": 7684,
      "/2": 7685,
      "▁tahoe": 7686,
      "▁unprecedented": 7687,
      "▁iss": 7688,
      "nd": 7689,
      "▁120": 7690,
      "▁theater": 7691,
      "nn": 7692,
      "▁mississippi": 7693,
      "▁perceptions": 7694,
      "▁intend": 7695,
      "▁thing": 7696,
      "▁decide": 7697,
      ".7822": 7698,
      "▁bak": 7699,
      "▁manufacturer": 7700,
      "ip": 7701,
      "▁928": 7702,
      "ensive": 7703,
      "▁nevertheless": 7704,
      "ald": 7705,
      "▁haz": 7706,
      "▁°": 7707,
      "▁bases": 7708,
      "▁plun": 7709,
      "▁civic": 7710,
      "▁bone": 7711,
      "▁feels": 7712,
      "agh": 7713,
      "▁mild": 7714,
      "▁rep": 7715,
      "▁purse": 7716,
      "▁pervez": 7717,
      "▁mrs.": 7718,
      "issions": 7719,
      "▁intentions": 7720,
      "▁agric": 7721,
      ":39": 7722,
      "▁’d": 7723,
      "▁tables": 7724,
      "▁shackl": 7725,
      "▁emerged": 7726,
      "▁representing": 7727,
      "▁already": 7728,
      "▁rocks": 7729,
      "▁01": 7730,
      "▁statements": 7731,
      "▁preparation": 7732,
      "▁basis": 7733,
      "▁exists": 7734,
      "▁gay": 7735,
      "▁modification": 7736,
      "▁plaintiffs": 7737,
      "▁uhoh": 7738,
      "§": 7739,
      "can": 7740,
      "▁crowd": 7741,
      "▁/": 7742,
      "▁71": 7743,
      "▁craw": 7744,
      "▁month": 7745,
      "▁medium": 7746,
      "▁businesses": 7747,
      "▁best": 7748,
      "▁team": 7749,
      "yn": 7750,
      "▁environmental": 7751,
      "▁speed": 7752,
      "▁malf": 7753,
      "▁heroes": 7754,
      ".gov": 7755,
      "45": 7756,
      "oking": 7757,
      "▁conversation": 7758,
      "▁est": 7759,
      "▁kreml": 7760,
      "yl": 7761,
      "▁technical": 7762,
      "▁quix": 7763,
      "▁generations": 7764,
      "▁but": 7765,
      "▁anything": 7766,
      "▁hee": 7767,
      "▁interview": 7768,
      "▁281-443-3744": 7769,
      "▁anticipate": 7770,
      "▁opens": 7771,
      "ig": 7772,
      "▁territory": 7773,
      "▁grat": 7774,
      "▁aro": 7775,
      "▁world": 7776,
      "▁significant": 7777,
      "▁troubled": 7778,
      "▁microsc": 7779,
      "▁jes": 7780,
      "▁alt": 7781,
      "▁triumph": 7782,
      "▁officially": 7783,
      "▁supply": 7784,
      "▁tasks": 7785,
      "▁grande": 7786,
      "▁virus": 7787,
      "▁contracts": 7788,
      "lic": 7789,
      "▁pastor": 7790,
      "▁assure": 7791,
      "▁neighbor": 7792,
      "cross": 7793,
      "▁agenda": 7794,
      "▁spoon": 7795,
      "▁1780": 7796,
      "▁someplace": 7797,
      "▁framed": 7798,
      "▁1920": 7799,
      "▁robes": 7800,
      "▁budd": 7801,
      "▁caused": 7802,
      "essive": 7803,
      "▁vide": 7804,
      "ua": 7805,
      "vers": 7806,
      "▁09:": 7807,
      "▁......": 7808,
      "▁loudly": 7809,
      "opular": 7810,
      "▁giov": 7811,
      "▁economic": 7812,
      "▁baghdad": 7813,
      "▁o'clock": 7814,
      "▁unity": 7815,
      "▁contem": 7816,
      "▁1562": 7817,
      "▁chang": 7818,
      "-99": 7819,
      "ael": 7820,
      "▁az": 7821,
      "ously": 7822,
      "▁2018": 7823,
      "hole": 7824,
      "▁precise": 7825,
      "▁1790": 7826,
      "▁tot": 7827,
      "▁tell": 7828,
      "▁modem": 7829,
      "▁decree": 7830,
      "▁ruling": 7831,
      "pack": 7832,
      "ple": 7833,
      "▁chlor": 7834,
      "hou": 7835,
      "mer": 7836,
      "rogen": 7837,
      "▁visitors": 7838,
      "▁1850": 7839,
      ":42": 7840,
      "▁98": 7841,
      "▁disorder": 7842,
      "alog": 7843,
      "ici": 7844,
      "icate": 7845,
      "▁brit": 7846,
      "▁distrib": 7847,
      "▁buttons": 7848,
      "man": 7849,
      "izations": 7850,
      "▁’": 7851,
      "▁death": 7852,
      "▁tv": 7853,
      "▁monetary": 7854,
      "▁thirteen": 7855,
      "▁economists": 7856,
      ":57": 7857,
      "▁ruins": 7858,
      "▁coordinate": 7859,
      "▁pizza": 7860,
      "▁sauce": 7861,
      "▁accurately": 7862,
      "▁sore": 7863,
      "akk": 7864,
      "▁congest": 7865,
      "▁speaks": 7866,
      "inners": 7867,
      "with": 7868,
      "▁turb": 7869,
      "ele": 7870,
      "▁rebels": 7871,
      "▁suitable": 7872,
      "▁kept": 7873,
      "▁slice": 7874,
      "▁bwww": 7875,
      "▁hull": 7876,
      "▁congress": 7877,
      "▁are": 7878,
      "▁---->===}*{===<----": 7879,
      "▁among": 7880,
      "000": 7881,
      "▁launch": 7882,
      "▁skip": 7883,
      "▁universe": 7884,
      "▁magic": 7885,
      "▁durham": 7886,
      "▁indo": 7887,
      "▁lessons": 7888,
      "inoc": 7889,
      "▁big": 7890,
      "▁latin": 7891,
      "zer": 7892,
      "▁1951": 7893,
      "▁racing": 7894,
      "▁estim": 7895,
      "▁skiing": 7896,
      "▁follow": 7897,
      "▁developer": 7898,
      "ived": 7899,
      "▁pentagon": 7900,
      "dp": 7901,
      "▁book": 7902,
      "▁shove": 7903,
      "▁03:20": 7904,
      "bow": 7905,
      "▁mailings": 7906,
      "▁atl": 7907,
      "▁kansas": 7908,
      "ters": 7909,
      "deroy": 7910,
      "▁blo": 7911,
      "▁november": 7912,
      ".p": 7913,
      "▁poison": 7914,
      "▁maintains": 7915,
      "▁trauma": 7916,
      "▁rabbits": 7917,
      "jan": 7918,
      "▁overchar": 7919,
      "ura": 7920,
      "▁applause": 7921,
      "grade": 7922,
      "▁immers": 7923,
      "▁wreck": 7924,
      "▁amuse": 7925,
      "▁lots": 7926,
      "▁stillman": 7927,
      "▁translates": 7928,
      ",0": 7929,
      "▁lobster": 7930,
      "✉": 7931,
      "▁displayed": 7932,
      "▁posada": 7933,
      "▁linguistics": 7934,
      "▁covers": 7935,
      "▁fleeing": 7936,
      "▁neal": 7937,
      "▁advisers": 7938,
      "▁sucked": 7939,
      "esc": 7940,
      "uster": 7941,
      "men": 7942,
      "rolled": 7943,
      "▁full": 7944,
      "arity": 7945,
      "▁julie": 7946,
      "▁families": 7947,
      "▁emerging": 7948,
      "▁railways": 7949,
      "▁concerned": 7950,
      "▁2000": 7951,
      "▁ensures": 7952,
      "▁merida": 7953,
      "aleck": 7954,
      "inity": 7955,
      "rick": 7956,
      "▁harvesting": 7957,
      "▁composition": 7958,
      "▁scar": 7959,
      "▁demands": 7960,
      "orough": 7961,
      "▁cond": 7962,
      "▁do": 7963,
      "▁^": 7964,
      "▁bald": 7965,
      "lics": 7966,
      "ttes": 7967,
      "▁evely": 7968,
      "▁zealand": 7969,
      "▁tx": 7970,
      "▁mcdonald": 7971,
      "▁lis": 7972,
      "ifications": 7973,
      "▁pett": 7974,
      "▁freight": 7975,
      "▁jeffrey": 7976,
      "▁lou": 7977,
      "▁cheapest": 7978,
      "▁pel": 7979,
      "▁communicated": 7980,
      "▁collecting": 7981,
      "ages": 7982,
      "▁vogelaviatiolap": 7983,
      "▁donna": 7984,
      "oke": 7985,
      "▁formica": 7986,
      "▁guild": 7987,
      "▁spons": 7988,
      "▁organized": 7989,
      "▁paints": 7990,
      "gre": 7991,
      "▁assort": 7992,
      "▁anx": 7993,
      "▁dist": 7994,
      "▁cou": 7995,
      "▁wounded": 7996,
      "▁usual": 7997,
      "▁1969": 7998,
      ".61": 7999,
      "▁-----------------": 8000,
      "mine": 8001,
      "▁monkeys": 8002,
      "▁'": 8003,
      "▁eug": 8004,
      "▁cook": 8005,
      "ring": 8006,
      "▁minimum": 8007,
      "▁received": 8008,
      "▁2011": 8009,
      "▁insult": 8010,
      "tie": 8011,
      "▁relating": 8012,
      "▁iqr": 8013,
      "▁inapp": 8014,
      "▁jun": 8015,
      "▁noone": 8016,
      "▁likes": 8017,
      "▁_________________________________________________": 8018,
      "▁proble": 8019,
      "▁================================================": 8020,
      "▁pointing": 8021,
      "▁robinson": 8022,
      "▁gone": 8023,
      "▁graph": 8024,
      "wright": 8025,
      "▁punishment": 8026,
      "▁underground": 8027,
      "▁unrelated": 8028,
      "▁solemn": 8029,
      "339": 8030,
      "▁molec": 8031,
      "▁root": 8032,
      "▁pierre": 8033,
      "▁cy": 8034,
      "▁perce": 8035,
      "▁complained": 8036,
      "oxide": 8037,
      "▁rated": 8038,
      "▁objects": 8039,
      "▁1880": 8040,
      "414": 8041,
      "▁spare": 8042,
      "lades": 8043,
      ":25": 8044,
      "▁knot": 8045,
      "▁libraries": 8046,
      "▁cage": 8047,
      "▁alleged": 8048,
      "▁b": 8049,
      "▁stare": 8050,
      "▁s.": 8051,
      "ming": 8052,
      "▁explos": 8053,
      "-10": 8054,
      "▁hong": 8055,
      "▁live": 8056,
      "▁justified": 8057,
      "▁asp": 8058,
      "▁coins": 8059,
      "▁aunt": 8060,
      "eem": 8061,
      "▁council": 8062,
      "▁pachom": 8063,
      "▁switzerland": 8064,
      "▁housing": 8065,
      "▁bugs": 8066,
      "▁gap": 8067,
      "3736": 8068,
      "▁compet": 8069,
      "ails": 8070,
      "▁wheat": 8071,
      "ints": 8072,
      "▁no": 8073,
      "▁washington": 8074,
      "▁ed": 8075,
      "▁ignore": 8076,
      "▁cabbage": 8077,
      "▁2:30": 8078,
      "▁hundreds": 8079,
      "▁mouse": 8080,
      "▁350": 8081,
      "▁actor": 8082,
      "▁robbie": 8083,
      "5/2001": 8084,
      "▁generation": 8085,
      "edge": 8086,
      "▁acceptance": 8087,
      "▁montana": 8088,
      "unia": 8089,
      "▁circulation": 8090,
      "astroph": 8091,
      "▁sensing": 8092,
      "▁bid": 8093,
      "▁2500": 8094,
      "▁gained": 8095,
      "▁clinton": 8096,
      "▁complete": 8097,
      "▁cromer": 8098,
      "▁industrial": 8099,
      "▁edison": 8100,
      "ovich": 8101,
      "ijing": 8102,
      ".86": 8103,
      "▁offic": 8104,
      "▁device": 8105,
      "▁cheaper": 8106,
      "▁seventy": 8107,
      "rr": 8108,
      "▁eggs": 8109,
      "▁02/2": 8110,
      "721": 8111,
      "▁demonstrate": 8112,
      "▁sympath": 8113,
      "keeping": 8114,
      "▁counterfe": 8115,
      "▁helicopters": 8116,
      "▁http://www": 8117,
      "▁bankrupt": 8118,
      "wet": 8119,
      "▁pioneer": 8120,
      "▁it": 8121,
      "umph": 8122,
      "▁1779": 8123,
      "▁authors": 8124,
      "inate": 8125,
      "▁quest": 8126,
      "▁sid": 8127,
      "yah": 8128,
      "▁camp": 8129,
      "▁operator": 8130,
      "▁legitimacy": 8131,
      "unity": 8132,
      "www": 8133,
      "▁palace": 8134,
      "▁pill": 8135,
      "▁rom": 8136,
      "▁pere": 8137,
      "▁stardust": 8138,
      "qu": 8139,
      "▁drink": 8140,
      "▁tar": 8141,
      "▁portland": 8142,
      "▁beep": 8143,
      "▁toaster": 8144,
      "▁came": 8145,
      "oks": 8146,
      "gr": 8147,
      "esco": 8148,
      "▁vogel": 8149,
      "▁heading": 8150,
      "▁decre": 8151,
      ":05": 8152,
      "▁reflected": 8153,
      "orio": 8154,
      "arat": 8155,
      "▁mantra": 8156,
      "soft": 8157,
      "▁referee": 8158,
      "udd": 8159,
      "through": 8160,
      "▁col": 8161,
      "▁finding": 8162,
      "▁prem": 8163,
      "▁silk": 8164,
      "▁pencils": 8165,
      "▁persec": 8166,
      "▁short": 8167,
      "ivid": 8168,
      "▁presidents": 8169,
      "▁climate": 8170,
      "▁pressed": 8171,
      "icle": 8172,
      "▁date": 8173,
      "▁favor": 8174,
      "▁goat": 8175,
      "▁lasts": 8176,
      "▁well": 8177,
      ":34": 8178,
      "▁stairs": 8179,
      "▁04": 8180,
      "▁238": 8181,
      "insula": 8182,
      "report": 8183,
      "▁buckets": 8184,
      "▁neither": 8185,
      "▁sampl": 8186,
      "▁venezuela": 8187,
      "▁deficit": 8188,
      "▁47": 8189,
      "▁headquart": 8190,
      "▁;-)": 8191,
      "▁flying": 8192,
      "▁measure": 8193,
      "ston": 8194,
      "/h": 8195,
      "▁mount": 8196,
      "▁scott": 8197,
      "▁neighbourhood": 8198,
      "▁determined": 8199,
      "▁feared": 8200,
      "our": 8201,
      "▁toile": 8202,
      "▁tid": 8203,
      "ashed": 8204,
      "▁programme": 8205,
      "▁bern": 8206,
      "bal": 8207,
      "▁desert": 8208,
      "▁49": 8209,
      "▁revealed": 8210,
      "▁iraqi": 8211,
      "▁1944": 8212,
      "itage": 8213,
      "▁le": 8214,
      "ination": 8215,
      "▁teams": 8216,
      "idden": 8217,
      "▁shock": 8218,
      "▁pra": 8219,
      "-44": 8220,
      "▁elite": 8221,
      "▁subscribe": 8222,
      "▁sandra": 8223,
      "atia": 8224,
      "▁pen": 8225,
      "▁explain": 8226,
      "▁found": 8227,
      "zy": 8228,
      "▁distort": 8229,
      "inated": 8230,
      "▁hyper": 8231,
      "▁mad": 8232,
      "▁dental": 8233,
      "▁turn": 8234,
      "▁digging": 8235,
      "▁easy": 8236,
      "▁fruit": 8237,
      "▁waves": 8238,
      "▁treatise": 8239,
      "▁augment": 8240,
      "ked": 8241,
      "▁glad": 8242,
      "▁graduate": 8243,
      "▁established": 8244,
      "▁meg": 8245,
      "▁described": 8246,
      "▁corpus": 8247,
      "▁spilled": 8248,
      "▁nick": 8249,
      "mission": 8250,
      "▁discourse": 8251,
      "▁outcome": 8252,
      "▁indul": 8253,
      "▁having": 8254,
      "▁soc": 8255,
      "▁residents": 8256,
      "▁gar": 8257,
      "ead": 8258,
      "▁pil": 8259,
      "▁puppet": 8260,
      "▁beef": 8261,
      "▁recognised": 8262,
      "▁franc": 8263,
      "/2000": 8264,
      "▁negot": 8265,
      "▁filling": 8266,
      "▁storms": 8267,
      "▁bunch": 8268,
      "chief": 8269,
      "3": 8270,
      ".30": 8271,
      "▁http://www.b": 8272,
      "▁pattern": 8273,
      "▁estimate": 8274,
      "su": 8275,
      "▁length": 8276,
      "▁blanket": 8277,
      "▁behalf": 8278,
      "▁const": 8279,
      "▁thin": 8280,
      "ouse": 8281,
      "▁definitions": 8282,
      "▁jap": 8283,
      "uring": 8284,
      "▁emb": 8285,
      "▁netherlands": 8286,
      "▁incompet": 8287,
      "▁position": 8288,
      "▁issues": 8289,
      "▁extending": 8290,
      "▁bru": 8291,
      "▁country": 8292,
      "▁knowledge": 8293,
      "ety": 8294,
      "▁breakfast": 8295,
      "imes": 8296,
      "▁reluct": 8297,
      "▁joining": 8298,
      "ugh": 8299,
      "▁interference": 8300,
      "ign": 8301,
      "▁1604": 8302,
      "▁enjambment": 8303,
      "▁offensive": 8304,
      "iograph": 8305,
      "▁environments": 8306,
      "▁illeg": 8307,
      "▁whol": 8308,
      "▁independent": 8309,
      "▁spending": 8310,
      "▁1.5": 8311,
      "ays": 8312,
      "▁gets": 8313,
      "▁stepped": 8314,
      "822": 8315,
      "▁appet": 8316,
      "inned": 8317,
      "▁treated": 8318,
      "▁visiting": 8319,
      "▁eol": 8320,
      "bucks": 8321,
      "▁shared": 8322,
      "▁cler": 8323,
      "▁jingle": 8324,
      "▁humor": 8325,
      "▁soil": 8326,
      "▁tomorrow": 8327,
      "▁genu": 8328,
      "60": 8329,
      "▁alabama": 8330,
      "▁collections": 8331,
      "▁men": 8332,
      "▁freed": 8333,
      "▁errors": 8334,
      "eries": 8335,
      "▁spagh": 8336,
      "▁2013": 8337,
      "▁sto": 8338,
      "▁quartiles": 8339,
      "▁deadline": 8340,
      "▁cross-section": 8341,
      "85": 8342,
      "▁kittens": 8343,
      "▁hea": 8344,
      "▁passed": 8345,
      "▁formal": 8346,
      "▁therapy": 8347,
      "▁cargill": 8348,
      "▁allowance": 8349,
      "lear": 8350,
      "▁israeli": 8351,
      "asters": 8352,
      "▁wiped": 8353,
      "▁confer": 8354,
      "▁sculpt": 8355,
      "▁plut": 8356,
      "▁attain": 8357,
      "ww": 8358,
      "▁calls": 8359,
      "▁walking": 8360,
      "▁describe": 8361,
      "▁george": 8362,
      "▁squee": 8363,
      "ales": 8364,
      "▁humanities": 8365,
      "ie": 8366,
      "▁!!!!!!!!!!!!!!!!!!!": 8367,
      "▁sections": 8368,
      "▁shakespeare": 8369,
      "▁da": 8370,
      "▁fortune": 8371,
      "ecca": 8372,
      "ternal": 8373,
      "e": 8374,
      "▁sect": 8375,
      "▁michelle": 8376,
      "▁borrow": 8377,
      "▁vers": 8378,
      "▁laid": 8379,
      "▁tro": 8380,
      "▁troub": 8381,
      "▁settled": 8382,
      "▁kathy": 8383,
      "▁knows": 8384,
      "▁pakistani": 8385,
      "care": 8386,
      "amese": 8387,
      "▁alongside": 8388,
      "▁ekrapels": 8389,
      "▁>----------------------------------------------------------------------------": 8390,
      "▁http://www.mike": 8391,
      "▁card": 8392,
      "▁indig": 8393,
      "▁dor": 8394,
      "▁:(": 8395,
      "lying": 8396,
      "▁insist": 8397,
      "▁hear": 8398,
      "▁lust": 8399,
      "arrass": 8400,
      "48": 8401,
      "▁coat": 8402,
      "▁suffer": 8403,
      "▁herm": 8404,
      "▁red": 8405,
      "▁pirate": 8406,
      "ا": 8407,
      "▁bars": 8408,
      "▁survey": 8409,
      "▁ceo": 8410,
      "ublic": 8411,
      "▁modulo": 8412,
      "if": 8413,
      "icy": 8414,
      "▁back": 8415,
      "▁projected": 8416,
      "▁adopted": 8417,
      "▁boing": 8418,
      "▁cost-e": 8419,
      "ortium": 8420,
      "▁denton": 8421,
      "▁theories": 8422,
      "34": 8423,
      "▁nierman": 8424,
      "▁1200": 8425,
      "ron": 8426,
      "aviatio": 8427,
      "world": 8428,
      "▁blinked": 8429,
      "▁tour": 8430,
      "▁ro": 8431,
      "▁tw": 8432,
      "▁sticks": 8433,
      "lae": 8434,
      "▁forg": 8435,
      "▁hogwarts": 8436,
      "history": 8437,
      "▁kidna": 8438,
      "▁-------------------------------------------------": 8439,
      "▁signoff": 8440,
      "▁whit": 8441,
      "▁n": 8442,
      "▁return": 8443,
      "▁key": 8444,
      "▁manager": 8445,
      "verance": 8446,
      "/11/2004": 8447,
      "▁married": 8448,
      "▁763736": 8449,
      ":58": 8450,
      "▁bubble": 8451,
      "ually": 8452,
      "▁momma": 8453,
      "▁studying": 8454,
      "uated": 8455,
      "arians": 8456,
      "▁biz": 8457,
      "erved": 8458,
      "▁compl": 8459,
      "▁beauveria": 8460,
      "▁gaining": 8461,
      "▁incor": 8462,
      "▁treating": 8463,
      "chi": 8464,
      "▁dual": 8465,
      "▁que": 8466,
      "▁sydney": 8467,
      "ular": 8468,
      "▁db": 8469,
      "▁tries": 8470,
      "ibu": 8471,
      "▁bengal": 8472,
      "▁matching": 8473,
      "mental": 8474,
      "▁fortun": 8475,
      "▁credit": 8476,
      "found": 8477,
      "▁creation": 8478,
      "▁overwhelming": 8479,
      "▁organisation": 8480,
      "aled": 8481,
      "▁repeatedly": 8482,
      "▁outstanding": 8483,
      "ackle": 8484,
      "▁viable": 8485,
      "▁asleep": 8486,
      "▁presc": 8487,
      "ground": 8488,
      "▁fist": 8489,
      "box": 8490,
      "▁fbi": 8491,
      "ober": 8492,
      "▁1-8": 8493,
      "▁artworks": 8494,
      "▁progress": 8495,
      "▁economy": 8496,
      "³": 8497,
      "▁comparing": 8498,
      "▁ruf": 8499,
      "▁etc": 8500,
      "▁interp": 8501,
      "▁query": 8502,
      "o.": 8503,
      "raph": 8504,
      "41": 8505,
      "iques": 8506,
      "▁own": 8507,
      "▁argument": 8508,
      "thansa": 8509,
      "▁day": 8510,
      "▁princess": 8511,
      "449": 8512,
      "▁vi": 8513,
      "▁forty-one": 8514,
      "urance": 8515,
      "▁potty": 8516,
      "istical": 8517,
      "▁main": 8518,
      "▁underlying": 8519,
      "▁1952": 8520,
      "▁reluctant": 8521,
      "▁capital": 8522,
      "▁almost": 8523,
      "ablish": 8524,
      "tail": 8525,
      "▁amy": 8526,
      "▁700": 8527,
      "▁inferior": 8528,
      "▁twin": 8529,
      "▁onion": 8530,
      "▁adjustments": 8531,
      "▁scramb": 8532,
      "▁sf": 8533,
      "entions": 8534,
      "p": 8535,
      "▁05/30/2001": 8536,
      "iddle": 8537,
      "θ": 8538,
      "▁impeachment": 8539,
      "▁ramp": 8540,
      "2000": 8541,
      "▁xbox": 8542,
      "▁01:58": 8543,
      "▁melanie": 8544,
      "▁10,000": 8545,
      "▁mommy": 8546,
      "bage": 8547,
      "▁drew": 8548,
      "▁(a)": 8549,
      "▁approved": 8550,
      "▁gambling": 8551,
      "▁community": 8552,
      "-f": 8553,
      "▁emotion": 8554,
      "ensible": 8555,
      "▁invisible": 8556,
      "▁mezza": 8557,
      "▁resistance": 8558,
      "▁humane": 8559,
      "▁sole": 8560,
      "sy": 8561,
      "▁http://www.4gamer": 8562,
      "▁caboose": 8563,
      "▁ar": 8564,
      "▁restrict": 8565,
      "▁colored": 8566,
      "▁dog": 8567,
      "▁ball": 8568,
      "▁yep": 8569,
      "▁communic": 8570,
      "▁realize": 8571,
      "▁muffin": 8572,
      "▁anti-": 8573,
      "▁styrof": 8574,
      "▁european": 8575,
      "▁overalls": 8576,
      "▁collins": 8577,
      "alys": 8578,
      "▁facilities": 8579,
      "▁lover": 8580,
      "▁12:42": 8581,
      "▁htt": 8582,
      "▁stays": 8583,
      "▁carbon": 8584,
      "▁hyd": 8585,
      "▁1830": 8586,
      "▁celebration": 8587,
      "▁push": 8588,
      "▁grasp": 8589,
      "▁miles": 8590,
      "▁11/08/2000": 8591,
      "▁15,000": 8592,
      "▁pajamas": 8593,
      "▁guest": 8594,
      "▁cough": 8595,
      "▁destinations": 8596,
      "▁practically": 8597,
      "▁devast": 8598,
      "▁priest": 8599,
      "▁promotional": 8600,
      "▁’m": 8601,
      "gling": 8602,
      "▁alert": 8603,
      "ical": 8604,
      "▁hun": 8605,
      "▁message": 8606,
      "▁s-": 8607,
      "ater": 8608,
      "▁recruited": 8609,
      "chernobyl": 8610,
      "▁toronto": 8611,
      "orous": 8612,
      "▁=---": 8613,
      "▁6.2.1": 8614,
      "ams": 8615,
      "▁soldier": 8616,
      "▁centre": 8617,
      "▁honorable": 8618,
      "▁gaps": 8619,
      "▁grant": 8620,
      "amon": 8621,
      "▁kang": 8622,
      "▁wo": 8623,
      "▁successful": 8624,
      "/8/00": 8625,
      "▁performances": 8626,
      "▁i": 8627,
      "▁quixote": 8628,
      "▁compens": 8629,
      "▁targeted": 8630,
      "angu": 8631,
      "oe": 8632,
      "▁ge": 8633,
      "▁10:45": 8634,
      "▁source": 8635,
      "nat": 8636,
      "ya": 8637,
      "▁crib": 8638,
      "▁suspended": 8639,
      "por": 8640,
      "stances": 8641,
      "▁initi": 8642,
      "gg": 8643,
      "▁sled": 8644,
      "▁fulf": 8645,
      "▁abbas": 8646,
      "▁approval": 8647,
      "▁transport": 8648,
      "▁angeles": 8649,
      "▁narrative": 8650,
      "▁yidd": 8651,
      "▁su": 8652,
      "3.6": 8653,
      "▁l2": 8654,
      "▁participate": 8655,
      "round": 8656,
      "▁camps": 8657,
      "▁nab": 8658,
      "▁toget": 8659,
      "▁hidden": 8660,
      "▁specials": 8661,
      "▁protests": 8662,
      "ians": 8663,
      "▁1859": 8664,
      "▁kleenex": 8665,
      "▁constit": 8666,
      "▁resting": 8667,
      "▁edward": 8668,
      "un": 8669,
      "ford": 8670,
      "▁misunder": 8671,
      "▁empt": 8672,
      "▁prestigious": 8673,
      "▁plat": 8674,
      "▁74419": 8675,
      "izabeth": 8676,
      "▁exclud": 8677,
      "▁padd": 8678,
      "▁barely": 8679,
      "erno": 8680,
      "/4": 8681,
      "▁cruise": 8682,
      "▁fy": 8683,
      "▁semi-": 8684,
      "▁chosen": 8685,
      "▁charter": 8686,
      "▁rational": 8687,
      "▁dur": 8688,
      "▁joy": 8689,
      "▁assemble": 8690,
      "ies": 8691,
      "▁gn": 8692,
      "ick": 8693,
      "▁grandma": 8694,
      "▁xsd": 8695,
      "▁escaped": 8696,
      "▁marshmallow": 8697,
      "▁ig": 8698,
      "▁eups": 8699,
      "▁service": 8700,
      "▁peau": 8701,
      "nut": 8702,
      "===": 8703,
      "er": 8704,
      "▁manh": 8705,
      "▁21st": 8706,
      "▁attacked": 8707,
      "▁yoko": 8708,
      "▁ribbon": 8709,
      "▁satisf": 8710,
      "▁chris": 8711,
      "▁bottles": 8712,
      "▁convergence": 8713,
      "▁barclays": 8714,
      "bi": 8715,
      "▁ksm": 8716,
      "▁sucks": 8717,
      "▁vit": 8718,
      "boro": 8719,
      "▁grateful": 8720,
      "▁blocks": 8721,
      "▁165": 8722,
      "▁muh": 8723,
      "▁coalition": 8724,
      "▁baggage": 8725,
      "▁itchy": 8726,
      "▁dec.": 8727,
      "▁threat": 8728,
      "s.pdf": 8729,
      "▁restoration": 8730,
      "▁allies": 8731,
      "▁honour": 8732,
      "ouch": 8733,
      "▁agrees": 8734,
      "▁laboratory": 8735,
      "▁leaves": 8736,
      "▁embarrass": 8737,
      "six": 8738,
      "@s": 8739,
      "▁humaine": 8740,
      "▁dolls": 8741,
      "stration": 8742,
      "▁extremely": 8743,
      "▁contribution": 8744,
      "▁03:3": 8745,
      "▁presentation": 8746,
      "▁naqsh-e": 8747,
      "▁nich": 8748,
      "▁shepherd": 8749,
      "▁hamilton": 8750,
      "▁scotland": 8751,
      "▁bowling": 8752,
      "▁wite": 8753,
      "▁frozen": 8754,
      "▁rip": 8755,
      "▁italian": 8756,
      "▁delivery": 8757,
      "▁weapon": 8758,
      "eces": 8759,
      "▁investig": 8760,
      "▁discom": 8761,
      "▁individual": 8762,
      "▁moral": 8763,
      "▁gosp": 8764,
      "▁countries": 8765,
      "▁advanced": 8766,
      "▁australian": 8767,
      "▁achieving": 8768,
      "ennium": 8769,
      "▁broth": 8770,
      "ardy": 8771,
      "▁solo": 8772,
      "▁symp": 8773,
      "ims": 8774,
      "▁freezer": 8775,
      "▁storm": 8776,
      "▁-2-f.doc": 8777,
      "▁accommodation": 8778,
      "▁tun": 8779,
      "▁media": 8780,
      "▁bo": 8781,
      "▁sound": 8782,
      "lik": 8783,
      "68": 8784,
      "▁quarters": 8785,
      "▁titles": 8786,
      "▁recent": 8787,
      "ders": 8788,
      "abad": 8789,
      "▁bonus": 8790,
      "cum": 8791,
      "▁egypt": 8792,
      "▁6871082#": 8793,
      "▁handker": 8794,
      "▁interv": 8795,
      "▁dece": 8796,
      "aska": 8797,
      "▁talented": 8798,
      "ore": 8799,
      "▁bicycle": 8800,
      "urs": 8801,
      "▁2030": 8802,
      "▁legitim": 8803,
      "▁poodle": 8804,
      "▁biting": 8805,
      "onsum": 8806,
      "eenth": 8807,
      "▁falled": 8808,
      "ي": 8809,
      "▁grabbed": 8810,
      "▁stain": 8811,
      "▁dem": 8812,
      "▁westchester": 8813,
      "▁113": 8814,
      "▁convinced": 8815,
      "gom": 8816,
      "▁walnut": 8817,
      "ka": 8818,
      "▁precision": 8819,
      "▁programmes": 8820,
      "د": 8821,
      ".1234": 8822,
      "▁assign": 8823,
      "▁promoted": 8824,
      "▁removing": 8825,
      "▁01:39": 8826,
      "▁hambal": 8827,
      "▁observ": 8828,
      "▁avo": 8829,
      "▁wik": 8830,
      "▁syrian": 8831,
      "▁promises": 8832,
      "▁version": 8833,
      "▁kid": 8834,
      "▁mosques": 8835,
      "ib": 8836,
      "▁patients": 8837,
[...]
