{
  "version": "1.0",
  "truncation": null,
  "padding": null,
  "added_tokens": [
    {
      "id": 560,
      "content": "[UNK]",
      "single_word": false,
      "lstrip": false,
      "rstrip": false,
      "normalized": false,
      "special": true
    },
    {
      "id": 833,
      "content": "[MASK]",
      "single_word": false,
      "lstrip": false,
      "rstrip": false,
      "normalized": false,
      "special": true
    },
    {
      "id": 4262,
      "content": "[CLS]",
      "single_word": false,
      "lstrip": false,
      "rstrip": false,
      "normalized": false,
      "special": true
    },
    {
      "id": 5645,
      "content": "[SEP]",
      "single_word": false,
      "lstrip": false,
      "rstrip": false,
      "normalized": false,
      "special": true
    },
    {
      "id": 6033,
      "content": "[PAD]",
      "single_word": false,
      "lstrip": false,
      "rstrip": false,
      "normalized": false,
      "special": true
    }
  ],
  "normalizer": {
    "type": "Sequence",
    "normalizers": [
      {
        "type": "NFD"
      },
      {
        "type": "Lowercase"
      },
      {
        "type": "StripAccents"
      }
    ]
  },
  "pre_tokenizer": {
    "type": "Sequence",
    "pretokenizers": [
      {
        "type": "Metaspace",
        "replacement": "▁",
        "prepend_scheme": "always",
        "split": true
      }
    ]
  },
  "post_processor": {
    "type": "TemplateProcessing",
    "single": [
      {
        "SpecialToken": {
          "id": "[CLS]",
          "type_id": 0
        }
      },
      {
        "Sequence": {
          "id": "A",
          "type_id": 0
        }
      },
      {
        "SpecialToken": {
          "id": "[SEP]",
          "type_id": 0
        }
      }
    ],
    "pair": [
      {
        "SpecialToken": {
          "id": "[CLS]",
          "type_id": 0
        }
      },
      {
        "Sequence": {
          "id": "A",
          "type_id": 0
        }
      },
      {
        "SpecialToken": {
          "id": "[SEP]",
          "type_id": 0
        }
      },
      {
        "Sequence": {
          "id": "B",
          "type_id": 1
        }
      },
      {
        "SpecialToken": {
          "id": "[SEP]",
          "type_id": 1
        }
      }
    ],
    "special_tokens": {
      "[CLS]": {
        "id": "[CLS]",
        "ids": [
          4262
        ],
        "tokens": [
          "[CLS]"
        ]
      },
      "[SEP]": {
        "id": "[SEP]",
        "ids": [
          5645
        ],
        "tokens": [
          "[SEP]"
        ]
      }
    }
  },
  "decoder": {
    "type": "Metaspace",
    "replacement": "▁",
    "prepend_scheme": "always",
    "split": true
  },
  "model": {
    "type": "Unigram",
    "unk_id": 560,
    "vocab": [
      [
        "▁wide",
        -8.75679691041255
      ],
      [
        "▁wine",
        -8.970752331541515
      ],
      [
        "▁monkey",
        -9.655401752026014
      ],
      [
        "▁dim",
        -10.840637767454819
      ],
      [
        "nasa",
        -9.195400237809977
      ],
      [
        "▁ho",
        -8.655633568118331
      ],
      [
        "di",
        -11.345092246721594
      ],
      [
        "▁priorit",
        -9.703777940176751
      ],
      [
        "twenty",
        -11.271913807343168
      ],
      [
        "▁threat",
        -9.362625527334512
      ],
      [
        "▁circl",
        -11.17342923839546
      ],
      [
        "▁gon",
        -6.8179291834096745
      ],
      [
        "55",
        -11.29034389136408
      ],
      [
        "▁plan",
        -8.239561364058883
      ],
      [
        "▁!?!",
        -14.014058543488009
      ],
      [
        "▁abuse",
        -10.363283460497282
      ],
      [
        "▁object",
        -9.041198399435679
      ],
      [
        "@e",
        -12.090087232157849
      ],
      [
        "-04",
        -14.123579800210047
      ],
      [
        "eter",
        -11.834159184535453
      ],
      [
        "山",
        -12.833785825435129
      ],
      [
        "▁born",
        -8.560719953382907
      ],
      [
        "▁qa",
        -8.806594226707492
      ],
      [
        "▁incentive",
        -10.698898258377952
      ],
      [
        "▁southeast",
        -10.973140988778145
      ],
      [
        "▁champion",
        -11.084909105306409
      ],
      [
        "nd",
        -12.574555320074737
      ],
      [
        "▁rare",
        -9.684382366829245
      ],
      [
        "aat",
        -10.600805449444916
      ],
      [
        "▁confirm",
        -9.2635565498862
      ],
      [
        "body",
        -10.179364759477298
      ],
      [
        "▁meow",
        -10.307112588869249
      ],
      [
        "ink",
        -9.831397628792725
      ],
      [
        "▁entire",
        -8.69767823643648
      ],
      [
        "um",
        -7.884617796377137
      ],
      [
        "▁prepared",
        -9.595764938079146
      ],
      [
        "▁film",
        -8.94158326608536
      ],
      [
        "▁final",
        -8.106762029251497
      ],
      [
        "▁taxe",
        -10.44192788697938
      ],
      [
        "▁mandat",
        -10.262067436082912
      ],
      [
        "▁shinz",
        -10.813551280043226
      ],
      [
        "▁pub",
        -10.782891372020536
      ],
      [
        "fifty",
        -13.529294893685876
      ],
      [
        "▁where",
        -8.802452388749018
      ],
      [
        "ran",
        -9.828288344305339
      ],
      [
        "85",
        -12.218760611373044
      ],
      [
        "▁statue",
        -10.410122079053654
      ],
      [
        "by",
        -12.224966037375024
      ],
      [
        "▁styl",
        -11.189549520424134
      ],
      [
        "▁debate",
        -9.343335723780509
      ],
      [
        "184",
        -12.62128093123546
      ],
      [
        "done",
        -7.734496910975022
      ],
      [
        "▁uncertaint",
        -10.794735669431077
      ],
      [
        "▁dra",
        -11.397091660772798
      ],
      [
        "▁heart",
        -8.733621495611612
      ],
      [
        "▁pest",
        -11.0932835540957
      ],
      [
        "▁`",
        -11.280003543173743
      ],
      [
        "▁las",
        -8.345762103915375
      ],
      [
        "▁incubat",
        -11.08430544655865
      ],
      [
        "▁alphabet",
        -11.084250210336586
      ],
      [
        "1-",
        -13.88331746913178
      ],
      [
        "▁exten",
        -9.764618087497988
      ],
      [
        "54",
        -12.936357879777361
      ],
      [
        "▁download",
        -10.42199723261336
      ],
      [
        "▁current",
        -8.287638748643317
      ],
      [
        "▁associate",
        -9.22667695934851
      ],
      [
        "▁spell",
        -9.226854230276913
      ],
      [
        "▁for",
        -5.030157282061143
      ],
      [
        "▁def",
        -10.450420868665107
      ],
      [
        "---------------",
        -9.308357502044146
      ],
      [
        "▁fa",
        -12.47731390070696
      ],
      [
        ".........",
        -12.588671540398494
      ],
      [
        "▁jesu",
        -10.622448360598924
      ],
      [
        "▁10:5",
        -11.912176536891272
      ],
      [
        "▁y",
        -12.731331290976456
      ],
      [
        "▁independen",
        -9.77064997430328
      ],
      [
        "shal",
        -11.894227517962465
      ],
      [
        "▁pun",
        -11.09258415939765
      ],
      [
        "▁exploit",
        -10.873139131052726
      ],
      [
        "▁privilege",
        -10.3625548291057
      ],
      [
        "▁pos",
        -9.86283444478337
      ],
      [
        "111",
        -12.788292034875846
      ],
      [
        "hoe",
        -10.844896429361299
      ],
      [
        "▁manufacturer",
        -10.56042999363269
      ],
      [
        "▁propose",
        -9.301415492648431
      ],
      [
        "▁place",
        -6.83066859457077
      ],
      [
        "▁cha",
        -11.250268752536995
      ],
      [
        "▁cast",
        -9.722400567126797
      ],
      [
        "▁catch",
        -8.789110931341876
      ],
      [
        "hanie",
        -10.78070244282878
      ],
      [
        "almar",
        -11.056891936141435
      ],
      [
        "▁cow",
        -9.11295927612094
      ],
      [
        "ry",
        -8.042289078014392
      ],
      [
        "-696",
        -14.0991084797417
      ],
      [
        "▁profile",
        -10.698898574135605
      ],
      [
        "▁effort",
        -8.614729834499169
      ],
      [
        "▁t",
        -8.335420785946603
      ],
      [
        "▁prestig",
        -10.782230776850653
      ],
      [
        "▁fu",
        -10.818085774961895
      ],
      [
        "▁3",
        -10.470862676844956
      ],
      [
        "▁fr",
        -9.013190444206863
      ],
      [
        "▁cuba",
        -10.104603280832787
      ],
      [
        "▁terr",
        -9.606488960938558
      ],
      [
        "▁in",
        -5.625432472469344
      ],
      [
        "▁candidate",
        -9.80712026710024
      ],
      [
        "▁listen",
        -8.652816277108192
      ],
      [
        "▁how",
        -8.861903242976682
      ],
      [
        ":5",
        -14.280357869335674
      ],
      [
        "▁dong",
        -11.004985380303683
      ],
      [
        "▁fa",
        -10.052087057422664
      ],
      [
        "▁exposure",
        -9.713309508997352
      ],
      [
        "▁constitution",
        -9.70651551542531
      ],
      [
        "2007",
        -10.590895164732354
      ],
      [
        "▁vein",
        -11.084901657593466
      ],
      [
        "▁wax",
        -10.702638499687362
      ],
      [
        "ra",
        -8.411703763920444
      ],
      [
        "▁organiz",
        -10.441649482129074
      ],
      [
        "▁outside",
        -8.272985819524127
      ],
      [
        "prop",
        -10.365018816758838
      ],
      [
        "▁chat",
        -10.389947570978356
      ],
      [
        "pover",
        -10.107722259940449
      ],
      [
        "▁10:",
        -12.180176153817651
      ],
      [
        "▁wood",
        -9.17040454050208
      ],
      [
        "▁falluja",
        -10.204375673532832
      ],
      [
        "▁astronaut",
        -11.209250208958494
      ],
      [
        "5-9",
        -14.137390615099072
      ],
      [
        "▁receiv",
        -9.091497159262875
      ],
      [
        "▁wound",
        -10.25497114097551
      ],
      [
        "▁expression",
        -9.809720635755282
      ],
      [
        "▁magician",
        -10.974477225271045
      ],
      [
        "every",
        -9.955181868268271
      ],
      [
        "▁officer",
        -9.671135448160328
      ],
      [
        "wear",
        -11.204002201397703
      ],
      [
        "▁initiat",
        -9.947087319060564
      ],
      [
        "▁crie",
        -10.262155058521222
      ],
      [
        "▁dioxi",
        -10.873344632834428
      ],
      [
        "▁......",
        -14.094307463614378
      ],
      [
        "▁salar",
        -10.793175747322568
      ],
      [
        "▁kitt",
        -8.873867381108157
      ],
      [
        "▁'s",
        -7.340703092259739
      ],
      [
        "▁concentrate",
        -10.972435086980399
      ],
      [
        "▁brilliant",
        -10.873139106361101
      ],
      [
        "▁term",
        -8.306670117319417
      ],
      [
        "▁normal",
        -8.94424101414015
      ],
      [
        "▁202",
        -11.617891900155048
      ],
      [
        "θ",
        -12.833785825435129
      ],
      [
        "▁distortion",
        -10.87405037021977
      ],
      [
        "alliance",
        -10.204880421187081
      ],
      [
        "ugh",
        -10.799613475865524
      ],
      [
        "▁sword",
        -10.881817892121564
      ],
      [
        "▁stir",
        -10.619828421611135
      ],
      [
        "▁error",
        -9.452329238385047
      ],
      [
        "▁holocaust",
        -10.973139097792046
      ],
      [
        "▁soul",
        -10.56872144574031
      ],
      [
        "!!!!!",
        -11.993799257598976
      ],
      [
        "▁210",
        -12.59373170075374
      ],
      [
        "▁ir",
        -10.68265076823916
      ],
      [
        "ting",
        -7.1394348023240894
      ],
      [
        "▁adjust",
        -9.947002420506642
      ],
      [
        "y",
        -4.080108053904899
      ],
      [
        "▁01/19/",
        -12.359978021860883
      ],
      [
        ":14",
        -12.457220388685272
      ],
      [
        "lett",
        -10.812087449117914
      ],
      [
        "▁end",
        -7.442750247272132
      ],
      [
        "▁elaborate",
        -10.973139097793489
      ],
      [
        "ca",
        -9.144750437210643
      ],
      [
        "vi",
        -13.271633197609209
      ],
      [
        "/",
        -6.3884726436073205
      ],
      [
        "▁away",
        -7.493676026543827
      ],
      [
        "▁indicat",
        -10.24644801086482
      ],
      [
        "th",
        -8.187693223871944
      ],
      [
        "▁bullet",
        -11.084577522051235
      ],
      [
        "▁lantern",
        -10.78223061098274
      ],
      [
        "▁twirl",
        -11.085729714778335
      ],
      [
        "▁separate",
        -9.22944454469081
      ],
      [
        "▁lime",
        -10.363357443698016
      ],
      [
        "▁hal",
        -10.332912452363267
      ],
      [
        "▁retreat",
        -10.87313914459913
      ],
      [
        "erome",
        -10.519516830348334
      ],
      [
        "▁bit",
        -7.810951364632925
      ],
      [
        "▁driver",
        -9.572565374928324
      ],
      [
        "▁endless",
        -11.095202262336388
      ],
      [
        "▁state",
        -6.990105886890453
      ],
      [
        "tangle",
        -11.08437780800704
      ],
      [
        "▁10,000",
        -11.468522943360597
      ],
      [
        "▁slipper",
        -10.63075144939365
      ],
      [
        "▁:",
        -7.256476862053417
      ],
      [
        "▁08:3",
        -12.515232474275917
      ],
      [
        "▁łodz",
        -12.833783221425183
      ],
      [
        "▁grocer",
        -11.191198762888131
      ],
      [
        "▁fee",
        -8.312038541128171
      ],
      [
        "▁thousand",
        -9.385420109859613
      ],
      [
        "▁1.8",
        -13.505533095204397
      ],
      [
        "▁heal",
        -10.557732414120334
      ],
      [
        "$",
        -6.573299397139614
      ],
      [
        "1/01",
        -12.746409468391521
      ],
      [
        "bes",
        -12.849014156149368
      ],
      [
        "▁24",
        -9.636353922881266
      ],
      [
        "▁gas",
        -8.680743132461147
      ],
      [
        "▁sales",
        -9.487327711513984
      ],
      [
        "▁lord",
        -10.15685185331472
      ],
      [
        "▁noble",
        -10.260988627251932
      ],
      [
        "▁smok",
        -10.19573723926888
      ],
      [
        "nd",
        -8.038269447322932
      ],
      [
        "▁coupon",
        -10.624072695211321
      ],
      [
        "▁ron",
        -9.217835943510664
      ],
      [
        "▁col",
        -10.390603271193527
      ],
      [
        "▁bubble",
        -9.910650756671924
      ],
      [
        "▁rum",
        -10.27107779481466
      ],
      [
        "▁sen",
        -9.4815734141918
      ],
      [
        "449",
        -14.15307238737037
      ],
      [
        "▁79",
        -13.348276525599443
      ],
      [
        "▁annual",
        -9.910654348908567
      ],
      [
        "▁of",
        -10.271062706744775
      ],
      [
        "▁clear",
        -8.103908131152561
      ],
      [
        "▁improvement",
        -9.876087528827458
      ],
      [
        "▁si",
        -10.89098871490355
      ],
      [
        "▁treat",
        -8.6655024072791
      ],
      [
        "bur",
        -9.427365762624193
      ],
      [
        "ن",
        -12.833785825435129
      ],
      [
        "▁tomato",
        -10.15676000032775
      ],
      [
        "▁authorit",
        -9.196082780009075
      ],
      [
        "▁physical",
        -9.627548393460176
      ],
      [
        "5-2",
        -13.171837843619866
      ],
      [
        "over",
        -10.135244341423348
      ],
      [
        "▁11:0",
        -11.779412810543928
      ],
      [
        "▁count",
        -8.297093422872244
      ],
      [
        "▁want",
        -5.736206502054337
      ],
      [
        "▁white",
        -7.924957886826736
      ],
      [
        "▁rome",
        -9.847033492724538
      ],
      [
        "▁audio",
        -10.500838670264828
      ],
      [
        "▁sho",
        -10.92627052268816
      ],
      [
        "▁goat",
        -9.936085439792237
      ],
      [
        "-call",
        -11.084289204584731
      ],
      [
        "▁pudd",
        -10.993211504636179
      ],
      [
        "▁purple",
        -9.71330915376138
      ],
      [
        "656",
        -15.204647324905137
      ],
      [
        "▁b",
        -7.155592931822902
      ],
      [
        "▁every",
        -7.080078169630708
      ],
      [
        "▁01:3",
        -12.365376718875854
      ],
      [
        "gmail",
        -11.088613629650581
      ],
      [
        "ul",
        -12.818709659508759
      ],
      [
        "▁kh",
        -11.834523457572555
      ],
      [
        "▁cough",
        -10.89356251595644
      ],
      [
        "orrow",
        -8.115700336615571
      ],
      [
        "▁deploy",
        -10.362555069355821
      ],
      [
        "▁turtle",
        -10.483883256237753
      ],
      [
        "▁explore",
        -10.118079974185898
      ],
      [
        ">",
        -8.485528575884175
      ],
      [
        "oo",
        -10.573184319002312
      ],
      [
        ".1",
        -13.151530141619636
      ],
      [
        "hobby",
        -11.133881692598022
      ],
      [
        "▁10:0",
        -12.793923703826332
      ],
      [
        "▁trader",
        -10.164315741245245
      ],
      [
        "2",
        -10.53881921003439
      ],
      [
        "▁shore",
        -10.216982745968023
      ],
      [
        "i",
        -9.80170027582974
      ],
      [
        "▁stamp",
        -11.20911858789488
      ],
      [
        "▁youth",
        -10.362876922292854
      ],
      [
        "or",
        -7.455304926834607
      ],
      [
        "▁weather",
        -9.49917442721489
      ],
      [
        "▁refund",
        -10.699100592639054
      ],
      [
        "▁perfume",
        -11.084253629127037
      ],
      [
        "▁.....",
        -12.265366154194606
      ],
      [
        "what",
        -7.9954044867101235
      ],
      [
        "▁pole",
        -10.328605793186027
      ],
      [
        "gg",
        -9.295097871878303
      ],
      [
        "▁outfit",
        -10.622000019134093
      ],
      [
        "170",
        -14.674369146106468
      ],
      [
        "▁guy",
        -7.7004890689592
      ],
      [
        "▁wonderful",
        -9.106555518415144
      ],
      [
        "ey",
        -12.554834472282923
      ],
      [
        "out",
        -9.061841395065887
      ],
      [
        "▁paragraph",
        -10.78228039570954
      ],
      [
        "lan",
        -9.887229948535017
      ],
      [
        "phone",
        -9.775553562698688
      ],
      [
        "▁s",
        -9.536036570880462
      ],
      [
        "08",
        -11.329350389901101
      ],
      [
        "▁production",
        -9.580345379370915
      ],
      [
        "lle",
        -11.518747435289725
      ],
      [
        "ottie",
        -11.203777375557895
      ],
      [
        "▁owners",
        -10.375647256691646
      ],
      [
        "▁evident",
        -10.621973598989486
      ],
      [
        "▁al",
        -9.593659622937922
      ],
      [
        "▁label",
        -10.225638731557837
      ],
      [
        "275",
        -13.948612843905096
      ],
      [
        "▁compos",
        -10.622206236202477
      ],
      [
        "▁was",
        -5.269250295583504
      ],
      [
        "▁fro",
        -4.951061705951037
      ],
      [
        "▁02:",
        -13.328867592342894
      ],
      [
        "▁gri",
        -9.915790588367688
      ],
      [
        "▁unique",
        -9.385421554095007
      ],
      [
        "▁hero",
        -10.161949237256202
      ],
      [
        "=========",
        -12.60171179977362
      ],
      [
        "▁process",
        -7.974647779615065
      ],
      [
        "▁high",
        -7.210419519361479
      ],
      [
        "▁saturday",
        -8.04591976154444
      ],
      [
        "ine",
        -11.05431148575052
      ],
      [
        "▁1.5",
        -10.928556940654722
      ],
      [
        "▁201",
        -8.15549122295678
      ],
      [
        "▁wow",
        -9.364503754678372
      ],
      [
        "▁horses",
        -10.123208117387703
      ],
      [
        "▁201-",
        -14.09272654832999
      ],
      [
        "6.8",
        -11.52194411340363
      ],
      [
        "▁no",
        -12.609335897198278
      ],
      [
        "▁screw",
        -9.627548420082732
      ],
      [
        "▁translation",
        -9.948174831731148
      ],
      [
        "▁ga",
        -12.271472656463636
      ],
      [
        "▁jan",
        -9.915588550712489
      ],
      [
        "▁infrastructure",
        -10.026149173992488
      ],
      [
        "▁reaction",
        -10.111881543821
      ],
      [
        "▁laz",
        -10.809297421103478
      ],
      [
        "ins",
        -12.84528629625656
      ],
      [
        "▁lind",
        -10.324745710038561
      ],
      [
        "came",
        -8.775453636545953
      ],
      [
        "▁settlement",
        -9.524084408353453
      ],
      [
        "▁response",
        -8.824282394185097
      ],
      [
        "▁sign",
        -8.306427221055973
      ],
      [
        "▁player",
        -9.370077421276076
      ],
      [
        "▁marine",
        -10.335232068725158
      ],
      [
        "▁bc",
        -10.869520852055757
      ],
      [
        "enos",
        -10.984924969916708
      ],
      [
        "glass",
        -11.058906392238704
      ],
      [
        "oc",
        -9.067274792690018
      ],
      [
        "▁suspect",
        -9.807120481738508
      ],
      [
        "▁winn",
        -10.00125401625725
      ],
      [
        "▁ye",
        -7.899840741072134
      ],
      [
        "▁fac",
        -10.219118484401793
      ],
      [
        "▁canne",
        -11.00107064858711
      ],
      [
        "yo",
        -12.980137273398649
      ],
      [
        "▁rule",
        -8.462764751747278
      ],
      [
        "▁monarch",
        -10.873172656351379
      ],
      [
        "2.1",
        -13.661571770770541
      ],
      [
        "▁rough",
        -9.452438654493857
      ],
      [
        "▁seat",
        -8.684950637554326
      ],
      [
        "▁analyst",
        -9.815905401291193
      ],
      [
        "▁lega",
        -10.489080679458654
      ],
      [
        "▁29",
        -11.664104785589076
      ],
      [
        "no",
        -10.794430943084201
      ],
      [
        "▁cho",
        -11.005113672880823
      ],
      [
        "▁foot",
        -8.741893678836876
      ],
      [
        "▁shoot",
        -9.655338940346903
      ],
      [
        "▁pla",
        -10.776013639092602
      ],
      [
        "368",
        -12.773220836068143
      ],
      [
        "▁hee",
        -10.86448750162325
      ],
      [
        "▁whol",
        -11.160104566133995
      ],
      [
        "▁census",
        -10.550609585763745
      ],
      [
        "▁rot",
        -10.045272757946453
      ],
      [
        "r",
        -4.496868874099677
      ],
      [
        "▁chan",
        -10.819596805044338
      ],
      [
        "▁virtual",
        -10.362554844554719
      ],
      [
        "bi",
        -11.031529250619979
      ],
      [
        "25",
        -10.167856393966186
      ],
      [
        "▁follow",
        -8.161544618847138
      ],
      [
        "▁database",
        -9.499174598162604
      ],
      [
        "▁washing",
        -10.351290174449147
      ],
      [
        "rt",
        -12.710446383063182
      ],
      [
        "=============",
        -11.216882392454107
      ],
      [
        "▁multiple",
        -10.111295169131482
      ],
      [
        "/01",
        -12.978977334180982
      ],
      [
        "8/01",
        -14.138566737487656
      ],
      [
        "kin",
        -9.891673832123367
      ],
      [
        "▁jud",
        -10.592944357146491
      ],
      [
        "riff",
        -10.781314299648201
      ],
      [
        "age",
        -11.003488229021976
      ],
      [
        "▁teacher",
        -8.915643045252391
      ],
      [
        "▁1000",
        -10.355355157779499
      ],
      [
        "▁17,",
        -14.128355496279145
      ],
      [
        "▁30",
        -9.486190054048716
      ],
      [
        "through",
        -10.343789277758114
      ],
      [
        "▁50",
        -9.85620643860546
      ],
      [
        "238",
        -12.736357786554253
      ],
      [
        "▁vary",
        -10.70143027182225
      ],
      [
        "ang",
        -11.833863112049684
      ],
      [
        "▁our",
        -6.8694529814894745
      ],
      [
        "▁dominate",
        -10.624708755733629
      ],
      [
        "▁wed",
        -9.315546137527582
      ],
      [
        "▁main",
        -8.185130814675396
      ],
      [
        "▁82",
        -11.78840042592635
      ],
      [
        "▁mrs",
        -9.3615233859849
      ],
      [
        "▁mean",
        -6.912404978392141
      ],
      [
        "▁little",
        -6.756416918978919
      ],
      [
        "lump",
        -10.898721281335668
      ],
      [
        "▁taylor",
        -10.873139244553116
      ],
      [
        "▁uhh",
        -8.351133090417981
      ],
      [
        "108",
        -12.520739791687621
      ],
      [
        "▁counter",
        -9.697787168381142
      ],
      [
        "▁birth",
        -9.479296016955928
      ],
      [
        "▁gross",
        -10.25613774589596
      ],
      [
        "nson@enron",
        -11.833845510207494
      ],
      [
        "▁talk",
        -7.1301945872195045
      ],
      [
        "▁pho",
        -10.845826107710003
      ],
      [
        "▁twi",
        -9.112277527028718
      ],
      [
        "400",
        -11.158984950287465
      ],
      [
        "▁combine",
        -10.068190400759956
      ],
      [
        "▁still",
        -7.114101251391492
      ],
      [
        "▁ferr",
        -10.106624938140355
      ],
      [
        "gie",
        -10.327548881973417
      ],
      [
        "la",
        -10.269817022195172
      ],
      [
        "▁migrant",
        -10.698896685093107
      ],
      [
        "▁vast",
        -9.744470614321973
      ],
      [
        "▁read",
        -7.152437649624039
      ],
      [
        "▁fil",
        -10.3999925728365
      ],
      [
        "66",
        -12.073162576097861
      ],
      [
        "ott",
        -9.763156690135412
      ],
      [
        "▁got",
        -9.69475897458434
      ],
      [
        "▁u",
        -9.187278560530265
      ],
      [
        "1",
        -8.72147478516991
      ],
      [
        "ot",
        -13.94217627046138
      ],
      [
        "▁crush",
        -10.621974054068026
      ],
      [
        "▁street",
        -8.10390710118344
      ],
      [
        "▁airplane",
        -9.600605844388266
      ],
      [
        "dependent",
        -11.121065075673988
      ],
      [
        "▁703",
        -13.389617785203246
      ],
      [
        "ur",
        -11.393468614066895
      ],
      [
        "3",
        -8.919660696578497
      ],
      [
        "▁dead",
        -8.511929414312135
      ],
      [
        "ecki",
        -10.205890214675183
      ],
      [
        "h",
        -9.117748607228467
      ],
      [
        "tan",
        -9.9321623395054
      ],
      [
        "▁promis",
        -10.442918302980525
      ],
      [
        "▁beautiful",
        -8.501935299157331
      ],
      [
        "und",
        -8.394454848542383
      ],
      [
        "q",
        -15.518265406639655
      ],
      [
        "▁most",
        -7.018956699682697
      ],
      [
        "▁faith",
        -9.910198465048762
      ],
      [
        "▁wishe",
        -10.888740952439896
      ],
      [
        "▁bab",
        -9.842811305675596
      ],
      [
        "28",
        -10.97103305750776
      ],
      [
        "▁ever",
        -7.842996872830545
      ],
      [
        "▁recommend",
        -8.229895204462085
      ],
      [
        "ha",
        -9.601993731172117
      ],
      [
        "▁execution",
        -10.421764628760954
      ],
      [
        "▁nak",
        -10.630678359349384
      ],
      [
        "98",
        -10.894723327413537
      ],
      [
        "▁spit",
        -10.431954122103438
      ],
      [
        "▁asia",
        -9.9502890393656
      ],
      [
        "▁correct",
        -8.848082190692677
      ],
      [
        "▁wal",
        -10.271796404305535
      ],
      [
        "▁9.",
        -14.140127953573415
      ],
      [
        "thi",
        -7.4687070885228275
      ],
      [
        "▁ma",
        -8.777114217691906
      ],
      [
        "endou",
        -10.81039620476071
      ],
      [
        "agr",
        -10.984714191306647
      ],
      [
        "▁word",
        -8.278749321263371
      ],
      [
        "▁anger",
        -10.873207773910218
      ],
      [
        "▁treatment",
        -9.265273919885482
      ],
      [
        "190",
        -13.810053399207337
      ],
      [
        "▁mo",
        -11.730657660372195
      ],
      [
        "llo",
        -12.838040137222798
      ],
      [
        "▁survey",
        -10.369168625885816
      ],
      [
        "▁produc",
        -10.75393408516091
      ],
      [
        "un",
        -9.193911747915315
      ],
      [
        "▁ri",
        -9.731580733786807
      ],
      [
        "▁colour",
        -10.161152038374151
      ],
      [
        "▁adequate",
        -10.208911520232537
      ],
      [
        "159",
        -14.034648351999111
      ],
      [
        "▁restrict",
        -10.876103267543755
      ],
      [
        "▁shoe",
        -8.380056526732112
      ],
      [
        "▁m",
        -7.52296631939559
      ],
      [
        "▁des",
        -9.820925513461214
      ],
      [
        "▁operate",
        -10.704235954051942
      ],
      [
        "▁lawyer",
        -10.112080359948578
      ],
      [
        "▁1.4",
        -12.362851284027002
      ],
      [
        "▁defin",
        -9.697165477846394
      ],
      [
        "▁donation",
        -10.487867164366381
      ],
      [
        "▁rat",
        -9.333574503852851
      ],
      [
        "▁charles",
        -10.073862865423585
      ],
      [
        "▁mari",
        -11.608463054468066
      ],
      [
        "▁occasion",
        -9.914539760855073
      ],
      [
        "179",
        -13.39745496023807
      ],
      [
        "50",
        -10.090879082816057
      ],
      [
        "▁proper",
        -8.934158950470959
      ],
      [
        "▁fertil",
        -11.084253681731619
      ],
      [
        "nver",
        -6.4505950741997635
      ],
      [
        "▁personal",
        -8.543072769037531
      ],
      [
        "▁kar",
        -9.242586225455518
      ],
      [
        "▁sex",
        -9.713738762052877
      ],
      [
        "▁tol",
        -7.619101235401257
      ],
      [
        "▁sauce",
        -10.421543581335145
      ],
      [
        "▁rose",
        -9.317844527618277
      ],
      [
        "▁corporation",
        -10.254385348072606
      ],
      [
        "▁south",
        -7.990799150659479
      ],
      [
        "ough",
        -8.427482906163835
      ],
      [
        "100",
        -11.126169046448926
      ],
      [
        "▁pric",
        -10.308878273632839
      ],
      [
        "110",
        -13.650665772775568
      ],
      [
        "jing",
        -10.749116688478374
      ],
      [
        "▁10:1",
        -14.856075921306763
      ],
      [
        "▁pale",
        -10.399902773369876
      ],
      [
        "▁han",
        -12.544716207967019
      ],
      [
        "▁province",
        -10.25710671899991
      ],
      [
        "62",
        -12.786065695044039
      ],
      [
        "6-84",
        -14.806907614809187
      ],
      [
        "uit",
        -12.289312307441701
      ],
      [
        "▁bust",
        -10.689696948332692
      ],
      [
        "graph",
        -10.61870139870344
      ],
      [
        "▁01/2",
        -13.142620214681038
      ],
      [
        "al",
        -10.361669615324121
      ],
      [
        "▁vanish",
        -10.78318355200131
      ],
      [
        "ge",
        -8.906347298502965
      ],
      [
        "▁broom",
        -10.423432896332802
      ],
      [
        "94",
        -12.022107636496195
      ],
      [
        "ady",
        -7.638505959234532
      ],
      [
        "▁additional",
        -9.095577563783312
      ],
      [
        "▁gap",
        -10.03508961409538
      ],
      [
        "▁cape",
        -10.735762615106887
      ],
      [
        "▁ones",
        -9.046765749485864
      ],
      [
        "----",
        -10.450866178525061
      ],
      [
        "case",
        -11.110437938765031
      ],
      [
        "▁tent",
        -9.361282260659612
      ],
      [
        "nfant",
        -10.483870515745163
      ],
      [
        "▁opera",
        -10.58552354899021
      ],
      [
        "▁tear",
        -9.749797577350947
      ],
      [
        "7:3",
        -13.59615174620778
      ],
      [
        "▁agricultural",
        -10.366051476349973
      ],
      [
        "▁e-mail",
        -9.42938154617665
      ],
      [
        "▁trac",
        -10.238517444773723
      ],
      [
        "▁tow",
        -9.62052790184732
      ],
      [
        "880",
        -15.44640996818414
      ],
      [
        "ado",
        -9.532167905729406
      ],
      [
        "uff",
        -10.197642175329223
      ],
      [
        "▁span",
        -10.061237115324712
      ],
      [
        "▁fixed",
        -9.238515660521855
      ],
      [
        "▁prepare",
        -9.939418236022362
      ],
      [
        "▁board",
        -8.796111760294771
      ],
      [
        "▁talent",
        -10.026276871861983
      ],
      [
        "3.1",
        -12.945575938572823
      ],
      [
        "ina",
        -10.335495820432765
      ],
      [
        "▁further",
        -8.510869129574889
      ],
      [
        "columbia",
        -10.283954831749819
      ],
      [
        "▁heaven",
        -10.362557677018103
      ],
      [
        "obe",
        -12.704995747655166
      ],
      [
        "▁jul",
        -8.141997678377955
      ],
      [
        "▁duck",
        -9.183404517814289
      ],
      [
        "ite",
        -9.313293933056384
      ],
      [
        "4",
        -9.551184002865776
      ],
      [
        "leans",
        -10.307879103370025
      ],
      [
        "▁come",
        -6.540023860134716
      ],
      [
        "▁serve",
        -8.037806622712779
      ],
      [
        "9",
        -9.7614690717317
      ],
      [
        "▁programme",
        -8.883567770222658
      ],
      [
        "*****",
        -11.566808758753416
      ],
      [
        "ro",
        -11.369268642045476
      ],
      [
        "▁terminal",
        -11.086231808686032
      ],
      [
        "▁clip",
        -10.362842834167557
      ],
      [
        "▁schedule",
        -8.783412823143813
      ],
      [
        "▁200,",
        -14.14712352768953
      ],
      [
        "▁intense",
        -10.631737575383648
      ],
      [
        "▁pl",
        -10.28680509722121
      ],
      [
        "▁wou",
        -13.229284662502392
      ],
      [
        "▁60,00",
        -13.953467716680118
      ],
      [
        "▁",
        -1.3739155028004877
      ],
      [
        "▁open",
        -7.383038197145573
      ],
      [
        "▁rely",
        -10.676348419828045
      ],
      [
        "▁guarantee",
        -9.549081416333092
      ],
      [
        "▁sky",
        -8.93227990541852
      ],
      [
        "▁cc",
        -10.052710806867609
      ],
      [
        "▁rom",
        -10.952089094795301
      ],
      [
        "▁great",
        -6.847314783704403
      ],
      [
        "[UNK]",
        0.0
      ],
      [
        "/8/",
        -13.141982870234665
      ],
      [
        "▁angle",
        -10.707286844098736
      ],
      [
        "4-0",
        -13.976970355796805
      ],
      [
        "▁israeli",
        -9.769616864797403
      ],
      [
        "▁storm",
        -9.503812294285423
      ],
      [
        "▁handl",
        -10.323534643606212
      ],
      [
        "▁pay",
        -8.09979969254273
      ],
      [
        "▁daughter",
        -9.042834527859924
      ],
      [
        "ff",
        -11.980794772189306
      ],
      [
        "▁mine",
        -10.774985846253598
      ],
      [
        "▁inequalit",
        -10.873141466853603
      ],
      [
        "ia",
        -8.034470899378539
      ],
      [
        "317",
        -12.522027844751664
      ],
      [
        "▁fl",
        -9.859649262895129
      ],
      [
        "▁departure",
        -10.204623470691077
      ],
      [
        "▁on",
        -6.888680401716107
      ],
      [
        "---=",
        -11.82789170959216
      ],
      [
        "▁06/01/200",
        -12.339716654186573
      ],
      [
        "▁satan",
        -10.570689332598333
      ],
      [
        "▁trem",
        -10.783530300177619
      ],
      [
        "▁mo",
        -8.504125468166889
      ],
      [
        "▁stu",
        -10.956381838765317
      ],
      [
        "upper",
        -10.178111168113647
      ],
      [
        "▁notabl",
        -11.189700688768166
      ],
      [
        "800.",
        -12.777623006555508
      ],
      [
        "▁d",
        -10.280019826971163
      ],
      [
        "▁awake",
        -10.483890606377358
      ],
      [
        "▁may",
        -7.182855929768164
      ],
      [
        "197",
        -11.99851441851724
      ],
      [
        "▁ocean",
        -9.874937163773595
      ],
      [
        "▁elbow",
        -10.782230378206922
      ],
      [
        "▁environmental",
        -9.371191840705933
      ],
      [
        "ampa",
        -9.076298603920982
      ],
      [
        "ar",
        -7.965964220060477
      ],
      [
        "▁val",
        -9.47660142037704
      ],
      [
        "▁1-800-",
        -12.663110100375743
      ],
      [
        "▁dan",
        -9.627519892607726
      ],
      [
        "hi",
        -9.424581281491143
      ],
      [
        "▁grateful",
        -10.78223038885642
      ],
      [
        "▁iran",
        -8.60469375310612
      ],
      [
        "alv",
        -10.26447049995188
      ],
      [
        "▁.......",
        -12.942341377205105
      ],
      [
        "▁bun",
        -10.000044766690026
      ],
      [
        "▁wa",
        -11.64081789390056
      ],
      [
        "kins",
        -10.286135629982276
      ],
      [
        "▁improve",
        -9.343227650206593
      ],
      [
        "▁us",
        -9.506253679050264
      ],
      [
        "▁ag",
        -10.388638485166751
      ],
      [
        "▁vintage",
        -10.873144820074906
      ],
      [
        "58",
        -11.951611418715437
      ],
      [
        "ria",
        -11.73691810135671
      ],
      [
        "▁columb",
        -9.41668496341208
      ],
      [
        "even",
        -10.255110157750392
      ],
      [
        "▁expose",
        -10.904598698611846
      ],
      [
        "▁well",
        -6.372756022969236
      ],
      [
        "▁identi",
        -10.676848703557244
      ],
      [
        "▁stretch",
        -9.452108772853894
      ],
      [
        "ju",
        -12.226505588446837
      ],
      [
        "72",
        -11.567392815125887
      ],
      [
        "▁glow",
        -10.069112704464079
      ],
      [
        "▁fame",
        -10.364349642941828
      ],
      [
        "bu",
        -8.933136665927833
      ],
      [
        "▁>>",
        -8.408942050936023
      ],
      [
        "▁conflict",
        -9.49917406915251
      ],
      [
        "▁inter",
        -9.405906909879192
      ],
      [
        "▁strateg",
        -9.49747682893036
      ],
      [
        "&",
        -8.721264882567068
      ],
      [
        "▁operative",
        -10.974529270296333
      ],
      [
        "ons",
        -10.56595692661573
      ],
      [
        "▁scheme",
        -10.621975799622549
      ],
      [
        "▁onion",
        -10.320959234672143
      ],
      [
        "▁vs",
        -11.575267346929792
      ],
      [
        "▁entitle",
        -10.120118806724754
      ],
      [
        "▁headache",
        -10.974435596490418
      ],
      [
        "37.",
        -13.177392460549235
      ],
      [
        "▁gang",
        -10.875184969889869
      ],
      [
        "▁donkey",
        -9.98615278378254
      ],
      [
        "▁update",
        -9.429691686848766
      ],
      [
        "form",
        -11.743974029951112
      ],
      [
        "▁vice",
        -9.755895876200555
      ],
      [
        "▁wrong",
        -8.585264421180998
      ],
      [
        "680",
        -12.884090929504229
      ],
      [
        "emma",
        -10.568530535013176
      ],
      [
        "▁committe",
        -10.308668485151847
      ],
      [
        "▁roast",
        -10.97317924388968
      ],
      [
        "ward",
        -11.834056055878488
      ],
      [
        "▁leonard",
        -10.973303179293252
      ],
      [
        "▁repeated",
        -9.928620188757991
      ],
      [
        "▁inform",
        -9.38394984849841
      ],
      [
        "ac",
        -11.991757960654496
      ],
      [
        "▁i.e",
        -10.204377628459318
      ],
      [
        "▁03:",
        -11.982710755806442
      ],
      [
        ":15",
        -12.622561123925353
      ],
      [
        "▁gray",
        -10.178894564130413
      ],
      [
        "▁nineteenth",
        -10.698896719180356
      ],
      [
        "▁able",
        -8.105547329319004
      ],
      [
        "me",
        -9.08711369831899
      ],
      [
        "▁reconcili",
        -10.697886438305716
      ],
      [
        "▁explor",
        -10.34860403344086
      ],
      [
        "▁effect",
        -8.62413313730999
      ],
      [
        "▁755",
        -13.738721046877318
      ],
      [
        "▁giraffe",
        -10.483878358856831
      ],
      [
        "▁monitor",
        -10.362555101481242
      ],
      [
        "▁forty-",
        -12.336962208317317
      ],
      [
        "▁intervention",
        -10.362644303977385
      ],
      [
        "4-79",
        -13.475737153577203
      ],
      [
        "▁rul",
        -10.94243046507357
      ],
      [
        "▁crucial",
        -10.204367698919711
      ],
      [
        "▁01",
        -11.778088733885701
      ],
      [
        "rou",
        -8.854957786186286
      ],
      [
        "tagon",
        -10.816536665264755
      ],
      [
        "▁wagon",
        -10.700438899651251
      ],
      [
        "▁bus",
        -8.657712222293132
      ],
      [
        "▁nanda",
        -11.373803937697424
      ],
      [
        "▁leader",
        -9.219113247347735
      ],
      [
        "▁zo",
        -10.998873661242811
      ],
      [
        "ne",
        -8.313038250622254
      ],
      [
        "▁eat",
        -6.849259437185254
      ],
      [
        "011",
        -15.221037539552535
      ],
      [
        "au",
        -11.97032760426017
      ],
      [
        "102",
        -15.4425354296568
      ],
      [
        "▁specification",
        -10.986956153273978
      ],
      [
        "▁skill",
        -10.34465159292693
      ],
      [
        "▁criminal",
        -10.026149254213435
      ],
      [
        "▁case",
        -7.777394771811643
      ],
      [
        "▁achieve",
        -9.540696802696308
      ],
      [
        "▁vic",
        -11.098593130168638
      ],
      [
        "▁aero",
        -10.37329818613668
      ],
      [
        "▁grant",
        -9.284513879493453
      ],
      [
        "men",
        -9.282982778758978
      ],
      [
        "gri",
        -11.087957216298108
      ],
      [
        "▁resident",
        -9.68404071248232
      ],
      [
        "▁doubt",
        -9.47875937545279
      ],
      [
        "ro",
        -8.288514316799883
      ],
      [
        "▁rush",
        -10.111933897292074
      ],
      [
        "ist",
        -8.227925635947678
      ],
      [
        "▁site",
        -8.50319084476613
      ],
      [
        ",9",
        -13.146070500982553
      ],
      [
        "▁spirit",
        -9.743608631066456
      ],
      [
        "▁indicate",
        -9.811621935584888
      ],
      [
        "board",
        -9.147471949233076
      ],
      [
        "▁experimental",
        -10.117742280838666
      ],
      [
        "▁king",
        -9.000305469821132
      ],
      [
        "▁methodolog",
        -11.174846688160018
      ],
      [
        "▁chart",
        -10.489599671696405
      ],
      [
        "▁independent",
        -9.326556455331088
      ],
      [
        "▁ok",
        -8.384361398967076
      ],
      [
        "▁upside",
        -10.257175337530626
      ],
      [
        "▁babi",
        -9.970463330795825
      ],
      [
        "▁205",
        -12.660918673195054
      ],
      [
        "▁ad",
        -9.676051397487518
      ],
      [
        "▁expectation",
        -9.914362365066339
      ],
      [
        "▁arriv",
        -7.780266606038238
      ],
      [
        "hers",
        -14.748162080548967
      ],
      [
        "▁woke",
        -10.307006825855852
      ],
      [
        "▁notion",
        -10.077543876072896
      ],
      [
        "▁soviet",
        -10.483878546174916
      ],
      [
        "0,000",
        -10.195250905356877
      ],
      [
        "▁comprehensi",
        -10.15674873032442
      ],
      [
        "trans",
        -10.240933231132955
      ],
      [
        "▁base",
        -7.8394370804680396
      ],
      [
        "▁enhance",
        -10.307037034714982
      ],
      [
        "▁discriminat",
        -10.873595797475925
      ],
      [
        "▁tiger",
        -9.245198975223296
      ],
      [
        "▁42,00",
        -13.782910433321955
      ],
      [
        "▁21,",
        -14.146030434996668
      ],
      [
        "inc",
        -8.135972559800303
      ],
      [
        "▁no",
        -6.229759536099308
      ],
      [
        "▁satellite",
        -10.550545144310844
      ],
      [
        "▁tie",
        -8.675215726611224
      ],
      [
        "▁qui",
        -10.101082129592585
      ],
      [
        "▁age",
        -8.441708585247868
      ],
      [
        "1507",
        -13.383298432819583
      ],
      [
        "▁thirty",
        -9.777242291981953
      ],
      [
        "▁good",
        -6.299121307940172
      ],
      [
        "▁thirt",
        -11.589558869595724
      ],
      [
        "▁transform",
        -10.009537866612035
      ],
      [
        "▁liz",
        -10.8014367375468
      ],
      [
        "▁pot",
        -10.095223320954556
      ],
      [
        "▁region",
        -8.761943997739426
      ],
      [
        "▁beep",
        -10.5540452916692
      ],
      [
        "umn",
        -10.78416941849006
      ],
      [
        "???????????????",
        -11.554970775406666
      ],
      [
        "233",
        -13.678237943553544
      ],
      [
        "ent",
        -10.352899478348686
      ],
      [
        "▁unnecessar",
        -11.20925021182549
      ],
      [
        "▁aggressive",
        -10.782500001088744
      ],
      [
        "▁blow",
        -8.85710762768358
      ],
      [
        "z",
        -11.758838788587859
      ],
      [
        "▁pledge",
        -10.067825178185675
      ],
      [
        "▁jump",
        -8.697701325878736
      ],
      [
        "▁so",
        -11.218941534601761
      ],
      [
        "▁10.",
        -12.227526544380565
      ],
      [
        "sburg",
        -6.731898138704439
      ],
      [
        "▁belief",
        -9.475365837398577
      ],
      [
        "▁wipe",
        -10.06832212020802
      ],
      [
        "▁www.",
        -10.484392257665856
      ],
      [
        "▁require",
        -8.61052014233088
      ],
      [
        "off",
        -10.074721619544425
      ],
      [
        "▁w/",
        -13.028036467691177
      ],
      [
        "▁adjustment",
        -10.874881139454818
      ],
      [
        "▁forward",
        -8.434226547122451
      ],
      [
        "ack",
        -12.928599211651854
      ],
      [
        "anders",
        -10.902641924962655
      ],
      [
        "oach",
        -9.17870659778825
      ],
      [
        "/",
        -11.86295882992016
      ],
      [
        "▁oliv",
        -9.579439993800403
      ],
      [
        "▁bite",
        -8.882192736897272
      ],
      [
        "96/",
        -13.58763307569862
      ],
      [
        "▁guideline",
        -9.875003433101787
      ],
      [
        "dental",
        -11.088745450448755
      ],
      [
        "▁enem",
        -9.743723064682364
      ],
      [
        "▁shape",
        -9.265291533325135
      ],
      [
        "sa",
        -10.695860057288726
      ],
      [
        "acion",
        -11.365745765385471
      ],
      [
        "▁bitter",
        -10.878441379751276
      ],
      [
        "▁hurri",
        -10.782253229947424
      ],
      [
        "▁instant",
        -10.204377402794236
      ],
      [
        "▁bayley",
        -10.782768529748955
      ],
      [
        "▁tau",
        -10.965296760509407
      ],
      [
        "▁billion",
        -10.983429258751208
      ],
      [
        "10/20",
        -13.973159258028971
      ],
      [
        "▁take",
        -6.268031808232548
      ],
      [
        "▁promote",
        -10.023641685656608
      ],
      [
        "▁iraq",
        -8.27978349047526
      ],
      [
        "▁laura",
        -7.802172180168117
      ],
      [
        "▁review",
        -8.191228696821646
      ],
      [
        "han",
        -9.77693533828493
      ],
      [
        "▁fat",
        -9.318869720702216
      ],
      [
        "▁share",
        -8.799696603581921
      ],
      [
        "▁bench",
        -10.112803623073946
      ],
      [
        "▁bid",
        -9.962144390340566
      ],
      [
        "▁daniel",
        -9.574206871297058
      ],
      [
        "▁event",
        -8.288376792463676
      ],
      [
        "▁lie",
        -9.050131991599887
      ],
      [
        "▁jungle",
        -10.873154223361327
      ],
      [
        "▁institutional",
        -10.89831676290965
      ],
      [
        "▁th-",
        -10.367154402671856
      ],
      [
        "▁dav",
        -10.719872885450581
      ],
      [
        "▁200,000",
        -11.169756943986634
      ],
      [
        "▁critical",
        -9.920664149309165
      ],
      [
        "▁random",
        -10.782424371423929
      ],
      [
        "tub",
        -10.468112016233556
      ],
      [
        "pass",
        -10.768434800115557
      ],
      [
        "▁steven",
        -10.886576220647642
      ],
      [
        "▁deteriorat",
        -10.622491312316283
      ],
      [
        "▁led",
        -9.200080277068267
      ],
      [
        "▁strange",
        -10.023602840125696
      ],
      [
        "▁bread",
        -9.014134261037015
      ],
      [
        "ific",
        -9.536454577706829
      ],
      [
        "▁historical",
        -9.69079308828038
      ],
      [
        "oven",
        -10.251635798684793
      ],
      [
        "ula",
        -11.5325592397742
      ],
      [
        "▁mann",
        -10.357146209346725
      ],
      [
        "nca",
        -12.403582309077763
      ],
      [
        "▁zone",
        -10.622258033252672
      ],
      [
        "get",
        -11.33405405661711
      ],
      [
        "▁flip",
        -11.08174351243714
      ],
      [
        "▁produce",
        -8.848843811157037
      ],
      [
        "12",
        -10.115966630470972
      ],
      [
        "×",
        -11.833785825435129
      ],
      [
        "-004",
        -14.199300681685418
      ],
      [
        "▁_",
        -4.480143642010605
      ],
      [
        "▁chu",
        -10.430365947841151
      ],
      [
        "▁u.s.",
        -9.02771418349114
      ],
      [
        "▁infection",
        -10.874337936445944
      ],
      [
        "▁’",
        -10.228851442284377
      ],
      [
        "▁punctu",
        -11.08425033107353
      ],
      [
        "hood",
        -9.736592906049385
      ],
      [
        "▁innocent",
        -10.550545143940855
      ],
      [
        "▁glacier",
        -11.084250209879071
      ],
      [
        "½",
        -14.13677057935472
      ],
      [
        "[MASK]",
        0.0
      ],
      [
        "▁over",
        -7.36005997528514
      ],
      [
        "rench",
        -8.731213386244487
      ],
      [
        "1602",
        -12.75286170753208
      ],
      [
        "▁rachel",
        -10.873196698551936
      ],
      [
        "▁ja",
        -12.309018936156052
      ],
      [
        "wa",
        -12.083792402984447
      ],
      [
        "▁industrial",
        -9.808093132271662
      ],
      [
        "manuel",
        -10.484325469968109
      ],
      [
        "▁pope",
        -10.757569837626178
      ],
      [
        "llc",
        -10.786255599774195
      ],
      [
        "▁land",
        -8.176353845655125
      ],
      [
        "▁colleague",
        -9.91065059922311
      ],
      [
        "▁l.",
        -10.59350329775252
      ],
      [
        "▁complement",
        -11.084251502249018
      ],
      [
        "▁museum",
        -9.627548363962308
      ],
      [
        "▁fit",
        -8.559964024200578
      ],
      [
        "▁pol",
        -10.78301054977012
      ],
      [
        "▁'",
        -8.499373499932924
      ],
      [
        "▁10:4",
        -12.397343587659027
      ],
      [
        "▁supply",
        -10.362554988192926
      ],
      [
        "▁link",
        -8.6658025783777
      ],
      [
        "ansen",
        -13.637565979844098
      ],
      [
        "▁combination",
        -10.306999878097832
      ],
      [
        "▁large",
        -7.512810646090694
      ],
      [
        "'",
        -5.811804410257997
      ],
      [
        "go",
        -7.8282502909749905
      ],
      [
        "▁acknowledge",
        -10.29623912349658
      ],
      [
        "339",
        -11.238809738318704
      ],
      [
        "▁scent",
        -10.785406109721967
      ],
      [
        "▁sweat",
        -10.869170354180843
      ],
      [
        "ein",
        -15.518265406639655
      ],
      [
        "herself",
        -13.45138161859207
      ],
      [
        "▁peaceful",
        -9.714534555532595
      ],
      [
        "uke",
        -10.703295172087808
      ],
      [
        "▁homeopath",
        -10.698898800782441
      ],
      [
        "ors",
        -11.776077782252447
      ],
      [
        "iji",
        -11.001225357799534
      ],
      [
        "d",
        -4.146547213859666
      ],
      [
        "▁allow",
        -8.804257228262099
      ],
      [
        "▁coffee",
        -8.836628113416577
      ],
      [
        "▁hesitate",
        -11.111153421168543
      ],
      [
        "▁05:5",
        -13.15777586100445
      ],
      [
        "▁michi",
        -10.363221774573756
      ],
      [
        "▁gentle",
        -10.494918343451673
      ],
      [
        "▁payment",
        -9.501897047663672
      ],
      [
        "▁xi",
        -13.037780232626263
      ],
      [
        "▁bagg",
        -10.98548629895857
      ],
      [
        "▁basic",
        -8.865345052444496
      ],
      [
        "▁kind",
        -7.1335061063185785
      ],
      [
        "▁plant",
        -8.564721984931827
      ],
      [
        "▁upset",
        -10.627719220489935
      ],
      [
        "▁governor",
        -9.684242725761354
      ],
      [
        "▁hair",
        -7.949389716444441
      ],
      [
        "re",
        -7.418210813944742
      ],
      [
        "town",
        -8.368010673077002
      ],
      [
        "een",
        -10.053247329201625
      ],
      [
        "▁expert",
        -9.13890369569092
      ],
      [
        "ifie",
        -10.122084064464827
      ],
      [
        "▁prefect",
        -11.084250968733793
      ],
      [
        "▁0.1",
        -13.296955699958513
      ],
      [
        "▁write",
        -7.835614184940715
      ],
      [
        "▁patch",
        -10.974055947755263
      ],
      [
        "▁leave",
        -7.150061787842218
      ],
      [
        "▁strawberr",
        -10.067823096283739
      ],
      [
        "奈",
        -12.833785825435129
      ],
      [
        "thoma",
        -9.52609260271305
      ],
      [
        "▁cage",
        -9.07680101485326
      ],
      [
        "▁blame",
        -10.307506697745485
      ],
      [
        "▁paw",
        -11.091095130442135
      ],
      [
        "▁indonesia",
        -10.36257279783467
      ],
      [
        "▁scratch",
        -10.306999274906872
      ],
      [
        "▁200",
        -7.835194488110916
      ],
      [
        "▁sentence",
        -9.87535667580384
      ],
      [
        "6:00",
        -11.54136812453849
      ],
      [
        "▁route",
        -9.657903526493904
      ],
      [
        "▁price",
        -7.655481973824937
      ],
      [
        "▁kick",
        -9.627784484248613
      ],
      [
        "▁2:30",
        -11.734134949673816
      ],
      [
        "lys",
        -10.25405955036088
      ],
      [
        "▁832.676.",
        -13.136770579315863
      ],
      [
        "9:5",
        -13.21345167014526
      ],
      [
        "▁moll",
        -10.633134202761767
      ],
      [
        "==",
        -10.802124173760925
      ],
      [
        "▁busy",
        -8.870871731144984
      ],
      [
        "▁pric",
        -10.191303320883982
      ],
      [
        "eau",
        -10.944244681849543
      ],
      [
        "▁advise",
        -9.912028745128671
      ],
      [
        "▁lot",
        -7.254976108468275
      ],
      [
        "▁bay",
        -9.760641887762839
      ],
      [
        "▁th",
        -9.237088627257252
      ],
      [
        "▁yo",
        -11.72382369226988
      ],
      [
        "▁vi",
        -9.182863351817204
      ],
      [
        "▁lamp",
        -10.874636911660788
      ],
      [
        "▁fighter",
        -10.751396967838968
      ],
      [
        "▁g",
        -10.973761537441948
      ],
      [
        "▁101",
        -12.534622449071785
      ],
      [
        "▁small",
        -7.480286887005994
      ],
      [
        "▁verse",
        -10.873406829426363
      ],
      [
        "▁re-",
        -10.048096196068752
      ],
      [
        "▁context",
        -9.499181823347236
      ],
      [
        "▁worst",
        -9.365023829943588
      ],
      [
        "▁soft",
        -9.087275182123216
      ],
      [
        "▁progress",
        -9.406538376805553
      ],
      [
        "▁173",
        -13.542186875789044
      ],
      [
        "4/200",
        -11.696837855527704
      ],
      [
        "ough",
        -7.864059491155819
      ],
      [
        "▁freedom",
        -9.042938284269326
      ],
      [
        "▁oversea",
        -10.782366297352018
      ],
      [
        "▁confusi",
        -10.307486449810495
      ],
      [
        "▁125",
        -12.781539555372706
      ],
      [
        "▁entertain",
        -10.067874583479254
      ],
      [
        "▁expir",
        -10.730687461086424
      ],
      [
        "spread",
        -11.058155554233212
      ],
      [
        "▁some",
        -6.347888441191562
      ],
      [
        "▁gis",
        -10.57110895234702
      ],
      [
        "ag",
        -12.393280713458324
      ],
      [
        "▁attitude",
        -10.067870178719996
      ],
      [
        "▁pet",
        -9.005199560456031
      ],
      [
        "▁afford",
        -9.452129781111907
      ],
      [
        "worm",
        -10.583454550119928
      ],
      [
        "▁citizens",
        -9.124482097315614
      ],
      [
        "▁manag",
        -10.775037199945196
      ],
      [
        "other",
        -9.667747659629368
      ],
      [
        "e",
        -4.602601403317651
      ],
      [
        "▁intens",
        -10.697276582418837
      ],
      [
        "▁sheet",
        -9.412173756280888
      ],
      [
        "▁+",
        -12.359034424904078
      ],
      [
        "▁ya",
        -9.476042642476957
      ],
      [
        "and",
        -10.66544795153681
      ],
      [
        "art",
        -9.958388348485721
      ],
      [
        "▁convert",
        -10.029357588634547
      ],
      [
        "▁introduc",
        -10.203232039118486
      ],
      [
        "▁c",
        -10.178172696842289
      ],
      [
        "▁propriet",
        -10.873139103030102
      ],
      [
        "▁yard",
        -9.96212871517006
      ],
      [
        "▁coast",
        -9.245211602458163
      ],
      [
        "▁replace",
        -9.728311069313325
      ],
      [
        "hav",
        -9.281154885061614
      ],
      [
        "333",
        -14.345008994232288
      ],
      [
        "▁11",
        -8.972238801626698
      ],
      [
        "▁acupunctur",
        -11.209250208901995
      ],
      [
        "▁component",
        -9.574205450225609
      ],
      [
        "▁assign",
        -10.026196719945812
      ],
      [
        "▁coordinate",
        -11.07469193398495
      ],
      [
        "▁domain",
        -9.874948404542526
      ],
      [
        "▁l",
        -12.135684204254646
      ],
      [
        "▁104",
        -13.100297995490417
      ],
      [
        "▁muggle",
        -10.362555068385875
      ],
      [
        "centurie",
        -10.307192173720479
      ],
      [
        "▁visibl",
        -10.522547126650704
      ],
      [
        "▁psycholog",
        -9.850127191668175
      ],
      [
        "0-2",
        -13.137095825369885
      ],
      [
        "▁cave",
        -10.43148721028314
      ],
      [
        "987",
        -14.893421856703934
      ],
      [
        "▁0.00",
        -15.109614267568244
      ],
      [
        "▁split",
        -10.111412663335075
      ],
      [
        "▁evaluat",
        -10.11030663666757
      ],
      [
        "▁interpretation",
        -10.623802134642816
      ],
      [
        "▁particular",
        -8.074493172981779
      ],
      [
        "mo",
        -11.05508503396024
      ],
      [
        "▁remove",
        -9.406550559239609
      ],
      [
        "26",
        -11.044531444058311
      ],
      [
        "▁proposal",
        -9.059077472345734
      ],
      [
        "▁playwright",
        -10.69891107249346
      ],
      [
        "448",
        -13.685044922631343
      ],
      [
        "mu",
        -12.904897371489005
      ],
      [
        "▁temper",
        -10.627167153924646
      ],
      [
        "▁prompt",
        -10.156751031977663
      ],
      [
        "991",
        -12.803767022995844
      ],
      [
        "ether",
        -7.940213336792466
      ],
      [
        "▁disappear",
        -9.986149174007394
      ],
      [
        "-------------",
        -10.204800430093533
      ],
      [
        "▁stand",
        -8.48568162038282
      ],
      [
        "ch",
        -12.08501243113893
      ],
      [
        "▁compensation",
        -11.084250316031385
      ],
      [
        "▁adviser",
        -10.9832161353241
      ],
      [
        "▁07/1",
        -11.467963282922424
      ],
      [
        "ter",
        -10.432873965842234
      ],
      [
        "9/200",
        -11.994173130074634
      ],
      [
        "▁guine",
        -10.701770642640586
      ],
      [
        "▁bone",
        -9.337231429640692
      ],
      [
        "▁god",
        -9.188733570179135
      ],
      [
        "196",
        -13.559621706648938
      ],
      [
        "cion",
        -13.357598950459646
      ],
      [
        "▁virus",
        -10.726878509670541
      ],
      [
        "▁cancel",
        -10.307090867762613
      ],
      [
        "▁estimate",
        -9.138903684888549
      ],
      [
        "▁192",
        -11.94057202446741
      ],
      [
        "▁kenya",
        -10.783191077851953
      ],
      [
        "▁trans",
        -9.478156993461104
      ],
      [
        "▁09:",
        -12.264147356493273
      ],
      [
        "k",
        -6.579221920333712
      ],
      [
        "****",
        -11.720199025079861
      ],
      [
        "der",
        -9.41767434140326
      ],
      [
        "^",
        -10.478257699563933
      ],
      [
        "▁stand",
        -11.833815694314197
      ],
      [
        "▁intercept",
        -10.624012815314838
      ],
      [
        "▁04:3",
        -12.39975877017382
      ],
      [
        "▁fleet",
        -11.101417952336762
      ],
      [
        "ne",
        -10.32490622756281
      ],
      [
        "▁drag",
        -10.77971198718258
      ],
      [
        "▁represent",
        -9.154597405317043
      ],
      [
        "▁prevent",
        -9.28467835523149
      ],
      [
        "ch",
        -7.661779220352708
      ],
      [
        "6/",
        -13.566124420789025
      ],
      [
        "big",
        -10.674406848126722
      ],
      [
        "1.8",
        -12.279299099288766
      ],
      [
        "der",
        -13.597667753359055
      ],
      [
        "▁8:",
        -14.495891278240808
      ],
      [
        "pain",
        -10.218243166514805
      ],
      [
        "▁malfo",
        -10.545441264749448
      ],
      [
        "▁collaboration",
        -10.698896673538517
      ],
      [
        "▁its",
        -7.72296247419334
      ],
      [
        "ct",
        -9.519962088824977
      ],
      [
        "aden",
        -11.835808419303513
      ],
      [
        "card",
        -10.855799991764098
      ],
      [
        "▁karl",
        -11.138561168755805
      ],
      [
        "▁=",
        -10.869655881095504
      ],
      [
        "enti",
        -12.154891043607538
      ],
      [
        "leur",
        -11.834203543590597
      ],
      [
        "▁ensure",
        -8.961981733224443
      ],
      [
        "▁04:0",
        -12.773739120218524
      ],
      [
        "▁31",
        -10.323166577539656
      ],
      [
        "▁altho",
        -8.78807180982115
      ],
      [
        "77.9",
        -13.136809847545772
      ],
      [
        "▁spawn",
        -10.973150881821585
      ],
      [
        "▁wave",
        -9.570787027686935
      ],
      [
        "ennes",
        -10.796096449398352
      ],
      [
        "▁extend",
        -9.441025206889728
      ],
      [
        "▁inherit",
        -11.084258142103687
      ],
      [
        "00",
        -9.552396791548091
      ],
      [
        "▁studie",
        -8.624769454639594
      ],
      [
        "▁try",
        -7.005844211039414
      ],
      [
        "▁110",
        -11.62840249240278
      ],
      [
        "most",
        -8.003636098482094
      ],
      [
        "▁proclaim",
        -10.698896673649921
      ],
      [
        "▁tre",
        -9.99675730152057
      ],
      [
        "========",
        -13.622794927605998
      ],
      [
        "▁consume",
        -10.874568066413355
      ],
      [
        "▁130",
        -11.559624943780829
      ],
      [
        "▁quack",
        -11.08436752076589
      ],
      [
        "ls",
        -11.685671346963833
      ],
      [
        "▁limb",
        -10.310116894117115
      ],
      [
        "▁examin",
        -10.40894579969902
      ],
      [
        "▁nam",
        -10.715254853365963
      ],
      [
        "ko",
        -10.171531401936111
      ],
      [
        "▁shi",
        -9.905409963856581
      ],
      [
        "▁insur",
        -9.684315478334035
      ],
      [
        "▁inter",
        -11.373820383720101
      ],
      [
        "▁sh",
        -10.592138988891902
      ],
      [
        "▁submit",
        -10.774283065120187
      ],
      [
        "▁thursday",
        -7.856581047404715
      ],
      [
        "oatme",
        -10.778654167455992
      ],
      [
        "'",
        -4.0655443185469125
      ],
      [
        "▁violen",
        -10.275246393532708
      ],
      [
        "ber",
        -8.531894994131164
      ],
      [
        "▁crawl",
        -10.364160186954878
      ],
      [
        "▁saving",
        -9.8750496430442
      ],
      [
        "ty",
        -8.090588672545262
      ],
      [
        "▁158",
        -10.771498006496458
      ],
      [
        "▁structure",
        -8.97181510545484
      ],
      [
        "▁make",
        -6.219561785689263
      ],
      [
        "▁california",
        -8.719536748899348
      ],
      [
        "▁levi",
        -10.975562109103297
      ],
      [
        "▁196",
        -10.370659192566032
      ],
      [
        "▁declar",
        -10.622410322076888
      ],
      [
        "▁jen",
        -10.192215785259375
      ],
      [
        "☏",
        -11.333785825435129
      ],
      [
        "▁devis",
        -10.87324435224186
      ],
      [
        "▁explanation",
        -10.067815841448223
      ],
      [
        "uku",
        -11.087162493303367
      ],
      [
        "▁chill",
        -10.421908704354923
      ],
      [
        "unch",
        -9.967894023839056
      ],
      [
        "▁fill",
        -8.628277715786927
      ],
      [
        "▁300",
        -10.870247792781871
      ],
      [
        "---->",
        -11.77556405770272
      ],
      [
        "▁pose",
        -10.463703333316438
      ],
      [
        "▁damp",
        -10.78306869389326
      ],
      [
        "▁america",
        -8.542401033813977
      ],
      [
        "▁commit",
        -10.355009632428231
      ],
      [
        "▁probabl",
        -7.851997216658618
      ],
      [
        "▁eight",
        -9.499355804534087
      ],
      [
        "6:5",
        -14.245778065733244
      ],
      [
        "▁famous",
        -9.548565740227971
      ],
      [
        "▁equal",
        -8.676298482692705
      ],
      [
        "ure",
        -10.031878759712527
      ],
      [
        "▁important",
        -8.002763386549248
      ],
      [
        "▁interest",
        -7.787926889177925
      ],
      [
        "▁hussein",
        -10.782230467622774
      ],
      [
        "▁tax",
        -9.11545409270111
      ],
      [
        "▁regime",
        -10.026149204420754
      ],
      [
        "▁work",
        -11.833785839142507
      ],
      [
        "▁sat",
        -8.862345412538494
      ],
      [
        "▁fu",
        -10.838216383094366
      ],
      [
        "▁hold",
        -8.12880221659761
      ],
      [
        "▁ghost",
        -9.840453805032464
      ],
      [
        "ese",
        -13.969336546849245
      ],
      [
        "aire",
        -10.840174721895481
      ],
      [
        "▁right",
        -11.051770298862332
      ],
      [
        "▁900",
        -12.658041398971825
      ],
      [
        "▁grandmother",
        -9.226677100744084
      ],
      [
        "webb",
        -10.458036043343027
      ],
      [
        "▁record",
        -8.22145530443655
      ],
      [
        "▁curl",
        -10.262438417185006
      ],
      [
        "▁wi",
        -14.407127597437647
      ],
      [
        "▁kitten",
        -9.685640591011255
      ],
      [
        "craft",
        -8.465931625215793
      ],
      [
        "▁gel",
        -10.226393329864846
      ],
      [
        "mike",
        -8.877175224612067
      ],
      [
        "▁95",
        -12.338386007555426
      ],
      [
        "▁specific",
        -8.555523053861052
      ],
      [
        "##",
        -12.843222124950998
      ],
      [
        "▁ship",
        -8.751198079522283
      ],
      [
        "ell",
        -8.400179467499125
      ],
      [
        "▁measur",
        -10.633267776087362
      ],
      [
        "▁bat",
        -9.819321890693324
      ],
      [
        "▁goose",
        -10.699703285467194
      ],
      [
        "▁gulf",
        -9.683899644226974
      ],
      [
        "aja",
        -10.335956040603655
      ],
      [
        "▁surrounding",
        -10.094025701751434
      ],
      [
        "cou",
        -7.440679466282132
      ],
      [
        "▁alon",
        -8.708524258632071
      ],
      [
        "▁struggl",
        -10.893942819916926
      ],
      [
        "▁burger",
        -10.698897093764923
      ],
      [
        "▁hot",
        -8.14822413221919
      ],
      [
        "▁fell",
        -8.68069308248754
      ],
      [
        "fall",
        -10.947059439621203
      ],
      [
        "hos",
        -10.117195108246431
      ],
      [
        "▁original",
        -8.679665516292978
      ],
      [
        "▁bob",
        -10.174999737101915
      ],
      [
        "ß",
        -12.833785825435129
      ],
      [
        "y@e",
        -11.877703282032476
      ],
      [
        "▁ramp",
        -11.115502458776644
      ],
      [
        "y",
        -9.961283824744118
      ],
      [
        "ck",
        -11.501990416744686
      ],
      [
        "▁eliminate",
        -10.470145627569334
      ],
      [
        "1,000",
        -11.273927685449541
      ],
      [
        "▁pregnan",
        -10.483878886229391
      ],
      [
        "▁sussex",
        -10.973217328020851
      ],
      [
        "▁commercial",
        -9.914974561915265
      ],
      [
        "▁09:5",
        -13.197391014154238
      ],
      [
        "▁old",
        -7.310560369202452
      ],
      [
        "▁description",
        -9.910656727339655
      ],
      [
        "▁ld2d-#693",
        -10.782014692013936
      ],
      [
        "▁wan",
        -6.751432946378942
      ],
      [
        "583",
        -14.127899028574245
      ],
      [
        "▁computer",
        -8.73147166072241
      ],
      [
        "▁08",
        -11.701778809336425
      ],
      [
        "▁meaning",
        -9.363749474879175
      ],
      [
        "6",
        -8.138127856803997
      ],
      [
        "▁expand",
        -9.62754889763127
      ],
      [
        "senate",
        -9.538170651173187
      ],
      [
        "▁cere",
        -9.60966486245737
      ],
      [
        "35",
        -11.398557063167647
      ],
      [
        "▁03:5",
        -12.716987644101394
      ],
      [
        "▁never",
        -7.33205107815935
      ],
      [
        "www",
        -7.609954759208668
      ],
      [
        "▁type",
        -7.955060114102133
      ],
      [
        "▁fir",
        -11.005064603428156
      ],
      [
        "▁staff",
        -8.392583685843418
      ],
      [
        "pos",
        -10.531974967040128
      ],
      [
        "▁s.",
        -10.629615480501325
      ],
      [
        "▁dand",
        -9.800602745083477
      ],
      [
        "rafa",
        -10.48489421567825
      ],
      [
        "▁principle",
        -9.655739769141405
      ],
      [
        "993",
        -12.980437086431532
      ],
      [
        "▁mont",
        -11.406343531014489
      ],
      [
        "▁6,",
        -14.13778527497731
      ],
      [
        "▁+4",
        -13.201922390698039
      ],
      [
        "_",
        -4.842285251919584
      ],
      [
        "3",
        -9.772266817123711
      ],
      [
        "▁http://www.",
        -8.392589460174051
      ],
      [
        "world",
        -10.847732144510667
      ],
      [
        "▁guess",
        -8.361273816921969
      ],
      [
        ")",
        -11.209250208901656
      ],
      [
        "▁religion",
        -9.745647089162334
      ],
      [
        "▁interesting",
        -8.931349890317577
      ],
      [
        "▁salon",
        -10.067976965406952
      ],
      [
        "▁government",
        -7.811072301366397
      ],
      [
        "▁neat",
        -9.98675036149088
      ],
      [
        "▁break",
        -8.368927317035848
      ],
      [
        "▁7:",
        -14.019212079305508
      ],
      [
        "ground",
        -10.4688275124849
      ],
      [
        "▁ticket",
        -8.575707893009891
      ],
      [
        "▁1-8",
        -14.246827685336344
      ],
      [
        "▁02:2",
        -13.25195685742674
      ],
      [
        "▁09/",
        -14.713481892351869
      ],
      [
        "-b",
        -10.20473189415127
      ],
      [
        "▁fanc",
        -10.893751222368946
      ],
      [
        "▁flew",
        -10.698948896580314
      ],
      [
        "▁169",
        -11.526929689379745
      ],
      [
        "▁sudden",
        -9.190705426951736
      ],
      [
        "▁religious",
        -9.302902067918337
      ],
      [
        "▁basi",
        -9.223738261959738
      ],
      [
        "▁grandpa",
        -10.362736284755862
      ],
      [
        "▁mw",
        -9.581225861602999
      ],
      [
        "▁enter",
        -8.9423131211093
      ],
      [
        "▁dramatic",
        -10.36285685661835
      ],
      [
        "com",
        -13.080497432130679
      ],
      [
        "▁file",
        -7.984895254788771
      ],
      [
        "▁quote",
        -9.39944893569014
      ],
      [
        "▁quit",
        -8.420873754523155
      ],
      [
        "▁people",
        -6.380760520832734
      ],
      [
        "2.7",
        -13.14138521051941
      ],
      [
        "eve",
        -10.31123112989284
      ],
      [
        "▁conservative",
        -10.62197359668251
      ],
      [
        "▁wav",
        -10.50523074739857
      ],
      [
        "▁w",
        -7.461263287664002
      ],
      [
        "▁career",
        -9.257862110978383
      ],
      [
        "▁day",
        -6.499656336635169
      ],
      [
        "hart",
        -11.115647759512429
      ],
      [
        "▁argue",
        -9.735920345149957
      ],
      [
        "▁despair",
        -11.084250660253193
      ],
      [
        "▁remov",
        -10.112540553961557
      ],
      [
        "▁cheat",
        -11.096980311244085
      ],
      [
        "▁assist",
        -9.661615380039985
      ],
      [
        "▁kansa",
        -8.539770468004393
      ],
      [
        "▁spa",
        -9.964297801236437
      ],
      [
        "▁statistic",
        -10.307018090689445
      ],
      [
        "▁texa",
        -8.624730545374206
      ],
      [
        "▁cou",
        -10.858686679206002
      ],
      [
        "▁govern",
        -10.256767498350003
      ],
      [
        "▁intelligence",
        -9.344131926337223
      ],
      [
        "▁kam",
        -11.998371256610428
      ],
      [
        "▁forgive",
        -10.550888287078159
      ],
      [
        "▁potato",
        -10.156750059154401
      ],
      [
        "▁regulator",
        -10.698896678679944
      ],
      [
        "▁seize",
        -10.783235157277478
      ],
      [
        "▁me",
        -11.596167386121415
      ],
      [
        "▁mon",
        -12.772607019781637
      ],
      [
        "▁planet",
        -10.084986055885649
      ],
      [
        "20",
        -12.731670396565669
      ],
      [
        "▁pott",
        -9.160962953611826
      ],
      [
        "sterda",
        -8.589585837541332
      ],
      [
        "bye",
        -10.207259023339528
      ],
      [
        "▁conc",
        -9.912125946303878
      ],
      [
        "▁your",
        -5.91319889996456
      ],
      [
        ";",
        -12.303437246021387
      ],
      [
        "▁partner",
        -10.349314017229075
      ],
      [
        "▁extension",
        -10.782421892818691
      ],
      [
        "pace",
        -10.307700526706347
      ],
      [
        "ll",
        -9.832496415041206
      ],
      [
        "▁ambulance",
        -10.782230293840053
      ],
      [
        "colin",
        -11.187993983627077
      ],
      [
        "▁plain",
        -10.254850169072167
      ],
      [
        "▁hint",
        -10.363557216605296
      ],
      [
        "igh",
        -12.634214216105145
      ],
      [
        "alle",
        -12.346705581634012
      ],
      [
        "▁participant",
        -9.68389736136428
      ],
      [
        "thr",
        -11.182826915678534
      ],
      [
        "5-4",
        -14.479836965446822
      ],
      [
        "古",
        -12.833785825435129
      ],
      [
        "▁sacre",
        -11.084314192861953
      ],
      [
        "quino",
        -10.50548062386088
      ],
      [
        "m",
        -6.691091665117427
      ],
      [
        "aine",
        -10.528294195106865
      ],
      [
        "▁michael",
        -9.173094140490939
      ],
      [
        "▁arena",
        -10.98263708754326
      ],
      [
        "...",
        -9.005493748066165
      ],
      [
        "▁prob",
        -11.152579614308333
      ],
      [
        "hind",
        -10.593946018264361
      ],
      [
        "▁deadline",
        -11.085482313062178
      ],
      [
        "_",
        -4.782693395996079
      ],
      [
        "▁kevin",
        -10.621982221740751
      ],
      [
        "▁gambl",
        -10.97501707193252
      ],
      [
        "▁30",
        -11.084408056997974
      ],
      [
        "▁alaska",
        -10.156753017189542
      ],
      [
        "▁delete",
        -10.255928178726741
      ],
      [
        "▁colonial",
        -10.622151486750308
      ],
      [
        "▁swap",
        -10.98790692180973
      ],
      [
        "▁leg",
        -8.52740958223249
      ],
      [
        "/13/200",
        -12.943764559729503
      ],
      [
        "▁igua",
        -10.78223662630943
      ],
      [
        "ell",
        -11.871927484342326
      ],
      [
        "▁gentlem",
        -11.116521412924591
      ],
      [
        "▁beer",
        -9.758706235684162
      ],
      [
        "en",
        -9.930597159475044
      ],
      [
        "▁malaysia",
        -10.483878648183122
      ],
      [
        "▁range",
        -9.395393356462982
      ],
      [
        "1-9",
        -13.133680507267583
      ],
      [
        "water",
        -11.060697177913504
      ],
      [
        "▁choo",
        -10.111816456168068
      ],
      [
        "▁korea",
        -9.264070823341518
      ],
      [
        "▁fourth",
        -9.499175065965673
      ],
      [
        "▁perceive",
        -10.421391781380118
      ],
      [
        "▁h",
        -11.05111200066364
      ],
      [
        "▁eric",
        -11.089220440443952
      ],
      [
        "▁grande",
        -11.042194639497195
      ],
      [
        "▁fund",
        -8.570628459796676
      ],
      [
        "▁replication",
        -9.807120223429534
      ],
      [
        "▁solution",
        -9.139008841750574
      ],
      [
        "▁minister",
        -9.52359771966728
      ],
      [
        "▁281-51",
        -14.136807499320867
      ],
      [
        "▁bangladesh",
        -10.867528499405825
      ],
      [
        "▁202.456.1",
        -12.340123241055275
      ],
      [
        "hiri",
        -9.48853398584903
      ],
      [
        "▁traveler",
        -10.301337493693392
      ],
      [
        "3.9",
        -15.105236235809905
      ],
      [
        "748",
        -13.395315422654793
      ],
      [
        "▁973-",
        -13.136809148661035
      ],
      [
        "▁disease",
        -9.807120640069353
      ],
      [
        "▁345-",
        -11.796213981224737
      ],
      [
        "1918",
        -11.546116586931637
      ],
      [
        "9/11/",
        -14.264817947757411
      ],
      [
        "478",
        -12.69529157028718
      ],
      [
        "▁floor",
        -8.316029719346911
      ],
      [
        "▁interference",
        -10.973194083582447
      ],
      [
        "▁bowl",
        -8.915394627159664
      ],
      [
        "▁clock",
        -9.991985763781523
      ],
      [
        "▁03/0",
        -11.442809681049695
      ],
      [
        "▁laptop",
        -10.973202611702124
      ],
      [
        "yours",
        -13.835769279562863
      ],
      [
        "▁see",
        -5.838848389374716
      ],
      [
        "▁/",
        -8.874696097338479
      ],
      [
        "▁found",
        -7.662833526269344
      ],
      [
        "▁spread",
        -9.69042270384654
      ],
      [
        "▁lip",
        -10.716563262835749
      ],
      [
        "▁26",
        -10.232134791583128
      ],
      [
        "▁copy",
        -8.863153176486648
      ],
      [
        "go",
        -10.366859053500345
      ],
      [
        "for",
        -13.304615301027065
      ],
      [
        "▁tho",
        -8.708963387563907
      ],
      [
        "▁climb",
        -9.208533246993113
      ],
      [
        "▁sake",
        -10.363180213463842
      ],
      [
        "▁44",
        -11.794641251323517
      ],
      [
        "▁format",
        -9.215496976939292
      ],
      [
        "▁face",
        -7.830147147524809
      ],
      [
        "▁citizen",
        -10.413194021631194
      ],
      [
        "ph",
        -9.19379313167126
      ],
      [
        "ap",
        -9.602738098524734
      ],
      [
        "hol",
        -9.001898470515815
      ],
      [
        "▁speci",
        -9.454967013155025
      ],
      [
        "▁slide",
        -9.812433983068232
      ],
      [
        "▁novel",
        -9.172996285008711
      ],
      [
        "▁stage",
        -9.524200866182348
      ],
      [
        "▁smooth",
        -9.986149370242641
      ],
      [
        "▁go",
        -11.944803889857337
      ],
      [
        "▁iso",
        -10.295115650840907
      ],
      [
        "▁point",
        -7.510069509956769
      ],
      [
        "▁cross",
        -9.251971021589094
      ],
      [
        "▁start",
        -7.19167079149622
      ],
      [
        "ier",
        -9.34119833028225
      ],
      [
        "▁202-",
        -14.080987957304744
      ],
      [
        "▁103",
        -13.542774831643694
      ],
      [
        "▁telephone",
        -9.574805872846179
      ],
      [
        "▁license",
        -8.591303536205135
      ],
      [
        "▁uneas",
        -10.782399240010704
      ],
      [
        "▁cher",
        -10.310361936095527
      ],
      [
        "▁pete",
        -10.672562620191462
      ],
      [
        "with",
        -7.833760072330719
      ],
      [
        "▁ros",
        -10.315188558753325
      ],
      [
        "▁comp",
        -10.606307807147635
      ],
      [
        "rre",
        -12.785449329254648
      ],
      [
        "▁debr",
        -9.94937054825209
      ],
      [
        "▁excuse",
        -9.910653110012877
      ],
      [
        "▁anti-",
        -10.254052816132312
      ],
      [
        "▁mask",
        -10.307595552842113
      ],
      [
        "▁cream",
        -9.499298788801497
      ],
      [
        "▁trading",
        -9.743831549720417
      ],
      [
        "▁michel",
        -9.986261830264219
      ],
      [
        "▁praise",
        -10.550639873702657
      ],
      [
        "▁prominen",
        -10.550555865702448
      ],
      [
        "▁expect",
        -8.766445120151669
      ],
      [
        "▁159",
        -10.436268207533201
      ],
      [
        "9/11",
        -11.116867274471282
      ],
      [
        "▁vari",
        -8.854523724566267
      ],
      [
        "▁cre",
        -9.75173742468125
      ],
      [
        "▁kid",
        -8.09327007034939
      ],
      [
        "▁bump",
        -9.774989649407399
      ],
      [
        "▁dutch",
        -11.086037303387592
      ],
      [
        "270",
        -11.860042949136494
      ],
      [
        "al",
        -6.142243271179995
      ],
      [
        "▁c",
        -7.001118939860497
      ],
      [
        "iction",
        -10.204757985612193
      ],
      [
        "393",
        -11.979993705934664
      ],
      [
        "▁monet",
        -10.783135400373645
      ],
      [
        "▁rebuild",
        -10.698896673564077
      ],
      [
        "▁pattern",
        -10.027924204451505
      ],
      [
        "▁await",
        -10.78225767087819
      ],
      [
        "45",
        -10.783123716427063
      ],
      [
        "▁consider",
        -8.115239313969617
      ],
      [
        "▁....",
        -10.491737081619904
      ],
      [
        "▁crowd",
        -9.476926501554429
      ],
      [
        "enc",
        -12.091943752111558
      ],
      [
        "▁than",
        -7.291350501791546
      ],
      [
        "▁electric",
        -9.155873102452997
      ],
      [
        "842",
        -12.352497377056995
      ],
      [
        "▁danger",
        -10.420966351361226
      ],
      [
        "▁surge",
        -10.957249968147579
      ],
      [
        "▁2051",
        -13.376212310261275
      ],
      [
        "▁protection",
        -9.157104932572686
      ],
      [
        "▁africa",
        -9.317285166381232
      ],
      [
        "▁prepar",
        -10.273962222283009
      ],
      [
        "▁threaten",
        -10.114871678192507
      ],
      [
        "▁jane",
        -10.57102750948751
      ],
      [
        "▁very",
        -6.286171042541993
      ],
      [
        "▁cruel",
        -10.306999290650564
      ],
      [
        "ee",
        -10.720525926017277
      ],
      [
        "▁exceed",
        -10.69897964127641
      ],
      [
        "158",
        -13.40478322388883
      ],
      [
        "▁platform",
        -10.483878480825059
      ],
      [
        "▁guitar",
        -11.08425207516053
      ],
      [
        "-2",
        -11.920185692866024
      ],
      [
        "▁transfer",
        -9.944879689827333
      ],
      [
        "▁cheese",
        -8.824422308160722
      ],
      [
        "▁blue",
        -8.280875964494069
      ],
      [
        "▁compassion",
        -11.084250339928246
      ],
      [
        "▁gu",
        -11.83470245911374
      ],
      [
        "▁coordinati",
        -10.737767436303987
      ],
      [
        "▁catholic",
        -9.98614961608647
      ],
      [
        "▁coinciden",
        -10.87570454632011
      ],
      [
        "▁momm",
        -8.900877225897347
      ],
      [
        "▁killing",
        -10.080638348429739
      ],
      [
        "▁fantas",
        -9.385436011380662
      ],
      [
        "ological",
        -10.202655226948623
      ],
      [
        "▁accurate",
        -9.876345296489148
      ],
      [
        "▁grand",
        -9.486132052799874
      ],
      [
        "▁fifteen",
        -10.550682654688673
      ],
      [
        "▁a.m.",
        -10.306999344926188
      ],
      [
        "4-3",
        -14.138263700674802
      ],
      [
        "igh",
        -11.333586498143701
      ],
      [
        "emur",
        -11.086454378557322
      ],
      [
        "▁offer",
        -8.200846703104524
      ],
      [
        "▁print",
        -9.079069130684047
      ],
      [
        "·",
        -9.904817571414563
      ],
      [
        "▁mill",
        -9.334516367393032
      ],
      [
        "g&",
        -11.096875282320301
      ],
      [
        "▁attract",
        -9.573211839924856
      ],
      [
        "alaba",
        -10.553160435148431
      ],
      [
        "▁section",
        -8.96936023308644
      ],
      [
        "▁parakeet",
        -10.550548088041714
      ],
      [
        "ul",
        -12.144280310333313
      ],
      [
        "way",
        -8.645593651391923
      ],
      [
        "▁06",
        -14.83179025567944
      ],
      [
        "▁immediate",
        -9.042831836157855
      ],
      [
        "6-",
        -13.674574631379441
      ],
      [
        "▁fo",
        -12.838710837665342
      ],
      [
        "▁diar",
        -10.814708615417334
      ],
      [
        "▁debut",
        -10.973148977735374
      ],
      [
        "350",
        -12.885860862238697
      ],
      [
        "▁odara",
        -10.698898615638793
      ],
      [
        "▁1.1",
        -12.839654478651052
      ],
      [
        "▁over",
        -7.215890673759658
      ],
      [
        "roni",
        -10.076164355454045
      ],
      [
        "vice",
        -10.991484439698185
      ],
      [
        "▁pharmac",
        -11.08428303859035
      ],
      [
        "▁clay",
        -10.036692393104618
      ],
      [
        "▁hindu",
        -10.622829783229722
      ],
      [
        "ans",
        -11.365661282671361
      ],
      [
        "ketch",
        -10.620191418066447
      ],
      [
        "▁execute",
        -9.950429432794612
      ],
      [
        "andi",
        -12.83477122878123
      ],
      [
        "775",
        -14.140826648569249
      ],
      [
        "▁necessar",
        -8.776369707705634
      ],
      [
        "▁eas",
        -8.417393767588418
      ],
      [
        "▁body",
        -8.653921081638945
      ],
      [
        "pa",
        -9.569752882756
      ],
      [
        "▁marshmallow",
        -11.084250208893467
      ],
      [
        "▁photos",
        -10.526877231653692
      ],
      [
        "▁01:09",
        -13.137174343487052
      ],
      [
        "▁stor",
        -8.846270410517615
      ],
      [
        "598",
        -13.839166517124484
      ],
      [
        "1.5",
        -12.304039930639782
      ],
      [
        "▁previous",
        -9.302902073948548
      ],
      [
        "scope",
        -10.616551876894624
      ],
      [
        "▁announce",
        -9.698459758573577
      ],
      [
        "▁consideration",
        -10.317718589990287
      ],
      [
        "▁memorial",
        -10.69962452396595
      ],
      [
        "▁boxe",
        -9.929398466386692
      ],
      [
        "+++",
        -13.65833462004859
      ],
      [
        "49",
        -12.046337643457095
      ],
      [
        "▁actor",
        -10.073684881401038
      ],
      [
        "yak",
        -12.407901019823496
      ],
      [
        "hel",
        -10.637973102244
      ],
      [
        "▁fisher",
        -10.761796186666158
      ],
      [
        "exp",
        -11.079750208025743
      ],
      [
        "▁nw",
        -11.09150879260685
      ],
      [
        "▁alway",
        -7.494077491090276
      ],
      [
        "▁invi",
        -10.697438658865801
      ],
      [
        "▁announc",
        -11.027299889948766
      ],
      [
        "/23/200",
        -12.34064088726252
      ],
      [
        "daro",
        -12.83364613195101
      ],
      [
        "▁landscape",
        -10.69898664452392
      ],
      [
        "cc",
        -10.689679487776266
      ],
      [
        "▁mystery",
        -10.483879285138752
      ],
      [
        "shima",
        -10.422041543253608
      ],
      [
        "▁favor",
        -10.218145956383685
      ],
      [
        "▁22",
        -10.168178807948134
      ],
      [
        "▁cost",
        -7.890335100128528
      ],
      [
        "mar",
        -11.87875920010933
      ],
      [
        "ex",
        -9.281783810318018
      ],
      [
        "▁!!!!",
        -9.884799963893974
      ],
      [
        "▁hig",
        -10.422960124931194
      ],
      [
        "▁30,",
        -14.133461492039805
      ],
      [
        "▁civilize",
        -10.484638688785727
      ],
      [
        "▁brad",
        -10.750187136980092
      ],
      [
        "▁lanka",
        -10.11130469733655
      ],
      [
        "/",
        -8.28130137214163
      ],
      [
        "ball",
        -9.09661753047598
      ],
      [
        "▁red",
        -7.783137707258103
      ],
      [
        "▁bed",
        -8.215960128509394
      ],
      [
        "▁cat",
        -8.124233478207891
      ],
      [
        "▁minute",
        -7.811016186378632
      ],
      [
        "tra",
        -9.16681307067288
      ],
      [
        "g",
        -6.298432668733279
      ],
      [
        "▁#",
        -13.65519821920551
      ],
      [
        "hich",
        -14.237104677914536
      ],
      [
        "77",
        -12.614120500178377
      ],
      [
        "▁advert",
        -10.548019548208648
      ],
      [
        "▁accumulat",
        -10.421378364614814
      ],
      [
        "▁ken",
        -9.94309372024912
      ],
      [
        "▁executive",
        -9.574310482411583
      ],
      [
        "▁festival",
        -9.840453556947086
      ],
      [
        "▁04",
        -11.318655228848783
      ],
      [
        "▁monster",
        -9.743650427204727
      ],
      [
        "▁caus",
        -10.089274306493337
      ],
      [
        "▁rhino",
        -10.782230774427454
      ],
      [
        "▁david",
        -9.208572012563035
      ],
      [
        "igator",
        -9.92405412604732
      ],
      [
        "▁palm",
        -10.552353164152596
      ],
      [
        "ove",
        -12.445527802350513
      ],
      [
        "▁st",
        -9.101820277451566
      ],
      [
        "▁minimum",
        -9.947854574504623
      ],
      [
        "tor",
        -10.223750643728716
      ],
      [
        "▁maintain",
        -9.105890714259296
      ],
      [
        "▁calculate",
        -10.679327286921296
      ],
      [
        "▁kenne",
        -10.88843385498139
      ],
      [
        "▁syria",
        -9.452126335801273
      ],
      [
        "itis",
        -10.803939841273074
      ],
      [
        "ive",
        -7.438170158579913
      ],
      [
        "century",
        -8.861814597322066
      ],
      [
        "▁attorney",
        -10.06781585101849
      ],
      [
        "514",
        -14.796244535458388
      ],
      [
        "▁brick",
        -10.623329055792299
      ],
      [
        "°",
        -10.873139097778193
      ],
      [
        "▁bett",
        -10.25937266338087
      ],
      [
        "▁ab",
        -9.647374556664316
      ],
      [
        "▁what",
        -5.09320280019549
      ],
      [
        "▁curious",
        -10.42140571106518
      ],
      [
        "▁4",
        -10.546337851859157
      ],
      [
        "▁154",
        -12.837464354786793
      ],
      [
        "how",
        -9.316137233815837
      ],
      [
        "96",
        -11.613919797726455
      ],
      [
        "▁winter",
        -8.969460994157373
      ],
      [
        "▁american",
        -7.120184207789342
      ],
      [
        "▁inspire",
        -10.143604303538792
      ],
      [
        "▁kni",
        -10.596344908148108
      ],
      [
        "▁gender",
        -9.840462036102746
      ],
      [
        "01",
        -10.77805322712215
      ],
      [
        "509",
        -14.165141654191874
      ],
      [
        "▁33",
        -11.540855205242467
      ],
      [
        "tra",
        -11.286326700046635
      ],
      [
        "▁muslim",
        -9.910720331479082
      ],
      [
        "300",
        -11.818994592795601
      ],
      [
        "up",
        -8.753341417653877
      ],
      [
        "▁manufactur",
        -10.299318190157647
      ],
      [
        "val",
        -11.348403420490468
      ],
      [
        "▁leaders",
        -9.262508924031085
      ],
      [
        "nati",
        -8.954267253539141
      ],
      [
        "▁scenario",
        -10.362554829206719
      ],
      [
        "▁chose",
        -9.94977758220172
      ],
      [
        "3.30",
        -13.842287739511173
      ],
      [
        "▁creature",
        -10.873491934802917
      ],
      [
        "▁method",
        -8.839900117692412
      ],
      [
        "▁171",
        -13.30374834720713
      ],
      [
        "▁13",
        -9.708661677019629
      ],
      [
        "▁ignoran",
        -10.418740680810062
      ],
      [
        "▁generat",
        -9.808678830356046
      ],
      [
        "ara",
        -11.66586477604424
      ],
      [
        "▁metropoli",
        -11.087056827575786
      ],
      [
        "▁strain",
        -9.986977529289321
      ],
      [
        "▁package",
        -9.948561433355973
      ],
      [
        "▁thai",
        -10.38073892146368
      ],
      [
        "▁groom",
        -10.975621635738317
      ],
      [
        "▁09/1",
        -12.073086897726844
      ],
      [
        "ri",
        -11.447435099548533
      ],
      [
        "▁instruct",
        -11.08251156546368
      ],
      [
        "▁hers",
        -12.827484547626566
      ],
      [
        "ν",
        -12.833785825435129
      ],
      [
        "▁weak",
        -10.202090896816824
      ],
      [
        "▁3-52",
        -13.137000630792741
      ],
      [
        "▁baghdad",
        -10.483878437726085
      ],
      [
        "8-37",
        -14.882399749141348
      ],
      [
        "ill",
        -9.453818242452195
      ],
      [
        "▁look",
        -6.034835599619774
      ],
      [
        "▁shade",
        -10.309871582071008
      ],
      [
        "ismo",
        -12.834074781890388
      ],
      [
        "▁no-4",
        -13.278173271145704
      ],
      [
        "se",
        -10.75939678579618
      ],
      [
        "▁joe",
        -9.827669453329218
      ],
      [
        "amp",
        -10.90385813468465
      ],
      [
        "▁secret",
        -9.384886660890212
      ],
      [
        "▁hor",
        -11.464129427629091
      ],
      [
        "▁tail",
        -9.208738562798509
      ],
      [
        "▁marble",
        -9.807346870279488
      ],
      [
        "▁185",
        -11.266486185287963
      ],
      [
        "▁out",
        -6.829099427277347
      ],
      [
        "gli",
        -10.823220541600403
      ],
      [
        "▁full",
        -7.8561436211605615
      ],
      [
        "▁acquis",
        -10.973147954828356
      ],
      [
        "ologist",
        -10.814534167684823
      ],
      [
        "▁bye",
        -9.36185392941211
      ],
      [
        "na",
        -8.649351000055063
      ],
      [
        "▁slope",
        -10.876390896588362
      ],
      [
        "▁violation",
        -10.783419453835855
      ],
      [
        "▁45",
        -11.407942744300977
      ],
      [
        "▁tur",
        -10.763841514016473
      ],
      [
        "hallow",
        -11.103156054070269
      ],
      [
        "▁robin",
        -9.208700614259357
      ],
      [
        "▁teaching",
        -9.727981677072634
      ],
      [
        "▁mid-",
        -9.876946511075625
      ],
      [
        "▁technical",
        -9.343310187811191
      ],
      [
        "▁feb",
        -10.542348120409212
      ],
      [
        "▁rest",
        -8.3962735459037
      ],
      [
        "v.",
        -10.29527417936751
      ],
      [
        "▁adult",
        -9.173094693974939
      ],
      [
        "▁los",
        -7.763301937634287
      ],
      [
        "▁fung",
        -10.315103775195087
      ],
      [
        "▁welcom",
        -11.01712026475972
      ],
      [
        "▁framework",
        -10.307084840116433
      ],
      [
        "▁chief",
        -9.655331813129523
      ],
      [
        "▁mc",
        -9.628672447463806
      ],
      [
        "▁ire",
        -9.99283848875679
      ],
      [
        "301",
        -13.51243129067659
      ],
      [
        "lik",
        -8.795665178243048
      ],
      [
        "▁distribute",
        -10.175820584114378
      ],
      [
        "▁majorit",
        -9.801393465139597
      ],
      [
        "▁user",
        -9.026925214544578
      ],
      [
        "by",
        -9.258694004423091
      ],
      [
        "▁jar",
        -10.262709601577356
      ],
      [
        "er",
        -5.623480252731039
      ],
      [
        "one",
        -8.958250372823365
      ],
      [
        "▁420",
        -12.876752718469392
      ],
      [
        "rinn",
        -11.08864204417263
      ],
      [
        "▁05/0",
        -13.800770594177061
      ],
      [
        "▁recipe",
        -10.973193687198943
      ],
      [
        "▁productiv",
        -10.35256500612823
      ],
      [
        "40",
        -11.033972871619602
      ],
      [
        "kat",
        -10.785619882956036
      ],
      [
        "▁top",
        -8.030367224448653
      ],
      [
        "▁e.",
        -9.953706045496723
      ],
      [
        "▁run",
        -8.15687094691907
      ],
      [
        "▁he",
        -9.296821485417924
      ],
      [
        "▁str",
        -10.169331734586333
      ],
      [
        "▁91",
        -13.654755750579636
      ],
      [
        "▁initial",
        -9.08971582031181
      ],
      [
        "nondelibreate",
        -12.83378457584191
      ],
      [
        "au",
        -8.79844437900183
      ],
      [
        "▁arrangement",
        -9.948323133041148
      ],
      [
        "▁24.",
        -14.394829616307645
      ],
      [
        "▁e.g",
        -11.33402471195896
      ],
      [
        "▁friday",
        -8.001843765119784
      ],
      [
        "▁din",
        -9.558297808627739
      ],
      [
        "▁roar",
        -9.775388475204176
      ],
      [
        "▁premise",
        -10.973144827633282
      ],
      [
        "40",
        -11.075807484287807
      ],
      [
        "▁turk",
        -9.810281459478569
      ],
      [
        "571",
        -14.156374722740878
      ],
      [
        "▁10/2",
        -13.225127566197031
      ],
      [
        "▁sting",
        -10.444569521649687
      ],
      [
        "@",
        -10.078275383865435
      ],
      [
        "▁dash",
        -10.979981076505647
      ],
      [
        "853-3",
        -14.140827607357918
      ],
      [
        "▁dolphin",
        -10.204367706832988
      ],
      [
        "ga",
        -10.834148832479924
      ],
      [
        "▁respective",
        -10.702818064949337
      ],
      [
        "▁recipient",
        -10.067815841254962
      ],
      [
        "▁reported",
        -9.400668780602931
      ],
      [
        "▁o",
        -10.961654798814939
      ],
      [
        "!!!!!!!!!!!!!",
        -12.30698754839941
      ],
      [
        "▁non-",
        -9.042895840168757
      ],
      [
        "▁silk",
        -10.766710997771254
      ],
      [
        "▁wish",
        -8.80016667347105
      ],
      [
        "▁96",
        -12.535367664760887
      ],
      [
        "▁sale",
        -10.179520140623758
      ],
      [
        "▁reputation",
        -10.550918149433562
      ],
      [
        "▁contrast",
        -10.700966935499807
      ],
      [
        "load",
        -10.945768877218068
      ],
      [
        "▁theater",
        -10.362560412049744
      ],
      [
        "▁lik",
        -6.442597858089572
      ],
      [
        "▁possibilit",
        -9.80712195874264
      ],
      [
        "fish",
        -11.176623645014235
      ],
      [
        "▁tropic",
        -10.435847369165542
      ],
      [
        "▁nap",
        -9.941582978660726
      ],
      [
        "▁łodzian",
        -12.408358433947841
      ],
      [
        "▁taste",
        -8.913784963038744
      ],
      [
        "▁politic",
        -10.302718565225753
      ],
      [
        "▁angr",
        -9.986303125707781
      ],
      [
        "war",
        -12.29474463474509
      ],
      [
        "▁morning",
        -6.9817030623203244
      ],
      [
        "ح",
        -12.833785825435129
      ],
      [
        "▁cris",
        -9.850505167213981
      ],
      [
        "▁income",
        -9.774977957762044
      ],
      [
        "▁have",
        -5.401484073416955
      ],
      [
        "▁go",
        -5.188808092865338
      ],
      [
        "▁carbon",
        -10.204408264817292
      ],
      [
        "bul",
        -10.454202704673868
      ],
      [
        "▁server",
        -9.82197898953482
      ],
      [
        "▁tour",
        -8.981624552900364
      ],
      [
        "▁neck",
        -9.105903831150789
      ],
      [
        "▁noon",
        -8.408007409882366
      ],
      [
        "▁roof",
        -10.204460302963785
      ],
      [
        "▁increasing",
        -9.452108736266501
      ],
      [
        "burn",
        -10.86871051009459
      ],
      [
        "▁budget",
        -9.499174560523482
      ],
      [
        "▁07",
        -14.85886526325713
      ],
      [
        "▁twentieth",
        -9.986234814712416
      ],
      [
        "▁corrupt",
        -10.621973656080424
      ],
      [
        "hatta",
        -11.08536777662701
      ],
      [
        "▁grim",
        -11.088697365182924
      ],
      [
        "until",
        -11.234173630287195
      ],
      [
        "mmy",
        -11.137154007142037
      ],
      [
        "per",
        -11.82371879266841
      ],
      [
        "▁alre",
        -7.660596022457105
      ],
      [
        "▁mathematical",
        -10.56712933697596
      ],
      [
        "▁harm",
        -10.110935512181868
      ],
      [
        "online",
        -10.539107277207002
      ],
      [
        "travi",
        -10.841783008480913
      ],
      [
        "▁optimis",
        -11.084297253445419
      ],
      [
        "▁middle",
        -8.475625066981417
      ],
      [
        "▁touch",
        -8.54801417163653
      ],
      [
        "200",
        -8.756247508088084
      ],
      [
        "he",
        -7.136458974037557
      ],
      [
        "▁hoc",
        -11.122093153997735
      ],
      [
        "dden",
        -9.68249576039289
      ],
      [
        "▁economic",
        -8.452623553565067
      ],
      [
        "▁http://",
        -9.452090910088604
      ],
      [
        "▁mop",
        -10.790474460970408
      ],
      [
        "▁wai",
        -10.21652389059648
      ],
      [
        "co",
        -8.598166052977437
      ],
      [
        "ll",
        -11.63392656839943
      ],
      [
        "8-9",
        -14.116498766605678
      ],
      [
        "ww",
        -11.333822930986164
      ],
      [
        "demic",
        -10.699018809228818
      ],
      [
        "▁abundant",
        -11.087255735208817
      ],
      [
        "▁delay",
        -10.15689404276343
      ],
      [
        "▁dub",
        -10.39829606080935
      ],
      [
        "▁center",
        -8.825282188036596
      ],
      [
        "▁elev",
        -10.552278023027132
      ],
      [
        "your",
        -8.818172243492096
      ],
      [
        "▁us",
        -6.549071983037802
      ],
      [
        "▁nation",
        -8.39856671174141
      ],
      [
        "▁thr",
        -8.152049216504125
      ],
      [
        "▁scot",
        -10.545246675391496
      ],
      [
        "▁machine",
        -9.173094665394029
      ],
      [
        "883",
        -14.15438031203266
      ],
      [
        "▁get",
        -9.018875979559912
      ],
      [
        "▁tolerat",
        -10.976632258988321
      ],
      [
        "▁bee",
        -9.928187267565548
      ],
      [
        "▁di",
        -9.299796853513925
      ],
      [
        "▁lock",
        -9.301318403574317
      ],
      [
        "o",
        -5.789395108714674
      ],
      [
        "▁reli",
        -9.43267277403924
      ],
      [
        "▁soon",
        -8.322823599925718
      ],
      [
        "bar",
        -10.142391085759318
      ],
      [
        "64-7",
        -13.572722259480487
      ],
      [
        "ujai",
        -10.873283046572189
      ],
      [
        "▁pink",
        -9.52826476080412
      ],
      [
        "▁639",
        -13.138918451395154
      ],
      [
        "among",
        -11.64830135198203
      ],
      [
        "nz",
        -10.604066515837985
      ],
      [
        "tract",
        -10.862241335448443
      ],
      [
        "▁ruin",
        -9.948368777946149
      ],
      [
        "▁co",
        -11.924018800984362
      ],
      [
        "oun",
        -11.10653329383833
      ],
      [
        "tery",
        -10.722350268244758
      ],
      [
        "▁02:1",
        -12.451409666312614
      ],
      [
        "▁interact",
        -10.507899277201977
      ],
      [
        "▁nail",
        -9.455161150031387
      ],
      [
        "47",
        -11.086617663416169
      ],
      [
        "lta",
        -8.416890343592092
      ],
      [
        "▁650",
        -13.191743379778192
      ],
      [
        "▁h",
        -9.927331136986188
      ],
      [
        "24",
        -10.79235968292323
      ],
      [
        "an@",
        -11.833734850128128
      ],
      [
        "▁advi",
        -9.462338400124365
      ],
      [
        "▁deliver",
        -8.741897145629576
      ],
      [
        "marie",
        -10.454421070252378
      ],
      [
        "fence",
        -10.30956950608956
      ],
      [
        "202.6",
        -12.915949819819229
      ],
      [
        "▁diet",
        -10.604628456065848
      ],
      [
        ":00:5",
        -13.430406807019484
      ],
      [
        "▁qu",
        -9.977230063862478
      ],
      [
        "▁recent",
        -8.211008927317451
      ],
      [
        "02/",
        -14.117092650879105
      ],
      [
        "esco",
        -10.710475966164433
      ],
      [
        "▁12:",
        -12.10116741158999
      ],
      [
        "▁mid",
        -9.501175946049623
      ],
      [
        "▁abe",
        -8.32297401654299
      ],
      [
        "▁damn",
        -10.362591329913021
      ],
      [
        "▁etc",
        -8.776424771210493
      ],
      [
        "▁chocolate",
        -9.322902016918741
      ],
      [
        "-",
        -4.2914603317907005
      ],
      [
        "▁style",
        -8.971282525436246
      ],
      [
        "▁islam",
        -9.949279733106522
      ],
      [
        "sylv",
        -10.622056240756777
      ],
      [
        "▁striv",
        -10.877207190306837
      ],
      [
        "▁recording",
        -10.279775259075944
      ],
      [
        "where",
        -8.0788893032875
      ],
      [
        "▁1.2",
        -12.884990035352798
      ],
      [
        "q",
        -14.203397884361365
      ],
      [
        "▁08/0",
        -12.95704160858391
      ],
      [
        "▁repeat",
        -10.047210587365228
      ],
      [
        "/22/200",
        -13.133961365114281
      ],
      [
        "▁dinner",
        -8.159157259826387
      ],
      [
        "857",
        -13.99478226486609
      ],
      [
        "▁academ",
        -10.483330649280639
      ],
      [
        "▁genetic",
        -10.550831445166764
      ],
      [
        "driver",
        -10.847412001356034
      ],
      [
        "▁weasley",
        -9.600521134813718
      ],
      [
        "▁leather",
        -11.084252196832358
      ],
      [
        "▁communication",
        -9.500328840337204
      ],
      [
        "▁acc",
        -10.4426701642256
      ],
      [
        "1:00",
        -11.411252376672223
      ],
      [
        "▁s",
        -12.258378671938004
      ],
      [
        "▁ko",
        -9.42619099445057
      ],
      [
        "▁16,",
        -14.139170133244486
      ],
      [
        "▁steadi",
        -10.702593891613823
      ],
      [
        "▁first",
        -6.312658725808459
      ],
      [
        "▁prosecutor",
        -11.08425020904966
      ],
      [
        "▁appropriate",
        -9.432296933988706
      ],
      [
        "firefox",
        -10.698896977054662
      ],
      [
        "▁haul",
        -10.700023806358937
      ],
      [
        "▁negotiat",
        -10.20338342726102
      ],
      [
        "▁senator",
        -9.627592736969135
      ],
      [
        "kinaw",
        -10.32442542031161
      ],
      [
        "▁teeth",
        -9.30290657202444
      ],
      [
        "▁defeat",
        -10.254400078985947
      ],
      [
        "149",
        -13.721615169170054
      ],
      [
        "real",
        -8.863034912585011
      ],
      [
        "311",
        -13.198320466201267
      ],
      [
        "rais",
        -10.934649994852478
      ],
      [
        "▁shed",
        -10.338589670652677
      ],
      [
        "▁180",
        -11.117175652875956
      ],
      [
        "▁primari",
        -10.64238478458082
      ],
      [
        "▁consol",
        -11.088312524713245
      ],
      [
        "▁sue",
        -10.159466605995828
      ],
      [
        "▁flash",
        -10.026547263465655
      ],
      [
        "▁la",
        -7.904863133567719
      ],
      [
        "▁mor",
        -9.778046396027694
      ],
      [
        "05",
        -10.948316364981569
      ],
      [
        "8",
        -8.166321644259856
      ],
      [
        "”",
        -6.541188097635501
      ],
      [
        "▁dut",
        -9.794259175031064
      ],
      [
        "yoursel",
        -12.14637731604893
      ],
      [
        "dra",
        -10.577543245678065
      ],
      [
        "pped",
        -9.37082436722205
      ],
      [
        "▁pow",
        -10.086335375846483
      ],
      [
        "cargill",
        -10.254511104901715
      ],
      [
        "kash",
        -10.584908282342763
      ],
      [
        "▁br",
        -10.94773012055678
      ],
      [
        "▁rent",
        -9.50679364064101
      ],
      [
        "▁convince",
        -10.156749054792275
      ],
      [
        "one",
        -10.618925815360097
      ],
      [
        "489",
        -13.150968250883603
      ],
      [
        "▁138",
        -12.92362701465887
      ],
      [
        "▁405",
        -13.318467009434519
      ],
      [
        "▁simultaneous",
        -10.873139097778193
      ],
      [
        "▁skills",
        -9.66400513963679
      ],
      [
        "▁prayer",
        -10.627417579358552
      ],
      [
        "▁stock",
        -9.370213999849458
      ],
      [
        "▁resource",
        -9.155852789685385
      ],
      [
        "▁sevent",
        -11.49321093450371
      ],
      [
        "ie",
        -7.7053668826690185
      ],
      [
        "▁05:3",
        -12.668251370718806
      ],
      [
        "▁reference",
        -9.150491090857876
      ],
      [
        "▁619-",
        -13.152424125381135
      ],
      [
        "limit",
        -10.756579532519204
      ],
      [
        "▁matter",
        -8.316198165826975
      ],
      [
        "▁master",
        -9.434506779833502
      ],
      [
        "▁operat",
        -10.17464026875054
      ],
      [
        "▁c.",
        -10.592832876213109
      ],
      [
        "ow",
        -9.925344315070317
      ],
      [
        "▁calendar",
        -10.550545061463945
      ],
      [
        "ton@e",
        -11.320930134632315
      ],
      [
        "▁track",
        -9.060113603510775
      ],
      [
        "/16/200",
        -11.522972034904177
      ],
      [
        "▁asset",
        -10.112671690500227
      ],
      [
        "arctic",
        -10.785328606408319
      ],
      [
        "▁complet",
        -10.267186840989108
      ],
      [
        "ition",
        -9.510655220135215
      ],
      [
        "▁movement",
        -9.305682674770164
      ],
      [
        "▁adam",
        -7.721631801519224
      ],
      [
        "▁absolute",
        -9.173094137321737
      ],
      [
        "▁modest",
        -11.094211895295786
      ],
      [
        "▁tar",
        -10.7397437686294
      ],
      [
        "▁con",
        -8.444368400819524
      ],
      [
        "▁com",
        -9.726157529707933
      ],
      [
        "▁ox",
        -10.408484954454003
      ],
      [
        "incin",
        -8.950775990607584
      ],
      [
        "ummy",
        -10.305655565085761
      ],
      [
        "▁occupation",
        -10.254378057930651
      ],
      [
        "▁universit",
        -8.24915940145177
      ],
      [
        "h",
        -5.068145445380351
      ],
      [
        "▁put",
        -6.221635324443236
      ],
      [
        "vin",
        -10.18329650186932
      ],
      [
        "▁receipt",
        -10.483878368499408
      ],
      [
        "▁horror",
        -10.421378402477004
      ],
      [
        "▁sad",
        -9.19196150571606
      ],
      [
        "▁fuck",
        -9.713850432597798
      ],
      [
        "▁tower",
        -10.074424294905043
      ],
      [
        "▁invit",
        -10.28834383161263
      ],
      [
        "▁223",
        -13.579519920084984
      ],
      [
        "▁+1",
        -12.26268493713398
      ],
      [
        "i",
        -2.8124076435862975
      ],
      [
        "▁strap",
        -10.365691454992827
      ],
      [
        "▁wee",
        -10.434030456801738
      ],
      [
        "▁davis",
        -10.701208656344509
      ],
      [
        "▁handle",
        -9.416582012913397
      ],
      [
        "79",
        -11.29484954084604
      ],
      [
        "ladie",
        -10.653143941266736
      ],
      [
        ".00",
        -11.139862778496186
      ],
      [
        "▁journey",
        -10.204367825285065
      ],
      [
        "▁become",
        -8.173317775399852
      ],
      [
        "▁nutrition",
        -10.259287802671647
      ],
      [
        "▁shak",
        -11.065242026776247
      ],
      [
        "▁action",
        -8.28150196420686
      ],
      [
        "▁supplie",
        -10.023452223488425
      ],
      [
        "▁form",
        -7.793143745023637
      ],
      [
        "▁creat",
        -9.130026851830639
      ],
      [
        "▁allocat",
        -10.235516861576203
      ],
      [
        "▁happen",
        -7.653848484191818
      ],
      [
        "▁stranger",
        -10.366130293346387
      ],
      [
        "▁obs",
        -10.498655991559126
      ],
      [
        "▁9",
        -10.074828539813632
      ],
      [
        "▁how",
        -5.890519111671627
      ],
      [
        "?!?!",
        -12.18932764104613
      ],
      [
        "▁fuel",
        -9.911371422154803
      ],
      [
        "▁prison",
        -10.966770503540726
      ],
      [
        "▁anticipate",
        -11.137130087799024
      ],
      [
        "▁literal",
        -10.216435973081545
      ],
      [
        "▁language",
        -7.949330217281645
      ],
      [
        "▁bronz",
        -10.873139455963921
      ],
      [
        "03/",
        -13.793640388604164
      ],
      [
        "▁odd",
        -9.775211919052893
      ],
      [
        "▁nest",
        -9.882845833945984
      ],
      [
        "▁grown",
        -10.256534089704584
      ],
      [
        "▁cake",
        -9.157675138773254
      ],
      [
        "hey",
        -14.089121439372072
      ],
      [
        "▁adopt",
        -9.190681918837807
      ],
      [
        "▁car",
        -6.814059369216863
      ],
      [
        "46-",
        -13.34130911049348
      ],
      [
        "▁wise",
        -10.56213090494698
      ],
      [
        "▁squeak",
        -10.698897447972636
      ],
      [
        "▁josh",
        -10.290418357686457
      ],
      [
        "▁other",
        -6.194378569061986
      ],
      [
        "▁support",
        -8.027219071647952
      ],
      [
        "▁other",
        -10.00918580141893
      ],
      [
        "▁monday",
        -7.838112867563392
      ],
      [
        "▁grace",
        -10.701991168909203
      ],
      [
        "▁loan",
        -9.429887506525649
      ],
      [
        "▁bridge",
        -9.323140178129563
      ],
      [
        "oxi",
        -10.751375792651329
      ],
      [
        "▁pour",
        -9.407766492374783
      ],
      [
        "tenance",
        -10.874490078172254
      ],
      [
        ".2",
        -12.489296254993784
      ],
      [
        "▁mission",
        -9.762788012599191
      ],
      [
        "▁inflation",
        -10.698896780851863
      ],
      [
        "▁spoke",
        -8.80016097687438
      ],
      [
        "▁press",
        -8.804496807644863
      ],
      [
        "an",
        -11.74871686222503
      ],
      [
        "▁jordan",
        -10.204368028493874
      ],
      [
        "▁writing",
        -8.753251270652196
      ],
      [
        "abo",
        -13.226014168214702
      ],
      [
        "✉",
        -11.333785825435129
      ],
      [
        "▁fe",
        -13.184799183402903
      ],
      [
        "▁gr",
        -10.339923065306174
      ],
      [
        "▁182",
        -11.921712514434295
      ],
      [
        "presentation",
        -10.506606720923452
      ],
      [
        "▁patient",
        -9.658679189255121
      ],
      [
        "▁quest",
        -10.30742600510917
      ],
      [
        "▁window",
        -8.417129021806172
      ],
      [
        "▁kur",
        -10.55863407374745
      ],
      [
        "▁outline",
        -11.094219830048704
      ],
      [
        "▁hundred",
        -9.481396688621842
      ],
      [
        "▁begu",
        -10.157537854698676
      ],
      [
        "▁reflection",
        -10.703742285790607
      ],
      [
        "▁comb",
        -10.372946331290743
      ],
      [
        "200,000",
        -15.24025698438958
      ],
      [
        "▁18:",
        -13.104846448394456
      ],
      [
        "2.5",
        -13.146120449771661
      ],
      [
        "train",
        -10.757972238211178
      ],
      [
        "▁scientist",
        -9.775696871487073
      ],
      [
        "/9",
        -15.447297605292762
      ],
      [
        "▁mood",
        -10.80088021996229
      ],
      [
        "▁horribl",
        -9.574205454371512
      ],
      [
        "▁emergenc",
        -9.840475346217156
      ],
      [
        "▁cash",
        -9.303783853633366
      ],
      [
        "▁finance",
        -9.502730503306154
      ],
      [
        "6/200",
        -15.097693619441637
      ],
      [
        "▁seven",
        -8.978118629881946
      ],
      [
        "who",
        -9.483181646038574
      ],
      [
        "▁quartile",
        -10.068445531913998
      ],
      [
        "▁shark",
        -9.777218753126807
      ],
      [
        "▁incorporate",
        -10.158228028629237
      ],
      [
        "▁05:",
        -13.864709534199491
      ],
      [
        "▁firm",
        -9.264443195184324
      ],
      [
        "0.7",
        -14.545472279677155
      ],
      [
        "allas",
        -6.845768603066846
      ],
      [
        "▁blown",
        -10.732222365987072
      ],
      [
        "▁switch",
        -10.067922990731619
      ],
      [
        "gel",
        -10.844855621277201
      ],
      [
        "bit",
        -10.45769070277797
      ],
      [
        "▁candle",
        -10.551829413122785
      ],
      [
        "▁interfere",
        -11.08424644966685
      ],
      [
        "▁campaign",
        -9.105843721439113
      ],
      [
        "ua",
        -9.500032956693179
      ],
      [
        "▁stone",
        -9.576657944749407
      ],
      [
        "▁pakistani",
        -10.07236774880387
      ],
      [
        "▁judgment",
        -10.111450781742505
      ],
      [
        "ina",
        -12.093453738177573
      ],
      [
        "▁opt",
        -10.886424240305194
      ],
      [
        "▁regard",
        -8.110749527844678
      ],
      [
        "bar",
        -12.83606405568118
      ],
      [
        "▁grain",
        -10.4848623637211
      ],
      [
        "▁alter",
        -10.44066495775693
      ],
      [
        "▁94",
        -12.478838242203265
      ],
      [
        "▁486",
        -12.653032614800075
      ],
      [
        "▁contribute",
        -10.124772979090258
      ],
      [
        "▁option",
        -8.629982394301976
      ],
      [
        "▁212",
        -12.060189136539739
      ],
      [
        "rice",
        -11.031928129019633
      ],
      [
        "▁stay",
        -7.647084889668953
      ],
      [
        "ritten",
        -8.955216860392161
      ],
      [
        "▁05908",
        -14.137857475199201
      ],
      [
        "▁services",
        -8.815271832094506
      ],
      [
        "▁ben",
        -8.996996115228672
      ],
      [
        "▁416-865-370",
        -12.667278132134355
      ],
      [
        "▁struggle",
        -10.193871526927166
      ],
      [
        "▁raci",
        -10.68932848192664
      ],
      [
        "▁home",
        -7.054268665523428
      ],
      [
        "▁cloth",
        -9.451844180782675
      ],
      [
        "▁declare",
        -10.110356486702454
      ],
      [
        "▁crown",
        -10.873161515309866
      ],
      [
        "▁document",
        -8.528964295834928
      ],
      [
        "▁111",
        -12.80605270452926
      ],
      [
        "171",
        -13.819819207365457
      ],
      [
        "immigration",
        -10.25436769463617
      ],
      [
        "▁beat",
        -9.544093295167178
      ],
      [
        "▁soldier",
        -9.574259415485042
      ],
      [
        "▁ar",
        -6.938284200336329
      ],
      [
        "…",
        -9.311962512561424
      ],
      [
        "ninety",
        -15.073850301185406
      ],
      [
        "media",
        -10.396040399386203
      ],
      [
        "▁specialist",
        -10.310566882413637
      ],
      [
        "▁proceed",
        -9.962258143406764
      ],
      [
        "▁table",
        -8.228483860067728
      ],
      [
        "75",
        -11.071151051921955
      ],
      [
        "chernobyl",
        -10.11746914722092
      ],
      [
        "1030",
        -15.236251623969013
      ],
      [
        "▁cradle",
        -10.873139415213295
      ],
      [
        "▁arrange",
        -10.010373198729285
      ],
      [
        "▁portray",
        -11.084281985948444
      ],
      [
        "another",
        -10.357494289543581
      ],
      [
        "zen",
        -11.834053334203773
      ],
      [
        "giving",
        -9.174344864407594
      ],
      [
        "▁emil",
        -10.973735754305352
      ],
      [
        "▁agreement",
        -8.511502147942181
      ],
      [
        "▁joke",
        -8.708600512081382
      ],
      [
        "▁08:5",
        -12.695296350327888
      ],
      [
        "e@enron",
        -12.234679402461264
      ],
      [
        "▁disco",
        -10.835856600365666
      ],
      [
        "▁to",
        -8.619996718894244
      ],
      [
        "eur",
        -12.843554417548672
      ],
      [
        "▁liberal",
        -10.255461818913398
      ],
      [
        "bra",
        -10.29964040262848
      ],
      [
        "corporate",
        -10.025404247900372
      ],
      [
        "uni",
        -13.005202505838987
      ],
      [
        "▁beca",
        -10.971985154867642
      ],
      [
        "▁inspiration",
        -11.086379355328912
      ],
      [
        "uck",
        -10.257283761250696
      ],
      [
        "▁daily",
        -8.614827737263795
      ],
      [
        "▁snake",
        -9.38542073547698
      ],
      [
        "cu",
        -9.884334780207373
      ],
      [
        "▁cleaner",
        -10.77765823276212
      ],
      [
        "▁11/2",
        -13.632092236267711
      ],
      [
        "32",
        -11.669857894312882
      ],
      [
        ".782",
        -12.337539463900077
      ],
      [
        "▁chee",
        -10.54522056228355
      ],
      [
        "▁setting",
        -9.45750188328177
      ],
      [
        "▁frank",
        -9.548970594545004
      ],
      [
        "▁fork",
        -9.685730496842861
      ],
      [
        "▁green",
        -8.134794264129845
      ],
      [
        "dr",
        -12.262021389616722
      ],
      [
        "hou",
        -10.891721015640892
      ],
      [
        "▁amuse",
        -10.885630252194463
      ],
      [
        "▁paine",
        -10.227321389786926
      ],
      [
        "▁peace",
        -8.676055608737634
      ],
      [
        "▁isda",
        -10.424876960385172
      ],
      [
        "▁reef",
        -11.084484818392472
      ],
      [
        "rote",
        -8.834940651685548
      ],
      [
        "▁until",
        -8.319056567480276
      ],
      [
        "▁spreadsheet",
        -11.084317728205082
      ],
      [
        "▁crash",
        -9.98615963372275
      ],
      [
        "▁blog",
        -10.206508010273451
      ],
      [
        "▁da",
        -12.782111484042257
      ],
      [
        "born",
        -10.67360449320501
      ],
      [
        "hab",
        -10.739741764518474
      ],
      [
        "▁qua",
        -10.89264180221103
      ],
      [
        "▁al",
        -5.88353949010704
      ],
      [
        "▁pre",
        -8.89534139102248
      ],
      [
        "▁.",
        -6.116290613496916
      ],
      [
        "▁municipalit",
        -10.428865567892148
      ],
      [
        "▁vaccine",
        -10.483878362914211
      ],
      [
        "▁traffic",
        -9.572708649024872
      ],
      [
        "▁online",
        -9.254379026410083
      ],
      [
        "▁chris",
        -9.510140469613425
      ],
      [
        "▁honey",
        -8.776484966437474
      ],
      [
        "195",
        -14.098294440862103
      ],
      [
        "md",
        -11.141550706240368
      ],
      [
        "▁poster",
        -10.271826498004392
      ],
      [
        "▁po",
        -11.008071481084977
      ],
      [
        "▁sort",
        -8.5477381593134
      ],
      [
        "nonym",
        -10.782994933948842
      ],
      [
        "▁immense",
        -10.975990935391113
      ],
      [
        "x",
        -9.923621729153174
      ],
      [
        "▁national",
        -8.003693316444949
      ],
      [
        "▁peak",
        -10.485505922525952
      ],
      [
        "▁pian",
        -10.488522775537476
      ],
      [
        "4.4",
        -13.305398854713754
      ],
      [
        "180",
        -13.395822881608929
      ],
      [
        "`",
        -11.928182729573079
      ],
      [
        "▁form",
        -11.39195798495936
      ],
      [
        "▁alleged",
        -10.156753319927555
      ],
      [
        "▁eb",
        -9.479365374080148
      ],
      [
        "f",
        -10.257164615019802
      ],
      [
        "▁mi",
        -11.290189893230616
      ],
      [
        "▁sew",
        -10.730086097046147
      ],
      [
        "▁cloud",
        -10.02615460585374
      ],
      [
        "▁ministr",
        -10.973186511460579
      ],
      [
        "▁thirty-",
        -12.337669254678353
      ],
      [
        "ennes",
        -11.4152029478778
      ],
      [
        "▁char",
        -8.018682344236293
      ],
      [
        "▁!!!!!!!!!!",
        -11.698363094807423
      ],
      [
        "▁late",
        -7.815785339604706
      ],
      [
        "lo",
        -9.686887479395796
      ],
      [
        "▁regulate",
        -10.698896690949322
      ],
      [
        "ar",
        -12.863075526209963
      ],
      [
        "▁integrate",
        -10.25900908705318
      ],
      [
        "▁traged",
        -10.15676875461363
      ],
      [
        "▁worry",
        -9.775230001408566
      ],
      [
        "▁smuggl",
        -10.973145436759896
      ],
      [
        "▁draw",
        -8.023142053893745
      ],
      [
        "▁squirrel",
        -10.483878358524578
      ],
      [
        "0/200",
        -13.144123309107325
      ],
      [
        "ax",
        -9.18009830267879
      ],
      [
        "▁jewish",
        -9.947999061342422
      ],
      [
        "▁remote",
        -10.62202741693656
      ],
      [
        "▁endanger",
        -10.782230120846496
      ],
      [
        "▁company",
        -8.128477239894305
      ],
      [
        "▁evacuate",
        -10.973139273284476
      ],
      [
        "▁leah",
        -11.084575287727523
      ],
      [
        "▁36",
        -11.01212807405217
      ],
      [
        "▁appointe",
        -10.782278778278812
      ],
      [
        "▁p",
        -7.732720502124819
      ],
      [
        "▁words",
        -8.622974459151386
      ],
      [
        "▁04:5",
        -13.362917933474566
      ],
      [
        "▁ethnocentri",
        -11.084250208892616
      ],
      [
        "▁another",
        -7.52354668913458
      ],
      [
        "▁4.9",
        -12.967616918539465
      ],
      [
        "▁attack",
        -8.510865098480444
      ],
      [
        "▁qu",
        -11.69859529127919
      ],
      [
        "284",
        -14.231690287536495
      ],
      [
        "▁rac",
        -10.170870715099795
      ],
      [
        "book",
        -9.94660998555465
      ],
      [
        "▁da",
        -8.952820310393305
      ],
      [
        "▁fortie",
        -11.182917519988722
      ],
      [
        "cal",
        -9.517099063106011
      ],
      [
        "▁tsar",
        -10.973347328799576
      ],
      [
        "st",
        -6.99241356099325
      ],
      [
        "▁obtain",
        -9.774877906859388
      ],
      [
        "▁any",
        -6.499089214725912
      ],
      [
        "ical",
        -8.670614710682718
      ],
      [
        "▁713/",
        -13.06620154124905
      ],
      [
        "fr",
        -13.6376372973617
      ],
      [
        "burban",
        -9.335465135297708
      ],
      [
        "▁195",
        -10.468279737945544
      ],
      [
        "▁geographical",
        -10.62406800676357
      ],
      [
        "▁clo",
        -10.87228123624451
      ],
      [
        "▁hit",
        -7.964894790564406
      ],
      [
        "▁productive",
        -11.013172743341498
      ],
      [
        "our",
        -9.343558663439467
      ],
      [
        "▁t",
        -11.219338199887599
      ],
      [
        "▁carol",
        -9.362572025720514
      ],
      [
        "10",
        -10.47043347994018
      ],
      [
        "▁lesson",
        -9.581703507944743
      ],
      [
        "▁this",
        -10.553284573521324
      ],
      [
        "▁48",
        -11.650344269400826
      ],
      [
        "▁head",
        -7.4375891126495155
      ],
      [
        "▁real",
        -6.447431398550839
      ],
      [
        "▁boot",
        -9.163013781762231
      ],
      [
        "▁155",
        -13.15109811699319
      ],
      [
        "▁problem",
        -7.617252621318437
      ],
      [
        "▁waive",
        -10.874252024108024
      ],
      [
        "fte",
        -8.871126370217361
      ],
      [
        "▁shine",
        -11.04270335710804
      ],
      [
        "▁member",
        -8.346273353133487
      ],
      [
        "▁du",
        -9.594023106383746
      ],
      [
        "20,000",
        -13.372871885397519
      ],
      [
        "▁gentl",
        -10.591727950777397
      ],
      [
        "776",
        -12.023279956286235
      ],
      [
        "177",
        -13.361139344580995
      ],
      [
        "8.",
        -12.843129431892798
      ],
      [
        "avia",
        -10.558225672703909
      ],
      [
        "roll",
        -10.289957369363078
      ],
      [
        "▁cal",
        -10.258542711671321
      ],
      [
        "▁system",
        -7.934558105987522
      ],
      [
        "▁happens",
        -9.75601278059396
      ],
      [
        "▁u",
        -13.940905803883194
      ],
      [
        "ius",
        -10.471658471223911
      ],
      [
        "fluent",
        -10.973759944945614
      ],
      [
        "▁28",
        -10.454550929746874
      ],
      [
        "unic",
        -14.169007212126958
      ],
      [
        "▁feeling",
        -9.010242694322397
      ],
      [
        "▁fair",
        -8.47574899623938
      ],
      [
        "▁preserv",
        -10.552650123227444
      ],
      [
        "▁japane",
        -9.3373058793133
      ],
      [
        "▁valid",
        -10.2048701132749
      ],
      [
        "▁clinic",
        -10.370075657248501
      ],
      [
        "haz",
        -10.752225867554262
      ],
      [
        "18/",
        -14.138103351134408
      ],
      [
        "▁boost",
        -10.555594823568532
      ],
      [
        "05",
        -10.938229125670107
      ],
      [
        "▁balzac",
        -8.510863758518745
      ],
      [
        "▁mor",
        -12.568118998306696
      ],
      [
        "▁standards",
        -9.257269154148753
      ],
      [
        "▁third",
        -8.493086579592074
      ],
      [
        "▁swift",
        -10.873140382399491
      ],
      [
        "▁sha",
        -9.452059176718008
      ],
      [
        "ack",
        -9.76645184946713
      ],
      [
        "▁capacit",
        -9.245199496825167
      ],
      [
        "▁paris",
        -8.984183902884304
      ],
      [
        "▁incredibl",
        -10.026149544886373
      ],
      [
        "▁hurt",
        -8.338377417298641
      ],
      [
        "ivo",
        -10.916121020340515
      ],
      [
        "▁pressure",
        -9.627669301113205
      ],
      [
        "▁deck",
        -10.895411577640054
      ],
      [
        "▁search",
        -9.10585886283555
      ],
      [
        "caribbean",
        -10.874119492374893
      ],
      [
        "ling",
        -8.687856111556961
      ],
      [
        "▁da",
        -13.348798848459843
      ],
      [
        "▁orient",
        -10.62079481138992
      ],
      [
        "▁stable",
        -10.996689230876141
      ],
      [
        "101",
        -12.952621968553853
      ],
      [
        "▁patric",
        -10.732261832896237
      ],
      [
        "▁convey",
        -11.084416653453022
      ],
      [
        "▁xs",
        -11.866820475824259
      ],
      [
        "once",
        -8.598222648024645
      ],
      [
        "urler",
        -11.195041481570172
      ],
      [
        "day",
        -9.416483311913248
      ],
      [
        "▁is",
        -6.896931179427394
      ],
      [
        "▁offend",
        -10.783645873545835
      ],
      [
        "▁port",
        -9.120980125631112
      ],
      [
        "▁happi",
        -9.862773659383858
      ],
      [
        "▁standing",
        -9.366795432440306
      ],
      [
        "▁director",
        -9.304799771102093
      ],
      [
        "▁arrow",
        -9.910708445006218
      ],
      [
        "▁spot",
        -9.032777456236623
      ],
      [
        "▁bulldo",
        -9.385435394454968
      ],
      [
        "ect",
        -9.905673899473905
      ],
      [
        "▁sore",
        -10.473954854232202
      ],
      [
        "▁earlie",
        -7.8349846518091315
      ],
      [
        "▁bo",
        -6.124535547122032
      ],
      [
        "ola",
        -10.46244598477619
      ],
      [
        "▁dark",
        -8.346598251798161
      ],
      [
        "igger",
        -10.28259929214996
      ],
      [
        "ize",
        -9.049255508895651
      ],
      [
        "▁25.",
        -14.400507833653686
      ],
      [
        "ix",
        -12.696653061457788
      ],
      [
        "▁75",
        -10.786024161906028
      ],
      [
        "▁seem",
        -7.55690099496242
      ],
      [
        "▁spring",
        -9.32533119850187
      ],
      [
        "▁03:3",
        -13.301144353011438
      ],
      [
        "corn",
        -9.831170147097403
      ],
      [
        "doc",
        -9.634255655510263
      ],
      [
        "urs",
        -11.334386090581136
      ],
      [
        "▁entr",
        -10.195999873633042
      ],
      [
        "2,000",
        -10.97749512582482
      ],
      [
        "▁administrat",
        -10.066846773898053
      ],
      [
        "▁mexic",
        -9.363540751094945
      ],
      [
        "▁baby",
        -7.45338679853995
      ],
      [
        "▁4.",
        -11.34728232688808
      ],
      [
        "▁since",
        -10.363678526293729
      ],
      [
        "▁utter",
        -10.55092717612398
      ],
      [
        "▁plu",
        -10.581368776502405
      ],
      [
        "▁authentic",
        -10.87313920377298
      ],
      [
        "▁volume",
        -10.483888558489781
      ],
      [
        "▁involve",
        -9.483667105606104
      ],
      [
        "▁bu",
        -9.39841454670741
      ],
      [
        "38",
        -11.571807773434363
      ],
      [
        "ota",
        -10.081100537911363
      ],
      [
        "▁carrot",
        -10.254409270645382
      ],
      [
        "ave",
        -8.75304223187348
      ],
      [
        "g.",
        -9.666834862862881
      ],
      [
        "▁twenty-f",
        -12.946639624578596
      ],
      [
        "able",
        -6.974769928772036
      ],
      [
        "▁stillman",
        -9.001052209822694
      ],
      [
        "band",
        -10.650115086136228
      ],
      [
        "uq",
        -11.84168689817814
      ],
      [
        "ular",
        -10.562250258082946
      ],
      [
        "▁up",
        -6.475747422416015
      ],
      [
        "▁6/1",
        -13.680375511970919
      ],
      [
        "▁we",
        -6.530690589681937
      ],
      [
        "▁guilt",
        -10.111299589506155
      ],
      [
        "thin",
        -7.525429256744984
      ],
      [
        "▁speed",
        -9.548824919713521
      ],
      [
        "▁rank",
        -9.897470499584426
      ],
      [
        "▁af",
        -10.504862344166291
      ],
      [
        "fare",
        -10.228268295111562
      ],
      [
        "▁vendor",
        -10.782264222981741
      ],
      [
        "ob",
        -11.496845026184019
      ],
      [
        "▁25",
        -9.47633880356933
      ],
      [
        "747",
        -12.054775261011347
      ],
      [
        "▁towel",
        -9.948112589452483
      ],
      [
        "▁afr",
        -9.524788917176375
      ],
      [
        "▁1030",
        -14.191480154345427
      ],
      [
        "furniture",
        -9.74361216608731
      ],
      [
        "▁x",
        -10.277760178101254
      ],
      [
        "▁exaggerat",
        -11.084250214502688
      ],
      [
        "▁apparent",
        -9.774862294103091
      ],
      [
        "▁release",
        -9.14754314877851
      ],
      [
        "92",
        -12.130184995798194
      ],
      [
        "001",
        -12.849675556321584
      ],
      [
        "▁m.",
        -10.114025076790021
      ],
      [
        "▁left",
        -7.802147178864391
      ],
      [
        "▁tough",
        -10.205903121706402
      ],
      [
        "▁discre",
        -11.209135483606703
      ],
      [
        "sh-",
        -10.904027180144672
      ],
      [
        "▁care",
        -8.137177927518103
      ],
      [
        "▁ugl",
        -10.828058022483088
      ],
      [
        "▁richard",
        -9.245333399719067
      ],
      [
        "essie",
        -11.067723525337714
      ],
      [
        "▁signature",
        -10.69915137359685
      ],
      [
        "▁8:3",
        -12.739873861330425
      ],
      [
        "▁1",
        -8.106310199785788
      ],
      [
        "du",
        -12.226091588455983
      ],
      [
        "▁5",
        -11.486037404032146
      ],
      [
        "▁sever",
        -8.097655284957362
      ],
      [
        "▁customiz",
        -11.10018268218619
      ],
      [
        "▁impartial",
        -10.782263638098122
      ],
      [
        "co",
        -11.294682586699295
      ],
      [
        "▁leban",
        -10.782715313114682
      ],
      [
        "▁1327",
        -13.139428332926997
      ],
      [
        "▁taiwan",
        -10.067815914632977
      ],
      [
        "▁partners",
        -10.501477241707075
      ],
      [
        "▁scott",
        -9.809767030051518
      ],
      [
        "▁lodg",
        -10.62261085279007
      ],
      [
        "▁regular",
        -9.058216524715608
      ],
      [
        "▁11/29/",
        -11.588860208461057
      ],
      [
        "▁fall",
        -7.857750378858382
      ],
      [
        "▁harsh",
        -10.974295625414895
      ],
      [
        "▁appointment",
        -9.743612168039979
      ],
      [
        "▁kingdom",
        -10.421538404211905
      ],
      [
        "▁petunia",
        -10.550545419437885
      ],
      [
        "▁derive",
        -10.97357463945604
      ],
      [
        "▁ph",
        -9.553067609944794
      ],
      [
        "▁wh",
        -10.483639927514325
      ],
      [
        "▁habit",
        -10.669319905492552
      ],
      [
        "▁butter",
        -9.173705463214255
      ],
      [
        "▁translate",
        -10.536655475536104
      ],
      [
        "▁had",
        -6.428560005164546
      ],
      [
        "▁chapter",
        -9.807190365250314
      ],
      [
        "▁hippop",
        -11.085005478072755
      ],
      [
        "▁members",
        -8.754821145162005
      ],
      [
        "▁11/",
        -12.525804538246268
      ],
      [
        "2.",
        -15.381518620275797
      ],
      [
        "*",
        -8.451504526190725
      ],
      [
        "▁eager",
        -10.621982425244068
      ],
      [
        "09/20",
        -13.900643861991316
      ],
      [
        "▁kell",
        -10.994236221906172
      ],
      [
        "▁occurr",
        -9.776968278096406
      ],
      [
        "g",
        -9.85599899805753
      ],
      [
        "▁burden",
        -10.621986539454886
      ],
      [
        "man",
        -12.141727430762016
      ],
      [
        "▁outdoor",
        -10.782235386598543
      ],
      [
        "▁ch",
        -13.655013984025267
      ],
      [
        "led",
        -9.604468449402448
      ],
      [
        "▁165",
        -13.333829689480131
      ],
      [
        "ity",
        -6.983142717109059
      ],
      [
        "▁get",
        -5.735858642197
      ],
      [
        "▁wait",
        -7.658331872559753
      ],
      [
        "▁63",
        -12.09361104463087
      ],
      [
        "▁cease",
        -10.97341170413158
      ],
      [
        "▁chemical",
        -9.658030631277109
      ],
      [
        "▁to",
        -6.35662362462921
      ],
      [
        "-5",
        -13.761965689359293
      ],
      [
        "▁east",
        -8.61828764045853
      ],
      [
        "lla",
        -11.55015558589468
      ],
      [
        "row",
        -9.896580482552926
      ],
      [
        "▁whale",
        -9.574221340532933
      ],
      [
        "line",
        -9.413211024688355
      ],
      [
        "any",
        -9.173355829436742
      ],
      [
        "▁415",
        -11.58093456553975
      ],
      [
        "x",
        -7.981746832535318
      ],
      [
        "▁ar",
        -9.846424562261774
      ],
      [
        "-44",
        -14.00929965221193
      ],
      [
        "▁uncle",
        -9.364154389618484
      ],
      [
        "wha",
        -12.930203603982541
      ],
      [
        "▁pleasant",
        -9.683897362402389
      ],
      [
        "▁pom",
        -10.758217265956368
      ],
      [
        "▁dud",
        -9.932512515900438
      ],
      [
        "0981",
        -14.135593250866743
      ],
      [
        "▁snack",
        -10.483896756056883
      ],
      [
        "▁laid",
        -10.069988113535608
      ],
      [
        "▁neighbour",
        -10.067751511653968
      ],
      [
        "laine",
        -12.770702540334408
      ],
      [
        "▁examination",
        -10.875061319686852
      ],
      [
        "▁jim",
        -9.718418399026762
      ],
      [
        "▁grave",
        -10.36994113547957
      ],
      [
        "▁punch",
        -10.068446943332768
      ],
      [
        "▁selection",
        -10.028260337779535
      ],
      [
        "▁sink",
        -9.602638274731227
      ],
      [
        "▁accelerat",
        -10.973139151502153
      ],
      [
        "▁six",
        -8.466198163007565
      ],
      [
        "▁confine",
        -10.973143994632395
      ],
      [
        "▁college",
        -9.02768057999804
      ],
      [
        "▁!!!!!!!!!!!!!",
        -12.91786016858164
      ],
      [
        "▁para",
        -10.100087377997594
      ],
      [
        "▁dc",
        -8.047450414660776
      ],
      [
        "▁chao",
        -9.878176627615247
      ],
      [
        "343",
        -12.390815633755022
      ],
      [
        "▁reache",
        -10.758013059698854
      ],
      [
        "ail",
        -13.534355747312889
      ],
      [
        "▁mohamm",
        -10.114359489354625
      ],
      [
        "▁william",
        -9.499174841494291
      ],
      [
        "▁sight",
        -10.237294392906122
      ],
      [
        "▁subject",
        -8.58531618994361
      ],
      [
        "sky",
        -10.668733407829906
      ],
      [
        "▁whil",
        -9.034399813446532
      ],
      [
        "6867",
        -13.1370270105642
      ],
      [
        "▁participate",
        -10.289281120787095
      ],
      [
        "▁hole",
        -8.921807110090482
      ],
      [
        "▁1940",
        -12.335329628465026
      ],
      [
        "▁7.",
        -12.563655679205034
      ],
      [
        "▁wink",
        -10.311075316492127
      ],
      [
        "ut",
        -11.124828315595805
      ],
      [
        "▁benefit",
        -8.861786307462594
      ],
      [
        "▁leap",
        -11.08486919825421
      ],
      [
        "ors",
        -9.48320488509322
      ],
      [
        "▁robot",
        -9.711791175242558
      ],
      [
        "am",
        -12.966085211699603
      ],
      [
        "▁someon",
        -8.389355761262244
      ],
      [
        "远",
        -12.833785825435129
      ],
      [
        "63",
        -13.001747287727072
      ],
      [
        "▁fisc",
        -10.704269030209812
      ],
      [
        "296",
        -12.485626599436337
      ],
      [
        "900",
        -12.649802691990901
      ],
      [
        "▁el",
        -9.643567281355356
      ],
      [
        "▁agree",
        -8.546831884439145
      ],
      [
        "▁sleep",
        -8.101267159867184
      ],
      [
        "▁928",
        -14.21094168812489
      ],
      [
        "09",
        -11.90827491673484
      ],
      [
        "2/200",
        -11.389975573398571
      ],
      [
        "▁calm",
        -9.776039470962122
      ],
      [
        "▁abou",
        -6.522750562308343
      ],
      [
        "▁frequenc",
        -10.973139122380898
      ],
      [
        "▁breakfast",
        -8.595024930460319
      ],
      [
        "088",
        -14.609238966070613
      ],
      [
        "qui",
        -10.31687270070033
      ],
      [
        "▁transparen",
        -10.48387894933041
      ],
      [
        "▁realise",
        -10.663869402260746
      ],
      [
        "▁measure",
        -8.82170350278074
      ],
      [
        "▁title",
        -9.364721147413572
      ],
      [
        "185",
        -14.936288602100408
      ],
      [
        "▁muscle",
        -9.627654443098654
      ],
      [
        "iz",
        -8.867919582963047
      ],
      [
        "199",
        -11.808463155916124
      ],
      [
        "▁2",
        -8.323821680644631
      ],
      [
        "▁no",
        -7.909575133478278
      ],
      [
        "▁wolf",
        -9.875679660580001
      ],
      [
        "uchi",
        -10.351889406709885
      ],
      [
        "▁lit",
        -10.449367339077526
      ],
      [
        "history",
        -8.608259189325834
      ],
      [
        "w",
        -4.938168009100055
      ],
      [
        "▁irritat",
        -10.97316578084004
      ],
      [
        "▁info",
        -9.81194587601626
      ],
      [
        "......",
        -13.233157664918254
      ],
      [
        "▁09:1",
        -12.94142892502291
      ],
      [
        "29",
        -11.000795650078883
      ],
      [
        "tuck",
        -9.337494254085813
      ],
      [
        "▁complaint",
        -10.209325109402124
      ],
      [
        "▁pillow",
        -9.475364856555213
      ],
      [
        "▁folder",
        -11.106187786831919
      ],
      [
        "▁sacrifice",
        -10.621973597260503
      ],
      [
        "▁rapporteur",
        -10.421378358520037
      ],
      [
        "▁toast",
        -8.812105216589252
      ],
      [
        "muel",
        -10.34189084126414
      ],
      [
        "▁incident",
        -10.483883583093013
      ],
      [
        "▁",
        -0.7229493926812545
      ],
      [
        "▁172",
        -13.09131332977712
      ],
      [
        "▁6.2",
        -13.59099710178936
      ],
      [
        "▁convenience",
        -11.084250208899727
      ],
      [
        "bbc",
        -10.700912641340949
      ],
      [
        "ial",
        -8.856827780590084
      ],
      [
        "▁counterpart",
        -9.60052118286885
      ],
      [
        "▁defens",
        -9.457337766066344
      ],
      [
        "il",
        -11.044022491264839
      ],
      [
        "▁bas",
        -8.841208372716318
      ],
      [
        "74",
        -12.34134876797
      ],
      [
        "to",
        -8.568824384538232
      ],
      [
        "▁deliberate",
        -10.483878387701438
      ],
      [
        "▁pier",
        -10.437985514774052
      ],
      [
        "-time",
        -10.88377323962846
      ],
      [
        "▁poet",
        -9.30182111228418
      ],
      [
        "€",
        -10.750452492101797
      ],
      [
        "▁nut",
        -10.226198110342198
      ],
      [
        "▁expire",
        -10.523925976638623
      ],
      [
        "▁401",
        -14.13652949020046
      ],
      [
        "tar",
        -9.937130639089784
      ],
      [
        "▁hammer",
        -10.421395625710122
      ],
      [
        "oral",
        -10.763098550143075
      ],
      [
        "▁cover",
        -8.369377328714162
      ],
      [
        "▁invest",
        -10.18659589743839
      ],
      [
        "▁cla",
        -10.468921171077866
      ],
      [
        "▁hebrew",
        -11.20925021008891
      ],
      [
        "▁negati",
        -9.986433313723353
      ],
      [
        "▁norm",
        -10.548042733797638
      ],
      [
        "▁pump",
        -9.910690268116472
      ],
      [
        "▁twenty-",
        -12.16465112501011
      ],
      [
        "0072",
        -13.439753158054558
      ],
      [
        "head",
        -8.672593617448424
      ],
      [
        "▁regional",
        -9.177320772649427
      ],
      [
        "the",
        -12.834112981039421
      ],
      [
        "▁sensor",
        -10.782624322578439
      ],
      [
        "▁null",
        -11.084365955680411
      ],
      [
        "▁im",
        -9.236361427619972
      ],
      [
        "▁him",
        -6.551944350379654
      ],
      [
        "noth",
        -10.310046823389449
      ],
      [
        "▁equivalen",
        -10.867578689185054
      ],
      [
        "▁ta",
        -9.031074196413666
      ],
      [
        "▁different",
        -7.536214261894406
      ],
      [
        "▁phoe",
        -8.185462971483632
      ],
      [
        "▁facult",
        -10.30700205514011
      ],
      [
        "▁useful",
        -9.78515183736997
      ],
      [
        "pot",
        -10.594992039489334
      ],
      [
        "▁frequent",
        -9.452108736760888
      ],
      [
        "▁arrogant",
        -10.30863613314014
      ],
      [
        "▁score",
        -9.546884695285623
      ],
      [
        "940",
        -13.144619348236319
      ],
      [
        "▁not",
        -11.602694169155521
      ],
      [
        "▁prince",
        -9.98615026164634
      ],
      [
        "▁'",
        -7.870610159838658
      ],
      [
        "▁335",
        -13.289610428496676
      ],
      [
        "▁carry",
        -8.779016953830144
      ],
      [
        "▁pu",
        -10.644626408145365
      ],
      [
        "▁along",
        -9.01432402308101
      ],
      [
        "side",
        -9.307825458137216
      ],
      [
        "▁refer",
        -9.381174092002295
      ],
      [
        "▁angel",
        -8.528989858991926
      ],
      [
        "ft",
        -14.523025007239074
      ],
      [
        "▁room",
        -7.3800578799824645
      ],
      [
        "0.00",
        -12.093399042272235
      ],
      [
        "ib",
        -9.936616115496458
      ],
      [
        "edu",
        -11.7835387581439
      ],
      [
        "▁categori",
        -10.421379140151682
      ],
      [
        "▁buddhist",
        -11.084255402050815
      ],
      [
        "notebook",
        -10.715084824811822
      ],
      [
        "▁automatic",
        -10.159848974834741
      ],
      [
        "▁short",
        -8.068090473482703
      ],
      [
        "▁few",
        -7.563886831166232
      ],
      [
        "▁provid",
        -9.551309693371383
      ],
      [
        "▁answer",
        -8.28682518310099
      ],
      [
        "▁reveal",
        -9.807131693457865
      ],
      [
        "▁rode",
        -10.370388089257775
      ],
      [
        "▁sway",
        -10.992747892323527
      ],
      [
        "▁sum",
        -10.325065926388096
      ],
      [
        "▁fare",
        -7.241329166207645
      ],
      [
        "▁surrender",
        -10.782230160480658
      ],
      [
        "▁revolution",
        -9.88044153998165
      ],
      [
        "▁2000",
        -9.714470099810217
      ],
      [
        "▁debt",
        -10.204778352013243
      ],
      [
        "ig",
        -9.772597130105794
      ],
      [
        "▁whe",
        -8.779464586792187
      ],
      [
        "▁affect",
        -9.073841518225603
      ],
      [
        "▁charm",
        -10.282381852668447
      ],
      [
        "▁speak",
        -8.533178613612126
      ],
      [
        "▁16",
        -9.237816764183771
      ],
      [
        "hobh",
        -11.063609139467818
      ],
      [
        "▁thumb",
        -11.084257165075334
      ],
      [
        "▁cultural",
        -8.970567883913088
      ],
      [
        "▁graduate",
        -9.77049559686572
      ],
      [
        "▁up",
        -6.8551603158540315
      ],
      [
        "er",
        -8.73873720195392
      ],
      [
        "▁rust",
        -10.703973041199202
      ],
      [
        "▁se",
        -12.50489247411908
      ],
      [
        "category",
        -10.204368381109152
      ],
      [
        "▁deny",
        -10.554684630802532
      ],
      [
        "▁guide",
        -10.21224067162671
      ],
      [
        "▁something",
        -9.452286158078696
      ],
      [
        "enron",
        -11.020742050745039
      ],
      [
        "!!!!!!",
        -10.851202100899231
      ],
      [
        "b",
        -5.330992993415272
      ],
      [
        "▁suppose",
        -9.859723585680126
      ],
      [
        "▁understanding",
        -9.408217047078852
      ],
      [
        "▁calculation",
        -10.788770170427583
      ],
      [
        "▁beef",
        -10.875707694981818
      ],
      [
        "▁include",
        -8.454801396796958
      ],
      [
        "▁wealth",
        -9.523564463726103
      ],
      [
        "▁blank",
        -9.985967813730909
      ],
      [
        "▁feather",
        -9.807136489735827
      ],
      [
        "pro",
        -12.50416911868338
      ],
      [
        "▁evil",
        -10.421388575750399
      ],
      [
        "▁",
        -3.6856996051882174
      ],
      [
        "▁nine",
        -9.205736100991716
      ],
      [
        "▁3-5",
        -14.178510138455286
      ],
      [
        "wildlife",
        -10.55295518585842
      ],
      [
        "▁fly",
        -7.267932427625445
      ],
      [
        "▁create",
        -8.319425695837879
      ],
      [
        "▁03:4",
        -12.536190960354329
      ],
      [
        "▁aspect",
        -9.190640413785733
      ],
      [
        "▁forgot",
        -9.073852814432453
      ],
      [
        "▁ride",
        -8.403267148048073
      ],
      [
        "ke",
        -9.218706619911758
      ],
      [
        "▁resign",
        -10.97318902695763
      ],
      [
        "▁vest",
        -10.786107969169585
      ],
      [
        "▁punishment",
        -11.084538039865564
      ],
      [
        "▁uk",
        -9.796629383737784
      ],
      [
        "▁bother",
        -9.68913144319813
      ],
      [
        "▁me",
        -9.606043123058111
      ],
      [
        "1",
        -9.7911173076794
      ],
      [
        "partisan",
        -11.084527724588156
      ],
      [
        "▁soccer",
        -10.973164879194615
      ],
      [
        "▁obstacle",
        -10.621973597665901
      ],
      [
        "▁polan",
        -10.709501195703034
      ],
      [
        "eau",
        -10.253468116882853
      ],
      [
        "or",
        -9.02650783446284
      ],
      [
        "mine",
        -11.79533885365613
      ],
      [
        ":",
        -10.97313907505943
      ],
      [
        "▁session",
        -9.774872792862244
      ],
      [
        "eck",
        -9.7863678261779
      ],
      [
        "▁math",
        -10.720070540265677
      ],
      [
        "ban",
        -9.460161785489724
      ],
      [
        "▁rein",
        -10.38062310876426
      ],
      [
        "▁978",
        -14.088774827596918
      ],
      [
        "▁64.",
        -14.236755398932868
      ],
      [
        "▁impression",
        -10.4233785650774
      ],
      [
        "▁far",
        -7.662949477238192
      ],
      [
        "▁identit",
        -9.997191189830431
      ],
      [
        "▁fundamental",
        -9.384850767216236
      ],
      [
        "▁2.",
        -11.0544669463262
      ],
      [
        "▁toilet",
        -10.55054599191426
      ],
      [
        "-1.",
        -11.084058884179242
      ],
      [
        "nook",
        -10.166981447595251
      ],
      [
        "apita",
        -11.833815009729172
      ],
      [
        "▁94720-",
        -13.136776257797244
      ],
      [
        "eb",
        -11.780674056722553
      ],
      [
        "land",
        -6.858891640333334
      ],
      [
        "▁piece",
        -7.929776084190847
      ],
      [
        "▁rhythm",
        -11.084250209378883
      ],
      [
        "▁familiar",
        -9.914987500586836
      ],
      [
        "▁kan",
        -10.605655494201345
      ],
      [
        "casnon",
        -12.833785903760916
      ],
      [
        "▁import",
        -9.88753724402639
      ],
      [
        "419",
        -15.147059457703024
      ],
      [
        "ook",
        -11.669820182477455
      ],
      [
        "stair",
        -9.381591166035527
      ],
      [
        "▁ha",
        -8.419259569641982
      ],
      [
        "▁discover",
        -9.012786778284584
      ],
      [
        "4-6",
        -14.856897830413907
      ],
      [
        "▁individual",
        -8.914085054526353
      ],
      [
        "▁fellow",
        -9.385780841845767
      ],
      [
        "▁gesture",
        -10.973159491840487
      ],
      [
        "▁slow",
        -8.625579336918518
      ],
      [
        "apor",
        -10.546410734559219
      ],
      [
        "▁o'c",
        -8.376772786656169
      ],
      [
        "▁nose",
        -8.62830060992357
      ],
      [
        "broad",
        -10.458101864185505
      ],
      [
        "▁38",
        -10.592551675736491
      ],
      [
        "▁urban",
        -10.067824236583757
      ],
      [
        "▁function",
        -9.44839564835851
      ],
      [
        "uc",
        -12.842263175669295
      ],
      [
        "▁federal",
        -9.208650277256993
      ],
      [
        "▁stole",
        -10.552392175035862
      ],
      [
        "aternal",
        -10.783017175466739
      ],
      [
        "isation",
        -10.367091781794416
      ],
      [
        "ka",
        -11.598593399000144
      ],
      [
        "▁fool",
        -10.254582804415636
      ],
      [
        "ome",
        -9.966960153601711
      ],
      [
        "▁submitt",
        -10.560915627134758
      ],
      [
        "do",
        -9.846160357156576
      ],
      [
        "sett",
        -10.703706332384812
      ],
      [
        "▁nonstop",
        -8.265548227104436
      ],
      [
        "▁sill",
        -9.5320841753029
      ],
      [
        "▁invite",
        -9.897004579483346
      ],
      [
        "▁facilitate",
        -10.554928151464454
      ],
      [
        "ruse",
        -11.153345853613754
      ],
      [
        "▁bobo",
        -10.372715159627722
      ],
      [
        "▁soup",
        -9.961064608481632
      ],
      [
        "040",
        -14.25756983765908
      ],
      [
        "▁paul",
        -8.024782514461474
      ],
      [
        "▁pri",
        -11.348572751093645
      ],
      [
        "▁shake",
        -10.009670256688409
      ],
      [
        "minate",
        -10.993126635007146
      ],
      [
        "▁democratic",
        -9.550784688864765
      ],
      [
        "▁whisper",
        -10.873139802159924
      ],
      [
        "029",
        -14.571113188046223
      ],
      [
        "▁eva",
        -10.882704247567062
      ],
      [
        "▁tape",
        -8.890400140974819
      ],
      [
        "nter",
        -11.334028696955503
      ],
      [
        "▁bla",
        -10.66547882595629
      ],
      [
        "▁know",
        -5.7441817362972625
      ],
      [
        "▁dollar",
        -8.217972870313835
      ],
      [
        "▁che",
        -9.504498449523576
      ],
      [
        "▁midwest",
        -10.637891023701902
      ],
      [
        "▁hop",
        -11.83466611609779
      ],
      [
        "▁knee",
        -9.894490405340115
      ],
      [
        "▁amendment",
        -9.343632926256255
      ],
      [
        "▁miss",
        -8.314155287834987
      ],
      [
        "▁prospect",
        -10.48387896697021
      ],
      [
        "▁steam",
        -10.42095619549449
      ],
      [
        "▁newspaper",
        -9.49919608104054
      ],
      [
        "▁mysterious",
        -10.97334891471339
      ],
      [
        "thirty",
        -12.183877326748673
      ],
      [
        "▁command",
        -9.737663735362014
      ],
      [
        "jo",
        -11.43397011805476
      ],
      [
        "▁++++",
        -13.72110732452765
      ],
      [
        "▁airport",
        -7.8200675222148375
      ],
      [
        "71",
        -11.60846397450329
      ],
      [
        "pur",
        -10.37143485701321
      ],
      [
        "▁yea",
        -6.460565176963068
      ],
      [
        "▁mother",
        -7.842860300539455
      ],
      [
        "▁earth",
        -8.64532043558489
      ],
      [
        "▁whil",
        -7.852958576257973
      ],
      [
        "▁match",
        -9.230767282598007
      ],
      [
        "▁averag",
        -9.523692171080093
      ],
      [
        "▁sweet",
        -8.941300674347222
      ],
      [
        "▁191",
        -11.896980550058402
      ],
      [
        "mor",
        -13.226626181533648
      ],
      [
        "▁tug",
        -10.874919515723162
      ],
      [
        "▁mix",
        -9.157112776138199
      ],
      [
        "lawi",
        -11.093715586824628
      ],
      [
        "ik",
        -11.833857830146384
      ],
      [
        "oto",
        -10.913814579791683
      ],
      [
        "▁club",
        -9.743612191995702
      ],
      [
        "▁hobb",
        -10.84945128485452
      ],
      [
        "▁wet",
        -9.409024474472925
      ],
      [
        "6-9",
        -12.684351220659941
      ],
      [
        "over",
        -9.637137994016882
      ],
      [
        "33",
        -11.518810232972719
      ],
      [
        "bun",
        -10.560419836200156
      ],
      [
        "▁password",
        -10.11138846362725
      ],
      [
        "▁emphasis",
        -10.873139097781113
      ],
      [
        "▁islami",
        -10.02298010211642
      ],
      [
        "582",
        -13.102324567069678
      ],
      [
        "▁raid",
        -11.086113231501947
      ],
      [
        "bo",
        -9.348416145042624
      ],
      [
        "▁keep",
        -7.455030079453249
      ],
      [
        "▁circle",
        -9.094106789806663
      ],
      [
        "▁hen",
        -9.173627650930655
      ],
      [
        "▁practical",
        -10.03219373853603
      ],
      [
        "▁scene",
        -9.452166893965096
      ],
      [
        "▁281-4",
        -12.337157708975122
      ],
      [
        "▁attempt",
        -8.75324748236065
      ],
      [
        "▁frontier",
        -10.783475190147874
      ],
      [
        "▁fix",
        -8.828776728669421
      ],
      [
        "ian",
        -8.500126074296503
      ],
      [
        "▁paper",
        -7.780929027314263
      ],
      [
        "ting",
        -12.485813309269615
      ],
      [
        "▁part",
        -7.141743355547247
      ],
      [
        "▁throw",
        -8.451380294034394
      ],
      [
        "▁mh",
        -9.452780866665375
      ],
      [
        "▁imperial",
        -11.08437033578201
      ],
      [
        "▁location",
        -8.813235837821617
      ],
      [
        "▁length",
        -9.8072350112515
      ],
      [
        "▁pleasure",
        -9.94828004448458
      ],
      [
        "sheet",
        -11.058017091042267
      ],
      [
        "(",
        -4.749593983020589
      ],
      [
        "▁rec",
        -9.803308011844214
      ],
      [
        "▁temp",
        -10.403764808474989
      ],
      [
        "cambridge",
        -10.873139107515504
      ],
      [
        "▁phase",
        -10.362713448323547
      ],
      [
        "industry",
        -9.089719405179967
      ],
      [
        "-8",
        -12.581491700602657
      ],
      [
        "▁rid",
        -9.336092373922682
      ],
      [
        "▁nonsens",
        -11.084266166044502
      ],
      [
        "dr.",
        -9.084519154486012
      ],
      [
        "045",
        -14.051548089164978
      ],
      [
        "▁157",
        -12.084632893631422
      ],
      [
        "▁europe",
        -8.645316315144727
      ],
      [
        "▁713-793-",
        -13.13677076999933
      ],
      [
        "▁le",
        -10.86344947938667
      ],
      [
        "▁destructi",
        -10.423836529495675
      ],
      [
        "▁living",
        -8.459898744669136
      ],
      [
        "▁foreign",
        -9.356311755483098
      ],
      [
        "▁predict",
        -9.875423179182691
      ],
      [
        "▁sovereign",
        -10.550545035231512
      ],
      [
        "▁motivation",
        -10.873139103038191
      ],
      [
        "▁twel",
        -10.421944521785559
      ],
      [
        "ve",
        -7.179020698767759
      ],
      [
        "▁like",
        -5.718089311360961
      ],
      [
        "▁police",
        -8.804575288289929
      ],
      [
        "▁origin",
        -9.986028843094855
      ],
      [
        "rent",
        -12.342462632652323
      ],
      [
        "330",
        -13.120737973817718
      ],
      [
        "▁iron",
        -10.109303633017
      ],
      [
        "▁102",
        -12.015717884418418
      ],
      [
        "▁preferabl",
        -11.167434356257967
      ],
      [
        "▁especial",
        -8.566176996531539
      ],
      [
        "▁realist",
        -10.48439248809055
      ],
      [
        "▁ninety",
        -11.07772853787612
      ],
      [
        "▁child",
        -8.37677597984495
      ],
      [
        "usa",
        -12.832706118609991
      ],
      [
        "▁suck",
        -10.027621288614135
      ],
      [
        "▁shann",
        -11.11108860416215
      ],
      [
        "arriage",
        -10.626365871589705
      ],
      [
        "▁contemporar",
        -10.111294101529586
      ],
      [
        "▁four",
        -8.194599694491092
      ],
      [
        "half",
        -9.960722211744548
      ],
      [
        "▁keen",
        -10.717902996815905
      ],
      [
        "!!!!!!!!!!",
        -11.520021148139234
      ],
      [
        "ness",
        -7.692828043018081
      ],
      [
        "fel",
        -10.864596426963798
      ],
      [
        "828-",
        -13.137496001915123
      ],
      [
        "ja",
        -12.13970297163354
      ],
      [
        "▁tu",
        -9.872087682157735
      ],
      [
        "ong",
        -8.847486266431805
      ],
      [
        "y@enron",
        -13.171364865159829
      ],
      [
        "▁chor",
        -10.878942323700585
      ],
      [
        "▁bin",
        -9.6610324373028
      ],
      [
        "▁screen",
        -9.385420392795186
      ],
      [
        "ib",
        -13.633299196486593
      ],
      [
        "▁0590",
        -13.23014613029047
      ],
      [
        "▁objective",
        -9.549561350806206
      ],
      [
        "f",
        -4.036213711664914
      ],
      [
        "um",
        -10.357854736078675
      ],
      [
        "η",
        -12.833785825435129
      ],
      [
        "▁sequence",
        -10.78223306919667
      ],
      [
        "▁arch",
        -10.883210280371463
      ],
      [
        "▁constitutional",
        -10.498718735035474
      ],
      [
        "▁#",
        -9.37756217200701
      ],
      [
        "35-",
        -12.600562428656753
      ],
      [
        "▁wha",
        -9.743228513517918
      ],
      [
        "lent",
        -10.762980812655664
      ],
      [
        "▁lexic",
        -10.961740967565884
      ],
      [
        "▁oh",
        -6.27702176129235
      ],
      [
        "▁rubb",
        -10.556193243532423
      ],
      [
        "▁differ",
        -10.698627307185237
      ],
      [
        "▁???",
        -12.15424849418477
      ],
      [
        "▁teaspoon",
        -11.084250212308032
      ],
      [
        "at",
        -10.216755346387043
      ],
      [
        "▁camp",
        -8.940700988802973
      ],
      [
        "▁please",
        -6.5611205714047145
      ],
      [
        "▁extract",
        -10.254448478147212
      ],
      [
        "▁tasting",
        -10.807199133888707
      ],
      [
        "▁trib",
        -11.031021474593175
      ],
      [
        "ght",
        -14.671549717397362
      ],
      [
        "ov",
        -9.767176147223115
      ],
      [
        "&",
        -9.650196930708148
      ],
      [
        "▁visitor",
        -9.661723249067578
      ],
      [
        "/16",
        -14.567007781419006
      ],
      [
        "▁mind",
        -8.149978379424951
      ],
      [
        "▁gcp",
        -10.698922213523057
      ],
      [
        "-90",
        -13.068844075328698
      ],
      [
        "谿",
        -12.833785825435129
      ],
      [
        "▁tab",
        -10.345234292705108
      ],
      [
        "q",
        -9.492433157560688
      ],
      [
        "▁dancer",
        -10.916711993011237
      ],
      [
        "▁decided",
        -8.833658582539117
      ],
      [
        "▁continent",
        -8.468002396080681
      ],
      [
        "ing",
        -9.928808428270834
      ],
      [
        "▁k",
        -8.14521913797769
      ],
      [
        "▁mom",
        -7.819081400025759
      ],
      [
        "▁boil",
        -10.27857241497462
      ],
      [
        "▁witness",
        -10.696174358064457
      ],
      [
        "▁accept",
        -8.442552136605165
      ],
      [
        "175",
        -13.89952388135222
      ],
      [
        "▁monaster",
        -11.090454011677629
      ],
      [
        "▁mass",
        -9.275943492125531
      ],
      [
        "▁rena",
        -10.168842159187458
      ],
      [
        "▁mont",
        -8.428678843118206
      ],
      [
        "888.",
        -12.636947950041677
      ],
      [
        "▁nick",
        -9.713367822552106
      ],
      [
        "hua",
        -10.519227549924604
      ],
      [
        "mond",
        -10.337641846197755
      ],
      [
        "59,",
        -14.128729149811772
      ],
      [
        "tain",
        -10.892362746246063
      ],
      [
        "▁bake",
        -10.92637896941837
      ],
      [
        "▁43",
        -12.118601240506226
      ],
      [
        "▁chatham",
        -10.483940123195023
      ],
      [
        "▁according",
        -8.724602777252402
      ],
      [
        ":00",
        -9.712247828919523
      ],
      [
        "=",
        -10.156319754959132
      ],
      [
        "▁shoul",
        -7.016245635624688
      ],
      [
        "▁dust",
        -9.418672047758305
      ],
      [
        "▁sunn",
        -10.603610305596899
      ],
      [
        "▁wa",
        -11.753053668244322
      ],
      [
        "▁socialist",
        -11.092707118366048
      ],
      [
        "ive",
        -12.834167004932644
      ],
      [
        "dale",
        -10.750854186365569
      ],
      [
        "mp",
        -9.53389577911485
      ],
      [
        "▁best",
        -7.254915090398858
      ],
      [
        "res",
        -11.577153767094353
      ],
      [
        "▁will",
        -6.119805035457615
      ],
      [
        "son@",
        -12.833766077176563
      ],
      [
        "▁suggestion",
        -9.716268978266022
      ],
      [
        "▁million",
        -9.714007873929823
      ],
      [
        "▁aim",
        -9.478420372050632
      ],
      [
        "▁vi",
        -11.090089463635374
      ],
      [
        "▁defend",
        -10.204227808944047
      ],
      [
        "▁drug",
        -9.499248248373597
      ],
      [
        "▁chas",
        -10.203977525535747
      ],
      [
        "kan",
        -13.878336595411938
      ],
      [
        "▁ob",
        -9.946892029881372
      ],
      [
        "▁admitted",
        -10.421553032521256
      ],
      [
        "*",
        -11.209250208901654
      ],
      [
        "▁cutting",
        -9.718855201826862
      ],
      [
        "▁universal",
        -9.841993647262196
      ],
      [
        "▁&",
        -9.8279021695494
      ],
      [
        "▁boat",
        -8.551675732504762
      ],
      [
        "▁202.456.",
        -13.13539424992046
      ],
      [
        "▁trial",
        -9.72154285944912
      ],
      [
        "▁kim",
        -9.745150132804579
      ],
      [
        "side",
        -8.896573886283262
      ],
      [
        "848",
        -14.227528089212953
      ],
      [
        "ountain",
        -10.972564648702694
      ],
      [
        "▁comment",
        -8.592913554637315
      ],
      [
        "hand",
        -10.437922491935803
      ],
      [
        "▁reflect",
        -9.121238189897191
      ],
      [
        "▁et",
        -9.566894945876847
      ],
      [
        "▁circu",
        -10.420086463471744
      ],
      [
        "▁186",
        -13.602023377258487
      ],
      [
        "▁grid",
        -10.822710247840728
      ],
      [
        "▁wol",
        -9.949220266966652
      ],
      [
        "raz",
        -12.216306027598758
      ],
      [
        "▁mil",
        -7.943964855495765
      ],
      [
        "▁vehicle",
        -9.840454624093288
      ],
      [
        "▁which",
        -6.3952446191528125
      ],
      [
        "▁owner",
        -8.972378353353163
      ],
      [
        "asnondelibreaten",
        -11.833786315327183
      ],
      [
        "▁enthusias",
        -10.78199442244024
      ],
      [
        "▁m",
        -11.005205169478106
      ],
      [
        "mi",
        -10.085077495834087
      ],
      [
        "▁$",
        -13.370188823105778
      ],
      [
        "dw",
        -12.848581974628713
      ],
      [
        "▁nandaro",
        -11.378131439771888
      ],
      [
        "▁timing",
        -10.873267822616477
      ],
      [
        "▁plate",
        -9.42978862977814
      ],
      [
        "▁key",
        -8.484768462327857
      ],
      [
        "▁hug",
        -8.55825019292379
      ],
      [
        "▁letter",
        -8.185892608681863
      ],
      [
        "▁stop",
        -7.637317757912156
      ],
      [
        "0.23",
        -13.696436300133028
      ],
      [
        "▁seattle",
        -8.538012627106802
      ],
      [
        "war",
        -10.682546089654338
      ],
      [
        "camo",
        -10.868434306164147
      ],
      [
        "▁lay",
        -8.69536663533814
      ],
      [
        "▁sci",
        -11.107011038143355
      ],
      [
        "▁achiev",
        -10.124040477643891
      ],
      [
        "▁joint",
        -10.175624316707406
      ],
      [
        "▁cowboy",
        -9.743615033969302
      ],
      [
        "ckl",
        -13.677387732759543
      ],
      [
        "▁attain",
        -10.873550511772436
      ],
      [
        "▁shell",
        -9.913134954789337
      ],
      [
        "▁beatle",
        -10.15898597747114
      ],
      [
        "▁frie",
        -10.82735528891203
      ],
      [
        "ta",
        -9.012465213063106
      ],
      [
        "▁seeker",
        -10.516856212604251
      ],
      [
        "▁3,20",
        -14.285822218088654
      ],
      [
        "▁cap",
        -11.042763508224242
      ],
      [
        "▁sense",
        -8.698475774852616
      ],
      [
        "▁cancer",
        -10.873230252226753
      ],
      [
        "ent",
        -8.721089345305106
      ],
      [
        "▁stepp",
        -9.957951806662797
      ],
      [
        "▁cord",
        -10.459095794300705
      ],
      [
        "▁scrap",
        -10.55061748498052
      ],
      [
        "▁10:3",
        -12.310518676031215
      ],
      [
        "rah",
        -10.060084194368319
      ],
      [
        "ight",
        -7.9177091116007565
      ],
      [
        "▁47",
        -12.395029450852924
      ],
      [
        "e",
        -7.983944964984285
      ],
      [
        "▁respect",
        -8.848063692538899
      ],
      [
        "insula",
        -10.927757202841708
      ],
      [
        "▁complian",
        -10.973140849643853
      ],
      [
        "▁golf",
        -10.973682995264534
      ],
      [
        "microsoft",
        -9.226677554791916
      ],
      [
        "▁emphasize",
        -10.99564791334983
      ],
      [
        "esome",
        -9.553743835219098
      ],
      [
        "▁excited",
        -9.758622470540478
      ],
      [
        "santorum",
        -9.774881382732016
      ],
      [
        "▁trash",
        -9.948010524712183
      ],
      [
        "▁n",
        -11.765257504191936
      ],
      [
        "▁opposit",
        -10.98184291421266
      ],
      [
        "▁x",
        -8.663881306236346
      ],
      [
        "cia",
        -10.97411299701249
      ],
      [
        "▁merchant",
        -10.550546369587599
      ],
      [
        "▁harv",
        -10.646021733898124
      ],
      [
        "▁fruit",
        -9.548574298883736
      ],
      [
        "standing",
        -10.281065856891491
      ],
      [
        "yond",
        -9.85779799892806
      ],
      [
        "▁model",
        -8.863700990659796
      ],
      [
        ".62",
        -13.211030304685309
      ],
      [
        "▁death",
        -8.308644924376473
      ],
      [
        "▁mumm",
        -8.397914111120919
      ],
      [
        "▁nin",
        -9.463018193581842
      ],
      [
        "▁shi",
        -11.9449705468203
      ],
      [
        "5",
        -9.078884607816802
      ],
      [
        "▁w",
        -10.342911633810916
      ],
      [
        "▁franc",
        -9.407964931714847
      ],
      [
        "ba",
        -9.36230871509732
      ],
      [
        "▁flor",
        -10.63864738927078
      ],
      [
        "▁03/",
        -13.930564962300714
      ],
      [
        "▁specify",
        -10.622017947604288
      ],
      [
        "▁requir",
        -10.326454080460184
      ],
      [
        "▁leas",
        -7.820394138740564
      ],
      [
        "▁civil",
        -9.523755739504066
      ],
      [
        "▁explain",
        -8.51086377530072
      ],
      [
        "▁destination",
        -10.02685041592717
      ],
      [
        "shoul",
        -9.890237644806534
      ],
      [
        "▁suffer",
        -9.604025317426432
      ],
      [
        "well",
        -10.278309650911378
      ],
      [
        "▁characteristic",
        -10.783908519818201
      ],
      [
        "▁lo",
        -9.288085120415765
      ],
      [
        "19",
        -10.456865167975522
      ],
      [
        "▁jo",
        -9.723757199054395
      ],
      [
        "▁knot",
        -10.699301809641248
      ],
      [
        "▁topic",
        -9.843276334321182
      ],
      [
        "re",
        -9.464589152516979
      ],
      [
        "▁motion",
        -9.775332028648016
      ],
      [
        "▁illustrat",
        -11.042137117701483
      ],
      [
        "60",
        -10.949356537605157
      ],
      [
        "log",
        -9.46633401950331
      ],
      [
        "▁713-",
        -11.018494241629348
      ],
      [
        "▁ahm",
        -10.281252821716826
      ],
      [
        "shore",
        -10.949051467294982
      ],
      [
        "▁combat",
        -10.795199292155912
      ],
      [
        "▁thanks",
        -7.795785576476783
      ],
      [
        "▁bra",
        -10.249151430181135
      ],
      [
        "ro",
        -12.156257386659592
      ],
      [
        "▁nan",
        -12.25253368878968
      ],
      [
        "▁strip",
        -10.667750705518511
      ],
      [
        "▁rope",
        -10.484172496312713
      ],
      [
        "ura",
        -10.534559506215391
      ],
      [
        "ce",
        -12.10047152210219
      ],
      [
        "▁memoir",
        -10.782232839824534
      ],
      [
        "▁zac",
        -11.07329158188967
      ],
      [
        ":13",
        -14.84515451780603
      ],
      [
        "▁media",
        -8.900765811820936
      ],
      [
        "▁lifestyle",
        -10.973140972294438
      ],
      [
        "▁hire",
        -10.011991560923857
      ],
      [
        "▁15",
        -8.984665687247123
      ],
      [
        "▁crack",
        -10.061714918069473
      ],
      [
        "▁plent",
        -9.604882645858028
      ],
      [
        "ibilit",
        -10.60233161506765
      ],
      [
        "ak",
        -9.461053881044002
      ],
      [
        "-46",
        -14.683129009797762
      ],
      [
        "nuclear",
        -9.574205345637347
      ],
      [
        "▁palace",
        -10.307009475809988
      ],
      [
        "▁legal",
        -8.868427437612237
      ],
      [
        "▁railway",
        -10.782592100528078
      ],
      [
        "▁gar",
        -11.938717667428307
      ],
      [
        "▁sixt",
        -9.245239739577888
      ],
      [
        "▁lap",
        -10.431878884248896
      ],
      [
        "▁moistur",
        -10.698939151902037
      ],
      [
        "▁narrative",
        -10.36255483177523
      ],
      [
        "▁189",
        -11.15103278247761
      ],
      [
        "▁tree",
        -8.66131432277415
      ],
      [
        "▁expected",
        -9.49318980185867
      ],
      [
        "▁detective",
        -10.622632771965144
      ],
      [
        "▁martyr",
        -11.084259725885662
      ],
      [
        "▁honest",
        -9.499185949862639
      ],
      [
        "whil",
        -10.34134917773606
      ],
      [
        "nab",
        -11.450820924465399
      ],
      [
        "▁64.7",
        -13.148243418369379
      ],
      [
        "be",
        -7.3382005433760105
      ],
      [
        "ours",
        -13.891153374149832
      ],
      [
        "▁accurac",
        -11.209250214708716
      ],
      [
        "▁google",
        -9.191090887962405
      ],
      [
        "▁carolin",
        -9.922967456489788
      ],
      [
        "ip",
        -9.932655409933886
      ],
      [
        "ign",
        -10.516702778342307
      ],
      [
        "▁315",
        -13.155477789292316
      ],
      [
        "00,000",
        -13.506341496060433
      ],
      [
        "ppy",
        -10.999019044961623
      ],
      [
        "▁dispos",
        -11.175140067885284
      ],
      [
        "▁big",
        -6.967008261820932
      ],
      [
        "self",
        -7.580187025236798
      ],
      [
        "ture",
        -9.636384541285167
      ],
      [
        "ight",
        -9.699429484649148
      ],
      [
        "through",
        -10.025984896003525
      ],
      [
        "▁culture",
        -8.686925573889859
      ],
      [
        "▁pi",
        -9.581604494031545
      ],
      [
        "▁many",
        -6.810024347577828
      ],
      [
        "428",
        -13.59096394870987
      ],
      [
        "▁napkin",
        -10.484191869754042
      ],
      [
        "▁architectur",
        -10.618255486435993
      ],
      [
        "▁settle",
        -9.771911506636336
      ],
      [
        "▁list",
        -6.630249201279371
      ],
      [
        "j",
        -11.993990655777992
      ],
      [
        "chene",
        -11.13974037262285
      ],
      [
        "▁frighten",
        -10.362565861084832
      ],
      [
        "▁purchas",
        -10.493896039323952
      ],
      [
        "82",
        -12.695234607868187
      ],
      [
        "at",
        -11.735037344101686
      ],
      [
        "ll",
        -5.735079957665787
      ],
      [
        "▁involv",
        -9.219672059982857
      ],
      [
        "▁learn",
        -7.88042129122728
      ],
      [
        "▁rattl",
        -11.085236465940117
      ],
      [
        "▁tam",
        -10.519663649389418
      ],
      [
        "▁friend",
        -7.704360411853865
      ],
      [
        "▁glove",
        -9.91137051541009
      ],
      [
        "▁afghan",
        -8.969270604761736
      ],
      [
        "▁2/",
        -14.396171217010773
      ],
      [
        "▁202.4",
        -14.138177894591795
      ],
      [
        "▁112",
        -13.20433502805754
      ],
      [
        "▁advertis",
        -10.02764921479412
      ],
      [
        "90",
        -11.918338620993051
      ],
      [
        "▁lives",
        -8.987456441984108
      ],
      [
        "▁easi",
        -8.767152846625214
      ],
      [
        "▁profound",
        -11.08425045714576
      ],
      [
        "▁respectful",
        -10.976911309061954
      ],
      [
        "▁resolution",
        -10.204373060943025
      ],
      [
        "▁flaw",
        -10.874902408772527
      ],
      [
        "▁tactic",
        -10.6990387585676
      ],
      [
        "/25/200",
        -12.112325426631577
      ],
      [
        "et",
        -10.675836850049606
      ],
      [
        "/4",
        -14.507837677050663
      ],
      [
        "pike",
        -10.88679229561571
      ],
      [
        "genda",
        -10.29826526687497
      ],
      [
        "▁row",
        -9.336530411291365
      ],
      [
        "8,8",
        -13.136802463436528
      ],
      [
        "▁bu",
        -5.83388619210857
      ],
      [
        "ce",
        -6.707250711934617
      ],
      [
        "aunt",
        -11.090833848021024
      ],
      [
        "▁wash",
        -8.8186276693769
      ],
      [
        "▁spark",
        -10.975160593411358
      ],
      [
        "lib",
        -11.165531979159404
      ],
      [
        "▁twa",
        -9.31546027163797
      ],
      [
        "▁forty",
        -11.341341411131513
      ],
      [
        "'s",
        -9.29672248805738
      ],
      [
        "48-",
        -13.886555118997332
      ],
      [
        "▁persian",
        -10.873516893617701
      ],
      [
        "chi",
        -10.22681983839092
      ],
      [
        "▁air",
        -7.309015664493768
      ],
      [
        "▁distant",
        -10.973178848555026
      ],
      [
        "___________",
        -10.848298036816363
      ],
      [
        "▁blou",
        -10.553766086899437
      ],
      [
        "▁tide",
        -11.08528009435921
      ],
      [
        "▁kay",
        -9.626087307179024
      ],
      [
        "________________",
        -9.675548522665638
      ],
      [
        "▁yes",
        -7.209091090792579
      ],
      [
        "l",
        -6.231528932805014
      ],
      [
        "/26/",
        -14.189086006831161
      ],
      [
        "bell",
        -10.411182326663338
      ],
      [
        "cio",
        -12.833369130139856
      ],
      [
        "ram",
        -12.83821386947134
      ],
      [
        "ike",
        -10.585700685332831
      ],
      [
        "▁after",
        -9.748141363374536
      ],
      [
        "----------------",
        -8.665339290745422
      ],
      [
        "▁generation",
        -9.344295795469561
      ],
      [
        "▁risk",
        -8.86184843609528
      ],
      [
        "▁clan",
        -10.995075467148384
      ],
      [
        "p",
        -7.972623554296507
      ],
      [
        "▁tradition",
        -9.828463589297925
      ],
      [
        "▁quixot",
        -10.782230107113012
      ],
      [
        "▁serving",
        -9.910655351251881
      ],
      [
        "???",
        -11.362839390116866
      ],
      [
        "rap",
[...]
