{
  "version": "1.0",
  "truncation": null,
  "padding": null,
  "added_tokens": [
    {
      "id": 779,
      "content": "[SEP]",
      "single_word": false,
      "lstrip": false,
      "rstrip": false,
      "normalized": false,
      "special": true
    },
    {
      "id": 843,
      "content": "[PAD]",
      "single_word": false,
      "lstrip": false,
      "rstrip": false,
      "normalized": false,
      "special": true
    },
    {
      "id": 1045,
      "content": "[CLS]",
      "single_word": false,
      "lstrip": false,
      "rstrip": false,
      "normalized": false,
      "special": true
    },
    {
      "id": 1849,
      "content": "[MASK]",
      "single_word": false,
      "lstrip": false,
      "rstrip": false,
      "normalized": false,
      "special": true
    },
    {
      "id": 3926,
      "content": "[UNK]",
      "single_word": false,
      "lstrip": false,
      "rstrip": false,
      "normalized": false,
      "special": true
    }
  ],
  "normalizer": {
    "type": "Sequence",
    "normalizers": [
      {
        "type": "NFD"
      },
      {
        "type": "Lowercase"
      },
      {
        "type": "StripAccents"
      }
    ]
  },
  "pre_tokenizer": {
    "type": "Sequence",
    "pretokenizers": [
      {
        "type": "Metaspace",
        "replacement": "▁",
        "prepend_scheme": "always",
        "split": true
      }
    ]
  },
  "post_processor": {
    "type": "TemplateProcessing",
    "single": [
      {
        "SpecialToken": {
          "id": "[CLS]",
          "type_id": 0
        }
      },
      {
        "Sequence": {
          "id": "A",
          "type_id": 0
        }
      },
      {
        "SpecialToken": {
          "id": "[SEP]",
          "type_id": 0
        }
      }
    ],
    "pair": [
      {
        "SpecialToken": {
          "id": "[CLS]",
          "type_id": 0
        }
      },
      {
        "Sequence": {
          "id": "A",
          "type_id": 0
        }
      },
      {
        "SpecialToken": {
          "id": "[SEP]",
          "type_id": 0
        }
      },
      {
        "Sequence": {
          "id": "B",
          "type_id": 1
        }
      },
      {
        "SpecialToken": {
          "id": "[SEP]",
          "type_id": 1
        }
      }
    ],
    "special_tokens": {
      "[CLS]": {
        "id": "[CLS]",
        "ids": [
          1045
        ],
        "tokens": [
          "[CLS]"
        ]
      },
      "[SEP]": {
        "id": "[SEP]",
        "ids": [
          779
        ],
        "tokens": [
          "[SEP]"
        ]
      }
    }
  },
  "decoder": {
    "type": "Metaspace",
    "replacement": "▁",
    "prepend_scheme": "always",
    "split": true
  },
  "model": {
    "type": "BPE",
    "dropout": null,
    "unk_token": "[UNK]",
    "continuing_subword_prefix": null,
    "end_of_word_suffix": null,
    "fuse_unk": false,
    "byte_fallback": false,
    "ignore_merges": false,
    "vocab": {
      "▁lou": 0,
      "/13": 1,
      "▁respons": 2,
      "–": 3,
      ":34": 4,
      "one": 5,
      "▁fix": 6,
      "++": 7,
      "▁3/4": 8,
      "/10/2004": 9,
      "-0295": 10,
      "▁ag": 11,
      "▁67": 12,
      "▁fa": 13,
      "▁beg": 14,
      "▁pit": 15,
      "▁bro": 16,
      "▁prob": 17,
      "ately": 18,
      "▁713-853-3098": 19,
      "way": 20,
      "▁astride": 21,
      "▁’ll": 22,
      "iff": 23,
      "▁sched": 24,
      "▁animals": 25,
      "▁sch": 26,
      "▁rights": 27,
      "▁may": 28,
      "▁.3": 29,
      "▁10:30": 30,
      "▁partic": 31,
      "▁1783": 32,
      "ster": 33,
      "▁343": 34,
      "393": 35,
      "▁attention": 36,
      "▁through": 37,
      "▁apar": 38,
      "ass": 39,
      "▁[": 40,
      "▁noone": 41,
      "ز": 42,
      "ible": 43,
      "ust": 44,
      "▁7:00": 45,
      "▁research": 46,
      "ial": 47,
      "▁inst": 48,
      "▁09/15/99": 49,
      "▁general": 50,
      "▁tex": 51,
      "▁time": 52,
      "▁repres": 53,
      "澹": 54,
      "谿": 55,
      "viat": 56,
      "72": 57,
      ".30": 58,
      "435": 59,
      "▁bul": 60,
      "▁week": 61,
      "▁body": 62,
      "▁local": 63,
      "▁person": 64,
      "▁jud": 65,
      "▁eighty": 66,
      "▁report": 67,
      "ploy": 68,
      "▁cha": 69,
      ".11": 70,
      "▁sil": 71,
      "ug": 72,
      "iew": 73,
      "▁summer": 74,
      "68": 75,
      "▁13011": 76,
      "most": 77,
      "iz": 78,
      "▁1965": 79,
      "▁bed": 80,
      "▁east": 81,
      "▁08/03": 82,
      "▁1580": 83,
      "28": 84,
      "▁345-99": 85,
      "▁girl": 86,
      "▁incl": 87,
      "▁32": 88,
      "▁et": 89,
      "ating": 90,
      "ages": 91,
      "▁1912": 92,
      "▁sw": 93,
      "▁lot": 94,
      ".85": 95,
      "▁zer": 96,
      "/03": 97,
      "olution": 98,
      "▁n": 99,
      "▁'re": 100,
      "▁9:30": 101,
      "^": 102,
      "ς": 103,
      "ap": 104,
      "ane": 105,
      "▁alberta": 106,
      "▁'": 107,
      "ood": 108,
      "▁from": 109,
      "▁5": 110,
      "▁934": 111,
      "▁12/2": 112,
      "▁416-8": 113,
      "▁10/31": 114,
      "▁6:30": 115,
      "ife": 116,
      "▁priv": 117,
      "iet": 118,
      "ill": 119,
      "ling": 120,
      "raw": 121,
      "s": 122,
      "▁notwithstanding": 123,
      "▁evening": 124,
      "▁838": 125,
      "▁1.75": 126,
      "▁.?": 127,
      "ians": 128,
      "▁issue": 129,
      "ified": 130,
      "/1": 131,
      "<": 132,
      "act": 133,
      "▁366": 134,
      "▁on": 135,
      "ord": 136,
      "▁col": 137,
      "▁litt": 138,
      "▁city": 139,
      "▁become": 140,
      "▁open": 141,
      "▁03:20": 142,
      "ule": 143,
      "▁pen": 144,
      "▁forty-eight": 145,
      "jects": 146,
      "39": 147,
      "out": 148,
      "▁315-460-3": 149,
      "▁713-654-03": 150,
      "79": 151,
      "▁p": 152,
      "▁tuesday": 153,
      "▁cr": 154,
      "▁don": 155,
      "o": 156,
      "ote": 157,
      "-7": 158,
      "▁646-84": 159,
      "▁over": 160,
      "▁shall": 161,
      "ience": 162,
      "119": 163,
      "▁166": 164,
      "▁230": 165,
      "▁^": 166,
      "▁americ": 167,
      "▁2007": 168,
      "▁product": 169,
      "▁favor": 170,
      "▁miss": 171,
      ":15": 172,
      "▁system": 173,
      "ivid": 174,
      "▁indianapolis": 175,
      "▁leg": 176,
      "▁earliest": 177,
      "onto": 178,
      "▁others": 179,
      "▁sto": 180,
      "ached": 181,
      "rew": 182,
      "▁pack": 183,
      "▁ha": 184,
      "▁04:": 185,
      "3/2000": 186,
      "▁wether": 187,
      "▁1222": 188,
      "-343": 189,
      "‘": 190,
      "▁pu": 191,
      "m": 192,
      "▁pop": 193,
      "▁car": 194,
      "▁ball": 195,
      "▁373": 196,
      "▁1300": 197,
      "▁calif": 198,
      "▁177": 199,
      "8-3": 200,
      "▁sc": 201,
      "--------": 202,
      "▁group": 203,
      "▁national": 204,
      "▁outside": 205,
      "▁460": 206,
      "18": 207,
      "▁744": 208,
      "▁game": 209,
      ",500": 210,
      "▁took": 211,
      "unic": 212,
      "▁gas": 213,
      "▁wants": 214,
      "▁01/2": 215,
      "▁sy": 216,
      "▁h": 217,
      "▁many": 218,
      "▁either": 219,
      "▁tell": 220,
      ".2": 221,
      "▁property": 222,
      "▁longer": 223,
      "▁cent": 224,
      "isco": 225,
      "▁'s": 226,
      "▁possible": 227,
      "ablish": 228,
      "ans": 229,
      "▁hors": 230,
      "▁20,000": 231,
      "▁him": 232,
      "▁bus": 233,
      "▁2.15": 234,
      "▁?!": 235,
      "▁paren": 236,
      "fe": 237,
      "ma": 238,
      "▁1920": 239,
      "▁217": 240,
      "ality": 241,
      "ct": 242,
      "ogn": 243,
      "▁tast": 244,
      "ook": 245,
      "▁??": 246,
      "▁ref": 247,
      "▁8:00": 248,
      "▁infl": 249,
      "▁good": 250,
      "8/2001": 251,
      "▁received": 252,
      "e@enron": 253,
      "▁pa": 254,
      "ε": 255,
      "▁three": 256,
      "-79": 257,
      "▁guess": 258,
      "▁cond": 259,
      "▁770": 260,
      "ɛ": 261,
      "▁about": 262,
      "▁direct": 263,
      "▁190": 264,
      "li": 265,
      "▁too": 266,
      "▁1957": 267,
      "▁814.86": 268,
      "ort": 269,
      "▁nor": 270,
      "▁twenty-six": 271,
      "vers": 272,
      "▁pass": 273,
      "3098": 274,
      "ior": 275,
      "-20": 276,
      "▁1": 277,
      "▁-": 278,
      "▁dec": 279,
      "9/2001": 280,
      "▁814": 281,
      "▁84": 282,
      "▁nonstop": 283,
      "▁staff": 284,
      "osed": 285,
      "▁415.782": 286,
      "▁06": 287,
      "/9": 288,
      "▁check": 289,
      "▁sitting": 290,
      "92": 291,
      "▁03/09/2000": 292,
      "are": 293,
      "▁35": 294,
      ".70": 295,
      "▁highly": 296,
      "▁yes": 297,
      "▁man": 298,
      "min": 299,
      "▁238": 300,
      "▁lab": 301,
      "sel": 302,
      "▁800": 303,
      "@enron_development": 304,
      "▁should": 305,
      "▁1774": 306,
      "▁cl": 307,
      "▁iraq": 308,
      "▁press": 309,
      "▁besid": 310,
      "▁out": 311,
      "4-79": 312,
      "▁ple": 313,
      "day": 314,
      "iron": 315,
      "/15": 316,
      "ives": 317,
      "▁inf": 318,
      ".doc": 319,
      "▁205": 320,
      "▁chicago": 321,
      "/15/2001": 322,
      "-1": 323,
      "stand": 324,
      "u": 325,
      "▁lay": 326,
      "less": 327,
      "▁outs": 328,
      "oke": 329,
      "▁ii": 330,
      "109": 331,
      "▁anoder": 332,
      "▁253": 333,
      "▁jump": 334,
      "43": 335,
      "▁tw": 336,
      "▁downtown": 337,
      "ago": 338,
      "▁łod": 339,
      "▁04/16/2001": 340,
      "ific": 341,
      "▁cat": 342,
      "side": 343,
      "▁old": 344,
      "▁400": 345,
      ":35": 346,
      "▁b/": 347,
      "▁numer": 348,
      "red": 349,
      "▁concern": 350,
      "▁bre": 351,
      "wh": 352,
      "▁pret": 353,
      "zer": 354,
      "▁hol": 355,
      "▁so": 356,
      "▁island": 357,
      ":07": 358,
      "▁jap": 359,
      "ational": 360,
      "ound": 361,
      "▁read": 362,
      "87": 363,
      "▁1977": 364,
      "/26": 365,
      "▁period": 366,
      "▁going": 367,
      "▁b": 368,
      "▁yellow": 369,
      "▁08:50": 370,
      "▁accept": 371,
      "▁bel": 372,
      "▁9221": 373,
      "-625": 374,
      "▁pos": 375,
      "▁begin": 376,
      "▁iii": 377,
      "▁want": 378,
      "ina": 379,
      "▁yourself": 380,
      "ix": 381,
      "▁705": 382,
      "▁party": 383,
      "iation": 384,
      "▁perf": 385,
      "▁bu": 386,
      "ay": 387,
      "--------------------------------": 388,
      "▁70.85": 389,
      "epend": 390,
      "▁democr": 391,
      "▁140": 392,
      "▁enough": 393,
      ":42": 394,
      "ummy": 395,
      "▁interested": 396,
      "▁sm": 397,
      "able": 398,
      "▁1972": 399,
      "▁s’": 400,
      "▁could": 401,
      "▁http://www.": 402,
      "▁04/2": 403,
      "▁sever": 404,
      "▁thirty-": 405,
      "▁california": 406,
      "▁board": 407,
      "▁amidst": 408,
      "▁44,000": 409,
      "▁ser": 410,
      "▁young": 411,
      "5": 412,
      "cent": 413,
      "ansas": 414,
      "▁analys": 415,
      "▁espec": 416,
      "58": 417,
      "▁tot": 418,
      "▁nwww": 419,
      "ys": 420,
      "/03/2001": 421,
      "▁two": 422,
      "▁date": 423,
      "▁becuse": 424,
      "▁1928": 425,
      "ie": 426,
      "▁your": 427,
      "▁except": 428,
      "▁1820": 429,
      "orrow": 430,
      "▁gre": 431,
      "▁fares": 432,
      "3.6": 433,
      "▁cost": 434,
      "_de": 435,
      "clud": 436,
      "▁1589": 437,
      "▁gr": 438,
      "▁power": 439,
      "ese": 440,
      "▁white": 441,
      "▁thursday": 442,
      "▁dis": 443,
      "@enron_de": 444,
      "▁10/26/2000": 445,
      "9999": 446,
      "ock": 447,
      "▁sol": 448,
      "▁st.": 449,
      "▁-----------------------------------------------------------------": 450,
      "oph": 451,
      "7": 452,
      "▁doo": 453,
      "▁ground": 454,
      "ogether": 455,
      "▁mot": 456,
      "▁28,000": 457,
      "▁way": 458,
      "ollow": 459,
      "▁529999": 460,
      "ph": 461,
      "www": 462,
      "▁second": 463,
      "ek": 464,
      "▁d": 465,
      "▁a": 466,
      "▁50,000": 467,
      "am": 468,
      "~*~*": 469,
      "▁was": 470,
      "▁jun": 471,
      "▁both": 472,
      "▁240": 473,
      "▁<": 474,
      "ious": 475,
      "hing": 476,
      "ace": 477,
      "▁cle": 478,
      "uge": 479,
      "▁must": 480,
      "....": 481,
      "-00": 482,
      "▁char": 483,
      "▁ob": 484,
      "ole": 485,
      "s.": 486,
      "▁million": 487,
      "461": 488,
      "▁adv": 489,
      "▁kansas": 490,
      "▁uhh": 491,
      "▁ro": 492,
      "▁reg": 493,
      "▁bush": 494,
      "▁4.0": 495,
      "▁5.6": 496,
      "▁18": 497,
      "▁wi": 498,
      "/01": 499,
      "_^": 500,
      "j": 501,
      "▁clear": 502,
      "▁needed": 503,
      "▁05908549": 504,
      "de": 505,
      "x": 506,
      "▁poss": 507,
      "▁hor": 508,
      ":18": 509,
      "ming": 510,
      "▁peace": 511,
      "▁***": 512,
      "▁perdu": 513,
      "▁52": 514,
      "▁1605": 515,
      "▁go": 516,
      "▁500": 517,
      "▁crit": 518,
      "]": 519,
      "ered": 520,
      "▁not": 521,
      "▁324": 522,
      "▁occ": 523,
      "lf": 524,
      "▁analysis_0712": 525,
      "ues": 526,
      "▁mommy": 527,
      "▁1871": 528,
      "▁pres": 529,
      "▁“": 530,
      "▁1964": 531,
      "▁yea": 532,
      "ted": 533,
      ".16": 534,
      "▁bill": 535,
      "▁door": 536,
      "▁ac": 537,
      "▁though": 538,
      "tsbur": 539,
      "ml": 540,
      "ith": 541,
      "▁1-8": 542,
      "▁birthday": 543,
      "▁never": 544,
      "▁can": 545,
      "▁its": 546,
      "▁44": 547,
      "▁1969": 548,
      ":17": 549,
      "▁interv": 550,
      "▁mich": 551,
      "-468-3": 552,
      "/13/2001": 553,
      "-8": 554,
      ".621": 555,
      "ck": 556,
      "▁03:58": 557,
      "▁;": 558,
      "co": 559,
      "▁2017": 560,
      "ects": 561,
      "▁dog": 562,
      "/200": 563,
      "▁170": 564,
      "cond": 565,
      "▁,": 566,
      "▁living": 567,
      "▁sure": 568,
      "8/2000": 569,
      "▁law": 570,
      "ondon": 571,
      "▁them": 572,
      "ised": 573,
      "▁1974": 574,
      "ics": 575,
      "▁wife": 576,
      "▁usually": 577,
      "▁orig": 578,
      "▁wa": 579,
      "▁men": 580,
      "▁da": 581,
      "111": 582,
      "by": 583,
      "▁known": 584,
      "0010": 585,
      "tw": 586,
      "self": 587,
      "▁11/29/2000": 588,
      "▁beside": 589,
      "ah": 590,
      "ron": 591,
      "29": 592,
      "▁mass": 593,
      "ub": 594,
      ",950": 595,
      ".123": 596,
      "://": 597,
      "▁delta": 598,
      "▁4": 599,
      "▁soon": 600,
      "▁last": 601,
      "▁id": 602,
      "ω": 603,
      "▁1623": 604,
      "ability": 605,
      "▁hot": 606,
      "▁/": 607,
      "ross": 608,
      "▁fun": 609,
      "295": 610,
      "▁called": 611,
      "▁ir": 612,
      "▁-ect": 613,
      ".713.86": 614,
      "z": 615,
      "▁1940": 616,
      "▁californ": 617,
      "▁hands": 618,
      "▁service": 619,
      "elp": 620,
      "dy": 621,
      "744": 622,
      "▁1696": 623,
      "▁”": 624,
      "um": 625,
      "▁stand": 626,
      "ο": 627,
      "six": 628,
      "▁laura": 629,
      "▁comput": 630,
      "▁harry": 631,
      "ars": 632,
      "▁713": 633,
      "/8": 634,
      "uz": 635,
      "▁const": 636,
      "▁some": 637,
      "▁xv": 638,
      "▁communications": 639,
      "it": 640,
      "ull": 641,
      "▁avail": 642,
      "▁whilst": 643,
      "▁!?": 644,
      "-6": 645,
      "▁art": 646,
      "ived": 647,
      "▁trillion": 648,
      "▁ear": 649,
      "▁2015": 650,
      "▁20:00": 651,
      "▁get": 652,
      "gel": 653,
      "▁invol": 654,
      "▁bet": 655,
      "▁table": 656,
      "▁2.6": 657,
      ".916.718": 658,
      "▁pub": 659,
      "▁wan": 660,
      "▁exper": 661,
      "▁west": 662,
      "▁step": 663,
      "ul": 664,
      "53": 665,
      "▁fut": 666,
      "▁68": 667,
      "30": 668,
      "▁85": 669,
      "▁prod": 670,
      "51": 671,
      "▁boat": 672,
      "▁sub": 673,
      "▁185": 674,
      "▁cou": 675,
      "▁run": 676,
      "▁3,202": 677,
      "▁bar": 678,
      "▁prov": 679,
      ".9": 680,
      "▁see": 681,
      ":23": 682,
      "esday": 683,
      "▁01:0": 684,
      "▁beautiful": 685,
      "▁around": 686,
      "▁rest": 687,
      "ensive": 688,
      "thers": 689,
      "ride": 690,
      "▁'ll": 691,
      "7.77": 692,
      "ility": 693,
      "▁particular": 694,
      "▁against": 695,
      "▁1220": 696,
      "▁270": 697,
      "▁25": 698,
      "▁de": 699,
      "▁1.4": 700,
      "▁data": 701,
      "▁sp": 702,
      "▁aircraft": 703,
      "±": 704,
      "▁360": 705,
      "▁2,": 706,
      "▁sal": 707,
      "▁alread": 708,
      "▁415": 709,
      "34": 710,
      "▁anyone": 711,
      "▁–": 712,
      "ding": 713,
      "▁everybody": 714,
      "夏": 715,
      "▁f": 716,
      "▁...": 717,
      "iat": 718,
      "or": 719,
      "20-": 720,
      "▁sam": 721,
      "▁days": 722,
      "▁idea": 723,
      "und": 724,
      "▁twelve": 725,
      "▁cer": 726,
      "▁104": 727,
      "▁phot": 728,
      "▁suff": 729,
      "▁resp": 730,
      "▁600": 731,
      "▁london": 732,
      "▁..": 733,
      "▁24": 734,
      "rench": 735,
      "▁08/17/2000": 736,
      "▁16.3": 737,
      "▁agre": 738,
      "▁whereby": 739,
      "ommend": 740,
      "▁1100": 741,
      "▁1836": 742,
      "▁17": 743,
      "▁feet": 744,
      "son": 745,
      "▁russ": 746,
      ",": 747,
      "ast": 748,
      "unch": 749,
      "▁‘": 750,
      "▁minus": 751,
      "▁ham": 752,
      "▁origin": 753,
      "ll": 754,
      "▁countries": 755,
      "▁1843": 756,
      "fore": 757,
      "20": 758,
      "▁his": 759,
      "enron": 760,
      "▁born": 761,
      "▁1994": 762,
      "▁aft": 763,
      "▁sorry": 764,
      "▁differ": 765,
      "ained": 766,
      "ack": 767,
      "ide": 768,
      "▁================================": 769,
      "▁york": 770,
      "▁record": 771,
      "▁'m": 772,
      "so": 773,
      "▁2016": 774,
      "▁1835": 775,
      "ud": 776,
      "urch": 777,
      "▁rul": 778,
      "[SEP]": 779,
      "imes": 780,
      "▁amount": 781,
      "▁5:30": 782,
      "...": 783,
      "▁franc": 784,
      "iod": 785,
      "ec": 786,
      "▁al.": 787,
      "▁is": 788,
      "▁throughout": 789,
      "▁political": 790,
      "▁anybody": 791,
      "▁matter": 792,
      "▁they": 793,
      "~*": 794,
      "­": 795,
      "▁where": 796,
      "74": 797,
      "ary": 798,
      "×": 799,
      "▁1890": 800,
      "▁sar": 801,
      "▁george": 802,
      "uation": 803,
      "▁money": 804,
      "8": 805,
      "▁transport": 806,
      "▁2005": 807,
      "ama": 808,
      "▁tur": 809,
      "▁979": 810,
      "ness": 811,
      "▁pho": 812,
      "▁works": 813,
      "▁without": 814,
      "▁1996": 815,
      "▁11:0": 816,
      "▁755": 817,
      "▁_________________________________": 818,
      "1-9": 819,
      "▁care": 820,
      "▁1939": 821,
      "▁60,000": 822,
      "▁415.621.8317": 823,
      "▁talking": 824,
      "▁let": 825,
      "ired": 826,
      "▁another": 827,
      "▁!": 828,
      "48": 829,
      ":13": 830,
      "▁’m": 831,
      "▁were": 832,
      "▁1988": 833,
      "▁sleep": 834,
      "一": 835,
      "▁head": 836,
      "eap": 837,
      "ation": 838,
      "▁exam": 839,
      "▁months": 840,
      "▁1291": 841,
      "▁79": 842,
      "[PAD]": 843,
      "▁use": 844,
      "int": 845,
      "▁albeit": 846,
      "▁02/13/2001": 847,
      "▁baltimore": 848,
      "▁john": 849,
      "53-3": 850,
      "▁bit": 851,
      "▁pain": 852,
      ".3": 853,
      "▁no-6": 854,
      "ies": 855,
      "▁928": 856,
      "▁12:1": 857,
      "▁vis": 858,
      "erg": 859,
      "▁side": 860,
      "na": 861,
      "▁although": 862,
      "▁2010": 863,
      "▁bott": 864,
      "▁stre": 865,
      "▁guys": 866,
      "▁1991": 867,
      "▁light": 868,
      "inner": 869,
      "▁01:14": 870,
      "▁everyone": 871,
      "▁including": 872,
      "ore": 873,
      "▁54": 874,
      "▁ke": 875,
      "ping": 876,
      "-4": 877,
      "▁st": 878,
      "82": 879,
      ".1": 880,
      "asing": 881,
      ":3": 882,
      "▁900": 883,
      "est": 884,
      "▁work": 885,
      "rect": 886,
      "▁auth": 887,
      "aph": 888,
      "-5": 889,
      "▁las": 890,
      "▁1590": 891,
      "▁abs": 892,
      "▁air": 893,
      "▁nobody": 894,
      "ower": 895,
      "▁cons": 896,
      "isk": 897,
      "ه": 898,
      "▁405": 899,
      "▁am": 900,
      "▁dead": 901,
      ".8317": 902,
      "▁hav": 903,
      "-)": 904,
      "▁07/14/2000": 905,
      "▁then": 906,
      "▁big": 907,
      "▁12,000": 908,
      "to": 909,
      "ental": 910,
      "▁langu": 911,
      "▁510": 912,
      "▁versus": 913,
      "▁1829": 914,
      "ivers": 915,
      "▁keep": 916,
      "▁ur": 917,
      "▁call": 918,
      "▁vs.": 919,
      "▁97": 920,
      "▁347": 921,
      "ti": 922,
      "ases": 923,
      "▁pal": 924,
      "osite": 925,
      "▁or": 926,
      "▁docum": 927,
      "▁repl": 928,
      "587": 929,
      "▁despite": 930,
      "▁already": 931,
      "▁713/8": 932,
      "▁!!!!!!": 933,
      ":38": 934,
      "velopment": 935,
      "▁end": 936,
      "wn": 937,
      "▁equ": 938,
      "jwww": 939,
      "▁moving": 940,
      "▁deal": 941,
      "▁gu": 942,
      "▁80": 943,
      "▁count": 944,
      "▁ourselves": 945,
      "—": 946,
      "ecess": 947,
      ">": 948,
      "▁thir": 949,
      "ف": 950,
      "up": 951,
      "▁1600": 952,
      "▁05/03/2001": 953,
      "▁311": 954,
      "ɑ": 955,
      "ru": 956,
      "▁tralee": 957,
      "▁meh-r": 958,
      "▁towards": 959,
      "▁888.916.7184": 960,
      "▁713-654-1281": 961,
      "ech": 962,
      "-99": 963,
      "par": 964,
      "▁play": 965,
      "▁friends": 966,
      "▁review": 967,
      "ations": 968,
      "▁11:36": 969,
      "▁illusions": 970,
      "▁position": 971,
      "*": 972,
      "akes": 973,
      "▁ver": 974,
      "▁ma": 975,
      "▁government": 976,
      "__________": 977,
      "▁future": 978,
      "▁296": 979,
      "▁displ": 980,
      "▁trans": 981,
      "ather": 982,
      "▁seventeen": 983,
      "▁1926": 984,
      "▁stud": 985,
      "▁cit": 986,
      "▁restaur": 987,
      "▁cover": 988,
      "et": 989,
      "ton": 990,
      "used": 991,
      "▁713-6": 992,
      "▁und": 993,
      "usions": 994,
      "▁attem": 995,
      "els": 996,
      "75": 997,
      "▁japan": 998,
      "▁unt": 999,
      "mer": 1000,
      "▁1997": 1001,
      "▁111": 1002,
      "▁1.25": 1003,
      "ag": 1004,
      "eral": 1005,
      "▁benef": 1006,
      "▁ab": 1007,
      "▁pi": 1008,
      ".6": 1009,
      "▁br": 1010,
      "▁well": 1011,
      "app": 1012,
      "▁themselves": 1013,
      "▁pat": 1014,
      "▁1596": 1015,
      "▁ev": 1016,
      "ants": 1017,
      "ive": 1018,
      "▁har": 1019,
      "yond": 1020,
      "-10": 1021,
      "▁1115": 1022,
      "22": 1023,
      "att": 1024,
      "▁?????": 1025,
      "▁lat": 1026,
      "▁n'": 1027,
      "▁`": 1028,
      "▁econom": 1029,
      "▁se": 1030,
      "ving": 1031,
      "▁z": 1032,
      "▁11-20-": 1033,
      "▁awoh": 1034,
      "ur": 1035,
      "▁somet": 1036,
      "▁hear": 1037,
      "▁1877": 1038,
      "ins": 1039,
      "▁450": 1040,
      "▁govern": 1041,
      "▁add": 1042,
      "aro": 1043,
      "▁38,000": 1044,
      "[CLS]": 1045,
      "▁yer": 1046,
      "▁services": 1047,
      "/2005": 1048,
      "ə": 1049,
      "▁kept": 1050,
      "omen": 1051,
      "end": 1052,
      "25": 1053,
      "▁think": 1054,
      "▁2008": 1055,
      "▁ban": 1056,
      "▁glob": 1057,
      "▁fail": 1058,
      "▁htt": 1059,
      "▁learn": 1060,
      "rop": 1061,
      "▁saturday": 1062,
      "▁mor": 1063,
      "▁78": 1064,
      "▁8": 1065,
      "▁750,000": 1066,
      "/97": 1067,
      "▁fe": 1068,
      "per": 1069,
      "▁enj": 1070,
      "▁183": 1071,
      "▁cuz": 1072,
      "▁6:00": 1073,
      "head": 1074,
      "ew": 1075,
      "▁than": 1076,
      "▁1980": 1077,
      "ص": 1078,
      "▁04:37": 1079,
      "▁212": 1080,
      "▁53": 1081,
      "ke": 1082,
      "▁twenty-four": 1083,
      "ently": 1084,
      "▁imp": 1085,
      "▁five": 1086,
      ".0": 1087,
      "@": 1088,
      "▁ap": 1089,
      "▁814014": 1090,
      "▁stay": 1091,
      "▁death": 1092,
      "▁arri": 1093,
      "▁breakfast": 1094,
      "▁pri": 1095,
      "▁prom": 1096,
      "▁pay": 1097,
      "▁news": 1098,
      "▁to": 1099,
      "▁oneself": 1100,
      "▁hers": 1101,
      "▁1598": 1102,
      "▁ninety-nine": 1103,
      "ain": 1104,
      "▁how": 1105,
      "▁hund": 1106,
      "▁143": 1107,
      ":05": 1108,
      "▁£": 1109,
      "▁diego": 1110,
      "▁vs": 1111,
      "▁mind": 1112,
      "▁1986": 1113,
      "ger": 1114,
      "body": 1115,
      "▁20": 1116,
      "▁3.8": 1117,
      "astic": 1118,
      "▁company": 1119,
      "▁listen": 1120,
      "▁713-853": 1121,
      "▁ar": 1122,
      "▁cloth": 1123,
      "▁yesterday": 1124,
      "-0": 1125,
      "▁": 1126,
      "▁16": 1127,
      "▁49": 1128,
      "▁make": 1129,
      "▁natural": 1130,
      ".": 1131,
      "its": 1132,
      "40": 1133,
      ":37": 1134,
      "▁value": 1135,
      "▁plus": 1136,
      "▁all": 1137,
      "▁four": 1138,
      "gy": 1139,
      "▁kid": 1140,
      "ake": 1141,
      "mission": 1142,
      "ard": 1143,
      "▁fac": 1144,
      "▁sn": 1145,
      "▁1611": 1146,
      "ale": 1147,
      "ump": 1148,
      "ise": 1149,
      "ze": 1150,
      "▁comp": 1151,
      "▁fre": 1152,
      "▁1971": 1153,
      "▁su": 1154,
      "▁202.456.2461": 1155,
      "ows": 1156,
      "▁kh": 1157,
      "▁des": 1158,
      "▁piec": 1159,
      "ider": 1160,
      "our": 1161,
      "▁115": 1162,
      "▁further": 1163,
      "▁type": 1164,
      "▁cleveland": 1165,
      "▁trale": 1166,
      "▁american": 1167,
      "▁salt": 1168,
      "▁again": 1169,
      "▁700": 1170,
      "▁646-8420": 1171,
      "▁1039": 1172,
      "▁doing": 1173,
      "▁http://www": 1174,
      "414": 1175,
      "▁guy": 1176,
      "▁130": 1177,
      "▁646": 1178,
      "▁03/21/2001": 1179,
      "▁410": 1180,
      "eare": 1181,
      "▁oct": 1182,
      "▁wed": 1183,
      "ful": 1184,
      "▁bac": 1185,
      "▁thr": 1186,
      "▁appear": 1187,
      "▁1,000": 1188,
      "▁hou": 1189,
      "▁lives": 1190,
      "un": 1191,
      "▁je": 1192,
      "▁across": 1193,
      "▁aboard": 1194,
      "§": 1195,
      "▁hat": 1196,
      "▁minute": 1197,
      "▁enjoy": 1198,
      "▁1562": 1199,
      "ens": 1200,
      "▁anything": 1201,
      "▁11/7/08": 1202,
      "▁more": 1203,
      ".10": 1204,
      "▁church": 1205,
      "▁2.7": 1206,
      "▁1850": 1207,
      "umb": 1208,
      "orm": 1209,
      "▁li": 1210,
      "▁just": 1211,
      "▁english": 1212,
      "ult": 1213,
      "▁acc": 1214,
      "▁one": 1215,
      "▁field": 1216,
      "▁began": 1217,
      "▁gon": 1218,
      "ase": 1219,
      "▁office": 1220,
      "▁since": 1221,
      "▁05/01/2001": 1222,
      "erv": 1223,
      "▁718-780": 1224,
      "▁207": 1225,
      "▁1776": 1226,
      "f": 1227,
      "igh": 1228,
      "▁shakes": 1229,
      "▁================================================": 1230,
      "▁official": 1231,
      "cum": 1232,
      "aining": 1233,
      "▁coun": 1234,
      "▁10:34": 1235,
      "▁that": 1236,
      "ve": 1237,
      "ome": 1238,
      "▁it": 1239,
      "ict": 1240,
      "2-6": 1241,
      "▁430": 1242,
      "▁sad": 1243,
      "▁our": 1244,
      "pl": 1245,
      "▁left": 1246,
      "▁fire": 1247,
      "oug": 1248,
      "ren": 1249,
      "▁thank": 1250,
      "dd": 1251,
      "▁fri": 1252,
      "▁54,000": 1253,
      "▁result": 1254,
      "▁are": 1255,
      "▁mi": 1256,
      "▁because": 1257,
      "▁tra": 1258,
      "▁199": 1259,
      "/16/2001": 1260,
      "▁26": 1261,
      "ʻ": 1262,
      "▁401": 1263,
      "▁!!!!!!!": 1264,
      "▁1954": 1265,
      "▁whether": 1266,
      "▁eat": 1267,
      "/26/2001": 1268,
      "▁chick": 1269,
      "▁1998": 1270,
      ":46": 1271,
      "▁hour": 1272,
      "▁11-20-2000": 1273,
      "ch": 1274,
      "ree": 1275,
      "ruct": 1276,
      "▁ste": 1277,
      "▁norm": 1278,
      "▁832": 1279,
      "round": 1280,
      "ade": 1281,
      "▁12": 1282,
      "▁glass": 1283,
      "▁people": 1284,
      "▁hon": 1285,
      "▁1910": 1286,
      "lik": 1287,
      "iddle": 1288,
      "(": 1289,
      "enn": 1290,
      "ily": 1291,
      "adelp": 1292,
      "▁picture": 1293,
      "anc": 1294,
      "eight": 1295,
      "▁…": 1296,
      "▁2018": 1297,
      "l": 1298,
      "|": 1299,
      "▁vegas": 1300,
      "ove": 1301,
      "▁push": 1302,
      "================================": 1303,
      "gr": 1304,
      "ros": 1305,
      "▁low": 1306,
      "▁seem": 1307,
      "▁fare": 1308,
      "ment": 1309,
      "........": 1310,
      "fast": 1311,
      "▁march": 1312,
      "μ": 1313,
      "ouble": 1314,
      "▁ta": 1315,
      "294-": 1316,
      "ever": 1317,
      "▁available": 1318,
      "▁employ": 1319,
      "icago": 1320,
      "ce": 1321,
      "▁330": 1322,
      "n": 1323,
      "cl": 1324,
      "▁six": 1325,
      "▁10/20/2000": 1326,
      "▁express": 1327,
      "▁along": 1328,
      "▁150": 1329,
      "!?": 1330,
      "ut": 1331,
      "▁75": 1332,
      "26": 1333,
      "▁depart": 1334,
      "rem": 1335,
      ":52": 1336,
      "▁finally": 1337,
      "b": 1338,
      "ry": 1339,
      "▁hard": 1340,
      "78": 1341,
      "13.86": 1342,
      "ank": 1343,
      "▁800-553-3119": 1344,
      "▁qu": 1345,
      "iction": 1346,
      "▁====================================================": 1347,
      "▁220": 1348,
      "erc": 1349,
      "▁345-3436": 1350,
      "▁70": 1351,
      "▁1959": 1352,
      "i": 1353,
      "▁7": 1354,
      "▁che": 1355,
      "inc": 1356,
      "▁military": 1357,
      "/30": 1358,
      "8196021": 1359,
      "/10/2000": 1360,
      "▁laur": 1361,
      "▁1790": 1362,
      "▁clos": 1363,
      "▁lic": 1364,
      "▁civ": 1365,
      "▁.......": 1366,
      "-780": 1367,
      "man": 1368,
      "ي": 1369,
      "▁....": 1370,
      "oy": 1371,
      "▁expl": 1372,
      "▁using": 1373,
      "▁dark": 1374,
      "-415-": 1375,
      "▁baby": 1376,
      "▁even": 1377,
      "irt": 1378,
      "▁plan": 1379,
      "iously": 1380,
      "-9": 1381,
      "1": 1382,
      "▁11/10/2000": 1383,
      "▁ours": 1384,
      ".61": 1385,
      "ertain": 1386,
      "▁itself": 1387,
      "▁ready": 1388,
      "▁fing": 1389,
      ",000,000,000": 1390,
      "ess": 1391,
      "▁ty": 1392,
      "old": 1393,
      "▁deb": 1394,
      "▁import": 1395,
      "istan": 1396,
      "▁hum": 1397,
      "▁n't": 1398,
      "ty": 1399,
      "▁1932": 1400,
      "▁10/23/2000": 1401,
      "▁diff": 1402,
      "▁cup": 1403,
      "▁wednesday": 1404,
      ":01": 1405,
      "▁10:5": 1406,
      "▁---------------------------------------------------------------------": 1407,
      "▁claim": 1408,
      "▁tom": 1409,
      "▁expect": 1410,
      "▁gave": 1411,
      "▁03/27/2001": 1412,
      "▁mont": 1413,
      ".831": 1414,
      "iday": 1415,
      "▁12.": 1416,
      "▁floor": 1417,
      "▁tor": 1418,
      "▁1000": 1419,
      "8549": 1420,
      "▁36": 1421,
      "▁03:3": 1422,
      "▁315-460-33": 1423,
      "▁means": 1424,
      "▁ren": 1425,
      "▁answ": 1426,
      "▁yourselves": 1427,
      "د": 1428,
      "▁750": 1429,
      "▁seemed": 1430,
      "cle": 1431,
      ":20": 1432,
      "▁thirty": 1433,
      "▁09/16": 1434,
      "09": 1435,
      "远": 1436,
      "▁****": 1437,
      "▁7.3": 1438,
      "ire": 1439,
      "▁03/15/2001": 1440,
      "▁seems": 1441,
      "▁13": 1442,
      "ł": 1443,
      "▁1583": 1444,
      "▁public": 1445,
      "/08": 1446,
      "▁bo": 1447,
      "▁face": 1448,
      "9/2000": 1449,
      "▁07/1": 1450,
      "▁quest": 1451,
      "▁transportation": 1452,
      "'": 1453,
      "▁non": 1454,
      "22,000": 1455,
      "ic": 1456,
      "ice": 1457,
      "za": 1458,
      "!!!!": 1459,
      "ams": 1460,
      "▁'71": 1461,
      "▁fi": 1462,
      "▁0000108806": 1463,
      "▁goes": 1464,
      "19": 1465,
      "59": 1466,
      "53-3119": 1467,
      "▁5.8": 1468,
      "der": 1469,
      "▁adam": 1470,
      "▁give": 1471,
      "****************": 1472,
      "▁level": 1473,
      "▁real": 1474,
      "▁whi": 1475,
      "▁ten": 1476,
      "▁98": 1477,
      "ged": 1478,
      "uce": 1479,
      "▁beh": 1480,
      "▁beneath": 1481,
      "▁alone": 1482,
      ";": 1483,
      "▁in": 1484,
      "ways": 1485,
      "ead": 1486,
      "▁transmission": 1487,
      "▁1500": 1488,
      "▁56": 1489,
      "ob": 1490,
      "▁til": 1491,
      "▁lik": 1492,
      "樋": 1493,
      "▁04/30/2001": 1494,
      "▁unlike": 1495,
      "▁?": 1496,
      "▁close": 1497,
      "▁2004": 1498,
      "▁dese": 1499,
      "bers": 1500,
      "bo": 1501,
      "▁nine": 1502,
      "▁4:30": 1503,
      "▁with": 1504,
      "ated": 1505,
      "▁before": 1506,
      "▁505": 1507,
      "▁ter": 1508,
      "7/2000": 1509,
      "▁children": 1510,
      "h-r": 1511,
      "▁ph": 1512,
      "/00": 1513,
      "________________": 1514,
      "si": 1515,
      "▁front": 1516,
      "β": 1517,
      "▁tu": 1518,
      "▁drive": 1519,
      "ories": 1520,
      "▁includ": 1521,
      "▁ind": 1522,
      "▁em": 1523,
      "____": 1524,
      "▁meas": 1525,
      "rist": 1526,
      ",8": 1527,
      "▁pan": 1528,
      "res": 1529,
      "▁me": 1530,
      "oney": 1531,
      "urday": 1532,
      "▁0": 1533,
      "▁sha": 1534,
      "▁1616": 1535,
      "▁1846": 1536,
      "9933": 1537,
      "葉": 1538,
      "▁success": 1539,
      "▁9": 1540,
      "au": 1541,
      "▁6.2.1": 1542,
      "▁slow": 1543,
      "▁compet": 1544,
      "▁trad": 1545,
      "▁1179": 1546,
      "icult": 1547,
      ",000": 1548,
      "ement": 1549,
      "▁10:46": 1550,
      "▁tick": 1551,
      "gh": 1552,
      "ides": 1553,
      "▁visit": 1554,
      "▁common": 1555,
      "'re": 1556,
      ",0": 1557,
      "▁713-853-1696": 1558,
      "▁follow": 1559,
      "????": 1560,
      "'s": 1561,
      "▁08:00": 1562,
      "▁doggie": 1563,
      "▁woud": 1564,
      "▁looks": 1565,
      "e": 1566,
      "▁try": 1567,
      "▁however": 1568,
      "▁but": 1569,
      "▁social": 1570,
      "▁xiii": 1571,
      "▁india": 1572,
      "ellow": 1573,
      "ery": 1574,
      "▁whoever": 1575,
      "▁understand": 1576,
      "ret": 1577,
      "ional": 1578,
      "▁lake": 1579,
      "▁'d": 1580,
      "▁val": 1581,
      "▁june": 1582,
      "▁less": 1583,
      "ose": 1584,
      "▁1973": 1585,
      "▁1691": 1586,
      "▁2,500": 1587,
      "▁international": 1588,
      "▁economy": 1589,
      "▁680": 1590,
      "山": 1591,
      "▁few": 1592,
      "▁daily": 1593,
      "▁cause": 1594,
      "led": 1595,
      "ament": 1596,
      "four": 1597,
      "æ": 1598,
      "▁466": 1599,
      "▁refer": 1600,
      "▁com": 1601,
      "▁713-8": 1602,
      "9": 1603,
      "eng": 1604,
      "alk": 1605,
      "▁oh": 1606,
      "en": 1607,
      "▁dest": 1608,
      "▁pricing": 1609,
      "▁based": 1610,
      "▁health": 1611,
      "▁ever": 1612,
      "ended": 1613,
      "▁design": 1614,
      ",5": 1615,
      "▁%": 1616,
      "????????": 1617,
      "▁esp": 1618,
      "▁198": 1619,
      "▁other": 1620,
      "▁take": 1621,
      "▁1990": 1622,
      "an": 1623,
      "▁nt": 1624,
      "口": 1625,
      "▁agreement": 1626,
      "▁father": 1627,
      "▁fore": 1628,
      "▁pur": 1629,
      "hin": 1630,
      "▁fro": 1631,
      "▁touch": 1632,
      "▁okay": 1633,
      "▁tri": 1634,
      "ig": 1635,
      "▁necess": 1636,
      "▁forty-one": 1637,
      "▁dri": 1638,
      "▁ought": 1639,
      "▁156": 1640,
      "▁268": 1641,
      "▁full": 1642,
      "▁difficult": 1643,
      "▁proc": 1644,
      "gan": 1645,
      "▁human": 1646,
      "▁times": 1647,
      "▁ones": 1648,
      "ably": 1649,
      "▁sing": 1650,
      "▁du": 1651,
      "301": 1652,
      "▁port": 1653,
      "▁expensive": 1654,
      "ould": 1655,
      "/25/2001": 1656,
      "867": 1657,
      "▁taken": 1658,
      "▁inc": 1659,
      "▁ang": 1660,
      "▁chair": 1661,
      "▁xsl": 1662,
      "▁this": 1663,
      "oh": 1664,
      "ee": 1665,
      "▁community": 1666,
      "▁:(": 1667,
      "ath": 1668,
      "!!!!!!!!": 1669,
      "@ect": 1670,
      "ames": 1671,
      "▁christ": 1672,
      "14": 1673,
      "▁’’": 1674,
      "ls": 1675,
      "▁sat": 1676,
      "▁red": 1677,
      "ed": 1678,
      "▁her": 1679,
      "▁whose": 1680,
      "med": 1681,
      "47": 1682,
      "ks": 1683,
      "▁die": 1684,
      "ried": 1685,
      ":03": 1686,
      "▁item": 1687,
      "▁love": 1688,
      "6": 1689,
      "▁dall": 1690,
      "ory": 1691,
      "15-": 1692,
      "449": 1693,
      "▁month": 1694,
      "ter": 1695,
      "low": 1696,
      "▁free": 1697,
      "▁3/8/00": 1698,
      "▁do": 1699,
      "bs": 1700,
      "▁yours": 1701,
      "iting": 1702,
      "▁notwith": 1703,
      "琴": 1704,
      "fully": 1705,
      "▁addition": 1706,
      "▁respect": 1707,
      "▁713-793-": 1708,
      "▁myself": 1709,
      "▁wind": 1710,
      "▁continental": 1711,
      "▁any": 1712,
      "ify": 1713,
      "irl": 1714,
      "▁ex": 1715,
      "▁opposite": 1716,
      "▁turn": 1717,
      "▁0.0": 1718,
      "▁125": 1719,
      "▁leaving": 1720,
      "w": 1721,
      "▁up": 1722,
      "hia": 1723,
      "▁38": 1724,
      "▁87": 1725,
      "▁came": 1726,
      "▁quinn": 1727,
      "▁ed": 1728,
      "▁youn": 1729,
      "▁825": 1730,
      "▁louis": 1731,
      "9.3": 1732,
      "cab": 1733,
      "▁165": 1734,
      "▁fort": 1735,
      "▁c": 1736,
      ".8": 1737,
      "▁earth": 1738,
      "▁monday": 1739,
      "▁according": 1740,
      "▁oper": 1741,
      "ri": 1742,
      "▁us": 1743,
      "▁mess": 1744,
      "▁1918": 1745,
      "▁********************************": 1746,
      "ark": 1747,
      "▁09:14": 1748,
      "▁thing": 1749,
      "▁baltim": 1750,
      "ild": 1751,
      "▁sl": 1752,
      "▁milwau": 1753,
      "▁wo": 1754,
      "▁throu": 1755,
      "▁beaut": 1756,
      "ن": 1757,
      "//": 1758,
      "▁key": 1759,
      "8806": 1760,
      "ich": 1761,
      "▁93": 1762,
      "▁given": 1763,
      "▁1603": 1764,
      "38": 1765,
      "▁every": 1766,
      "▁345-9945": 1767,
      "vel": 1768,
      "▁60": 1769,
      "ially": 1770,
      "▁01:39": 1771,
      "▁foc": 1772,
      "▁1929": 1773,
      "66": 1774,
      "********************************": 1775,
      "▁mummy": 1776,
      "▁01:09": 1777,
      "▁101": 1778,
      "▁china": 1779,
      "▁000010": 1780,
      "▁ship": 1781,
      "▁maybe": 1782,
      "▁large": 1783,
      "▁upon": 1784,
      "65": 1785,
      "▁1984": 1786,
      "▁09/15": 1787,
      "-518": 1788,
      "tride": 1789,
      "▁nand": 1790,
      "▁by": 1791,
      "work": 1792,
      "oll": 1793,
      "▁told": 1794,
      "▁21,000": 1795,
      "32": 1796,
      "▁202.45": 1797,
      "8-7": 1798,
      "▁03/28/2001": 1799,
      "▁169": 1800,
      "ipp": 1801,
      "▁which": 1802,
      "thing": 1803,
      "een": 1804,
      "▁4:50": 1805,
      "▁restaurant": 1806,
      "▁imag": 1807,
      "▁un": 1808,
      "▁self": 1809,
      "▁met": 1810,
      "▁18,000": 1811,
      "▁defin": 1812,
      "▁point": 1813,
      "▁perform": 1814,
      "▁>>": 1815,
      ":16": 1816,
      "ick": 1817,
      "▁ol": 1818,
      "re": 1819,
      "▁73": 1820,
      "aking": 1821,
      "got": 1822,
      "▁angel": 1823,
      "▁det": 1824,
      "▁16.379": 1825,
      "¢": 1826,
      "ats": 1827,
      "rib": 1828,
      "▁al": 1829,
      "eck": 1830,
      "36": 1831,
      "▁713-646-3393": 1832,
      "▁1848": 1833,
      ".782": 1834,
      "ason": 1835,
      "▁tec": 1836,
      "ning": 1837,
      "▁ways": 1838,
      "ent": 1839,
      "▁100": 1840,
      "▁63": 1841,
      "▁rev": 1842,
      "ston": 1843,
      "ert": 1844,
      "▁191": 1845,
      "ft": 1846,
      "▁later": 1847,
      "▁untill": 1848,
      "[MASK]": 1849,
      "▁202.456.1": 1850,
      "uff": 1851,
      "enth": 1852,
      "和": 1853,
      "▁08/15/2000": 1854,
      "ds": 1855,
      "is_0": 1856,
      "▁1,": 1857,
      "▁flo": 1858,
      "▁together": 1859,
      "▁house": 1860,
      "▁profess": 1861,
      "▁225": 1862,
      "▁better": 1863,
      "lic": 1864,
      "▁mag": 1865,
      "▁something": 1866,
      "37": 1867,
      "▁944": 1868,
      "▁08/03/2000": 1869,
      "▁978": 1870,
      "▁rele": 1871,
      "▁pers": 1872,
      "▁tax": 1873,
      "83": 1874,
      "five": 1875,
      "ped": 1876,
      "ly": 1877,
      "▁832.676": 1878,
      "▁sim": 1879,
      "▁thru": 1880,
      "▁commission": 1881,
      "ʒ": 1882,
      "▁01810": 1883,
      "▁rich": 1884,
      "--": 1885,
      "▁within": 1886,
      "▁)": 1887,
      "▁doct": 1888,
      "ist": 1889,
      "▁1:30": 1890,
      "▁year": 1891,
      "lus": 1892,
      ",600": 1893,
      "fi": 1894,
      "▁es": 1895,
      "▁ride": 1896,
      "▁global": 1897,
      "/2001": 1898,
      "819": 1899,
      "▁dinner": 1900,
      "ure": 1901,
      "▁seen": 1902,
      "▁university": 1903,
      "▁o'clock": 1904,
      "▁no": 1905,
      "ka": 1906,
      "▁also": 1907,
      "illion": 1908,
      "▁2020": 1909,
      ".5": 1910,
      "▁hey": 1911,
      "▁720": 1912,
      "-49": 1913,
      "▁2003": 1914,
      "46": 1915,
      "▁66": 1916,
      "▁''": 1917,
      "▁800-5": 1918,
      "▁ident": 1919,
      "ison": 1920,
      "▁713/853": 1921,
      "-98": 1922,
      "▁41": 1923,
      "▁per": 1924,
      "▁bir": 1925,
      "▁2100": 1926,
      "▁47,500": 1927,
      "▁sun": 1928,
      "nd": 1929,
      "▁situ": 1930,
      "??": 1931,
      "urs": 1932,
      "▁mic": 1933,
      "ency": 1934,
      "▁and": 1935,
      "▁’": 1936,
      ",9": 1937,
      "▁button": 1938,
      "▁1602": 1939,
      "ester": 1940,
      "v": 1941,
      "~": 1942,
      "uma": 1943,
      "▁atlanta": 1944,
      "▁11/2": 1945,
      "▁polit": 1946,
      "▁does": 1947,
      "·": 1948,
      "▁88": 1949,
      "▁s/h": 1950,
      "\"": 1951,
      "own": 1952,
      "44": 1953,
      "▁vide": 1954,
      "▁269": 1955,
      "▁war": 1956,
      "▁morning": 1957,
      "▁paul": 1958,
      "▁comple": 1959,
      "▁x": 1960,
      "▁1868": 1961,
      "▁’ve": 1962,
      "ked": 1963,
      "vern": 1964,
      ":0": 1965,
      "ʃ": 1966,
      "ance": 1967,
      "idence": 1968,
      "ved": 1969,
      "▁toward": 1970,
      "▁each": 1971,
      "▁onto": 1972,
      "▁ann": 1973,
      "▁1575": 1974,
      "▁beyond": 1975,
      "ion": 1976,
      "▁copy": 1977,
      "▁rather": 1978,
      "▁south": 1979,
      "ization": 1980,
      "huh": 1981,
      "▁40": 1982,
      "▁lost": 1983,
      "▁295870": 1984,
      "room": 1985,
      "▁530": 1986,
      "▁stop": 1987,
      "▁name": 1988,
      "▁example": 1989,
      "▁00": 1990,
      "▁most": 1991,
      "oun": 1992,
      "ually": 1993,
      "ab": 1994,
      "▁commun": 1995,
      "uth": 1996,
      "ʊ": 1997,
      "▁space": 1998,
      "▁505-625-8031": 1999,
      "▁friend": 2000,
      "ost": 2001,
      "▁houston": 2002,
      "▁coming": 2003,
      "ices": 2004,
      "▁file": 2005,
      "ps": 2006,
      "œ": 2007,
      "ays": 2008,
      "port": 2009,
      "hip": 2010,
      "▁min": 2011,
      "▁t": 2012,
      "▁e": 2013,
      "▁los": 2014,
      "ou": 2015,
      "▁21": 2016,
      "łod": 2017,
      "▁2.": 2018,
      "▁09:45": 2019,
      "miss": 2020,
      "▁provide": 2021,
      "▁break": 2022,
      "other": 2023,
      "▁flight": 2024,
      "all": 2025,
      "▁grow": 2026,
      "▁pre": 2027,
      "ra": 2028,
      "aff": 2029,
      "▁box": 2030,
      "▁3": 2031,
      "▁43": 2032,
      "▁phone": 2033,
      "q": 2034,
      "▁932": 2035,
      "ear": 2036,
      "▁class": 2037,
      "▁08/15": 2038,
      "▁always": 2039,
      "▁gets": 2040,
      "og": 2041,
      "▁01:58": 2042,
      "▁|": 2043,
      "▁fift": 2044,
      "▁1-800": 2045,
      "ilities": 2046,
      "▁uhhuh": 2047,
      "/10": 2048,
      "▁these": 2049,
      "▁04:17": 2050,
      "-ked": 2051,
      "▁energy": 2052,
      "800": 2053,
      "ocr": 2054,
      "oman": 2055,
      "▁got": 2056,
      "oot": 2057,
      "31": 2058,
      "▁letter": 2059,
      "▁opp": 2060,
      "/0": 2061,
      "▁1967": 2062,
      "ol": 2063,
      "▁early": 2064,
      "▁158": 2065,
      "▁str": 2066,
      "▁there": 2067,
      "▁world": 2068,
      "▁security": 2069,
      "▁theirs": 2070,
      "▁620-": 2071,
      "☏": 2072,
      "ong": 2073,
      "▁those": 2074,
      "▁project": 2075,
      "6021": 2076,
      "▁saying": 2077,
      "▁oc": 2078,
      "ink": 2079,
      "▁turned": 2080,
      "▁internet": 2081,
      "us": 2082,
      "ught": 2083,
      "▁road": 2084,
      ",00": 2085,
      "uh": 2086,
      "▁o": 2087,
      "▁sugg": 2088,
      "eet": 2089,
      "½": 2090,
      "ele": 2091,
      "========": 2092,
      "▁return": 2093,
      "▁words": 2094,
      "▁713-654-": 2095,
      "▁1999": 2096,
      "▁yester": 2097,
      "le": 2098,
      "▁develop": 2099,
      "/2": 2100,
      "41": 2101,
      "▁between": 2102,
      "▁6": 2103,
      "静": 2104,
      "▁best": 2105,
      "▁afric": 2106,
      "▁hun": 2107,
      "12": 2108,
      "▁market": 2109,
      "▁2009": 2110,
      "▁lea": 2111,
      "▁xslt": 2112,
      "▁r": 2113,
      "▁inform": 2114,
      "▁environ": 2115,
      "▁certain": 2116,
      "▁conv": 2117,
      "▁37": 2118,
      "▁713-853-3989": 2119,
      "▁200,000": 2120,
      "▁land": 2121,
      "▁ent": 2122,
      "▁fifteen": 2123,
      "▁08/16/2000": 2124,
      "▁fin": 2125,
      "4-": 2126,
      "ame": 2127,
      "▁new": 2128,
      "▁herself": 2129,
      "▁books": 2130,
      "▁like": 2131,
      "▁1966": 2132,
      "▁969": 2133,
      "ators": 2134,
      "▁15": 2135,
      "▁prev": 2136,
      "▁iran": 2137,
      "▁137": 2138,
      "▁america": 2139,
      "%": 2140,
      "tc": 2141,
      "▁know": 2142,
      "where": 2143,
      "▁_____": 2144,
      "▁813": 2145,
      "ulation": 2146,
      "2/2001": 2147,
      "▁who's": 2148,
      "▁3889": 2149,
      "▁82": 2150,
      "▁11,000": 2151,
      "if": 2152,
      "▁zero": 2153,
      "津": 2154,
      "▁major": 2155,
      "▁if": 2156,
      "▁clean": 2157,
      "▁28": 2158,
      "▁administ": 2159,
      "▁far": 2160,
      "▁http": 2161,
      "▁site": 2162,
      "▁interest": 2163,
      "▁505-625": 2164,
      "”": 2165,
      "▁33": 2166,
      "-642": 2167,
      ",6": 2168,
      "▁sour": 2169,
      "▁area": 2170,
      "▁2:25": 2171,
      "▁sign": 2172,
      "ator": 2173,
      "▁canad": 2174,
      "ef": 2175,
      "▁na": 2176,
      "▁hea": 2177,
      "▁san": 2178,
      "anger": 2179,
      "▁+45": 2180,
      "▁fur": 2181,
      "▁619": 2182,
      "ad": 2183,
      "▁find": 2184,
      "3736": 2185,
      "▁4:00": 2186,
      "▁5:00": 2187,
      "▁sixty": 2188,
      "▁late": 2189,
      "▁1955": 2190,
      "▁act": 2191,
      "σ": 2192,
      "itt": 2193,
      "▁hair": 2194,
      "▁150,000": 2195,
      "ont": 2196,
      "▁29": 2197,
      "▁effort": 2198,
      "▁discuss": 2199,
      "ish": 2200,
      "▁years": 2201,
      "age": 2202,
      "▁arg": 2203,
      "▁650": 2204,
      "atch": 2205,
      "ror": 2206,
      ".25": 2207,
      "▁lo": 2208,
      "▁nat": 2209,
      "▁???": 2210,
      "ater": 2211,
      "▁alber": 2212,
      "ney": 2213,
      "▁creat": 2214,
      "▁1841": 2215,
      "▁'ve": 2216,
      "▁albe": 2217,
      "▁1738": 2218,
      "▁315": 2219,
      "iate": 2220,
      "▁daddy": 2221,
      "’t": 2222,
      "▁makes": 2223,
      "4/2001": 2224,
      "▁ach": 2225,
      "ho": 2226,
      "▁i": 2227,
      "▁unless": 2228,
      "-84": 2229,
      "▁713-654-128": 2230,
      "▁q": 2231,
      "▁416-865-370": 2232,
      "#": 2233,
      "ms": 2234,
      "▁happy": 2235,
      "onom": 2236,
      "▁pot": 2237,
      "▁03/2": 2238,
      "▁here": 2239,
      "▁clim": 2240,
      "uck": 2241,
      "▁99": 2242,
      "▁neither": 2243,
      "▁10": 2244,
      "▁co": 2245,
      "▁ai": 2246,
      "▁el": 2247,
      ")": 2248,
      "▁201": 2249,
      "????????????????": 2250,
      "ject": 2251,
      "▁12:3": 2252,
      "▁1896": 2253,
      "▁888": 2254,
      "0072": 2255,
      "▁3,202.61": 2256,
      "wau": 2257,
      "▁2.00": 2258,
      "▁view": 2259,
      "67": 2260,
      ".15": 2261,
      "ften": 2262,
      "▁95": 2263,
      "▁park": 2264,
      "▁save": 2265,
      "ogel": 2266,
      "’": 2267,
      "ine": 2268,
      "resh": 2269,
      "▁very": 2270,
      "ley": 2271,
      "▁1978": 2272,
      "doc": 2273,
      "▁third": 2274,
      "av": 2275,
      "202": 2276,
      "▁will": 2277,
      "▁aust": 2278,
      "▁1504": 2279,
      "▁hur": 2280,
      "▁behin": 2281,
      "▁03/0": 2282,
      ".77": 2283,
      "▁59": 2284,
      "▁won": 2285,
      "339": 2286,
      "▁2013": 2287,
      ":02": 2288,
      "▁unto": 2289,
      "▁1878": 2290,
      "apolis": 2291,
      "ak": 2292,
      "▁#": 2293,
      "°": 2294,
      "▁hi": 2295,
      "89": 2296,
      "rou": 2297,
      "▁jan": 2298,
      "▁doctor": 2299,
      "key": 2300,
      "▁iss": 2301,
      "/8/00": 2302,
      ":45": 2303,
      "▁did": 2304,
      "lo": 2305,
      "▁ret": 2306,
      "▁cal": 2307,
      "sus": 2308,
      "▁problems": 2309,
      "ble": 2310,
      "▁fact": 2311,
      "▁teach": 2312,
      "▁deliver": 2313,
      "03": 2314,
      "▁hop": 2315,
      "▁spec": 2316,
      "▁thous": 2317,
      "oo": 2318,
      "ach": 2319,
      "▁would": 2320,
      "▁dur": 2321,
      "▁women": 2322,
      "ha": 2323,
      "▁te": 2324,
      "▁down": 2325,
      "▁via": 2326,
      "▁school": 2327,
      "▁web": 2328,
      "▁exc": 2329,
      "“": 2330,
      "▁wanted": 2331,
      ":29": 2332,
      "▁above": 2333,
      "▁1985": 2334,
      "alf": 2335,
      "row": 2336,
      "▁pet": 2337,
      "▁process": 2338,
      "▁94": 2339,
      "▁dist": 2340,
      "▁behind": 2341,
      "▁recommend": 2342,
      "▁noon": 2343,
      "▁1/4": 2344,
      "4014": 2345,
      "▁store": 2346,
      ":00": 2347,
      "sl": 2348,
      "490": 2349,
      "▁bring": 2350,
      "▁disc": 2351,
      "ro": 2352,
      "▁wor": 2353,
      "▁strong": 2354,
      "35": 2355,
      "▁information": 2356,
      "op": 2357,
      "▁8:15": 2358,
      "la": 2359,
      "▁impro": 2360,
      "45": 2361,
      "▁eight": 2362,
      "▁plac": 2363,
      "dr": 2364,
      "▁ris": 2365,
      "ential": 2366,
      "▁apart": 2367,
      "▁cult": 2368,
      "▁1145": 2369,
      "▁home": 2370,
      "aken": 2371,
      "▁dere": 2372,
      "▁l": 2373,
      "ism": 2374,
      "▁46": 2375,
      "▁1564": 2376,
      "ured": 2377,
      "▁747": 2378,
      "•": 2379,
      "▁555": 2380,
      "▁]": 2381,
      "▁1819": 2382,
      "▁stat": 2383,
      "▁europe": 2384,
      "▁*": 2385,
      "nesday": 2386,
      "▁922": 2387,
      "▁main": 2388,
      "▁milwaukee": 2389,
      "-9004": 2390,
      "▁author": 2391,
      "on": 2392,
      "aper": 2393,
      "▁actually": 2394,
      "▁89": 2395,
      "iii": 2396,
      "17": 2397,
      "itive": 2398,
      "mm": 2399,
      "ents": 2400,
      "veland": 2401,
      "▁$": 2402,
      "▁11:30": 2403,
      "▁team": 2404,
      "▁thy": 2405,
      "▁>": 2406,
      "ause": 2407,
      "be": 2408,
      "ium": 2409,
      "▁united": 2410,
      "===": 2411,
      "▁taking": 2412,
      "▁06/01/2001": 2413,
      "▁made": 2414,
      "ia": 2415,
      "cc": 2416,
      "elt": 2417,
      "▁said": 2418,
      "▁1960": 2419,
      "▁round": 2420,
      "▁1925": 2421,
      "▁eye": 2422,
      "▁cheapest": 2423,
      "▁least": 2424,
      "uding": 2425,
      "stem": 2426,
      "for": 2427,
      "▁americans": 2428,
      "▁3/9": 2429,
      "▁who": 2430,
      "▁august": 2431,
      "▁numerous": 2432,
      "▁really": 2433,
      "====": 2434,
      "▁rep": 2435,
      "▁......": 2436,
      "▁study": 2437,
      "alys": 2438,
      "ep": 2439,
      "▁1610": 2440,
      "▁especially": 2441,
      "810": 2442,
      "α": 2443,
      "▁list": 2444,
      "▁11/08/2000": 2445,
      "ber": 2446,
      "▁making": 2447,
      "▁collect": 2448,
      "▁03": 2449,
      "▁29587": 2450,
      "-50": 2451,
      "古": 2452,
      "▁charlotte": 2453,
      "ø": 2454,
      "▁+44": 2455,
      "sc": 2456,
      "▁ninety-n": 2457,
      "33": 2458,
      "▁besides": 2459,
      "se": 2460,
      "-435": 2461,
      "▁off": 2462,
      "▁687": 2463,
      "▁colle": 2464,
      "▁1701": 2465,
      "▁line": 2466,
      "▁members": 2467,
      "▁5.5": 2468,
      "▁202.456": 2469,
      "-3393": 2470,
      "▁ll": 2471,
      "ica": 2472,
      "▁represent": 2473,
      "▁trip": 2474,
      "c": 2475,
      "▁mil": 2476,
      "▁squ": 2477,
      "▁72": 2478,
      "▁11.5": 2479,
      "42": 2480,
      "7/2001": 2481,
      "ude": 2482,
      "▁1787": 2483,
      "▁08/0": 2484,
      "▁atl": 2485,
      "▁376": 2486,
      "-991-9": 2487,
      "/01/2001": 2488,
      "▁number": 2489,
      "▁2030": 2490,
      "▁1588": 2491,
      "gether": 2492,
      "▁bow": 2493,
      "▁travel": 2494,
      "▁deter": 2495,
      ":55": 2496,
      "▁still": 2497,
      "▁balzac": 2498,
      "▁quick": 2499,
      "ands": 2500,
      "ount": 2501,
      "▁airline": 2502,
      "ail": 2503,
      "peare": 2504,
      "▁102": 2505,
      "019": 2506,
      "▁proble": 2507,
      "▁30,000": 2508,
      "▁tem": 2509,
      "▁01/25/2001": 2510,
      "▁1995": 2511,
      "▁1951": 2512,
      "▁french": 2513,
      "ver": 2514,
      "▁07": 2515,
      "▁has": 2516,
      "itting": 2517,
      "▁uhoh": 2518,
      "▁159": 2519,
      "▁2500": 2520,
      "▁takes": 2521,
      "aur": 2522,
      "▁oakland": 2523,
      "▁present": 2524,
      "▁none": 2525,
      "▁fam": 2526,
      "a": 2527,
      "▁custom": 2528,
      "▁business": 2529,
      "▁done": 2530,
      "▁suggest": 2531,
      "ence": 2532,
      "▁120,000": 2533,
      "ott": 2534,
      "use": 2535,
      "▁202.7": 2536,
      "71": 2537,
      "▁1799": 2538,
      "▁be": 2539,
      "η": 2540,
      "▁fair": 2541,
      "▁01/24/2001": 2542,
      "_0": 2543,
      ".1234": 2544,
      "ograph": 2545,
      "▁1700": 2546,
      "▁earli": 2547,
      "▁inside": 2548,
      "▁1160": 2549,
      "▁elect": 2550,
      "▁11:45": 2551,
      "like": 2552,
      "ami": 2553,
      "▁o'": 2554,
      "neath": 2555,
      "hn": 2556,
      "non": 2557,
      "▁11:35": 2558,
      "▁thousand": 2559,
      "atter": 2560,
      "▁58": 2561,
      "read": 2562,
      "▁2.975": 2563,
      "▁great": 2564,
      "ony": 2565,
      "ition": 2566,
      "▁abe": 2567,
      "▁1:00": 2568,
      "+": 2569,
      "▁107": 2570,
      "▁---": 2571,
      "▁:-)": 2572,
      "▁bi": 2573,
      "▁281-443-3744": 2574,
      "▁meh-risk": 2575,
      "▁dogg": 2576,
      "▁access": 2577,
      "utes": 2578,
      "▁'0": 2579,
      "▁11:07": 2580,
      "▁code": 2581,
      "▁jo": 2582,
      "▁questions": 2583,
      "88": 2584,
      "▁713-654-0365": 2585,
      "▁kn": 2586,
      ".com": 2587,
      "183": 2588,
      "▁202.456.1414": 2589,
      "▁hope": 2590,
      "▁th": 2591,
      "▁airl": 2592,
      "▁whil": 2593,
      "==": 2594,
      "▁1944": 2595,
      "▁6871082": 2596,
      "▁method": 2597,
      "▁boston": 2598,
      "▁dr": 2599,
      "▁2050": 2600,
      "▁e.": 2601,
      "▁hotel": 2602,
      "▁sty": 2603,
      "ple": 2604,
      "▁del": 2605,
      "ether": 2606,
      "▁girls": 2607,
      "▁281-435": 2608,
      "▁cam": 2609,
      "▁sec": 2610,
      "▁07/17/2000": 2611,
      "▁2021": 2612,
      "▁cred": 2613,
      "▁iv": 2614,
      "kee": 2615,
      "sp": 2616,
      "▁1.00": 2617,
      "▁ago": 2618,
      "por": 2619,
      "▁57": 2620,
      "▁!!!": 2621,
      "ate": 2622,
      "▁airport": 2623,
      "▁1754": 2624,
      "bur": 2625,
      "over": 2626,
      "▁2011": 2627,
      "▁pretty": 2628,
      "▁shop": 2629,
      ".99": 2630,
      "▁couple": 2631,
      "▁575": 2632,
      "▁wr": 2633,
      "▁mother": 2634,
      "▁748": 2635,
      "▁mom": 2636,
      "55": 2637,
      "▁850": 2638,
      "▁160": 2639,
      "▁job": 2640,
      "▁af": 2641,
      "▁dress": 2642,
      "▁kill": 2643,
      "▁&amp;": 2644,
      "▁2002": 2645,
      "▁61": 2646,
      "▁—": 2647,
      "▁organ": 2648,
      "▁sit": 2649,
      "▁environment": 2650,
      "υ": 2651,
      "================": 2652,
      "ant": 2653,
      "▁6.00": 2654,
      "xic": 2655,
      "lish": 2656,
      "▁0590": 2657,
      ":25": 2658,
      "ration": 2659,
      "▁15,000": 2660,
      "cil": 2661,
      "▁particip": 2662,
      "▁2,000": 2663,
      "▁aff": 2664,
      "ʁ": 2665,
      "▁77": 2666,
      "▁num": 2667,
      "[": 2668,
      "enix": 2669,
      "/30/2001": 2670,
      "▁eating": 2671,
      "ot": 2672,
      "vil": 2673,
      "el": 2674,
      "▁things": 2675,
      "▁11/7": 2676,
      "▁di": 2677,
      "▁rese": 2678,
      "▁thinking": 2679,
      "▁mo": 2680,
      "▁scient": 2681,
      "ress": 2682,
      "▁had": 2683,
      "▁current": 2684,
      "▁enron": 2685,
      "▁05/25/2001": 2686,
      "▁thirty-five": 2687,
      "▁416-865-3": 2688,
      "▁wait": 2689,
      "▁05:37": 2690,
      "▁camp": 2691,
      "raph": 2692,
      "g": 2693,
      "司": 2694,
      "gg": 2695,
      "▁eu": 2696,
      "▁small": 2697,
      "ural": 2698,
      "velop": 2699,
      "arch": 2700,
      "▁mov": 2701,
      "▁14": 2702,
      "▁3.2": 2703,
      "▁chicken": 2704,
      "▁somebody": 2705,
      "▁hist": 2706,
      "▁experience": 2707,
      "ortun": 2708,
      "▁bur": 2709,
      "▁713-79": 2710,
      "▁1.1": 2711,
      "▁2:30": 2712,
      "▁jwww": 2713,
      "olog": 2714,
      "▁she": 2715,
      "cross": 2716,
      "▁02/2": 2717,
      "▁y": 2718,
      "▁dep": 2719,
      "aster": 2720,
      "▁09:": 2721,
      "-20-": 2722,
      "********": 2723,
      "▁s": 2724,
      "▁instead": 2725,
      "▁when": 2726,
      "▁minutes": 2727,
      "r": 2728,
      "▁say": 2729,
      "▁among": 2730,
      "▁short": 2731,
      "▁6/1": 2732,
      "▁working": 2733,
      "▁62": 2734,
      "-460-3": 2735,
      "▁lar": 2736,
      "▁exist": 2737,
      "▁story": 2738,
      ":19": 2739,
      "▁invest": 2740,
      "▁first": 2741,
      "▁800.713.8600": 2742,
      "▁bad": 2743,
      "▁eas": 2744,
      "▁soc": 2745,
      "▁713-853-": 2746,
      "▁beach": 2747,
      "▁top": 2748,
      "▁ou": 2749,
      "ets": 2750,
      "----": 2751,
      "822": 2752,
      "▁2.5": 2753,
      "▁univers": 2754,
      "▁spr": 2755,
      "▁roman": 2756,
      "▁10:00": 2757,
      "▁says": 2758,
      "▁1892": 2759,
      "▁angeles": 2760,
      "▁weeks": 2761,
      "ers": 2762,
      "▁case": 2763,
      "▁cre": 2764,
      "▁belie": 2765,
      "▁sixteen": 2766,
      "▁buy": 2767,
      "ond": 2768,
      "▁while": 2769,
      "▁happened": 2770,
      "▁2.3": 2771,
      "▁72,000": 2772,
      "edie": 2773,
      "ology": 2774,
      "▁please": 2775,
      ":48": 2776,
      "▁tomorrow": 2777,
      "ush": 2778,
      "olis": 2779,
      "85": 2780,
      "▁pe": 2781,
      "▁1613": 2782,
      "▁humaine": 2783,
      "right": 2784,
      "▁sev": 2785,
      "ters": 2786,
      "ided": 2787,
      "▁197": 2788,
      "/17/2000": 2789,
      "▁1561": 2790,
      "os": 2791,
      "iss": 2792,
      "oon": 2793,
      "▁3.7": 2794,
      "▁july": 2795,
      "▁as": 2796,
      "reat": 2797,
      "▁intern": 2798,
      "-3989": 2799,
      "▁bn": 2800,
      "▁42": 2801,
      "▁90": 2802,
      "874": 2803,
      "▁worth": 2804,
      "▁92": 2805,
      "zen": 2806,
      "ased": 2807,
      "▁par": 2808,
      "▁often": 2809,
      "▁def": 2810,
      "▁easy": 2811,
      "▁rock": 2812,
      "▁milit": 2813,
      "ature": 2814,
      "▁member": 2815,
      "▁6871082#": 2816,
      "▁teh": 2817,
      "▁station": 2818,
      "▁195": 2819,
      "4/2000": 2820,
      "st": 2821,
      "ool": 2822,
      "▁1947": 2823,
      ":56": 2824,
      "▁1-800-991-9": 2825,
      "pe": 2826,
      "▁74419": 2827,
      "▁852": 2828,
      "▁888.916.718": 2829,
      "ited": 2830,
      "▁food": 2831,
      "▁·": 2832,
      "▁piece": 2833,
      "▁175": 2834,
      "▁6.2": 2835,
      "▁sh": 2836,
      "▁1-800-991-9019": 2837,
      "▁programm": 2838,
      "t": 2839,
      "▁dc": 2840,
      "▁aw": 2841,
      "²": 2842,
      "▁1609": 2843,
      "no": 2844,
      "▁w/": 2845,
      "▁1937": 2846,
      "▁.....": 2847,
      "▁requ": 2848,
      "▁reason": 2849,
      "▁pittsburgh": 2850,
      "▁exp": 2851,
      "▁price": 2852,
      "▁whom": 2853,
      "134": 2854,
      "€": 2855,
      "▁sort": 2856,
      "▁202.456.1111": 2857,
      "▁bl": 2858,
      "amm": 2859,
      "▁512": 2860,
      "▁425": 2861,
      "▁7:30": 2862,
      "▁_": 2863,
      "▁1635": 2864,
      "ork": 2865,
      "▁town": 2866,
      "▁kids": 2867,
      "▁1/2": 2868,
      "2000": 2869,
      "ither": 2870,
      "▁bal": 2871,
      "▁ben": 2872,
      "iful": 2873,
      "▁israel": 2874,
      "▁3.": 2875,
      "▁star": 2876,
      "▁exce": 2877,
      "uss": 2878,
      "▁---------------------------------": 2879,
      "▁life": 2880,
      "unications": 2881,
      "▁peau": 2882,
      "80": 2883,
      "▁64": 2884,
      "▁knew": 2885,
      "▁260": 2886,
      "▁5.3": 2887,
      "▁typ": 2888,
      "ally": 2889,
      "urn": 2890,
      "▁gl": 2891,
      "▁secur": 2892,
      "▁2006": 2893,
      "▁759933": 2894,
      "▁24.7": 2895,
      "65-3": 2896,
      "▁sen": 2897,
      "▁1593": 2898,
      "▁5/18": 2899,
      "▁50": 2900,
      "▁7484": 2901,
      "ering": 2902,
      "▁fight": 2903,
      "outh": 2904,
      "ric": 2905,
      "▁north": 2906,
      "▁12:42": 2907,
      "++++": 2908,
      "▁water": 2909,
      "/4": 2910,
      "umer": 2911,
      "▁**": 2912,
      "▁washing": 2913,
      "ne": 2914,
      "▁g": 2915,
      "▁micro": 2916,
      "ing": 2917,
      "▁email": 2918,
      "▁opt": 2919,
      "▁po": 2920,
      "-8031": 2921,
      "otte": 2922,
      "▁1579": 2923,
      "▁history": 2924,
      "▁mu": 2925,
      "town": 2926,
      "il": 2927,
      "♥": 2928,
      "▁11": 2929,
      "▁9/11": 2930,
      "-23": 2931,
      "▁place": 2932,
      "▁80,000": 2933,
      "ا": 2934,
      "▁whereas": 2935,
      "eau": 2936,
      "▁1777": 2937,
      "▁12:30": 2938,
      "▁dom": 2939,
      "ac": 2940,
      "▁3.5": 2941,
      "sh": 2942,
      "21": 2943,
      "ana": 2944,
      "-2": 2945,
      "▁bea": 2946,
      "▁half": 2947,
      "sid": 2948,
      "ca": 2949,
      "oose": 2950,
      "▁sunday": 2951,
      "▁of": 2952,
      "omet": 2953,
      "▁250": 2954,
      "ates": 2955,
      "▁ans": 2956,
      "ge": 2957,
      "▁.2": 2958,
      "▁1724": 2959,
      "▁ano": 2960,
      "▁dose": 2961,
      "▁42,000": 2962,
      "ˈ": 2963,
      "▁:d": 2964,
      "▁thought": 2965,
      ",008": 2966,
      "▁post": 2967,
      "▁everything": 2968,
      "▁amongst": 2969,
      "icle": 2970,
      "▁under": 2971,
      "▁forth": 2972,
      "xce": 2973,
      "▁08:30": 2974,
      "³": 2975,
      "eth": 2976,
      "▁417": 2977,
      "5,000": 2978,
      "▁april": 2979,
      "and": 2980,
      "ists": 2981,
      "▁send": 2982,
      "▁word": 2983,
      "▁48": 2984,
      "▁consider": 2985,
      "`": 2986,
      "▁345": 2987,
      "ints": 2988,
      "ign": 2989,
      "▁obs": 2990,
      "opment": 2991,
      "ision": 2992,
      "-3": 2993,
      "ces": 2994,
      "▁indust": 2995,
      "▁need": 2996,
      "▁09/16/99": 2997,
      "ense": 2998,
      "61": 2999,
      "▁probably": 3000,
      "ention": 3001,
      "▁tr": 3002,
      ".00": 3003,
      "ward": 3004,
      "▁ec": 3005,
      "▁mem": 3006,
      "▁2014": 3007,
      "50": 3008,
      "况": 3009,
      "▁shakespeare": 3010,
      "▁specific": 3011,
      "▁var": 3012,
      "▁walk": 3013,
      "▁poor": 3014,
      "▁19": 3015,
      "▁1822": 3016,
      "▁educ": 3017,
      "▁charl": 3018,
      "▁looked": 3019,
      "▁surpr": 3020,
      "/h": 3021,
      "▁1875": 3022,
      "▁800.713.86": 3023,
      "▁av": 3024,
      "▁comm": 3025,
      "▁1902": 3026,
      "ner": 3027,
      "▁course": 3028,
      "▁huma": 3029,
      "▁energ": 3030,
      "▁une": 3031,
      "▁567.77": 3032,
      "▁create": 3033,
      "6-8": 3034,
      "▁3,000": 3035,
      "▁watch": 3036,
      "▁page": 3037,
      "▁quality": 3038,
      "▁ge": 3039,
      "ities": 3040,
      "▁1689": 3041,
      "▁1849": 3042,
      "od": 3043,
      "▁cap": 3044,
      "ission": 3045,
      "▁med": 3046,
      "▁163": 3047,
      "iny": 3048,
      "▁620-294-": 3049,
      "ident": 3050,
      "▁inv": 3051,
      "ister": 3052,
      "▁res": 3053,
      ".86": 3054,
      "▁1200": 3055,
      "▁508": 3056,
      "▁&amp": 3057,
      "▁child": 3058,
      "84": 3059,
      "atic": 3060,
      "tim": 3061,
      "▁345-343": 3062,
      "▁1975": 3063,
      "▁1779": 3064,
      "▁conf": 3065,
      "▁truck": 3066,
      "▁ens": 3067,
      "▁415.782.7822": 3068,
      "my": 3069,
      "xt": 3070,
      "▁thurs": 3071,
      "▁sand": 3072,
      "819602175": 3073,
      "th": 3074,
      ":11": 3075,
      "▁h-0": 3076,
      "▁2.9": 3077,
      "ued": 3078,
      "▁nice": 3079,
      "▁dad": 3080,
      "▁05/30/2001": 3081,
      "▁ju": 3082,
      "子": 3083,
      "▁cook": 3084,
      "▁01": 3085,
      "▁1914": 3086,
      "▁wil": 3087,
      "▁important": 3088,
      "▁apr": 3089,
      "iety": 3090,
      "▁int": 3091,
      "d": 3092,
      ":5": 3093,
      "▁throw": 3094,
      "▁sor": 3095,
      "▁http://": 3096,
      "▁proper": 3097,
      "ons": 3098,
      "ime": 3099,
      "▁83": 3100,
      "▁past": 3101,
      "▁inter": 3102,
      "▁fell": 3103,
      "fer": 3104,
      "ize": 3105,
      "▁vi": 3106,
      "▁(": 3107,
      ",000,000": 3108,
      ":44": 3109,
      "▁rol": 3110,
      "▁3,": 3111,
      "ff": 3112,
      "ced": 3113,
      "haps": 3114,
      "▁425-415-": 3115,
      "▁81": 3116,
      "▁630": 3117,
      "▁la": 3118,
      "201": 3119,
      "ii": 3120,
      "oc": 3121,
      "▁03/08/2000": 3122,
      "▁away": 3123,
      "▁looking": 3124,
      "▁boy": 3125,
      "ir": 3126,
      "▁green": 3127,
      "▁1958": 3128,
      "inn": 3129,
      "▁281-44": 3130,
      "▁little": 3131,
      "▁pol": 3132,
      "▁281": 3133,
      "▁6,000": 3134,
      "▁betw": 3135,
      "▁7.2": 3136,
      "▁1604": 3137,
      "aq": 3138,
      "▁address": 3139,
      "ous": 3140,
      "▁wear": 3141,
      "▁ra": 3142,
      "▁11/28/2000": 3143,
      "p": 3144,
      "▁kind": 3145,
      "▁night": 3146,
      "▁u": 3147,
      "▁dollars": 3148,
      "▁1/8": 3149,
      "▁their": 3150,
      "▁perhaps": 3151,
      ".676": 3152,
      "▁lead": 3153,
      "▁orlando": 3154,
      "▁1530": 3155,
      "▁703": 3156,
      "▁court": 3157,
      "▁yet": 3158,
      "▁an": 3159,
      "▁----": 3160,
      "▁sent": 3161,
      "▁483": 3162,
      "▁10:45": 3163,
      "ely": 3164,
      "ination": 3165,
      "▁went": 3166,
      "▁1981": 3167,
      "▁+": 3168,
      "ι": 3169,
      "ern": 3170,
      "▁3:00": 3171,
      "▁places": 3172,
      "ther": 3173,
      "▁cour": 3174,
      "ital": 3175,
      "▁730": 3176,
      "▁eng": 3177,
      "selves": 3178,
      "▁5/1": 3179,
      "▁train": 3180,
      "▁est": 3181,
      "-46": 3182,
      "▁hu": 3183,
      "ically": 3184,
      "▁aug": 3185,
      "▁friday": 3186,
      "eed": 3187,
      "▁5000": 3188,
      "76": 3189,
      "-": 3190,
      "▁2": 3191,
      "▁chang": 3192,
      "▁1765": 3193,
      "▁1.": 3194,
      "!!!": 3195,
      "▁indian": 3196,
      "mp": 3197,
      "two": 3198,
      "▁such": 3199,
      "▁succ": 3200,
      "▁needs": 3201,
      "▁1800": 3202,
      "▁3-5": 3203,
      "▁--": 3204,
      "00": 3205,
      "orn": 3206,
      "▁pr": 3207,
      "15": 3208,
      "anta": 3209,
      "▁2022": 3210,
      "▁once": 3211,
      "ity": 3212,
      ",1": 3213,
      "▁write": 3214,
      "▁1847": 3215,
      "▁1992": 3216,
      "▁10:25": 3217,
      "▁1780": 3218,
      "ined": 3219,
      "cuz": 3220,
      "ian": 3221,
      ",7": 3222,
      "▁dkk": 3223,
      "▁phil": 3224,
      "▁drink": 3225,
      "▁problem": 3226,
      "▁felt": 3227,
      "▁mid": 3228,
      "▁much": 3229,
      "▁1560": 3230,
      "land": 3231,
      "▁1949": 3232,
      "ind": 3233,
      "▁sound": 3234,
      "cept": 3235,
      "▁947": 3236,
      "▁mar": 3237,
      "▁ele": 3238,
      "▁1832": 3239,
      "▁nose": 3240,
      "book": 3241,
      "ines": 3242,
      "▁twel": 3243,
      "▁ve": 3244,
      "▁181": 3245,
      "▁1110": 3246,
      "**": 3247,
      "qu": 3248,
      "▁billion": 3249,
      "▁;)": 3250,
      "57": 3251,
      "96": 3252,
      "▁mouth": 3253,
      "▁parents": 3254,
      "▁during": 3255,
      "▁1831": 3256,
      "al": 3257,
      "▁newark": 3258,
      "id": 3259,
      "/99": 3260,
      "▁dallas": 3261,
      "▁1585": 3262,
      "031": 3263,
      "▁part": 3264,
      "▁:": 3265,
      ".2461": 3266,
      "with": 3267,
      "▁started": 3268,
      "▁orland": 3269,
      "▁yo": 3270,
      "▁struct": 3271,
      "▁ant": 3272,
      "▁contin": 3273,
      "▁03/02/2001": 3274,
      "▁loc": 3275,
      "ury": 3276,
      "▁lad": 3277,
      "uct": 3278,
      "ected": 3279,
      "▁pittsbur": 3280,
      "▁34": 3281,
      "/17/99": 3282,
      "ite": 3283,
      "▁1989": 3284,
      "ange": 3285,
      "attle": 3286,
      "_": 3287,
      ":51": 3288,
      "▁.doc": 3289,
      "499": 3290,
      "▁100,000": 3291,
      "iding": 3292,
      "▁order": 3293,
      "▁president": 3294,
      "77": 3295,
      "▁language": 3296,
      "▁playing": 3297,
      "000": 3298,
      "▁rec": 3299,
      "uch": 3300,
      "▁den": 3301,
      "oice": 3302,
      "▁denver": 3303,
      "▁god": 3304,
      "▁trying": 3305,
      "▁412": 3306,
      "▁m": 3307,
      "▁dozen": 3308,
      "▁twenty-two": 3309,
      "▁require": 3310,
      "▁05": 3311,
      "▁04:28": 3312,
      "▁speak": 3313,
      "▁50000": 3314,
      "▁wonder": 3315,
      "▁1833": 3316,
      "▁11/27/2000": 3317,
      "▁blue": 3318,
      "▁08": 3319,
      "▁1647": 3320,
      "itions": 3321,
      "θ": 3322,
      "-27": 3323,
      "▁saw": 3324,
      "▁link": 3325,
      "φ": 3326,
      "▁achie": 3327,
      ":21": 3328,
      "▁bath": 3329,
      "▁pl": 3330,
      "▁look": 3331,
      "/": 3332,
      "▁pict": 3333,
      "▁03:48": 3334,
      "60": 3335,
      "2": 3336,
      "▁1900": 3337,
      "ences": 3338,
      "▁!!": 3339,
      "gress": 3340,
      "▁&": 3341,
      "du": 3342,
      "▁2:00": 3343,
      "▁pract": 3344,
      ".7": 3345,
      "▁’re": 3346,
      ".45": 3347,
      "ution": 3348,
      "▁1599": 3349,
      "▁91": 3350,
      "▁attack": 3351,
      "ances": 3352,
      "▁progr": 3353,
      "}": 3354,
      "▁120": 3355,
      "rael": 3356,
      "▁env": 3357,
      "▁toronto": 3358,
      "▁~": 3359,
      "▁eff": 3360,
      "▁move": 3361,
      "aim": 3362,
      "13": 3363,
      "▁washington": 3364,
      "▁v": 3365,
      "/7": 3366,
      "▁believe": 3367,
      "ave": 3368,
      "▁committ": 3369,
      "▁at": 3370,
      "▁black": 3371,
      "16.718": 3372,
      "空": 3373,
      "▁init": 3374,
      "▁test": 3375,
      ".718": 3376,
      "teen": 3377,
      "▁dan": 3378,
      ".7822": 3379,
      "▁cont": 3380,
      "ular": 3381,
      "▁hours": 3382,
      "▁hurt": 3383,
      "airs": 3384,
      "elf": 3385,
      "▁hundred": 3386,
      "ß": 3387,
      "▁happ": 3388,
      "▁510-642": 3389,
      "▁desc": 3390,
      "▁8.3": 3391,
      "ken": 3392,
      "1082": 3393,
      "▁unles": 3394,
      "▁bear": 3395,
      "▁s/he": 3396,
      "▁meeting": 3397,
      "▁din": 3398,
      "▁fly": 3399,
      "om": 3400,
      "▁1943": 3401,
      "▁mean": 3402,
      "▁350": 3403,
      "▁support": 3404,
      "▁1505": 3405,
      "{": 3406,
      "▁mine": 3407,
      "▁funny": 3408,
      "▁perdues": 3409,
      "▁cor": 3410,
      "▁!!!!!!!!!!!": 3411,
      "ient": 3412,
      "清": 3413,
      "▁80435": 3414,
      "▁country": 3415,
      "kk": 3416,
      "▁else": 3417,
      "ρ": 3418,
      "▁counter": 3419,
      "▁room": 3420,
      "__": 3421,
      "ld": 3422,
      "▁nothing": 3423,
      "▁1840": 3424,
      "▁afternoon": 3425,
      "▁sex": 3426,
      "▁account": 3427,
      "▁les": 3428,
      "▁same": 3429,
      "rans": 3430,
      "▁dwww": 3431,
      "▁1.3": 3432,
      "▁admin": 3433,
      "▁appro": 3434,
      "ough": 3435,
      "?": 3436,
      "90": 3437,
      "-r": 3438,
      "-696": 3439,
      "712": 3440,
      "▁fill": 3441,
      "▁cheap": 3442,
      "▁question": 3443,
      "im": 3444,
      "▁.": 3445,
      "▁lest": 3446,
      "go": 3447,
      "▁er": 3448,
      "81": 3449,
      "▁10:56": 3450,
      "▁what": 3451,
      "▁philadelp": 3452,
      "▁300": 3453,
      "3-3": 3454,
      "▁31": 3455,
      "▁1801": 3456,
      "▁mer": 3457,
      "▁ahead": 3458,
      "▁6.1": 3459,
      ":": 3460,
      "▁bas": 3461,
      "gle": 3462,
      "0/2000": 3463,
      "▁fourteen": 3464,
      "1/2001": 3465,
      "▁sho": 3466,
      "▁effect": 3467,
      "▁whole": 3468,
      "/11": 3469,
      "4": 3470,
      "▁763736": 3471,
      "▁euro": 3472,
      "ɔ": 3473,
      "▁1709": 3474,
      "&": 3475,
      "▁96": 3476,
      ":58": 3477,
      "$": 3478,
      ":32": 3479,
      "k": 3480,
      "º": 3481,
      "✉": 3482,
      "tt": 3483,
      "▁gener": 3484,
      "▁ne": 3485,
      "ves": 3486,
      "27": 3487,
      "880": 3488,
      "▁fig": 3489,
      "▁47": 3490,
      "craft": 3491,
      "▁hit": 3492,
      "▁bird": 3493,
      "ip": 3494,
      "ht": 3495,
      "pp": 3496,
      "uel": 3497,
      "▁1993": 3498,
      "▁4.7": 3499,
      "0": 3500,
      "▁281-518": 3501,
      "▁eighteen": 3502,
      "▁win": 3503,
      "▁im": 3504,
      "▁you": 3505,
      "▁1859": 3506,
      "▁11:32": 3507,
      "▁39": 3508,
      "▁320": 3509,
      "▁development": 3510,
      "▁help": 3511,
      "▁2000": 3512,
      "▁01/12/2001": 3513,
      "raft": 3514,
      "/11/2004": 3515,
      "omm": 3516,
      "▁compan": 3517,
      "▁someone": 3518,
      "________________________________": 3519,
      "▁ye": 3520,
      "aps": 3521,
      "▁alongside": 3522,
      "ape": 3523,
      "▁154": 3524,
      "▁app": 3525,
      "als": 3526,
      "▁birth": 3527,
      "▁draw": 3528,
      "ow": 3529,
      "iv": 3530,
      "aw": 3531,
      "ied": 3532,
      "▁build": 3533,
      "▁ger": 3534,
      "16": 3535,
      "128": 3536,
      "▁dat": 3537,
      ".95": 3538,
      "▁1307": 3539,
      "▁22": 3540,
      "ss": 3541,
      "▁ext": 3542,
      "▁dey": 3543,
      "▁01/1": 3544,
      "▁mon": 3545,
      "2,000": 3546,
      "br": 3547,
      "93": 3548,
      ".75": 3549,
      "▁economic": 3550,
      "ere": 3551,
      "ract": 3552,
      "▁twenty": 3553,
      "▁10,000": 3554,
      "▁196": 3555,
      "▁02": 3556,
      "▁713/": 3557,
      "▁start": 3558,
      "▁’s": 3559,
      "aren": 3560,
      "▁415.621": 3561,
      "-44": 3562,
      "▁1830": 3563,
      "▁1245": 3564,
      "ح": 3565,
      "11": 3566,
      "▁07:24": 3567,
      "989": 3568,
      "▁1983": 3569,
      "▁pm": 3570,
      "▁05/17/99": 3571,
      "oup": 3572,
      "▁my": 3573,
      "▁veg": 3574,
      "▁69": 3575,
      "图": 3576,
      "▁control": 3577,
      "▁financ": 3578,
      "ince": 3579,
      "------": 3580,
      "ards": 3581,
      "▁huh": 3582,
      "-n": 3583,
      "▁found": 3584,
      "bit": 3585,
      "▁ep": 3586,
      "▁fir": 3587,
      "▁4,": 3588,
      "▁wh": 3589,
      "▁moment": 3590,
      "▁peop": 3591,
      "▁d'": 3592,
      "ively": 3593,
      "ww": 3594,
      "▁bag": 3595,
      "▁tho": 3596,
      "▁finish": 3597,
      "▁40,000": 3598,
      "▁kitt": 3599,
      "▁due": 3600,
      "3-3744": 3601,
      "▁dem": 3602,
      "▁pull": 3603,
      "uc": 3604,
      "ical": 3605,
      "▁offic": 3606,
      "▁2.0": 3607,
      "te": 3608,
      "▁accord": 3609,
      "▁`s": 3610,
      "ults": 3611,
      "▁forty-": 3612,
      "iver": 3613,
      "▁anim": 3614,
      "▁horse": 3615,
      "itch": 3616,
      "▁rel": 3617,
      "▁04": 3618,
      "91": 3619,
      "200": 3620,
      "angu": 3621,
      "▁ad": 3622,
      "▁410-468-3": 3623,
      "▁718": 3624,
      "▁grand": 3625,
      "ght": 3626,
      "ect": 3627,
      ":14": 3628,
      "form": 3629,
      "pr": 3630,
      "▁rob": 3631,
      "▁leave": 3632,
      "pite": 3633,
      "▁curren": 3634,
      "▁ya": 3635,
      "▁twenty-": 3636,
      "▁cop": 3637,
      "▁gen": 3638,
      "▁texas": 3639,
      "▁paper": 3640,
      "▁02/27/2001": 3641,
      "ures": 3642,
      "▁hand": 3643,
      "ik": 3644,
      "▁forward": 3645,
      "▁techn": 3646,
      "▁bec": 3647,
      "▁european": 3648,
      "▁hell": 3649,
      "▁change": 3650,
      "▁pric": 3651,
      "▁fifty": 3652,
      "奈": 3653,
      "▁wou": 3654,
      "▁1962": 3655,
      ":27": 3656,
      "004": 3657,
      "▁street": 3658,
      "▁allow": 3659,
      "▁bab": 3660,
      "721": 3661,
      "▁cur": 3662,
      "pped": 3663,
      "ending": 3664,
      "▁comedie": 3665,
      "▁3:30": 3666,
      "es": 3667,
      "▁used": 3668,
      "pt": 3669,
      "stop": 3670,
      "▁01/19/2001": 3671,
      "▁1230": 3672,
      "▁1982": 3673,
      "£": 3674,
      "▁establish": 3675,
      "ex": 3676,
      "▁\"": 3677,
      "▁society": 3678,
      "▁1970": 3679,
      "line": 3680,
      "is": 3681,
      "0-3": 3682,
      ":28": 3683,
      "ib": 3684,
      "▁put": 3685,
      "▁'em": 3686,
      "ors": 3687,
      "▁next": 3688,
      "▁wilt": 3689,
      "☎": 3690,
      "▁01:39:56": 3691,
      "amp": 3692,
      "▁12:12": 3693,
      "/2000": 3694,
      "▁1699": 3695,
      "ackl": 3696,
      "in": 3697,
      "▁philadelphia": 3698,
      "▁fine": 3699,
      "▁11608": 3700,
      "▁family": 3701,
      "▁con": 3702,
      "▁feel": 3703,
      "▁state": 3704,
      "as": 3705,
      "▁now": 3706,
      "▁sur": 3707,
      "=": 3708,
      "▁fr": 3709,
      "\\": 3710,
      "▁200": 3711,
      "▁attached": 3712,
      "idd": 3713,
      "▁1821": 3714,
      "▁ins": 3715,
      "5/2001": 3716,
      "▁geor": 3717,
      "▁fil": 3718,
      "▁treat": 3719,
      "h": 3720,
      "▁45": 3721,
      "/16": 3722,
      "▁thirteen": 3723,
      "ting": 3724,
      "▁show": 3725,
      "▁mad": 3726,
      "ought": 3727,
      "▁mod": 3728,
      "▁meth": 3729,
      "▁rece": 3730,
      "noon": 3731,
      "▁forty": 3732,
      "▁aside": 3733,
      "▁percent": 3734,
      "!!": 3735,
      "▁abo": 3736,
      "ny": 3737,
      "at": 3738,
      "▁till": 3739,
      "▁_________________________________________________": 3740,
      "▁113": 3741,
      "eric": 3742,
      "▁whe": 3743,
      "▁71": 3744,
      "▁10/2": 3745,
      "▁129": 3746,
      "▁flights": 3747,
      "▁76": 3748,
      "▁form": 3749,
      "▁seattle": 3750,
      "▁860": 3751,
      "▁near": 3752,
      "▁ey": 3753,
      "▁51": 3754,
      "isc": 3755,
      "▁639": 3756,
      "oth": 3757,
      "er": 3758,
      "▁come": 3759,
      "ries": 3760,
      "▁event": 3761,
      "▁arriving": 3762,
      "ta": 3763,
      "▁having": 3764,
      "3": 3765,
      "▁fav": 3766,
      "▁rem": 3767,
      "▁summ": 3768,
      "eak": 3769,
      "▁202": 3770,
      "gami": 3771,
      "▁long": 3772,
      "54-": 3773,
      "▁several": 3774,
      "▁amid": 3775,
      "▁mm": 3776,
      "▁prop": 3777,
      "▁12/26/2000": 3778,
      "ative": 3779,
      "▁re": 3780,
      "iqu": 3781,
      "▁11:16": 3782,
      "▁wish": 3783,
      "▁lim": 3784,
      "▁notwithstand": 3785,
      "▁gone": 3786,
      "▁cir": 3787,
      "ven": 3788,
      "▁own": 3789,
      "▁‘’": 3790,
      "▁sea": 3791,
      "▁fund": 3792,
      "▁alth": 3793,
      "ang": 3794,
      "▁210": 3795,
      "▁08/16": 3796,
      "▁sk": 3797,
      "is_0712": 3798,
      "▁lear": 3799,
      "▁entire": 3800,
      "▁activ": 3801,
      "▁eleven": 3802,
      "▁300,000": 3803,
      "70": 3804,
      "▁1976": 3805,
      "io": 3806,
      "700": 3807,
      "y": 3808,
      "300": 3809,
      "acy": 3810,
      "ings": 3811,
      "7/99": 3812,
      "ising": 3813,
      "▁pro": 3814,
      "▁excellent": 3815,
      "▁set": 3816,
      "▁pick": 3817,
      "▁1.5": 3818,
      "▁getting": 3819,
      "▁att": 3820,
      "▁ah": 3821,
      "▁mr": 3822,
      "▁1968": 3823,
      "▁giv": 3824,
      "▁maj": 3825,
      "▁thanks": 3826,
      "▁after": 3827,
      "▁conc": 3828,
      "****": 3829,
      "▁24,000": 3830,
      "▁arrive": 3831,
      "ue": 3832,
      "▁0.00": 3833,
      "▁excell": 3834,
      "▁today": 3835,
      "▁1608": 3836,
      "ual": 3837,
      "…": 3838,
      "▁sett": 3839,
      "24": 3840,
      "..": 3841,
      "art": 3842,
      "▁1594": 3843,
      "▁2019": 3844,
      "▁23": 3845,
      "▁j": 3846,
      "▁milk": 3847,
      "ized": 3848,
      "ts": 3849,
      "▁polic": 3850,
      "▁1987": 3851,
      "▁himself": 3852,
      "▁wrong": 3853,
      "▁quite": 3854,
      "▁1805": 3855,
      "▁sometimes": 3856,
      "99": 3857,
      "▁[...": 3858,
      "▁super": 3859,
      "▁1952": 3860,
      "▁phoenix": 3861,
      "▁<<": 3862,
      "▁oak": 3863,
      "▁11/0": 3864,
      ":40": 3865,
      "▁2,300": 3866,
      "-59": 3867,
      "▁ch": 3868,
      ":39": 3869,
      "▁ide": 3870,
      "▁coll": 3871,
      "ok": 3872,
      "▁mark": 3873,
      "▁seven": 3874,
      "▁ca": 3875,
      "1696": 3876,
      "▁been": 3877,
      "uary": 3878,
      "▁um": 3879,
      "▁action": 3880,
      "air": 3881,
      "▁1205": 3882,
      "▁underneath": 3883,
      "ile": 3884,
      "ute": 3885,
      "▁1660": 3886,
      "▁he": 3887,
      "▁1584": 3888,
      "utions": 3889,
      "▁03:00": 3890,
      "▁manag": 3891,
      "▁into": 3892,
      "ection": 3893,
      "▁€": 3894,
      "▁1945": 3895,
      "▁it's": 3896,
      "▁states": 3897,
      "▁the": 3898,
      "amed": 3899,
      "▁why": 3900,
      "▁09": 3901,
      "get": 3902,
      "/31": 3903,
      "▁eyes": 3904,
      "ions": 3905,
      "ope": 3906,
      "▁atop": 3907,
      "▁nineteen": 3908,
      "▁day": 3909,
      "enc": 3910,
      "▁back": 3911,
      "▁ninety": 3912,
      "▁live": 3913,
      "389": 3914,
      "▁asked": 3915,
      "10": 3916,
      "▁we": 3917,
      "▁@": 3918,
      "▁6.8": 3919,
      "▁65": 3920,
      "▁anal": 3921,
      "ν": 3922,
      "▁below": 3923,
      "eld": 3924,
      "▁1888": 3925,
      "[UNK]": 3926,
      "▁francisco": 3927,
      "▁applic": 3928,
      "▁heard": 3929,
      "▁180": 3930,
      "▁age": 3931,
      "▁11:00": 3932,
      "com": 3933,
      "▁happen": 3934,
      "▁woman": 3935,
      "▁1,200": 3936,
      "▁8:30": 3937,
      "▁different": 3938,
      "▁04:03": 3939,
      ":57": 3940,
      "▁mus": 3941,
      "ains": 3942,
      "ustom": 3943,
      "▁regard": 3944,
      "▁pock": 3945,
      "▁prot": 3946,
      "▁3724": 3947,
      "▁oil": 3948,
      "mem": 3949,
      "▁high": 3950,
      "▁30": 3951,
      "▁extrem": 3952,
      "ones": 3953,
      "▁fo": 3954,
      "▁ask": 3955,
      "ea": 3956,
      "iness": 3957,
      "▁middle": 3958,
      "▁special": 3959,
      "▁cut": 3960,
      "▁stoy": 3961,
      "▁seventh": 3962,
      "▁hold": 3963,
      "▁yeah": 3964,
      "49": 3965,
      "▁following": 3966,
      ":24": 3967,
      "▁detail": 3968,
      "alth": 3969,
      "!": 3970,
      "▁almost": 3971,
      "▁whatever": 3972,
      "▁remember": 3973,
      "▁09:01": 3974,
      "▁airlines": 3975,
      "▁5,000": 3976,
      "▁op": 3977,
      "zac": 3978,
      "▁tou": 3979,
      "ned": 3980,
      "▁3,500": 3981,
      "▁right": 3982,
      "ar": 3983,
      "▁899": 3984,
      "▁fl": 3985,
      "▁haf": 3986,
      "▁n’t": 3987,
      "az": 3988,
      ":30": 3989,
      "▁01/26/2001": 3990,
      "▁4.6": 3991,
      "▁1614": 3992,
      "▁=": 3993,
      "▁sept": 3994,
      "▁request": 3995,
      "▁miami": 3996,
      "▁ass": 3997,
      "lect": 3998,
      "▁comes": 3999,
      "▁serv": 4000,
      "▁conn": 4001,
      "▁en": 4002,
      "▁27": 4003,
      "▁seventy": 4004,
      "tain": 4005,
      "▁being": 4006,
      "▁727": 4007,
      "rod": 4008,
      "2/2000": 4009,
      "▁le": 4010,
      "▁cold": 4011,
      "3-": 4012,
      "clock": 4013,
      "▁11:3": 4014,
      "----------------": 4015,
      "rol": 4016,
      "▁september": 4017,
      "▁prof": 4018,
      "▁b/c": 4019,
      "ral": 4020,
      "▁color": 4021,
      "▁lunch": 4022,
      "▁son": 4023,
      "▁talk": 4024,
      "▁2001": 4025,
      "▁uh": 4026,
      "▁doll": 4027,
      "▁6400": 4028,
      "▁policy": 4029,
      "▁egg": 4030,
      "▁2012": 4031,
      "@enron": 4032,
      "/2004": 4033,
      "46-3393": 4034,
      "▁tim": 4035,
      "▁1,6": 4036,
      "▁might": 4037,
      "ared": 4038,
      "▁only": 4039,
      "▁fall": 4040,
      ":1": 4041,
      "▁ok": 4042,
      "ight": 4043,
      "▁alright": 4044,
      "▁sle": 4045,
      "/26/2000": 4046,
      "98": 4047,
      "▁fish": 4048,
      "▁ill": 4049,
      "▁110": 4050,
      "▁k": 4051,
      "ments": 4052,
      "▁for": 4053,
      "les": 4054,
      "▁1950": 4055,
      "ember": 4056,
      "▁189": 4057,
      "▁supp": 4058,
      "enty": 4059,
      "▁tried": 4060,
      "▁281-435-0295": 4061,
      "▁exec": 4062,
      "▁!!!!": 4063,
      "▁sa": 4064,
      "▁able": 4065,
      "▁meet": 4066,
      "ier": 4067,
      "________": 4068,
      "em": 4069,
      "▁have": 4070,
      "ash": 4071,
      ".4": 4072,
      "▁incre": 4073,
      "iter": 4074,
      "23": 4075,
      "`s": 4076,
      "▁whenever": 4077,
      "▁420": 4078,
      "▁1592": 4079,
      ":50": 4080,
      "ula": 4081,
      "▁book": 4082,
      "▁until": 4083,
      "▁1.6": 4084,
      "ell": 4085,
      "▁55": 4086,
      "▁4.9": 4087,
      "▁:)": 4088,
      "▁33,000": 4089,
      "▁stuff": 4090,
      "▁1880": 4091,
      "▁3.1": 4092,
      "▁w": 4093,
      "▁’d": 4094,
      "▁+1": 4095
    },
    "merges": [
      [
        "s",
        "s"
      ],
      [
        "▁num",
        "ber"
      ],
      [
        ".7",
        "7"
      ],
      [
        "▁st",
        "at"
      ],
      [
        "▁th",
        "rou"
      ],
      [
        "▁p",
        "er"
      ],
      [
        "2",
        "3"
      ],
      [
        "▁5",
        ",000"
      ],
      [
        "▁1.",
        "6"
      ],
      [
        "▁08",
        ":30"
      ],
      [
        "▁incl",
        "uding"
      ],
      [
        "▁mu",
        "st"
      ],
      [
        "▁bel",
        "ow"
      ],
      [
        "i",
        "s"
      ],
      [
        "▁60",
        ",000"
      ],
      [
        "▁kn",
        "ew"
      ],
      [
        "ain",
        "ed"
      ],
      [
        "▁j",
        "u"
      ],
      [
        "at",
        "er"
      ],
      [
        "▁c",
        "re"
      ],
      [
        "ac",
        "h"
      ],
      [
        "o",
        "o"
      ],
      [
        "▁l",
        "o"
      ],
      [
        "▁p",
        "ort"
      ],
      [
        "▁6",
        "6"
      ],
      [
        "▁19",
        "6"
      ],
      [
        "ur",
        "ch"
      ],
      [
        "▁n",
        "t"
      ],
      [
        "▁r",
        "ound"
      ],
      [
        "▁commun",
        "ity"
      ],
      [
        "j",
        "ect"
      ],
      [
        "▁know",
        "n"
      ],
      [
        "▁fam",
        "ily"
      ],
      [
        ",000,000",
        ",000"
      ],
      [
        "▁im",
        "ag"
      ],
      [
        "▁3",
        ",000"
      ],
      [
        "▁sto",
        "y"
      ],
      [
        "▁nine",
        "teen"
      ],
      [
        "▁11-20-",
        "2000"
      ],
      [
        "▁me",
        "et"
      ],
      [
        "@enron",
        "_de"
      ],
      [
        "▁",
        "·"
      ],
      [
        "▁t",
        "w"
      ],
      [
        "▁c",
        "or"
      ],
      [
        "▁an",
        "im"
      ],
      [
        "▁re",
        "port"
      ],
      [
        "▁su",
        "ch"
      ],
      [
        "▁9",
        "00"
      ],
      [
        "▁n",
        "ecess"
      ],
      [
        "ap",
        "s"
      ],
      [
        "▁notwithstand",
        "ing"
      ],
      [
        "e",
        "au"
      ],
      [
        "ond",
        "on"
      ],
      [
        "▁per",
        "form"
      ],
      [
        "▁fe",
        "et"
      ],
      [
        "▁p",
        "ock"
      ],
      [
        "▁t",
        "ast"
      ],
      [
        "an",
        "ce"
      ],
      [
        "▁airl",
        "ine"
      ],
      [
        "▁anim",
        "als"
      ],
      [
        "▁2",
        ".5"
      ],
      [
        "▁s",
        "ays"
      ],
      [
        "'",
        "re"
      ],
      [
        "▁’",
        "’"
      ],
      [
        "f",
        "f"
      ],
      [
        "c",
        "t"
      ],
      [
        "▁pro",
        "f"
      ],
      [
        "▁down",
        "town"
      ],
      [
        "3",
        "39"
      ],
      [
        "▁",
        "**"
      ],
      [
        "▁a",
        "t"
      ],
      [
        "ar",
        "s"
      ],
      [
        "▁get",
        "s"
      ],
      [
        "▁es",
        "p"
      ],
      [
        ":1",
        "6"
      ],
      [
        ".",
        "8"
      ],
      [
        "▁31",
        "5"
      ],
      [
        "________",
        "________"
      ],
      [
        "▁160",
        "8"
      ],
      [
        "▁con",
        "st"
      ],
      [
        "▁act",
        "ion"
      ],
      [
        "rou",
        "nd"
      ],
      [
        "o",
        "se"
      ],
      [
        "▁159",
        "2"
      ],
      [
        "x",
        "t"
      ],
      [
        "▁un",
        "e"
      ],
      [
        "▁o",
        "r"
      ],
      [
        "▁18",
        "88"
      ],
      [
        "▁11",
        ",000"
      ],
      [
        "am",
        "es"
      ],
      [
        "▁888",
        ".916.718"
      ],
      [
        "▁13",
        "00"
      ],
      [
        "▁comp",
        "et"
      ],
      [
        "▁2",
        ".7"
      ],
      [
        "▁b",
        "us"
      ],
      [
        "/1",
        "7/99"
      ],
      [
        "▁d",
        "ie"
      ],
      [
        "▁friend",
        "s"
      ],
      [
        "/26",
        "/2000"
      ],
      [
        ".8",
        "31"
      ],
      [
        "▁is",
        "land"
      ],
      [
        "el",
        "p"
      ],
      [
        "▁wi",
        "l"
      ],
      [
        "▁atl",
        "anta"
      ],
      [
        "re",
        "n"
      ],
      [
        "▁201",
        "3"
      ],
      [
        "k",
        "e"
      ],
      [
        "▁199",
        "6"
      ],
      [
        ".2",
        "461"
      ],
      [
        "u",
        "l"
      ],
      [
        "▁f",
        "i"
      ],
      [
        "▁th",
        "ings"
      ],
      [
        "ur",
        "s"
      ],
      [
        "▁prob",
        "ably"
      ],
      [
        "▁",
        "ide"
      ],
      [
        "o",
        "s"
      ],
      [
        "▁345",
        "-343"
      ],
      [
        "▁h",
        "u"
      ],
      [
        "s",
        "ter"
      ],
      [
        "▁det",
        "er"
      ],
      [
        "▁6",
        "46"
      ],
      [
        "▁orig",
        "in"
      ],
      [
        "▁he",
        "y"
      ],
      [
        "▁ind",
        "ia"
      ],
      [
        "▁m",
        "ay"
      ],
      [
        "i",
        "ence"
      ],
      [
        "ed",
        "ie"
      ],
      [
        "**",
        "**"
      ],
      [
        "▁re",
        "ally"
      ],
      [
        "am",
        "s"
      ],
      [
        "13",
        "4"
      ],
      [
        "▁en",
        "v"
      ],
      [
        "▁re",
        "c"
      ],
      [
        "▁c",
        "up"
      ],
      [
        "▁twenty-",
        "two"
      ],
      [
        "~*",
        "~*"
      ],
      [
        "▁b",
        "an"
      ],
      [
        "r",
        "ide"
      ],
      [
        "/",
        "1"
      ],
      [
        "a",
        "m"
      ],
      [
        "▁gr",
        "and"
      ],
      [
        "▁ret",
        "urn"
      ],
      [
        "s",
        "ix"
      ],
      [
        "a",
        "b"
      ],
      [
        "▁s",
        "a"
      ],
      [
        "▁mo",
        "st"
      ],
      [
        "▁non",
        "stop"
      ],
      [
        "▁i",
        "s"
      ],
      [
        "▁pr",
        "act"
      ],
      [
        "▁w",
        "i"
      ],
      [
        "▁h",
        "ell"
      ],
      [
        "l",
        "ic"
      ],
      [
        "▁c",
        "r"
      ],
      [
        "▁dep",
        "art"
      ],
      [
        "▁polic",
        "y"
      ],
      [
        "re",
        "e"
      ],
      [
        "f",
        "ast"
      ],
      [
        "▁fun",
        "ny"
      ],
      [
        "3",
        "89"
      ],
      [
        "▁1.",
        "25"
      ],
      [
        "▁-",
        "ect"
      ],
      [
        "20",
        "2"
      ],
      [
        "l",
        "a"
      ],
      [
        "▁5",
        ".5"
      ],
      [
        "▁act",
        "ually"
      ],
      [
        "▁c",
        "ut"
      ],
      [
        "▁",
        "0"
      ],
      [
        "en",
        "n"
      ],
      [
        "▁d",
        "e"
      ],
      [
        "▁d",
        "id"
      ],
      [
        "▁183",
        "6"
      ],
      [
        "▁wh",
        "y"
      ],
      [
        "11",
        "1"
      ],
      [
        "▁f",
        "rench"
      ],
      [
        "▁happen",
        "ed"
      ],
      [
        "4",
        "6"
      ],
      [
        "end",
        "ing"
      ],
      [
        "/01",
        "/2001"
      ],
      [
        "▁sle",
        "ep"
      ],
      [
        "is",
        "_0"
      ],
      [
        "▁p",
        "ub"
      ],
      [
        "▁713-853-",
        "1696"
      ],
      [
        "********",
        "********"
      ],
      [
        "▁b",
        "est"
      ],
      [
        "▁dur",
        "ing"
      ],
      [
        ":",
        "29"
      ],
      [
        "▁!",
        "!!"
      ],
      [
        "a",
        "ir"
      ],
      [
        "▁3",
        ".5"
      ],
      [
        "▁bu",
        "y"
      ],
      [
        "▁ro",
        "ad"
      ],
      [
        "▁",
        "5"
      ],
      [
        "u",
        "la"
      ],
      [
        "▁en",
        "ough"
      ],
      [
        "g",
        "h"
      ],
      [
        "▁wr",
        "ite"
      ],
      [
        "us",
        "h"
      ],
      [
        "-",
        "8"
      ],
      [
        "▁any",
        "body"
      ],
      [
        "▁s",
        "o"
      ],
      [
        "▁?",
        "!"
      ],
      [
        "▁un",
        "d"
      ],
      [
        "m",
        "ost"
      ],
      [
        "▁5",
        "75"
      ],
      [
        "▁f",
        "ull"
      ],
      [
        "▁diff",
        "er"
      ],
      [
        "▁piec",
        "e"
      ],
      [
        "▁us",
        "ually"
      ],
      [
        "▁g",
        "r"
      ],
      [
        "7",
        "0"
      ],
      [
        "l",
        "o"
      ],
      [
        "an",
        "k"
      ],
      [
        "al",
        "e"
      ],
      [
        "▁3",
        ".7"
      ],
      [
        "er",
        "ed"
      ],
      [
        "ak",
        "ing"
      ],
      [
        "▁mark",
        "et"
      ],
      [
        "▁01:39",
        ":56"
      ],
      [
        "▁15",
        "75"
      ],
      [
        "▁do",
        "cum"
      ],
      [
        "▁un",
        "t"
      ],
      [
        ".",
        "3"
      ],
      [
        "▁min",
        "utes"
      ],
      [
        "▁co",
        "m"
      ],
      [
        "▁c",
        "le"
      ],
      [
        "▁b",
        "ill"
      ],
      [
        "▁serv",
        "ice"
      ],
      [
        "▁s",
        "ent"
      ],
      [
        "▁12",
        "0"
      ],
      [
        "ou",
        "r"
      ],
      [
        "▁s",
        "il"
      ],
      [
        "olog",
        "y"
      ],
      [
        "▁per",
        "cent"
      ],
      [
        "▁11",
        ".5"
      ],
      [
        "▁ad",
        "min"
      ],
      [
        "7",
        "5"
      ],
      [
        "e",
        "ad"
      ],
      [
        "▁c",
        "ha"
      ],
      [
        "▁li",
        "ves"
      ],
      [
        "▁m",
        "ed"
      ],
      [
        "▁",
        "—"
      ],
      [
        "▁j",
        "o"
      ],
      [
        "▁16",
        "3"
      ],
      [
        "15",
        "-"
      ],
      [
        "at",
        "ion"
      ],
      [
        "▁transport",
        "ation"
      ],
      [
        "*",
        "*"
      ],
      [
        "▁4",
        ","
      ],
      [
        "▁80",
        ",000"
      ],
      [
        "▁9",
        "4"
      ],
      [
        "▁6",
        ",000"
      ],
      [
        "▁6",
        "0"
      ],
      [
        "▁12",
        "5"
      ],
      [
        "▁19",
        "0"
      ],
      [
        "h",
        "ip"
      ],
      [
        "▁15",
        "00"
      ],
      [
        "▁09/15",
        "/99"
      ],
      [
        "▁ha",
        "pp"
      ],
      [
        "t",
        "a"
      ],
      [
        "▁r",
        "ul"
      ],
      [
        "re",
        "d"
      ],
      [
        "▁1.",
        "5"
      ],
      [
        "▁w",
        "atch"
      ],
      [
        "▁8",
        "25"
      ],
      [
        "▁03/0",
        "2/2001"
      ],
      [
        "▁airl",
        "ines"
      ],
      [
        "▁pho",
        "enix"
      ],
      [
        "▁202.456.1",
        "111"
      ],
      [
        "▁",
        "re"
      ],
      [
        "▁offic",
        "ial"
      ],
      [
        "/200",
        "5"
      ],
      [
        "▁cle",
        "an"
      ],
      [
        "▁thir",
        "ty"
      ],
      [
        "i",
        "ver"
      ],
      [
        "z",
        "e"
      ],
      [
        "▁7",
        ".2"
      ],
      [
        "▁maj",
        "or"
      ],
      [
        "▁st",
        "ation"
      ],
      [
        "▁f",
        "ire"
      ],
      [
        "▁7",
        "1"
      ],
      [
        "▁t",
        "im"
      ],
      [
        "▁6",
        "5"
      ],
      [
        "1",
        "4"
      ],
      [
        "▁gr",
        "oup"
      ],
      [
        "▁tr",
        "ain"
      ],
      [
        "re",
        "t"
      ],
      [
        "▁19",
        "5"
      ],
      [
        "▁",
        ".2"
      ],
      [
        "▁m",
        "ake"
      ],
      [
        "▁de",
        "al"
      ],
      [
        "f",
        "er"
      ],
      [
        "▁disc",
        "uss"
      ],
      [
        ":",
        "48"
      ],
      [
        "▁",
        "or"
      ],
      [
        "▁st",
        "ep"
      ],
      [
        "▁",
        "1"
      ],
      [
        "▁189",
        "6"
      ],
      [
        "▁l",
        "ess"
      ],
      [
        "u",
        "h"
      ],
      [
        "▁1",
        "."
      ],
      [
        "▁4",
        ".9"
      ],
      [
        "▁uh",
        "huh"
      ],
      [
        "▁19",
        "43"
      ],
      [
        "▁i",
        "i"
      ],
      [
        "▁pl",
        "ay"
      ],
      [
        "▁t",
        "ou"
      ],
      [
        "r",
        "or"
      ],
      [
        "▁e",
        "ither"
      ],
      [
        "en",
        "d"
      ],
      [
        "▁a",
        "ll"
      ],
      [
        "▁09",
        "/15"
      ],
      [
        "▁seem",
        "s"
      ],
      [
        "▁4",
        "20"
      ],
      [
        "s",
        "e"
      ],
      [
        "▁jo",
        "b"
      ],
      [
        "s",
        "id"
      ],
      [
        "▁e",
        "c"
      ],
      [
        "________________",
        "________________"
      ],
      [
        "▁har",
        "ry"
      ],
      [
        "▁20",
        "5"
      ],
      [
        "▁85",
        "2"
      ],
      [
        "uc",
        "k"
      ],
      [
        "▁prod",
        "uct"
      ],
      [
        "▁secur",
        "ity"
      ],
      [
        ":1",
        "5"
      ],
      [
        "▁>",
        ">"
      ],
      [
        "▁baltim",
        "ore"
      ],
      [
        "▁199",
        "0"
      ],
      [
        "i",
        "e"
      ],
      [
        "▁10",
        "39"
      ],
      [
        "▁o",
        "ther"
      ],
      [
        "-",
        "3"
      ],
      [
        "▁e",
        "u"
      ],
      [
        "▁2.9",
        "75"
      ],
      [
        "▁00",
        "0010"
      ],
      [
        "7",
        "1"
      ],
      [
        "sel",
        "f"
      ],
      [
        "▁jun",
        "e"
      ],
      [
        "▁8",
        "0"
      ],
      [
        "▁200",
        "8"
      ],
      [
        "▁one",
        "s"
      ],
      [
        "▁80",
        "435"
      ],
      [
        "unic",
        "ations"
      ],
      [
        "▁sh",
        "akes"
      ],
      [
        "op",
        "e"
      ],
      [
        "▁bab",
        "y"
      ],
      [
        "ou",
        "g"
      ],
      [
        "▁lea",
        "ve"
      ],
      [
        "▁o",
        "thers"
      ],
      [
        "▁y",
        "o"
      ],
      [
        "bo",
        "dy"
      ],
      [
        "▁c",
        "ar"
      ],
      [
        "res",
        "h"
      ],
      [
        "▁18",
        "3"
      ],
      [
        "ure",
        "d"
      ],
      [
        "▁199",
        "5"
      ],
      [
        "▁mu",
        "ch"
      ],
      [
        "o",
        "ver"
      ],
      [
        "ict",
        "ion"
      ],
      [
        "ap",
        "e"
      ],
      [
        "▁19",
        "49"
      ],
      [
        "d",
        "ay"
      ],
      [
        "▁1",
        "30"
      ],
      [
        "▁8",
        "5"
      ],
      [
        "▁langu",
        "age"
      ],
      [
        "▁41",
        "7"
      ],
      [
        "▁ir",
        "an"
      ],
      [
        "▁bir",
        "d"
      ],
      [
        "▁410",
        "-468-3"
      ],
      [
        "ur",
        "n"
      ],
      [
        "▁28",
        "1"
      ],
      [
        "o",
        "n"
      ],
      [
        "f",
        "orm"
      ],
      [
        "i",
        "ff"
      ],
      [
        "▁zer",
        "o"
      ],
      [
        "in",
        "es"
      ],
      [
        "d",
        "y"
      ],
      [
        "4",
        "0"
      ],
      [
        "ust",
        "om"
      ],
      [
        "g",
        "ress"
      ],
      [
        "▁pl",
        "ac"
      ],
      [
        "▁19",
        "1"
      ],
      [
        "▁",
        "f"
      ],
      [
        "▁c",
        "oun"
      ],
      [
        "▁h",
        "our"
      ],
      [
        "▁o",
        "l"
      ],
      [
        "▁say",
        "ing"
      ],
      [
        "it",
        "h"
      ],
      [
        "▁s",
        "m"
      ],
      [
        "▁al",
        "most"
      ],
      [
        "▁0",
        "6"
      ],
      [
        "▁8",
        "60"
      ],
      [
        "u",
        "ation"
      ],
      [
        "t",
        "s"
      ],
      [
        "▁won",
        "der"
      ],
      [
        "▁a",
        "v"
      ],
      [
        "▁su",
        "n"
      ],
      [
        "▁lear",
        "n"
      ],
      [
        "▁f",
        "ig"
      ],
      [
        "▁kn",
        "ow"
      ],
      [
        "▁we",
        "ek"
      ],
      [
        "▁750",
        ",000"
      ],
      [
        "▁800.713.86",
        "00"
      ],
      [
        "▁i",
        "n"
      ],
      [
        "▁im",
        "p"
      ],
      [
        "▁183",
        "5"
      ],
      [
        "▁t",
        "alk"
      ],
      [
        "4",
        "5"
      ],
      [
        "a",
        "y"
      ],
      [
        "i",
        "al"
      ],
      [
        "▁are",
        "a"
      ],
      [
        "▁s",
        "ix"
      ],
      [
        "▁four",
        "teen"
      ],
      [
        "▁h",
        "ot"
      ],
      [
        "w",
        "w"
      ],
      [
        "▁a",
        "p"
      ],
      [
        ":",
        "40"
      ],
      [
        "in",
        "s"
      ],
      [
        "um",
        "my"
      ],
      [
        "▁wed",
        "nesday"
      ],
      [
        "▁l",
        "e"
      ],
      [
        "▁po",
        "or"
      ],
      [
        "▁20",
        "1"
      ],
      [
        "ol",
        "ution"
      ],
      [
        "▁s",
        "ame"
      ],
      [
        "▁5",
        "4"
      ],
      [
        "-",
        "99"
      ],
      [
        "i",
        "z"
      ],
      [
        "▁713-79",
        "3-"
      ],
      [
        "▁16",
        "89"
      ],
      [
        "am",
        "e"
      ],
      [
        "▁19",
        "37"
      ],
      [
        "▁9",
        "2"
      ],
      [
        "s",
        "t"
      ],
      [
        "8",
        "00"
      ],
      [
        "▁w",
        "ere"
      ],
      [
        "▁c",
        "l"
      ],
      [
        "ic",
        "ago"
      ],
      [
        "▁15",
        "4"
      ],
      [
        "▁mil",
        "wau"
      ],
      [
        "▁",
        "w"
      ],
      [
        "▁1",
        "6"
      ],
      [
        "▁f",
        "ac"
      ],
      [
        "▁b",
        "ow"
      ],
      [
        "▁a",
        "ct"
      ],
      [
        "▁them",
        "selves"
      ],
      [
        "g",
        "o"
      ],
      [
        "▁",
        "round"
      ],
      [
        "▁24",
        ",000"
      ],
      [
        "▁",
        "le"
      ],
      [
        "i",
        "t"
      ],
      [
        "▁10/2",
        "3/2000"
      ],
      [
        "▁n",
        "umer"
      ],
      [
        "um",
        "b"
      ],
      [
        "for",
        "m"
      ],
      [
        "▁pr",
        "op"
      ],
      [
        "▁2",
        "9"
      ],
      [
        "▁ha",
        "lf"
      ],
      [
        "▁want",
        "ed"
      ],
      [
        "▁10",
        ":34"
      ],
      [
        "▁================================",
        "================"
      ],
      [
        "9",
        "2"
      ],
      [
        "▁t",
        "h"
      ],
      [
        "▁f",
        "re"
      ],
      [
        "0",
        "31"
      ],
      [
        "▁19",
        "10"
      ],
      [
        "▁120",
        "5"
      ],
      [
        "▁c",
        "ou"
      ],
      [
        "l",
        "ess"
      ],
      [
        "▁requ",
        "est"
      ],
      [
        "1",
        "2"
      ],
      [
        "▁",
        "\""
      ],
      [
        "▁ne",
        "xt"
      ],
      [
        "▁g",
        "en"
      ],
      [
        "▁in",
        "v"
      ],
      [
        "▁soc",
        "ial"
      ],
      [
        "▁195",
        "7"
      ],
      [
        "▁e",
        "lect"
      ],
      [
        "▁on",
        "ce"
      ],
      [
        "▁200",
        "3"
      ],
      [
        "▁18",
        "71"
      ],
      [
        "▁r",
        "un"
      ],
      [
        "▁be",
        "g"
      ],
      [
        "▁2",
        ".3"
      ],
      [
        "▁pl",
        "ace"
      ],
      [
        "▁it",
        "s"
      ],
      [
        "▁196",
        "4"
      ],
      [
        "ang",
        "e"
      ],
      [
        "▁",
        "…"
      ],
      [
        "▁f",
        "or"
      ],
      [
        "▁arri",
        "ving"
      ],
      [
        "on",
        "y"
      ],
      [
        "00",
        "4"
      ],
      [
        "ir",
        "t"
      ],
      [
        "i",
        "od"
      ],
      [
        "oll",
        "ow"
      ],
      [
        "▁talk",
        "ing"
      ],
      [
        "▁av",
        "ail"
      ],
      [
        "▁who",
        "ever"
      ],
      [
        "▁d",
        "ri"
      ],
      [
        "39",
        "3"
      ],
      [
        "▁2",
        ":30"
      ],
      [
        "▁g",
        "l"
      ],
      [
        "ur",
        "al"
      ],
      [
        "b",
        "o"
      ],
      [
        "▁d",
        "an"
      ],
      [
        "▁",
        "g"
      ],
      [
        "▁c",
        "on"
      ],
      [
        "i",
        "ed"
      ],
      [
        "▁somet",
        "imes"
      ],
      [
        "▁app",
        "lic"
      ],
      [
        "▁26",
        "0"
      ],
      [
        "▁o",
        "ak"
      ],
      [
        "▁189",
        "0"
      ],
      [
        "▁be",
        "neath"
      ],
      [
        "▁3",
        "45"
      ],
      [
        "▁183",
        "1"
      ],
      [
        "ar",
        "t"
      ],
      [
        "▁at",
        "l"
      ],
      [
        "▁o",
        "ld"
      ],
      [
        "▁p",
        "ark"
      ],
      [
        "▁accord",
        "ing"
      ],
      [
        "▁t",
        "u"
      ],
      [
        "4",
        "1"
      ],
      [
        ":3",
        "7"
      ],
      [
        "▁2",
        "7"
      ],
      [
        "5",
        "1"
      ],
      [
        "-6",
        "42"
      ],
      [
        "-46",
        "0-3"
      ],
      [
        "▁tra",
        "vel"
      ],
      [
        "▁11:3",
        "2"
      ],
      [
        "▁w",
        "or"
      ],
      [
        "o",
        "d"
      ],
      [
        "i",
        "ve"
      ],
      [
        "m",
        "an"
      ],
      [
        "▁m",
        "ar"
      ],
      [
        "4",
        "14"
      ],
      [
        "▁'",
        "s"
      ],
      [
        "us",
        "s"
      ],
      [
        "al",
        "f"
      ],
      [
        "▁ta",
        "x"
      ],
      [
        "▁h",
        "as"
      ],
      [
        "▁be",
        "yond"
      ],
      [
        "▁18",
        "30"
      ],
      [
        "▁man",
        "y"
      ],
      [
        "▁serv",
        "ices"
      ],
      [
        "▁n",
        "orm"
      ],
      [
        "▁b",
        "ath"
      ],
      [
        "▁18",
        "19"
      ],
      [
        ":5",
        "7"
      ],
      [
        "▁d",
        "est"
      ],
      [
        "o",
        "t"
      ],
      [
        "▁t",
        "ell"
      ],
      [
        "▁do",
        "gg"
      ],
      [
        "▁21",
        "7"
      ],
      [
        "▁713-654-",
        "03"
      ],
      [
        "t",
        "i"
      ],
      [
        "▁g",
        "on"
      ],
      [
        "▁re",
        "m"
      ],
      [
        "▁04",
        ":03"
      ],
      [
        "▁lou",
        "is"
      ],
      [
        "▁ins",
        "ide"
      ],
      [
        "▁2",
        ":00"
      ],
      [
        "▁n",
        "ow"
      ],
      [
        "▁o",
        "h"
      ],
      [
        "▁energ",
        "y"
      ],
      [
        "▁n",
        "ine"
      ],
      [
        "d",
        "r"
      ],
      [
        "▁pro",
        "c"
      ],
      [
        "▁f",
        "are"
      ],
      [
        "3",
        "1"
      ],
      [
        "▁5",
        ":30"
      ],
      [
        "▁t",
        "om"
      ],
      [
        "▁m",
        "in"
      ],
      [
        "a",
        "ke"
      ],
      [
        "▁sept",
        "ember"
      ],
      [
        "▁s",
        "elf"
      ],
      [
        "▁aug",
        "ust"
      ],
      [
        "▁",
        "k"
      ],
      [
        "▁f",
        "ut"
      ],
      [
        "-",
        "-"
      ],
      [
        "▁th",
        "ink"
      ],
      [
        "▁gu",
        "y"
      ],
      [
        "▁3",
        ".8"
      ],
      [
        "▁dat",
        "a"
      ],
      [
        "▁r",
        "is"
      ],
      [
        "fi",
        "ve"
      ],
      [
        "en",
        "ce"
      ],
      [
        "u",
        "es"
      ],
      [
        "▁sha",
        "ll"
      ],
      [
        "▁m",
        "en"
      ],
      [
        "a",
        "r"
      ],
      [
        "▁qu",
        "est"
      ],
      [
        "▁36",
        "6"
      ],
      [
        "▁hand",
        "s"
      ],
      [
        "am",
        "ed"
      ],
      [
        "▁among",
        "st"
      ],
      [
        "▁3",
        ":30"
      ],
      [
        "h",
        "n"
      ],
      [
        "53-3",
        "119"
      ],
      [
        "▁",
        "~"
      ],
      [
        "▁cou",
        "ple"
      ],
      [
        "▁10/2",
        "0/2000"
      ],
      [
        "▁w",
        "r"
      ],
      [
        "▁ninety-n",
        "ine"
      ],
      [
        "▁24",
        ".7"
      ],
      [
        "o",
        "ve"
      ],
      [
        "▁repres",
        "ent"
      ],
      [
        "▁pub",
        "lic"
      ],
      [
        "▁tec",
        "hn"
      ],
      [
        "oo",
        "l"
      ],
      [
        "▁gen",
        "er"
      ],
      [
        "▁c",
        "h"
      ],
      [
        "▁h",
        "und"
      ],
      [
        "a",
        "q"
      ],
      [
        "ent",
        "y"
      ],
      [
        "▁3",
        "7"
      ],
      [
        "▁wh",
        "en"
      ],
      [
        "▁0",
        "5"
      ],
      [
        "65",
        "-3"
      ],
      [
        "▁die",
        "go"
      ],
      [
        "▁be",
        "en"
      ],
      [
        "8",
        "4"
      ],
      [
        "▁p",
        "aren"
      ],
      [
        "u",
        "s"
      ],
      [
        "▁l",
        "ake"
      ],
      [
        "▁htt",
        "p"
      ],
      [
        "▁",
        ":"
      ],
      [
        "▁s",
        "ay"
      ],
      [
        "-",
        "20"
      ],
      [
        "vel",
        "opment"
      ],
      [
        "▁814",
        ".86"
      ],
      [
        "n",
        "y"
      ],
      [
        "p",
        "or"
      ],
      [
        "▁s",
        "ur"
      ],
      [
        "▁'",
        "em"
      ],
      [
        "or",
        "m"
      ],
      [
        "m",
        "p"
      ],
      [
        "it",
        "ch"
      ],
      [
        "@enron_de",
        "velopment"
      ],
      [
        "▁10:5",
        "6"
      ],
      [
        "▁11",
        ":30"
      ],
      [
        "o",
        "gel"
      ],
      [
        "▁s",
        "al"
      ],
      [
        "▁1",
        "0"
      ],
      [
        "og",
        "n"
      ],
      [
        "3",
        ".6"
      ],
      [
        "▁de",
        "p"
      ],
      [
        "▁book",
        "s"
      ],
      [
        "▁ent",
        "ire"
      ],
      [
        "i",
        "an"
      ],
      [
        "▁wh",
        "at"
      ],
      [
        "20",
        "-"
      ],
      [
        "▁159",
        "6"
      ],
      [
        "▁",
        "im"
      ],
      [
        "▁’",
        "re"
      ],
      [
        "l",
        "ish"
      ],
      [
        "in",
        "n"
      ],
      [
        "▁196",
        "2"
      ],
      [
        "▁y",
        "ester"
      ],
      [
        "h",
        "-r"
      ],
      [
        "’",
        "t"
      ],
      [
        "ac",
        "e"
      ],
      [
        "▁t",
        "own"
      ],
      [
        "▁",
        "it"
      ],
      [
        ":",
        "46"
      ],
      [
        "▁",
        "9"
      ],
      [
        "▁cal",
        "if"
      ],
      [
        "▁qu",
        "inn"
      ],
      [
        "▁no",
        "se"
      ],
      [
        "▁1",
        "5"
      ],
      [
        "▁n",
        "ational"
      ],
      [
        "i",
        "ll"
      ],
      [
        "▁j",
        "ud"
      ],
      [
        "▁bl",
        "ue"
      ],
      [
        "▁ch",
        "ange"
      ],
      [
        "t",
        "e"
      ],
      [
        "▁gu",
        "ys"
      ],
      [
        "▁wh",
        "ile"
      ],
      [
        "▁",
        "="
      ],
      [
        "▁",
        "ou"
      ],
      [
        ",",
        "6"
      ],
      [
        "▁03/2",
        "8/2001"
      ],
      [
        "▁bel",
        "ie"
      ],
      [
        "▁2",
        "8"
      ],
      [
        "ol",
        "d"
      ],
      [
        "▁w",
        "omen"
      ],
      [
        "▁cl",
        "aim"
      ],
      [
        "/",
        "h"
      ],
      [
        "▁s",
        "t"
      ],
      [
        "▁",
        ".3"
      ],
      [
        "b",
        "ers"
      ],
      [
        "▁in",
        "st"
      ],
      [
        "w",
        "ork"
      ],
      [
        "99",
        "99"
      ],
      [
        "ab",
        "lish"
      ],
      [
        "▁exam",
        "ple"
      ],
      [
        "/1",
        "7/2000"
      ],
      [
        "in",
        "e"
      ],
      [
        "▁",
        "'s"
      ],
      [
        "r",
        "ou"
      ],
      [
        "▁17",
        "65"
      ],
      [
        "▁wa",
        "it"
      ],
      [
        "▁",
        "'"
      ],
      [
        "m",
        "er"
      ],
      [
        "▁03/2",
        "1/2001"
      ],
      [
        "a",
        "g"
      ],
      [
        "▁t",
        "o"
      ],
      [
        "▁19",
        "28"
      ],
      [
        "▁201",
        "1"
      ],
      [
        "▁12",
        "22"
      ],
      [
        "it",
        "s"
      ],
      [
        "▁p",
        "i"
      ],
      [
        "-",
        "ked"
      ],
      [
        "▁da",
        "ily"
      ],
      [
        "▁0",
        "1"
      ],
      [
        "es",
        "day"
      ],
      [
        ":",
        "25"
      ],
      [
        "▁den",
        "ver"
      ],
      [
        "▁d",
        "et"
      ],
      [
        "▁11",
        ":45"
      ],
      [
        "▁17",
        "79"
      ],
      [
        "▁e",
        "m"
      ],
      [
        "at",
        "ive"
      ],
      [
        "ul",
        "ar"
      ],
      [
        "▁me",
        "as"
      ],
      [
        "▁c",
        "om"
      ],
      [
        "▁st",
        "ates"
      ],
      [
        "▁fl",
        "ight"
      ],
      [
        "ist",
        "s"
      ],
      [
        "u",
        "ge"
      ],
      [
        "-",
        "23"
      ],
      [
        "▁12",
        "9"
      ],
      [
        "-99",
        "1-9"
      ],
      [
        "▁e",
        "as"
      ],
      [
        "▁con",
        "n"
      ],
      [
        "▁t",
        "il"
      ],
      [
        "▁s",
        "end"
      ],
      [
        "▁4",
        "00"
      ],
      [
        "ic",
        "le"
      ],
      [
        "▁n",
        "www"
      ],
      [
        "▁inv",
        "ol"
      ],
      [
        "▁need",
        "s"
      ],
      [
        "▁d",
        "ue"
      ],
      [
        "l",
        "ed"
      ],
      [
        "i",
        "v"
      ],
      [
        "i",
        "x"
      ],
      [
        "▁3",
        ",500"
      ],
      [
        "/2",
        "000"
      ],
      [
        "▁i",
        "f"
      ],
      [
        "▁in",
        "to"
      ],
      [
        "2",
        "00"
      ],
      [
        "▁6",
        "9"
      ],
      [
        "s",
        "p"
      ],
      [
        "▁en",
        "s"
      ],
      [
        "▁h",
        "ur"
      ],
      [
        "▁19",
        "9"
      ],
      [
        "▁7",
        ":00"
      ],
      [
        "▁m",
        "ight"
      ],
      [
        "▁angel",
        "es"
      ],
      [
        "▁04:",
        "28"
      ],
      [
        "▁11/2",
        "8/2000"
      ],
      [
        "▁",
        "|"
      ],
      [
        "▁ad",
        "v"
      ],
      [
        "▁resp",
        "ect"
      ],
      [
        "▁seem",
        "ed"
      ],
      [
        "▁1",
        "1"
      ],
      [
        "i",
        "p"
      ],
      [
        "▁min",
        "us"
      ],
      [
        "▁713-8",
        "53"
      ],
      [
        "▁acc",
        "ount"
      ],
      [
        "▁earli",
        "est"
      ],
      [
        "▁sur",
        "pr"
      ],
      [
        "▁20",
        "22"
      ],
      [
        "▁6",
        ".8"
      ],
      [
        "-",
        "44"
      ],
      [
        "▁with",
        "in"
      ],
      [
        "▁cop",
        "y"
      ],
      [
        "▁ex",
        "ec"
      ],
      [
        "▁09",
        ":01"
      ],
      [
        "on",
        "g"
      ],
      [
        "▁",
        "łod"
      ],
      [
        "ac",
        "t"
      ],
      [
        "▁br",
        "ing"
      ],
      [
        "▁t",
        "ot"
      ],
      [
        "▁th",
        "ree"
      ],
      [
        "▁ev",
        "ent"
      ],
      [
        "p",
        "le"
      ],
      [
        "z",
        "en"
      ],
      [
        "▁w",
        "ar"
      ],
      [
        "▁g",
        "reat"
      ],
      [
        ":",
        "0"
      ],
      [
        "▁6",
        ":30"
      ],
      [
        "▁713/8",
        "53"
      ],
      [
        "▁04",
        ":"
      ],
      [
        "8",
        "2"
      ],
      [
        ":1",
        "9"
      ],
      [
        "w",
        "h"
      ],
      [
        "▁lea",
        "st"
      ],
      [
        "▁nine",
        "ty"
      ],
      [
        "in",
        "d"
      ],
      [
        "▁a",
        "head"
      ],
      [
        "▁st",
        "e"
      ],
      [
        "▁",
        "oc"
      ],
      [
        "▁",
        "================================"
      ],
      [
        "▁6",
        "7"
      ],
      [
        "▁gl",
        "ob"
      ],
      [
        "ag",
        "es"
      ],
      [
        "▁li",
        "ke"
      ],
      [
        "▁10",
        "1"
      ],
      [
        "▁wr",
        "ong"
      ],
      [
        "▁soc",
        "iety"
      ],
      [
        "▁be",
        "h"
      ],
      [
        "g",
        "e"
      ],
      [
        "ul",
        "l"
      ],
      [
        "/",
        "/"
      ],
      [
        "▁he",
        "alth"
      ],
      [
        "om",
        "en"
      ],
      [
        "▁2",
        "3"
      ],
      [
        "e",
        "r"
      ],
      [
        ":",
        "5"
      ],
      [
        "▁my",
        "self"
      ],
      [
        "▁pro",
        "ble"
      ],
      [
        "▁a",
        "pp"
      ],
      [
        "00",
        "72"
      ],
      [
        "▁h",
        "ope"
      ],
      [
        "▁08",
        "/03"
      ],
      [
        "og",
        "ether"
      ],
      [
        "▁199",
        "9"
      ],
      [
        "▁s",
        "and"
      ],
      [
        "▁ver",
        "sus"
      ],
      [
        "un",
        "ch"
      ],
      [
        "h",
        "aps"
      ],
      [
        "▁rece",
        "ived"
      ],
      [
        "▁ha",
        "d"
      ],
      [
        "-3",
        "989"
      ],
      [
        "▁+",
        "44"
      ],
      [
        "8",
        "-7"
      ],
      [
        "▁pe",
        "op"
      ],
      [
        "f",
        "our"
      ],
      [
        "▁let",
        "ter"
      ],
      [
        "l",
        "and"
      ],
      [
        "▁aw",
        "ay"
      ],
      [
        "▁albe",
        "it"
      ],
      [
        "▁8",
        "9"
      ],
      [
        "▁our",
        "selves"
      ],
      [
        "iet",
        "y"
      ],
      [
        "▁opp",
        "osite"
      ],
      [
        "▁b",
        "all"
      ],
      [
        "▁s",
        "ea"
      ],
      [
        ":1",
        "7"
      ],
      [
        "▁do",
        "g"
      ],
      [
        "eth",
        "er"
      ],
      [
        "▁s",
        "am"
      ],
      [
        "13",
        ".86"
      ],
      [
        "▁16",
        "14"
      ],
      [
        "▁uh",
        "oh"
      ],
      [
        "o",
        "p"
      ],
      [
        "▁18",
        "43"
      ],
      [
        "▁w",
        "ater"
      ],
      [
        "▁h",
        "igh"
      ],
      [
        "▁c",
        "o"
      ],
      [
        "▁",
        "c"
      ],
      [
        "▁resp",
        "ons"
      ],
      [
        "▁01",
        "/2"
      ],
      [
        "▁s",
        "omet"
      ],
      [
        "▁st",
        "ud"
      ],
      [
        "▁8",
        ".3"
      ],
      [
        "a",
        "im"
      ],
      [
        "a",
        "l"
      ],
      [
        "am",
        "p"
      ],
      [
        "▁50",
        ",000"
      ],
      [
        "ap",
        "er"
      ],
      [
        "▁500",
        "00"
      ],
      [
        "▁th",
        "ir"
      ],
      [
        "▁break",
        "fast"
      ],
      [
        "▁",
        "u"
      ],
      [
        "▁8",
        ":30"
      ],
      [
        "e",
        "w"
      ],
      [
        "▁un",
        "les"
      ],
      [
        "▁con",
        "d"
      ],
      [
        "▁199",
        "7"
      ],
      [
        "▁te",
        "am"
      ],
      [
        "▁177",
        "4"
      ],
      [
        "▁...",
        ".."
      ],
      [
        "▁b",
        "ad"
      ],
      [
        "ul",
        "ts"
      ],
      [
        "========",
        "========"
      ],
      [
        "2",
        "000"
      ],
      [
        "▁c",
        "ent"
      ],
      [
        "▁act",
        "iv"
      ],
      [
        "m",
        "ing"
      ],
      [
        "▁7",
        "8"
      ],
      [
        "▁ch",
        "urch"
      ],
      [
        "▁8",
        "7"
      ],
      [
        "▁bo",
        "x"
      ],
      [
        "▁for",
        "ty"
      ],
      [
        "▁wor",
        "ld"
      ],
      [
        "r",
        "u"
      ],
      [
        "▁20",
        ":00"
      ],
      [
        "▁03",
        ":00"
      ],
      [
        "▁",
        "8"
      ],
      [
        "▁150",
        "5"
      ],
      [
        "iv",
        "ed"
      ],
      [
        "t",
        "ain"
      ],
      [
        "▁w",
        "ou"
      ],
      [
        "▁fur",
        "ther"
      ],
      [
        "▁id",
        "ea"
      ],
      [
        "▁le",
        "vel"
      ],
      [
        "▁415",
        ".782"
      ],
      [
        "▁08",
        ":50"
      ],
      [
        "▁k",
        "h"
      ],
      [
        "▁g",
        "o"
      ],
      [
        "ain",
        "s"
      ],
      [
        ",",
        "5"
      ],
      [
        "▁16",
        "10"
      ],
      [
        "u",
        "e"
      ],
      [
        "▁c",
        "our"
      ],
      [
        "▁'",
        "d"
      ],
      [
        "▁29",
        "587"
      ],
      [
        "▁eu",
        "ro"
      ],
      [
        "▁count",
        "ries"
      ],
      [
        "▁",
        "ident"
      ],
      [
        "▁de",
        "ath"
      ],
      [
        "p",
        "er"
      ],
      [
        "▁res",
        "p"
      ],
      [
        "▁ha",
        "ve"
      ],
      [
        "b",
        "ur"
      ],
      [
        "▁new",
        "ark"
      ],
      [
        "▁wh",
        "om"
      ],
      [
        "▁op",
        "en"
      ],
      [
        "th",
        "er"
      ],
      [
        "▁fift",
        "y"
      ],
      [
        "▁4",
        "4"
      ],
      [
        "▁pr",
        "ic"
      ],
      [
        "▁191",
        "2"
      ],
      [
        "w",
        "ays"
      ],
      [
        "▁a",
        "ch"
      ],
      [
        "c",
        "raft"
      ],
      [
        "▁proble",
        "ms"
      ],
      [
        "▁tri",
        "ed"
      ],
      [
        "▁mo",
        "d"
      ],
      [
        "▁m",
        "illion"
      ],
      [
        "▁4",
        "50"
      ],
      [
        "▁w",
        "on"
      ],
      [
        "▁18",
        "1"
      ],
      [
        "22",
        ",000"
      ],
      [
        "▁01/2",
        "4/2001"
      ],
      [
        "▁whe",
        "re"
      ],
      [
        "▁al",
        "ber"
      ],
      [
        "▁8",
        ":00"
      ],
      [
        "or",
        "t"
      ],
      [
        "++",
        "++"
      ],
      [
        "r",
        "ation"
      ],
      [
        "7",
        "8"
      ],
      [
        ".",
        "00"
      ],
      [
        "▁w",
        "ork"
      ],
      [
        "▁as",
        "s"
      ],
      [
        "▁01/1",
        "9/2001"
      ],
      [
        "g",
        "ether"
      ],
      [
        "er",
        "ic"
      ],
      [
        "▁h",
        "and"
      ],
      [
        "▁cl",
        "ass"
      ],
      [
        "ath",
        "er"
      ],
      [
        "▁l",
        "angu"
      ],
      [
        "ut",
        "ions"
      ],
      [
        "u",
        "ff"
      ],
      [
        "▁",
        "/"
      ],
      [
        "▁01:0",
        "9"
      ],
      [
        "▁70",
        ".85"
      ],
      [
        "▁e",
        "gg"
      ],
      [
        "▁198",
        "4"
      ],
      [
        "ou",
        "ble"
      ],
      [
        "7",
        "/99"
      ],
      [
        "▁pro",
        "b"
      ],
      [
        "i",
        "st"
      ],
      [
        "▁def",
        "in"
      ],
      [
        "▁e",
        "y"
      ],
      [
        "▁h",
        "ea"
      ],
      [
        "29",
        "4-"
      ],
      [
        "-3",
        "393"
      ],
      [
        "▁m",
        "ic"
      ],
      [
        "▁pr",
        "o"
      ],
      [
        "us",
        "ed"
      ],
      [
        ".1",
        "23"
      ],
      [
        "/",
        "99"
      ],
      [
        "▁9",
        "6"
      ],
      [
        "▁m",
        "a"
      ],
      [
        "▁inst",
        "ead"
      ],
      [
        "▁exp",
        "l"
      ],
      [
        "ang",
        "er"
      ],
      [
        "u",
        "al"
      ],
      [
        "▁19",
        "8"
      ],
      [
        "▁ii",
        "i"
      ],
      [
        "▁f",
        "oc"
      ],
      [
        "▁bea",
        "ut"
      ],
      [
        "▁em",
        "ploy"
      ],
      [
        "▁la",
        "ur"
      ],
      [
        "▁26",
        "9"
      ],
      [
        "▁y",
        "ea"
      ],
      [
        "ver",
        "n"
      ],
      [
        "7",
        "/2000"
      ],
      [
        "▁2",
        "30"
      ],
      [
        "-9",
        "8"
      ],
      [
        "▁w",
        "alk"
      ],
      [
        "▁713-6",
        "46-3393"
      ],
      [
        "it",
        "e"
      ],
      [
        "▁americ",
        "a"
      ],
      [
        "▁fl",
        "o"
      ],
      [
        "▁'",
        "ve"
      ],
      [
        "▁you",
        "r"
      ],
      [
        "e",
        "ar"
      ],
      [
        "▁a",
        "s"
      ],
      [
        "▁as",
        "tride"
      ],
      [
        "9",
        "6"
      ],
      [
        "al",
        "ity"
      ],
      [
        "▁s",
        "p"
      ],
      [
        "▁b",
        "i"
      ],
      [
        "u",
        "z"
      ],
      [
        "▁",
        "&"
      ],
      [
        "1",
        "6"
      ],
      [
        "e",
        "k"
      ],
      [
        "a",
        "use"
      ],
      [
        "▁lar",
        "ge"
      ],
      [
        "▁te",
        "x"
      ],
      [
        "▁25",
        "0"
      ],
      [
        "▁7",
        "3"
      ],
      [
        "▁5",
        "/1"
      ],
      [
        "▁ac",
        "cept"
      ],
      [
        "▁r",
        "a"
      ],
      [
        "▁bo",
        "at"
      ],
      [
        "▁th",
        "ought"
      ],
      [
        "▁j",
        "ap"
      ],
      [
        "▁ne",
        "ither"
      ],
      [
        ":1",
        "8"
      ],
      [
        "▁h",
        "ist"
      ],
      [
        "▁",
        "3"
      ],
      [
        "▁mo",
        "re"
      ],
      [
        "u",
        "t"
      ],
      [
        "▁m",
        "o"
      ],
      [
        "▁ph",
        "il"
      ],
      [
        "▁3",
        "."
      ],
      [
        "▁l",
        "unch"
      ],
      [
        "▁l",
        "ow"
      ],
      [
        "▁so",
        "c"
      ],
      [
        "ren",
        "ch"
      ],
      [
        "-5",
        "18"
      ],
      [
        "a",
        "h"
      ],
      [
        "▁washing",
        "ton"
      ],
      [
        "▁ha",
        "f"
      ],
      [
        "e",
        "ther"
      ],
      [
        "-",
        "27"
      ],
      [
        "▁p",
        "re"
      ],
      [
        "▁l",
        "ine"
      ],
      [
        "▁ro",
        "l"
      ],
      [
        "▁be",
        "tw"
      ],
      [
        "▁d",
        "kk"
      ],
      [
        "▁en",
        "j"
      ],
      [
        "▁1",
        "-8"
      ],
      [
        "-",
        "00"
      ],
      [
        "▁w",
        "h"
      ],
      [
        "▁17",
        "24"
      ],
      [
        "▁for",
        "m"
      ],
      [
        "▁co",
        "st"
      ],
      [
        "▁ch",
        "ar"
      ],
      [
        "▁wh",
        "o"
      ],
      [
        "/0",
        "8"
      ],
      [
        "▁flight",
        "s"
      ],
      [
        "▁a",
        "cross"
      ],
      [
        "▁199",
        "8"
      ],
      [
        "o",
        "st"
      ],
      [
        "▁inter",
        "v"
      ],
      [
        "▁n'",
        "t"
      ],
      [
        "▁st",
        "and"
      ],
      [
        "▁dis",
        "pl"
      ],
      [
        "▁tou",
        "ch"
      ],
      [
        "▁1",
        "/4"
      ],
      [
        "▁",
        "“"
      ],
      [
        "▁http://www",
        "."
      ],
      [
        "-46",
        "8-3"
      ],
      [
        "▁al",
        "th"
      ],
      [
        "▁8",
        "8"
      ],
      [
        "▁p",
        "ain"
      ],
      [
        "▁07/1",
        "7/2000"
      ],
      [
        "▁go",
        "t"
      ],
      [
        "▁7",
        "18"
      ],
      [
        "it",
        "al"
      ],
      [
        "▁rec",
        "ommend"
      ],
      [
        "ul",
        "ation"
      ],
      [
        "in",
        "ce"
      ],
      [
        "▁5",
        "30"
      ],
      [
        "u",
        "ed"
      ],
      [
        "at",
        "ed"
      ],
      [
        "▁a",
        "ug"
      ],
      [
        "▁c",
        "ame"
      ],
      [
        "▁europe",
        "an"
      ],
      [
        "▁620-",
        "294-"
      ],
      [
        "▁in",
        "s"
      ],
      [
        "▁ph",
        "ot"
      ],
      [
        "▁s",
        "en"
      ],
      [
        "▁416-8",
        "65-3"
      ],
      [
        "▁sat",
        "urday"
      ],
      [
        "a",
        "u"
      ],
      [
        "▁other",
        "s"
      ],
      [
        "▁d",
        "ate"
      ],
      [
        "er",
        "s"
      ],
      [
        "▁th",
        "y"
      ],
      [
        "▁con",
        "f"
      ],
      [
        "10",
        "9"
      ],
      [
        "85",
        "49"
      ],
      [
        "▁beg",
        "in"
      ],
      [
        "p",
        "ite"
      ],
      [
        "▁0",
        "9"
      ],
      [
        "▁3",
        "/8/00"
      ],
      [
        "el",
        "d"
      ],
      [
        "▁h",
        "old"
      ],
      [
        "▁f",
        "ell"
      ],
      [
        "ii",
        "i"
      ],
      [
        "▁4",
        "2"
      ],
      [
        ":5",
        "6"
      ],
      [
        "▁3",
        "30"
      ],
      [
        "is",
        "k"
      ],
      [
        "▁fav",
        "or"
      ],
      [
        "▁1,",
        "200"
      ],
      [
        "▁",
        "ent"
      ],
      [
        "th",
        "ing"
      ],
      [
        "4",
        "8"
      ],
      [
        "▁2",
        "20"
      ],
      [
        "▁p",
        "age"
      ],
      [
        "▁o",
        "ver"
      ],
      [
        "2",
        "2"
      ],
      [
        "▁sal",
        "t"
      ],
      [
        "▁wor",
        "ds"
      ],
      [
        "▁th",
        "ank"
      ],
      [
        "▁888.916.718",
        "4"
      ],
      [
        "it",
        "t"
      ],
      [
        "▁s",
        "at"
      ],
      [
        "▁h",
        "op"
      ],
      [
        "ic",
        "h"
      ],
      [
        ".",
        "4"
      ],
      [
        "▁u",
        "m"
      ],
      [
        "ag",
        "e"
      ],
      [
        "▁w",
        "ell"
      ],
      [
        "▁g",
        "ame"
      ],
      [
        "▁t",
        "ur"
      ],
      [
        "g",
        "an"
      ],
      [
        "▁und",
        "er"
      ],
      [
        "▁h",
        "ar"
      ],
      [
        "▁0",
        "7"
      ],
      [
        "▁18",
        "77"
      ],
      [
        "▁1",
        "9"
      ],
      [
        "▁d",
        "ark"
      ],
      [
        "▁18",
        "78"
      ],
      [
        "▁425",
        "-415-"
      ],
      [
        "n",
        "on"
      ],
      [
        "al",
        "th"
      ],
      [
        "ic",
        "ally"
      ],
      [
        "▁re",
        "v"
      ],
      [
        "▁5",
        "6"
      ],
      [
        "▁compan",
        "y"
      ],
      [
        "▁or",
        "ig"
      ],
      [
        "▁a",
        "i"
      ],
      [
        "▁23",
        "8"
      ],
      [
        "▁any",
        "one"
      ],
      [
        "4",
        "/2000"
      ],
      [
        "▁pol",
        "ic"
      ],
      [
        "▁ey",
        "es"
      ],
      [
        "i",
        "ght"
      ],
      [
        "▁air",
        "port"
      ],
      [
        "▁p",
        "ut"
      ],
      [
        "it",
        "ed"
      ],
      [
        "▁h",
        "is"
      ],
      [
        "▁15",
        "6"
      ],
      [
        "▁re",
        "p"
      ],
      [
        "▁ty",
        "pe"
      ],
      [
        "▁the",
        "n"
      ],
      [
        "enc",
        "es"
      ],
      [
        "▁we",
        "re"
      ],
      [
        "os",
        "ite"
      ],
      [
        "▁jap",
        "an"
      ],
      [
        "▁w",
        "/"
      ],
      [
        "▁",
        "ant"
      ],
      [
        "▁3",
        "6"
      ],
      [
        "i",
        "pp"
      ],
      [
        "10",
        "82"
      ],
      [
        "▁poss",
        "ible"
      ],
      [
        "▁================================================",
        "===="
      ],
      [
        "▁in",
        "ter"
      ],
      [
        "t",
        "er"
      ],
      [
        "ul",
        "a"
      ],
      [
        "▁197",
        "7"
      ],
      [
        "▁fir",
        "st"
      ],
      [
        "▁9",
        "0"
      ],
      [
        "/0",
        "3"
      ],
      [
        "▁199",
        "3"
      ],
      [
        "▁may",
        "be"
      ],
      [
        "air",
        "s"
      ],
      [
        "i",
        "de"
      ],
      [
        "▁d",
        "all"
      ],
      [
        "ec",
        "k"
      ],
      [
        "▁1",
        "7"
      ],
      [
        "ard",
        "s"
      ],
      [
        "..",
        "."
      ],
      [
        "ent",
        "ion"
      ],
      [
        "▁part",
        "y"
      ],
      [
        "▁8",
        "3"
      ],
      [
        "▁list",
        "en"
      ],
      [
        "▁201",
        "2"
      ],
      [
        "5",
        "4-"
      ],
      [
        "▁bir",
        "th"
      ],
      [
        "8",
        "67"
      ],
      [
        "in",
        "k"
      ],
      [
        "▁st",
        "ill"
      ],
      [
        "▁tri",
        "p"
      ],
      [
        "▁17",
        "80"
      ],
      [
        "l",
        "ine"
      ],
      [
        "ad",
        "e"
      ],
      [
        "▁pers",
        "on"
      ],
      [
        "9",
        "0"
      ],
      [
        "▁glob",
        "al"
      ],
      [
        "▁9",
        "5"
      ],
      [
        "▁o",
        "ff"
      ],
      [
        "▁str",
        "uct"
      ],
      [
        "▁de",
        "se"
      ],
      [
        "re",
        "ad"
      ],
      [
        "▁m",
        "em"
      ],
      [
        "▁6",
        "39"
      ],
      [
        "▁158",
        "8"
      ],
      [
        "▁o",
        "wn"
      ],
      [
        "▁26",
        "8"
      ],
      [
        "▁p",
        "le"
      ],
      [
        "▁st",
        "op"
      ],
      [
        "▁d",
        "ad"
      ],
      [
        "▁fe",
        "w"
      ],
      [
        "▁d",
        "oo"
      ],
      [
        "on",
        "om"
      ],
      [
        "▁o",
        "ur"
      ],
      [
        "-",
        "4"
      ],
      [
        "▁p",
        "ast"
      ],
      [
        "▁bo",
        "dy"
      ],
      [
        "as",
        "on"
      ],
      [
        "▁qu",
        "ality"
      ],
      [
        "▁apr",
        "il"
      ],
      [
        "▁183",
        "3"
      ],
      [
        "4",
        "3"
      ],
      [
        "▁6",
        "/1"
      ],
      [
        "▁c",
        "ount"
      ],
      [
        "en",
        "ty"
      ],
      [
        "1",
        "5"
      ],
      [
        "▁mo",
        "ving"
      ],
      [
        "-",
        "50"
      ],
      [
        "▁832",
        ".676"
      ],
      [
        "▁ve",
        "g"
      ],
      [
        "▁le",
        "ft"
      ],
      [
        "▁h",
        "at"
      ],
      [
        "▁1",
        ":00"
      ],
      [
        "c",
        "uz"
      ],
      [
        "▁",
        "^"
      ],
      [
        "▁a",
        "n"
      ],
      [
        "▁415.621",
        ".8317"
      ],
      [
        "q",
        "u"
      ],
      [
        "ke",
        "e"
      ],
      [
        "▁res",
        "ult"
      ],
      [
        "▁n",
        "ice"
      ],
      [
        "▁m",
        "eth"
      ],
      [
        "▁s",
        "ing"
      ],
      [
        "▁",
        "m"
      ],
      [
        "▁",
        ","
      ],
      [
        "▁eff",
        "ort"
      ],
      [
        "▁pro",
        "gr"
      ],
      [
        "▁",
        "b"
      ],
      [
        "▁de",
        "ad"
      ],
      [
        "▁195",
        "5"
      ],
      [
        "▁x",
        "sl"
      ],
      [
        "▁b",
        "y"
      ],
      [
        "▁who",
        "se"
      ],
      [
        "l",
        "ing"
      ],
      [
        "▁th",
        "r"
      ],
      [
        "▁h",
        "ear"
      ],
      [
        "▁per",
        "haps"
      ],
      [
        "▁s",
        "to"
      ],
      [
        "ri",
        "b"
      ],
      [
        "▁g",
        "e"
      ],
      [
        "▁whe",
        "ther"
      ],
      [
        "▁ke",
        "pt"
      ],
      [
        "ay",
        "s"
      ],
      [
        "▁m",
        "ess"
      ],
      [
        "▁t",
        "ake"
      ],
      [
        "▁b",
        "ig"
      ],
      [
        "▁800-5",
        "53-3119"
      ],
      [
        "▁cont",
        "rol"
      ],
      [
        "▁along",
        "side"
      ],
      [
        "▁2",
        ":25"
      ],
      [
        "▁10",
        ":00"
      ],
      [
        "▁c",
        "ur"
      ],
      [
        "▁hur",
        "t"
      ],
      [
        "▁18",
        "22"
      ],
      [
        "▁p",
        "ick"
      ],
      [
        "un",
        "d"
      ],
      [
        "▁‘",
        "’"
      ],
      [
        "▁y",
        "ear"
      ],
      [
        "ack",
        "l"
      ],
      [
        "e",
        "c"
      ],
      [
        "▁6",
        "30"
      ],
      [
        "f",
        "ul"
      ],
      [
        "▁f",
        "il"
      ],
      [
        ":3",
        "5"
      ],
      [
        "▁w",
        "o"
      ],
      [
        "▁thr",
        "u"
      ],
      [
        "▁milit",
        "ary"
      ],
      [
        "▁6",
        "19"
      ],
      [
        "▁",
        "ir"
      ],
      [
        "▁s",
        "uch"
      ],
      [
        "▁",
        "el"
      ],
      [
        ".",
        "2"
      ],
      [
        "el",
        "f"
      ],
      [
        "is",
        "ion"
      ],
      [
        "▁8",
        "32"
      ],
      [
        "▁21",
        "0"
      ],
      [
        "▁not",
        "with"
      ],
      [
        "if",
        "y"
      ],
      [
        "▁7",
        "20"
      ],
      [
        "▁b",
        "ab"
      ],
      [
        "▁wh",
        "ole"
      ],
      [
        "▁m",
        "oney"
      ],
      [
        "f",
        "or"
      ],
      [
        "a",
        "il"
      ],
      [
        "▁0",
        "8"
      ],
      [
        "▁rest",
        "aur"
      ],
      [
        "▁want",
        "s"
      ],
      [
        "▁franc",
        "isco"
      ],
      [
        "▁f",
        "ather"
      ],
      [
        "▁e",
        "x"
      ],
      [
        "ap",
        "olis"
      ],
      [
        "▁ach",
        "ie"
      ],
      [
        "▁f",
        "our"
      ],
      [
        "ic",
        "a"
      ],
      [
        "▁n",
        "um"
      ],
      [
        "▁02",
        "/2"
      ],
      [
        "▁f",
        "elt"
      ],
      [
        "▁w",
        "ent"
      ],
      [
        "▁up",
        "on"
      ],
      [
        "▁b",
        "ac"
      ],
      [
        "ł",
        "od"
      ],
      [
        "▁w",
        "il"
      ],
      [
        "▁ro",
        "om"
      ],
      [
        "▁where",
        "as"
      ],
      [
        "▁l",
        "ate"
      ],
      [
        ":5",
        "5"
      ],
      [
        "er",
        "n"
      ],
      [
        "▁your",
        "self"
      ],
      [
        "4",
        "99"
      ],
      [
        "▁03",
        ":58"
      ],
      [
        "▁+",
        "45"
      ],
      [
        "d",
        "s"
      ],
      [
        "▁le",
        "ad"
      ],
      [
        "ar",
        "ch"
      ],
      [
        "ist",
        "an"
      ],
      [
        "▁b",
        "re"
      ],
      [
        "▁52",
        "9999"
      ],
      [
        "ut",
        "ion"
      ],
      [
        "▁6871082",
        "#"
      ],
      [
        "▁b",
        "ul"
      ],
      [
        "▁bal",
        "tim"
      ],
      [
        "▁ab",
        "ove"
      ],
      [
        "▁any",
        "thing"
      ],
      [
        "▁e",
        "ar"
      ],
      [
        "▁abo",
        "ard"
      ],
      [
        "▁ob",
        "s"
      ],
      [
        "▁17",
        "76"
      ],
      [
        "▁ch",
        "air"
      ],
      [
        "o",
        "th"
      ],
      [
        "▁happ",
        "en"
      ],
      [
        "as",
        "h"
      ],
      [
        "u",
        "p"
      ],
      [
        "▁03",
        "/15/2001"
      ],
      [
        "▁158",
        "3"
      ],
      [
        "▁17",
        "38"
      ],
      [
        "ast",
        "ic"
      ],
      [
        "▁d",
        "i"
      ],
      [
        "▁5",
        "0"
      ],
      [
        "c",
        "um"
      ],
      [
        "▁all",
        "ow"
      ],
      [
        "▁fr",
        "iday"
      ],
      [
        "▁7",
        "70"
      ],
      [
        "▁195",
        "1"
      ],
      [
        "iver",
        "s"
      ],
      [
        "▁09",
        ":45"
      ],
      [
        "▁chick",
        "en"
      ],
      [
        "a",
        "s"
      ],
      [
        "t",
        "ing"
      ],
      [
        "▁15",
        ",000"
      ],
      [
        "▁200",
        "4"
      ],
      [
        "▁environ",
        "ment"
      ],
      [
        "▁re",
        "st"
      ],
      [
        "▁40",
        "1"
      ],
      [
        "▁?",
        "????"
      ],
      [
        "er",
        "e"
      ],
      [
        "▁1",
        "8"
      ],
      [
        "▁bac",
        "k"
      ],
      [
        "i",
        "qu"
      ],
      [
        "▁3",
        "0"
      ],
      [
        "▁5",
        "5"
      ],
      [
        ",",
        "9"
      ],
      [
        "is",
        "c"
      ],
      [
        "u",
        "ct"
      ],
      [
        "▁12",
        "20"
      ],
      [
        "s",
        "."
      ],
      [
        "▁gre",
        "en"
      ],
      [
        "if",
        "ul"
      ],
      [
        "▁fi",
        "ve"
      ],
      [
        "46",
        "-3393"
      ],
      [
        "▁a",
        "d"
      ],
      [
        "▁p",
        "et"
      ],
      [
        "▁713-853-",
        "3098"
      ],
      [
        "▁mem",
        "bers"
      ],
      [
        "▁twenty",
        "-"
      ],
      [
        "▁2",
        "1"
      ],
      [
        "igh",
        "t"
      ],
      [
        "▁w",
        "ant"
      ],
      [
        "▁m",
        "e"
      ],
      [
        "▁g",
        "iv"
      ],
      [
        "▁bu",
        "ild"
      ],
      [
        "▁m",
        "id"
      ],
      [
        "▁_",
        "________________________________"
      ],
      [
        "-6",
        "25"
      ],
      [
        "▁f",
        "ree"
      ],
      [
        "▁at",
        "t"
      ],
      [
        "▁18",
        "80"
      ],
      [
        "▁3",
        "5"
      ],
      [
        "▁08",
        "/16"
      ],
      [
        "▁f",
        "ood"
      ],
      [
        "-",
        "2"
      ],
      [
        "▁19",
        "20"
      ],
      [
        "00",
        "0"
      ],
      [
        "`",
        "s"
      ],
      [
        "▁m",
        "iddle"
      ],
      [
        "▁12",
        "/2"
      ],
      [
        "▁_",
        "____"
      ],
      [
        "/",
        "31"
      ],
      [
        "▁08",
        ":00"
      ],
      [
        "▁j",
        "www"
      ],
      [
        "▁wh",
        "e"
      ],
      [
        "▁03/0",
        "8/2000"
      ],
      [
        "▁pos",
        "ition"
      ],
      [
        "▁r",
        "uss"
      ],
      [
        "▁al",
        "ong"
      ],
      [
        "▁11",
        "0"
      ],
      [
        "▁3",
        "43"
      ],
      [
        "▁3",
        "60"
      ],
      [
        ":5",
        "1"
      ],
      [
        "st",
        "on"
      ],
      [
        ",",
        "7"
      ],
      [
        "▁requ",
        "ire"
      ],
      [
        "▁09",
        ":14"
      ],
      [
        "▁3,",
        "202"
      ],
      [
        "▁p",
        "it"
      ],
      [
        "i",
        "ans"
      ],
      [
        "3-3",
        "744"
      ],
      [
        "▁girl",
        "s"
      ],
      [
        "▁38",
        ",000"
      ],
      [
        "▁20",
        "20"
      ],
      [
        "lik",
        "e"
      ],
      [
        "▁0",
        "3"
      ],
      [
        "er",
        "al"
      ],
      [
        "▁11",
        "5"
      ],
      [
        "an",
        "g"
      ],
      [
        "▁e",
        "at"
      ],
      [
        "▁c",
        "red"
      ],
      [
        "▁b",
        "r"
      ],
      [
        ":0",
        "2"
      ],
      [
        "m",
        "iss"
      ],
      [
        "ig",
        "h"
      ],
      [
        "▁fi",
        "eld"
      ],
      [
        "▁713-6",
        "54-"
      ],
      [
        "c",
        "ab"
      ],
      [
        "i",
        "gh"
      ],
      [
        "▁meh-r",
        "isk"
      ],
      [
        "▁pit",
        "tsbur"
      ],
      [
        "▁b",
        "ut"
      ],
      [
        "▁7",
        "44"
      ],
      [
        "??",
        "??"
      ],
      [
        "▁se",
        "pt"
      ],
      [
        "▁notwith",
        "stand"
      ],
      [
        "▁in",
        "d"
      ],
      [
        "w",
        "ay"
      ],
      [
        "▁ag",
        "e"
      ],
      [
        "▁giv",
        "en"
      ],
      [
        "▁ar",
        "t"
      ],
      [
        "▁l",
        "ad"
      ],
      [
        "▁11",
        "60"
      ],
      [
        "▁ear",
        "th"
      ],
      [
        "is_0",
        "712"
      ],
      [
        "▁t",
        "old"
      ],
      [
        "▁n",
        "or"
      ],
      [
        "a",
        "ge"
      ],
      [
        "▁t",
        "ill"
      ],
      [
        "▁do",
        "es"
      ],
      [
        "▁2",
        ".6"
      ],
      [
        "▁6",
        "87"
      ],
      [
        "▁5",
        "1"
      ],
      [
        "▁ey",
        "e"
      ],
      [
        "▁ano",
        "ther"
      ],
      [
        "▁03",
        "/2"
      ],
      [
        "▁th",
        "is"
      ],
      [
        "▁hor",
        "se"
      ],
      [
        "▁190",
        "2"
      ],
      [
        "▁in",
        "t"
      ],
      [
        "ow",
        "s"
      ],
      [
        "▁play",
        "ing"
      ],
      [
        "▁fin",
        "ish"
      ],
      [
        "▁f",
        "av"
      ],
      [
        "▁th",
        "ough"
      ],
      [
        "▁f",
        "ir"
      ],
      [
        "▁fun",
        "d"
      ],
      [
        "▁h",
        "uma"
      ],
      [
        "▁our",
        "s"
      ],
      [
        "er",
        "t"
      ],
      [
        "▁us",
        "ing"
      ],
      [
        "▁t",
        "op"
      ],
      [
        "oo",
        "d"
      ],
      [
        "i",
        "ous"
      ],
      [
        "▁m",
        "ag"
      ],
      [
        "▁w",
        "as"
      ],
      [
        "▁reg",
        "ard"
      ],
      [
        "▁their",
        "s"
      ],
      [
        "▁3",
        ".2"
      ],
      [
        ".9",
        "16.718"
      ],
      [
        "s",
        "i"
      ],
      [
        "▁to",
        "ward"
      ],
      [
        "▁tr",
        "y"
      ],
      [
        "▁3",
        "1"
      ],
      [
        "▁1",
        "3"
      ],
      [
        "▁14",
        "3"
      ],
      [
        "▁d",
        "ec"
      ],
      [
        "▁44",
        ",000"
      ],
      [
        "i",
        "i"
      ],
      [
        "▁g",
        "irl"
      ],
      [
        "▁31",
        "1"
      ],
      [
        "▁",
        "y"
      ],
      [
        "oo",
        "t"
      ],
      [
        "7",
        "44"
      ],
      [
        "▁k",
        "id"
      ],
      [
        "ist",
        "er"
      ],
      [
        "▁04",
        "/2"
      ],
      [
        "▁th",
        "en"
      ],
      [
        "▁",
        "_"
      ],
      [
        "▁s",
        "ch"
      ],
      [
        "▁11",
        "79"
      ],
      [
        "40",
        "14"
      ],
      [
        "e",
        "@enron"
      ],
      [
        "r",
        "y"
      ],
      [
        "▁156",
        "4"
      ],
      [
        "um",
        "a"
      ],
      [
        "v",
        "il"
      ],
      [
        "▁turn",
        "ed"
      ],
      [
        "▁ex",
        "c"
      ],
      [
        "▁quest",
        "ions"
      ],
      [
        "▁",
        "["
      ],
      [
        "▁160",
        "3"
      ],
      [
        "▁11",
        "1"
      ],
      [
        "ens",
        "ive"
      ],
      [
        "▁200",
        "2"
      ],
      [
        "▁enj",
        "oy"
      ],
      [
        "3",
        "-"
      ],
      [
        "u",
        "st"
      ],
      [
        "▁ninety",
        "-n"
      ],
      [
        "id",
        "ent"
      ],
      [
        "▁5",
        "10"
      ],
      [
        "▁713",
        "/"
      ],
      [
        "▁415.782",
        ".7822"
      ],
      [
        "▁7",
        "47"
      ],
      [
        "▁pret",
        "ty"
      ],
      [
        "▁ah",
        "ead"
      ],
      [
        "-",
        "20-"
      ],
      [
        "▁con",
        "c"
      ],
      [
        "▁th",
        "at"
      ],
      [
        "▁whil",
        "st"
      ],
      [
        "▁01",
        "/25/2001"
      ],
      [
        "▁bo",
        "ard"
      ],
      [
        "▁d",
        "raw"
      ],
      [
        "▁17",
        "99"
      ],
      [
        "▁ind",
        "ian"
      ],
      [
        "▁u",
        "r"
      ],
      [
        "▁on",
        "ly"
      ],
      [
        "wh",
        "ere"
      ],
      [
        "▁f",
        "ound"
      ],
      [
        "▁",
        "–"
      ],
      [
        "ve",
        "n"
      ],
      [
        "l",
        "es"
      ],
      [
        "▁o",
        "per"
      ],
      [
        "ent",
        "ial"
      ],
      [
        "▁be",
        "hin"
      ],
      [
        "▁t",
        "en"
      ],
      [
        "▁e",
        "ight"
      ],
      [
        "▁01",
        "/26/2001"
      ],
      [
        "▁su",
        "mm"
      ],
      [
        "▁calif",
        "orn"
      ],
      [
        "▁inc",
        "re"
      ],
      [
        "r",
        "os"
      ],
      [
        "▁hund",
        "red"
      ],
      [
        "!!",
        "!"
      ],
      [
        "y",
        "ond"
      ],
      [
        "r",
        "act"
      ],
      [
        "▁l",
        "i"
      ],
      [
        "▁h",
        "a"
      ],
      [
        "▁30",
        ",000"
      ],
      [
        "▁a",
        "f"
      ],
      [
        "▁mon",
        "t"
      ],
      [
        "▁huma",
        "ine"
      ],
      [
        "▁fr",
        "ont"
      ],
      [
        "▁r",
        "ed"
      ],
      [
        "▁m",
        "ade"
      ],
      [
        "/",
        "00"
      ],
      [
        "▁11",
        "-20-"
      ],
      [
        "i",
        "n"
      ],
      [
        "▁o",
        "p"
      ],
      [
        "▁",
        "ed"
      ],
      [
        "▁iss",
        "ue"
      ],
      [
        "▁ext",
        "rem"
      ],
      [
        "▁54",
        ",000"
      ],
      [
        "am",
        "i"
      ],
      [
        "l",
        "s"
      ],
      [
        "00",
        "10"
      ],
      [
        "▁fi",
        "x"
      ],
      [
        "at",
        "h"
      ],
      [
        "▁s",
        "qu"
      ],
      [
        "le",
        "y"
      ],
      [
        "▁y",
        "a"
      ],
      [
        "▁fr",
        "anc"
      ],
      [
        "▁!!!",
        "!"
      ],
      [
        "om",
        "e"
      ],
      [
        "▁hear",
        "d"
      ],
      [
        "▁h",
        "elp"
      ],
      [
        "il",
        "ities"
      ],
      [
        "▁37",
        "3"
      ],
      [
        "▁oak",
        "land"
      ],
      [
        "▁11",
        "10"
      ],
      [
        "d",
        "e"
      ],
      [
        "▁c",
        "old"
      ],
      [
        "▁m",
        "ind"
      ],
      [
        "r",
        "ed"
      ],
      [
        "▁d",
        "ere"
      ],
      [
        "▁02/2",
        "7/2001"
      ],
      [
        "▁ev",
        "en"
      ],
      [
        "m",
        "y"
      ],
      [
        "▁c",
        "ould"
      ],
      [
        ".",
        "99"
      ],
      [
        "▁o",
        "ct"
      ],
      [
        "▁3",
        "/9"
      ],
      [
        "▁go",
        "ing"
      ],
      [
        "▁st",
        "ore"
      ],
      [
        "▁st",
        "uff"
      ],
      [
        "▁’",
        "m"
      ],
      [
        "▁bec",
        "ome"
      ],
      [
        "▁;",
        ")"
      ],
      [
        "▁c",
        "op"
      ],
      [
        "▁anal",
        "ys"
      ],
      [
        "▁4",
        "6"
      ],
      [
        "▁ro",
        "b"
      ],
      [
        "▁p",
        "u"
      ],
      [
        ":",
        "3"
      ],
      [
        "▁out",
        "side"
      ],
      [
        "ro",
        "l"
      ],
      [
        "▁m",
        "ass"
      ],
      [
        "▁19",
        "47"
      ],
      [
        "▁a",
        "w"
      ],
      [
        "▁wor",
        "d"
      ],
      [
        "▁16",
        "99"
      ],
      [
        "c",
        "le"
      ],
      [
        "▁a",
        "round"
      ],
      [
        "▁sh",
        "op"
      ],
      [
        "▁ar",
        "ri"
      ],
      [
        "▁sever",
        "al"
      ],
      [
        "▁co",
        "ver"
      ],
      [
        "▁hav",
        "ing"
      ],
      [
        "▁in",
        "f"
      ],
      [
        "x",
        "ce"
      ],
      [
        "▁1.",
        "1"
      ],
      [
        "▁youn",
        "g"
      ],
      [
        "▁m",
        "us"
      ],
      [
        "▁",
        "ke"
      ],
      [
        "▁9",
        "9"
      ],
      [
        "it",
        "ing"
      ],
      [
        "/200",
        "1"
      ],
      [
        "▁b",
        "et"
      ],
      [
        "al",
        "ly"
      ],
      [
        "▁proble",
        "m"
      ],
      [
        "▁198",
        "6"
      ],
      [
        "▁ag",
        "ain"
      ],
      [
        "▁6",
        ".2"
      ],
      [
        "▁how",
        "ever"
      ],
      [
        "▁besid",
        "es"
      ],
      [
        "▁tor",
        "onto"
      ],
      [
        "e",
        "m"
      ],
      [
        "▁f",
        "ur"
      ],
      [
        "ot",
        "te"
      ],
      [
        "----------------",
        "----------------"
      ],
      [
        "▁succ",
        "ess"
      ],
      [
        "▁6",
        "1"
      ],
      [
        "a",
        "ff"
      ],
      [
        "▁",
        "r"
      ],
      [
        "▁",
        "and"
      ],
      [
        "-8",
        "4"
      ],
      [
        "/",
        "13"
      ],
      [
        "6",
        "-8"
      ],
      [
        "▁l",
        "ong"
      ],
      [
        "9",
        "9"
      ],
      [
        "▁gu",
        "ess"
      ],
      [
        "▁at",
        "op"
      ],
      [
        "-",
        ")"
      ],
      [
        "▁y",
        "es"
      ],
      [
        ".7",
        "18"
      ],
      [
        "au",
        "se"
      ],
      [
        "cl",
        "ud"
      ],
      [
        "1",
        "9"
      ],
      [
        "▁156",
        "2"
      ],
      [
        "a",
        "ur"
      ],
      [
        "▁11",
        "15"
      ],
      [
        "tw",
        "o"
      ],
      [
        "▁",
        "*"
      ],
      [
        "i",
        "um"
      ],
      [
        "ul",
        "t"
      ],
      [
        "▁cre",
        "ate"
      ],
      [
        "▁713-654-128",
        "1"
      ],
      [
        "▁!!!",
        "!!!!"
      ],
      [
        "▁m",
        "an"
      ],
      [
        "▁9",
        ":30"
      ],
      [
        "▁w",
        "ay"
      ],
      [
        "▁",
        "q"
      ],
      [
        "▁19",
        "14"
      ],
      [
        "+",
        "+"
      ],
      [
        "▁01",
        ":14"
      ],
      [
        "▁l",
        "itt"
      ],
      [
        "880",
        "6"
      ],
      [
        "▁de",
        "re"
      ],
      [
        "d",
        "d"
      ],
      [
        "▁agre",
        "ement"
      ],
      [
        "▁7",
        "27"
      ],
      [
        "iv",
        "es"
      ],
      [
        "9",
        ".3"
      ],
      [
        "▁govern",
        "ment"
      ],
      [
        "▁com",
        "m"
      ],
      [
        "▁xsl",
        "t"
      ],
      [
        "▁f",
        "ly"
      ],
      [
        "v",
        "el"
      ],
      [
        "ou",
        "p"
      ],
      [
        "▁b",
        "it"
      ],
      [
        "▁milwau",
        "kee"
      ],
      [
        "▁re",
        "se"
      ],
      [
        "o",
        "ice"
      ],
      [
        "▁v",
        "ar"
      ],
      [
        "▁1",
        ","
      ],
      [
        "▁7",
        "00"
      ],
      [
        "▁st",
        "ory"
      ],
      [
        ":1",
        "1"
      ],
      [
        "▁unt",
        "ill"
      ],
      [
        "▁inf",
        "l"
      ],
      [
        "j",
        "www"
      ],
      [
        "▁to",
        "o"
      ],
      [
        "ne",
        "ath"
      ],
      [
        "▁",
        "00"
      ],
      [
        "▁ver",
        "y"
      ],
      [
        "i",
        "d"
      ],
      [
        "▁08",
        "/15"
      ],
      [
        "▁k",
        "ind"
      ],
      [
        "▁197",
        "6"
      ],
      [
        "a",
        "z"
      ],
      [
        "al",
        "ys"
      ],
      [
        "0",
        "0"
      ],
      [
        "ach",
        "ed"
      ],
      [
        "▁re",
        "s"
      ],
      [
        "▁v",
        "is"
      ],
      [
        "▁fift",
        "een"
      ],
      [
        "l",
        "i"
      ],
      [
        "1",
        "7"
      ],
      [
        "▁f",
        "act"
      ],
      [
        "@",
        "enron"
      ],
      [
        "▁ad",
        "d"
      ],
      [
        "▁ben",
        "ef"
      ],
      [
        "▁29",
        "6"
      ],
      [
        "▁24",
        "0"
      ],
      [
        "ont",
        "o"
      ],
      [
        "▁l",
        "ondon"
      ],
      [
        "▁199",
        "1"
      ],
      [
        "▁",
        "like"
      ],
      [
        "ra",
        "ft"
      ],
      [
        "/0",
        "1"
      ],
      [
        ":3",
        "9"
      ],
      [
        "▁13",
        "7"
      ],
      [
        "▁718",
        "-780"
      ],
      [
        "a",
        "t"
      ],
      [
        "▁c",
        "at"
      ],
      [
        "▁713-853",
        "-"
      ],
      [
        "▁jo",
        "hn"
      ],
      [
        "▁b",
        "ook"
      ],
      [
        "▁y",
        "ellow"
      ],
      [
        "▁4",
        "25"
      ],
      [
        "c",
        "ross"
      ],
      [
        "▁re",
        "qu"
      ],
      [
        "▁charl",
        "otte"
      ],
      [
        "▁g",
        "er"
      ],
      [
        "▁8",
        "1"
      ],
      [
        "▁p",
        "ush"
      ],
      [
        "▁748",
        "4"
      ],
      [
        "is",
        "m"
      ],
      [
        "▁even",
        "ing"
      ],
      [
        "/",
        "4"
      ],
      [
        "▁",
        "ll"
      ],
      [
        "▁sp",
        "eak"
      ],
      [
        "▁h",
        "ard"
      ],
      [
        "▁2",
        ".00"
      ],
      [
        "--------",
        "--------"
      ],
      [
        "7",
        "00"
      ],
      [
        "/16",
        "/2001"
      ],
      [
        "c",
        "k"
      ],
      [
        "er",
        "v"
      ],
      [
        "ot",
        "e"
      ],
      [
        "▁stre",
        "et"
      ],
      [
        "▁",
        "********************************"
      ],
      [
        "▁spec",
        "ial"
      ],
      [
        "▁3",
        "/4"
      ],
      [
        "ant",
        "a"
      ],
      [
        "▁d",
        "r"
      ],
      [
        "ar",
        "d"
      ],
      [
        "▁http",
        "://"
      ],
      [
        "▁un",
        "like"
      ],
      [
        "▁8",
        "14"
      ],
      [
        "▁un",
        "ivers"
      ],
      [
        "==",
        "="
      ],
      [
        "▁12",
        "00"
      ],
      [
        "at",
        "ic"
      ],
      [
        "ic",
        "al"
      ],
      [
        "▁tu",
        "esday"
      ],
      [
        "▁4",
        ".0"
      ],
      [
        "▁an",
        "o"
      ],
      [
        "an",
        "c"
      ],
      [
        "-0",
        "295"
      ],
      [
        "▁08/15",
        "/2000"
      ],
      [
        "?",
        "?"
      ],
      [
        "▁r",
        "ele"
      ],
      [
        ":",
        "30"
      ],
      [
        "9",
        "/2001"
      ],
      [
        "▁every",
        "body"
      ],
      [
        "▁w",
        "ed"
      ],
      [
        "▁gr",
        "ow"
      ],
      [
        "▁partic",
        "ular"
      ],
      [
        "▁1",
        "/2"
      ],
      [
        "▁19",
        "26"
      ],
      [
        "▁bo",
        "ston"
      ],
      [
        "▁wou",
        "d"
      ],
      [
        "1",
        "/2001"
      ],
      [
        "em",
        "ber"
      ],
      [
        "▁st",
        "aff"
      ],
      [
        "▁19",
        "00"
      ],
      [
        "▁",
        "£"
      ],
      [
        "u",
        "nd"
      ],
      [
        "▁de",
        "f"
      ],
      [
        "/8",
        "/00"
      ],
      [
        "ab",
        "ility"
      ],
      [
        "▁count",
        "ry"
      ],
      [
        "i",
        "re"
      ],
      [
        "ect",
        "ion"
      ],
      [
        "▁s",
        "n"
      ],
      [
        "▁some",
        "body"
      ],
      [
        "ur",
        "day"
      ],
      [
        "6",
        "7"
      ],
      [
        "on",
        "t"
      ],
      [
        "▁uh",
        "h"
      ],
      [
        "or",
        "s"
      ],
      [
        "▁do",
        "wn"
      ],
      [
        "re",
        "w"
      ],
      [
        "▁4",
        "0"
      ],
      [
        "▁5",
        "9"
      ],
      [
        "ur",
        "y"
      ],
      [
        "ic",
        "t"
      ],
      [
        "▁six",
        "ty"
      ],
      [
        "o",
        "y"
      ],
      [
        "▁f",
        "ace"
      ],
      [
        "▁b",
        "orn"
      ],
      [
        "▁c",
        "ertain"
      ],
      [
        "2",
        ",000"
      ],
      [
        "ea",
        "p"
      ],
      [
        "▁15",
        "9"
      ],
      [
        "u",
        "ch"
      ],
      [
        "at",
        "ch"
      ],
      [
        "▁st",
        "."
      ],
      [
        "▁thurs",
        "day"
      ],
      [
        "▁10",
        "/2"
      ],
      [
        "▁app",
        "ro"
      ],
      [
        "▁5",
        ".8"
      ],
      [
        "▁be",
        "low"
      ],
      [
        "▁5",
        ".3"
      ],
      [
        "▁25",
        "3"
      ],
      [
        "16",
        ".718"
      ],
      [
        "▁47",
        ",500"
      ],
      [
        "▁4",
        "5"
      ],
      [
        "▁e",
        "xce"
      ],
      [
        "▁3",
        "9"
      ],
      [
        "ft",
        "en"
      ],
      [
        "▁del",
        "ta"
      ],
      [
        "▁18",
        "21"
      ],
      [
        "▁lea",
        "ving"
      ],
      [
        "▁n",
        "'"
      ],
      [
        "▁ch",
        "ild"
      ],
      [
        "▁_________________________________",
        "________________"
      ],
      [
        "▁pres",
        "ident"
      ],
      [
        "▁s",
        "e"
      ],
      [
        "ain",
        "ing"
      ],
      [
        "▁f",
        "r"
      ],
      [
        "b",
        "s"
      ],
      [
        "▁h",
        "alf"
      ],
      [
        "▁ke",
        "y"
      ],
      [
        "▁w",
        "ind"
      ],
      [
        "▁198",
        "0"
      ],
      [
        "▁n",
        "on"
      ],
      [
        "8",
        "-3"
      ],
      [
        "▁4",
        "60"
      ],
      [
        "l",
        "e"
      ],
      [
        "▁l",
        "ab"
      ],
      [
        "▁m",
        "er"
      ],
      [
        "▁t",
        "reat"
      ],
      [
        "▁5",
        "7"
      ],
      [
        "▁it",
        "em"
      ],
      [
        "▁be",
        "sid"
      ],
      [
        "at",
        "es"
      ],
      [
        "▁505-625",
        "-8031"
      ],
      [
        "▁",
        "is"
      ],
      [
        "ot",
        "t"
      ],
      [
        "▁9",
        "8"
      ],
      [
        "▁inter",
        "n"
      ],
      [
        "u",
        "se"
      ],
      [
        "s",
        "us"
      ],
      [
        "▁ang",
        "el"
      ],
      [
        "▁am",
        "ong"
      ],
      [
        "▁198",
        "5"
      ],
      [
        "▁k",
        "ill"
      ],
      [
        "ant",
        "s"
      ],
      [
        "▁ed",
        "uc"
      ],
      [
        "ort",
        "un"
      ],
      [
        "▁",
        "4"
      ],
      [
        "▁7",
        "50"
      ],
      [
        "▁ch",
        "e"
      ],
      [
        "▁quest",
        "ion"
      ],
      [
        "o",
        "re"
      ],
      [
        "▁com",
        "edie"
      ],
      [
        "▁p",
        "ot"
      ],
      [
        "▁ne",
        "w"
      ],
      [
        "-",
        "59"
      ],
      [
        "▁j",
        "e"
      ],
      [
        "▁te",
        "ach"
      ],
      [
        "▁:",
        "("
      ],
      [
        "▁3",
        ".1"
      ],
      [
        "▁",
        "in"
      ],
      [
        "▁4",
        ":50"
      ],
      [
        "/2",
        "00"
      ],
      [
        "at",
        "s"
      ],
      [
        "om",
        "an"
      ],
      [
        "▁s",
        "ide"
      ],
      [
        "ro",
        "om"
      ],
      [
        "▁pri",
        "v"
      ],
      [
        "▁b",
        "u"
      ],
      [
        "ou",
        "ld"
      ],
      [
        "▁ad",
        "am"
      ],
      [
        "▁su",
        "re"
      ],
      [
        "id",
        "ay"
      ],
      [
        "▁go",
        "es"
      ],
      [
        "▁for",
        "ward"
      ],
      [
        "▁with",
        "out"
      ],
      [
        "▁18",
        "59"
      ],
      [
        "▁345",
        "-99"
      ],
      [
        "a",
        "mp"
      ],
      [
        "▁rev",
        "iew"
      ],
      [
        "▁p",
        "ol"
      ],
      [
        "en",
        "g"
      ],
      [
        "▁lo",
        "st"
      ],
      [
        "▁5",
        ":00"
      ],
      [
        "▁197",
        "0"
      ],
      [
        "▁",
        "en"
      ],
      [
        "▁acc",
        "ess"
      ],
      [
        "i",
        "f"
      ],
      [
        "▁se",
        "attle"
      ],
      [
        "gh",
        "t"
      ],
      [
        "-",
        "6"
      ],
      [
        "▁in",
        "it"
      ],
      [
        "▁196",
        "7"
      ],
      [
        "▁ha",
        "ir"
      ],
      [
        "ent",
        "ly"
      ],
      [
        "▁18",
        "20"
      ],
      [
        "/",
        "2"
      ],
      [
        "▁12",
        ":1"
      ],
      [
        "▁16",
        "23"
      ],
      [
        "▁th",
        "o"
      ],
      [
        "▁195",
        "8"
      ],
      [
        "▁d",
        "inner"
      ],
      [
        "▁.",
        "?"
      ],
      [
        "7",
        "4"
      ],
      [
        "▁comm",
        "ission"
      ],
      [
        "▁e",
        "."
      ],
      [
        "▁t",
        "a"
      ],
      [
        "▁",
        "l"
      ],
      [
        "▁s",
        "itting"
      ],
      [
        "49",
        "0"
      ],
      [
        "▁ref",
        "er"
      ],
      [
        "▁3",
        ":00"
      ],
      [
        "▁197",
        "5"
      ],
      [
        "▁les",
        "t"
      ],
      [
        "====",
        "===="
      ],
      [
        "an",
        "a"
      ],
      [
        "▁qu",
        "ick"
      ],
      [
        "▁twenty-",
        "six"
      ],
      [
        "▁---",
        "-"
      ],
      [
        "▁f",
        "un"
      ],
      [
        "▁m",
        "ich"
      ],
      [
        "res",
        "s"
      ],
      [
        "▁",
        "@"
      ],
      [
        "▁c",
        "ult"
      ],
      [
        "l",
        "d"
      ],
      [
        "▁sa",
        "id"
      ],
      [
        ":3",
        "8"
      ],
      [
        "▁01",
        ":0"
      ],
      [
        "▁re",
        "n"
      ],
      [
        "▁4",
        ".7"
      ],
      [
        "▁pittsbur",
        "gh"
      ],
      [
        "▁t",
        "rans"
      ],
      [
        "▁laur",
        "a"
      ],
      [
        "▁h",
        "e"
      ],
      [
        "▁ear",
        "ly"
      ],
      [
        "▁10",
        ":46"
      ],
      [
        "▁am",
        "ount"
      ],
      [
        "▁10",
        ":25"
      ],
      [
        "▁o",
        "pp"
      ],
      [
        "▁u",
        "h"
      ],
      [
        "▁restaur",
        "ant"
      ],
      [
        "▁one",
        "self"
      ],
      [
        "3",
        "00"
      ],
      [
        "▁11",
        ":00"
      ],
      [
        "i",
        "le"
      ],
      [
        "▁avail",
        "able"
      ],
      [
        "▁ge",
        "or"
      ],
      [
        "▁m",
        "ine"
      ],
      [
        "-",
        "n"
      ],
      [
        "▁b",
        "/"
      ],
      [
        "▁part",
        "ic"
      ],
      [
        "ion",
        "s"
      ],
      [
        "▁19",
        "50"
      ],
      [
        "▁r",
        "ich"
      ],
      [
        "▁",
        "on"
      ],
      [
        "▁y",
        "e"
      ],
      [
        ":5",
        "8"
      ],
      [
        "▁p",
        "art"
      ],
      [
        "▁p",
        "m"
      ],
      [
        "▁345-343",
        "6"
      ],
      [
        "▁cour",
        "t"
      ],
      [
        "▁03",
        ":48"
      ],
      [
        "▁mor",
        "ning"
      ],
      [
        "▁",
        "+"
      ],
      [
        "al",
        "k"
      ],
      [
        "▁al",
        "l"
      ],
      [
        "p",
        "r"
      ],
      [
        "v",
        "ed"
      ],
      [
        "-",
        "46"
      ],
      [
        "▁whi",
        "le"
      ],
      [
        "n",
        "ed"
      ],
      [
        "e",
        "ed"
      ],
      [
        "o",
        "r"
      ],
      [
        "at",
        "ter"
      ],
      [
        "▁b/",
        "c"
      ],
      [
        "▁tw",
        "el"
      ],
      [
        "2",
        "-6"
      ],
      [
        "▁bec",
        "ause"
      ],
      [
        "????",
        "????"
      ],
      [
        "r",
        "on"
      ],
      [
        "iv",
        "id"
      ],
      [
        "▁12",
        ":3"
      ],
      [
        "▁180",
        "5"
      ],
      [
        "▁08/03",
        "/2000"
      ],
      [
        "id",
        "ed"
      ],
      [
        "▁c",
        "reat"
      ],
      [
        "idd",
        "le"
      ],
      [
        "▁ne",
        "ar"
      ],
      [
        "er",
        "ing"
      ],
      [
        "▁20",
        "50"
      ],
      [
        "!",
        "?"
      ],
      [
        "▁w",
        "ill"
      ],
      [
        "a",
        "v"
      ],
      [
        "▁hour",
        "s"
      ],
      [
        "c",
        "c"
      ],
      [
        "▁f",
        "ar"
      ],
      [
        "▁li",
        "ve"
      ],
      [
        "▁pres",
        "ent"
      ],
      [
        "▁197",
        "1"
      ],
      [
        "as",
        "t"
      ],
      [
        "****************",
        "****************"
      ],
      [
        "▁5",
        "8"
      ],
      [
        "_",
        "0"
      ],
      [
        "▁h",
        "tt"
      ],
      [
        "▁16",
        "91"
      ],
      [
        "▁ch",
        "ina"
      ],
      [
        "▁fe",
        "el"
      ],
      [
        "▁6",
        ".00"
      ],
      [
        "a",
        "p"
      ],
      [
        "▁po",
        "int"
      ],
      [
        "▁7",
        "2"
      ],
      [
        "or",
        "n"
      ],
      [
        "8",
        "7"
      ],
      [
        "▁200",
        "6"
      ],
      [
        "▁wh",
        "ite"
      ],
      [
        "▁pos",
        "s"
      ],
      [
        "▁t",
        "able"
      ],
      [
        "z",
        "er"
      ],
      [
        "4-",
        "79"
      ],
      [
        "▁x",
        "v"
      ],
      [
        "o",
        "w"
      ],
      [
        "0",
        "-3"
      ],
      [
        "/10",
        "/2004"
      ],
      [
        "▁",
        "2"
      ],
      [
        "▁under",
        "neath"
      ],
      [
        "▁thirty",
        "-"
      ],
      [
        "▁p",
        "res"
      ],
      [
        "▁3",
        "8"
      ],
      [
        "▁16",
        "47"
      ],
      [
        "▁supp",
        "ort"
      ],
      [
        "o",
        "le"
      ],
      [
        "an",
        "s"
      ],
      [
        "il",
        "d"
      ],
      [
        "▁p",
        "ull"
      ],
      [
        "▁be",
        "ing"
      ],
      [
        "▁litt",
        "le"
      ],
      [
        "▁r",
        "ight"
      ],
      [
        "▁3",
        "76"
      ],
      [
        "t",
        "y"
      ],
      [
        "al",
        "l"
      ],
      [
        "▁l",
        "ast"
      ],
      [
        "▁el",
        "se"
      ],
      [
        "h",
        "ead"
      ],
      [
        "▁d",
        "'"
      ],
      [
        "▁re",
        "al"
      ],
      [
        "▁f",
        "in"
      ],
      [
        "as",
        "ed"
      ],
      [
        "▁c",
        "a"
      ],
      [
        "▁http://",
        "www"
      ],
      [
        "-6",
        "96"
      ],
      [
        "▁6",
        ".1"
      ],
      [
        "ol",
        "og"
      ],
      [
        "▁d",
        "on"
      ],
      [
        "d",
        "er"
      ],
      [
        "4",
        "4"
      ],
      [
        "▁05",
        "/17/99"
      ],
      [
        "if",
        "ic"
      ],
      [
        "▁an",
        "n"
      ],
      [
        "in",
        "y"
      ],
      [
        "/1",
        "6"
      ],
      [
        "▁in",
        "clud"
      ],
      [
        "r",
        "ight"
      ],
      [
        "87",
        "4"
      ],
      [
        ".123",
        "4"
      ],
      [
        "a",
        "in"
      ],
      [
        "▁sh",
        "a"
      ],
      [
        "▁re",
        "d"
      ],
      [
        "▁",
        "h"
      ],
      [
        "7",
        "2"
      ],
      [
        "i",
        "k"
      ],
      [
        "▁9",
        "32"
      ],
      [
        "▁202",
        ".45"
      ],
      [
        "▁05",
        "90"
      ],
      [
        "i",
        "er"
      ],
      [
        ".2",
        "5"
      ],
      [
        "▁fi",
        "ft"
      ],
      [
        "1",
        "-9"
      ],
      [
        "o",
        "g"
      ],
      [
        "▁w",
        "in"
      ],
      [
        "▁it",
        "self"
      ],
      [
        "c",
        "om"
      ],
      [
        "3",
        "-3"
      ],
      [
        "w",
        "ith"
      ],
      [
        "om",
        "et"
      ],
      [
        "▁f",
        "l"
      ],
      [
        "▁e",
        "ver"
      ],
      [
        "▁em",
        "ail"
      ],
      [
        "▁we",
        "b"
      ],
      [
        "▁re",
        "t"
      ],
      [
        "▁uhh",
        "uh"
      ],
      [
        "▁",
        "<"
      ],
      [
        "▁?",
        "??"
      ],
      [
        "▁6",
        "80"
      ],
      [
        "▁’",
        "ll"
      ],
      [
        "▁al",
        "so"
      ],
      [
        "▁on",
        "to"
      ],
      [
        "▁6",
        ":00"
      ],
      [
        "▁159",
        "0"
      ],
      [
        "▁me",
        "h-r"
      ],
      [
        "b",
        "e"
      ],
      [
        "u",
        "ary"
      ],
      [
        "if",
        "ied"
      ],
      [
        "▁sh",
        "ip"
      ],
      [
        "▁27",
        "0"
      ],
      [
        "ert",
        "ain"
      ],
      [
        "▁h",
        "uh"
      ],
      [
        "l",
        "us"
      ],
      [
        "u",
        "n"
      ],
      [
        "▁j",
        "ump"
      ],
      [
        "-",
        "5"
      ],
      [
        "▁sa",
        "ve"
      ],
      [
        "▁17",
        "00"
      ],
      [
        "▁p",
        "lus"
      ],
      [
        "i",
        "et"
      ],
      [
        "▁trans",
        "port"
      ],
      [
        "▁281-435",
        "-0295"
      ],
      [
        "▁sh",
        "o"
      ],
      [
        "▁",
        "("
      ],
      [
        "▁af",
        "ric"
      ],
      [
        "▁sugg",
        "est"
      ],
      [
        "ar",
        "k"
      ],
      [
        "3",
        "4"
      ],
      [
        ",",
        "0"
      ],
      [
        "▁04",
        "/30/2001"
      ],
      [
        "▁fut",
        "ure"
      ],
      [
        "▁so",
        "on"
      ],
      [
        "▁import",
        "ant"
      ],
      [
        "▁s",
        "an"
      ],
      [
        "cl",
        "ock"
      ],
      [
        "▁t",
        "em"
      ],
      [
        "▁exp",
        "ect"
      ],
      [
        "l",
        "f"
      ],
      [
        "▁18",
        "47"
      ],
      [
        "▁5",
        "3"
      ],
      [
        "▁50",
        "5"
      ],
      [
        "▁the",
        "se"
      ],
      [
        "▁toward",
        "s"
      ],
      [
        "▁",
        ";"
      ],
      [
        "▁1",
        "00"
      ],
      [
        "▁qu",
        "ite"
      ],
      [
        "p",
        "ar"
      ],
      [
        "▁'",
        "0"
      ],
      [
        "____",
        "____"
      ],
      [
        "at",
        "e"
      ],
      [
        ":0",
        "5"
      ],
      [
        ":",
        "1"
      ],
      [
        "▁20",
        "2"
      ],
      [
        "▁713-853",
        "-3989"
      ],
      [
        "en",
        "ron"
      ],
      [
        "▁am",
        "eric"
      ],
      [
        "▁beg",
        "an"
      ],
      [
        "or",
        "d"
      ],
      [
        "▁sp",
        "ec"
      ],
      [
        "▁bus",
        "h"
      ],
      [
        "o",
        "k"
      ],
      [
        "▁e",
        "ach"
      ],
      [
        "▁3",
        "3"
      ],
      [
        "▁w",
        "ear"
      ],
      [
        "▁42",
        ",000"
      ],
      [
        "▁somet",
        "hing"
      ],
      [
        "▁158",
        "4"
      ],
      [
        "▁a",
        "ft"
      ],
      [
        "-",
        "435"
      ],
      [
        "im",
        "es"
      ],
      [
        "▁paren",
        "ts"
      ],
      [
        "▁09/16",
        "/99"
      ],
      [
        "2",
        "4"
      ],
      [
        "▁0590",
        "8549"
      ],
      [
        "0",
        "9"
      ],
      [
        "▁week",
        "s"
      ],
      [
        "▁h",
        "ors"
      ],
      [
        "▁s",
        "w"
      ],
      [
        "▁an",
        "al"
      ],
      [
        "▁j",
        "an"
      ],
      [
        "1",
        "19"
      ],
      [
        "▁sit",
        "u"
      ],
      [
        "▁199",
        "2"
      ],
      [
        "▁e",
        "ff"
      ],
      [
        "▁un",
        "ited"
      ],
      [
        "▁t",
        "aken"
      ],
      [
        "▁29587",
        "0"
      ],
      [
        "o",
        "ther"
      ],
      [
        "-",
        "49"
      ],
      [
        "▁do",
        "ct"
      ],
      [
        "▁a",
        "ust"
      ],
      [
        "and",
        "s"
      ],
      [
        "▁p",
        "ay"
      ],
      [
        "▁d",
        "c"
      ],
      [
        "▁l",
        "et"
      ],
      [
        "▁p",
        "ur"
      ],
      [
        "▁fa",
        "res"
      ],
      [
        "▁eight",
        "y"
      ],
      [
        "▁an",
        "d"
      ],
      [
        "▁07",
        ":24"
      ],
      [
        "▁11",
        "3"
      ],
      [
        "▁tr",
        "illion"
      ],
      [
        "▁202.456.1",
        "414"
      ],
      [
        "▁s",
        "ome"
      ],
      [
        "▁16",
        "00"
      ],
      [
        "▁bus",
        "iness"
      ],
      [
        "▁when",
        "ever"
      ],
      [
        "▁d",
        "u"
      ],
      [
        "'",
        "s"
      ],
      [
        "a",
        "st"
      ],
      [
        "▁h",
        "am"
      ],
      [
        "ud",
        "e"
      ],
      [
        "e",
        "x"
      ],
      [
        "▁l",
        "ater"
      ],
      [
        ".7",
        "13.86"
      ],
      [
        "▁32",
        "4"
      ],
      [
        "▁200",
        ",000"
      ],
      [
        "▁200",
        "0"
      ],
      [
        "w",
        "au"
      ],
      [
        "▁6",
        "8"
      ],
      [
        "▁sm",
        "all"
      ],
      [
        "▁exp",
        "ensive"
      ],
      [
        "▁",
        ">"
      ],
      [
        "oc",
        "k"
      ],
      [
        "▁f",
        "ight"
      ],
      [
        "▁183",
        "2"
      ],
      [
        "▁6",
        "50"
      ],
      [
        "4",
        "2"
      ],
      [
        "p",
        "l"
      ],
      [
        "▁st",
        "re"
      ],
      [
        "▁l",
        "im"
      ],
      [
        "d",
        "ing"
      ],
      [
        "en",
        "c"
      ],
      [
        "▁12",
        ":42"
      ],
      [
        "▁ph",
        "o"
      ],
      [
        "▁",
        "ro"
      ],
      [
        "c",
        "ent"
      ],
      [
        "▁v",
        "s"
      ],
      [
        "▁inter",
        "est"
      ],
      [
        "ir",
        "on"
      ],
      [
        "c",
        "il"
      ],
      [
        ",",
        "1"
      ],
      [
        "▁mom",
        "my"
      ],
      [
        "ou",
        "s"
      ],
      [
        "▁'",
        "re"
      ],
      [
        "▁200",
        "5"
      ],
      [
        "u",
        "d"
      ],
      [
        "▁1-800",
        "-991-9"
      ],
      [
        "▁a",
        "ble"
      ],
      [
        "▁th",
        "e"
      ],
      [
        "▁hou",
        "ston"
      ],
      [
        ".6",
        "1"
      ],
      [
        "v",
        "iat"
      ],
      [
        "▁tr",
        "a"
      ],
      [
        "iv",
        "ely"
      ],
      [
        "▁n",
        "ot"
      ],
      [
        "▁e",
        "t"
      ],
      [
        "▁201",
        "4"
      ],
      [
        "▁p",
        "os"
      ],
      [
        "▁off",
        "ice"
      ],
      [
        "▁l",
        "ou"
      ],
      [
        "▁u",
        "s"
      ],
      [
        "▁7",
        "48"
      ],
      [
        "▁dr",
        "ink"
      ],
      [
        "/1",
        "0"
      ],
      [
        "▁",
        "a"
      ],
      [
        "▁b",
        "as"
      ],
      [
        "▁19",
        "29"
      ],
      [
        "▁air",
        "l"
      ],
      [
        "at",
        "t"
      ],
      [
        "▁4",
        "9"
      ],
      [
        "e",
        "ct"
      ],
      [
        "▁1",
        "000"
      ],
      [
        "▁18",
        "75"
      ],
      [
        "▁",
        "own"
      ],
      [
        "▁is",
        "s"
      ],
      [
        "▁re",
        "f"
      ],
      [
        "or",
        "ies"
      ],
      [
        "▁177",
        "7"
      ],
      [
        "20",
        "1"
      ],
      [
        "r",
        "ic"
      ],
      [
        "▁d",
        "om"
      ],
      [
        "▁000010",
        "8806"
      ],
      [
        "▁2",
        ","
      ],
      [
        "t",
        "w"
      ],
      [
        "pl",
        "oy"
      ],
      [
        "▁l",
        "ook"
      ],
      [
        "▁inform",
        "ation"
      ],
      [
        "r",
        "a"
      ],
      [
        "▁contin",
        "ental"
      ],
      [
        "▁f",
        "air"
      ],
      [
        "▁m",
        "ark"
      ],
      [
        "▁go",
        "d"
      ],
      [
        "..",
        ".."
      ],
      [
        "/1",
        "5"
      ],
      [
        "▁b",
        "ir"
      ],
      [
        "▁11:3",
        "6"
      ],
      [
        "▁b",
        "el"
      ],
      [
        "o",
        "on"
      ],
      [
        "▁d",
        "ays"
      ],
      [
        "3",
        "2"
      ],
      [
        "▁16",
        "13"
      ],
      [
        "v",
        "en"
      ],
      [
        "▁4",
        ":30"
      ],
      [
        "ug",
        "ht"
      ],
      [
        "um",
        "p"
      ],
      [
        "▁18",
        "00"
      ],
      [
        "▁t",
        "e"
      ],
      [
        "e",
        "en"
      ],
      [
        "ion",
        "al"
      ],
      [
        "▁75",
        "9933"
      ],
      [
        "▁s",
        "k"
      ],
      [
        "sel",
        "ves"
      ],
      [
        "▁198",
        "9"
      ],
      [
        "▁intern",
        "et"
      ],
      [
        "▁s",
        "er"
      ],
      [
        "▁ou",
        "ts"
      ],
      [
        "▁",
        "o"
      ],
      [
        "▁a",
        "uth"
      ],
      [
        "▁8",
        "38"
      ],
      [
        "▁thank",
        "s"
      ],
      [
        "▁numer",
        "ous"
      ],
      [
        "ment",
        "s"
      ],
      [
        "oo",
        "se"
      ],
      [
        "▁4",
        "7"
      ],
      [
        "▁r",
        "oman"
      ],
      [
        "▁p",
        "ict"
      ],
      [
        "▁",
        ")"
      ],
      [
        "▁look",
        "s"
      ],
      [
        "or",
        "row"
      ],
      [
        "▁15",
        "30"
      ],
      [
        "▁s",
        "ort"
      ],
      [
        "e",
        "l"
      ],
      [
        "▁2",
        ".9"
      ],
      [
        "▁h",
        "ome"
      ],
      [
        "6",
        "6"
      ],
      [
        "r",
        "o"
      ],
      [
        "▁fri",
        "end"
      ],
      [
        "▁comm",
        "itt"
      ],
      [
        "▁1.",
        "3"
      ],
      [
        "st",
        "and"
      ],
      [
        "▁try",
        "ing"
      ],
      [
        "s",
        "c"
      ],
      [
        "▁m",
        "ummy"
      ],
      [
        "▁re",
        "ce"
      ],
      [
        "ou",
        "gh"
      ],
      [
        "ol",
        "is"
      ],
      [
        "u",
        "re"
      ],
      [
        "▁to",
        "gether"
      ],
      [
        "▁0",
        ".00"
      ],
      [
        "i",
        "ally"
      ],
      [
        "▁05",
        ":37"
      ],
      [
        "▁s",
        "et"
      ],
      [
        "▁r",
        "es"
      ],
      [
        "▁189",
        "2"
      ],
      [
        "i",
        "c"
      ],
      [
        "▁6",
        "3"
      ],
      [
        "▁he",
        "ad"
      ],
      [
        "el",
        "y"
      ],
      [
        "▁al",
        "right"
      ],
      [
        "ill",
        "ion"
      ],
      [
        "▁",
        "es"
      ],
      [
        "▁the",
        "ir"
      ],
      [
        "in",
        "g"
      ],
      [
        "▁tw",
        "enty"
      ],
      [
        "▁twel",
        "ve"
      ],
      [
        "▁415",
        ".621"
      ],
      [
        "▁198",
        "7"
      ],
      [
        "▁o",
        "n"
      ],
      [
        "▁10",
        "4"
      ],
      [
        "▁160",
        "4"
      ],
      [
        "▁202.456",
        ".2461"
      ],
      [
        "ri",
        "es"
      ],
      [
        "▁m",
        "ad"
      ],
      [
        "▁d",
        "own"
      ],
      [
        "▁forty",
        "-"
      ],
      [
        "819",
        "6021"
      ],
      [
        "ans",
        "as"
      ],
      [
        "us",
        "ions"
      ],
      [
        "▁ha",
        "ving"
      ],
      [
        "▁03",
        "/0"
      ],
      [
        "▁18",
        "68"
      ],
      [
        "▁ex",
        "ist"
      ],
      [
        "▁l",
        "oc"
      ],
      [
        "▁on",
        "es"
      ],
      [
        "▁3",
        ","
      ],
      [
        "▁conc",
        "ern"
      ],
      [
        "▁f",
        "ore"
      ],
      [
        "at",
        "ors"
      ],
      [
        "▁",
        "s"
      ],
      [
        "▁p",
        "r"
      ],
      [
        "ne",
        "y"
      ],
      [
        "▁s",
        "it"
      ],
      [
        "h",
        "ia"
      ],
      [
        "▁n",
        "ame"
      ],
      [
        "▁a",
        "b"
      ],
      [
        "▁prof",
        "ess"
      ],
      [
        "▁b",
        "ec"
      ],
      [
        "▁work",
        "s"
      ],
      [
        "▁doll",
        "ars"
      ],
      [
        "37",
        "36"
      ],
      [
        "▁38",
        "89"
      ],
      [
        "ac",
        "k"
      ],
      [
        "ol",
        "l"
      ],
      [
        "▁do",
        "ing"
      ],
      [
        "p",
        "h"
      ],
      [
        "▁cheap",
        "est"
      ],
      [
        "▁19",
        "18"
      ],
      [
        "▁06",
        "/01/2001"
      ],
      [
        ".",
        "45"
      ],
      [
        "▁d",
        "o"
      ],
      [
        "oun",
        "t"
      ],
      [
        "▁dad",
        "dy"
      ],
      [
        "▁sp",
        "ace"
      ],
      [
        "▁in",
        "side"
      ],
      [
        "ra",
        "w"
      ],
      [
        "et",
        "h"
      ],
      [
        "▁beaut",
        "iful"
      ],
      [
        "▁w",
        "ays"
      ],
      [
        "a",
        "pp"
      ],
      [
        "y",
        "s"
      ],
      [
        "w",
        "ard"
      ],
      [
        "g",
        "le"
      ],
      [
        "▁646-84",
        "20"
      ],
      [
        "▁pos",
        "t"
      ],
      [
        "▁f",
        "ro"
      ],
      [
        "▁",
        "#"
      ],
      [
        "ic",
        "ult"
      ],
      [
        "8196021",
        "75"
      ],
      [
        "▁per",
        "du"
      ],
      [
        "/13",
        "/2001"
      ],
      [
        "at",
[...]
