{
  "version": "1.0",
  "truncation": null,
  "padding": null,
  "added_tokens": [
    {
      "id": 2511,
      "content": "[PAD]",
      "single_word": false,
      "lstrip": false,
      "rstrip": false,
      "normalized": false,
      "special": true
    },
    {
      "id": 7545,
      "content": "[SEP]",
      "single_word": false,
      "lstrip": false,
      "rstrip": false,
      "normalized": false,
      "special": true
    },
    {
      "id": 13338,
      "content": "[UNK]",
      "single_word": false,
      "lstrip": false,
      "rstrip": false,
      "normalized": false,
      "special": true
    },
    {
      "id": 15152,
      "content": "[CLS]",
      "single_word": false,
      "lstrip": false,
      "rstrip": false,
      "normalized": false,
      "special": true
    },
    {
      "id": 16155,
      "content": "[MASK]",
      "single_word": false,
      "lstrip": false,
      "rstrip": false,
      "normalized": false,
      "special": true
    }
  ],
  "normalizer": {
    "type": "Sequence",
    "normalizers": [
      {
        "type": "NFD"
      },
      {
        "type": "Lowercase"
      },
      {
        "type": "StripAccents"
      }
    ]
  },
  "pre_tokenizer": {
    "type": "Sequence",
    "pretokenizers": [
      {
        "type": "Metaspace",
        "replacement": "▁",
        "prepend_scheme": "always",
        "split": true
      }
    ]
  },
  "post_processor": {
    "type": "TemplateProcessing",
    "single": [
      {
        "SpecialToken": {
          "id": "[CLS]",
          "type_id": 0
        }
      },
      {
        "Sequence": {
          "id": "A",
          "type_id": 0
        }
      },
      {
        "SpecialToken": {
          "id": "[SEP]",
          "type_id": 0
        }
      }
    ],
    "pair": [
      {
        "SpecialToken": {
          "id": "[CLS]",
          "type_id": 0
        }
      },
      {
        "Sequence": {
          "id": "A",
          "type_id": 0
        }
      },
      {
        "SpecialToken": {
          "id": "[SEP]",
          "type_id": 0
        }
      },
      {
        "Sequence": {
          "id": "B",
          "type_id": 1
        }
      },
      {
        "SpecialToken": {
          "id": "[SEP]",
          "type_id": 1
        }
      }
    ],
    "special_tokens": {
      "[CLS]": {
        "id": "[CLS]",
        "ids": [
          15152
        ],
        "tokens": [
          "[CLS]"
        ]
      },
      "[SEP]": {
        "id": "[SEP]",
        "ids": [
          7545
        ],
        "tokens": [
          "[SEP]"
        ]
      }
    }
  },
  "decoder": {
    "type": "Metaspace",
    "replacement": "▁",
    "prepend_scheme": "always",
    "split": true
  },
  "model": {
    "type": "Unigram",
    "unk_id": 13338,
    "vocab": [
      [
        "▁lecture",
        -11.062685060661808
      ],
      [
        "▁laboratori",
        -13.657287253792244
      ],
      [
        "-mak",
        -12.309672870686828
      ],
      [
        "▁0590",
        -13.23014613029047
      ],
      [
        "▁californian",
        -12.492171789773817
      ],
      [
        "▁guide",
        -10.144948422332916
      ],
      [
        "▁mathematician",
        -10.751547716110654
      ],
      [
        "▁replie",
        -11.071699002487936
      ],
      [
        "▁restaurant",
        -8.39409008614313
      ],
      [
        "▁stand",
        -11.833815694314197
      ],
      [
        "▁outlier",
        -11.488646717459131
      ],
      [
        "▁visual",
        -10.029317816851844
      ],
      [
        "▁fanc",
        -11.042150177949145
      ],
      [
        "▁gcp",
        -10.672692414624997
      ],
      [
        "▁curtain",
        -10.942058667046394
      ],
      [
        "camo",
        -10.840563008517965
      ],
      [
        "▁resent",
        -11.488005653923908
      ],
      [
        "▁inter",
        -11.373820383720101
      ],
      [
        "hours",
        -10.16992125236785
      ],
      [
        "▁gross",
        -10.224536830485428
      ],
      [
        "think",
        -13.692411686323432
      ],
      [
        "nato",
        -9.888938337747383
      ],
      [
        "▁proclaime",
        -12.081224415468315
      ],
      [
        "▁braz",
        -12.774198452283276
      ],
      [
        "3.1",
        -12.945575938572823
      ],
      [
        "igraphi",
        -12.647068339736583
      ],
      [
        "interrupt",
        -12.731846027253649
      ],
      [
        "ore",
        -12.117485135914382
      ],
      [
        "▁hamster",
        -9.843941281837537
      ],
      [
        "▁movie",
        -8.363186636855877
      ],
      [
        "▁haha",
        -11.178677432119862
      ],
      [
        "say",
        -13.11618404827498
      ],
      [
        "▁exacerbat",
        -13.42186416908996
      ],
      [
        "▁iraq",
        -8.253441593690567
      ],
      [
        "110",
        -13.650665772775568
      ],
      [
        "dding",
        -13.192298373781624
      ],
      [
        "▁integrate",
        -10.225495022777668
      ],
      [
        "▁trivial",
        -11.693632267381298
      ],
      [
        "▁reduce",
        -9.616333799366057
      ],
      [
        "▁difficult",
        -8.435914910975828
      ],
      [
        "▁av",
        -12.445582822191241
      ],
      [
        "▁mutual",
        -10.751149822589523
      ],
      [
        "▁artistic",
        -10.453944444993086
      ],
      [
        "▁ticket",
        -8.544847712256324
      ],
      [
        ".net",
        -9.877666652163686
      ],
      [
        "helm",
        -12.842436178964565
      ],
      [
        "▁balan",
        -12.837153324435182
      ],
      [
        "▁time",
        -6.054740168174589
      ],
      [
        "▁arbitrat",
        -11.937692685553339
      ],
      [
        "▁fli",
        -13.085104246568743
      ],
      [
        "▁exclud",
        -11.715271710297396
      ],
      [
        "▁realit",
        -10.634856786492822
      ],
      [
        "▁pears",
        -12.877602439440885
      ],
      [
        "▁aches",
        -13.027057849132062
      ],
      [
        "▁gulli",
        -13.363614489063378
      ],
      [
        "▁constrain",
        -12.78344685689847
      ],
      [
        "▁40",
        -10.154022803970175
      ],
      [
        "▁locomoti",
        -10.667814733960263
      ],
      [
        "ausch",
        -12.819351779634646
      ],
      [
        "▁mur",
        -11.069118373530443
      ],
      [
        "vin",
        -12.001076051216181
      ],
      [
        "▁sill",
        -9.580004772762646
      ],
      [
        "▁kirk",
        -12.27103809382404
      ],
      [
        "▁studie",
        -8.593684415209536
      ],
      [
        "enne",
        -12.69757171824326
      ],
      [
        "▁axi",
        -11.32565827774096
      ],
      [
        "▁exhausti",
        -12.878377866294262
      ],
      [
        "thr",
        -11.182826915678534
      ],
      [
        "▁spontaneous",
        -12.271251722246493
      ],
      [
        "▁plane",
        -8.978943073873094
      ],
      [
        "load",
        -11.278744779526717
      ],
      [
        "virus",
        -11.447971460241238
      ],
      [
        "▁hypno",
        -11.86918327780393
      ],
      [
        "▁hi",
        -8.204976675280243
      ],
      [
        "▁melan",
        -11.929075192440001
      ],
      [
        "▁banjo",
        -10.667830943818135
      ],
      [
        "▁autobiograph",
        -11.487691595663764
      ],
      [
        "▁creden",
        -12.280739245859033
      ],
      [
        "▁pagan",
        -12.303000076414268
      ],
      [
        "▁lucr",
        -13.025049192772455
      ],
      [
        "▁local",
        -8.25082339332667
      ],
      [
        "values",
        -11.227392804242173
      ],
      [
        "▁p",
        -7.99721197533809
      ],
      [
        "▁embark",
        -11.70520964304383
      ],
      [
        "=============",
        -11.216882392454107
      ],
      [
        "▁moth",
        -11.368279745969584
      ],
      [
        "rdon",
        -9.948414300064211
      ],
      [
        "o",
        -8.471522179778706
      ],
      [
        "▁derive",
        -10.942440777818316
      ],
      [
        "▁sneaker",
        -11.325369550689862
      ],
      [
        "restrict",
        -12.732991641663252
      ],
      [
        "anastacio",
        -12.771024919062931
      ],
      [
        "▁23",
        -10.030498826871938
      ],
      [
        "▁nov",
        -8.694879589491203
      ],
      [
        "▁angl",
        -11.669360174137005
      ],
      [
        "▁frown",
        -11.688108518753008
      ],
      [
        "com",
        -10.643773713043274
      ],
      [
        "▁cardi",
        -12.319417623416184
      ],
      [
        "▁finance",
        -9.466433142209947
      ],
      [
        "▁96",
        -12.535367664760887
      ],
      [
        "▁attraction",
        -11.181534222992804
      ],
      [
        "▁native",
        -10.036967578592737
      ],
      [
        "▁ecolog",
        -11.833286968919197
      ],
      [
        "market",
        -12.732971453281106
      ],
      [
        "books",
        -11.762608944618254
      ],
      [
        "▁chic",
        -8.197246479460071
      ],
      [
        "▁improv",
        -9.897697385538121
      ],
      [
        "▁donate",
        -10.84383926527133
      ],
      [
        "▁astronomer",
        -12.276471620353146
      ],
      [
        "▁mommy",
        -6.702942094798406
      ],
      [
        "▁viewer",
        -12.746036209888683
      ],
      [
        "ul",
        -12.818709659508759
      ],
      [
        "▁national",
        -8.029998456350405
      ],
      [
        "▁lavo",
        -12.27279697459836
      ],
      [
        "▁game",
        -7.563309526359715
      ],
      [
        "▁ti",
        -10.395153901910508
      ],
      [
        "▁grand",
        -9.469911329115911
      ],
      [
        "shop",
        -11.057537798189792
      ],
      [
        "▁tol",
        -7.595494248611661
      ],
      [
        "▁gain",
        -9.293364132489726
      ],
      [
        "▁worth",
        -8.081242473291386
      ],
      [
        "▁oversea",
        -10.751270459834956
      ],
      [
        "fill",
        -11.021985724068747
      ],
      [
        "olshe",
        -13.00913674189395
      ],
      [
        "scholar",
        -13.733420412639683
      ],
      [
        "▁noise",
        -9.093442802863276
      ],
      [
        "day",
        -9.371424860343037
      ],
      [
        "theonereasonwhy.",
        -12.771024918880485
      ],
      [
        "▁wiki",
        -9.177953407526243
      ],
      [
        "▁d'en",
        -12.776209639292725
      ],
      [
        "tinent",
        -12.779538287096296
      ],
      [
        "▁cit",
        -10.083931976149627
      ],
      [
        "▁mcc",
        -12.77476264085319
      ],
      [
        "▁parakeet",
        -10.519464654484405
      ],
      [
        "▁convinc",
        -11.088596809831255
      ],
      [
        "uble",
        -12.131659261594056
      ],
      [
        "▁absolute",
        -9.142011704419277
      ],
      [
        "▁blou",
        -10.666373836832495
      ],
      [
        "▁artichoke",
        -11.93770571776316
      ],
      [
        "▁conn",
        -12.449405410852155
      ],
      [
        "▁indis",
        -13.315044590863128
      ],
      [
        "▁phenolog",
        -12.809005262541204
      ],
      [
        "▁ruin",
        -9.954846566108902
      ],
      [
        "▁fertilize",
        -11.492027139657836
      ],
      [
        "▁metaphor",
        -11.687691644989723
      ],
      [
        "unh",
        -12.090958139393953
      ],
      [
        "-6",
        -12.344996043092538
      ],
      [
        "sympto",
        -12.270768256746653
      ],
      [
        "▁detaine",
        -12.164690452277041
      ],
      [
        "▁cass",
        -11.710389384462639
      ],
      [
        "▁deep-",
        -12.808881073814074
      ],
      [
        "α",
        -11.833785825395173
      ],
      [
        "▁us",
        -9.506253679050264
      ],
      [
        "▁similar",
        -8.924421896194195
      ],
      [
        "▁dra",
        -11.397091660772798
      ],
      [
        "▁predestin",
        -12.271035396917172
      ],
      [
        "un",
        -13.859809042619558
      ],
      [
        "res",
        -12.026607706014804
      ],
      [
        "▁lawless",
        -12.291254497492416
      ],
      [
        "▁energetic",
        -11.937693221277819
      ],
      [
        "▁ours",
        -11.486000418694196
      ],
      [
        "camp",
        -13.619215196533876
      ],
      [
        "▁insens",
        -13.455130842511771
      ],
      [
        "▁prevail",
        -10.84205671106693
      ],
      [
        "eye",
        -12.03173654359087
      ],
      [
        "!",
        -11.178167775983392
      ],
      [
        "▁rumour",
        -12.271153064955444
      ],
      [
        "▁reservation",
        -10.390348006342139
      ],
      [
        "▁buch",
        -12.412384750372912
      ],
      [
        "allen",
        -11.914895926841915
      ],
      [
        "guardia",
        -13.728510769077007
      ],
      [
        "▁zippe",
        -11.698679750705637
      ],
      [
        "▁preparation",
        -10.520806786278513
      ],
      [
        "ola",
        -10.783058893476133
      ],
      [
        "▁alter",
        -10.403380494915734
      ],
      [
        "▁implement",
        -8.856511394801277
      ],
      [
        "ight",
        -12.834719490624838
      ],
      [
        "lain",
        -11.422230113902513
      ],
      [
        "▁borenste",
        -12.791196698407104
      ],
      [
        "meeting",
        -11.649242582286828
      ],
      [
        "▁resid",
        -12.865785721178497
      ],
      [
        "▁nutrient",
        -11.937691710723783
      ],
      [
        "mo",
        -11.05508503396024
      ],
      [
        "▁setting",
        -9.424883273759944
      ],
      [
        "eur",
        -12.843554417548672
      ],
      [
        "st",
        -6.977518478567194
      ],
      [
        "▁fur",
        -10.596185318690862
      ],
      [
        "urious",
        -12.810277546503793
      ],
      [
        "▁luc",
        -10.638815121963134
      ],
      [
        "▁mother",
        -7.812138938352064
      ],
      [
        "▁iu",
        -11.539925515610605
      ],
      [
        "ime",
        -13.080672935516295
      ],
      [
        "▁often",
        -8.173228646592644
      ],
      [
        "you",
        -7.21641018486248
      ],
      [
        "bour",
        -12.893802995704762
      ],
      [
        "▁disclose",
        -11.491963407629193
      ],
      [
        "▁graphic",
        -10.399808647526124
      ],
      [
        "1:1",
        -14.344002145884028
      ],
      [
        "▁cancell",
        -11.973609498385768
      ],
      [
        "emp",
        -13.622027445582287
      ],
      [
        "▁imperil",
        -12.773353632646907
      ],
      [
        "▁cricket",
        -11.053168092673815
      ],
      [
        "▁calcu",
        -12.77426607617026
      ],
      [
        "▁musli",
        -12.786967680360593
      ],
      [
        "▁dislocate",
        -12.771024931620786
      ],
      [
        "198",
        -12.61404466033744
      ],
      [
        "▁bees",
        -11.599280679140286
      ],
      [
        "▁vacation",
        -9.333082074703977
      ],
      [
        "______________",
        -10.890899768835993
      ],
      [
        "▁cei",
        -11.457929639250217
      ],
      [
        "▁nobili",
        -11.811258539884449
      ],
      [
        "segue",
        -12.78525320867256
      ],
      [
        "sterda",
        -8.555632458916307
      ],
      [
        "▁rabbi",
        -12.266298057650832
      ],
      [
        "▁masque",
        -12.771931039588504
      ],
      [
        "静",
        -12.833785825435129
      ],
      [
        "▁behesht",
        -12.771025117883376
      ],
      [
        "arawa",
        -12.91767832023155
      ],
      [
        "▁desperate",
        -10.173994442751965
      ],
      [
        "▁talbot",
        -12.771190831514769
      ],
      [
        "▁hun",
        -12.846550262916319
      ],
      [
        "/obi",
        -13.6007465214918
      ],
      [
        "▁713-6",
        -13.034209030646092
      ],
      [
        "088",
        -14.609238966070613
      ],
      [
        "ida",
        -10.104367638237713
      ],
      [
        "▁cream",
        -9.468672313118818
      ],
      [
        "sullivan",
        -11.687691588318703
      ],
      [
        "1000",
        -13.790121036013629
      ],
      [
        "motion",
        -13.457712457585467
      ],
      [
        "▁postcard",
        -12.271915055074013
      ],
      [
        "▁capacit",
        -9.214118143832536
      ],
      [
        "▁painful",
        -11.05509803109391
      ],
      [
        "▁cp",
        -10.326434954020906
      ],
      [
        "▁selection",
        -9.996034180621955
      ],
      [
        "▁cordi",
        -12.935986826179583
      ],
      [
        "kaffee",
        -12.771025620563178
      ],
      [
        "-yellow",
        -12.271025207604564
      ],
      [
        "▁rapaci",
        -12.784294843183552
      ],
      [
        "▁modest",
        -11.065291348369232
      ],
      [
        "▁amaze",
        -10.94211908658654
      ],
      [
        "▁asia",
        -9.917784971625835
      ],
      [
        "ross",
        -12.188308266702965
      ],
      [
        "forma",
        -12.83984713007082
      ],
      [
        "▁pool",
        -9.758339218205256
      ],
      [
        "▁choos",
        -11.321835766690214
      ],
      [
        "ar",
        -8.96739030467699
      ],
      [
        "xe",
        -12.893327268062437
      ],
      [
        "▁dialect",
        -11.937746374838273
      ],
      [
        "prioritise",
        -13.731102570555928
      ],
      [
        "c.gc.ca/english/",
        -11.937691585523206
      ],
      [
        "▁tian",
        -12.894625845755996
      ],
      [
        "▁replication",
        -9.776051294992293
      ],
      [
        "▁nylon",
        -11.181240395143025
      ],
      [
        "arguabl",
        -12.771771122554654
      ],
      [
        "▁3",
        -10.461879651757403
      ],
      [
        "!!!!!!!!!!!",
        -12.790094382530567
      ],
      [
        "▁arie",
        -12.110418550522521
      ],
      [
        "▁embod",
        -12.789270711106912
      ],
      [
        "ise",
        -12.797657598535169
      ],
      [
        "▁z",
        -10.946294564368745
      ],
      [
        "483",
        -13.516001727325241
      ],
      [
        "▁rewind",
        -11.93769560429775
      ],
      [
        "asia",
        -12.744057399790274
      ],
      [
        "▁fry",
        -11.17076781222403
      ],
      [
        "▁initial",
        -9.05863298986868
      ],
      [
        "▁waz",
        -12.323565260662406
      ],
      [
        "orefront",
        -12.842924309566747
      ],
      [
        "▁abs",
        -12.172012380966095
      ],
      [
        "▁wound",
        -10.223545164873164
      ],
      [
        "▁partners",
        -10.467435475781038
      ],
      [
        "▁lemel",
        -11.963206648551514
      ],
      [
        "▁195",
        -10.468279737945544
      ],
      [
        "presso",
        -12.771352547462829
      ],
      [
        "▁allowed",
        -9.149209110705701
      ],
      [
        "▁violent",
        -10.282095711732296
      ],
      [
        "▁adorn",
        -11.688121097750706
      ],
      [
        "▁jer",
        -9.917822777758392
      ],
      [
        "dication",
        -12.131502102858791
      ],
      [
        "▁tim",
        -12.02129666353974
      ],
      [
        "spoon",
        -13.73399690949839
      ],
      [
        "▁door",
        -8.056185438639002
      ],
      [
        "▁raphael",
        -10.942056666600468
      ],
      [
        "weed",
        -12.798595628670865
      ],
      [
        "clusive",
        -11.010709689408294
      ],
      [
        "▁encounter",
        -10.519481717260035
      ],
      [
        "▁pack",
        -9.025716482537593
      ],
      [
        "▁wrong",
        -8.554156676775882
      ],
      [
        "▁proficien",
        -11.178168628625103
      ],
      [
        "unci",
        -11.178174781498589
      ],
      [
        "▁franz",
        -11.687868312364142
      ],
      [
        "mcgilloway",
        -11.937691636324619
      ],
      [
        "▁offworlder",
        -12.771034222946556
      ],
      [
        "al",
        -6.318447710076002
      ],
      [
        "▁small",
        -7.449204461528797
      ],
      [
        "▁bang",
        -9.917085615951471
      ],
      [
        "▁clown",
        -10.390318885566156
      ],
      [
        "cover",
        -12.253630847913257
      ],
      [
        "▁cyan",
        -12.775040474635752
      ],
      [
        "▁shuttle",
        -10.751163700487387
      ],
      [
        "otto",
        -13.575182211495106
      ],
      [
        "748",
        -13.395315422654793
      ],
      [
        "akin",
        -12.199266592263612
      ],
      [
        "ma",
        -9.055443963755973
      ],
      [
        "▁gust",
        -12.770273802889172
      ],
      [
        "egal",
        -13.357551729436645
      ],
      [
        "▁[",
        -8.845600951931221
      ],
      [
        "mor",
        -12.96230066143719
      ],
      [
        "▁35",
        -10.996138419717752
      ],
      [
        "▁w.h.",
        -12.780565555643186
      ],
      [
        "▁205",
        -12.660918673195054
      ],
      [
        "▁traffick",
        -11.207373551141597
      ],
      [
        "▁72",
        -11.72534548547318
      ],
      [
        "▁testify",
        -12.291363733919935
      ],
      [
        "▁quartile",
        -10.037684636047572
      ],
      [
        "▁jason",
        -10.036828463876455
      ],
      [
        "▁test",
        -8.102736541399087
      ],
      [
        "-46",
        -14.683129009797762
      ],
      [
        "-conference",
        -12.912650245936517
      ],
      [
        "hasti",
        -13.271209397340836
      ],
      [
        "▁resembl",
        -12.202731858114417
      ],
      [
        "▁proponent",
        -11.487691711156193
      ],
      [
        "▁organization",
        -9.075311089549281
      ],
      [
        "▁heavy",
        -9.232981354789754
      ],
      [
        "▁tow",
        -9.592359355769688
      ],
      [
        "▁chest",
        -10.177852097819903
      ],
      [
        "tab",
        -11.57380094685339
      ],
      [
        "▁comm",
        -12.579621450736289
      ],
      [
        "▁buy",
        -7.864138833450504
      ],
      [
        "▁nanc",
        -10.881533727840322
      ],
      [
        "effective",
        -12.232728037398878
      ],
      [
        "▁plum",
        -11.918592496237574
      ],
      [
        "▁uh",
        -7.2775824444014905
      ],
      [
        "▁starch",
        -11.498594797444333
      ],
      [
        "▁03:",
        -11.982710755806442
      ],
      [
        "▁supervise",
        -13.002471226300772
      ],
      [
        "▁appointe",
        -10.836190664599416
      ],
      [
        "▁monaster",
        -11.057159276958576
      ],
      [
        "▁accommodation",
        -10.667953117261513
      ],
      [
        "▁harmon",
        -11.02123024358648
      ],
      [
        "▁meeting",
        -8.344655732224714
      ],
      [
        "▁logic",
        -11.677499407428181
      ],
      [
        "▁berger",
        -13.001251160695189
      ],
      [
        "ear",
        -13.112130995609686
      ],
      [
        "▁reassign",
        -12.771026103994899
      ],
      [
        "▁wagon",
        -10.668728497687507
      ],
      [
        "▁astronaut",
        -11.178168687060532
      ],
      [
        "▁saddam",
        -10.081208161847984
      ],
      [
        "▁flores",
        -13.216653645348421
      ],
      [
        "matche",
        -13.249431001331686
      ],
      [
        "▁constituenc",
        -10.037084393133709
      ],
      [
        "/rp/chernobyl/c",
        -13.554489583654046
      ],
      [
        "li",
        -12.21078093944209
      ],
      [
        "▁conciliat",
        -12.271025197278872
      ],
      [
        "▁stroke",
        -11.693405665138867
      ],
      [
        ".ca",
        -13.504596162127111
      ],
      [
        "▁reconcile",
        -12.406766007139232
      ],
      [
        "▁centralize",
        -12.302149794660517
      ],
      [
        "▁subscribe",
        -9.9188834545957
      ],
      [
        "▁fro",
        -12.817060613978423
      ],
      [
        "▁deregulat",
        -13.266081564732525
      ],
      [
        "▁micron",
        -11.733304208470418
      ],
      [
        "inky",
        -12.906921615513724
      ],
      [
        "▁l.",
        -10.803519393302707
      ],
      [
        "ini",
        -11.5849967716095
      ],
      [
        "▁plot",
        -10.320614609990468
      ],
      [
        "▁cord",
        -10.64144667426995
      ],
      [
        "▁concept",
        -9.155647334604968
      ],
      [
        "▁react",
        -10.782584392797089
      ],
      [
        "face",
        -13.730317376017414
      ],
      [
        "1-51",
        -14.136826951535193
      ],
      [
        "▁aroma",
        -11.796631235675795
      ],
      [
        "▁5.1",
        -13.468397919273812
      ],
      [
        "▁discusse",
        -12.306132172012184
      ],
      [
        "▁wiggle",
        -9.95616302032171
      ],
      [
        "▁mohamm",
        -10.082486381442713
      ],
      [
        "▁not",
        -5.826808915645819
      ],
      [
        "▁lis",
        -12.513863069584026
      ],
      [
        "t",
        -5.439273715246179
      ],
      [
        "▁propert",
        -8.364605058753625
      ],
      [
        "▁roma",
        -12.069819432534917
      ],
      [
        "▁mirand",
        -12.773050144894743
      ],
      [
        "▁mater",
        -12.800149542408803
      ],
      [
        "▁proto",
        -11.141650517648351
      ],
      [
        "unja",
        -12.364357788032674
      ],
      [
        "▁“",
        -12.771025112795336
      ],
      [
        "andbag",
        -13.695582037470148
      ],
      [
        "▁unfold",
        -11.487752359147594
      ],
      [
        "920",
        -12.849170236525222
      ],
      [
        "▁president",
        -7.6833183013355795
      ],
      [
        "149",
        -13.721615169170054
      ],
      [
        "▁lawsuit",
        -11.321025422997854
      ],
      [
        "▁mum",
        -10.036257282629286
      ],
      [
        "▁clinic",
        -10.409610306241037
      ],
      [
        "tters",
        -11.137106520621723
      ],
      [
        "▁resc",
        -12.75939379603344
      ],
      [
        "▁chef",
        -10.591500768673246
      ],
      [
        "unga",
        -11.598701075666995
      ],
      [
        "▁jur",
        -10.97592181638819
      ],
      [
        "▁thyr",
        -11.488029890675111
      ],
      [
        "▁shoulder",
        -9.624243523675554
      ],
      [
        "▁eras",
        -11.001086616309951
      ],
      [
        "▁",
        -3.5953845689148327
      ],
      [
        "▁transition",
        -10.27843793600777
      ],
      [
        "▁exporter",
        -12.90750422009034
      ],
      [
        "▁muck",
        -12.601251921307894
      ],
      [
        "▁gnome",
        -11.178171339096032
      ],
      [
        "▁irrigat",
        -13.26152897075096
      ],
      [
        "▁8.",
        -12.090119778997186
      ],
      [
        "▁keen",
        -10.830931347045773
      ],
      [
        "▁princess",
        -11.505523470687592
      ],
      [
        "▁quarter",
        -9.791096550289211
      ],
      [
        "▁mustan",
        -12.864916644508611
      ],
      [
        "▁regret",
        -10.3165136843079
      ],
      [
        "▁greek",
        -9.744131158553541
      ],
      [
        "▁turis",
        -12.826046104154699
      ],
      [
        "▁bapti",
        -13.655618794329092
      ],
      [
        "×",
        -11.833785825435129
      ],
      [
        "▁somber",
        -12.277726987610695
      ],
      [
        "lace",
        -11.710425294845624
      ],
      [
        "and",
        -9.32630048432804
      ],
      [
        "▁unpre",
        -12.771336077243658
      ],
      [
        "443",
        -13.464541843713468
      ],
      [
        "▁inflation",
        -10.667909255758545
      ],
      [
        "▁ir",
        -10.768104120555728
      ],
      [
        "▁find",
        -6.81121792360058
      ],
      [
        "▁specify",
        -10.590922952392411
      ],
      [
        "▁maya",
        -11.117281216763045
      ],
      [
        "▁congo",
        -11.491901748209187
      ],
      [
        "▁strut",
        -12.748576056205845
      ],
      [
        "▁claus",
        -11.304718238773454
      ],
      [
        "▁feeling",
        -8.97799088836313
      ],
      [
        "/08",
        -13.1520347351975
      ],
      [
        "▁lot",
        -7.246639639650355
      ],
      [
        "▁gossip",
        -11.937739175000026
      ],
      [
        "▁anti-india",
        -12.772756866111935
      ],
      [
        "age",
        -11.003488229021976
      ],
      [
        "wt_",
        -12.778940636960305
      ],
      [
        "▁smuggle",
        -12.402818837497252
      ],
      [
        "242",
        -14.03003538722958
      ],
      [
        "erran",
        -11.103193180065318
      ],
      [
        "▁fantas",
        -9.375161815466406
      ],
      [
        "▁critical",
        -9.888653568315064
      ],
      [
        "▁kriste",
        -11.710663820186715
      ],
      [
        "=crazy+horse+mem",
        -12.771024918880496
      ],
      [
        "▁receive",
        -8.300081131345696
      ],
      [
        "bo",
        -11.596433781311086
      ],
      [
        "rabbit",
        -12.73305946595645
      ],
      [
        "sinki",
        -12.771653724427901
      ],
      [
        "oma",
        -11.493960536567004
      ],
      [
        "▁hike",
        -11.739690896863879
      ],
      [
        "hingy",
        -12.68212429047286
      ],
      [
        "▁hesitant",
        -11.957315019229805
      ],
      [
        "▁1.6",
        -12.34208568727186
      ],
      [
        "▁shy",
        -10.621931177496734
      ],
      [
        "▁heartbreak",
        -12.771115462887144
      ],
      [
        "▁hook",
        -10.60147909213132
      ],
      [
        "tru",
        -13.262215959350785
      ],
      [
        "▁interviewer",
        -11.567121367735044
      ],
      [
        "slug",
        -11.940582635009637
      ],
      [
        "▁recreat",
        -11.954055206258628
      ],
      [
        "163",
        -15.14065267998616
      ],
      [
        "▁impede",
        -12.410790770276531
      ],
      [
        "▁exceed",
        -11.0271294162327
      ],
      [
        "06",
        -12.319308541197813
      ],
      [
        "▁baha",
        -12.99453582458455
      ],
      [
        "huff",
        -12.86607409176559
      ],
      [
        "help",
        -12.757863410658857
      ],
      [
        "2208",
        -12.775984605372
      ],
      [
        "▁tata",
        -11.968912389657953
      ],
      [
        "▁watch",
        -7.621427061048742
      ],
      [
        "859",
        -12.901515156474916
      ],
      [
        "hot",
        -13.707460487042143
      ],
      [
        "rough",
        -12.356819406430677
      ],
      [
        "▁functional",
        -10.051575107512207
      ],
      [
        "poke",
        -12.619590167149642
      ],
      [
        "connected",
        -12.728831471084465
      ],
      [
        "▁publisher",
        -11.206028702013718
      ],
      [
        "lion",
        -13.148705277582641
      ],
      [
        "▁three-",
        -12.772671108940946
      ],
      [
        "▁employ",
        -9.289661121090958
      ],
      [
        "▁remember",
        -7.560807508954339
      ],
      [
        "▁goose",
        -10.668582169494577
      ],
      [
        "▁sheep",
        -10.519616089043526
      ],
      [
        "▁taj",
        -11.938513894968306
      ],
      [
        "▁wildernes",
        -11.321151851714745
      ],
      [
        "▁dealership",
        -11.178610546232036
      ],
      [
        "▁hoop",
        -11.18012619499254
      ],
      [
        "▁flutter",
        -12.27123941589335
      ],
      [
        "▁circum",
        -9.80982693806705
      ],
      [
        "▁report",
        -7.756703079653569
      ],
      [
        "leopold",
        -11.178167802950101
      ],
      [
        "▁flush",
        -11.939607688886436
      ],
      [
        "large",
        -13.724956202433454
      ],
      [
        "▁skills",
        -9.619164306622507
      ],
      [
        "▁legislature",
        -10.667848213548728
      ],
      [
        "▁chronic",
        -11.487907165035462
      ],
      [
        "▁plen",
        -11.388548403642197
      ],
      [
        "▁choi",
        -12.815946199257217
      ],
      [
        "rbi",
        -13.032216881300702
      ],
      [
        "▁gosp",
        -12.530038443230826
      ],
      [
        "▁interruption",
        -11.939564007607759
      ],
      [
        "▁inter",
        -9.813585210963854
      ],
      [
        "▁stu",
        -11.31759457752012
      ],
      [
        "▁nickel",
        -11.93838253303964
      ],
      [
        "▁predict",
        -10.037039386842535
      ],
      [
        "▁82",
        -11.78840042592635
      ],
      [
        "▁recom",
        -12.275204175594697
      ],
      [
        "▁expert",
        -9.10788336483522
      ],
      [
        "▁garner",
        -12.27130255050417
      ],
      [
        "▁bigge",
        -8.913034209574072
      ],
      [
        "▁semina",
        -11.322306382198795
      ],
      [
        "/42",
        -12.771025065226484
      ],
      [
        "16:",
        -14.198968335694197
      ],
      [
        "▁110",
        -11.62840249240278
      ],
      [
        "▁verbal",
        -12.338296817010997
      ],
      [
        "feed",
        -11.962907922445144
      ],
      [
        "▁gentil",
        -12.771603458931706
      ],
      [
        "▁hee",
        -10.928174249803982
      ],
      [
        "▁minister",
        -9.492526674323631
      ],
      [
        "▁rust",
        -11.02133753834103
      ],
      [
        "▁infinit",
        -10.667814634140324
      ],
      [
        "▁marque",
        -12.322274019944828
      ],
      [
        "▁za",
        -9.345314769480716
      ],
      [
        "burn",
        -10.813535422428844
      ],
      [
        "▁wednesday",
        -7.488361038903592
      ],
      [
        "▁pilot",
        -9.569445483337702
      ],
      [
        "ification",
        -9.9383945772699
      ],
      [
        "1507",
        -13.383298432819583
      ],
      [
        "▁embroider",
        -11.937691588600218
      ],
      [
        "▁jobs",
        -9.78172603334431
      ],
      [
        "▁nerve",
        -11.178237247629779
      ],
      [
        "tor",
        -11.456346626491944
      ],
      [
        "2000",
        -9.70736640342331
      ],
      [
        "▁canno",
        -11.334789126135108
      ],
      [
        "▁physician",
        -11.487691586311495
      ],
      [
        "1,",
        -14.673378306135053
      ],
      [
        "▁water-me",
        -12.773480330027539
      ],
      [
        "▁where",
        -8.802452388749018
      ],
      [
        "valier",
        -11.950567558924728
      ],
      [
        "▁dissolve",
        -11.40148754835313
      ],
      [
        "▁teen",
        -10.944895524863266
      ],
      [
        "redirect",
        -12.771025707124148
      ],
      [
        "▁lesson",
        -9.550908371119709
      ],
      [
        "▁dissipate",
        -13.065695784973741
      ],
      [
        "▁te",
        -11.08971161974522
      ],
      [
        "ruff",
        -12.560746892981555
      ],
      [
        "itiator",
        -12.82725593538176
      ],
      [
        "▁brood",
        -11.321167240400456
      ],
      [
        "low",
        -10.118065079366389
      ],
      [
        "ella",
        -10.560460439387477
      ],
      [
        "pass",
        -11.512859985245388
      ],
      [
        "▁mosquito",
        -9.955066742563845
      ],
      [
        "▁freel",
        -12.913328265550343
      ],
      [
        "▁phrase",
        -10.223351231550982
      ],
      [
        ".com/photos/",
        -12.77102492296562
      ],
      [
        "▁voluntar",
        -11.68769192479236
      ],
      [
        "▁ya",
        -12.898998956236886
      ],
      [
        "▁aggressive",
        -10.751323332774795
      ],
      [
        "▁kibbutz",
        -11.937691585613008
      ],
      [
        "▁fr",
        -10.15312759479927
      ],
      [
        "▁07/1",
        -11.467963282922426
      ],
      [
        "▁tens",
        -11.032199883310009
      ],
      [
        "▁stabilise",
        -13.1036295655366
      ],
      [
        "fixed",
        -12.741462143349747
      ],
      [
        "/cis_",
        -12.773514506756634
      ],
      [
        "▁mush",
        -9.810444536091484
      ],
      [
        "▁strateg",
        -9.467158613983237
      ],
      [
        "65",
        -11.062979589335495
      ],
      [
        "▁manga",
        -11.20016783724594
      ],
      [
        "▁pinkie",
        -11.453926590156454
      ],
      [
        "▁04:",
        -12.413054408096652
      ],
      [
        "range",
        -13.495520977547931
      ],
      [
        "180",
        -13.596785287478514
      ],
      [
        "▁bout",
        -11.333496370193409
      ],
      [
        "ulu",
        -13.217763064316012
      ],
      [
        "▁silver",
        -9.516899630728059
      ],
      [
        "▁250",
        -11.689807638237173
      ],
      [
        "isation",
        -10.481439928435528
      ],
      [
        "ica",
        -10.261751919190461
      ],
      [
        "coli",
        -11.937441279969983
      ],
      [
        "▁08:",
        -12.893960135802669
      ],
      [
        "▁sacre",
        -11.053242439070527
      ],
      [
        "austin",
        -10.84208763809833
      ],
      [
        "▁five",
        -12.348662870367757
      ],
      [
        "verge",
        -12.361343885650925
      ],
      [
        "▁non",
        -9.749685132467588
      ],
      [
        "20,000",
        -13.37287188539752
      ],
      [
        "▁transpose",
        -12.779547059217876
      ],
      [
        "▁entire",
        -8.666596584670653
      ],
      [
        "▁disast",
        -12.27391378041591
      ],
      [
        "▁technical",
        -9.312830918870498
      ],
      [
        "▁harsh",
        -10.94310330615195
      ],
      [
        "▁extreme",
        -8.757150600369958
      ],
      [
        "▁192",
        -11.94057202446741
      ],
      [
        "▁17",
        -10.75115699870446
      ],
      [
        "▁oxal",
        -12.286621990147633
      ],
      [
        "▁three",
        -12.044325492258448
      ],
      [
        "▁drawer",
        -10.420387563298487
      ],
      [
        "▁mohe",
        -13.555822013999574
      ],
      [
        "▁nightmare",
        -11.17818240338509
      ],
      [
        "▁evacuat",
        -13.228218055949583
      ],
      [
        "name",
        -10.581545766077529
      ],
      [
        "▁repute",
        -13.306845130208503
      ],
      [
        "▁tube",
        -10.626913835536056
      ],
      [
        "ex",
        -9.281783810318018
      ],
      [
        "▁email",
        -8.410701259766437
      ],
      [
        "▁chang",
        -9.209133462754872
      ],
      [
        "▁explore",
        -10.081695070265486
      ],
      [
        "|",
        -9.70691813184516
      ],
      [
        "van",
        -11.659009404480976
      ],
      [
        "▁outgrow",
        -11.499285824940051
      ],
      [
        "certain",
        -11.647924199123297
      ],
      [
        "▁yup",
        -11.229492143901888
      ],
      [
        "▁totalitarian",
        -11.937750620913343
      ],
      [
        "▁baron",
        -12.335433246114581
      ],
      [
        "▁connecti",
        -11.958218733354935
      ],
      [
        "▁fraction",
        -11.937858086274222
      ],
      [
        "▁dissolut",
        -12.776703269875807
      ],
      [
        "▁telephon",
        -12.7576782177688
      ],
      [
        ".2",
        -12.489296254993784
      ],
      [
        "▁takeoff",
        -11.495788062184385
      ],
      [
        "▁woo",
        -10.118959556734806
      ],
      [
        "▁italian",
        -9.624409687329804
      ],
      [
        "equil",
        -12.692823723945807
      ],
      [
        "▁curve",
        -10.02218075856428
      ],
      [
        "image",
        -10.714658452964944
      ],
      [
        "▁symmetr",
        -12.271024920464308
      ],
      [
        "▁collaborator",
        -12.771024918918709
      ],
      [
        "▁systematic",
        -10.591065759110103
      ],
      [
        "▁religion",
        -9.715578214806577
      ],
      [
        "▁majorit",
        -9.726812828059105
      ],
      [
        "▁laptop",
        -10.942089521125418
      ],
      [
        "fest",
        -13.222442906217509
      ],
      [
        "▁nest",
        -9.915997315107292
      ],
      [
        "▁w/o",
        -13.283869278045032
      ],
      [
        "▁quant",
        -12.245125858294653
      ],
      [
        "fucking",
        -10.79134970705356
      ],
      [
        "▁penin",
        -12.353369838340193
      ],
      [
        "▁infring",
        -12.771039940161284
      ],
      [
        "▁global",
        -8.645282012836228
      ],
      [
        "▁fell",
        -8.648270625618466
      ],
      [
        "arriage",
        -10.982246373060672
      ],
      [
        "▁gleam",
        -11.321197442827945
      ],
      [
        "vice",
        -11.191881549030615
      ],
      [
        "▁xf",
        -12.244785283033908
      ],
      [
        "icken",
        -11.958201771072307
      ],
      [
        "0s",
        -12.545402066479033
      ],
      [
        "▁opposit",
        -10.95207407749825
      ],
      [
        "▁mumm",
        -8.373837745917195
      ],
      [
        "▁rare",
        -9.653004037665523
      ],
      [
        "▁atroph",
        -11.726091872422073
      ],
      [
        "▁unwitting",
        -12.771062751422958
      ],
      [
        "roth",
        -12.890188851298463
      ],
      [
        "▁bank",
        -9.00153645041895
      ],
      [
        "▁divin",
        -13.592415671010013
      ],
      [
        "▁abuse",
        -10.345321895008418
      ],
      [
        "siez",
        -12.791893870714688
      ],
      [
        "▁pron",
        -10.926128996817965
      ],
      [
        "▁finding",
        -9.374402332734244
      ],
      [
        "▁avers",
        -12.318227466544139
      ],
      [
        "terre",
        -12.896923505887434
      ],
      [
        "gence",
        -11.491501687445227
      ],
      [
        "▁prospect",
        -10.455079987790441
      ],
      [
        "▁appendi",
        -12.280225973087788
      ],
      [
        "▁53",
        -11.83521502435301
      ],
      [
        "▁disappear",
        -9.955066741115296
      ],
      [
        "▁digi",
        -12.626482661853455
      ],
      [
        "bber",
        -12.992996092407184
      ],
      [
        "---=",
        -11.82789170959216
      ],
      [
        "▁5.8",
        -13.211594130304274
      ],
      [
        "▁context",
        -9.468111161291088
      ],
      [
        "t&",
        -11.970752693303178
      ],
      [
        "▁part",
        -7.113115372617954
      ],
      [
        "▁emperor",
        -10.331472400214706
      ],
      [
        "▁crazie",
        -13.694314544563515
      ],
      [
        "-care",
        -12.776627227982946
      ],
      [
        "▁del",
        -9.898906832851171
      ],
      [
        "▁consistent",
        -10.174166794780154
      ],
      [
        "iff",
        -11.831631302020558
      ],
      [
        "▁jet",
        -10.750246815336496
      ],
      [
        "▁gov",
        -11.921807981701384
      ],
      [
        "▁school",
        -7.186223626268099
      ],
      [
        "ance",
        -7.981951880339642
      ],
      [
        "value",
        -12.204619875422917
      ],
      [
        "hospita",
        -13.725224559627273
      ],
      [
        "▁furnish",
        -12.243776509237803
      ],
      [
        "▁stylis",
        -12.645998451429326
      ],
      [
        "▁libert",
        -9.967288797522286
      ],
      [
        "prudent",
        -13.729840955330696
      ],
      [
        "▁whim",
        -12.274507317133391
      ],
      [
        "her",
        -7.767715035430992
      ],
      [
        "▁budget",
        -9.468276623765318
      ],
      [
        "regardles",
        -12.54007091594521
      ],
      [
        "▁apath",
        -12.777957710944483
      ],
      [
        "▁per",
        -10.524772088798718
      ],
      [
        "▁venu",
        -11.156537059213145
      ],
      [
        "lic",
        -11.564883093432268
      ],
      [
        "▁on",
        -6.550142793062951
      ],
      [
        "▁10/2",
        -13.225127566197031
      ],
      [
        "▁kos",
        -12.053302668939516
      ],
      [
        "▁haze",
        -12.46094630832275
      ],
      [
        "▁cloth",
        -9.422205773958602
      ],
      [
        "▁tre",
        -10.433931187374682
      ],
      [
        "▁discour",
        -11.556050089545849
      ],
      [
        "tra",
        -9.657570608654877
      ],
      [
        "▁relentless",
        -11.48772162555585
      ],
      [
        "son@",
        -12.833766077176563
      ],
      [
        "▁islami",
        -9.733033555520848
      ],
      [
        "sum",
        -12.188254551844796
      ],
      [
        "proposal",
        -12.73302401897148
      ],
      [
        "▁aka",
        -10.997859791753154
      ],
      [
        "▁alex",
        -11.178256264529221
      ],
      [
        "▁extension",
        -10.751266791204857
      ],
      [
        "▁bangladeshi",
        -11.496014891222265
      ],
      [
        "handa",
        -12.373084785685476
      ],
      [
        "▁steps",
        -9.433483485824073
      ],
      [
        "▁biod",
        -12.00730973137312
      ],
      [
        "▁yellow-",
        -12.821431020092982
      ],
      [
        "▁sandi",
        -12.526209662785803
      ],
      [
        "clair",
        -10.552454576473368
      ],
      [
        "▁rub",
        -10.093793590184694
      ],
      [
        "▁shock",
        -9.747166055333942
      ],
      [
        "zar",
        -13.205573183880139
      ],
      [
        "rung",
        -13.657164772236564
      ],
      [
        "▁clo",
        -11.81087216291333
      ],
      [
        "atman",
        -12.15820303983903
      ],
      [
        "expo",
        -13.732844156960525
      ],
      [
        "ors",
        -9.965924980938313
      ],
      [
        "▁payer",
        -12.29414416136568
      ],
      [
        "▁bak",
        -9.991780067142807
      ],
      [
        "▁chop",
        -11.687397047863259
      ],
      [
        "anism",
        -13.443901295851898
      ],
      [
        "osaur",
        -12.051742496164827
      ],
      [
        "▁originate",
        -11.404836597077162
      ],
      [
        "-me",
        -12.969016730420222
      ],
      [
        "▁troop",
        -9.896413368586819
      ],
      [
        "variation",
        -13.733760285247545
      ],
      [
        "il",
        -10.299175791775342
      ],
      [
        "well",
        -10.547416033661259
      ],
      [
        "▁par",
        -10.847458532643536
      ],
      [
        "▁violate",
        -12.85446095933439
      ],
      [
        "▁long",
        -6.7276208226665855
      ],
      [
        "▁36",
        -11.01212807405217
      ],
      [
        "phase",
        -12.735318504479226
      ],
      [
        "brook",
        -12.732567250644616
      ],
      [
        "▁mid-j",
        -12.834033315490192
      ],
      [
        "▁univers",
        -10.623018325888442
      ],
      [
        "▁hussein",
        -10.751147785192318
      ],
      [
        "▁spani",
        -9.684868326677664
      ],
      [
        "henna",
        -13.45929112709353
      ],
      [
        "rhyme",
        -13.732812762311845
      ],
      [
        "1918",
        -11.546116586931637
      ],
      [
        "▁hat",
        -8.497842149105196
      ],
      [
        "▁tw",
        -10.622480234378944
      ],
      [
        "term",
        -11.909402883056751
      ],
      [
        "▁beater",
        -11.071457330727371
      ],
      [
        "des",
        -12.595929635241497
      ],
      [
        "▁thrash",
        -12.771226365631534
      ],
      [
        "▁shower",
        -9.801393808577973
      ],
      [
        "▁trap",
        -10.971165014040334
      ],
      [
        "▁immortal",
        -11.487691597689018
      ],
      [
        "▁12/26/200",
        -12.666535639137336
      ],
      [
        "▁t",
        -11.219338199887599
      ],
      [
        "atic",
        -11.34346250656026
      ],
      [
        "xite",
        -13.235557595511027
      ],
      [
        "▁11:2",
        -12.486466669457384
      ],
      [
        "▁pois",
        -11.333552217442818
      ],
      [
        "0072",
        -13.439753158054558
      ],
      [
        "ception",
        -12.086098978870893
      ],
      [
        "▁brun",
        -12.309098353707226
      ],
      [
        "had",
        -12.799048928546274
      ],
      [
        "▁glu",
        -12.702890740180552
      ],
      [
        "▁dunn",
        -10.752510584752756
      ],
      [
        "▁dangerous",
        -9.196439492326162
      ],
      [
        "▁muc",
        -6.861187681563362
      ],
      [
        "▁counteract",
        -12.368210479537868
      ],
      [
        "▁impeach",
        -11.178200230516865
      ],
      [
        "1",
        -7.526925805932847
      ],
      [
        "▁inherit",
        -11.487282987853876
      ],
      [
        "mbre",
        -11.926884786890046
      ],
      [
        "105",
        -12.771349520021655
      ],
      [
        "▁backward",
        -10.669225068472619
      ],
      [
        "▁untouch",
        -12.27167724686408
      ],
      [
        "id=1361",
        -12.771024918880496
      ],
      [
        "scheu",
        -12.279918277959025
      ],
      [
        ")",
        -11.178167775983392
      ],
      [
        "$",
        -11.207611201618214
      ],
      [
        "▁spice",
        -11.071789790476135
      ],
      [
        ".....",
        -12.026024489186744
      ],
      [
        "▁beside",
        -11.694727223843978
      ],
      [
        "▁eight",
        -9.500368245131755
      ],
      [
        "▁---",
        -13.066352447763771
      ],
      [
        "▁lent",
        -11.93777440145236
      ],
      [
        "▁thir",
        -12.75873470157089
      ],
      [
        "6-9",
        -12.684351220659938
      ],
      [
        "ulation",
        -12.059833895601844
      ],
      [
        "▁opponent",
        -11.053167776716833
      ],
      [
        "workers",
        -9.976283657654891
      ],
      [
        "iya",
        -11.426957216373987
      ],
      [
        "▁duckie",
        -10.78527045741431
      ],
      [
        "▁yoshi",
        -12.771090783141757
      ],
      [
        "▁policy",
        -8.834248758544806
      ],
      [
        "▁exemplifie",
        -12.27103247125977
      ],
      [
        "▁bere",
        -13.626773733586651
      ],
      [
        "thecatal",
        -12.27108504020287
      ],
      [
        "▁arab",
        -9.128176716430367
      ],
      [
        "tiers",
        -13.249062264178804
      ],
      [
        "▁thorn",
        -12.77457899405827
      ],
      [
        "▁menu",
        -9.520241110177391
      ],
      [
        "broad",
        -10.413503207281137
      ],
      [
        "▁historical",
        -9.662550528221812
      ],
      [
        "▁tragic",
        -11.053173151640726
      ],
      [
        "▁n'",
        -6.273185656304505
      ],
      [
        "bound",
        -11.282722482673728
      ],
      [
        "▁mohi",
        -11.730185132295466
      ],
      [
        "▁force",
        -8.133142067893246
      ],
      [
        "▁tycoon",
        -12.771025597227654
      ],
      [
        "▁lat",
        -12.933815650228096
      ],
      [
        "▁phy",
        -13.183882944274552
      ],
      [
        "▁resource",
        -9.387251370215486
      ],
      [
        "▁satellite",
        -10.519462610173806
      ],
      [
        "made",
        -11.45093291144027
      ],
      [
        "▁dramatic",
        -10.332964478970426
      ],
      [
        "▁cal",
        -11.056606812676215
      ],
      [
        "▁galle",
        -12.812421025290538
      ],
      [
        "▁tho",
        -12.071273663347695
      ],
      [
        "▁declin",
        -12.01961338483359
      ],
      [
        "winds",
        -11.651785058686649
      ],
      [
        "▁casualt",
        -11.227938671330028
      ],
      [
        "987",
        -14.893421856703934
      ],
      [
        "▁tile",
        -10.848793776071338
      ],
      [
        "▁penny",
        -9.91156153429733
      ],
      [
        "▁salon",
        -10.038080637029447
      ],
      [
        "▁dare",
        -11.45357958879316
      ],
      [
        "orne",
        -13.221746215061522
      ],
      [
        "▁invoice",
        -10.790788880538244
      ],
      [
        "▁retro",
        -12.269889917208586
      ],
      [
        "▁committe",
        -10.351656520480415
      ],
      [
        "▁high-",
        -12.455189941450666
      ],
      [
        "▁mat",
        -11.223764871433561
      ],
      [
        "▁hamburg",
        -11.685284765909786
      ],
      [
        "d2",
        -11.807849006857676
      ],
      [
        "▁funn",
        -8.620876673725245
      ],
      [
        "▁terminate",
        -11.49048605038291
      ],
      [
        "▁chose",
        -9.917079591565226
      ],
      [
        "ga",
        -10.834148832479924
      ],
      [
        "▁eligib",
        -11.178197655152236
      ],
      [
        "0",
        -10.782683652942984
      ],
      [
        "190",
        -13.810053399207337
      ],
      [
        "a",
        -5.179057349082102
      ],
      [
        "▁cook",
        -8.626932504004559
      ],
      [
        "▁glamo",
        -11.266221202787714
      ],
      [
        "ahar",
        -11.388611029015493
      ],
      [
        "hahar",
        -11.670478463153593
      ],
      [
        "▁frolick",
        -12.77102504966894
      ],
      [
        "¢",
        -12.833785825435129
      ],
      [
        "▁dec",
        -8.830716399304265
      ],
      [
        "▁articulat",
        -11.937691631715081
      ],
      [
        "▁inhuman",
        -12.27372883209317
      ],
      [
        "ward",
        -11.834056055878488
      ],
      [
        "windle",
        -12.77113824020877
      ],
      [
        "rs.",
        -11.880176496193753
      ],
      [
        "▁throat",
        -10.125688908731657
      ],
      [
        "▁chapel",
        -11.943417434414169
      ],
      [
        "▁k.",
        -12.828181143837684
      ],
      [
        "▁dump",
        -10.331495707069154
      ],
      [
        "gali",
        -13.447871901589606
      ],
      [
        "location",
        -11.55925886484914
      ],
      [
        "▁nomin",
        -13.485055030865228
      ],
      [
        "▁stop",
        -7.607157910529008
      ],
      [
        ".78",
        -14.474818416915445
      ],
      [
        "6:5",
        -14.245778065733244
      ],
      [
        "uer",
        -12.854866086941115
      ],
      [
        "'s",
        -9.238074490767646
      ],
      [
        "lastic",
        -11.06192549375048
      ],
      [
        "▁residence",
        -11.179438575763339
      ],
      [
        "diana",
        -11.646764951582863
      ],
      [
        "▁exceeding",
        -12.003722046281087
      ],
      [
        "▁launcher",
        -11.729705831522026
      ],
      [
        "▁occasion",
        -9.856827879613164
      ],
      [
        ".php",
        -12.271028004841387
      ],
      [
        "▁kal",
        -11.27318321862549
      ],
      [
        "igh",
        -13.656986719044728
      ],
      [
        "fli",
        -13.67762048880182
      ],
      [
        "▁intersect",
        -11.937029133676626
      ],
      [
        "▁376",
        -14.053687754394758
      ],
      [
        "▁lady",
        -9.469560550032481
      ],
      [
        "▁hong",
        -10.75236001997921
      ],
      [
        "▁caul",
        -11.674592902791211
      ],
      [
        "ound",
        -11.681530097334054
      ],
      [
        "dispens",
        -11.937860655173798
      ],
      [
        "▁thousand",
        -9.354823133268944
      ],
      [
        "▁procedure",
        -9.44453654702903
      ],
      [
        "▁bias",
        -11.569507397720365
      ],
      [
        "...@usa.",
        -12.771337000625195
      ],
      [
        "▁robi",
        -13.266971017829068
      ],
      [
        "▁sunni",
        -10.038097494538027
      ],
      [
        "avoc",
        -10.458181190687194
      ],
      [
        "▁heide",
        -12.291864187892248
      ],
      [
        "truth",
        -13.592763872320397
      ],
      [
        "▁fif",
        -11.677174629615752
      ],
      [
        "▁sacrifice",
        -10.590891209350701
      ],
      [
        "▁massive",
        -10.081270915537862
      ],
      [
        "kow",
        -12.70787260900803
      ],
      [
        "▁robert",
        -9.671322795818254
      ],
      [
        "▁fall",
        -7.82882196380693
      ],
      [
        "▁tort",
        -11.289770995374557
      ],
      [
        "-15",
        -12.348049081578855
      ],
      [
        "▁375",
        -13.567938652830124
      ],
      [
        "▁conversion",
        -11.68783896838113
      ],
      [
        "▁bik",
        -12.827521930356827
      ],
      [
        "wood",
        -9.674393694152194
      ],
      [
        "essential",
        -11.899597081842025
      ],
      [
        "astic",
        -12.988442742507669
      ],
      [
        "having",
        -8.181811825710074
      ],
      [
        "▁who",
        -9.966938598565026
      ],
      [
        "▁interior",
        -10.453680300460057
      ],
      [
        "▁5",
        -8.813230402229319
      ],
      [
        "1/2",
        -11.18934658260106
      ],
      [
        "▁geologist",
        -12.771334974998808
      ],
      [
        "▁22",
        -10.942093549436617
      ],
      [
        "▁popularize",
        -12.774891072901749
      ],
      [
        "▁eugen",
        -11.321186276280013
      ],
      [
        "▁fuss",
        -11.059114982851101
      ],
      [
        "j",
        -12.63677057935472
      ],
      [
        "walke",
        -12.265665827686195
      ],
      [
        "=",
        -9.479384224177249
      ],
      [
        "▁breeze",
        -11.321026451995833
      ],
      [
        "▁pip",
        -11.667628816527813
      ],
      [
        "▁peregrin",
        -12.771029310204119
      ],
      [
        "/25/200",
        -12.112325426631577
      ],
      [
        "98",
        -12.26854134829917
      ],
      [
        "▁refere",
        -11.238005745034165
      ],
      [
        "293",
        -12.271038056321762
      ],
      [
        "▁taper",
        -11.07934461933521
      ],
      [
        "▁tupper",
        -12.43715603031335
      ],
      [
        "head",
        -8.691959368316997
      ],
      [
        "▁rattlesnake",
        -12.77102501488806
      ],
      [
        "icycle",
        -12.770281013786915
      ],
      [
        "ubin",
        -12.772708865069816
      ],
      [
        "▁girl",
        -7.646785399150535
      ],
      [
        "p3",
        -12.863954323724561
      ],
      [
        "▁moor",
        -11.367249732020857
      ],
      [
        "trooper",
        -13.195982531298327
      ],
      [
        "▁complete",
        -8.295923418844417
      ],
      [
        "▁rider",
        -10.994151263894281
      ],
      [
        "▁intention",
        -10.416747335706328
      ],
      [
        "▁chi",
        -11.906643426785514
      ],
      [
        "▁distinctive",
        -12.271810920036819
      ],
      [
        "▁grav",
        -12.665306370683908
      ],
      [
        "▁card",
        -8.59746032696778
      ],
      [
        "parent",
        -11.997483332271047
      ],
      [
        "▁field",
        -7.921367404428403
      ],
      [
        "▁mo",
        -11.730657660372195
      ],
      [
        "ch",
        -11.427146876420407
      ],
      [
        "▁!!!!",
        -9.884799963893974
      ],
      [
        "▁do",
        -5.572001641894483
      ],
      [
        "▁rac",
        -10.198481853624381
      ],
      [
        "▁panama",
        -10.942408385418203
      ],
      [
        "diac",
        -12.796634241954932
      ],
      [
        "▁arch-",
        -12.77694142377091
      ],
      [
        "nver",
        -6.748758059610106
      ],
      [
        "▁tant",
        -11.515397395232997
      ],
      [
        "▁713/",
        -13.06620154124905
      ],
      [
        "▁borrow",
        -10.825374693716434
      ],
      [
        "▁swirl",
        -11.48769444212164
      ],
      [
        "▁chimney",
        -11.487696909389955
      ],
      [
        "474",
        -14.504383402546411
      ],
      [
        "▁societ",
        -8.410493119782629
      ],
      [
        "alize",
        -13.487905481102722
      ],
      [
        "▁fisc",
        -10.842372984701559
      ],
      [
        "▁mora",
        -13.675328275547592
      ],
      [
        "▁transmit",
        -11.666788587928982
      ],
      [
        "▁smith",
        -9.762102172278833
      ],
      [
        "▁primar",
        -10.208857274274663
      ],
      [
        "▁freeze",
        -10.602062362012926
      ],
      [
        "▁measure",
        -8.782334261408318
      ],
      [
        "man",
        -12.141727430762016
      ],
      [
        "alla",
        -12.133091649338555
      ],
      [
        "▁friendship",
        -10.39220763834918
      ],
      [
        "asses",
        -13.51950265426108
      ],
      [
        "▁vet",
        -9.51515879728895
      ],
      [
        "▁academ",
        -10.641375373199605
      ],
      [
        "▁arm",
        -8.334766152754037
      ],
      [
        "jo",
        -11.43397011805476
      ],
      [
        "▁accuse",
        -11.1302997049457
      ],
      [
        "▁supervisor",
        -12.271472271445894
      ],
      [
        "▁surrounding",
        -10.062727988168273
      ],
      [
        "▁hik",
        -10.260826779788378
      ],
      [
        "▁prett",
        -7.854583673520578
      ],
      [
        "1.5",
        -12.304039930639782
      ],
      [
        "▁366",
        -12.639888687731418
      ],
      [
        "▁proper",
        -8.905014415716147
      ],
      [
        "▁place",
        -6.805931458064666
      ],
      [
        "▁phu",
        -13.528729103728931
      ],
      [
        "▁hypothesi",
        -12.279937797028118
      ],
      [
        "oke",
        -12.749947768232563
      ],
      [
        "▁trumpet",
        -11.48813838142249
      ],
      [
        "atra",
        -12.019066176077132
      ],
      [
        "▁ooz",
        -12.040913333626772
      ],
      [
        "▁andr",
        -12.131312432926693
      ],
      [
        "▁overdo",
        -12.799036228701826
      ],
      [
        "▁weary",
        -12.143546577567612
      ],
      [
        "▁statement",
        -9.239879563403115
      ],
      [
        "▁bake",
        -10.802047369566717
      ],
      [
        "▁tack",
        -12.707505848893856
      ],
      [
        "▁eas",
        -8.460314266612336
      ],
      [
        "gara",
        -11.954461009560596
      ],
      [
        "▁multiple",
        -10.080214869572686
      ],
      [
        "▁inequalit",
        -10.842059002956036
      ],
      [
        "american",
        -13.692537415196096
      ],
      [
        "▁moistur",
        -10.668280147738528
      ],
      [
        "▁noble",
        -10.229429610664418
      ],
      [
        "troy",
        -12.31711293537601
      ],
      [
        "▁hit",
        -7.956945453730806
      ],
      [
        "▁0.1",
        -13.296955699958513
      ],
      [
        "vor",
        -11.711272444413519
      ],
      [
        "▁wai-",
        -12.275492148927022
      ],
      [
        "▁410-468-3",
        -13.136770579350877
      ],
      [
        "val",
        -10.471206202784089
      ],
      [
        ".m.",
        -11.895520203021505
      ],
      [
        "neal",
        -11.977992422901842
      ],
      [
        "▁moro",
        -11.759267518293361
      ],
      [
        "▁inversion",
        -11.938795447595034
      ],
      [
        "▁jett",
        -12.335174103225517
      ],
      [
        "▁huckle",
        -11.178168208864301
      ],
      [
        "▁vacu",
        -10.942083178258724
      ],
      [
        "▁brita",
        -11.266975077337845
      ],
      [
        "cient",
        -9.912031997642611
      ],
      [
        "i",
        -2.8124076435862975
      ],
      [
        "si",
        -11.213306943358026
      ],
      [
        "▁surrender",
        -10.751147628790068
      ],
      [
        "travel",
        -12.715528233290035
      ],
      [
        "▁mission",
        -9.73637818091086
      ],
      [
        "▁sen",
        -9.615213224659144
      ],
      [
        "▁hick",
        -12.34885872715229
      ],
      [
        "▁detective",
        -10.591276807737572
      ],
      [
        "▁paul",
        -7.993877050720917
      ],
      [
        "▁cash",
        -9.346845573984753
      ],
      [
        "▁comfort",
        -10.52427729978768
      ],
      [
        "▁ex-",
        -11.923377624829696
      ],
      [
        "uk",
        -10.728204001982624
      ],
      [
        "▁rightholder",
        -12.274275590588697
      ],
      [
        "▁encouraging",
        -10.842056664865044
      ],
      [
        "▁grey",
        -10.333415780611478
      ],
      [
        "▁blond",
        -11.324589732265608
      ],
      [
        "▁offer",
        -8.167962577761394
      ],
      [
        "▁pencil",
        -8.924103700949882
      ],
      [
        "▁contractor",
        -11.187331795844182
      ],
      [
        "di",
        -11.345092246721594
      ],
      [
        "▁googl",
        -12.726735919493695
      ],
      [
        "▁mak",
        -7.738668746300972
      ],
      [
        "over",
        -10.135244341423348
      ],
      [
        "▁phono",
        -12.777888819492572
      ],
      [
        "▁stor",
        -8.826577729044487
      ],
      [
        "▁accidental",
        -11.583321445915274
      ],
      [
        "marie",
        -10.154224965686264
      ],
      [
        "▁asset",
        -10.08122139452863
      ],
      [
        "▁tru",
        -9.802438826210963
      ],
      [
        "ctic",
        -10.721683937417826
      ],
      [
        "explore",
        -12.734533900543765
      ],
      [
        "▁unwilling",
        -12.271043391640895
      ],
      [
        "sign",
        -12.336833248567933
      ],
      [
        "•",
        -12.833785825435129
      ],
      [
        "œ",
        -12.833785825435118
      ],
      [
        "▁decade",
        -9.124835913718735
      ],
      [
        "▁peder",
        -12.78184967752633
      ],
      [
        "▁steward",
        -12.778904408244529
      ],
      [
        "my",
        -8.402523764829516
      ],
      [
        "mideast",
        -12.773099017964594
      ],
      [
        "nati",
        -8.923677419314075
      ],
      [
        "▁fifth",
        -9.421178120743434
      ],
      [
        "ug",
        -11.434961170131146
      ],
      [
        "▁06/01/200",
        -12.339716654186573
      ],
      [
        "▁compris",
        -13.348015488800367
      ],
      [
        "go",
        -10.366859053500345
      ],
      [
        "haf",
        -11.944391015054345
      ],
      [
        "▁indign",
        -11.487715602518296
      ],
      [
        "▁hopki",
        -12.97453589276314
      ],
      [
        "mine",
        -13.371748759194462
      ],
      [
        "co.",
        -11.64451470669305
      ],
      [
        "▁variable",
        -11.701860863334518
      ],
      [
        "▁through",
        -7.510134204880654
      ],
      [
        "▁rhyme",
        -11.693008471298011
      ],
      [
        "vit",
        -12.420924236715207
      ],
      [
        "▁pac",
        -12.727629232702789
      ],
      [
        "▁sigh",
        -10.937067965604363
      ],
      [
        "▁88",
        -13.04942698006511
      ],
      [
        "▁lil",
        -10.144746833458573
      ],
      [
        "him",
        -11.941544829920119
      ],
      [
        "▁marin",
        -12.025946043040772
      ],
      [
        "vagabond",
        -12.271243246590107
      ],
      [
        "▁183",
        -10.543131175840324
      ],
      [
        "▁click",
        -9.712533328467698
      ],
      [
        "fi",
        -11.071309069285363
      ],
      [
        "▁hesitat",
        -12.660394469688605
      ],
      [
        "define",
        -13.138963469517954
      ],
      [
        "combi",
        -13.486191343087091
      ],
      [
        "solutions",
        -13.115261167670662
      ],
      [
        "onnais",
        -10.943006704232154
      ],
      [
        "▁sweatshirt",
        -12.271049828868799
      ],
      [
        "▁extract",
        -10.225464254021976
      ],
      [
        "▁maize",
        -11.179069803161664
      ],
      [
        "▁impart",
        -12.270991068029065
      ],
      [
        "▁jp",
        -12.465842466255088
      ],
      [
        "▁suppos",
        -12.257469210931093
      ],
      [
        "▁deteriorate",
        -11.381394510091514
      ],
      [
        "▁taxi",
        -10.041528748031457
      ],
      [
        "▁nutriti",
        -12.99781661679533
      ],
      [
        "etting",
        -12.379473535097336
      ],
      [
        "issu",
        -12.797155964838314
      ],
      [
        "▁lectur",
        -13.645902117395986
      ],
      [
        "▁taste",
        -8.876927651605182
      ],
      [
        "loon",
        -12.351027482688828
      ],
      [
        "15",
        -12.408181624703554
      ],
      [
        "luff",
        -12.93841808359608
      ],
      [
        "▁circulat",
        -12.511307509788786
      ],
      [
        "▁mel",
        -10.679492560517842
      ],
      [
        "▁tulsa",
        -9.995081695201593
      ],
      [
        "▁trademark",
        -11.178700974910399
      ],
      [
        "▁du",
        -11.406419735949775
      ],
      [
        "▁appeal",
        -9.809627024633599
      ],
      [
        "▁obl",
        -12.722384941511116
      ],
      [
        "▁dpr",
        -11.937810941081308
      ],
      [
        "▁l10",
        -12.771390017265599
      ],
      [
        "▁beat",
        -9.520165746024643
      ],
      [
        "=1",
        -11.688219028451648
      ],
      [
        "755",
        -14.450526138564245
      ],
      [
        "▁handkerchief",
        -11.687769947803915
      ],
      [
        "▁dude",
        -11.768360055999992
      ],
      [
        "▁modify",
        -10.390295967592973
      ],
      [
        "▁holder",
        -10.731236225748006
      ],
      [
        "▁remarkabl",
        -10.354673016084787
      ],
      [
        "~",
        -9.582223498820056
      ],
      [
        "▁venetia",
        -11.687709873587519
      ],
      [
        "will",
        -12.279855281843664
      ],
      [
        "▁reported",
        -9.351432855705609
      ],
      [
        "▁cloud",
        -9.995973063380571
      ],
      [
        "▁thursday",
        -7.825498714900048
      ],
      [
        "▁relation",
        -10.520288811891572
      ],
      [
        "ou",
        -12.238124525840147
      ],
      [
        "▁ferri",
        -13.50874015715414
      ],
      [
        "▁coloniz",
        -11.507034074171258
      ],
      [
        "▁photographer",
        -10.681566837186683
      ],
      [
        "handler",
        -13.68526984252621
      ],
      [
        "▁814.863.",
        -13.136770579354721
      ],
      [
        "▁hoho",
        -12.272068702423901
      ],
      [
        "▁doughnut",
        -9.843857727972075
      ],
      [
        "dan",
        -11.181267619385988
      ],
      [
        "tcher",
        -11.495374760181917
      ],
      [
        "▁mall",
        -10.537875745845339
      ],
      [
        "425",
        -14.180756138798783
      ],
      [
        "▁bed",
        -8.172779048393682
      ],
      [
        "▁pric",
        -10.285195748503199
      ],
      [
        "▁copper",
        -11.937725654892104
      ],
      [
        "▁loo",
        -10.64824756016133
      ],
      [
        "▁predispos",
        -12.271043326682623
      ],
      [
        "ize",
        -9.671354800948738
      ],
      [
        "▁geometric",
        -12.276357014830737
      ],
      [
        ",",
        -2.069537032793109
      ],
      [
        "▁dominan",
        -12.506694804591492
      ],
      [
        "▁shadow",
        -9.844641604530043
      ],
      [
        "▁non-m",
        -12.851796616670606
      ],
      [
        "▁livelihood",
        -12.27164854712536
      ],
      [
        "▁cheape",
        -7.863522081794162
      ],
      [
        "▁expectation",
        -9.882668768765738
      ],
      [
        "▁progressive",
        -11.181254013478304
      ],
      [
        "rio",
        -11.368284490750389
      ],
      [
        "zida",
        -12.816044546184774
      ],
      [
        "place",
        -10.04690359863287
      ],
      [
        "jumble",
        -13.724464829224162
      ],
      [
        "▁theoretical",
        -11.321027649050766
      ],
      [
        "▁learn",
        -7.873802318592158
      ],
      [
        "▁murder",
        -9.416968879988966
      ],
      [
        "teous",
        -13.204862171276256
      ],
      [
        "▁antonio",
        -10.390814234176707
      ],
      [
        "▁ancestor",
        -11.687695257921565
      ],
      [
        "▁conceiv",
        -11.635213490274657
      ],
      [
        "light",
        -9.78749330410919
      ],
      [
        "▁implicate",
        -11.487691585644779
      ],
      [
        "▁qualit",
        -8.292803398280194
      ],
      [
        "▁apostle",
        -12.271027588849865
      ],
      [
        "nocchi",
        -12.271052589332369
      ],
      [
        "-drive",
        -13.408422945329455
      ],
      [
        "▁aesthetic",
        -10.03673366455923
      ],
      [
        "▁cliffs",
        -13.452366588677299
      ],
      [
        "▁03:4",
        -12.536190960354329
      ],
      [
        "▁satisf",
        -10.489865420644959
      ],
      [
        "▁straw",
        -11.321419469864844
      ],
      [
        "▁thrift",
        -11.178182145333931
      ],
      [
        "▁min",
        -10.34825462118952
      ],
      [
        "▁gonzale",
        -12.487276274751306
      ],
      [
        "▁dull",
        -11.053514330794357
      ],
      [
        ",",
        -12.770963125842911
      ],
      [
        "london",
        -11.899140248609225
      ],
      [
        "▁dubb",
        -12.81569820131068
      ],
      [
        "▁bur",
        -10.606677224105791
      ],
      [
        "▁shin",
        -9.750298333289493
      ],
      [
        "▁excellent",
        -8.564058471903056
      ],
      [
        "▁rip",
        -9.71122205579617
      ],
      [
        "rano",
        -11.088738863951736
      ],
      [
        "▁shri",
        -11.05513783953052
      ],
      [
        "▁destroy",
        -9.841893924900285
      ],
      [
        "▁preside",
        -12.725935704623492
      ],
      [
        "alem",
        -10.225091513536903
      ],
      [
        "▁alarming",
        -12.044408379736304
      ],
      [
        "▁us",
        -6.650678822856926
      ],
      [
        "▁rhodesia",
        -12.265536099653561
      ],
      [
        "oo",
        -10.573184319002312
      ],
      [
        "nc",
        -13.143028727913363
      ],
      [
        "▁universidad",
        -11.937694863800035
      ],
      [
        "table",
        -8.85162440036796
      ],
      [
        "▁exemption",
        -12.771315389867715
      ],
      [
        "▁leave",
        -7.117157736560268
      ],
      [
        "415-",
        -14.13691236344024
      ],
      [
        "six",
        -10.787426841008156
      ],
      [
        "ot",
        -13.94217627046138
      ],
      [
        "an",
        -8.57482120710274
      ],
      [
        "▁donna",
        -10.404879642387302
      ],
      [
        "▁coinciden",
        -10.870984969632742
      ],
      [
        "nde",
        -12.81357135271133
      ],
      [
        "▁visa",
        -9.355077595630867
      ],
      [
        "▁fuj",
        -11.209056165816188
      ],
      [
        "chemistry",
        -11.508268249833828
      ],
      [
        "limp",
        -12.276080744364679
      ],
      [
        "bare",
        -12.896771550580237
      ],
      [
        "oit",
        -9.07813252343855
      ],
      [
        "lo",
        -11.663865744993771
      ],
      [
        "cho",
        -11.189655478675734
      ],
      [
        "▁malign",
        -12.771117691046772
      ],
      [
        "▁snowboard",
        -11.689147021719995
      ],
      [
        "▁libra",
        -12.789489560399103
      ],
      [
        "▁hypnoti",
        -12.374079852179984
      ],
      [
        "▁scarce",
        -11.961533472357509
      ],
      [
        "▁28",
        -10.454550929746874
      ],
      [
        "▁1",
        -10.229035535106615
      ],
      [
        "▁chin",
        -11.70683449901614
      ],
      [
        "▁ho",
        -8.934965913975411
      ],
      [
        "polygon",
        -12.271119062490461
      ],
      [
        "▁snoo",
        -12.27239121924836
      ],
      [
        "▁sick",
        -9.109803067572283
      ],
      [
        "▁pros",
        -11.723032414895378
      ],
      [
        "buck",
        -11.014556048744378
      ],
      [
        "nard",
        -11.787544679258508
      ],
      [
        "change",
        -13.709682952040898
      ],
      [
        "▁influen",
        -10.590986564226577
      ],
      [
        ":0",
        -13.24566744499743
      ],
      [
        "end",
        -11.206812755151507
      ],
      [
        "▁exile",
        -10.942340173647354
      ],
      [
        "▁64",
        -12.54155585686422
      ],
      [
        "▁musc",
        -12.790477464126244
      ],
      [
        "fic",
        -13.328443989047278
      ],
      [
        "▁regen",
        -11.430321872568086
      ],
      [
        "do",
        -10.378134094165599
      ],
      [
        "▁til",
        -14.239400027983454
      ],
      [
        "▁banne",
        -12.208642610665644
      ],
      [
        "▁20",
        -10.359471506165898
      ],
      [
        "30",
        -9.658731711958618
      ],
      [
        "▁accumulati",
        -12.563609732477381
      ],
      [
        "▁mourn",
        -11.489476471467098
      ],
      [
        "▁geograph",
        -11.937546970544918
      ],
      [
        "▁cpc",
        -12.276847222286536
      ],
      [
        "▁pancr",
        -12.776415874910901
      ],
      [
        "▁pm",
        -7.016411875489577
      ],
      [
        "▁club",
        -9.713228849574197
      ],
      [
        "828-",
        -13.137496001915123
      ],
      [
        "▁rev",
        -13.306477266020275
      ],
      [
        "▁ship",
        -8.726947556541575
      ],
      [
        "▁pound",
        -10.391801741254
      ],
      [
        "▁provision",
        -9.37608902852031
      ],
      [
        "-bei",
        -10.855416196943873
      ],
      [
        "shee",
        -12.532172446055409
      ],
      [
        "▁cam",
        -13.560396254174337
      ],
      [
        "▁colonialis",
        -12.953187161144806
      ],
      [
        "▁affirm",
        -11.48765710975911
      ],
      [
        "▁caucasian",
        -11.487691929659745
      ],
      [
        "▁expel",
        -12.765426012466916
      ],
      [
        "fth",
        -10.18213701733694
      ],
      [
        "5.6",
        -13.1400501831892
      ],
      [
        "▁outlin",
        -13.462138077330149
      ],
      [
        "****",
        -11.72019902507986
      ],
      [
        "▁cup",
        -8.371953827846403
      ],
      [
        "▁name",
        -6.94848214205117
      ],
      [
        "▁paradigm",
        -11.487693393787302
      ],
      [
        "▁app",
        -11.511747905322087
      ],
      [
        "▁earth",
        -8.614772700444025
      ],
      [
        "▁grow",
        -7.873969873156011
      ],
      [
        "▁sustain",
        -9.713508978448695
      ],
      [
        "och",
        -12.918959700262555
      ],
      [
        "▁ouij",
        -11.688117841389397
      ],
      [
        "▁brigade",
        -11.690968705393889
      ],
      [
        "▁thanksgiv",
        -11.937610794999502
      ],
      [
        "vocation",
        -12.771024243448181
      ],
      [
        "jani",
        -13.675847301377113
      ],
      [
        "▁trade",
        -9.056817025120951
      ],
      [
        "▁picnic",
        -10.842095910058674
      ],
      [
        "▁kik",
        -11.586986296078608
      ],
      [
        "▁pan-democrat",
        -11.687739667307634
      ],
      [
        "shield",
        -12.22773833502689
      ],
      [
        "▁carrol",
        -11.285904734213549
      ],
      [
        "55",
        -11.29034389136408
      ],
      [
        "nin",
        -13.066636133821138
      ],
      [
        "▁inaugura",
        -11.488001741720916
      ],
      [
        "▁advancement",
        -11.695014623024251
      ],
      [
        "▁beaten",
        -11.324856331414273
      ],
      [
        "md",
        -11.141550706240368
      ],
      [
        "▁brutal",
        -11.437894794634866
      ],
      [
        "▁reviv",
        -11.571784363725609
      ],
      [
        "hi",
        -9.424581281491143
      ],
      [
        "▁+4",
        -13.201922390698039
      ],
      [
        "▁registra",
        -12.282013018109692
      ],
      [
        "ressed",
        -12.410557851740423
      ],
      [
        "▁general",
        -7.982615391036728
      ],
      [
        "▁putt",
        -9.300395951193696
      ],
      [
        "▁scale",
        -9.815445497789504
      ],
      [
        "▁controversial",
        -11.181282950674412
      ],
      [
        "ibu",
        -13.50283276116795
      ],
      [
        "▁argentin",
        -10.080211705682457
      ],
      [
        "▁damas",
        -11.322755624731736
      ],
      [
        "▁hole",
        -8.89661654545297
      ],
      [
        "▁crow",
        -11.917776014527
      ],
      [
        "▁stre",
        -12.82776537117637
      ],
      [
        "▁connected",
        -10.213970232694482
      ],
      [
        "▁disenfranchise",
        -12.271024939758574
      ],
      [
        "▁finish",
        -8.359957892284381
      ],
      [
        "▁bare",
        -9.840209107104018
      ],
      [
        "▁liv",
        -11.257139409772527
      ],
      [
        "▁analog",
        -11.597104875852974
      ],
      [
        "▁gradua",
        -13.650232353614708
      ],
      [
        "▁8",
        -9.408204222629285
      ],
      [
        "venue",
        -12.223354456277272
      ],
      [
        "▁launche",
        -12.14642935774388
      ],
      [
        "▁griss",
        -12.858217440061374
      ],
      [
        "▁financ",
        -11.067496548558394
      ],
      [
        "ya",
        -12.271013452895534
      ],
      [
        "washington",
        -7.186604175804263
      ],
      [
        "▁he",
        -10.151374235281452
      ],
      [
        "▁dat",
        -8.781383868073103
      ],
      [
        "▁melanie",
        -10.845688998500979
      ],
      [
        "▁squashe",
        -11.880197071347732
      ],
      [
        "▁arth",
        -12.281824533824846
      ],
      [
        "16",
        -10.36257830423802
      ],
      [
        "69",
        -12.77152486924663
      ],
      [
        "▁+++++",
        -12.525574909630727
      ],
      [
        "mma",
        -12.694404551471447
      ],
      [
        "▁speculat",
        -11.820190938505526
      ],
      [
        "▁staircase",
        -11.178210468775202
      ],
      [
        "▁mal",
        -10.500395824550914
      ],
      [
        "▁boo",
        -10.572768687260506
      ],
      [
        "▁co-ordinat",
        -12.271026893214813
      ],
      [
        "▁outer",
        -10.088160045655703
      ],
      [
        "▁202-",
        -14.080987957304744
      ],
      [
        "▁co-owne",
        -12.771321980221357
      ],
      [
        "▁establishment",
        -10.343760856663343
      ],
      [
        "▁structural",
        -10.050887491617573
      ],
      [
        "▁male",
        -9.339202156147657
      ],
      [
        "▁cand",
        -10.542032242603698
      ],
      [
        "▁deny",
        -11.106193761277908
      ],
      [
        "▁faith",
        -9.879188763540311
      ],
      [
        "▁mound",
        -11.939360790169445
      ],
      [
        "ates",
        -12.478350058756051
      ],
      [
        "nife",
        -9.93776738021729
      ],
      [
        "▁addition",
        -9.302991300944893
      ],
      [
        "▁staple",
        -11.3210303556914
      ],
      [
        "▁191",
        -11.896980550058402
      ],
      [
        "organize",
        -12.736128865546744
      ],
      [
        "chan",
        -13.448786881018393
      ],
      [
        "▁punctuat",
        -12.886910097997045
      ],
      [
        "odor",
        -11.953798672628846
      ],
      [
        "▁interpretation",
        -10.592014432028325
      ],
      [
        "▁dri",
        -10.655691900956443
      ],
      [
        "▁citr",
        -11.523112306599515
      ],
      [
        "▁lisa_",
        -11.94355744953261
      ],
      [
        "rra",
        -11.578779419177454
      ],
      [
        "neck",
        -11.90396546411248
      ],
      [
        "insula",
        -10.909970574537862
      ],
      [
        "▁stillman",
        -8.96945550793414
      ],
      [
        "▁require",
        -8.54604358240534
      ],
      [
        "▁editors",
        -11.36141594605
      ],
      [
        "▁wai",
        -10.579145542646028
      ],
      [
        "urse",
        -13.093039487908214
      ],
      [
        "870",
        -12.325971475335379
      ],
      [
        "▁distribut",
        -10.600803313863059
      ],
      [
        "▁alph",
        -12.836785837255269
      ],
      [
        "▁achiev",
        -10.171010293555158
      ],
      [
        "▁confused",
        -10.525163242460168
      ],
      [
        "▁condition",
        -8.722175263428488
      ],
      [
        "tagon",
        -10.754244959970706
      ],
      [
        "▁var",
        -13.716956606300801
      ],
      [
        "tus-",
        -13.714948421929565
      ],
      [
        "noon",
        -11.909449882643482
      ],
      [
        "ik",
        -11.833857830146387
      ],
      [
        "▁noon",
        -8.377573727683348
      ],
      [
        "▁ar",
        -10.524785217097026
      ],
      [
        "▁cali",
        -12.00793972323374
      ],
      [
        "▁pla",
        -11.280120922475849
      ],
      [
        "itch",
        -10.11300634228813
      ],
      [
        "culture",
        -12.966998058735262
      ],
      [
        "▁incon",
        -13.487511081213496
      ],
      [
        "▁gentle",
        -10.363471478807002
      ],
      [
        "matic",
        -11.833787411555353
      ],
      [
        "▁make",
        -6.18741410344701
      ],
      [
        "▁overlook",
        -11.321963541600727
      ],
      [
        "nik",
        -11.391804607005728
      ],
      [
        "ct",
        -9.519962088824977
      ],
      [
        "▁endeavor",
        -11.053327116795172
      ],
      [
        "inent",
        -12.4867856115315
      ],
      [
        "▁re",
        -10.964379486458848
      ],
      [
        "▁detour",
        -12.771047223307642
      ],
      [
        "▁education",
        -8.645327166685934
      ],
      [
        "▁maca",
        -10.283333966065
      ],
      [
        "ms.",
        -10.998891698743405
      ],
      [
        "cognitive",
        -12.693430318069595
      ],
      [
        "▁superior",
        -10.519726841313302
      ],
      [
        "top",
        -10.746288569052956
      ],
      [
        "▁unload",
        -11.488603507301097
      ],
      [
        "#",
        -12.793241489426944
      ],
      [
        "pant",
        -12.735530052842245
      ],
      [
        "▁censor",
        -11.70908539005631
      ],
      [
        "▁scientology",
        -9.334330221751244
      ],
      [
        "▁pub",
        -10.756724261036519
      ],
      [
        "▁radiomet",
        -12.364232081875413
      ],
      [
        "▁refresh",
        -11.32114199841328
      ],
      [
        "let",
        -9.946843905197827
      ],
      [
        "▁05/0",
        -13.800770594177061
      ],
      [
        "on",
        -10.927554331646155
      ],
      [
        "▁imperfection",
        -12.771024919061272
      ],
      [
        "▁hmmmm",
        -13.073860883453326
      ],
      [
        "▁nort",
        -10.135265303465058
      ],
      [
        "▁moment",
        -8.526182710012856
      ],
      [
        "▁leader",
        -9.186244450534925
      ],
      [
        "▁polariz",
        -12.828249855914333
      ],
      [
        "el",
        -11.736101132493474
      ],
      [
        "▁lowe",
        -10.278096389280353
      ],
      [
        "▁referenc",
        -12.089867027446218
      ],
      [
        "ide",
        -12.580259333869604
      ],
      [
        "&g",
        -12.954337471559239
      ],
      [
        "d-",
        -11.630898913151613
      ],
      [
        "▁kli",
        -12.869561395519144
      ],
      [
        "y@enron",
        -13.171364865159829
      ],
      [
        "▁heel",
        -10.010497246487649
      ],
      [
        "▁applicant",
        -12.27142462044072
      ],
      [
        "too",
        -12.094458485368405
      ],
      [
        "▁roll",
        -8.748244303384688
      ],
      [
        "▁combin",
        -11.327804169034314
      ],
      [
        "▁glue",
        -10.527309287546402
      ],
      [
        "▁at",
        -10.976289584009784
      ],
      [
        "va",
        -11.793658391342175
      ],
      [
        "etter",
        -12.467499595495324
      ],
      [
        "▁kon",
        -12.674440493137698
      ],
      [
        "bumrungrad",
        -12.771031536823067
      ],
      [
        "▁suprema",
        -13.4850416423645
      ],
      [
        "▁booth",
        -11.337701758629022
      ],
      [
        "▁paralyze",
        -12.771044642661508
      ],
      [
        "asher",
        -12.766581992855498
      ],
      [
        "oval",
        -11.503101419116264
      ],
      [
        "▁aw",
        -8.844585833961844
      ],
      [
        "▁heir",
        -12.27384405100937
      ],
      [
        "ese",
        -13.969336546849245
      ],
      [
        "▁abu",
        -12.659050262975363
      ],
      [
        "▁doctorate",
        -11.946595885539868
      ],
      [
        "▁iron",
        -10.079219279645294
      ],
      [
        "-personal",
        -13.63590291629335
      ],
      [
        "cuba",
        -11.89893466807211
      ],
      [
        "-metal",
        -12.771351245141691
      ],
      [
        "g.",
        -10.545169449946494
      ],
      [
        "▁rams",
        -12.6033299094512
      ],
      [
        "▁vocal",
        -11.947841219949282
      ],
      [
        "world",
        -11.410412644737669
      ],
      [
        "sel",
        -11.095865953535217
      ],
      [
        "▁troupe",
        -12.771025115610058
      ],
      [
        "bear",
        -12.194013854055783
      ],
      [
        "supplies",
        -11.153031866340234
      ],
      [
        "0.8",
        -12.754940125285833
      ],
      [
        "▁admitt",
        -13.231840267462893
      ],
      [
        "▁mek",
        -12.283155805998817
      ],
      [
        "▁playhouse",
        -12.29063344652851
      ],
      [
        "ident",
        -12.121282433425556
      ],
      [
        "▁surface",
        -9.312693412879046
      ],
      [
        "▁draft",
        -8.996598259472577
      ],
      [
        "▁clean",
        -7.95724365778659
      ],
      [
        "asci",
        -12.823337291391464
      ],
      [
        "ntana",
        -11.321659201303934
      ],
      [
        "▁allegation",
        -11.321425791687904
      ],
      [
        "tude",
        -12.814672102807794
      ],
      [
        "▁spaghetti",
        -11.487691595233905
      ],
      [
        "-b",
        -11.568492036549884
      ],
      [
        "-59",
        -13.070384567929214
      ],
      [
        "▁lipstick",
        -10.331476837212882
      ],
      [
        "▁enthusiastic",
        -11.689068675397056
      ],
      [
        "allum",
        -12.782367280905904
      ],
      [
        "▁wriggle",
        -12.771026537353285
      ],
      [
        "▁captain",
        -10.080216651295798
      ],
      [
        "▁tide",
        -11.062874685029538
      ],
      [
        "▁nell",
        -12.59978772019555
      ],
      [
        "whil",
        -10.789586528270528
      ],
      [
        "▁egg",
        -8.854683230257546
      ],
      [
        "▁comedie",
        -10.974291299715972
      ],
      [
        "msel",
        -12.496307117546552
      ],
      [
        "fertilize",
        -13.732908437998878
      ],
      [
        "/10/200",
        -11.680262662674137
      ],
      [
        "▁inhabitant",
        -10.942109349218232
      ],
      [
        "ours",
        -12.33239036428366
      ],
      [
        "▁specializ",
        -10.601557381385486
      ],
      [
        "▁aft",
        -12.836827706927231
      ],
      [
        "▁appointment",
        -9.712551705773633
      ],
      [
        "▁humm",
        -12.123728364420277
      ],
      [
        "ut",
        -10.626747270204223
      ],
      [
        "▁borrowing",
        -12.985277182842403
      ],
      [
        "ip",
        -12.162909986344415
      ],
      [
        "ullen",
        -12.757064626343753
      ],
      [
        "▁up",
        -6.837071724465326
      ],
      [
        "▁ben",
        -9.074362334430901
      ],
      [
        "▁han",
        -10.767253386778187
      ],
      [
        "▁decid",
        -12.24675106830552
      ],
      [
        "▁ma",
        -10.677501707364895
      ],
      [
        "me",
        -9.799251337819435
      ],
      [
        "▁cuff",
        -12.2409669386087
      ],
      [
        "▁bert",
        -11.244477569220141
      ],
      [
        "▁ravine",
        -12.271121502220794
      ],
      [
        "▁big",
        -6.931834620961386
      ],
      [
        "ere",
        -10.431743240538172
      ],
      [
        "cosm",
        -12.656092468620816
      ],
      [
        "▁metal",
        -9.256622936906556
      ],
      [
        "▁poet",
        -9.272168215173696
      ],
      [
        "berr",
        -11.205115902007266
      ],
      [
        "▁vin",
        -10.818602022898608
      ],
      [
        "▁slot",
        -12.875892899396373
      ],
      [
        "▁whee",
        -11.05623901353594
      ],
      [
        "ither",
        -9.673678781304908
      ],
      [
        "soci",
        -13.727248081058123
      ],
      [
        "▁belle",
        -12.010508223018666
      ],
      [
        "▁whistl",
        -12.258821534221783
      ],
      [
        "1.0",
        -14.848236296224862
      ],
      [
        "▁twirl",
        -11.05419193610113
      ],
      [
        "▁carry",
        -8.74786032819355
      ],
      [
        "▁commit",
        -10.494763616435193
      ],
      [
        "----------",
        -11.627260667774786
      ],
      [
        "##",
        -12.843222124950998
      ],
      [
        "▁scann",
        -11.060957283085878
      ],
      [
        "die",
        -12.076419929149806
      ],
      [
        "▁unifi",
        -12.776428720667948
      ],
      [
        "▁touch",
        -8.542987706281249
      ],
      [
        "ble",
        -9.34859570933661
      ],
      [
        "imbe",
        -13.220081335584739
      ],
      [
        "▁association",
        -10.275916904751522
      ],
      [
        "heels",
        -12.560268971138377
      ],
      [
        "▁beep",
        -10.523764326189397
      ],
      [
        "▁specimen",
        -11.688599799490586
      ],
      [
        "▁165",
        -13.333829689480131
      ],
      [
        "▁pipp",
        -11.053730942685858
      ],
      [
        "87",
        -12.771493442847733
      ],
      [
        "▁con",
        -9.083824625244624
      ],
      [
        "▁children",
        -7.993526998080086
      ],
      [
        "▁bronz",
        -10.842072258946242
      ],
      [
        "▁nei",
        -12.1854130081014
      ],
      [
        "▁keys",
        -11.398232021032786
      ],
      [
        "▁enlighten",
        -11.944738583156772
      ],
      [
        "▁topic",
        -9.810557255679287
      ],
      [
        "cc",
        -11.563268951894766
      ],
      [
        "▁260",
        -13.873155210873321
      ],
      [
        "▁pleasur",
        -12.7611278559979
      ],
      [
        "▁trading",
        -9.712902984087252
      ],
      [
        "▁connection",
        -8.679438894144456
      ],
      [
        "iness",
        -9.828870012907885
      ],
      [
        "▁affirmative",
        -12.771164684268212
      ],
      [
        "▁estonia",
        -12.776231005110306
      ],
      [
        "▁insole",
        -12.776597850251731
      ],
      [
        "▁proliferat",
        -13.482720875584576
      ],
      [
        "plus",
        -11.961176390461416
      ],
      [
        "▁sat",
        -8.881832972249015
      ],
      [
        "▁floo",
        -12.79795952847309
      ],
      [
        "▁poster",
        -10.219006127056165
      ],
      [
        "▁sid",
        -11.564144470886013
      ],
      [
        "▁programm",
        -11.150766959290003
      ],
      [
        "▁13",
        -9.708661677019629
      ],
      [
        "epic",
        -11.370594919457815
      ],
      [
        "‘",
        -14.136770579354708
      ],
      [
        "▁anti-american",
        -12.771073311201492
      ],
      [
        "▁consequence",
        -9.87956816605267
      ],
      [
        "karai",
        -13.715847563231705
      ],
      [
        "hill",
        -11.350888082738939
      ],
      [
        "▁simpl",
        -8.851675573993063
      ],
      [
        "stro",
        -13.693523754535113
      ],
      [
        "▁jordan",
        -10.275746002012342
      ],
      [
        "▁repeated",
        -9.894803383077338
      ],
      [
        "rote",
        -9.017427670767091
      ],
      [
        "levant",
        -11.590023996452572
      ],
      [
        "▁moral",
        -8.635375290968899
      ],
      [
        "▁jones",
        -10.282270938427645
      ],
      [
        "▁estate",
        -10.942402729640857
      ],
      [
        "mayur...",
        -12.704135256971979
      ],
      [
        "▁limitation",
        -10.39539010040167
      ],
      [
        "breede",
        -13.625195690830791
      ],
      [
        "▁shake",
        -9.970043287852734
      ],
      [
        "▁succes",
        -13.705304795662734
      ],
      [
        "▁capit",
        -12.261754039662517
      ],
      [
        "fire",
        -11.283064828863091
      ],
      [
        "▁wobbl",
        -11.937700300902039
      ],
      [
        "bert",
        -10.242654352680248
      ],
      [
        "▁present",
        -8.01848405960088
      ],
      [
        "saw",
        -10.16805401417422
      ],
      [
        "otes",
        -12.70539420296149
      ],
      [
        "▁prophet",
        -10.945837062531197
      ],
      [
        "mohan",
        -13.691208991252902
      ],
      [
        "epa",
        -12.201920854349172
      ],
      [
        "▁downgrad",
        -12.96376078946864
      ],
      [
        "▁every",
        -8.981579929230394
      ],
      [
        "▁though",
        -8.493401804165082
      ],
      [
        "ologist",
        -11.29006711476691
      ],
      [
        "physics",
        -11.487687379950847
      ],
      [
        "<",
        -7.273053706688606
      ],
      [
        "▁clash",
        -12.57035428780386
      ],
      [
        "▁22,",
        -14.13564255438126
      ],
      [
        "▁andre",
        -11.486593921867254
      ],
      [
        "▁outrage",
        -11.696215405205512
      ],
      [
        "▁pier",
        -10.544007679223432
      ],
      [
        "▁crate",
        -11.065139986331879
      ],
      [
        "▁plat",
        -12.800251047522067
      ],
      [
        "▁empath",
        -11.509284726772824
      ],
      [
        "▁sentimental",
        -12.781832824984471
      ],
      [
        "▁sample",
        -9.497886257318218
      ],
      [
        "▁intercept",
        -10.592176816971982
      ],
      [
        "▁vague",
        -10.751183397586363
      ],
      [
        "▁mango",
        -11.968032691273155
      ],
      [
        "▁gestur",
        -13.45728718945913
      ],
      [
        "thirty",
        -12.183877326748673
      ],
      [
        "+++++",
        -13.238891581489804
      ],
      [
        "▁disma",
        -12.334171641918783
      ],
      [
        "▁bundle",
        -12.009254083635698
      ],
      [
        "▁license",
        -8.549734218544184
      ],
      [
        "▁self-regulati",
        -12.72407264596016
      ],
      [
        "▁clipp",
        -12.801067905724029
      ],
      [
        "▁ambulance",
        -10.75114768440716
      ],
      [
        "▁alchem",
        -13.727953020272022
      ],
      [
        "nut",
        -10.80543172625368
      ],
      [
        "▁relevan",
        -9.637403639256371
      ],
      [
        "▁leg",
        -8.567505592193633
      ],
      [
        "kel",
        -11.675713460633208
      ],
      [
        "▁resist",
        -10.331895029695836
      ],
      [
        "zon",
        -12.59365289323498
      ],
      [
        "not",
        -11.658178870951367
      ],
      [
        "▁analyst",
        -9.783769408967695
      ],
      [
        "▁crime",
        -9.802548557087484
      ],
      [
        "▁interfer",
        -12.163288814771025
      ],
      [
        "rior",
        -12.843631543838391
      ],
      [
        "▁appropriate",
        -9.400777633381477
      ],
      [
        "▁varie",
        -11.293851792794548
      ],
      [
        "citation",
        -13.529572609913577
      ],
      [
        "▁shovel",
        -11.055652006072538
      ],
      [
        "▁comma",
        -13.722859734705203
      ],
      [
        "▁inject",
        -11.93701575970473
      ],
      [
        "airline",
        -13.725034187058089
      ],
      [
        "ison",
        -10.526677725204083
      ],
      [
        "▁shoul",
        -7.016245635624688
      ],
      [
        "▁asses",
        -12.282617963400039
      ],
      [
        "ls",
        -11.685671346963831
      ],
      [
        "aqub",
        -12.771923114248906
      ],
      [
        "t2",
        -13.005322731802757
      ],
      [
        "side-",
        -13.27686810230821
      ],
      [
        "▁clock",
        -9.981950758968974
      ],
      [
        "weather",
        -12.733550171201912
      ],
      [
        "☎",
        -11.833785825435129
      ],
      [
        "▁v",
        -9.956266707562271
      ],
      [
        "▁bras",
        -13.477306105464796
      ],
      [
        "ou",
        -9.381210504395051
      ],
      [
        "pulse",
        -12.27049709718004
      ],
      [
        "▁kenneth",
        -11.488924313081013
      ],
      [
        "▁physical",
        -9.596466126454933
      ],
      [
        "&ie=utf-8&",
        -12.771024933836504
      ],
      [
        "opher",
        -10.70034284528143
      ],
      [
        "▁professor",
        -9.421026300505927
      ],
      [
        "▁manipu",
        -12.779007172529504
      ],
      [
        "▁else",
        -7.449305900299283
      ],
      [
        "▁passenger",
        -10.173290229124463
      ],
      [
        "▁malfo",
        -10.455817294058724
      ],
      [
        "if",
        -11.513448905484172
      ],
      [
        "▁husa",
        -13.172414466073889
      ],
      [
        "▁ton",
        -10.646729838551583
      ],
      [
        "ner",
        -11.893441421125145
      ],
      [
        "▁hol",
        -9.43617044813433
      ],
      [
        "▁constructive",
        -11.690963707496437
      ],
      [
        "lamour",
        -12.446321925965684
      ],
      [
        "▁sulf",
        -12.806686758076712
      ],
      [
        "▁surround",
        -9.931766087281071
      ],
      [
        "▁formula",
        -11.491800567154302
      ],
      [
        "▁warp",
        -11.665891491435389
      ],
      [
        "▁irrigate",
        -13.062533950978661
      ],
      [
        "▁purse",
        -10.753060963039552
      ],
      [
        "▁discre",
        -11.487665723791537
      ],
      [
        "oui",
        -10.752126755534388
      ],
      [
        "▁signoff",
        -11.178890432837717
      ],
      [
        "it",
        -12.427307726460162
      ],
      [
        "witche",
        -13.4525557204047
      ],
      [
        "▁mutant",
        -11.321072226249477
      ],
      [
        "▁successor",
        -11.323622624247326
      ],
      [
        "piece",
        -11.89851263471526
      ],
      [
        "proportion",
        -12.231050747034027
      ],
      [
        "▁spi",
        -13.707070731890887
      ],
      [
        "aba",
        -12.093723410435318
      ],
      [
        "▁enormous",
        -10.27591684313611
      ],
      [
        "▁exhaust",
        -12.239606567416
      ],
      [
        "▁shun",
        -12.368299427785539
      ],
      [
        "▁alternative",
        -9.421055049368544
      ],
      [
        "▁traveler",
        -10.251137312499424
      ],
      [
        "284",
        -14.231690287536495
      ],
      [
        "▁tunnel",
        -10.519470468302934
      ],
      [
        "uddle",
        -11.563084699107662
      ],
      [
        "▁slapp",
        -12.273711792257792
      ],
      [
        "isse",
        -12.08625388690001
      ],
      [
        "mm",
        -12.860971569906198
      ],
      [
        "▁yankee",
        -11.957756389947225
      ],
      [
        "▁tramp",
        -11.48820483114793
      ],
      [
        "▁reprisal",
        -12.771330614405517
      ],
      [
        "▁yam",
        -11.681927792678042
      ],
      [
        "▁si",
        -10.89098871490355
      ],
      [
        "2/",
        -11.940873122669306
      ],
      [
        "phon",
        -12.698803775029756
      ],
      [
        "aku",
        -11.581255570216264
      ],
      [
        "▁squirrel",
        -10.452796054547303
      ],
      [
        "▁u",
        -13.936497440614524
      ],
      [
        "val",
        -11.348403420490468
      ],
      [
        "▁gar",
        -11.938717667428307
      ],
      [
        "▁merc",
        -11.409859086861372
      ],
      [
        "37",
        -11.580435140051025
      ],
      [
        "rs",
        -10.527302468335112
      ],
      [
        "928",
        -14.76729306089482
      ],
      [
        "▁respondent",
        -11.938968805719096
      ],
      [
        "time",
        -8.819301671682933
      ],
      [
        "▁neck",
        -9.07705366498974
      ],
      [
        "hcroft",
        -12.797070149803607
      ],
      [
        "▁premium",
        -11.053174928598734
      ],
      [
        "ashes",
        -12.621336986299141
      ],
      [
        "ood",
        -10.22365477857376
      ],
      [
        "▁badge",
        -11.320852499295333
      ],
      [
        "▁final",
        -8.105039147030963
      ],
      [
        "tograph",
        -12.094025373317956
      ],
      [
        "▁froggie",
        -11.949297167760411
      ],
      [
        "▁campus",
        -10.672021308376882
      ],
      [
        "▁clay",
        -9.999050002707824
      ],
      [
        "▁scratch",
        -10.322470344630347
      ],
      [
        "▁quiney",
        -12.283343300704816
      ],
      [
        "▁distinguish",
        -10.335659490642072
      ],
      [
        "▁sevent",
        -11.49321093450371
      ],
      [
        "author",
        -13.720521146675255
      ],
      [
        "illy",
        -11.282241295262644
      ],
      [
        "▁rectif",
        -12.271044467161266
      ],
      [
        "upon",
        -12.92622239698004
      ],
      [
        "▁knick",
        -12.771592675769757
      ],
      [
        "tt",
        -12.075768069728676
      ],
      [
        "▁tues",
        -12.791396440369082
      ],
      [
        "▁lea",
        -11.37977578434223
      ],
      [
        "▁tau",
        -11.173011126309127
      ],
      [
        "thou",
        -11.455493883691979
      ],
      [
        "1/01",
        -12.746409468391521
      ],
      [
        "▁113",
        -13.113565674700755
      ],
      [
        "571",
        -14.156374722740878
      ],
      [
        "wear",
        -11.191539974288267
      ],
      [
        "ba",
        -11.549657294385685
      ],
      [
        "▁scient",
        -9.57087471415161
      ],
      [
        "▁steam",
        -10.390292474820289
      ],
      [
        "▁fusion",
        -11.181871539400996
      ],
      [
        "mouth",
        -11.651027910082163
      ],
      [
        "erous",
        -13.101908555014965
      ],
      [
        "▁tupperw",
        -12.553574693169967
      ],
      [
        "▁brass",
        -10.84951160101759
      ],
      [
        "ambiguous",
        -12.27261648627442
      ],
      [
        "clips",
        -13.570556139067826
      ],
      [
        "▁truth",
        -9.399415371056698
      ],
      [
        "▁ominous",
        -11.937691686397779
      ],
      [
        "mine",
        -11.79533885365613
      ],
      [
        "▁inside",
        -8.925259922082002
      ],
      [
        "▁diversi",
        -12.880703523139807
      ],
      [
        "▁spel",
        -12.769974311804237
      ],
      [
        "gel",
        -12.83421798656406
      ],
      [
        "▁hierarch",
        -11.487692339084388
      ],
      [
        "▁sh",
        -10.820634282045255
      ],
      [
        "$t",
        -12.822858484187716
      ],
      [
        "tte",
        -9.513176272221262
      ],
      [
        "▁basel",
        -12.521676475456852
      ],
      [
        "▁tra",
        -13.058002959165613
      ],
      [
        "where",
        -11.75353131760598
      ],
      [
        "▁enfranchis",
        -12.775795689864447
      ],
      [
        "al",
        -9.879150985532643
      ],
      [
        "?",
        -3.1139181233845843
      ],
      [
        "stick",
        -12.252042778327414
      ],
      [
        "▁thro",
        -12.189584710418389
      ],
      [
        "▁tall",
        -9.509964018100352
      ],
      [
        "▁blueberr",
        -10.842269948018677
      ],
      [
        "▁contradict",
        -11.321416355327397
      ],
      [
        "▁trader",
        -10.13264844288771
      ],
      [
        "▁obliterat",
        -12.771025214237437
      ],
      [
        "▁try",
        -6.975326009709027
      ],
      [
        "▁hands",
        -8.560176181127828
      ],
      [
        "▁adol",
        -12.775202157396167
      ],
      [
        "▁flu",
        -11.46378789049423
      ],
      [
        "▁cole",
        -11.320404780081917
      ],
      [
        "▁naturalis",
        -12.249056977801889
      ],
      [
        "▁script",
        -11.912606496662193
      ],
      [
        "aware",
        -12.33516955853773
      ],
      [
        "▁inquire",
        -12.721960550119718
      ],
      [
        "laus",
        -12.792785659324162
      ],
      [
        "ough",
        -8.427482906163835
      ],
      [
        "▁sun",
        -8.204570631865078
      ],
      [
        "ami",
        -11.171813005991753
      ],
      [
        "▁sizzl",
        -12.823744243653207
      ],
      [
        "▁professional",
        -8.81868493798937
      ],
      [
        "ude",
        -11.343820274385248
      ],
      [
        "▁truste",
        -12.031451566012889
      ],
      [
        "▁para",
        -10.213229676076576
      ],
      [
        "▁flank",
        -12.271050851698902
      ],
      [
        "▁tele",
        -11.973608943513758
      ],
      [
        "anuk",
        -12.86418967692597
      ],
      [
        "▁02:",
        -13.328867592342894
      ],
      [
        "▁sacrament",
        -11.937691600777816
      ],
      [
        "▁associate",
        -9.195594564251927
      ],
      [
        "▁angel",
        -8.52683209654578
      ],
      [
        "▁chart",
        -10.44763149735775
      ],
      [
        "columbia",
        -10.23220573517129
      ],
      [
        "38",
        -11.571807773434363
      ],
      [
        "▁`",
        -11.280003543173743
      ],
      [
        "▁novella",
        -11.689473424031195
      ],
      [
        "▁thrille",
        -11.92301206933347
      ],
      [
        "▁mci",
        -12.713151419377237
      ],
      [
        "▁ethic",
        -10.897460536793698
      ],
      [
        "▁imitate",
        -11.937696728240915
      ],
      [
        "▁bram",
        -13.583274477295488
      ],
      [
        "▁ameri",
        -12.791299848186952
      ],
      [
        "2.5",
        -13.146120449771661
      ],
      [
        "▁mid-oc",
        -13.548573843758415
      ],
      [
        "▁waitress",
        -10.667858094881096
      ],
      [
        "▁transport",
        -7.481729734491268
      ],
      [
        "▁thanks",
        -7.759802748881231
      ],
      [
        "▁159",
        -10.436268207533203
      ],
      [
        "▁procession",
        -11.780205669381631
      ],
      [
        "▁interference",
        -10.944520557589883
      ],
      [
        "▁kami",
        -11.493712100311079
      ],
      [
        "en",
        -9.930597159475044
      ],
      [
        "▁loaf",
        -12.27113706278543
      ],
      [
        "▁youngster",
        -12.276755013057432
      ],
      [
        "▁trail",
        -9.848226675440863
      ],
      [
        "津",
        -12.833785825435129
      ],
      [
        "▁clin",
        -11.48008035036357
      ],
      [
        "▁cucumber",
        -12.271029600920347
      ],
      [
        "▁stooge",
        -11.688715674789849
      ],
      [
        "▁registr",
        -11.17449037400364
      ],
      [
        "▁iot",
        -11.938722194848221
      ],
      [
        "▁con",
        -10.832625508225734
      ],
      [
        "pur",
        -12.299009795912772
      ],
      [
        "▁9",
        -12.53046992480503
      ],
      [
        "▁form",
        -11.39195798495936
      ],
      [
        "oij",
        -12.774224746093687
      ],
      [
        "▁pay",
        -8.083696239427066
      ],
      [
        "▁181",
        -12.6722014366133
      ],
      [
        "▁plutocra",
        -12.771164081613849
      ],
      [
        "&",
        -8.721264882567068
      ],
      [
        "▁greete",
        -11.183641196559913
      ],
      [
        "successful",
        -12.232885946742186
      ],
      [
        "▁champ",
        -11.487325989203637
      ],
      [
        "▁mumbl",
        -12.998470489889428
      ],
      [
        "stani",
        -13.543988743299835
      ],
      [
        "▁baba",
        -10.832128567233365
      ],
      [
        "4,",
        -13.63281336500848
      ],
      [
        "▁disposa",
        -13.41692882230911
      ],
      [
        "ʒ",
        -12.771024918880492
      ],
      [
        "▁lepo",
        -12.764033283676707
      ],
      [
        "▁puree",
        -12.884892912102115
      ],
      [
        "▁africa",
        -9.287567414935246
      ],
      [
        "▁madr",
        -12.479479108836005
      ],
      [
        "ex",
        -13.23860932400026
      ],
      [
        "991",
        -12.803767022995844
      ],
      [
        "mec",
        -10.57763543975337
      ],
      [
        "▁balcon",
        -11.487794318704179
      ],
      [
        "▁hi",
        -9.53953082797686
      ],
      [
        "▁conform",
        -10.590902011644882
      ],
      [
        "▁abo",
        -9.942026802887208
      ],
      [
        "02",
        -11.496888303038133
      ],
      [
        "▁scud",
        -12.771853837564255
      ],
      [
        "-life",
        -13.679621394880447
      ],
      [
        "▁stickerbird",
        -11.487708964761076
      ],
      [
        "▁rasp",
        -12.27234299926566
      ],
      [
        "ma",
        -13.489069089140449
      ],
      [
        "▁pixie",
        -10.944458500625638
      ],
      [
        "▁kur",
        -10.936112272567199
      ],
      [
        "▁luna",
        -10.679630489900255
      ],
      [
        "▁b",
        -10.167201760957562
      ],
      [
        "building",
        -13.722933865067915
      ],
      [
        "▁turbine",
        -11.321048023725766
      ],
      [
        "▁preservati",
        -12.55683981132793
      ],
      [
        "▁gallo",
        -11.132967643810993
      ],
      [
        "▁jelli",
        -12.60306167863072
      ],
      [
        "▁tonn",
        -12.816392622966209
      ],
      [
        "▁obligate",
        -11.941580829522088
      ],
      [
        "rid",
        -11.541532283183459
      ],
      [
        "▁skimm",
        -11.948183107961691
      ],
      [
        "696",
        -12.743389716032905
      ],
      [
        "judiciary",
        -11.184884244270792
      ],
      [
        "▁steep",
        -11.937694883576725
      ],
      [
        "mp",
        -11.258134468678413
      ],
      [
        "emotional",
        -13.734073703287685
      ],
      [
        "▁heavi",
        -10.223286145817305
      ],
      [
        "▁enhancement",
        -12.274901325975845
      ],
      [
        "▁wentz",
        -10.228110454530114
      ],
      [
        "▁bark",
        -11.556229616653056
      ],
      [
        "front",
        -11.622734635485214
      ],
      [
        "under",
        -11.462916976308085
      ],
      [
        "▁desk",
        -9.04371766756542
      ],
      [
        "▁welcom",
        -11.028450698515215
      ],
      [
        "utel",
        -11.990454003053198
      ],
      [
        "▁tend",
        -9.673401927954663
      ],
      [
        "▁guerr",
        -12.80266423000974
      ],
      [
        "▁distract",
        -11.0840241520125
      ],
      [
        "▁transnational",
        -12.271047884474829
      ],
      [
        "▁leaders",
        -9.228448881548694
      ],
      [
        "▁moll",
        -10.85531907157456
      ],
      [
        "▁drumstick",
        -12.271051789286396
      ],
      [
        "▁post-",
        -11.358807911431516
      ],
      [
        "▁crumb",
        -12.765827333302294
      ],
      [
        "acio",
        -11.783930075849659
      ],
      [
        "news.bbc.co.uk/",
        -12.791367077217583
      ],
      [
        "620",
        -14.246999949014942
      ],
      [
        "ginn",
        -11.51677083872962
      ],
      [
        "▁pork",
        -11.179390628920546
      ],
      [
        ".org/h",
        -13.648610527405491
      ],
      [
        "sisto",
        -12.78438341392931
      ],
      [
        "=---",
        -11.827184960077153
      ],
      [
        "idget",
        -12.839041706201689
      ],
      [
        "▁compaq",
        -11.686351839649523
      ],
      [
        "▁criminal",
        -9.995129248289874
      ],
      [
        "▁pall",
        -11.751574814598232
      ],
      [
        "▁flinch",
        -12.771196199625814
      ],
      [
        "▁american",
        -7.08902416801501
      ],
      [
        "▁joke",
        -8.677497637110115
      ],
      [
        "▁justify",
        -11.48773185111557
      ],
      [
        "▁colo",
        -13.108232352072674
      ],
      [
        "iriya",
        -12.774903846927508
      ],
      [
        "▁afternoon",
        -7.727972727436573
      ],
      [
        "▁tranquil",
        -11.68769189304179
      ],
      [
        "▁confla",
        -12.73313160751248
      ],
      [
        "▁apologi",
        -13.019593456660438
      ],
      [
        "tens",
        -13.23080419637052
      ],
      [
        "stance",
        -9.92559115370656
      ],
      [
        "▁spend",
        -8.88545650117365
      ],
      [
        "▁flour",
        -11.320921785808714
      ],
      [
        "▁paj",
        -11.160250959195002
      ],
      [
        "▁immac",
        -12.77103671276266
      ],
      [
        "▁twist",
        -9.780844281266921
      ],
      [
        "▁dilute",
        -12.381112093989486
      ],
      [
        "▁co-operat",
        -12.773847524883571
      ],
      [
        "pal",
        -12.510807336189368
      ],
      [
        "▁charl",
        -10.021015302801965
      ],
      [
        "▁grabbe",
        -12.145545446348965
      ],
      [
        "reynol",
        -12.271349798093876
      ],
      [
        "▁trust",
        -9.055256010409646
      ],
      [
        "▁pad",
        -9.909445611247385
      ],
      [
        "schle",
        -11.950975987412537
      ],
      [
        "▁jar",
        -10.229149085737344
      ],
      [
        "▁uneas",
        -10.751281816364042
      ],
      [
        "▁vulnerabilit",
        -11.487725758911639
      ],
      [
        "▁map",
        -9.467517513085156
      ],
      [
        "elve",
        -8.718995318874825
      ],
      [
        "▁abbe",
        -11.950384898683291
      ],
      [
        "▁initiat",
        -11.069563563321458
      ],
      [
        "▁starfighter",
        -11.937736594702764
      ],
      [
        "▁08:1",
        -13.967495779385965
      ],
      [
        "▁fine",
        -8.234465836677689
      ],
      [
        "▁farthe",
        -12.77300810612311
      ],
      [
        "▁williams",
        -11.392191687608783
      ],
      [
        "47",
        -11.295163113814404
      ],
      [
        "432",
        -13.678790289678101
      ],
      [
        "▁poetic",
        -11.494554085068248
      ],
      [
        "▁entertain",
        -10.03674182266372
      ],
      [
        "editorial",
        -11.951514158094373
      ],
      [
        "373",
        -11.658286692588113
      ],
      [
        "▁jaqu",
        -11.954977817369464
      ],
      [
        "▁populate",
        -11.05851214279881
      ],
      [
        "▁bankruptc",
        -11.701911957790488
      ],
      [
        "ccp",
        -12.592018837074551
      ],
      [
        "▁infuse",
        -11.48816420664589
      ],
      [
        "▁font",
        -12.74057141052305
      ],
      [
        "▁70",
        -11.866108540418663
      ],
      [
        "▁industrialist",
        -11.939431589794607
      ],
      [
        "▁skinn",
        -12.139681246178217
      ],
      [
        "▁garden",
        -9.027531610068621
      ],
      [
        "09",
        -11.908274916734841
      ],
      [
        "▁biase",
        -13.369771984268823
      ],
      [
        "▁waste",
        -9.36854628452783
      ],
      [
        "▁generaliz",
        -11.571071404293072
      ],
      [
        "fte",
        -8.871126370217361
      ],
      [
        "▁dharmad",
        -12.275747604045812
      ],
      [
        "17",
        -10.530853205999772
      ],
      [
        "riff",
        -10.799380596975734
      ],
      [
        "ology",
        -12.168127090924367
      ],
      [
        "▁hot",
        -8.114120146090073
      ],
      [
        "▁communal",
        -12.803039867359335
      ],
      [
        "▁incubat",
        -11.313426704767153
      ],
      [
        "▁cruz",
        -12.771606574308304
      ],
      [
        "▁gener",
        -10.459652214110182
      ],
      [
        "▁obstacle",
        -10.590891168369057
      ],
      [
        "▁posit",
        -11.68758695268972
      ],
      [
        "▁endure",
        -11.676382465264693
      ],
      [
        "▁lul",
        -13.121512345293022
      ],
      [
        "▁slo",
        -13.28252720617645
      ],
      [
        "▁inexp",
        -11.036777923214236
      ],
      [
        "2.",
        -15.381518620275799
      ],
      [
        "▁snort",
        -11.944794215046882
      ],
      [
        "▁sake",
        -10.333516917753709
      ],
      [
        "▁cropp",
        -12.303319391803637
      ],
      [
        "▁illuminat",
        -11.839233846016919
      ],
      [
        "▁chor",
        -10.960963216881284
      ],
      [
        "▁simon",
        -11.057232548867997
      ],
      [
        "▁austria",
        -11.178168028962046
      ],
      [
        "▁memoir",
        -10.751183445389968
      ],
      [
        "▁121",
        -14.581591867325715
      ],
      [
        "urgenc",
        -12.470388770865569
      ],
      [
        "▁bu",
        -9.773020580903731
      ],
      [
        "584",
        -13.069565258838212
      ],
      [
        "▁beach",
        -8.498174015493353
      ],
      [
        "n",
        -3.3255869364285555
      ],
      [
        "▁reciproc",
        -11.937691585514388
      ],
      [
        "▁uni",
        -11.50911349906767
      ],
      [
        "ła",
        -12.40298706918177
      ],
      [
        "▁monetize",
        -12.771618338271034
      ],
      [
        "▁galli",
        -12.343503227594427
      ],
      [
        "▁neurolog",
        -11.549615803286216
      ],
      [
        "▁u.",
        -11.12884631915573
      ],
      [
        "itive",
        -11.5061803284364
      ],
      [
        "ould",
        -12.161060577409932
      ],
      [
        "hatma",
        -12.750608591638692
      ],
      [
        "▁spouse",
        -12.271862823559573
      ],
      [
        "79",
        -11.29484954084604
      ],
      [
        "bra",
        -11.964933407075726
      ],
      [
        "▁underst",
        -10.395324254261338
      ],
      [
        "▁nepal",
        -12.27178163464923
      ],
      [
        "▁gre",
        -13.60702860071959
      ],
      [
        "r",
        -9.397823026701388
      ],
      [
        "mulg",
        -12.280686027585448
      ],
      [
        "magne",
        -12.714457293694819
      ],
      [
        "onso",
        -13.000921801297604
      ],
      [
        "▁famous",
        -9.519013391851388
      ],
      [
        "▁evacuation",
        -11.48790761193065
      ],
      [
        "▁rock",
        -8.521486582741222
      ],
      [
        "asser",
        -11.94496573338581
      ],
      [
        "arling",
        -12.91275585039828
      ],
      [
        "cargill",
        -10.223314256871282
      ],
      [
        "▁concede",
        -13.240353127060532
      ],
      [
        "▁http://www.l",
        -12.16718538673115
      ],
      [
        "▁lawyer",
        -10.08070742209917
      ],
      [
        "redefine",
        -13.091610437316824
      ],
      [
        "▁supplier",
        -11.493178500807241
      ],
      [
        "▁reptile",
        -11.499513129111266
      ],
      [
        "▁obligation",
        -10.591321325014228
      ],
      [
        "▁twenty-",
        -12.16465112501011
      ],
      [
        "▁lambala",
        -12.271125439022267
      ],
      [
        "▁tract",
        -12.317343440335053
      ],
      [
        "▁deni",
        -10.299949275113798
      ],
      [
        "n@enron",
        -11.729776130192164
      ],
      [
        "▁sea-",
        -12.866100121783502
      ],
      [
        "8/01",
        -14.138566737487656
      ],
      [
        "ily",
        -9.34336217746926
      ],
      [
        "▁menace",
        -11.937987788263843
      ],
      [
        "▁food",
        -7.193185972794339
      ],
      [
        "chernobyl",
        -10.389358417172781
      ],
      [
        "▁overhea",
        -12.462661600716094
      ],
      [
        "▁mature",
        -10.764585261004951
      ],
      [
        "aima",
        -9.046731417198325
      ],
      [
        "▁provocation",
        -11.487899797938905
      ],
      [
        "thes",
        -10.352235109980318
      ],
      [
        "▁premier",
        -11.937692868198557
      ],
      [
        "▁nac",
        -11.963848644566488
      ],
      [
        "▁stevens",
        -12.58040055601926
      ],
      [
        "-supplies/",
        -12.771304635268082
      ],
      [
        "▁companie",
        -9.232982377731897
      ],
      [
        "▁compel",
        -11.481649024014505
      ],
      [
        "▁unemploy",
        -10.125685892356167
      ],
      [
        "▁shipp",
        -10.47059831158581
      ],
      [
        "▁pops",
        -11.60679241267875
      ],
      [
        "le-",
        -13.690599955058113
      ],
      [
        "▁chrom",
        -11.693855435820828
      ],
      [
        "▁walrus",
        -12.271523584018537
      ],
      [
        "here",
        -8.1828814778635
      ],
      [
        "▁fal",
        -12.161057113031559
      ],
      [
        "▁deduct",
        -11.940715726562603
      ],
      [
        "zionist",
        -13.723937831421436
      ],
      [
        "▁ye",
        -13.20908364397883
      ],
      [
        "▁void",
        -11.68876605594381
      ],
      [
        "east",
        -13.55042164261323
      ],
      [
        "cornell",
        -11.693338322381322
      ],
      [
        "665",
        -14.029149014813683
      ],
      [
        "▁etc",
        -8.74595794265801
      ],
      [
        "ertia",
        -12.412303844464244
      ],
      [
        "▁km",
        -10.95361056434702
      ],
      [
        "-out",
        -11.49376986200338
      ],
      [
        "nibal",
        -13.65111593314541
      ],
      [
        "by",
        -9.358948789174509
      ],
      [
        "▁petri",
        -12.329558593098032
      ],
      [
        "uz",
        -12.361995108720608
      ],
      [
        "▁mcdonald",
        -10.591684933628741
      ],
      [
        "approve",
        -12.733692905267214
      ],
      [
        "▁bor",
        -11.156825547259999
      ],
      [
        "▁anti-",
        -10.51997319038674
      ],
      [
        "▁deadbolt",
        -11.687691596685054
      ],
      [
        "icu",
        -12.92928639303783
      ],
      [
        "▁401",
        -14.13652949020046
      ],
      [
        "ez",
        -10.005164028832574
      ],
      [
        "land",
        -6.920802979281178
      ],
      [
        "▁liberate",
        -12.27725256376398
      ],
      [
        "olomit",
        -12.304981737921482
      ],
      [
        "▁stand",
        -8.468282287016208
      ],
      [
        "▁forgot",
        -9.042834545217922
      ],
      [
        "▁lurch",
        -12.771481389004066
      ],
      [
        "▁ld2d-#6939",
        -11.937762515750393
      ],
      [
        "▁deput",
        -11.323010296600827
      ],
      [
        "▁substanti",
        -10.957997483878982
      ],
      [
        "erial",
        -12.749579400941572
      ],
      [
        "▁tricycle",
        -11.687701809572175
      ],
      [
        "▁videotap",
        -12.78285630837588
      ],
      [
        "▁preferr",
        -10.855520444207134
      ],
      [
        "ears",
        -12.869268962352649
      ],
      [
        "▁man",
        -7.19423450598525
      ],
      [
        "analys",
        -11.901767802932723
      ],
      [
        "dict",
        -12.108261435810489
      ],
      [
        "amble",
        -12.274501784680623
      ],
      [
        "dron",
        -11.090502780267647
      ],
      [
        "▁sinus",
        -11.94113029061011
      ],
      [
        "s/index.",
        -13.473199788083047
      ],
      [
        "▁acqui",
        -13.715209706009743
      ],
      [
        "199",
        -11.808463155916124
      ],
      [
        "99",
        -10.04345582405485
      ],
      [
        "▁mantis",
        -11.714474433802543
      ],
      [
        "▁slave",
        -10.339041199010467
      ],
      [
        "shuffl",
        -13.733905670943784
      ],
      [
        "▁alleg",
        -12.41314613618589
      ],
      [
        "▁>",
        -9.25200696802715
      ],
      [
        "448",
        -13.685044922631343
      ],
      [
        "▁ridicul",
        -12.40822817746949
      ],
      [
        "▁flor",
        -11.516897943134115
      ],
      [
        "▁galo",
        -9.884930574283374
      ],
      [
        "-----",
        -11.828237302032942
      ],
      [
        "▁?!?",
        -13.647540773753786
      ],
      [
        "▁expuls",
        -11.688181065882363
      ],
      [
        "▁bright",
        -9.235139102506981
      ],
      [
        "▁george",
        -8.47978132142662
      ],
      [
        "▁specification",
        -10.954107288802371
      ],
      [
        "838",
        -11.947564887353263
      ],
      [
        "▁ire",
        -9.972495128060745
      ],
      [
        "tangle",
        -11.881843919984354
      ],
      [
        "▁useful",
        -9.752026017065837
      ],
      [
        "▁code",
        -8.608836374102463
      ],
      [
        "249",
        -14.261623159528837
      ],
      [
        "aq=",
        -12.774020645708468
      ],
      [
        "the",
        -5.642825194949209
      ],
      [
        "urning",
        -12.925082194941377
      ],
      [
        "▁ecologist",
        -12.772375795339983
      ],
      [
        "▁chen",
        -12.88906265721538
      ],
      [
        "roub",
        -12.773933771761186
      ],
      [
        "scam",
        -12.82140918739523
      ],
      [
        "▁reek",
        -12.773477433086398
      ],
      [
        "▁honk",
        -11.939737122446461
      ],
      [
        "▁steven",
        -11.1069538872007
      ],
      [
        "▁chito",
        -12.589785634864022
      ],
      [
        "▁era",
        -10.297087632556684
      ],
      [
        "▁goal",
        -9.128823835149166
      ],
      [
        "▁anni",
        -12.057406397312118
      ],
      [
        "risk",
        -12.124571084145966
      ],
      [
        "▁sad",
        -9.219677191880958
      ],
      [
        "▁booz",
        -12.278133964029148
      ],
      [
        "▁golden",
        -9.845180588787787
      ],
      [
        "▁equivalent",
        -10.7555840136087
      ],
      [
        "▁bartender",
        -11.688228496328701
      ],
      [
        "▁manson",
        -11.700021846270907
      ],
      [
        "▁sub",
        -9.410899149052113
      ],
      [
        "▁rom",
        -11.282763908237797
      ],
      [
        ".fr",
        -12.087553944181906
      ],
      [
        "▁marking",
        -12.028236256129022
      ],
      [
        "▁yield",
        -10.390296176755186
      ],
      [
        "▁unst",
        -13.36791203532514
      ],
      [
        "z",
        -11.758838788587859
      ],
      [
        "▁verse",
        -10.845406873047914
      ],
      [
        "▁cleric",
        -10.943173059701428
      ],
      [
        "▁excu",
        -12.971284196130021
      ],
      [
        "thus",
        -10.133259834333966
      ],
      [
        "▁grass",
        -9.784009754567775
      ],
      [
        "▁color",
        -7.94444252089537
      ],
      [
        "sa",
        -10.695860057288726
      ],
      [
        "▁among",
        -8.705769502659557
      ],
      [
        "▁knitt",
        -12.298695038162494
      ],
      [
        "▁11:0",
        -11.779412810543928
      ],
      [
        "alism",
        -11.823816817539608
      ],
      [
        "▁blossom",
        -11.944741312433896
      ],
      [
        "movie",
        -13.732681976454543
      ],
      [
        "erdu",
        -13.540715440602636
      ],
      [
        "▁neurocogniti",
        -12.29568959606847
      ],
      [
        "▁harp",
        -11.18039282126111
      ],
      [
        "caem",
        -12.277101634541161
      ],
      [
        "▁stan",
        -10.210781708316254
      ],
      [
        "▁romantic",
        -9.88110911954513
      ],
      [
        "▁shut",
        -9.543595327884155
      ],
      [
        "▁pat",
        -10.62840979915589
      ],
      [
        "▁eaves",
        -12.27264142647383
      ],
      [
        "▁thermo",
        -11.937750492557036
      ],
      [
        "▁spot",
        -9.047449579990502
      ],
      [
        "nti",
        -11.703237119192112
      ],
      [
        "▁flat",
        -9.421785653347316
      ],
      [
        "il",
        -11.044022491264839
      ],
      [
        "bangkok",
        -12.771040407937532
      ],
      [
        "▁wear",
        -8.267201313421422
      ],
      [
        "oot",
        -13.674786157138879
      ],
      [
        "▁strapp",
        -12.79969142920488
      ],
      [
        "▁bumble",
        -11.321176682682948
      ],
      [
        "▁mott",
        -11.976039252999675
      ],
      [
        "z",
        -8.513776215451228
      ],
      [
        "▁styler",
        -12.00343829351355
      ],
      [
        "▁shrew",
        -12.24883188111153
      ],
      [
        "▁distinguishe",
        -11.488879860942676
      ],
      [
        "v.",
        -10.290790283935934
      ],
      [
        "rush",
        -12.737359071835286
      ],
      [
        "▁vehicle",
        -9.809371998290747
      ],
      [
        "▁eyebrow",
        -11.687691944507044
      ],
      [
        "9/200",
        -11.994173130074634
      ],
      [
        "916",
        -13.315553684963554
      ],
      [
        "▁decor",
        -10.947809679175732
      ],
      [
        "▁wan",
        -6.730760887722231
      ],
      [
        "▁deliver",
        -8.89733287540365
      ],
      [
        "▁l.p",
        -12.817984553812025
      ],
      [
        "▁ec",
        -9.498882213212681
      ],
      [
        "▁dai",
        -12.019832220208404
      ],
      [
        "▁hoste",
        -13.476865972883587
      ],
      [
        "surp",
        -12.830140119120124
      ],
      [
        "nea",
        -14.363243559794505
      ],
      [
        "▁t+rex",
        -12.271024918881682
      ],
      [
        "▁calme",
        -12.895557872528538
      ],
      [
        "▁foreigner",
        -10.404380922557998
      ],
      [
        "▁ear",
        -9.717910205486994
      ],
      [
        "▁mast",
        -12.351109470895901
      ],
      [
        "▁coordinati",
        -10.582478751805292
      ],
      [
        "kan",
        -12.357354247328262
      ],
      [
        "login",
        -12.319461921042068
      ],
      [
        "▁lag",
        -11.934976581626412
      ],
      [
        "▁hinder",
        -12.27685412071946
      ],
      [
        "▁tie",
        -8.626873339883655
      ],
      [
        "ping",
        -10.816402020998954
      ],
      [
        "550",
        -14.138024971197327
      ],
      [
        "▁r2",
        -12.271998080272795
      ],
      [
        "▁laure",
        -11.467353957491522
      ],
      [
        "stand",
        -12.147606871509574
      ],
      [
        "▁snail",
        -11.488977037187638
      ],
      [
        "▁talent",
        -9.999171714802342
      ],
      [
        "▁blown",
        -10.696034334501498
      ],
      [
        "▁coincide",
        -11.511700539333349
      ],
      [
        "▁subform",
        -12.271072558720773
      ],
      [
        "▁independent",
        -9.29543920288602
      ],
      [
        "▁immi",
        -13.510284354257418
      ],
      [
        "▁persuade",
        -11.211180567840957
      ],
      [
        "▁misfortune",
        -11.937691585578253
      ],
      [
        "▁finer",
        -13.491841512609396
      ],
      [
        "▁disappoint",
        -10.275327158027528
      ],
      [
        "▁maid",
        -11.849535206197562
      ],
      [
        "▁occupie",
        -11.053167878099458
      ],
      [
        "▁aros",
        -11.18204246247347
      ],
      [
        "alam",
        -12.771989712280691
      ],
      [
        "▁elder",
        -10.45326703969322
      ],
      [
        "fisca",
        -13.66133110206065
      ],
      [
        "▁co-",
        -11.631893391795638
      ],
      [
        "▁ballot",
        -11.688876933749178
      ],
      [
        "hin",
        -10.374880887447766
      ],
      [
        "o",
        -2.821872209097938
      ],
      [
        "▁object",
        -9.057470589502959
      ],
      [
        "▁funeral",
        -10.331542817556862
      ],
      [
        "▁since",
        -10.353748570839585
      ],
      [
        "▁assum",
        -10.436525807449554
      ],
      [
        "▁braver",
        -11.067347702918532
      ],
      [
        "▁reinforc",
        -11.907836914537617
      ],
      [
        "▁shre",
        -11.931390794731872
      ],
      [
        "▁splat",
        -12.7552784456674
      ],
      [
        "▁dominate",
        -10.592533916054437
      ],
      [
        "▁tour",
        -9.116965010445876
      ],
      [
        "▁audience",
        -9.517481889689932
      ],
      [
        "▁carpent",
        -11.93867222378724
      ],
      [
        "ps.",
        -12.097903778654935
      ],
      [
        "▁testif",
        -12.415306130815118
      ],
      [
        "▁stampede",
        -11.489199339483173
      ],
      [
        "mo",
        -11.552615020259939
      ],
      [
        "llah",
        -10.727723554335093
      ],
      [
        "variabl",
        -12.770127000719949
      ],
      [
        "▁over",
        -7.215890673759658
      ],
      [
        "▁lauren",
        -12.320102800681695
      ],
      [
        "aviatio",
        -12.833785826210246
      ],
      [
        "▁ones",
        -8.893439252200793
      ],
      [
        "▁walk",
        -7.557172565672435
      ],
      [
        "▁king",
        -9.039103829742462
      ],
      [
        "▁sleeper",
        -13.42567154049141
      ],
      [
        "chro",
        -11.70989201885687
      ],
      [
        "▁chemist",
        -12.189165208854
      ],
      [
        "▁ugl",
        -10.759410492040603
      ],
      [
        "gnof",
        -12.771545873229439
      ],
      [
        "▁half",
        -8.479013620947999
      ],
      [
        "▁stoke",
        -12.278623133078254
      ],
      [
        "▁caption",
        -12.775612816857658
      ],
      [
        "▁exercise",
        -9.608853159435835
      ],
      [
        "▁decided",
        -8.804758206915928
      ],
      [
        "na",
        -9.404391284717429
      ],
      [
        "▁embrace",
        -11.373696124504592
      ],
      [
        "▁’",
        -10.228851442284377
      ],
      [
        "▁simulate",
        -12.59235645939506
      ],
      [
        "dependenc",
        -11.924066114712573
      ],
      [
        "▁tham",
        -11.26713278775613
      ],
      [
        "mart",
        -10.848092226452518
      ],
      [
        "meter",
        -10.719068862717254
      ],
      [
        "os",
        -14.266191704702232
      ],
      [
        "bi",
        -9.696490419390328
      ],
      [
        "tel",
        -12.258190552242457
      ],
      [
        "▁purpose",
        -8.996597948043956
      ],
      [
        "shaft",
        -12.219284024603157
      ],
      [
        "▁oblivio",
        -12.272108271211822
      ],
      [
        "fresh",
        -13.08261573617793
      ],
      [
        "▁t.",
        -11.042173479952277
      ],
      [
        "▁clear",
        -8.073170186317311
      ],
      [
        "▁signature",
        -10.669787163267346
      ],
      [
        "cus",
        -14.750903904043147
      ],
      [
        "firefox",
        -10.667835618203817
      ],
      [
        "▁hospitalize",
        -12.774901810282335
      ],
      [
        "vard",
        -12.209918934502005
      ],
      [
        "ava",
        -13.084340474635995
      ],
      [
        "info.",
        -12.967012624266419
      ],
      [
        "▁cavern",
        -11.937822670266861
      ],
      [
        "▁intran",
        -12.144488539199205
      ],
      [
        "▁bottle",
        -8.781631049370958
      ],
      [
        ".com/",
        -10.151509655085311
      ],
      [
        "▁perceiv",
        -11.862548970907277
      ],
      [
        "▁balance",
        -9.019797370435487
      ],
      [
        "pop",
        -11.650275258615293
      ],
      [
        "▁transmitte",
        -11.42485057158801
      ],
      [
        "د",
        -11.833785825435129
      ],
      [
        "reconcil",
        -13.729734819432775
      ],
      [
        "▁chamber",
        -10.751188912505913
      ],
      [
        "▁08:3",
        -12.515232474275917
      ],
      [
        "▁iodise",
        -11.170365585037302
      ],
      [
        "▁stocking",
        -11.689593526872978
      ],
      [
        "▁quick",
        -8.29871487831052
      ],
      [
        "writer",
        -11.649731397589134
      ],
      [
        "▁comedian",
        -11.688848416498134
      ],
      [
        "▁accumulate",
        -11.106257029692973
      ],
      [
        "no",
        -11.574233054872998
      ],
      [
        "▁shel",
        -9.882889803634928
      ],
      [
        "▁flute",
        -12.79743468400626
      ],
      [
        "▁repai",
        -11.999918879741042
      ],
      [
        "▁a&",
        -11.493328351066777
      ],
      [
        "▁eliminat",
        -11.93270254983313
      ],
      [
        "▁11:",
        -12.774231487304524
      ],
      [
        "controversial",
        -13.733764281080502
      ],
      [
        "▁speci",
        -9.419204823004092
      ],
      [
        "tractor",
        -9.902659869669279
      ],
      [
        "▁10:4",
        -12.397343587659027
      ],
      [
        "▁281-4",
        -12.337157708975122
      ],
      [
        "mond",
        -10.64053206159421
      ],
      [
        "▁wealthie",
        -13.129901446815468
      ],
      [
        "▁pitche",
        -11.633387420488654
      ],
      [
        "▁bart",
        -11.66240338754041
      ],
      [
        "▁pronounc",
        -12.723067413075873
      ],
      [
        "▁drill",
        -10.452904832529649
      ],
      [
        "▁pragmatic",
        -11.487691585896787
      ],
      [
        "▁shank",
        -11.488220281334723
      ],
      [
        "▁module",
        -11.687986108628618
      ],
      [
        "clear",
        -13.033043829191742
      ],
      [
        "given",
        -9.10708215570574
      ],
      [
        "▁counterpart",
        -9.569444003185112
      ],
      [
        "arctic",
        -10.75302428061956
      ],
      [
        "ius",
        -11.439339175710932
      ],
      [
        "▁for",
        -5.030157282061143
      ],
      [
        "▁practical",
        -10.003665904398117
      ],
      [
        "▁hubb",
        -11.414991218546774
      ],
      [
        "▁202.456.",
        -13.13539424992046
      ],
      [
        "▁productiv",
        -10.320896983686197
      ],
      [
        "▁warlord",
        -11.938181724276602
      ],
      [
        "▁majest",
        -12.770762326491532
      ],
      [
        "▁was",
        -7.285141510525882
      ],
      [
        "▁purcha",
        -13.696730334154816
      ],
      [
        "▁500",
        -10.955114086710612
      ],
      [
        "▁causal",
        -11.574253595296957
      ],
      [
        "▁peters",
        -11.368876298923405
      ],
      [
        "**********",
        -11.222325853193087
      ],
      [
        "▁probab",
        -12.203675335820076
      ],
      [
        "▁giann",
        -12.783660696681022
      ],
      [
        "▁fringe",
        -11.733798470761055
      ],
      [
        "erra",
        -12.847165898298034
      ],
      [
        "▁circulate",
        -11.393935028774482
      ],
      [
        "▁ord",
        -13.140606060513807
      ],
      [
        "▁jem",
        -11.95068342811953
      ],
      [
        "▁anxiet",
        -11.68769161775511
      ],
      [
        "▁mau",
        -11.398300287925327
      ],
      [
        "▁chit",
        -12.063785664570096
      ],
      [
        "▁parenthe",
        -12.792478628524128
      ],
      [
        "▁categoriz",
        -12.78650788607194
      ],
      [
        "▁utilis",
        -12.27102495597334
      ],
      [
        "▁heating",
        -11.001323376208473
      ],
      [
        "▁guilt",
        -10.080212886625716
      ],
      [
        "▁teenager",
        -11.322351568228308
      ],
      [
        "ve",
        -10.988946458107845
      ],
      [
        "▁cry",
        -9.11116986585834
      ],
      [
        "wa",
        -12.083792402984447
      ],
      [
        "▁gate",
        -10.052826661949823
      ],
      [
        "▁treasur",
        -12.153737453780305
      ],
      [
        "▁socio-",
        -12.771296892976373
      ],
      [
        "☏",
        -11.333785825435129
      ],
      [
        "▁stra",
        -12.104662055378165
      ],
      [
        "russel",
        -11.35691300973075
      ],
      [
        "▁yelp",
        -12.271306872243805
      ],
      [
        "▁patro",
        -11.939530063076628
      ],
      [
        "28",
        -11.333881110935947
      ],
      [
        "▁killing",
        -10.00347607923452
      ],
      [
        "▁lo",
        -9.680443866208737
      ],
      [
        "▁expecta",
        -12.03845044520262
      ],
      [
        "▁worm",
        -9.76191744687536
      ],
      [
        "bat",
        -12.344963604720679
      ],
      [
        "lin",
        -10.322262210481831
      ],
      [
        "lugu",
        -12.77192750554875
      ],
      [
        "ca",
        -10.28948879119239
      ],
      [
        "genev",
        -13.703587063983964
      ],
      [
        "1.3",
        -11.69160675419613
      ],
      [
        "▁brainwash",
        -11.937851786429995
      ],
      [
        "▁matri",
        -11.93793145374194
      ],
      [
        "cesar",
        -12.002528588985447
      ],
      [
        "▁sardin",
        -12.344466616766423
      ],
      [
        "▁skinne",
        -12.945368985587143
      ],
      [
        "▁constitute",
        -10.942075773449382
      ],
      [
        "▁nerd",
        -12.277895333581842
      ],
      [
        "▁what",
        -5.09320280019549
      ],
      [
        "▁buffet",
        -11.687857876636821
      ],
      [
        "▁adhere",
        -12.384157533049688
      ],
      [
        "▁piece",
        -7.898894228426467
      ],
      [
        "▁recycl",
        -12.271025260097774
      ],
      [
        "▁declar",
        -10.889279765342447
      ],
      [
        "hat",
        -7.3915594095763515
      ],
      [
        "▁jelly",
        -10.22633708028749
      ],
      [
        "berkeley",
        -11.05316814530772
      ],
      [
        "▁orientation",
        -10.945532573386132
      ],
      [
        "67",
        -11.822474206709575
      ],
      [
        "▁how",
        -8.861903242976682
      ],
      [
        "-5",
        -13.761965689359295
      ],
      [
        "▁regenerat",
        -12.237071705810129
      ],
      [
        "▁krist",
        -12.707191848607874
      ],
      [
        "aph",
        -13.454490853338948
      ],
      [
        "▁bou",
        -12.825487659162425
      ],
      [
        "lib",
        -11.926719313325172
      ],
      [
        "▁cosmetic",
        -11.937704269635205
      ],
      [
        "▁foodie",
        -12.772667504076805
      ],
      [
        "▁overthr",
        -13.711253075345079
      ],
      [
        "▁perpetua",
        -11.931245795608945
      ],
      [
        "bus",
        -11.536865279544383
      ],
      [
        "▁pa",
        -9.68578111468014
      ],
      [
        "ere",
        -6.953201077980379
      ],
      [
        "inded",
        -12.827799215568668
      ],
      [
        "▁10.",
        -12.227526544380565
      ],
      [
        "▁be",
        -5.10546657731296
      ],
      [
        "b.",
        -12.033788032754089
      ],
      [
        "▁loot",
        -11.754472942400945
      ],
      [
        "▁hamm",
        -12.1838143408387
      ],
      [
        "form",
        -13.6069871966102
      ],
      [
        "uous",
        -13.27195282023143
      ],
      [
        "▁thorough",
        -10.51949050376744
      ],
      [
        "▁sleep",
        -8.079271206691217
      ],
      [
        "▁sphere",
        -11.721996801154566
      ],
      [
        "▁bering",
        -11.971755567638606
      ],
      [
        "onto",
        -8.310793098360989
      ],
      [
        "▁rascal",
        -12.271122151208601
      ],
      [
        "mission",
        -10.350231065378946
      ],
      [
        "▁honey",
        -8.745439147114926
      ],
      [
        "▁barn",
        -9.373190034696437
      ],
      [
        "▁tooth",
        -10.566999519488135
      ],
      [
        "▁02:2",
        -13.25195685742674
      ],
      [
        "102",
        -15.442535429656798
      ],
      [
        "eastern",
        -11.930927092106288
      ],
      [
        "tom",
        -12.086968732918077
      ],
      [
        "▁portal",
        -12.932119126949768
      ],
      [
        "ipod",
        -12.017611250252934
      ],
      [
        "0.9",
        -15.298300968100728
      ],
      [
        "▁now",
        -6.011113366316241
      ],
      [
        "▁desire",
        -9.6938079208987
      ],
      [
        "▁podcast",
        -11.178168232975523
      ],
      [
        "▁gte",
        -11.948128203318193
      ],
      [
        "▁averag",
        -9.492941633483003
      ],
      [
        "engue",
        -13.331726559098598
      ],
      [
        "▁remote",
        -10.590964372777664
      ],
      [
        "▁conceivabl",
        -12.94161327531123
      ],
      [
        "▁leisure",
        -11.053168004780849
      ],
      [
        "▁college",
        -8.996598090494269
      ],
      [
        "▁are",
        -7.145531265747977
      ],
      [
        "▁enterprise",
        -10.842927906126402
      ],
      [
        "▁1940",
        -12.335329628465026
      ],
      [
        "ski",
        -12.042231313241379
      ],
      [
        "▁713-853-",
        -12.650615157195254
      ],
      [
        "▁contribut",
        -11.349658585020645
      ],
      [
        "$",
        -13.701907056799467
      ],
      [
        "▁bumblebee",
        -11.937716886588124
      ],
      [
        "-cage-",
        -12.271025122798875
      ],
      [
        "ri",
        -9.520269724408493
      ],
      [
        "▁streamline",
        -11.688333442380854
      ],
      [
        "prop",
        -12.218126152034799
      ],
      [
        "▁demonstrat",
        -11.933315413163292
      ],
      [
        "kay",
        -13.38554758700349
      ],
      [
        "▁savi",
        -13.728175430671712
      ],
      [
        "▁reside",
        -11.250733272516
      ],
      [
        "▁bunn",
        -9.423218488868129
      ],
      [
        "ten",
        -9.89733315148837
      ],
      [
        "chord",
        -13.562212319477954
      ],
      [
        "hood",
        -9.910471893302812
      ],
      [
        "▁exe",
        -12.055889767457836
      ],
      [
        "?id=",
        -12.349145944729152
      ],
      [
        "sphere",
        -11.895511856532693
      ],
      [
        "lia",
        -13.569863146691477
      ],
      [
        "[PAD]",
        0.0
      ],
      [
        "▁aeron",
        -12.830898433529228
      ],
      [
        "automatic",
        -12.232439619635914
      ],
      [
        "sahar",
        -12.487383910263283
      ],
      [
        "43",
        -12.249869721942224
      ],
      [
        "▁alekse",
        -12.771036370903168
      ],
      [
        "usa",
        -12.832706118609991
      ],
      [
        "▁.........",
        -13.51939385127207
      ],
      [
        "nted",
        -12.48467245134614
      ],
      [
        "▁patter",
        -11.053369084420298
      ],
      [
        "▁burner",
        -12.320237239530261
      ],
      [
        "▁rec",
        -11.30507092401655
      ],
      [
        "▁no-4",
        -13.278173271145704
      ],
      [
        "▁cooperate",
        -11.626213411189784
      ],
      [
        ":48",
        -13.969906159124326
      ],
      [
        "▁unpai",
        -12.543786969486938
      ],
      [
        "▁imbalance",
        -11.487698914082237
      ],
      [
        "▁prevalen",
        -11.687790645516415
      ],
      [
        "▁kinsm",
        -12.598609007549049
      ],
      [
        "newsday.com",
        -12.772405702087655
      ],
      [
        "▁somewh",
        -10.060383538433813
      ],
      [
        "▁outlet",
        -11.183462352591334
      ],
      [
        "64",
        -12.106504557730869
      ],
      [
        "▁muff",
        -11.772709288299954
      ],
      [
        "▁!!!!!!!!!!!!!",
        -12.91786016858164
      ],
      [
        "▁tumbled",
        -11.94772901212412
      ],
      [
        "▁efficien",
        -10.16849390512325
      ],
      [
        "▁exact",
        -8.757051909046337
      ],
      [
        "▁vot",
        -10.701408971368297
      ],
      [
        "coheren",
        -13.734162203139153
      ],
      [
        "▁describ",
        -10.487473730506746
      ],
      [
        "▁toys",
        -8.989178271947793
      ],
      [
        "▁1996",
        -11.89624821019811
      ],
      [
        "▁activate",
        -11.687692588714297
      ],
      [
        "beresford",
        -12.271055403530955
      ],
      [
        "▁dresser",
        -11.565635157577198
      ],
      [
        "unset",
        -12.397332176337285
      ],
      [
        "▁facult",
        -10.27591835650351
      ],
      [
        "▁pickup",
        -12.796920053861776
      ],
      [
        "▁castl",
        -12.890684936538054
      ],
      [
        ".",
        -1.4798978484674539
      ],
      [
        "▁updat",
        -12.244806141089336
      ],
      [
        "▁aberdeen",
        -11.321024962031506
      ],
      [
        "▁06:0",
        -12.342292111029062
      ],
      [
        "simien",
        -12.271027052239132
      ],
      [
        "▁240",
        -13.106045885865703
      ],
      [
        "am",
        -9.517143883705815
      ],
      [
        "883",
        -14.15438031203266
      ],
      [
        "gmat",
        -12.277243969898223
      ],
      [
        "▁norwegian",
        -11.487691585507442
      ],
      [
        "▁lip",
        -10.692466659235187
      ],
      [
        "zzin",
        -12.793386161694936
      ],
      [
        "▁undermine",
        -11.328387246541116
      ],
      [
        "▁vegetarian",
        -11.330854940048425
      ],
      [
        "▁ex",
        -10.277080533500822
      ],
      [
        "▁no-",
        -13.47376073561761
      ],
      [
        "▁rath",
        -8.556708560923367
      ],
      [
        "▁foresee",
        -12.271323950858925
      ],
      [
        "▁973-",
        -13.136809148661035
      ],
      [
        ".ac.",
        -11.687716886069003
      ],
      [
        "▁inquiring",
        -12.06077593289079
      ],
      [
        "▁emm",
        -12.628292651974906
      ],
      [
        "▁pruden",
        -13.679882817612219
      ],
      [
        "******",
        -12.42827897919895
      ],
      [
        "▁agent",
        -9.333292045617569
      ],
      [
        "▁oath",
        -10.519660457235275
      ],
      [
        "▁deep",
        -8.909455406582445
      ],
      [
        "▁speck",
        -11.693007239374024
      ],
      [
        "▁kill",
        -9.075243007004811
      ],
      [
        "·",
        -9.904817571414563
      ],
      [
        "▁meow",
        -10.276068507847882
      ],
      [
        "▁capital",
        -8.911494224675387
      ],
      [
        "▁bill",
        -8.656867827065753
      ],
      [
        "▁analys",
        -9.304740071913075
      ],
      [
        "▁parody",
        -12.271031565109524
      ],
      [
        "▁succumb",
        -12.271025674739981
      ],
      [
        "berger",
        -11.582549264689094
      ],
      [
        "▁kimber",
        -12.774918994696762
      ],
      [
        "govern",
        -12.869789375295344
      ],
      [
        "cock",
        -12.66699498917898
      ],
      [
        "160",
        -12.373121820272267
      ],
      [
        "▁whil",
        -7.852958576257973
      ],
      [
        "▁this",
        -10.538468592131542
      ],
      [
        "▁600",
        -11.992235792398532
      ],
      [
        "▁beneficiar",
        -12.943696140839366
      ],
      [
        "▁prof",
        -12.73257274903031
      ],
      [
        "▁fuzz",
        -11.178175512601108
      ],
      [
        "▁cheer",
        -10.460860294270862
      ],
      [
        "▁335",
        -13.289610428496676
      ],
      [
        "▁homeopath",
        -10.667851121981872
      ],
      [
        "▁complain",
        -10.27110093955865
      ],
      [
        "▁laid",
        -10.037687400503437
      ],
      [
        "la",
        -10.269817022195172
      ],
      [
        "▁bachelor",
        -11.687691603617369
      ],
      [
        "▁ponc",
        -12.675047615096586
      ],
      [
        "yet",
        -8.378937326262536
      ],
      [
        "▁bodi",
        -10.665169949830332
      ],
      [
        "acia",
        -12.35067822828685
      ],
      [
        "operations",
        -12.43873751917468
      ],
      [
        "▁’",
        -8.643293563333359
      ],
      [
        "▁mcma",
        -12.308834325087636
      ],
      [
        "girl",
        -13.726896580049107
      ],
      [
        "▁pal",
        -11.011786454927975
      ],
      [
        "▁milli",
        -11.423692176340236
      ],
      [
        "▁fo",
        -12.838710837665342
      ],
      [
        "▁collaboration",
        -10.66781424071453
      ],
      [
        "alvin",
        -12.02852772065213
      ],
      [
        "ckl",
        -13.677387732759543
      ],
      [
        "novation",
        -12.444641026711643
      ],
      [
        "▁private",
        -9.027700180894758
      ],
      [
        "54",
        -12.936357879777361
      ],
      [
        "-call",
        -11.058921377947883
      ],
      [
        "tling",
        -12.482221432882064
      ],
      [
        "sco",
        -13.086853450278891
      ],
      [
        "spec",
        -13.150561858171432
      ],
      [
        "▁doogin",
        -12.271025460023933
      ],
      [
        "ceutical",
        -12.77511393155643
      ],
      [
        "▁recall",
        -9.955188303300616
      ],
      [
        "▁relocate",
        -12.544769144938726
      ],
      [
        "yahoo.com",
        -11.93751591776777
      ],
      [
        "-on",
        -13.071995853039812
      ],
      [
        "▁fa",
        -10.540677427827053
      ],
      [
        "forum",
        -13.646284534286062
      ],
      [
        "▁2.",
        -11.0544669463262
      ],
      [
        "▁pan",
        -9.323756312171358
      ],
      [
        "5,7",
        -13.612706607221204
      ],
      [
        "▁bangladesh",
        -10.837715745522374
      ],
      [
        "programmes",
        -13.45468183806747
      ],
      [
        "▁deficit",
        -11.487691848415519
      ],
      [
        "!",
        -5.053267665729649
      ],
      [
        "sie",
        -11.754802446786904
      ],
      [
        "▁settler",
        -10.52462464148243
      ],
      [
        "shared",
        -11.4046728435246
      ],
      [
        "▁roast",
        -10.942094272777041
      ],
      [
        "▁disagree",
        -11.177503974904639
      ],
      [
        "holster",
        -11.949295406419559
      ],
      [
        "ier",
        -10.255157971623579
      ],
      [
        "▁202.7",
        -13.178606100086407
      ],
      [
        "information",
        -7.326725036468212
      ],
      [
        "▁jeff",
        -9.05864684653038
      ],
      [
        "▁more",
        -6.0111921036966285
      ],
      [
        "nia",
        -9.726279199909234
      ],
      [
        "▁composition",
        -10.590936677152587
      ],
      [
        "▁10:46",
        -13.191033757998555
      ],
      [
        "▁sweet",
        -8.910526340544413
      ],
      [
        "▁artificial",
        -10.7511508011702
      ],
      [
        "▁muddy",
        -12.272857030911634
      ],
      [
        "▁qua",
        -11.268284776938367
      ],
      [
        "nytime",
        -13.345858866677952
      ],
      [
        "▁curb",
        -11.178439383603223
      ],
      [
        "centre",
        -12.736315542805269
      ],
      [
        "▁surviv",
        -10.015381264818803
      ],
      [
        "9025",
        -13.941520505513104
      ],
      [
        "▁limo",
        -12.771343674125387
      ],
      [
        "▁transformati",
        -11.875037073748429
      ],
      [
        "▁guest",
        -9.596756765695535
      ],
      [
        "▁net",
        -9.538475243261889
      ],
      [
        "▁natur",
        -12.575110636072559
      ],
      [
        "▁performer",
        -12.005962739167877
      ],
      [
        "▁16",
        -11.696066059395724
      ],
      [
        "▁12:",
        -12.101167411589989
      ],
      [
        "▁group",
        -7.455968931496019
      ],
      [
        "▁agricultur",
        -9.877534977584471
      ],
      [
        "▁snor",
        -11.932064303865921
      ],
      [
        "▁chemical",
        -9.627987921184976
      ],
      [
        "▁symboli",
        -13.640835928614063
      ],
      [
        "0,000",
        -10.195250905356877
      ],
      [
        "▁yrs",
        -12.198608459997716
      ],
      [
        "▁shoe",
        -8.34877324221496
      ],
      [
        "▁wif",
        -8.386345562263365
      ],
      [
        "▁imprison",
        -10.667814244305625
      ],
      [
        "a",
        -8.241796670952791
      ],
      [
        "▁adj",
        -11.914934128551142
      ],
      [
        "▁decreas",
        -12.589825858584955
      ],
      [
        "▁prize",
        -10.275975941912822
      ],
      [
        "▁cropduster",
        -11.937693280478804
      ],
      [
        "▁auditor",
        -12.274726699039237
      ],
      [
        "▁ig",
        -11.51413377136796
      ],
      [
        "▁metaphysic",
        -12.271151718830321
      ],
      [
        "▁southeast",
        -11.010392851666818
      ],
      [
        "▁revive",
        -11.818908413954134
      ],
      [
        "▁mont",
        -11.406343531014489
      ],
      [
        "kka",
        -12.820586720232937
      ],
      [
        "▁2000",
        -9.714470099810217
      ],
      [
        "▁proceed",
        -9.931391731382783
      ],
      [
        "do",
        -9.846160357156576
      ],
      [
        "alle",
        -12.346705581634012
      ],
      [
        "▁redesign",
        -11.939685516924502
      ],
      [
        "body",
        -10.185446763791704
      ],
      [
        "▁poll",
        -10.592048178558207
      ],
      [
        "▁disorder",
        -10.842147178831915
      ],
      [
        "▁weep",
        -11.691520555947212
      ],
      [
        "▁mug",
        -11.692171613119037
      ],
      [
        "▁bulg",
        -11.689636664745494
      ],
      [
        "▁dioxi",
        -10.842436380166049
      ],
      [
        "▁were",
        -8.436230022223853
      ],
      [
        "▁recruit",
        -10.08021600685042
      ],
      [
        "▁bitter",
        -10.845588060041251
      ],
      [
        "airbnb",
        -10.751147862516405
      ],
      [
        "09",
        -12.762023167345344
      ],
      [
        "▁banana",
        -8.805584201166266
      ],
      [
        "▁deceiv",
        -12.292805040619381
      ],
      [
        "▁episcopal",
        -12.771024919172595
      ],
      [
        "▁acidi",
        -13.130564863304569
      ],
      [
        "▁bomb",
        -9.603376923761685
      ],
      [
        "▁personalize",
        -12.281531606014937
      ],
      [
        "▁beating",
        -10.935272762426544
      ],
      [
        "▁season",
        -9.261573337641615
      ],
      [
        "▁consist",
        -10.45230822261459
      ],
      [
        "co",
        -11.294682586699295
      ],
      [
        "sonic",
        -11.736789089215069
      ],
      [
        "grammatical",
        -11.703954901730198
      ],
      [
        ".62",
        -13.211030304685309
      ],
      [
        "erlin",
        -12.007613372241707
      ],
      [
        "kush",
        -12.823334713507249
      ],
      [
        "▁nestl",
        -12.992225268617274
      ],
      [
        "▁vick",
        -12.789412027244103
      ],
      [
        "▁budd",
        -10.446999528718639
      ],
      [
        "▁vest",
        -10.754824689605012
      ],
      [
        "▁cann",
        -12.56982772784551
      ],
      [
        "rick",
        -10.078915474298315
      ],
      [
        "▁gilber",
        -12.909250301286582
      ],
      [
        "ethic",
        -13.183069058396962
      ],
      [
        "▁women",
        -8.369508578465537
      ],
      [
        "▁beside",
        -10.020238870103876
      ],
      [
        "▁hop",
        -9.256632908834462
      ],
      [
        "▁weed",
        -10.90434501292375
      ],
      [
        "▁confine",
        -10.942091871349335
      ],
      [
        ".edu",
        -12.750964056390956
      ],
      [
        "▁155",
        -13.15109811699319
      ],
      [
        "▁cubis",
        -12.203099933487254
      ],
      [
        "▁noodl",
        -12.85245414360261
      ],
      [
        "▁graci",
        -11.482416258336123
      ],
      [
        "-ho",
        -13.398391071826284
      ],
      [
        "▁coff",
        -13.568542127785793
      ],
      [
        "▁interconnect",
        -10.590919791212803
      ],
      [
        "▁prerequisite",
        -11.937748464152687
      ],
      [
        "▁dsl",
        -11.877442043360423
      ],
      [
        "▁pressed",
        -12.10673036962353
      ],
      [
        "core",
        -12.62044938481727
      ],
      [
        "▁anemone",
        -11.321025036599371
      ],
      [
        "▁exception",
        -10.142414733980065
      ],
      [
        "demor",
        -11.321126913988035
      ],
      [
        "▁immun",
        -11.488411962096096
      ],
      [
        "▁rhodesian",
        -12.780172689725559
      ],
      [
        "eehaw",
        -12.78335275012031
      ],
      [
        "▁supervis",
        -13.33763018860235
      ],
      [
        "▁worshiper",
        -12.803997156922014
      ],
      [
        "▁sho",
        -11.234726588860854
      ],
      [
        "▁struggle",
        -10.131359483769483
      ],
      [
        "▁newspaper",
        -9.468114926455161
      ],
      [
        "▁robbi",
        -11.078682741237229
      ],
      [
        "eec",
        -10.780997790087243
      ],
      [
        "▁splendid",
        -11.687732582288863
      ],
      [
        "▁lock",
        -9.325565613790742
      ],
      [
        "▁consisten",
        -11.93806947943151
      ],
      [
        "▁rivalr",
        -12.276077980817387
      ],
      [
        "▁call",
        -6.598648387236897
      ],
      [
        "index",
        -13.23818677849002
      ],
      [
        "▁bush",
        -7.689224225547353
      ],
      [
        "▁article",
        -8.80947529764512
      ],
      [
        "▁rape",
        -11.131820916630957
      ],
      [
        "one",
        -9.180103572189807
      ],
      [
        "ka",
        -9.462469678476062
      ],
      [
        "63",
        -13.001747287727072
      ],
      [
        "▁nas",
        -10.109476624994727
      ],
      [
        "▁dispatch",
        -11.17816780493391
      ],
      [
        "▁gail",
        -11.2242505267827
      ],
      [
        "position",
        -11.662533625019297
      ],
      [
        "▁inevitabl",
        -10.519462844923941
      ],
      [
        "▁tattoo",
        -11.17842085989609
      ],
      [
        "▁exten",
        -9.731706054215582
      ],
      [
        "▁ski",
        -9.640506088488268
      ],
      [
        "numer",
        -13.600148177477555
      ],
      [
        "▁cleaner",
        -10.712756208662451
      ],
      [
        "▁drool",
        -12.271158044491903
      ],
      [
        "pho",
        -12.714298630681398
      ],
      [
        "▁discuss",
        -8.533678095693421
      ],
      [
        "▁search",
        -9.148471293524906
      ],
      [
        "derma",
        -12.77722978373832
      ],
      [
        "▁inferior",
        -11.178171814356672
      ],
      [
        "atia",
        -11.582439897810204
      ],
      [
        "aris",
        -13.140331865443228
      ],
      [
        "-ro",
        -12.959529662510292
      ],
      [
        "▁early",
        -7.760326121382939
      ],
      [
        "▁beatle",
        -10.127242914953383
      ],
      [
        "▁gen",
        -11.71285676012349
      ],
      [
        "▁barcod",
        -12.781896062832121
      ],
      [
        "▁acknowledge",
        -10.232333374430077
      ],
      [
        "▁act",
        -8.33472804494586
      ],
      [
        "▁lee",
        -9.384226003941624
      ],
      [
        "tensibl",
        -12.770503119087106
      ],
      [
        "▁sponsor",
        -10.751164505538457
      ],
      [
        "▁intense",
        -10.594579674301961
      ],
      [
        "affle",
        -11.252152528332552
      ],
      [
        "▁depr",
        -11.751464096411254
      ],
      [
        "differentiate",
        -12.33304451414676
      ],
      [
        "▁mingl",
        -13.672014569311205
      ],
      [
        "bug",
        -11.286905216643145
      ],
      [
        "▁needles",
        -11.167009919675898
      ],
      [
        ".322",
        -13.137284014680993
      ],
      [
        "▁drop",
        -9.011276015427967
      ],
      [
        "▁win",
        -9.541805929786294
      ],
      [
        "▁quack",
        -11.053191463815653
      ],
      [
        ";",
        -12.303437246021387
      ],
      [
        "story/chornobyl/",
        -12.771024918840562
      ],
      [
        "▁04:1",
        -12.256999863441553
      ],
      [
        "▁my",
        -5.717040750618234
      ],
      [
        "country",
        -11.898376013752985
      ],
      [
        "-hamster-",
        -12.77102495084877
      ],
      [
        "qui",
        -13.622378908458488
      ],
      [
        "rit",
        -11.298931074117668
      ],
      [
        "bi",
        -11.03152925061998
      ],
      [
        "▁sput",
        -11.491750687579065
      ],
      [
        "▁tint",
        -11.827461105585067
      ],
      [
        "5-2",
        -13.171837843619866
      ],
      [
        "-by",
        -11.968655415185886
      ],
      [
        "▁synonym",
        -12.771379537700632
      ],
      [
        "▁ba",
        -9.891256062925736
      ],
      [
        "endorf",
        -12.771516895148261
      ],
      [
        "▁discharge",
        -11.321024926539849
      ],
      [
        "▁drought",
        -12.81810764168836
      ],
      [
        "▁twentieth",
        -9.955135804078997
      ],
      [
        "haka",
        -11.322903107541396
      ],
      [
        "▁cheu",
        -11.92892281975055
      ],
      [
        "see",
        -12.6750769247785
      ],
      [
        "how-to-",
        -12.77145745188739
      ],
      [
        "▁amuse",
        -11.075336749411903
      ],
      [
        "▁lett",
        -11.061828687669916
      ],
      [
        "▁benefit",
        -8.83074366608653
      ],
      [
        "▁figure",
        -8.529042687417952
      ],
      [
        "e2",
        -12.040715812132143
      ],
      [
        "▁daniel",
        -9.545510186702124
      ],
      [
        "▁monk",
        -10.453585721527265
      ],
      [
        "▁reconvene",
        -12.771024951566623
      ],
      [
        "▁operational",
        -11.359809761706265
      ],
      [
        "▁notify",
        -11.178169361167438
      ],
      [
        "▁fill",
        -8.597562503260832
      ],
      [
        "▁reservoir",
        -12.7710250381179
      ],
      [
        "timid",
        -11.951272965007268
      ],
      [
        "▁aquariu",
        -11.19399831043321
      ],
      [
        "ps",
        -11.805325689791168
      ],
      [
        "▁sang",
        -10.671784000749337
      ],
      [
        "hore",
        -13.186408479135487
      ],
      [
        "▁engineer",
        -9.746649858430944
      ],
      [
        "▁behavior",
        -9.354337672851267
      ],
      [
        "▁epi",
        -10.929906157032448
      ],
      [
        "oping",
        -12.701760715631885
      ],
      [
        "elle",
        -13.153288106933045
      ],
      [
        "▁vietnam",
        -9.596468568358045
      ],
      [
        "▁treatise",
        -11.488788164135737
      ],
      [
        "▁gold",
        -9.52085674232938
      ],
      [
        "▁heaven",
        -10.331848498231851
      ],
      [
        "▁whisk",
        -11.507192268380198
      ],
      [
        "zen",
        -11.834053334203755
      ],
      [
        "▁boost",
        -10.53193615735358
      ],
      [
        "▁exceptional",
        -10.720722650340008
      ],
      [
        "ourage",
        -12.27087656828979
      ],
      [
        "atty",
        -12.642019613480192
      ],
      [
        "zio",
        -13.083832436532756
      ],
      [
        "▁silent",
        -10.228074268341443
      ],
      [
        "▁teh",
        -10.85153274958301
      ],
      [
        "▁socialist",
        -11.057239967739086
      ],
      [
        "blue",
        -12.732515876694857
      ],
      [
        "▁exploit",
        -10.842056875324735
      ],
      [
        "▁stern",
        -12.27684543213305
      ],
      [
        "▁propos",
        -11.833816316062954
      ],
      [
        "▁12.4",
        -12.675189927992927
      ],
      [
        "▁involv",
        -9.70731690599774
      ],
      [
        "▁web",
        -8.727460500064687
      ],
      [
        "▁other",
        -10.00918580141893
      ],
      [
        "▁blea",
        -12.271948814299167
      ],
      [
        "hhhhhh",
        -12.77102493357064
      ],
      [
        "owed",
        -12.6972696647203
      ],
      [
        "▁committee",
        -8.913599759372627
      ],
      [
        "grew",
        -9.518301236184323
      ],
      [
        "▁palace",
        -10.277063653370565
      ],
      [
        "with",
        -13.079125983494553
      ],
      [
        "▁bli",
        -12.659343245598976
      ],
      [
        "▁stray",
        -11.703728464370606
      ],
      [
        "▁glacier",
        -11.05316777605769
      ],
      [
        "▁assist",
        -9.57962582279065
      ],
      [
        "laim",
        -12.187490011408967
      ],
      [
        "▁marri",
        -9.312246451602574
      ],
      [
        "5",
        -11.2014486825648
      ],
      [
        "▁tush",
        -12.82388773450672
      ],
      [
        "orted",
        -12.929113376468614
      ],
      [
        "▁theolog",
        -12.959149606198404
      ],
      [
        "04",
        -11.055407844624849
      ],
      [
        "▁lear",
        -10.94358538162402
      ],
      [
        "▁warn",
        -10.847758825353536
      ],
      [
        "2/22/200",
        -13.318763253437512
      ],
      [
        "▁goddess",
        -12.771252673100332
      ],
      [
        "5092",
        -12.771074334870514
      ],
      [
        "▁caper",
        -12.94684859270662
      ],
      [
        "i.imgur.com/",
        -12.271024918840537
      ],
      [
        "to",
        -11.282468141848708
      ],
      [
        "options",
        -11.93885886675443
      ],
      [
        "!!!!!!!!!!!!!!!",
        -11.78750431147864
      ],
      [
        "▁schema",
        -10.223323864715637
      ],
      [
        "terin",
        -13.107445296581336
      ],
      [
        "▁u",
        -13.94090580388319
      ],
      [
        "▁barne",
        -11.259890908433583
      ],
      [
        "▁minus",
        -12.276856854849894
      ],
      [
        "▁emiss",
        -13.717095278757618
      ],
      [
        "▁promis",
        -10.611279048465141
      ],
      [
        "▁usa",
        -10.818365182072316
      ],
      [
        "`",
        -11.928182729573079
      ],
      [
        "▁individual",
        -8.883002622733404
      ],
      [
        "▁jacobs",
        -13.37920086770853
      ],
      [
        "▁regal",
        -12.278515804821087
      ],
      [
        "▁argu",
        -10.631543983521718
      ],
      [
        "e.g",
        -10.254829536094737
      ],
      [
        "▁mechanic",
        -10.080216487486917
      ],
      [
        "meier",
        -12.27675075789137
      ],
      [
        "▁gw",
        -11.532670352383917
      ],
      [
        "▁ko",
        -9.610892772310411
      ],
      [
        "▁ac",
        -10.26036110434609
      ],
      [
        "3:5",
        -14.208247099564232
      ],
      [
        "▁isolat",
        -11.897982813399398
      ],
      [
        "▁touris",
        -10.88896799237707
      ],
      [
        "▁deport",
        -11.942467216167499
      ],
      [
        "▁madden",
        -12.779785282987756
      ],
      [
        "▁degree",
        -9.444340501944685
      ],
      [
        "▁gib",
        -11.699384346228586
      ],
      [
        "patio",
        -12.277358641866462
      ],
      [
        "▁relationship",
        -9.252253688834342
      ],
      [
        "▁stalin",
        -12.77117621207869
      ],
      [
        "▁andrew",
        -10.390794524731467
      ],
      [
        "▁awake",
        -10.452886565050157
      ],
      [
        "▁unpredictab",
        -12.271033562738541
      ],
      [
        "▁none",
        -10.232103982260911
      ],
      [
        "▁palestinian",
        -9.538263836656848
      ],
      [
        "some",
        -9.085706270044335
      ],
      [
        "▁recording",
        -10.239156214707638
      ],
      [
        "▁afford",
        -9.421042443980907
      ],
      [
        "▁ku",
        -10.880494582081443
      ],
      [
        "▁blast",
        -11.058287230262973
      ],
      [
        "sett",
        -11.425641893087697
      ],
      [
        ".10",
        -12.273576104137437
      ],
      [
        "▁legal",
        -8.848074344517883
      ],
      [
        "te",
        -10.853311653238517
      ],
      [
        "▁taylor",
        -10.842056720800663
      ],
      [
        "▁pet",
        -9.104914656462572
      ],
      [
        "official",
        -11.649348420524968
      ],
      [
        "graf",
        -13.710548576526104
      ],
      [
        "▁wax",
        -10.68275759930296
      ],
      [
        "▁photographic",
        -11.179939239080335
      ],
      [
        "▁corridor",
        -11.937691623783586
      ],
      [
        "▁frequent",
        -9.421026568729456
      ],
      [
        "▁depict",
        -11.17747918044563
      ],
      [
        "▁trouble",
        -8.797952202050485
      ],
      [
        "▁function",
        -9.414511029335262
      ],
      [
        "ur",
        -10.844631267559638
      ],
      [
        "murf",
        -11.686959474779997
      ],
      [
        "▁vacan",
        -11.938221437510578
      ],
      [
        "▁46",
        -12.827005078308062
      ],
      [
        "▁morph",
        -13.683000284106162
      ],
      [
        "▁paste",
        -11.159070888482072
      ],
      [
        "cent",
        -10.823422790160254
      ],
      [
        "▁east",
        -8.588169758397434
      ],
      [
        "▁rome",
        -9.811912358070526
      ],
      [
        "▁session",
        -9.744536271084721
      ],
      [
        "▁fitte",
        -12.27823351753939
      ],
      [
        "▁occasional",
        -10.368279619778493
      ],
      [
        "convinc",
        -13.727004829454554
      ],
      [
        "▁morta",
        -12.893952937432111
      ],
      [
        "▁organizer",
        -12.848874593075477
      ],
      [
        "▁ninety",
        -11.07772853787612
      ],
      [
        "nonym",
        -10.944557569313114
      ],
      [
        "▁veryyy",
        -13.135746395353653
      ],
      [
        "???",
        -11.362839390116866
      ],
      [
        "/pages",
        -12.771104434763844
      ],
      [
        "▁bolt",
        -11.94431641270152
      ],
      [
        "▁canop",
        -11.93775038740434
      ],
      [
        "▁oc",
        -12.532204598102737
      ],
      [
        "▁stain",
        -11.182759061253634
      ],
      [
        "▁territori",
        -12.57306707979349
      ],
      [
        "▁swamp",
        -12.771637073526023
      ],
      [
        "▁harv",
        -11.061900461661802
      ],
      [
        "church",
        -11.140359554102611
      ],
      [
        "like",
        -9.323308356957924
      ],
      [
        "6",
        -11.333785825435129
      ],
      [
        "▁possess",
        -11.700197285978922
      ],
      [
        "▁reading",
        -9.096538275700889
      ],
      [
        "bias",
        -12.219736439551708
      ],
      [
        "ille",
        -11.850120307589071
      ],
      [
        "▁200",
        -7.835194488110917
      ],
      [
        "▁biomed",
        -12.771312750261389
      ],
      [
        "▁bla",
        -11.018131183011567
      ],
      [
        "sti",
        -12.903858762386612
      ],
      [
        "▁temperature",
        -9.569444369276296
      ],
      [
        "dl",
        -12.080791118169415
      ],
      [
        "ist",
        -8.876461395104915
      ],
      [
        "▁stole",
        -10.52687195354179
      ],
      [
        "▁$",
        -8.88609295041069
      ],
      [
        "me",
        -8.491665941977898
      ],
      [
        "▁balloon",
        -9.333082801721007
      ],
      [
        "▁further",
        -8.479792866491945
      ],
      [
        "281",
        -13.08571318027819
      ],
      [
        "▁stay",
        -7.616275660400367
      ],
      [
        "kur",
        -11.962049952985675
      ],
      [
        "▁16.3",
        -12.63810091809569
      ],
      [
        "con",
        -11.923809304311936
      ],
      [
        "▁shroud",
        -12.271026749016624
      ],
      [
        "tips",
        -13.224900714291074
      ],
      [
        "emma",
        -10.548182546709164
      ],
      [
        "▁alignment",
        -11.48807896052513
      ],
      [
        "▁bund",
        -12.699540447643116
      ],
      [
        "nida",
        -10.600104062650558
      ],
      [
        "▁nathan",
        -11.79352141560613
      ],
      [
        "▁exclusi",
        -11.943134422923553
      ],
      [
        "pe",
        -10.672580482144078
      ],
      [
        "58",
        -11.951611418715437
      ],
      [
        "▁seasonal",
        -12.624000053057346
      ],
      [
        "▁bump",
        -9.743907710101125
      ],
      [
        "▁massac",
        -11.188057470919949
      ],
      [
        "eur",
        -11.66665903535926
      ],
      [
        "▁recieve",
        -11.487699381220558
      ],
      [
        "▁pri",
        -11.348572751093645
      ],
      [
        "▁gram",
        -11.322341792965135
      ],
      [
        "▁expresse",
        -12.103090468837205
      ],
      [
        "nana",
        -9.662043387588838
      ],
      [
        "▁scorpio",
        -12.766065042787742
      ],
      [
        "imply",
        -12.074121615183465
      ],
      [
        "▁standardis",
        -11.662669713559993
      ],
      [
        "-10",
        -14.133997772797096
      ],
      [
        "▁gelato",
        -12.771034392650309
      ],
      [
        "▁purple",
        -9.682227265277469
      ],
      [
        "▁mental",
        -10.040017315663281
      ],
      [
        "▁sevil",
        -13.698511782108682
      ],
      [
        "▁prisoner",
        -11.326781412177544
      ],
      [
        "7&",
        -13.444762322869474
      ],
      [
        "▁virtual",
        -10.331472428048293
      ],
      [
        "▁grappl",
        -12.743360162860803
      ],
      [
        "stein",
        -10.037020987057938
      ],
      [
        "▁interi",
        -11.286037589760186
      ],
      [
        "▁puk",
        -13.222836877375249
      ],
      [
        "▁misinform",
        -13.702235609085609
      ],
      [
        "▁give",
        -6.618310073129167
      ],
      [
        "▁length",
        -9.845470721200998
      ],
      [
        "▁rank",
        -9.99691420265277
      ],
      [
        "▁gi",
        -10.594181126482537
      ],
      [
        "t.",
        -11.113070397105938
      ],
      [
        "??????",
        -13.879667603916298
      ],
      [
        "utilize",
        -12.074480857158953
      ],
      [
        "financ",
        -13.681654977858246
      ],
      [
        "▁indirect",
        -11.178167790055062
      ],
      [
        "▁davis",
        -10.677204909630818
      ],
      [
        "fare",
        -10.186762653661514
      ],
      [
        "▁court",
        -8.538248588677941
      ],
      [
        "▁due",
        -8.437078887627344
      ],
      [
        "▁perception",
        -10.842161813770762
      ],
      [
        "▁gag",
        -12.476088614209827
      ],
      [
        "▁incur",
        -12.271469536180525
      ],
      [
        "concern",
        -12.802842023062661
      ],
      [
        "ack",
        -10.810286925266249
      ],
      [
        "▁coat",
        -9.856826399576349
      ],
      [
        "▁prayerful",
        -12.774527656055092
      ],
      [
        "▁frighten",
        -10.33282815053104
      ],
      [
        "▁essay",
        -11.4878063365494
      ],
      [
        "tation",
        -13.413940053262293
      ],
      [
        "▁genetic",
        -10.51957362925204
      ],
      [
        "▁collapse",
        -10.217163889488162
      ],
      [
        "justice",
        -11.449353981577858
      ],
      [
        "relations",
        -12.733370403506713
      ],
      [
        "yo",
        -12.980137273398649
      ],
      [
        "91",
        -11.944342016206539
      ],
      [
        "chene",
        -10.661055540839861
      ],
      [
        "onic",
        -11.996720353198608
      ],
      [
        "▁recepti",
        -12.769506363805164
      ],
      [
        "▁inappropriate",
        -11.687691585547162
      ],
      [
        "post",
        -13.688475645247781
      ],
      [
        "▁damm",
        -12.279240041370304
      ],
      [
        "ehouse",
        -11.826554757535655
      ],
      [
        "▁86",
        -12.79031758953321
      ],
      [
        "▁brick",
        -10.592190314645514
      ],
      [
        "▁recognize",
        -9.661839684497728
      ],
      [
        "▁defect",
        -11.68713088915591
      ],
      [
        "addle",
        -11.360458075326095
      ],
      [
        "▁glide",
        -11.789553477553714
      ],
      [
        "▁acro",
        -10.874596668297068
      ],
      [
        "▁robes",
        -11.817812310603063
      ],
      [
        "commercial",
        -12.296876650074855
      ],
      [
        "▁16",
        -9.237816764183771
      ],
      [
        "▁buckle",
        -11.789749297253616
      ],
      [
        "▁320",
        -12.642809539566734
      ],
      [
        "▁cherr",
        -11.723766174134521
      ],
      [
        "▁1/",
        -13.887911633017263
      ],
      [
        "oodle",
        -10.735517839180812
      ],
      [
        "▁concert",
        -10.78677171760011
      ],
      [
        "▁saints",
        -12.150198858805162
      ],
      [
        "▁machine",
        -9.1428147600402
      ],
      [
        "▁mark",
        -8.576139375159109
      ],
      [
        "▁weak",
        -10.21706364747627
      ],
      [
        "▁figur",
        -12.138182123902865
      ],
      [
        "▁paddi",
        -12.774952769163068
      ],
      [
        "▁meaning",
        -9.423010215518401
      ],
      [
        "▁represent",
        -9.123694135965433
      ],
      [
        "▁twel",
        -10.390534795189268
      ],
      [
        "▁stab",
        -11.709270056676264
      ],
      [
        "▁block",
        -9.076420562424172
      ],
      [
        "▁geneva",
        -11.943578312274305
      ],
      [
        "adie",
        -12.457615158488586
      ],
      [
        "ion",
        -11.21408476222782
      ],
      [
        "▁input",
        -11.179485780833204
      ],
      [
        "▁dese",
        -12.147958461207072
      ],
      [
        "grade",
        -11.631009745235959
      ],
      [
        "▁vomit",
        -10.75115603938624
      ],
      [
        "naire",
        -12.940305238354611
      ],
      [
        "1/",
        -13.869957499964793
      ],
      [
        "ha",
        -9.601993731172117
      ],
      [
        "▁setback",
        -11.94222279062928
      ],
      [
        "▁156",
        -11.352272366395722
      ],
      [
        "▁seamstress",
        -12.27102511851845
      ],
      [
        "▁soap",
        -10.522853562229495
      ],
      [
        "▁ingest",
        -13.058494742575304
      ],
      [
        "ichel",
        -11.712962663950448
      ],
      [
        "igma",
        -12.158006597527388
      ],
      [
        "▁indonesian",
        -11.49738281446357
      ],
      [
        "on",
        -8.513306147673212
      ],
      [
        "▁target",
        -9.25221351363668
      ],
      [
        "▁practi",
        -13.664507893348098
      ],
      [
        "▁distinction",
        -10.519614937282334
      ],
      [
        "78",
        -11.485769806607408
      ],
      [
        "------------",
        -10.630566914886277
      ],
      [
        "cullen",
        -11.944243723504139
      ],
      [
        "▁chia",
        -12.41239366325599
      ],
      [
        "▁minimum",
        -9.916697603757392
      ],
      [
        "▁bourg",
        -11.735268301926965
      ],
      [
        "▁authori",
        -12.708347981201449
      ],
      [
        "▁chun",
        -13.552830826610714
      ],
      [
        "story",
        -12.553756619420144
      ],
      [
        "▁augmentation",
        -11.325371028722117
      ],
      [
        "side",
        -9.497762733266079
      ],
      [
        "feb",
        -13.725523750450941
      ],
      [
        "▁skewer",
        -12.771025248825813
      ],
      [
        "▁medication",
        -12.27337190960024
      ],
      [
        "▁cafe",
        -10.126004914089602
      ],
      [
        "formalism",
        -13.728891928617504
      ],
      [
        "▁rocker",
[...]
