{
  "version": "1.0",
  "truncation": null,
  "padding": null,
  "added_tokens": [
    {
      "id": 1038,
      "content": "[MASK]",
      "single_word": false,
      "lstrip": false,
      "rstrip": false,
      "normalized": false,
      "special": true
    },
    {
      "id": 1383,
      "content": "[PAD]",
      "single_word": false,
      "lstrip": false,
      "rstrip": false,
      "normalized": false,
      "special": true
    },
    {
      "id": 2130,
      "content": "[UNK]",
      "single_word": false,
      "lstrip": false,
      "rstrip": false,
      "normalized": false,
      "special": true
    },
    {
      "id": 2544,
      "content": "[SEP]",
      "single_word": false,
      "lstrip": false,
      "rstrip": false,
      "normalized": false,
      "special": true
    },
    {
      "id": 2568,
      "content": "[CLS]",
      "single_word": false,
      "lstrip": false,
      "rstrip": false,
      "normalized": false,
      "special": true
    }
  ],
  "normalizer": {
    "type": "Sequence",
    "normalizers": [
      {
        "type": "NFD"
      },
      {
        "type": "Lowercase"
      },
      {
        "type": "StripAccents"
      }
    ]
  },
  "pre_tokenizer": {
    "type": "Sequence",
    "pretokenizers": [
      {
        "type": "Metaspace",
        "replacement": "▁",
        "prepend_scheme": "always",
        "split": true
      }
    ]
  },
  "post_processor": {
    "type": "TemplateProcessing",
    "single": [
      {
        "SpecialToken": {
          "id": "[CLS]",
          "type_id": 0
        }
      },
      {
        "Sequence": {
          "id": "A",
          "type_id": 0
        }
      },
      {
        "SpecialToken": {
          "id": "[SEP]",
          "type_id": 0
        }
      }
    ],
    "pair": [
      {
        "SpecialToken": {
          "id": "[CLS]",
          "type_id": 0
        }
      },
      {
        "Sequence": {
          "id": "A",
          "type_id": 0
        }
      },
      {
        "SpecialToken": {
          "id": "[SEP]",
          "type_id": 0
        }
      },
      {
        "Sequence": {
          "id": "B",
          "type_id": 1
        }
      },
      {
        "SpecialToken": {
          "id": "[SEP]",
          "type_id": 1
        }
      }
    ],
    "special_tokens": {
      "[CLS]": {
        "id": "[CLS]",
        "ids": [
          2568
        ],
        "tokens": [
          "[CLS]"
        ]
      },
      "[SEP]": {
        "id": "[SEP]",
        "ids": [
          2544
        ],
        "tokens": [
          "[SEP]"
        ]
      }
    }
  },
  "decoder": {
    "type": "Metaspace",
    "replacement": "▁",
    "prepend_scheme": "always",
    "split": true
  },
  "model": {
    "type": "WordPiece",
    "unk_token": "[UNK]",
    "continuing_subword_prefix": "##",
    "max_input_chars_per_word": 100,
    "vocab": {
      "##ency": 0,
      "▁03": 1,
      "##}": 2,
      "##iny": 3,
      "▁417": 4,
      "▁black": 5,
      "▁pri": 6,
      "▁3.2": 7,
      "▁26": 8,
      "##ea": 9,
      "##-8": 10,
      "▁col": 11,
      "a": 12,
      "##ff": 13,
      "▁+44": 14,
      "##ming": 15,
      "##2": 16,
      "▁129": 17,
      "▁short": 18,
      "##-20": 19,
      "▁example": 20,
      "##ract": 21,
      "▁16.379": 22,
      "▁date": 23,
      "▁favor": 24,
      "##sel": 25,
      "▁1/8": 26,
      "▁well": 27,
      "▁nose": 28,
      "▁whoever": 29,
      "▁04": 30,
      "##oup": 31,
      "▁20:00": 32,
      "▁238": 33,
      "▁sing": 34,
      "▁neither": 35,
      "▁respons": 36,
      "##ston": 37,
      "##3": 38,
      "▁47": 39,
      "▁fro": 40,
      "##asing": 41,
      "ف": 42,
      "##irt": 43,
      "##ising": 44,
      "▁713/853": 45,
      "##33": 46,
      "▁against": 47,
      "▁mich": 48,
      "##ww": 49,
      "▁great": 50,
      "y": 51,
      "▁least": 52,
      "##amm": 53,
      "##ged": 54,
      "▁let": 55,
      "▁seventeen": 56,
      "##iety": 57,
      "##at": 58,
      "▁49": 59,
      "##ams": 60,
      "##uc": 61,
      "▁1944": 62,
      "▁177": 63,
      "▁le": 64,
      "##ail": 65,
      "##ith": 66,
      "▁1608": 67,
      "##$": 68,
      "▁exist": 69,
      "##339": 70,
      "▁137": 71,
      "▁23": 72,
      "##ind": 73,
      "▁pen": 74,
      "▁young": 75,
      "▁dozen": 76,
      "##/he": 77,
      "##”": 78,
      "▁found": 79,
      "▁turn": 80,
      "▁hours": 81,
      "▁environ": 82,
      "▁easy": 83,
      "▁women": 84,
      "##thing": 85,
      "▁had": 86,
      "▁13011": 87,
      "▁little": 88,
      "##ering": 89,
      "##ually": 90,
      "▁600": 91,
      "▁anim": 92,
      "▁act": 93,
      "▁pret": 94,
      "▁[": 95,
      "##********************************": 96,
      "##ess": 97,
      "##ment": 98,
      "▁ag": 99,
      "▁diego": 100,
      "##out": 101,
      "##op": 102,
      "▁dri": 103,
      "##ric": 104,
      "▁295870": 105,
      "▁finally": 106,
      "▁secur": 107,
      "▁having": 108,
      "▁orland": 109,
      "▁soc": 110,
      "▁pack": 111,
      "##/30/2001": 112,
      "▁713-654-1281": 113,
      "▁chicken": 114,
      "▁de": 115,
      "##30": 116,
      "▁748": 117,
      "▁paul": 118,
      "▁franc": 119,
      "▁listen": 120,
      "##·": 121,
      "3": 122,
      "▁last": 123,
      "▁sho": 124,
      "▁visit": 125,
      "##ke": 126,
      "##ld": 127,
      "##4": 128,
      "▁rul": 129,
      "▁1115": 130,
      "▁04:03": 131,
      "##ought": 132,
      "##ah": 133,
      "▁const": 134,
      "▁human": 135,
      "##/30": 136,
      "▁306": 137,
      "▁lab": 138,
      "##ached": 139,
      "##ρ": 140,
      "▁500": 141,
      "▁jap": 142,
      "▁yea": 143,
      "▁bush": 144,
      "ʒ": 145,
      "##enth": 146,
      "▁times": 147,
      "##θ": 148,
      "##ew": 149,
      "▁212": 150,
      "▁fut": 151,
      "▁she": 152,
      "▁1970": 153,
      "▁country": 154,
      "▁5/18": 155,
      "##ur": 156,
      "▁actually": 157,
      "▁1974": 158,
      "##ti": 159,
      "▁origin": 160,
      "▁breakfast": 161,
      "▁cont": 162,
      "▁again": 163,
      "▁told": 164,
      "▁oc": 165,
      "▁1604": 166,
      "▁squ": 167,
      "##8-3": 168,
      "▁orlando": 169,
      "##urs": 170,
      "▁j": 171,
      "##ways": 172,
      "##ont": 173,
      "▁hi": 174,
      "##oose": 175,
      "##600": 176,
      "▁dis": 177,
      "▁1.5": 178,
      "##te": 179,
      "▁373": 180,
      "▁gets": 181,
      "▁bal": 182,
      "##urch": 183,
      "▁1160": 184,
      "##.": 185,
      "▁9221": 186,
      "##wau": 187,
      "x": 188,
      "▁tomorrow": 189,
      "##ans": 190,
      "##ound": 191,
      "▁pit": 192,
      "##th": 193,
      "▁men": 194,
      "▁inside": 195,
      "▁2013": 196,
      "##ock": 197,
      "##port": 198,
      "▁3889": 199,
      "##he": 200,
      "▁sto": 201,
      "##:44": 202,
      "▁nobody": 203,
      "##39": 204,
      "▁hea": 205,
      "##gle": 206,
      "▁87": 207,
      "▁*": 208,
      "##.1": 209,
      "▁11/10/2000": 210,
      "r": 211,
      "▁01:0": 212,
      "▁whil": 213,
      "▁268": 214,
      "##:11": 215,
      "##iver": 216,
      "=": 217,
      "▁1500": 218,
      "▁official": 219,
      "▁wilt": 220,
      "▁file": 221,
      "##be": 222,
      "##38": 223,
      "▁0000108806": 224,
      "▁george": 225,
      "▁not": 226,
      "▁tim": 227,
      "▁5.8": 228,
      "▁don": 229,
      "##σ": 230,
      "▁shakespeare": 231,
      "▁da": 232,
      "##no": 233,
      "▁03/02/2001": 234,
      "▁father": 235,
      "##rol": 236,
      "▁.doc": 237,
      "▁mic": 238,
      "##14": 239,
      "▁trale": 240,
      "▁cuz": 241,
      "##ause": 242,
      "▁somet": 243,
      "▁guy": 244,
      "4": 245,
      "e": 246,
      "##mm": 247,
      "▁whatever": 248,
      "##721": 249,
      "▁)": 250,
      "▁159": 251,
      "▁commission": 252,
      "▁alongside": 253,
      "##urday": 254,
      "##`": 255,
      "##s.": 256,
      "▁:(": 257,
      "##:29": 258,
      "▁them": 259,
      "▁ex": 260,
      "▁hear": 261,
      "▁ret": 262,
      "▁al.": 263,
      "▁struct": 264,
      "##stand": 265,
      "▁red": 266,
      "▁fifty": 267,
      "w": 268,
      "▁anyone": 269,
      "▁chick": 270,
      "##古": 271,
      "ا": 272,
      "##ered": 273,
      "##ime": 274,
      "▁direct": 275,
      "##ody": 276,
      "▁416-865-3": 277,
      "▁pi": 278,
      "▁gas": 279,
      "▁750,000": 280,
      "▁wor": 281,
      "▁if": 282,
      "##lish": 283,
      "▁e": 284,
      "##-468-3": 285,
      "▁lunch": 286,
      "▁back": 287,
      "▁1964": 288,
      "▁organ": 289,
      "▁story": 290,
      "▁fa": 291,
      "▁each": 292,
      "▁bn": 293,
      "▁1200": 294,
      "▁345-343": 295,
      "▁extrem": 296,
      "▁beautiful": 297,
      "▁into": 298,
      "▁5.5": 299,
      "▁wh": 300,
      "▁ro": 301,
      "▁spec": 302,
      "▁tw": 303,
      "▁case": 304,
      "##per": 305,
      "##ained": 306,
      "▁hundred": 307,
      "##±": 308,
      "##46": 309,
      "▁630": 310,
      "▁noon": 311,
      "▁11:07": 312,
      "##ital": 313,
      "##so": 314,
      "▁use": 315,
      "▁1504": 316,
      "▁=": 317,
      "##128": 318,
      "▁11:00": 319,
      "▁lear": 320,
      "▁n": 321,
      "▁return": 322,
      "▁key": 323,
      "▁763736": 324,
      "▁9": 325,
      "##76": 326,
      "▁activ": 327,
      "m": 328,
      "▁state": 329,
      "▁pur": 330,
      "▁know": 331,
      "##read": 332,
      "▁whenever": 333,
      "##-625": 334,
      "▁01/12/2001": 335,
      "▁throw": 336,
      "##1082": 337,
      "▁proc": 338,
      "▁66": 339,
      "▁111": 340,
      "▁months": 341,
      "▁nat": 342,
      "##ft": 343,
      "##..": 344,
      "▁1291": 345,
      "##erv": 346,
      "##ath": 347,
      "▁2.975": 348,
      "##iv": 349,
      "##edie": 350,
      "##ove": 351,
      "▁lat": 352,
      "##...": 353,
      "▁suff": 354,
      "▁happen": 355,
      "##ead": 356,
      "▁sh": 357,
      "##36": 358,
      "##.15": 359,
      "##ife": 360,
      "##ome": 361,
      "##teen": 362,
      "▁84": 363,
      "▁ago": 364,
      ":": 365,
      "▁fair": 366,
      "▁twenty-": 367,
      "▁1-8": 368,
      "##yond": 369,
      "##78": 370,
      "##hia": 371,
      "³": 372,
      "##/15": 373,
      "▁713.8": 374,
      "▁dkk": 375,
      "##7": 376,
      "▁economy": 377,
      "▁first": 378,
      "▁203": 379,
      "g": 380,
      "▁h-0": 381,
      "▁own": 382,
      "▁understand": 383,
      "▁day": 384,
      "##ology": 385,
      "▁polit": 386,
      "▁vi": 387,
      "▁forty-one": 388,
      "♥": 389,
      "▁very": 390,
      "}": 391,
      "##red": 392,
      "▁1691": 393,
      "▁far": 394,
      "▁main": 395,
      "▁,": 396,
      "▁1952": 397,
      "▁508": 398,
      "##onom": 399,
      "▁almost": 400,
      "▁level": 401,
      "▁board": 402,
      "##ama": 403,
      "▁700": 404,
      "▁tho": 405,
      "▁age": 406,
      "##ɑ": 407,
      "##’t": 408,
      "▁like": 409,
      "▁property": 410,
      "▁than": 411,
      "##63": 412,
      "p": 413,
      "▁05/30/2001": 414,
      "θ": 415,
      "##86": 416,
      "▁clear": 417,
      "##istan": 418,
      "##ansas": 419,
      "##ats": 420,
      "##ule": 421,
      "▁01:58": 422,
      "▁email": 423,
      "▁72,000": 424,
      "▁10,000": 425,
      "▁07:24": 426,
      "▁stre": 427,
      "▁none": 428,
      "▁mommy": 429,
      "▁1965": 430,
      "▁doo": 431,
      "##s": 432,
      "##ys": 433,
      "▁1848": 434,
      "##able": 435,
      "▁govern": 436,
      "##thst": 437,
      "▁community": 438,
      "▁knew": 439,
      "▁all": 440,
      "▁09/15": 441,
      "▁800-5": 442,
      "▁311": 443,
      "▁ev": 444,
      "▁1585": 445,
      "▁ar": 446,
      "▁dog": 447,
      "▁salt": 448,
      "▁trying": 449,
      "▁300": 450,
      "▁ball": 451,
      "##tain": 452,
      "▁5": 453,
      "##ied": 454,
      "##????": 455,
      "##++": 456,
      "▁now": 457,
      "##89": 458,
      "##angu": 459,
      "▁european": 460,
      "▁1039": 461,
      "▁w": 462,
      "▁wind": 463,
      "▁181": 464,
      "▁12:42": 465,
      "▁htt": 466,
      "##eck": 467,
      "▁12/2": 468,
      "▁05/03/2001": 469,
      "##uma": 470,
      "##ple": 471,
      "##☏": 472,
      "▁ma": 473,
      "##lus": 474,
      "##744": 475,
      "▁1830": 476,
      "##ma": 477,
      "▁am": 478,
      "▁air": 479,
      "▁push": 480,
      "##uz": 481,
      "▁become": 482,
      "▁11/08/2000": 483,
      "▁15,000": 484,
      "▁bear": 485,
      "▁1991": 486,
      "##ative": 487,
      "##cond": 488,
      "▁’m": 489,
      "▁'em": 490,
      "##.621": 491,
      "▁pot": 492,
      "▁hun": 493,
      "##--------------------------------": 494,
      "##ften": 495,
      "##ists": 496,
      "▁airline": 497,
      "##pped": 498,
      "▁59": 499,
      "▁1600": 500,
      "##389": 501,
      "▁toronto": 502,
      "▁1.4": 503,
      "##ote": 504,
      "▁0.0": 505,
      "▁1596": 506,
      "▁refer": 507,
      "▁lot": 508,
      "▁6.2.1": 509,
      "▁10:56": 510,
      "##oph": 511,
      "▁wo": 512,
      "▁foc": 513,
      "▁washing": 514,
      "▁pass": 515,
      "▁i": 516,
      "##8196021": 517,
      "▁ge": 518,
      "▁seven": 519,
      "▁10:45": 520,
      "▁bul": 521,
      "##0": 522,
      "##.61": 523,
      "##alth": 524,
      "##five": 525,
      "▁surpr": 526,
      "##mp": 527,
      "▁dere": 528,
      "▁p": 529,
      "▁’ll": 530,
      "##/2000": 531,
      "▁83": 532,
      "▁transport": 533,
      "##13.8": 534,
      "▁won": 535,
      "▁su": 536,
      "▁dogg": 537,
      "▁alber": 538,
      "▁apr": 539,
      "▁1859": 540,
      "▁1.25": 541,
      "▁through": 542,
      "##201": 543,
      "▁airl": 544,
      "##ds": 545,
      "▁or": 546,
      "▁;": 547,
      "▁mus": 548,
      "##&": 549,
      "##_de": 550,
      "▁birthday": 551,
      "##/03": 552,
      "##enron": 553,
      "▁11/28/2000": 554,
      "▁74419": 555,
      "▁8043": 556,
      "▁israel": 557,
      "▁working": 558,
      "▁1940": 559,
      "##:05": 560,
      "##uary": 561,
      "▁repl": 562,
      "ο": 563,
      "▁includ": 564,
      "▁this": 565,
      "##enty": 566,
      "▁1947": 567,
      "▁8:15": 568,
      "▁dur": 569,
      "##42": 570,
      "##琴": 571,
      "##-9004": 572,
      "##eare": 573,
      "▁899": 574,
      "▁service": 575,
      "##ning": 576,
      "##ention": 577,
      "##ø": 578,
      "▁access": 579,
      "##anger": 580,
      "▁sixty": 581,
      "##ave": 582,
      "##-3": 583,
      "▁committ": 584,
      "##neath": 585,
      "▁08/03": 586,
      "▁litt": 587,
      "##fully": 588,
      "▁feel": 589,
      "▁mor": 590,
      "▁3/8/00": 591,
      "▁1179": 592,
      "##amp": 593,
      "##4/2000": 594,
      "▁195": 595,
      "▁200,000": 596,
      "▁n’t": 597,
      "▁del": 598,
      "▁techn": 599,
      "▁eng": 600,
      "▁165": 601,
      "▁color": 602,
      "▁ass": 603,
      "##??": 604,
      "##ison": 605,
      "▁6:00": 606,
      "▁10/23/2000": 607,
      "▁humaine": 608,
      "▁geor": 609,
      "##:3": 610,
      "##/2001": 611,
      "▁1-800-991-90": 612,
      "▁early": 613,
      "▁415.621.8317": 614,
      "##[": 615,
      "▁03:3": 616,
      "▁140": 617,
      "▁everybody": 618,
      "##✉": 619,
      "▁court": 620,
      "▁104": 621,
      "##aq": 622,
      "▁third": 623,
      "##art": 624,
      "▁friends": 625,
      "▁1847": 626,
      "▁202.456.2461": 627,
      "▁wear": 628,
      "##ories": 629,
      "▁ann": 630,
      "▁thirty-": 631,
      "▁countries": 632,
      "▁f": 633,
      "##ures": 634,
      "##/16/2001": 635,
      "##♥": 636,
      "##ets": 637,
      "▁special": 638,
      "##m": 639,
      "##ects": 640,
      "▁twenty-six": 641,
      "##selves": 642,
      "##:35": 643,
      "##­": 644,
      "##65-3": 645,
      "##://": 646,
      "▁7:30": 647,
      "▁:": 648,
      "▁bo": 649,
      "▁sound": 650,
      "▁period": 651,
      "##enc": 652,
      "▁up": 653,
      "▁pos": 654,
      "▁he": 655,
      "▁2100": 656,
      "▁write": 657,
      "##.8317": 658,
      "▁expensive": 659,
      "▁adam": 660,
      "##,000,000,000": 661,
      "▁150,000": 662,
      "▁6871082#": 663,
      "▁interv": 664,
      "▁requ": 665,
      "▁local": 666,
      "▁doll": 667,
      "##its": 668,
      "▁some": 669,
      "▁2030": 670,
      "▁takes": 671,
      "##1": 672,
      "▁compan": 673,
      "##akes": 674,
      "▁comp": 675,
      "##:/": 676,
      "ي": 677,
      "▁dem": 678,
      "##:17": 679,
      "▁113": 680,
      "##ives": 681,
      "▁seattle": 682,
      "##ach": 683,
      "##.8": 684,
      "静": 685,
      "##ese": 686,
      "▁whereas": 687,
      "▁draw": 688,
      "×": 689,
      "##e": 690,
      "##ac": 691,
      "##/01": 692,
      "د": 693,
      "##ive": 694,
      "▁60,000": 695,
      "##.10": 696,
      "▁01:39": 697,
      "##ement": 698,
      "##ertain": 699,
      "##ions": 700,
      "▁1822": 701,
      "▁vis": 702,
      "##ary": 703,
      "##ite": 704,
      "▁ans": 705,
      "##ress": 706,
      "▁2003": 707,
      "▁kid": 708,
      "▁kitt": 709,
      "▁28": 710,
      "##.30": 711,
      "▁202.456.1111": 712,
      "▁dep": 713,
      "▁750": 714,
      "##xce": 715,
      "▁europe": 716,
      "▁2017": 717,
      "▁ta": 718,
      "▁166": 719,
      "ص": 720,
      "▁‘’": 721,
      "▁goes": 722,
      "▁04/2": 723,
      "▁data": 724,
      "▁09/16/99": 725,
      "▁win": 726,
      "▁prev": 727,
      "▁serv": 728,
      "▁wr": 729,
      "▁2020": 730,
      "##ized": 731,
      "▁191": 732,
      "▁class": 733,
      "▁1962": 734,
      "##eng": 735,
      "▁its": 736,
      "##ision": 737,
      "▁other": 738,
      "▁pick": 739,
      "▁til": 740,
      "▁1997": 741,
      "##ht": 742,
      "▁12/26/2000": 743,
      "▁rob": 744,
      "▁depart": 745,
      "▁moving": 746,
      "▁ya": 747,
      "▁me": 748,
      "▁long": 749,
      "▁president": 750,
      "▁sever": 751,
      "##oon": 752,
      "▁disc": 753,
      "▁could": 754,
      "▁mom": 755,
      "▁ir": 756,
      "▁did": 757,
      "##ired": 758,
      "▁five": 759,
      "▁outside": 760,
      "##alk": 761,
      "▁12:30": 762,
      "▁tem": 763,
      "▁usually": 764,
      "##ict": 765,
      "##otte": 766,
      "##葉": 767,
      "##40": 768,
      "▁military": 769,
      "▁1960": 770,
      "清": 771,
      "▁415.782.7822": 772,
      "##gg": 773,
      "ε": 774,
      "##ty": 775,
      "##utions": 776,
      "▁build": 777,
      "##and": 778,
      "谿": 779,
      "▁ey": 780,
      "▁1575": 781,
      "▁accept": 782,
      "##44": 783,
      "##ge": 784,
      "▁aug": 785,
      "▁started": 786,
      "▁125": 787,
      "▁you": 788,
      "▁000010": 789,
      "▁:-)": 790,
      "▁equ": 791,
      "▁2,300": 792,
      "▁art": 793,
      "##ens": 794,
      "##bo": 795,
      "▁read": 796,
      "##wi": 797,
      "▁hurt": 798,
      "☎": 799,
      "##ss": 800,
      "▁cit": 801,
      "▁te": 802,
      "▁both": 803,
      "▁713-853-": 804,
      "▁af": 805,
      "▁gave": 806,
      "##four": 807,
      "▁india": 808,
      "##es": 809,
      "##lic": 810,
      "▁says": 811,
      "▁---------------------------------": 812,
      "▁due": 813,
      "▁1,6": 814,
      "▁!?": 815,
      "##rect": 816,
      "##my": 817,
      "~": 818,
      "▁315-": 819,
      "▁too": 820,
      "▁mem": 821,
      "b": 822,
      "▁03/15/2001": 823,
      "##-79": 824,
      "▁addition": 825,
      "##½": 826,
      "▁eighteen": 827,
      "##ap": 828,
      "##dd": 829,
      "▁1-800": 830,
      "##f": 831,
      ";": 832,
      "▁office": 833,
      "▁harry": 834,
      "##na": 835,
      "##ason": 836,
      "▁street": 837,
      "▁charlotte": 838,
      "▁deter": 839,
      "▁_": 840,
      "▁1660": 841,
      "##.676": 842,
      "##inn": 843,
      "▁enough": 844,
      "▁close": 845,
      "##50": 846,
      "##ook": 847,
      "▁27": 848,
      "▁pay": 849,
      "▁product": 850,
      "▁my": 851,
      "▁ph": 852,
      "▁57": 853,
      "▁483": 854,
      "葉": 855,
      "▁docum": 856,
      "▁1939": 857,
      "##静": 858,
      "##-3989": 859,
      "▁100,000": 860,
      "▁when": 861,
      "▁08/17/2000": 862,
      "▁1995": 863,
      "▁2:25": 864,
      "▁1145": 865,
      "▁shall": 866,
      "##get": 867,
      "##iding": 868,
      "##uge": 869,
      "▁supp": 870,
      "▁number": 871,
      "▁cha": 872,
      "▁43": 873,
      "▁29": 874,
      "▁53": 875,
      "▁1100": 876,
      "▁dallas": 877,
      "##ee": 878,
      "▁96": 879,
      "▁round": 880,
      "##294-": 881,
      "▁walk": 882,
      "▁1994": 883,
      "##du": 884,
      "##itive": 885,
      "##!!": 886,
      "##ently": 887,
      "▁show": 888,
      "##uation": 889,
      "ˈ": 890,
      "##itt": 891,
      "##res": 892,
      "▁sim": 893,
      "▁1954": 894,
      "##ula": 895,
      "##apolis": 896,
      "▁leave": 897,
      "▁agreement": 898,
      "▁has": 899,
      "f": 900,
      "##029": 901,
      "##eth": 902,
      "##800": 903,
      "▁1.00": 904,
      "▁energy": 905,
      "▁yester": 906,
      "▁3,000": 907,
      "▁lake": 908,
      "##ane": 909,
      "▁polic": 910,
      "##ro": 911,
      "▁10:25": 912,
      "▁dr": 913,
      "▁01/26/2001": 914,
      "▁concern": 915,
      "##8": 916,
      "▁01/2": 917,
      "▁11.5": 918,
      "▁bott": 919,
      "##aps": 920,
      "▁uhh": 921,
      "▁twenty": 922,
      "▁!!!!!!": 923,
      "▁april": 924,
      "▁couple": 925,
      "##ح": 926,
      "▁team": 927,
      "##ely": 928,
      "##us": 929,
      "##clud": 930,
      "##:25": 931,
      "##less": 932,
      "##ough": 933,
      "▁friend": 934,
      "▁small": 935,
      "▁was": 936,
      "▁fe": 937,
      "▁happ": 938,
      "▁1700": 939,
      "▁past": 940,
      "▁wants": 941,
      "▁fact": 942,
      "▁old": 943,
      "▁elect": 944,
      "▁energ": 945,
      "▁sept": 946,
      "▁ground": 947,
      "▁fre": 948,
      "▁68": 949,
      "▁nonstop": 950,
      "▁med": 951,
      "▁mid": 952,
      "▁260": 953,
      "##819": 954,
      "##beit": 955,
      "##ific": 956,
      "▁arriving": 957,
      "▁space": 958,
      "##ad": 959,
      "##een": 960,
      "•": 961,
      "##ral": 962,
      "▁4.7": 963,
      "▁ban": 964,
      "▁profess": 965,
      "▁fr": 966,
      "##em": 967,
      "▁82": 968,
      "▁wan": 969,
      "▁mess": 970,
      "▁0": 971,
      "▁.": 972,
      "##or": 973,
      "##700": 974,
      "▁expl": 975,
      "▁04:28": 976,
      "▁12.": 977,
      "▁detail": 978,
      "##:51": 979,
      "▁2.0": 980,
      "▁env": 981,
      "▁beyond": 982,
      "##82": 983,
      "▁tom": 984,
      "##ection": 985,
      "▁3": 986,
      "##:50": 987,
      "▁anoder": 988,
      "▁08/0": 989,
      "##/99": 990,
      "##:27": 991,
      "▁still": 992,
      "▁talk": 993,
      "▁green": 994,
      "▁410-468-3": 995,
      "##ness": 996,
      "##ily": 997,
      "▁exper": 998,
      "##ble": 999,
      "▁cut": 1000,
      "▁global": 1001,
      "▁wrong": 1002,
      "t": 1003,
      "▁say": 1004,
      "##gr": 1005,
      "##hip": 1006,
      "##atch": 1007,
      "##ose": 1008,
      "▁av": 1009,
      "▁forty-": 1010,
      "##9/2000": 1011,
      "▁6/1": 1012,
      "##2,000": 1013,
      "##ically": 1014,
      "ʊ": 1015,
      "▁below": 1016,
      "▁6.2": 1017,
      "##ablish": 1018,
      "##53": 1019,
      "7": 1020,
      "▁love": 1021,
      "▁1699": 1022,
      "£": 1023,
      "##idence": 1024,
      "##134": 1025,
      "▁airport": 1026,
      "#": 1027,
      "ɑ": 1028,
      "▁720": 1029,
      "##k": 1030,
      "▁bro": 1031,
      "▁202.456.1": 1032,
      "##443-3": 1033,
      "##6": 1034,
      "▁202.45": 1035,
      "##/11/2004": 1036,
      "##idd": 1037,
      "[MASK]": 1038,
      "##gether": 1039,
      "▁pho": 1040,
      "##0/2000": 1041,
      "##-343": 1042,
      "σ": 1043,
      "##umb": 1044,
      "▁should": 1045,
      "▁03/2": 1046,
      "▁38": 1047,
      "▁agre": 1048,
      "##:55": 1049,
      "▁sorry": 1050,
      "##-59": 1051,
      "##一": 1052,
      "▁twenty-four": 1053,
      "▁iii": 1054,
      "▁107": 1055,
      "##+": 1056,
      "▁tuesday": 1057,
      "▁5,000": 1058,
      "##³": 1059,
      "▁1,": 1060,
      "▁vegas": 1061,
      "▁wish": 1062,
      "##'": 1063,
      "▁everything": 1064,
      "▁towards": 1065,
      "##ß": 1066,
      "▁01:14": 1067,
      "▁8.3": 1068,
      "▁especially": 1069,
      "##z": 1070,
      "▁170": 1071,
      "##way": 1072,
      "##lik": 1073,
      "▁alright": 1074,
      "##****************": 1075,
      "▁1,200": 1076,
      "▁probably": 1077,
      "##ag": 1078,
      "▁198": 1079,
      "▁sa": 1080,
      "##li": 1081,
      "▁cup": 1082,
      "▁a": 1083,
      "##hn": 1084,
      "##3-": 1085,
      "▁value": 1086,
      "##5": 1087,
      "▁416-8": 1088,
      "##--------": 1089,
      "▁just": 1090,
      "##all": 1091,
      "##3098": 1092,
      "##ecess": 1093,
      "▁&": 1094,
      "▁rather": 1095,
      "▁ele": 1096,
      "▁mm": 1097,
      "▁must": 1098,
      "##/2004": 1099,
      "##25": 1100,
      "▁us": 1101,
      "▁under": 1102,
      "▁3:00": 1103,
      "▁24": 1104,
      "##-3393": 1105,
      "##ي": 1106,
      "▁oh": 1107,
      "▁hot": 1108,
      "▁202.456": 1109,
      "▁02/27/2001": 1110,
      "%": 1111,
      "▁balzac": 1112,
      "▁k": 1113,
      "##inc": 1114,
      "##by": 1115,
      "##????????": 1116,
      "##unch": 1117,
      "##oll": 1118,
      "###": 1119,
      "▁theirs": 1120,
      "##ven": 1121,
      "▁political": 1122,
      "▁fing": 1123,
      "▁tec": 1124,
      "▁does": 1125,
      "▁bea": 1126,
      "▁21,000": 1127,
      "n": 1128,
      "▁effort": 1129,
      "##ide": 1130,
      "▁ever": 1131,
      "▁app": 1132,
      "##ger": 1133,
      "▁will": 1134,
      "##2/2001": 1135,
      "▁03:00": 1136,
      "▁person": 1137,
      "##41": 1138,
      "▁fl": 1139,
      "▁daily": 1140,
      "▁1986": 1141,
      "▁281-518": 1142,
      "▁bed": 1143,
      "▁bus": 1144,
      "▁>": 1145,
      "▁boston": 1146,
      "##up": 1147,
      "##/200": 1148,
      "##lect": 1149,
      "▁1971": 1150,
      "▁1985": 1151,
      "▁1955": 1152,
      "▁expect": 1153,
      "▁q": 1154,
      "▁son": 1155,
      "##:07": 1156,
      "▁orig": 1157,
      "▁fell": 1158,
      "▁provide": 1159,
      "▁def": 1160,
      "▁remember": 1161,
      "##kee": 1162,
      "▁99": 1163,
      "▁93": 1164,
      "##ς": 1165,
      "##um": 1166,
      "##ful": 1167,
      "▁hur": 1168,
      "▁taking": 1169,
      "##15": 1170,
      "▁80,000": 1171,
      "▁shop": 1172,
      "##bit": 1173,
      "▁fifteen": 1174,
      "##cle": 1175,
      "▁1943": 1176,
      "▁doct": 1177,
      "▁1978": 1178,
      "##:": 1179,
      "▁cloth": 1180,
      "▁left": 1181,
      "##:30": 1182,
      "▁succ": 1183,
      "▁hair": 1184,
      "▁ac": 1185,
      "##und": 1186,
      "▁158": 1187,
      "▁excellent": 1188,
      "▁ste": 1189,
      "▁area": 1190,
      "##-8031": 1191,
      "▁11:35": 1192,
      "##ert": 1193,
      "##y": 1194,
      "▁okay": 1195,
      "▁morning": 1196,
      "▁view": 1197,
      "▁creat": 1198,
      "▁nineteen": 1199,
      "##12": 1200,
      "▁ident": 1201,
      "▁for": 1202,
      "▁270": 1203,
      "##66": 1204,
      "▁1220": 1205,
      "▁following": 1206,
      "▁1820": 1207,
      "▁mouth": 1208,
      "▁im": 1209,
      "▁watch": 1210,
      "▁whose": 1211,
      "▁555": 1212,
      "▁lad": 1213,
      "▁dom": 1214,
      "▁05/01/2001": 1215,
      "▁?": 1216,
      "##ated": 1217,
      "▁http": 1218,
      "##:20": 1219,
      "##tr": 1220,
      "▁down": 1221,
      "▁before": 1222,
      "▁since": 1223,
      "▁move": 1224,
      "▁1530": 1225,
      "##~": 1226,
      "▁sc": 1227,
      "▁val": 1228,
      "▁50000": 1229,
      "▁18,000": 1230,
      "▁07/14/2000": 1231,
      "▁mass": 1232,
      "##row": 1233,
      "▁1.3": 1234,
      "▁strong": 1235,
      "▁opt": 1236,
      "▁pa": 1237,
      "##ism": 1238,
      "##lf": 1239,
      "##un": 1240,
      "##ec": 1241,
      "##........": 1242,
      "▁18": 1243,
      "▁russ": 1244,
      "▁once": 1245,
      "##book": 1246,
      "##ion": 1247,
      "▁fish": 1248,
      "##ass": 1249,
      "##fer": 1250,
      "##et": 1251,
      "▁woud": 1252,
      "##els": 1253,
      "▁saturday": 1254,
      "▁ten": 1255,
      "▁16.3": 1256,
      "▁begin": 1257,
      "▁uh": 1258,
      "▁ins": 1259,
      "▁touch": 1260,
      "##92": 1261,
      "▁1968": 1262,
      "]": 1263,
      "▁twelve": 1264,
      "▁10:5": 1265,
      "##880": 1266,
      "▁looks": 1267,
      "▁376": 1268,
      "##ellow": 1269,
      "▁7.3": 1270,
      "▁sand": 1271,
      "▁is": 1272,
      "▁sk": 1273,
      "▁17": 1274,
      "▁196": 1275,
      "▁baltim": 1276,
      "▁31": 1277,
      "▁00": 1278,
      "##ances": 1279,
      "▁wil": 1280,
      "##461": 1281,
      "▁looked": 1282,
      "▁process": 1283,
      "▁here": 1284,
      "▁56": 1285,
      "▁june": 1286,
      "▁9/11": 1287,
      "▁12": 1288,
      "##-5": 1289,
      "▁ren": 1290,
      "##ortun": 1291,
      "##vil": 1292,
      "▁575": 1293,
      "##1-": 1294,
      "▁beh": 1295,
      "▁72": 1296,
      "▁les": 1297,
      "▁out": 1298,
      "▁60": 1299,
      "▁tick": 1300,
      "▁ha": 1301,
      "##@ect": 1302,
      "##right": 1303,
      "▁01/24/2001": 1304,
      "▁+1": 1305,
      "##****": 1306,
      "▁test": 1307,
      "▁albeit": 1308,
      "▁top": 1309,
      "##ity": 1310,
      "##cum": 1311,
      "##.16": 1312,
      "▁718": 1313,
      "▁parents": 1314,
      "$": 1315,
      "▁197": 1316,
      "▁10/31": 1317,
      "##ued": 1318,
      "##ower": 1319,
      "▁start": 1320,
      "▁loc": 1321,
      "▁support": 1322,
      "▁city": 1323,
      "##-991-90": 1324,
      "▁september": 1325,
      "##ale": 1326,
      "##32": 1327,
      "##:45": 1328,
      "##ues": 1329,
      "##2/2000": 1330,
      "▁888.916.718": 1331,
      "▁sor": 1332,
      "##ure": 1333,
      "##pe": 1334,
      "▁37": 1335,
      "##:02": 1336,
      "##ep": 1337,
      "##oo": 1338,
      "▁taken": 1339,
      "▁partic": 1340,
      "##ected": 1341,
      "▁whi": 1342,
      "▁alberta": 1343,
      "▁what": 1344,
      "▁allow": 1345,
      "##ight": 1346,
      "▁sour": 1347,
      "▁'m": 1348,
      "▁har": 1349,
      "▁bac": 1350,
      "▁1579": 1351,
      "##ner": 1352,
      "##got": 1353,
      "▁aircraft": 1354,
      "▁excell": 1355,
      "▁espec": 1356,
      "▁untill": 1357,
      "##thers": 1358,
      "▁step": 1359,
      "▁250": 1360,
      "v": 1361,
      "##c": 1362,
      "▁1980": 1363,
      "▁401": 1364,
      "▁esp": 1365,
      "##ɛ": 1366,
      "▁2014": 1367,
      "▁1787": 1368,
      "▁713-646-3393": 1369,
      "0": 1370,
      "##.85": 1371,
      "▁21": 1372,
      "{": 1373,
      "▁&amp": 1374,
      "##清": 1375,
      "##ines": 1376,
      "##par": 1377,
      "##is": 1378,
      "▁04/16/2001": 1379,
      "▁190": 1380,
      "##town": 1381,
      "▁sar": 1382,
      "[PAD]": 1383,
      "##ush": 1384,
      "##t": 1385,
      "##ame": 1386,
      "▁seemed": 1387,
      "▁ter": 1388,
      "##ization": 1389,
      "▁problem": 1390,
      "▁h": 1391,
      "9": 1392,
      "▁else": 1393,
      "##η": 1394,
      "##pite": 1395,
      "▁143": 1396,
      "▁08/16": 1397,
      "▁available": 1398,
      "▁lost": 1399,
      "▁aw": 1400,
      "▁million": 1401,
      "##7/2000": 1402,
      "##xt": 1403,
      "▁also": 1404,
      "▁ano": 1405,
      "▁7": 1406,
      "▁75": 1407,
      "▁unto": 1408,
      "##谿": 1409,
      "▁200": 1410,
      "▁while": 1411,
      "▁’’": 1412,
      "▁sur": 1413,
      "▁whe": 1414,
      "▁grand": 1415,
      "▁huma": 1416,
      "▁510-642": 1417,
      "▁yellow": 1418,
      "▁inter": 1419,
      "##ase": 1420,
      "▁regard": 1421,
      "##ating": 1422,
      "8": 1423,
      "##§": 1424,
      "▁francisco": 1425,
      "##ved": 1426,
      "▁z": 1427,
      "▁2012": 1428,
      "▁democr": 1429,
      "▁together": 1430,
      "▁better": 1431,
      "##.1234": 1432,
      "▁713-654-0365": 1433,
      "▁199": 1434,
      "▁fall": 1435,
      "▁huh": 1436,
      "##:13": 1437,
      "##46-3393": 1438,
      "##¢": 1439,
      "▁nwww": 1440,
      "▁t": 1441,
      "▁project": 1442,
      "▁collect": 1443,
      "##od": 1444,
      "▁family": 1445,
      "▁838": 1446,
      "▁1932": 1447,
      "##ι": 1448,
      "▁health": 1449,
      "▁went": 1450,
      "##:15": 1451,
      "▁405": 1452,
      "##tw": 1453,
      "##16": 1454,
      "▁fort": 1455,
      "ح": 1456,
      "▁\"": 1457,
      "2": 1458,
      "##led": 1459,
      "”": 1460,
      "▁64": 1461,
      "▁1835": 1462,
      "▁kn": 1463,
      "▁see": 1464,
      "▁although": 1465,
      "樋": 1466,
      "##,8": 1467,
      "▁1982": 1468,
      "##iqu": 1469,
      "▁no-6": 1470,
      "▁cer": 1471,
      "▁281-435-0295": 1472,
      "##.75": 1473,
      "▁develop": 1474,
      "##isco": 1475,
      "▁look": 1476,
      "▁form": 1477,
      "▁never": 1478,
      "▁only": 1479,
      "##71": 1480,
      "##ck": 1481,
      "▁11": 1482,
      "▁thousand": 1483,
      "▁_________________________________": 1484,
      "▁512": 1485,
      "▁1777": 1486,
      "▁48": 1487,
      "##澹": 1488,
      "##erc": 1489,
      "##ending": 1490,
      "▁5:00": 1491,
      "▁10:00": 1492,
      "##ond": 1493,
      "▁1972": 1494,
      "▁itself": 1495,
      "▁beside": 1496,
      "▁major": 1497,
      "##ink": 1498,
      "▁inc": 1499,
      "##illion": 1500,
      "▁civ": 1501,
      "##874": 1502,
      "##79": 1503,
      "▁13": 1504,
      "▁02/13/2001": 1505,
      "▁newark": 1506,
      "▁thirty-five": 1507,
      "▁to": 1508,
      "▁10/2": 1509,
      "▁che": 1510,
      "##,0": 1511,
      "##i": 1512,
      "##ire": 1513,
      "▁real": 1514,
      "##司": 1515,
      "##109": 1516,
      "##ult": 1517,
      "▁save": 1518,
      "▁trad": 1519,
      "##ver": 1520,
      "▁days": 1521,
      "▁east": 1522,
      "##/16": 1523,
      "▁except": 1524,
      "▁play": 1525,
      "司": 1526,
      "##x": 1527,
      "##21": 1528,
      "##0365": 1529,
      "▁as": 1530,
      "▁%": 1531,
      "▁yes": 1532,
      "##elp": 1533,
      "▁philadelp": 1534,
      "▁end": 1535,
      "▁year": 1536,
      "▁06": 1537,
      "▁92": 1538,
      "▁effect": 1539,
      "##ott": 1540,
      "&": 1541,
      "¢": 1542,
      "▁thy": 1543,
      "##ploy": 1544,
      "▁met": 1545,
      "▁amongst": 1546,
      "图": 1547,
      "##ren": 1548,
      "▁york": 1549,
      "##imes": 1550,
      "▁hop": 1551,
      "▁1966": 1552,
      "­": 1553,
      "奈": 1554,
      "##d": 1555,
      "##one": 1556,
      "##53-3119": 1557,
      "##-99": 1558,
      "▁aust": 1559,
      "##ace": 1560,
      "▁august": 1561,
      "▁180": 1562,
      "▁em": 1563,
      "▁can": 1564,
      "##,00": 1565,
      "▁whereby": 1566,
      "▁means": 1567,
      "▁fight": 1568,
      "▁arg": 1569,
      "▁invol": 1570,
      "▁doing": 1571,
      "##ark": 1572,
      "##ational": 1573,
      "▁discuss": 1574,
      "▁avail": 1575,
      "▁may": 1576,
      "▁2010": 1577,
      "##als": 1578,
      "##ork": 1579,
      "▁899-": 1580,
      "##ay": 1581,
      "▁train": 1582,
      "##ago": 1583,
      "▁347": 1584,
      "▁4:50": 1585,
      "##old": 1586,
      "▁dc": 1587,
      "▁ones": 1588,
      "▁14": 1589,
      "▁sn": 1590,
      "##;": 1591,
      "▁treat": 1592,
      "▁language": 1593,
      "▁1623": 1594,
      "▁go": 1595,
      "▁thank": 1596,
      "▁despite": 1597,
      "▁priv": 1598,
      "η": 1599,
      "▁1:00": 1600,
      "▁'d": 1601,
      "##'s": 1602,
      "##/17/2000": 1603,
      "▁-----------------------------------------------------------------": 1604,
      "##ə": 1605,
      "##ors": 1606,
      "##ters": 1607,
      "▁183": 1608,
      "##ify": 1609,
      "?": 1610,
      "▁iv": 1611,
      "▁05/25/2001": 1612,
      "##ust": 1613,
      "▁---": 1614,
      "▁rel": 1615,
      "▁ben": 1616,
      "##远": 1617,
      "▁off": 1618,
      "##和": 1619,
      "▁oil": 1620,
      "▁north": 1621,
      "▁b/": 1622,
      "▁hors": 1623,
      "▁1892": 1624,
      "##key": 1625,
      "▁teach": 1626,
      "##ively": 1627,
      "▁mother": 1628,
      "▁19": 1629,
      "▁81": 1630,
      "▁three": 1631,
      "▁appear": 1632,
      "##20": 1633,
      "▁jan": 1634,
      "▁atlanta": 1635,
      "▁count": 1636,
      "##/13/2001": 1637,
      "##:0": 1638,
      "##ised": 1639,
      "[": 1640,
      "▁03/27/2001": 1641,
      "▁rights": 1642,
      "▁white": 1643,
      "▁**": 1644,
      "##ha": 1645,
      "▁notwi": 1646,
      "▁713-853-1696": 1647,
      "##-23": 1648,
      "▁6871082": 1649,
      "▁educ": 1650,
      "▁sun": 1651,
      "<": 1652,
      "##28": 1653,
      "▁employ": 1654,
      "…": 1655,
      "##.70": 1656,
      "▁high": 1657,
      "▁blue": 1658,
      "▁1999": 1659,
      "▁s’": 1660,
      "##16.718": 1661,
      "▁called": 1662,
      "▁1/2": 1663,
      "▁33": 1664,
      "▁ens": 1665,
      "▁sil": 1666,
      "▁fig": 1667,
      "▁bl": 1668,
      "▁accord": 1669,
      "##vers": 1670,
      "##:01": 1671,
      "▁egg": 1672,
      "##ics": 1673,
      "▁several": 1674,
      "▁town": 1675,
      "▁mind": 1676,
      "▁via": 1677,
      "##uel": 1678,
      "▁3:30": 1679,
      "##ph": 1680,
      "▁toward": 1681,
      "▁6.00": 1682,
      "▁though": 1683,
      "▁8:00": 1684,
      "▁703": 1685,
      "▁yesterday": 1686,
      "▁1987": 1687,
      "##re": 1688,
      "##ted": 1689,
      "##aster": 1690,
      "▁tri": 1691,
      "##r": 1692,
      "##!!!": 1693,
      "##aw": 1694,
      "##co": 1695,
      "▁1926": 1696,
      "▁till": 1697,
      "##/8/00": 1698,
      "▁south": 1699,
      "▁common": 1700,
      "##de": 1701,
      "▁tex": 1702,
      "##ina": 1703,
      "##/": 1704,
      "▁china": 1705,
      "▁'s": 1706,
      "▁oakland": 1707,
      "▁people": 1708,
      "▁1696": 1709,
      "##61": 1710,
      "##hing": 1711,
      "▁wether": 1712,
      "##pr": 1713,
      "▁birth": 1714,
      "▁pat": 1715,
      "▁rese": 1716,
      "##“": 1717,
      "▁happened": 1718,
      "▁1230": 1719,
      "▁800-553-3119": 1720,
      "##,950": 1721,
      "▁1836": 1722,
      "##sh": 1723,
      "##arch": 1724,
      "##2000": 1725,
      "▁places": 1726,
      "##oke": 1727,
      "▁3.7": 1728,
      "▁169": 1729,
      "##atic": 1730,
      "▁ourselves": 1731,
      "##za": 1732,
      "##ne": 1733,
      "▁pet": 1734,
      "▁difficult": 1735,
      "##oun": 1736,
      "##.3": 1737,
      "▁cult": 1738,
      "▁dollars": 1739,
      "▁430": 1740,
      "▁y": 1741,
      "▁roman": 1742,
      "##ences": 1743,
      "▁comedie": 1744,
      "▁dese": 1745,
      "▁thr": 1746,
      "▁hard": 1747,
      "▁pub": 1748,
      "▁cheap": 1749,
      "▁texas": 1750,
      "▁aside": 1751,
      "##91": 1752,
      "▁330": 1753,
      "▁thirty": 1754,
      "##ister": 1755,
      "##.00": 1756,
      "▁near": 1757,
      "##:40": 1758,
      "▁earli": 1759,
      "##aking": 1760,
      "▁wa": 1761,
      "▁mr": 1762,
      "▁ol": 1763,
      "##rib": 1764,
      "▁1918": 1765,
      "##ve": 1766,
      "ه": 1767,
      "▁minutes": 1768,
      "##st": 1769,
      "##/26": 1770,
      "▁makes": 1771,
      "▁1598": 1772,
      "▁summer": 1773,
      "##111": 1774,
      "##les": 1775,
      "▁http://": 1776,
      "▁curren": 1777,
      "▁eighty": 1778,
      "▁forth": 1779,
      "▁free": 1780,
      "##0-3": 1781,
      "▁behind": 1782,
      "▁12:1": 1783,
      "▁current": 1784,
      "▁something": 1785,
      "l": 1786,
      "▁06/01/2001": 1787,
      "▁flight": 1788,
      "▁twenty-two": 1789,
      "▁eff": 1790,
      "##ny": 1791,
      "##ik": 1792,
      "▁quinn": 1793,
      "\\": 1794,
      "▁whether": 1795,
      "▁???": 1796,
      "▁certain": 1797,
      "▁belie": 1798,
      "▁inv": 1799,
      "▁:)": 1800,
      "▁eat": 1801,
      "▁ask": 1802,
      "▁information": 1803,
      "▁longer": 1804,
      "▁national": 1805,
      "##am": 1806,
      "▁und": 1807,
      "▁1945": 1808,
      "▁dan": 1809,
      "##ug": 1810,
      "▁08": 1811,
      "▁delta": 1812,
      "▁report": 1813,
      "▁1776": 1814,
      "▁+45": 1815,
      "▁above": 1816,
      "▁3724": 1817,
      "▁bag": 1818,
      "##l": 1819,
      "##ance": 1820,
      "▁bab": 1821,
      "▁sit": 1822,
      "▁tor": 1823,
      "##ror": 1824,
      "▁2006": 1825,
      "▁1843": 1826,
      "▁850": 1827,
      "▁present": 1828,
      "▁room": 1829,
      "##-415-": 1830,
      "##ature": 1831,
      "▁1738": 1832,
      "##9": 1833,
      "▁lead": 1834,
      "▁at": 1835,
      "▁thought": 1836,
      "##iness": 1837,
      "▁4": 1838,
      "##ian": 1839,
      "##unic": 1840,
      "▁pr": 1841,
      "##ogether": 1842,
      "▁1958": 1843,
      "▁mod": 1844,
      "琴": 1845,
      "▁most": 1846,
      "##ize": 1847,
      "##ration": 1848,
      "-": 1849,
      "▁init": 1850,
      "##200": 1851,
      "##ern": 1852,
      "##room": 1853,
      "▁besid": 1854,
      "▁1928": 1855,
      "##φ": 1856,
      "##ities": 1857,
      "▁without": 1858,
      "▁str": 1859,
      "##:56": 1860,
      "▁415.621": 1861,
      "▁pain": 1862,
      "▁210": 1863,
      "▁ready": 1864,
      "##ist": 1865,
      "##ange": 1866,
      "##aren": 1867,
      "##ard": 1868,
      "▁girl": 1869,
      "▁sle": 1870,
      "+": 1871,
      "▁monday": 1872,
      "▁(": 1873,
      "##.916.718": 1874,
      "▁2016": 1875,
      "▁open": 1876,
      "▁09/15/99": 1877,
      "▁giv": 1878,
      "▁prot": 1879,
      "▁abe": 1880,
      "▁half": 1881,
      "▁07": 1882,
      "##q": 1883,
      "##.718": 1884,
      "▁control": 1885,
      "##393": 1886,
      "▁beaut": 1887,
      "##ed": 1888,
      "▁few": 1889,
      "##ission": 1890,
      "▁89": 1891,
      "▁ach": 1892,
      "##8/2001": 1893,
      "▁possible": 1894,
      "##ither": 1895,
      "▁646-8420": 1896,
      "▁oper": 1897,
      "##u": 1898,
      "▁29587": 1899,
      "▁anybody": 1900,
      "##raft": 1901,
      "##:1": 1902,
      "##/7": 1903,
      "▁b/c": 1904,
      "##ided": 1905,
      "▁horse": 1906,
      "▁gu": 1907,
      "▁v": 1908,
      "▁mean": 1909,
      "▁fri": 1910,
      "##tt": 1911,
      "▁|": 1912,
      "▁hope": 1913,
      "##,500": 1914,
      "*": 1915,
      "▁pric": 1916,
      "##5-": 1917,
      "##ummy": 1918,
      "##====": 1919,
      "▁prom": 1920,
      "·": 1921,
      "##line": 1922,
      "▁po": 1923,
      "##ier": 1924,
      "##ul": 1925,
      "▁cr": 1926,
      "##________________": 1927,
      "▁hotel": 1928,
      "##========": 1929,
      "▁360": 1930,
      "▁dall": 1931,
      "##ester": 1932,
      "##ru": 1933,
      "##head": 1934,
      "##ince": 1935,
      "##dy": 1936,
      "▁going": 1937,
      "▁680": 1938,
      "▁10:46": 1939,
      "▁plus": 1940,
      "▁many": 1941,
      "##ation": 1942,
      "▁08/03/2000": 1943,
      "▁grow": 1944,
      "–": 1945,
      "##utes": 1946,
      "▁link": 1947,
      "▁201": 1948,
      "▁1849": 1949,
      "▁exce": 1950,
      "##00": 1951,
      "▁1300": 1952,
      "##ish": 1953,
      "▁7.2": 1954,
      "##ping": 1955,
      "▁versus": 1956,
      "##iously": 1957,
      "▁the": 1958,
      "▁lim": 1959,
      "▁that": 1960,
      "ν": 1961,
      "▁2.3": 1962,
      "▁numerous": 1963,
      "▁ii": 1964,
      "##°": 1965,
      "▁num": 1966,
      "##68": 1967,
      "##ing": 1968,
      "##eak": 1969,
      "▁bad": 1970,
      "##enix": 1971,
      "▁result": 1972,
      "▁dad": 1973,
      "▁.3": 1974,
      "##0010": 1975,
      "▁cons": 1976,
      "▁718-780": 1977,
      "▁gl": 1978,
      "▁fac": 1979,
      "▁amidst": 1980,
      "▁doggie": 1981,
      "##il": 1982,
      "▁hands": 1983,
      "##@": 1984,
      "##>": 1985,
      "▁flights": 1986,
      "##oth": 1987,
      "##ear": 1988,
      "▁commun": 1989,
      "##erous": 1990,
      "▁put": 1991,
      "##ile": 1992,
      "▁50,000": 1993,
      "▁1724": 1994,
      "▁–": 1995,
      "▁38,000": 1996,
      "²": 1997,
      "▁invest": 1998,
      "▁05/17/99": 1999,
      "▁2021": 2000,
      "▁problems": 2001,
      "▁03/21/2001": 2002,
      "##est": 2003,
      "▁would": 2004,
      "##ages": 2005,
      "▁page": 2006,
      "▁61": 2007,
      "▁1245": 2008,
      "##ast": 2009,
      "▁laura": 2010,
      "##iate": 2011,
      "##ms": 2012,
      "##ain": 2013,
      "▁814014": 2014,
      "▁80435": 2015,
      "▁1984": 2016,
      "##aph": 2017,
      "▁living": 2018,
      "▁deb": 2019,
      "▁1580": 2020,
      "▁202": 2021,
      "▁505": 2022,
      "山": 2023,
      "▁middle": 2024,
      "(": 2025,
      "##gan": 2026,
      "▁47,500": 2027,
      "##air": 2028,
      "▁ty": 2029,
      "▁getting": 2030,
      "##where": 2031,
      "▁620-": 2032,
      "▁party": 2033,
      "##ica": 2034,
      "##velop": 2035,
      "##ider": 2036,
      "##rem": 2037,
      "▁behin": 2038,
      "▁fir": 2039,
      "▁place": 2040,
      "▁3,202.61": 2041,
      "▁enj": 2042,
      "▁‘": 2043,
      "▁£": 2044,
      "▁jwww": 2045,
      "▁225": 2046,
      "##2-6": 2047,
      "▁fix": 2048,
      "##989": 2049,
      "##ts": 2050,
      "##×": 2051,
      "▁01/25/2001": 2052,
      "▁prop": 2053,
      "##-780": 2054,
      "▁non": 2055,
      "▁quality": 2056,
      "##ared": 2057,
      "▁six": 2058,
      "▁cir": 2059,
      "▁and": 2060,
      "▁per": 2061,
      "▁36": 2062,
      "▁03/0": 2063,
      "q": 2064,
      "▁stand": 2065,
      "▁thanks": 2066,
      "▁evening": 2067,
      "▁record": 2068,
      "▁978": 2069,
      "▁airlines": 2070,
      "##raw": 2071,
      "##60": 2072,
      "##:48": 2073,
      "##------": 2074,
      "▁05": 2075,
      "▁leaving": 2076,
      "▁97": 2077,
      "##ipp": 2078,
      "▁univers": 2079,
      "##/1": 2080,
      "##ides": 2081,
      "##ural": 2082,
      "▁’ve": 2083,
      "##oy": 2084,
      "▁there": 2085,
      "##ɔ": 2086,
      "▁work": 2087,
      "##β": 2088,
      "▁including": 2089,
      "##side": 2090,
      "▁pittsburgh": 2091,
      "▁forty": 2092,
      "##ays": 2093,
      "▁san": 2094,
      "##vel": 2095,
      "▁3/4": 2096,
      "▁natural": 2097,
      "œ": 2098,
      "▁earliest": 2099,
      "##:57": 2100,
      "▁unlike": 2101,
      "▁u": 2102,
      "▁call": 2103,
      "##urn": 2104,
      "▁2002": 2105,
      "▁somebody": 2106,
      "▁`s": 2107,
      "▁832": 2108,
      "▁development": 2109,
      "▁by": 2110,
      "▁88": 2111,
      "▁pittsbur": 2112,
      "▁society": 2113,
      "##1696": 2114,
      "▁hol": 2115,
      "▁second": 2116,
      "##om": 2117,
      "▁custom": 2118,
      "##-)": 2119,
      "▁until": 2120,
      "▁269": 2121,
      "▁sea": 2122,
      "▁word": 2123,
      "##84": 2124,
      "▁way": 2125,
      "▁ind": 2126,
      "▁5000": 2127,
      "▁832.676": 2128,
      "▁'0": 2129,
      "[UNK]": 2130,
      "▁piec": 2131,
      "##51": 2132,
      "▁4,": 2133,
      "##ular": 2134,
      "@": 2135,
      "▁peace": 2136,
      "▁.?": 2137,
      "▁55": 2138,
      "▁over": 2139,
      "▁entire": 2140,
      "▁420": 2141,
      "▁express": 2142,
      "##vern": 2143,
      "##ore": 2144,
      "▁30,000": 2145,
      "▁wed": 2146,
      "▁5.3": 2147,
      "▁upon": 2148,
      "▁sure": 2149,
      "##ir": 2150,
      "##~*": 2151,
      "▁fourteen": 2152,
      "▁12:3": 2153,
      "▁04:17": 2154,
      "##ient": 2155,
      "▁future": 2156,
      "▁button": 2157,
      "▁3.5": 2158,
      "##haps": 2159,
      "ʁ": 2160,
      "##iday": 2161,
      "▁860": 2162,
      "▁11:30": 2163,
      "▁event": 2164,
      "▁366": 2165,
      "▁gon": 2166,
      "▁s": 2167,
      "▁sixteen": 2168,
      "▁1616": 2169,
      "▁resp": 2170,
      "▁bath": 2171,
      "##ks": 2172,
      "##²": 2173,
      "▁sat": 2174,
      "▁45": 2175,
      "▁sett": 2176,
      "▁77": 2177,
      "▁713-654-128": 2178,
      "▁3,500": 2179,
      "▁40": 2180,
      "##|": 2181,
      "▁comple": 2182,
      "##onto": 2183,
      "##ased": 2184,
      "▁whilst": 2185,
      "##================": 2186,
      "▁bre": 2187,
      "##================================": 2188,
      "▁question": 2189,
      "▁wait": 2190,
      "▁1561": 2191,
      "##ondon": 2192,
      "##ok": 2193,
      "##ω": 2194,
      "##810": 2195,
      "▁3.8": 2196,
      "▁percent": 2197,
      "▁kind": 2198,
      "##ably": 2199,
      "ł": 2200,
      "ɔ": 2201,
      "##ruct": 2202,
      "▁yer": 2203,
      "▁ahead": 2204,
      "▁cleveland": 2205,
      "▁102": 2206,
      "▁alone": 2207,
      "▁d": 2208,
      "▁1689": 2209,
      "##.doc": 2210,
      "##山": 2211,
      "##as": 2212,
      "▁65": 2213,
      "▁324": 2214,
      "##ensive": 2215,
      "▁differ": 2216,
      "##bers": 2217,
      "▁40,000": 2218,
      "##ium": 2219,
      "▁ride": 2220,
      "##ll": 2221,
      "/": 2222,
      "##0072": 2223,
      "▁1594": 2224,
      "▁further": 2225,
      "▁check": 2226,
      "##an": 2227,
      "##own": 2228,
      "##ε": 2229,
      "▁1981": 2230,
      "▁ham": 2231,
      "##gy": 2232,
      "##ن": 2233,
      "##io": 2234,
      "▁prov": 2235,
      "##—": 2236,
      "##ous": 2237,
      "##ames": 2238,
      "▁others": 2239,
      "▁713-8": 2240,
      "▁1902": 2241,
      "▁manag": 2242,
      "▁really": 2243,
      "##iod": 2244,
      "▁ke": 2245,
      "▁46": 2246,
      "▁clim": 2247,
      "▁always": 2248,
      "▁253": 2249,
      "##ived": 2250,
      "▁646": 2251,
      "▁lest": 2252,
      "▁ser": 2253,
      "##ces": 2254,
      "##act": 2255,
      "▁pm": 2256,
      "▁saw": 2257,
      "▁944": 2258,
      "▁70.85": 2259,
      "▁defin": 2260,
      "▁mi": 2261,
      "▁guess": 2262,
      "##fore": 2263,
      "##-50": 2264,
      "▁throu": 2265,
      "##ination": 2266,
      "##0295": 2267,
      "##ong": 2268,
      "##况": 2269,
      "▁chair": 2270,
      "##%": 2271,
      "▁800.713.8": 2272,
      "▁154": 2273,
      "▁reg": 2274,
      "▁bit": 2275,
      "▁78": 2276,
      "▁buy": 2277,
      "▁pict": 2278,
      "▁please": 2279,
      "##ury": 2280,
      "▁pers": 2281,
      "▁company": 2282,
      "▁years": 2283,
      "▁might": 2284,
      "▁different": 2285,
      "▁11:3": 2286,
      "▁international": 2287,
      "##ow": 2288,
      "▁": 2289,
      "▁beneath": 2290,
      "▁....": 2291,
      "▁deal": 2292,
      "▁115": 2293,
      "ɛ": 2294,
      "▁110": 2295,
      "▁320": 2296,
      "##like": 2297,
      "▁thinking": 2298,
      "##ent": 2299,
      "##luding": 2300,
      "##land": 2301,
      "▁be": 2302,
      "##ue": 2303,
      "▁dark": 2304,
      "▁646-84": 2305,
      "▁box": 2306,
      "▁park": 2307,
      "##3-3": 2308,
      "▁abs": 2309,
      "##b": 2310,
      "▁night": 2311,
      "##most": 2312,
      "▁important": 2313,
      "##iet": 2314,
      "▁1,000": 2315,
      "##–": 2316,
      "▁about": 2317,
      "▁market": 2318,
      "▁prob": 2319,
      "▁1829": 2320,
      "##-nine": 2321,
      "##ce": 2322,
      "ʻ": 2323,
      "##ether": 2324,
      "▁baltimore": 2325,
      "▁th": 2326,
      "##our": 2327,
      "▁awoh": 2328,
      "##ition": 2329,
      "▁looking": 2330,
      "##ly": 2331,
      "▁51": 2332,
      "##10": 2333,
      "▁ent": 2334,
      "##!!!!!!!!": 2335,
      "##igh": 2336,
      "▁1599": 2337,
      "▁mil": 2338,
      "▁4.9": 2339,
      "##子": 2340,
      "▁2005": 2341,
      "▁ok": 2342,
      "▁================================": 2343,
      "▁history": 2344,
      "##ash": 2345,
      "▁1912": 2346,
      "▁game": 2347,
      "##ations": 2348,
      "▁rece": 2349,
      "##.782": 2350,
      "##47": 2351,
      "津": 2352,
      "##--": 2353,
      "##rans": 2354,
      "▁indianapolis": 2355,
      "▁62": 2356,
      "▁phone": 2357,
      "▁415": 2358,
      "▁op": 2359,
      "▁wednesday": 2360,
      "▁think": 2361,
      "##ility": 2362,
      "▁na": 2363,
      "▁rec": 2364,
      "▁conc": 2365,
      "▁1998": 2366,
      "▁sol": 2367,
      "▁it's": 2368,
      "▁sm": 2369,
      "▁been": 2370,
      "▁type": 2371,
      "▁paren": 2372,
      "▁words": 2373,
      "##oc": 2374,
      "##itch": 2375,
      "##ony": 2376,
      "▁outs": 2377,
      "##º": 2378,
      "▁713-654-": 2379,
      "▁1992": 2380,
      "##:03": 2381,
      "▁school": 2382,
      "▁restaurant": 2383,
      "▁et": 2384,
      "▁1588": 2385,
      "▁good": 2386,
      "▁1592": 2387,
      "▁059085": 2388,
      "▁turned": 2389,
      "▁44,000": 2390,
      "ρ": 2391,
      "▁fun": 2392,
      "##int": 2393,
      "##ject": 2394,
      "##ο": 2395,
      "##ob": 2396,
      "▁thir": 2397,
      "况": 2398,
      "▁bill": 2399,
      "▁help": 2400,
      "##ł": 2401,
      "▁1110": 2402,
      "▁120,000": 2403,
      "▁sent": 2404,
      "##if": 2405,
      "▁8": 2406,
      "##202": 2407,
      "▁<<": 2408,
      "α": 2409,
      "▁2,": 2410,
      "▁every": 2411,
      "o": 2412,
      "▁idea": 2413,
      "▁table": 2414,
      "▁1957": 2415,
      "▁milk": 2416,
      "##ocr": 2417,
      ",": 2418,
      "▁using": 2419,
      "##attle": 2420,
      "▁inf": 2421,
      "▁281-435-": 2422,
      "ω": 2423,
      "##ates": 2424,
      "##•": 2425,
      "▁large": 2426,
      "▁poor": 2427,
      "▁seen": 2428,
      "##.6": 2429,
      "##ery": 2430,
      "▁1307": 2431,
      "▁--": 2432,
      "##1/2001": 2433,
      "▁piece": 2434,
      "##alf": 2435,
      "▁09:45": 2436,
      "##ri": 2437,
      "▁1846": 2438,
      "▁1875": 2439,
      "##ʒ": 2440,
      "▁11:32": 2441,
      "##-46": 2442,
      "##uding": 2443,
      "##ν": 2444,
      "▁power": 2445,
      "##-0": 2446,
      "##********": 2447,
      "▁ext": 2448,
      "▁being": 2449,
      "▁las": 2450,
      "▁needs": 2451,
      "▁52": 2452,
      "##樋": 2453,
      "##itions": 2454,
      "▁amid": 2455,
      "##/4": 2456,
      "##85": 2457,
      "▁milwaukee": 2458,
      "▁.......": 2459,
      "澹": 2460,
      "▁child": 2461,
      "▁kids": 2462,
      "▁rem": 2463,
      "##au": 2464,
      "##cc": 2465,
      "▁give": 2466,
      "##ught": 2467,
      "▁minute": 2468,
      "##ud": 2469,
      ">": 2470,
      "##oot": 2471,
      "▁saying": 2472,
      "▁-": 2473,
      "▁they": 2474,
      "φ": 2475,
      "##g": 2476,
      "##ined": 2477,
      "▁6,000": 2478,
      "▁later": 2479,
      "▁den": 2480,
      "##奈": 2481,
      "▁1993": 2482,
      "##outh": 2483,
      "##aff": 2484,
      "##:28": 2485,
      "▁215": 2486,
      "▁03:58": 2487,
      "▁face": 2488,
      "▁opposite": 2489,
      "##ate": 2490,
      "▁eyes": 2491,
      "▁2.5": 2492,
      "口": 2493,
      "±": 2494,
      "▁account": 2495,
      "▁'71": 2496,
      "▁!!!!!!!!!!!": 2497,
      "▁mer": 2498,
      "▁works": 2499,
      "##ies": 2500,
      "▁ple": 2501,
      "▁2,500": 2502,
      "##a": 2503,
      "▁”": 2504,
      "##ign": 2505,
      "##low": 2506,
      "▁shakes": 2507,
      "▁813": 2508,
      "▁minus": 2509,
      "##se": 2510,
      "▁2050": 2511,
      "▁eight": 2512,
      "▁2004": 2513,
      "▁known": 2514,
      "▁lic": 2515,
      "▁whole": 2516,
      "▁pan": 2517,
      "▁6.1": 2518,
      "##004": 2519,
      "##aim": 2520,
      "▁tra": 2521,
      "▁four": 2522,
      "▁att": 2523,
      "##age": 2524,
      "▁beach": 2525,
      "▁1949": 2526,
      "##icago": 2527,
      "##ommend": 2528,
      "▁united": 2529,
      "##amed": 2530,
      "▁angel": 2531,
      "▁80": 2532,
      "▁heard": 2533,
      "▁bird": 2534,
      "##ho": 2535,
      "##ol": 2536,
      "▁!!": 2537,
      "▁jo": 2538,
      "▁fi": 2539,
      "▁sad": 2540,
      "##clock": 2541,
      "##ains": 2542,
      "##ians": 2543,
      "[SEP]": 2544,
      "▁hour": 2545,
      "▁4:00": 2546,
      "##/17/99": 2547,
      "##-00": 2548,
      "▁address": 2549,
      "▁fore": 2550,
      "##ified": 2551,
      "▁dead": 2552,
      "##ig": 2553,
      "▁your": 2554,
      "▁1821": 2555,
      "▁1937": 2556,
      "##zen": 2557,
      "▁com": 2558,
      "▁ye": 2559,
      "##22,000": 2560,
      "##ost": 2561,
      "▁floor": 2562,
      "##ز": 2563,
      "##sc": 2564,
      "▁41": 2565,
      "▁anal": 2566,
      "##miss": 2567,
      "[CLS]": 2568,
      "##osite": 2569,
      "▁doctor": 2570,
      "▁!!!": 2571,
      "▁10/26/2000": 2572,
      "▁books": 2573,
      "▁450": 2574,
      "▁super": 2575,
      "▁8:30": 2576,
      "’": 2577,
      "▁tr": 2578,
      "▁pretty": 2579,
      "▁same": 2580,
      "##in": 2581,
      "##23": 2582,
      "##o": 2583,
      "▁letter": 2584,
      "##nd": 2585,
      "##ical": 2586,
      "▁leg": 2587,
      "##xic": 2588,
      "▁11:36": 2589,
      "##ise": 2590,
      "▁130": 2591,
      "##,000,000": 2592,
      "##.99": 2593,
      "▁paper": 2594,
      "##esday": 2595,
      "▁answ": 2596,
      "##ken": 2597,
      "c": 2598,
      "##ament": 2599,
      "▁success": 2600,
      "##43": 2601,
      "##ot": 2602,
      "▁·": 2603,
      "▁myself": 2604,
      "▁2.9": 2605,
      "▁mu": 2606,
      "▁@": 2607,
      "▁?!": 2608,
      "##ton": 2609,
      "##:18": 2610,
      "▁bet": 2611,
      "▁en": 2612,
      "##app": 2613,
      "▁acc": 2614,
      "▁713/": 2615,
      "##iation": 2616,
      "##/10/2000": 2617,
      "▁11,000": 2618,
      "##aining": 2619,
      "##ward": 2620,
      "▁thurs": 2621,
      "##ect": 2622,
      "▁amount": 2623,
      "一": 2624,
      "##iddle": 2625,
      "##ments": 2626,
      "##/9": 2627,
      "▁intern": 2628,
      "▁house": 2629,
      "▁1910": 2630,
      "▁sw": 2631,
      "▁arrive": 2632,
      "▁restaur": 2633,
      "▁cost": 2634,
      "▁mo": 2635,
      "##tsbur": 2636,
      "##oice": 2637,
      "▁lay": 2638,
      "▁min": 2639,
      "▁cur": 2640,
      "##87": 2641,
      "▁road": 2642,
      "▁lik": 2643,
      "##ine": 2644,
      "▁ob": 2645,
      "▁import": 2646,
      "▁1877": 2647,
      "▁attention": 2648,
      "##:58": 2649,
      "▁44": 2650,
      "▁spr": 2651,
      "▁01810": 2652,
      "▁opp": 2653,
      "##,600": 2654,
      "##ones": 2655,
      "▁forward": 2656,
      "▁trip": 2657,
      "▁teh": 2658,
      "##ember": 2659,
      "##ter": 2660,
      "##ial": 2661,
      "▁es": 2662,
      "▁iran": 2663,
      "##ia": 2664,
      "##/97": 2665,
      "▁70": 2666,
      "##elf": 2667,
      "▁sch": 2668,
      "▁unless": 2669,
      "▁296": 2670,
      "▁security": 2671,
      "▁28,000": 2672,
      "▁stud": 2673,
      "▁1593": 2674,
      "▁stop": 2675,
      "▁'ll": 2676,
      "子": 2677,
      "▁..": 2678,
      "▁across": 2679,
      "▁11-20-": 2680,
      "▁529999": 2681,
      "##ential": 2682,
      "▁230": 2683,
      "▁new": 2684,
      "▁6": 2685,
      "▁713-6": 2686,
      "1": 2687,
      "▁making": 2688,
      "▁eleven": 2689,
      "##9999": 2690,
      "▁<": 2691,
      "▁11/7/08": 2692,
      "▁01/19/2001": 2693,
      "##د": 2694,
      "##59": 2695,
      "▁11:45": 2696,
      "##inner": 2697,
      "▁counter": 2698,
      "▁ec": 2699,
      "▁onto": 2700,
      "##used": 2701,
      "▁03/28/2001": 2702,
      "▁chicago": 2703,
      "▁05:37": 2704,
      "▁03:48": 2705,
      "▁repres": 2706,
      "▁…": 2707,
      "▁619": 2708,
      "##œ": 2709,
      "##eet": 2710,
      "▁conf": 2711,
      "▁highly": 2712,
      "▁345-3436": 2713,
      "##~*~*": 2714,
      "▁2007": 2715,
      "▁downtown": 2716,
      "▁rock": 2717,
      "▁earth": 2718,
      "▁fin": 2719,
      "##:39": 2720,
      "##ls": 2721,
      "##:46": 2722,
      "##icle": 2723,
      "##tim": 2724,
      "##ill": 2725,
      "▁job": 2726,
      "##ured": 2727,
      "▁2009": 2728,
      "▁ne": 2729,
      "▁cle": 2730,
      "▁boy": 2731,
      "▁used": 2732,
      "▁nine": 2733,
      "##24": 2734,
      "▁port": 2735,
      "##710": 2736,
      "##anta": 2737,
      "▁um": 2738,
      "##over": 2739,
      "▁3-5": 2740,
      "▁atop": 2741,
      "▁20,000": 2742,
      "▁zero": 2743,
      "▁yeah": 2744,
      "▁30": 2745,
      "▁light": 2746,
      "##4014": 2747,
      "▁need": 2748,
      "▁char": 2749,
      "##ف": 2750,
      "##orrow": 2751,
      "##er": 2752,
      "▁man": 2753,
      "##sl": 2754,
      "▁any": 2755,
      "▁cam": 2756,
      "##ct": 2757,
      "▁travel": 2758,
      "▁financ": 2759,
      "▁comput": 2760,
      "▁miami": 2761,
      "##-20-": 2762,
      "##13": 2763,
      "▁veg": 2764,
      "▁dey": 2765,
      "▁whom": 2766,
      "##/2": 2767,
      "▁wi": 2768,
      "ز": 2769,
      "▁services": 2770,
      "##ence": 2771,
      "▁713": 2772,
      "▁w/": 2773,
      "▁soon": 2774,
      "##----------------": 2775,
      "▁set": 2776,
      "▁reason": 2777,
      "▁530": 2778,
      "##uct": 2779,
      "▁m": 2780,
      "▁course": 2781,
      "▁lar": 2782,
      "▁throughout": 2783,
      "▁name": 2784,
      "▁apar": 2785,
      "▁800.713.8600": 2786,
      "##17": 2787,
      "##ross": 2788,
      "##ade": 2789,
      "▁ninety-nine": 2790,
      "##lo": 2791,
      "▁st": 2792,
      "▁1505": 2793,
      "k": 2794,
      "▁run": 2795,
      "##noon": 2796,
      "▁her": 2797,
      "6": 2798,
      "##pp": 2799,
      "▁interest": 2800,
      "▁request": 2801,
      "##4-": 2802,
      "▁un": 2803,
      "▁we": 2804,
      "##ص": 2805,
      "##al": 2806,
      "##-84": 2807,
      "##ual": 2808,
      "▁university": 2809,
      "▁...": 2810,
      "▁***": 2811,
      "▁progr": 2812,
      "▁fo": 2813,
      "##sp": 2814,
      "▁ninety": 2815,
      "▁09": 2816,
      "##ves": 2817,
      "▁205": 2818,
      ".": 2819,
      "##sus": 2820,
      "▁********************************": 2821,
      "▁auth": 2822,
      "##ild": 2823,
      "▁’re": 2824,
      "##490": 2825,
      "▁315": 2826,
      "##ior": 2827,
      "▁08:30": 2828,
      "▁aboard": 2829,
      "▁particular": 2830,
      "▁life": 2831,
      "▁come": 2832,
      "▁within": 2833,
      "▁our": 2834,
      "##opment": 2835,
      "▁press": 2836,
      "##ases": 2837,
      "##ros": 2838,
      "▁have": 2839,
      "▁exc": 2840,
      "▁hold": 2841,
      "##/25/2001": 2842,
      "▁finish": 2843,
      "##orm": 2844,
      "▁mov": 2845,
      "▁10/20/2000": 2846,
      "▁perf": 2847,
      "##.0": 2848,
      "##ults": 2849,
      "▁934": 2850,
      "▁aff": 2851,
      "▁week": 2852,
      "▁member": 2853,
      "##22": 2854,
      "##:23": 2855,
      "##v": 2856,
      "▁gener": 2857,
      "##eap": 2858,
      "▁how": 2859,
      "##/2005": 2860,
      "▁o'": 2861,
      "▁bel": 2862,
      "▁with": 2863,
      "##8806": 2864,
      "▁staff": 2865,
      "▁abo": 2866,
      "##uce": 2867,
      "##:00": 2868,
      "##iting": 2869,
      "▁sty": 2870,
      "▁12:12": 2871,
      "▁wife": 2872,
      "▁el": 2873,
      "‘": 2874,
      "▁pull": 2875,
      "##37": 2876,
      "##29": 2877,
      "▁01:09": 2878,
      "▁979": 2879,
      "▁wanted": 2880,
      "▁obs": 2881,
      "▁+": 2882,
      "▁speak": 2883,
      "▁west": 2884,
      "##six": 2885,
      "##ex": 2886,
      "▁54,000": 2887,
      "▁je": 2888,
      "##it": 2889,
      "▁ought": 2890,
      "▁playing": 2891,
      "▁indian": 2892,
      "▁who": 2893,
      "##{": 2894,
      "##ull": 2895,
      "▁1765": 2896,
      "▁11/7": 2897,
      "▁800": 2898,
      "##119": 2899,
      "##/03/2001": 2900,
      "▁break": 2901,
      "▁phoenix": 2902,
      "▁res": 2903,
      "▁32": 2904,
      "##31": 2905,
      "##cross": 2906,
      "▁sha": 2907,
      "##:37": 2908,
      "##iss": 2909,
      "▁202.456.1414": 2910,
      "ن": 2911,
      "##ustom": 2912,
      "##ped": 2913,
      "##ited": 2914,
      "▁`": 2915,
      "▁cre": 2916,
      "##ling": 2917,
      "##erg": 2918,
      "▁1754": 2919,
      "##/31": 2920,
      "▁cal": 2921,
      "▁enron": 2922,
      "▁42,000": 2923,
      "▁det": 2924,
      "##ank": 2925,
      "▁flo": 2926,
      "▁order": 2927,
      "##65": 2928,
      "▁5:30": 2929,
      "▁1635": 2930,
      "▁matter": 2931,
      "▁425": 2932,
      "▁pract": 2933,
      "▁''": 2934,
      "▁163": 2935,
      "▁#": 2936,
      "▁dress": 2937,
      "▁who's": 2938,
      "▁50": 2939,
      "▁747": 2940,
      "▁continental": 2941,
      "j": 2942,
      "▁so": 2943,
      "##-10": 2944,
      "##uff": 2945,
      "▁94": 2946,
      "##stem": 2947,
      "▁post": 2948,
      "▁find": 2949,
      "▁cat": 2950,
      "▁345-9945": 2951,
      "▁funny": 2952,
      "##!": 2953,
      "##ator": 2954,
      "##57": 2955,
      "▁sunday": 2956,
      "##ible": 2957,
      "▁talking": 2958,
      "▁cap": 2959,
      "▁20": 2960,
      "½": 2961,
      "▁often": 2962,
      "▁head": 2963,
      "##og": 2964,
      "▁42": 2965,
      "▁try": 2966,
      "##æ": 2967,
      "▁care": 2968,
      "▁11/29/2000": 2969,
      "▁proper": 2970,
      "▁des": 2971,
      "##anc": 2972,
      "▁1990": 2973,
      "▁time": 2974,
      "##to": 2975,
      "##/13": 2976,
      "▁10:30": 2977,
      "▁impro": 2978,
      "_": 2979,
      "##ta": 2980,
      "▁eye": 2981,
      "▁1929": 2982,
      "▁occ": 2983,
      "##津": 2984,
      "##form": 2985,
      "##88": 2986,
      "▁1605": 2987,
      "空": 2988,
      "##huh": 2989,
      "▁laur": 2990,
      "##80": 2991,
      "##omet": 2992,
      "▁$": 2993,
      "##iz": 2994,
      "▁attack": 2995,
      "▁1799": 2996,
      "▁ou": 2997,
      "▁sleep": 2998,
      "##raph": 2999,
      "▁part": 3000,
      "▁1000": 3001,
      "▁haf": 3002,
      "▁claim": 3003,
      "▁group": 3004,
      "▁charl": 3005,
      "▁betw": 3006,
      "▁1590": 3007,
      "ß": 3008,
      "##__": 3009,
      "##.25": 3010,
      "ø": 3011,
      "▁410": 3012,
      "▁1609": 3013,
      "▁incre": 3014,
      "##/8": 3015,
      "▁themselves": 3016,
      "##:16": 3017,
      "##83": 3018,
      "▁3.": 3019,
      "▁yet": 3020,
      "▁front": 3021,
      "▁fares": 3022,
      "##ings": 3023,
      "▁639": 3024,
      "▁tur": 3025,
      "▁his": 3026,
      "▁08/15/2000": 3027,
      "▁comes": 3028,
      "▁why": 3029,
      "▁1914": 3030,
      "##/08": 3031,
      "##iew": 3032,
      "▁pop": 3033,
      "##are": 3034,
      "##ice": 3035,
      "▁hat": 3036,
      "▁09/16": 3037,
      "▁american": 3038,
      "▁1783": 3039,
      "▁one": 3040,
      "▁415.782": 3041,
      "##com": 3042,
      "▁922": 3043,
      "##work": 3044,
      "▁2.": 3045,
      "▁hell": 3046,
      "##________": 3047,
      "##id": 3048,
      "▁mummy": 3049,
      "▁america": 3050,
      "▁mar": 3051,
      "▁item": 3052,
      "▁650": 3053,
      "▁issue": 3054,
      "##819602175": 3055,
      "▁1709": 3056,
      "▁cent": 3057,
      "▁0590": 3058,
      "▁09:01": 3059,
      "▁07/1": 3060,
      "##________________________________": 3061,
      "▁tou": 3062,
      "▁1583": 3063,
      "##_0": 3064,
      "##ek": 3065,
      "▁505-625-8031": 3066,
      "▁gre": 3067,
      "▁tu": 3068,
      "▁review": 3069,
      "▁ad": 3070,
      "ə": 3071,
      "▁were": 3072,
      "▁pal": 3073,
      "▁desc": 3074,
      "##:38": 3075,
      "##,008": 3076,
      "▁point": 3077,
      "▁notwithstanding": 3078,
      "##en": 3079,
      "▁510": 3080,
      "##doc": 3081,
      "▁door": 3082,
      "▁tast": 3083,
      "▁milit": 3084,
      "##ake": 3085,
      "▁alth": 3086,
      "##460-3": 3087,
      "##olog": 3088,
      "▁l": 3089,
      "▁astride": 3090,
      "##夏": 3091,
      "##ii": 3092,
      "##la": 3093,
      "▁news": 3094,
      "##48": 3095,
      "d": 3096,
      "▁july": 3097,
      "▁sub": 3098,
      "▁children": 3099,
      "▁1831": 3100,
      "▁900": 3101,
      "##j": 3102,
      "▁applic": 3103,
      "##wn": 3104,
      "##ib": 3105,
      "▁mine": 3106,
      "▁aft": 3107,
      "▁1589": 3108,
      "▁240": 3109,
      "▁713-853-3098": 3110,
      "##olis": 3111,
      "##34": 3112,
      "▁sort": 3113,
      "▁466": 3114,
      "##:42": 3115,
      "##8/2000": 3116,
      "##eld": 3117,
      "##ience": 3118,
      "▁guys": 3119,
      "▁15": 3120,
      "##ana": 3121,
      "▁nt": 3122,
      "##!!!!": 3123,
      "▁billion": 3124,
      "▁eating": 3125,
      "##μ": 3126,
      "▁done": 3127,
      "▁herself": 3128,
      "##w": 3129,
      "##ows": 3130,
      ")": 3131,
      "▁meet": 3132,
      "##'re": 3133,
      "▁fur": 3134,
      "▁1976": 3135,
      "▁prof": 3136,
      "##cluding": 3137,
      "▁christ": 3138,
      "##uth": 3139,
      "▁1878": 3140,
      "##365": 3141,
      "##ards": 3142,
      "##iron": 3143,
      "▁americ": 3144,
      "▁hist": 3145,
      "▁ah": 3146,
      "▁156": 3147,
      "▁xv": 3148,
      "▁95": 3149,
      "▁1890": 3150,
      "▁instead": 3151,
      "▁system": 3152,
      "▁'re": 3153,
      "##:14": 3154,
      "##velopment": 3155,
      "€": 3156,
      "▁peop": 3157,
      "▁11/2": 3158,
      "##ute": 3159,
      "##301": 3160,
      "^": 3161,
      "▁01:39:56": 3162,
      "▁ai": 3163,
      "▁1950": 3164,
      "▁04:": 3165,
      "##uh": 3166,
      "▁1959": 3167,
      "##ater": 3168,
      "##www": 3169,
      "▁4:30": 3170,
      "##(": 3171,
      "▁din": 3172,
      "▁glob": 3173,
      "▁design": 3174,
      "##self": 3175,
      "▁1800": 3176,
      "\"": 3177,
      "▁woman": 3178,
      "▁scient": 3179,
      "▁une": 3180,
      "##ʃ": 3181,
      "▁daddy": 3182,
      "▁thous": 3183,
      "▁becuse": 3184,
      "▁forty-eight": 3185,
      "▁hor": 3186,
      "▁9:30": 3187,
      "##☎": 3188,
      "▁cor": 3189,
      "▁1564": 3190,
      "▁hou": 3191,
      "▁tried": 3192,
      "▁cold": 3193,
      "##]": 3194,
      "##90": 3195,
      "##822": 3196,
      "##74": 3197,
      "▁s/he": 3198,
      "##ree": 3199,
      "▁st.": 3200,
      "▁fill": 3201,
      "▁law": 3202,
      "▁175": 3203,
      "##aper": 3204,
      "▁arri": 3205,
      "▁trans": 3206,
      "▁1983": 3207,
      "▁2019": 3208,
      "▁die": 3209,
      "▁land": 3210,
      "▁11/0": 3211,
      "ι": 3212,
      "▁!": 3213,
      "##α": 3214,
      "##:19": 3215,
      "▁stay": 3216,
      "##.2461": 3217,
      "▁maybe": 3218,
      "##ou": 3219,
      "##7/99": 3220,
      "▁typ": 3221,
      "##499": 3222,
      "▁1584": 3223,
      "▁nice": 3224,
      "▁1888": 3225,
      "##183": 3226,
      "▁two": 3227,
      "▁given": 3228,
      "▁07/17/2000": 3229,
      "▁345": 3230,
      "▁poss": 3231,
      "▁1.6": 3232,
      "▁author": 3233,
      "▁1:30": 3234,
      "▁either": 3235,
      "##ants": 3236,
      "##-9": 3237,
      "▁c": 3238,
      "##9933": 3239,
      "▁cause": 3240,
      "▁ours": 3241,
      "▁g": 3242,
      "▁300,000": 3243,
      "##77": 3244,
      "▁&amp;": 3245,
      "▁star": 3246,
      "`": 3247,
      "▁1611": 3248,
      "▁baby": 3249,
      "▁sign": 3250,
      "▁1.": 3251,
      "▁25": 3252,
      "##,000": 3253,
      "▁67": 3254,
      "▁food": 3255,
      "▁fly": 3256,
      "▁mag": 3257,
      "▁160": 3258,
      "##26": 3259,
      "▁phot": 3260,
      "▁milwau": 3261,
      "æ": 3262,
      "##/11": 3263,
      "##kk": 3264,
      "▁require": 3265,
      "▁.2": 3266,
      "▁oak": 3267,
      "▁ear": 3268,
      "▁based": 3269,
      "##por": 3270,
      "▁hand": 3271,
      "▁yo": 3272,
      "##100": 3273,
      "##fast": 3274,
      "##ried": 3275,
      "▁63": 3276,
      "##ub": 3277,
      "▁list": 3278,
      "##ret": 3279,
      "▁jud": 3280,
      "##oney": 3281,
      "“": 3282,
      "▁study": 3283,
      "▁11608": 3284,
      "##acy": 3285,
      "▁6400": 3286,
      "▁sec": 3287,
      "##.713.8": 3288,
      "▁7484": 3289,
      "▁1973": 3290,
      "▁76": 3291,
      "##ident": 3292,
      "▁unles": 3293,
      "▁clean": 3294,
      "▁22": 3295,
      "##@enron_de": 3296,
      "##ch": 3297,
      "▁08:00": 3298,
      "▁coming": 3299,
      "▁himself": 3300,
      "▁price": 3301,
      "##ially": 3302,
      "##49": 3303,
      "▁sen": 3304,
      "▁33,000": 3305,
      "▁asked": 3306,
      "▁sometimes": 3307,
      "##ا": 3308,
      "▁bring": 3309,
      "##ries": 3310,
      "##?": 3311,
      "▁2,000": 3312,
      "##1-90": 3313,
      "##ˈ": 3314,
      "##ilities": 3315,
      "▁iraq": 3316,
      "##.45": 3317,
      "##aken": 3318,
      "▁philadelphia": 3319,
      "##oh": 3320,
      "▁1647": 3321,
      "▁11/27/2000": 3322,
      "▁281-443-3": 3323,
      "▁567.77": 3324,
      "▁69": 3325,
      "▁fund": 3326,
      "▁cover": 3327,
      "##27": 3328,
      "▁2022": 3329,
      "▁1868": 3330,
      "▁mark": 3331,
      "##ra": 3332,
      "##ope": 3333,
      "##gress": 3334,
      "▁687": 3335,
      "▁general": 3336,
      "##000": 3337,
      "##ality": 3338,
      "▁dose": 3339,
      "▁another": 3340,
      "##eric": 3341,
      "##:32": 3342,
      "▁58": 3343,
      "▁281": 3344,
      "▁1975": 3345,
      "▁mont": 3346,
      "##el": 3347,
      "▁150": 3348,
      "▁phil": 3349,
      "▁comm": 3350,
      "##ut": 3351,
      "▁dinner": 3352,
      "▁research": 3353,
      "▁meas": 3354,
      "▁truck": 3355,
      "▁colle": 3356,
      "▁conn": 3357,
      "▁besides": 3358,
      "##ood": 3359,
      "▁220": 3360,
      "▁after": 3361,
      "##anding": 3362,
      "▁1900": 3363,
      "▁body": 3364,
      "##ally": 3365,
      "##eau": 3366,
      "▁less": 3367,
      "▁http://www.": 3368,
      "▁perhaps": 3369,
      "▁everyone": 3370,
      "ς": 3371,
      "▁represent": 3372,
      "▁copy": 3373,
      "▁around": 3374,
      "##ef": 3375,
      "##53-3": 3376,
      "##ic": 3377,
      "▁more": 3378,
      "▁got": 3379,
      "▁line": 3380,
      "▁sev": 3381,
      "##ould": 3382,
      "°": 3383,
      "##‘": 3384,
      "▁nothing": 3385,
      "##qu": 3386,
      "##ious": 3387,
      "##ry": 3388,
      "▁fil": 3389,
      "##peare": 3390,
      "##ght": 3391,
      "##on": 3392,
      "##ero": 3393,
      "▁>>": 3394,
      "▁kill": 3395,
      "▁re": 3396,
      "▁along": 3397,
      "▁1841": 3398,
      "##587": 3399,
      "▁tralee": 3400,
      "▁pro": 3401,
      "##ding": 3402,
      "##ord": 3403,
      "▁happy": 3404,
      "▁4.0": 3405,
      "▁825": 3406,
      "##airs": 3407,
      "##6021": 3408,
      "▁11:16": 3409,
      "▁field": 3410,
      "▁3/9": 3411,
      "▁mot": 3412,
      "▁sugg": 3413,
      "##ami": 3414,
      "##ich": 3415,
      "▁1989": 3416,
      "▁langu": 3417,
      "▁bar": 3418,
      "##449": 3419,
      "▁1205": 3420,
      "远": 3421,
      "##3/2000": 3422,
      "▁1613": 3423,
      "▁1801": 3424,
      "▁189": 3425,
      "▁exp": 3426,
      "##eral": 3427,
      "##atter": 3428,
      "▁xsl": 3429,
      "▁100": 3430,
      "##osed": 3431,
      "▁transportation": 3432,
      "##.831": 3433,
      "##=": 3434,
      "##ately": 3435,
      "##:5": 3436,
      "##eight": 3437,
      "▁where": 3438,
      "▁lea": 3439,
      "▁~": 3440,
      "##/15/2001": 3441,
      "▁2015": 3442,
      "##:21": 3443,
      "▁ll": 3444,
      "##ant": 3445,
      "▁cl": 3446,
      "▁91": 3447,
      "##wh": 3448,
      "▁unt": 3449,
      "▁202.7": 3450,
      "##460-33": 3451,
      "▁la": 3452,
      "▁make": 3453,
      "##73": 3454,
      "▁852": 3455,
      "▁35": 3456,
      "##ere": 3457,
      "##ak": 3458,
      "▁worth": 3459,
      "▁houston": 3460,
      "▁take": 3461,
      "▁1": 3462,
      "▁americans": 3463,
      "##ins": 3464,
      "##rou": 3465,
      "##body": 3466,
      "##95": 3467,
      "▁par": 3468,
      "▁r": 3469,
      "##nesday": 3470,
      "▁24,000": 3471,
      "▁400": 3472,
      "##itting": 3473,
      "▁of": 3474,
      "##oman": 3475,
      "▁cop": 3476,
      "▁los": 3477,
      "##98": 3478,
      "##031": 3479,
      "▁dwww": 3480,
      "▁those": 3481,
      "##7.77": 3482,
      "##ability": 3483,
      "▁505-625": 3484,
      "▁appro": 3485,
      "##\"": 3486,
      "##irl": 3487,
      "▁mon": 3488,
      "▁adv": 3489,
      "▁today": 3490,
      "▁5.6": 3491,
      "h": 3492,
      "▁bir": 3493,
      "##/01/2001": 3494,
      "▁85": 3495,
      "▁1988": 3496,
      "▁get": 3497,
      "▁09:14": 3498,
      "▁ra": 3499,
      "▁louis": 3500,
      "▁2.15": 3501,
      "5": 3502,
      "##/10/2004": 3503,
      "▁888.916.7184": 3504,
      "##.11": 3505,
      "##uck": 3506,
      "▁pl": 3507,
      "▁euro": 3508,
      "▁id": 3509,
      "##空": 3510,
      "▁john": 3511,
      "▁620-294-": 3512,
      "▁1833": 3513,
      "▁02": 3514,
      "β": 3515,
      "##ons": 3516,
      "▁03/08/2000": 3517,
      "##’": 3518,
      "▁much": 3519,
      "▁conv": 3520,
      "▁next": 3521,
      "##iter": 3522,
      "▁yourself": 3523,
      "##ced": 3524,
      "▁1871": 3525,
      "▁late": 3526,
      "▁11:0": 3527,
      "##70": 3528,
      "##bs": 3529,
      "▁him": 3530,
      "▁1832": 3531,
      "##300": 3532,
      "▁ap": 3533,
      "▁727": 3534,
      "▁03/09/2000": 3535,
      "▁stoy": 3536,
      "▁send": 3537,
      "##415-": 3538,
      "▁stat": 3539,
      "▁states": 3540,
      "▁inform": 3541,
      "▁!!!!!!!": 3542,
      "##++++": 3543,
      "▁change": 3544,
      "▁indust": 3545,
      "##tc": 3546,
      "▁government": 3547,
      "##cl": 3548,
      "##rael": 3549,
      "##ional": 3550,
      "▁astr": 3551,
      "夏": 3552,
      "##h": 3553,
      "##96": 3554,
      "##-6": 3555,
      "▁keep": 3556,
      "##:52": 3557,
      "##cent": 3558,
      "▁afternoon": 3559,
      "▁necess": 3560,
      "##ount": 3561,
      "##^": 3562,
      "▁from": 3563,
      "##----": 3564,
      "##<": 3565,
      "##81": 3566,
      "▁39": 3567,
      "##uss": 3568,
      "▁??": 3569,
      "▁fine": 3570,
      "▁du": 3571,
      "▁believe": 3572,
      "▁these": 3573,
      "▁1805": 3574,
      "▁2.7": 3575,
      "▁1774": 3576,
      "▁int": 3577,
      "##eit": 3578,
      "▁beg": 3579,
      "##58": 3580,
      "▁24.7": 3581,
      "▁3,": 3582,
      "##18": 3583,
      "▁able": 3584,
      "##ollow": 3585,
      "▁n't": 3586,
      "▁members": 3587,
      "▁gr": 3588,
      "▁bow": 3589,
      "##sid": 3590,
      "▁public": 3591,
      "▁lo": 3592,
      "##__________": 3593,
      "▁car": 3594,
      "▁social": 3595,
      "##ever": 3596,
      "##olution": 3597,
      "▁recommend": 3598,
      "▁island": 3599,
      "▁fire": 3600,
      "##omen": 3601,
      "▁business": 3602,
      "##ouble": 3603,
      "▁2:00": 3604,
      "▁ref": 3605,
      "##med": 3606,
      "▁store": 3607,
      "##ool": 3608,
      "##75": 3609,
      "▁picture": 3610,
      "##-642": 3611,
      "!": 3612,
      "u": 3613,
      "▁iss": 3614,
      "▁suggest": 3615,
      "##ix": 3616,
      "▁questions": 3617,
      "▁vs": 3618,
      "▁120": 3619,
      "▁yourselves": 3620,
      "##zac": 3621,
      "##ices": 3622,
      "▁god": 3623,
      "##go": 3624,
      "▁hit": 3625,
      "s": 3626,
      "##le": 3627,
      "▁exam": 3628,
      "##cept": 3629,
      "▁attached": 3630,
      "▁such": 3631,
      "▁4.6": 3632,
      "##.77": 3633,
      "▁di": 3634,
      "▁seem": 3635,
      "▁10": 3636,
      "##.7822": 3637,
      "▁thing": 3638,
      "##ivid": 3639,
      "##ther": 3640,
      "▁coun": 3641,
      "▁maj": 3642,
      "##11": 3643,
      "##pl": 3644,
      "▁928": 3645,
      "▁1610": 3646,
      "▁prod": 3647,
      "▁744": 3648,
      "##man": 3649,
      "▁xiii": 3650,
      "##…": 3651,
      "▁cour": 3652,
      "##.4": 3653,
      "##54-": 3654,
      "▁english": 3655,
      "##9.3": 3656,
      "##craft": 3657,
      "##der": 3658,
      "▁rep": 3659,
      "▁1819": 3660,
      "▁0.00": 3661,
      "▁05908549": 3662,
      "▁bi": 3663,
      "▁1-800-991-9019": 3664,
      "##gh": 3665,
      "##ution": 3666,
      "▁’d": 3667,
      "▁wou": 3668,
      "##ie": 3669,
      "▁already": 3670,
      "▁713-853-3989": 3671,
      "▁war": 3672,
      "##ʁ": 3673,
      "▁01": 3674,
      "▁01/1": 3675,
      "##bur": 3676,
      "▁inst": 3677,
      "▁feet": 3678,
      "▁12,000": 3679,
      "▁uhoh": 3680,
      "##ents": 3681,
      "§": 3682,
      "υ": 3683,
      "##ang": 3684,
      "▁hund": 3685,
      "▁/": 3686,
      "▁n'": 3687,
      "▁71": 3688,
      "##rod": 3689,
      "##stop": 3690,
      "▁month": 3691,
      "▁best": 3692,
      "▁’s": 3693,
      "▁3,202": 3694,
      "▁—": 3695,
      "▁quick": 3696,
      "▁hav": 3697,
      "##ole": 3698,
      "##.5": 3699,
      "▁1925": 3700,
      "##iful": 3701,
      "▁11-20-2000": 3702,
      "▁est": 3703,
      "##.2": 3704,
      "▁even": 3705,
      "▁1896": 3706,
      "##435-": 3707,
      "▁dat": 3708,
      "▁ve": 3709,
      "▁but": 3710,
      "▁anything": 3711,
      "▁because": 3712,
      "##-696": 3713,
      "▁yours": 3714,
      "▁281-443-3744": 3715,
      "▁814.863": 3716,
      "##.9": 3717,
      "▁plan": 3718,
      "##ه": 3719,
      "##ab": 3720,
      "▁hey": 3721,
      "▁world": 3722,
      "▁home": 3723,
      "▁sal": 3724,
      "▁1.1": 3725,
      "▁x": 3726,
      "▁pre": 3727,
      "▁an": 3728,
      "##.com": 3729,
      "▁281-": 3730,
      "▁ver": 3731,
      "▁side": 3732,
      "▁their": 3733,
      "##4/2001": 3734,
      "▁888": 3735,
      "▁enjoy": 3736,
      "##ints": 3737,
      "▁apart": 3738,
      "##two": 3739,
      "▁seems": 3740,
      "'": 3741,
      "▁plac": 3742,
      "##iction": 3743,
      "▁took": 3744,
      "##ers": 3745,
      "##nine": 3746,
      "☏": 3747,
      "▁1780": 3748,
      "▁summ": 3749,
      "▁1920": 3750,
      "▁947": 3751,
      "▁sl": 3752,
      "##72": 3753,
      "▁101": 3754,
      "▁vide": 3755,
      "▁09:": 3756,
      "▁08/15": 3757,
      "▁co": 3758,
      "▁08/16/2000": 3759,
      "▁diff": 3760,
      "▁08:50": 3761,
      "▁412": 3762,
      "▁economic": 3763,
      "▁o'clock": 3764,
      "▁713-853": 3765,
      "##-7": 3766,
      "##ended": 3767,
      "▁during": 3768,
      "▁chang": 3769,
      "▁1562": 3770,
      "##day": 3771,
      "▁2018": 3772,
      "▁hum": 3773,
      "▁dest": 3774,
      "▁1790": 3775,
      "▁tot": 3776,
      "##ze": 3777,
      "▁particip": 3778,
      "▁ch": 3779,
      "▁tell": 3780,
      "##hin": 3781,
      "▁pres": 3782,
      "##)": 3783,
      "##az": 3784,
      "##/26/2001": 3785,
      "##@enron_development": 3786,
      "▁felt": 3787,
      "z": 3788,
      "##....": 3789,
      "▁vs.": 3790,
      "▁then": 3791,
      "##ather": 3792,
      "##att": 3793,
      "▁1850": 3794,
      "##reat": 3795,
      "▁d'": 3796,
      "▁miss": 3797,
      "▁animals": 3798,
      "▁sp": 3799,
      "▁dec": 3800,
      "▁770": 3801,
      "▁’": 3802,
      "##end": 3803,
      "▁pol": 3804,
      "▁however": 3805,
      "▁16": 3806,
      "▁eu": 3807,
      "▁death": 3808,
      "##icult": 3809,
      "▁thirteen": 3810,
      "▁weeks": 3811,
      "##p": 3812,
      "▁trillion": 3813,
      "##ʊ": 3814,
      "##.863": 3815,
      "▁uhhuh": 3816,
      "ʃ": 3817,
      "##adelp": 3818,
      "▁“": 3819,
      "▁fam": 3820,
      "##.7": 3821,
      "▁eas": 3822,
      "##round": 3823,
      "##pt": 3824,
      "##,5": 3825,
      "▁ju": 3826,
      "▁6.8": 3827,
      "▁1560": 3828,
      "▁460": 3829,
      "▁qu": 3830,
      "▁2001": 3831,
      "▁bas": 3832,
      "▁730": 3833,
      "▁1.75": 3834,
      "古": 3835,
      "▁specific": 3836,
      "##____": 3837,
      "##ley": 3838,
      "##3736": 3839,
      "##ogn": 3840,
      "##ulation": 3841,
      "▁money": 3842,
      "▁are": 3843,
      "▁wonder": 3844,
      "▁among": 3845,
      "▁5/1": 3846,
      "▁gen": 3847,
      "▁rele": 3848,
      "##ʻ": 3849,
      "▁hers": 3850,
      "▁right": 3851,
      "##orn": 3852,
      "▁1603": 3853,
      "▁759933": 3854,
      "▁217": 3855,
      "▁low": 3856,
      "▁1996": 3857,
      "▁big": 3858,
      "▁fav": 3859,
      "##€": 3860,
      "▁1977": 3861,
      "▁1951": 3862,
      "▁glass": 3863,
      "▁on": 3864,
      "##uch": 3865,
      "##ense": 3866,
      "##isc": 3867,
      "i": 3868,
      "▁follow": 3869,
      "▁rev": 3870,
      "##/10": 3871,
      "▁book": 3872,
      "▁343": 3873,
      "##ick": 3874,
      "▁03:20": 3875,
      "▁o": 3876,
      "▁atl": 3877,
      "▁kansas": 3878,
      "##ental": 3879,
      "##7/2001": 3880,
      "##ving": 3881,
      "##_": 3882,
      "|": 3883,
      "▁73": 3884,
      "▁04/30/2001": 3885,
      "▁calif": 3886,
      "▁al": 3887,
      "▁nor": 3888,
      "##ney": 3889,
      "▁814": 3890,
      "✉": 3891,
      "▁932": 3892,
      "##图": 3893,
      "##.123": 3894,
      "▁made": 3895,
      "▁90": 3896,
      "▁1614": 3897,
      "##/0": 3898,
      "▁stuff": 3899,
      "▁things": 3900,
      "##414": 3901,
      "▁04:37": 3902,
      "▁tax": 3903,
      "▁between": 3904,
      "▁thru": 3905,
      "##6-8": 3906,
      "▁full": 3907,
      "▁sy": 3908,
      "▁canad": 3909,
      "▁.....": 3910,
      "▁alread": 3911,
      "##ars": 3912,
      "##υ": 3913,
      "##19": 3914,
      "▁ur": 3915,
      "▁2000": 3916,
      "▁consider": 3917,
      "和": 3918,
      "▁969": 3919,
      "▁admin": 3920,
      "▁con": 3921,
      "##os": 3922,
      "▁rich": 3923,
      "▁thursday": 3924,
      "▁said": 3925,
      "▁1/4": 3926,
      "▁ang": 3927,
      "▁2.6": 3928,
      "##ape": 3929,
      "▁cond": 3930,
      "▁do": 3931,
      "##ip": 3932,
      "▁experience": 3933,
      "▁2008": 3934,
      "▁54": 3935,
      "##4-79": 3936,
      "##fe": 3937,
      "##br": 3938,
      "▁2.00": 3939,
      "##ml": 3940,
      "##,7": 3941,
      "##ory": 3942,
      "▁lou": 3943,
      "▁cheapest": 3944,
      "▁ab": 3945,
      "##@enron": 3946,
      "▁713/8": 3947,
      "##min": 3948,
      "▁underneath": 3949,
      "##thstanding": 3950,
      "##ber": 3951,
      "##omm": 3952,
      "▁no-": 3953,
      "##,": 3954,
      "##5/2001": 3955,
      "##rist": 3956,
      "▁dist": 3957,
      "▁cou": 3958,
      "▁fift": 3959,
      "##99": 3960,
      "##55": 3961,
      "▁water": 3962,
      "▁1969": 3963,
      "▁1222": 3964,
      "##ograph": 3965,
      "▁'": 3966,
      "##45": 3967,
      "▁cook": 3968,
      "▁2011": 3969,
      "▁received": 3970,
      "▁713-793-": 3971,
      "##-": 3972,
      "▁in": 3973,
      "▁jun": 3974,
      "▁noone": 3975,
      "▁proble": 3976,
      "##口": 3977,
      "##ack": 3978,
      "▁gone": 3979,
      "##==": 3980,
      "▁away": 3981,
      "##20-": 3982,
      "▁1840": 3983,
      "##cuz": 3984,
      "μ": 3985,
      "##.95": 3986,
      "▁ca": 3987,
      "▁6:30": 3988,
      "##rew": 3989,
      "▁which": 3990,
      "▁1967": 3991,
      "##av": 3992,
      "##£": 3993,
      "##ump": 3994,
      "##im": 3995,
      "▁1880": 3996,
      "▁xii": 3997,
      "##veland": 3998,
      "▁youn": 3999,
      "▁perform": 4000,
      "▁b": 4001,
      "▁1701": 4002,
      "##ting": 4003,
      "##ell": 4004,
      "##ators": 4005,
      "▁oneself": 4006,
      "▁add": 4007,
      "##oug": 4008,
      "▁live": 4009,
      "▁79": 4010,
      "▁345-99": 4011,
      "##n": 4012,
      "▁denver": 4013,
      "▁713-79": 4014,
      "▁var": 4015,
      "##ivers": 4016,
      "##elt": 4017,
      "##ort": 4018,
      "##rop": 4019,
      "▁quite": 4020,
      "▁establish": 4021,
      "##*": 4022,
      "##9/2001": 4023,
      "▁fare": 4024,
      "##**": 4025,
      "▁!!!!": 4026,
      "▁bu": 4027,
      "▁no": 4028,
      "▁washington": 4029,
      "##ar": 4030,
      "▁ed": 4031,
      "##,9": 4032,
      "▁2:30": 4033,
      "▁350": 4034,
      "▁pe": 4035,
      "▁3.1": 4036,
      "▁econom": 4037,
      "▁born": 4038,
      "▁315-460-33": 4039,
      "▁2500": 4040,
      "▁li": 4041,
      "▁bur": 4042,
      "##518": 4043,
      "##\\": 4044,
      "▁rest": 4045,
      "##ron": 4046,
      "▁offic": 4047,
      "▁seventy": 4048,
      "▁'ve": 4049,
      "▁02/2": 4050,
      "##93": 4051,
      "▁web": 4052,
      "##:24": 4053,
      "##/00": 4054,
      "—": 4055,
      "▁friday": 4056,
      "▁http://www": 4057,
      "▁ant": 4058,
      "▁meeting": 4059,
      "▁twel": 4060,
      "▁it": 4061,
      "▁207": 4062,
      "▁1779": 4063,
      "##/26/2000": 4064,
      "▁34": 4065,
      "▁someone": 4066,
      "▁quest": 4067,
      "▁bec": 4068,
      "▁185": 4069,
      "##ned": 4070,
      "▁416-865-370": 4071,
      "##use": 4072,
      "▁camp": 4073,
      "º": 4074,
      "▁contin": 4075,
      "##aur": 4076,
      "▁1602": 4077,
      "##rench": 4078,
      "▁se": 4079,
      "▁er": 4080,
      "▁environment": 4081,
      "▁7:00": 4082,
      "▁imp": 4083,
      "▁]": 4084,
      "##-27": 4085,
      "▁drink": 4086,
      "▁micro": 4087,
      "▁want": 4088,
      "▁br": 4089,
      "▁2": 4090,
      "▁came": 4091,
      "##ster": 4092,
      "▁10:34": 4093,
      "##:34": 4094,
      "▁425-415-": 4095
    }
  }
}