{
  "version": "1.0",
  "truncation": null,
  "padding": null,
  "added_tokens": [
    {
      "id": 745,
      "content": "[SEP]",
      "single_word": false,
      "lstrip": false,
      "rstrip": false,
      "normalized": false,
      "special": true
    },
    {
      "id": 807,
      "content": "[PAD]",
      "single_word": false,
      "lstrip": false,
      "rstrip": false,
      "normalized": false,
      "special": true
    },
    {
      "id": 998,
      "content": "[CLS]",
      "single_word": false,
      "lstrip": false,
      "rstrip": false,
      "normalized": false,
      "special": true
    },
    {
      "id": 1830,
      "content": "[MASK]",
      "single_word": false,
      "lstrip": false,
      "rstrip": false,
      "normalized": false,
      "special": true
    },
    {
      "id": 3910,
      "content": "[UNK]",
      "single_word": false,
      "lstrip": false,
      "rstrip": false,
      "normalized": false,
      "special": true
    }
  ],
  "normalizer": {
    "type": "Sequence",
    "normalizers": [
      {
        "type": "NFD"
      },
      {
        "type": "Lowercase"
      },
      {
        "type": "StripAccents"
      }
    ]
  },
  "pre_tokenizer": {
    "type": "Sequence",
    "pretokenizers": [
      {
        "type": "Metaspace",
        "replacement": "▁",
        "prepend_scheme": "always",
        "split": true
      }
    ]
  },
  "post_processor": {
    "type": "TemplateProcessing",
    "single": [
      {
        "SpecialToken": {
          "id": "[CLS]",
          "type_id": 0
        }
      },
      {
        "Sequence": {
          "id": "A",
          "type_id": 0
        }
      },
      {
        "SpecialToken": {
          "id": "[SEP]",
          "type_id": 0
        }
      }
    ],
    "pair": [
      {
        "SpecialToken": {
          "id": "[CLS]",
          "type_id": 0
        }
      },
      {
        "Sequence": {
          "id": "A",
          "type_id": 0
        }
      },
      {
        "SpecialToken": {
          "id": "[SEP]",
          "type_id": 0
        }
      },
      {
        "Sequence": {
          "id": "B",
          "type_id": 1
        }
      },
      {
        "SpecialToken": {
          "id": "[SEP]",
          "type_id": 1
        }
      }
    ],
    "special_tokens": {
      "[CLS]": {
        "id": "[CLS]",
        "ids": [
          998
        ],
        "tokens": [
          "[CLS]"
        ]
      },
      "[SEP]": {
        "id": "[SEP]",
        "ids": [
          745
        ],
        "tokens": [
          "[SEP]"
        ]
      }
    }
  },
  "decoder": {
    "type": "Metaspace",
    "replacement": "▁",
    "prepend_scheme": "always",
    "split": true
  },
  "model": {
    "type": "WordPiece",
    "unk_token": "[UNK]",
    "continuing_subword_prefix": "##",
    "max_input_chars_per_word": 100,
    "vocab": {
      "▁lou": 0,
      "▁respons": 1,
      "##ering": 2,
      "–": 3,
      "▁fix": 4,
      "##5-": 5,
      "▁3/4": 6,
      "##uary": 7,
      "##iness": 8,
      "▁ag": 9,
      "▁67": 10,
      "▁fa": 11,
      "▁beg": 12,
      "▁pit": 13,
      "▁bro": 14,
      "▁prob": 15,
      "▁713-853-3098": 16,
      "▁astride": 17,
      "▁’ll": 18,
      "##ution": 19,
      "##..": 20,
      "##rol": 21,
      "▁animals": 22,
      "▁sch": 23,
      "▁rights": 24,
      "▁may": 25,
      "▁.3": 26,
      "▁10:30": 27,
      "▁partic": 28,
      "▁1783": 29,
      "##ه": 30,
      "##ld": 31,
      "▁343": 32,
      "##ny": 33,
      "▁attention": 34,
      "▁through": 35,
      "▁apar": 36,
      "##??": 37,
      "##ater": 38,
      "▁[": 39,
      "▁noone": 40,
      "ز": 41,
      "##au": 42,
      "▁7:00": 43,
      "▁research": 44,
      "##xt": 45,
      "##.2": 46,
      "▁315-": 47,
      "▁inst": 48,
      "▁09/15/99": 49,
      "▁general": 50,
      "▁tex": 51,
      "##3736": 52,
      "▁time": 53,
      "谿": 54,
      "澹": 55,
      "▁repres": 56,
      "##ts": 57,
      "##ions": 58,
      "▁bul": 59,
      "▁week": 60,
      "▁body": 61,
      "##????????": 62,
      "##ork": 63,
      "▁local": 64,
      "▁person": 65,
      "▁jud": 66,
      "▁eighty": 67,
      "▁report": 68,
      "▁cha": 69,
      "##ints": 70,
      "##el": 71,
      "▁sil": 72,
      "##mp": 73,
      "##ory": 74,
      "▁summer": 75,
      "▁13011": 76,
      "▁1965": 77,
      "▁bed": 78,
      "▁east": 79,
      "▁08/03": 80,
      "▁1580": 81,
      "##ss": 82,
      "##neath": 83,
      "##29": 84,
      "##itt": 85,
      "▁345-99": 86,
      "▁girl": 87,
      "▁32": 88,
      "▁et": 89,
      "##.1": 90,
      "▁1912": 91,
      "▁sw": 92,
      "▁lot": 93,
      "##cl": 94,
      "▁n": 95,
      "▁'re": 96,
      "^": 97,
      "ς": 98,
      "##be": 99,
      "##rou": 100,
      "▁alberta": 101,
      "##36": 102,
      "▁'": 103,
      "▁from": 104,
      "▁5": 105,
      "▁934": 106,
      "▁12/2": 107,
      "▁416-8": 108,
      "▁10/31": 109,
      "▁6:30": 110,
      "##ag": 111,
      "▁priv": 112,
      "##-84": 113,
      "##294-": 114,
      "s": 115,
      "##raph": 116,
      "▁notwithstanding": 117,
      "##four": 118,
      "▁evening": 119,
      "##(": 120,
      "▁838": 121,
      "▁1.75": 122,
      "▁.?": 123,
      "▁issue": 124,
      "##1-9": 125,
      "##als": 126,
      "##eare": 127,
      "##form": 128,
      "<": 129,
      "##1": 130,
      "▁366": 131,
      "▁on": 132,
      "▁col": 133,
      "▁litt": 134,
      "▁city": 135,
      "▁become": 136,
      "▁open": 137,
      "▁03:20": 138,
      "▁pen": 139,
      "▁forty-eight": 140,
      "▁713-654-03": 141,
      "▁899-": 142,
      "▁p": 143,
      "##nine": 144,
      "▁tuesday": 145,
      "▁cr": 146,
      "▁don": 147,
      "o": 148,
      "▁646-84": 149,
      "▁over": 150,
      "##-6": 151,
      "▁shall": 152,
      "▁166": 153,
      "##++": 154,
      "▁230": 155,
      "▁americ": 156,
      "▁2007": 157,
      "▁product": 158,
      "▁favor": 159,
      "▁miss": 160,
      "##远": 161,
      "▁system": 162,
      "##________": 163,
      "▁indianapolis": 164,
      "▁leg": 165,
      "##all": 166,
      "▁earliest": 167,
      "▁others": 168,
      "▁sto": 169,
      "▁pack": 170,
      "▁ha": 171,
      "▁04:": 172,
      "▁wether": 173,
      "▁1222": 174,
      "##inn": 175,
      "‘": 176,
      "m": 177,
      "▁pop": 178,
      "▁car": 179,
      "##eak": 180,
      "▁ball": 181,
      "▁373": 182,
      "▁1300": 183,
      "▁calif": 184,
      "▁177": 185,
      "▁sc": 186,
      "##.4": 187,
      "##se": 188,
      "##side": 189,
      "▁group": 190,
      "▁national": 191,
      "▁outside": 192,
      "##ade": 193,
      "▁460": 194,
      "▁744": 195,
      "▁game": 196,
      "▁took": 197,
      "##ump": 198,
      "▁wants": 199,
      "▁01/2": 200,
      "▁sy": 201,
      "▁h": 202,
      "▁many": 203,
      "▁either": 204,
      "▁tell": 205,
      "▁property": 206,
      "##j": 207,
      "##000": 208,
      "▁longer": 209,
      "▁cent": 210,
      "##right": 211,
      "##:44": 212,
      "##ou": 213,
      "▁'s": 214,
      "▁possible": 215,
      "##iv": 216,
      "##ml": 217,
      "▁hors": 218,
      "##48": 219,
      "▁20,000": 220,
      "▁him": 221,
      "▁bus": 222,
      "▁2.15": 223,
      "▁?!": 224,
      "##like": 225,
      "▁paren": 226,
      "▁1920": 227,
      "▁217": 228,
      "▁tast": 229,
      "▁??": 230,
      "▁ref": 231,
      "▁8:00": 232,
      "##,8": 233,
      "##amed": 234,
      "▁good": 235,
      "▁received": 236,
      "##lo": 237,
      "##ared": 238,
      "##ister": 239,
      "▁pa": 240,
      "##θ": 241,
      "ε": 242,
      "▁three": 243,
      "##9/2000": 244,
      "▁guess": 245,
      "▁cond": 246,
      "▁770": 247,
      "ɛ": 248,
      "▁about": 249,
      "▁direct": 250,
      "▁190": 251,
      "##----------------": 252,
      "▁too": 253,
      "▁1957": 254,
      "▁twenty-six": 255,
      "▁nor": 256,
      "##cond": 257,
      "▁pass": 258,
      "##ians": 259,
      "▁1": 260,
      "##司": 261,
      "▁-": 262,
      "##ard": 263,
      "▁dec": 264,
      "▁814": 265,
      "##谿": 266,
      "▁84": 267,
      "▁nonstop": 268,
      "##/08": 269,
      "▁staff": 270,
      "##com": 271,
      "##ually": 272,
      "▁415.782": 273,
      "##:40": 274,
      "▁06": 275,
      "##ur": 276,
      "▁check": 277,
      "##:38": 278,
      "##25": 279,
      "##...": 280,
      "▁03/09/2000": 281,
      "▁35": 282,
      "##ake": 283,
      "▁highly": 284,
      "▁yes": 285,
      "▁man": 286,
      "##ison": 287,
      "▁238": 288,
      "##ive": 289,
      "▁lab": 290,
      "##0": 291,
      "▁800": 292,
      "##ablish": 293,
      "▁should": 294,
      "▁1774": 295,
      "▁cl": 296,
      "▁iraq": 297,
      "##ish": 298,
      "▁besid": 299,
      "##d": 300,
      "▁out": 301,
      "▁ple": 302,
      "##ha": 303,
      "▁press": 304,
      "##ony": 305,
      "▁inf": 306,
      "▁205": 307,
      "▁chicago": 308,
      "##ator": 309,
      "u": 310,
      "##×": 311,
      "##22": 312,
      "▁lay": 313,
      "▁outs": 314,
      "##ime": 315,
      "▁ii": 316,
      "▁anoder": 317,
      "▁253": 318,
      "##ide": 319,
      "##reat": 320,
      "##bit": 321,
      "▁tw": 322,
      "##per": 323,
      "▁downtown": 324,
      "##iday": 325,
      "▁04/16/2001": 326,
      "▁cat": 327,
      "▁b/": 328,
      "▁old": 329,
      "▁400": 330,
      "▁concern": 331,
      "##thstanding": 332,
      "▁bre": 333,
      "▁pret": 334,
      "▁hol": 335,
      "▁so": 336,
      "▁island": 337,
      "▁jap": 338,
      "##!!!!!!!!": 339,
      "##ri": 340,
      "▁read": 341,
      "##ret": 342,
      "##ants": 343,
      "▁1977": 344,
      "▁period": 345,
      "▁going": 346,
      "▁b": 347,
      "▁yellow": 348,
      "▁08:50": 349,
      "▁accept": 350,
      "##’": 351,
      "▁bel": 352,
      "##.99": 353,
      "▁9221": 354,
      "▁pos": 355,
      "##ommend": 356,
      "▁begin": 357,
      "##18": 358,
      "▁iii": 359,
      "##,": 360,
      "▁want": 361,
      "▁yourself": 362,
      "##134": 363,
      "▁perf": 364,
      "##att": 365,
      "##ount": 366,
      "▁party": 367,
      "▁bu": 368,
      "##ense": 369,
      "##out": 370,
      "##ught": 371,
      "▁70.85": 372,
      "▁democr": 373,
      "▁140": 374,
      "▁enough": 375,
      "##45": 376,
      "##:19": 377,
      "▁sm": 378,
      "▁1972": 379,
      "▁s’": 380,
      "▁could": 381,
      "▁04/2": 382,
      "▁http://www.": 383,
      "▁sever": 384,
      "▁thirty-": 385,
      "##lect": 386,
      "▁board": 387,
      "▁amidst": 388,
      "▁44,000": 389,
      "▁ser": 390,
      "▁young": 391,
      "##ef": 392,
      "5": 393,
      "##2": 394,
      "##ally": 395,
      "▁espec": 396,
      "▁tot": 397,
      "##/15": 398,
      "##0072": 399,
      "▁nwww": 400,
      "##ower": 401,
      "▁two": 402,
      "▁date": 403,
      "▁becuse": 404,
      "▁1928": 405,
      "##–": 406,
      "▁your": 407,
      "▁except": 408,
      "##-10": 409,
      "▁1820": 410,
      "▁gre": 411,
      "▁fares": 412,
      "##/0": 413,
      "▁cost": 414,
      "▁1589": 415,
      "▁gr": 416,
      "▁power": 417,
      "▁white": 418,
      "▁thursday": 419,
      "▁dis": 420,
      "▁10/26/2000": 421,
      "##oman": 422,
      "##²": 423,
      "##ect": 424,
      "▁sol": 425,
      "▁st.": 426,
      "▁-----------------------------------------------------------------": 427,
      "##rod": 428,
      "7": 429,
      "##ul": 430,
      "▁ground": 431,
      "▁doo": 432,
      "##ix": 433,
      "##ism": 434,
      "▁mot": 435,
      "▁28,000": 436,
      "▁way": 437,
      "▁529999": 438,
      "##031": 439,
      "▁second": 440,
      "▁d": 441,
      "▁a": 442,
      "▁50,000": 443,
      "##.61": 444,
      "▁was": 445,
      "▁jun": 446,
      "▁both": 447,
      "▁240": 448,
      "▁<": 449,
      "##/13": 450,
      "▁cle": 451,
      "##ang": 452,
      "##ustom": 453,
      "##/03": 454,
      "▁must": 455,
      "▁char": 456,
      "▁ob": 457,
      "##omet": 458,
      "▁million": 459,
      "##....": 460,
      "▁adv": 461,
      "##51": 462,
      "##urs": 463,
      "▁kansas": 464,
      "▁uhh": 465,
      "▁ro": 466,
      "▁reg": 467,
      "▁bush": 468,
      "▁4.0": 469,
      "##esday": 470,
      "▁5.6": 471,
      "▁18": 472,
      "▁wi": 473,
      "##two": 474,
      "##thers": 475,
      "j": 476,
      "▁clear": 477,
      "##room": 478,
      "##415-": 479,
      "▁05908549": 480,
      "##74": 481,
      "x": 482,
      "▁poss": 483,
      "▁hor": 484,
      "##57": 485,
      "▁peace": 486,
      "▁***": 487,
      "##ract": 488,
      "##ve": 489,
      "##gether": 490,
      "▁52": 491,
      "▁1605": 492,
      "▁go": 493,
      "▁500": 494,
      "]": 495,
      "##pped": 496,
      "▁not": 497,
      "##aph": 498,
      "##tt": 499,
      "▁324": 500,
      "▁occ": 501,
      "▁mommy": 502,
      "##,000,000": 503,
      "##ii": 504,
      "##ł": 505,
      "▁pres": 506,
      "▁1871": 507,
      "▁“": 508,
      "##*": 509,
      "▁1964": 510,
      "▁yea": 511,
      "▁bill": 512,
      "##uge": 513,
      "##ative": 514,
      "▁door": 515,
      "##ple": 516,
      "▁ac": 517,
      "▁though": 518,
      "##α": 519,
      "▁1-8": 520,
      "▁birthday": 521,
      "▁never": 522,
      "▁can": 523,
      "▁its": 524,
      "▁44": 525,
      "▁1969": 526,
      "##22,000": 527,
      "▁interv": 528,
      "▁mich": 529,
      "##ing": 530,
      "##xic": 531,
      "##iet": 532,
      "##‘": 533,
      "▁;": 534,
      "##row": 535,
      "▁03:58": 536,
      "▁2017": 537,
      "▁dog": 538,
      "▁170": 539,
      "▁,": 540,
      "▁living": 541,
      "▁sure": 542,
      "##erc": 543,
      "▁law": 544,
      "▁them": 545,
      "▁1974": 546,
      "▁wife": 547,
      "##:27": 548,
      "▁usually": 549,
      "▁orig": 550,
      "▁wa": 551,
      "##elt": 552,
      "▁men": 553,
      "▁da": 554,
      "##anc": 555,
      "##iety": 556,
      "##de": 557,
      "##ined": 558,
      "▁known": 559,
      "##ce": 560,
      "▁11/29/2000": 561,
      "▁beside": 562,
      "▁mass": 563,
      "##th": 564,
      "▁delta": 565,
      "▁4": 566,
      "▁soon": 567,
      "▁last": 568,
      "▁id": 569,
      "ω": 570,
      "▁1623": 571,
      "▁hot": 572,
      "##.75": 573,
      "▁/": 574,
      "▁fun": 575,
      "##land": 576,
      "▁ir": 577,
      "▁called": 578,
      "##-8": 579,
      "z": 580,
      "▁1940": 581,
      "▁hands": 582,
      "▁service": 583,
      "▁814.863": 584,
      "##00": 585,
      "##ew": 586,
      "▁1696": 587,
      "▁”": 588,
      "##ery": 589,
      "##:24": 590,
      "▁stand": 591,
      "ο": 592,
      "▁laura": 593,
      "##ency": 594,
      "▁comput": 595,
      "▁harry": 596,
      "▁713": 597,
      "##.77": 598,
      "##iz": 599,
      "▁const": 600,
      "▁some": 601,
      "▁xv": 602,
      "##ains": 603,
      "▁avail": 604,
      "##rench": 605,
      "▁whilst": 606,
      "▁!?": 607,
      "▁art": 608,
      "##:46": 609,
      "▁trillion": 610,
      "▁ear": 611,
      "▁2015": 612,
      "▁20:00": 613,
      "##ina": 614,
      "▁get": 615,
      "▁invol": 616,
      "▁bet": 617,
      "▁281-443-37": 618,
      "▁table": 619,
      "▁2.6": 620,
      "▁pub": 621,
      "▁wan": 622,
      "▁exper": 623,
      "▁west": 624,
      "▁step": 625,
      "##μ": 626,
      "##ody": 627,
      "▁fut": 628,
      "##ass": 629,
      "▁85": 630,
      "▁68": 631,
      "▁prod": 632,
      "##39": 633,
      "##:17": 634,
      "##-9004": 635,
      "▁sub": 636,
      "##illion": 637,
      "##:51": 638,
      "▁185": 639,
      "▁cou": 640,
      "▁run": 641,
      "▁3,202": 642,
      "▁bar": 643,
      "##line": 644,
      "▁prov": 645,
      "▁01:0": 646,
      "▁see": 647,
      "##ident": 648,
      "▁beautiful": 649,
      "##ed": 650,
      "▁around": 651,
      "▁rest": 652,
      "##ise": 653,
      "▁'ll": 654,
      "##-79": 655,
      "##4-": 656,
      "▁particular": 657,
      "##ant": 658,
      "##onto": 659,
      "▁against": 660,
      "▁1220": 661,
      "▁270": 662,
      "▁25": 663,
      "▁de": 664,
      "▁1.4": 665,
      "##stem": 666,
      "▁data": 667,
      "▁sp": 668,
      "##ood": 669,
      "±": 670,
      "▁2,": 671,
      "▁sal": 672,
      "▁alread": 673,
      "▁415": 674,
      "▁360": 675,
      "▁anyone": 676,
      "▁–": 677,
      "##ially": 678,
      "▁everybody": 679,
      "夏": 680,
      "▁f": 681,
      "##70": 682,
      "▁...": 683,
      "▁days": 684,
      "▁idea": 685,
      "##isco": 686,
      "▁twelve": 687,
      "▁cer": 688,
      "▁104": 689,
      "▁phot": 690,
      "▁suff": 691,
      "▁resp": 692,
      "##ology": 693,
      "▁600": 694,
      "##ale": 695,
      "▁..": 696,
      "##ks": 697,
      "▁24": 698,
      "##ell": 699,
      "##ental": 700,
      "▁08/17/2000": 701,
      "##:32": 702,
      "▁16.3": 703,
      "##山": 704,
      "▁agre": 705,
      "##get": 706,
      "▁whereby": 707,
      "##clock": 708,
      "▁1100": 709,
      "▁1836": 710,
      "▁17": 711,
      "▁feet": 712,
      "▁russ": 713,
      ",": 714,
      "▁‘": 715,
      "##or": 716,
      "▁minus": 717,
      "##\"": 718,
      "▁ham": 719,
      "▁origin": 720,
      "▁countries": 721,
      "▁notwi": 722,
      "▁1843": 723,
      "##ere": 724,
      "▁his": 725,
      "▁born": 726,
      "▁1994": 727,
      "▁aft": 728,
      "▁sorry": 729,
      "▁differ": 730,
      "▁================================": 731,
      "##els": 732,
      "##47": 733,
      "##-59": 734,
      "▁york": 735,
      "▁record": 736,
      "##0010": 737,
      "##461": 738,
      "▁'m": 739,
      "##la": 740,
      "##/10/2004": 741,
      "▁2016": 742,
      "▁1835": 743,
      "▁rul": 744,
      "[SEP]": 745,
      "##ellow": 746,
      "▁amount": 747,
      "▁5:30": 748,
      "▁franc": 749,
      "▁al.": 750,
      "▁is": 751,
      "▁throughout": 752,
      "##/16/2001": 753,
      "▁political": 754,
      "▁anybody": 755,
      "▁1765": 756,
      "▁they": 757,
      "▁matter": 758,
      "##.916.718": 759,
      "­": 760,
      "##em": 761,
      "▁where": 762,
      "×": 763,
      "▁1890": 764,
      "▁sar": 765,
      "▁george": 766,
      "▁money": 767,
      "8": 768,
      "##:03": 769,
      "▁transport": 770,
      "▁2005": 771,
      "▁tur": 772,
      "▁800.713.8": 773,
      "▁979": 774,
      "##rib": 775,
      "▁pho": 776,
      "▁without": 777,
      "▁1996": 778,
      "▁11:0": 779,
      "▁_________________________________": 780,
      "▁works": 781,
      "▁care": 782,
      "▁1939": 783,
      "▁60,000": 784,
      "▁415.621.8317": 785,
      "▁talking": 786,
      "##/8/00": 787,
      "▁let": 788,
      "▁!": 789,
      "▁another": 790,
      "##fast": 791,
      "##“": 792,
      "▁’m": 793,
      "▁were": 794,
      "▁1988": 795,
      "▁sleep": 796,
      "一": 797,
      "▁head": 798,
      "##υ": 799,
      "##uch": 800,
      "▁exam": 801,
      "▁1291": 802,
      "▁months": 803,
      "##ea": 804,
      "▁79": 805,
      "##77": 806,
      "[PAD]": 807,
      "▁use": 808,
      "▁albeit": 809,
      "##ify": 810,
      "▁02/13/2001": 811,
      "▁baltimore": 812,
      "##ee": 813,
      "▁john": 814,
      "##c": 815,
      "▁bit": 816,
      "▁pain": 817,
      "##ren": 818,
      "##9999": 819,
      "##-343": 820,
      "##unic": 821,
      "▁no-6": 822,
      "▁928": 823,
      "▁12:1": 824,
      "▁vis": 825,
      "▁side": 826,
      "▁although": 827,
      "▁9:30": 828,
      "▁2010": 829,
      "▁bott": 830,
      "▁stre": 831,
      "▁guys": 832,
      "▁1991": 833,
      "▁light": 834,
      "▁01:14": 835,
      "▁everyone": 836,
      "▁including": 837,
      "▁54": 838,
      "▁ke": 839,
      "##ently": 840,
      "##por": 841,
      "▁st": 842,
      "##ific": 843,
      "##if": 844,
      "##:0": 845,
      "▁900": 846,
      "▁work": 847,
      "▁auth": 848,
      "##ames": 849,
      "▁las": 850,
      "▁1590": 851,
      "▁abs": 852,
      "▁air": 853,
      "▁nobody": 854,
      "▁cons": 855,
      "##:28": 856,
      "##dd": 857,
      "ه": 858,
      "##ought": 859,
      "▁405": 860,
      "▁am": 861,
      "▁dead": 862,
      "##craft": 863,
      "▁hav": 864,
      "▁07/14/2000": 865,
      "##oon": 866,
      "##499": 867,
      "▁then": 868,
      "▁big": 869,
      "▁12,000": 870,
      "▁510": 871,
      "▁langu": 872,
      "▁1829": 873,
      "▁versus": 874,
      "##r": 875,
      "▁keep": 876,
      "▁call": 877,
      "▁ur": 878,
      "▁vs.": 879,
      "▁347": 880,
      "▁pal": 881,
      "##uce": 882,
      "▁or": 883,
      "▁docum": 884,
      "▁repl": 885,
      "##ll": 886,
      "##oot": 887,
      "▁already": 888,
      "▁despite": 889,
      "▁713/8": 890,
      "##================": 891,
      "▁!!!!!!": 892,
      "▁end": 893,
      "▁equ": 894,
      "##end": 895,
      "##4014": 896,
      "▁moving": 897,
      "▁deal": 898,
      "##ail": 899,
      "▁gu": 900,
      "##ρ": 901,
      "▁count": 902,
      "▁80": 903,
      "▁ourselves": 904,
      ">": 905,
      "▁thir": 906,
      "ف": 907,
      "—": 908,
      "##ecess": 909,
      "▁1600": 910,
      "▁05/03/2001": 911,
      "##ration": 912,
      "ɑ": 913,
      "▁311": 914,
      "▁tralee": 915,
      "##-46": 916,
      "▁towards": 917,
      "▁888.916.7184": 918,
      "##ok": 919,
      "##/99": 920,
      "##\\": 921,
      "##ir": 922,
      "▁713-654-1281": 923,
      "▁play": 924,
      "▁friends": 925,
      "▁review": 926,
      "▁11:36": 927,
      "*": 928,
      "▁ver": 929,
      "▁ma": 930,
      "▁government": 931,
      "▁future": 932,
      "▁296": 933,
      "▁trans": 934,
      "▁seventeen": 935,
      "##清": 936,
      "##75": 937,
      "▁1926": 938,
      "▁stud": 939,
      "▁cit": 940,
      "▁restaur": 941,
      "##qu": 942,
      "##stand": 943,
      "▁cover": 944,
      "##,00": 945,
      "##:00": 946,
      "▁713-6": 947,
      "▁und": 948,
      "##rans": 949,
      "##32": 950,
      "▁unt": 951,
      "##54-": 952,
      "▁1997": 953,
      "▁111": 954,
      "▁1.25": 955,
      "▁ab": 956,
      "##.5": 957,
      "▁pi": 958,
      "##ch": 959,
      "▁br": 960,
      "▁well": 961,
      "##oo": 962,
      "▁themselves": 963,
      "##ken": 964,
      "▁pat": 965,
      "▁1596": 966,
      "▁ev": 967,
      "##ip": 968,
      "##ich": 969,
      "##ʃ": 970,
      "▁har": 971,
      "##i": 972,
      "▁1115": 973,
      "##aq": 974,
      "##/7": 975,
      "▁lat": 976,
      "▁n'": 977,
      "▁`": 978,
      "▁econom": 979,
      "##[": 980,
      "▁se": 981,
      "▁11-20-": 982,
      "▁z": 983,
      "▁awoh": 984,
      "##ak": 985,
      "▁somet": 986,
      "##:18": 987,
      "##ick": 988,
      "##-780": 989,
      "▁hear": 990,
      "▁1877": 991,
      "##uma": 992,
      "▁450": 993,
      "▁govern": 994,
      "▁add": 995,
      "▁38,000": 996,
      "##imes": 997,
      "[CLS]": 998,
      "▁yer": 999,
      "▁services": 1000,
      "ə": 1001,
      "##:07": 1002,
      "##—": 1003,
      "▁think": 1004,
      "▁2008": 1005,
      "##:21": 1006,
      "▁ban": 1007,
      "▁glob": 1008,
      "##:35": 1009,
      "▁htt": 1010,
      "##aren": 1011,
      "▁saturday": 1012,
      "##17": 1013,
      "▁mor": 1014,
      "##'s": 1015,
      "▁8": 1016,
      "▁78": 1017,
      "##====": 1018,
      "▁750,000": 1019,
      "##-nine": 1020,
      "▁fe": 1021,
      "▁enj": 1022,
      "▁183": 1023,
      "▁cuz": 1024,
      "▁6:00": 1025,
      "##98": 1026,
      "▁than": 1027,
      "▁1980": 1028,
      "##ly": 1029,
      "##ible": 1030,
      "##/16": 1031,
      "▁04:37": 1032,
      "ص": 1033,
      "▁212": 1034,
      "##fully": 1035,
      "##/97": 1036,
      "▁53": 1037,
      "##2-6": 1038,
      "▁twenty-four": 1039,
      "##dy": 1040,
      "▁imp": 1041,
      "▁five": 1042,
      "##ool": 1043,
      "##on": 1044,
      "@": 1045,
      "▁ap": 1046,
      "##-23": 1047,
      "▁stay": 1048,
      "##iver": 1049,
      "##eit": 1050,
      "##ach": 1051,
      "▁814014": 1052,
      "▁death": 1053,
      "▁arri": 1054,
      "▁breakfast": 1055,
      "##uh": 1056,
      "##outh": 1057,
      "▁pri": 1058,
      "▁prom": 1059,
      "▁pay": 1060,
      "▁news": 1061,
      "▁to": 1062,
      "▁oneself": 1063,
      "▁hers": 1064,
      "▁1598": 1065,
      "▁ninety-nine": 1066,
      "▁how": 1067,
      "▁hund": 1068,
      "▁diego": 1069,
      "▁143": 1070,
      "▁£": 1071,
      "▁vs": 1072,
      "##rist": 1073,
      "▁mind": 1074,
      "▁1986": 1075,
      "▁3.8": 1076,
      "▁20": 1077,
      "▁company": 1078,
      "▁listen": 1079,
      "##tain": 1080,
      "##ational": 1081,
      "##/31": 1082,
      "▁713-853": 1083,
      "▁ar": 1084,
      "▁cloth": 1085,
      "▁yesterday": 1086,
      "▁": 1087,
      "▁16": 1088,
      "▁49": 1089,
      "▁make": 1090,
      "▁natural": 1091,
      ".": 1092,
      "##ament": 1093,
      "##and": 1094,
      "##alth": 1095,
      "▁plus": 1096,
      "▁all": 1097,
      "##85": 1098,
      "##ust": 1099,
      "▁value": 1100,
      "▁four": 1101,
      "▁kid": 1102,
      "##/he": 1103,
      "##ached": 1104,
      "##{": 1105,
      "▁fac": 1106,
      "▁sn": 1107,
      "▁059085": 1108,
      "##31": 1109,
      "▁1611": 1110,
      "▁comp": 1111,
      "##ced": 1112,
      "##:23": 1113,
      "▁fre": 1114,
      "▁1971": 1115,
      "##63": 1116,
      "▁su": 1117,
      "##.16": 1118,
      "##aw": 1119,
      "##oose": 1120,
      "##ason": 1121,
      "▁202.456.2461": 1122,
      "##-468-3": 1123,
      "##819602175": 1124,
      "##rem": 1125,
      "##unch": 1126,
      "##ilities": 1127,
      "##@enron_de": 1128,
      "##enc": 1129,
      "▁des": 1130,
      "▁piec": 1131,
      "##339": 1132,
      "##!!": 1133,
      "▁115": 1134,
      "##:58": 1135,
      "▁further": 1136,
      "##ated": 1137,
      "▁type": 1138,
      "##90": 1139,
      "▁cleveland": 1140,
      "▁trale": 1141,
      "▁american": 1142,
      "▁salt": 1143,
      "▁again": 1144,
      "▁700": 1145,
      "▁646-8420": 1146,
      "##ily": 1147,
      "▁1039": 1148,
      "▁doing": 1149,
      "▁http://www": 1150,
      "▁guy": 1151,
      "▁130": 1152,
      "##t": 1153,
      "▁646": 1154,
      "▁03/21/2001": 1155,
      "##ace": 1156,
      "▁410": 1157,
      "##og": 1158,
      "▁wed": 1159,
      "▁bac": 1160,
      "##ct": 1161,
      "▁thr": 1162,
      "▁1,000": 1163,
      "▁appear": 1164,
      "▁hou": 1165,
      "##.doc": 1166,
      "▁je": 1167,
      "##iter": 1168,
      "##ves": 1169,
      "▁across": 1170,
      "▁aboard": 1171,
      "§": 1172,
      "▁minute": 1173,
      "▁hat": 1174,
      "▁enjoy": 1175,
      "##:56": 1176,
      "▁1562": 1177,
      "▁anything": 1178,
      "##ers": 1179,
      "▁11/7/08": 1180,
      "▁more": 1181,
      "##13": 1182,
      "▁2.7": 1183,
      "##les": 1184,
      "▁1850": 1185,
      "##.676": 1186,
      "##ject": 1187,
      "▁li": 1188,
      "▁just": 1189,
      "##ance": 1190,
      "##.782": 1191,
      "##ortun": 1192,
      "▁acc": 1193,
      "▁one": 1194,
      "▁field": 1195,
      "##av": 1196,
      "▁english": 1197,
      "##uct": 1198,
      "▁gon": 1199,
      "▁office": 1200,
      "▁since": 1201,
      "▁05/01/2001": 1202,
      "##xce": 1203,
      "▁718-780": 1204,
      "##ock": 1205,
      "##800": 1206,
      "##opment": 1207,
      "▁207": 1208,
      "▁1776": 1209,
      "f": 1210,
      "▁shakes": 1211,
      "▁official": 1212,
      "▁coun": 1213,
      "▁10:34": 1214,
      "▁that": 1215,
      "##37": 1216,
      "##ol": 1217,
      "▁it": 1218,
      "##ago": 1219,
      "##ain": 1220,
      "▁430": 1221,
      "▁our": 1222,
      "▁sad": 1223,
      "▁left": 1224,
      "▁fire": 1225,
      "▁973": 1226,
      "##ely": 1227,
      "##ru": 1228,
      "▁thank": 1229,
      "▁fri": 1230,
      "▁54,000": 1231,
      "▁result": 1232,
      "▁are": 1233,
      "##.6": 1234,
      "▁mi": 1235,
      "▁because": 1236,
      "##/200": 1237,
      "▁tra": 1238,
      "▁199": 1239,
      "▁26": 1240,
      "ʻ": 1241,
      "▁401": 1242,
      "▁!!!!!!!": 1243,
      "▁1954": 1244,
      "▁whether": 1245,
      "##****": 1246,
      "##ana": 1247,
      "▁eat": 1248,
      "▁chick": 1249,
      "▁1998": 1250,
      "▁11-20-2000": 1251,
      "▁hour": 1252,
      "##50": 1253,
      "##:55": 1254,
      "##ital": 1255,
      "▁ste": 1256,
      "##six": 1257,
      "##58": 1258,
      "▁832": 1259,
      "▁glass": 1260,
      "▁12": 1261,
      "##40": 1262,
      "▁people": 1263,
      "▁1910": 1264,
      "##|": 1265,
      "##cle": 1266,
      "##where": 1267,
      "##/15/2001": 1268,
      "##ster": 1269,
      "(": 1270,
      "##ame": 1271,
      "##anger": 1272,
      "##en": 1273,
      "▁picture": 1274,
      "##ather": 1275,
      "▁…": 1276,
      "▁2018": 1277,
      "##ong": 1278,
      "##21": 1279,
      "l": 1280,
      "##<": 1281,
      "|": 1282,
      "▁vegas": 1283,
      "▁push": 1284,
      "▁low": 1285,
      "##acy": 1286,
      "##=": 1287,
      "▁seem": 1288,
      "▁fare": 1289,
      "μ": 1290,
      "##ived": 1291,
      "▁ta": 1292,
      "##ination": 1293,
      "▁available": 1294,
      "##ght": 1295,
      "▁employ": 1296,
      "##man": 1297,
      "n": 1298,
      "▁330": 1299,
      "▁six": 1300,
      "▁10/20/2000": 1301,
      "▁express": 1302,
      "▁along": 1303,
      "▁150": 1304,
      "##sh": 1305,
      "##os": 1306,
      "##393": 1307,
      "##.15": 1308,
      "##0/2000": 1309,
      "##use": 1310,
      "##ents": 1311,
      "▁75": 1312,
      "▁depart": 1313,
      "▁finally": 1314,
      "##nesday": 1315,
      "##ger": 1316,
      "b": 1317,
      "##ious": 1318,
      "##460-33": 1319,
      "##ec": 1320,
      "▁hard": 1321,
      "▁800-553-3119": 1322,
      "##:34": 1323,
      "▁qu": 1324,
      "##:14": 1325,
      "▁220": 1326,
      "▁345-3436": 1327,
      "▁70": 1328,
      "▁1959": 1329,
      "##erg": 1330,
      "i": 1331,
      "##9.3": 1332,
      "▁7": 1333,
      "▁che": 1334,
      "▁military": 1335,
      "##ments": 1336,
      "##ind": 1337,
      "▁laur": 1338,
      "▁1790": 1339,
      "##________________________________": 1340,
      "▁lic": 1341,
      "##/": 1342,
      "▁civ": 1343,
      "▁.......": 1344,
      "##/4": 1345,
      "ي": 1346,
      "▁....": 1347,
      "▁expl": 1348,
      "▁using": 1349,
      "▁dark": 1350,
      "##u": 1351,
      "▁even": 1352,
      "▁baby": 1353,
      "##ma": 1354,
      "▁plan": 1355,
      "##/00": 1356,
      "1": 1357,
      "##gg": 1358,
      "▁11/10/2000": 1359,
      "##,7": 1360,
      "▁ours": 1361,
      "▁request": 1362,
      "▁itself": 1363,
      "▁ready": 1364,
      "▁fing": 1365,
      "##.85": 1366,
      "▁ty": 1367,
      "▁deb": 1368,
      "##ations": 1369,
      "▁import": 1370,
      "▁hum": 1371,
      "##itting": 1372,
      "▁n't": 1373,
      "##lf": 1374,
      "▁1932": 1375,
      "▁10/23/2000": 1376,
      "▁diff": 1377,
      "▁cup": 1378,
      "▁wednesday": 1379,
      "▁03/27/2001": 1380,
      "▁10:5": 1381,
      "▁claim": 1382,
      "▁tom": 1383,
      "▁expect": 1384,
      "▁gave": 1385,
      "##古": 1386,
      "▁mont": 1387,
      "##mm": 1388,
      "##ek": 1389,
      "##olog": 1390,
      "▁12.": 1391,
      "##z": 1392,
      "▁floor": 1393,
      "▁tor": 1394,
      "▁1000": 1395,
      "##********************************": 1396,
      "##ls": 1397,
      "▁36": 1398,
      "▁03:3": 1399,
      "▁315-460-33": 1400,
      "▁means": 1401,
      "▁ren": 1402,
      "▁answ": 1403,
      "▁yourselves": 1404,
      "د": 1405,
      "▁750": 1406,
      "##琴": 1407,
      "▁seemed": 1408,
      "##ans": 1409,
      "▁thirty": 1410,
      "▁09/16": 1411,
      "##ets": 1412,
      "远": 1413,
      "##way": 1414,
      "▁7.3": 1415,
      "▁seems": 1416,
      "▁03/15/2001": 1417,
      "▁13": 1418,
      "ł": 1419,
      "##,600": 1420,
      "▁1583": 1421,
      "▁public": 1422,
      "##~*": 1423,
      "##ertain": 1424,
      "##ured": 1425,
      "▁bo": 1426,
      "▁face": 1427,
      "##fore": 1428,
      "▁07/1": 1429,
      "▁quest": 1430,
      "▁transportation": 1431,
      "'": 1432,
      "▁non": 1433,
      "##ley": 1434,
      "##029": 1435,
      "##ild": 1436,
      "##pe": 1437,
      "##l": 1438,
      "▁'71": 1439,
      "▁0000108806": 1440,
      "▁fi": 1441,
      "##ogether": 1442,
      "▁goes": 1443,
      "##8/2001": 1444,
      "##onom": 1445,
      "##town": 1446,
      "##ess": 1447,
      "##uff": 1448,
      "▁5.8": 1449,
      "▁8043": 1450,
      "▁adam": 1451,
      "▁give": 1452,
      "▁level": 1453,
      "▁real": 1454,
      "▁whi": 1455,
      "▁ten": 1456,
      "▁98": 1457,
      "▁beh": 1458,
      "##♥": 1459,
      "▁beneath": 1460,
      "▁alone": 1461,
      ";": 1462,
      "▁in": 1463,
      "##ize": 1464,
      "▁1500": 1465,
      "▁56": 1466,
      "▁til": 1467,
      "##ators": 1468,
      "▁lik": 1469,
      "樋": 1470,
      "▁04/30/2001": 1471,
      "▁unlike": 1472,
      "▁?": 1473,
      "▁close": 1474,
      "▁2004": 1475,
      "##........": 1476,
      "▁dese": 1477,
      "##igh": 1478,
      "##,000": 1479,
      "▁nine": 1480,
      "▁4:30": 1481,
      "##10": 1482,
      "##==": 1483,
      "##ill": 1484,
      "▁with": 1485,
      "##ors": 1486,
      "##osed": 1487,
      "▁before": 1488,
      "##ic": 1489,
      "##yond": 1490,
      "▁505": 1491,
      "▁ter": 1492,
      "▁children": 1493,
      "##.1234": 1494,
      "▁ph": 1495,
      "##ω": 1496,
      "##ra": 1497,
      "##ʒ": 1498,
      "##ways": 1499,
      "##wi": 1500,
      "##ank": 1501,
      "▁front": 1502,
      "β": 1503,
      "▁tu": 1504,
      "##rew": 1505,
      "▁includ": 1506,
      "▁ind": 1507,
      "▁em": 1508,
      "##clud": 1509,
      "▁meas": 1510,
      "##urday": 1511,
      "▁pan": 1512,
      "▁me": 1513,
      "▁sha": 1514,
      "▁1846": 1515,
      "▁0": 1516,
      "▁gas": 1517,
      "▁1616": 1518,
      "葉": 1519,
      "▁success": 1520,
      "▁6.2.1": 1521,
      "▁9": 1522,
      "##act": 1523,
      "##inc": 1524,
      "##20": 1525,
      "▁1179": 1526,
      "▁trad": 1527,
      "##§": 1528,
      "##eight": 1529,
      "##got": 1530,
      "##ice": 1531,
      "▁10:46": 1532,
      "▁tick": 1533,
      "##eau": 1534,
      "▁visit": 1535,
      "▁common": 1536,
      "▁713-853-1696": 1537,
      "▁follow": 1538,
      "##im": 1539,
      "▁08:00": 1540,
      "▁woud": 1541,
      "▁doggie": 1542,
      "##721": 1543,
      "▁looks": 1544,
      "e": 1545,
      "▁try": 1546,
      "▁however": 1547,
      "▁but": 1548,
      "▁social": 1549,
      "▁xiii": 1550,
      "▁india": 1551,
      "▁whoever": 1552,
      "##.8317": 1553,
      "▁understand": 1554,
      "▁'d": 1555,
      "##葉": 1556,
      "▁lake": 1557,
      "▁val": 1558,
      "##ograph": 1559,
      "##read": 1560,
      "▁june": 1561,
      "▁less": 1562,
      "##oice": 1563,
      "▁1973": 1564,
      "▁1691": 1565,
      "##gle": 1566,
      "▁2,500": 1567,
      "##-27": 1568,
      "▁international": 1569,
      "▁economy": 1570,
      "▁680": 1571,
      "山": 1572,
      "▁few": 1573,
      "##eet": 1574,
      "▁daily": 1575,
      "▁cause": 1576,
      "##ates": 1577,
      "##ition": 1578,
      "æ": 1579,
      "▁466": 1580,
      "##five": 1581,
      "##ained": 1582,
      "▁refer": 1583,
      "▁com": 1584,
      "##cent": 1585,
      "##iding": 1586,
      "▁713-8": 1587,
      "9": 1588,
      "▁oh": 1589,
      "▁dest": 1590,
      "▁based": 1591,
      "▁health": 1592,
      "▁ever": 1593,
      "##ama": 1594,
      "▁design": 1595,
      "▁%": 1596,
      "▁esp": 1597,
      "##iny": 1598,
      "▁198": 1599,
      "▁other": 1600,
      "▁take": 1601,
      "▁1990": 1602,
      "▁nt": 1603,
      "口": 1604,
      "▁agreement": 1605,
      "▁father": 1606,
      "▁fore": 1607,
      "▁pur": 1608,
      "▁fro": 1609,
      "##**": 1610,
      "▁touch": 1611,
      "▁okay": 1612,
      "##sl": 1613,
      "▁tri": 1614,
      "▁necess": 1615,
      "▁forty-one": 1616,
      "▁dri": 1617,
      "##119": 1618,
      "▁ought": 1619,
      "▁156": 1620,
      "▁268": 1621,
      "▁full": 1622,
      "##thst": 1623,
      "▁proc": 1624,
      "##128": 1625,
      "▁human": 1626,
      "##6021": 1627,
      "##orn": 1628,
      "▁times": 1629,
      "##ury": 1630,
      "▁ones": 1631,
      "##veland": 1632,
      "▁sing": 1633,
      "▁du": 1634,
      "▁port": 1635,
      "▁expensive": 1636,
      "##8": 1637,
      "##~": 1638,
      "▁taken": 1639,
      "▁inc": 1640,
      "▁ang": 1641,
      "▁chair": 1642,
      "▁xsl": 1643,
      "##3098": 1644,
      "##ˈ": 1645,
      "▁this": 1646,
      "##.3": 1647,
      "##/26/2001": 1648,
      "##/2": 1649,
      "##iation": 1650,
      "##2,000": 1651,
      "▁community": 1652,
      "##ape": 1653,
      "##)": 1654,
      "▁:(": 1655,
      "##ho": 1656,
      "▁christ": 1657,
      "▁’’": 1658,
      "▁sat": 1659,
      "▁red": 1660,
      "▁her": 1661,
      "▁whose": 1662,
      "##ero": 1663,
      "##ond": 1664,
      "▁die": 1665,
      "▁item": 1666,
      "▁love": 1667,
      "##389": 1668,
      "6": 1669,
      "##ow": 1670,
      "▁dall": 1671,
      "##na": 1672,
      "▁month": 1673,
      "▁3/8/00": 1674,
      "▁07:24": 1675,
      "▁free": 1676,
      "▁addition": 1677,
      "▁do": 1678,
      "▁yours": 1679,
      "琴": 1680,
      "##:29": 1681,
      "##:02": 1682,
      "##92": 1683,
      "▁713-793-": 1684,
      "##”": 1685,
      "##b": 1686,
      "▁myself": 1687,
      "▁wind": 1688,
      "##ti": 1689,
      "##8196021": 1690,
      "▁continental": 1691,
      "▁any": 1692,
      "##ble": 1693,
      "▁125": 1694,
      "▁ex": 1695,
      "▁opposite": 1696,
      "▁turn": 1697,
      "##/26": 1698,
      "▁0.0": 1699,
      "##ising": 1700,
      "##so": 1701,
      "▁leaving": 1702,
      "w": 1703,
      "##ummy": 1704,
      "▁up": 1705,
      "##oke": 1706,
      "##********": 1707,
      "▁38": 1708,
      "▁87": 1709,
      "▁came": 1710,
      "▁825": 1711,
      "▁ed": 1712,
      "▁youn": 1713,
      "##81": 1714,
      "▁quinn": 1715,
      "▁louis": 1716,
      "##图": 1717,
      "▁165": 1718,
      "▁fort": 1719,
      "▁c": 1720,
      "▁earth": 1721,
      "▁monday": 1722,
      "##ered": 1723,
      "##ember": 1724,
      "▁oper": 1725,
      "##bo": 1726,
      "▁us": 1727,
      "▁mess": 1728,
      "##ouble": 1729,
      "▁1918": 1730,
      "▁********************************": 1731,
      "▁09:14": 1732,
      "▁thing": 1733,
      "▁baltim": 1734,
      "▁sl": 1735,
      "▁milwau": 1736,
      "▁wo": 1737,
      "ن": 1738,
      "▁throu": 1739,
      "▁beaut": 1740,
      "▁key": 1741,
      "##ence": 1742,
      "##8/2000": 1743,
      "▁93": 1744,
      "▁281-": 1745,
      "##iate": 1746,
      "##ones": 1747,
      "▁given": 1748,
      "▁1603": 1749,
      "##vel": 1750,
      "##.45": 1751,
      "##1082": 1752,
      "▁every": 1753,
      "▁345-9945": 1754,
      "▁60": 1755,
      "##et": 1756,
      "▁01:39": 1757,
      "▁foc": 1758,
      "▁1929": 1759,
      "##0-3": 1760,
      "##able": 1761,
      "##.9": 1762,
      "▁mummy": 1763,
      "▁01:09": 1764,
      "▁101": 1765,
      "▁china": 1766,
      "##6": 1767,
      "##¢": 1768,
      "▁000010": 1769,
      "##£": 1770,
      "▁maybe": 1771,
      "▁large": 1772,
      "▁upon": 1773,
      "▁1984": 1774,
      "▁09/15": 1775,
      "##!!!": 1776,
      "##78": 1777,
      "##ert": 1778,
      "▁by": 1779,
      "##ploy": 1780,
      "▁told": 1781,
      "▁21,000": 1782,
      "▁03/28/2001": 1783,
      "##ved": 1784,
      "##ston": 1785,
      "▁202.45": 1786,
      "##apolis": 1787,
      "##oth": 1788,
      "▁169": 1789,
      "▁which": 1790,
      "▁4:50": 1791,
      "▁restaurant": 1792,
      "##/25/2001": 1793,
      "▁un": 1794,
      "##aps": 1795,
      "▁met": 1796,
      "▁18,000": 1797,
      "##435-": 1798,
      "▁defin": 1799,
      "▁point": 1800,
      "▁perform": 1801,
      "##ia": 1802,
      "##100": 1803,
      "##edie": 1804,
      "##ned": 1805,
      "▁>>": 1806,
      "##300": 1807,
      "▁ol": 1808,
      "▁73": 1809,
      "▁angel": 1810,
      "##erv": 1811,
      "▁16.379": 1812,
      "▁det": 1813,
      "¢": 1814,
      "##ica": 1815,
      "##•": 1816,
      "▁al": 1817,
      "▁713-646-3393": 1818,
      "▁1848": 1819,
      "▁tec": 1820,
      "▁63": 1821,
      "▁100": 1822,
      "▁rev": 1823,
      "▁191": 1824,
      "##况": 1825,
      "▁later": 1826,
      "##own": 1827,
      "##atch": 1828,
      "▁untill": 1829,
      "[MASK]": 1830,
      "▁202.456.1": 1831,
      "##2/2000": 1832,
      "和": 1833,
      "▁08/15/2000": 1834,
      "##ping": 1835,
      "##-20": 1836,
      "▁1,": 1837,
      "▁flo": 1838,
      "##_": 1839,
      "▁together": 1840,
      "▁house": 1841,
      "▁profess": 1842,
      "▁225": 1843,
      "▁better": 1844,
      "##le": 1845,
      "▁mag": 1846,
      "▁something": 1847,
      "▁944": 1848,
      "▁08/03/2000": 1849,
      "##,5": 1850,
      "▁978": 1851,
      "##.831": 1852,
      "▁pers": 1853,
      "▁rele": 1854,
      "##est": 1855,
      "##β": 1856,
      "▁tax": 1857,
      "##bur": 1858,
      "##ral": 1859,
      "▁832.676": 1860,
      "▁sim": 1861,
      "▁thru": 1862,
      "##518": 1863,
      "##++++": 1864,
      "▁commission": 1865,
      "##__________": 1866,
      "##otte": 1867,
      "ʒ": 1868,
      "##ull": 1869,
      "▁+1": 1870,
      "###": 1871,
      "▁01810": 1872,
      "▁rich": 1873,
      "▁within": 1874,
      "▁)": 1875,
      "▁doct": 1876,
      "▁1:30": 1877,
      "▁year": 1878,
      "##q": 1879,
      "▁es": 1880,
      "##atic": 1881,
      "▁ride": 1882,
      "▁global": 1883,
      "##rael": 1884,
      "▁dinner": 1885,
      "##:25": 1886,
      "▁seen": 1887,
      "▁university": 1888,
      "##--------": 1889,
      "▁o'clock": 1890,
      "▁no": 1891,
      "▁also": 1892,
      "▁2020": 1893,
      "##:42": 1894,
      "##1-90": 1895,
      "▁hey": 1896,
      "▁720": 1897,
      "▁2003": 1898,
      "▁66": 1899,
      "▁''": 1900,
      "##☏": 1901,
      "▁800-5": 1902,
      "▁ident": 1903,
      "▁713/853": 1904,
      "▁41": 1905,
      "▁per": 1906,
      "▁bir": 1907,
      "▁2100": 1908,
      "▁47,500": 1909,
      "##2/2001": 1910,
      "##ε": 1911,
      "▁sun": 1912,
      "##iew": 1913,
      "▁mic": 1914,
      "##5/2001": 1915,
      "##ς": 1916,
      "##&": 1917,
      "##静": 1918,
      "▁’": 1919,
      "▁and": 1920,
      "▁button": 1921,
      "▁1602": 1922,
      "v": 1923,
      "~": 1924,
      "▁atlanta": 1925,
      "##ole": 1926,
      "▁11/2": 1927,
      "▁polit": 1928,
      "▁does": 1929,
      "·": 1930,
      "▁88": 1931,
      "\"": 1932,
      "##/11": 1933,
      "▁vide": 1934,
      "##ook": 1935,
      "▁war": 1936,
      "▁269": 1937,
      "##olution": 1938,
      "▁morning": 1939,
      "##ities": 1940,
      "▁paul": 1941,
      "▁comple": 1942,
      "▁x": 1943,
      "▁1868": 1944,
      "▁’ve": 1945,
      "ʃ": 1946,
      "▁toward": 1947,
      "▁each": 1948,
      "▁onto": 1949,
      "##ature": 1950,
      "##ف": 1951,
      "▁ann": 1952,
      "##ign": 1953,
      "▁1575": 1954,
      "##red": 1955,
      "▁beyond": 1956,
      "▁copy": 1957,
      "▁rather": 1958,
      "▁south": 1959,
      "▁40": 1960,
      "##as": 1961,
      "▁lost": 1962,
      "▁295870": 1963,
      "▁530": 1964,
      "▁stop": 1965,
      "▁name": 1966,
      "▁example": 1967,
      "▁00": 1968,
      "▁most": 1969,
      "##ø": 1970,
      "▁commun": 1971,
      "ʊ": 1972,
      "##an": 1973,
      "▁space": 1974,
      "▁505-625-8031": 1975,
      "▁friend": 1976,
      "##v": 1977,
      "▁houston": 1978,
      "▁coming": 1979,
      "▁file": 1980,
      "œ": 1981,
      "##ester": 1982,
      "##und": 1983,
      "##nd": 1984,
      "##61": 1985,
      "▁min": 1986,
      "▁t": 1987,
      "▁e": 1988,
      "▁los": 1989,
      "▁21": 1990,
      "##%": 1991,
      "##26": 1992,
      "▁2.": 1993,
      "▁09:45": 1994,
      "▁provide": 1995,
      "▁break": 1996,
      "▁flight": 1997,
      "▁3": 1998,
      "▁grow": 1999,
      "▁pre": 2000,
      "▁box": 2001,
      "▁43": 2002,
      "▁aircraft": 2003,
      "▁932": 2004,
      "▁phone": 2005,
      "q": 2006,
      "▁08/15": 2007,
      "▁class": 2008,
      "##old": 2009,
      "##ional": 2010,
      "▁always": 2011,
      "##ter": 2012,
      "▁gets": 2013,
      "▁01:58": 2014,
      "##ose": 2015,
      "▁fift": 2016,
      "▁1-800": 2017,
      "▁|": 2018,
      "▁uhhuh": 2019,
      "##ound": 2020,
      "▁these": 2021,
      "▁04:17": 2022,
      "▁energy": 2023,
      "##.7822": 2024,
      "##iously": 2025,
      "▁got": 2026,
      "▁letter": 2027,
      "▁opp": 2028,
      "▁1967": 2029,
      "▁early": 2030,
      "▁158": 2031,
      "▁str": 2032,
      "▁there": 2033,
      "▁world": 2034,
      "▁security": 2035,
      "##59": 2036,
      "▁theirs": 2037,
      "▁620-": 2038,
      "☏": 2039,
      "##810": 2040,
      "▁those": 2041,
      "▁project": 2042,
      "▁saying": 2043,
      "##:1": 2044,
      "▁oc": 2045,
      "▁turned": 2046,
      "##φ": 2047,
      "▁road": 2048,
      "▁o": 2049,
      "▁sugg": 2050,
      "##+": 2051,
      "##ical": 2052,
      "½": 2053,
      "##lik": 2054,
      "##ides": 2055,
      "▁return": 2056,
      "▁words": 2057,
      "▁713-654-": 2058,
      "▁1999": 2059,
      "▁yester": 2060,
      "##ress": 2061,
      "▁develop": 2062,
      "##.7": 2063,
      "##-3393": 2064,
      "▁between": 2065,
      "▁6": 2066,
      "静": 2067,
      "▁best": 2068,
      "▁hun": 2069,
      "▁2009": 2070,
      "##enth": 2071,
      "▁lea": 2072,
      "##ight": 2073,
      "▁r": 2074,
      "▁inform": 2075,
      "▁market": 2076,
      "▁certain": 2077,
      "##.": 2078,
      "##ience": 2079,
      "▁37": 2080,
      "▁environ": 2081,
      "▁713-853-3989": 2082,
      "▁200,000": 2083,
      "##sc": 2084,
      "▁land": 2085,
      "▁conv": 2086,
      "##k": 2087,
      "▁ent": 2088,
      "▁fifteen": 2089,
      "▁08/16/2000": 2090,
      "##ore": 2091,
      "▁fin": 2092,
      "##ous": 2093,
      "##ected": 2094,
      "▁new": 2095,
      "##ord": 2096,
      "▁herself": 2097,
      "##o": 2098,
      "▁books": 2099,
      "▁like": 2100,
      "▁1966": 2101,
      "▁969": 2102,
      "▁15": 2103,
      "##/1": 2104,
      "▁prev": 2105,
      "▁iran": 2106,
      "▁137": 2107,
      "▁america": 2108,
      "%": 2109,
      "##ney": 2110,
      "▁know": 2111,
      "▁813": 2112,
      "##pite": 2113,
      "##peare": 2114,
      "▁who's": 2115,
      "##ines": 2116,
      "▁3889": 2117,
      "▁82": 2118,
      "##:13": 2119,
      "▁zero": 2120,
      "##re": 2121,
      "▁major": 2122,
      "▁if": 2123,
      "▁clean": 2124,
      "▁28": 2125,
      "▁11,000": 2126,
      "津": 2127,
      "##ز": 2128,
      "▁far": 2129,
      "▁http": 2130,
      "##ح": 2131,
      "▁interest": 2132,
      "▁505-625": 2133,
      "##ure": 2134,
      "”": 2135,
      "##pl": 2136,
      "▁33": 2137,
      "##ens": 2138,
      "▁sour": 2139,
      "▁area": 2140,
      "▁2:25": 2141,
      "##zac": 2142,
      "##ruct": 2143,
      "▁sign": 2144,
      "▁canad": 2145,
      "##ope": 2146,
      "▁na": 2147,
      "##8-3": 2148,
      "▁hea": 2149,
      "▁san": 2150,
      "##989": 2151,
      "##airs": 2152,
      "▁+45": 2153,
      "▁fur": 2154,
      "▁619": 2155,
      "▁find": 2156,
      "▁4:00": 2157,
      "▁5:00": 2158,
      "▁sixty": 2159,
      "▁late": 2160,
      "▁1955": 2161,
      "▁act": 2162,
      "##ن": 2163,
      "##eap": 2164,
      "σ": 2165,
      "##7": 2166,
      "▁hair": 2167,
      "▁150,000": 2168,
      "▁29": 2169,
      "##­": 2170,
      "##!": 2171,
      "▁effort": 2172,
      "##ould": 2173,
      "##ified": 2174,
      "▁discuss": 2175,
      "##________________": 2176,
      "▁years": 2177,
      "##amm": 2178,
      "▁650": 2179,
      "##fe": 2180,
      "▁arg": 2181,
      "##84": 2182,
      "▁lo": 2183,
      "▁nat": 2184,
      "▁???": 2185,
      "##ead": 2186,
      "▁alber": 2187,
      "▁creat": 2188,
      "▁1841": 2189,
      "▁'ve": 2190,
      "##arch": 2191,
      "▁1738": 2192,
      "▁315": 2193,
      "▁daddy": 2194,
      "##co": 2195,
      "▁makes": 2196,
      "##ds": 2197,
      "##ices": 2198,
      "▁ach": 2199,
      "▁i": 2200,
      "▁unless": 2201,
      "##ə": 2202,
      "▁713-654-128": 2203,
      "▁q": 2204,
      "##ped": 2205,
      "##bs": 2206,
      "▁416-865-370": 2207,
      "#": 2208,
      "▁happy": 2209,
      "##:05": 2210,
      "▁pot": 2211,
      "▁03/2": 2212,
      "▁here": 2213,
      "##.863": 2214,
      "▁clim": 2215,
      "▁99": 2216,
      "##41": 2217,
      "▁neither": 2218,
      "▁10": 2219,
      "##:15": 2220,
      "▁co": 2221,
      "▁ai": 2222,
      "▁el": 2223,
      "##oh": 2224,
      ")": 2225,
      "▁201": 2226,
      "▁12:3": 2227,
      "##68": 2228,
      "##anta": 2229,
      "▁1896": 2230,
      "▁888": 2231,
      "▁3,202.61": 2232,
      "##ision": 2233,
      "▁2.00": 2234,
      "▁view": 2235,
      "##hip": 2236,
      "##?": 2237,
      "▁95": 2238,
      "▁park": 2239,
      "▁save": 2240,
      "’": 2241,
      "##der": 2242,
      "▁very": 2243,
      "▁1978": 2244,
      "##ving": 2245,
      "##'": 2246,
      "▁third": 2247,
      "▁will": 2248,
      "▁aust": 2249,
      "##ased": 2250,
      "▁1504": 2251,
      "▁hur": 2252,
      "▁behin": 2253,
      "▁03/0": 2254,
      "##/2005": 2255,
      "▁59": 2256,
      "▁won": 2257,
      "▁2013": 2258,
      "▁unto": 2259,
      "▁1878": 2260,
      "##------": 2261,
      "▁#": 2262,
      "°": 2263,
      "▁hi": 2264,
      "▁doctor": 2265,
      "▁jan": 2266,
      "▁iss": 2267,
      "▁did": 2268,
      "▁ret": 2269,
      "▁cal": 2270,
      "▁problems": 2271,
      "▁fact": 2272,
      "##e": 2273,
      "▁teach": 2274,
      "##head": 2275,
      "##od": 2276,
      "▁hop": 2277,
      "▁spec": 2278,
      "▁thous": 2279,
      "##/26/2000": 2280,
      "##velop": 2281,
      "##za": 2282,
      "##6-8": 2283,
      "▁would": 2284,
      "▁dur": 2285,
      "▁women": 2286,
      "▁te": 2287,
      "▁down": 2288,
      "▁via": 2289,
      "##ning": 2290,
      "▁school": 2291,
      "▁web": 2292,
      "##}": 2293,
      "▁exc": 2294,
      "“": 2295,
      "▁wanted": 2296,
      "##oy": 2297,
      "##ult": 2298,
      "▁above": 2299,
      "##:52": 2300,
      "▁1985": 2301,
      "▁pet": 2302,
      "▁process": 2303,
      "▁94": 2304,
      "▁dist": 2305,
      "▁behind": 2306,
      "##pp": 2307,
      "▁recommend": 2308,
      "##bers": 2309,
      "▁1/4": 2310,
      "▁noon": 2311,
      "▁store": 2312,
      "##haps": 2313,
      "▁bring": 2314,
      "▁disc": 2315,
      "▁wor": 2316,
      "##raft": 2317,
      "▁strong": 2318,
      "▁information": 2319,
      "##ost": 2320,
      "▁8:15": 2321,
      "▁impro": 2322,
      "##✉": 2323,
      "##tc": 2324,
      "▁eight": 2325,
      "##ron": 2326,
      "▁plac": 2327,
      "▁apart": 2328,
      "▁cult": 2329,
      "▁1145": 2330,
      "▁home": 2331,
      "▁46": 2332,
      "▁dere": 2333,
      "▁l": 2334,
      "▁1564": 2335,
      "##uz": 2336,
      "▁747": 2337,
      "##olis": 2338,
      "▁555": 2339,
      "•": 2340,
      "▁]": 2341,
      "▁1819": 2342,
      "▁stat": 2343,
      "▁europe": 2344,
      "##omm": 2345,
      "##ling": 2346,
      "▁*": 2347,
      "▁922": 2348,
      "##thing": 2349,
      "▁main": 2350,
      "▁milwaukee": 2351,
      "##ces": 2352,
      "▁author": 2353,
      "▁actually": 2354,
      "▁89": 2355,
      "##ied": 2356,
      "▁$": 2357,
      "##cc": 2358,
      "▁11:30": 2359,
      "▁team": 2360,
      "##uc": 2361,
      "▁1-800-991-90": 2362,
      "##ex": 2363,
      "▁thy": 2364,
      "▁>": 2365,
      "##ives": 2366,
      "▁united": 2367,
      "▁taking": 2368,
      "▁06/01/2001": 2369,
      "▁made": 2370,
      "▁said": 2371,
      "##vers": 2372,
      "##80": 2373,
      "▁round": 2374,
      "▁1960": 2375,
      "▁1925": 2376,
      "▁cheapest": 2377,
      "▁least": 2378,
      "##teen": 2379,
      "##n": 2380,
      "##adelp": 2381,
      "▁eye": 2382,
      "▁americans": 2383,
      "▁3/9": 2384,
      "▁who": 2385,
      "##55": 2386,
      "##津": 2387,
      "▁august": 2388,
      "▁numerous": 2389,
      "##ogn": 2390,
      "##ton": 2391,
      "▁really": 2392,
      "##71": 2393,
      "##/17/2000": 2394,
      "▁rep": 2395,
      "##cept": 2396,
      "▁study": 2397,
      "▁1610": 2398,
      "▁especially": 2399,
      "##ably": 2400,
      "α": 2401,
      "▁list": 2402,
      "▁11/08/2000": 2403,
      "▁making": 2404,
      "▁03": 2405,
      "古": 2406,
      "▁29587": 2407,
      "▁collect": 2408,
      "##----": 2409,
      "▁charlotte": 2410,
      "ø": 2411,
      "▁+44": 2412,
      "▁besides": 2413,
      "##.2461": 2414,
      "▁687": 2415,
      "▁off": 2416,
      "##ern": 2417,
      "##ص": 2418,
      "▁1701": 2419,
      "▁line": 2420,
      "▁colle": 2421,
      "##uss": 2422,
      "▁members": 2423,
      "▁5.5": 2424,
      "▁202.456": 2425,
      "▁ll": 2426,
      "##iddle": 2427,
      "##93": 2428,
      "▁represent": 2429,
      "▁trip": 2430,
      "c": 2431,
      "##w": 2432,
      "##ment": 2433,
      "▁mil": 2434,
      "▁squ": 2435,
      "▁72": 2436,
      "▁11.5": 2437,
      "▁1787": 2438,
      "▁08/0": 2439,
      "##ent": 2440,
      "##28": 2441,
      "▁atl": 2442,
      "▁376": 2443,
      "▁number": 2444,
      "▁2030": 2445,
      "▁bow": 2446,
      "▁1588": 2447,
      "▁deter": 2448,
      "▁travel": 2449,
      "##'re": 2450,
      "##7/99": 2451,
      "▁still": 2452,
      "##:48": 2453,
      "▁balzac": 2454,
      "##ired": 2455,
      "▁quick": 2456,
      "##ys": 2457,
      "##inner": 2458,
      "▁airline": 2459,
      "##’t": 2460,
      "▁102": 2461,
      "▁proble": 2462,
      "##itive": 2463,
      "##isc": 2464,
      "▁30,000": 2465,
      "##gr": 2466,
      "##ne": 2467,
      "▁tem": 2468,
      "▁01/25/2001": 2469,
      "▁1995": 2470,
      "##ath": 2471,
      "▁1951": 2472,
      "▁07": 2473,
      "▁has": 2474,
      "▁uhoh": 2475,
      "##eng": 2476,
      "##ient": 2477,
      "▁159": 2478,
      "##7/2001": 2479,
      "▁2500": 2480,
      "▁present": 2481,
      "▁oakland": 2482,
      "▁takes": 2483,
      "▁none": 2484,
      "##183": 2485,
      "▁fam": 2486,
      "##99": 2487,
      "a": 2488,
      "▁custom": 2489,
      "▁business": 2490,
      "##iron": 2491,
      "▁done": 2492,
      "▁suggest": 2493,
      "▁120,000": 2494,
      "##gress": 2495,
      "▁202.7": 2496,
      "▁1799": 2497,
      "▁be": 2498,
      "##ke": 2499,
      "##atter": 2500,
      "η": 2501,
      "##201": 2502,
      "▁fair": 2503,
      "▁01/24/2001": 2504,
      "▁1700": 2505,
      "##gy": 2506,
      "▁earli": 2507,
      "▁inside": 2508,
      "##16": 2509,
      "▁1160": 2510,
      "▁elect": 2511,
      "▁11:45": 2512,
      "##,000,000,000": 2513,
      "##ο": 2514,
      "▁o'": 2515,
      "##ith": 2516,
      "▁11:35": 2517,
      "▁thousand": 2518,
      "▁58": 2519,
      "▁2.975": 2520,
      "▁great": 2521,
      "##uel": 2522,
      "##004": 2523,
      "▁abe": 2524,
      "▁1:00": 2525,
      "+": 2526,
      "▁107": 2527,
      "▁---": 2528,
      "▁:-)": 2529,
      "▁bi": 2530,
      "##cross": 2531,
      "▁281-443-3744": 2532,
      "##ree": 2533,
      "▁dogg": 2534,
      "▁access": 2535,
      "##sp": 2536,
      "▁'0": 2537,
      "▁11:07": 2538,
      "▁jo": 2539,
      "▁questions": 2540,
      "##-415-": 2541,
      "▁713-654-0365": 2542,
      "▁kn": 2543,
      "▁202.456.1414": 2544,
      "▁hope": 2545,
      "▁th": 2546,
      "▁airl": 2547,
      "▁whil": 2548,
      "▁6871082": 2549,
      "▁1944": 2550,
      "▁boston": 2551,
      "▁dr": 2552,
      "▁2050": 2553,
      "##ont": 2554,
      "##æ": 2555,
      "##ists": 2556,
      "##un": 2557,
      "▁hotel": 2558,
      "▁sty": 2559,
      "▁del": 2560,
      "##m": 2561,
      "▁cam": 2562,
      "##f": 2563,
      "▁sec": 2564,
      "▁07/17/2000": 2565,
      "##ending": 2566,
      "▁2021": 2567,
      "▁iv": 2568,
      "##ot": 2569,
      "▁1.00": 2570,
      "▁ago": 2571,
      "##ior": 2572,
      "##ris": 2573,
      "▁57": 2574,
      "▁!!!": 2575,
      "▁airport": 2576,
      "▁1754": 2577,
      "##ating": 2578,
      "▁2011": 2579,
      "▁pretty": 2580,
      "▁shop": 2581,
      "▁couple": 2582,
      "▁575": 2583,
      "▁wr": 2584,
      "▁mother": 2585,
      "▁748": 2586,
      "▁mom": 2587,
      "##asing": 2588,
      "▁850": 2589,
      "▁160": 2590,
      "▁job": 2591,
      "▁af": 2592,
      "▁dress": 2593,
      "▁&amp;": 2594,
      "▁—": 2595,
      "▁2002": 2596,
      "▁61": 2597,
      "▁kill": 2598,
      "##ove": 2599,
      "▁organ": 2600,
      "▁sit": 2601,
      "##low": 2602,
      "##lish": 2603,
      "▁environment": 2604,
      "υ": 2605,
      "##5,000": 2606,
      "##ided": 2607,
      "##66": 2608,
      "▁6.00": 2609,
      "▁0590": 2610,
      "##ا": 2611,
      "▁15,000": 2612,
      "##ι": 2613,
      "▁particip": 2614,
      "▁2,000": 2615,
      "▁aff": 2616,
      "ʁ": 2617,
      "▁77": 2618,
      "▁num": 2619,
      "[": 2620,
      "##____": 2621,
      "▁eating": 2622,
      "##-3": 2623,
      "##velopment": 2624,
      "▁things": 2625,
      "##--": 2626,
      "##ized": 2627,
      "▁di": 2628,
      "▁11/7": 2629,
      "▁rese": 2630,
      "▁thinking": 2631,
      "▁mo": 2632,
      "▁scient": 2633,
      "▁had": 2634,
      "▁current": 2635,
      "▁enron": 2636,
      "▁05/25/2001": 2637,
      "▁thirty-five": 2638,
      "▁416-865-3": 2639,
      "▁wait": 2640,
      "▁05:37": 2641,
      "▁camp": 2642,
      "g": 2643,
      "司": 2644,
      "▁eu": 2645,
      "##attle": 2646,
      "▁small": 2647,
      "▁mov": 2648,
      "▁14": 2649,
      "▁3.2": 2650,
      "▁chicken": 2651,
      "##:16": 2652,
      "##ate": 2653,
      "##icago": 2654,
      "▁hist": 2655,
      "▁experience": 2656,
      "▁somebody": 2657,
      "##,950": 2658,
      "▁bur": 2659,
      "##our": 2660,
      "▁713-79": 2661,
      "▁2:30": 2662,
      "▁1.1": 2663,
      "▁she": 2664,
      "##87": 2665,
      "▁02/2": 2666,
      "▁jwww": 2667,
      "▁y": 2668,
      "▁dep": 2669,
      "▁09:": 2670,
      "##idence": 2671,
      "##:/": 2672,
      "▁s": 2673,
      "▁instead": 2674,
      "▁when": 2675,
      "▁minutes": 2676,
      "r": 2677,
      "▁say": 2678,
      "##ob": 2679,
      "▁among": 2680,
      "▁short": 2681,
      "##s": 2682,
      "▁working": 2683,
      "▁62": 2684,
      "##.30": 2685,
      "▁6/1": 2686,
      "▁lar": 2687,
      "##-0": 2688,
      "▁story": 2689,
      "▁invest": 2690,
      "▁exist": 2691,
      "▁first": 2692,
      "##ider": 2693,
      "▁800.713.8600": 2694,
      "##itions": 2695,
      "▁bad": 2696,
      "▁eas": 2697,
      "▁soc": 2698,
      "▁713-853-": 2699,
      "▁beach": 2700,
      "▁top": 2701,
      "▁ou": 2702,
      "##orrow": 2703,
      "##33": 2704,
      "##口": 2705,
      "##109": 2706,
      "##ane": 2707,
      "▁2.5": 2708,
      "##ɑ": 2709,
      "▁univers": 2710,
      "##een": 2711,
      "▁spr": 2712,
      "▁roman": 2713,
      "▁10:00": 2714,
      "▁says": 2715,
      "▁1892": 2716,
      "##880": 2717,
      "##ife": 2718,
      "##-20-": 2719,
      "▁weeks": 2720,
      "▁case": 2721,
      "▁cre": 2722,
      "▁belie": 2723,
      "##ff": 2724,
      "##one": 2725,
      "##ins": 2726,
      "▁buy": 2727,
      "▁sixteen": 2728,
      "##27": 2729,
      "▁while": 2730,
      "▁happened": 2731,
      "▁2.3": 2732,
      "▁713.8": 2733,
      "▁72,000": 2734,
      "##ile": 2735,
      "▁please": 2736,
      "##澹": 2737,
      "##ad": 2738,
      "##ement": 2739,
      "▁tomorrow": 2740,
      "##67": 2741,
      "##867": 2742,
      "##.621": 2743,
      "▁sev": 2744,
      "▁pe": 2745,
      "▁1613": 2746,
      "▁astr": 2747,
      "▁humaine": 2748,
      "▁281-435-": 2749,
      "▁197": 2750,
      "▁1561": 2751,
      "##ation": 2752,
      "▁3.7": 2753,
      "▁july": 2754,
      "##????": 2755,
      "▁as": 2756,
      "##pt": 2757,
      "##,008": 2758,
      "▁intern": 2759,
      "▁bn": 2760,
      "##oug": 2761,
      "▁90": 2762,
      "▁42": 2763,
      "##09": 2764,
      "▁worth": 2765,
      "▁92": 2766,
      "##-99": 2767,
      "▁par": 2768,
      "▁often": 2769,
      "▁def": 2770,
      "▁easy": 2771,
      "##ver": 2772,
      "▁rock": 2773,
      "▁milit": 2774,
      "▁member": 2775,
      "▁6871082#": 2776,
      "##omen": 2777,
      "▁teh": 2778,
      "##`": 2779,
      "▁195": 2780,
      "##:30": 2781,
      "##7/2000": 2782,
      "▁1947": 2783,
      "##:01": 2784,
      "##__": 2785,
      "▁74419": 2786,
      "##@ect": 2787,
      "▁852": 2788,
      "▁888.916.718": 2789,
      "▁food": 2790,
      "▁·": 2791,
      "▁piece": 2792,
      "##irl": 2793,
      "▁175": 2794,
      "▁6.2": 2795,
      "##icult": 2796,
      "▁sh": 2797,
      "▁1-800-991-9019": 2798,
      "t": 2799,
      "##3/2000": 2800,
      "##www": 2801,
      "▁dc": 2802,
      "##43": 2803,
      "▁aw": 2804,
      "##ipp": 2805,
      "²": 2806,
      "▁1609": 2807,
      "▁w/": 2808,
      "▁1937": 2809,
      "▁.....": 2810,
      "##ott": 2811,
      "▁requ": 2812,
      "##az": 2813,
      "▁reason": 2814,
      "▁pittsburgh": 2815,
      "▁exp": 2816,
      "▁price": 2817,
      "▁whom": 2818,
      "€": 2819,
      "##iqu": 2820,
      "▁sort": 2821,
      "▁202.456.1111": 2822,
      "##es": 2823,
      "▁bl": 2824,
      "##ik": 2825,
      "▁512": 2826,
      "▁425": 2827,
      "▁7:30": 2828,
      "##111": 2829,
      "##ats": 2830,
      "##-00": 2831,
      "▁_": 2832,
      "▁1635": 2833,
      "##89": 2834,
      "▁town": 2835,
      "##490": 2836,
      "▁kids": 2837,
      "▁1/2": 2838,
      "##x": 2839,
      "▁bal": 2840,
      "▁ben": 2841,
      "▁israel": 2842,
      "▁3.": 2843,
      "##miss": 2844,
      "▁exce": 2845,
      "##osite": 2846,
      "▁---------------------------------": 2847,
      "▁life": 2848,
      "▁star": 2849,
      "##1696": 2850,
      "##ization": 2851,
      "##hing": 2852,
      "##ion": 2853,
      "▁64": 2854,
      "▁knew": 2855,
      "▁260": 2856,
      "▁5.3": 2857,
      "▁typ": 2858,
      "▁gl": 2859,
      "▁2006": 2860,
      "▁759933": 2861,
      "▁secur": 2862,
      "▁5/18": 2863,
      "##ensive": 2864,
      "▁24.7": 2865,
      "##ures": 2866,
      "▁1593": 2867,
      "▁sen": 2868,
      "##ward": 2869,
      "▁50": 2870,
      "##ap": 2871,
      "▁fight": 2872,
      "##aining": 2873,
      "▁7484": 2874,
      "##2000": 2875,
      "##my": 2876,
      "▁north": 2877,
      "▁12:42": 2878,
      "▁water": 2879,
      "▁**": 2880,
      "##ab": 2881,
      "▁washing": 2882,
      "▁g": 2883,
      "##.8": 2884,
      "##fer": 2885,
      "▁email": 2886,
      "▁micro": 2887,
      "▁opt": 2888,
      "▁po": 2889,
      "##]": 2890,
      "##ness": 2891,
      "##op": 2892,
      "##book": 2893,
      "▁1579": 2894,
      "▁history": 2895,
      "▁mu": 2896,
      "##/03/2001": 2897,
      "##te": 2898,
      "▁11": 2899,
      "▁9/11": 2900,
      "♥": 2901,
      "▁place": 2902,
      "▁80,000": 2903,
      "ا": 2904,
      "##53-3119": 2905,
      "▁whereas": 2906,
      "##:50": 2907,
      "▁1777": 2908,
      "▁12:30": 2909,
      "▁dom": 2910,
      "▁3.5": 2911,
      "##****************": 2912,
      "▁bea": 2913,
      "▁half": 2914,
      "##/17/99": 2915,
      "▁sunday": 2916,
      "▁of": 2917,
      "▁250": 2918,
      "##/9": 2919,
      "##ately": 2920,
      "##ial": 2921,
      "##oph": 2922,
      "▁ans": 2923,
      "##p": 2924,
      "▁.2": 2925,
      "##raw": 2926,
      "##.25": 2927,
      "##ric": 2928,
      "##cum": 2929,
      "▁ano": 2930,
      "▁dose": 2931,
      "##ite": 2932,
      "▁42,000": 2933,
      "ˈ": 2934,
      "▁1724": 2935,
      "▁thought": 2936,
      "##oup": 2937,
      "▁post": 2938,
      "▁everything": 2939,
      "▁amongst": 2940,
      "##ays": 2941,
      "▁under": 2942,
      "##-": 2943,
      "▁forth": 2944,
      "##ences": 2945,
      "##:": 2946,
      "▁08:30": 2947,
      "##ability": 2948,
      "³": 2949,
      "##46": 2950,
      "▁417": 2951,
      "▁april": 2952,
      "##aim": 2953,
      "##at": 2954,
      "##st": 2955,
      "##iting": 2956,
      "▁send": 2957,
      "##ited": 2958,
      "▁word": 2959,
      "▁48": 2960,
      "▁consider": 2961,
      "`": 2962,
      "▁345": 2963,
      "▁obs": 2964,
      "##ough": 2965,
      "##res": 2966,
      "##>": 2967,
      "##umb": 2968,
      "##874": 2969,
      "▁indust": 2970,
      "##72": 2971,
      "▁need": 2972,
      "▁09/16/99": 2973,
      "##ics": 2974,
      "▁probably": 2975,
      "▁tr": 2976,
      "##587": 2977,
      "▁ec": 2978,
      "##600": 2979,
      "##noon": 2980,
      "▁mem": 2981,
      "##½": 2982,
      "▁2014": 2983,
      "##301": 2984,
      "##ast": 2985,
      "况": 2986,
      "▁shakespeare": 2987,
      "▁specific": 2988,
      "▁var": 2989,
      "▁walk": 2990,
      "▁poor": 2991,
      "##³": 2992,
      "▁19": 2993,
      "##$": 2994,
      "##ty": 2995,
      "▁1822": 2996,
      "▁educ": 2997,
      "▁charl": 2998,
      "▁looked": 2999,
      "##um": 3000,
      "▁1875": 3001,
      "##60": 3002,
      "▁surpr": 3003,
      "▁av": 3004,
      "▁comm": 3005,
      "▁1902": 3006,
      "##0295": 3007,
      "▁course": 3008,
      "▁huma": 3009,
      "##tsbur": 3010,
      "▁une": 3011,
      "▁energ": 3012,
      "▁567.77": 3013,
      "▁3,000": 3014,
      "▁watch": 3015,
      "▁page": 3016,
      "▁quality": 3017,
      "##1-": 3018,
      "▁ge": 3019,
      "▁1689": 3020,
      "▁1849": 3021,
      "##^": 3022,
      "▁cap": 3023,
      "##ß": 3024,
      "▁163": 3025,
      "▁med": 3026,
      "##ʊ": 3027,
      "▁620-294-": 3028,
      "▁1200": 3029,
      "▁inv": 3030,
      "▁508": 3031,
      "▁res": 3032,
      "▁&amp": 3033,
      "##al": 3034,
      "▁child": 3035,
      "▁345-343": 3036,
      "##ar": 3037,
      "▁1975": 3038,
      "##ons": 3039,
      "▁1779": 3040,
      "▁conf": 3041,
      "▁truck": 3042,
      "##vil": 3043,
      "▁415.782.7822": 3044,
      "▁ens": 3045,
      "▁sand": 3046,
      "▁thurs": 3047,
      "##ian": 3048,
      "##ros": 3049,
      "##alf": 3050,
      "▁h-0": 3051,
      "▁2.9": 3052,
      "##4-79": 3053,
      "▁nice": 3054,
      "▁dad": 3055,
      "##enty": 3056,
      "▁05/30/2001": 3057,
      "##38": 3058,
      "▁ju": 3059,
      "子": 3060,
      "▁cook": 3061,
      "▁01": 3062,
      "▁no-": 3063,
      "▁1914": 3064,
      "▁wil": 3065,
      "##up": 3066,
      "▁important": 3067,
      "▁apr": 3068,
      "▁int": 3069,
      "d": 3070,
      "##enron": 3071,
      "▁throw": 3072,
      "▁sor": 3073,
      "▁http://": 3074,
      "▁proper": 3075,
      "##24": 3076,
      "▁83": 3077,
      "▁past": 3078,
      "▁inter": 3079,
      "▁fell": 3080,
      "▁(": 3081,
      "▁vi": 3082,
      "##oll": 3083,
      "▁3,": 3084,
      "##ried": 3085,
      "▁425-415-": 3086,
      "▁81": 3087,
      "▁630": 3088,
      "▁la": 3089,
      "▁03/08/2000": 3090,
      "▁away": 3091,
      "▁looking": 3092,
      "##ility": 3093,
      "##23": 3094,
      "##/2004": 3095,
      "▁boy": 3096,
      "##ort": 3097,
      "▁green": 3098,
      "▁1958": 3099,
      "▁little": 3100,
      "▁pol": 3101,
      "▁6,000": 3102,
      "▁281": 3103,
      "▁betw": 3104,
      "▁7.2": 3105,
      "##cuz": 3106,
      "▁1604": 3107,
      "##app": 3108,
      "##ondon": 3109,
      "▁address": 3110,
      "▁wear": 3111,
      "##ft": 3112,
      "▁ra": 3113,
      "▁11/28/2000": 3114,
      "p": 3115,
      "▁kind": 3116,
      "##3-37": 3117,
      "▁night": 3118,
      "##used": 3119,
      "▁u": 3120,
      "▁dollars": 3121,
      "##ection": 3122,
      "##ised": 3123,
      "▁1/8": 3124,
      "▁their": 3125,
      "##ued": 3126,
      "▁perhaps": 3127,
      "▁lead": 3128,
      "▁orlando": 3129,
      "▁1530": 3130,
      "▁703": 3131,
      "▁court": 3132,
      "▁yet": 3133,
      "##kk": 3134,
      "##:39": 3135,
      "▁an": 3136,
      "▁sent": 3137,
      "▁483": 3138,
      "▁10:45": 3139,
      "##ʁ": 3140,
      "##η": 3141,
      "▁went": 3142,
      "##lud": 3143,
      "##ud": 3144,
      "##age": 3145,
      "▁+": 3146,
      "ι": 3147,
      "▁1981": 3148,
      "▁3:00": 3149,
      "▁places": 3150,
      "##aking": 3151,
      "▁cour": 3152,
      "▁730": 3153,
      "▁eng": 3154,
      "##round": 3155,
      "▁5/1": 3156,
      "▁train": 3157,
      "▁est": 3158,
      "▁aug": 3159,
      "▁friday": 3160,
      "▁5000": 3161,
      "-": 3162,
      "##ality": 3163,
      "▁chang": 3164,
      "▁2": 3165,
      "▁1.": 3166,
      "##ended": 3167,
      "▁indian": 3168,
      "##utes": 3169,
      "##46-3393": 3170,
      "##96": 3171,
      "▁such": 3172,
      "▁1800": 3173,
      "##ome": 3174,
      "##urn": 3175,
      "▁xii": 3176,
      "▁3-5": 3177,
      "▁--": 3178,
      "▁needs": 3179,
      "▁succ": 3180,
      "##oney": 3181,
      "##iction": 3182,
      "▁pr": 3183,
      "##夏": 3184,
      "##8806": 3185,
      "##int": 3186,
      "##ission": 3187,
      "▁2022": 3188,
      "##wh": 3189,
      "##·": 3190,
      "▁once": 3191,
      "##ever": 3192,
      "##ther": 3193,
      "▁write": 3194,
      "##body": 3195,
      "▁1992": 3196,
      "▁10:25": 3197,
      "▁1847": 3198,
      "▁1780": 3199,
      "##460-3": 3200,
      "##:57": 3201,
      "##icle": 3202,
      "▁dkk": 3203,
      "##aper": 3204,
      "▁phil": 3205,
      "▁drink": 3206,
      "##vern": 3207,
      "▁problem": 3208,
      "##-9": 3209,
      "▁felt": 3210,
      "▁mid": 3211,
      "▁much": 3212,
      "▁1560": 3213,
      "▁1949": 3214,
      "##g": 3215,
      "##ck": 3216,
      "▁sound": 3217,
      "##ars": 3218,
      "##ards": 3219,
      "▁947": 3220,
      "▁mar": 3221,
      "▁ele": 3222,
      "▁1832": 3223,
      "##he": 3224,
      "▁nose": 3225,
      "##19": 3226,
      "▁twel": 3227,
      "##oc": 3228,
      "##ether": 3229,
      "▁ve": 3230,
      "##eral": 3231,
      "▁181": 3232,
      "▁1110": 3233,
      "▁billion": 3234,
      "▁mouth": 3235,
      "▁parents": 3236,
      "▁during": 3237,
      "##-3989": 3238,
      "▁1831": 3239,
      "##€": 3240,
      "▁newark": 3241,
      "##44": 3242,
      "▁:": 3243,
      "▁dallas": 3244,
      "##om": 3245,
      "▁1585": 3246,
      "▁part": 3247,
      "##ross": 3248,
      "##ories": 3249,
      "▁started": 3250,
      "▁orland": 3251,
      "▁yo": 3252,
      "▁struct": 3253,
      "##its": 3254,
      "▁ant": 3255,
      "▁contin": 3256,
      "##stop": 3257,
      "▁03/02/2001": 3258,
      "▁loc": 3259,
      "##elf": 3260,
      "▁lad": 3261,
      "▁pittsbur": 3262,
      "##akes": 3263,
      "▁34": 3264,
      "▁1989": 3265,
      "▁.doc": 3266,
      "_": 3267,
      "##ues": 3268,
      "▁100,000": 3269,
      "▁order": 3270,
      "▁president": 3271,
      "##sus": 3272,
      "▁language": 3273,
      "▁playing": 3274,
      "▁rec": 3275,
      "▁den": 3276,
      "##ro": 3277,
      "▁denver": 3278,
      "▁god": 3279,
      "▁trying": 3280,
      "▁412": 3281,
      "▁m": 3282,
      "▁dozen": 3283,
      "▁twenty-two": 3284,
      "##-)": 3285,
      "##ows": 3286,
      "##ي": 3287,
      "▁require": 3288,
      "▁05": 3289,
      "##h": 3290,
      "▁04:28": 3291,
      "▁speak": 3292,
      "##º": 3293,
      "▁50000": 3294,
      "▁wonder": 3295,
      "▁1833": 3296,
      "##:11": 3297,
      "▁blue": 3298,
      "▁08": 3299,
      "▁1647": 3300,
      "▁11/27/2000": 3301,
      "##.11": 3302,
      "θ": 3303,
      "##uation": 3304,
      "▁saw": 3305,
      "##anding": 3306,
      "▁link": 3307,
      "φ": 3308,
      "▁bath": 3309,
      "▁pl": 3310,
      "▁look": 3311,
      "/": 3312,
      "▁pict": 3313,
      "▁03:48": 3314,
      "2": 3315,
      "##istan": 3316,
      "##tr": 3317,
      "##202": 3318,
      "▁1900": 3319,
      "▁!!": 3320,
      "▁&": 3321,
      "▁2:00": 3322,
      "▁pract": 3323,
      "▁1599": 3324,
      "▁’re": 3325,
      "▁91": 3326,
      "▁attack": 3327,
      "##.com": 3328,
      "##are": 3329,
      "▁progr": 3330,
      "##414": 3331,
      "▁120": 3332,
      "##ash": 3333,
      "##3-": 3334,
      "}": 3335,
      "##urch": 3336,
      "▁env": 3337,
      "▁toronto": 3338,
      "##1/2001": 3339,
      "▁~": 3340,
      "▁eff": 3341,
      "▁move": 3342,
      "##:3": 3343,
      "▁washington": 3344,
      "▁v": 3345,
      "##ively": 3346,
      "▁believe": 3347,
      "▁committ": 3348,
      "##ase": 3349,
      "▁at": 3350,
      "▁black": 3351,
      "空": 3352,
      "##ν": 3353,
      "##د": 3354,
      "▁init": 3355,
      "▁test": 3356,
      "▁dan": 3357,
      "▁1614": 3358,
      "##eck": 3359,
      "##/8": 3360,
      "##eld": 3361,
      "▁cont": 3362,
      "▁hurt": 3363,
      "▁hours": 3364,
      "▁hundred": 3365,
      "ß": 3366,
      "▁happ": 3367,
      "##go": 3368,
      "▁510-642": 3369,
      "##wau": 3370,
      "▁desc": 3371,
      "▁8.3": 3372,
      "▁unles": 3373,
      "▁bear": 3374,
      "▁s/he": 3375,
      "▁meeting": 3376,
      "##.10": 3377,
      "▁din": 3378,
      "▁fly": 3379,
      "▁1943": 3380,
      "##us": 3381,
      "▁mean": 3382,
      "##ocr": 3383,
      "▁350": 3384,
      "▁support": 3385,
      "{": 3386,
      "▁1505": 3387,
      "##ush": 3388,
      "##30": 3389,
      "▁mine": 3390,
      "##ters": 3391,
      "▁funny": 3392,
      "▁cor": 3393,
      "▁!!!!!!!!!!!": 3394,
      "##iod": 3395,
      "清": 3396,
      "▁80435": 3397,
      "##.713.8": 3398,
      "▁country": 3399,
      "▁else": 3400,
      "ρ": 3401,
      "▁counter": 3402,
      "▁room": 3403,
      "▁nothing": 3404,
      "##enix": 3405,
      "##-5": 3406,
      "▁1840": 3407,
      "▁afternoon": 3408,
      "##aur": 3409,
      "▁account": 3410,
      "▁les": 3411,
      "▁same": 3412,
      "▁dwww": 3413,
      "▁difficult": 3414,
      "▁1.3": 3415,
      "##ula": 3416,
      "▁admin": 3417,
      "▁appro": 3418,
      "##3": 3419,
      "##:45": 3420,
      "##和": 3421,
      "?": 3422,
      "▁fill": 3423,
      "##beit": 3424,
      "##selves": 3425,
      "▁cheap": 3426,
      "▁question": 3427,
      "▁.": 3428,
      "▁lest": 3429,
      "▁10:56": 3430,
      "▁er": 3431,
      "▁what": 3432,
      "▁philadelp": 3433,
      "##angu": 3434,
      "##ults": 3435,
      "▁300": 3436,
      "▁mer": 3437,
      "▁31": 3438,
      "▁1801": 3439,
      "▁ahead": 3440,
      "▁6.1": 3441,
      ":": 3442,
      "▁bas": 3443,
      "▁fourteen": 3444,
      "▁sho": 3445,
      "▁effect": 3446,
      "▁whole": 3447,
      "▁763736": 3448,
      "4": 3449,
      "##ry": 3450,
      "▁euro": 3451,
      "##over": 3452,
      "ɔ": 3453,
      "▁1709": 3454,
      "&": 3455,
      "▁96": 3456,
      "$": 3457,
      "##utions": 3458,
      "k": 3459,
      "º": 3460,
      "✉": 3461,
      "##65-3": 3462,
      "▁gener": 3463,
      "▁ne": 3464,
      "##/30": 3465,
      "##ted": 3466,
      "##ph": 3467,
      "##ither": 3468,
      "▁fig": 3469,
      "▁47": 3470,
      "▁hit": 3471,
      "##/01": 3472,
      "▁bird": 3473,
      "##gan": 3474,
      "▁1993": 3475,
      "▁4.7": 3476,
      "0": 3477,
      "##ɛ": 3478,
      "##.70": 3479,
      "▁eighteen": 3480,
      "▁win": 3481,
      "▁281-518": 3482,
      "▁im": 3483,
      "##.123": 3484,
      "##ams": 3485,
      "▁you": 3486,
      "▁1859": 3487,
      "▁11:32": 3488,
      "▁39": 3489,
      "##5": 3490,
      "▁320": 3491,
      "▁development": 3492,
      "▁help": 3493,
      "##ub": 3494,
      "▁2000": 3495,
      "▁01/12/2001": 3496,
      "##ror": 3497,
      "▁someone": 3498,
      "▁compan": 3499,
      "▁ye": 3500,
      "▁alongside": 3501,
      "▁154": 3502,
      "▁app": 3503,
      "##sid": 3504,
      "##ular": 3505,
      "##σ": 3506,
      "▁draw": 3507,
      "▁birth": 3508,
      "##ural": 3509,
      "▁build": 3510,
      "##.0": 3511,
      "##ically": 3512,
      "##huh": 3513,
      "▁dat": 3514,
      "##it": 3515,
      "▁1307": 3516,
      "##,0": 3517,
      "▁22": 3518,
      "##pr": 3519,
      "▁ext": 3520,
      "##to": 3521,
      "▁dey": 3522,
      "▁01/1": 3523,
      "▁mon": 3524,
      "▁economic": 3525,
      "##449": 3526,
      "▁twenty": 3527,
      "##:20": 3528,
      "▁203": 3529,
      "##elp": 3530,
      "##ier": 3531,
      "##ince": 3532,
      "▁196": 3533,
      "▁10,000": 3534,
      "▁02": 3535,
      "##ut": 3536,
      "▁start": 3537,
      "▁’s": 3538,
      "##42": 3539,
      "▁713/": 3540,
      "##ms": 3541,
      "##☎": 3542,
      "▁415.621": 3543,
      "▁1830": 3544,
      "▁1245": 3545,
      "ح": 3546,
      "##no": 3547,
      "##ta": 3548,
      "▁1983": 3549,
      "##hn": 3550,
      "▁pm": 3551,
      "##ute": 3552,
      "##空": 3553,
      "▁05/17/99": 3554,
      "##ity": 3555,
      "##ary": 3556,
      "▁veg": 3557,
      "▁my": 3558,
      "▁69": 3559,
      "图": 3560,
      "▁control": 3561,
      "##79": 3562,
      "▁financ": 3563,
      "##/30/2001": 3564,
      "##ist": 3565,
      "▁huh": 3566,
      "▁found": 3567,
      "##aff": 3568,
      "▁fir": 3569,
      "▁4,": 3570,
      "▁wh": 3571,
      "▁peop": 3572,
      "##================================": 3573,
      "▁d'": 3574,
      "##gh": 3575,
      "##lic": 3576,
      "▁bag": 3577,
      "##-625": 3578,
      "▁tho": 3579,
      "##!!!!": 3580,
      "##air": 3581,
      "▁finish": 3582,
      "▁40,000": 3583,
      "▁kitt": 3584,
      "▁due": 3585,
      "▁dem": 3586,
      "▁pull": 3587,
      "▁offic": 3588,
      "▁2.0": 3589,
      "▁accord": 3590,
      "▁`s": 3591,
      "##er": 3592,
      "##.718": 3593,
      "##orm": 3594,
      "▁forty-": 3595,
      "▁anim": 3596,
      "▁horse": 3597,
      "##ivid": 3598,
      "▁rel": 3599,
      "▁04": 3600,
      "##91": 3601,
      "##lus": 3602,
      "##65": 3603,
      "▁ad": 3604,
      "▁410-468-3": 3605,
      "▁718": 3606,
      "▁grand": 3607,
      "▁rob": 3608,
      "▁leave": 3609,
      "##aken": 3610,
      "▁curren": 3611,
      "▁ya": 3612,
      "▁twenty-": 3613,
      "##-8031": 3614,
      "▁cop": 3615,
      "▁gen": 3616,
      "▁texas": 3617,
      "▁paper": 3618,
      "##-50": 3619,
      "▁02/27/2001": 3620,
      "##ah": 3621,
      "▁hand": 3622,
      "##eth": 3623,
      "▁forward": 3624,
      "▁techn": 3625,
      "##doc": 3626,
      "▁bec": 3627,
      "▁european": 3628,
      "▁hell": 3629,
      "▁change": 3630,
      "▁pric": 3631,
      "▁fifty": 3632,
      "奈": 3633,
      "##ies": 3634,
      "▁wou": 3635,
      "▁1962": 3636,
      "▁street": 3637,
      "▁allow": 3638,
      "▁bab": 3639,
      "##work": 3640,
      "##irt": 3641,
      "▁cur": 3642,
      "▁comedie": 3643,
      "▁3:30": 3644,
      "▁used": 3645,
      "▁01/19/2001": 3646,
      "▁1230": 3647,
      "##12": 3648,
      "##self": 3649,
      "▁1982": 3650,
      "£": 3651,
      "##7.77": 3652,
      "▁establish": 3653,
      "##oun": 3654,
      "##ink": 3655,
      "▁\"": 3656,
      "##-36": 3657,
      "▁society": 3658,
      "▁1970": 3659,
      "▁put": 3660,
      "##ave": 3661,
      "▁'em": 3662,
      "▁next": 3663,
      "▁wilt": 3664,
      "☎": 3665,
      "▁01:39:56": 3666,
      "▁12:12": 3667,
      "▁1699": 3668,
      "▁philadelphia": 3669,
      "##/01/2001": 3670,
      "▁fine": 3671,
      "▁11608": 3672,
      "▁family": 3673,
      "▁con": 3674,
      "▁feel": 3675,
      "▁state": 3676,
      "##4/2000": 3677,
      "▁now": 3678,
      "##ɔ": 3679,
      "▁sur": 3680,
      "=": 3681,
      "▁fr": 3682,
      "\\": 3683,
      "▁200": 3684,
      "▁attached": 3685,
      "▁1821": 3686,
      "##ansas": 3687,
      "##;": 3688,
      "▁ins": 3689,
      "▁geor": 3690,
      "▁fil": 3691,
      "▁treat": 3692,
      "h": 3693,
      "▁45": 3694,
      "▁thirteen": 3695,
      "##key": 3696,
      "##73": 3697,
      "▁show": 3698,
      "##_0": 3699,
      "▁mod": 3700,
      "##@enron": 3701,
      "##by": 3702,
      "##.00": 3703,
      "▁rece": 3704,
      "▁aside": 3705,
      "▁forty": 3706,
      "▁percent": 3707,
      "▁abo": 3708,
      "##/10/2000": 3709,
      "##/13/2001": 3710,
      "▁till": 3711,
      "##aster": 3712,
      "▁113": 3713,
      "▁whe": 3714,
      "##port": 3715,
      "▁10/2": 3716,
      "##34": 3717,
      "▁71": 3718,
      "##-37": 3719,
      "▁flights": 3720,
      "▁76": 3721,
      "▁form": 3722,
      "▁129": 3723,
      "##rect": 3724,
      "##alk": 3725,
      "▁seattle": 3726,
      "▁860": 3727,
      "▁near": 3728,
      "##20-": 3729,
      "▁ey": 3730,
      "▁51": 3731,
      "##day": 3732,
      "##:37": 3733,
      "▁639": 3734,
      "##-991-90": 3735,
      "▁come": 3736,
      "▁event": 3737,
      "▁arriving": 3738,
      "▁having": 3739,
      "##53-3": 3740,
      "3": 3741,
      "##822": 3742,
      "▁fav": 3743,
      "▁rem": 3744,
      "▁summ": 3745,
      "▁202": 3746,
      "▁long": 3747,
      "▁several": 3748,
      "##y": 3749,
      "▁amid": 3750,
      "▁mm": 3751,
      "▁prop": 3752,
      "##ries": 3753,
      "▁12/26/2000": 3754,
      "▁re": 3755,
      "##iss": 3756,
      "##uth": 3757,
      "##ium": 3758,
      "▁11:16": 3759,
      "▁wish": 3760,
      "▁lim": 3761,
      "##49": 3762,
      "▁gone": 3763,
      "▁cir": 3764,
      "##ause": 3765,
      "▁own": 3766,
      "▁‘’": 3767,
      "▁sea": 3768,
      "▁fund": 3769,
      "##ue": 3770,
      "##ark": 3771,
      "##/10": 3772,
      "##子": 3773,
      "##://": 3774,
      "▁alth": 3775,
      "##-642": 3776,
      "▁210": 3777,
      "##°": 3778,
      "▁08/16": 3779,
      "▁sk": 3780,
      "▁lear": 3781,
      "▁entire": 3782,
      "##奈": 3783,
      "▁activ": 3784,
      "▁eleven": 3785,
      "▁300,000": 3786,
      "▁1976": 3787,
      "y": 3788,
      "##03": 3789,
      "▁pro": 3790,
      "##ge": 3791,
      "▁excellent": 3792,
      "▁set": 3793,
      "▁pick": 3794,
      "##ire": 3795,
      "▁1.5": 3796,
      "▁getting": 3797,
      "▁att": 3798,
      "▁ah": 3799,
      "▁mr": 3800,
      "▁1968": 3801,
      "▁giv": 3802,
      "▁maj": 3803,
      "▁thanks": 3804,
      "##-696": 3805,
      "▁after": 3806,
      "▁conc": 3807,
      "##819": 3808,
      "▁24,000": 3809,
      "▁arrive": 3810,
      "▁0.00": 3811,
      "▁excell": 3812,
      "▁today": 3813,
      "##is": 3814,
      "##200": 3815,
      "▁1608": 3816,
      "##13.8": 3817,
      "…": 3818,
      "▁sett": 3819,
      "##83": 3820,
      "##ential": 3821,
      "▁2019": 3822,
      "▁1594": 3823,
      "##,9": 3824,
      "##16.718": 3825,
      "▁23": 3826,
      "▁j": 3827,
      "▁milk": 3828,
      "##less": 3829,
      "▁polic": 3830,
      "▁1987": 3831,
      "##ner": 3832,
      "▁himself": 3833,
      "##4/2001": 3834,
      "▁wrong": 3835,
      "▁quite": 3836,
      "▁1805": 3837,
      "▁sometimes": 3838,
      "##du": 3839,
      "##-7": 3840,
      "▁super": 3841,
      "▁1952": 3842,
      "##am": 3843,
      "▁phoenix": 3844,
      "##,500": 3845,
      "▁oak": 3846,
      "▁11/0": 3847,
      "▁<<": 3848,
      "▁2,300": 3849,
      "▁ch": 3850,
      "##ʻ": 3851,
      "▁mark": 3852,
      "▁seven": 3853,
      "▁ca": 3854,
      "▁been": 3855,
      "▁um": 3856,
      "▁1205": 3857,
      "##========": 3858,
      "▁underneath": 3859,
      "##in": 3860,
      "▁1584": 3861,
      "▁1660": 3862,
      "▁he": 3863,
      "▁03:00": 3864,
      "▁manag": 3865,
      "▁into": 3866,
      "##ages": 3867,
      "▁1945": 3868,
      "▁it's": 3869,
      "##--------------------------------": 3870,
      "##~*~*": 3871,
      "▁states": 3872,
      "##erous": 3873,
      "▁the": 3874,
      "##ings": 3875,
      "##ear": 3876,
      "▁09": 3877,
      "▁why": 3878,
      "##ange": 3879,
      "▁eyes": 3880,
      "##br": 3881,
      "▁atop": 3882,
      "##ual": 3883,
      "▁day": 3884,
      "▁nineteen": 3885,
      "##amp": 3886,
      "▁back": 3887,
      "▁ninety": 3888,
      "▁live": 3889,
      "##ber": 3890,
      "##min": 3891,
      "▁asked": 3892,
      "##art": 3893,
      "##kee": 3894,
      "▁we": 3895,
      "##a": 3896,
      "##eric": 3897,
      "##io": 3898,
      "▁@": 3899,
      "▁65": 3900,
      "ν": 3901,
      "▁below": 3902,
      "##ie": 3903,
      "▁6.8": 3904,
      "▁anal": 3905,
      "##/2001": 3906,
      "##ac": 3907,
      "▁age": 3908,
      "▁1888": 3909,
      "[UNK]": 3910,
      "▁francisco": 3911,
      "▁applic": 3912,
      "▁heard": 3913,
      "▁180": 3914,
      "##9/2001": 3915,
      "▁11:00": 3916,
      "▁woman": 3917,
      "▁happen": 3918,
      "##ivers": 3919,
      "##idd": 3920,
      "##tw": 3921,
      "##ack": 3922,
      "▁1,200": 3923,
      "▁8:30": 3924,
      "▁different": 3925,
      "▁04:03": 3926,
      "##88": 3927,
      "▁mus": 3928,
      "▁regard": 3929,
      "##ften": 3930,
      "▁prot": 3931,
      "▁3724": 3932,
      "▁oil": 3933,
      "##ances": 3934,
      "▁high": 3935,
      "##ep": 3936,
      "▁30": 3937,
      "##9933": 3938,
      "▁extrem": 3939,
      "▁fo": 3940,
      "▁ask": 3941,
      "▁middle": 3942,
      "▁special": 3943,
      "▁cut": 3944,
      "▁stoy": 3945,
      "##±": 3946,
      "▁hold": 3947,
      "▁yeah": 3948,
      "▁following": 3949,
      "▁detail": 3950,
      "!": 3951,
      "▁almost": 3952,
      "▁whatever": 3953,
      "##par": 3954,
      "▁remember": 3955,
      "▁09:01": 3956,
      "▁airlines": 3957,
      "▁5,000": 3958,
      "▁op": 3959,
      "##ib": 3960,
      "▁tou": 3961,
      "##.95": 3962,
      "▁3,500": 3963,
      "▁right": 3964,
      "##most": 3965,
      "▁899": 3966,
      "▁fl": 3967,
      "▁haf": 3968,
      "▁n’t": 3969,
      "##ig": 3970,
      "##med": 3971,
      "##hia": 3972,
      "##:5": 3973,
      "##zen": 3974,
      "▁01/26/2001": 3975,
      "▁sept": 3976,
      "▁4.6": 3977,
      "##76": 3978,
      "▁=": 3979,
      "##@": 3980,
      "▁miami": 3981,
      "▁ass": 3982,
      "▁comes": 3983,
      "##ict": 3984,
      "▁serv": 3985,
      "▁conn": 3986,
      "▁en": 3987,
      "▁27": 3988,
      "▁seventy": 3989,
      "▁being": 3990,
      "▁727": 3991,
      "##@enron_development": 3992,
      "##iful": 3993,
      "##ay": 3994,
      "▁le": 3995,
      "▁cold": 3996,
      "##li": 3997,
      "##ote": 3998,
      "▁11:3": 3999,
      "##ht": 4000,
      "##wn": 4001,
      "▁september": 4002,
      "##il": 4003,
      "▁prof": 4004,
      "▁b/c": 4005,
      "##樋": 4006,
      "##ven": 4007,
      "##rop": 4008,
      "▁color": 4009,
      "▁lunch": 4010,
      "##443-37": 4011,
      "▁son": 4012,
      "▁talk": 4013,
      "▁2001": 4014,
      "▁uh": 4015,
      "▁doll": 4016,
      "▁6400": 4017,
      "##ulation": 4018,
      "▁egg": 4019,
      "##82": 4020,
      "##œ": 4021,
      "▁2012": 4022,
      "##_de": 4023,
      "##ze": 4024,
      "##itch": 4025,
      "##tim": 4026,
      "##53": 4027,
      "▁tim": 4028,
      "▁1,6": 4029,
      "##ged": 4030,
      "##ine": 4031,
      "▁might": 4032,
      "##ami": 4033,
      "▁only": 4034,
      "▁fall": 4035,
      "##4": 4036,
      "▁ok": 4037,
      "▁alright": 4038,
      "##ases": 4039,
      "▁sle": 4040,
      "▁fish": 4041,
      "▁110": 4042,
      "▁k": 4043,
      "##9": 4044,
      "▁for": 4045,
      "▁1950": 4046,
      "##id": 4047,
      "##/11/2004": 4048,
      "##ug": 4049,
      "##ming": 4050,
      "##15": 4051,
      "▁189": 4052,
      "▁supp": 4053,
      "##s.": 4054,
      "▁tried": 4055,
      "##ention": 4056,
      "▁281-435-0295": 4057,
      "▁!!!!": 4058,
      "▁sa": 4059,
      "##ollow": 4060,
      "▁meet": 4061,
      "▁able": 4062,
      "##sel": 4063,
      "##hin": 4064,
      "▁have": 4065,
      "##uck": 4066,
      "##ww": 4067,
      "##ule": 4068,
      "▁incre": 4069,
      "##…": 4070,
      "▁whenever": 4071,
      "▁420": 4072,
      "##一": 4073,
      "##/2000": 4074,
      "##11": 4075,
      "▁1592": 4076,
      "▁book": 4077,
      "▁until": 4078,
      "▁1.6": 4079,
      "##ting": 4080,
      "##ects": 4081,
      "▁55": 4082,
      "▁4.9": 4083,
      "▁:)": 4084,
      "▁33,000": 4085,
      "▁stuff": 4086,
      "##ful": 4087,
      "##led": 4088,
      "▁w": 4089,
      "##ese": 4090,
      "##700": 4091,
      "▁’d": 4092,
      "▁1880": 4093,
      "##14": 4094,
      "▁3.1": 4095
    }
  }
}