{
  "version": "1.0",
  "truncation": null,
  "padding": null,
  "added_tokens": [
    {
      "id": 5392,
      "content": "[PAD]",
      "single_word": false,
      "lstrip": false,
      "rstrip": false,
      "normalized": false,
      "special": true
    },
    {
      "id": 6181,
      "content": "[UNK]",
      "single_word": false,
      "lstrip": false,
      "rstrip": false,
      "normalized": false,
      "special": true
    },
    {
      "id": 6624,
      "content": "[SEP]",
      "single_word": false,
      "lstrip": false,
      "rstrip": false,
      "normalized": false,
      "special": true
    },
    {
      "id": 10733,
      "content": "[CLS]",
      "single_word": false,
      "lstrip": false,
      "rstrip": false,
      "normalized": false,
      "special": true
    },
    {
      "id": 13292,
      "content": "[MASK]",
      "single_word": false,
      "lstrip": false,
      "rstrip": false,
      "normalized": false,
      "special": true
    }
  ],
  "normalizer": {
    "type": "Sequence",
    "normalizers": [
      {
        "type": "NFD"
      },
      {
        "type": "Lowercase"
      },
      {
        "type": "StripAccents"
      }
    ]
  },
  "pre_tokenizer": {
    "type": "Sequence",
    "pretokenizers": [
      {
        "type": "Metaspace",
        "replacement": "▁",
        "prepend_scheme": "always",
        "split": true
      }
    ]
  },
  "post_processor": {
    "type": "TemplateProcessing",
    "single": [
      {
        "SpecialToken": {
          "id": "[CLS]",
          "type_id": 0
        }
      },
      {
        "Sequence": {
          "id": "A",
          "type_id": 0
        }
      },
      {
        "SpecialToken": {
          "id": "[SEP]",
          "type_id": 0
        }
      }
    ],
    "pair": [
      {
        "SpecialToken": {
          "id": "[CLS]",
          "type_id": 0
        }
      },
      {
        "Sequence": {
          "id": "A",
          "type_id": 0
        }
      },
      {
        "SpecialToken": {
          "id": "[SEP]",
          "type_id": 0
        }
      },
      {
        "Sequence": {
          "id": "B",
          "type_id": 1
        }
      },
      {
        "SpecialToken": {
          "id": "[SEP]",
          "type_id": 1
        }
      }
    ],
    "special_tokens": {
      "[CLS]": {
        "id": "[CLS]",
        "ids": [
          10733
        ],
        "tokens": [
          "[CLS]"
        ]
      },
      "[SEP]": {
        "id": "[SEP]",
        "ids": [
          6624
        ],
        "tokens": [
          "[SEP]"
        ]
      }
    }
  },
  "decoder": {
    "type": "Metaspace",
    "replacement": "▁",
    "prepend_scheme": "always",
    "split": true
  },
  "model": {
    "type": "WordPiece",
    "unk_token": "[UNK]",
    "continuing_subword_prefix": "##",
    "max_input_chars_per_word": 100,
    "vocab": {
      "##}": 0,
      "▁imple": 1,
      "▁417": 2,
      "▁pri": 3,
      "▁wakes": 4,
      "▁winking": 5,
      "##4th": 6,
      "▁structural": 7,
      "##oculars": 8,
      "▁shape": 9,
      "▁charitable": 10,
      "▁calc": 11,
      "##food": 12,
      "▁bland": 13,
      "▁inequ": 14,
      "##icked": 15,
      "▁meals": 16,
      "▁doctors": 17,
      "▁nov.": 18,
      "##ais": 19,
      "▁strang": 20,
      "▁129": 21,
      "▁relax": 22,
      "▁cartoons": 23,
      "▁preferences": 24,
      "##-20": 25,
      "##hh": 26,
      "##ract": 27,
      "##itage": 28,
      "▁claus": 29,
      "##erce": 30,
      "##-37": 31,
      "▁names": 32,
      "▁1/8": 33,
      "▁headed": 34,
      "▁sniff": 35,
      "▁apost": 36,
      "##oup": 37,
      "▁loose": 38,
      "##ston": 39,
      "##3": 40,
      "▁math": 41,
      "##asing": 42,
      "▁abstract": 43,
      "##irt": 44,
      "▁stuck": 45,
      "▁mich": 46,
      "▁against": 47,
      "##ww": 48,
      "▁becomes": 49,
      "▁theodorus": 50,
      "▁pivotchart": 51,
      "##ilit": 52,
      "▁great": 53,
      "▁least": 54,
      "▁unusual": 55,
      "##ged": 56,
      "▁discount": 57,
      "▁fee": 58,
      "##d-#693": 59,
      "##rich": 60,
      "##shore": 61,
      "##ouch": 62,
      "▁players": 63,
      "▁privileged": 64,
      "▁describing": 65,
      "▁relates": 66,
      "▁specified": 67,
      "▁quilis": 68,
      "##attering": 69,
      "▁karl": 70,
      "##orio": 71,
      "##enous": 72,
      "▁ros": 73,
      "▁expansion": 74,
      "▁loud": 75,
      "▁1608": 76,
      "▁shiite": 77,
      "▁thorough": 78,
      "▁tigers": 79,
      "▁spices": 80,
      "▁23": 81,
      "▁young": 82,
      "▁overc": 83,
      "##urd": 84,
      "##”": 85,
      "▁corn": 86,
      "##acc": 87,
      "▁plane": 88,
      "▁defeated": 89,
      "▁orleans": 90,
      "##r.": 91,
      "▁had": 92,
      "▁susp": 93,
      "▁ko": 94,
      "▁neo": 95,
      "▁greeting": 96,
      "▁leaders": 97,
      "▁seiz": 98,
      "▁ruth": 99,
      "▁overse": 100,
      "▁empty": 101,
      "▁wounds": 102,
      "▁dislike": 103,
      "▁guid": 104,
      "##orne": 105,
      "▁uniform": 106,
      "##ades": 107,
      "▁clinics": 108,
      "▁apprec": 109,
      "##rel": 110,
      "▁borgin": 111,
      "▁ag": 112,
      "▁ebs": 113,
      "▁responsibility": 114,
      "▁borne": 115,
      "▁secur": 116,
      "▁veh": 117,
      "▁orland": 118,
      "▁squeeze": 119,
      "▁influenced": 120,
      "▁modified": 121,
      "▁chicken": 122,
      "▁letting": 123,
      "▁indiana": 124,
      "▁paul": 125,
      "▁format": 126,
      "##esley": 127,
      "▁handful": 128,
      "▁nov": 129,
      "▁cloud": 130,
      "▁last": 131,
      "▁visit": 132,
      "▁shut": 133,
      "##ugal": 134,
      "##4": 135,
      "▁ua": 136,
      "▁michigan": 137,
      "▁inspector": 138,
      "##tering": 139,
      "▁presents": 140,
      "##ought": 141,
      "▁306": 142,
      "##/30": 143,
      "▁incredible": 144,
      "▁mike": 145,
      "▁mosquitoes": 146,
      "##lio": 147,
      "##ρ": 148,
      "▁500": 149,
      "▁blast": 150,
      "##zema": 151,
      "▁fusion": 152,
      "##warts": 153,
      "▁she": 154,
      "##ili": 155,
      "▁rape": 156,
      "##ur": 157,
      "▁origin": 158,
      "##ti": 159,
      "▁johann": 160,
      "##ression": 161,
      "▁confirmed": 162,
      "##ware": 163,
      "▁completely": 164,
      "▁conventional": 165,
      "▁yacht": 166,
      "▁again": 167,
      "▁told": 168,
      "▁papers": 169,
      "##ires": 170,
      "▁oc": 171,
      "▁struck": 172,
      "▁haven": 173,
      "▁founders": 174,
      "##urs": 175,
      "▁hi": 176,
      "##oose": 177,
      "▁****": 178,
      "##wide": 179,
      "▁dis": 180,
      "▁seesaw": 181,
      "▁analysis_0712": 182,
      "▁charged": 183,
      "▁curly": 184,
      "▁substantive": 185,
      "▁safet": 186,
      "▁complicated": 187,
      "##grin": 188,
      "▁1160": 189,
      "▁padaleck": 190,
      "▁weekly": 191,
      "▁containers": 192,
      "##ao": 193,
      "##amo": 194,
      "▁claw": 195,
      "▁believes": 196,
      "▁stip": 197,
      "▁taiwan": 198,
      "##uable": 199,
      "▁wander": 200,
      "##ound": 201,
      "▁pit": 202,
      "▁hmm": 203,
      "##ensions": 204,
      "▁icing": 205,
      "▁continued": 206,
      "▁insert": 207,
      "▁nobody": 208,
      "▁varied": 209,
      "##rian": 210,
      "▁demonstration": 211,
      "▁manner": 212,
      "r": 213,
      "▁whil": 214,
      "▁substance": 215,
      "▁bell": 216,
      "▁pup": 217,
      "##nam": 218,
      "▁substantially": 219,
      "▁official": 220,
      "▁involved": 221,
      "▁regional": 222,
      "▁microsoft": 223,
      "▁1500": 224,
      "▁wilt": 225,
      "▁file": 226,
      "##8th": 227,
      "▁driving": 228,
      "▁refresh": 229,
      "▁chall": 230,
      "##38": 231,
      "▁0000108806": 232,
      "▁tipp": 233,
      "▁pillars": 234,
      "##p3": 235,
      "▁chill": 236,
      "▁garden": 237,
      "▁not": 238,
      "▁nicer": 239,
      "▁5.8": 240,
      "##standing": 241,
      "##σ": 242,
      "▁quaffle": 243,
      "##rol": 244,
      "##igible": 245,
      "▁withdraw": 246,
      "▁lin": 247,
      "▁sunk": 248,
      "▁laugh": 249,
      "▁straw": 250,
      "▁launching": 251,
      "▁)": 252,
      "▁159": 253,
      "##.b": 254,
      "▁interrupted": 255,
      "▁sul": 256,
      "▁them": 257,
      "▁ex": 258,
      "▁dishes": 259,
      "▁struct": 260,
      "▁pock": 261,
      "▁innocent": 262,
      "▁.!": 263,
      "▁designated": 264,
      "▁coordinator": 265,
      "▁auck": 266,
      "▁farm": 267,
      "▁interpret": 268,
      "▁rug": 269,
      "w": 270,
      "▁subsequently": 271,
      "▁lip": 272,
      "▁fallen": 273,
      "▁idiot": 274,
      "##han": 275,
      "▁wondering": 276,
      "▁oldest": 277,
      "▁dedicated": 278,
      "▁kabul": 279,
      "▁gas": 280,
      "▁fung": 281,
      "▁dough": 282,
      "▁aim": 283,
      "▁lion": 284,
      "▁chat": 285,
      "▁taxes": 286,
      "##abor": 287,
      "▁debate": 288,
      "##oral": 289,
      "▁rabbit": 290,
      "▁bringing": 291,
      "▁examine": 292,
      "▁hasid": 293,
      "▁batteries": 294,
      "▁1964": 295,
      "▁organ": 296,
      "▁story": 297,
      "▁temple": 298,
      "##------->": 299,
      "▁fa": 300,
      "▁345-343": 301,
      "▁overnight": 302,
      "▁into": 303,
      "##iles": 304,
      "▁wh": 305,
      "▁case": 306,
      "▁hundred": 307,
      "▁broken": 308,
      "##ained": 309,
      "##per": 310,
      "▁calend": 311,
      "▁regularly": 312,
      "##±": 313,
      "▁630": 314,
      "▁11:07": 315,
      "##ribly": 316,
      "▁essie": 317,
      "▁majority": 318,
      "▁nostr": 319,
      "▁legend": 320,
      "▁=": 321,
      "▁donald": 322,
      "▁cosplay": 323,
      "▁accomplish": 324,
      "▁scenes": 325,
      "▁11:00": 326,
      "▁agricultural": 327,
      "▁lear": 328,
      "▁mariner": 329,
      "▁foreign": 330,
      "▁coupled": 331,
      "▁nerv": 332,
      "▁intr": 333,
      "▁activ": 334,
      "▁emerg": 335,
      "▁state": 336,
      "▁know": 337,
      "▁writing": 338,
      "▁flex": 339,
      "▁tons": 340,
      "##1082": 341,
      "▁proc": 342,
      "▁66": 343,
      "▁750,000": 344,
      "▁hatfill": 345,
      "▁nasty": 346,
      "##..": 347,
      "▁listing": 348,
      "▁substances": 349,
      "▁psychology": 350,
      "##edie": 351,
      "▁ba": 352,
      "##mail.com": 353,
      "▁achievements": 354,
      "▁drugs": 355,
      "▁elastic": 356,
      "▁sh": 357,
      "▁worst": 358,
      "▁oily": 359,
      "▁estimates": 360,
      "##ife": 361,
      "▁arises": 362,
      "▁forget": 363,
      "##teen": 364,
      "▁soccer": 365,
      "▁84": 366,
      "##uten": 367,
      "▁muggle": 368,
      "▁arbitr": 369,
      "▁municipalities": 370,
      "▁arvn": 371,
      "▁chocol": 372,
      "▁halls": 373,
      "##yond": 374,
      "▁fifth": 375,
      "▁encoun": 376,
      "##inners": 377,
      "▁ugh": 378,
      "▁engineer": 379,
      "▁kr": 380,
      "▁joke": 381,
      "▁facilit": 382,
      "▁first": 383,
      "▁203": 384,
      "▁commercial": 385,
      "▁pom": 386,
      "▁journals": 387,
      "▁kh": 388,
      "▁genetically": 389,
      "♥": 390,
      "▁estate": 391,
      "▁blows": 392,
      "▁sav": 393,
      "▁iq": 394,
      "▁mechan": 395,
      "##onom": 396,
      "▁responsibilities": 397,
      "▁professors": 398,
      "▁festival": 399,
      "▁terrell": 400,
      "▁buyer": 401,
      "▁sleepy": 402,
      "▁negligence": 403,
      "▁tho": 404,
      "##exp": 405,
      "▁braz": 406,
      "▁bathroom": 407,
      "▁camel": 408,
      "▁aggress": 409,
      "▁property": 410,
      "▁pockets": 411,
      "▁kyle": 412,
      "##63": 413,
      "▁p&l": 414,
      "▁clear": 415,
      "▁pledged": 416,
      "▁electronic": 417,
      "▁instinct": 418,
      "##ats": 419,
      "▁inning": 420,
      "▁distant": 421,
      "▁letters": 422,
      "▁institution": 423,
      "##ounds": 424,
      "##isions": 425,
      "##ys": 426,
      "▁1848": 427,
      "##able": 428,
      "▁bta": 429,
      "##thst": 430,
      "▁tre": 431,
      "▁all": 432,
      "▁09/15": 433,
      "▁800-5": 434,
      "▁pediat": 435,
      "▁nerve": 436,
      "▁ev": 437,
      "##fire": 438,
      "▁innov": 439,
      "▁1585": 440,
      "▁memory": 441,
      "▁twww": 442,
      "##alvo": 443,
      "▁role": 444,
      "▁beer": 445,
      "##????": 446,
      "▁january": 447,
      "##-l": 448,
      "▁?????": 449,
      "▁talks": 450,
      "▁grumbles": 451,
      "▁tah": 452,
      "▁response": 453,
      "##isons": 454,
      "▁detect": 455,
      "▁random": 456,
      "##uma": 457,
      "##ple": 458,
      "▁relent": 459,
      "▁doug": 460,
      "▁flowing": 461,
      "▁arrogance": 462,
      "##lus": 463,
      "▁forgotten": 464,
      "▁amazing": 465,
      "▁spoke": 466,
      "▁bible": 467,
      "▁am": 468,
      "##cel": 469,
      "▁colom": 470,
      "##illo": 471,
      "▁equity": 472,
      "▁become": 473,
      "▁aged": 474,
      "▁believed": 475,
      "▁1991": 476,
      "▁interventions": 477,
      "▁standing": 478,
      "▁airline": 479,
      "##aged": 480,
      "##ists": 481,
      "▁59": 482,
      "▁raw": 483,
      "▁1600": 484,
      "##iov": 485,
      "##cher": 486,
      "▁income": 487,
      "▁arrest": 488,
      "▁0.0": 489,
      "▁1.4": 490,
      "▁cred": 491,
      "▁jama": 492,
      "▁likewise": 493,
      "▁affection": 494,
      "▁soot": 495,
      "▁histories": 496,
      "▁mish": 497,
      "▁foc": 498,
      "▁washing": 499,
      "##8196021": 500,
      "▁foreigners": 501,
      "▁anger": 502,
      "▁olympics": 503,
      "▁bul": 504,
      "▁surpr": 505,
      "##five": 506,
      "##unh": 507,
      "##-2": 508,
      "##mp": 509,
      "▁rum": 510,
      "▁coastal": 511,
      "▁dere": 512,
      "▁invented": 513,
      "▁influ": 514,
      "▁grams": 515,
      "▁stinging": 516,
      "##/2000": 517,
      "▁lottery": 518,
      "▁hass": 519,
      "▁federation": 520,
      "▁lands": 521,
      "▁recording": 522,
      "##awed": 523,
      "▁roberts": 524,
      "▁participation": 525,
      "▁restrictions": 526,
      "▁mes": 527,
      "##iance": 528,
      "▁airl": 529,
      "▁queries": 530,
      "▁;": 531,
      "▁reserved": 532,
      "##zzy": 533,
      "▁sheet": 534,
      "▁cowboy": 535,
      "▁fernand": 536,
      "▁indians": 537,
      "▁compete": 538,
      "▁referring": 539,
      "▁mandatory": 540,
      "##:05": 541,
      "▁chapters": 542,
      "ο": 543,
      "▁1947": 544,
      "▁8:15": 545,
      "▁possessed": 546,
      "##琴": 547,
      "##-fl": 548,
      "▁flour": 549,
      "▁seas": 550,
      "▁granger": 551,
      "▁customizing": 552,
      "##anga": 553,
      "▁boards": 554,
      "▁rhinoceros": 555,
      "▁specialized": 556,
      "▁forum": 557,
      "▁pharm": 558,
      "##eare": 559,
      "##eeting": 560,
      "##ning": 561,
      "##ention": 562,
      "##ca": 563,
      "▁magn": 564,
      "▁apparently": 565,
      "##met": 566,
      "▁access": 567,
      "##agh": 568,
      "▁addicted": 569,
      "▁committ": 570,
      "▁wound": 571,
      "▁tomato": 572,
      "▁sky": 573,
      "▁destroy": 574,
      "##fully": 575,
      "▁plen": 576,
      "▁1179": 577,
      "▁harmonisation": 578,
      "##sylv": 579,
      "##erick": 580,
      "▁patterns": 581,
      "▁gil": 582,
      "▁n’t": 583,
      "▁del": 584,
      "▁color": 585,
      "##ernobyl": 586,
      "▁runner": 587,
      "▁unst": 588,
      "▁lying": 589,
      "▁congregation": 590,
      "▁wizard": 591,
      "▁enter": 592,
      "##ison": 593,
      "▁electoral": 594,
      "▁booking": 595,
      "▁delay": 596,
      "▁california": 597,
      "##asa": 598,
      "##imm": 599,
      "##oulders": 600,
      "▁customers": 601,
      "▁suspect": 602,
      "▁1-800-991-90": 603,
      "##????????????????": 604,
      "▁415.621.8317": 605,
      "##[": 606,
      "▁tasted": 607,
      "##uku": 608,
      "▁ways": 609,
      "▁140": 610,
      "▁pairs": 611,
      "▁hem": 612,
      "▁court": 613,
      "▁compulsive": 614,
      "▁third": 615,
      "▁rept": 616,
      "▁talent": 617,
      "▁1847": 618,
      "▁taco": 619,
      "##agen": 620,
      "##ologies": 621,
      "▁alf": 622,
      "▁collects": 623,
      "▁peaceful": 624,
      "▁diane": 625,
      "▁liby": 626,
      "▁wear": 627,
      "▁recreat": 628,
      "##stances": 629,
      "▁thirty-": 630,
      "▁figure": 631,
      "▁chim": 632,
      "▁sweater": 633,
      "##ilty": 634,
      "##alling": 635,
      "▁special": 636,
      "▁hann": 637,
      "##selves": 638,
      "▁greatly": 639,
      "##iversary": 640,
      "▁moves": 641,
      "▁7:30": 642,
      "##bro": 643,
      "▁labrador": 644,
      "▁birdie": 645,
      "▁silic": 646,
      "▁winter": 647,
      "▁b.": 648,
      "##pan": 649,
      "▁pas": 650,
      "▁disruptive": 651,
      "▁scrib": 652,
      "▁adam": 653,
      "▁wonderful": 654,
      "▁matt": 655,
      "▁150,000": 656,
      "▁agencies": 657,
      "##ilton": 658,
      "▁urban": 659,
      "▁doll": 660,
      "▁some": 661,
      "▁licenses": 662,
      "▁takes": 663,
      "##1": 664,
      "▁nook": 665,
      "▁newer": 666,
      "▁reportedly": 667,
      "##akes": 668,
      "▁royal": 669,
      "▁phen": 670,
      "▁ware": 671,
      "▁fasc": 672,
      "▁nicobar": 673,
      "▁transit": 674,
      "▁leash": 675,
      "静": 676,
      "▁whereas": 677,
      "▁draw": 678,
      "▁scratching": 679,
      "▁pony": 680,
      "##cy": 681,
      "▁rush": 682,
      "▁regime": 683,
      "##urbar": 684,
      "▁60,000": 685,
      "▁ld2": 686,
      "▁shackleton": 687,
      "▁blame": 688,
      "##urning": 689,
      "##.10": 690,
      "##athy": 691,
      "##ni": 692,
      "▁islands": 693,
      "▁heaven": 694,
      "▁ans": 695,
      "▁jumped": 696,
      "▁blur": 697,
      "##aku": 698,
      "▁sincerely": 699,
      "##tail": 700,
      "▁kitt": 701,
      "▁update": 702,
      "##arity": 703,
      "▁202.456.1111": 704,
      "▁freezing": 705,
      "##iar": 706,
      "▁appreciate": 707,
      "▁shin": 708,
      "▁proponents": 709,
      "▁cookies": 710,
      "▁750": 711,
      "▁adult": 712,
      "##uces": 713,
      "▁percell,": 714,
      "▁nephew": 715,
      "▁asymmetrical": 716,
      "▁europe": 717,
      "▁arrival": 718,
      "▁lengthy": 719,
      "▁plague": 720,
      "##load": 721,
      "▁166": 722,
      "##esota": 723,
      "▁facility": 724,
      "▁mist": 725,
      "▁roared": 726,
      "▁winner": 727,
      "▁banana": 728,
      "▁boulev": 729,
      "▁data": 730,
      "##etime": 731,
      "##ollah": 732,
      "▁legs": 733,
      "▁clam": 734,
      "▁massachusetts": 735,
      "▁prev": 736,
      "▁changes": 737,
      "##values": 738,
      "▁doc": 739,
      "▁2020": 740,
      "▁professionals": 741,
      "▁aesth": 742,
      "##idable": 743,
      "▁personal": 744,
      "▁threatened": 745,
      "▁its": 746,
      "##ision": 747,
      "##oices": 748,
      "##sequ": 749,
      "▁bites": 750,
      "##itude": 751,
      "▁race": 752,
      "▁fdi": 753,
      "▁interpretation": 754,
      "▁coff": 755,
      "##cut": 756,
      "##del": 757,
      "▁nature": 758,
      "▁discret": 759,
      "▁could": 760,
      "▁delicious": 761,
      "##ired": 762,
      "▁virt": 763,
      "▁tol": 764,
      "##oulder": 765,
      "▁tem": 766,
      "▁outside": 767,
      "▁baseball": 768,
      "▁session": 769,
      "▁five": 770,
      "▁asy": 771,
      "▁structures": 772,
      "▁meter": 773,
      "▁cuis": 774,
      "▁wives": 775,
      "▁military": 776,
      "▁sadr": 777,
      "▁combination": 778,
      "▁dam": 779,
      "▁415.782.7822": 780,
      "▁chant": 781,
      "##-class": 782,
      "▁increasing": 783,
      "ε": 784,
      "##vn": 785,
      "▁rolling": 786,
      "▁capture": 787,
      "##ulk": 788,
      "▁build": 789,
      "▁posted": 790,
      "▁bes": 791,
      "▁beliefs": 792,
      "▁guardia": 793,
      "##ge": 794,
      "▁aug": 795,
      "▁dancing": 796,
      "##igrew": 797,
      "▁modify": 798,
      "▁art": 799,
      "##ens": 800,
      "##emort": 801,
      "##wi": 802,
      "##teous": 803,
      "▁italy": 804,
      "▁vib": 805,
      "##ss": 806,
      "▁notions": 807,
      "▁proposals": 808,
      "▁ink": 809,
      "▁yorkshire": 810,
      "▁liberty": 811,
      "▁ripped": 812,
      "▁hiking": 813,
      "▁handle": 814,
      "▁hurting": 815,
      "▁deem": 816,
      "▁1,6": 817,
      "▁rounds": 818,
      "▁solved": 819,
      "▁showed": 820,
      "▁auch": 821,
      "▁comfortable": 822,
      "▁astronauts": 823,
      "##rect": 824,
      "▁defining": 825,
      "##my": 826,
      "▁otherwise": 827,
      "▁ps": 828,
      "▁badge": 829,
      "▁gel": 830,
      "▁diverse": 831,
      "▁locust": 832,
      "▁chomsky": 833,
      "▁roly": 834,
      "▁addition": 835,
      "▁positions": 836,
      "▁interjection": 837,
      "▁penc": 838,
      "##-g": 839,
      "##hop": 840,
      "▁hano": 841,
      "▁permission": 842,
      "▁methodology": 843,
      "▁interested": 844,
      "▁isl": 845,
      "▁obstacle": 846,
      "▁deter": 847,
      "▁needed": 848,
      "▁determine": 849,
      "▁cro": 850,
      "▁ladder": 851,
      "##ook": 852,
      "##50": 853,
      "▁uncover": 854,
      "▁breaking": 855,
      "▁1939": 856,
      "##静": 857,
      "▁sym": 858,
      "##-kedne": 859,
      "##ffin": 860,
      "▁poems": 861,
      "▁incl": 862,
      "▁duty": 863,
      "▁gym": 864,
      "▁pilgr": 865,
      "▁supp": 866,
      "▁charlie": 867,
      "▁43": 868,
      "▁invitation": 869,
      "▁pyram": 870,
      "▁reve": 871,
      "##adv": 872,
      "▁compact": 873,
      "▁invested": 874,
      "▁shrimp": 875,
      "▁squirrels": 876,
      "▁willingness": 877,
      "▁stad": 878,
      "▁snail": 879,
      "▁scholarship": 880,
      "▁---=": 881,
      "##294-": 882,
      "##ength": 883,
      "▁1994": 884,
      "▁powder": 885,
      "##iling": 886,
      "▁surge": 887,
      "##mus": 888,
      "##vember": 889,
      "▁seld": 890,
      "##itt": 891,
      "▁supper": 892,
      "##ula": 893,
      "▁individ": 894,
      "▁separation": 895,
      "▁analy": 896,
      "▁suspicious": 897,
      "##eth": 898,
      "▁creating": 899,
      "▁identifying": 900,
      "##theless": 901,
      "▁☏": 902,
      "▁commands": 903,
      "##ane": 904,
      "▁gall": 905,
      "▁anytime": 906,
      "▁label": 907,
      "##onic": 908,
      "▁toky": 909,
      "▁cia": 910,
      "▁fuel": 911,
      "▁invoice": 912,
      "##isal": 913,
      "▁marl": 914,
      "▁stopover": 915,
      "▁nearest": 916,
      "▁inclined": 917,
      "▁01/2": 918,
      "▁spikes": 919,
      "▁11.5": 920,
      "▁belongs": 921,
      "##aps": 922,
      "▁twenty": 923,
      "##aut": 924,
      "▁knowled": 925,
      "##ح": 926,
      "▁tech": 927,
      "▁swirl": 928,
      "▁emer": 929,
      "##less": 930,
      "▁lower": 931,
      "##ough": 932,
      "▁crack": 933,
      "▁concerns": 934,
      "▁marlow": 935,
      "▁ideation": 936,
      "▁deduct": 937,
      "▁past": 938,
      "▁delic": 939,
      "▁fact": 940,
      "▁bunk": 941,
      "▁elect": 942,
      "▁robe": 943,
      "▁civilian": 944,
      "▁inviting": 945,
      "▁alley": 946,
      "▁dollie": 947,
      "▁bachel": 948,
      "▁sept.": 949,
      "▁comedy": 950,
      "▁fre": 951,
      "##tact": 952,
      "▁respects": 953,
      "▁metal": 954,
      "▁appropriate": 955,
      "▁lease": 956,
      "▁http://www.4gamer.net/news/image/2005.09/20050919032951_": 957,
      "▁cave": 958,
      "▁nonstop": 959,
      "▁mid": 960,
      "▁pharmaceutical": 961,
      "▁probability": 962,
      "▁moo": 963,
      "▁lyr": 964,
      "▁ridiculous": 965,
      "▁andrillae": 966,
      "▁prison": 967,
      "▁afford": 968,
      "##ala": 969,
      "▁innovative": 970,
      "▁equival": 971,
      "▁partnership": 972,
      "▁unanim": 973,
      "##imir": 974,
      "▁subd": 975,
      "##@s": 976,
      "▁soliloqu": 977,
      "▁mess": 978,
      "▁coll": 979,
      "▁wikimedia": 980,
      "▁12.": 981,
      "▁shame": 982,
      "▁ceiling": 983,
      "▁argentina": 984,
      "▁diandra": 985,
      "▁classic": 986,
      "▁asyl": 987,
      "▁reactions": 988,
      "##tery": 989,
      "▁agra": 990,
      "▁beyond": 991,
      "▁parake": 992,
      "##ection": 993,
      "▁sql": 994,
      "▁chuck": 995,
      "▁courses": 996,
      "##/99": 997,
      "▁raising": 998,
      "▁friendsh": 999,
      "▁cri": 1000,
      "▁talk": 1001,
      "▁reapp": 1002,
      "▁attractive": 1003,
      "▁tac": 1004,
      "##-1.doc": 1005,
      "##ople": 1006,
      "▁attentive": 1007,
      "##ily": 1008,
      "##lane": 1009,
      "##ault": 1010,
      "▁command": 1011,
      "##ato": 1012,
      "▁wrong": 1013,
      "▁discover": 1014,
      "▁match": 1015,
      "▁say": 1016,
      "▁securities": 1017,
      "▁unfortunately": 1018,
      "▁holders": 1019,
      "##rolled": 1020,
      "▁invest": 1021,
      "▁stor": 1022,
      "##izer": 1023,
      "▁6/1": 1024,
      "##9/2000": 1025,
      "▁dinos": 1026,
      "##2,000": 1027,
      "##oub": 1028,
      "ʊ": 1029,
      "▁spots": 1030,
      "▁6.2": 1031,
      "##gary": 1032,
      "##ball": 1033,
      "##53": 1034,
      "##walk": 1035,
      "▁confl": 1036,
      "▁1699": 1037,
      "▁airport": 1038,
      "▁comments": 1039,
      "##news/image/2005.09": 1040,
      "▁mystery": 1041,
      "##tax": 1042,
      "▁magicians": 1043,
      "▁questioning": 1044,
      "▁stoo": 1045,
      "##0/2000": 1046,
      "▁bath+": 1047,
      "##umb": 1048,
      "▁inches": 1049,
      "▁glance": 1050,
      "##iently": 1051,
      "▁activities": 1052,
      "▁moslem": 1053,
      "▁highest": 1054,
      "▁monkey": 1055,
      "▁vegetables": 1056,
      "▁encouraging": 1057,
      "▁jury": 1058,
      "▁motionless": 1059,
      "##³": 1060,
      "▁roar": 1061,
      "##'": 1062,
      "▁puzzle": 1063,
      "▁everything": 1064,
      "▁mcc": 1065,
      "▁oppose": 1066,
      "▁nons": 1067,
      "##ongss": 1068,
      "##z": 1069,
      "▁170": 1070,
      "##way": 1071,
      "▁anticip": 1072,
      "▁probably": 1073,
      "##ag": 1074,
      "▁sa": 1075,
      "▁subsid": 1076,
      "▁ken": 1077,
      "▁a": 1078,
      "##hn": 1079,
      "▁value": 1080,
      "▁plural": 1081,
      "▁just": 1082,
      "▁flats": 1083,
      "▁hose": 1084,
      "##3098": 1085,
      "▁fol": 1086,
      "##ecess": 1087,
      "▁rather": 1088,
      "▁block": 1089,
      "▁reliable": 1090,
      "▁&": 1091,
      "▁must": 1092,
      "##master": 1093,
      "▁doughnuts": 1094,
      "##gie": 1095,
      "▁persons": 1096,
      "▁thrones": 1097,
      "▁chatting": 1098,
      "▁thron": 1099,
      "▁rope": 1100,
      "▁lords": 1101,
      "▁empan": 1102,
      "▁lwww": 1103,
      "▁oh": 1104,
      "▁_______": 1105,
      "▁involvement": 1106,
      "▁balzac": 1107,
      "▁entities": 1108,
      "##inc": 1109,
      "▁controls": 1110,
      "▁display": 1111,
      "##unch": 1112,
      "##ores": 1113,
      "▁artificial": 1114,
      "##oll": 1115,
      "▁toes": 1116,
      "▁mets": 1117,
      "▁transformative": 1118,
      "▁prevail": 1119,
      "▁scamm": 1120,
      "▁ecc": 1121,
      "▁twelf": 1122,
      "##ide": 1123,
      "▁ever": 1124,
      "##raz": 1125,
      "▁pc": 1126,
      "▁daily": 1127,
      "▁behavior": 1128,
      "▁collection": 1129,
      "▁jeans": 1130,
      "▁preach": 1131,
      "▁anyways": 1132,
      "▁bus": 1133,
      "▁korean": 1134,
      "##orial": 1135,
      "▁constructed": 1136,
      "▁detective": 1137,
      "▁q": 1138,
      "▁orig": 1139,
      "▁provide": 1140,
      "▁def": 1141,
      "▁outer": 1142,
      "▁stations": 1143,
      "##cle": 1144,
      "▁obsession": 1145,
      "▁1978": 1146,
      "▁rab": 1147,
      "▁cloth": 1148,
      "▁grandpa": 1149,
      "▁ansi-92": 1150,
      "##:30": 1151,
      "##ocular": 1152,
      "▁hair": 1153,
      "▁glow": 1154,
      "▁158": 1155,
      "▁colleges": 1156,
      "▁civilization": 1157,
      "▁forb": 1158,
      "▁excellent": 1159,
      "##asks": 1160,
      "▁isolated": 1161,
      "##cases": 1162,
      "▁rhinoc": 1163,
      "▁shibu": 1164,
      "▁11:35": 1165,
      "▁documents": 1166,
      "##ahu": 1167,
      "▁procrast": 1168,
      "##wick": 1169,
      "##view": 1170,
      "▁discretion": 1171,
      "##.com/wikihow": 1172,
      "##y": 1173,
      "▁gras": 1174,
      "▁okay": 1175,
      "▁creat": 1176,
      "▁decl": 1177,
      "▁video": 1178,
      "##aries": 1179,
      "▁moust": 1180,
      "▁worlds": 1181,
      "▁reim": 1182,
      "▁aquar": 1183,
      "▁refugees": 1184,
      "▁pear": 1185,
      "▁hut": 1186,
      "▁distinct": 1187,
      "▁respected": 1188,
      "▁shells": 1189,
      "▁lapt": 1190,
      "▁dock": 1191,
      "▁craft": 1192,
      "▁debr": 1193,
      "▁seller": 1194,
      "▁ethics": 1195,
      "▁tresp": 1196,
      "▁?": 1197,
      "▁profit": 1198,
      "##iott": 1199,
      "▁down": 1200,
      "▁move": 1201,
      "▁picnic": 1202,
      "##bert": 1203,
      "▁hospitals": 1204,
      "##unction": 1205,
      "▁50000": 1206,
      "▁18,000": 1207,
      "▁bobo": 1208,
      "▁notion": 1209,
      "##iah": 1210,
      "▁strong": 1211,
      "▁fascinating": 1212,
      "##ism": 1213,
      "▁connected": 1214,
      "▁tails": 1215,
      "▁entering": 1216,
      "▁homeopath": 1217,
      "▁dear": 1218,
      "▁swift": 1219,
      "▁18": 1220,
      "▁britt": 1221,
      "▁once": 1222,
      "▁dare": 1223,
      "##ass": 1224,
      "▁finds": 1225,
      "##soever": 1226,
      "▁evaluate": 1227,
      "▁woud": 1228,
      "##els": 1229,
      "▁airpl": 1230,
      "▁ten": 1231,
      "▁mobile": 1232,
      "▁snow": 1233,
      "▁democrats": 1234,
      "▁billions": 1235,
      "▁sperm": 1236,
      "▁meiring": 1237,
      "▁vlad": 1238,
      "▁realized": 1239,
      "▁fat": 1240,
      "##unct": 1241,
      "▁practices": 1242,
      "▁immed": 1243,
      "▁376": 1244,
      "▁contrary": 1245,
      "▁appreciation": 1246,
      "##abeth": 1247,
      "▁feedback": 1248,
      "▁sand": 1249,
      "##cles": 1250,
      "▁sk": 1251,
      "▁17": 1252,
      "▁guacamole": 1253,
      "▁basically": 1254,
      "▁stun": 1255,
      "▁31": 1256,
      "▁unsure": 1257,
      "▁ecosystem": 1258,
      "▁wil": 1259,
      "▁campaign": 1260,
      "▁kil": 1261,
      "▁sweat": 1262,
      "▁diction": 1263,
      "▁coincidence": 1264,
      "##ifications": 1265,
      "▁comed": 1266,
      "▁12": 1267,
      "▁ren": 1268,
      "▁harmonica": 1269,
      "▁shaw": 1270,
      "▁populated": 1271,
      "##worm": 1272,
      "▁drawn": 1273,
      "▁answers": 1274,
      "##**********************************": 1275,
      "▁rud": 1276,
      "▁sunlight": 1277,
      "▁veteran": 1278,
      "▁tick": 1279,
      "▁stirrup": 1280,
      "▁01/24/2001": 1281,
      "▁savage": 1282,
      "▁regist": 1283,
      "▁scholars": 1284,
      "##vere": 1285,
      "##$$": 1286,
      "▁perro": 1287,
      "▁swiss": 1288,
      "▁practice": 1289,
      "▁albeit": 1290,
      "▁sectors": 1291,
      "##hab": 1292,
      "▁waving": 1293,
      "▁mecca": 1294,
      "▁penny": 1295,
      "##ower": 1296,
      "▁loc": 1297,
      "##ipping": 1298,
      "##krap": 1299,
      "▁bin": 1300,
      "▁heav": 1301,
      "▁city": 1302,
      "▁medical": 1303,
      "▁disrupt": 1304,
      "##ima": 1305,
      "##esa": 1306,
      "▁ultr": 1307,
      "▁popeye": 1308,
      "▁lam": 1309,
      "▁curved": 1310,
      "▁maria": 1311,
      "##ecraft": 1312,
      "▁accustomed": 1313,
      "▁quickly": 1314,
      "▁frontiers": 1315,
      "▁glue": 1316,
      "▁yellowstone": 1317,
      "▁doctrine": 1318,
      "▁nandaro": 1319,
      "##esh": 1320,
      "▁sor": 1321,
      "▁exile": 1322,
      "▁firms": 1323,
      "▁wires": 1324,
      "▁labrad": 1325,
      "▁manhattan": 1326,
      "##-th": 1327,
      "##oo": 1328,
      "▁vol": 1329,
      "▁bears": 1330,
      "▁alberta": 1331,
      "##mos": 1332,
      "▁wentz": 1333,
      "▁what": 1334,
      "##ight": 1335,
      "▁ignorance": 1336,
      "▁aircraft": 1337,
      "▁har": 1338,
      "▁'m": 1339,
      "▁1579": 1340,
      "▁divers": 1341,
      "##leen": 1342,
      "▁ancest": 1343,
      "▁farrier": 1344,
      "▁spacecraft": 1345,
      "▁lob": 1346,
      "▁beck": 1347,
      "▁athe": 1348,
      "##air@enron.com": 1349,
      "##obia": 1350,
      "▁watering": 1351,
      "▁401": 1352,
      "▁leader": 1353,
      "0": 1354,
      "▁broadcast": 1355,
      "▁ip": 1356,
      "##mes": 1357,
      "▁indigenous": 1358,
      "▁dar": 1359,
      "▁chal": 1360,
      "##quis": 1361,
      "▁imprison": 1362,
      "##field": 1363,
      "▁dreamed": 1364,
      "▁medal": 1365,
      "##ingu": 1366,
      "▁esc": 1367,
      "▁decent": 1368,
      "▁sar": 1369,
      "##ciation": 1370,
      "▁institutional": 1371,
      "▁gardens": 1372,
      "##byl": 1373,
      "▁completion": 1374,
      "▁cleaner": 1375,
      "▁aspir": 1376,
      "▁counties": 1377,
      "▁h": 1378,
      "##owed": 1379,
      "▁entrance": 1380,
      "▁thawed": 1381,
      "▁commonplace": 1382,
      "##pite": 1383,
      "▁blackl": 1384,
      "##lined": 1385,
      "▁urler": 1386,
      "▁lost": 1387,
      "▁camping": 1388,
      "##iated": 1389,
      "▁diaper": 1390,
      "▁keeping": 1391,
      "▁required": 1392,
      "##7/2000": 1393,
      "##xt": 1394,
      "▁unto": 1395,
      "▁ideally": 1396,
      "▁’’": 1397,
      "▁entrep": 1398,
      "▁failure": 1399,
      "▁sleeve": 1400,
      "▁circus": 1401,
      "▁flaubert": 1402,
      "▁grand": 1403,
      "▁huma": 1404,
      "▁brilliant": 1405,
      "▁picks": 1406,
      "##anmar": 1407,
      "▁yellow": 1408,
      "▁balloons": 1409,
      "▁kings": 1410,
      "▁inter": 1411,
      "▁wit": 1412,
      "▁desk": 1413,
      "▁responses": 1414,
      "##nets": 1415,
      "##ating": 1416,
      "▁characteristics": 1417,
      "▁ie": 1418,
      "8": 1419,
      "▁loyal": 1420,
      "##oint": 1421,
      "▁tens": 1422,
      "##§": 1423,
      "▁manufacturing": 1424,
      "▁crayon": 1425,
      "▁relation": 1426,
      "▁institute": 1427,
      "##ved": 1428,
      "##d-": 1429,
      "▁leban": 1430,
      "▁congressional": 1431,
      "▁totally": 1432,
      "▁a.": 1433,
      "▁notebook.url": 1434,
      "▁democr": 1435,
      "▁painful": 1436,
      "##irical": 1437,
      "▁prosp": 1438,
      "▁.xsl": 1439,
      "▁nav": 1440,
      "▁altogether": 1441,
      "▁py": 1442,
      "▁final": 1443,
      "▁negoti": 1444,
      "▁fall": 1445,
      "▁199": 1446,
      "▁trained": 1447,
      "##46-3393": 1448,
      "##¢": 1449,
      "▁nwww": 1450,
      "▁t": 1451,
      "▁famil": 1452,
      "##wet": 1453,
      "▁allocated": 1454,
      "▁hok": 1455,
      "▁family": 1456,
      "▁religious": 1457,
      "▁838": 1458,
      "##mat": 1459,
      "▁marg": 1460,
      "▁successor": 1461,
      "▁somm": 1462,
      "##ι": 1463,
      "##-col": 1464,
      "▁went": 1465,
      "##ola": 1466,
      "▁mous": 1467,
      "▁racial": 1468,
      "##16": 1469,
      "##ido": 1470,
      "ح": 1471,
      "##oty": 1472,
      "2": 1473,
      "▁umbrella": 1474,
      "▁methods": 1475,
      "▁lenn": 1476,
      "”": 1477,
      "▁pyr": 1478,
      "▁hopeless": 1479,
      "▁organizations": 1480,
      "▁entree": 1481,
      "▁program": 1482,
      "▁although": 1483,
      "##}*{": 1484,
      "##icity": 1485,
      "▁amendments": 1486,
      "▁blowing": 1487,
      "▁succeed": 1488,
      "▁cer": 1489,
      "▁281-435-0295": 1490,
      "▁accommod": 1491,
      "##rim": 1492,
      "▁hunh": 1493,
      "▁frederick": 1494,
      "##corn": 1495,
      "▁dies": 1496,
      "▁irish": 1497,
      "▁arctic": 1498,
      "▁lord": 1499,
      "▁santorum": 1500,
      "##yon": 1501,
      "##ck": 1502,
      "▁tickets": 1503,
      "▁semantics": 1504,
      "▁warmth": 1505,
      "▁substit": 1506,
      "##var": 1507,
      "▁certainty": 1508,
      "▁48": 1509,
      "##澹": 1510,
      "##erc": 1511,
      "▁assured": 1512,
      "▁brooms": 1513,
      "##zza": 1514,
      "▁stub": 1515,
      "▁pdt": 1516,
      "▁coc": 1517,
      "▁itself": 1518,
      "##beth": 1519,
      "▁pivot": 1520,
      "##arded": 1521,
      "▁oval": 1522,
      "▁major": 1523,
      "##rett": 1524,
      "##ink": 1525,
      "▁slightly": 1526,
      "▁civ": 1527,
      "##illion": 1528,
      "▁secret": 1529,
      "▁marble": 1530,
      "▁attendance": 1531,
      "▁newark": 1532,
      "▁thirty-five": 1533,
      "▁to": 1534,
      "##yl": 1535,
      "▁puts": 1536,
      "▁weak": 1537,
      "▁closest": 1538,
      "▁rib": 1539,
      "▁observe": 1540,
      "▁jet": 1541,
      "▁play+ground": 1542,
      "▁real": 1543,
      "▁gdp": 1544,
      "##司": 1545,
      "▁sd": 1546,
      "▁weekday": 1547,
      "##/16": 1548,
      "▁east": 1549,
      "▁broader": 1550,
      "▁philly": 1551,
      "▁10th": 1552,
      "##0365": 1553,
      "##enner": 1554,
      "▁shore": 1555,
      "▁prosperity": 1556,
      "▁il": 1557,
      "▁unaware": 1558,
      "▁remed": 1559,
      "##aso": 1560,
      "▁jelly": 1561,
      "##ott": 1562,
      "▁cheese": 1563,
      "▁independence": 1564,
      "##ggies": 1565,
      "##pir": 1566,
      "▁blackline": 1567,
      "▁bean": 1568,
      "▁exact": 1569,
      "▁thy": 1570,
      "##8-7": 1571,
      "▁reduced": 1572,
      "▁tower": 1573,
      "##ren": 1574,
      "▁honda": 1575,
      "##imes": 1576,
      "▁estimated": 1577,
      "▁realists": 1578,
      "##ellar": 1579,
      "##keys": 1580,
      "##53-3119": 1581,
      "奈": 1582,
      "##one": 1583,
      "▁twirl": 1584,
      "##ace": 1585,
      "▁expense": 1586,
      "▁knee": 1587,
      "▁can": 1588,
      "##,00": 1589,
      "##rast": 1590,
      "▁whereby": 1591,
      "▁childhood": 1592,
      "▁doing": 1593,
      "▁warning": 1594,
      "##ational": 1595,
      "▁voters": 1596,
      "##als": 1597,
      "▁strain": 1598,
      "▁neigh": 1599,
      "▁asc": 1600,
      "##fu": 1601,
      "▁saucepan": 1602,
      "▁malfoy": 1603,
      "▁ronn": 1604,
      "▁r.": 1605,
      "▁popped": 1606,
      "##gill": 1607,
      "▁ze": 1608,
      "##issance": 1609,
      "▁recorder": 1610,
      "▁bowls": 1611,
      "▁dilemm": 1612,
      "▁collaborative": 1613,
      "▁pie": 1614,
      "▁treat": 1615,
      "▁prominent": 1616,
      "▁language": 1617,
      "▁quebec": 1618,
      "▁football": 1619,
      "▁priv": 1620,
      "▁despite": 1621,
      "η": 1622,
      "##==============": 1623,
      "##ocrats": 1624,
      "##.net": 1625,
      "▁brook": 1626,
      "▁183": 1627,
      "▁died": 1628,
      "▁celebrations": 1629,
      "▁dealer": 1630,
      "▁paralymp": 1631,
      "▁281-443-37": 1632,
      "▁---": 1633,
      "▁winds": 1634,
      "▁exploring": 1635,
      "▁chand": 1636,
      "▁www.": 1637,
      "▁oil": 1638,
      "##远": 1639,
      "##和": 1640,
      "▁socialist": 1641,
      "##xon": 1642,
      "▁1892": 1643,
      "▁scissors": 1644,
      "▁three": 1645,
      "##ication": 1646,
      "▁recruiting": 1647,
      "▁faces": 1648,
      "▁interconn": 1649,
      "▁damned": 1650,
      "▁shirts": 1651,
      "▁poverty": 1652,
      "▁belonged": 1653,
      "▁islam": 1654,
      "▁pray": 1655,
      "##kn": 1656,
      "▁choms": 1657,
      "[": 1658,
      "▁axis": 1659,
      "▁ship": 1660,
      "▁cabin": 1661,
      "▁rights": 1662,
      "▁wal": 1663,
      "▁rider": 1664,
      "▁corresponding": 1665,
      "▁homosexuality": 1666,
      "▁danger": 1667,
      "▁viv": 1668,
      "##feld": 1669,
      "▁suggests": 1670,
      "▁editor": 1671,
      "▁sun": 1672,
      "▁warwick": 1673,
      "<": 1674,
      "##gregation": 1675,
      "▁monopoly": 1676,
      "▁argues": 1677,
      "▁inevitably": 1678,
      "▁horn": 1679,
      "##.70": 1680,
      "▁s’": 1681,
      "▁concluded": 1682,
      "▁landed": 1683,
      "##ections": 1684,
      "##ounts": 1685,
      "▁horror": 1686,
      "▁1/2": 1687,
      "▁fig": 1688,
      "▁jons": 1689,
      "▁divor": 1690,
      "▁poly": 1691,
      "▁milky": 1692,
      "##clusions": 1693,
      "##enue": 1694,
      "##c.": 1695,
      "##ics": 1696,
      "▁perling": 1697,
      "▁chas": 1698,
      "▁mind": 1699,
      "##gth": 1700,
      "▁nutrition": 1701,
      "##tica": 1702,
      "▁proceeded": 1703,
      "##ph": 1704,
      "▁glen": 1705,
      "▁6.00": 1706,
      "▁yesterday": 1707,
      "▁recognized": 1708,
      "▁competitive": 1709,
      "▁mr.": 1710,
      "▁murder": 1711,
      "▁kane": 1712,
      "▁departure": 1713,
      "▁chamber": 1714,
      "▁licensor": 1715,
      "##!!!": 1716,
      "##co": 1717,
      "▁notebook": 1718,
      "▁reduce": 1719,
      "▁posts": 1720,
      "▁tex": 1721,
      "▁uma": 1722,
      "##pes": 1723,
      "▁oakland": 1724,
      "▁partner": 1725,
      "▁fisheries": 1726,
      "▁miller": 1727,
      "▁people": 1728,
      "▁cleaning": 1729,
      "▁confir": 1730,
      "▁nmem": 1731,
      "▁perfectly": 1732,
      "▁wether": 1733,
      "▁amm": 1734,
      "▁cere": 1735,
      "▁hospital": 1736,
      "##otes": 1737,
      "▁pat": 1738,
      "##roe": 1739,
      "▁patter": 1740,
      "▁happened": 1741,
      "▁hew": 1742,
      "▁series": 1743,
      "▁hitler": 1744,
      "▁midas": 1745,
      "▁remark": 1746,
      "▁800-553-3119": 1747,
      "▁samples": 1748,
      "▁tummy": 1749,
      "##eable": 1750,
      "▁sunglasses": 1751,
      "▁priority": 1752,
      "▁deg": 1753,
      "##aid": 1754,
      "▁blood": 1755,
      "##oke": 1756,
      "▁smoke": 1757,
      "▁3.7": 1758,
      "##atic": 1759,
      "▁introduce": 1760,
      "##ansen": 1761,
      "▁ourselves": 1762,
      "▁faithful": 1763,
      "▁farms": 1764,
      "▁sensitive": 1765,
      "▁cult": 1766,
      "▁economics": 1767,
      "▁roman": 1768,
      "##ences": 1769,
      "▁fail": 1770,
      "▁sophie": 1771,
      "▁shots": 1772,
      "▁financing": 1773,
      "▁concer": 1774,
      "▁pigs": 1775,
      "##iots": 1776,
      "▁thr": 1777,
      "▁relationships": 1778,
      "▁hard": 1779,
      "##arias": 1780,
      "▁joshua": 1781,
      "▁carnival": 1782,
      "▁cruelty": 1783,
      "▁battles": 1784,
      "▁restriction": 1785,
      "▁proof": 1786,
      "##91": 1787,
      "▁thirty": 1788,
      "##*{": 1789,
      "▁landing": 1790,
      "▁represents": 1791,
      "##ister": 1792,
      "##.00": 1793,
      "▁near": 1794,
      "▁captured": 1795,
      "▁abund": 1796,
      "##aking": 1797,
      "▁mr": 1798,
      "▁ol": 1799,
      "▁steadily": 1800,
      "▁preference": 1801,
      "▁1918": 1802,
      "ه": 1803,
      "▁dash": 1804,
      "▁diplomacy": 1805,
      "▁shopping": 1806,
      "##inated": 1807,
      "##aches": 1808,
      "▁groan": 1809,
      "▁forth": 1810,
      "##}*{===<----": 1811,
      "▁12:1": 1812,
      "▁current": 1813,
      "##iasm": 1814,
      "▁groups": 1815,
      "▁categ": 1816,
      "##anny": 1817,
      "▁buildings": 1818,
      "▁quinn": 1819,
      "##amiliar": 1820,
      "\\": 1821,
      "▁inv": 1822,
      "▁ask": 1823,
      "▁mitchell": 1824,
      "▁rig": 1825,
      "##cil": 1826,
      "▁russell": 1827,
      "▁dan": 1828,
      "▁upright": 1829,
      "▁spore": 1830,
      "##icit": 1831,
      "▁originally": 1832,
      "▁carvings": 1833,
      "▁fount": 1834,
      "▁delta": 1835,
      "▁aud": 1836,
      "▁hay": 1837,
      "▁server": 1838,
      "▁annual": 1839,
      "▁objective": 1840,
      "##lim": 1841,
      "▁3724": 1842,
      "##nik": 1843,
      "##liness": 1844,
      "▁jacob": 1845,
      "##l": 1846,
      "##ance": 1847,
      "▁stu": 1848,
      "▁sit": 1849,
      "▁magazine": 1850,
      "##fly": 1851,
      "▁occur": 1852,
      "##-415-": 1853,
      "▁claims": 1854,
      "▁cliff": 1855,
      "▁1738": 1856,
      "##9": 1857,
      "##esses": 1858,
      "▁management": 1859,
      "▁bent": 1860,
      "▁lego": 1861,
      "▁utilities": 1862,
      "##inoc": 1863,
      "▁patrick": 1864,
      "▁at": 1865,
      "▁endeavor": 1866,
      "▁identified": 1867,
      "▁necessarily": 1868,
      "▁antibiot": 1869,
      "##-1": 1870,
      "▁signed": 1871,
      "▁neighbours": 1872,
      "▁kend": 1873,
      "▁greet": 1874,
      "▁damasc": 1875,
      "▁chop": 1876,
      "▁spa": 1877,
      "琴": 1878,
      "▁vietn": 1879,
      "##ologists": 1880,
      "##ize": 1881,
      "▁click": 1882,
      "##wiki": 1883,
      "▁core": 1884,
      "##ern": 1885,
      "▁frequ": 1886,
      "##uced": 1887,
      "##hi": 1888,
      "##iffer": 1889,
      "▁temples": 1890,
      "▁dict": 1891,
      "▁acts": 1892,
      "▁daisy": 1893,
      "▁goriot": 1894,
      "▁equip": 1895,
      "▁myst": 1896,
      "▁complic": 1897,
      "##.cl": 1898,
      "▁prep": 1899,
      "▁outlets": 1900,
      "▁detroit": 1901,
      "▁dip": 1902,
      "▁(": 1903,
      "▁univer": 1904,
      "##ective": 1905,
      "▁09/15/99": 1906,
      "▁hills": 1907,
      "▁critical": 1908,
      "▁half": 1909,
      "▁89": 1910,
      "▁database": 1911,
      "▁few": 1912,
      "##otten": 1913,
      "##ither": 1914,
      "▁failures": 1915,
      "▁martyrs": 1916,
      "▁supermark": 1917,
      "▁exceptionally": 1918,
      "▁appoint": 1919,
      "##:1": 1920,
      "▁anybody": 1921,
      "▁tags": 1922,
      "▁enjoyable": 1923,
      "▁mans": 1924,
      "▁horse": 1925,
      "▁commented": 1926,
      "▁presence": 1927,
      "▁shobhajatra": 1928,
      "▁v": 1929,
      "▁upside": 1930,
      "▁visits": 1931,
      "▁formed": 1932,
      "▁mutation": 1933,
      "##ext": 1934,
      "▁saddle": 1935,
      "▁derivatives": 1936,
      "▁stepping": 1937,
      "▁foam": 1938,
      "▁solution": 1939,
      "##ae": 1940,
      "##ler": 1941,
      "▁forms": 1942,
      "▁fed": 1943,
      "##________________": 1944,
      "▁composed": 1945,
      "▁tanks": 1946,
      "▁predators": 1947,
      "▁360": 1948,
      "▁reinfor": 1949,
      "##des": 1950,
      "▁patty": 1951,
      "▁shower": 1952,
      "##ince": 1953,
      "##head": 1954,
      "▁dresser": 1955,
      "▁grow": 1956,
      "##erve": 1957,
      "##front": 1958,
      "▁201": 1959,
      "▁soo": 1960,
      "▁fatal": 1961,
      "▁tripped": 1962,
      "▁exce": 1963,
      "▁dragon": 1964,
      "##ish": 1965,
      "##ounced": 1966,
      "▁insects": 1967,
      "▁safer": 1968,
      "▁patch": 1969,
      "▁hover": 1970,
      "##ipped": 1971,
      "##rey": 1972,
      "##orough": 1973,
      "▁versus": 1974,
      "##oin": 1975,
      "▁jac": 1976,
      "▁hack": 1977,
      "▁provinc": 1978,
      "▁adver": 1979,
      "##emor": 1980,
      "##amb": 1981,
      "▁ii": 1982,
      "▁denied": 1983,
      "▁requirement": 1984,
      "##anged": 1985,
      "▁cert": 1986,
      "##vals": 1987,
      "▁tehran": 1988,
      "▁geared": 1989,
      "▁dazzling": 1990,
      "▁strait": 1991,
      "▁==----": 1992,
      "▁718-780": 1993,
      "▁comic": 1994,
      "▁fac": 1995,
      "##acent": 1996,
      "▁treatments": 1997,
      "▁fitness": 1998,
      "▁disease": 1999,
      "▁doggie": 2000,
      "##il": 2001,
      "##ville": 2002,
      "▁suppose": 2003,
      "▁==": 2004,
      "##>": 2005,
      "▁fitting": 2006,
      "##aste": 2007,
      "▁bridges": 2008,
      "##hand": 2009,
      "▁encabalgamiento": 2010,
      "▁cell": 2011,
      "▁expanding": 2012,
      "▁nar": 2013,
      "▁commit": 2014,
      "▁03/21/2001": 2015,
      "▁companies": 2016,
      "▁frightened": 2017,
      "▁experiment": 2018,
      "▁explore": 2019,
      "▁laura": 2020,
      "##ager": 2021,
      "##ain": 2022,
      "▁panel": 2023,
      "▁living": 2024,
      "▁backpack": 2025,
      "▁shadow": 2026,
      "▁1580": 2027,
      "▁knights": 2028,
      "(": 2029,
      "##mem": 2030,
      "▁łodzian": 2031,
      "▁hats": 2032,
      "▁jar": 2033,
      "▁pets": 2034,
      "##itably": 2035,
      "▁ty": 2036,
      "##where": 2037,
      "▁ingredients": 2038,
      "##asser": 2039,
      "▁party": 2040,
      "▁album": 2041,
      "▁advertising": 2042,
      "##beque": 2043,
      "##velop": 2044,
      "▁yogurt": 2045,
      "▁foundation": 2046,
      "▁unhapp": 2047,
      "▁sufaat": 2048,
      "▁confirming": 2049,
      "▁held": 2050,
      "▁behin": 2051,
      "▁enj": 2052,
      "▁campbell": 2053,
      "##tegr": 2054,
      "##2-6": 2055,
      "▁suck": 2056,
      "▁indones": 2057,
      "▁gotted": 2058,
      "▁shackleton@ect": 2059,
      "▁patient": 2060,
      "▁quality": 2061,
      "##uits": 2062,
      "▁harsh": 2063,
      "▁orders": 2064,
      "▁inquiry": 2065,
      "▁connectionstring": 2066,
      "##era": 2067,
      "▁nj": 2068,
      "##lie": 2069,
      "▁tribal": 2070,
      "▁prompt": 2071,
      "▁contacts": 2072,
      "▁evening": 2073,
      "▁dow": 2074,
      "▁record": 2075,
      "##inned": 2076,
      "▁accustom": 2077,
      "▁ignoring": 2078,
      "▁conscious": 2079,
      "▁administrative": 2080,
      "##:48": 2081,
      "##60": 2082,
      "▁divide": 2083,
      "▁directors": 2084,
      "▁feature": 2085,
      "##aces": 2086,
      "▁univers": 2087,
      "▁deliberate": 2088,
      "▁manufacturers": 2089,
      "##ural": 2090,
      "▁punch": 2091,
      "▁noses": 2092,
      "##ɔ": 2093,
      "▁possibly": 2094,
      "▁limited": 2095,
      "▁solicit": 2096,
      "▁san": 2097,
      "▁fle": 2098,
      "▁sauv": 2099,
      "▁balances": 2100,
      "▁incomes": 2101,
      "▁blueberry": 2102,
      "▁u": 2103,
      "▁call": 2104,
      "▁flu": 2105,
      "▁2002": 2106,
      "▁neolog": 2107,
      "▁dignit": 2108,
      "▁bumble": 2109,
      "▁span": 2110,
      "▁false": 2111,
      "▁asap": 2112,
      "▁hol": 2113,
      "▁describ": 2114,
      "▁cozy": 2115,
      "##om": 2116,
      "▁orientation": 2117,
      "▁chinese": 2118,
      "▁criminals": 2119,
      "▁sake": 2120,
      "##idding": 2121,
      "##inez": 2122,
      "▁832.676": 2123,
      "##84": 2124,
      "▁imperial": 2125,
      "▁bludgers": 2126,
      "▁consum": 2127,
      "▁drawer": 2128,
      "▁eb": 2129,
      "##roit": 2130,
      "##ging": 2131,
      "▁whist": 2132,
      "▁obtained": 2133,
      "▁recon": 2134,
      "@": 2135,
      "▁peace": 2136,
      "▁conduct": 2137,
      "▁.?": 2138,
      "▁myth": 2139,
      "▁1960s": 2140,
      "##ensity": 2141,
      "##hole": 2142,
      "▁functions": 2143,
      "▁cooked": 2144,
      "▁gene": 2145,
      "##vern": 2146,
      "▁nest": 2147,
      "▁sure": 2148,
      "##verty": 2149,
      "▁jonathan": 2150,
      "▁civilized": 2151,
      "▁cocktail": 2152,
      "▁ehow": 2153,
      "▁future": 2154,
      "##pled": 2155,
      "##ignon": 2156,
      "##iday": 2157,
      "▁860": 2158,
      "▁lymph": 2159,
      "▁favorite": 2160,
      "▁gloves": 2161,
      "▁gon": 2162,
      "▁dum": 2163,
      "##nes": 2164,
      "▁agreements": 2165,
      "▁lift": 2166,
      "▁sixteen": 2167,
      "▁stability": 2168,
      "▁resp": 2169,
      "▁scarf": 2170,
      "##²": 2171,
      "▁45": 2172,
      "▁repairs": 2173,
      "##osis": 2174,
      "▁anthony": 2175,
      "▁unconscious": 2176,
      "▁40": 2177,
      "▁gels": 2178,
      "▁comple": 2179,
      "▁armored": 2180,
      "##ased": 2181,
      "▁whilst": 2182,
      "##================": 2183,
      "▁flavor": 2184,
      "▁wait": 2185,
      "▁creates": 2186,
      "▁numer": 2187,
      "▁strictly": 2188,
      "##810": 2189,
      "▁deaths": 2190,
      "##ably": 2191,
      "▁gimp": 2192,
      "ɔ": 2193,
      "▁alone": 2194,
      "▁mixture": 2195,
      "▁cinnamon": 2196,
      "▁dine": 2197,
      "▁cincinnati": 2198,
      "▁abroad": 2199,
      "▁poured": 2200,
      "▁prevented": 2201,
      "##as": 2202,
      "▁basil": 2203,
      "▁underst": 2204,
      "##oly": 2205,
      "##ara": 2206,
      "▁depth": 2207,
      "##essed": 2208,
      "##asy": 2209,
      "▁324": 2210,
      "▁inquir": 2211,
      "▁specification": 2212,
      "▁ian": 2213,
      "▁depths": 2214,
      "▁cries": 2215,
      "▁excessive": 2216,
      "▁differ": 2217,
      "▁technologies": 2218,
      "##adays": 2219,
      "▁tremendous": 2220,
      "▁4_28_00.doc": 2221,
      "▁rear": 2222,
      "▁spores": 2223,
      "▁cows": 2224,
      "▁chose": 2225,
      "▁dudley": 2226,
      "▁chocolates": 2227,
      "##inform": 2228,
      "▁madam": 2229,
      "▁arth": 2230,
      "##own": 2231,
      "▁became": 2232,
      "▁dripping": 2233,
      "▁1981": 2234,
      "##gy": 2235,
      "▁enrongss.xls": 2236,
      "▁beings": 2237,
      "▁follows": 2238,
      "▁tippy": 2239,
      "▁bathtub": 2240,
      "▁sovereign": 2241,
      "▁listed": 2242,
      "▁whoo": 2243,
      "##ous": 2244,
      "##ames": 2245,
      "▁23rd": 2246,
      "▁functioning": 2247,
      "▁proved": 2248,
      "▁poles": 2249,
      "##ila": 2250,
      "##ugh": 2251,
      "▁ee": 2252,
      "▁lest": 2253,
      "##ces": 2254,
      "▁dry": 2255,
      "▁ambulance": 2256,
      "▁saw": 2257,
      "▁944": 2258,
      "▁recipe": 2259,
      "▁defin": 2260,
      "▁mi": 2261,
      "▁mohamed": 2262,
      "▁dil": 2263,
      "▁commodity": 2264,
      "▁transl": 2265,
      "▁derived": 2266,
      "▁consciousness": 2267,
      "▁flat": 2268,
      "##%": 2269,
      "▁instance": 2270,
      "▁corporation": 2271,
      "▁hosts": 2272,
      "▁kus": 2273,
      "##mare": 2274,
      "##o-": 2275,
      "▁decided": 2276,
      "▁please": 2277,
      "▁company": 2278,
      "▁years": 2279,
      "▁shuttle": 2280,
      "▁different": 2281,
      "▁11:3": 2282,
      "▁mechanics": 2283,
      "▁international": 2284,
      "▁integrity": 2285,
      "▁profession": 2286,
      "▁stra": 2287,
      "▁115": 2288,
      "▁wins": 2289,
      "##utical": 2290,
      "▁shahar": 2291,
      "##land": 2292,
      "▁be": 2293,
      "▁outcom": 2294,
      "▁category": 2295,
      "##-d": 2296,
      "##ue": 2297,
      "##enues": 2298,
      "▁pyjamas": 2299,
      "▁memorable": 2300,
      "▁imposing": 2301,
      "▁bedroom": 2302,
      "▁important": 2303,
      "▁pushes": 2304,
      "##rate": 2305,
      "▁bye": 2306,
      "▁cottage": 2307,
      "▁keeps": 2308,
      "▁companion": 2309,
      "##news/": 2310,
      "▁agree": 2311,
      "▁contributions": 2312,
      "##ullah": 2313,
      "▁parade": 2314,
      "##ether": 2315,
      "▁terrible": 2316,
      "▁awoh": 2317,
      "▁quartile": 2318,
      "##alo": 2319,
      "▁recovery": 2320,
      "▁looking": 2321,
      "▁ent": 2322,
      "▁sites": 2323,
      "##for": 2324,
      "##rible": 2325,
      "##子": 2326,
      "▁pad": 2327,
      "▁borg": 2328,
      "##ations": 2329,
      "▁rece": 2330,
      "▁iod": 2331,
      "▁lawy": 2332,
      "##--": 2333,
      "##rans": 2334,
      "▁insurgents": 2335,
      "▁indianapolis": 2336,
      "▁indicates": 2337,
      "▁oreg": 2338,
      "▁wednesday": 2339,
      "▁think": 2340,
      "▁cigarette": 2341,
      "▁meantime": 2342,
      "▁demanding": 2343,
      "▁prec": 2344,
      "▁hurry": 2345,
      "▁words": 2346,
      "▁theod": 2347,
      "▁debra": 2348,
      "##itch": 2349,
      "▁dissatisf": 2350,
      "▁outs": 2351,
      "▁guard": 2352,
      "▁bleeding": 2353,
      "▁drug": 2354,
      "▁correspond": 2355,
      "▁et": 2356,
      "▁hub": 2357,
      "▁good": 2358,
      "##orp": 2359,
      "▁vigor": 2360,
      "##cht": 2361,
      "##===": 2362,
      "▁pursue": 2363,
      "▁gis": 2364,
      "▁purple": 2365,
      "▁coord": 2366,
      "▁enormous": 2367,
      "▁knocked": 2368,
      "▁touched": 2369,
      "##ο": 2370,
      "▁powerful": 2371,
      "##kes": 2372,
      "▁nut": 2373,
      "▁centuries": 2374,
      "▁sir": 2375,
      "况": 2376,
      "▁nashville": 2377,
      "▁purpose": 2378,
      "▁mcg": 2379,
      "##ker": 2380,
      "▁documented": 2381,
      "▁sent": 2382,
      "▁socc": 2383,
      "▁prepare": 2384,
      "##if": 2385,
      "##uj": 2386,
      "▁subtle": 2387,
      "▁discovery": 2388,
      "##asse": 2389,
      "▁shook": 2390,
      "##---": 2391,
      "▁lovely": 2392,
      "##world": 2393,
      "▁....................": 2394,
      "##ihow": 2395,
      "▁chew": 2396,
      "##ession": 2397,
      "▁using": 2398,
      "▁industry": 2399,
      "▁administ": 2400,
      "▁laden": 2401,
      "▁281-435-": 2402,
      "▁paused": 2403,
      "▁poor": 2404,
      "▁large": 2405,
      "▁scen": 2406,
      "▁comprom": 2407,
      "▁muse": 2408,
      "▁implementation": 2409,
      "##ery": 2410,
      "▁--": 2411,
      "▁wid": 2412,
      "▁plants": 2413,
      "##5th": 2414,
      "▁significance": 2415,
      "▁repeating": 2416,
      "▁riverside": 2417,
      "▁providers": 2418,
      "##ʒ": 2419,
      "▁streets": 2420,
      "▁distinguished": 2421,
      "##uding": 2422,
      "▁rod": 2423,
      "▁************************************************": 2424,
      "▁itinerary": 2425,
      "▁jih": 2426,
      "▁grants": 2427,
      "▁contex": 2428,
      "▁ext": 2429,
      "##ura": 2430,
      "▁romeo": 2431,
      "▁nights": 2432,
      "##issipp": 2433,
      "▁52": 2434,
      "▁tool": 2435,
      "▁beaches": 2436,
      "▁amid": 2437,
      "▁plaint": 2438,
      "▁bun": 2439,
      "##ders": 2440,
      "澹": 2441,
      "▁hect": 2442,
      "▁goats": 2443,
      "▁child": 2444,
      "▁doubt": 2445,
      "▁kids": 2446,
      "▁minute": 2447,
      "##cc": 2448,
      "▁give": 2449,
      "▁citiz": 2450,
      "##acle": 2451,
      "▁iranian": 2452,
      "▁trot": 2453,
      "##itama": 2454,
      "▁os": 2455,
      "▁roll": 2456,
      "▁arrog": 2457,
      "##oot": 2458,
      "▁saying": 2459,
      "▁median": 2460,
      "▁forgot": 2461,
      "▁evolutionary": 2462,
      "▁overs": 2463,
      "▁longest": 2464,
      "##.jpg": 2465,
      "##g": 2466,
      "##ined": 2467,
      "▁instruct": 2468,
      "▁mand": 2469,
      "##lymp": 2470,
      "▁6,000": 2471,
      "##ieved": 2472,
      "▁prag": 2473,
      "▁den": 2474,
      "▁rule": 2475,
      "##奈": 2476,
      "▁marx": 2477,
      "▁landings": 2478,
      "▁bce": 2479,
      "▁abuse": 2480,
      "▁liv": 2481,
      "▁nabe": 2482,
      "▁forwarding": 2483,
      "▁postp": 2484,
      "▁knowing": 2485,
      "▁03:58": 2486,
      "▁opposite": 2487,
      "▁abb": 2488,
      "▁premise": 2489,
      "▁romance": 2490,
      "▁cant": 2491,
      "▁account": 2492,
      "▁kevin": 2493,
      "##see": 2494,
      "▁works": 2495,
      "▁motives": 2496,
      "▁ple": 2497,
      "▁sides": 2498,
      "▁surveillance": 2499,
      "▁tab": 2500,
      "▁”": 2501,
      "▁context": 2502,
      "##anks": 2503,
      "▁disin": 2504,
      "▁mutual": 2505,
      "▁shakes": 2506,
      "▁recorded": 2507,
      "##sty": 2508,
      "▁datash": 2509,
      "▁aster": 2510,
      "▁individually": 2511,
      "▁mornings": 2512,
      "▁known": 2513,
      "▁sponsored": 2514,
      "▁gab": 2515,
      "▁titanic": 2516,
      "▁arrows": 2517,
      "▁alban": 2518,
      "▁tob": 2519,
      "▁questionna": 2520,
      "##reh": 2521,
      "▁valentine": 2522,
      "▁couch": 2523,
      "##ko": 2524,
      "▁carr": 2525,
      "##age": 2526,
      "▁beach": 2527,
      "##iced": 2528,
      "##cp": 2529,
      "▁wallet": 2530,
      "##employ": 2531,
      "##amed": 2532,
      "##oping": 2533,
      "▁counted": 2534,
      "▁olivia": 2535,
      "▁ordering": 2536,
      "▁adequ": 2537,
      "▁phenomenon": 2538,
      "▁google": 2539,
      "▁stap": 2540,
      "▁changing": 2541,
      "▁retired": 2542,
      "##ho": 2543,
      "▁jack": 2544,
      "▁jo": 2545,
      "▁agricult": 2546,
      "▁fi": 2547,
      "▁dick": 2548,
      "▁attitude": 2549,
      "##iscal": 2550,
      "▁dialog": 2551,
      "##itated": 2552,
      "##ians": 2553,
      "##mber": 2554,
      "##-00": 2555,
      "▁bruce": 2556,
      "▁finished": 2557,
      "##onsider": 2558,
      "▁dead": 2559,
      "▁receiving": 2560,
      "▁uncom": 2561,
      "▁1821": 2562,
      "▁kevalam": 2563,
      "##elly": 2564,
      "▁com": 2565,
      "▁ye": 2566,
      "▁unlim": 2567,
      "▁wishes": 2568,
      "##ources": 2569,
      "##ost": 2570,
      "▁fred": 2571,
      "▁recognize": 2572,
      "##ز": 2573,
      "▁remainder": 2574,
      "▁anal": 2575,
      "▁deserve": 2576,
      "▁dissemination": 2577,
      "▁doctor": 2578,
      "▁montreal": 2579,
      "▁sequence": 2580,
      "▁!!!": 2581,
      "##iley": 2582,
      "▁dave": 2583,
      "▁iguazu": 2584,
      "▁latest": 2585,
      "▁8:30": 2586,
      "▁bake": 2587,
      "##nut": 2588,
      "▁tr": 2589,
      "▁reputation": 2590,
      "▁covering": 2591,
      "▁tore": 2592,
      "##vis": 2593,
      "##gam": 2594,
      "##in": 2595,
      "##23": 2596,
      "##6th": 2597,
      "▁elaborate": 2598,
      "▁incorrect": 2599,
      "▁improvements": 2600,
      "##nd": 2601,
      "▁redlined": 2602,
      "##ips": 2603,
      "##itis": 2604,
      "▁couples": 2605,
      "▁prevent": 2606,
      "▁realist": 2607,
      "##mental": 2608,
      "##.99": 2609,
      "▁continue": 2610,
      "▁datab": 2611,
      "▁caul": 2612,
      "▁paper": 2613,
      "c": 2614,
      "##ament": 2615,
      "▁inspection": 2616,
      "▁success": 2617,
      "##43": 2618,
      "##iquette": 2619,
      "▁·": 2620,
      "##saoui": 2621,
      "▁missiles": 2622,
      "▁ave": 2623,
      "▁expertise": 2624,
      "▁zawah": 2625,
      "▁philipp": 2626,
      "▁previously": 2627,
      "▁filthy": 2628,
      "##:18": 2629,
      "▁smiling": 2630,
      "▁columbia": 2631,
      "▁effectively": 2632,
      "▁11,000": 2633,
      "▁writ": 2634,
      "##aining": 2635,
      "▁gently": 2636,
      "##dred": 2637,
      "##icip": 2638,
      "▁carefully": 2639,
      "##iddle": 2640,
      "▁elephant": 2641,
      "▁intern": 2642,
      "▁fungi": 2643,
      "▁arrive": 2644,
      "▁basketball": 2645,
      "##jah": 2646,
      "▁dro": 2647,
      "##bye": 2648,
      "▁complim": 2649,
      "▁lay": 2650,
      "▁statute": 2651,
      "▁min": 2652,
      "▁epistemic": 2653,
      "▁subjects": 2654,
      "▁airports": 2655,
      "▁lik": 2656,
      "##ifies": 2657,
      "##phis": 2658,
      "▁resem": 2659,
      "▁prote": 2660,
      "▁slavery": 2661,
      "▁player": 2662,
      "▁returned": 2663,
      "▁goode": 2664,
      "##onymous": 2665,
      "##bl": 2666,
      "▁technology": 2667,
      "##aham": 2668,
      "##ones": 2669,
      "▁pools": 2670,
      "##roc": 2671,
      "▁floren": 2672,
      "▁elsewhere": 2673,
      "▁ss": 2674,
      "▁forward": 2675,
      "▁runs": 2676,
      "▁anymore": 2677,
      "▁commonly": 2678,
      "▁heck": 2679,
      "▁intelligence": 2680,
      "▁trip": 2681,
      "##inews": 2682,
      "▁successfully": 2683,
      "##itals": 2684,
      "▁evidently": 2685,
      "##ember": 2686,
      "▁batter": 2687,
      "▁padalecki": 2688,
      "##aly": 2689,
      "##ial": 2690,
      "▁installing": 2691,
      "▁suggesting": 2692,
      "▁focuses": 2693,
      "▁deliver": 2694,
      "##fl": 2695,
      "▁unless": 2696,
      "##rest": 2697,
      "▁security": 2698,
      "▁shoo": 2699,
      "▁28,000": 2700,
      "▁squares": 2701,
      "▁§": 2702,
      "##aired": 2703,
      "▁breed": 2704,
      "▁xml": 2705,
      "▁529999": 2706,
      "▁acupunct": 2707,
      "##ential": 2708,
      "▁airplanes": 2709,
      "▁bob": 2710,
      "▁713-6": 2711,
      "##ads": 2712,
      "##lad": 2713,
      "▁initiated": 2714,
      "▁eleven": 2715,
      "▁principles": 2716,
      "▁legacy": 2717,
      "##cr": 2718,
      "▁sponge": 2719,
      "##ieve": 2720,
      "▁truth": 2721,
      "▁pacific": 2722,
      "▁straps": 2723,
      "▁private": 2724,
      "▁05:37": 2725,
      "▁wholes": 2726,
      "▁…": 2727,
      "▁hosting": 2728,
      "##wart": 2729,
      "▁conf": 2730,
      "▁highly": 2731,
      "▁cindy": 2732,
      "▁northeast": 2733,
      "##instein": 2734,
      "##ls": 2735,
      "▁fishie": 2736,
      "▁groceries": 2737,
      "▁fortier": 2738,
      "▁index": 2739,
      "▁2009": 2740,
      "▁retract": 2741,
      "▁ne": 2742,
      "▁taxi": 2743,
      "▁responsible": 2744,
      "▁cle": 2745,
      "▁mama": 2746,
      "##antic": 2747,
      "▁merchant": 2748,
      "▁kwww": 2749,
      "▁lifting": 2750,
      "▁displac": 2751,
      "▁listened": 2752,
      "▁clos": 2753,
      "▁measures": 2754,
      "▁determination": 2755,
      "▁:?": 2756,
      "▁um": 2757,
      "##over": 2758,
      "▁swallow": 2759,
      "▁austral": 2760,
      "▁caring": 2761,
      "▁t-": 2762,
      "▁honore": 2763,
      "##ulations": 2764,
      "##ف": 2765,
      "▁om": 2766,
      "▁penal": 2767,
      "▁>----------------------------------------------------------------------------|": 2768,
      "▁cam": 2769,
      "##ct": 2770,
      "##achel": 2771,
      "▁lumin": 2772,
      "▁lufthansa": 2773,
      "▁clothes": 2774,
      "##hr": 2775,
      "##zilla": 2776,
      "▁wtc": 2777,
      "▁dey": 2778,
      "▁pag": 2779,
      "▁morocco": 2780,
      "▁transc": 2781,
      "▁ulterior": 2782,
      "▁neu": 2783,
      "▁precious": 2784,
      "▁descriptions": 2785,
      "▁set": 2786,
      "▁reason": 2787,
      "▁directive": 2788,
      "▁remain": 2789,
      "##uct": 2790,
      "##ache": 2791,
      "▁course": 2792,
      "▁lar": 2793,
      "##atra": 2794,
      "▁name": 2795,
      "▁800.713.8600": 2796,
      "▁syntactic": 2797,
      "▁recc": 2798,
      "##17": 2799,
      "##urse": 2800,
      "##ade": 2801,
      "##bound": 2802,
      "▁meow": 2803,
      "▁bernoulli": 2804,
      "6": 2805,
      "##pp": 2806,
      "▁jew": 2807,
      "▁broadway": 2808,
      "▁un": 2809,
      "▁alar": 2810,
      "##al": 2811,
      "▁...": 2812,
      "▁uss": 2813,
      "▁killed": 2814,
      "▁governing": 2815,
      "▁ninety": 2816,
      "▁conclude": 2817,
      "##search": 2818,
      "##achers": 2819,
      "▁fixed": 2820,
      "##iest": 2821,
      "▁enables": 2822,
      "▁replied": 2823,
      "##.ell": 2824,
      "▁restruct": 2825,
      "▁charming": 2826,
      "##ild": 2827,
      "▁quino": 2828,
      "▁fran": 2829,
      "▁’re": 2830,
      "##490": 2831,
      "▁holds": 2832,
      "▁taipe": 2833,
      "▁purch": 2834,
      "▁thumb": 2835,
      "▁supernat": 2836,
      "▁hus": 2837,
      "▁putting": 2838,
      "##illy": 2839,
      "▁professionalism": 2840,
      "▁come": 2841,
      "▁driven": 2842,
      "▁classified": 2843,
      "▁linked": 2844,
      "▁beau": 2845,
      "▁gradually": 2846,
      "▁press": 2847,
      "▁fold": 2848,
      "▁banks": 2849,
      "##icemail": 2850,
      "▁have": 2851,
      "▁scholar": 2852,
      "▁enemy": 2853,
      "##elson": 2854,
      "▁closing": 2855,
      "##elled": 2856,
      "▁pir": 2857,
      "▁boring": 2858,
      "▁chea": 2859,
      "##orm": 2860,
      "##iguous": 2861,
      "▁perf": 2862,
      "▁supplement": 2863,
      "##ults": 2864,
      "##.0": 2865,
      "▁jay": 2866,
      "##rom": 2867,
      "▁readers": 2868,
      "▁.x": 2869,
      "▁receive": 2870,
      "##eap": 2871,
      "▁rice": 2872,
      "▁how": 2873,
      "▁loi": 2874,
      "▁streams": 2875,
      "▁brig": 2876,
      "▁o'": 2877,
      "▁bel": 2878,
      "▁authentic": 2879,
      "▁relat": 2880,
      "##uses": 2881,
      "##8806": 2882,
      "▁furniture": 2883,
      "##ivity": 2884,
      "▁abo": 2885,
      "▁network": 2886,
      "##:00": 2887,
      "▁anch": 2888,
      "▁wife": 2889,
      "▁contain": 2890,
      "▁adequate": 2891,
      "▁packages": 2892,
      "‘": 2893,
      "▁multiple": 2894,
      "▁ties": 2895,
      "▁quiet": 2896,
      "▁pull": 2897,
      "▁identical": 2898,
      "▁trib": 2899,
      "##argement": 2900,
      "▁ritual": 2901,
      "▁judy": 2902,
      "▁uniqu": 2903,
      "▁twentieth": 2904,
      "▁virtual": 2905,
      "▁wag": 2906,
      "▁inherent": 2907,
      "▁removal": 2908,
      "##hastings.com": 2909,
      "▁santa": 2910,
      "▁i.e.": 2911,
      "▁cock": 2912,
      "▁perdues": 2913,
      "▁pled": 2914,
      "▁reminder": 2915,
      "▁tolerate": 2916,
      "▁playing": 2917,
      "▁indian": 2918,
      "▁treaty": 2919,
      "##enced": 2920,
      "▁eyebrow": 2921,
      "##ologue": 2922,
      "▁couns": 2923,
      "▁11/7": 2924,
      "▁800": 2925,
      "▁jfk": 2926,
      "▁moment": 2927,
      "▁iodised": 2928,
      "▁res": 2929,
      "▁poll": 2930,
      "##cross": 2931,
      "▁educational": 2932,
      "▁filter": 2933,
      "▁jump": 2934,
      "##:37": 2935,
      "▁verd": 2936,
      "▁rapporteur": 2937,
      "##woman": 2938,
      "##ustom": 2939,
      "▁`": 2940,
      "▁fans": 2941,
      "▁cre": 2942,
      "▁consist": 2943,
      "▁inn": 2944,
      "▁criminal": 2945,
      "▁dign": 2946,
      "▁1754": 2947,
      "▁gentlemen": 2948,
      "▁institutions": 2949,
      "▁dang": 2950,
      "▁enact": 2951,
      "▁ears": 2952,
      "▁5:30": 2953,
      "▁arizona": 2954,
      "▁1635": 2955,
      "##bell": 2956,
      "▁patri": 2957,
      "▁dress": 2958,
      "▁dart": 2959,
      "▁indication": 2960,
      "▁!!!!!!!!!!!!!!!": 2961,
      "▁beware": 2962,
      "▁islamabad": 2963,
      "▁dessert": 2964,
      "▁94": 2965,
      "##stem": 2966,
      "▁concentration": 2967,
      "▁fert": 2968,
      "##ito": 2969,
      "▁obtain": 2970,
      "▁sorts": 2971,
      "##-time": 2972,
      "##!": 2973,
      "▁stem": 2974,
      "▁ignor": 2975,
      "▁dim": 2976,
      "▁abbrev": 2977,
      "▁replac": 2978,
      "▁monastery": 2979,
      "▁1970s": 2980,
      "▁replaced": 2981,
      "##achusetts": 2982,
      "½": 2983,
      "▁often": 2984,
      "▁42": 2985,
      "▁dism": 2986,
      "##jj": 2987,
      "##iw": 2988,
      "▁sacrifice": 2989,
      "▁pert": 2990,
      "▁greatest": 2991,
      "▁banglades": 2992,
      "▁mel": 2993,
      "##aceutical": 2994,
      "▁proper": 2995,
      "▁settlement": 2996,
      "▁contrad": 2997,
      "▁ontario": 2998,
      "##gged": 2999,
      "##fa": 3000,
      "##bel": 3001,
      "▁shoulder": 3002,
      "▁armies": 3003,
      "▁mode": 3004,
      "▁warn": 3005,
      "##anan": 3006,
      "##itively": 3007,
      "▁quart": 3008,
      "▁occ": 3009,
      "▁instruments": 3010,
      "▁cats": 3011,
      "##anas": 3012,
      "▁centres": 3013,
      "▁statement": 3014,
      "▁flew": 3015,
      "##inging": 3016,
      "▁laur": 3017,
      "##80": 3018,
      "▁viewers": 3019,
      "##omet": 3020,
      "▁urg": 3021,
      "▁loves": 3022,
      "▁affect": 3023,
      "##uman": 3024,
      "▁tin": 3025,
      "▁fashioned": 3026,
      "▁attack": 3027,
      "▁contents": 3028,
      "##keep": 3029,
      "▁chase": 3030,
      "▁ou": 3031,
      "▁historical": 3032,
      "▁conviction": 3033,
      "▁fake": 3034,
      "▁references": 3035,
      "▁relevant": 3036,
      "▁servant": 3037,
      "▁claim": 3038,
      "▁----": 3039,
      "▁1590": 3040,
      "ß": 3041,
      "▁raf": 3042,
      "▁leverage": 3043,
      "▁renee": 3044,
      "##ored": 3045,
      "▁rifle": 3046,
      "▁magnificent": 3047,
      "▁so-called": 3048,
      "▁identification": 3049,
      "##/8": 3050,
      "▁ran": 3051,
      "##glasses": 3052,
      "##with": 3053,
      "▁epist": 3054,
      "▁scene": 3055,
      "▁informacion": 3056,
      "▁dg": 3057,
      "▁tur": 3058,
      "▁crying": 3059,
      "▁his": 3060,
      "▁exclud": 3061,
      "▁vold": 3062,
      "▁22nd": 3063,
      "▁jeep": 3064,
      "▁hamburg": 3065,
      "▁pop": 3066,
      "##are": 3067,
      "▁bos": 3068,
      "▁prohib": 3069,
      "##ice": 3070,
      "▁hat": 3071,
      "▁managers": 3072,
      "▁crisp": 3073,
      "##product": 3074,
      "##lig": 3075,
      "▁1783": 3076,
      "▁syrup": 3077,
      "▁separate": 3078,
      "▁tenth": 3079,
      "▁mummy": 3080,
      "▁amending": 3081,
      "▁register": 3082,
      "▁insc": 3083,
      "▁specim": 3084,
      "▁bones": 3085,
      "▁650": 3086,
      "▁spectac": 3087,
      "▁1709": 3088,
      "▁0590": 3089,
      "▁09:01": 3090,
      "▁css": 3091,
      "▁tou": 3092,
      "▁myster": 3093,
      "##alam": 3094,
      "▁505-625-8031": 3095,
      "▁dimension": 3096,
      "▁gre": 3097,
      "▁suprem": 3098,
      "▁ad": 3099,
      "▁greetings": 3100,
      "▁observation": 3101,
      "▁neighbour": 3102,
      "▁oxygen": 3103,
      "ə": 3104,
      "▁bandaid": 3105,
      "##,008": 3106,
      "▁door": 3107,
      "▁org": 3108,
      "▁moderate": 3109,
      "##aked": 3110,
      "▁shed": 3111,
      "▁cyclone": 3112,
      "▁moussaoui": 3113,
      "▁mum": 3114,
      "##olog": 3115,
      "▁stephen": 3116,
      "▁infected": 3117,
      "▁tasty": 3118,
      "▁necessity": 3119,
      "▁ended": 3120,
      "▁stole": 3121,
      "▁holy": 3122,
      "▁july": 3123,
      "▁swap": 3124,
      "▁laure": 3125,
      "##bond": 3126,
      "▁homeopathy": 3127,
      "##iy": 3128,
      "▁beater": 3129,
      "##ozer": 3130,
      "##teenth": 3131,
      "▁applic": 3132,
      "▁philip": 3133,
      "##ib": 3134,
      "▁absolute": 3135,
      "▁crab": 3136,
      "▁gallery": 3137,
      "▁entered": 3138,
      "▁various": 3139,
      "▁holly": 3140,
      "▁vo": 3141,
      "##34": 3142,
      "▁acqu": 3143,
      "▁meh-ris": 3144,
      "##enga": 3145,
      "▁466": 3146,
      "##:42": 3147,
      "▁unesco": 3148,
      "##eld": 3149,
      "▁engaging": 3150,
      "▁liquidweb": 3151,
      "▁thirsty": 3152,
      "▁nt": 3153,
      "▁marvel": 3154,
      "▁cogn": 3155,
      "▁proced": 3156,
      "▁futures": 3157,
      "▁declined": 3158,
      "##ows": 3159,
      "▁strategic": 3160,
      "##edule": 3161,
      "▁planet": 3162,
      "▁ensuring": 3163,
      "▁francis": 3164,
      "▁merry": 3165,
      "▁inland": 3166,
      "▁mir": 3167,
      "▁kidney": 3168,
      "▁copying": 3169,
      "▁bodies": 3170,
      "▁pac": 3171,
      "▁neural": 3172,
      "▁a&e": 3173,
      "▁hierarch": 3174,
      "##bol": 3175,
      "▁swed": 3176,
      "▁summar": 3177,
      "▁piled": 3178,
      "▁accompl": 3179,
      "▁lawn": 3180,
      "▁hist": 3181,
      "▁crews": 3182,
      "▁supplies": 3183,
      "▁156": 3184,
      "▁brushing": 3185,
      "▁seconds": 3186,
      "▁hyatt": 3187,
      "▁bronze": 3188,
      "##-19": 3189,
      "▁plenty": 3190,
      "▁bucket": 3191,
      "▁personally": 3192,
      "▁understanding": 3193,
      "▁ai": 3194,
      "▁outright": 3195,
      "##ingle": 3196,
      "▁journey": 3197,
      "▁doubts": 3198,
      "▁aggregate": 3199,
      "▁expanded": 3200,
      "▁policymakers": 3201,
      "##www": 3202,
      "##fet": 3203,
      "▁nap": 3204,
      "##reck": 3205,
      "▁electrical": 3206,
      "##edeen": 3207,
      "▁yahoo!": 3208,
      "▁smells": 3209,
      "▁uvb": 3210,
      "##dron": 3211,
      "▁tal": 3212,
      "▁publicly": 3213,
      "▁searching": 3214,
      "▁scenery": 3215,
      "▁candid": 3216,
      "▁volume": 3217,
      "▁pre-": 3218,
      "▁becuse": 3219,
      "##sticks": 3220,
      "▁surface": 3221,
      "▁communist": 3222,
      "▁auto": 3223,
      "##☎": 3224,
      "##.st": 3225,
      "▁grad": 3226,
      "▁jewish": 3227,
      "▁temp": 3228,
      "##mi": 3229,
      "▁au": 3230,
      "##ift": 3231,
      "##ales": 3232,
      "##90": 3233,
      "##owned": 3234,
      "▁shipped": 3235,
      "▁curs": 3236,
      "▁evil": 3237,
      "▁florida": 3238,
      "##char": 3239,
      "▁fill": 3240,
      "▁jose": 3241,
      "▁solving": 3242,
      "▁alloc": 3243,
      "▁sheriff": 3244,
      "##udes": 3245,
      "##elines": 3246,
      "▁committed": 3247,
      "▁homes": 3248,
      "##arency": 3249,
      "##ou": 3250,
      "▁1584": 3251,
      "▁weapons": 3252,
      "▁leahy": 3253,
      "▁safely": 3254,
      "▁ninth": 3255,
      "▁lone": 3256,
      "▁forest": 3257,
      "##etts": 3258,
      "▁erasmus": 3259,
      "##bled": 3260,
      "##asion": 3261,
      "▁ignored": 3262,
      "▁busy": 3263,
      "##-9": 3264,
      "▁nationwide": 3265,
      "▁happily": 3266,
      "▁shelter": 3267,
      "##engers": 3268,
      "▁added": 3269,
      "▁1.": 3270,
      "▁delete": 3271,
      "##uclear": 3272,
      "▁25": 3273,
      "▁courtney": 3274,
      "▁tonight": 3275,
      "##beat": 3276,
      "▁enterpr": 3277,
      "▁gladly": 3278,
      "##-s": 3279,
      "▁pancakes": 3280,
      "▁shipping": 3281,
      "##ums": 3282,
      "▁immigrants": 3283,
      "▁milwau": 3284,
      "▁require": 3285,
      "▁brand": 3286,
      "▁costly": 3287,
      "▁degenerate": 3288,
      "▁.2": 3289,
      "▁belly": 3290,
      "##omic": 3291,
      "▁inch": 3292,
      "▁oak": 3293,
      "▁based": 3294,
      "▁alcalde": 3295,
      "▁hand": 3296,
      "▁bub": 3297,
      "▁asks": 3298,
      "▁g.": 3299,
      "▁osama": 3300,
      "▁mentioned": 3301,
      "##ub": 3302,
      "▁glam": 3303,
      "##riers": 3304,
      "▁grammar": 3305,
      "##iger": 3306,
      "▁cow": 3307,
      "▁11608": 3308,
      "▁jaff": 3309,
      "▁6400": 3310,
      "▁everywhere": 3311,
      "▁evaluator": 3312,
      "▁1973": 3313,
      "▁affil": 3314,
      "▁kim": 3315,
      "▁martin": 3316,
      "##ident": 3317,
      "▁unles": 3318,
      "▁boeing": 3319,
      "▁scope": 3320,
      "##ellation": 3321,
      "▁disappeared": 3322,
      "##pack": 3323,
      "▁socially": 3324,
      "▁himself": 3325,
      "▁sen": 3326,
      "▁lemon": 3327,
      "##49": 3328,
      "▁preval": 3329,
      "▁conflict": 3330,
      "▁sometimes": 3331,
      "▁vict": 3332,
      "##dge": 3333,
      "▁dys": 3334,
      "▁firstly": 3335,
      "▁breast": 3336,
      "##maid": 3337,
      "##@a": 3338,
      "▁licensing": 3339,
      "▁romantic": 3340,
      "##ˈ": 3341,
      "▁ray": 3342,
      "▁vintage": 3343,
      "▁sudden": 3344,
      "▁treatment": 3345,
      "▁11/27/2000": 3346,
      "▁philadelphia": 3347,
      "##inger": 3348,
      "▁dong": 3349,
      "▁ras": 3350,
      "▁dul": 3351,
      "##-sh": 3352,
      "##ership": 3353,
      "▁largely": 3354,
      "##oton": 3355,
      "▁sequ": 3356,
      "▁69": 3357,
      "▁headband": 3358,
      "▁cover": 3359,
      "▁doggy": 3360,
      "▁ansi-": 3361,
      "##gress": 3362,
      "▁beating": 3363,
      "##space": 3364,
      "▁alarm": 3365,
      "▁enabling": 3366,
      "▁arm": 3367,
      "▁281": 3368,
      "▁rect": 3369,
      "##rum": 3370,
      "##enron.com": 3371,
      "▁unbeliev": 3372,
      "▁grip": 3373,
      "▁toys": 3374,
      "▁conn": 3375,
      "▁locations": 3376,
      "▁scientific": 3377,
      "▁johnson": 3378,
      "##odes": 3379,
      "▁1900": 3380,
      "▁body": 3381,
      "▁sanct": 3382,
      "▁less": 3383,
      "▁basic": 3384,
      "▁pitter": 3385,
      "▁everyone": 3386,
      "##big.html": 3387,
      "▁represent": 3388,
      "▁baking": 3389,
      "▁copy": 3390,
      "▁observed": 3391,
      "▁volunteer": 3392,
      "▁ahab": 3393,
      "▁categor": 3394,
      "▁nurs": 3395,
      "▁squir": 3396,
      "##-b": 3397,
      "▁cooking": 3398,
      "▁olmec": 3399,
      "##ic": 3400,
      "▁rainbow": 3401,
      "▁prompted": 3402,
      "▁prints": 3403,
      "▁leaning": 3404,
      "##utan": 3405,
      "▁medic": 3406,
      "▁saddam": 3407,
      "▁boil": 3408,
      "▁araf": 3409,
      "▁scientists": 3410,
      "▁decor": 3411,
      "▁obt": 3412,
      "##oween": 3413,
      "##qu": 3414,
      "▁smelled": 3415,
      "##ocent": 3416,
      "▁fil": 3417,
      "##peare": 3418,
      "##ght": 3419,
      "##on": 3420,
      "▁>>": 3421,
      "▁percentiles": 3422,
      "▁convince": 3423,
      "▁husband": 3424,
      "▁sum": 3425,
      "##opular": 3426,
      "▁frust": 3427,
      "▁unhunh": 3428,
      "▁dries": 3429,
      "##worms": 3430,
      "▁solas": 3431,
      "▁mater": 3432,
      "▁kandahar": 3433,
      "##f.doc": 3434,
      "##oped": 3435,
      "##.un": 3436,
      "##ord": 3437,
      "▁overcome": 3438,
      "▁peek": 3439,
      "▁pages": 3440,
      "▁novelist": 3441,
      "▁jerome": 3442,
      "▁fighting": 3443,
      "▁825": 3444,
      "▁tunnel": 3445,
      "▁vogelaviatio": 3446,
      "▁bothered": 3447,
      "▁childcare": 3448,
      "##ami": 3449,
      "##ich": 3450,
      "▁1989": 3451,
      "▁pinot": 3452,
      "▁langu": 3453,
      "▁fifteenth": 3454,
      "▁exit": 3455,
      "远": 3456,
      "▁mullah": 3457,
      "▁communities": 3458,
      "▁nervous": 3459,
      "▁products": 3460,
      "##ificent": 3461,
      "▁1613": 3462,
      "▁1801": 3463,
      "▁russian": 3464,
      "##esco": 3465,
      "##oid": 3466,
      "▁invasion": 3467,
      "▁shortly": 3468,
      "▁+++++": 3469,
      "▁100": 3470,
      "▁colour": 3471,
      "▁monit": 3472,
      "##osed": 3473,
      "▁unload": 3474,
      "##.831": 3475,
      "▁preferred": 3476,
      "▁ages": 3477,
      "▁jord": 3478,
      "▁buggy": 3479,
      "▁toxic": 3480,
      "##onsum": 3481,
      "▁2015": 3482,
      "##:21": 3483,
      "##.ur": 3484,
      "##inating": 3485,
      "▁slippers": 3486,
      "▁grown": 3487,
      "▁melting": 3488,
      "##inded": 3489,
      "▁becom": 3490,
      "▁julien": 3491,
      "▁202.7": 3492,
      "##460-33": 3493,
      "▁rhonda": 3494,
      "▁852": 3495,
      "▁make": 3496,
      "▁35": 3497,
      "##ak": 3498,
      "▁1": 3499,
      "▁catch": 3500,
      "▁lantern": 3501,
      "▁abandoned": 3502,
      "▁vary": 3503,
      "▁deep": 3504,
      "▁abdul": 3505,
      "▁angle": 3506,
      "##body": 3507,
      "▁stopovers": 3508,
      "▁equal": 3509,
      "▁hu": 3510,
      "##itting": 3511,
      "▁supers": 3512,
      "##oman": 3513,
      "▁department": 3514,
      "▁advice": 3515,
      "▁dominated": 3516,
      "##ability": 3517,
      "▁stom": 3518,
      "▁phant": 3519,
      "▁vill": 3520,
      "▁restored": 3521,
      "##zales": 3522,
      "##irl": 3523,
      "##ppers": 3524,
      "##90s": 3525,
      "▁teachers": 3526,
      "h": 3527,
      "▁offers": 3528,
      "▁killing": 3529,
      "▁yup": 3530,
      "▁charge": 3531,
      "▁awful": 3532,
      "▁unlik": 3533,
      "▁drops": 3534,
      "▁lose": 3535,
      "5": 3536,
      "▁888.916.7184": 3537,
      "▁policy": 3538,
      "▁pl": 3539,
      "▁id": 3540,
      "##空": 3541,
      "##.clair@enron.com": 3542,
      "▁cruel": 3543,
      "▁fuj": 3544,
      "▁620-294-": 3545,
      "▁1833": 3546,
      "▁adj": 3547,
      "▁fluff": 3548,
      "▁processor": 3549,
      "▁disney": 3550,
      "##ons": 3551,
      "▁consideration": 3552,
      "▁accomm": 3553,
      "▁knives": 3554,
      "▁milan": 3555,
      "▁maker": 3556,
      "▁wasted": 3557,
      "##ced": 3558,
      "▁1871": 3559,
      "▁reconciliation": 3560,
      "▁him": 3561,
      "▁ap": 3562,
      "▁amster": 3563,
      "▁youngest": 3564,
      "▁stoy": 3565,
      "▁send": 3566,
      "##415-": 3567,
      "▁stat": 3568,
      "##ield": 3569,
      "##++++": 3570,
      "▁change": 3571,
      "▁subur": 3572,
      "▁turns": 3573,
      "▁measured": 3574,
      "▁ekrapels@esaibos.com": 3575,
      "##inson": 3576,
      "##bor": 3577,
      "▁wild": 3578,
      "▁keep": 3579,
      "▁ahmed": 3580,
      "▁colin": 3581,
      "▁pap": 3582,
      "▁afternoon": 3583,
      "▁railway": 3584,
      "▁necess": 3585,
      "▁bloody": 3586,
      "##pton": 3587,
      "▁sleeping": 3588,
      "▁revenues": 3589,
      "▁adjusted": 3590,
      "▁cand": 3591,
      "▁occasionally": 3592,
      "▁neoclassical": 3593,
      "▁typically": 3594,
      "▁victims": 3595,
      "##miah": 3596,
      "▁tokyo": 3597,
      "▁leisure": 3598,
      "▁3,": 3599,
      "##ette": 3600,
      "▁businessmen": 3601,
      "▁n't": 3602,
      "▁religion": 3603,
      "▁members": 3604,
      "▁shift": 3605,
      "▁dating": 3606,
      "▁warm": 3607,
      "##irm": 3608,
      "▁inhabit": 3609,
      "▁fairy": 3610,
      "▁nim": 3611,
      "▁bry": 3612,
      "▁martyr": 3613,
      "▁referend": 3614,
      "▁business": 3615,
      "▁sri": 3616,
      "##med": 3617,
      "▁sympt": 3618,
      "▁representatives": 3619,
      "▁desire": 3620,
      "▁finals": 3621,
      "##zer": 3622,
      "##-642": 3623,
      "▁vs": 3624,
      "▁yourselves": 3625,
      "##ix": 3626,
      "▁mailto:": 3627,
      "▁nand": 3628,
      "##-to": 3629,
      "##zac": 3630,
      "▁closer": 3631,
      "##ading": 3632,
      "▁designs": 3633,
      "##go": 3634,
      "▁towed": 3635,
      "##cept": 3636,
      "▁exam": 3637,
      "##.consum": 3638,
      "▁10": 3639,
      "▁seem": 3640,
      "##itement": 3641,
      "▁mood": 3642,
      "##index": 3643,
      "##ther": 3644,
      "##wind": 3645,
      "▁1610": 3646,
      "▁debris": 3647,
      "▁xiii": 3648,
      "▁symbols": 3649,
      "##ements": 3650,
      "##aware": 3651,
      "##der": 3652,
      "##ijing": 3653,
      "▁boo": 3654,
      "▁brian": 3655,
      "##oni": 3656,
      "▁output": 3657,
      "▁bi": 3658,
      "▁coconut": 3659,
      "##ution": 3660,
      "▁davis": 3661,
      "▁western": 3662,
      "▁war": 3663,
      "##ʁ": 3664,
      "##lies": 3665,
      "##bur": 3666,
      "▁sel": 3667,
      "##here": 3668,
      "▁encouraged": 3669,
      "▁austria": 3670,
      "▁explanation": 3671,
      "▁capable": 3672,
      "▁pimple": 3673,
      "▁hund": 3674,
      "▁rarely": 3675,
      "▁heater": 3676,
      "▁beginning": 3677,
      "▁gm": 3678,
      "▁tickles": 3679,
      "▁americas": 3680,
      "##rod": 3681,
      "##icial": 3682,
      "▁shad": 3683,
      "▁renew": 3684,
      "▁dinosaurs": 3685,
      "▁’s": 3686,
      "▁3,202": 3687,
      "▁hav": 3688,
      "##.5": 3689,
      "▁cooper": 3690,
      "▁1925": 3691,
      "##80s": 3692,
      "▁pledge": 3693,
      "▁outdo": 3694,
      "##.2": 3695,
      "##acer": 3696,
      "▁sensor": 3697,
      "▁flowers": 3698,
      "▁mhm": 3699,
      "▁northern": 3700,
      "▁sant": 3701,
      "##435-": 3702,
      "▁programming": 3703,
      "▁grandmother": 3704,
      "▁ve": 3705,
      "##vor": 3706,
      "▁trading": 3707,
      "▁because": 3708,
      "▁starving": 3709,
      "##vance": 3710,
      "▁annex": 3711,
      "▁segment": 3712,
      "##illa": 3713,
      "▁fourth": 3714,
      "▁reef": 3715,
      "##ه": 3716,
      "▁hey": 3717,
      "▁persian": 3718,
      "▁1.1": 3719,
      "▁sal": 3720,
      "▁pg&e": 3721,
      "▁ver": 3722,
      "▁transform": 3723,
      "##gre": 3724,
      "▁arrogant": 3725,
      "##4/2001": 3726,
      "▁temperature": 3727,
      "##ya": 3728,
      "▁enjoy": 3729,
      "##ints": 3730,
      "▁appreciated": 3731,
      "▁revol": 3732,
      "▁interim": 3733,
      "▁consortium": 3734,
      "▁took": 3735,
      "##ers": 3736,
      "##y@ect": 3737,
      "▁useless": 3738,
      "▁dsl": 3739,
      "▁chagrin": 3740,
      "▁judged": 3741,
      "▁cross": 3742,
      "▁badly": 3743,
      "▁101": 3744,
      "▁david": 3745,
      "▁ruin": 3746,
      "▁co": 3747,
      "▁considers": 3748,
      "▁08/16/2000": 3749,
      "▁diff": 3750,
      "▁08:50": 3751,
      "▁jungle": 3752,
      "▁dolph": 3753,
      "▁barger": 3754,
      "##ended": 3755,
      "▁during": 3756,
      "▁northwest": 3757,
      "▁tested": 3758,
      "▁disappointment": 3759,
      "▁locking": 3760,
      "▁engage": 3761,
      "▁electron": 3762,
      "▁scrub": 3763,
      "##bby": 3764,
      "▁dest": 3765,
      "▁hum": 3766,
      "▁monks": 3767,
      "##ze": 3768,
      "▁tsar": 3769,
      "▁particip": 3770,
      "▁ch": 3771,
      "▁gives": 3772,
      "▁throwing": 3773,
      "▁threw": 3774,
      "##ttes": 3775,
      "##az": 3776,
      "▁corps": 3777,
      "▁presently": 3778,
      "▁wings": 3779,
      "▁pork": 3780,
      "▁flexible": 3781,
      "▁curves": 3782,
      "##i-": 3783,
      "▁shuffling": 3784,
      "##att": 3785,
      "##fr": 3786,
      "▁sp": 3787,
      "▁bout": 3788,
      "##ops": 3789,
      "▁directly": 3790,
      "##enn": 3791,
      "▁purely": 3792,
      "▁fan": 3793,
      "▁however": 3794,
      "##p": 3795,
      "▁components": 3796,
      "▁chap": 3797,
      "▁legos": 3798,
      "##.863": 3799,
      "ʃ": 3800,
      "▁encour": 3801,
      "▁depend": 3802,
      "▁edu": 3803,
      "▁fam": 3804,
      "▁compar": 3805,
      "▁gorio": 3806,
      "▁eas": 3807,
      "▁1560": 3808,
      "▁preventing": 3809,
      "▁fab": 3810,
      "▁ju": 3811,
      "▁6.8": 3812,
      "##xim": 3813,
      "▁average": 3814,
      "▁qu": 3815,
      "▁kleen": 3816,
      "##ignment": 3817,
      "▁timothy": 3818,
      "▁lent": 3819,
      "▁specific": 3820,
      "##bar": 3821,
      "▁lights": 3822,
      "▁cin": 3823,
      "▁acceler": 3824,
      "▁comparable": 3825,
      "##cot": 3826,
      "▁sue": 3827,
      "▁folder": 3828,
      "▁gigantic": 3829,
      "##atia": 3830,
      "▁right": 3831,
      "##roll": 3832,
      "▁headline": 3833,
      "##orn": 3834,
      "▁oregon": 3835,
      "##ilt": 3836,
      "▁taylor": 3837,
      "▁1996": 3838,
      "▁machine": 3839,
      "▁engineering": 3840,
      "##una": 3841,
      "▁yaz": 3842,
      "▁cigare": 3843,
      "▁suited": 3844,
      "▁bw": 3845,
      "▁1977": 3846,
      "▁welf": 3847,
      "##web": 3848,
      "##af": 3849,
      "##oos": 3850,
      "▁on": 3851,
      "##----------": 3852,
      "▁kilomet": 3853,
      "##time": 3854,
      "▁glor": 3855,
      "▁salty": 3856,
      "▁hunt": 3857,
      "▁ox": 3858,
      "##/10": 3859,
      "▁tips": 3860,
      "▁laser": 3861,
      "##7/2001": 3862,
      "▁stored": 3863,
      "▁represented": 3864,
      "▁bp": 3865,
      "##algamiento": 3866,
      "▁edges": 3867,
      "▁lets": 3868,
      "##erry": 3869,
      "▁calif": 3870,
      "▁japanese": 3871,
      "▁administr": 3872,
      "▁agel": 3873,
      "▁suggestion": 3874,
      "▁legislation": 3875,
      "▁emphasize": 3876,
      "▁814": 3877,
      "▁belief": 3878,
      "##izabeth": 3879,
      "▁disability": 3880,
      "▁notice": 3881,
      "▁iron": 3882,
      "▁grid": 3883,
      "▁motivation": 3884,
      "▁04:37": 3885,
      "##ainted": 3886,
      "▁nu": 3887,
      "▁chin": 3888,
      "▁naming": 3889,
      "▁shale": 3890,
      "▁30th": 3891,
      "▁qx": 3892,
      "▁canad": 3893,
      "▁careful": 3894,
      "▁spect": 3895,
      "▁gulf": 3896,
      "##ars": 3897,
      "▁route": 3898,
      "##υ": 3899,
      "▁era": 3900,
      "▁mob": 3901,
      "▁.....": 3902,
      "▁cradle": 3903,
      "▁oy": 3904,
      "▁smack": 3905,
      "##ughter": 3906,
      "▁wednesdays": 3907,
      "##essions": 3908,
      "▁stella": 3909,
      "##itty": 3910,
      "##bat": 3911,
      "▁attempting": 3912,
      "▁coup": 3913,
      "▁chalabi": 3914,
      "▁crosses": 3915,
      "▁inspired": 3916,
      "▁said": 3917,
      "▁interceptor": 3918,
      "▁employment": 3919,
      "▁ang": 3920,
      "▁arrang": 3921,
      "▁neg": 3922,
      "##ip": 3923,
      "▁experience": 3924,
      "▁cutting": 3925,
      "▁immediate": 3926,
      "▁54": 3927,
      "▁supporter": 3928,
      "▁translating": 3929,
      "▁domain": 3930,
      "##fe": 3931,
      "▁2.00": 3932,
      "▁friendly": 3933,
      "##,7": 3934,
      "##ory": 3935,
      "▁messaging": 3936,
      "##accept": 3937,
      "▁vegan": 3938,
      "▁monde": 3939,
      "▁clut": 3940,
      "▁ab": 3941,
      "##@enron": 3942,
      "▁computers": 3943,
      "▁banner": 3944,
      "##ber": 3945,
      "##omm": 3946,
      "▁engels": 3947,
      "▁teacher": 3948,
      "##olly": 3949,
      "▁fift": 3950,
      "▁kpa": 3951,
      "▁damascus": 3952,
      "▁monitoring": 3953,
      "▁roy": 3954,
      "▁periods": 3955,
      "▁smok": 3956,
      "▁pachomius": 3957,
      "##ann": 3958,
      "▁behaviors": 3959,
      "▁newly": 3960,
      "##rie": 3961,
      "##-": 3962,
      "▁in": 3963,
      "▁pleased": 3964,
      "▁steak": 3965,
      "▁713-793-": 3966,
      "▁brass": 3967,
      "▁lexical": 3968,
      "▁hino": 3969,
      "▁shrew": 3970,
      "▁cheney": 3971,
      "▁cannon": 3972,
      "▁permanent": 3973,
      "▁pee": 3974,
      "▁fever": 3975,
      "▁trafficking": 3976,
      "▁away": 3977,
      "▁shaped": 3978,
      "▁i.": 3979,
      "▁sli": 3980,
      "▁expectancy": 3981,
      "##5-02.doc": 3982,
      "μ": 3983,
      "##.95": 3984,
      "▁jal": 3985,
      "##ensen": 3986,
      "▁muq": 3987,
      "▁vote": 3988,
      "##ersonal": 3989,
      "▁confidence": 3990,
      "▁tuck": 3991,
      "##im": 3992,
      "##while": 3993,
      "▁xii": 3994,
      "▁hopes": 3995,
      "▁kurtz": 3996,
      "▁code": 3997,
      "▁oops": 3998,
      "▁metropolitan": 3999,
      "▁refused": 4000,
      "▁crap": 4001,
      "▁memoir": 4002,
      "▁margin": 4003,
      "##ting": 4004,
      "▁princip": 4005,
      "▁targets": 4006,
      "▁protocol": 4007,
      "▁relevance": 4008,
      "▁345-99": 4009,
      "##ished": 4010,
      "##iable": 4011,
      "##igration": 4012,
      "▁societ": 4013,
      "▁deeper": 4014,
      "▁quite": 4015,
      "▁establish": 4016,
      "▁revers": 4017,
      "##*": 4018,
      "▁fare": 4019,
      "▁dut": 4020,
      "▁!!!!": 4021,
      "▁retrie": 4022,
      "▁flor": 4023,
      "▁lys": 4024,
      "▁image": 4025,
      "▁fishing": 4026,
      "▁refund": 4027,
      "▁ouij": 4028,
      "▁cooperation": 4029,
      "##ographic": 4030,
      "▁pe": 4031,
      "##dering": 4032,
      "▁econom": 4033,
      "##keeping": 4034,
      "▁posture": 4035,
      "▁spoken": 4036,
      "▁funeral": 4037,
      "▁ironically": 4038,
      "▁continents": 4039,
      "▁relations": 4040,
      "▁stephanie": 4041,
      "▁dunn": 4042,
      "▁congratulations": 4043,
      "▁rah": 4044,
      "▁surely": 4045,
      "▁applications": 4046,
      "▁slide": 4047,
      "▁points": 4048,
      "▁'ve": 4049,
      "##93": 4050,
      "▁web": 4051,
      "▁mitig": 4052,
      "▁adorn": 4053,
      "▁flea": 4054,
      "▁meeting": 4055,
      "▁slipped": 4056,
      "▁petunia": 4057,
      "▁petsmart": 4058,
      "▁phr": 4059,
      "▁lawyer": 4060,
      "▁hydrogen": 4061,
      "##fur": 4062,
      "▁34": 4063,
      "▁bec": 4064,
      "▁values": 4065,
      "▁locked": 4066,
      "▁bits": 4067,
      "##use": 4068,
      "▁tet": 4069,
      "▁stared": 4070,
      "▁1602": 4071,
      "##pin": 4072,
      "##itivity": 4073,
      "##ggy": 4074,
      "▁moist": 4075,
      "▁er": 4076,
      "▁environment": 4077,
      "▁chapter": 4078,
      "▁imp": 4079,
      "##icts": 4080,
      "▁imposs": 4081,
      "▁br": 4082,
      "##dden": 4083,
      "##under": 4084,
      "##ster": 4085,
      "##di": 4086,
      "▁10:34": 4087,
      "##0's": 4088,
      "▁announcement": 4089,
      "##ency": 4090,
      "##olf": 4091,
      "▁03": 4092,
      "##erable": 4093,
      "▁alan": 4094,
      "▁iu": 4095,
      "▁adverts": 4096,
      "▁dent": 4097,
      "▁brains": 4098,
      "▁3.2": 4099,
      "▁cups": 4100,
      "▁morm": 4101,
      "▁undermine": 4102,
      "▁26": 4103,
      "##yr": 4104,
      "▁conservative": 4105,
      "▁regulations": 4106,
      "▁flop": 4107,
      "##-8": 4108,
      "▁warming": 4109,
      "▁reception": 4110,
      "##ff": 4111,
      "▁extraord": 4112,
      "##2": 4113,
      "▁miracle": 4114,
      "▁located": 4115,
      "▁mweta": 4116,
      "▁rescue": 4117,
      "▁ms": 4118,
      "▁accidents": 4119,
      "##ipedia": 4120,
      "##eler": 4121,
      "▁example": 4122,
      "▁16.379": 4123,
      "▁flows": 4124,
      "▁festiv": 4125,
      "▁edwards": 4126,
      "▁nose": 4127,
      "##alog": 4128,
      "▁sing": 4129,
      "▁compaq": 4130,
      "▁gracious": 4131,
      "▁factory": 4132,
      "▁enjoys": 4133,
      "▁trades": 4134,
      "▁opposition": 4135,
      "▁fro": 4136,
      "##obile": 4137,
      "▁rack": 4138,
      "▁stealing": 4139,
      "▁survive": 4140,
      "▁compat": 4141,
      "▁reintrod": 4142,
      "▁waved": 4143,
      "▁powers": 4144,
      "##net": 4145,
      "y": 4146,
      "▁temper": 4147,
      "▁oven": 4148,
      "▁irrit": 4149,
      "▁collaboration": 4150,
      "▁let": 4151,
      "▁sloven": 4152,
      "▁massive": 4153,
      "##iety": 4154,
      "▁fault": 4155,
      "▁bondad": 4156,
      "▁bog": 4157,
      "▁177": 4158,
      "▁soy": 4159,
      "##athan": 4160,
      "##ail": 4161,
      "##ith": 4162,
      "##lessness": 4163,
      "▁instructed": 4164,
      "▁rejected": 4165,
      "##pent": 4166,
      "▁nurse": 4167,
      "▁exist": 4168,
      "▁occasion": 4169,
      "▁presidency": 4170,
      "##339": 4171,
      "▁mines": 4172,
      "##ind": 4173,
      "▁packet": 4174,
      "▁chiba": 4175,
      "▁co-": 4176,
      "##spot.com/": 4177,
      "▁environ": 4178,
      "▁women": 4179,
      "▁13011": 4180,
      "##ering": 4181,
      "▁enlargement": 4182,
      "##dulo": 4183,
      "▁600": 4184,
      "▁perdu": 4185,
      "▁opportunity": 4186,
      "▁p.": 4187,
      "▁anim": 4188,
      "▁act": 4189,
      "▁concerning": 4190,
      "▁incentive": 4191,
      "▁pret": 4192,
      "▁[": 4193,
      "▁crayons": 4194,
      "##********************************": 4195,
      "▁moore": 4196,
      "▁shinjuku": 4197,
      "▁song": 4198,
      "▁willing": 4199,
      "▁xslt": 4200,
      "▁iso": 4201,
      "##ess": 4202,
      "▁diego": 4203,
      "▁fuck": 4204,
      "▁height": 4205,
      "▁dri": 4206,
      "##ric": 4207,
      "▁categories": 4208,
      "▁713-654-1281": 4209,
      "▁fract": 4210,
      "▁de": 4211,
      "##30": 4212,
      "▁listen": 4213,
      "▁reint": 4214,
      "▁operational": 4215,
      "##s.pdf": 4216,
      "▁movements": 4217,
      "▁noida": 4218,
      "▁gir": 4219,
      "▁raccoon": 4220,
      "##ld": 4221,
      "▁rul": 4222,
      "##lines": 4223,
      "▁ern": 4224,
      "▁illust": 4225,
      "▁tournament": 4226,
      "▁epc": 4227,
      "▁human": 4228,
      "▁entertainment": 4229,
      "▁earl": 4230,
      "▁screen": 4231,
      "##θ": 4232,
      "ʒ": 4233,
      "▁times": 4234,
      "▁unim": 4235,
      "▁212": 4236,
      "▁fut": 4237,
      "▁gaza": 4238,
      "##bha-": 4239,
      "▁5/18": 4240,
      "▁1974": 4241,
      "▁actually": 4242,
      "##osoph": 4243,
      "▁infant": 4244,
      "▁immunity": 4245,
      "##fight": 4246,
      "▁mart": 4247,
      "▁built": 4248,
      "▁olymp": 4249,
      "▁joh": 4250,
      "▁distribution": 4251,
      "##uers": 4252,
      "##trans": 4253,
      "##jan": 4254,
      "▁j": 4255,
      "##ways": 4256,
      "▁creek": 4257,
      "▁offered": 4258,
      "##king": 4259,
      "##600": 4260,
      "▁belgium": 4261,
      "▁surprise": 4262,
      "▁stadium": 4263,
      "##elpaso": 4264,
      "##urch": 4265,
      "▁drinks": 4266,
      "▁webs": 4267,
      "▁harmonised": 4268,
      "▁replacement": 4269,
      "▁oz": 4270,
      "▁argent": 4271,
      "▁preferably": 4272,
      "x": 4273,
      "▁spl": 4274,
      "▁gala": 4275,
      "##ans": 4276,
      "▁;)": 4277,
      "▁warmer": 4278,
      "▁helpful": 4279,
      "▁cocoa": 4280,
      "▁inside": 4281,
      "##he": 4282,
      "##po": 4283,
      "▁3889": 4284,
      "▁realization": 4285,
      "▁senses": 4286,
      "▁2.2": 4287,
      "▁vess": 4288,
      "##gle": 4289,
      "▁87": 4290,
      "▁rocky": 4291,
      "▁raised": 4292,
      "##.1": 4293,
      "▁carl": 4294,
      "▁hospitality": 4295,
      "▁01:0": 4296,
      "▁hesit": 4297,
      "▁sensible": 4298,
      "▁consequences": 4299,
      "▁tele": 4300,
      "=": 4301,
      "▁centers": 4302,
      "▁worthwhile": 4303,
      "▁mitch": 4304,
      "▁laughter": 4305,
      "▁insulting": 4306,
      "▁testing": 4307,
      "▁voting": 4308,
      "▁shia": 4309,
      "▁stone": 4310,
      "▁communications": 4311,
      "▁dehy": 4312,
      "▁don": 4313,
      "▁03/02/2001": 4314,
      "▁spokesman": 4315,
      "▁prospects": 4316,
      "▁father": 4317,
      "▁trale": 4318,
      "▁mic": 4319,
      "▁mos": 4320,
      "▁elementary": 4321,
      "▁cuz": 4322,
      "▁max": 4323,
      "##1-9": 4324,
      "▁migrated": 4325,
      "4": 4326,
      "##ounded": 4327,
      "▁lex": 4328,
      "▁inexp": 4329,
      "▁whatever": 4330,
      "▁particularly": 4331,
      "▁malays": 4332,
      "▁si": 4333,
      "▁commission": 4334,
      "##urday": 4335,
      "▁gifts": 4336,
      "▁anderson": 4337,
      "##`": 4338,
      "##onnay": 4339,
      "▁audience": 4340,
      "##encing": 4341,
      "▁behaviour": 4342,
      "##:29": 4343,
      "▁ret": 4344,
      "▁al.": 4345,
      "##cohol": 4346,
      "##hou": 4347,
      "▁disag": 4348,
      "▁fifty": 4349,
      "▁initially": 4350,
      "▁boot": 4351,
      "▁anyone": 4352,
      "▁wolf": 4353,
      "##古": 4354,
      "▁yummy": 4355,
      "▁rules": 4356,
      "▁mothers": 4357,
      "##ime": 4358,
      "▁direct": 4359,
      "▁pi": 4360,
      "▁tourism": 4361,
      "##matic": 4362,
      "▁facebook": 4363,
      "▁if": 4364,
      "▁interesting": 4365,
      "##lish": 4366,
      "▁e": 4367,
      "##-468-3": 4368,
      "##online": 4369,
      "▁assoc": 4370,
      "▁paula": 4371,
      "▁simon": 4372,
      "▁greater": 4373,
      "▁sheep": 4374,
      "##.p": 4375,
      "▁bn": 4376,
      "▁artillery": 4377,
      "▁photographic": 4378,
      "▁extrem": 4379,
      "▁peacefully": 4380,
      "▁television": 4381,
      "▁bond": 4382,
      "##46": 4383,
      "▁byron": 4384,
      "▁noon": 4385,
      "▁youtube": 4386,
      "▁chased": 4387,
      "▁mountain": 4388,
      "▁tracking": 4389,
      "▁automatically": 4390,
      "▁so-c": 4391,
      "##so": 4392,
      "▁luck": 4393,
      "▁use": 4394,
      "▁1504": 4395,
      "▁caucas": 4396,
      "##uffy": 4397,
      "##.ht": 4398,
      "##===<----": 4399,
      "##raid": 4400,
      "▁uneasy": 4401,
      "▁posting": 4402,
      "▁employee": 4403,
      "▁structured": 4404,
      "▁divine": 4405,
      "▁9": 4406,
      "▁defended": 4407,
      "##xture": 4408,
      "##eros": 4409,
      "▁pur": 4410,
      "▁shoe": 4411,
      "##read": 4412,
      "▁whenever": 4413,
      "##-625": 4414,
      "##/chernobyl/": 4415,
      "##sd": 4416,
      "▁wig": 4417,
      "▁111": 4418,
      "▁manusc": 4419,
      "▁!!!?": 4420,
      "##ft": 4421,
      "▁poiss": 4422,
      "▁mathematical": 4423,
      "##ath": 4424,
      "▁african": 4425,
      "▁hebrew": 4426,
      "▁lat": 4427,
      "▁happen": 4428,
      "▁|--------+----------------------->": 4429,
      "▁hourly": 4430,
      "▁prefer": 4431,
      "##mo": 4432,
      "▁quantity": 4433,
      "▁holoca": 4434,
      "▁traditionally": 4435,
      "##inf": 4436,
      "▁ld2d-#693": 4437,
      "▁guardian": 4438,
      "▁fair": 4439,
      "▁universities": 4440,
      "▁twenty-": 4441,
      "▁olympic": 4442,
      "▁pean": 4443,
      "▁arrivals": 4444,
      "▁turistica": 4445,
      "▁possess": 4446,
      "▁elev": 4447,
      "▁blanc": 4448,
      "▁upr": 4449,
      "▁ho": 4450,
      "▁straight": 4451,
      "▁worthy": 4452,
      "▁persistent": 4453,
      "▁bulb": 4454,
      "▁method": 4455,
      "▁defend": 4456,
      "##umed": 4457,
      "g": 4458,
      "▁continent": 4459,
      "##aring": 4460,
      "##phere": 4461,
      "▁developments": 4462,
      "▁polit": 4463,
      "##aka": 4464,
      "▁paulo": 4465,
      "▁cells": 4466,
      "▁very": 4467,
      "▁far": 4468,
      "##izations": 4469,
      "▁,": 4470,
      "##enna": 4471,
      "▁508": 4472,
      "▁level": 4473,
      "▁principal": 4474,
      "▁exploration": 4475,
      "##workers": 4476,
      "▁failing": 4477,
      "▁board": 4478,
      "▁pencil": 4479,
      "##ama": 4480,
      "▁consent": 4481,
      "▁reveal": 4482,
      "▁age": 4483,
      "▁hier": 4484,
      "##itual": 4485,
      "▁introd": 4486,
      "##sters": 4487,
      "▁explaining": 4488,
      "▁dissemin": 4489,
      "▁like": 4490,
      "▁than": 4491,
      "▁sufficient": 4492,
      "▁shout": 4493,
      "##onomy": 4494,
      "▁tractor": 4495,
      "##ansas": 4496,
      "▁email": 4497,
      "▁judg": 4498,
      "▁eager": 4499,
      "▁bunn": 4500,
      "▁poke": 4501,
      "▁none": 4502,
      "▁trac": 4503,
      "▁1965": 4504,
      "▁amazed": 4505,
      "▁acquis": 4506,
      "▁knew": 4507,
      "##aling": 4508,
      "▁seats": 4509,
      "▁proposing": 4510,
      "▁percentile": 4511,
      "▁imper": 4512,
      "▁311": 4513,
      "▁[...": 4514,
      "▁waiver": 4515,
      "▁simultaneously": 4516,
      "▁paths": 4517,
      "▁finishing": 4518,
      "▁breasts": 4519,
      "▁promise": 4520,
      "##utory": 4521,
      "▁concent": 4522,
      "▁instructor": 4523,
      "▁twisted": 4524,
      "##ryn": 4525,
      "▁salt": 4526,
      "▁trying": 4527,
      "##ened": 4528,
      "▁300": 4529,
      "▁obsf": 4530,
      "▁compel": 4531,
      "▁circles": 4532,
      "##angu": 4533,
      "▁demanded": 4534,
      "▁republicans": 4535,
      "▁w": 4536,
      "▁wind": 4537,
      "▁ursula": 4538,
      "▁latter": 4539,
      "##☏": 4540,
      "▁presum": 4541,
      "▁discovered": 4542,
      "▁pocketbook": 4543,
      "##iori": 4544,
      "▁cryst": 4545,
      "▁vag": 4546,
      "▁recip": 4547,
      "▁arrives": 4548,
      "##ma": 4549,
      "▁professional": 4550,
      "▁philosoph": 4551,
      "##ioch": 4552,
      "▁lacking": 4553,
      "▁berry": 4554,
      "▁particle": 4555,
      "▁beloved": 4556,
      "▁net": 4557,
      "▁mwet": 4558,
      "▁compass": 4559,
      "▁transported": 4560,
      "▁loo": 4561,
      "▁suspicion": 4562,
      "▁illegal": 4563,
      "▁gov": 4564,
      "##arents": 4565,
      "##--------------------------------": 4566,
      "▁bee": 4567,
      "##389": 4568,
      "▁1596": 4569,
      "##@compaq.com": 4570,
      "▁publications": 4571,
      "▁welfare": 4572,
      "▁lot": 4573,
      "▁embr": 4574,
      "▁barcl": 4575,
      "##cceed": 4576,
      "▁stupid": 4577,
      "▁execution": 4578,
      "##dog": 4579,
      "▁pass": 4580,
      "▁twelfth": 4581,
      "▁trigger": 4582,
      "▁experimental": 4583,
      "▁abol": 4584,
      "##.61": 4585,
      "▁-final.doc": 4586,
      "▁discussions": 4587,
      "▁printing": 4588,
      "▁efficiency": 4589,
      "▁tennis": 4590,
      "▁qual": 4591,
      "##-c": 4592,
      "▁83": 4593,
      "▁smith": 4594,
      "▁resist": 4595,
      "▁barbeque": 4596,
      "▁nowhere": 4597,
      "▁stayed": 4598,
      "▁cd": 4599,
      "▁silence": 4600,
      "▁dogg": 4601,
      "▁alber": 4602,
      "▁ensure": 4603,
      "##h-ris": 4604,
      "▁outr": 4605,
      "▁appetite": 4606,
      "▁tabennese": 4607,
      "▁manners": 4608,
      "##top": 4609,
      "▁1.25": 4610,
      "▁through": 4611,
      "##201": 4612,
      "▁naughty": 4613,
      "##ds": 4614,
      "▁culturally": 4615,
      "▁flooding": 4616,
      "▁clar": 4617,
      "##_de": 4618,
      "▁birthday": 4619,
      "##ends": 4620,
      "▁condem": 4621,
      "▁symptoms": 4622,
      "▁spear": 4623,
      "▁usi": 4624,
      "▁bare": 4625,
      "▁investments": 4626,
      "▁recre": 4627,
      "▁spacetime": 4628,
      "▁1940": 4629,
      "##gian": 4630,
      "▁repl": 4631,
      "▁inhab": 4632,
      "▁includ": 4633,
      "##enty": 4634,
      "▁hotels": 4635,
      "▁entity": 4636,
      "▁hamas": 4637,
      "▁beans": 4638,
      "##.c": 4639,
      "▁filed": 4640,
      "▁engine": 4641,
      "▁vodka": 4642,
      "▁!!!!!!!!!!": 4643,
      "▁899": 4644,
      "##ights": 4645,
      "##yard": 4646,
      "##stip": 4647,
      "▁hy": 4648,
      "▁carry": 4649,
      "##ø": 4650,
      "▁lips": 4651,
      "▁forwarded": 4652,
      "▁huit": 4653,
      "▁sixty": 4654,
      "##-3": 4655,
      "##abul": 4656,
      "▁profits": 4657,
      "▁skill": 4658,
      "▁oriented": 4659,
      "▁candles": 4660,
      "▁produc": 4661,
      "▁08/03": 4662,
      "##ooking": 4663,
      "▁feel": 4664,
      "▁mor": 4665,
      "▁3/8/00": 4666,
      "##amp": 4667,
      "##4/2000": 4668,
      "##ici": 4669,
      "▁teasp": 4670,
      "▁banknot": 4671,
      "##igning": 4672,
      "▁boundaries": 4673,
      "##pts": 4674,
      "▁jen": 4675,
      "▁techn": 4676,
      "▁opposed": 4677,
      "▁shanna": 4678,
      "##edience": 4679,
      "▁reward": 4680,
      "▁building": 4681,
      "▁6:00": 4682,
      "##bir": 4683,
      "▁fence": 4684,
      "##icop": 4685,
      "▁joyce": 4686,
      "▁debut": 4687,
      "▁skills": 4688,
      "##uggle": 4689,
      "▁rag": 4690,
      "▁pew": 4691,
      "▁drinking": 4692,
      "▁background": 4693,
      "##aq": 4694,
      "▁sweep": 4695,
      "##ares": 4696,
      "▁army": 4697,
      "##sing": 4698,
      "▁playstation": 4699,
      "▁digital": 4700,
      "▁202.456.2461": 4701,
      "▁newspapers": 4702,
      "▁utility": 4703,
      "##org": 4704,
      "▁llc": 4705,
      "▁conquer": 4706,
      "▁bock": 4707,
      "##arian": 4708,
      "▁strip": 4709,
      "▁90s": 4710,
      "▁diss": 4711,
      "##♥": 4712,
      "##ets": 4713,
      "▁taste": 4714,
      "##ects": 4715,
      "##den": 4716,
      "▁occurs": 4717,
      "▁resulted": 4718,
      "▁cathy": 4719,
      "▁dryer": 4720,
      "##­": 4721,
      "▁crossed": 4722,
      "##ansa": 4723,
      "▁weakness": 4724,
      "▁period": 4725,
      "▁boats": 4726,
      "▁alab": 4727,
      "▁remaining": 4728,
      "▁pyramid": 4729,
      "▁rise": 4730,
      "▁up": 4731,
      "▁premium": 4732,
      "▁chronic": 4733,
      "▁he": 4734,
      "▁autom": 4735,
      "##.8317": 4736,
      "▁impression": 4737,
      "▁enr": 4738,
      "▁tablet": 4739,
      "▁drafting": 4740,
      "##.d": 4741,
      "▁toe": 4742,
      "▁local": 4743,
      "▁starbucks": 4744,
      "▁curb": 4745,
      "▁vendors": 4746,
      "##:/": 4747,
      "▁w.": 4748,
      "##02": 4749,
      "▁girlfriend": 4750,
      "▁seattle": 4751,
      "▁helmet": 4752,
      "##-m": 4753,
      "##e": 4754,
      "▁gregg": 4755,
      "▁karen": 4756,
      "##ive": 4757,
      "▁senate": 4758,
      "▁facing": 4759,
      "▁organic": 4760,
      "▁details": 4761,
      "##ement": 4762,
      "##ertain": 4763,
      "▁ansi": 4764,
      "▁victor": 4765,
      "▁seized": 4766,
      "▁2003": 4767,
      "▁nuts": 4768,
      "▁28": 4769,
      "▁boys": 4770,
      "##abilities": 4771,
      "▁coffee": 4772,
      "##mmet": 4773,
      "▁zawahiri": 4774,
      "##xce": 4775,
      "▁publish": 4776,
      "▁2017": 4777,
      "ص": 4778,
      "▁courage": 4779,
      "▁ministry": 4780,
      "▁heart": 4781,
      "▁minor": 4782,
      "▁04/2": 4783,
      "▁qualified": 4784,
      "▁defines": 4785,
      "▁hussein": 4786,
      "▁09/16/99": 4787,
      "##acious": 4788,
      "▁operating": 4789,
      "▁puzz": 4790,
      "▁temperatures": 4791,
      "▁explanations": 4792,
      "▁191": 4793,
      "▁occasions": 4794,
      "▁bom": 4795,
      "▁drunk": 4796,
      "▁awww": 4797,
      "▁other": 4798,
      "▁pick": 4799,
      "▁tenn": 4800,
      "##onent": 4801,
      "▁1997": 4802,
      "▁aa": 4803,
      "▁depart": 4804,
      "▁associ": 4805,
      "▁error": 4806,
      "▁noble": 4807,
      "▁sway": 4808,
      "▁horrible": 4809,
      "▁lingu": 4810,
      "▁paralympic": 4811,
      "##ict": 4812,
      "##otte": 4813,
      "▁arrange": 4814,
      "##ps": 4815,
      "▁track": 4816,
      "▁versions": 4817,
      "▁departs": 4818,
      "▁devoted": 4819,
      "▁topic": 4820,
      "▁vacc": 4821,
      "▁1960": 4822,
      "▁difference": 4823,
      "##fill": 4824,
      "##kward": 4825,
      "##lac": 4826,
      "▁transwestern": 4827,
      "▁prud": 4828,
      "谿": 4829,
      "##wait": 4830,
      "▁accept": 4831,
      "▁genes": 4832,
      "##nic": 4833,
      "##44": 4834,
      "▁seis": 4835,
      "▁scored": 4836,
      "▁formula": 4837,
      "▁rare": 4838,
      "▁marbles": 4839,
      "▁factor": 4840,
      "▁burning": 4841,
      "▁fyi": 4842,
      "▁traveled": 4843,
      "▁intensity": 4844,
      "▁mature": 4845,
      "##bo": 4846,
      "▁read": 4847,
      "▁dropped": 4848,
      "▁william": 4849,
      "☎": 4850,
      "▁cit": 4851,
      "▁http://www.4gamer.net/news/image/2005.09/2005091": 4852,
      "▁te": 4853,
      "▁auntie": 4854,
      "▁713-853-": 4855,
      "▁resident": 4856,
      "▁gave": 4857,
      "##tical": 4858,
      "▁woke": 4859,
      "##b)": 4860,
      "▁india": 4861,
      "▁contact": 4862,
      "▁---------------------------------": 4863,
      "▁hiss": 4864,
      "▁newfound": 4865,
      "▁pride": 4866,
      "##brew": 4867,
      "▁complaining": 4868,
      "▁supported": 4869,
      "▁attempted": 4870,
      "##lain": 4871,
      "▁cameras": 4872,
      "▁saud": 4873,
      "##ocked": 4874,
      "▁disagre": 4875,
      "##page": 4876,
      "▁hugo": 4877,
      "▁catholic": 4878,
      "▁tricks": 4879,
      "▁preserving": 4880,
      "##oning": 4881,
      "▁1-800": 4882,
      "▁office": 4883,
      ";": 4884,
      "##na": 4885,
      "▁leaf": 4886,
      "▁outdoors": 4887,
      "▁yog": 4888,
      "##.676": 4889,
      "▁blount": 4890,
      "▁dna": 4891,
      "##je": 4892,
      "##dham": 4893,
      "▁shrug": 4894,
      "▁controversial": 4895,
      "▁bug": 4896,
      "▁27": 4897,
      "##pa": 4898,
      "▁pay": 4899,
      "▁product": 4900,
      "▁ambit": 4901,
      "▁cra": 4902,
      "▁ukraine": 4903,
      "▁483": 4904,
      "葉": 4905,
      "▁madrid": 4906,
      "▁100,000": 4907,
      "▁wax": 4908,
      "##ilize": 4909,
      "▁stages": 4910,
      "▁performance": 4911,
      "##emen": 4912,
      "▁sci": 4913,
      "##uge": 4914,
      "##ois": 4915,
      "▁strive": 4916,
      "##ishing": 4917,
      "▁instit": 4918,
      "▁participant": 4919,
      "▁dynam": 4920,
      "▁29": 4921,
      "▁climbed": 4922,
      "▁53": 4923,
      "▁hotline": 4924,
      "▁dallas": 4925,
      "##ee": 4926,
      "▁morph": 4927,
      "▁rub": 4928,
      "##pi": 4929,
      "##!!": 4930,
      "▁scheme": 4931,
      "##points": 4932,
      "▁ast": 4933,
      "▁traveler": 4934,
      "##uation": 4935,
      "▁considerable": 4936,
      "▁abst": 4937,
      "▁privacy": 4938,
      "##res": 4939,
      "▁incorpor": 4940,
      "▁1954": 4941,
      "▁montalvo": 4942,
      "▁ethn": 4943,
      "▁lime": 4944,
      "▁dignity": 4945,
      "##d2": 4946,
      "▁leave": 4947,
      "##bondad": 4948,
      "▁gifu": 4949,
      "▁accepting": 4950,
      "##-t": 4951,
      "##can": 4952,
      "##800": 4953,
      "▁epic": 4954,
      "##anim": 4955,
      "##ua": 4956,
      "▁aggressive": 4957,
      "▁polic": 4958,
      "##ro": 4959,
      "▁archit": 4960,
      "▁disappointed": 4961,
      "▁dr": 4962,
      "▁officers": 4963,
      "▁01/26/2001": 4964,
      "▁headquarters": 4965,
      "▁crude": 4966,
      "##uously": 4967,
      "▁april": 4968,
      "▁uhh": 4969,
      "▁couple": 4970,
      "▁overth": 4971,
      "▁kennedy": 4972,
      "▁×": 4973,
      "##ely": 4974,
      "##:25": 4975,
      "▁wong": 4976,
      "▁(:": 4977,
      "▁smart": 4978,
      "▁instr": 4979,
      "▁wants": 4980,
      "▁happ": 4981,
      "▁laws": 4982,
      "▁thursdays": 4983,
      "▁old": 4984,
      "##ahe": 4985,
      "▁steve": 4986,
      "##oler": 4987,
      "▁ground": 4988,
      "##endous": 4989,
      "##iner": 4990,
      "##jal": 4991,
      "▁imprisoned": 4992,
      "##rier": 4993,
      "▁med": 4994,
      "##819": 4995,
      "##beit": 4996,
      "▁isfahan": 4997,
      "▁-----------------------------------------------------------------------": 4998,
      "▁space": 4999,
      "▁portions": 5000,
      "•": 5001,
      "##ites": 5002,
      "##een": 5003,
      "▁visible": 5004,
      "##other": 5005,
      "▁_____": 5006,
      "▁secure": 5007,
      "▁solve": 5008,
      "▁[...]": 5009,
      "▁profess": 5010,
      "▁paperwork": 5011,
      "▁circular": 5012,
      "▁sv": 5013,
      "▁merely": 5014,
      "▁unlikely": 5015,
      "▁expl": 5016,
      "▁yields": 5017,
      "▁04:28": 5018,
      "▁luna": 5019,
      "▁interrog": 5020,
      "▁damn": 5021,
      "▁hated": 5022,
      "▁histor": 5023,
      "##:51": 5024,
      "▁heights": 5025,
      "▁2.0": 5026,
      "▁env": 5027,
      "##ws": 5028,
      "▁musicians": 5029,
      "▁3": 5030,
      "▁coin": 5031,
      "▁employees": 5032,
      "▁integration": 5033,
      "▁airplane": 5034,
      "▁preparing": 5035,
      "▁arkansas": 5036,
      "▁passport": 5037,
      "##:27": 5038,
      "▁establishment": 5039,
      "▁stamp": 5040,
      "##ness": 5041,
      "▁exper": 5042,
      "▁mediterranean": 5043,
      "▁cut": 5044,
      "▁global": 5045,
      "##ortium": 5046,
      "▁films": 5047,
      "▁shr": 5048,
      "▁superf": 5049,
      "▁spac": 5050,
      "▁sched": 5051,
      "▁transp": 5052,
      "▁lu": 5053,
      "▁hoping": 5054,
      "##atch": 5055,
      "▁input": 5056,
      "▁av": 5057,
      "##ically": 5058,
      "▁ackn": 5059,
      "##@n": 5060,
      "▁altern": 5061,
      "##ieth": 5062,
      "7": 5063,
      "▁love": 5064,
      "##iologist": 5065,
      "##134": 5066,
      "##ygen": 5067,
      "▁bless": 5068,
      "▁justice": 5069,
      "##acters": 5070,
      "▁footage": 5071,
      "##k": 5072,
      "▁bro": 5073,
      "▁adh": 5074,
      "▁reaff": 5075,
      "▁passion": 5076,
      "▁202.45": 5077,
      "##quest": 5078,
      "##idd": 5079,
      "▁pho": 5080,
      "##ference": 5081,
      "▁renewed": 5082,
      "▁should": 5083,
      "▁03/2": 5084,
      "▁correspondence": 5085,
      "▁38": 5086,
      "##illery": 5087,
      "▁spine": 5088,
      "▁agre": 5089,
      "▁scrap": 5090,
      "▁sorry": 5091,
      "▁gloria": 5092,
      "▁jimmy": 5093,
      "▁107": 5094,
      "##oodle": 5095,
      "##church": 5096,
      "▁negotiated": 5097,
      "▁screws": 5098,
      "▁owes": 5099,
      "▁friendship": 5100,
      "▁styrofoam": 5101,
      "▁oblig": 5102,
      "▁01:14": 5103,
      "▁pipeline": 5104,
      "▁beak": 5105,
      "▁appeared": 5106,
      "##chief": 5107,
      "▁pope": 5108,
      "▁mistaken": 5109,
      "▁keral": 5110,
      "##-house": 5111,
      "##encer": 5112,
      "▁legally": 5113,
      "##lik": 5114,
      "##****************": 5115,
      "▁tip": 5116,
      "▁charles": 5117,
      "▁brutal": 5118,
      "▁circumstances": 5119,
      "##li": 5120,
      "▁residential": 5121,
      "▁bother": 5122,
      "▁hurts": 5123,
      "##mann": 5124,
      "▁connections": 5125,
      "▁reimbur": 5126,
      "▁justification": 5127,
      "▁ele": 5128,
      "▁labour": 5129,
      "##isb": 5130,
      "▁rain": 5131,
      "▁emperor": 5132,
      "▁3:00": 5133,
      "▁recommended": 5134,
      "▁under": 5135,
      "##ocol": 5136,
      "##naissance": 5137,
      "▁24": 5138,
      "▁jove": 5139,
      "▁lap": 5140,
      "▁02/27/2001": 5141,
      "▁woods": 5142,
      "##len": 5143,
      "▁plate": 5144,
      "▁scrape": 5145,
      "▁feeding": 5146,
      "##vi": 5147,
      "▁kat": 5148,
      "▁adults": 5149,
      "▁versa": 5150,
      "▁pitch": 5151,
      "▁revis": 5152,
      "▁slic": 5153,
      "▁trop": 5154,
      "▁fing": 5155,
      "▁guerrillas": 5156,
      "▁does": 5157,
      "▁21,000": 5158,
      "▁mason": 5159,
      "n": 5160,
      "▁injury": 5161,
      "▁dav": 5162,
      "##2/2001": 5163,
      "▁will": 5164,
      "▁igu": 5165,
      "▁selected": 5166,
      "▁1986": 5167,
      "▁{": 5168,
      "▁policing": 5169,
      "▁stress": 5170,
      "▁syri": 5171,
      "▁carne": 5172,
      "##unition": 5173,
      "▁disappear": 5174,
      "▁dickens": 5175,
      "▁reduces": 5176,
      "▁grain": 5177,
      "▁15th": 5178,
      "▁earthworms": 5179,
      "▁hardest": 5180,
      "##lect": 5181,
      "##-a": 5182,
      "▁expect": 5183,
      "▁gathering": 5184,
      "##agi": 5185,
      "▁fell": 5186,
      "▁improved": 5187,
      "##:07": 5188,
      "▁lawyers": 5189,
      "▁initial": 5190,
      "▁supernatural": 5191,
      "▁remember": 5192,
      "▁protected": 5193,
      "##ful": 5194,
      "▁limous": 5195,
      "##-by": 5196,
      "▁hur": 5197,
      "##15": 5198,
      "▁eval": 5199,
      "##isms": 5200,
      "▁sacred": 5201,
      "##al.doc": 5202,
      "▁spiritual": 5203,
      "##...@gmail.com": 5204,
      "▁revision": 5205,
      "▁left": 5206,
      "▁resil": 5207,
      "▁promotion": 5208,
      "▁habitat": 5209,
      "▁informative": 5210,
      "##occo": 5211,
      "##'t": 5212,
      "▁ac": 5213,
      "▁hibern": 5214,
      "▁mushroom": 5215,
      "▁consequently": 5216,
      "▁ste": 5217,
      "▁area": 5218,
      "##-8031": 5219,
      "##-01": 5220,
      "▁variation": 5221,
      "##bun": 5222,
      "▁vent": 5223,
      "▁everyday": 5224,
      "▁obama": 5225,
      "▁morning": 5226,
      "##12": 5227,
      "▁microw": 5228,
      "▁crust": 5229,
      "▁transactions": 5230,
      "##ocks": 5231,
      "##hire": 5232,
      "▁happier": 5233,
      "▁conducted": 5234,
      "▁following": 5235,
      "▁eastern": 5236,
      "▁delhi": 5237,
      "##ender": 5238,
      "▁scrut": 5239,
      "▁reaching": 5240,
      "▁watch": 5241,
      "▁05/01/2001": 5242,
      "▁sla": 5243,
      "##ated": 5244,
      "▁http": 5245,
      "▁journ": 5246,
      "▁before": 5247,
      "##~": 5248,
      "▁barn": 5249,
      "▁remarks": 5250,
      "▁pending": 5251,
      "▁07/14/2000": 5252,
      "▁1.3": 5253,
      "▁faculty": 5254,
      "▁squirt": 5255,
      "##ye": 5256,
      "▁paste": 5257,
      "▁lb": 5258,
      "▁feather": 5259,
      "▁tik": 5260,
      "▁generous": 5261,
      "##book": 5262,
      "##asts": 5263,
      "▁wildlife": 5264,
      "▁fish": 5265,
      "##ountry": 5266,
      "##fer": 5267,
      "▁naked": 5268,
      "▁flirt": 5269,
      "##berts": 5270,
      "##igs": 5271,
      "▁vogelaviatiola": 5272,
      "▁prototy": 5273,
      "▁ketchup": 5274,
      "▁nas": 5275,
      "▁payments": 5276,
      "▁muslims": 5277,
      "▁ins": 5278,
      "▁touch": 5279,
      "▁murderer": 5280,
      "]": 5281,
      "▁assessing": 5282,
      "##pg": 5283,
      "▁twelve": 5284,
      "▁10:5": 5285,
      "▁looks": 5286,
      "▁pair": 5287,
      "▁sup": 5288,
      "▁evaluation": 5289,
      "▁cord": 5290,
      "▁higu": 5291,
      "▁symbol": 5292,
      "▁researchers": 5293,
      "##lands": 5294,
      "▁entrepreneurial": 5295,
      "▁rescued": 5296,
      "▁pricing": 5297,
      "▁learned": 5298,
      "▁here": 5299,
      "▁seated": 5300,
      "▁june": 5301,
      "▁adaptation": 5302,
      "##ibility": 5303,
      "##-5": 5304,
      "▁struggle": 5305,
      "▁575": 5306,
      "▁bitter": 5307,
      "▁intention": 5308,
      "▁nik": 5309,
      "▁ł": 5310,
      "▁taper": 5311,
      "##hear": 5312,
      "▁yi": 5313,
      "##****": 5314,
      "▁knowledgeable": 5315,
      "▁columbus": 5316,
      "▁focusing": 5317,
      "##.gov": 5318,
      "▁top": 5319,
      "##cum": 5320,
      "▁pow": 5321,
      "▁718": 5322,
      "▁relief": 5323,
      "$": 5324,
      "##ued": 5325,
      "▁197": 5326,
      "▁start": 5327,
      "▁support": 5328,
      "▁sweetie": 5329,
      "▁expressed": 5330,
      "▁supposedly": 5331,
      "##-991-90": 5332,
      "▁submitted": 5333,
      "##ale": 5334,
      "##sheet": 5335,
      "##ues": 5336,
      "##pe": 5337,
      "▁fest": 5338,
      "▁scheduled": 5339,
      "▁requires": 5340,
      "▁etc.": 5341,
      "▁census": 5342,
      "##killed": 5343,
      "▁coach": 5344,
      "▁continues": 5345,
      "▁honesty": 5346,
      "▁partic": 5347,
      "▁contacted": 5348,
      "▁crime": 5349,
      "##liers": 5350,
      "▁allow": 5351,
      "▁mayonna": 5352,
      "##ner": 5353,
      "▁emissions": 5354,
      "▁fry": 5355,
      "▁barrel": 5356,
      "▁bold": 5357,
      "▁gag": 5358,
      "▁interests": 5359,
      "▁suspic": 5360,
      "##equ": 5361,
      "v": 5362,
      "▁houses": 5363,
      "▁phoebe": 5364,
      "##c": 5365,
      "▁cart": 5366,
      "▁searches": 5367,
      "▁elk": 5368,
      "##zed": 5369,
      "▁713-646-3393": 5370,
      "##.85": 5371,
      "##more": 5372,
      "▁alternatives": 5373,
      "▁dennis": 5374,
      "▁pile": 5375,
      "##iences": 5376,
      "##rs": 5377,
      "▁researching": 5378,
      "▁toast": 5379,
      "▁uses": 5380,
      "▁&amp": 5381,
      "▁fighter": 5382,
      "##par": 5383,
      "##ahar": 5384,
      "##eries": 5385,
      "##gamer": 5386,
      "▁expon": 5387,
      "▁190": 5388,
      "##town": 5389,
      "▁staying": 5390,
      "▁zeus": 5391,
      "[PAD]": 5392,
      "▁eczema": 5393,
      "▁shep": 5394,
      "▁arab": 5395,
      "▁yelling": 5396,
      "▁buenos": 5397,
      "##ization": 5398,
      "▁rides": 5399,
      "▁opening": 5400,
      "▁rome": 5401,
      "▁continuing": 5402,
      "▁sput": 5403,
      "▁lisa": 5404,
      "▁08/16": 5405,
      "▁available": 5406,
      "▁robot": 5407,
      "▁aw": 5408,
      "▁hitting": 5409,
      "##apsed": 5410,
      "▁ancient": 5411,
      "▁ano": 5412,
      "▁dutch": 5413,
      "##谿": 5414,
      "▁75": 5415,
      "▁photographs": 5416,
      "▁horsie": 5417,
      "▁pon": 5418,
      "▁citizens": 5419,
      "##illing": 5420,
      "▁congratulate": 5421,
      "▁hod": 5422,
      "▁510-642": 5423,
      "▁dale": 5424,
      "▁carrot": 5425,
      "▁wif": 5426,
      "▁programs": 5427,
      "▁travelers": 5428,
      "##shire": 5429,
      "▁volunteers": 5430,
      "▁wiz": 5431,
      "▁enrich": 5432,
      "##icide": 5433,
      "▁tells": 5434,
      "▁fears": 5435,
      "▁francisco": 5436,
      "▁survived": 5437,
      "▁mute": 5438,
      "##chant": 5439,
      "▁flau": 5440,
      "▁reviews": 5441,
      "▁stories": 5442,
      "▁opinion": 5443,
      "▁dirt": 5444,
      "##bage": 5445,
      "▁together": 5446,
      "##orie": 5447,
      "▁soften": 5448,
      "▁spiral": 5449,
      "##bing": 5450,
      "▁principle": 5451,
      "##.1234": 5452,
      "▁antique": 5453,
      "▁glitter": 5454,
      "▁splend": 5455,
      "▁syria": 5456,
      "▁upd": 5457,
      "▁relying": 5458,
      "▁absent": 5459,
      "▁establishments": 5460,
      "▁integr": 5461,
      "##the": 5462,
      "▁financially": 5463,
      "##ev": 5464,
      "▁club": 5465,
      "▁n-": 5466,
      "▁goose": 5467,
      "##iri": 5468,
      "▁soldiers": 5469,
      "##:15": 5470,
      "▁405": 5471,
      "##entary": 5472,
      "##uing": 5473,
      "##lel": 5474,
      "▁distingu": 5475,
      "▁20th": 5476,
      "▁64": 5477,
      "▁susan": 5478,
      "##iguing": 5479,
      "▁kn": 5480,
      "▁see": 5481,
      "▁london": 5482,
      "樋": 5483,
      "▁animation": 5484,
      "▁carib": 5485,
      "▁vulnerable": 5486,
      "▁appliances": 5487,
      "▁grind": 5488,
      "▁picking": 5489,
      "▁conj": 5490,
      "▁faint": 5491,
      "##isco": 5492,
      "▁look": 5493,
      "▁never": 5494,
      "▁funds": 5495,
      "##amus": 5496,
      "▁interven": 5497,
      "##zz": 5498,
      "▁bm": 5499,
      "##71": 5500,
      "▁thousand": 5501,
      "▁_________________________________": 5502,
      "##ada": 5503,
      "▁erase": 5504,
      "▁kitch": 5505,
      "##ending": 5506,
      "▁wilder": 5507,
      "▁groom": 5508,
      "▁5:00": 5509,
      "##aria": 5510,
      "▁10:00": 5511,
      "▁1972": 5512,
      "▁jugg": 5513,
      "##aneously": 5514,
      "▁lazy": 5515,
      "▁wildcard": 5516,
      "▁consequ": 5517,
      "▁cinc": 5518,
      "▁usa": 5519,
      "▁beast": 5520,
      "▁breeding": 5521,
      "▁spreadsheet": 5522,
      "▁stup": 5523,
      "▁13": 5524,
      "▁argued": 5525,
      "##viat": 5526,
      "▁che": 5527,
      "▁pin": 5528,
      "##i": 5529,
      "▁broad": 5530,
      "▁considered": 5531,
      "▁fragile": 5532,
      "▁potential": 5533,
      "##ult": 5534,
      "▁governments": 5535,
      "##109": 5536,
      "##erina": 5537,
      "▁trad": 5538,
      "##=1": 5539,
      "▁circuit": 5540,
      "▁hermione": 5541,
      "▁days": 5542,
      "##en.": 5543,
      "##igr": 5544,
      "▁gand": 5545,
      "##being": 5546,
      "▁dining": 5547,
      "▁traged": 5548,
      "▁absol": 5549,
      "▁as": 5550,
      "▁contr": 5551,
      "▁onions": 5552,
      "▁palestine": 5553,
      "▁pointed": 5554,
      "▁tracks": 5555,
      "▁end": 5556,
      "##bles": 5557,
      "▁92": 5558,
      "▁stronger": 5559,
      "▁actions": 5560,
      "▁respectfully": 5561,
      "&": 5562,
      "▁impossible": 5563,
      "▁filters": 5564,
      "▁deny": 5565,
      "▁percentage": 5566,
      "##bow": 5567,
      "##kong": 5568,
      "##ploy": 5569,
      "▁harmony": 5570,
      "▁canadian": 5571,
      "▁l'enf": 5572,
      "▁dorm": 5573,
      "##uring": 5574,
      "▁acceptable": 5575,
      "▁1966": 5576,
      "##d": 5577,
      "▁jill": 5578,
      "▁aust": 5579,
      "▁august": 5580,
      "▁hed": 5581,
      "▁em": 5582,
      "##atom": 5583,
      "##oration": 5584,
      "▁weap": 5585,
      "▁ic": 5586,
      "▁sneak": 5587,
      "▁ruy": 5588,
      "##yahoo": 5589,
      "▁explained": 5590,
      "▁invol": 5591,
      "▁ado": 5592,
      "▁obst": 5593,
      "##ark": 5594,
      "▁locomotive": 5595,
      "▁trucks": 5596,
      "▁enov": 5597,
      "▁satanism": 5598,
      "▁impartial": 5599,
      "▁eligible": 5600,
      "##ay": 5601,
      "##uent": 5602,
      "▁train": 5603,
      "▁knowledg": 5604,
      "▁exciting": 5605,
      "##rition": 5606,
      "##ago": 5607,
      "▁347": 5608,
      "▁dc": 5609,
      "▁indeed": 5610,
      "▁immediately": 5611,
      "##ensible": 5612,
      "▁potentially": 5613,
      "▁corp.": 5614,
      "##cill": 5615,
      "##@p": 5616,
      "##ship": 5617,
      "▁applying": 5618,
      "▁pian": 5619,
      "##osing": 5620,
      "▁behav": 5621,
      "▁walker": 5622,
      "▁opera": 5623,
      "▁needles": 5624,
      "▁loans": 5625,
      "▁go": 5626,
      "▁stated": 5627,
      "##eenth": 5628,
      "##power": 5629,
      "▁chip": 5630,
      "▁goodness": 5631,
      "▁dame": 5632,
      "##ech": 5633,
      "▁laundry": 5634,
      "▁poster": 5635,
      "##hold": 5636,
      "▁-----------------------------------------------------------------": 5637,
      "▁gates": 5638,
      "##ors": 5639,
      "##ify": 5640,
      "▁bath+room": 5641,
      "##ption": 5642,
      "?": 5643,
      "▁hide": 5644,
      "▁spells": 5645,
      "▁rel": 5646,
      "▁safe": 5647,
      "##weight": 5648,
      "##ively": 5649,
      "▁mother": 5650,
      "##iro": 5651,
      "▁81": 5652,
      "▁forecast": 5653,
      "##cliff": 5654,
      "▁surrounded": 5655,
      "▁attach": 5656,
      "▁kent": 5657,
      "▁neighbors": 5658,
      "▁count": 5659,
      "▁satisfy": 5660,
      "▁ronald": 5661,
      "▁mt": 5662,
      "▁conserv": 5663,
      "##mine": 5664,
      "##/13/2001": 5665,
      "##aurs": 5666,
      "##:0": 5667,
      "▁correct": 5668,
      "##rella": 5669,
      "##ised": 5670,
      "▁hon": 5671,
      "▁traff": 5672,
      "▁kitten": 5673,
      "▁03/27/2001": 5674,
      "▁customs": 5675,
      "▁print": 5676,
      "▁delight": 5677,
      "▁**": 5678,
      "▁promising": 5679,
      "##ha": 5680,
      "▁possibility": 5681,
      "▁lor": 5682,
      "▁potato": 5683,
      "##-23": 5684,
      "▁notwi": 5685,
      "▁kum": 5686,
      "▁reforms": 5687,
      "▁scream": 5688,
      "▁kwok": 5689,
      "▁alignment": 5690,
      "▁encourage": 5691,
      "▁tasting": 5692,
      "▁tana": 5693,
      "…": 5694,
      "▁spir": 5695,
      "▁breach": 5696,
      "▁actual": 5697,
      "▁1999": 5698,
      "▁casual": 5699,
      "▁taj": 5700,
      "▁called": 5701,
      "▁asking": 5702,
      "▁departures": 5703,
      "▁33": 5704,
      "▁inex": 5705,
      "▁related": 5706,
      "▁terms": 5707,
      "##vers": 5708,
      "▁unf": 5709,
      "▁several": 5710,
      "▁chairman": 5711,
      "▁town": 5712,
      "▁taught": 5713,
      "▁pupp": 5714,
      "▁cases": 5715,
      "▁hockey": 5716,
      "▁casc": 5717,
      "▁paint": 5718,
      "##uel": 5719,
      "▁journal": 5720,
      "##thy": 5721,
      "##erald": 5722,
      "▁compound": 5723,
      "▁mathemat": 5724,
      "▁bump": 5725,
      "▁spaces": 5726,
      "##alph": 5727,
      "▁jersey": 5728,
      "▁sword": 5729,
      "▁8:00": 5730,
      "##year": 5731,
      "▁1987": 5732,
      "##aster": 5733,
      "▁terry": 5734,
      "▁tri": 5735,
      "##r": 5736,
      "▁branch": 5737,
      "##eland": 5738,
      "▁donkey": 5739,
      "▁1926": 5740,
      "##ante": 5741,
      "▁perfection": 5742,
      "▁common": 5743,
      "▁cass": 5744,
      "##istor": 5745,
      "▁accuracy": 5746,
      "##oved": 5747,
      "▁responded": 5748,
      "▁china": 5749,
      "▁dl": 5750,
      "▁5th": 5751,
      "▁ce": 5752,
      "▁proportion": 5753,
      "##jamas": 5754,
      "##.co": 5755,
      "##61": 5756,
      "##oking": 5757,
      "##enders": 5758,
      "▁impl": 5759,
      "▁extensible": 5760,
      "▁title": 5761,
      "##inary": 5762,
      "▁stops": 5763,
      "▁games": 5764,
      "##“": 5765,
      "▁outf": 5766,
      "##olit": 5767,
      "▁renaissance": 5768,
      "▁remarkably": 5769,
      "##itter": 5770,
      "▁thereby": 5771,
      "▁vcu": 5772,
      "▁spider": 5773,
      "##arch": 5774,
      "▁marking": 5775,
      "▁burden": 5776,
      "▁places": 5777,
      "▁cas": 5778,
      "▁169": 5779,
      "▁kiss": 5780,
      "▁ak": 5781,
      "##unk": 5782,
      "##ne": 5783,
      "##omend": 5784,
      "##ings.com": 5785,
      "▁difficult": 5786,
      "▁additional": 5787,
      "▁legit": 5788,
      "##.3": 5789,
      "▁incentives": 5790,
      "##lest": 5791,
      "▁dollars": 5792,
      "▁crowds": 5793,
      "▁y": 5794,
      "▁obl": 5795,
      "##nedy": 5796,
      "▁fired": 5797,
      "▁emily": 5798,
      "▁negotiation": 5799,
      "▁doctr": 5800,
      "▁hagrid": 5801,
      "▁negotiating": 5802,
      "▁recover": 5803,
      "▁sov": 5804,
      "▁330": 5805,
      "▁bon": 5806,
      "##oupe": 5807,
      "▁vivid": 5808,
      "▁carroll": 5809,
      "▁wire": 5810,
      "▁addresses": 5811,
      "##:40": 5812,
      "▁applicable": 5813,
      "▁nandakke": 5814,
      "##bee": 5815,
      "##assing": 5816,
      "▁brothers": 5817,
      "▁sugar": 5818,
      "##wa": 5819,
      "▁wrestle": 5820,
      "▁earthqu": 5821,
      "▁summer": 5822,
      "▁evolving": 5823,
      "▁radi": 5824,
      "##les": 5825,
      "##0s": 5826,
      "##ughters": 5827,
      "##cal": 5828,
      "▁transferred": 5829,
      "▁free": 5830,
      "##iped": 5831,
      "▁behind": 5832,
      "##nondelibreat": 5833,
      "▁something": 5834,
      "▁ris": 5835,
      "l": 5836,
      "▁ay": 5837,
      "▁06/01/2001": 5838,
      "##acles": 5839,
      "▁arguments": 5840,
      "##acam": 5841,
      "▁fellows": 5842,
      "▁flav": 5843,
      "##boy": 5844,
      "▁advis": 5845,
      "▁highlighted": 5846,
      "▁headaches": 5847,
      "▁snuffy": 5848,
      "▁buddhist": 5849,
      "▁cartoon": 5850,
      "▁sick": 5851,
      "▁belie": 5852,
      "▁kath": 5853,
      "▁:)": 5854,
      "▁spong": 5855,
      "##emies": 5856,
      "▁sharing": 5857,
      "▁樋口": 5858,
      "▁national": 5859,
      "▁mal": 5860,
      "##am": 5861,
      "▁ordered": 5862,
      "▁damage": 5863,
      "##ug": 5864,
      "▁08": 5865,
      "▁forster@enron": 5866,
      "▁optional": 5867,
      "▁blow": 5868,
      "▁endang": 5869,
      "##iterranean": 5870,
      "▁courts": 5871,
      "▁characters": 5872,
      "##sm": 5873,
      "▁generate": 5874,
      "##oil": 5875,
      "▁porch": 5876,
      "##ror": 5877,
      "▁850": 5878,
      "▁picked": 5879,
      "▁room": 5880,
      "▁fishes": 5881,
      "##ot.com/": 5882,
      "##ackl": 5883,
      "##igned": 5884,
      "##onents": 5885,
      "▁steal": 5886,
      "##quart": 5887,
      "▁jean": 5888,
      "▁sab": 5889,
      "▁senior": 5890,
      "▁thought": 5891,
      "▁worked": 5892,
      "▁cleaned": 5893,
      "▁licensed": 5894,
      "▁fundament": 5895,
      "▁mosc": 5896,
      "▁ticket": 5897,
      "##rants": 5898,
      "▁swung": 5899,
      "##kana": 5900,
      "▁regulated": 5901,
      "▁blind": 5902,
      "##01": 5903,
      "▁witness": 5904,
      "-": 5905,
      "##aza": 5906,
      "▁dismissed": 5907,
      "▁brad": 5908,
      "##isely": 5909,
      "##room": 5910,
      "##epend": 5911,
      "▁single": 5912,
      "▁vehicle": 5913,
      "▁1928": 5914,
      "▁a1": 5915,
      "##ologically": 5916,
      "▁415.621": 5917,
      "##ches": 5918,
      "▁reference": 5919,
      "##ange": 5920,
      "##unks": 5921,
      "▁armed": 5922,
      "##dp": 5923,
      "▁minerals": 5924,
      "▁popular": 5925,
      "##clus": 5926,
      "▁dots": 5927,
      "▁merit": 5928,
      "▁girl": 5929,
      "▁manipulating": 5930,
      "▁assert": 5931,
      "+": 5932,
      "▁bookstore": 5933,
      "▁monday": 5934,
      "▁famous": 5935,
      "##.916.718": 5936,
      "▁swedish": 5937,
      "▁chips": 5938,
      "▁registration": 5939,
      "▁prot": 5940,
      "▁anc": 5941,
      "▁plug": 5942,
      "▁control": 5943,
      "▁educated": 5944,
      "▁ach": 5945,
      "##8/2001": 5946,
      "▁accur": 5947,
      "▁discomfort": 5948,
      "▁lur": 5949,
      "▁libya": 5950,
      "▁646-8420": 5951,
      "##lah": 5952,
      "▁oper": 5953,
      "▁interior": 5954,
      "##u": 5955,
      "▁29587": 5956,
      "▁anton": 5957,
      "##/7": 5958,
      "##formed": 5959,
      "##ided": 5960,
      "▁gu": 5961,
      "▁kaoshikii": 5962,
      "▁enh": 5963,
      "▁wrapped": 5964,
      "▁fri": 5965,
      "▁|": 5966,
      "▁conflicts": 5967,
      "▁spanking": 5968,
      "##oameric": 5969,
      "*": 5970,
      "##5-": 5971,
      "▁booth": 5972,
      "##terior": 5973,
      "▁sexual": 5974,
      "##iat": 5975,
      "▁wilkins": 5976,
      "▁operation": 5977,
      "##========": 5978,
      "▁wealthy": 5979,
      "▁equivalent": 5980,
      "##ammed": 5981,
      "▁conven": 5982,
      "▁dall": 5983,
      "▁patron": 5984,
      "##ru": 5985,
      "▁helicopter": 5986,
      "##irs": 5987,
      "##dy": 5988,
      "▁owned": 5989,
      "▁********": 5990,
      "▁junk": 5991,
      "▁tires": 5992,
      "▁pic": 5993,
      "##utes": 5994,
      "–": 5995,
      "▁harp": 5996,
      "##orth": 5997,
      "▁worsh": 5998,
      "▁shakespearean": 5999,
      "▁memor": 6000,
      "▁phillip": 6001,
      "▁eleg": 6002,
      "▁torch": 6003,
      "▁mosque": 6004,
      "▁adding": 6005,
      "▁ferc": 6006,
      "▁solar": 6007,
      "##eller": 6008,
      "##orno": 6009,
      "▁fisher": 6010,
      "▁mexican": 6011,
      "##iously": 6012,
      "▁episode": 6013,
      "▁ripe": 6014,
      "▁that": 6015,
      "▁numerous": 6016,
      "##68": 6017,
      "##ing": 6018,
      "##eak": 6019,
      "▁cab": 6020,
      "▁fit": 6021,
      "▁strength": 6022,
      "##ico": 6023,
      "▁.3": 6024,
      "▁girls": 6025,
      "▁snowboard": 6026,
      "▁teen": 6027,
      "▁gl": 6028,
      "▁lack": 6029,
      "▁amidst": 6030,
      "##me": 6031,
      "▁som": 6032,
      "##bridge": 6033,
      "▁nyl": 6034,
      "▁joined": 6035,
      "▁massage": 6036,
      "##@": 6037,
      "▁frost": 6038,
      "▁flights": 6039,
      "##oth": 6040,
      "▁hardness": 6041,
      "##ear": 6042,
      "▁commun": 6043,
      "▁ambitious": 6044,
      "▁ari": 6045,
      "##earing": 6046,
      "▁sanders": 6047,
      "▁put": 6048,
      "▁–": 6049,
      "▁1724": 6050,
      "▁proclaim": 6051,
      "▁disco": 6052,
      "▁quinoa": 6053,
      "²": 6054,
      "▁gw": 6055,
      "##.edu/": 6056,
      "##onc": 6057,
      "▁initiative": 6058,
      "▁page": 6059,
      "##resp": 6060,
      "▁inher": 6061,
      "▁1245": 6062,
      "##vid": 6063,
      "▁sou": 6064,
      "▁scores": 6065,
      "▁silkies": 6066,
      "▁gonzales": 6067,
      "▁814014": 6068,
      "▁gotten": 6069,
      "▁80435": 6070,
      "##cing": 6071,
      "##2-": 6072,
      "▁blanche": 6073,
      "##gig": 6074,
      "▁harv": 6075,
      "▁torrance": 6076,
      "▁bwi": 6077,
      "▁newsgroup": 6078,
      "▁publishing": 6079,
      "##unte": 6080,
      "##lace": 6081,
      "▁advantages": 6082,
      "▁destiny": 6083,
      "▁quarter": 6084,
      "▁powell": 6085,
      "山": 6086,
      "▁marcel": 6087,
      "▁proceedings": 6088,
      "▁floyd": 6089,
      "▁prel": 6090,
      "▁linguistic": 6091,
      "▁spark": 6092,
      "▁refugee": 6093,
      "▁thoughts": 6094,
      "▁fled": 6095,
      "▁null": 6096,
      "▁arts": 6097,
      "##opoly": 6098,
      "▁bearded": 6099,
      "▁invite": 6100,
      "▁adapt": 6101,
      "▁bees": 6102,
      "▁patrons": 6103,
      "▁conclusion": 6104,
      "▁fir": 6105,
      "▁place": 6106,
      "▁3,202.61": 6107,
      "▁democrat": 6108,
      "##big": 6109,
      "▁£": 6110,
      "▁jwww": 6111,
      "##inity": 6112,
      "▁outcomes": 6113,
      "▁artists": 6114,
      "▁lugg": 6115,
      "▁hardly": 6116,
      "##uum": 6117,
      "##-780": 6118,
      "▁licens": 6119,
      "##is_0712": 6120,
      "▁pounds": 6121,
      "▁non": 6122,
      "▁pollution": 6123,
      "▁bioch": 6124,
      "▁site": 6125,
      "▁six": 6126,
      "▁overt": 6127,
      "▁weeds": 6128,
      "▁cir": 6129,
      "▁attem": 6130,
      "▁owls": 6131,
      "▁tighten": 6132,
      "▁tensions": 6133,
      "▁backwards": 6134,
      "q": 6135,
      "▁thanks": 6136,
      "▁truly": 6137,
      "▁mathematic": 6138,
      "▁theropod": 6139,
      "##leon": 6140,
      "▁hesitate": 6141,
      "▁agreed": 6142,
      "▁978": 6143,
      "▁geomet": 6144,
      "▁airlines": 6145,
      "▁exceed": 6146,
      "▁broadcasting": 6147,
      "##teboo": 6148,
      "▁05": 6149,
      "##ategy": 6150,
      "##/1": 6151,
      "▁graphic": 6152,
      "▁aladar": 6153,
      "▁932": 6154,
      "▁claws": 6155,
      "▁reasoned": 6156,
      "##β": 6157,
      "▁defence": 6158,
      "##ittal": 6159,
      "##rence": 6160,
      "▁natural": 6161,
      "œ": 6162,
      "▁calm": 6163,
      "▁viewed": 6164,
      "▁fungus": 6165,
      "▁hearing": 6166,
      "▁celebrated": 6167,
      "▁vie": 6168,
      "▁sac": 6169,
      "▁88": 6170,
      "▁society": 6171,
      "▁mexico": 6172,
      "▁parts": 6173,
      "##enses": 6174,
      "▁foo": 6175,
      "▁custom": 6176,
      "##eurs": 6177,
      "▁dealt": 6178,
      "▁ind": 6179,
      "▁leonardo": 6180,
      "[UNK]": 6181,
      "##51": 6182,
      "▁ladies": 6183,
      "▁extension": 6184,
      "▁thames": 6185,
      "▁constantly": 6186,
      "##ashed": 6187,
      "##ream": 6188,
      "##ructive": 6189,
      "▁55": 6190,
      "▁currently": 6191,
      "▁tail": 6192,
      "▁entire": 6193,
      "##play": 6194,
      "▁christopher": 6195,
      "▁waited": 6196,
      "##ore": 6197,
      "##ribe": 6198,
      "▁wed": 6199,
      "▁30,000": 6200,
      "▁upon": 6201,
      "▁inventory": 6202,
      "##rid": 6203,
      "▁atroph": 6204,
      "▁bang": 6205,
      "▁produces": 6206,
      "▁sale": 6207,
      "▁cross-sectional": 6208,
      "▁04:17": 6209,
      "▁sain": 6210,
      "▁gramm": 6211,
      "▁ruled": 6212,
      "▁sounds": 6213,
      "▁event": 6214,
      "▁warfare": 6215,
      "##word": 6216,
      "▁tap": 6217,
      "▁feathers": 6218,
      "▁tooth": 6219,
      "▁receipt": 6220,
      "▁1616": 6221,
      "▁campaigns": 6222,
      "▁defense": 6223,
      "##ks": 6224,
      "▁snap": 6225,
      "▁gift": 6226,
      "▁indefin": 6227,
      "▁students": 6228,
      "▁sett": 6229,
      "▁judge": 6230,
      "▁included": 6231,
      "▁77": 6232,
      "▁das": 6233,
      "▁pronunciation": 6234,
      "▁remarkable": 6235,
      "##onto": 6236,
      "▁paniotis": 6237,
      "##ondon": 6238,
      "▁aut": 6239,
      "▁cu": 6240,
      "##unications": 6241,
      "▁vulner": 6242,
      "##avian": 6243,
      "▁compassion": 6244,
      "▁painted": 6245,
      "##ng": 6246,
      "▁musician": 6247,
      "▁uniquely": 6248,
      "ł": 6249,
      "▁e-m": 6250,
      "##ruct": 6251,
      "▁funct": 6252,
      "▁ahead": 6253,
      "▁reporting": 6254,
      "▁102": 6255,
      "▁directives": 6256,
      "▁grape": 6257,
      "▁d": 6258,
      "▁running": 6259,
      "▁1689": 6260,
      "▁mud": 6261,
      "▁indef": 6262,
      "##.doc": 6263,
      "##aa": 6264,
      "▁organizing": 6265,
      "##/d": 6266,
      "##cast": 6267,
      "▁snitch": 6268,
      "▁bagh": 6269,
      "▁fountain": 6270,
      "##isan": 6271,
      "▁tut": 6272,
      "##bers": 6273,
      "▁roles": 6274,
      "▁lag": 6275,
      "▁brenner": 6276,
      "▁scanning": 6277,
      "##ll": 6278,
      "##xy": 6279,
      "▁effective": 6280,
      "##0072": 6281,
      "##ector": 6282,
      "▁undergraduate": 6283,
      "▁unhappy": 6284,
      "▁greg": 6285,
      "▁drying": 6286,
      "##ε": 6287,
      "▁cris": 6288,
      "▁diver": 6289,
      "▁ger": 6290,
      "▁prov": 6291,
      "▁consequence": 6292,
      "▁empirical": 6293,
      "##herd": 6294,
      "▁….": 6295,
      "▁lott": 6296,
      "▁adequately": 6297,
      "▁1902": 6298,
      "▁understands": 6299,
      "▁proceeds": 6300,
      "▁baath": 6301,
      "▁vegetarian": 6302,
      "▁female": 6303,
      "▁46": 6304,
      "▁dy": 6305,
      "▁253": 6306,
      "▁levels": 6307,
      "▁deer": 6308,
      "▁lightning": 6309,
      "▁range": 6310,
      "##act": 6311,
      "▁chief": 6312,
      "▁skitt": 6313,
      "▁creature": 6314,
      "▁ft.": 6315,
      "▁labor": 6316,
      "##fore": 6317,
      "▁moisture": 6318,
      "▁broker": 6319,
      "##ibly": 6320,
      "▁permits": 6321,
      "▁productivity": 6322,
      "▁peanuts": 6323,
      "##ination": 6324,
      "▁throu": 6325,
      "##0295": 6326,
      "##况": 6327,
      "##akk": 6328,
      "▁chair": 6329,
      "▁constituency": 6330,
      "▁bit": 6331,
      "▁buy": 6332,
      "▁pict": 6333,
      "▁meth": 6334,
      "▁risk": 6335,
      "##ury": 6336,
      "##odox": 6337,
      "▁tunisia": 6338,
      "▁nope": 6339,
      "▁☎": 6340,
      "▁": 6341,
      "▁beneath": 6342,
      "▁demonstrates": 6343,
      "▁corner": 6344,
      "▁bull": 6345,
      "▁....": 6346,
      "▁compli": 6347,
      "##boats": 6348,
      "ɛ": 6349,
      "##like": 6350,
      "##uf": 6351,
      "##gl": 6352,
      "▁compensate": 6353,
      "▁saved": 6354,
      "▁fluid": 6355,
      "▁---------------------------------------------------------------------------": 6356,
      "▁acquisition": 6357,
      "▁securing": 6358,
      "▁646-84": 6359,
      "##bling": 6360,
      "▁colon": 6361,
      "##b": 6362,
      "##is_0": 6363,
      "▁choices": 6364,
      "▁sic": 6365,
      "##etically": 6366,
      "▁lind": 6367,
      "▁ess": 6368,
      "▁knight": 6369,
      "##vas": 6370,
      "▁forever": 6371,
      "##~*~*~*~*": 6372,
      "▁biod": 6373,
      "▁nancy": 6374,
      "##verance": 6375,
      "##err": 6376,
      "▁conditional": 6377,
      "▁prob": 6378,
      "▁1829": 6379,
      "▁sees": 6380,
      "##-nine": 6381,
      "▁travis": 6382,
      "▁wherever": 6383,
      "##ce": 6384,
      "ʻ": 6385,
      "▁baltimore": 6386,
      "▁th": 6387,
      "▁playwright": 6388,
      "▁overwh": 6389,
      "##ly": 6390,
      "##water": 6391,
      "▁popcorn": 6392,
      "##books": 6393,
      "▁corners": 6394,
      "##igh": 6395,
      "▁nasa": 6396,
      "▁mil": 6397,
      "▁attorn": 6398,
      "▁boyfriend": 6399,
      "▁mainly": 6400,
      "▁conspir": 6401,
      "▁technique": 6402,
      "##.782": 6403,
      "▁repe": 6404,
      "▁esther": 6405,
      "▁term": 6406,
      "▁extent": 6407,
      "▁colonel": 6408,
      "▁christoph": 6409,
      "▁annoying": 6410,
      "▁curtain": 6411,
      "▁propose": 6412,
      "▁62": 6413,
      "▁phone": 6414,
      "▁musharraf": 6415,
      "▁symph": 6416,
      "▁^_^": 6417,
      "▁virtually": 6418,
      "▁saitama": 6419,
      "▁vanished": 6420,
      "▁certificate": 6421,
      "▁exception": 6422,
      "▁interviews": 6423,
      "▁rec": 6424,
      "▁phys": 6425,
      "▁starts": 6426,
      "▁multiply": 6427,
      "▁1998": 6428,
      "▁it's": 6429,
      "▁p.m.": 6430,
      "▁sm": 6431,
      "▁disclaim": 6432,
      "▁fal": 6433,
      "▁mccartney": 6434,
      "▁electric": 6435,
      "##born": 6436,
      "▁screwdriver": 6437,
      "▁approximately": 6438,
      "▁asserted": 6439,
      "##.com/": 6440,
      "▁713-654-": 6441,
      "▁punct": 6442,
      "▁youth": 6443,
      "##olyn": 6444,
      "▁.........": 6445,
      "##:03": 6446,
      "▁covid": 6447,
      "▁school": 6448,
      "▁restaurant": 6449,
      "▁chocolate": 6450,
      "▁bleachers": 6451,
      "▁1592": 6452,
      "##rane": 6453,
      "▁calculations": 6454,
      "▁scam": 6455,
      "##0th": 6456,
      "▁44,000": 6457,
      "▁bay": 6458,
      "▁bite": 6459,
      "▁compreh": 6460,
      "▁stood": 6461,
      "▁trump": 6462,
      "##usc": 6463,
      "▁candidates": 6464,
      "▁manufactured": 6465,
      "▁briefly": 6466,
      "▁renata": 6467,
      "▁prey": 6468,
      "▁tatt": 6469,
      "▁bill": 6470,
      "##-15": 6471,
      "▁transmitted": 6472,
      "▁120,000": 6473,
      "▁join": 6474,
      "▁sleeves": 6475,
      "##eness": 6476,
      "▁cos": 6477,
      "▁mare": 6478,
      "▁8": 6479,
      "##-r": 6480,
      "▁hugh": 6481,
      "α": 6482,
      "▁oct.": 6483,
      "▁devised": 6484,
      "▁shovel": 6485,
      "▁designed": 6486,
      "##a.": 6487,
      "▁1957": 6488,
      "##icy": 6489,
      "▁lean": 6490,
      "##ates": 6491,
      "▁processing": 6492,
      "▁colonial": 6493,
      "##ayed": 6494,
      "##itudes": 6495,
      "▁damp": 6496,
      "▁beverage": 6497,
      "##ulated": 6498,
      "##.6": 6499,
      "▁2nd": 6500,
      "▁1307": 6501,
      "▁ordinary": 6502,
      "##1/2001": 6503,
      "▁undergrad": 6504,
      "▁sciss": 6505,
      "##rupt": 6506,
      "##20s": 6507,
      "▁suspected": 6508,
      "##lause": 6509,
      "##ri": 6510,
      "▁destruction": 6511,
      "##htub": 6512,
      "▁eco": 6513,
      "▁designer": 6514,
      "▁montejo": 6515,
      "▁power": 6516,
      "▁hel": 6517,
      "##burg": 6518,
      "▁vietnamese": 6519,
      "▁note": 6520,
      "▁rot": 6521,
      "##********": 6522,
      "##mate": 6523,
      "▁gravity": 6524,
      "▁imported": 6525,
      "##after": 6526,
      "▁being": 6527,
      "▁availability": 6528,
      "▁freely": 6529,
      "##iary": 6530,
      "##itions": 6531,
      "##/4": 6532,
      "##85": 6533,
      "▁transfer": 6534,
      "▁transaction": 6535,
      "##essive": 6536,
      "▁**********": 6537,
      "##au": 6538,
      "##uate": 6539,
      "##eff": 6540,
      "▁ornament": 6541,
      "▁lyn": 6542,
      "▁engineers": 6543,
      "▁jeff": 6544,
      "▁managing": 6545,
      "▁they": 6546,
      "▁articles": 6547,
      "▁buttered": 6548,
      "▁dust": 6549,
      "▁1993": 6550,
      "##aff": 6551,
      "##image/2005.09": 6552,
      "▁diana": 6553,
      "##oma": 6554,
      "▁mujah": 6555,
      "▁christianity": 6556,
      "▁elder": 6557,
      "▁academic": 6558,
      "▁eyes": 6559,
      "▁volley": 6560,
      "##-of": 6561,
      "▁mer": 6562,
      "##apore": 6563,
      "▁carney": 6564,
      "▁remembered": 6565,
      "▁cay": 6566,
      "▁deed": 6567,
      "▁pakistan": 6568,
      "▁unique": 6569,
      "▁figures": 6570,
      "##low": 6571,
      "▁813": 6572,
      "▁motive": 6573,
      "▁concert": 6574,
      "▁mask": 6575,
      "##se": 6576,
      "▁2050": 6577,
      "▁mayko": 6578,
      "▁constitute": 6579,
      "▁eight": 6580,
      "▁hind": 6581,
      "▁muscles": 6582,
      "▁2004": 6583,
      "▁nante": 6584,
      "▁columns": 6585,
      "▁engagement": 6586,
      "▁tools": 6587,
      "▁intervention": 6588,
      "▁worker": 6589,
      "▁quant": 6590,
      "▁frisco": 6591,
      "▁6.1": 6592,
      "▁anth": 6593,
      "▁vlog": 6594,
      "▁telephones": 6595,
      "▁tire": 6596,
      "▁fourteenth": 6597,
      "▁four": 6598,
      "▁att": 6599,
      "▁elizabeth": 6600,
      "##ird": 6601,
      "▁ending": 6602,
      "▁lif": 6603,
      "##ommend": 6604,
      "▁drift": 6605,
      "▁rachel": 6606,
      "▁appearance": 6607,
      "▁kar": 6608,
      "▁aims": 6609,
      "▁angel": 6610,
      "▁80": 6611,
      "▁governor": 6612,
      "▁ansi-89": 6613,
      "▁cooker": 6614,
      "##apping": 6615,
      "▁bird": 6616,
      "##aped": 6617,
      "▁widely": 6618,
      "▁flower": 6619,
      "▁!!": 6620,
      "▁divisions": 6621,
      "▁attracting": 6622,
      "##ains": 6623,
      "[SEP]": 6624,
      "▁bright": 6625,
      "▁fore": 6626,
      "▁sox": 6627,
      "▁themes": 6628,
      "▁banking": 6629,
      "▁reviewed": 6630,
      "▁missed": 6631,
      "▁library": 6632,
      "▁hr": 6633,
      "▁1937": 6634,
      "▁enfor": 6635,
      "▁caught": 6636,
      "##22,000": 6637,
      "##.pdf": 6638,
      "▁grizz": 6639,
      "▁gloom": 6640,
      "▁france": 6641,
      "▁41": 6642,
      "##miss": 6643,
      "▁cried": 6644,
      "▁electricity": 6645,
      "▁slip": 6646,
      "▁continuation": 6647,
      "▁dursleys": 6648,
      "##abi": 6649,
      "##-cage": 6650,
      "##comp": 6651,
      "▁mant": 6652,
      "▁lennon": 6653,
      "##ules": 6654,
      "▁caf": 6655,
      "##hood": 6656,
      "▁mis": 6657,
      "▁header": 6658,
      "▁elimin": 6659,
      "▁leg": 6660,
      "▁----==": 6661,
      "▁11:36": 6662,
      "▁va": 6663,
      "▁mat": 6664,
      "##lyn": 6665,
      "##abled": 6666,
      "▁sustainable": 6667,
      "▁aqu": 6668,
      "▁cans": 6669,
      "▁irrele": 6670,
      "▁posters": 6671,
      "▁serpent": 6672,
      "##hast": 6673,
      "▁prim": 6674,
      "##mir": 6675,
      "▁musical": 6676,
      "##ton": 6677,
      "##priced": 6678,
      "▁museums": 6679,
      "▁en": 6680,
      "▁manif": 6681,
      "▁heavy": 6682,
      "▁laptop": 6683,
      "▁jokes": 6684,
      "▁nail": 6685,
      "▁pach": 6686,
      "▁establishing": 6687,
      "▁khins": 6688,
      "▁blown": 6689,
      "##onia": 6690,
      "▁brooklyn": 6691,
      "##eys": 6692,
      "▁resour": 6693,
      "▁mac": 6694,
      "▁impress": 6695,
      "▁house": 6696,
      "▁1910": 6697,
      "▁compensation": 6698,
      "▁mo": 6699,
      "##tsbur": 6700,
      "▁photographers": 6701,
      "##87": 6702,
      "▁influential": 6703,
      "▁vietnam": 6704,
      "▁ammunition": 6705,
      "##ulpt": 6706,
      "▁touching": 6707,
      "▁ole": 6708,
      "##ine": 6709,
      "##cab": 6710,
      "▁ob": 6711,
      "▁import": 6712,
      "▁drive": 6713,
      "▁1877": 6714,
      "▁terminal": 6715,
      "▁44": 6716,
      "##ardy": 6717,
      "▁staircase": 6718,
      "▁constant": 6719,
      "▁british": 6720,
      "##inski": 6721,
      "##eeze": 6722,
      "▁teh": 6723,
      "##using": 6724,
      "▁charity": 6725,
      "▁bench": 6726,
      "##ter": 6727,
      "##ia": 6728,
      "▁terrorists": 6729,
      "▁strings": 6730,
      "##elf": 6731,
      "▁prospect": 6732,
      "▁kitchen": 6733,
      "▁conditioning": 6734,
      "▁296": 6735,
      "##-up": 6736,
      "▁hen": 6737,
      "▁ich": 6738,
      "▁across": 6739,
      "▁strange": 6740,
      "▁edit": 6741,
      "▁remains": 6742,
      "▁silent": 6743,
      "▁flaw": 6744,
      "##station": 6745,
      "▁llms": 6746,
      "##zo": 6747,
      "##rain": 6748,
      "▁making": 6749,
      "▁infrastructure": 6750,
      "##oto": 6751,
      "▁zurbaran": 6752,
      "▁11:45": 6753,
      "▁rivers": 6754,
      "▁sweeping": 6755,
      "▁clair": 6756,
      "▁03/28/2001": 6757,
      "▁twitter": 6758,
      "▁phill": 6759,
      "##very": 6760,
      "▁zip": 6761,
      "▁locomot": 6762,
      "▁wagon": 6763,
      "▁rough": 6764,
      "▁619": 6765,
      "##ateful": 6766,
      "▁opened": 6767,
      "##~*~*": 6768,
      "▁downtown": 6769,
      "▁earth": 6770,
      "▁fin": 6771,
      "▁unknown": 6772,
      "▁orchest": 6773,
      "▁y-": 6774,
      "▁alph": 6775,
      "▁integrated": 6776,
      "##rd": 6777,
      "▁crew": 6778,
      "▁entry": 6779,
      "▁pleasant": 6780,
      "##arts": 6781,
      "▁controlling": 6782,
      "▁ont": 6783,
      "▁memphis": 6784,
      "▁figured": 6785,
      "##ky": 6786,
      "▁w3c": 6787,
      "▁aband": 6788,
      "▁used": 6789,
      "▁jam": 6790,
      "▁license": 6791,
      "▁spiderman": 6792,
      "▁veto": 6793,
      "▁aer": 6794,
      "▁limitations": 6795,
      "▁examples": 6796,
      "▁insight": 6797,
      "▁gut": 6798,
      "##plete": 6799,
      "##.co.uk": 6800,
      "▁unconsc": 6801,
      "##math": 6802,
      "##anta": 6803,
      "▁purchased": 6804,
      "▁optim": 6805,
      "##bha": 6806,
      "▁desper": 6807,
      "▁contexts": 6808,
      "##iring": 6809,
      "▁advent": 6810,
      "▁potatoes": 6811,
      "▁disorders": 6812,
      "▁distances": 6813,
      "▁ped": 6814,
      "▁guards": 6815,
      "▁shinza": 6816,
      "▁zo": 6817,
      "▁tofu": 6818,
      "▁30": 6819,
      "▁dubai": 6820,
      "▁cuba": 6821,
      "▁science": 6822,
      "▁auster": 6823,
      "▁obser": 6824,
      "##orrow": 6825,
      "##rant": 6826,
      "##er": 6827,
      "▁hoc": 6828,
      "▁financ": 6829,
      "▁travel": 6830,
      "▁wel": 6831,
      "▁counterfeiting": 6832,
      "▁hostile": 6833,
      "▁laughs": 6834,
      "▁created": 6835,
      "▁alligator": 6836,
      "ز": 6837,
      "##abel": 6838,
      "▁fame": 6839,
      "▁unfamiliar": 6840,
      "▁acknowledge": 6841,
      "▁darin": 6842,
      "▁discl": 6843,
      "▁calling": 6844,
      "▁select": 6845,
      "▁530": 6846,
      "▁pail": 6847,
      "▁throughout": 6848,
      "▁nic": 6849,
      "▁lon": 6850,
      "##fahan": 6851,
      "▁pudding": 6852,
      "▁neatly": 6853,
      "▁chantilly": 6854,
      "▁run": 6855,
      "▁her": 6856,
      "##fts": 6857,
      "▁stick": 6858,
      "##ras": 6859,
      "▁***": 6860,
      "▁dung": 6861,
      "▁switched": 6862,
      "##ual": 6863,
      "▁sink": 6864,
      "▁document": 6865,
      "▁eh": 6866,
      "▁baker": 6867,
      "▁exchanged": 6868,
      "▁m80": 6869,
      "▁subs": 6870,
      "▁plastic": 6871,
      "▁decrease": 6872,
      "▁advert": 6873,
      "##apt": 6874,
      "▁upi": 6875,
      "##ior": 6876,
      "▁migrants": 6877,
      "▁aboard": 6878,
      "▁gentleman": 6879,
      "▁life": 6880,
      "▁enterprise": 6881,
      "##nal": 6882,
      "▁origins": 6883,
      "▁referred": 6884,
      "▁verse": 6885,
      "▁abbreviation": 6886,
      "##redes": 6887,
      "▁procedures": 6888,
      "▁worse": 6889,
      "▁nonsense": 6890,
      "▁squashed": 6891,
      "▁sister": 6892,
      "##note": 6893,
      "▁10/20/2000": 6894,
      "▁ding": 6895,
      "▁backward": 6896,
      "▁khan@transredes": 6897,
      "▁shine": 6898,
      "▁slides": 6899,
      "##ims": 6900,
      "▁socotra": 6901,
      "▁unclear": 6902,
      "##22": 6903,
      "##:23": 6904,
      "##v": 6905,
      "▁provides": 6906,
      "▁spos": 6907,
      "▁coron": 6908,
      "▁pud": 6909,
      "▁http://www.4gamer.net/news/image/2005.09": 6910,
      "▁nether": 6911,
      "▁internet": 6912,
      "▁answer": 6913,
      "##rax": 6914,
      "##leg": 6915,
      "▁with": 6916,
      "▁surrender": 6917,
      "▁offer": 6918,
      "▁biden": 6919,
      "▁staff": 6920,
      "▁describes": 6921,
      "##.d.": 6922,
      "▁hole": 6923,
      "▁12:12": 6924,
      "▁compared": 6925,
      "##ottie": 6926,
      "▁benefit": 6927,
      "▁checking": 6928,
      "##cling": 6929,
      "▁uk": 6930,
      "▁funded": 6931,
      "▁katrina": 6932,
      "##29": 6933,
      "▁pu": 6934,
      "▁grilled": 6935,
      "▁independ": 6936,
      "▁979": 6937,
      "▁wanted": 6938,
      "▁obs": 6939,
      "▁infinite": 6940,
      "##six": 6941,
      "▁ought": 6942,
      "##ull": 6943,
      "##ymp": 6944,
      "▁trailer": 6945,
      "▁landscape": 6946,
      "▁thom": 6947,
      "▁susanna": 6948,
      "▁planted": 6949,
      "##31": 6950,
      "▁flakes": 6951,
      "▁plot": 6952,
      "##iss": 6953,
      "▁202.456.1414": 6954,
      "##ansion": 6955,
      "##ped": 6956,
      "▁dentist": 6957,
      "##ited": 6958,
      "##uster": 6959,
      "##/31": 6960,
      "▁whale": 6961,
      "▁shi": 6962,
      "▁ginny": 6963,
      "▁42,000": 6964,
      "▁det": 6965,
      "▁drove": 6966,
      "▁hate": 6967,
      "##kaido": 6968,
      "▁matter": 6969,
      "▁bou": 6970,
      "▁habits": 6971,
      "▁l.": 6972,
      "##iana": 6973,
      "▁bucks": 6974,
      "▁dire": 6975,
      "▁50": 6976,
      "▁continental": 6977,
      "▁motel": 6978,
      "j": 6979,
      "▁sandwiches": 6980,
      "▁so": 6981,
      "▁hards": 6982,
      "▁equals": 6983,
      "▁reasons": 6984,
      "▁post": 6985,
      "##coon": 6986,
      "▁investigation": 6987,
      "▁cat": 6988,
      "▁afraid": 6989,
      "▁slave": 6990,
      "▁tug": 6991,
      "▁conform": 6992,
      "▁bulldozer": 6993,
      "##57": 6994,
      "##stock": 6995,
      "▁sunday": 6996,
      "##ible": 6997,
      "▁terre": 6998,
      "▁fresh": 6999,
      "▁subst": 7000,
      "▁strategy": 7001,
      "▁head": 7002,
      "▁guadeloupe": 7003,
      "▁descended": 7004,
      "▁try": 7005,
      "▁pasta": 7006,
      "▁injust": 7007,
      "▁reserv": 7008,
      "▁embedded": 7009,
      "##grade": 7010,
      "▁fashion": 7011,
      "▁10:30": 7012,
      "▁gwww": 7013,
      "▁declaration": 7014,
      "▁mann": 7015,
      "▁hostess": 7016,
      "▁wellington": 7017,
      "▁impro": 7018,
      "##mon": 7019,
      "▁tru": 7020,
      "▁autof": 7021,
      "##ching": 7022,
      "▁agent": 7023,
      "▁colleagues": 7024,
      "##ested": 7025,
      "##agger": 7026,
      "▁savings": 7027,
      "##ias": 7028,
      "##bi": 7029,
      "▁rental": 7030,
      "▁implicated": 7031,
      "##verted": 7032,
      "##os.com": 7033,
      "##ationally": 7034,
      "##ippers": 7035,
      "##huh": 7036,
      "##ners": 7037,
      "▁subjected": 7038,
      "▁$": 7039,
      "##beijing": 7040,
      "▁tam": 7041,
      "▁declar": 7042,
      "▁define": 7043,
      "▁1799": 7044,
      "▁bib": 7045,
      "##people": 7046,
      "▁curry": 7047,
      "▁dollar": 7048,
      "##chester": 7049,
      "##-12": 7050,
      "▁reaches": 7051,
      "▁rathbun": 7052,
      "##worth": 7053,
      "▁group": 7054,
      "▁charl": 7055,
      "▁terrorism": 7056,
      "▁ngu": 7057,
      "##+----------------": 7058,
      "▁ruby": 7059,
      "ø": 7060,
      "▁ath": 7061,
      "▁1609": 7062,
      "▁incre": 7063,
      "▁hym": 7064,
      "▁turnpike": 7065,
      "▁front": 7066,
      "▁civet": 7067,
      "▁fruity": 7068,
      "##lib": 7069,
      "▁mosqu": 7070,
      "▁strateg": 7071,
      "▁rapidly": 7072,
      "▁signals": 7073,
      "▁08/15/2000": 7074,
      "▁window": 7075,
      "▁why": 7076,
      "▁assem": 7077,
      "▁ali": 7078,
      "▁councill": 7079,
      "##iew": 7080,
      "▁jenn": 7081,
      "##enerate": 7082,
      "##arm": 7083,
      "▁legislature": 7084,
      "##uous": 7085,
      "##ications": 7086,
      "▁rains": 7087,
      "▁donated": 7088,
      "▁models": 7089,
      "▁renting": 7090,
      "▁logical": 7091,
      "▁re-e": 7092,
      "▁neoc": 7093,
      "##entive": 7094,
      "▁one": 7095,
      "▁415.782": 7096,
      "##work": 7097,
      "▁toll": 7098,
      "▁masterpi": 7099,
      "▁missing": 7100,
      "▁programm": 7101,
      "▁2.": 7102,
      "##lev": 7103,
      "▁america": 7104,
      "##ius": 7105,
      "▁provider": 7106,
      "▁intoler": 7107,
      "▁paragraph": 7108,
      "▁row": 7109,
      "▁sidd": 7110,
      "▁radiation": 7111,
      "▁training": 7112,
      "▁brings": 7113,
      "▁initiatives": 7114,
      "▁online": 7115,
      "▁admissions": 7116,
      "##owled": 7117,
      "▁1583": 7118,
      "▁veget": 7119,
      "▁whistle": 7120,
      "▁deliberately": 7121,
      "▁muscle": 7122,
      "▁ict": 7123,
      "##04": 7124,
      "▁jerry": 7125,
      "▁suite": 7126,
      "▁accountant": 7127,
      "##osexual": 7128,
      "▁extr": 7129,
      "▁passing": 7130,
      "▁notch": 7131,
      "##:38": 7132,
      "▁ark": 7133,
      "##en": 7134,
      "▁oatmeal": 7135,
      "▁hook": 7136,
      "▁militant": 7137,
      "##doc": 7138,
      "▁predatory": 7139,
      "▁detailed": 7140,
      "▁unnecessary": 7141,
      "##how": 7142,
      "▁alth": 7143,
      "##460-3": 7144,
      "##-w": 7145,
      "▁blah": 7146,
      "▁obligations": 7147,
      "▁florence": 7148,
      "▁l": 7149,
      "▁astride": 7150,
      "▁metals": 7151,
      "▁privile": 7152,
      "▁news": 7153,
      "##la": 7154,
      "▁swept": 7155,
      "##48": 7156,
      "##juku": 7157,
      "▁golden": 7158,
      "##asters": 7159,
      "▁garbage": 7160,
      "▁proceeding": 7161,
      "▁900": 7162,
      "▁kidding": 7163,
      "##j": 7164,
      "▁motorcycle": 7165,
      "▁ji": 7166,
      "▁1589": 7167,
      "▁original": 7168,
      "▁indicated": 7169,
      "##etics": 7170,
      "▁rath": 7171,
      "▁btw": 7172,
      "##otion": 7173,
      "##mines": 7174,
      "▁insurgency": 7175,
      "▁zeal": 7176,
      "##8/2000": 7177,
      "##ana": 7178,
      "▁total": 7179,
      "▁trademark": 7180,
      "▁buses": 7181,
      "##!!!!": 7182,
      "▁eating": 7183,
      "▁written": 7184,
      "▁billion": 7185,
      "▁pennsylv": 7186,
      "▁ocean": 7187,
      "▁ted": 7188,
      "##w": 7189,
      "▁meat": 7190,
      "▁exposure": 7191,
      "▁writers": 7192,
      "▁bumpa": 7193,
      "▁respectively": 7194,
      "▁rising": 7195,
      "▁1878": 7196,
      "##iron": 7197,
      "▁burned": 7198,
      "▁reserve": 7199,
      "▁sang": 7200,
      "▁intake": 7201,
      "▁americ": 7202,
      "##iel": 7203,
      "▁yuck": 7204,
      "▁archive": 7205,
      "▁richmond": 7206,
      "▁triv": 7207,
      "▁associate": 7208,
      "▁tall": 7209,
      "##gled": 7210,
      "▁amounts": 7211,
      "▁jenna": 7212,
      "##esty": 7213,
      "▁oklahoma": 7214,
      "▁illness": 7215,
      "▁chalmers": 7216,
      "##amar": 7217,
      "▁andy": 7218,
      "##resh": 7219,
      "▁1890": 7220,
      "##yan": 7221,
      "▁unple": 7222,
      "▁manual": 7223,
      "▁provision": 7224,
      "▁battle": 7225,
      "€": 7226,
      "▁sam": 7227,
      "▁mailto": 7228,
      "▁weas": 7229,
      "##301": 7230,
      "▁aka": 7231,
      "▁timer": 7232,
      "▁tant": 7233,
      "▁radio": 7234,
      "▁04:": 7235,
      "▁1959": 7236,
      "▁corporations": 7237,
      "▁males": 7238,
      "##inny": 7239,
      "▁albania": 7240,
      "▁sonnets": 7241,
      "▁glob": 7242,
      "##.go": 7243,
      "##self": 7244,
      "▁leopold": 7245,
      "▁crane": 7246,
      "▁moscow": 7247,
      "▁beaver": 7248,
      "▁1800": 7249,
      "##anes": 7250,
      "▁woman": 7251,
      "▁struggling": 7252,
      "##sole": 7253,
      "▁hanging": 7254,
      "▁4_28": 7255,
      "▁waive": 7256,
      "▁vision": 7257,
      "▁ske": 7258,
      "##jam": 7259,
      "▁tacoma": 7260,
      "▁belt": 7261,
      "▁thous": 7262,
      "▁becoming": 7263,
      "▁qaeda": 7264,
      "▁hor": 7265,
      "▁9:30": 7266,
      "##iterrane": 7267,
      "▁envelopes": 7268,
      "▁scale": 7269,
      "##gn": 7270,
      "##izes": 7271,
      "▁tried": 7272,
      "▁dial": 7273,
      "▁airbnb": 7274,
      "▁bri": 7275,
      "▁separating": 7276,
      "##]": 7277,
      "##822": 7278,
      "▁evans": 7279,
      "##74": 7280,
      "▁assets": 7281,
      "▁tragedies": 7282,
      "▁sting": 7283,
      "##ree": 7284,
      "▁st.": 7285,
      "▁maris": 7286,
      "▁reads": 7287,
      "▁idle": 7288,
      "##enz": 7289,
      "▁approxim": 7290,
      "▁removed": 7291,
      "##evs": 7292,
      "▁hilar": 7293,
      "▁175": 7294,
      "▁pushing": 7295,
      "##aper": 7296,
      "▁theatrical": 7297,
      "▁arri": 7298,
      "▁sixteenth": 7299,
      "##64": 7300,
      "▁2019": 7301,
      "▁die": 7302,
      "##ento": 7303,
      "▁rs": 7304,
      "▁))": 7305,
      "▁warned": 7306,
      "▁participating": 7307,
      "▁ralph": 7308,
      "▁hambal": 7309,
      "ι": 7310,
      "▁ski": 7311,
      "▁!": 7312,
      "▁geometry": 7313,
      "##edter": 7314,
      "▁keen": 7315,
      "▁parallel": 7316,
      "▁stay": 7317,
      "##:19": 7318,
      "▁maybe": 7319,
      "##7/99": 7320,
      "##.2461": 7321,
      "##urance": 7322,
      "▁proceed": 7323,
      "▁1888": 7324,
      "▁peanut": 7325,
      "##nost": 7326,
      "▁explorer": 7327,
      "▁pennsylvania": 7328,
      "▁07/17/2000": 7329,
      "▁345": 7330,
      "▁armen": 7331,
      "▁expectation": 7332,
      "▁increased": 7333,
      "▁orbit": 7334,
      "▁pocket": 7335,
      "##ants": 7336,
      "▁fate": 7337,
      "##9933": 7338,
      "##oven": 7339,
      "▁solely": 7340,
      "▁ours": 7341,
      "▁rene": 7342,
      "▁retain": 7343,
      "▁well-": 7344,
      "##gom": 7345,
      "##rors": 7346,
      "▁possession": 7347,
      "##asp": 7348,
      "▁food": 7349,
      "##iveness": 7350,
      "##jects": 7351,
      "▁dud": 7352,
      "▁addressed": 7353,
      "▁signal": 7354,
      "##image": 7355,
      "æ": 7356,
      "##kk": 7357,
      "▁ports": 7358,
      "▁asset": 7359,
      "##istic": 7360,
      "▁tract": 7361,
      "▁ign": 7362,
      "▁capability": 7363,
      "▁beetle": 7364,
      "▁dates": 7365,
      "▁ear": 7366,
      "##por": 7367,
      "▁corpor": 7368,
      "▁yo": 7369,
      "##ried": 7370,
      "▁63": 7371,
      "##ret": 7372,
      "▁owe": 7373,
      "▁hall": 7374,
      "▁study": 7375,
      "▁brown": 7376,
      "##atively": 7377,
      "▁sec": 7378,
      "▁inhabitants": 7379,
      "▁alphab": 7380,
      "▁mining": 7381,
      "▁encl": 7382,
      "▁guaranty": 7383,
      "▁objections": 7384,
      "▁seal": 7385,
      "▁mosquito": 7386,
      "##riage": 7387,
      "▁comb": 7388,
      "▁clean": 7389,
      "▁litter": 7390,
      "▁mathematics": 7391,
      "▁drag": 7392,
      "▁transmission": 7393,
      "▁bert": 7394,
      "▁tren": 7395,
      "▁isabel": 7396,
      "▁accent": 7397,
      "▁oct": 7398,
      "▁awards": 7399,
      "▁bring": 7400,
      "▁dr.": 7401,
      "##1-90": 7402,
      "##flies": 7403,
      "##izers": 7404,
      "▁unfortunate": 7405,
      "▁iraq": 7406,
      "▁luf": 7407,
      "##.45": 7408,
      "▁photos": 7409,
      "▁eastman": 7410,
      "▁1647": 7411,
      "▁enron.xls": 7412,
      "▁err": 7413,
      "▁fund": 7414,
      "##ona": 7415,
      "▁maint": 7416,
      "▁frontier": 7417,
      "▁peroxide": 7418,
      "▁attracted": 7419,
      "▁cabins": 7420,
      "▁enemies": 7421,
      "▁esp": 7422,
      "▁sarah": 7423,
      "▁general": 7424,
      "▁dose": 7425,
      "##000": 7426,
      "##:32": 7427,
      "▁687": 7428,
      "##eric": 7429,
      "▁reservation": 7430,
      "▁unif": 7431,
      "▁halloween": 7432,
      "▁perfume": 7433,
      "▁mont": 7434,
      "##eting": 7435,
      "▁millennium": 7436,
      "##el": 7437,
      "▁150": 7438,
      "##ien": 7439,
      "▁performed": 7440,
      "▁worried": 7441,
      "▁federal": 7442,
      "▁paine": 7443,
      "##ut": 7444,
      "▁ryan": 7445,
      "▁nicholas": 7446,
      "▁colle": 7447,
      "▁besides": 7448,
      "▁dand": 7449,
      "▁browser": 7450,
      "##anding": 7451,
      "##ots": 7452,
      "##ally": 7453,
      "▁concepts": 7454,
      "▁comment": 7455,
      "▁breakthrough": 7456,
      "##abling": 7457,
      "▁marri": 7458,
      "##mail": 7459,
      "▁ozone": 7460,
      "▁gob": 7461,
      "▁challeng": 7462,
      "▁line": 7463,
      "▁debbie": 7464,
      "▁soap": 7465,
      "▁rogers": 7466,
      "▁hp": 7467,
      "▁heel": 7468,
      "▁diseases": 7469,
      "##‘": 7470,
      "▁conferences": 7471,
      "▁financed": 7472,
      "▁undertaken": 7473,
      "▁existed": 7474,
      "▁mostly": 7475,
      "##eny": 7476,
      "▁profitable": 7477,
      "▁e.g": 7478,
      "▁relativ": 7479,
      "▁apologize": 7480,
      "▁wood": 7481,
      "▁diapers": 7482,
      "##951": 7483,
      "▁gib": 7484,
      "▁re": 7485,
      "▁along": 7486,
      "▁raining": 7487,
      "▁kinds": 7488,
      "##587": 7489,
      "▁1841": 7490,
      "▁scare": 7491,
      "▁furthermore": 7492,
      "▁yazid": 7493,
      "▁kenneth": 7494,
      "▁happy": 7495,
      "▁pim": 7496,
      "##ampa": 7497,
      "▁mim": 7498,
      "▁polar": 7499,
      "▁kenya": 7500,
      "▁wikinews": 7501,
      "▁fridays": 7502,
      "▁neat": 7503,
      "##rell": 7504,
      "▁trash": 7505,
      "▁ferry": 7506,
      "▁clin": 7507,
      "##entions": 7508,
      "##just": 7509,
      "▁crick": 7510,
      "▁visitor": 7511,
      "▁jordan": 7512,
      "##449": 7513,
      "▁bar": 7514,
      "▁1205": 7515,
      "▁welcoming": 7516,
      "▁communication": 7517,
      "##3/2000": 7518,
      "▁refin": 7519,
      "▁189": 7520,
      "▁spit": 7521,
      "▁importantly": 7522,
      "##atter": 7523,
      "▁events": 7524,
      "##mark": 7525,
      "##pike": 7526,
      "▁merc": 7527,
      "▁cous": 7528,
      "▁roads": 7529,
      "▁kand": 7530,
      "▁transportation": 7531,
      "▁thinks": 7532,
      "▁risks": 7533,
      "▁yaw": 7534,
      "▁climbing": 7535,
      "▁extensive": 7536,
      "▁holding": 7537,
      "▁roof": 7538,
      "▁telev": 7539,
      "##/15/2001": 7540,
      "▁apply": 7541,
      "▁~": 7542,
      "▁ecodesign": 7543,
      "▁essential": 7544,
      "▁ll": 7545,
      "##mers": 7546,
      "▁occupation": 7547,
      "▁specialists": 7548,
      "##ant": 7549,
      "##kman": 7550,
      "▁regarded": 7551,
      "▁swim": 7552,
      "▁trav": 7553,
      "▁antiqu": 7554,
      "##73": 7555,
      "▁discip": 7556,
      "##-com": 7557,
      "▁ton": 7558,
      "##isy": 7559,
      "▁rags": 7560,
      "▁par": 7561,
      "▁shoulders": 7562,
      "▁peas": 7563,
      "##card": 7564,
      "▁murph": 7565,
      "▁loved": 7566,
      "▁dominant": 7567,
      "▁diving": 7568,
      "▁dwww": 7569,
      "▁mouth": 7570,
      "▁those": 7571,
      "##7.77": 7572,
      "▁505-625": 7573,
      "##ida": 7574,
      "▁appro": 7575,
      "##aire": 7576,
      "▁adv": 7577,
      "▁mon": 7578,
      "▁recently": 7579,
      "▁screw": 7580,
      "▁numb": 7581,
      "▁discour": 7582,
      "▁fridge": 7583,
      "▁today": 7584,
      "▁sitara": 7585,
      "▁chan": 7586,
      "▁get": 7587,
      "▁producer": 7588,
      "▁parakeet": 7589,
      "##atherine": 7590,
      "▁2.15": 7591,
      "▁loll": 7592,
      "##.m": 7593,
      "▁equality": 7594,
      "▁http://www.4gamer.net/news/image/2005.09/2005": 7595,
      "▁euro": 7596,
      "▁hagr": 7597,
      "▁receptionist": 7598,
      "▁riding": 7599,
      "▁difficulty": 7600,
      "##@trans": 7601,
      "▁jurisdiction": 7602,
      "##stick": 7603,
      "▁02": 7604,
      "▁unaccept": 7605,
      "▁leonard": 7606,
      "▁influence": 7607,
      "▁yourself": 7608,
      "▁practicing": 7609,
      "▁involving": 7610,
      "▁user": 7611,
      "##acked": 7612,
      "▁cool": 7613,
      "▁11:0": 7614,
      "##bs": 7615,
      "▁mile": 7616,
      "##==============================================": 7617,
      "##300": 7618,
      "▁fiction": 7619,
      "▁prest": 7620,
      "▁eleventh": 7621,
      "▁shade": 7622,
      "▁inform": 7623,
      "▁naim": 7624,
      "▁lipsticks": 7625,
      "##.org": 7626,
      "▁collateral": 7627,
      "##text": 7628,
      "▁government": 7629,
      "##rael": 7630,
      "##mas": 7631,
      "▁subscrib": 7632,
      "▁arthur": 7633,
      "##.fr": 7634,
      "▁rat": 7635,
      "夏": 7636,
      "##h": 7637,
      "▁secondary": 7638,
      "##96": 7639,
      "▁==============================================================================": 7640,
      "▁explic": 7641,
      "▁melt": 7642,
      "##----": 7643,
      "▁from": 7644,
      "▁challenges": 7645,
      "▁standards": 7646,
      "##aker": 7647,
      "▁legisl": 7648,
      "▁tag": 7649,
      "##oui": 7650,
      "▁approach": 7651,
      "▁itch": 7652,
      "▁these": 7653,
      "▁crappy": 7654,
      "▁jana": 7655,
      "▁tit": 7656,
      "▁1774": 7657,
      "▁thwart": 7658,
      "▁answering": 7659,
      "▁genius": 7660,
      "▁intel": 7661,
      "##ollow": 7662,
      "▁hunting": 7663,
      "▁ny": 7664,
      "##going": 7665,
      "▁compuls": 7666,
      "▁bow": 7667,
      "##new": 7668,
      "##su": 7669,
      "▁hedwig": 7670,
      "▁eras": 7671,
      "##english": 7672,
      "▁jerusal": 7673,
      "##ione": 7674,
      "▁cracked": 7675,
      "▁resulting": 7676,
      "▁nation": 7677,
      "##nels": 7678,
      "▁recommend": 7679,
      "▁inc.": 7680,
      "##ouble": 7681,
      "##091": 7682,
      "▁tiny": 7683,
      "▁newton": 7684,
      "▁sweet": 7685,
      "▁tribe": 7686,
      "##ool": 7687,
      "##ox": 7688,
      "##ios": 7689,
      "##75": 7690,
      "▁unprecedented": 7691,
      "##roid": 7692,
      "▁tahoe": 7693,
      "▁iss": 7694,
      "▁120": 7695,
      "##ices": 7696,
      "##le": 7697,
      "▁theater": 7698,
      "##uled": 7699,
      "##.77": 7700,
      "▁mississippi": 7701,
      "▁perceptions": 7702,
      "▁intend": 7703,
      "▁thing": 7704,
      "▁decide": 7705,
      "▁bak": 7706,
      "##odz": 7707,
      "##11": 7708,
      "##pl": 7709,
      "▁928": 7710,
      "▁nevertheless": 7711,
      "▁haz": 7712,
      "##man": 7713,
      "▁°": 7714,
      "▁bases": 7715,
      "##.4": 7716,
      "▁civic": 7717,
      "▁bone": 7718,
      "▁feels": 7719,
      "▁plun": 7720,
      "▁mild": 7721,
      "▁rep": 7722,
      "▁purse": 7723,
      "▁pervez": 7724,
      "▁mrs.": 7725,
      "▁intentions": 7726,
      "▁agric": 7727,
      "##ania": 7728,
      "##vant": 7729,
      "▁’d": 7730,
      "▁tables": 7731,
      "▁shackl": 7732,
      "▁emerged": 7733,
      "▁representing": 7734,
      "##ie": 7735,
      "▁already": 7736,
      "▁rocks": 7737,
      "▁01": 7738,
      "▁statements": 7739,
      "##irect": 7740,
      "##ibu": 7741,
      "▁preparation": 7742,
      "▁basis": 7743,
      "▁exists": 7744,
      "▁gay": 7745,
      "▁modification": 7746,
      "##ican": 7747,
      "▁plaintiffs": 7748,
      "▁uhoh": 7749,
      "§": 7750,
      "▁crowd": 7751,
      "▁/": 7752,
      "▁71": 7753,
      "▁craw": 7754,
      "▁month": 7755,
      "▁medium": 7756,
      "##enance": 7757,
      "▁businesses": 7758,
      "▁best": 7759,
      "▁team": 7760,
      "▁environmental": 7761,
      "▁speed": 7762,
      "##iful": 7763,
      "▁malf": 7764,
      "##ole": 7765,
      "##aming": 7766,
      "▁heroes": 7767,
      "▁conversation": 7768,
      "▁est": 7769,
      "▁kreml": 7770,
      "▁technical": 7771,
      "▁quix": 7772,
      "▁generations": 7773,
      "▁but": 7774,
      "▁anything": 7775,
      "▁hee": 7776,
      "##bucks": 7777,
      "▁interview": 7778,
      "▁281-443-3744": 7779,
      "▁opens": 7780,
      "▁territory": 7781,
      "▁grat": 7782,
      "▁aro": 7783,
      "▁814.863": 7784,
      "##burn": 7785,
      "▁world": 7786,
      "▁significant": 7787,
      "##819602175": 7788,
      "▁troubled": 7789,
      "##ki": 7790,
      "▁microsc": 7791,
      "▁jes": 7792,
      "▁alt": 7793,
      "▁triumph": 7794,
      "##ux": 7795,
      "▁officially": 7796,
      "▁supply": 7797,
      "▁tasks": 7798,
      "##astery": 7799,
      "▁grande": 7800,
      "▁virus": 7801,
      "▁contracts": 7802,
      "##stream": 7803,
      "▁pastor": 7804,
      "▁assure": 7805,
      "##nine": 7806,
      "▁neighbor": 7807,
      "▁agenda": 7808,
      "▁spoon": 7809,
      "▁1780": 7810,
      "##ropri": 7811,
      "▁someplace": 7812,
      "▁1920": 7813,
      "▁framed": 7814,
      "▁robes": 7815,
      "▁budd": 7816,
      "▁caused": 7817,
      "▁vide": 7818,
      "▁09:": 7819,
      "##ele": 7820,
      "▁......": 7821,
      "▁loudly": 7822,
      "▁giov": 7823,
      "▁economic": 7824,
      "▁baghdad": 7825,
      "▁o'clock": 7826,
      "▁unity": 7827,
      "▁contem": 7828,
      "▁1562": 7829,
      "▁chang": 7830,
      "▁az": 7831,
      "▁2018": 7832,
      "▁precise": 7833,
      "▁1790": 7834,
      "▁tot": 7835,
      "##xtures": 7836,
      "▁tell": 7837,
      "▁modem": 7838,
      "▁decree": 7839,
      "▁ruling": 7840,
      "▁chlor": 7841,
      "##ather": 7842,
      "▁visitors": 7843,
      "▁1850": 7844,
      "##on@ect": 7845,
      "##@enron.com": 7846,
      "▁disorder": 7847,
      "##atched": 7848,
      "▁brit": 7849,
      "▁distrib": 7850,
      "▁buttons": 7851,
      "▁’": 7852,
      "▁coordinate": 7853,
      "▁death": 7854,
      "▁tv": 7855,
      "▁monetary": 7856,
      "▁thirteen": 7857,
      "▁economists": 7858,
      "▁ruins": 7859,
      "▁pizza": 7860,
      "▁sauce": 7861,
      "##asses": 7862,
      "▁accurately": 7863,
      "▁sore": 7864,
      "##itative": 7865,
      "##.7": 7866,
      "▁congest": 7867,
      "▁speaks": 7868,
      "##rovers": 7869,
      "##rup": 7870,
      "##issions": 7871,
      "▁turb": 7872,
      "▁rebels": 7873,
      "▁suitable": 7874,
      "▁kept": 7875,
      "▁slice": 7876,
      "▁bwww": 7877,
      "▁hull": 7878,
      "##licts": 7879,
      "▁congress": 7880,
      "▁are": 7881,
      "▁---->===}*{===<----": 7882,
      "▁among": 7883,
      "▁launch": 7884,
      "▁skip": 7885,
      "##wich": 7886,
      "▁universe": 7887,
      "▁magic": 7888,
      "▁indo": 7889,
      "▁lessons": 7890,
      "##obar": 7891,
      "▁big": 7892,
      "▁latin": 7893,
      "##active": 7894,
      "▁1951": 7895,
      "▁racing": 7896,
      "##isf": 7897,
      "▁estim": 7898,
      "##ense": 7899,
      "▁skiing": 7900,
      "##isc": 7901,
      "##uch": 7902,
      "##lessly": 7903,
      "▁follow": 7904,
      "▁developer": 7905,
      "▁pentagon": 7906,
      "▁shove": 7907,
      "▁book": 7908,
      "##ick": 7909,
      "▁03:20": 7910,
      "▁mailings": 7911,
      "▁atl": 7912,
      "▁kansas": 7913,
      "▁autonomy": 7914,
      "▁blo": 7915,
      "▁november": 7916,
      "##ving": 7917,
      "▁poison": 7918,
      "▁maintains": 7919,
      "##_": 7920,
      "##roduct": 7921,
      "▁trauma": 7922,
      "▁rabbits": 7923,
      "▁overchar": 7924,
      "▁applause": 7925,
      "▁immers": 7926,
      "▁wreck": 7927,
      "##acarias": 7928,
      "▁lots": 7929,
      "▁stillman": 7930,
      "▁amuse": 7931,
      "▁translates": 7932,
      "##ney": 7933,
      "✉": 7934,
      "▁displayed": 7935,
      "▁lobster": 7936,
      "▁posada": 7937,
      "##图": 7938,
      "▁linguistics": 7939,
      "▁covers": 7940,
      "▁fleeing": 7941,
      "##/0": 7942,
      "▁advisers": 7943,
      "▁neal": 7944,
      "▁full": 7945,
      "##airah": 7946,
      "▁julie": 7947,
      "▁families": 7948,
      "▁emerging": 7949,
      "▁railways": 7950,
      "▁concerned": 7951,
      "▁2000": 7952,
      "▁ensures": 7953,
      "▁merida": 7954,
      "##sed": 7955,
      "▁harvesting": 7956,
      "▁composition": 7957,
      "▁scar": 7958,
      "▁demands": 7959,
      "##ape": 7960,
      "▁cond": 7961,
      "▁do": 7962,
      "▁^": 7963,
      "▁bald": 7964,
      "▁evely": 7965,
      "##4-79": 7966,
      "▁zealand": 7967,
      "▁tx": 7968,
      "▁mcdonald": 7969,
      "▁lis": 7970,
      "▁pett": 7971,
      "▁freight": 7972,
      "▁jeffrey": 7973,
      "▁lou": 7974,
      "▁cheapest": 7975,
      "▁pel": 7976,
      "▁communicated": 7977,
      "▁collecting": 7978,
      "##order": 7979,
      "▁vogelaviatiolap": 7980,
      "▁donna": 7981,
      "##thstanding": 7982,
      "▁formica": 7983,
      "▁guild": 7984,
      "▁no-": 7985,
      "▁organized": 7986,
      "▁spons": 7987,
      "##ji": 7988,
      "▁paints": 7989,
      "▁assort": 7990,
      "##ede": 7991,
      "▁anx": 7992,
      "▁dist": 7993,
      "▁cou": 7994,
      "▁wounded": 7995,
      "▁usual": 7996,
      "▁1969": 7997,
      "##oli": 7998,
      "▁-----------------": 7999,
      "▁monkeys": 8000,
      "##ograph": 8001,
      "▁'": 8002,
      "▁eug": 8003,
      "▁cook": 8004,
      "▁minimum": 8005,
      "▁2011": 8006,
      "▁received": 8007,
      "▁insult": 8008,
      "▁inapp": 8009,
      "▁pest": 8010,
      "▁relating": 8011,
      "▁iqr": 8012,
      "▁jun": 8013,
      "▁noone": 8014,
      "▁likes": 8015,
      "▁_________________________________________________": 8016,
      "▁proble": 8017,
      "##口": 8018,
      "▁================================================": 8019,
      "▁pointing": 8020,
      "##ack": 8021,
      "▁gone": 8022,
      "▁graph": 8023,
      "▁robinson": 8024,
      "▁punishment": 8025,
      "▁underground": 8026,
      "▁unrelated": 8027,
      "▁solemn": 8028,
      "▁molec": 8029,
      "##itely": 8030,
      "▁root": 8031,
      "▁pierre": 8032,
      "##upunct": 8033,
      "▁cy": 8034,
      "▁perce": 8035,
      "▁complained": 8036,
      "##icated": 8037,
      "##insula": 8038,
      "▁rated": 8039,
      "##veland": 8040,
      "▁objects": 8041,
      "▁1880": 8042,
      "##£": 8043,
      "▁spare": 8044,
      "▁knot": 8045,
      "▁libraries": 8046,
      "▁cage": 8047,
      "▁alleged": 8048,
      "▁b": 8049,
      "▁stare": 8050,
      "▁s.": 8051,
      "##aments": 8052,
      "▁explos": 8053,
      "##ell": 8054,
      "##boo": 8055,
      "▁hong": 8056,
      "▁live": 8057,
      "▁justified": 8058,
      "▁asp": 8059,
      "▁coins": 8060,
      "▁aunt": 8061,
      "##erves": 8062,
      "##urious": 8063,
      "▁council": 8064,
      "▁pachom": 8065,
      "▁switzerland": 8066,
      "▁housing": 8067,
      "▁bugs": 8068,
      "▁gap": 8069,
      "##9/2001": 8070,
      "▁compet": 8071,
      "##**": 8072,
      "▁wheat": 8073,
      "▁no": 8074,
      "▁washington": 8075,
      "##ar": 8076,
      "▁ed": 8077,
      "▁ignore": 8078,
      "▁cabbage": 8079,
      "▁2:30": 8080,
      "##elds": 8081,
      "▁mouse": 8082,
      "▁hundreds": 8083,
      "▁350": 8084,
      "▁actor": 8085,
      "▁robbie": 8086,
      "▁generation": 8087,
      "▁acceptance": 8088,
      "▁montana": 8089,
      "▁circulation": 8090,
      "##lemm": 8091,
      "▁sensing": 8092,
      "▁bid": 8093,
      "▁2500": 8094,
      "▁gained": 8095,
      "▁complete": 8096,
      "▁cromer": 8097,
      "##gin": 8098,
      "▁industrial": 8099,
      "▁edison": 8100,
      "▁offic": 8101,
      "##amon": 8102,
      "▁cheaper": 8103,
      "▁seventy": 8104,
      "▁demonstrate": 8105,
      "▁eggs": 8106,
      "##soft": 8107,
      "▁02/2": 8108,
      "▁sympath": 8109,
      "##nondel": 8110,
      "▁counterfe": 8111,
      "▁helicopters": 8112,
      "▁http://www": 8113,
      "▁bankrupt": 8114,
      "▁pioneer": 8115,
      "▁it": 8116,
      "##inator": 8117,
      "▁1779": 8118,
      "▁authors": 8119,
      "##inter": 8120,
      "▁quest": 8121,
      "##ifying": 8122,
      "##boro": 8123,
      "▁sid": 8124,
      "##shed": 8125,
      "▁camp": 8126,
      "▁operator": 8127,
      "▁legitimacy": 8128,
      "▁palace": 8129,
      "▁pill": 8130,
      "▁rom": 8131,
      "▁pere": 8132,
      "▁stardust": 8133,
      "▁drink": 8134,
      "▁tar": 8135,
      "▁portland": 8136,
      "▁toaster": 8137,
      "▁beep": 8138,
      "##ris": 8139,
      "▁came": 8140,
      "##-looking": 8141,
      "▁vogel": 8142,
      "▁heading": 8143,
      "##organ": 8144,
      "▁decre": 8145,
      "##force": 8146,
      "▁reflected": 8147,
      "##ader": 8148,
      "▁referee": 8149,
      "▁col": 8150,
      "▁finding": 8151,
      "▁prem": 8152,
      "▁silk": 8153,
      "▁pencils": 8154,
      "▁persec": 8155,
      "▁short": 8156,
      "▁presidents": 8157,
      "▁climate": 8158,
      "▁pressed": 8159,
      "▁date": 8160,
      "▁favor": 8161,
      "##sel": 8162,
      "▁goat": 8163,
      "▁lasts": 8164,
      "▁well": 8165,
      "▁stairs": 8166,
      "▁04": 8167,
      "▁238": 8168,
      "▁buckets": 8169,
      "▁neither": 8170,
      "▁sampl": 8171,
      "##rap": 8172,
      "▁venezuela": 8173,
      "▁deficit": 8174,
      "▁47": 8175,
      "##orescent": 8176,
      "▁headquart": 8177,
      "▁;-)": 8178,
      "▁flying": 8179,
      "▁measure": 8180,
      "##ibilities": 8181,
      "▁mount": 8182,
      "▁scott": 8183,
      "▁neighbourhood": 8184,
      "▁determined": 8185,
      "##pat": 8186,
      "▁feared": 8187,
      "▁toile": 8188,
      "▁tid": 8189,
      "##wyn": 8190,
      "▁programme": 8191,
      "▁bern": 8192,
      "▁desert": 8193,
      "##at": 8194,
      "▁49": 8195,
      "##ams": 8196,
      "##uc": 8197,
      "▁iraqi": 8198,
      "▁1944": 8199,
      "▁revealed": 8200,
      "▁le": 8201,
      "▁teams": 8202,
      "▁shock": 8203,
      "▁pra": 8204,
      "##-and": 8205,
      "▁elite": 8206,
      "▁subscribe": 8207,
      "▁sandra": 8208,
      "▁pen": 8209,
      "▁explain": 8210,
      "▁found": 8211,
      "▁distort": 8212,
      "▁hyper": 8213,
      "▁mad": 8214,
      "▁dental": 8215,
      "▁turn": 8216,
      "▁digging": 8217,
      "▁easy": 8218,
      "▁fruit": 8219,
      "▁waves": 8220,
      "##thing": 8221,
      "##unciation": 8222,
      "▁treatise": 8223,
      "▁augment": 8224,
      "▁glad": 8225,
      "##ually": 8226,
      "▁graduate": 8227,
      "▁established": 8228,
      "▁meg": 8229,
      "▁described": 8230,
      "▁corpus": 8231,
      "##rog": 8232,
      "▁spilled": 8233,
      "▁nick": 8234,
      "▁discourse": 8235,
      "▁outcome": 8236,
      "▁indul": 8237,
      "##op": 8238,
      "▁having": 8239,
      "▁soc": 8240,
      "▁residents": 8241,
      "▁gar": 8242,
      "##/30/2001": 8243,
      "▁pil": 8244,
      "▁puppet": 8245,
      "▁beef": 8246,
      "▁recognised": 8247,
      "▁franc": 8248,
      "▁storms": 8249,
      "▁negot": 8250,
      "##fin": 8251,
      "##acks": 8252,
      "▁bunch": 8253,
      "▁filling": 8254,
      "##enes": 8255,
      "##imedia": 8256,
      "3": 8257,
      "▁http://www.b": 8258,
      "▁pattern": 8259,
      "▁estimate": 8260,
      "##athers": 8261,
      "▁length": 8262,
      "▁blanket": 8263,
      "▁behalf": 8264,
      "##ah": 8265,
      "▁const": 8266,
      "▁thin": 8267,
      "##isible": 8268,
      "##ibiot": 8269,
      "##ached": 8270,
      "▁definitions": 8271,
      "▁jap": 8272,
      "▁emb": 8273,
      "##enth": 8274,
      "▁netherlands": 8275,
      "▁incompet": 8276,
      "▁position": 8277,
      "▁issues": 8278,
      "▁extending": 8279,
      "▁bru": 8280,
      "▁country": 8281,
      "▁knowledge": 8282,
      "▁breakfast": 8283,
      "##gers": 8284,
      "▁reluct": 8285,
      "▁joining": 8286,
      "##laimed": 8287,
      "▁interference": 8288,
      "▁1604": 8289,
      "##8-3": 8290,
      "▁enjambment": 8291,
      "▁offensive": 8292,
      "▁environments": 8293,
      "▁illeg": 8294,
      "▁whol": 8295,
      "▁independent": 8296,
      "▁spending": 8297,
      "▁1.5": 8298,
      "##icate": 8299,
      "▁gets": 8300,
      "##umin": 8301,
      "▁stepped": 8302,
      "##.": 8303,
      "▁appet": 8304,
      "▁treated": 8305,
      "▁visiting": 8306,
      "▁eol": 8307,
      "▁humor": 8308,
      "▁shared": 8309,
      "▁cler": 8310,
      "▁jingle": 8311,
      "▁soil": 8312,
      "▁tomorrow": 8313,
      "##eem": 8314,
      "▁genu": 8315,
      "▁alabama": 8316,
      "##ado": 8317,
      "▁collections": 8318,
      "▁men": 8319,
      "▁freed": 8320,
      "▁errors": 8321,
      "##urt": 8322,
      "▁spagh": 8323,
      "▁2013": 8324,
      "▁sto": 8325,
      "##port": 8326,
      "▁quartiles": 8327,
      "▁deadline": 8328,
      "▁cross-section": 8329,
      "▁kittens": 8330,
      "▁hea": 8331,
      "▁passed": 8332,
      "▁formal": 8333,
      "##tip": 8334,
      "▁therapy": 8335,
      "▁cargill": 8336,
      "▁allowance": 8337,
      "##pal": 8338,
      "▁israeli": 8339,
      "▁wiped": 8340,
      "▁confer": 8341,
      "##iver": 8342,
      "##:11": 8343,
      "▁sculpt": 8344,
      "##ipple": 8345,
      "▁plut": 8346,
      "##.x": 8347,
      "##isted": 8348,
      "▁attain": 8349,
      "▁describe": 8350,
      "▁calls": 8351,
      "##iff": 8352,
      "▁walking": 8353,
      "▁george": 8354,
      "##raf": 8355,
      "▁squee": 8356,
      "▁humanities": 8357,
      "▁!!!!!!!!!!!!!!!!!!!": 8358,
      "▁sections": 8359,
      "▁shakespeare": 8360,
      "▁da": 8361,
      "##onna": 8362,
      "##14": 8363,
      "▁fortune": 8364,
      "##aleck": 8365,
      "e": 8366,
      "▁sect": 8367,
      "##mm": 8368,
      "▁michelle": 8369,
      "▁borrow": 8370,
      "▁vers": 8371,
      "▁laid": 8372,
      "▁tro": 8373,
      "▁troub": 8374,
      "▁settled": 8375,
      "▁kathy": 8376,
      "▁knows": 8377,
      "▁pakistani": 8378,
      "▁alongside": 8379,
      "▁>----------------------------------------------------------------------------": 8380,
      "##acht": 8381,
      "▁card": 8382,
      "▁indig": 8383,
      "##s.": 8384,
      "▁:(": 8385,
      "##.html": 8386,
      "▁dor": 8387,
      "▁http://www.mike": 8388,
      "▁insist": 8389,
      "▁hear": 8390,
      "▁lust": 8391,
      "▁coat": 8392,
      "▁suffer": 8393,
      "▁herm": 8394,
      "▁red": 8395,
      "ا": 8396,
      "▁bars": 8397,
      "##iately": 8398,
      "▁survey": 8399,
      "▁ceo": 8400,
      "▁modulo": 8401,
      "▁back": 8402,
      "▁projected": 8403,
      "▁adopted": 8404,
      "▁boing": 8405,
      "▁cost-e": 8406,
      "▁theories": 8407,
      "▁nierman": 8408,
      "▁1200": 8409,
      "▁blinked": 8410,
      "▁tour": 8411,
      "▁ro": 8412,
      "▁tw": 8413,
      "▁sticks": 8414,
      "##elling": 8415,
      "▁forg": 8416,
      "▁hogwarts": 8417,
      "##/s": 8418,
      "▁kidna": 8419,
      "▁-------------------------------------------------": 8420,
      "▁signoff": 8421,
      "▁whit": 8422,
      "▁n": 8423,
      "▁return": 8424,
      "▁key": 8425,
      "▁manager": 8426,
      "▁married": 8427,
      "▁763736": 8428,
      "##gmail.com": 8429,
      "##izing": 8430,
      "▁bubble": 8431,
      "##light": 8432,
      "▁momma": 8433,
      "▁studying": 8434,
      "##rete": 8435,
      "▁biz": 8436,
      "▁compl": 8437,
      "▁beauveria": 8438,
      "▁gaining": 8439,
      "▁incor": 8440,
      "▁treating": 8441,
      "▁dual": 8442,
      "▁que": 8443,
      "▁sydney": 8444,
      "##gets": 8445,
      "▁db": 8446,
      "▁tries": 8447,
      "▁bengal": 8448,
      "▁matching": 8449,
      "▁fortun": 8450,
      "▁credit": 8451,
      "##...": 8452,
      "▁creation": 8453,
      "▁overwhelming": 8454,
      "▁organisation": 8455,
      "▁repeatedly": 8456,
      "▁outstanding": 8457,
      "##36": 8458,
      "▁viable": 8459,
      "##.15": 8460,
      "##ome": 8461,
      "▁asleep": 8462,
      "▁presc": 8463,
      "▁fist": 8464,
      "▁fbi": 8465,
      "▁1-8": 8466,
      "▁artworks": 8467,
      "▁progress": 8468,
      "▁economy": 8469,
      "##/15": 8470,
      "³": 8471,
      "▁comparing": 8472,
      "▁ruf": 8473,
      "▁etc": 8474,
      "##7": 8475,
      "▁interp": 8476,
      "▁query": 8477,
      "▁own": 8478,
      "▁argument": 8479,
      "▁day": 8480,
      "▁princess": 8481,
      "##utz": 8482,
      "▁forty-one": 8483,
      "▁vi": 8484,
      "##aco": 8485,
      "##otic": 8486,
      "▁potty": 8487,
      "▁main": 8488,
      "▁underlying": 8489,
      "▁1952": 8490,
      "▁reluctant": 8491,
      "▁capital": 8492,
      "▁almost": 8493,
      "##die": 8494,
      "▁amy": 8495,
      "▁700": 8496,
      "▁inferior": 8497,
      "▁twin": 8498,
      "▁onion": 8499,
      "▁adjustments": 8500,
      "▁scramb": 8501,
      "##ɑ": 8502,
      "▁sf": 8503,
      "▁05/30/2001": 8504,
      "p": 8505,
      "θ": 8506,
      "##86": 8507,
      "##istan": 8508,
      "▁ramp": 8509,
      "##osure": 8510,
      "▁impeachment": 8511,
      "▁xbox": 8512,
      "▁01:58": 8513,
      "▁melanie": 8514,
      "▁10,000": 8515,
      "▁mommy": 8516,
      "▁gambling": 8517,
      "▁drew": 8518,
      "▁(a)": 8519,
      "##s": 8520,
      "▁approved": 8521,
      "▁community": 8522,
      "▁emotion": 8523,
      "▁invisible": 8524,
      "▁mezza": 8525,
      "▁resistance": 8526,
      "▁humane": 8527,
      "▁sole": 8528,
      "##isations": 8529,
      "▁http://www.4gamer": 8530,
      "▁caboose": 8531,
      "##inal": 8532,
      "▁ar": 8533,
      "▁restrict": 8534,
      "▁colored": 8535,
      "▁dog": 8536,
      "##unity": 8537,
      "##tain": 8538,
      "▁ball": 8539,
      "▁yep": 8540,
      "▁communic": 8541,
      "▁realize": 8542,
      "▁muffin": 8543,
      "▁anti-": 8544,
      "##89": 8545,
      "▁styrof": 8546,
      "▁european": 8547,
      "▁overalls": 8548,
      "▁collins": 8549,
      "▁lover": 8550,
      "▁facilities": 8551,
      "▁12:42": 8552,
      "▁htt": 8553,
      "▁stays": 8554,
      "▁carbon": 8555,
      "▁hyd": 8556,
      "▁1830": 8557,
      "▁celebration": 8558,
      "▁push": 8559,
      "▁grasp": 8560,
      "##uz": 8561,
      "▁miles": 8562,
      "▁11/08/2000": 8563,
      "▁15,000": 8564,
      "▁pajamas": 8565,
      "▁guest": 8566,
      "▁cough": 8567,
      "▁destinations": 8568,
      "▁practically": 8569,
      "▁devast": 8570,
      "▁priest": 8571,
      "▁promotional": 8572,
      "##cond": 8573,
      "▁’m": 8574,
      "##.621": 8575,
      "▁alert": 8576,
      "▁hun": 8577,
      "##ival": 8578,
      "▁message": 8579,
      "##ften": 8580,
      "##otional": 8581,
      "▁s-": 8582,
      "##pped": 8583,
      "▁toronto": 8584,
      "##ote": 8585,
      "▁=---": 8586,
      "▁6.2.1": 8587,
      "▁soldier": 8588,
      "▁centre": 8589,
      "▁gaps": 8590,
      "##sem": 8591,
      "▁grant": 8592,
      "##oph": 8593,
      "▁decis": 8594,
      "▁kang": 8595,
      "▁wo": 8596,
      "▁successful": 8597,
      "##off": 8598,
      "▁performances": 8599,
      "▁i": 8600,
      "▁quixote": 8601,
      "▁compens": 8602,
      "##gage": 8603,
      "▁targeted": 8604,
      "▁spill": 8605,
      "▁ge": 8606,
      "▁10:45": 8607,
      "▁source": 8608,
      "##0": 8609,
      "##alth": 8610,
      "##version": 8611,
      "▁crib": 8612,
      "##aze": 8613,
      "▁suspended": 8614,
      "▁initi": 8615,
      "##arf": 8616,
      "▁sled": 8617,
      "▁fulf": 8618,
      "▁abbas": 8619,
      "▁approval": 8620,
      "▁transport": 8621,
      "▁angeles": 8622,
      "▁narrative": 8623,
      "▁yidd": 8624,
      "▁su": 8625,
      "▁camps": 8626,
      "▁l2": 8627,
      "▁participate": 8628,
      "▁nab": 8629,
      "▁hidden": 8630,
      "▁specials": 8631,
      "▁protests": 8632,
      "▁1859": 8633,
      "▁kleenex": 8634,
      "▁constit": 8635,
      "▁resting": 8636,
      "▁edward": 8637,
      "▁misunder": 8638,
      "##ottable": 8639,
      "▁empt": 8640,
      "▁prestigious": 8641,
      "▁plat": 8642,
      "▁74419": 8643,
      "▁padd": 8644,
      "▁barely": 8645,
      "##uary": 8646,
      "▁cruise": 8647,
      "▁fy": 8648,
      "▁semi-": 8649,
      "▁chosen": 8650,
      "▁charter": 8651,
      "##erged": 8652,
      "▁rational": 8653,
      "##-9004": 8654,
      "▁dur": 8655,
      "▁joy": 8656,
      "▁gn": 8657,
      "▁grandma": 8658,
      "▁xsd": 8659,
      "##ulous": 8660,
      "▁escaped": 8661,
      "▁marshmallow": 8662,
      "▁ig": 8663,
      "▁eups": 8664,
      "▁service": 8665,
      "▁peau": 8666,
      "##val": 8667,
      "##asons": 8668,
      "##uries": 8669,
      "▁manh": 8670,
      "##ave": 8671,
      "▁21st": 8672,
      "##ft8-7": 8673,
      "##neath": 8674,
      "▁attacked": 8675,
      "▁yoko": 8676,
      "▁ribbon": 8677,
      "▁satisf": 8678,
      "▁chris": 8679,
      "▁bottles": 8680,
      "##ipe": 8681,
      "##hill": 8682,
      "▁convergence": 8683,
      "▁barclays": 8684,
      "▁ksm": 8685,
      "##imin": 8686,
      "##oted": 8687,
      "▁vit": 8688,
[...]
