{
  "version": "1.0",
  "truncation": null,
  "padding": null,
  "added_tokens": [
    {
      "id": 1220,
      "content": "[PAD]",
      "single_word": false,
      "lstrip": false,
      "rstrip": false,
      "normalized": false,
      "special": true
    },
    {
      "id": 3681,
      "content": "[SEP]",
      "single_word": false,
      "lstrip": false,
      "rstrip": false,
      "normalized": false,
      "special": true
    },
    {
      "id": 6631,
      "content": "[UNK]",
      "single_word": false,
      "lstrip": false,
      "rstrip": false,
      "normalized": false,
      "special": true
    },
    {
      "id": 7544,
      "content": "[CLS]",
      "single_word": false,
      "lstrip": false,
      "rstrip": false,
      "normalized": false,
      "special": true
    },
    {
      "id": 8064,
      "content": "[MASK]",
      "single_word": false,
      "lstrip": false,
      "rstrip": false,
      "normalized": false,
      "special": true
    }
  ],
  "normalizer": {
    "type": "Sequence",
    "normalizers": [
      {
        "type": "NFD"
      },
      {
        "type": "Lowercase"
      },
      {
        "type": "StripAccents"
      }
    ]
  },
  "pre_tokenizer": {
    "type": "Sequence",
    "pretokenizers": [
      {
        "type": "Metaspace",
        "replacement": "▁",
        "prepend_scheme": "always",
        "split": true
      }
    ]
  },
  "post_processor": {
    "type": "TemplateProcessing",
    "single": [
      {
        "SpecialToken": {
          "id": "[CLS]",
          "type_id": 0
        }
      },
      {
        "Sequence": {
          "id": "A",
          "type_id": 0
        }
      },
      {
        "SpecialToken": {
          "id": "[SEP]",
          "type_id": 0
        }
      }
    ],
    "pair": [
      {
        "SpecialToken": {
          "id": "[CLS]",
          "type_id": 0
        }
      },
      {
        "Sequence": {
          "id": "A",
          "type_id": 0
        }
      },
      {
        "SpecialToken": {
          "id": "[SEP]",
          "type_id": 0
        }
      },
      {
        "Sequence": {
          "id": "B",
          "type_id": 1
        }
      },
      {
        "SpecialToken": {
          "id": "[SEP]",
          "type_id": 1
        }
      }
    ],
    "special_tokens": {
      "[CLS]": {
        "id": "[CLS]",
        "ids": [
          7544
        ],
        "tokens": [
          "[CLS]"
        ]
      },
      "[SEP]": {
        "id": "[SEP]",
        "ids": [
          3681
        ],
        "tokens": [
          "[SEP]"
        ]
      }
    }
  },
  "decoder": {
    "type": "Metaspace",
    "replacement": "▁",
    "prepend_scheme": "always",
    "split": true
  },
  "model": {
    "type": "Unigram",
    "unk_id": 6631,
    "vocab": [
      [
        "▁creation",
        -9.686628161793465
      ],
      [
        "▁0590",
        -13.23014613029047
      ],
      [
        "▁effective",
        -9.175270313222226
      ],
      [
        "▁stand",
        -11.833815694314197
      ],
      [
        "▁balloon",
        -9.364163480317831
      ],
      [
        "▁oh",
        -6.27702176129235
      ],
      [
        "▁clear",
        -8.103908131152561
      ],
      [
        "▁mommy",
        -6.73390392311504
      ],
      [
        "▁attract",
        -9.573211839924856
      ],
      [
        "▁text",
        -9.04007653836441
      ],
      [
        "▁inter",
        -11.373820383720101
      ],
      [
        "▁camera",
        -9.50068615968036
      ],
      [
        "▁letter",
        -8.185892608681863
      ],
      [
        "▁!!!!!!!!!!!!!",
        -12.917860168581637
      ],
      [
        "▁suspect",
        -9.807120481738508
      ],
      [
        "3.1",
        -12.945575938572823
      ],
      [
        "▁tension",
        -10.30710828960069
      ],
      [
        "▁cause",
        -8.31037890252301
      ],
      [
        "▁pacific",
        -10.550545476634735
      ],
      [
        "110",
        -13.650665772775568
      ],
      [
        "▁guitar",
        -11.08425207516053
      ],
      [
        "com",
        -9.665541144741027
      ],
      [
        "▁war",
        -7.685704703236816
      ],
      [
        "cut",
        -10.853807700159052
      ],
      [
        "▁flexibl",
        -11.087126812306446
      ],
      [
        "church",
        -11.183609687728792
      ],
      [
        "▁distortion",
        -10.87405037021977
      ],
      [
        "▁execution",
        -10.421764628760954
      ],
      [
        "▁770",
        -13.561149847827556
      ],
      [
        "▁strat",
        -10.550940681287937
      ],
      [
        "▁female",
        -9.302902584175493
      ],
      [
        "▁expansi",
        -10.421382699177775
      ],
      [
        "^",
        -10.478257699563933
      ],
      [
        "▁40",
        -10.154022803970175
      ],
      [
        "ustache",
        -10.988071776042242
      ],
      [
        "▁datasheet",
        -10.782579545198551
      ],
      [
        "▁familiar",
        -9.914987500586836
      ],
      [
        "▁remind",
        -9.38542537827361
      ],
      [
        "▁escap",
        -11.043016627922443
      ],
      [
        "enne",
        -12.69757171824326
      ],
      [
        "f",
        -7.140732148589924
      ],
      [
        "▁schedule",
        -8.783412823143813
      ],
      [
        "thr",
        -11.182826915678534
      ],
      [
        "▁dis",
        -8.281888613200406
      ],
      [
        "▁theme",
        -9.91090242196421
      ],
      [
        "92",
        -10.548452700926314
      ],
      [
        "▁10:3",
        -12.310518676031213
      ],
      [
        "▁usual",
        -8.294175329753353
      ],
      [
        "▁saw",
        -7.795989903789526
      ],
      [
        "o",
        -8.471522179778706
      ],
      [
        "power",
        -11.184298997830906
      ],
      [
        "▁23",
        -10.030498826871938
      ],
      [
        "▁commissioner",
        -9.897748857497746
      ],
      [
        "mond",
        -10.337641846197755
      ],
      [
        "▁possession",
        -10.36255485277689
      ],
      [
        "ountain",
        -10.972564648702694
      ],
      [
        "▁96",
        -12.535367664760887
      ],
      [
        "▁lemon",
        -10.307750190209529
      ],
      [
        "▁current",
        -8.287638748643317
      ],
      [
        "▁did",
        -7.438242099005396
      ],
      [
        "▁philippine",
        -10.483878426524564
      ],
      [
        "▁gas",
        -8.680743132461147
      ],
      [
        "ul",
        -12.818709659508759
      ],
      [
        "co",
        -11.294682586699293
      ],
      [
        "▁wil",
        -9.163200589105932
      ],
      [
        "cha",
        -12.09839147145584
      ],
      [
        "▁database",
        -9.499174598162604
      ],
      [
        "oodle",
        -10.696915220001998
      ],
      [
        "▁play",
        -6.6231897240285145
      ],
      [
        "▁poem",
        -10.362579527783826
      ],
      [
        "▁associate",
        -9.22667695934851
      ],
      [
        "▁flat",
        -9.358512786118835
      ],
      [
        "-6",
        -12.344996043092538
      ],
      [
        "sheet",
        -11.058017091042267
      ],
      [
        "▁us",
        -9.506253679050264
      ],
      [
        "▁dra",
        -11.397091660772798
      ],
      [
        "▁wiggle",
        -9.98728672386784
      ],
      [
        "▁satisfact",
        -10.555784743981635
      ],
      [
        "▁ours",
        -11.486000418694196
      ],
      [
        "▁invest",
        -10.18659589743839
      ],
      [
        "▁propriet",
        -10.873139103030102
      ],
      [
        "▁survey",
        -10.369168625885816
      ],
      [
        "▁hide",
        -9.471034030187061
      ],
      [
        "▁arrest",
        -9.655336391081956
      ],
      [
        "ight",
        -12.834719490624838
      ],
      [
        "sc",
        -12.953296218781974
      ],
      [
        "▁ceremon",
        -10.30713082928717
      ],
      [
        "eur",
        -12.843554417548672
      ],
      [
        "▁await",
        -10.78225767087819
      ],
      [
        "▁influence",
        -9.323427190509516
      ],
      [
        "▁gum",
        -10.631521985532578
      ],
      [
        "▁iu",
        -11.539925515610605
      ],
      [
        "ime",
        -13.080672935516295
      ],
      [
        "▁jai",
        -10.906945068098644
      ],
      [
        "you",
        -7.21641018486248
      ],
      [
        "▁award",
        -9.386453371563798
      ],
      [
        "giving",
        -9.174344864407594
      ],
      [
        "▁paper",
        -7.780929027314263
      ],
      [
        "▁employ",
        -9.156157894048636
      ],
      [
        "▁complain",
        -10.301544449659234
      ],
      [
        "▁interface",
        -10.550545047619057
      ],
      [
        "▁01:0",
        -13.214497832237068
      ],
      [
        "198",
        -12.61404466033744
      ],
      [
        "______________",
        -10.890899768835993
      ],
      [
        "corporate",
        -10.025404247900372
      ],
      [
        "▁forgive",
        -10.550888287078159
      ],
      [
        "▁harmon",
        -10.606856239634842
      ],
      [
        "▁moslem",
        -10.69889757726148
      ],
      [
        "静",
        -12.833785825435129
      ],
      [
        "▁713-6",
        -13.034209030646092
      ],
      [
        "088",
        -14.609238966070613
      ],
      [
        "▁miracle",
        -10.62207516838858
      ],
      [
        "1000",
        -13.790121036013629
      ],
      [
        "▁deficienc",
        -10.55405286985771
      ],
      [
        "forma",
        -12.83984713007082
      ],
      [
        "ar",
        -8.96739030467699
      ],
      [
        "xe",
        -12.893327268062437
      ],
      [
        "he",
        -7.136458974037557
      ],
      [
        "01",
        -10.69383216144587
      ],
      [
        "!!!!!!!!!!!",
        -12.790094382530567
      ],
      [
        "ise",
        -12.797657598535169
      ],
      [
        "▁mexican",
        -9.875946045922184
      ],
      [
        "483",
        -13.516001727325241
      ],
      [
        "▁195",
        -10.468279737945544
      ],
      [
        "▁progress",
        -9.406538376805553
      ],
      [
        "▁measur",
        -10.633267776087362
      ],
      [
        "▁forum",
        -10.484998183881094
      ],
      [
        "▁moon",
        -9.271432626961925
      ],
      [
        "@enron",
        -9.947791281457736
      ],
      [
        "ization",
        -10.424694896522354
      ],
      [
        "748",
        -13.395315422654793
      ],
      [
        "▁kill",
        -8.62201226921261
      ],
      [
        "▁jellyfish",
        -10.782255424023168
      ],
      [
        "▁expire",
        -10.523925976638623
      ],
      [
        "▁favour",
        -10.06941905346666
      ],
      [
        "!!!!!!!!!!!!!!!",
        -11.787504311478639
      ],
      [
        "▁passport",
        -10.55121168145962
      ],
      [
        "▁u",
        -13.940905803883188
      ],
      [
        "▁soot",
        -11.184598475233992
      ],
      [
        "▁kur",
        -10.55863407374745
      ],
      [
        "-46",
        -14.683129009797762
      ],
      [
        "▁devil",
        -9.910655440263849
      ],
      [
        "▁charter",
        -10.790982905823954
      ],
      [
        "▁chan",
        -10.81959680504434
      ],
      [
        "▁comm",
        -12.579621450736289
      ],
      [
        "▁nin",
        -9.463018193581842
      ],
      [
        "▁add",
        -7.914306687559227
      ],
      [
        "force",
        -10.660635018840182
      ],
      [
        "▁strap",
        -10.365691454992827
      ],
      [
        "▁abbreviation",
        -11.084250208928754
      ],
      [
        "▁monday",
        -7.838112867563392
      ],
      [
        "▁03:",
        -11.982710755806442
      ],
      [
        "▁customer",
        -8.370480523336175
      ],
      [
        "▁frontier",
        -10.783475190147874
      ],
      [
        "rought",
        -8.754890322702451
      ],
      [
        "▁communit",
        -8.505529887664174
      ],
      [
        "li",
        -12.21078093944209
      ],
      [
        "line",
        -9.413211024688355
      ],
      [
        "▁emission",
        -10.421660995390901
      ],
      [
        "▁investment",
        -9.807583011421379
      ],
      [
        "▁mistake",
        -9.40717504513859
      ],
      [
        "▁patient",
        -9.658679189255121
      ],
      [
        "1-51",
        -14.136826951535193
      ],
      [
        "rinn",
        -11.088642044172623
      ],
      [
        "ated",
        -9.376059212414237
      ],
      [
        "polis",
        -8.091745283479948
      ],
      [
        "▁5.1",
        -13.468397919273812
      ],
      [
        "▁acquir",
        -10.49880153504547
      ],
      [
        "on",
        -6.434801464072722
      ],
      [
        "▁indiana",
        -8.412608329940667
      ],
      [
        "▁not",
        -5.826808915645819
      ],
      [
        "▁mary",
        -9.61757382381813
      ],
      [
        "▁sides",
        -10.656548309318781
      ],
      [
        "om",
        -9.213742069979448
      ],
      [
        "▁warwick",
        -10.782492476082169
      ],
      [
        "▁fun",
        -8.251125766709851
      ],
      [
        "▁cfl",
        -10.698965136702537
      ],
      [
        "▁injur",
        -9.600522748835703
      ],
      [
        "▁era",
        -9.91529692733931
      ],
      [
        "920",
        -12.849170236525222
      ],
      [
        "▁leisure",
        -11.084250451910332
      ],
      [
        "149",
        -13.721615169170054
      ],
      [
        "▁meeting",
        -8.375376176562247
      ],
      [
        "▁victim",
        -10.550545488279147
      ],
      [
        "berr",
        -10.776528224324036
      ],
      [
        "▁dial",
        -10.092636414009906
      ],
      [
        "▁nanc",
        -10.89335726713141
      ],
      [
        "▁rent",
        -9.50679364064101
      ],
      [
        "thailand",
        -10.599268146623348
      ],
      [
        "▁8.",
        -12.090119778997186
      ],
      [
        "▁observ",
        -9.640698348827328
      ],
      [
        "▁vari",
        -8.854523724566267
      ],
      [
        "▁turis",
        -12.826046104154699
      ],
      [
        "×",
        -11.833785825435129
      ],
      [
        "▁simp",
        -10.89961413918464
      ],
      [
        "tery",
        -10.722350268244758
      ],
      [
        "▁experiment",
        -9.942244963103835
      ],
      [
        "▁minimum",
        -9.947854574504623
      ],
      [
        "el",
        -8.16373533480153
      ],
      [
        "▁item",
        -8.585331860135945
      ],
      [
        "▁equipment",
        -10.067816176732133
      ],
      [
        "/08",
        -13.1520347351975
      ],
      [
        "age",
        -11.003488229021976
      ],
      [
        "242",
        -14.03003538722958
      ],
      [
        "▁speci",
        -9.454967013155027
      ],
      [
        "▁d.",
        -11.113447961635394
      ],
      [
        "▁superior",
        -10.55088028787786
      ],
      [
        "▁guarantee",
        -9.549081416333092
      ],
      [
        "bo",
        -11.596433781311086
      ],
      [
        "4gamer",
        -10.782230014594688
      ],
      [
        "▁1.6",
        -12.34208568727186
      ],
      [
        "me",
        -9.087113698318994
      ],
      [
        "163",
        -15.14065267998616
      ],
      [
        "▁formal",
        -9.554374422259787
      ],
      [
        "nfant",
        -10.483870515745163
      ],
      [
        "06",
        -12.319308541197813
      ],
      [
        "▁arch",
        -10.883210280371463
      ],
      [
        "▁heavi",
        -10.25436782640519
      ],
      [
        "▁value",
        -8.191214021686617
      ],
      [
        "▁taylor",
        -10.873139244553116
      ],
      [
        "▁balance",
        -9.043273359413378
      ],
      [
        "859",
        -12.901515156474916
      ],
      [
        "▁finance",
        -9.502730503306154
      ],
      [
        "▁clar",
        -10.713316466102865
      ],
      [
        "▁terre",
        -10.747630374118458
      ],
      [
        "▁hungr",
        -9.421505513942542
      ],
      [
        "▁suprem",
        -10.067815879882565
      ],
      [
        "▁miram",
        -10.4217188290074
      ],
      [
        "and",
        -10.665447951536812
      ],
      [
        "surgery",
        -10.07362830190116
      ],
      [
        "▁motive",
        -10.622001044666902
      ],
      [
        "▁northwest",
        -9.481563775086435
      ],
      [
        "▁explorer",
        -10.31426851876181
      ],
      [
        "▁transition",
        -10.307949856833767
      ],
      [
        "▁22",
        -10.973191979732043
      ],
      [
        "▁container",
        -9.610797222643319
      ],
      [
        "▁joint",
        -10.175624316707406
      ],
      [
        "▁suf",
        -10.442272084373887
      ],
      [
        "▁courage",
        -10.973141359452216
      ],
      [
        "▁82",
        -11.78840042592635
      ],
      [
        "▁luther",
        -10.87329492147498
      ],
      [
        "▁cash",
        -9.303783853633366
      ],
      [
        "16:",
        -14.198968335694197
      ],
      [
        "▁innocent",
        -10.550545143940855
      ],
      [
        "▁customiz",
        -11.10018268218619
      ],
      [
        "▁frie",
        -10.827355288912031
      ],
      [
        "▁110",
        -11.62840249240278
      ],
      [
        "▁nap",
        -9.941582978660726
      ],
      [
        "▁filter",
        -8.645072239826987
      ],
      [
        "▁institution",
        -9.337988817899397
      ],
      [
        "▁citizen",
        -10.413194021631194
      ],
      [
        "▁diar",
        -10.814708615417334
      ],
      [
        "▁passage",
        -10.487155251237887
      ],
      [
        "▁urs",
        -8.863958073948023
      ],
      [
        "1507",
        -13.383298432819583
      ],
      [
        "▁aspect",
        -9.190640413785733
      ],
      [
        "2000",
        -9.70736640342331
      ],
      [
        "1,",
        -14.673378306135053
      ],
      [
        "▁where",
        -8.802452388749018
      ],
      [
        "▁char",
        -8.018682344236295
      ],
      [
        "▁restor",
        -10.49518497248273
      ],
      [
        "▁invent",
        -10.202104857930625
      ],
      [
        "atta",
        -12.241038137187177
      ],
      [
        "▁loud",
        -9.389330838074713
      ],
      [
        "▁crossing",
        -10.266192068243237
      ],
      [
        "hap",
        -8.508777534934477
      ],
      [
        "▁black",
        -7.9647947672633705
      ],
      [
        "▁ya",
        -12.898998956236886
      ],
      [
        "▁house",
        -7.187298756520364
      ],
      [
        "▁blue",
        -8.28087596449407
      ],
      [
        "▁fr",
        -10.15312759479927
      ],
      [
        "▁07/1",
        -11.467963282922426
      ],
      [
        "▁texa",
        -8.624730545374206
      ],
      [
        "▁tool",
        -9.412557880915408
      ],
      [
        "▁jason",
        -10.06796867416301
      ],
      [
        "▁born",
        -8.560719953382907
      ],
      [
        "65",
        -11.062979589335495
      ],
      [
        "▁04:",
        -12.413054408096652
      ],
      [
        "▁wentz",
        -10.26231700508862
      ],
      [
        "▁250",
        -11.689807638237173
      ],
      [
        "▁respond",
        -9.302902022738838
      ],
      [
        "▁stack",
        -10.97445518656735
      ],
      [
        "▁attache",
        -9.182440947383975
      ],
      [
        "▁observation",
        -10.309097497528409
      ],
      [
        "parallel",
        -10.421379712373549
      ],
      [
        "▁uncertaint",
        -10.794735669431077
      ],
      [
        "▁reason",
        -8.030305837915575
      ],
      [
        "▁queries",
        -10.161286450779865
      ],
      [
        "▁192",
        -11.94057202446741
      ],
      [
        "▁visual",
        -9.986116922606026
      ],
      [
        "ex",
        -9.281783810318018
      ],
      [
        "ur",
        -10.506677442453604
      ],
      [
        "▁big",
        -6.967008261820933
      ],
      [
        "▁robe",
        -10.828161857964457
      ],
      [
        "▁kath",
        -10.55385754277279
      ],
      [
        "▁fore",
        -9.677585858184017
      ],
      [
        ".2",
        -12.489296254993784
      ],
      [
        "gue",
        -10.497366488242804
      ],
      [
        "▁dispos",
        -11.175140067885284
      ],
      [
        "▁w/o",
        -13.283869278045032
      ],
      [
        "▁mujah",
        -10.973139287907062
      ],
      [
        "▁ran",
        -9.134253376648497
      ],
      [
        "▁broad",
        -9.234133434308518
      ],
      [
        "lta",
        -8.416890343592092
      ],
      [
        "▁coco",
        -10.205369128003383
      ],
      [
        "▁sex",
        -9.713738762052877
      ],
      [
        "▁truck",
        -8.462301455477888
      ],
      [
        "▁mal",
        -10.199829275645008
      ],
      [
        "uta",
        -10.96004014275531
      ],
      [
        "▁53",
        -11.83521502435301
      ],
      [
        "▁manager",
        -9.110328011213706
      ],
      [
        "▁weird",
        -10.421378754337294
      ],
      [
        "---=",
        -11.82789170959216
      ],
      [
        "▁5.8",
        -13.211594130304274
      ],
      [
        "▁fold",
        -9.769774027660764
      ],
      [
        "▁tolerat",
        -10.976632258988321
      ],
      [
        "▁cycle",
        -9.747507064698562
      ],
      [
        "▁surrender",
        -10.782230160480658
      ],
      [
        "▁protest",
        -10.067630981717372
      ],
      [
        "▁dutch",
        -11.086037303387592
      ],
      [
        "elected",
        -10.040257057635074
      ],
      [
        "▁practic",
        -10.654632972383144
      ],
      [
        "x",
        -7.981746832535319
      ],
      [
        "▁george",
        -8.510863764464974
      ],
      [
        "▁egypt",
        -9.452108731379443
      ],
      [
        "▁kick",
        -9.627784484248613
      ],
      [
        "▁material",
        -9.027680630673654
      ],
      [
        "▁10/2",
        -13.225127566197031
      ],
      [
        "son@",
        -12.833766077176563
      ],
      [
        "▁sherr",
        -11.09023270887822
      ],
      [
        "sum",
        -12.188254551844796
      ],
      [
        "▁calm",
        -9.776039470962122
      ],
      [
        "ll",
        -11.633926568399433
      ],
      [
        "/2005.09/200509",
        -10.873139097778182
      ],
      [
        "▁apo",
        -10.990728966092083
      ],
      [
        "▁endanger",
        -10.782230120846496
      ],
      [
        "gur",
        -11.012294776216754
      ],
      [
        "ise",
        -9.14130254849643
      ],
      [
        "▁dioxi",
        -10.873344632834428
      ],
      [
        "▁eric",
        -11.089220440443952
      ],
      [
        "▁mm",
        -8.79408386791583
      ],
      [
        "▁arab",
        -9.097070900709443
      ],
      [
        "▁dal",
        -10.650001091976666
      ],
      [
        "▁36",
        -11.01212807405217
      ],
      [
        "sett",
        -10.703706332384812
      ],
      [
        "▁breath",
        -9.468799828326695
      ],
      [
        "▁daniel",
        -9.574206871297058
      ],
      [
        "1918",
        -11.546116586931637
      ],
      [
        "cious",
        -10.899994821185008
      ],
      [
        "des",
        -12.595929635241497
      ],
      [
        "▁act",
        -8.345860179927508
      ],
      [
        "hoe",
        -10.844896429361297
      ],
      [
        "▁t",
        -11.219338199887599
      ],
      [
        "ting",
        -12.485813309269616
      ],
      [
        "▁agree",
        -8.546831884439145
      ],
      [
        "▁11:2",
        -12.486466669457384
      ],
      [
        "0072",
        -13.439753158054558
      ],
      [
        "▁epi",
        -10.768127818459682
      ],
      [
        "▁honey",
        -8.776484966437474
      ],
      [
        "▁occurr",
        -9.776968278096406
      ],
      [
        "1",
        -7.526925805932847
      ],
      [
        "bert",
        -10.714461390207582
      ],
      [
        "fire",
        -11.062236503976791
      ],
      [
        "▁disappointment",
        -11.085767647711728
      ],
      [
        "▁despair",
        -11.084250660253193
      ],
      [
        "6-9",
        -12.684351220659938
      ],
      [
        "▁clause",
        -10.634656630255527
      ],
      [
        "▁sussex",
        -10.973217328020851
      ],
      [
        "▁situat",
        -11.208460947332666
      ],
      [
        "▁trim",
        -11.10098607098778
      ],
      [
        "115",
        -14.50242871484168
      ],
      [
        "▁gam",
        -10.54330296832061
      ],
      [
        "▁slice",
        -10.11130148491057
      ],
      [
        "▁metropoli",
        -11.087056827575786
      ],
      [
        "▁n'",
        -6.273185656304505
      ],
      [
        "fare",
        -10.228268295111562
      ],
      [
        "▁council",
        -8.969267946425328
      ],
      [
        "history",
        -8.608259189325832
      ],
      [
        "▁myceli",
        -10.621973699964737
      ],
      [
        "min",
        -9.957249813968366
      ],
      [
        "▁australia",
        -9.499174069013288
      ],
      [
        "987",
        -14.893421856703934
      ],
      [
        "▁colour",
        -10.161152038374151
      ],
      [
        "▁division",
        -9.87493666681598
      ],
      [
        "▁recipe",
        -10.973193687198943
      ],
      [
        "came",
        -8.775453636545953
      ],
      [
        "▁bang",
        -9.911347741077165
      ],
      [
        "▁artwork",
        -10.157144001435805
      ],
      [
        "▁examination",
        -10.875061319686852
      ],
      [
        "ga",
        -10.834148832479924
      ],
      [
        "0",
        -10.782683652942984
      ],
      [
        "▁belong",
        -9.208847452791318
      ],
      [
        "190",
        -13.810053399207337
      ],
      [
        "▁neat",
        -9.98675036149088
      ],
      [
        "¢",
        -12.833785825435129
      ],
      [
        "ern",
        -8.858052921036036
      ],
      [
        "▁pilgrim",
        -10.972783938234663
      ],
      [
        "ward",
        -11.834056055878488
      ],
      [
        "▁key",
        -8.484768462327857
      ],
      [
        "▁geometr",
        -10.621973603536595
      ],
      [
        "6:5",
        -14.245778065733244
      ],
      [
        "uer",
        -12.854866086941115
      ],
      [
        "▁yes",
        -7.209091090792579
      ],
      [
        "pdf",
        -10.255628992738792
      ],
      [
        "▁super",
        -9.022770468576729
      ],
      [
        "▁ansi-",
        -10.112259386372152
      ],
      [
        "▁invasi",
        -10.973341193301934
      ],
      [
        "▁hand",
        -7.474497682445632
      ],
      [
        "▁376",
        -14.053687754394758
      ],
      [
        "urler",
        -11.195041481570172
      ],
      [
        "▁cheer",
        -10.381513601763965
      ],
      [
        "▁jar",
        -10.262709601577356
      ],
      [
        "rick",
        -10.112124056875249
      ],
      [
        "▁sap",
        -11.091313126680609
      ],
      [
        "mon",
        -9.708812970665498
      ],
      [
        "▁af",
        -10.504862344166291
      ],
      [
        "▁375",
        -13.567938652830124
      ],
      [
        "▁dividend",
        -10.3626366566194
      ],
      [
        "fe",
        -10.063314280292357
      ],
      [
        "▁farm",
        -9.36523735879291
      ],
      [
        "▁5",
        -8.813230402229319
      ],
      [
        "1/2",
        -11.18934658260106
      ],
      [
        "▁skittle",
        -9.840453616678788
      ],
      [
        "▁innovative",
        -10.873405067601121
      ],
      [
        "▁america",
        -8.542401033813977
      ],
      [
        "▁caution",
        -10.973143235969845
      ],
      [
        "j",
        -12.63677057935472
      ],
      [
        "-",
        -6.655849592425917
      ],
      [
        "/25/200",
        -12.112325426631577
      ],
      [
        "▁discourag",
        -10.973518002183923
      ],
      [
        "▁chi",
        -11.906643426785514
      ],
      [
        "id",
        -8.42446115434038
      ],
      [
        "▁scratch",
        -10.306999274906872
      ],
      [
        "▁capabilit",
        -10.36281390491807
      ],
      [
        "▁come",
        -6.540023860134716
      ],
      [
        "▁yog",
        -9.600705025202986
      ],
      [
        "▁successful",
        -9.107243610514848
      ],
      [
        "ch",
        -11.427146876420407
      ],
      [
        "▁smell",
        -9.042836147814644
      ],
      [
        "▁!!!!",
        -9.884799963893974
      ],
      [
        "▁aunt",
        -9.554086079127023
      ],
      [
        "plastic",
        -9.887731683576224
      ],
      [
        "474",
        -14.504383402546411
      ],
      [
        "esome",
        -9.553743835219098
      ],
      [
        "▁publish",
        -8.962630177023936
      ],
      [
        "▁elaborate",
        -10.973139097793489
      ],
      [
        "▁fr",
        -9.013190444206863
      ],
      [
        "wart",
        -10.303383653084605
      ],
      [
        "▁lb",
        -10.783618444690234
      ],
      [
        "▁toss",
        -10.924796825289027
      ],
      [
        "jo",
        -11.43397011805476
      ],
      [
        "1.5",
        -12.304039930639782
      ],
      [
        "▁366",
        -12.639888687731418
      ],
      [
        "▁piece",
        -7.929776084190846
      ],
      [
        "▁jan",
        -9.91558855071249
      ],
      [
        "▁lobby",
        -10.782443130946803
      ],
      [
        "partisan",
        -11.084527724588156
      ],
      [
        "▁tol",
        -7.6191012354012555
      ],
      [
        "ham",
        -9.872893983544602
      ],
      [
        "▁0.1",
        -13.296955699958513
      ],
      [
        "life",
        -10.94399318333006
      ],
      [
        "▁410-468-3",
        -13.136770579350877
      ],
      [
        "▁loop",
        -10.975151019661386
      ],
      [
        "▁option",
        -8.629982394301976
      ],
      [
        ">",
        -8.485528575884176
      ],
      [
        "ies",
        -6.204351518052511
      ],
      [
        "▁trump",
        -10.48376263861464
      ],
      [
        "i",
        -2.8124076435862975
      ],
      [
        "hear",
        -10.781204805371843
      ],
      [
        "▁fuck",
        -9.713850432597798
      ],
      [
        "alaba",
        -10.553160435148431
      ],
      [
        "▁consist",
        -10.254514990933082
      ],
      [
        "▁stop",
        -7.637317757912156
      ],
      [
        "▁recent",
        -8.211008927317451
      ],
      [
        "▁electronic",
        -10.362570601077216
      ],
      [
        "raz",
        -12.216306027598762
      ],
      [
        "over",
        -10.135244341423348
      ],
      [
        "▁branch",
        -10.77560239826677
      ],
      [
        "▁um",
        -6.949180405598191
      ],
      [
        "▁compar",
        -9.805509476688375
      ],
      [
        "•",
        -12.833785825435129
      ],
      [
        "my",
        -8.402523764829516
      ],
      [
        "▁pe",
        -12.095837336446717
      ],
      [
        "▁06/01/200",
        -12.339716654186573
      ],
      [
        "go",
        -10.366859053500345
      ],
      [
        "▁flaw",
        -10.874902408772527
      ],
      [
        "night",
        -8.962873307213105
      ],
      [
        "▁excuse",
        -9.910653110012877
      ],
      [
        "▁ol",
        -10.208122813479125
      ],
      [
        "▁be",
        -11.273560827601582
      ],
      [
        "▁peter",
        -8.435930581279571
      ],
      [
        "▁through",
        -7.510134204880654
      ],
      [
        "▁few",
        -7.563886831166232
      ],
      [
        "▁pepper",
        -9.947687829727784
      ],
      [
        "▁88",
        -13.04942698006511
      ],
      [
        "▁box",
        -8.281887991647345
      ],
      [
        "▁michael",
        -9.173094140490939
      ],
      [
        "▁preparation",
        -10.552126020686849
      ],
      [
        "▁acro",
        -10.689507265366785
      ],
      [
        "▁conclude",
        -10.098515798649592
      ],
      [
        "▁article",
        -8.83707676878501
      ],
      [
        "▁annual",
        -9.910654348908567
      ],
      [
        "▁outdoor",
        -10.782235386598543
      ],
      [
        "▁earn",
        -9.688818002807789
      ],
      [
        "▁complet",
        -10.267186840989108
      ],
      [
        "▁popular",
        -9.124669048485398
      ],
      [
        "▁du",
        -11.406419735949775
      ],
      [
        "▁lick",
        -9.910980539941896
      ],
      [
        "taking",
        -8.046389070022471
      ],
      [
        "▁radical",
        -10.622149098636298
      ],
      [
        "▁ba",
        -11.474094207813563
      ],
      [
        "755",
        -14.450526138564245
      ],
      [
        "▁cal",
        -10.258542711671321
      ],
      [
        "▁club",
        -9.743612191995702
      ],
      [
        "lan",
        -9.887229948535015
      ],
      [
        "~",
        -9.582223498820056
      ],
      [
        "▁chal",
        -10.96386350293234
      ],
      [
        "▁queen",
        -10.62213592294907
      ],
      [
        "▁functional",
        -10.076453321198054
      ],
      [
        "▁market",
        -8.14674934717936
      ],
      [
        "nature",
        -9.094819485788191
      ],
      [
        "▁arm",
        -8.333072829416132
      ],
      [
        "▁tug",
        -10.874919515723162
      ],
      [
        "425",
        -14.180756138798783
      ],
      [
        "▁planet",
        -10.084986055885649
      ],
      [
        "yo",
        -15.099394858063627
      ],
      [
        ",",
        -2.069537032793109
      ],
      [
        "▁fir",
        -11.005064603428156
      ],
      [
        "▁10,",
        -14.137997860855931
      ],
      [
        "▁judgment",
        -10.111450781742505
      ],
      [
        "▁tide",
        -11.08528009435921
      ],
      [
        "▁dramatic",
        -10.36285685661835
      ],
      [
        "rio",
        -11.368284490750389
      ],
      [
        "nut",
        -10.65491105913275
      ],
      [
        "▁doubt",
        -9.47875937545279
      ],
      [
        "▁cub",
        -10.964025412535719
      ],
      [
        "▁conquer",
        -11.08425473699881
      ],
      [
        "▁harr",
        -8.007388779922819
      ],
      [
        "6",
        -9.073734559914339
      ],
      [
        "▁per",
        -7.651239297079777
      ],
      [
        "▁limit",
        -8.839152538489198
      ],
      [
        "▁educate",
        -10.421378912509311
      ],
      [
        "▁block",
        -9.107840845631657
      ],
      [
        "▁personal",
        -8.54307276903753
      ],
      [
        "▁pillow",
        -9.475364856555213
      ],
      [
        "▁disturb",
        -10.782230017059518
      ],
      [
        "western",
        -11.114036067452457
      ],
      [
        "▁industri",
        -10.619783270938994
      ],
      [
        "▁bathroom",
        -9.264134991111142
      ],
      [
        "▁forg",
        -11.150426585136623
      ],
      [
        "▁03:4",
        -12.536190960354329
      ],
      [
        "ow",
        -9.925344315070316
      ],
      [
        "▁historical",
        -9.69079308828038
      ],
      [
        "+",
        -10.373814954979327
      ],
      [
        "▁audit",
        -10.15676455097204
      ],
      [
        "▁refer",
        -9.381174092002295
      ],
      [
        "▁mission",
        -9.762788012599191
      ],
      [
        "▁metro",
        -10.15682376435106
      ],
      [
        "nc",
        -13.143028727913363
      ],
      [
        "▁prefer",
        -10.036384042793918
      ],
      [
        "ins",
        -12.845286296256571
      ],
      [
        "415-",
        -14.13691236344024
      ],
      [
        "▁grateful",
        -10.78223038885642
      ],
      [
        "six",
        -10.787426841008156
      ],
      [
        "▁quixot",
        -10.782230107113012
      ],
      [
        "an",
        -8.57482120710274
      ],
      [
        "▁reaction",
        -10.111881543821001
      ],
      [
        "▁<",
        -9.428811894508192
      ],
      [
        "nde",
        -12.81357135271133
      ],
      [
        "▁administrat",
        -10.066846773898057
      ],
      [
        "▁fake",
        -10.62221587017501
      ],
      [
        "▁bon",
        -11.441542345293989
      ],
      [
        "▁brit",
        -9.258084636502666
      ],
      [
        "▁28",
        -10.454550929746874
      ],
      [
        "▁1",
        -10.229035535106615
      ],
      [
        "▁begu",
        -10.157537854698676
      ],
      [
        "▁mess",
        -9.415370513152652
      ],
      [
        "_______________",
        -10.368062127986823
      ],
      [
        "▁custom",
        -9.764463156047718
      ],
      [
        "▁economist",
        -10.883388304428134
      ],
      [
        "▁pilot",
        -9.600534027767921
      ],
      [
        "▁64",
        -12.54155585686422
      ],
      [
        "▁til",
        -14.239400027983454
      ],
      [
        "rry",
        -10.098921721006656
      ],
      [
        "▁tan",
        -10.219190522267398
      ],
      [
        "30",
        -9.658731711958618
      ],
      [
        "▁multiply",
        -10.973157840073297
      ],
      [
        "▁ruf",
        -10.986384975618922
      ],
      [
        "▁manifest",
        -11.084253117265947
      ],
      [
        "828-",
        -13.137496001915123
      ],
      [
        "▁fanc",
        -10.893751222368946
      ],
      [
        "▁worse",
        -9.500686305556307
      ],
      [
        "▁leg",
        -8.52740958223249
      ],
      [
        "▁instant",
        -10.204377402794236
      ],
      [
        "▁anti",
        -10.088555111136227
      ],
      [
        "▁establishment",
        -10.372533127952549
      ],
      [
        "5.6",
        -13.1400501831892
      ],
      [
        "▁depr",
        -11.11045423204277
      ],
      [
        "▁stock",
        -9.370213999849458
      ],
      [
        "▁summer",
        -8.615156397380883
      ],
      [
        "▁external",
        -10.254367829945295
      ],
      [
        "och",
        -12.918959700262555
      ],
      [
        "55",
        -11.29034389136408
      ],
      [
        "▁y",
        -12.73133129097645
      ],
      [
        "▁sunni",
        -10.0695121952016
      ],
      [
        "md",
        -11.141550706240368
      ],
      [
        "ular",
        -10.562250258082946
      ],
      [
        "hi",
        -9.424581281491143
      ],
      [
        "▁stirrup",
        -10.973254376638161
      ],
      [
        "▁skirt",
        -10.550582358574758
      ],
      [
        "▁rebel",
        -10.910375777774538
      ],
      [
        "▁sel",
        -11.029299156113318
      ],
      [
        "▁bombing",
        -10.78735410695713
      ],
      [
        "▁distant",
        -10.973178848555026
      ],
      [
        "▁patent",
        -10.973476799566154
      ],
      [
        "lotte",
        -8.381745288109983
      ],
      [
        "▁hid",
        -9.837729331349369
      ],
      [
        "▁prefect",
        -11.084250968733793
      ],
      [
        "▁chick",
        -10.893145825371228
      ],
      [
        "▁clinic",
        -10.370075657248501
      ],
      [
        "▁criteri",
        -10.550571235774022
      ],
      [
        "azi",
        -10.794398206654606
      ],
      [
        "ady",
        -7.638505959234532
      ],
      [
        "▁8",
        -9.408204222629285
      ],
      [
        "ac",
        -9.396153271130302
      ],
      [
        "▁violent",
        -10.31271931337284
      ],
      [
        "▁xsl",
        -10.123975032621114
      ],
      [
        "ul",
        -9.086764229552152
      ],
      [
        "ya",
        -12.271013452895534
      ],
      [
        "▁deck",
        -10.895411577640054
      ],
      [
        "▁cris",
        -9.850505167213981
      ],
      [
        "16",
        -10.36257830423802
      ],
      [
        "▁+++++",
        -12.525574909630727
      ],
      [
        "▁bless",
        -10.565649587140063
      ],
      [
        "▁202-",
        -14.080987957304744
      ],
      [
        "▁reporter",
        -10.732586237196795
      ],
      [
        "zer",
        -9.227239644934606
      ],
      [
        "▁recogni",
        -10.181320860438607
      ],
      [
        "▁strong",
        -8.231082438299033
      ],
      [
        "r.",
        -10.13031318877856
      ],
      [
        "leans",
        -10.307879103370025
      ],
      [
        "▁sword",
        -10.881817892121564
      ],
      [
        "▁191",
        -11.896980550058402
      ],
      [
        "▁trust",
        -8.998695749574857
      ],
      [
        "w",
        -7.09544860878979
      ],
      [
        "▁pure",
        -9.948496827320778
      ],
      [
        "870",
        -12.325971475335379
      ],
      [
        "▁decade",
        -9.155944193568827
      ],
      [
        "▁spot",
        -9.032777456236623
      ],
      [
        "eries",
        -9.215375674315126
      ],
      [
        "ik",
        -11.833857830146387
      ],
      [
        "▁cease",
        -10.973411704131582
      ],
      [
        "matic",
        -11.833787411555353
      ],
      [
        "▁marine",
        -10.335232068725158
      ],
      [
        "titude",
        -10.784973387301536
      ],
      [
        "ct",
        -9.519962088824977
      ],
      [
        "ica",
        -9.76356922231464
      ],
      [
        "▁re",
        -10.964379486458848
      ],
      [
        "▁defeat",
        -10.254400078985947
      ],
      [
        "▁lamb",
        -10.70369575864839
      ],
      [
        "▁..",
        -12.692418167268961
      ],
      [
        "co",
        -8.598166052977437
      ],
      [
        "ine",
        -11.054311485750521
      ],
      [
        "du",
        -12.226091588455985
      ],
      [
        "▁enter",
        -8.9423131211093
      ],
      [
        "#",
        -12.793241489426944
      ],
      [
        "▁representation",
        -10.311150562286752
      ],
      [
        "▁satan",
        -10.570689332598333
      ],
      [
        "▁fair",
        -8.47574899623938
      ],
      [
        "▁bloom",
        -11.084306457168077
      ],
      [
        "!!!!!!!!!!",
        -11.520021148139236
      ],
      [
        "▁examin",
        -10.40894579969902
      ],
      [
        "▁05/0",
        -13.800770594177061
      ],
      [
        "▁relation",
        -10.54962047390394
      ],
      [
        "iv",
        -9.495519770133896
      ],
      [
        "koo",
        -10.958454425955404
      ],
      [
        "el",
        -11.736101132493474
      ],
      [
        "▁groom",
        -10.975621635738317
      ],
      [
        "hi",
        -9.928677159225437
      ],
      [
        "y@enron",
        -13.171364865159829
      ],
      [
        "▁able",
        -8.105547329319004
      ],
      [
        "▁jaz",
        -11.085638888622478
      ],
      [
        "▁belief",
        -9.475365837398577
      ],
      [
        "▁prohibit",
        -10.782230050816535
      ],
      [
        "▁form",
        -7.793143745023637
      ],
      [
        "▁rabbit",
        -9.386570556717663
      ],
      [
        "▁vital",
        -10.362595632942071
      ],
      [
        "▁beer",
        -9.758706235684162
      ],
      [
        "▁at",
        -10.976289584009784
      ],
      [
        "-2",
        -11.920185692866035
      ],
      [
        "▁tasting",
        -10.807199133888707
      ],
      [
        "▁perform",
        -9.172850393464854
      ],
      [
        "ese",
        -13.969336546849245
      ],
      [
        "▁reflect",
        -9.121238189897191
      ],
      [
        "▁pony",
        -10.783132127397295
      ],
      [
        "▁strike",
        -9.840472291679719
      ],
      [
        "sel",
        -11.095865953535217
      ],
      [
        "▁assist",
        -9.661615380039985
      ],
      [
        "▁show",
        -5.970318070480243
      ],
      [
        "0.8",
        -12.754940125285833
      ],
      [
        "▁syn",
        -10.79409371260934
      ],
      [
        "uku",
        -11.087162493303367
      ],
      [
        "▁symbol",
        -10.421182334513556
      ],
      [
        "▁outline",
        -11.094219830048704
      ],
      [
        "▁kay",
        -9.626087307179024
      ],
      [
        "▁sky",
        -8.93227990541852
      ],
      [
        "▁gu",
        -9.72993125812959
      ],
      [
        "▁91",
        -13.654755750579634
      ],
      [
        "▁poke",
        -10.98297022273384
      ],
      [
        "et",
        -8.92601762874286
      ],
      [
        "ng",
        -9.27386279158636
      ],
      [
        "▁ex",
        -12.00901042808331
      ],
      [
        "iness",
        -9.799260107864466
      ],
      [
        "▁spill",
        -10.25470935652357
      ],
      [
        "▁marvelous",
        -10.782230010211443
      ],
      [
        "▁161",
        -11.458814305941754
      ],
      [
        "▁proclaim",
        -10.698896673649921
      ],
      [
        "whil",
        -10.789586528270528
      ],
      [
        "▁dan",
        -9.627519892607726
      ],
      [
        "▁negotiat",
        -10.20338342726102
      ],
      [
        "art",
        -9.95838834848572
      ],
      [
        "msel",
        -12.496307117546552
      ],
      [
        "/10/200",
        -11.680262662674137
      ],
      [
        "▁york",
        -7.6283234266857916
      ],
      [
        "dden",
        -9.68249576039289
      ],
      [
        "▁ma",
        -10.677501707364895
      ],
      [
        "nmar",
        -10.934394582831917
      ],
      [
        "▁mud",
        -10.346370638343487
      ],
      [
        "me",
        -9.799251337819435
      ],
      [
        "ere",
        -10.431743240538172
      ],
      [
        "nine",
        -11.357421453356467
      ],
      [
        "▁bike",
        -9.24552832228042
      ],
      [
        "1.0",
        -14.848236296224862
      ],
      [
        "▁art",
        -8.350049899211154
      ],
      [
        "▁gain",
        -9.324827222454653
      ],
      [
        "▁wai",
        -10.21652389059648
      ],
      [
        "▁peel",
        -10.792317086096173
      ],
      [
        "▁165",
        -13.333829689480131
      ],
      [
        "▁260",
        -13.873155210873321
      ],
      [
        "▁duck",
        -9.183404517814289
      ],
      [
        "▁cere",
        -9.60966486245737
      ],
      [
        "▁attorney",
        -10.06781585101849
      ],
      [
        "▁dolphin",
        -10.204367706832988
      ],
      [
        "▁theodor",
        -9.87493634205269
      ],
      [
        "▁decrease",
        -10.873139458904923
      ],
      [
        "▁cooperati",
        -10.064382514313033
      ],
      [
        "▁13",
        -9.708661677019629
      ],
      [
        "‘",
        -14.136770579354708
      ],
      [
        "▁manner",
        -9.630952417014953
      ],
      [
        "▁offend",
        -10.783645873545835
      ],
      [
        "▁famous",
        -9.548565740227971
      ],
      [
        "▁galo",
        -9.91347307408463
      ],
      [
        "▁mov",
        -8.249384841416283
      ],
      [
        "▁vomit",
        -10.782238152140465
      ],
      [
        "▁hate",
        -9.691702620320942
      ],
      [
        "▁odara",
        -10.698898615638793
      ],
      [
        "▁urin",
        -10.974675384450663
      ],
      [
        "93",
        -11.856309454895468
      ],
      [
        "▁announce",
        -9.698459758573577
      ],
      [
        "▁chatham",
        -10.483940123195023
      ],
      [
        "▁base",
        -7.83943708046804
      ],
      [
        "bert",
        -10.242654352680248
      ],
      [
        "▁militant",
        -10.254368439340722
      ],
      [
        "▁iso",
        -10.295115650840907
      ],
      [
        "▁infrastructure",
        -10.026149173992488
      ],
      [
        "▁ethic",
        -10.790297215860974
      ],
      [
        "<",
        -7.273053706688606
      ],
      [
        "▁22,",
        -14.13564255438126
      ],
      [
        "▁port",
        -9.120980125631112
      ],
      [
        "▁wor",
        -9.78966098675303
      ],
      [
        "▁blast",
        -11.089285679816431
      ],
      [
        "▁sure",
        -7.483704669419667
      ],
      [
        "▁troop",
        -9.910651316343309
      ],
      [
        "thirty",
        -12.183877326748673
      ],
      [
        "▁president",
        -7.71426759051692
      ],
      [
        "▁list",
        -6.630249201279371
      ],
      [
        "▁file",
        -7.984895254788771
      ],
      [
        "▁richard",
        -9.245333399719067
      ],
      [
        "ian",
        -8.500126074296503
      ],
      [
        "▁circle",
        -9.094106789806663
      ],
      [
        "▁jud",
        -10.592944357146493
      ],
      [
        "▁teaspoon",
        -11.084250212308032
      ],
      [
        "▁blame",
        -10.307506697745485
      ],
      [
        "▁shoul",
        -7.016245635624688
      ],
      [
        "ls",
        -11.685671346963831
      ],
      [
        "▁laptop",
        -10.973202611702124
      ],
      [
        "☎",
        -11.833785825435129
      ],
      [
        "kinaw",
        -10.32442542031161
      ],
      [
        "ou",
        -9.381210504395051
      ],
      [
        "▁miss",
        -8.314155287834987
      ],
      [
        "▁sa",
        -8.787187002172942
      ],
      [
        "▁structural",
        -10.026409011536419
      ],
      [
        "▁wonderful",
        -9.106555518415144
      ],
      [
        "▁neighborhood",
        -10.15681187708521
      ],
      [
        "kkai",
        -10.487224519017897
      ],
      [
        "▁http://",
        -9.452090910088602
      ],
      [
        "▁guadeloupe",
        -10.782230006868874
      ],
      [
        "ner",
        -11.893441421125145
      ],
      [
        "▁glacier",
        -11.084250209879071
      ],
      [
        "▁garden",
        -9.058277219690025
      ],
      [
        "▁stir",
        -10.619828421611135
      ],
      [
        "▁inventory",
        -11.084423859808576
      ],
      [
        "▁eva",
        -10.882704247567062
      ],
      [
        "▁description",
        -9.910656727339655
      ],
      [
        "stair",
        -9.381591166035527
      ],
      [
        "▁phone",
        -8.133027680288292
      ],
      [
        "▁rug",
        -9.812645642771315
      ],
      [
        "▁out",
        -6.829099427277347
      ],
      [
        "aba",
        -12.093723410435318
      ],
      [
        "▁reinforc",
        -10.995403637244081
      ],
      [
        "less",
        -8.254284613986645
      ],
      [
        "284",
        -14.231690287536495
      ],
      [
        "worth",
        -10.673331189216974
      ],
      [
        "▁advisor",
        -10.873727088855
      ],
      [
        "▁wed",
        -9.315546137527582
      ],
      [
        "▁vague",
        -10.782282450687612
      ],
      [
        "▁replie",
        -11.085238885554599
      ],
      [
        "▁people",
        -6.380760520832734
      ],
      [
        "▁happen",
        -7.653848484191818
      ],
      [
        "▁her",
        -9.72695964450235
      ],
      [
        "▁standard",
        -9.27124808361263
      ],
      [
        "▁u",
        -13.936497440614524
      ],
      [
        "▁gar",
        -11.938717667428307
      ],
      [
        "8",
        -10.068363995212248
      ],
      [
        "37",
        -11.580435140051025
      ],
      [
        "rs",
        -10.527302468335112
      ],
      [
        "928",
        -14.76729306089482
      ],
      [
        "▁sch",
        -11.04252027193222
      ],
      [
        "▁exhibit",
        -9.548564316089628
      ],
      [
        "▁sch",
        -10.146093743714044
      ],
      [
        "▁anyway",
        -8.776648282742809
      ],
      [
        "▁sevent",
        -11.49321093450371
      ],
      [
        "by",
        -12.22496603737503
      ],
      [
        "▁stillman",
        -9.001052209822694
      ],
      [
        "nato",
        -9.889079097814616
      ],
      [
        "ir",
        -9.122160282993223
      ],
      [
        "▁carni",
        -10.623803604918919
      ],
      [
        "▁wizard",
        -10.067816128528214
      ],
      [
        "tt",
        -12.075768069728676
      ],
      [
        "thou",
        -11.455493883691979
      ],
      [
        "1/01",
        -12.746409468391521
      ],
      [
        "▁113",
        -13.113565674700755
      ],
      [
        "571",
        -14.156374722740878
      ],
      [
        "art",
        -13.093796388490142
      ],
      [
        "▁lei",
        -13.470949667794704
      ],
      [
        "▁banjo",
        -10.698956502375562
      ],
      [
        "▁nervous",
        -9.743612164677167
      ],
      [
        "▁prison",
        -10.966770503540726
      ],
      [
        "▁ca",
        -8.700389737759291
      ],
      [
        "▁thousand",
        -9.385420109859613
      ],
      [
        "▁venture",
        -10.307054513452616
      ],
      [
        "mine",
        -11.79533885365613
      ],
      [
        "▁vin",
        -10.587056823347236
      ],
      [
        "gel",
        -12.83421798656406
      ],
      [
        "▁ram",
        -9.93450016978628
      ],
      [
        "▁tra",
        -13.058002959165613
      ],
      [
        "where",
        -11.75353131760598
      ],
      [
        "al",
        -9.879150985532643
      ],
      [
        "?",
        -3.1139181233845843
      ],
      [
        "▁obvious",
        -9.283294189408487
      ],
      [
        "▁principle",
        -9.655739769141405
      ],
      [
        "▁op",
        -10.340318410867607
      ],
      [
        "news",
        -9.776762005602396
      ],
      [
        "ough",
        -8.427482906163835
      ],
      [
        "ami",
        -11.171813005991753
      ],
      [
        "▁laure",
        -10.879866111901205
      ],
      [
        "ude",
        -11.343820274385248
      ],
      [
        "▁?????",
        -14.162893315589251
      ],
      [
        "▁02:",
        -13.328867592342894
      ],
      [
        "▁depend",
        -9.051332825165185
      ],
      [
        "▁(",
        -7.71008126143902
      ],
      [
        "38",
        -11.571807773434363
      ],
      [
        "▁`",
        -11.280003543173743
      ],
      [
        "▁hous",
        -9.99846106190791
      ],
      [
        "2.5",
        -13.146120449771661
      ],
      [
        "land",
        -6.858891640333334
      ],
      [
        "▁no",
        -7.909575133478278
      ],
      [
        "▁159",
        -10.436268207533203
      ],
      [
        "▁diploma",
        -11.028863866871053
      ],
      [
        "▁cost",
        -7.890335100128528
      ],
      [
        "en",
        -9.930597159475044
      ],
      [
        "▁when",
        -6.4524013807117555
      ],
      [
        "津",
        -12.833785825435129
      ],
      [
        "▁chapter",
        -9.807190365250314
      ],
      [
        "▁alon",
        -8.708524258632071
      ],
      [
        "▁stage",
        -9.524200866182348
      ],
      [
        "▁declare",
        -10.110356486702454
      ],
      [
        "▁fare",
        -7.241329166207646
      ],
      [
        "▁cia",
        -9.700543163894716
      ],
      [
        "hatta",
        -11.08536777662701
      ],
      [
        "▁con",
        -10.832625508225734
      ],
      [
        "▁form",
        -11.39195798495936
      ],
      [
        "▁181",
        -12.6722014366133
      ],
      [
        "▁remote",
        -10.62202741693656
      ],
      [
        "at",
        -11.735037344101684
      ],
      [
        "▁incite",
        -10.699561365519338
      ],
      [
        "▁coinciden",
        -10.87570454632011
      ],
      [
        "&",
        -8.721264882567068
      ],
      [
        "▁infection",
        -10.874337936445944
      ],
      [
        "▁medal",
        -10.874648199305858
      ],
      [
        "▁wit",
        -10.550867162349347
      ],
      [
        "▁19",
        -9.66263772563138
      ],
      [
        "▁rust",
        -10.703973041199202
      ],
      [
        "4,",
        -13.63281336500848
      ],
      [
        "▁monitor",
        -10.362555101481242
      ],
      [
        "▁linguistic",
        -9.98622477334386
      ],
      [
        "ino",
        -10.146744242787909
      ],
      [
        "▁rubb",
        -10.556193243532423
      ],
      [
        "991",
        -12.803767022995844
      ],
      [
        "affle",
        -10.921003389447513
      ],
      [
        "▁hi",
        -9.53953082797686
      ],
      [
        "▁apri",
        -8.450199450911366
      ],
      [
        "▁abo",
        -9.942026802887208
      ],
      [
        "▁statue",
        -10.410122079053654
      ],
      [
        "▁sat",
        -8.862345412538494
      ],
      [
        "▁stamp",
        -11.20911858789488
      ],
      [
        "ma",
        -13.489069089140449
      ],
      [
        "▁allow",
        -8.804257228262099
      ],
      [
        "▁nice",
        -7.536357891801644
      ],
      [
        "cy",
        -7.951677293448122
      ],
      [
        "▁sun",
        -8.195462141579643
      ],
      [
        "▁transmitt",
        -10.557547469064236
      ],
      [
        "▁aim",
        -9.478420372050632
      ],
      [
        "▁brother",
        -8.849407188241042
      ],
      [
        "▁outbreak",
        -11.209250210231989
      ],
      [
        "696",
        -12.743389716032905
      ],
      [
        "ampa",
        -9.076298603920982
      ],
      [
        "apor",
        -10.546410734559222
      ],
      [
        "▁twin",
        -10.684036912295623
      ],
      [
        "▁plast",
        -10.971902917848457
      ],
      [
        "acio",
        -11.783930075849659
      ],
      [
        "620",
        -14.246999949014942
      ],
      [
        "▁jerem",
        -10.782267194468432
      ],
      [
        "▁bull",
        -10.55543134115589
      ],
      [
        "ax",
        -9.18009830267879
      ],
      [
        "ahar",
        -10.805670949114756
      ],
      [
        "=---",
        -11.827184960077153
      ],
      [
        "▁struggle",
        -10.193871526927166
      ],
      [
        "▁fleet",
        -11.101417952336762
      ],
      [
        "▁pipe",
        -10.068091089159783
      ],
      [
        "ng",
        -7.326946056636673
      ],
      [
        "▁tulsa",
        -10.026151011125464
      ],
      [
        "▁bug",
        -9.144577828000006
      ],
      [
        "age",
        -8.024843805579717
      ],
      [
        "▁necessar",
        -8.776369707705634
      ],
      [
        "elve",
        -8.718995318874825
      ],
      [
        "▁sauce",
        -10.421543581335143
      ],
      [
        "▁dedicat",
        -10.362883969625129
      ],
      [
        "kept",
        -8.713651240756871
      ],
      [
        "47",
        -11.295163113814404
      ],
      [
        "432",
        -13.678790289678101
      ],
      [
        "▁olympic",
        -10.550756489059975
      ],
      [
        "▁virus",
        -10.726878509670541
      ],
      [
        "▁repair",
        -9.173341729264152
      ],
      [
        "373",
        -11.658286692588113
      ],
      [
        "cia",
        -10.974112997012488
      ],
      [
        "▁hero",
        -10.161949237256202
      ],
      [
        "▁lecture",
        -11.084250793162967
      ],
      [
        "▁professional",
        -8.849441067481536
      ],
      [
        "▁vulnerab",
        -11.084200776775532
      ],
      [
        "fte",
        -8.871126370217361
      ],
      [
        "▁digital",
        -9.364983415570082
      ],
      [
        "▁argentin",
        -10.111294106890856
      ],
      [
        "▁medi",
        -10.704877650443954
      ],
      [
        "17",
        -10.530853205999772
      ],
      [
        "▁ago",
        -8.30489380358946
      ],
      [
        "urt",
        -10.148374348583047
      ],
      [
        "▁record",
        -8.22145530443655
      ],
      [
        "▁pizza",
        -9.058225023239046
      ],
      [
        "▁democra",
        -9.258365520984503
      ],
      [
        "2.",
        -15.381518620275799
      ],
      [
        "▁exam",
        -10.362283817632438
      ],
      [
        "▁appropriate",
        -9.432296933988706
      ],
      [
        "port",
        -9.68451554888983
      ],
      [
        "▁illustrat",
        -11.042137117701483
      ],
      [
        "▁121",
        -14.581591867325715
      ],
      [
        "st",
        -6.992413560993249
      ],
      [
        "584",
        -13.069565258838212
      ],
      [
        "n",
        -3.3255869364285555
      ],
      [
        "▁canadian",
        -9.574205372869981
      ],
      [
        "▁identifie",
        -9.807147500482166
      ],
      [
        "▁pole",
        -10.328605793186027
      ],
      [
        "▁appeal",
        -9.840468049808036
      ],
      [
        "▁knock",
        -9.499175025023927
      ],
      [
        "79",
        -11.29484954084604
      ],
      [
        "▁drift",
        -10.973293215019027
      ],
      [
        "▁elder",
        -10.484244448914763
      ],
      [
        "eenth",
        -9.71809106585776
      ],
      [
        "r",
        -9.397823026701388
      ],
      [
        "▁escape",
        -9.61014340361331
      ],
      [
        "▁phillip",
        -10.782234522955564
      ],
      [
        "▁900",
        -12.658041398971825
      ],
      [
        "io",
        -9.117164473535738
      ],
      [
        "▁occupation",
        -10.254378057930651
      ],
      [
        "▁been",
        -9.488493653627522
      ],
      [
        "_____",
        -12.7106387805992
      ],
      [
        "▁mother",
        -7.842860300539455
      ],
      [
        "▁development",
        -8.520634377464724
      ],
      [
        "▁twenty-",
        -12.16465112501011
      ],
      [
        "th",
        -13.300727225114223
      ],
      [
        "n@enron",
        -11.729776130192164
      ],
      [
        "▁rac",
        -10.170870715099795
      ],
      [
        "8/01",
        -14.138566737487656
      ],
      [
        "▁entrepreneur",
        -10.78223000686885
      ],
      [
        "▁plu",
        -10.581368776502405
      ],
      [
        "thes",
        -10.352235109980318
      ],
      [
        "▁random",
        -10.782424371423929
      ],
      [
        "▁length",
        -9.8072350112515
      ],
      [
        "▁resign",
        -10.973189026957632
      ],
      [
        "tangle",
        -11.08437780800704
      ],
      [
        "▁exceed",
        -10.69897964127641
      ],
      [
        "▁event",
        -8.288376792463676
      ],
      [
        "here",
        -8.1828814778635
      ],
      [
        "▁ye",
        -13.20908364397883
      ],
      [
        "▁frost",
        -10.550584366797674
      ],
      [
        "▁interpretation",
        -10.623802134642816
      ],
      [
        "▁worker",
        -9.386994668389669
      ],
      [
        "▁invitation",
        -10.363814143225648
      ],
      [
        "665",
        -14.029149014813683
      ],
      [
        "▁mature",
        -10.783461731956733
      ],
      [
        "▁mean",
        -6.912404978392141
      ],
      [
        "▁relie",
        -9.943333547700991
      ],
      [
        "▁musician",
        -10.874777041976019
      ],
      [
        "▁sting",
        -10.444569521649687
      ],
      [
        "▁401",
        -14.13652949020046
      ],
      [
        "▁saint",
        -10.072281921829315
      ],
      [
        "bye",
        -10.207259023339528
      ],
      [
        "▁fa",
        -10.052087057422664
      ],
      [
        "199",
        -11.808463155916124
      ],
      [
        "99",
        -10.04345582405485
      ],
      [
        "▁crime",
        -9.743685927051091
      ],
      [
        "enth",
        -10.67703077055416
      ],
      [
        "▁fail",
        -9.208635457953807
      ],
      [
        "▁romantic",
        -9.912593201872433
      ],
      [
        "▁>",
        -9.25200696802715
      ],
      [
        "448",
        -13.685044922631343
      ],
      [
        "-----",
        -11.828237302032942
      ],
      [
        "▁gate",
        -10.077964484577555
      ],
      [
        "▁pudd",
        -10.993211504636179
      ],
      [
        "▁grow",
        -7.904220497928737
      ],
      [
        "▁web",
        -8.707674925952503
      ],
      [
        "838",
        -11.947564887353263
      ],
      [
        "249",
        -14.261623159528837
      ],
      [
        "the",
        -5.642825194949209
      ],
      [
        "▁pay",
        -8.099799692542728
      ],
      [
        "▁poor",
        -8.566966710548662
      ],
      [
        "▁introduce",
        -9.684496275864667
      ],
      [
        "▁submitt",
        -10.560915627134758
      ],
      [
        "▁gua",
        -10.35324987080594
      ],
      [
        "ley",
        -8.723333522603777
      ],
      [
        "▁not",
        -8.772272525484624
      ],
      [
        "▁ab",
        -9.647374556664317
      ],
      [
        "▁self-",
        -10.423296876432977
      ],
      [
        ".net",
        -9.808464928208636
      ],
      [
        "▁split",
        -10.111412663335075
      ],
      [
        "▁com",
        -9.726157529707933
      ],
      [
        "▁context",
        -9.499181823347236
      ],
      [
        "▁shore",
        -10.216982745968023
      ],
      [
        "nt",
        -15.500372919647573
      ],
      [
        "lump",
        -10.898721281335664
      ],
      [
        "▁fluid",
        -10.622243741345308
      ],
      [
        "▁among",
        -8.705769502659557
      ],
      [
        "▁dangerous",
        -9.226805459243224
      ],
      [
        "▁11:0",
        -11.779412810543928
      ],
      [
        "▁platform",
        -10.483878480825059
      ],
      [
        "ness",
        -7.692828043018081
      ],
      [
        "erdu",
        -13.540715440602636
      ],
      [
        "▁chang",
        -9.195557309020312
      ],
      [
        "▁grand",
        -9.486132052799874
      ],
      [
        "bei",
        -9.843238950922236
      ],
      [
        "il",
        -11.044022491264839
      ],
      [
        "onnais",
        -10.97335496332478
      ],
      [
        "▁clo",
        -10.872281236244511
      ],
      [
        "▁multiple",
        -10.111295169131482
      ],
      [
        "▁officer",
        -9.671135448160328
      ],
      [
        "▁mam",
        -8.874823739281819
      ],
      [
        "▁river",
        -8.800124282412238
      ],
      [
        "9/200",
        -11.994173130074634
      ],
      [
        "916",
        -13.315553684963554
      ],
      [
        "▁bann",
        -11.09056152002874
      ],
      [
        "▁con",
        -8.444368400819524
      ],
      [
        "nea",
        -14.363243559794505
      ],
      [
        "incin",
        -8.950775990607587
      ],
      [
        "@e",
        -12.090087232157854
      ],
      [
        "▁pound",
        -10.421939726114195
      ],
      [
        "▁tooth",
        -10.615617675630658
      ],
      [
        "▁chat",
        -10.389947570978356
      ],
      [
        "▁knot",
        -10.699301809641248
      ],
      [
        "▁gloom",
        -10.873197649818103
      ],
      [
        "nab",
        -11.450820924465402
      ],
      [
        "550",
        -14.138024971197327
      ],
      [
        "▁concern",
        -8.36930336745451
      ],
      [
        "▁mar",
        -9.104443359614773
      ],
      [
        "▁mere",
        -9.752734691760187
      ],
      [
        "▁l2",
        -10.068040995809394
      ],
      [
        "▁submit",
        -10.774283065120187
      ],
      [
        "▁ticket",
        -8.575707893009891
      ],
      [
        "ll",
        -9.832496415041213
      ],
      [
        "▁oz",
        -9.986806398971959
      ],
      [
        "ania",
        -10.390934314299248
      ],
      [
        "▁sail",
        -10.186589821493465
      ],
      [
        "ic",
        -7.528556480818282
      ],
      [
        "▁explore",
        -10.1180799741859
      ],
      [
        "hin",
        -10.374880887447766
      ],
      [
        "▁traditional",
        -10.127235216054286
      ],
      [
        "▁davis",
        -10.701208656344509
      ],
      [
        "=========",
        -12.601711799773621
      ],
      [
        "▁barrel",
        -10.307236268637428
      ],
      [
        "▁roll",
        -8.758668089006324
      ],
      [
        "nathan",
        -10.573789380699868
      ],
      [
        "▁hang",
        -9.029008399063528
      ],
      [
        "▁happening",
        -9.914543032080713
      ],
      [
        "▁over",
        -7.215890673759658
      ],
      [
        "aviatio",
        -12.833785826210246
      ],
      [
        "▁central",
        -9.151434451939577
      ],
      [
        "▁result",
        -8.012675865763608
      ],
      [
        "▁ball",
        -7.999732829961001
      ],
      [
        "▁group",
        -7.486920746737258
      ],
      [
        "bbie",
        -10.491690998071192
      ],
      [
        "os",
        -14.266191704702232
      ],
      [
        "de",
        -9.369169666168604
      ],
      [
        "▁eager",
        -10.621982425244068
      ],
      [
        "cus",
        -14.750903904043147
      ],
      [
        "▁corn",
        -10.780235102857137
      ],
      [
        "ava",
        -13.084340474635995
      ],
      [
        "▁coll",
        -10.953706270342861
      ],
      [
        "▁bank",
        -9.028098151087228
      ],
      [
        "▁invi",
        -10.6974386588658
      ],
      [
        "د",
        -11.833785825435129
      ],
      [
        "▁1960",
        -11.084250244129834
      ],
      [
        "▁08:3",
        -12.515232474275917
      ],
      [
        "▁ru",
        -9.74511487636968
      ],
      [
        "13",
        -10.55444360786753
      ],
      [
        "▁write",
        -7.835614184940715
      ],
      [
        "▁movement",
        -9.305682674770164
      ],
      [
        "▁song",
        -8.94721580822647
      ],
      [
        "▁11:",
        -12.774231487304524
      ],
      [
        "▁resort",
        -10.483882088019794
      ],
      [
        "▁10:4",
        -12.397343587659027
      ],
      [
        "▁merry",
        -10.69987685168506
      ],
      [
        "▁wild",
        -9.22486223021682
      ],
      [
        "▁quartile",
        -10.068445531913998
      ],
      [
        "▁original",
        -8.679665516292978
      ],
      [
        "▁202.456.",
        -13.13539424992046
      ],
      [
        "▁for",
        -5.030157282061143
      ],
      [
        "under",
        -10.790592078732978
      ],
      [
        "▁st",
        -9.101820277451566
      ],
      [
        "▁institutional",
        -10.89831676290965
      ],
      [
        "▁500",
        -10.955114086710612
      ],
      [
        "▁heat",
        -8.763110575261006
      ],
      [
        "**********",
        -11.222325853193087
      ],
      [
        "▁statu",
        -9.66887589452464
      ],
      [
        "▁address",
        -8.57038704206899
      ],
      [
        "▁propos",
        -9.87193776122131
      ],
      [
        "▁jess",
        -10.786509836177169
      ],
      [
        "▁stopover",
        -9.074125237959244
      ],
      [
        "*",
        -11.209250208901656
      ],
      [
        "▁constitute",
        -10.973175691918021
      ],
      [
        "▁abundant",
        -11.087255735208817
      ],
      [
        "▁1-800-",
        -12.663110100375743
      ],
      [
        "hanie",
        -10.78070244282878
      ],
      [
        "▁wheel",
        -9.245983458054887
      ],
      [
        "ve",
        -10.988946458107845
      ],
      [
        "▁collaboration",
        -10.698896673538517
      ],
      [
        "way",
        -8.645593651391923
      ],
      [
        "▁substance",
        -10.362708515154814
      ],
      [
        "wa",
        -12.083792402984447
      ],
      [
        "☏",
        -11.333785825435129
      ],
      [
        "ious",
        -9.462533047787064
      ],
      [
        "▁v",
        -9.59243631711555
      ],
      [
        "▁raise",
        -9.307571758468216
      ],
      [
        "▁shell",
        -9.913134954789337
      ],
      [
        "▁us",
        -6.549071983037802
      ],
      [
        "▁wrong",
        -8.585264421180998
      ],
      [
        "▁afr",
        -9.524788917176375
      ],
      [
        "1.3",
        -11.69160675419613
      ],
      [
        "▁lips",
        -10.690172532982977
      ],
      [
        "▁what",
        -5.09320280019549
      ],
      [
        "▁quiet",
        -9.322999391073672
      ],
      [
        "hat",
        -7.3915594095763515
      ],
      [
        "67",
        -11.822474206709575
      ],
      [
        "▁how",
        -8.861903242976682
      ],
      [
        "▁holiday",
        -9.84045520745625
      ],
      [
        "▁zip",
        -11.207668530060356
      ],
      [
        "ere",
        -6.953201077980379
      ],
      [
        "▁bulldo",
        -9.385435394454971
      ],
      [
        "▁10.",
        -12.227526544380565
      ],
      [
        "▁frank",
        -9.548970594545004
      ],
      [
        "▁committee",
        -8.944095087685895
      ],
      [
        "▁nephew",
        -10.621973600657142
      ],
      [
        "▁hammer",
        -10.421395625710122
      ],
      [
        "▁region",
        -8.761943997739426
      ],
      [
        "▁cu",
        -9.67309888811958
      ],
      [
        "▁papa",
        -10.973682672116851
      ],
      [
        "▁jack",
        -9.429513576507524
      ],
      [
        "bit",
        -10.457690702777972
      ],
      [
        "▁accompan",
        -10.78245403043924
      ],
      [
        "▁minne",
        -8.969421239318699
      ],
      [
        "▁02:2",
        -13.25195685742674
      ],
      [
        "102",
        -15.442535429656798
      ],
      [
        "▁rear",
        -10.79018916312382
      ],
      [
        "0.9",
        -15.298300968100728
      ],
      [
        "▁momm",
        -8.900877225897347
      ],
      [
        "▁position",
        -8.539686451992031
      ],
      [
        "▁academ",
        -10.483330649280639
      ],
      [
        "▁inde",
        -9.667730167186834
      ],
      [
        "▁1940",
        -12.335329628465026
      ],
      [
        "▁cuba",
        -10.104603280832787
      ],
      [
        "tra",
        -9.166813070672877
      ],
      [
        "▁rest",
        -8.3962735459037
      ],
      [
        "▁713-853-",
        -12.650615157195254
      ],
      [
        "$",
        -13.701907056799467
      ],
      [
        "▁620-294-",
        -12.665389467361312
      ],
      [
        "ve",
        -7.289909953273478
      ],
      [
        "internet",
        -8.73156106710295
      ],
      [
        "▁anti-",
        -10.254052816132312
      ],
      [
        "▁funeral",
        -10.362623540963945
      ],
      [
        "▁ever",
        -14.412819073874983
      ],
      [
        "cc",
        -10.689679487776264
      ],
      [
        "▁gentleman",
        -11.085593229846864
      ],
      [
        "[PAD]",
        0.0
      ],
      [
        "43",
        -12.249869721942224
      ],
      [
        "usa",
        -12.832706118609991
      ],
      [
        "▁.........",
        -13.51939385127207
      ],
      [
        "ilit",
        -10.267634953722222
      ],
      [
        "▁mask",
        -10.307595552842113
      ],
      [
        "▁coron",
        -10.113023550767714
      ],
      [
        "▁no-4",
        -13.278173271145704
      ],
      [
        ":48",
        -13.969906159124326
      ],
      [
        "▁bump",
        -9.774989649407399
      ],
      [
        "64",
        -12.106504557730869
      ],
      [
        "▁separate",
        -9.22944454469081
      ],
      [
        "▁uk",
        -9.796629383737784
      ],
      [
        "▁uneas",
        -10.782399240010704
      ],
      [
        "▁^",
        -11.511548002523549
      ],
      [
        "▁opinion",
        -9.264063588756596
      ],
      [
        "▁bronz",
        -10.873139455963921
      ],
      [
        "▁monarch",
        -10.873172656351379
      ],
      [
        "▁earl",
        -10.666811109602605
      ],
      [
        "haz",
        -10.752225867554266
      ],
      [
        "▁nut",
        -10.226198110342198
      ],
      [
        "▁curl",
        -10.262438417185006
      ],
      [
        "▁1996",
        -11.89624821019811
      ],
      [
        ".",
        -1.4798978484674539
      ],
      [
        "▁adequate",
        -10.208911520232537
      ],
      [
        "▁06:0",
        -12.342292111029062
      ],
      [
        "▁shel",
        -9.875802785374395
      ],
      [
        "▁focus",
        -8.730657250069413
      ],
      [
        "▁240",
        -13.106045885865703
      ],
      [
        "883",
        -14.15438031203266
      ],
      [
        "▁trail",
        -9.8747619387429
      ],
      [
        "▁pla",
        -10.7760136390926
      ],
      [
        "▁request",
        -8.556743422124965
      ],
      [
        "▁beat",
        -9.544093295167178
      ],
      [
        "▁swim",
        -10.2033959054891
      ],
      [
        "▁socialist",
        -11.092707118366048
      ],
      [
        "▁no-",
        -13.47376073561761
      ],
      [
        "▁level",
        -8.279686546625193
      ],
      [
        "▁to",
        -8.619996718894242
      ],
      [
        "▁mason",
        -11.104575299628094
      ],
      [
        "▁han",
        -10.372876117014707
      ],
      [
        "▁bobo",
        -10.372715159627722
      ],
      [
        "ennes",
        -10.796096449398352
      ],
      [
        "▁drill",
        -10.484222999673712
      ],
      [
        "·",
        -9.904817571414563
      ],
      [
        "▁interaction",
        -10.70013892190831
      ],
      [
        "▁shirt",
        -8.800827186829315
      ],
      [
        "▁vanish",
        -10.78318355200131
      ],
      [
        "uck",
        -10.257283761250696
      ],
      [
        "microsoft",
        -9.226677554791918
      ],
      [
        "▁tiger",
        -9.245198975223296
      ],
      [
        "▁road",
        -8.43327568167518
      ],
      [
        "160",
        -12.373121820272267
      ],
      [
        "▁whil",
        -7.852958576257973
      ],
      [
        "▁time",
        -6.0771170514633415
      ],
      [
        "▁finger",
        -8.585793179689816
      ],
      [
        "having",
        -8.160232498808702
      ],
      [
        "▁japane",
        -9.3373058793133
      ],
      [
        "▁wing",
        -10.661632642247259
      ],
      [
        "▁lil",
        -10.266199182212814
      ],
      [
        "▁600",
        -11.992235792398532
      ],
      [
        "▁remain",
        -8.392583600567937
      ],
      [
        "▁regret",
        -10.156748692735986
      ],
      [
        "▁clan",
        -10.995075467148384
      ],
      [
        "▁335",
        -13.289610428496676
      ],
      [
        "@",
        -8.811977016458613
      ],
      [
        "▁inform",
        -9.38394984849841
      ],
      [
        "pped",
        -9.37082436722205
      ],
      [
        "▁guilt",
        -10.111299589506155
      ],
      [
        "▁’",
        -8.643293563333359
      ],
      [
        "▁fo",
        -12.838710837665342
      ],
      [
        "▁high",
        -7.210419519361479
      ],
      [
        "ckl",
        -13.677387732759543
      ],
      [
        "hobby",
        -11.13388169259802
      ],
      [
        "▁night",
        -7.351060484795329
      ],
      [
        "54",
        -12.936357879777361
      ],
      [
        "▁gis",
        -10.57110895234702
      ],
      [
        "▁2.",
        -11.0544669463262
      ],
      [
        "5,7",
        -13.612706607221204
      ],
      [
        "▁crush",
        -10.621974054068026
      ],
      [
        "▁broke",
        -8.214928836177446
      ],
      [
        "!",
        -5.053267665729649
      ],
      [
        "▁spark",
        -10.975160593411358
      ],
      [
        "sie",
        -11.754802446786904
      ],
      [
        "▁jo",
        -9.723757199054397
      ],
      [
        "▁apart",
        -9.774269006626648
      ],
      [
        "▁sho",
        -10.92627052268816
      ],
      [
        "▁parakeet",
        -10.550548088041714
      ],
      [
        "▁camp",
        -8.940700988802973
      ],
      [
        "▁goal",
        -9.100841859925154
      ],
      [
        "▁ha",
        -8.419259569641982
      ],
      [
        "▁10:46",
        -13.191033757998555
      ],
      [
        "▁santa",
        -9.527575930950608
      ],
      [
        "▁question",
        -7.8723794383391255
      ],
      [
        "9025",
        -13.941520505513104
      ],
      [
        "▁just",
        -5.912600459585355
      ],
      [
        "▁control",
        -8.241589411148528
      ],
      [
        "▁drop",
        -9.041306450664017
      ],
      [
        "ggy",
        -10.449918684818245
      ],
      [
        "▁12:",
        -12.101167411589989
      ],
      [
        "▁admir",
        -10.254499118101068
      ],
      [
        "▁plann",
        -8.83373503072169
      ],
      [
        "0,000",
        -10.195250905356877
      ],
      [
        "▁chute",
        -10.973441359350653
      ],
      [
        "▁church",
        -8.76700001969672
      ],
      [
        "a",
        -8.241796670952791
      ],
      [
        "-1.",
        -11.084058884179242
      ],
      [
        "▁ig",
        -11.51413377136796
      ],
      [
        "▁hole",
        -8.921807110090482
      ],
      [
        "▁due",
        -8.46771461249692
      ],
      [
        "▁matter",
        -8.316198165826975
      ],
      [
        "▁mont",
        -11.406343531014489
      ],
      [
        "▁dodg",
        -11.126281907545867
      ],
      [
        "▁2000",
        -9.714470099810217
      ],
      [
        "▁cafe",
        -10.15700172848302
      ],
      [
        "▁warning",
        -10.391558131966397
      ],
      [
        "do",
        -9.846160357156576
      ],
      [
        "▁shut",
        -9.48209501305465
      ],
      [
        "▁ray",
        -9.867679673327514
      ],
      [
        "▁nick",
        -9.713367822552106
      ],
      [
        "▁scholar",
        -10.349349034379241
      ],
      [
        "▁network",
        -9.385474428738236
      ],
      [
        "▁al",
        -9.59365962293792
      ],
      [
        ".62",
        -13.211030304685309
      ],
      [
        "▁bake",
        -10.92637896941837
      ],
      [
        "▁arrogant",
        -10.30863613314014
      ],
      [
        "▁pause",
        -10.364583024162837
      ],
      [
        "iling",
        -10.20389837161698
      ],
      [
        "▁scissor",
        -10.254371275121303
      ],
      [
        "▁assumption",
        -11.088055860482882
      ],
      [
        "saw",
        -10.188446220144538
      ],
      [
        "▁beside",
        -10.020238870103876
      ],
      [
        "▁flow",
        -9.473499749118794
      ],
      [
        "▁155",
        -13.15109811699319
      ],
      [
        "▁half",
        -8.464229717679352
      ],
      [
        "▁harvest",
        -10.484539704424769
      ],
      [
        "▁transformation",
        -10.552991782242126
      ],
      [
        "▁modifi",
        -10.87314303083782
      ],
      [
        "▁addict",
        -10.698817609272787
      ],
      [
        "▁owners",
        -10.375647256691646
      ],
      [
        "▁ham",
        -9.280060565766112
      ],
      [
        "▁amend",
        -10.06807923964526
      ],
      [
        "▁van",
        -9.562859974576504
      ],
      [
        "▁pride",
        -10.254407626268549
      ],
      [
        "▁more",
        -6.036639033968968
      ],
      [
        "63",
        -13.001747287727072
      ],
      [
        "▁call",
        -6.627181724743064
      ],
      [
        "▁dc",
        -8.047450414660776
      ],
      [
        "▁background",
        -9.911567567866742
      ],
      [
        "▁babi",
        -9.970463330795823
      ],
      [
        "▁jerk",
        -10.977220184926393
      ],
      [
        "▁mush",
        -9.840525444274324
      ],
      [
        "▁considerabl",
        -10.357727269014735
      ],
      [
        "mo",
        -11.055085033960241
      ],
      [
        "ado",
        -9.532167905729406
      ],
      [
        "▁auster",
        -9.36414949919897
      ],
      [
        "▁imagination",
        -10.551068692518175
      ],
      [
        "▁robbi",
        -11.128564904719159
      ],
      [
        "▁honor",
        -9.840467773912943
      ],
      [
        "▁oliv",
        -9.579439993800403
      ],
      [
        "tte",
        -9.419719184397202
      ],
      [
        "▁32",
        -11.230927335086662
      ],
      [
        "yard",
        -10.624917448303096
      ],
      [
        ".322",
        -13.137284014680993
      ],
      [
        "α",
        -11.833785825435129
      ],
      [
        ";",
        -12.303437246021387
      ],
      [
        "▁seattle",
        -8.538012627106802
      ],
      [
        "▁my",
        -5.717040750618234
      ],
      [
        "▁04:1",
        -12.256999863441553
      ],
      [
        "hallow",
        -11.103156054070272
      ],
      [
        "5-2",
        -13.171837843619866
      ],
      [
        "▁million",
        -9.714007873929823
      ],
      [
        "▁mc",
        -9.628672447463806
      ],
      [
        "▁youtube",
        -9.874938431648538
      ],
      [
        "▁acc",
        -10.442670164225598
      ],
      [
        "▁lion",
        -9.630952028610238
      ],
      [
        "▁ride",
        -8.403267148048073
      ],
      [
        "▁vote",
        -8.678610694923584
      ],
      [
        "▁ch",
        -13.655013984025256
      ],
      [
        "▁laundr",
        -10.42137876648194
      ],
      [
        "▁exaggerat",
        -11.084250214502688
      ],
      [
        "ps",
        -11.805325689791168
      ],
      [
        "▁un",
        -7.147378594331886
      ],
      [
        "▁ethnic",
        -10.362554876798786
      ],
      [
        "▁lipstick",
        -10.362555247228114
      ],
      [
        "▁voice",
        -8.538168063413751
      ],
      [
        "▁alternative",
        -9.452148556009037
      ],
      [
        "▁other",
        -6.194378569061986
      ],
      [
        "▁propos",
        -11.833816316062954
      ],
      [
        "▁12.4",
        -12.675189927992927
      ],
      [
        "▁other",
        -10.00918580141893
      ],
      [
        "▁nazi",
        -11.08462085375221
      ],
      [
        "m",
        -6.691091665117427
      ],
      [
        "▁dress",
        -8.52815531764082
      ],
      [
        "water",
        -11.060697177913504
      ],
      [
        "▁jesu",
        -10.622448360598924
      ],
      [
        "04",
        -11.055407844624849
      ],
      [
        "▁experimental",
        -10.117742280838666
      ],
      [
        "2/22/200",
        -13.318763253437512
      ],
      [
        "▁bitter",
        -10.878441379751276
      ],
      [
        "▁counterpart",
        -9.60052118286885
      ],
      [
        "hind",
        -10.593946018264361
      ],
      [
        "hood",
        -9.736592906049385
      ],
      [
        "▁oath",
        -10.550564432933415
      ],
      [
        "▁terror",
        -9.407098001098309
      ],
      [
        "`",
        -11.928182729573079
      ],
      [
        "▁provide",
        -7.820179578203204
      ],
      [
        "▁achieve",
        -9.540696802696308
      ],
      [
        "aria",
        -10.486855195212351
      ],
      [
        "▁partners",
        -10.501477241707075
      ],
      [
        "▁pat",
        -10.351614058474034
      ],
      [
        "ua",
        -9.500032956693179
      ],
      [
        "▁mid",
        -9.501175946049623
      ],
      [
        "▁silent",
        -10.260183659851435
      ],
      [
        "▁supplie",
        -10.023452223488425
      ],
      [
        "3:5",
        -14.208247099564232
      ],
      [
        "▁fascinat",
        -10.621974874362007
      ],
      [
        "▁scar",
        -8.709008545709349
      ],
      [
        "▁interjection",
        -11.084250208948113
      ],
      [
        "▁mexic",
        -9.363540751094947
      ],
      [
        "▁stopp",
        -8.870291921383313
      ],
      [
        "▁doll",
        -9.383645871332288
      ],
      [
        "▁direction",
        -9.388006737768812
      ],
      [
        "some",
        -9.085706270044335
      ],
      [
        "▁programme",
        -8.883567770222658
      ],
      [
        "▁imprison",
        -10.698896674172563
      ],
      [
        "▁translat",
        -10.563970159340066
      ],
      [
        "▁provid",
        -9.551309693371383
      ],
      [
        "te",
        -10.853311653238517
      ],
      [
        "▁histor",
        -10.527085506116297
      ],
      [
        "▁bio",
        -10.289524882144221
      ],
      [
        "▁production",
        -9.580345379370915
      ],
      [
        "▁minim",
        -10.783800087424487
      ],
      [
        "▁mainstream",
        -11.08441079242143
      ],
      [
        "▁note",
        -8.543556749041922
      ],
      [
        "▁prevent",
        -9.28467835523149
      ],
      [
        "▁paragraph",
        -10.78228039570954
      ],
      [
        "▁ninety",
        -11.07772853787612
      ],
      [
        "************",
        -13.088782841857968
      ],
      [
        "▁roman",
        -7.676396795391371
      ],
      [
        "▁teh",
        -10.887363028096274
      ],
      [
        "▁woke",
        -10.307006825855852
      ],
      [
        "6",
        -11.333785825435129
      ],
      [
        "▁200",
        -7.835194488110917
      ],
      [
        "▁hell",
        -8.577527358787936
      ],
      [
        "ta",
        -9.012465213063102
      ],
      [
        "▁europe",
        -8.645316315144727
      ],
      [
        "▁combine",
        -10.068190400759956
      ],
      [
        "sti",
        -12.903858762386612
      ],
      [
        "dl",
        -12.080791118169415
      ],
      [
        "me",
        -8.491665941977898
      ],
      [
        "▁colleague",
        -9.91065059922311
      ],
      [
        "281",
        -13.08571318027819
      ],
      [
        "▁pollut",
        -10.399422489807524
      ],
      [
        "▁dut",
        -9.794259175031064
      ],
      [
        "▁16.3",
        -12.63810091809569
      ],
      [
        "▁chef",
        -10.624313700391756
      ],
      [
        "▁mark",
        -8.52275300786831
      ],
      [
        "58",
        -11.951611418715437
      ],
      [
        "▁perfume",
        -11.084253629127037
      ],
      [
        "▁nw",
        -11.09150879260685
      ],
      [
        "▁pri",
        -11.348572751093645
      ],
      [
        "▁ignoran",
        -10.418740680810062
      ],
      [
        "-10",
        -14.133997772797096
      ],
      [
        "▁browser",
        -10.362555224308817
      ],
      [
        "▁francis",
        -11.087628223068057
      ],
      [
        "▁saddam",
        -10.111302390269547
      ],
      [
        "▁blend",
        -10.622137063250594
      ],
      [
        "▁therap",
        -10.865503248450587
      ],
      [
        "▁offer",
        -8.200846703104524
      ],
      [
        "▁calculation",
        -10.788770170427583
      ],
      [
        "??????",
        -13.879667603916298
      ],
      [
        "▁boyfriend",
        -10.782347435993698
      ],
      [
        "▁robot",
        -9.711791175242558
      ],
      [
        "▁trial",
        -9.72154285944912
      ],
      [
        "▁telescope",
        -11.084250744466289
      ],
      [
        "▁window",
        -8.417129021806172
      ],
      [
        "▁nav",
        -9.748378611966965
      ],
      [
        "▁muggle",
        -10.362555068385877
      ],
      [
        "▁pack",
        -8.983327830734977
      ],
      [
        "e",
        -4.602601403317653
      ],
      [
        "91",
        -11.944342016206539
      ],
      [
        "izz",
        -10.36937894563932
      ],
      [
        "▁coast",
        -9.245211602458163
      ],
      [
        "▁volunteer",
        -10.25436769468425
      ],
      [
        "▁populate",
        -11.087754424458812
      ],
      [
        "▁paint",
        -9.140081216660242
      ],
      [
        "ius",
        -10.471658471223911
      ],
      [
        "▁prob",
        -11.152579614308333
      ],
      [
        "standing",
        -10.281065856891491
      ],
      [
        "▁16",
        -9.237816764183771
      ],
      [
        "▁hill",
        -9.566889628728445
      ],
      [
        "▁debut",
        -10.973148977735374
      ],
      [
        "▁320",
        -12.642809539566734
      ],
      [
        "▁confident",
        -10.25421752301807
      ],
      [
        "anders",
        -10.902641924962655
      ],
      [
        "▁martin",
        -10.304268971996047
      ],
      [
        "spread",
        -11.058155554233212
      ],
      [
        "▁rapporteur",
        -10.421378358520037
      ],
      [
        "▁mari",
        -9.803169255131943
      ],
      [
        "▁ya",
        -9.476042642476957
      ],
      [
        "ion",
        -11.21408476222782
      ],
      [
        "ught",
        -8.638387818111717
      ],
      [
        "▁climb",
        -9.208533246993113
      ],
      [
        "▁wise",
        -10.562130904946981
      ],
      [
        "▁environment",
        -8.950734632897216
      ],
      [
        "▁vot",
        -10.656045421035937
      ],
      [
        "▁produc",
        -10.75393408516091
      ],
      [
        "▁tag",
        -9.676440447499155
      ],
      [
        "ha",
        -9.601993731172117
      ],
      [
        "▁legislature",
        -10.698920082361969
      ],
      [
        "▁156",
        -11.352272366395722
      ],
      [
        "nonym",
        -10.782994933948842
      ],
      [
        "ff",
        -9.298201613901163
      ],
      [
        "on",
        -8.513306147673212
      ],
      [
        "▁apple",
        -9.208888715283639
      ],
      [
        "b",
        -7.49996175387515
      ],
      [
        "▁spring",
        -9.32533119850187
      ],
      [
        "------------",
        -10.630566914886277
      ],
      [
        "▁what",
        -10.550840086041333
      ],
      [
        "▁visibl",
        -10.522547126650704
      ],
      [
        "|",
        -9.706918131845164
      ],
      [
        "▁06:2",
        -12.823132787264766
      ],
      [
        "▁pull",
        -8.34589253199323
      ],
      [
        "▁smart",
        -9.36476372616725
      ],
      [
        "▁pretend",
        -9.387367967308139
      ],
      [
        "icles",
        -9.436864811028613
      ],
      [
        "▁202.4",
        -14.138177894591795
      ],
      [
        "▁e.",
        -9.95370604549672
      ],
      [
        "▁advert",
        -10.548019548208648
      ],
      [
        "le",
        -9.291517426822528
      ],
      [
        "or",
        -9.02650783446284
      ],
      [
        "tz",
        -10.237736113737661
      ],
      [
        "▁new",
        -6.080088059296371
      ],
      [
        "▁0",
        -12.590165494098185
      ],
      [
        "▁fortunate",
        -11.08425078068719
      ],
      [
        "▁daily",
        -8.614827737263795
      ],
      [
        "▁weight",
        -9.578458903833841
      ],
      [
        "▁morning",
        -6.9817030623203244
      ],
      [
        "▁humanit",
        -10.394614646950474
      ],
      [
        "▁outcome",
        -10.156788904885325
      ],
      [
        "▁ag",
        -9.062038990771534
      ],
      [
        "▁coupon",
        -10.624072695211321
      ],
      [
        "▁168",
        -12.511084376247197
      ],
      [
        "▁col",
        -10.390603271193527
      ],
      [
        "▁former",
        -8.939106940686681
      ],
      [
        "▁cat",
        -8.124233478207891
      ],
      [
        "▁distinction",
        -10.550552807064125
      ],
      [
        "aat",
        -10.600805449444916
      ],
      [
        "004",
        -12.193711620918602
      ],
      [
        "▁vi",
        -10.603769107239945
      ],
      [
        "▁wrestle",
        -10.834411082895507
      ],
      [
        "2.1",
        -13.661571770770541
      ],
      [
        "03",
        -10.997704795848549
      ],
      [
        "ad",
        -11.29363953844414
      ],
      [
        "▁adjustment",
        -10.874881139454818
      ],
      [
        "▁wee",
        -10.434030456801738
      ],
      [
        "▁guarant",
        -11.0818576984041
      ],
      [
        "irr",
        -12.829351814011266
      ],
      [
        "oxi",
        -10.751375792651329
      ],
      [
        "▁string",
        -9.492072391848916
      ],
      [
        "▁declar",
        -10.622410322076888
      ],
      [
        "▁locate",
        -9.343357012015545
      ],
      [
        "▁505",
        -12.496806499314392
      ],
      [
        "▁2051",
        -13.376212310261275
      ],
      [
        "▁271",
        -13.991854088309573
      ],
      [
        "▁prepare",
        -9.939418236022362
      ],
      [
        "▁thing",
        -6.598772447468989
      ],
      [
        "▁opponent",
        -11.084250209551612
      ],
      [
        "▁va",
        -10.248269399121126
      ],
      [
        "umn",
        -10.78416941849006
      ],
      [
        "▁non",
        -9.848705181157957
      ],
      [
        "▁return",
        -7.875419268427524
      ],
      [
        "▁get",
        -9.018875979559912
      ],
      [
        "man@e",
        -12.817118239485756
      ],
      [
        "pos",
        -11.663577894839388
      ],
      [
        "rizon",
        -10.484580617376755
      ],
      [
        "ked",
        -10.89149711108453
      ],
      [
        "alem",
        -10.221329838795937
      ],
      [
        "van",
        -10.504208816453042
      ],
      [
        "▁tap",
        -10.338571894747512
      ],
      [
        "▁horse",
        -8.022169605060878
      ],
      [
        "▁advertis",
        -10.027649214794119
      ],
      [
        "▁airline",
        -6.977882350243302
      ],
      [
        "able",
        -6.974769928772036
      ],
      [
        "columbia",
        -10.283954831749819
      ],
      [
        "▁ital",
        -9.875697668932332
      ],
      [
        "▁brave",
        -10.688570109387761
      ],
      [
        "97",
        -11.603342702020502
      ],
      [
        "online",
        -10.539107277207002
      ],
      [
        "▁signature",
        -10.69915137359685
      ],
      [
        "▁clair",
        -10.127815032552688
      ],
      [
        "ersey",
        -10.291294516522798
      ],
      [
        "▁calendar",
        -10.550545061463945
      ],
      [
        "ous",
        -7.775197511361604
      ],
      [
        "▁kar",
        -9.242586225455518
      ],
      [
        "camo",
        -10.868434306164147
      ],
      [
        "▁exceptional",
        -10.732586149771393
      ],
      [
        "▁measure",
        -8.82170350278074
      ],
      [
        "▁300",
        -10.870247792781871
      ],
      [
        "▁raw",
        -10.7021158319524
      ],
      [
        "▁1327",
        -13.139428332926997
      ],
      [
        "▁jo",
        -12.671173606213896
      ],
      [
        "▁177",
        -10.99413094039157
      ],
      [
        "▁sport",
        -9.386736886292443
      ],
      [
        "ced",
        -12.752075754843505
      ],
      [
        "*************",
        -12.742044969050148
      ],
      [
        "▁grabb",
        -10.433161696820882
      ],
      [
        "itie",
        -9.804402092164613
      ],
      [
        "▁mat",
        -12.132585824890473
      ],
      [
        "▁far",
        -7.662949477238191
      ],
      [
        "1-800",
        -14.139206792892828
      ],
      [
        "▁patron",
        -10.62333916648147
      ],
      [
        "▁wake",
        -9.364265189348504
      ],
      [
        "▁leader",
        -9.219113247347735
      ],
      [
        "▁talent",
        -10.026276871861983
      ],
      [
        "▁plain",
        -10.254850169072167
      ],
      [
        "..........",
        -12.171017982803663
      ],
      [
        "▁identi",
        -10.676848703557244
      ],
      [
        "▁technological",
        -10.421540082604126
      ],
      [
        "000",
        -12.033561010171683
      ],
      [
        "▁slipper",
        -10.63075144939365
      ],
      [
        "▁under",
        -7.820617230569183
      ],
      [
        "▁auto",
        -10.118081831398609
      ],
      [
        "▁eu",
        -9.235608543673742
      ],
      [
        "upper",
        -10.178111168113647
      ],
      [
        "▁tickle",
        -9.922821781373251
      ],
      [
        "▁galler",
        -10.908805069222112
      ],
      [
        "▁supply",
        -10.362554988192926
      ],
      [
        "▁silen",
        -10.199970308854196
      ],
      [
        "▁12/26/200",
        -12.666535639137338
      ],
      [
        "ra",
        -12.715795992954602
      ],
      [
        "mission",
        -10.335747468684628
      ],
      [
        "▁02:3",
        -14.039135444681827
      ],
      [
        "▁near",
        -8.493275322131005
      ],
      [
        "▁mon",
        -12.772607019781637
      ],
      [
        "▁will",
        -9.27447549994331
      ],
      [
        "sylv",
        -10.622056240756777
      ],
      [
        "▁cap",
        -9.28969438673027
      ],
      [
        "▁m",
        -9.468035479108515
      ],
      [
        "▁volley",
        -10.699206666983699
      ],
      [
        "nuclear",
        -9.574205345637347
      ],
      [
        "▁pun",
        -11.09258415939765
      ],
      [
        "▁fi",
        -12.276772853692052
      ],
      [
        "▁net",
        -9.572443247893244
      ],
      [
        "▁dose",
        -10.236557412057024
      ],
      [
        "▁spit",
        -10.431954122103438
      ],
      [
        "▁bangladesh",
        -10.867528499405825
      ],
      [
        "▁name",
        -6.98022701701271
      ],
      [
        "▁nonsens",
        -11.084266166044502
      ],
      [
        "▁da",
        -8.952820310393305
      ],
      [
        "hundred",
        -12.469625072036138
      ],
      [
        "▁gender",
        -9.840462036102746
      ],
      [
        "▁format",
        -9.215496976939292
      ],
      [
        "?????????????",
        -12.716038584967094
      ],
      [
        "nife",
        -9.990148098623385
      ],
      [
        "▁pu",
        -10.644626408145363
      ],
      [
        "ver",
        -11.941202826001042
      ],
      [
        "1:",
        -14.542473638832043
      ],
      [
        "ne",
        -12.218300795250945
      ],
      [
        "▁tribe",
        -10.720551045264124
      ],
      [
        "▁!",
        -6.75559649021856
      ],
      [
        "▁jur",
        -10.668505727065707
      ],
      [
        "’",
        -8.356425803803674
      ],
      [
        "▁mcdonald",
        -10.621973599154376
      ],
      [
        "8,8",
        -13.136802463436528
      ],
      [
        "▁miser",
        -11.125089215011538
      ],
      [
        "▁regional",
        -9.177320772649427
      ],
      [
        "▁suffering",
        -10.020818118664122
      ],
      [
        "▁burrow",
        -10.873144984179078
      ],
      [
        "▁114",
        -13.672578331648024
      ],
      [
        "▁rough",
        -9.452438654493857
      ],
      [
        "▁copyright",
        -9.84121398410671
      ],
      [
        "▁/",
        -8.874696097338475
      ],
      [
        "▁opportunit",
        -8.900751721249037
      ],
      [
        "▁answer",
        -8.286825183100989
      ],
      [
        "canada",
        -9.109636689333062
      ],
      [
        "687",
        -12.508169247228805
      ],
      [
        "▁construct",
        -10.419738533303297
      ],
      [
        "▁register",
        -9.947687800632444
      ],
      [
        "▁ph",
        -9.553067609944796
      ],
      [
        "▁mood",
        -10.80088021996229
      ],
      [
        "▁has",
        -6.8581785637493855
      ],
      [
        "▁figure",
        -8.55674353959412
      ],
      [
        "▁appointe",
        -10.782278778278812
      ],
      [
        "▁112",
        -13.20433502805754
      ],
      [
        "ing",
        -9.928808428270834
      ],
      [
        "▁libert",
        -9.994241487661904
      ],
      [
        "▁recruit",
        -10.111294102487253
      ],
      [
        "▁",
        -0.7229493926812545
      ],
      [
        "head",
        -8.672593617448424
      ],
      [
        "▁teen",
        -10.623483841898741
      ],
      [
        "▁bare",
        -9.888539825286928
      ],
      [
        "▁blow",
        -8.85710762768358
      ],
      [
        "▁serve",
        -8.037806622712779
      ],
      [
        "play",
        -10.954605132720598
      ],
      [
        "worm",
        -10.583454550119928
      ],
      [
        "▁truth",
        -9.429978628376253
      ],
      [
        "▁curr",
        -10.980567041645251
      ],
      [
        "ache",
        -10.22818450987454
      ],
      [
        "ehr",
        -11.166055404637989
      ],
      [
        "'",
        -4.0655443185469125
      ],
      [
        "▁impartial",
        -10.782263638098122
      ],
      [
        "emp",
        -11.876212475785815
      ],
      [
        "▁08:50",
        -13.137895891914496
      ],
      [
        ",9",
        -13.146070500982553
      ],
      [
        "▁malfo",
        -10.545441264749448
      ],
      [
        "▁release",
        -9.14754314877851
      ],
      [
        "along",
        -11.988352002306268
      ],
      [
        "▁locomoti",
        -10.6988967053361
      ],
      [
        "▁forty",
        -11.341341411131513
      ],
      [
        "----",
        -10.450866178525061
      ],
      [
        "ko",
        -10.171531401936111
      ],
      [
        "▁interfere",
        -11.08424644966685
      ],
      [
        "ne",
        -8.313038250622252
      ],
      [
        "ght",
        -14.671549717397365
      ],
      [
        "=",
        -9.47938422417725
      ],
      [
        "▁suitcase",
        -10.421422199439363
      ],
      [
        "▁am",
        -7.520988588867129
      ],
      [
        "▁madam",
        -9.475797580104885
      ],
      [
        "▁delay",
        -10.15689404276343
      ],
      [
        "▁meat",
        -9.122382270561744
      ],
      [
        "▁who",
        -6.506588786527327
      ],
      [
        "▁grid",
        -10.822710247840728
      ],
      [
        "▁threat",
        -9.362625527334512
      ],
      [
        "▁wind",
        -9.041806547572808
      ],
      [
        "nook",
        -10.166981447595251
      ],
      [
        "▁da",
        -13.348798848459843
      ],
      [
        "▁pete",
        -10.672562620191462
      ],
      [
        "96/",
        -13.58763307569862
      ],
      [
        "p",
        -6.87809654205105
      ],
      [
        "▁migrate",
        -11.084250420452125
      ],
      [
        "pression",
        -11.182970721705052
      ],
      [
        "▁inspir",
        -10.721101419095906
      ],
      [
        "775",
        -14.140826648569249
      ],
      [
        "▁sort",
        -8.547738159313402
      ],
      [
        "▁frustrat",
        -10.421378398742569
      ],
      [
        "ord",
        -12.345884856600925
      ],
      [
        "▁express",
        -8.835651585477788
      ],
      [
        "▁bit",
        -7.810951364632925
      ],
      [
        "hel",
        -10.637973102244002
      ],
      [
        "▁gem",
        -11.06840638476596
      ],
      [
        "▁mesoamerica",
        -11.20925020890223
      ],
      [
        "▁++++",
        -13.721107324527646
      ],
      [
        "to",
        -8.568824384538232
      ],
      [
        "▁prize",
        -10.307292297819448
      ],
      [
        "thi",
        -7.4687070885228275
      ],
      [
        "▁explor",
        -10.348604033440857
      ],
      [
        "▁invite",
        -9.897004579483346
      ],
      [
        "▁suggestion",
        -9.716268978266022
      ],
      [
        "▁subscribe",
        -9.949218297883828
      ],
      [
        "▁ti",
        -9.53440743253358
      ],
      [
        "▁dar",
        -9.768048943738794
      ],
      [
        "▁tie",
        -8.675215726611224
      ],
      [
        "ai",
        -9.830308352176711
      ],
      [
        "▁she",
        -9.907792165235584
      ],
      [
        "▁ever",
        -7.842996872830545
      ],
      [
        "▁nov",
        -8.718694862912844
      ],
      [
        "▁its",
        -7.72296247419334
      ],
      [
        "▁spare",
        -11.152028470264973
      ],
      [
        "▁copy",
        -8.863153176486648
      ],
      [
        "ib",
        -13.633299196486588
      ],
      [
        "put",
        -11.185972012891579
      ],
      [
        "4-0",
        -13.976970355796785
      ],
      [
        "/11/200",
        -12.790331325970005
      ],
      [
        "▁mem",
        -8.7062040056316
      ],
      [
        "▁impact",
        -9.208514341806804
      ],
      [
        "▁09:5",
        -13.197391014154238
      ],
      [
        "▁drag",
        -10.779711987182578
      ],
      [
        "ook",
        -11.182728768570309
      ],
      [
        "▁station",
        -8.70949508048799
      ],
      [
        "▁impos",
        -9.346409888018115
      ],
      [
        "▁fish",
        -8.202202760712487
      ],
      [
        "▁mine",
        -8.796523184434804
      ],
      [
        "▁translate",
        -10.536655475536104
      ],
      [
        "▁2.2",
        -11.833956366586506
      ],
      [
        "▁interpret",
        -10.203165096336052
      ],
      [
        "▁math",
        -10.720070540265677
      ],
      [
        "317",
        -12.522027844751664
      ],
      [
        "▁stands",
        -10.181990110226403
      ],
      [
        ":14",
        -12.457220388685272
      ],
      [
        "▁promise",
        -9.23864837652336
      ],
      [
        "▁petunia",
        -10.550545419437885
      ],
      [
        "uff",
        -10.197642175329221
      ],
      [
        "▁generate",
        -10.379413023038529
      ],
      [
        "▁wagon",
        -10.700438899651251
      ],
      [
        "▁better",
        -7.529875546611563
      ],
      [
        "▁defens",
        -9.457337766066344
      ],
      [
        "▁spoon",
        -9.912682772521066
      ],
      [
        "▁incorporate",
        -10.158228028629237
      ],
      [
        "▁158",
        -10.771498006496458
      ],
      [
        "**************",
        -12.41740498694943
      ],
      [
        "ugh",
        -8.69076516514481
      ],
      [
        "▁uhh",
        -8.351133090417981
      ],
      [
        "our",
        -9.343558663439467
      ],
      [
        "▁past",
        -8.320484914580108
      ],
      [
        "▁promis",
        -10.442918302980525
      ],
      [
        "▁cape",
        -10.735762615106887
      ],
      [
        "▁giant",
        -10.026289553657566
      ],
      [
        "19-2",
        -14.135609393524858
      ],
      [
        "among",
        -11.64830135198203
      ],
      [
        "▁diet",
        -10.604628456065848
      ],
      [
        "▁sake",
        -10.363180213463842
      ],
      [
        "itis",
        -10.803939841273074
      ],
      [
        "▁rude",
        -9.524883059850467
      ],
      [
        "▁straight",
        -9.190638234466919
      ],
      [
        "▁borgi",
        -11.086483350127166
      ],
      [
        "ect",
        -10.011284538849868
      ],
      [
        "▁panama",
        -10.973965364784757
      ],
      [
        "▁power",
        -8.058886506483084
      ],
      [
        "▁shop",
        -8.62341942203333
      ],
      [
        "genda",
        -10.29826526687497
      ],
      [
        "▁member",
        -8.346273353133487
      ],
      [
        "▁norm",
        -10.548042733797637
      ],
      [
        "▁manufacturer",
        -10.560429993632692
      ],
      [
        "▁sin",
        -10.268003290543394
      ],
      [
        "▁issue",
        -7.899468317199037
      ],
      [
        "uf",
        -11.175036411485149
      ],
      [
        "▁dish",
        -9.322580740242284
      ],
      [
        "az",
        -12.820537301554094
      ],
      [
        "lik",
        -8.795665178243048
      ],
      [
        "be",
        -7.3382005433760105
      ],
      [
        "▁core",
        -10.06661997618566
      ],
      [
        "bal",
        -10.581441968368036
      ],
      [
        "▁trot",
        -10.783143822318094
      ],
      [
        "2",
        -10.53881921003439
      ],
      [
        "▁unaware",
        -11.084274096767224
      ],
      [
        "▁optimis",
        -11.08429725344542
      ],
      [
        "▁uh",
        -7.30352553536834
      ],
      [
        "183",
        -12.302789920285468
      ],
      [
        "▁whol",
        -11.160104566133995
      ],
      [
        "▁operative",
        -10.974529270296333
      ],
      [
        "▁twentieth",
        -9.986234814712416
      ],
      [
        "▁spirit",
        -9.743608631066456
      ],
      [
        "▁convince",
        -10.156749054792275
      ],
      [
        "pur",
        -10.371434857013213
      ],
      [
        "▁.2",
        -12.818583968968843
      ],
      [
        "▁complete",
        -8.3364468646837
      ],
      [
        "▁he",
        -9.296821485417924
      ],
      [
        "▁square",
        -8.655344239507759
      ],
      [
        "▁official",
        -8.586600793156787
      ],
      [
        "▁concept",
        -9.185539586083772
      ],
      [
        "▁54",
        -11.691610356896991
      ],
      [
        "▁statement",
        -9.270542989263411
      ],
      [
        "wide",
        -10.086089268928692
      ],
      [
        "▁anger",
        -10.873207773910218
      ],
      [
        "08",
        -11.329350389901101
      ],
      [
        "▁rec",
        -9.803308011844214
      ],
      [
        "88",
        -12.876593555634733
      ],
      [
        "8011",
        -13.265494279497794
      ],
      [
        "▁fill",
        -8.628277715786927
      ],
      [
        "▁gulf",
        -9.683899644226974
      ],
      [
        "▁strengthen",
        -10.027454384403145
      ],
      [
        "▁terribl",
        -9.287129658559993
      ],
      [
        "▁candidate",
        -9.80712026710024
      ],
      [
        "▁3.7",
        -12.773552462560504
      ],
      [
        "▁vince",
        -9.74406637395424
      ],
      [
        "▁hers",
        -12.827484547626566
      ],
      [
        "▁sudden",
        -9.190705426951736
      ],
      [
        "▁excite",
        -11.095924833038529
      ],
      [
        "▁sunn",
        -10.603610305596899
      ],
      [
        "▁6.2",
        -13.59099710178936
      ],
      [
        "lett",
        -10.812087449117914
      ],
      [
        "▁professor",
        -9.452108731629185
      ],
      [
        "smith",
        -10.524753450341597
      ],
      [
        "▁anne",
        -10.42997148135011
      ],
      [
        "wer",
        -11.29929180413551
      ],
      [
        "101",
        -12.952621968553853
      ],
      [
        "oo",
        -10.573184319002314
      ],
      [
        "▁asset",
        -10.112671690500227
      ],
      [
        "▁foundation",
        -9.784632926658542
      ],
      [
        "/13/200",
        -12.943764559729503
      ],
      [
        "▁asymmetric",
        -11.20925020890187
      ],
      [
        "▁rena",
        -10.168842159187456
      ],
      [
        "ula",
        -8.707120394123102
      ],
      [
        "▁karl",
        -11.138561168755805
      ],
      [
        "▁poop",
        -10.206310785270084
      ],
      [
        "ay",
        -11.161156096712118
      ],
      [
        "▁screen",
        -9.385420392795186
      ],
      [
        "▁57",
        -11.163484242835816
      ],
      [
        "▁launch",
        -9.208678384082257
      ],
      [
        "/03",
        -14.34099684011953
      ],
      [
        "05",
        -11.333808753995704
      ],
      [
        "one",
        -8.958250372823368
      ],
      [
        "▁del",
        -11.060910416404479
      ],
      [
        "▁07",
        -14.85886526325713
      ],
      [
        "9:5",
        -13.21345167014526
      ],
      [
        "unl",
        -12.934716141644028
      ],
      [
        "0-2",
        -13.137095825369885
      ],
      [
        "ble",
        -13.325705585333473
      ],
      [
        "▁interact",
        -10.507899277201977
      ],
      [
        "long",
        -10.628821879242995
      ],
      [
        "▁heel",
        -9.987631366461132
      ],
      [
        "▁c",
        -10.178172696842289
      ],
      [
        "▁bibl",
        -10.97530970146824
      ],
      [
        "▁environmental",
        -9.371191840705933
      ],
      [
        "▁hog",
        -10.208087255347845
      ],
      [
        "▁withdraw",
        -10.483878382730937
      ],
      [
        "▁6/",
        -14.986465349723131
      ],
      [
        "▁31",
        -10.323166577539656
      ],
      [
        "▁dumb",
        -10.621990525634207
      ],
      [
        "▁forecast",
        -11.084301800983066
      ],
      [
        "▁rider",
        -11.041609719656446
      ],
      [
        "ware",
        -9.559928505583992
      ],
      [
        "****",
        -11.720199025079861
      ],
      [
        "29",
        -11.000795650078885
      ],
      [
        "store",
        -10.337191162963043
      ],
      [
        "53",
        -12.926587056744161
      ],
      [
        "▁le",
        -10.863449479386666
      ],
      [
        "▁wag",
        -10.820295173950202
      ],
      [
        "iya",
        -10.821643890987357
      ],
      [
        "▁strict",
        -10.111372253146186
      ],
      [
        "▁system",
        -7.934558105987522
      ],
      [
        "▁keep",
        -7.455030079453249
      ],
      [
        "ever",
        -7.471192227509686
      ],
      [
        "▁enhance",
        -10.307037034714982
      ],
      [
        "▁methodolog",
        -11.174846688160018
      ],
      [
        "notebook",
        -10.715084824811822
      ],
      [
        "▁change",
        -7.435935713020897
      ],
      [
        "▁or",
        -12.861118914094718
      ],
      [
        "▁favor",
        -10.218145956383685
      ],
      [
        "▁direct",
        -8.406305212865606
      ],
      [
        "tor",
        -10.223750643728714
      ],
      [
        "▁expo",
        -11.835218306368208
      ],
      [
        "▁go",
        -11.944803889857337
      ],
      [
        "▁rifle",
        -10.973145156223907
      ],
      [
        "ize",
        -9.049255508895651
      ],
      [
        "▁replace",
        -9.728311069313325
      ],
      [
        "▁mosque",
        -9.840485650347322
      ],
      [
        "▁boy",
        -8.038393916805603
      ],
      [
        "▁glow",
        -10.069112704464079
      ],
      [
        "▁83",
        -15.322788547072959
      ],
      [
        "▁juic",
        -8.92950417007518
      ],
      [
        "▁press",
        -8.804496807644863
      ],
      [
        "▁participate",
        -10.289281120787095
      ],
      [
        "▁wan",
        -6.751432946378942
      ],
      [
        "▁4.9",
        -12.967616918539465
      ],
      [
        "▁justice",
        -9.690381009134365
      ],
      [
        "▁curve",
        -10.026154957621896
      ],
      [
        "mark",
        -10.356460852961318
      ],
      [
        "▁organization",
        -9.106141914490811
      ],
      [
        "sion",
        -10.424354767085728
      ],
      [
        "▁guardia",
        -10.617644765819305
      ],
      [
        "ina",
        -12.093453738177573
      ],
      [
        "▁convenience",
        -11.084250208899727
      ],
      [
        "ł",
        -14.203397884361365
      ],
      [
        "▁exclusive",
        -11.084780089014547
      ],
      [
        "iji",
        -11.001225357799534
      ],
      [
        "▁package",
        -9.948561433355973
      ],
      [
        "800.",
        -12.777623006555508
      ],
      [
        "▁fee",
        -8.312038541128171
      ],
      [
        "▁fix",
        -8.828776728669421
      ],
      [
        "c",
        -6.053272481059237
      ],
      [
        "▁hamster",
        -9.87504856000107
      ],
      [
        "tenni",
        -10.213791992971373
      ],
      [
        "▁muslim",
        -9.910720331479082
      ],
      [
        "▁palm",
        -10.552353164152596
      ],
      [
        "▁beetle",
        -10.782711549037664
      ],
      [
        "herself",
        -13.45138161859207
      ],
      [
        "▁cooperat",
        -10.31147720751683
      ],
      [
        "no",
        -10.794430943084201
      ],
      [
        "chene",
        -11.139740372622846
      ],
      [
        "▁danny",
        -9.600606259402063
      ],
      [
        "al",
        -10.361669615324121
      ],
      [
        "▁tape",
        -8.890400140974819
      ],
      [
        "▁worth",
        -8.112003809419583
      ],
      [
        "▁iq",
        -10.622076643145725
      ],
      [
        "▁mur",
        -10.987044337471405
      ],
      [
        "▁bett",
        -10.25937266338087
      ],
      [
        "furniture",
        -9.74361216608731
      ],
      [
        "/15/",
        -14.272112498480151
      ],
      [
        "n'",
        -9.381928970317361
      ],
      [
        "9/11",
        -11.116867274471282
      ],
      [
        "▁tree",
        -8.66131432277415
      ],
      [
        "▁exposure",
        -9.713309508997352
      ],
      [
        "▁keen",
        -10.717902996815905
      ],
      [
        "0.23",
        -13.696436300133028
      ],
      [
        "gie",
        -10.327548881973417
      ],
      [
        "▁si",
        -9.832855249378149
      ],
      [
        ".782",
        -12.337539463900077
      ],
      [
        "▁somethin",
        -7.378481269236484
      ],
      [
        "▁dragg",
        -10.484540829240409
      ],
      [
        "▁strawberr",
        -10.067823096283739
      ],
      [
        "▁john",
        -8.176340741555656
      ],
      [
        "▁communist",
        -10.425161423851383
      ],
      [
        "dy",
        -12.875179971822407
      ],
      [
        "▁..........",
        -12.521706938213695
      ],
      [
        "▁correct",
        -8.848082190692676
      ],
      [
        "▁chatt",
        -10.687879013523041
      ],
      [
        "▁zo",
        -10.998873661242811
      ],
      [
        ".com/",
        -9.517461516992181
      ],
      [
        "▁pale",
        -10.399902773369876
      ],
      [
        "▁adjust",
        -9.947002420506644
      ],
      [
        "erome",
        -10.519516830348334
      ],
      [
        "ada",
        -9.230859282777809
      ],
      [
        "▁sample",
        -9.523654875330958
      ],
      [
        "▁step",
        -8.51172678844682
      ],
      [
        "mutation",
        -10.38405172703791
      ],
      [
        "▁arriv",
        -7.78026660603824
      ],
      [
        "ph",
        -9.193793131671264
      ],
      [
        "▁185",
        -11.266486185287963
      ],
      [
        "9.3",
        -14.113070844606728
      ],
      [
        "▁contemporar",
        -10.111294101529586
      ],
      [
        "▁league",
        -10.362555504771489
      ],
      [
        "so",
        -6.473154839305638
      ],
      [
        "▁200,000",
        -11.169756943986634
      ],
      [
        "isation",
        -10.367091781794416
      ],
      [
        "▁regulator",
        -10.698896678679944
      ],
      [
        "▁irre",
        -11.205714063362203
      ],
      [
        "gen",
        -9.566900680554339
      ],
      [
        "▁shackle",
        -10.873139206618037
      ],
      [
        "▁11/2",
        -13.632092236267711
      ],
      [
        "▁cupcake",
        -9.910680538299973
      ],
      [
        "s",
        -7.82004737457296
      ],
      [
        "▁vein",
        -11.084901657593466
      ],
      [
        "24",
        -10.79235968292323
      ],
      [
        "▁kin",
        -10.643367201731566
      ],
      [
        "▁drunk",
        -10.782230973077153
      ],
      [
        "853-3",
        -14.140827607357918
      ],
      [
        "▁israeli",
        -9.769616864797403
      ],
      [
        "▁rom",
        -10.9520890947953
      ],
      [
        "▁severe",
        -9.932840280133071
      ],
      [
        "whil",
        -10.34134917773606
      ],
      [
        "▁poo",
        -9.991591175357835
      ],
      [
        "▁column",
        -9.807134298181104
      ],
      [
        "▁tomato",
        -10.156760000327752
      ],
      [
        "▁specifie",
        -10.782487260760941
      ],
      [
        "▁card",
        -8.584562181125989
      ],
      [
        "▁wear",
        -8.274042707586668
      ],
      [
        "372",
        -12.895773325174972
      ],
      [
        "almar",
        -11.056891936141435
      ],
      [
        "▁sore",
        -10.473954854232202
      ],
      [
        "▁agent",
        -9.364495825195519
      ],
      [
        "▁quer",
        -9.407206603608937
      ],
      [
        "tic",
        -8.518107817443813
      ],
      [
        "▁develop",
        -8.37860232585212
      ],
      [
        "▁david",
        -9.208572012563035
      ],
      [
        "▁works",
        -9.07721609789462
      ],
      [
        "hobh",
        -11.063609139467811
      ],
      [
        "▁li",
        -9.134548271373834
      ],
      [
        "▁pai",
        -9.136408446243367
      ],
      [
        "▁carrot",
        -10.254409270645382
      ],
      [
        "▁protection",
        -9.157104932572686
      ],
      [
        "▁de",
        -9.38426533896157
      ],
      [
        "▁standing",
        -9.366795432440306
      ],
      [
        "▁message",
        -8.65617995854252
      ],
      [
        "▁comedie",
        -11.004427179576052
      ],
      [
        "▁son",
        -8.911271420587234
      ],
      [
        "▁cre",
        -9.75173742468125
      ],
      [
        "stein",
        -10.067423478235183
      ],
      [
        "48-",
        -13.886555118997332
      ],
      [
        "▁glove",
        -9.91137051541009
      ],
      [
        "▁cara",
        -10.231239082555971
      ],
      [
        "▁exo",
        -11.042802886274767
      ],
      [
        "▁proceeding",
        -10.668841601076785
      ],
      [
        "▁recording",
        -10.279775259075944
      ],
      [
        "▁bicycle",
        -10.362554830367056
      ],
      [
        "▁???",
        -12.15424849418477
      ],
      [
        "▁shake",
        -10.009670256688409
      ],
      [
        "▁sigh",
        -10.967727821731627
      ],
      [
        "guy",
        -11.202896969010405
      ],
      [
        "▁bre",
        -10.466481293803486
      ],
      [
        "0.2",
        -14.1427018553399
      ],
      [
        "▁fine",
        -8.25907503132596
      ],
      [
        "▁winn",
        -10.001254016257247
      ],
      [
        "45",
        -10.75905829108645
      ],
      [
        "iro",
        -10.572329844390783
      ],
      [
        "▁01/2",
        -13.14262021468103
      ],
      [
        "▁chief",
        -9.655331813129523
      ],
      [
        "▁exp",
        -12.831553775942021
      ],
      [
        "▁aero",
        -10.37329818613668
      ],
      [
        "▁follow",
        -8.161544618847138
      ],
      [
        "▁you",
        -4.2509584929832425
      ],
      [
        "▁flood",
        -9.683970550376737
      ],
      [
        "▁every",
        -7.080078169630708
      ],
      [
        "ant",
        -8.609367653542582
      ],
      [
        "▁after",
        -9.748141363374536
      ],
      [
        "03",
        -11.08606946846835
      ],
      [
        "be",
        -8.125530184423782
      ],
      [
        "▁trem",
        -10.783530300177619
      ],
      [
        "▁banana",
        -8.836660443754045
      ],
      [
        "▁complaint",
        -10.209325109402124
      ],
      [
        "▁dilemma",
        -11.084250989652254
      ],
      [
        "▁consider",
        -8.115239313969617
      ],
      [
        "side",
        -9.307825458137216
      ],
      [
        "oul",
        -7.370660610853058
      ],
      [
        "▁alley",
        -11.01265667633994
      ],
      [
        "▁upside",
        -10.257175337530626
      ],
      [
        "▁30",
        -11.084408056997972
      ],
      [
        "▁510",
        -14.65838821448321
      ],
      [
        "▁pick",
        -8.114449099433024
      ],
      [
        "▁quote",
        -9.39944893569014
      ],
      [
        "▁dollar",
        -8.217972870313835
      ],
      [
        "▁octo",
        -9.074689322305517
      ],
      [
        "▁cabinet",
        -10.62217434722017
      ],
      [
        "▁steal",
        -10.550665151925225
      ],
      [
        "▁stor",
        -8.846270410517619
      ],
      [
        "▁hurri",
        -10.782253229947424
      ],
      [
        "▁salad",
        -9.576019927615526
      ],
      [
        "▁leav",
        -7.308120258946038
      ],
      [
        "389",
        -14.104025639813528
      ],
      [
        "▁miles",
        -9.56292699798351
      ],
      [
        "▁energy",
        -8.466997461311127
      ],
      [
        "▁here",
        -5.984861889906757
      ],
      [
        "ful",
        -7.756954765414779
      ],
      [
        "▁cave",
        -10.43148721028314
      ],
      [
        "▁waiter",
        -10.57375522126128
      ],
      [
        "▁pronounce",
        -10.699390621285309
      ],
      [
        "▁electric",
        -9.155873102452997
      ],
      [
        "▁spray",
        -10.111301390907311
      ],
      [
        "3-3",
        -13.158791324548858
      ],
      [
        "cinna",
        -10.873620870596088
      ],
      [
        "▁guid",
        -10.197008478834679
      ],
      [
        "▁'",
        -8.499373499932922
      ],
      [
        "▁discussion",
        -9.366364784671108
      ],
      [
        "▁portray",
        -11.084281985948444
      ],
      [
        "▁plan",
        -8.239561364058881
      ],
      [
        "▁technical",
        -9.343310187811191
      ],
      [
        "▁197",
        -9.69459253888492
      ],
      [
        "glass",
        -11.058906392238704
      ],
      [
        "nforcement",
        -9.945165030515277
      ],
      [
        "▁1.",
        -12.094938996564373
      ],
      [
        "▁unanimous",
        -11.209250213704077
      ],
      [
        "▁sorr",
        -8.467554203363258
      ],
      [
        "▁expectation",
        -9.914362365066339
      ],
      [
        "▁modification",
        -10.973151612579825
      ],
      [
        "▁thick",
        -10.156864605085618
      ],
      [
        "essie",
        -11.067723525337714
      ],
      [
        "▁practice",
        -9.080451492834133
      ],
      [
        ";",
        -5.847096126235188
      ],
      [
        "▁sentiment",
        -11.084262694515118
      ],
      [
        "▁couple",
        -8.441766496319985
      ],
      [
        "▁classic",
        -10.365574844729636
      ],
      [
        "▁h",
        -9.927331136986187
      ],
      [
        "▁sunday",
        -8.012744980219118
      ],
      [
        "▁corporation",
        -10.254385348072606
      ],
      [
        "▁150",
        -11.06156230055472
      ],
      [
        "!!!!",
        -9.691707156797474
      ],
      [
        "ition",
        -9.510655220135215
      ],
      [
        "▁spin",
        -9.942159197652446
      ],
      [
        "▁res",
        -13.761319965363798
      ],
      [
        "v",
        -10.803216070016004
      ],
      [
        "▁modu",
        -11.333804758297122
      ],
      [
        "▁benefit",
        -8.861786307462594
      ],
      [
        "200,000",
        -15.24025698438958
      ],
      [
        "▁r",
        -10.787481821924922
      ],
      [
        "▁london",
        -8.731668120950399
      ],
      [
        "ty",
        -8.090588672545264
      ],
      [
        "▁version",
        -9.226680691283697
      ],
      [
        "▁laz",
        -10.809297421103478
      ],
      [
        "agr",
        -10.984714191306646
      ],
      [
        "▁shit",
        -10.118101217398273
      ],
      [
        "▁care",
        -8.137177927518103
      ],
      [
        "606",
        -13.08386531655481
      ],
      [
        "▁librarian",
        -10.421757934997567
      ],
      [
        "▁search",
        -9.10585886283555
      ],
      [
        "▁utilit",
        -10.48388314492855
      ],
      [
        "▁soap",
        -10.561927789888463
      ],
      [
        "▁librar",
        -9.885754834860293
      ],
      [
        "▁who",
        -9.77453779214179
      ],
      [
        "▁emphasize",
        -10.99564791334983
      ],
      [
        "▁pric",
        -10.191303320883982
      ],
      [
        "▁kingdom",
        -10.421538404211905
      ],
      [
        "▁ban",
        -10.310248329712472
      ],
      [
        "▁individual",
        -8.914085054526353
      ],
      [
        "▁11/29/",
        -11.588860208461057
      ],
      [
        "▁franco",
        -11.101711939672366
      ],
      [
        "▁retriev",
        -11.084251520517817
      ],
      [
        "even",
        -10.255110157750392
      ],
      [
        "▁sp",
        -9.448108329777904
      ],
      [
        "ect",
        -9.905673899473905
      ],
      [
        "▁928",
        -14.21094168812489
      ],
      [
        "▁crawl",
        -10.36416018695488
      ],
      [
        "▁pop",
        -9.193950031686068
      ],
      [
        "▁203.",
        -13.141448739224419
      ],
      [
        "▁knowledge",
        -8.94129763759859
      ],
      [
        "▁sump",
        -11.087172223921232
      ],
      [
        "▁person",
        -7.789927045074678
      ],
      [
        "▁politician",
        -10.622268263633131
      ],
      [
        "▁cabbage",
        -10.782230665011994
      ],
      [
        "▁shout",
        -10.307112749166887
      ],
      [
        "▁sill",
        -9.5320841753029
      ],
      [
        "▁cake",
        -9.157675138773254
      ],
      [
        "▁alt.animals.",
        -10.553587556405922
      ],
      [
        "▁tur",
        -10.763841514016473
      ],
      [
        "mai",
        -13.010525709899309
      ],
      [
        "parnass",
        -10.873144692489142
      ],
      [
        "▁mw",
        -9.581225861602999
      ],
      [
        "▁dispatch",
        -11.20925021443421
      ],
      [
        "3/4",
        -12.323964283376021
      ],
      [
        "▁rainbow",
        -10.973140154403183
      ],
      [
        "ia",
        -11.939110865357861
      ],
      [
        "mercury",
        -10.782304776880842
      ],
      [
        "▁michi",
        -10.363221774573756
      ],
      [
        "▁crown",
        -10.873161515309866
      ],
      [
        "▁enable",
        -9.8407234785202
      ],
      [
        "▁roar",
        -9.775388475204176
      ],
      [
        "▁cheape",
        -8.054503630646085
      ],
      [
        "ar",
        -7.965964220060477
      ],
      [
        "▁vision",
        -10.484130588957454
      ],
      [
        "▁balzac",
        -8.510863758518745
      ],
      [
        "▁shoot",
        -9.655338940346903
      ],
      [
        "▁chest",
        -10.210835437385603
      ],
      [
        "▁ad",
        -13.069983555914995
      ],
      [
        "▁enterprise",
        -10.873139102883327
      ],
      [
        "oper",
        -10.518719302580914
      ],
      [
        "pal",
        -12.51080733618937
      ],
      [
        "▁recommendation",
        -10.119099979821373
      ],
      [
        "▁inn",
        -10.585373812009351
      ],
      [
        "▁30,",
        -14.133461492039805
      ],
      [
        "▁simpl",
        -8.809611150738293
      ],
      [
        "▁bert",
        -10.928570099223114
      ],
      [
        "35-",
        -12.600562428656753
      ],
      [
        "▁plug",
        -10.734393576495323
      ],
      [
        "▁sophie",
        -9.385425573548483
      ],
      [
        "▁underst",
        -10.262149468458354
      ],
      [
        "368",
        -12.773220836068143
      ],
      [
        "▁directive",
        -9.090896220717392
      ],
      [
        "▁get",
        -5.735858642197
      ],
      [
        "▁fool",
        -10.254582804415636
      ],
      [
        "▁mouss",
        -10.700183873829056
      ],
      [
        "▁sticker",
        -10.726131715967302
      ],
      [
        "▁force",
        -8.130488727267808
      ],
      [
        "▁primari",
        -10.64238478458082
      ],
      [
        "▁cure",
        -10.706116989977577
      ],
      [
        "wikipedia",
        -11.084252198310033
      ],
      [
        "▁medica",
        -9.547275415242908
      ],
      [
        "▁51",
        -12.853110873290898
      ],
      [
        "▁pioneer",
        -10.69890043909964
      ],
      [
        "ons",
        -10.56595692661573
      ],
      [
        "▁organisation",
        -10.55059196033263
      ],
      [
        "-----------",
        -11.0313601562369
      ],
      [
        "▁detect",
        -10.549956889011495
      ],
      [
        "▁glance",
        -10.67058118196576
      ],
      [
        "cin",
        -12.841946993867692
      ],
      [
        "▁mrs",
        -9.3615233859849
      ],
      [
        "▁129",
        -12.292761266971034
      ],
      [
        "▁venu",
        -10.923802549613292
      ],
      [
        "▁error",
        -9.452329238385047
      ],
      [
        "▁b",
        -8.234301792178819
      ],
      [
        "▁aid",
        -9.881370596940544
      ],
      [
        "▁50",
        -9.85620643860546
      ],
      [
        "▁ribbon",
        -10.421379287842848
      ],
      [
        "▁55,",
        -13.499818052039403
      ],
      [
        "▁edward",
        -10.026649394389592
      ],
      [
        "▁magic",
        -9.155652442042342
      ],
      [
        "ysi",
        -12.834681834397351
      ],
      [
        "▁frog",
        -10.428547242701686
      ],
      [
        "▁713/8",
        -14.340536229756822
      ],
      [
        "▁lexic",
        -10.96174096756588
      ],
      [
        "▁applica",
        -10.42125836042819
      ],
      [
        "76",
        -11.504346634557045
      ],
      [
        "========",
        -13.622794927606003
      ],
      [
        "▁provider",
        -10.9568341609857
      ],
      [
        "▁brand",
        -10.261122783878198
      ],
      [
        "▁green",
        -8.134794264129845
      ],
      [
        "▁>>",
        -8.408942050936023
      ],
      [
        "66",
        -12.073162576097861
      ],
      [
        "▁fire",
        -8.425340420766844
      ],
      [
        "▁go",
        -5.188808092865338
      ],
      [
        "▁pocket",
        -8.741883838082094
      ],
      [
        "and",
        -3.8970350390850186
      ],
      [
        "▁–",
        -8.83025937391971
      ],
      [
        "▁mobile",
        -10.491702122992727
      ],
      [
        "3/10/",
        -13.858668163224241
      ],
      [
        "▁3-52",
        -13.137000630792741
      ],
      [
        "▁useful",
        -9.78515183736997
      ],
      [
        "▁regular",
        -9.058216524715608
      ],
      [
        "dominant",
        -11.02387044484599
      ],
      [
        "▁39",
        -12.103642793380354
      ],
      [
        "▁expected",
        -9.49318980185867
      ],
      [
        "▁ob",
        -9.946892029881372
      ],
      [
        "▁130",
        -11.559624943780829
      ],
      [
        "▁42,000",
        -12.744463221080972
      ],
      [
        "▁aggressive",
        -10.782500001088744
      ],
      [
        "▁incubat",
        -11.084305446558652
      ],
      [
        "▁140",
        -13.557539680807714
      ],
      [
        "▁g",
        -10.973761537441947
      ],
      [
        "▁politic",
        -10.302718565225753
      ],
      [
        "▁iron",
        -10.109303633017
      ],
      [
        "▁interesting",
        -8.931349890317577
      ],
      [
        "▁assum",
        -10.405099238509848
      ],
      [
        "▁210",
        -12.59373170075374
      ],
      [
        "▁squash",
        -10.873140376564779
      ],
      [
        "▁farrier",
        -10.78226851222104
      ],
      [
        "▁lean",
        -10.116841868445025
      ],
      [
        "▁facilitate",
        -10.554928151464454
      ],
      [
        "▁byr",
        -10.884583897135688
      ],
      [
        "▁factor",
        -9.002841345987854
      ],
      [
        "igger",
        -10.28259929214996
      ],
      [
        "9",
        -9.761469071731705
      ],
      [
        "ver",
        -11.024067939475756
      ],
      [
        "▁summar",
        -10.167849183697484
      ],
      [
        "▁repeat",
        -10.047210587365228
      ],
      [
        "▁count",
        -8.297093422872244
      ],
      [
        "▁sequence",
        -10.78223306919667
      ],
      [
        "▁196",
        -10.370659192566032
      ],
      [
        "▁comprehensi",
        -10.15674873032442
      ],
      [
        "wa",
        -14.382662615359285
      ],
      [
        "▁fifty",
        -10.236686281632453
      ],
      [
        "id",
        -11.523085669888701
      ],
      [
        "6-84",
        -14.806907614809187
      ],
      [
        "▁clock",
        -9.991985763781523
      ],
      [
        "▁hoo",
        -10.193322045195064
      ],
      [
        "▁incident",
        -10.483883583093013
      ],
      [
        "▁cruel",
        -10.306999290650566
      ],
      [
        "▁readers",
        -10.319732800748818
      ],
      [
        "▁connected",
        -10.254950085545678
      ],
      [
        "▁addition",
        -9.336121657493889
      ],
      [
        "▁eco",
        -10.379330571162638
      ],
      [
        "▁bid",
        -9.962144390340566
      ],
      [
        "▁entitle",
        -10.120118806724754
      ],
      [
        "▁hack",
        -10.623199884324794
      ],
      [
        "▁01/25/200",
        -12.666143543723848
      ],
      [
        "▁frequent",
        -9.452108736760888
      ],
      [
        "-20",
        -14.062585561929335
      ],
      [
        "▁c",
        -7.001118939860497
      ],
      [
        "▁cross",
        -9.251971021589094
      ],
      [
        "▁intr",
        -10.486414012796647
      ],
      [
        "▁analys",
        -9.3251427630127
      ],
      [
        "airbnb",
        -10.78223183272435
      ],
      [
        "▁reconcili",
        -10.697886438305716
      ],
      [
        "1.",
        -10.97590789828758
      ],
      [
        "▁want",
        -5.736206502054337
      ],
      [
        "bbc",
        -10.700912641340947
      ],
      [
        "▁pickle",
        -11.107768104612832
      ],
      [
        "▁operation",
        -9.301029896347814
      ],
      [
        "sa",
        -10.695860057288728
      ],
      [
        "fence",
        -10.30956950608956
      ],
      [
        "814",
        -13.41959975627615
      ],
      [
        "▁client",
        -9.80712078592235
      ],
      [
        "▁scientist",
        -9.775696871487073
      ],
      [
        "▁2",
        -10.556276463566192
      ],
      [
        "▁mi",
        -7.871724973931416
      ],
      [
        "▁accomplish",
        -10.698179129624727
      ],
      [
        "ov",
        -9.767176147223115
      ],
      [
        "ator",
        -10.215284400497236
      ],
      [
        "▁scream",
        -10.204367790041022
      ],
      [
        "ase",
        -10.78973269745037
      ],
      [
        "ennes",
        -11.4152029478778
      ],
      [
        "▁sixt",
        -9.245239739577888
      ],
      [
        "!!!!!",
        -11.993799257598976
      ],
      [
        "▁style",
        -8.971282525436246
      ],
      [
        "lib",
        -11.165531979159399
      ],
      [
        "296",
        -12.485626599436337
      ],
      [
        "▁farmer",
        -9.92141454344997
      ],
      [
        "presentation",
        -10.506606720923452
      ],
      [
        "ack",
        -12.928599211651854
      ],
      [
        "▁ze",
        -10.153064089028318
      ],
      [
        "▁mind",
        -8.149978379424951
      ],
      [
        "▁accommodation",
        -10.699123614194562
      ],
      [
        "trina",
        -10.782321193244947
      ],
      [
        "▁flourish",
        -11.084465176906907
      ],
      [
        "▁guide",
        -10.21224067162671
      ],
      [
        "▁orange",
        -8.969270651009642
      ],
      [
        "uter",
        -11.195607737965023
      ],
      [
        "▁apartment",
        -9.364585252691992
      ],
      [
        "▁radio",
        -10.00022604922527
      ],
      [
        "wo",
        -11.00704601879946
      ],
      [
        "▁hung",
        -9.81963923021652
      ],
      [
        "▁strange",
        -10.023602840125696
      ],
      [
        "♥",
        -12.833785825435129
      ],
      [
        "▁sacrifice",
        -10.621973597260503
      ],
      [
        "▁scient",
        -9.601163815918593
      ],
      [
        "▁mouse",
        -9.655521115019415
      ],
      [
        "other",
        -9.667747659629368
      ],
      [
        "▁noon",
        -8.408007409882366
      ],
      [
        "1:00",
        -11.411252376672223
      ],
      [
        "▁pig",
        -9.357296852367515
      ],
      [
        "0981",
        -14.135593250866743
      ],
      [
        "▁processe",
        -10.372803554654698
      ],
      [
        "until",
        -11.234173630287195
      ],
      [
        "van",
        -13.35349333437616
      ],
      [
        "▁purchase",
        -9.36089517277291
      ],
      [
        "cal",
        -11.155704790119795
      ],
      [
        "▁liver",
        -10.951239035914234
      ],
      [
        "▁score",
        -9.546884695285623
      ],
      [
        "▁thin",
        -9.991270050337674
      ],
      [
        "▁ka",
        -9.287887647372248
      ],
      [
        "▁very",
        -6.286171042541993
      ],
      [
        "opher",
        -10.633137544442626
      ],
      [
        "ance",
        -7.8953933718812745
      ],
      [
        "tractor",
        -9.901263564357984
      ],
      [
        "▁public",
        -7.948143399472624
      ],
      [
        "▁require",
        -8.61052014233088
      ],
      [
        "ter",
        -10.432873965842234
      ],
      [
        "▁southwest",
        -10.487899462797216
      ],
      [
        "▁accept",
        -8.442552136605165
      ],
      [
        "▁provision",
        -9.40715923667676
      ],
      [
        "▁yea",
        -6.460565176963068
      ],
      [
        "▁swede",
        -10.162469602252001
      ],
      [
        "tel",
        -12.258190552242459
      ],
      [
        "countries",
        -8.323488568640954
      ],
      [
        "▁phrase",
        -10.25437030354695
      ],
      [
        "▁cou",
        -10.858686679206002
      ],
      [
        "got",
        -12.9597684416641
      ],
      [
        "kat",
        -10.785619882956034
      ],
      [
        "up",
        -8.753341417653875
      ],
      [
        "amp",
        -10.90385813468465
      ],
      [
        "▁indicate",
        -9.811621935584888
      ],
      [
        "real",
        -8.863034912585011
      ],
      [
        "▁greg",
        -10.422809342019434
      ],
      [
        "▁bone",
        -9.337231429640692
      ],
      [
        "▁batt",
        -11.01421293842343
      ],
      [
        "ee",
        -13.339296558323799
      ],
      [
        "▁independen",
        -9.77064997430328
      ],
      [
        "▁water",
        -7.3433845228055326
      ],
      [
        "▁print",
        -9.079069130684047
      ],
      [
        "fi",
        -11.328054049889788
      ],
      [
        "7.3",
        -12.709136079735892
      ],
      [
        "mi",
        -10.350978540918216
      ],
      [
        "▁yours",
        -10.490369004197085
      ],
      [
        "▁theatre",
        -9.988406332191245
      ],
      [
        "▁seat",
        -8.684950637554326
      ],
      [
        "▁190",
        -11.796319890941167
      ],
      [
        "▁hm",
        -9.359473734038662
      ],
      [
        "▁sound",
        -8.231313584953632
      ],
      [
        "▁chose",
        -9.94977758220172
      ],
      [
        "1/200",
        -13.247358491964661
      ],
      [
        "▁fred",
        -9.650268999622549
      ],
      [
        "958",
        -13.341006206325527
      ],
      [
        "g.",
        -9.666834862862885
      ],
      [
        ",000,000",
        -11.965997843955401
      ],
      [
        "▁clip",
        -10.362842834167557
      ],
      [
        "▁11.",
        -12.246845594090738
      ],
      [
        "▁sweep",
        -10.42137902309738
      ],
      [
        "▁rule",
        -8.462764751747278
      ],
      [
        "sit",
        -11.467061234695631
      ],
      [
        "ow",
        -11.530249375954355
      ],
      [
        "ett",
        -13.27741638829742
      ],
      [
        "▁liber",
        -10.951031623260318
      ],
      [
        "lli",
        -12.814597241988306
      ],
      [
        "▁thanks",
        -7.795785576476783
      ],
      [
        "▁alleged",
        -10.156753319927555
      ],
      [
        "▁annoy",
        -10.362584225603936
      ],
      [
        "19",
        -10.456865167975522
      ],
      [
        "▁tab",
        -10.345234292705108
      ],
      [
        "▁scale",
        -9.84071725393196
      ],
      [
        "*****",
        -11.566808758753416
      ],
      [
        "z",
        -11.587180466242845
      ],
      [
        "▁cind",
        -10.422191692713632
      ],
      [
        "▁equivalen",
        -10.867578689185054
      ],
      [
        "▁session",
        -9.774872792862244
      ],
      [
        "▁ya",
        -14.202852529658717
      ],
      [
        "▁p",
        -9.90999624969824
      ],
      [
        "▁bernoulli",
        -10.483878358517403
      ],
      [
        "elia",
        -10.710021214375008
      ],
      [
        "▁transparen",
        -10.48387894933041
      ],
      [
        "▁sue",
        -10.159466605995828
      ],
      [
        "▁push",
        -8.31596891674306
      ],
      [
        "▁vaccine",
        -10.483878362914211
      ],
      [
        "▁outside",
        -8.272985819524127
      ],
      [
        "▁hundred",
        -9.807120249259228
      ],
      [
        "▁n",
        -10.854310079964955
      ],
      [
        "▁nah",
        -10.91806674624446
      ],
      [
        "\\",
        -11.833785825435129
      ],
      [
        "▁supposed",
        -8.843077243777273
      ],
      [
        "760",
        -13.82235795581947
      ],
      [
        "c",
        -6.857402155246582
      ],
      [
        "▁199",
        -8.832557886515348
      ],
      [
        "aire",
        -10.84017472189548
      ],
      [
        "▁captain",
        -10.111337515146412
      ],
      [
        "▁moment",
        -8.557791436270698
      ],
      [
        "▁organi",
        -11.103072114284013
      ],
      [
        "rete",
        -10.200325196388052
      ],
      [
        "▁04:5",
        -13.362917933474566
      ],
      [
        "▁champion",
        -11.084909105306407
      ],
      [
        "▁bag",
        -8.436553402376084
      ],
      [
        "▁to",
        -11.047449325321436
      ],
      [
        "▁freez",
        -11.205369194707748
      ],
      [
        "▁tsar",
        -10.973347328799576
      ],
      [
        "▁fixed",
        -9.238515660521855
      ],
      [
        "▁back",
        -6.470692465027117
      ],
      [
        "▁realise",
        -10.663869402260746
      ],
      [
        "▁receiv",
        -9.091497159262875
      ],
      [
        "side",
        -8.896573886283262
      ],
      [
        "▁gray",
        -10.178894564130413
      ],
      [
        "▁homeopath",
        -10.698898800782441
      ],
      [
        "ours",
        -13.891153374149832
      ],
      [
        "▁categori",
        -10.421379140151682
      ],
      [
        "▁language",
        -7.949330217281645
      ],
      [
        "well",
        -10.278309650911378
      ],
      [
        "▁earthquake",
        -10.97313909778844
      ],
      [
        "▁continent",
        -8.468002396080681
      ],
      [
        "▁81",
        -14.132712190650901
      ],
      [
        "▁muscle",
        -9.627654443098654
      ],
      [
        "▁'",
        -9.9402510855427
      ],
      [
        "▁conversation",
        -9.05822472813522
      ],
      [
        "▁lifetime",
        -10.554194908489867
      ],
      [
        "▁charles",
        -10.073862865423585
      ],
      [
        "▁grave",
        -10.36994113547957
      ],
      [
        "▁extreme",
        -8.788134320524446
      ],
      [
        "▁store",
        -8.004346720590704
      ],
      [
        "▁sonnet",
        -10.484147950284674
      ],
      [
        "▁accident",
        -9.176438552225346
      ],
      [
        "▁filth",
        -11.085999536042905
      ],
      [
        "▁correspond",
        -10.782123797289842
      ],
      [
        "▁job",
        -7.892940234901602
      ],
      [
        "▁counterfeit",
        -10.06781586773566
      ],
      [
        "ol",
        -8.88860225881184
      ],
      [
        "194",
        -14.45571447231612
      ],
      [
        "▁interven",
        -10.973030420149744
      ],
      [
        "90",
        -10.494507468409509
      ],
      [
        "net",
        -10.003132132500491
      ],
      [
        "▁za",
        -9.366009149676747
      ],
      [
        "-33",
        -14.126752647604532
      ],
      [
        "te",
        -15.405337077280535
      ],
      [
        "▁ethnocentri",
        -11.084250208892616
      ],
      [
        "ture",
        -9.636384541285167
      ],
      [
        "▁situation",
        -8.708630114144965
      ],
      [
        "▁sci",
        -11.107011038143355
      ],
      [
        "ther",
        -10.379418511021798
      ],
      [
        "▁apologize",
        -11.084250221507148
      ],
      [
        "▁margin",
        -11.083096990368663
      ],
      [
        "▁cool",
        -9.01297969959896
      ],
      [
        "▁danc",
        -9.556703548929297
      ],
      [
        "▁procedure",
        -9.475364548367429
      ],
      [
        "▁nurse",
        -10.204380264443415
      ],
      [
        "▁striv",
        -10.877207190306837
      ],
      [
        "▁turist",
        -11.335733798982876
      ],
      [
        "▁hu",
        -7.962625385083752
      ],
      [
        "▁---",
        -13.066352447763768
      ],
      [
        "▁bread",
        -9.014134261037015
      ],
      [
        "▁idea",
        -7.942200277438278
      ],
      [
        ":00",
        -9.712247828919523
      ],
      [
        "******",
        -12.428278979198952
      ],
      [
        "▁portion",
        -10.02868303921926
      ],
      [
        "28",
        -10.97103305750776
      ],
      [
        "▁understand",
        -8.100536583936162
      ],
      [
        "arctic",
        -10.785328606408319
      ],
      [
        "59,",
        -14.128729149811772
      ],
      [
        "▁complement",
        -11.084251502249018
      ],
      [
        "▁barr",
        -10.586072180794137
      ],
      [
        "moi",
        -11.88521742952827
      ],
      [
        "▁p",
        -13.445667666071776
      ],
      [
        "1030",
        -15.236251623969013
      ],
      [
        "▁22",
        -10.168178807948134
      ],
      [
        "▁transform",
        -10.009537866612035
      ],
      [
        "nn",
        -12.65929978841836
      ],
      [
        "▁pee",
        -10.540801432132325
      ],
      [
        "▁clown",
        -10.421398154138611
      ],
      [
        "▁story",
        -8.444950928720758
      ],
      [
        "oma",
        -11.04177079433562
      ],
      [
        "▁disease",
        -9.807120640069353
      ],
      [
        "5:5",
        -15.21029726114531
      ],
      [
        "▁cage",
        -9.07680101485326
      ],
      [
        "for",
        -6.699129353135135
      ],
      [
        ":5",
        -14.280357869335674
      ],
      [
        "▁soon",
        -8.322823599925718
      ],
      [
        "▁motivation",
        -10.873139103038191
      ],
      [
        "la",
        -10.269817022195173
      ],
      [
        "▁christian",
        -9.548968311450828
      ],
      [
        "▁police",
        -8.804575288289929
      ],
      [
        "ye",
        -12.846015260932829
      ],
      [
        "▁acquis",
        -10.973147954828356
      ],
      [
        "ack",
        -9.766451849467128
      ],
      [
        "'s",
        -9.29672248805738
      ],
      [
        "▁weed",
        -10.906302496339183
      ],
      [
        "▁+",
        -9.251141440656454
      ],
      [
        "-84",
        -13.610000242966729
      ],
      [
        "th",
        -7.114558713916185
      ],
      [
        "▁spread",
        -9.69042270384654
      ],
      [
        "▁command",
        -9.737663735362014
      ],
      [
        "▁golf",
        -10.973682995264534
      ],
      [
        "through",
        -10.025984896003525
      ],
      [
        "▁career",
        -9.257862110978383
      ],
      [
        "▁track",
        -9.060113603510775
      ],
      [
        "▁explanation",
        -10.067815841448223
      ],
      [
        "---------",
        -11.42153724811176
      ],
      [
        "▁corp",
        -10.592413072078024
      ],
      [
        "▁chant",
        -10.79389582342986
      ],
      [
        "pool",
        -10.86570847116308
      ],
      [
        "▁cab",
        -10.328268732752932
      ],
      [
        "▁hire",
        -10.011991560923857
      ],
      [
        "▁basket",
        -9.947689586132517
      ],
      [
        "▁umb",
        -11.131231591852986
      ],
      [
        "▁guess",
        -8.361273816921969
      ],
      [
        "▁416",
        -14.782803597790648
      ],
      [
        "▁55",
        -11.36494310179424
      ],
      [
        "arriage",
        -10.626365871589705
      ],
      [
        "▁cri",
        -10.262630812603001
      ],
      [
        "▁interrupt",
        -10.625044490176373
      ],
      [
        "four",
        -10.682034391298334
      ],
      [
        "▁lime",
        -10.363357443698016
      ],
      [
        "▁thai",
        -10.38073892146368
      ],
      [
        "▁asian",
        -10.12307226087226
      ],
      [
        "39",
        -11.637206619097427
      ],
      [
        "▁don",
        -9.48376761787565
      ],
      [
        "▁trouble",
        -8.835223530356842
      ],
      [
        "▁ten",
        -9.875351497645156
      ],
      [
        ".8",
        -14.11670206142243
      ],
      [
        "▁ferr",
        -10.106624938140355
      ],
      [
        "emur",
        -11.086454378557322
      ],
      [
        "▁tra",
        -10.378197789761249
      ],
      [
        "▁dancer",
        -10.916711993011237
      ],
      [
        "▁?",
        -6.9934883581140035
      ],
      [
        "▁profound",
        -11.08425045714576
      ],
      [
        "▁restrict",
        -10.876103267543755
      ],
      [
        "inst",
        -8.311210208200965
      ],
      [
        "▁shade",
        -10.309871582071008
      ],
      [
        "89",
        -10.782289073033322
      ],
      [
        "▁evaluation",
        -10.363863580829555
      ],
      [
        "enti",
        -12.154891043607538
      ],
      [
        "▁emergenc",
        -9.840475346217156
      ],
      [
        "▁stepp",
        -9.957951806662797
      ],
      [
        "alliance",
        -10.204880421187081
      ],
      [
        "man",
        -12.141727430762012
      ],
      [
        "u",
        -5.730887179067297
      ],
      [
        "184",
        -12.62128093123546
      ],
      [
        "▁dirt",
        -8.665807402613714
      ],
      [
        "ta",
        -13.295403756520322
      ],
      [
        "any",
        -9.173355829436742
      ],
      [
        "▁!!",
        -8.519732313854663
      ],
      [
        "▁ou",
        -10.262009073803753
      ],
      [
        "▁carry",
        -8.779016953830144
      ],
      [
        "▁fact",
        -7.942860533828772
      ],
      [
        "▁phil",
        -6.981496531733099
      ],
      [
        "098",
        -13.688847105212474
      ],
      [
        "▁trunk",
        -10.550560618749573
      ],
      [
        "▁shi",
        -9.905409963856581
      ],
      [
        "158",
        -13.40478322388883
      ],
      [
        "▁rare",
        -9.684382366829245
      ],
      [
        "▁study",
        -8.045934415874715
      ],
      [
        "▁assistan",
        -9.424803992360246
      ],
      [
        "▁appearance",
        -9.84196641758258
      ],
      [
        "▁-",
        -6.672550242218495
      ],
      [
        "-40",
        -14.138646239169773
      ],
      [
        "andi",
        -12.83477122878123
      ],
      [
        "▁large",
        -7.512810646090694
      ],
      [
        "▁comfort",
        -10.543344955258306
      ],
      [
        "▁though",
        -8.523832092657054
      ],
      [
        "▁kni",
        -10.596344908148112
      ],
      [
        "bec",
        -9.720690803025338
      ],
      [
        "68",
        -12.36399916790613
      ],
      [
        "stock",
        -10.863988312208786
      ],
      [
        "▁report",
        -7.775558356488181
      ],
      [
        "▁elite",
        -10.550816276136345
      ],
      [
        "onia",
        -11.042556082880333
      ],
      [
        "▁normal",
        -8.94424101414015
      ],
      [
        "▁goat",
        -9.936085439792237
      ],
      [
        "▁thi",
        -5.393002986392686
      ],
      [
        "▁mirror",
        -10.026149294429484
      ],
      [
        "6.3",
        -14.15124683494006
      ],
      [
        "澹",
        -12.833785825435129
      ],
      [
        "▁ring",
        -9.44746373291046
      ],
      [
        "18",
        -11.156516477548015
      ],
      [
        "eta",
        -9.45737719434384
      ],
      [
        "858",
        -14.142649939049774
      ],
      [
        "”",
        -6.541188097635501
      ],
      [
        "▁isda",
        -10.424876960385172
      ],
      [
        "▁merit",
        -10.782670180670198
      ],
      [
        "ily",
        -9.067209170638304
      ],
      [
        "▁improvement",
        -9.876087528827458
      ],
      [
        ":30",
        -9.919950766679145
      ],
      [
        "46-",
        -13.34130911049348
      ],
      [
        "▁extract",
        -10.254448478147212
      ],
      [
        "▁facult",
        -10.30700205514011
      ],
      [
        "▁seek",
        -9.085974236951703
      ],
      [
        "▁01:09",
        -13.137174343487052
      ],
      [
        "▁feel",
        -7.534497227242223
      ],
      [
        "▁04",
        -11.318655228848783
      ],
      [
        "rdon",
        -9.973277323331189
      ],
      [
        "5",
        -11.201448682564802
      ],
      [
        "▁product",
        -8.237072258385432
      ],
      [
        "▁meaning",
        -9.363749474879175
      ],
      [
        "▁lack",
        -8.900955378247769
      ],
      [
        "▁one",
        -6.732453087573144
      ],
      [
        "▁republic",
        -9.947218646384702
      ],
      [
        "▁else",
        -7.480389237587039
      ],
      [
        "▁brazil",
        -10.307002838291973
      ],
      [
        "once",
        -8.598222648024645
      ],
      [
        ".80",
        -14.353379162439051
      ],
      [
        "▁nursie",
        -10.204370558394466
      ],
      [
        "▁len",
        -10.26429232771025
      ],
      [
        "▁fox",
        -10.363162515800607
      ],
      [
        "s",
        -3.2339556402487712
      ],
      [
        "▁5.",
        -12.276806535242752
      ],
      [
        "auv",
        -11.334233271583926
      ],
      [
        "ific",
        -9.536454577706829
      ],
      [
        "▁senator",
        -9.627592736969135
      ],
      [
        "▁kerr",
        -10.461618094835055
      ],
      [
        "▁0.3",
        -13.34791874631892
      ],
      [
        "▁quick",
        -8.308569840722752
      ],
      [
        "▁nose",
        -8.62830060992357
      ],
      [
        "nd",
        -12.574555320074737
      ],
      [
        "8-9",
        -14.116498766605678
      ],
      [
        ":",
        -15.518065406639664
      ],
      [
        "▁den",
        -9.545510220442276
      ],
      [
        "re",
        -9.464589152516979
      ],
      [
        "▁eve",
        -10.429775631390832
      ],
      [
        "▁cut",
        -7.937202705727968
      ],
      [
        "988",
        -13.709422723261254
      ],
      [
        "419",
        -15.147059457703024
      ],
      [
        ",10",
        -14.134301008475443
      ],
      [
        "▁tongue",
        -10.254415956179898
      ],
      [
        "▁women",
        -8.40058484695157
      ],
      [
        "▁lanka",
        -10.11130469733655
      ],
      [
        "999",
        -12.577476596359821
      ],
      [
        "iction",
        -10.204757985612193
      ],
      [
        "▁week",
        -7.37150173868148
      ],
      [
        "▁nandaro",
        -11.378131439771892
      ],
      [
        "▁cancer",
        -10.873230252226753
      ],
      [
        "▁love",
        -7.309301433863601
      ],
      [
        "400",
        -11.158984950287465
      ],
      [
        "▁flo",
        -9.977545630452617
      ],
      [
        "▁throat",
        -10.156748802465845
      ],
      [
        "▁wh",
        -11.334780390968685
      ],
      [
        "toward",
        -12.052568335774453
      ],
      [
        "▁wi",
        -14.407127597437647
      ],
      [
        "▁process",
        -7.974647779615065
      ],
      [
        "▁inc",
        -9.08541703512168
      ],
      [
        "▁pleasant",
        -9.683897362402389
      ],
      [
        "▁by",
        -9.863838491433988
      ],
      [
        "▁none",
        -10.051086768214887
      ],
      [
        "ro",
        -11.369268642045476
      ],
      [
        "to",
        -9.200376153881685
      ],
      [
        "393",
        -11.979993705934664
      ],
      [
        "▁hands",
        -8.602506352795217
      ],
      [
        "▁hussein",
        -10.782230467622774
      ],
      [
        "▁accurac",
        -11.209250214708716
      ],
      [
        "▁nine",
        -9.205736100991716
      ],
      [
        "179",
        -13.39745496023807
      ],
      [
        "▁open",
        -7.383038197145574
      ],
      [
        "6/9",
        -12.808934602602188
      ],
      [
        "’",
        -7.123051210512561
      ],
      [
        "▁dust",
        -9.418672047758305
      ],
      [
        "▁tragic",
        -11.08424879358369
      ],
      [
        "▁double",
        -9.689996662841148
      ],
      [
        "▁glass",
        -8.606988162098922
      ],
      [
        "cho",
        -11.18965547867573
      ],
      [
        "▁fault",
        -10.552499413417374
      ],
      [
        "▁soviet",
        -10.483878546174916
      ],
      [
        "va",
        -9.82661049775386
      ],
      [
        "▁local",
        -8.272617127562505
      ],
      [
        "▁one",
        -6.339602012111239
      ],
      [
        "leopold",
        -11.209250211215084
      ],
      [
        "tract",
        -10.862241335448443
      ],
      [
        "▁civilization",
        -10.62206643398177
      ],
      [
        "d",
        -7.957113490295205
      ],
      [
        "if",
        -9.854273665376308
      ],
      [
        "73",
        -12.572276549803448
      ],
      [
        "▁bin",
        -9.6610324373028
      ],
      [
        "pan",
        -10.170747393120216
      ],
      [
        "▁respective",
        -10.702818064949337
      ],
      [
        "top",
        -10.278912271660428
      ],
      [
        "▁louisian",
        -11.086608324410061
      ],
      [
        "▁sometime",
        -8.057362494565194
      ],
      [
        "▁heart",
        -8.733621495611612
      ],
      [
        "▁slide",
        -9.812433983068232
      ],
      [
        "rafa",
        -10.48489421567825
      ],
      [
        "▁eas",
        -8.417393767588418
      ],
      [
        "▁backward",
        -10.701961728181358
      ],
      [
        "▁deep",
        -8.913459350382237
      ],
      [
        "▁coup",
        -10.419316076705178
      ],
      [
        "▁drug",
        -9.499248248373597
      ],
      [
        "▁plane",
        -9.011929313047787
      ],
      [
        "▁sheep",
        -10.550565181399337
      ],
      [
        "zi",
        -10.854500550381056
      ],
      [
        "▁dentist",
        -10.483887671462217
      ],
      [
        "343",
        -12.390815633755022
      ],
      [
        "▁inherit",
        -11.084258142103687
      ],
      [
        "▁declaration",
        -9.875474293340615
      ],
      [
        "▁unemploy",
        -10.15680767686933
      ],
      [
        "800-",
        -13.222800058092481
      ],
      [
        "thele",
        -9.8521397948609
      ],
      [
        "roll",
        -10.28995736936308
      ],
      [
        "▁ambitious",
        -10.873146829491942
      ],
      [
        "▁mountain",
        -9.122329759882984
      ],
      [
        "▁bird",
        -8.378669166328248
      ],
      [
        "▁syrup",
        -10.873139742477605
      ],
      [
        "▁traged",
        -10.15676875461363
      ],
      [
        "▁cap",
        -11.04276350822424
      ],
      [
        "▁desir",
        -10.48546760983999
      ],
      [
        "▁policy",
        -8.86901731134975
      ],
      [
        "▁destination",
        -10.02685041592717
      ],
      [
        "▁vacu",
        -10.973253659171904
      ],
      [
        "▁garb",
        -10.626431977091142
      ],
      [
        "▁5,",
        -14.439061198417926
      ],
      [
        "994",
        -12.619595990323594
      ],
      [
        "▁increasing",
        -9.452108736266501
      ],
      [
        "▁egg",
        -8.883346963751865
      ],
      [
        "▁innovation",
        -9.574319404820974
      ],
      [
        "ff",
        -11.980794772189306
      ],
      [
        "▁dropp",
        -9.366287293380005
      ],
      [
        "3",
        -9.772266817123713
      ],
      [
        "▁shiite",
        -10.156876261658965
      ],
      [
        "▁zealand",
        -9.80712488770073
      ],
      [
        "3-",
        -14.52960505613413
      ],
      [
        "im",
        -8.88475988247119
      ],
      [
        "▁now",
        -6.042119585916172
      ],
      [
        "▁shovel",
        -11.086593187879595
      ],
      [
        "▁late",
        -7.815785339604707
      ],
      [
        "150",
        -15.027533495975852
      ],
      [
        "奈",
        -12.833785825435129
      ],
      [
        "▁bat",
        -9.819321890693324
      ],
      [
        "▁retail",
        -10.628973169490394
      ],
      [
        "▁atlant",
        -6.7109201785828185
      ],
      [
        "▁celebrit",
        -10.97313909796923
      ],
      [
        "▁perdu",
        -10.615085990278022
      ],
      [
        "▁minute",
        -7.811016186378632
      ],
      [
        "most",
        -8.003636098482094
      ],
      [
        "▁this",
        -10.553284573521324
      ],
      [
        "▁bo",
        -6.124535547122032
      ],
      [
        "▁gra",
        -12.238890135767296
      ],
      [
        "▁po",
        -9.736513970615437
      ],
      [
        "▁monet",
        -10.783135400373645
      ],
      [
        "▁20",
        -10.758623086612115
      ],
      [
        "▁punishment",
        -11.084538039865564
      ],
      [
        "▁drawing",
        -10.12176973869357
      ],
      [
        "gg",
        -9.295097871878303
      ],
      [
        "▁magazine",
        -9.840453554190466
      ],
      [
        "▁cor",
        -10.112123094158896
      ],
      [
        "▁horror",
        -10.421378402477004
      ],
      [
        "3-16",
        -14.136905767427562
      ],
      [
        "tyler",
        -11.054904945206218
      ],
      [
        "▁balle",
        -10.447609109042723
      ],
      [
        "▁ne",
        -9.203219003485172
      ],
      [
        "al",
        -6.142243271179995
      ],
      [
        "▁handl",
        -10.323534643606212
      ],
      [
        "enc",
        -12.091943752111558
      ],
      [
        "uce",
        -10.583991819382387
      ],
      [
        "2-66",
        -13.1405769931651
      ],
      [
        "▁compensation",
        -11.084250316031385
      ],
      [
        "▁wide",
        -8.75679691041255
      ],
      [
        "▁profile",
        -10.698898574135605
      ],
      [
        "▁behavior",
        -9.385420105774497
      ],
      [
        "set",
        -10.198191725432379
      ],
      [
        "▁ones",
        -12.644688079861359
      ],
      [
        "▁explain",
        -8.51086377530072
      ],
      [
        "02",
        -11.277532520438841
      ],
      [
        "▁challenge",
        -9.233768861981016
      ],
      [
        "▁negati",
        -9.986433313723353
      ],
      [
        "▁creature",
        -10.873491934802917
      ],
      [
        "▁race",
        -10.117283403032364
      ],
      [
        "311",
        -13.198320466201267
      ],
      [
        "▁hotel",
        -8.409040478551866
      ],
      [
        "▁phenomen",
        -10.421399869634929
      ],
      [
        "▁shopp",
        -9.559939624826331
      ],
      [
        "more",
        -6.852969888899753
      ],
      [
        "-------------",
        -10.204800430093535
      ],
      [
        "▁tast",
        -10.773322848167894
      ],
      [
        "▁fever",
        -10.436682111850317
      ],
      [
        "▁mandat",
        -10.26206743608291
      ],
      [
        "▁characteristic",
        -10.783908519818201
      ],
      [
        "▁713.",
        -15.35656633532893
      ],
      [
        "▁six",
        -8.466198163007565
      ],
      [
        "▁throw",
        -8.451380294034394
      ],
      [
        "▁blu",
        -10.726064686152132
      ],
      [
        "y",
        -5.310532547169547
      ],
      [
        "▁vern",
        -9.807874327810506
      ],
      [
        "空",
        -12.833785825435129
      ],
      [
        "s",
        -2.671221203838707
      ],
      [
        "▁66",
        -12.565870066596311
      ],
      [
        "▁exception",
        -10.184496663607545
      ],
      [
        "7,5",
        -14.136437153738301
      ],
      [
        "8.",
        -12.843129431892802
      ],
      [
        "ro",
        -8.288514316799883
      ],
      [
        ".7",
        -12.93833858127602
      ],
      [
        "▁kind",
        -7.1335061063185785
      ],
      [
        "ho",
        -11.46116058329199
      ],
      [
        "▁breakfast",
        -8.595024930460319
      ],
      [
        "▁on",
        -6.050779729216608
      ],
      [
        "▁arrow",
        -9.910708445006218
      ],
      [
        "▁assembl",
        -9.986149225074179
      ],
      [
        "▁pictures",
        -8.993591438551798
      ],
      [
        "▁06/0",
        -14.136984329702415
      ],
      [
        "▁o",
        -10.961654798814937
      ],
      [
        "mmy",
        -11.137154007142037
      ],
      [
        "▁melanie",
        -10.873139982195664
      ],
      [
        "▁bla",
        -10.66547882595629
      ],
      [
        "▁consent",
        -10.786497342468856
      ],
      [
        "▁defin",
        -9.697165477846394
      ],
      [
        "▁fi",
        -14.154370951148582
      ],
      [
        "▁mat",
        -10.859128195647186
      ],
      [
        "▁bottom",
        -9.073841554591539
      ],
      [
        "▁#",
        -13.65519821920551
      ],
      [
        "altho",
        -11.741346848193063
      ],
      [
        "71",
        -11.60846397450329
      ],
      [
        "▁mode",
        -9.239071265333143
      ],
      [
        "▁20",
        -8.49387196891552
      ],
      [
        "▁monaster",
        -11.090454011677629
      ],
      [
        "kk",
        -10.129784113247265
      ],
      [
        "▁novelist",
        -10.70096777392445
      ],
      [
        "▁download",
        -10.42199723261336
      ],
      [
        "▁w.",
        -10.273830386683649
      ],
      [
        "▁have",
        -5.401484073416955
      ],
      [
        "▁reputation",
        -10.550918149433562
      ],
      [
        "▁discre",
        -11.209135483606703
      ],
      [
        "▁thirt",
        -11.589558869595724
      ],
      [
        "▁6.",
        -13.152792151780694
      ],
      [
        "▁evolv",
        -9.874936370379228
      ],
      [
        "▁order",
        -7.689555316556323
      ],
      [
        "▁penny",
        -9.93820351441487
      ],
      [
        "string",
        -11.063495038409272
      ],
      [
        "sumption",
        -9.90974152525665
      ],
      [
        "▁afterward",
        -10.111357485578354
      ],
      [
        "▁dispute",
        -10.627012346271421
      ],
      [
        "▁moistur",
        -10.698939151902037
      ],
      [
        ":32",
        -12.490201473690343
      ],
      [
        "▁01:",
        -12.702476815545065
      ],
      [
        "▁casta",
        -11.83379842846121
      ],
      [
        "▁russia",
        -9.359103812867705
      ],
      [
        "▁decide",
        -9.369211464259935
      ],
      [
        "pa",
        -13.720982255518189
      ],
      [
        "▁par",
        -10.44755595322071
      ],
      [
        "▁killing",
        -10.080638348429739
      ],
      [
        "▁employee",
        -9.45261656198875
      ],
      [
        "▁foot",
        -8.741893678836876
      ],
      [
        "v",
        -7.647845368744742
      ],
      [
        "▁albania",
        -10.362642799032344
      ],
      [
        "▁elevator",
        -9.807138041771763
      ],
      [
        "▁twirl",
        -11.085729714778335
      ],
      [
        "▁even",
        -6.782816792514361
      ],
      [
        "▁designate",
        -11.154347884831648
      ],
      [
        "▁her",
        -6.810160130538002
      ],
      [
        "...",
        -9.005493748066167
      ],
      [
        "00",
        -11.338619248245909
      ],
      [
        "i",
        -6.653357807233611
      ],
      [
        "▁statistic",
        -10.307018090689445
      ],
      [
        "▁shy",
        -10.62989802750641
      ],
      [
        "/27/200",
        -11.799692145187812
      ],
      [
        "84",
        -12.264908599423453
      ],
      [
        "!!!!!!",
        -10.851202100899231
      ],
      [
        "wi",
        -9.55300905205746
      ],
      [
        "▁cricket",
        -11.084250839927735
      ],
      [
        ".........",
        -12.588671540398494
      ],
      [
        "▁got",
        -6.471185232180018
      ],
      [
        "▁crash",
        -9.98615963372275
      ],
      [
        "▁receive",
        -8.509869303689785
      ],
      [
        "▁spore",
        -10.874514914584548
      ],
      [
        "▁noble",
        -10.260988627251932
      ],
      [
        "leur",
        -11.834203543590597
      ],
      [
        "▁ge",
        -10.184432201086087
      ],
      [
        "▁cleric",
        -10.973176579381743
      ],
      [
        "€",
        -10.750452492101797
      ],
      [
        "▁picnic",
        -10.873139364071855
      ],
      [
        "ish",
        -8.23995531956783
      ],
      [
        "▁teacher",
        -8.915643045252391
      ],
      [
        "▁tile",
        -10.87746874288479
      ],
      [
        "▁knight",
        -10.20558794290887
      ],
      [
        "mart",
        -10.440612187667245
      ],
      [
        "▁inevitabl",
        -10.550545110781142
      ],
      [
        "▁bald",
        -10.854832258179222
      ],
      [
        "be",
        -11.653583948774578
      ],
      [
        "▁oppose",
        -9.94768774642835
      ],
      [
        "arch",
        -11.028432578511733
      ],
      [
        "▁eye",
        -7.682078734997095
      ],
      [
        "▁sustain",
        -9.744585281804113
      ],
      [
        "▁permanent",
        -10.254368743501209
      ],
      [
        "▁christ",
        -8.896456994603366
      ],
      [
        "▁whee",
        -10.779511923805421
      ],
      [
        "naiss",
        -11.833792202418863
      ],
      [
        "▁2",
        -8.323821680644631
      ],
      [
        "the",
        -12.834112981039421
      ],
      [
        "uch",
        -7.387946389291424
      ],
      [
        "▁board",
        -8.796111760294771
      ],
      [
        "craft",
        -8.465931625215791
      ],
      [
        "▁harmonis",
        -10.376695013296981
      ],
      [
        "?",
        -10.782211464504321
      ],
      [
        "▁tru",
        -9.80095160367863
      ],
      [
        "▁adaptation",
        -10.975389580895667
      ],
      [
        "eta",
        -11.965038771244686
      ],
      [
        "▁giraffe",
        -10.483878358856831
      ],
      [
        "▁early",
        -7.791537078799112
      ],
      [
        "▁saudi",
        -10.067857671466427
      ],
      [
        "af",
        -13.774373078014477
      ],
      [
        ":39:",
        -13.171812098358995
      ],
      [
        "ur",
        -11.393468614066895
      ],
      [
        "▁how",
        -5.890519111671627
      ],
      [
        "▁dad",
        -8.244906562408847
      ],
      [
        "▁polaroid",
        -10.307010748358898
      ],
      [
        "▁dignit",
        -10.854460898547245
      ],
      [
        "▁flew",
        -10.698948896580314
      ],
      [
        "646-",
        -10.793300965609513
      ],
      [
        "▁disaster",
        -9.49917536486175
      ],
      [
        "31",
        -11.692241147114807
      ],
      [
        "ext",
        -7.649550094451105
      ],
      [
        "▁replac",
        -10.58485481284127
      ],
      [
        "mozilla",
        -10.973145272536604
      ],
      [
        "▁d",
        -9.553231019557947
      ],
      [
        "ctic",
        -10.556789120480966
      ],
      [
        "tan",
        -9.9321623395054
      ],
      [
        "▁tall",
        -9.475657944293513
      ],
      [
        "▁remember",
        -7.5918894277223075
      ],
      [
        "34",
        -11.423907652486516
      ],
      [
        "▁bi",
        -9.593222906502632
      ],
      [
        "6:00",
        -11.54136812453849
      ],
      [
        "▁culture",
        -8.686925573889859
      ],
      [
        "▁heaven",
        -10.362557677018103
      ],
      [
        "▁somewh",
        -10.092030388275504
      ],
      [
        "over",
        -9.637137994016882
      ],
      [
        "▁jose",
        -8.862090376119262
      ],
      [
        "▁founder",
        -10.395458056712206
      ],
      [
        "▁joe",
        -9.827669453329218
      ],
      [
        "▁dong",
        -11.004985380303683
      ],
      [
        "script",
        -11.149545452505853
      ],
      [
        "▁casual",
        -10.770752255974218
      ],
      [
        "issan",
        -10.914717631619986
      ],
      [
        "▁stoo",
        -9.17895662160593
      ],
      [
        "▁vega",
        -8.245125516575804
      ],
      [
        "igh",
        -11.333586498143701
      ],
      [
        "▁similar",
        -8.955186088950896
      ],
      [
        "ca",
        -10.50055351711131
      ],
      [
        "▁top",
        -8.030367224448653
      ],
      [
        "▁opera",
        -10.58552354899021
      ],
      [
        "▁burger",
        -10.698897093764923
      ],
      [
        "11",
        -10.407366820278074
      ],
      [
        "029",
        -14.571113188046223
      ],
      [
        "▁guard",
        -9.502258525533543
      ],
      [
        "509",
        -14.165141654191874
      ],
      [
        "57",
        -11.891159420239507
      ],
      [
        "▁excel",
        -10.025933362849285
      ],
      [
        "▁optional",
        -10.921046402742245
      ],
      [
        "▁64.7",
        -13.148243418369379
      ],
      [
        "othell",
        -11.145874770130312
      ],
      [
        "▁soldier",
        -9.574259415485042
      ],
      [
        "▁damn",
        -10.362591329913021
      ],
      [
        "▁scan",
        -10.555954591156478
      ],
      [
        "driver",
        -10.847412001356034
      ],
      [
        "one",
        -7.505439725207756
      ],
      [
        "ozen",
        -9.947276922196286
      ],
      [
        "▁react",
        -10.807208965608863
      ],
      [
        "▁times",
        -8.574374679160165
      ],
      [
        "▁antique",
        -11.088736979469513
      ],
      [
        "▁buy",
        -7.860766118257595
      ],
      [
        "▁map",
        -9.449652112771531
      ],
      [
        "333",
        -14.345008994232288
      ],
      [
        "9",
        -8.142959650847832
      ],
      [
        "acion",
        -11.365745765385471
      ],
      [
        "▁civil",
        -9.523755739504066
      ],
      [
        "▁steam",
        -10.42095619549449
      ],
      [
        "▁counsel",
        -10.306999286176705
      ],
      [
        "is",
        -7.588739761077402
      ],
      [
        "patriot",
        -11.085866536934981
      ],
      [
        "riff",
        -10.781314299648201
      ],
      [
        "▁whos",
        -9.510403012777239
      ],
      [
        "▁curat",
        -11.085247760210613
      ],
      [
        "▁q",
        -9.146647422431784
      ],
      [
        "▁less",
        -8.101930377749888
      ],
      [
        "▁whom",
        -9.933139747952437
      ],
      [
        "▁doctor",
        -8.475619130825356
      ],
      [
        "▁ruin",
        -9.948368777946149
      ],
      [
        "▁jame",
        -9.589597741223777
      ],
      [
        "▁yellow",
        -8.614741321517261
      ],
      [
        "▁kid",
        -8.09327007034939
      ],
      [
        "▁reduc",
        -10.000404195475797
      ],
      [
        "mi",
        -10.085077495834087
      ],
      [
        "▁special",
        -8.427783989984796
      ],
      [
        "▁hig",
        -10.422960124931194
      ],
      [
        "▁empt",
        -9.68728891344188
      ],
      [
        "15",
        -10.272007946672396
      ],
      [
        "▁18",
        -9.022365567867356
      ],
      [
        "cion",
        -13.357598950459646
      ],
      [
        "▁trick",
        -9.775141775574184
      ],
      [
        "t",
        -2.6296534203519837
      ],
      [
        "ion",
        -6.924539519216957
      ],
      [
        "21",
        -11.158998581851865
      ],
      [
        "▁tower",
        -10.074424294905043
      ],
      [
        "6.7",
        -13.00722535416523
      ],
      [
        "▁se",
        -12.504892474119078
      ],
      [
        "▁funnel",
        -10.78527659658753
      ],
      [
        "▁age",
        -8.441708585247868
      ],
      [
        "▁105",
        -13.812547057226544
      ],
      [
        "0",
        -7.942014689472323
      ],
      [
        "▁accus",
        -10.404098791092212
      ],
      [
        "▁routine",
        -10.254367740714734
      ],
      [
        "▁tire",
        -8.731793385837726
      ],
      [
        "▁plent",
        -9.604882645858028
      ],
      [
        "▁palace",
        -10.307009475809988
      ],
      [
        "▁presen",
        -9.751245714027014
      ],
      [
        "al.",
        -10.696464705405322
      ],
      [
        "▁accent",
        -11.083663831747039
      ],
      [
        "▁eggs",
        -8.93237515233059
      ],
      [
        "▁photograph",
        -9.336721744667937
      ],
      [
        "▁fi",
        -10.326349963524976
      ],
      [
        "▁administration",
        -9.13928665952518
      ],
      [
        "▁substantial",
        -9.780538497751099
      ],
      [
        "ito",
        -12.15234716321083
      ],
      [
        "▁4.",
        -11.347282326888081
      ],
      [
        "▁where",
        -6.23540645533923
      ],
      [
        "▁def",
        -10.450420868665107
      ],
      [
        "▁alert",
        -10.624353218131592
      ],
      [
        "▁andrew",
        -10.422066450914535
      ],
      [
        "▁pant",
        -9.262115238180751
      ],
      [
        "00",
        -9.74406713487027
      ],
      [
        "36",
        -11.652622853764742
      ],
      [
        "▁lay",
        -8.69536663533814
      ],
      [
        "▁competition",
        -9.655338706608731
      ],
      [
        "z",
        -7.849942215189802
      ],
      [
        "▁5",
        -11.486037404032146
      ],
      [
        "▁own",
        -7.355152662122665
      ],
      [
        "▁lie",
        -9.050131991599887
      ],
      [
        "▁moral",
        -8.66672178014904
      ],
      [
        "▁ga",
        -12.271472656463636
      ],
      [
        "8",
        -8.166321644259856
      ],
      [
        "▁11",
        -8.972238801626698
      ],
      [
        "▁rank",
        -9.897470499584426
      ],
      [
        "right",
        -8.178679926087064
      ],
      [
        "▁period",
        -8.361212000972992
      ],
      [
        "▁08",
        -11.701778809336425
      ],
      [
        "sis",
        -12.693411606486883
      ],
      [
        "tw",
        -10.822631328216058
      ],
      [
        "▁milk",
        -7.807794509389647
      ],
      [
        "▁pressure",
        -9.627669301113205
      ],
      [
        "4.4",
        -13.305398854713754
      ],
      [
        "▁span",
        -10.06123711532471
      ],
      [
        "▁union",
        -9.01903541359458
      ],
      [
        "▁pair",
        -9.527720273167025
      ],
      [
        "▁needles",
        -11.180646624741314
      ],
      [
        "t",
        -5.232622221240422
      ],
      [
        "▁elect",
        -10.063962431714776
      ],
      [
        "▁100",
        -9.714914411262882
      ],
      [
        "tuck",
        -9.337494254085813
      ],
      [
        "▁run",
        -8.15687094691907
      ],
      [
        "fill",
        -11.066778043188158
      ],
      [
        "▁spen",
        -8.929721768434572
      ],
      [
        "▁decline",
        -9.627884936721669
      ],
      [
        "▁whole",
        -7.92670684856751
      ],
      [
        "▁diver",
        -11.020714256186352
      ],
      [
        "▁fear",
        -9.12317845442543
      ],
      [
        "▁barn",
        -9.399672418148818
      ],
      [
        "fore",
        -8.751763233800682
      ],
      [
        "nia",
        -9.75108352246728
      ],
      [
        "▁flie",
        -9.807853956987563
      ],
      [
        "▁marx",
        -10.485231116177626
      ],
      [
        "▁litera",
        -9.55165512951099
      ],
      [
        "/news/",
        -10.698912211907688
      ],
      [
        "▁approval",
        -10.111856077959793
      ],
      [
        "se",
        -10.75939678579618
      ],
      [
        "▁trib",
        -11.031021474593175
      ],
      [
        "▁reservation",
        -10.421378360632154
      ],
      [
        "▁consequent",
        -10.873139098249045
      ],
      [
        "4-79",
        -13.475737153577203
      ],
      [
        "▁w",
        -8.44909452292899
      ],
      [
        "▁sh",
        -8.65026203836372
      ],
      [
        "av",
        -14.112756966059498
      ],
      [
        "▁2.0",
        -11.449299207262337
      ],
      [
        "▁attain",
        -10.873550511772436
      ],
      [
        "▁appointment",
        -9.743612168039979
      ],
      [
        "▁scheme",
        -10.621975799622549
      ],
      [
        "▁refus",
        -9.81821068947286
      ],
      [
        "▁owl",
        -10.038634923040693
      ],
      [
        "▁pos",
        -9.862834444783369
      ],
      [
        "▁low",
        -8.654194471717037
      ],
      [
        "▁devis",
        -10.87324435224186
      ],
      [
        "▁09/",
        -14.713481892351867
      ],
      [
        "▁failure",
        -9.74369376114488
      ],
      [
        "▁+4",
        -13.201922390698044
      ],
      [
        "▁=",
        -10.869655881095504
      ],
      [
        "e@enron",
        -12.234679402461264
      ],
      [
        "▁robin",
        -9.208700614259357
      ],
      [
        "▁battle",
        -9.840884283451304
      ],
      [
        "..",
        -11.613151332723895
      ],
      [
        "---->",
        -11.77556405770272
      ],
      [
        "▁2.",
        -12.031407598511363
      ],
      [
        "avia",
        -10.558225672703909
      ],
      [
        "▁deposit",
        -10.669935623028433
      ],
      [
        "4",
        -9.551184002865783
      ],
      [
        "▁167",
        -13.95653885147384
      ],
      [
        "▁hil",
        -11.033613786924562
      ],
      [
        "▁topic",
        -9.843276334321182
      ],
      [
        "▁angle",
        -10.707286844098736
      ],
      [
        "▁telephone",
        -9.574805872846179
      ],
      [
        "▁venezuela",
        -11.20925020892993
      ],
      [
        "eight",
        -11.16883579998074
      ],
      [
        "▁basi",
        -9.223738261959738
      ],
      [
        "isfa",
        -10.985266463584303
      ],
      [
[...]
