{
  "version": "1.0",
  "truncation": null,
  "padding": null,
  "added_tokens": [
    {
      "id": 1143,
      "content": "[UNK]",
      "single_word": false,
      "lstrip": false,
      "rstrip": false,
      "normalized": false,
      "special": true
    },
    {
      "id": 1659,
      "content": "[MASK]",
      "single_word": false,
      "lstrip": false,
      "rstrip": false,
      "normalized": false,
      "special": true
    },
    {
      "id": 8582,
      "content": "[CLS]",
      "single_word": false,
      "lstrip": false,
      "rstrip": false,
      "normalized": false,
      "special": true
    },
    {
      "id": 11415,
      "content": "[SEP]",
      "single_word": false,
      "lstrip": false,
      "rstrip": false,
      "normalized": false,
      "special": true
    },
    {
      "id": 12192,
      "content": "[PAD]",
      "single_word": false,
      "lstrip": false,
      "rstrip": false,
      "normalized": false,
      "special": true
    }
  ],
  "normalizer": {
    "type": "Sequence",
    "normalizers": [
      {
        "type": "NFD"
      },
      {
        "type": "Lowercase"
      },
      {
        "type": "StripAccents"
      }
    ]
  },
  "pre_tokenizer": {
    "type": "Sequence",
    "pretokenizers": [
      {
        "type": "Metaspace",
        "replacement": "▁",
        "prepend_scheme": "always",
        "split": true
      }
    ]
  },
  "post_processor": {
    "type": "TemplateProcessing",
    "single": [
      {
        "SpecialToken": {
          "id": "[CLS]",
          "type_id": 0
        }
      },
      {
        "Sequence": {
          "id": "A",
          "type_id": 0
        }
      },
      {
        "SpecialToken": {
          "id": "[SEP]",
          "type_id": 0
        }
      }
    ],
    "pair": [
      {
        "SpecialToken": {
          "id": "[CLS]",
          "type_id": 0
        }
      },
      {
        "Sequence": {
          "id": "A",
          "type_id": 0
        }
      },
      {
        "SpecialToken": {
          "id": "[SEP]",
          "type_id": 0
        }
      },
      {
        "Sequence": {
          "id": "B",
          "type_id": 1
        }
      },
      {
        "SpecialToken": {
          "id": "[SEP]",
          "type_id": 1
        }
      }
    ],
    "special_tokens": {
      "[CLS]": {
        "id": "[CLS]",
        "ids": [
          8582
        ],
        "tokens": [
          "[CLS]"
        ]
      },
      "[SEP]": {
        "id": "[SEP]",
        "ids": [
          11415
        ],
        "tokens": [
          "[SEP]"
        ]
      }
    }
  },
  "decoder": {
    "type": "Metaspace",
    "replacement": "▁",
    "prepend_scheme": "always",
    "split": true
  },
  "model": {
    "type": "Unigram",
    "unk_id": 1143,
    "vocab": [
      [
        "profit",
        -11.899278576534886
      ],
      [
        "violet",
        -13.728750079438386
      ],
      [
        "▁prosper",
        -10.080216592856212
      ],
      [
        "di",
        -11.345092246721594
      ],
      [
        "▁ranch",
        -11.943366004277415
      ],
      [
        "pour",
        -12.233860644690978
      ],
      [
        "▁kent",
        -9.922484047122595
      ],
      [
        "▁nomin",
        -13.485055030865226
      ],
      [
        "gon",
        -11.216333894601517
      ],
      [
        "twenty",
        -11.271913807343168
      ],
      [
        "▁thirteen",
        -11.687834732174885
      ],
      [
        "▁driv",
        -8.744765231871838
      ],
      [
        "▁cath",
        -11.162594394934507
      ],
      [
        "▁fixture",
        -11.688404233934422
      ],
      [
        "▁proportion",
        -11.065378708185026
      ],
      [
        "▁recipe",
        -10.942061138294013
      ],
      [
        "▁sense",
        -8.712814679242632
      ],
      [
        "▁amazing",
        -9.027143986399508
      ],
      [
        "etho",
        -12.187756915019783
      ],
      [
        "55",
        -11.29034389136408
      ],
      [
        "▁vaga",
        -12.79105464753926
      ],
      [
        "▁involve",
        -9.029128264276164
      ],
      [
        "▁tru",
        -9.802438826210963
      ],
      [
        "▁spiral",
        -11.487696396643129
      ],
      [
        "▁consistent",
        -10.174166794780154
      ],
      [
        "▁jaw",
        -11.69648975045567
      ],
      [
        "▁acro",
        -10.874596668297068
      ],
      [
        "▁lisa",
        -11.941259589044439
      ],
      [
        "▁seat",
        -8.643977433620778
      ],
      [
        "81/",
        -13.487246071593466
      ],
      [
        "▁pashtun",
        -12.271024921967433
      ],
      [
        "▁cran",
        -10.950993326631199
      ],
      [
        "▁!?!",
        -14.014058543488009
      ],
      [
        "co.",
        -11.64451470669305
      ],
      [
        "▁minded",
        -11.795064450152303
      ],
      [
        "▁outlin",
        -13.462138077330145
      ],
      [
        "mexic",
        -12.735144832167114
      ],
      [
        "@e",
        -12.090087232157849
      ],
      [
        "-04",
        -14.123579800210047
      ],
      [
        "▁fried",
        -11.103922503943112
      ],
      [
        "eter",
        -11.834159184535453
      ],
      [
        "▁up",
        -6.837071724465327
      ],
      [
        "▁tie",
        -8.626873339883655
      ],
      [
        "山",
        -12.833785825435129
      ],
      [
        "▁goat",
        -9.899759906246976
      ],
      [
        "▁initiate",
        -10.376718083524063
      ],
      [
        "▁sides",
        -10.51808645714146
      ],
      [
        "ommer",
        -13.591582988814876
      ],
      [
        "oming",
        -11.768811367263895
      ],
      [
        "▁extradit",
        -11.75604044908593
      ],
      [
        "croft",
        -12.745824911614077
      ],
      [
        "vous",
        -12.553446107218154
      ],
      [
        "▁pixie",
        -10.944458500625638
      ],
      [
        "▁gui",
        -13.559721839157083
      ],
      [
        "que",
        -9.816876698840336
      ],
      [
        "▁treatment",
        -9.234435729401286
      ],
      [
        "talent",
        -12.234874935018127
      ],
      [
        "▁loop",
        -10.942787440513829
      ],
      [
        "▁broker",
        -11.243469123895155
      ],
      [
        "▁suspens",
        -11.687691938190383
      ],
      [
        "▁mule",
        -11.960887158742034
      ],
      [
        "▁bock",
        -11.323787492478456
      ],
      [
        "▁dust",
        -9.479011163437233
      ],
      [
        "▁measur",
        -10.65689219921313
      ],
      [
        "▁guardian",
        -11.334832963598735
      ],
      [
        "05",
        -11.657236866837444
      ],
      [
        "▁other",
        -6.1637655215940175
      ],
      [
        "▁hesitation",
        -11.687941510019003
      ],
      [
        "▁livelihood",
        -12.27164854712536
      ],
      [
        "▁venu",
        -11.156537059213145
      ],
      [
        "kash",
        -10.544107282789938
      ],
      [
        "▁jawahar",
        -12.77106659296922
      ],
      [
        "▁weird",
        -10.390299939885958
      ],
      [
        "▁speech",
        -9.776037855607964
      ],
      [
        "current",
        -11.677354195180383
      ],
      [
        "▁resid",
        -12.865785721178495
      ],
      [
        "▁strike",
        -9.810128127346346
      ],
      [
        "felines.",
        -12.771027634627496
      ],
      [
        "▁sniff",
        -11.687703416684432
      ],
      [
        "▁play",
        -6.602180110944166
      ],
      [
        "▁where",
        -8.802452388749018
      ],
      [
        "fifty",
        -13.529294893685876
      ],
      [
        "▁nephew",
        -10.590893919448114
      ],
      [
        "85",
        -12.218760611373044
      ],
      [
        "▁beat",
        -9.520165746024642
      ],
      [
        "by",
        -12.224966037375024
      ],
      [
        "184",
        -12.62128093123546
      ],
      [
        "e-by-",
        -12.794765708278835
      ],
      [
        "▁hostilit",
        -12.896944486156643
      ],
      [
        "▁reschedul",
        -13.060163264663025
      ],
      [
        "▁perceiv",
        -11.862548970907277
      ],
      [
        "▁exclusive",
        -11.055309593632382
      ],
      [
        "▁dra",
        -11.397091660772798
      ],
      [
        "astings",
        -11.324989226239605
      ],
      [
        "▁kings",
        -12.098092825298352
      ],
      [
        "globe",
        -10.385743647710548
      ],
      [
        "09",
        -12.762023167345363
      ],
      [
        "▁whi",
        -11.395813196033988
      ],
      [
        "string",
        -11.021069769334972
      ],
      [
        "stani",
        -13.543988743299835
      ],
      [
        "▁enthusias",
        -11.17259667688213
      ],
      [
        "gan",
        -8.67652123182162
      ],
      [
        "▁reasonabl",
        -9.380334138544097
      ],
      [
        "▁thorough",
        -10.519490503767438
      ],
      [
        "▁`",
        -11.280003543173743
      ],
      [
        "ka",
        -9.462469678476062
      ],
      [
        "▁head",
        -7.456730706335017
      ],
      [
        "▁literat",
        -11.469248658478849
      ],
      [
        "1-",
        -13.88331746913178
      ],
      [
        "par",
        -13.357597323378913
      ],
      [
        "54",
        -12.936357879777361
      ],
      [
        "▁muc",
        -6.861187681563362
      ],
      [
        "ng",
        -9.253063729680559
      ],
      [
        "▁vigilant",
        -12.274421717585273
      ],
      [
        "kept",
        -8.681752012304464
      ],
      [
        "▁climb",
        -9.177433091050627
      ],
      [
        "overt",
        -11.336755311614153
      ],
      [
        "fide",
        -12.32369688941346
      ],
      [
        ".com",
        -8.452583343577157
      ],
      [
        "▁bath+",
        -11.321197178704669
      ],
      [
        "▁for",
        -5.030157282061143
      ],
      [
        "▁haphazard",
        -12.271024919402347
      ],
      [
        "raz",
        -12.288098988449617
      ],
      [
        "baath",
        -12.72936703990954
      ],
      [
        "---------------",
        -9.308357502044146
      ],
      [
        "father",
        -11.653516145745678
      ],
      [
        "▁reache",
        -10.336151501741366
      ],
      [
        "▁fa",
        -12.47731390070696
      ],
      [
        ".a.b",
        -12.797922531760909
      ],
      [
        "anna",
        -11.763191867768018
      ],
      [
        "shirt",
        -12.232492843880397
      ],
      [
        "thoma",
        -9.517939220329524
      ],
      [
        "factor",
        -12.73596989197257
      ],
      [
        "▁grasshopper",
        -12.771096630800264
      ],
      [
        "▁rigor",
        -12.172801805440292
      ],
      [
        "▁ticket",
        -8.544847712256324
      ],
      [
        "▁repress",
        -12.114848419277898
      ],
      [
        "▁10:5",
        -11.912176536891272
      ],
      [
        "▁trace",
        -11.121886467385858
      ],
      [
        "castgobl.htm",
        -12.771024918841217
      ],
      [
        "▁bata",
        -12.586925231956643
      ],
      [
        "ewr",
        -11.940568608049203
      ],
      [
        "shal",
        -11.894227517962465
      ],
      [
        "▁poor",
        -8.535721901388484
      ],
      [
        "ampa",
        -8.958060741221669
      ],
      [
        "dale",
        -10.734242667530296
      ],
      [
        "▁upside",
        -10.230683487580022
      ],
      [
        "▁big",
        -6.931834620961387
      ],
      [
        "▁ponder",
        -12.273443006311885
      ],
      [
        "▁coincid",
        -13.22226024080296
      ],
      [
        "▁enhanc",
        -12.182235330473238
      ],
      [
        "▁hesitate",
        -11.074544752877156
      ],
      [
        "european",
        -12.232210468638682
      ],
      [
        "86",
        -13.724592257316516
      ],
      [
        "▁worry",
        -9.74408944004383
      ],
      [
        "▁yu",
        -12.233343007926692
      ],
      [
        "▁officer",
        -9.638921675089435
      ],
      [
        "111",
        -12.788292034875846
      ],
      [
        "▁conjecture",
        -12.271024918885125
      ],
      [
        "▁glid",
        -12.52359750672339
      ],
      [
        "▁caper",
        -12.94684859270662
      ],
      [
        "▁expell",
        -12.276364272458379
      ],
      [
        "erial",
        -12.74957940094157
      ],
      [
        "▁o'",
        -12.047994107110751
      ],
      [
        "▁sell",
        -9.127424656925625
      ],
      [
        "white",
        -13.68340573543021
      ],
      [
        "trina",
        -10.89231954910543
      ],
      [
        "▁malfo",
        -10.455817294058724
      ],
      [
        "▁merit",
        -10.754489179927473
      ],
      [
        "▁529999",
        -13.136774160688283
      ],
      [
        "▁cha",
        -11.250268752536995
      ],
      [
        "▁metaphor",
        -11.687691644989723
      ],
      [
        "▁wizard",
        -10.036733443580845
      ],
      [
        "▁celebrate",
        -11.450206146880936
      ],
      [
        "pepsi",
        -11.93991152655491
      ],
      [
        "arren",
        -11.964474324390993
      ],
      [
        "▁coco",
        -10.173751983362305
      ],
      [
        "▁elude",
        -12.771680067265516
      ],
      [
        "▁'s",
        -7.311381987660565
      ],
      [
        "research",
        -12.2327474915599
      ],
      [
        "▁sad",
        -9.219677191880958
      ],
      [
        "hail",
        -12.72703697833333
      ],
      [
        "▁kinsm",
        -12.598609007549049
      ],
      [
        "▁wrinkl",
        -13.333921055981332
      ],
      [
        "▁error",
        -9.421258830019289
      ],
      [
        "▁apologetic",
        -12.790028385061218
      ],
      [
        ".asp?",
        -13.495294022592157
      ],
      [
        "-696",
        -14.0991084797417
      ],
      [
        "▁engag",
        -10.805598318943037
      ],
      [
        "▁freez",
        -11.184695085302927
      ],
      [
        "▁maximiz",
        -12.271643277350536
      ],
      [
        "▁pound",
        -10.391801741254
      ],
      [
        "▁slip",
        -11.050676801150738
      ],
      [
        "▁chi",
        -11.169852769982585
      ],
      [
        "generalization",
        -13.72526078987588
      ],
      [
        "▁hunt",
        -10.081654779745259
      ],
      [
        "▁t",
        -8.335420785946603
      ],
      [
        "▁involvement",
        -10.455468384427927
      ],
      [
        "▁speci",
        -9.419204823004094
      ],
      [
        "▁descendant",
        -11.487848532632956
      ],
      [
        "▁apple",
        -9.353553001722844
      ],
      [
        "▁fu",
        -10.818085774961895
      ],
      [
        "▁acknowledge",
        -10.232333374430077
      ],
      [
        "▁lo",
        -9.680443866208737
      ],
      [
        "hol",
        -9.179843414434611
      ],
      [
        "andy",
        -10.241894915144922
      ],
      [
        "▁tribe",
        -10.682473512709375
      ],
      [
        "▁perve",
        -11.716235691192754
      ],
      [
        "68",
        -12.671792861668479
      ],
      [
        "aq=",
        -12.774020645708486
      ],
      [
        "iriya",
        -12.774903846927508
      ],
      [
        "▁fraz",
        -13.574744022436285
      ],
      [
        "▁weight",
        -9.549188787451474
      ],
      [
        "▁in",
        -5.625432472469344
      ],
      [
        "▁fetch",
        -11.68786597571241
      ],
      [
        "▁how",
        -8.861903242976682
      ],
      [
        "▁weasley",
        -9.569446934664981
      ],
      [
        ":5",
        -14.280357869335674
      ],
      [
        "▁beneficiar",
        -12.943696140839371
      ],
      [
        "▁cpc",
        -12.276847222286536
      ],
      [
        "▁rollercoaster",
        -12.771024918844963
      ],
      [
        "▁resource",
        -9.387251370215484
      ],
      [
        "u.edu/",
        -13.518272569228513
      ],
      [
        "r...@",
        -12.814649000039054
      ],
      [
        "▁wildernes",
        -11.321151851714745
      ],
      [
        "▁dwarf",
        -10.844210069545367
      ],
      [
        "2007",
        -10.590895164732354
      ],
      [
        "▁audibl",
        -12.273061865590043
      ],
      [
        "▁tatter",
        -12.774511923889808
      ],
      [
        "▁03:3",
        -13.301144353011441
      ],
      [
        "▁unwilling",
        -12.271043391640895
      ],
      [
        "▁sunk",
        -10.845159339929625
      ],
      [
        "▁bottl",
        -12.74374328367688
      ],
      [
        "▁interview",
        -8.874069182878905
      ],
      [
        "▁baha",
        -12.99453582458455
      ],
      [
        "ilk",
        -13.481009127421249
      ],
      [
        "inhabit",
        -13.732269286009466
      ],
      [
        "▁pho",
        -11.052627346286553
      ],
      [
        "▁01/2",
        -13.14262021468103
      ],
      [
        "▁geograph",
        -11.937546970544918
      ],
      [
        "news.bbc.co.uk/",
        -12.79136707721751
      ],
      [
        "▁shirt",
        -8.858339863134654
      ],
      [
        "▁flu",
        -11.46378789049423
      ],
      [
        "▁immac",
        -12.77103671276266
      ],
      [
        "▁excuse",
        -9.879759193511104
      ],
      [
        "▁replac",
        -10.802801356664279
      ],
      [
        "asso",
        -13.108819803824849
      ],
      [
        "▁10:",
        -12.180176153817651
      ],
      [
        "▁shep",
        -11.332641351614523
      ],
      [
        "grad",
        -12.99028314489308
      ],
      [
        "▁ironic",
        -10.754563764707884
      ],
      [
        "ful",
        -7.924630822897183
      ],
      [
        "▁eligib",
        -11.178197655152236
      ],
      [
        "chan",
        -13.448786881018389
      ],
      [
        "storm",
        -11.90006620453752
      ],
      [
        "bean",
        -11.932299394976173
      ],
      [
        "5-9",
        -14.137390615099072
      ],
      [
        "▁oriental",
        -11.946097836419563
      ],
      [
        "mobile",
        -11.646211508558016
      ],
      [
        "▁milk",
        -7.776440351307286
      ],
      [
        "▁revers",
        -10.837126512251643
      ],
      [
        "▁caesar",
        -11.68779912839363
      ],
      [
        "▁oop",
        -12.700275758211907
      ],
      [
        "tours",
        -13.394891764570408
      ],
      [
        "▁defend",
        -10.448849842177761
      ],
      [
        "ausch",
        -12.819351779634644
      ],
      [
        "▁skin",
        -9.391386879206362
      ],
      [
        "▁three-",
        -12.772671108940942
      ],
      [
        "ania",
        -10.525527851988294
      ],
      [
        "▁num",
        -11.689565112383082
      ],
      [
        "every",
        -9.955181868268271
      ],
      [
        "ked",
        -10.891497111084528
      ],
      [
        "▁violat",
        -11.686560055620461
      ],
      [
        "uri",
        -12.825034601697078
      ],
      [
        "▁building",
        -8.49238001915936
      ],
      [
        "▁crowd",
        -9.448093682038333
      ],
      [
        "▁grabb",
        -10.634165256154638
      ],
      [
        "itin",
        -11.201174102507906
      ],
      [
        "▁access",
        -7.918466840315139
      ],
      [
        "▁sometime",
        -8.026281844977754
      ],
      [
        "▁castle",
        -11.49600854358431
      ],
      [
        "▁rug",
        -9.815128823593644
      ],
      [
        "▁i.",
        -12.729913140100805
      ],
      [
        "▁long-",
        -11.561128491724181
      ],
      [
        "▁radiant",
        -12.271789271596246
      ],
      [
        "▁ali",
        -10.973937734596689
      ],
      [
        "▁co",
        -8.904656448230618
      ],
      [
        "▁wishe",
        -10.722476936709473
      ],
      [
        "▁sj",
        -11.079100537701738
      ],
      [
        "▁bark",
        -11.556229616653056
      ],
      [
        "dding",
        -13.192298373781625
      ],
      [
        "▁driveway",
        -11.692335115605708
      ],
      [
        "▁ugl",
        -10.759410492040603
      ],
      [
        "▁disadvantage",
        -12.27102492484887
      ],
      [
        "▁withdraw",
        -10.45279593341425
      ],
      [
        "help",
        -12.757863410658857
      ],
      [
        "▁context",
        -9.468111161291088
      ],
      [
        "▁gil",
        -11.33391771271156
      ],
      [
        "sonic.net",
        -11.937751705157668
      ],
      [
        "▁maz",
        -12.63330261806017
      ],
      [
        "aimed",
        -12.146847218571839
      ],
      [
        "▁quiet",
        -9.291855120078878
      ],
      [
        "▁came",
        -7.576354369224418
      ],
      [
        "▁cold",
        -8.39053869046225
      ],
      [
        "▁scroll",
        -12.27108149415593
      ],
      [
        "▁v-",
        -12.784488019523803
      ],
      [
        "▁capr",
        -13.235954990637296
      ],
      [
        "▁joking",
        -11.17855832974578
      ],
      [
        "▁orphan",
        -11.937691858454086
      ],
      [
        "▁post-",
        -11.358807911431514
      ],
      [
        "▁harbour",
        -11.178174598517858
      ],
      [
        "θ",
        -12.833785825435129
      ],
      [
        "▁procrastinati",
        -12.696124664373245
      ],
      [
        "▁gloat",
        -12.773524502638313
      ],
      [
        "52",
        -12.892883250364989
      ],
      [
        "▁assault",
        -10.452834797572404
      ],
      [
        "▁shopkeeper",
        -12.771278512349983
      ],
      [
        "▁profound",
        -11.05318862486903
      ],
      [
        "quili",
        -11.184270844714355
      ],
      [
        "beth",
        -11.475480556026694
      ],
      [
        "bbc",
        -10.946516754670881
      ],
      [
        "clamation",
        -11.687744878454268
      ],
      [
        "▁humming",
        -11.96062300568499
      ],
      [
        "▁democratic",
        -9.520373473405943
      ],
      [
        "▁calm",
        -9.80369621647774
      ],
      [
        "▁juror",
        -12.274035997711913
      ],
      [
        "▁vacu",
        -10.942083178258725
      ],
      [
        "▁parakeet",
        -10.519464654484405
      ],
      [
        "▁transfer",
        -9.91176734407943
      ],
      [
        "▁portrait",
        -11.178167840100633
      ],
      [
        "pm",
        -10.910803217760098
      ],
      [
        "▁clay",
        -9.999050002707822
      ],
      [
        "n",
        -5.519064509348424
      ],
      [
        "▁scor",
        -11.391871539473751
      ],
      [
        "▁cocktail",
        -10.17328630736981
      ],
      [
        "ushi",
        -10.421341066113708
      ],
      [
        "▁210",
        -12.59373170075374
      ],
      [
        "▁bees",
        -11.599280679140284
      ],
      [
        "▁semina",
        -11.322306382198795
      ],
      [
        "recht",
        -12.27487758042835
      ],
      [
        "minat",
        -12.59926025956432
      ],
      [
        "▁conceptualiz",
        -12.778011405332752
      ],
      [
        "▁friendl",
        -10.116825321968912
      ],
      [
        "▁robert",
        -9.671322795818254
      ],
      [
        "▁return",
        -7.859268305072743
      ],
      [
        "▁01/19/",
        -12.359978021860883
      ],
      [
        ":14",
        -12.457220388685272
      ],
      [
        "▁x33",
        -11.93991825188356
      ],
      [
        "▁detract",
        -13.711720443291117
      ],
      [
        "▁mushroom",
        -10.519653910596336
      ],
      [
        "▁task",
        -9.312284787286542
      ],
      [
        "▁nowhere",
        -10.240859157203712
      ],
      [
        "psy",
        -12.624903118978066
      ],
      [
        "lugu",
        -12.77192750554875
      ],
      [
        "▁gratifi",
        -13.727799259063177
      ],
      [
        "vi",
        -13.271633197609209
      ],
      [
        "'re",
        -11.327156067801907
      ],
      [
        "▁spell",
        -9.19569812174753
      ],
      [
        "▁damn",
        -10.332866063449135
      ],
      [
        "▁case",
        -7.758551004232088
      ],
      [
        "▁charge",
        -8.523749112205376
      ],
      [
        "▁lay",
        -8.659272353617332
      ],
      [
        "▁pal",
        -11.011786454927975
      ],
      [
        "nte",
        -11.329980172230282
      ],
      [
        "/",
        -6.3884726436073205
      ],
      [
        "ial",
        -9.02542358480665
      ],
      [
        "▁dori",
        -11.357380646172034
      ],
      [
        "▁tai",
        -11.626074112168432
      ],
      [
        "▁creep",
        -11.487701458590399
      ],
      [
        "▁killie",
        -12.157775662076551
      ],
      [
        "▁wet-nurse",
        -12.77102491894749
      ],
      [
        "09/",
        -12.77251883325585
      ],
      [
        "want",
        -13.095949535631076
      ],
      [
        "ock",
        -11.454422571505313
      ],
      [
        "▁drizzle",
        -12.370055109604824
      ],
      [
        "▁kuwait",
        -11.178167853639184
      ],
      [
        "hbow",
        -12.817832018228794
      ],
      [
        "th",
        -8.187693223871944
      ],
      [
        "▁grist",
        -12.791555396673013
      ],
      [
        "hart",
        -11.031813940837573
      ],
      [
        "▁mass",
        -9.319475684163784
      ],
      [
        "destructi",
        -13.728945133970363
      ],
      [
        "ecutive",
        -12.771017651485858
      ],
      [
        "▁future",
        -8.27024694663783
      ],
      [
        "▁articulat",
        -11.937691631715083
      ],
      [
        "▁profile",
        -10.667845020589416
      ],
      [
        "▁situat",
        -11.177611369324573
      ],
      [
        "ncre",
        -11.980058673444756
      ],
      [
        "▁adventur",
        -12.610294443901388
      ],
      [
        "▁a5-010",
        -12.771024925503074
      ],
      [
        "savic-",
        -12.771025066427876
      ],
      [
        "▁taiwan",
        -10.036736937217828
      ],
      [
        "▁messag",
        -11.684484762892899
      ],
      [
        "steps",
        -12.926557636840096
      ],
      [
        ".enron.com/",
        -12.771163169655367
      ],
      [
        "▁cache",
        -12.794573863941748
      ],
      [
        "▁curious",
        -10.390466606137846
      ],
      [
        "▁10,000",
        -11.468522943360597
      ],
      [
        "▁succumb",
        -12.27102567473998
      ],
      [
        "▁:",
        -7.256476862053417
      ],
      [
        "▁reported",
        -9.351432855705609
      ],
      [
        "▁trunk",
        -10.519472150008944
      ],
      [
        "oid",
        -11.357608478404986
      ],
      [
        "▁unru",
        -12.776858219960651
      ],
      [
        "▁tickl",
        -11.363544506971907
      ],
      [
        "▁08:3",
        -12.515232474275917
      ],
      [
        "rbara",
        -11.477645660884566
      ],
      [
        "▁roy",
        -12.808749291494141
      ],
      [
        "thom",
        -13.707249860982206
      ],
      [
        "▁mysterious",
        -10.942214089038595
      ],
      [
        "▁łodz",
        -12.833783221425183
      ],
      [
        "▁acid",
        -11.812968534012015
      ],
      [
        "▁exam",
        -10.331221419098249
      ],
      [
        "▁unload",
        -11.488603507301097
      ],
      [
        "bulb",
        -12.732727812210795
      ],
      [
        "breede",
        -13.625195690830784
      ],
      [
        "racle",
        -11.938714678803432
      ],
      [
        "nnis",
        -11.64205808318718
      ],
      [
        "▁intrus",
        -12.303842573816297
      ],
      [
        "▁neut",
        -12.773782025313269
      ],
      [
        "▁shel",
        -9.882889803634926
      ],
      [
        "▁terra",
        -11.584976017875569
      ],
      [
        "▁savage",
        -10.45305650381771
      ],
      [
        "▁1.8",
        -13.505533095204397
      ],
      [
        "▁tremble",
        -12.879767109939227
      ],
      [
        "▁doin",
        -13.246082534411409
      ],
      [
        "▁limb",
        -10.279254871447757
      ],
      [
        "▁yoyo",
        -10.942063672511331
      ],
      [
        "▁tupper",
        -12.43715603031335
      ],
      [
        "cane",
        -11.13937717550721
      ],
      [
        "ła",
        -12.402987069181767
      ],
      [
        "$",
        -6.573299397139614
      ],
      [
        "1/01",
        -12.746409468391521
      ],
      [
        "▁conclude",
        -9.9946566613845
      ],
      [
        "▁reconcili",
        -10.665016635522163
      ],
      [
        "nope",
        -10.16052372566733
      ],
      [
        "bes",
        -12.849014156149368
      ],
      [
        "tensibl",
        -12.770503119087106
      ],
      [
        "▁partnership",
        -10.390459609320258
      ],
      [
        "▁24",
        -9.636353922881266
      ],
      [
        "inter",
        -12.246162188309896
      ],
      [
        "▁notic",
        -12.490544993663441
      ],
      [
        "▁hawai",
        -13.675913199703906
      ],
      [
        "▁crest",
        -11.940802126991567
      ],
      [
        "nd",
        -8.038269447322932
      ],
      [
        "▁perk",
        -12.031253741052307
      ],
      [
        "▁eulogi",
        -12.92413226678204
      ],
      [
        "▁wide",
        -8.741421786543565
      ],
      [
        "▁transit",
        -10.516773170275481
      ],
      [
        "▁sp",
        -12.671007000253535
      ],
      [
        "stool",
        -11.92421680500284
      ],
      [
        "avid",
        -11.937134411691318
      ],
      [
        "▁brend",
        -12.73737895847952
      ],
      [
        "ak",
        -11.082005571846397
      ],
      [
        "▁work",
        -6.468929091501935
      ],
      [
        "▁ansi",
        -10.390052378352504
      ],
      [
        "▁08:2",
        -12.405270304354552
      ],
      [
        "▁begin",
        -8.966992283624855
      ],
      [
        "▁solemn",
        -11.901897713112385
      ],
      [
        "449",
        -14.15307238737037
      ],
      [
        "▁biologist",
        -11.32416790492083
      ],
      [
        "term",
        -11.909402883056751
      ],
      [
        "005",
        -12.77230000415905
      ],
      [
        "▁79",
        -13.348276525599443
      ],
      [
        "▁availab",
        -7.726256465663715
      ],
      [
        "▁stig",
        -13.41203505346259
      ],
      [
        "rez",
        -13.057736546319969
      ],
      [
        "▁religion",
        -9.715578214806577
      ],
      [
        "▁se",
        -10.095532432548879
      ],
      [
        "▁duplic",
        -12.271030449921858
      ],
      [
        "▁trillion",
        -12.771035228229042
      ],
      [
        "▁mobil",
        -13.697543034347834
      ],
      [
        "800",
        -13.54671565181609
      ],
      [
        "▁mimick",
        -12.279409852708211
      ],
      [
        "simplif",
        -13.700645346035648
      ],
      [
        "ncr",
        -12.760459632661377
      ],
      [
        "420",
        -13.637063103502198
      ],
      [
        "▁square",
        -8.624507874026229
      ],
      [
        "▁admit",
        -10.479301819799014
      ],
      [
        "▁gau",
        -12.078692931580795
      ],
      [
        "asher",
        -12.766581992855498
      ],
      [
        "▁stut",
        -13.571397144101274
      ],
      [
        "▁pet",
        -9.104914656462574
      ],
      [
        "/2005.09/200509",
        -10.941974639705503
      ],
      [
        "tangle",
        -11.881843919984354
      ],
      [
        "ear",
        -13.112130995609688
      ],
      [
        "▁warning",
        -10.34364144469452
      ],
      [
        "icles",
        -9.425206877610412
      ],
      [
        "▁sonnet",
        -10.452943441735764
      ],
      [
        "▁ghaza",
        -12.771362881861627
      ],
      [
        "▁galler",
        -10.857263759951715
      ],
      [
        "▁merr",
        -12.775166582216919
      ],
      [
        "▁axe",
        -12.8111912871486
      ],
      [
        "▁bernard",
        -10.942070835545112
      ],
      [
        "▁mustan",
        -12.864916644508614
      ],
      [
        "▁cyna",
        -12.775924001915374
      ],
      [
        "ceptib",
        -13.678510277092723
      ],
      [
        "▁celebration",
        -10.453123580216841
      ],
      [
        "ن",
        -12.833785825435129
      ],
      [
        "original",
        -13.733256009250875
      ],
      [
        "▁kendr",
        -12.607296816439124
      ],
      [
        "▁vautrin",
        -12.771024962337496
      ],
      [
        "▁productive",
        -10.985867492815363
      ],
      [
        "72",
        -11.805627956002983
      ],
      [
        "-3",
        -13.712013158203753
      ],
      [
        "▁olympic",
        -10.519616280687757
      ],
      [
        "5-2",
        -13.171837843619866
      ],
      [
        "over",
        -10.135244341423348
      ],
      [
        "▁provide",
        -7.765210599452035
      ],
      [
        "▁11:0",
        -11.779412810543928
      ],
      [
        "▁precaution",
        -11.937691598891888
      ],
      [
        "▁calibrat",
        -12.77103191502827
      ],
      [
        "▁hodg",
        -11.326548829581684
      ],
      [
        "graphic",
        -11.797587969950294
      ],
      [
        "▁gtc",
        -11.93798898804232
      ],
      [
        "▁bagg",
        -10.951051012175721
      ],
      [
        "▁walrus",
        -12.271523584018539
      ],
      [
        "▁infrequent",
        -12.771024919431188
      ],
      [
        "▁gravitat",
        -13.596791273674892
      ],
      [
        "▁there",
        -6.089283971427022
      ],
      [
        "656",
        -15.204647324905137
      ],
      [
        "▁nude",
        -11.68990349632138
      ],
      [
        "▁every",
        -7.080078169630708
      ],
      [
        "▁01:3",
        -12.365376718875854
      ],
      [
        ";",
        -12.771024918880485
      ],
      [
        "▁defendant",
        -11.321297113644484
      ],
      [
        "▁spreading",
        -11.267962599725866
      ],
      [
        "ul",
        -12.818709659508759
      ],
      [
        "▁kh",
        -11.834523457572555
      ],
      [
        "▁civilian",
        -10.668264835399988
      ],
      [
        "▁dry",
        -8.749805165641732
      ],
      [
        "▁consequent",
        -10.84205678552796
      ],
      [
        "▁unca",
        -13.227879498444654
      ],
      [
        "▁await",
        -10.751161186035898
      ],
      [
        "▁bounce",
        -11.215098949469564
      ],
      [
        "▁negotiate",
        -11.078581807731725
      ],
      [
        "▁match",
        -9.21210156057542
      ],
      [
        "▁prett",
        -7.854583673520578
      ],
      [
        ">",
        -8.485528575884175
      ],
      [
        "▁coupon",
        -10.592984969060435
      ],
      [
        "con",
        -11.923809304311934
      ],
      [
        "▁watchful",
        -12.31622603007582
      ],
      [
        "▁rump",
        -13.523712695535808
      ],
      [
        "oo",
        -10.573184319002312
      ],
      [
        "spiration",
        -11.93532060283696
      ],
      [
        "gue",
        -11.192999618663142
      ],
      [
        "▁10:0",
        -12.793923703826332
      ],
      [
        "▁well-",
        -11.41122594041035
      ],
      [
        "▁relativis",
        -11.363412231835508
      ],
      [
        "2",
        -10.53881921003439
      ],
      [
        "▁sandal",
        -11.348791495265496
      ],
      [
        "coal",
        -11.293245493096125
      ],
      [
        "▁youtube",
        -9.953154126386558
      ],
      [
        "▁perceive",
        -10.538602983206566
      ],
      [
        "▁harve",
        -12.311001070349343
      ],
      [
        "i",
        -9.80170027582974
      ],
      [
        "▁bre",
        -10.800258390722288
      ],
      [
        "▁jon",
        -11.383509671288015
      ],
      [
        "▁chun",
        -13.552830826610714
      ],
      [
        "ecker",
        -12.11457265026241
      ],
      [
        "▁imagine",
        -9.006911131163985
      ],
      [
        "cooper",
        -12.732431489660991
      ],
      [
        "▁wholesome",
        -12.272644690169482
      ],
      [
        "what",
        -7.9954044867101235
      ],
      [
        "▁volta",
        -12.936714843679455
      ],
      [
        "▁tenure",
        -11.93785924631617
      ],
      [
        "▁bernoulli",
        -10.452795925618732
      ],
      [
        "▁geopolitic",
        -12.271045563050716
      ],
      [
        "rato",
        -12.524322760828989
      ],
      [
        "▁soul",
        -10.524513467477822
      ],
      [
        "▁supervis",
        -13.337630188602352
      ],
      [
        "▁describe",
        -8.812322309598214
      ],
      [
        "sburg",
        -6.701282769664859
      ],
      [
        "170",
        -14.674369146106468
      ],
      [
        "tish",
        -12.30337325993697
      ],
      [
        "▁career",
        -9.22083875977734
      ],
      [
        "pus",
        -12.384235293338715
      ],
      [
        "▁threat",
        -9.332120593429675
      ],
      [
        "▁susan",
        -10.178449799761305
      ],
      [
        "commerc",
        -12.302658579615766
      ],
      [
        "▁selective",
        -11.692148662171919
      ],
      [
        "ey",
        -12.554834472282923
      ],
      [
        "▁google",
        -9.162004287206926
      ],
      [
        "▁buck",
        -10.280907175777038
      ],
      [
        "▁chok",
        -13.671004589885676
      ],
      [
        "asp",
        -12.955301733204093
      ],
      [
        "▁heat",
        -8.949560841198016
      ],
      [
        "▁bland",
        -11.378531817641088
      ],
      [
        "▁s",
        -9.536036570880462
      ],
      [
        "ford",
        -9.750758910823668
      ],
      [
        "▁promote",
        -9.935925073272594
      ],
      [
        "elapse",
        -11.938036932786822
      ],
      [
        "▁character",
        -9.056567281275411
      ],
      [
        "▁provoke",
        -11.158586404485385
      ],
      [
        "31",
        -11.472524122656338
      ],
      [
        "08",
        -11.329350389901101
      ],
      [
        "back",
        -9.77116419315746
      ],
      [
        "lle",
        -11.518747435289725
      ],
      [
        "▁dysfunction",
        -11.68779726105289
      ],
      [
        "▁spann",
        -11.959926764603177
      ],
      [
        "▁scorpion",
        -12.274074991207955
      ],
      [
        "▁al",
        -9.593659622937922
      ],
      [
        "▁tiptoe",
        -11.937699163297147
      ],
      [
        "fire",
        -11.283064828863091
      ],
      [
        "travi",
        -10.858299870678312
      ],
      [
        "275",
        -13.948612843905096
      ],
      [
        "▁result",
        -7.9817261035163405
      ],
      [
        "▁was",
        -5.269250295583504
      ],
      [
        "marque",
        -13.730518069804422
      ],
      [
        "▁down",
        -6.877744585322218
      ],
      [
        "▁dem",
        -9.823042892726786
      ],
      [
        "▁wu",
        -11.989006802138531
      ],
      [
        "mund",
        -12.072988250408624
      ],
      [
        "login",
        -12.319461921042068
      ],
      [
        "▁van",
        -9.55093929889825
      ],
      [
        "▁fro",
        -4.951061705951037
      ],
      [
        "▁independen",
        -9.74043105711646
      ],
      [
        "loan",
        -12.772490085236116
      ],
      [
        "▁02:",
        -13.328867592342894
      ],
      [
        "▁neurocogniti",
        -12.29568959606847
      ],
      [
        "tama",
        -11.270613007273903
      ],
      [
        "▁free",
        -7.928056576757955
      ],
      [
        "es",
        -6.444573491198436
      ],
      [
        "=========",
        -12.60171179977362
      ],
      [
        "ine",
        -11.05431148575052
      ],
      [
        "d2",
        -11.807849006857676
      ],
      [
        "▁1.5",
        -10.928556940654722
      ],
      [
        "▁signall",
        -11.966381940561295
      ],
      [
        "▁201",
        -8.15549122295678
      ],
      [
        "▁ensure",
        -8.927332593340207
      ],
      [
        "▁eclipse",
        -11.937693511847979
      ],
      [
        "▁hibernat",
        -11.687725089137288
      ],
      [
        "bailey",
        -13.733445187919765
      ],
      [
        "▁margari",
        -12.774775387853731
      ],
      [
        "▁sal",
        -10.795988725788039
      ],
      [
        "▁201-",
        -14.09272654832999
      ],
      [
        "6.8",
        -11.52194411340363
      ],
      [
        "▁refine",
        -11.577065668895932
      ],
      [
        "▁cast",
        -9.747106626952725
      ],
      [
        "▁strange",
        -9.992722614659542
      ],
      [
        "▁no",
        -12.609335897198278
      ],
      [
        "ill",
        -9.656857137731304
      ],
      [
        "▁antenna",
        -12.272758685286558
      ],
      [
        "▁surround",
        -9.931766087281071
      ],
      [
        "limb",
        -12.724727065774559
      ],
      [
        "▁pimen",
        -12.804478358143621
      ],
      [
        "▁ga",
        -12.271472656463636
      ],
      [
        "▁seque",
        -12.28595668746555
      ],
      [
        "otic",
        -12.57315852044017
      ],
      [
        "▁blow",
        -8.827572481448946
      ],
      [
        "▁michel",
        -9.95521195130556
      ],
      [
        "ς",
        -12.271024918880494
      ],
      [
        "isse",
        -12.08625388690001
      ],
      [
        "▁yok",
        -11.056220474034522
      ],
      [
        "rit",
        -11.298931074117666
      ],
      [
        "apul",
        -11.917956352548966
      ],
      [
        "▁deficien",
        -12.27872167420078
      ],
      [
        "▁legion",
        -11.958321347547674
      ],
      [
        "▁desira",
        -13.298785266339477
      ],
      [
        "ins",
        -12.84528629625656
      ],
      [
        "lages",
        -12.042843840800007
      ],
      [
        "▁adn",
        -11.74445659750859
      ],
      [
        "▁puk",
        -13.22283687737525
      ],
      [
        "▁corps",
        -11.142856408226276
      ],
      [
        "▁zoo",
        -9.955879503345974
      ],
      [
        "band",
        -10.87463427898313
      ],
      [
        "▁methodolog",
        -11.135699372340401
      ],
      [
        "▁maid",
        -11.849535206197562
      ],
      [
        "▁avers",
        -12.318227466544139
      ],
      [
        "▁sway",
        -10.971266770810528
      ],
      [
        "▁archive",
        -11.186341682402587
      ],
      [
        "21st",
        -11.17887821315822
      ],
      [
        "oc",
        -9.067274792690018
      ],
      [
        "▁shaft",
        -12.863775453652591
      ],
      [
        "▁offende",
        -11.371753402737045
      ],
      [
        "▁vigor",
        -12.798395834039654
      ],
      [
        "▁peaceful",
        -9.68325166834375
      ],
      [
        "▁ballot",
        -11.688876933749178
      ],
      [
        "▁occupation",
        -10.223294324732333
      ],
      [
        "▁coin",
        -10.5929336634102
      ],
      [
        "umara",
        -12.772598799948257
      ],
      [
        "yo",
        -12.980137273398649
      ],
      [
        "▁confess",
        -11.487513323450559
      ],
      [
        "▁scale",
        -9.815445497789504
      ],
      [
        "▁export",
        -9.512493053091623
      ],
      [
        "▁marian",
        -11.266350013685408
      ],
      [
        "dynamica",
        -11.937531721596816
      ],
      [
        "▁lifespan",
        -12.271186132825134
      ],
      [
        "centurie",
        -10.275947167206345
      ],
      [
        "▁cost",
        -7.859169252006472
      ],
      [
        "▁insight",
        -10.080476767840425
      ],
      [
        "▁constructive",
        -11.690963707496437
      ],
      [
        "▁landowner",
        -11.939467790381043
      ],
      [
        "▁oja",
        -13.03794199353648
      ],
      [
        "2.1",
        -13.661571770770541
      ],
      [
        "▁beatle",
        -10.127242914953383
      ],
      [
        "ipping",
        -11.705774170898277
      ],
      [
        "cognitive",
        -12.693430318069595
      ],
      [
        "▁know",
        -5.721743226984398
      ],
      [
        "▁simplifie",
        -12.274472690527833
      ],
      [
        "▁nourish",
        -12.320381572883175
      ],
      [
        "ch",
        -8.197892680772354
      ],
      [
        "▁rosa",
        -11.61601941278448
      ],
      [
        "route",
        -11.910125533462514
      ],
      [
        "▁petit",
        -11.955355654023244
      ],
      [
        "▁singer",
        -11.188798966986395
      ],
      [
        "▁triumph",
        -11.687691798540893
      ],
      [
        "▁circum",
        -9.80982693806705
      ],
      [
        "▁true",
        -8.717262175689232
      ],
      [
        "▁trim",
        -11.056642508386568
      ],
      [
        "▁29",
        -11.664104785589076
      ],
      [
        "▁spring",
        -9.29578112532017
      ],
      [
        "no",
        -10.794430943084201
      ],
      [
        "▁guest",
        -9.596756765695535
      ],
      [
        "▁grec",
        -12.279473790372828
      ],
      [
        "▁redeem",
        -11.48786969077437
      ],
      [
        "▁limo",
        -12.771343674125387
      ],
      [
        "▁transmit",
        -11.666788587928982
      ],
      [
        "▁#",
        -9.227398396604503
      ],
      [
        "368",
        -12.773220836068143
      ],
      [
        "▁rode",
        -10.337663510674258
      ],
      [
        "▁deployment",
        -11.940124522031795
      ],
      [
        "dslr",
        -12.378719790208738
      ],
      [
        "hotels",
        -13.605478570050241
      ],
      [
        "▁rosario",
        -12.825499610381662
      ],
      [
        "r",
        -4.496868874099677
      ],
      [
        "teur",
        -12.601943138174622
      ],
      [
        "▁include",
        -8.386153009119287
      ],
      [
        "bernet",
        -12.274970707582078
      ],
      [
        "▁inconvenience",
        -12.771649647515725
      ],
      [
        "▁economist",
        -10.846785269062064
      ],
      [
        "▁confla",
        -12.73313160751248
      ],
      [
        "▁kli",
        -12.869561395519142
      ],
      [
        "▁whit",
        -10.846079565531575
      ],
      [
        "▁disarm",
        -12.668297270057698
      ],
      [
        "ipher",
        -12.771378743476216
      ],
      [
        "▁bother",
        -9.65872048313188
      ],
      [
        "▁assistan",
        -9.435637114811371
      ],
      [
        "▁forgiven",
        -12.023182982444744
      ],
      [
        "25",
        -10.167856393966186
      ],
      [
        "▁careful",
        -9.178461348281562
      ],
      [
        "▁laugh",
        -8.748384852905396
      ],
      [
        "▁hasidi",
        -11.374266306198201
      ],
      [
        "rt",
        -12.710446383063182
      ],
      [
        "ountain",
        -10.941369353074997
      ],
      [
        "=============",
        -11.216882392454107
      ],
      [
        "▁persever",
        -11.322411806444455
      ],
      [
        "/01",
        -12.978977334180982
      ],
      [
        "8/01",
        -14.138566737487656
      ],
      [
        "▁apparition",
        -12.771056174135799
      ],
      [
        "▁money",
        -7.849129487299011
      ],
      [
        "▁d'",
        -11.690747078672945
      ],
      [
        "▁mistru",
        -12.891892605525278
      ],
      [
        "▁partisan",
        -12.244911272322934
      ],
      [
        "san",
        -12.064064825869218
      ],
      [
        "▁mesoamerica",
        -11.682649109309402
      ],
      [
        "▁harmoni",
        -11.631400135365608
      ],
      [
        "athan",
        -13.602120894374284
      ],
      [
        "through",
        -9.996422686750291
      ],
      [
        "age",
        -11.003488229021976
      ],
      [
        "▁forge",
        -12.01223960510034
      ],
      [
        "▁vol",
        -10.384406980720469
      ],
      [
        "▁grand",
        -9.469911329115911
      ],
      [
        "▁scrape",
        -11.544103857160472
      ],
      [
        "▁shorts",
        -10.439982401684427
      ],
      [
        "▁1000",
        -10.355355157779499
      ],
      [
        "▁17,",
        -14.128355496279145
      ],
      [
        "▁30",
        -9.486190054048716
      ],
      [
        "inhales",
        -13.281371383635513
      ],
      [
        "▁eliot",
        -11.937909733071788
      ],
      [
        "▁pekin",
        -13.53922202126799
      ],
      [
        "through",
        -10.343789277758114
      ],
      [
        "▁50",
        -9.85620643860546
      ],
      [
        "238",
        -12.736357786554253
      ],
      [
        "▁injure",
        -12.489863238880675
      ],
      [
        "▁behave",
        -11.688952752187024
      ],
      [
        "▁flank",
        -12.271050851698902
      ],
      [
        "ang",
        -11.833863112049684
      ],
      [
        "▁our",
        -6.8694529814894745
      ],
      [
        "▁zip",
        -11.172434664146287
      ],
      [
        "▁fisc",
        -10.842372984701555
      ],
      [
        "▁honor",
        -10.10571703725417
      ],
      [
        "▁obstacle",
        -10.590891168369057
      ],
      [
        "ott",
        -11.266419545026011
      ],
      [
        "▁intran",
        -12.144488539199205
      ],
      [
        "▁tempe",
        -12.288701569797727
      ],
      [
        "▁82",
        -11.78840042592635
      ],
      [
        "▁glow",
        -10.039258432339945
      ],
      [
        "print",
        -11.278215893044663
      ],
      [
        "▁mono",
        -10.87721414727244
      ],
      [
        "▁account",
        -8.46190243093768
      ],
      [
        "▁washing",
        -10.318235407494512
      ],
      [
        "hopper",
        -12.935428300648084
      ],
      [
        "consi",
        -11.946173494760096
      ],
      [
        "▁over-",
        -11.891631365656602
      ],
      [
        "▁stick",
        -9.010277298612937
      ],
      [
        "▁mingle",
        -12.340157107574964
      ],
      [
        "erie",
        -11.20640837034595
      ],
      [
        "▁attende",
        -11.2357451756057
      ],
      [
        "▁pollut",
        -11.617433983407956
      ],
      [
        "108",
        -12.520739791687621
      ],
      [
        "▁intern",
        -11.505595237786238
      ],
      [
        "▁determin",
        -10.577380619446807
      ],
      [
        "▁abundant",
        -11.055816642729015
      ],
      [
        "▁vocal",
        -11.947841219949282
      ],
      [
        "▁morph",
        -13.683000284106162
      ],
      [
        "▁crack",
        -10.034174757102289
      ],
      [
        "▁blanc",
        -10.592360385269659
      ],
      [
        "nson@enron",
        -11.833845510207494
      ],
      [
        "▁villa",
        -12.2812085780695
      ],
      [
        "▁monoton",
        -11.688214770116856
      ],
      [
        "▁deteriorati",
        -12.386906284710705
      ],
      [
        "restaurant",
        -13.732212970797718
      ],
      [
        "▁acrylic",
        -11.937691870774568
      ],
      [
        "▁sea-",
        -12.866100121783502
      ],
      [
        "mock",
        -12.377282800191175
      ],
      [
        "▁fault",
        -10.52110521050271
      ],
      [
        "400",
        -11.158984950287465
      ],
      [
        "▁pacific",
        -10.519479620156028
      ],
      [
        "asses",
        -13.519502654261084
      ],
      [
        "feb",
        -13.725523750450936
      ],
      [
        "▁bedroom",
        -9.653207863576474
      ],
      [
        "▁senator",
        -9.59654765548151
      ],
      [
        "▁funnel",
        -10.752251250615537
      ],
      [
        "▁vitamin",
        -11.321026156362509
      ],
      [
        "▁hop",
        -9.256632908834462
      ],
      [
        "▁treatise",
        -11.488788164135737
      ],
      [
        "hook",
        -11.585544461326041
      ],
      [
        "▁attentive",
        -11.181244688528636
      ],
      [
        "▁bumble",
        -11.321176682682948
      ],
      [
        "how-to-",
        -12.77145745188739
      ],
      [
        "▁demonstrate",
        -9.917108795063115
      ],
      [
        "▁pie",
        -9.530126433793525
      ],
      [
        "▁helicopter",
        -10.390295925599684
      ],
      [
        "▁broad",
        -9.283795025973928
      ],
      [
        "cruisecompete",
        -12.771714864446421
      ],
      [
        "witche",
        -13.452555720404703
      ],
      [
        "sahar",
        -12.487383910263286
      ],
      [
        "▁criminal",
        -9.995129248289874
      ],
      [
        "66",
        -12.073162576097861
      ],
      [
        "▁posit",
        -11.68758695268972
      ],
      [
        "▁princess",
        -11.505523470687592
      ],
      [
        "▁got",
        -9.69475897458434
      ],
      [
        "▁wolf",
        -9.845118703561765
      ],
      [
        "ot",
        -13.94217627046138
      ],
      [
        "▁enabl",
        -11.27550550308373
      ],
      [
        "green",
        -12.235739790681185
      ],
      [
        "▁reap",
        -11.6864229285586
      ],
      [
        "est",
        -7.604305913866614
      ],
      [
        "▁severe",
        -9.899865353148728
      ],
      [
        "▁specific",
        -8.524596701948816
      ],
      [
        "▁pivot",
        -9.107821411274372
      ],
      [
        "▁campsite",
        -12.772089998409282
      ],
      [
        "▁pott",
        -9.128399092057645
      ],
      [
        "▁commit",
        -10.494763616435193
      ],
      [
        "▁horribl",
        -9.543261343163753
      ],
      [
        "▁**",
        -12.27907701871811
      ],
      [
        "▁waver",
        -13.702820072404991
      ],
      [
        "▁coordinate",
        -10.992491347392606
      ],
      [
        "▁locust",
        -11.687699207623764
      ],
      [
        "▁permission",
        -10.591642182176598
      ],
      [
        "encamp",
        -12.777497961738213
      ],
      [
        "▁sussex",
        -10.942120590156993
      ],
      [
        "▁claus",
        -11.304718238773454
      ],
      [
        "▁703",
        -13.389617785203246
      ],
      [
        "ur",
        -11.393468614066895
      ],
      [
        "▁advanc",
        -11.748645111607367
      ],
      [
        "▁combination",
        -10.276234755516931
      ],
      [
        "amazon",
        -11.915565864449773
      ],
      [
        "89",
        -10.751138270025109
      ],
      [
        "h",
        -9.117748607228467
      ],
      [
        "cover",
        -12.253630847913264
      ],
      [
        "35",
        -12.78892938176638
      ],
      [
        "▁assur",
        -10.860890752474742
      ],
      [
        "▁smoker",
        -12.01086824621477
      ],
      [
        "▁interfer",
        -12.163288814771025
      ],
      [
        "▁quebec",
        -11.178179549785629
      ],
      [
        "und",
        -8.394454848542383
      ],
      [
        "shared",
        -11.404672843524601
      ],
      [
        "▁grape",
        -10.036892753689468
      ],
      [
        "t2",
        -13.005322731802755
      ],
      [
        "ara",
        -11.080741039490933
      ],
      [
        "alcoholic",
        -12.719101955387917
      ],
      [
        "relations",
        -12.733370403506713
      ],
      [
        "enchant",
        -12.233076538774444
      ],
      [
        "▁shap",
        -12.202667079980925
      ],
      [
        "phon",
        -12.69880377502976
      ],
      [
        "28",
        -10.97103305750776
      ],
      [
        "humou",
        -12.734685193305408
      ],
      [
        "grift",
        -13.446756275078748
      ],
      [
        "▁slave",
        -10.339041199010467
      ],
      [
        "▁res",
        -13.761319965363814
      ],
      [
        "▁witt",
        -13.000989629745465
      ],
      [
        "ha",
        -9.601993731172117
      ],
      [
        "▁watch",
        -7.621427061048741
      ],
      [
        "▁shortage",
        -11.952080736485986
      ],
      [
        "arrow",
        -13.012583879493999
      ],
      [
        "aris",
        -13.140331865443235
      ],
      [
        "▁has",
        -6.84859145707875
      ],
      [
        "▁offer",
        -8.167962577761394
      ],
      [
        "▁kenya",
        -10.937156015275201
      ],
      [
        "earth",
        -12.734044369774386
      ],
      [
        "select",
        -13.72987338267105
      ],
      [
        "▁tangi",
        -13.055724686683941
      ],
      [
        "98",
        -10.894723327413537
      ],
      [
        "▁intersection",
        -11.688226679254399
      ],
      [
        "lada",
        -13.167371934281864
      ],
      [
        "▁bobo",
        -10.337802295360751
      ],
      [
        "rawle",
        -12.704691703689505
      ],
      [
        "▁parsi",
        -13.470076073498351
      ],
      [
        "▁depiction",
        -11.939182131189348
      ],
      [
        "▁9.",
        -14.140127953573415
      ],
      [
        "thi",
        -7.4687070885228275
      ],
      [
        "▁beckon",
        -12.273067063132219
      ],
      [
        "▁pan",
        -9.323756312171358
      ],
      [
        "▁yell",
        -10.130859988827368
      ],
      [
        "▁hami",
        -13.274922241176482
      ],
      [
        "▁cockatiel",
        -11.937691598783848
      ],
      [
        "▁considerabl",
        -10.258472326349331
      ],
      [
        "▁parch",
        -12.77702519552741
      ],
      [
        "▁day",
        -6.469461379751393
      ],
      [
        "▁shot",
        -9.422513390970224
      ],
      [
        "agr",
        -10.984714191306647
      ],
      [
        "▁sogg",
        -13.36599118764952
      ],
      [
        "▁apoll",
        -11.938126897986402
      ],
      [
        "▁renegotiat",
        -12.877281683719131
      ],
      [
        "▁potter",
        -10.601482076252799
      ],
      [
        "▁blam",
        -12.07093297518282
      ],
      [
        "alize",
        -13.487905481102722
      ],
      [
        "▁migrant",
        -10.667818546005007
      ],
      [
        "▁vintage",
        -10.84207099094114
      ],
      [
        "treach",
        -12.857619617939058
      ],
      [
        "`",
        -11.928182729573079
      ],
      [
        "vocation",
        -12.771024243448181
      ],
      [
        "▁fan",
        -9.032499058170995
      ],
      [
        "190",
        -13.810053399207337
      ],
      [
        "▁mo",
        -11.730657660372195
      ],
      [
        "llo",
        -12.838040137222798
      ],
      [
        "etti",
        -12.33900790947011
      ],
      [
        "runa",
        -12.355882225173941
      ],
      [
        "essi",
        -12.449912786814064
      ],
      [
        "▁blouse",
        -12.786071070093323
      ],
      [
        "strophe",
        -12.771022968012394
      ],
      [
        "custome",
        -11.907803592183043
      ],
      [
        "world",
        -11.410412644737674
      ],
      [
        "▁unst",
        -13.36791203532513
      ],
      [
        "▁artifact",
        -12.771039888293778
      ],
      [
        "▁michael",
        -9.142011705858568
      ],
      [
        "▁zac",
        -11.02143769728193
      ],
      [
        "▁mail",
        -9.161260664776282
      ],
      [
        "▁credit",
        -8.896213540204943
      ],
      [
        "▁stink",
        -11.321603243436552
      ],
      [
        "wollen",
        -12.271364508489924
      ],
      [
        "159",
        -14.034648351999111
      ],
      [
        "enni",
        -12.071365667322894
      ],
      [
        "▁register",
        -9.916605308763625
      ],
      [
        "▁lurch",
        -12.771481389004066
      ],
      [
        "turn",
        -11.584355476195324
      ],
      [
        "▁harbor",
        -11.178170076951053
      ],
      [
        "▁flee",
        -10.835842838457138
      ],
      [
        "▁anesthe",
        -12.773332395908263
      ],
      [
        "ion",
        -7.340023821218155
      ],
      [
        "▁massac",
        -11.188057470919949
      ],
      [
        "throw",
        -11.40027580780604
      ],
      [
        "▁des",
        -9.820925513461214
      ],
      [
        "▁crunch",
        -11.687752511055654
      ],
      [
        "▁mut",
        -11.833328334797132
      ],
      [
        "▁dilute",
        -12.381112093989486
      ],
      [
        "▁1.4",
        -12.362851284027002
      ],
      [
        "▁walnut",
        -11.053209141657266
      ],
      [
        "▁whoo",
        -11.474824911412242
      ],
      [
        "▁andrew",
        -10.390794524731467
      ],
      [
        "▁palestin",
        -11.487573366609066
      ],
      [
        "▁mari",
        -11.608463054468066
      ],
      [
        "rian",
        -12.364269816073215
      ],
      [
        "179",
        -13.39745496023807
      ],
      [
        "▁rap",
        -12.615894447232824
      ],
      [
        "▁actor",
        -10.039772560768338
      ],
      [
        "50",
        -10.090879082816057
      ],
      [
        "▁trimmer",
        -12.775036086773154
      ],
      [
        "▁dissolve",
        -11.401487548353131
      ],
      [
        "▁ameli",
        -12.489730525654178
      ],
      [
        "▁haul",
        -10.671043101667767
      ],
      [
        "▁coarse",
        -11.937702466417191
      ],
      [
        "▁tribunal",
        -12.771028600042388
      ],
      [
        "▁divers",
        -9.63673898568317
      ],
      [
        "born",
        -10.63044282196468
      ],
      [
        "cation",
        -13.020954700045797
      ],
      [
        "▁standardis",
        -11.662669713559994
      ],
      [
        "ough",
        -8.427482906163835
      ],
      [
        "▁sab",
        -13.454301680103782
      ],
      [
        "▁retir",
        -11.10029158619053
      ],
      [
        "▁shutter",
        -11.940243389979994
      ],
      [
        "▁effe",
        -12.270987365124665
      ],
      [
        "immigrate",
        -12.31250702864704
      ],
      [
        "divide",
        -12.734108726807602
      ],
      [
        "▁carolin",
        -9.884206962220206
      ],
      [
        "▁horn",
        -10.03892774128432
      ],
      [
        "▁week",
        -7.3458424122555375
      ],
      [
        "▁asset",
        -10.08122139452863
      ],
      [
        "▁pirate",
        -10.125697133592931
      ],
      [
        "110",
        -13.650665772775568
      ],
      [
        "----------",
        -11.627260667774783
      ],
      [
        ".....",
        -12.026024489186744
      ],
      [
        "▁motorcycle",
        -10.751848087835674
      ],
      [
        "▁carlo",
        -12.275182675584546
      ],
      [
        "blog",
        -12.73368459533489
      ],
      [
        "bby",
        -10.182101585599025
      ],
      [
        "▁innovat",
        -12.769385383217166
      ],
      [
        "▁configur",
        -13.24153306837256
      ],
      [
        "▁han",
        -12.544716207967019
      ],
      [
        "▁equipment",
        -10.036802072510252
      ],
      [
        "▁medica",
        -9.651600998394715
      ],
      [
        "▁to",
        -8.572932643268645
      ],
      [
        "▁neighborhood",
        -10.125720478725269
      ],
      [
        "▁daughter",
        -9.011783025854005
      ],
      [
        "▁merry",
        -10.670898857543893
      ],
      [
        "▁luna",
        -10.679630489900255
      ],
      [
        "▁attitude",
        -10.036748490116072
      ],
      [
        "▁greene",
        -11.830229091845482
      ],
      [
        "62",
        -12.786065695044039
      ],
      [
        "6-84",
        -14.806907614809187
      ],
      [
        "uit",
        -12.289312307441701
      ],
      [
        "▁wag",
        -11.356358217004512
      ],
      [
        "uchtman",
        -12.778454227701467
      ],
      [
        "▁decide",
        -9.337305267152693
      ],
      [
        "al",
        -10.361669615324121
      ],
      [
        "▁battl",
        -12.233528744903841
      ],
      [
        "▁barbar",
        -11.333114978426154
      ],
      [
        "▁lifeboat",
        -11.48831389558275
      ],
      [
        "▁insid",
        -12.756306013498227
      ],
      [
        "▁difference",
        -8.564198770670178
      ],
      [
        "lien",
        -13.565009773643146
      ],
      [
        "▁hein",
        -12.298961573685412
      ],
      [
        "▁practis",
        -13.20885413295291
      ],
      [
        "▁invitation",
        -10.332208659829355
      ],
      [
        "▁relocate",
        -12.544769144938726
      ],
      [
        "strial",
        -12.832350127752587
      ],
      [
        "▁shackle",
        -10.844200702602894
      ],
      [
        "wet",
        -12.226384985385943
      ],
      [
        "▁sorrows",
        -12.296558037068774
      ],
      [
        "▁purple",
        -9.682227265277469
      ],
      [
        "19032951_",
        -13.38216647570901
      ],
      [
        "▁cough",
        -10.854826325658216
      ],
      [
        "mmy",
        -11.805582435502917
      ],
      [
        "▁stomach",
        -10.173285341156033
      ],
      [
        "design",
        -10.712229106482013
      ],
      [
        "▁dwelling",
        -12.332183823625396
      ],
      [
        "----",
        -10.450866178525061
      ],
      [
        "ngott",
        -11.822903105003782
      ],
      [
        "▁rabindra",
        -11.93769581363644
      ],
      [
        "▁https://",
        -12.771024918840576
      ],
      [
        "▁kosa",
        -12.805635507609955
      ],
      [
        "▁crescen",
        -12.271285265912324
      ],
      [
        "sexual",
        -11.899215992821022
      ],
      [
        "▁aja",
        -11.388328726537459
      ],
      [
        "ti",
        -12.411083627047377
      ],
      [
        "▁nerve",
        -11.178237247629779
      ],
      [
        "▁fertil",
        -12.27197661944112
      ],
      [
        "7:3",
        -13.59615174620778
      ],
      [
        "▁saf",
        -12.211793947647816
      ],
      [
        "ap",
        -10.819157325689138
      ],
      [
        "▁interconnect",
        -10.590919791212803
      ],
      [
        "▁charl",
        -10.021015302801969
      ],
      [
        "▁tree",
        -8.627515160818984
      ],
      [
        "880",
        -15.44640996818414
      ],
      [
        "▁appear",
        -8.41862252369533
      ],
      [
        "▁nathan",
        -11.79352141560613
      ],
      [
        "▁upward",
        -11.690488449474913
      ],
      [
        "record",
        -12.232032297544535
      ],
      [
        "matche",
        -13.249431001331692
      ],
      [
        "net",
        -10.330432599169502
      ],
      [
        "▁teenage",
        -11.936076792319346
      ],
      [
        "▁employe",
        -12.639450801033082
      ],
      [
        "▁micro",
        -9.5643821736717
      ],
      [
        "▁carrie",
        -9.613899712959405
      ],
      [
        "ton",
        -8.505511430127598
      ],
      [
        "▁trans",
        -9.619067442530168
      ],
      [
        "▁entr",
        -10.1720513016573
      ],
      [
        "▁speculati",
        -11.39035402302905
      ],
      [
        "3.1",
        -12.945575938572823
      ],
      [
        "▁dessert",
        -10.667817172653647
      ],
      [
        "▁nun",
        -12.574840033727483
      ],
      [
        "▁60",
        -11.937715059059695
      ],
      [
        "ent",
        -9.41840076285051
      ],
      [
        "▁cor",
        -10.732409848009189
      ],
      [
        "ac",
        -10.98554929197049
      ],
      [
        "lie",
        -9.987567353420117
      ],
      [
        "!!!!!!!!!!!!!!!",
        -11.78750431147864
      ],
      [
        "▁899-4",
        -13.136770620605855
      ],
      [
        "▁ultrasound",
        -11.937695952391309
      ],
      [
        "▁repu",
        -12.107322191494625
      ],
      [
        "▁stereo",
        -12.271043641569259
      ],
      [
        "▁legislat",
        -11.106881210084625
      ],
      [
        "▁retard",
        -11.487724442540351
      ],
      [
        "train",
        -12.167285982365435
      ],
      [
        "▁mid-200",
        -12.95164059247075
      ],
      [
        "▁86",
        -12.790317589533213
      ],
      [
        "arriage",
        -10.982246373060672
      ],
      [
        "▁vegetarian",
        -11.330854940048425
      ],
      [
        "▁paper",
        -7.750195335096451
      ],
      [
        "category",
        -10.173291454594935
      ],
      [
        "witz",
        -10.523987332916297
      ],
      [
        "▁invoice",
        -10.790788880538244
      ],
      [
        "gorge",
        -11.489012651987958
      ],
      [
        "▁raffle",
        -12.271286935228252
      ],
      [
        "▁cauc",
        -12.772389904521205
      ],
      [
        "▁non",
        -9.749685132467587
      ],
      [
        "workers",
        -9.976283657654893
      ],
      [
        "▁dur",
        -11.543879909839234
      ],
      [
        ".c.",
        -10.55877820999192
      ],
      [
        "▁outcome",
        -10.125678286848974
      ],
      [
        "▁1",
        -11.807037596623156
      ],
      [
        "rece",
        -12.623314329642294
      ],
      [
        "▁08/0",
        -12.957041608583907
      ],
      [
        "*****",
        -11.566808758753416
      ],
      [
        "▁electron",
        -12.782827421628621
      ],
      [
        "▁nagg",
        -12.779763694954152
      ],
      [
        "ta",
        -9.224748695931972
      ],
      [
        "▁muscula",
        -12.787123171660374
      ],
      [
        "▁euros",
        -13.003149042315345
      ],
      [
        "rous",
        -10.622234501840271
      ],
      [
        "ro",
        -11.369268642045476
      ],
      [
        "▁untie",
        -11.69302792478429
      ],
      [
        "essie",
        -11.04380442293721
      ],
      [
        "j",
        -9.573412288293888
      ],
      [
        "tes",
        -12.617106815335633
      ],
      [
        "▁defeat",
        -10.223315500582105
      ],
      [
        "▁astronaut",
        -11.178168687060532
      ],
      [
        "▁200,",
        -14.14712352768953
      ],
      [
        "loch",
        -12.378329584740337
      ],
      [
        "▁emiss",
        -13.717095278757624
      ],
      [
        "tarian",
        -13.417553428327144
      ],
      [
        "erman",
        -11.157642226731392
      ],
      [
        "▁wou",
        -13.229284662502392
      ],
      [
        "▁60,00",
        -13.953467716680118
      ],
      [
        "▁unpack",
        -12.27139379689773
      ],
      [
        "▁",
        -1.3739155028004877
      ],
      [
        "▁after-",
        -12.786290317872032
      ],
      [
        "▁finaliz",
        -12.086428160892362
      ],
      [
        "▁greg",
        -10.461477076189231
      ],
      [
        "▁baron",
        -12.335433246114581
      ],
      [
        "▁syria",
        -9.421323912107951
      ],
      [
        "[UNK]",
        0.0
      ],
      [
        "▁review",
        -8.202631693330819
      ],
      [
        "▁vital",
        -10.38705174172738
      ],
      [
        "▁bali",
        -12.784985491101509
      ],
      [
        "▁miss",
        -8.310437186491395
      ],
      [
        "▁mart",
        -11.060494852238076
      ],
      [
        "▁northwest",
        -9.45389160942591
      ],
      [
        "▁motor",
        -10.0938364770374
      ],
      [
        "/8/",
        -13.141982870234665
      ],
      [
        "▁condi",
        -13.521484150754175
      ],
      [
        "label",
        -13.717568665985958
      ],
      [
        "▁spore",
        -10.940992315312457
      ],
      [
        "▁stirr",
        -11.328458101742147
      ],
      [
        "4-0",
        -13.976970355796805
      ],
      [
        "/cis_",
        -12.773514506756651
      ],
      [
        "▁reach",
        -8.712322935710564
      ],
      [
        "rior",
        -12.843631543838391
      ],
      [
        "▁mauri",
        -12.915880373413119
      ],
      [
        "▁eager",
        -10.597088160680695
      ],
      [
        "ved",
        -13.094885144198757
      ],
      [
        "▁uk",
        -9.762275936099098
      ],
      [
        "▁e-mail",
        -9.398299076169907
      ],
      [
        "▁bak",
        -9.991780067142807
      ],
      [
        "index",
        -13.23818677849002
      ],
      [
        "ff",
        -11.980794772189306
      ],
      [
        "▁local",
        -8.25082339332667
      ],
      [
        "▁comm",
        -12.052574725475669
      ],
      [
        "▁zone",
        -10.625439386056627
      ],
      [
        "▁booth",
        -11.337701758629022
      ],
      [
        "▁overlap",
        -12.284823885244723
      ],
      [
        "▁rip",
        -9.71122205579617
      ],
      [
        "shee",
        -12.532172446055409
      ],
      [
        "▁operational",
        -11.359809761706265
      ],
      [
        "▁gte",
        -11.948128203318188
      ],
      [
        "▁weary",
        -12.143546577567612
      ],
      [
        "▁thrash",
        -12.771226365631534
      ],
      [
        "ethos",
        -12.924691927891413
      ],
      [
        "▁hurtle",
        -13.276868501603786
      ],
      [
        "317",
        -12.522027844751664
      ],
      [
        "▁richard",
        -9.214174753860537
      ],
      [
        "▁geneva",
        -11.943578312274303
      ],
      [
        "---=",
        -11.82789170959216
      ],
      [
        "▁expos",
        -11.759981303223737
      ],
      [
        "▁statute",
        -10.842572443061192
      ],
      [
        "▁warwick",
        -10.753327508244322
      ],
      [
        "penny",
        -12.735158935384568
      ],
      [
        "▁06/01/200",
        -12.339716654186573
      ],
      [
        "unscreen",
        -12.879532419952952
      ],
      [
        "▁possesse",
        -11.180954143294862
      ],
      [
        "india",
        -12.919537669437632
      ],
      [
        "▁wail",
        -11.963404480173624
      ],
      [
        "▁kawa",
        -12.844466485428395
      ],
      [
        "▁utterance",
        -11.93885965571454
      ],
      [
        "anish",
        -13.685983796282317
      ],
      [
        "▁cooperati",
        -9.997440636518627
      ],
      [
        "▁leak",
        -10.754137021128956
      ],
      [
        "▁excu",
        -12.971284196130018
      ],
      [
        "▁compli",
        -13.177188899564854
      ],
      [
        "800.",
        -12.777623006555508
      ],
      [
        "▁habi",
        -12.793419483737443
      ],
      [
        "▁d",
        -10.280019826971163
      ],
      [
        "▁women",
        -8.369508578465537
      ],
      [
        "▁earth",
        -8.614772700444025
      ],
      [
        "▁fl",
        -9.870849856033203
      ],
      [
        "▁dries",
        -11.529089195706502
      ],
      [
        "▁overload",
        -12.774612573837643
      ],
      [
        "▁vet",
        -9.51515879728895
      ],
      [
        "▁exo",
        -11.336825109221547
      ],
      [
        "▁underwe",
        -11.617256241232889
      ],
      [
        "▁efficient",
        -9.68931958073651
      ],
      [
        "▁santo",
        -12.800710113523662
      ],
      [
        "ome-",
        -13.253216061512154
      ],
      [
        "▁excellent",
        -8.564058471903056
      ],
      [
        "lette",
        -11.943758003198942
      ],
      [
        "bb",
        -11.953589324145495
      ],
      [
        "▁kal",
        -11.273183218625494
      ],
      [
        "▁itch",
        -11.316167281857576
      ],
      [
        "197",
        -11.99851441851724
      ],
      [
        "▁17",
        -10.75115699870446
      ],
      [
        "▁unlea",
        -12.077123657098337
      ],
      [
        "▁dial",
        -10.071844017705603
      ],
      [
        "92",
        -10.519483038575366
      ],
      [
        "▁justify",
        -11.48773185111557
      ],
      [
        "▁healthie",
        -11.558459154990995
      ],
      [
        "▁pettigrew",
        -11.321074775117085
      ],
      [
        "hi",
        -9.424581281491143
      ],
      [
        "▁1-800-",
        -12.663110100375743
      ],
      [
        "▁manga",
        -11.20016783724594
      ],
      [
        "▁historical",
        -9.662550528221812
      ],
      [
        "▁gu",
        -10.15656692807549
      ],
      [
        "▁raiser",
        -12.402456926082287
      ],
      [
        "▁appointe",
        -10.836190664599416
      ],
      [
        "patio",
        -12.277358641866462
      ],
      [
        "▁vision",
        -10.453064712279188
      ],
      [
        "▁interpretation",
        -10.592014432028325
      ],
      [
        "▁petrol",
        -10.754347869174957
      ],
      [
        "▁priest",
        -10.753169422404563
      ],
      [
        "▁rho",
        -11.178256306649137
      ],
      [
        "▁framework",
        -10.275993292688819
      ],
      [
        "▁wa",
        -11.64081789390056
      ],
      [
        "▁drap",
        -11.939174809534393
      ],
      [
        "▁nicki",
        -12.279529500959027
      ],
      [
        "▁conceivabl",
        -12.94161327531123
      ],
      [
        "hood",
        -9.910471893302812
      ],
      [
        "clear",
        -13.033043829191742
      ],
      [
        "taking",
        -8.032615871914599
      ],
      [
        "devour",
        -13.72910475819092
      ],
      [
        "▁us",
        -9.506253679050264
      ],
      [
        "jo",
        -11.103530424926497
      ],
      [
        "▁interi",
        -11.286037589760186
      ],
      [
        "▁fame",
        -10.337346448060373
      ],
      [
        "-out",
        -11.49376986200338
      ],
      [
        "▁topic",
        -9.810557255679287
      ],
      [
        "58",
        -11.951611418715437
      ],
      [
        "prudent",
        -13.729840955330696
      ],
      [
        "ria",
        -11.73691810135671
      ],
      [
        "even",
        -10.255110157750392
      ],
      [
        "▁pant",
        -9.274934976654905
      ],
      [
        "▁undertake",
        -10.591000548755925
      ],
      [
        "▁overwhelm",
        -11.663710735124445
      ],
      [
        "▁fill",
        -8.597562503260832
      ],
      [
        "▁exceed",
        -11.0271294162327
      ],
      [
        "tentious",
        -13.149477560687277
      ],
      [
        "▁vibrat",
        -13.388971192348327
      ],
      [
        "▁quer",
        -9.375787343304692
      ],
      [
        "open",
        -13.669219331884383
      ],
      [
        "183",
        -12.30278992028547
      ],
      [
        "▁wandering",
        -11.075427827202404
      ],
      [
        "▁curs",
        -12.351577376041842
      ],
      [
        "▁support",
        -7.999011056599971
      ],
      [
        "match",
        -13.009504238139831
      ],
      [
        "et",
        -9.713547024360455
      ],
      [
        "▁methodical",
        -12.780633861555076
      ],
      [
        "▁mira",
        -13.683477155168964
      ],
      [
        "▁skyscraper",
        -12.771024919351646
      ],
      [
        "alam",
        -12.77198971228069
      ],
      [
        "ju",
        -12.226505588446837
      ],
      [
        "72",
        -11.567392815125887
      ],
      [
        "▁repaint",
        -12.772732545252437
      ],
      [
        "▁cleve",
        -8.504247153451434
      ],
      [
        "▁psych",
        -11.84717517859762
      ],
      [
        "bu",
        -8.933136665927833
      ],
      [
        "hobby",
        -10.696077188833522
      ],
      [
        "▁cosplay",
        -11.488318431103654
      ],
      [
        "▁responsibl",
        -9.44481050101845
      ],
      [
        "ies",
        -6.236108686640891
      ],
      [
        "▁kahn",
        -12.271765261976036
      ],
      [
        "▁>>",
        -8.408942050936023
      ],
      [
        "▁destin",
        -10.518687433697288
      ],
      [
        "▁lora",
        -11.93861831347281
      ],
      [
        "▁ec",
        -9.49888221321268
      ],
      [
        "&",
        -8.721264882567068
      ],
      [
        "▁soothing",
        -12.271572176744597
      ],
      [
        "▁heart",
        -8.723493624564345
      ],
      [
        "ons",
        -10.56595692661573
      ],
      [
        "▁balochi",
        -11.939134581910508
      ],
      [
        "98",
        -12.268541348299161
      ],
      [
        "▁vs",
        -11.575267346929792
      ],
      [
        "▁zero",
        -10.125976645229455
      ],
      [
        "reynol",
        -12.271349798093881
      ],
      [
        "cussion",
        -12.771029417961543
      ],
      [
        "mond",
        -10.64053206159421
      ],
      [
        "37.",
        -13.177392460549235
      ],
      [
        "▁goodw",
        -11.13849787026664
      ],
      [
        "▁checker",
        -13.62716926958987
      ],
      [
        "▁counsel",
        -10.452221334475347
      ],
      [
        "▁premise",
        -10.942058371798382
      ],
      [
        "680",
        -12.884090929504229
      ],
      [
        "itch",
        -10.11300634228813
      ],
      [
        "▁full",
        -7.829066921185566
      ],
      [
        "▁refuge",
        -12.748980479946912
      ],
      [
        "ward",
        -11.834056055878488
      ],
      [
        "▁front",
        -8.22180555682961
      ],
      [
        "what",
        -12.99167488051111
      ],
      [
        "bel",
        -11.111926173344637
      ],
      [
        "▁rhodesia",
        -12.265536099653561
      ],
      [
        "▁carbon",
        -10.174662987122714
      ],
      [
        "▁organi",
        -11.582234161139889
      ],
      [
        "▁moistur",
        -10.668280147738528
      ],
      [
        "ac",
        -11.991757960654496
      ],
      [
        "▁simulat",
        -11.894010969277142
      ],
      [
        "▁dempsey",
        -11.93769167879082
      ],
      [
        "-bei",
        -10.855416196943876
      ],
      [
        "▁lace",
        -11.378714647773265
      ],
      [
        "▁03:",
        -11.982710755806442
      ],
      [
        "▁hatche",
        -13.19378051466155
      ],
      [
        "▁farmland",
        -12.80262336228313
      ],
      [
        "▁subdue",
        -13.06524562766114
      ],
      [
        "▁pyramid",
        -10.751147801000839
      ],
      [
        "▁playwright",
        -10.667826380692425
      ],
      [
        "99",
        -12.8581171318345
      ],
      [
        "ucei",
        -12.782216404614234
      ],
      [
        "▁outfit",
        -10.59138745774569
      ],
      [
        "▁recreat",
        -11.954055206258628
      ],
      [
        "▁mad",
        -9.521693967141598
      ],
      [
        "?var=",
        -12.271024920135886
      ],
      [
        "▁sculpt",
        -12.27098033272131
      ],
      [
        "▁direction",
        -9.356472811274351
      ],
      [
        "▁755",
        -13.738721046877318
      ],
      [
        "ito",
        -12.15234716321083
      ],
      [
        "▁chocolate",
        -9.291821114705272
      ],
      [
        "▁intervention",
        -10.331543441358459
      ],
      [
        "▁procure",
        -12.771025754565493
      ],
      [
        "▁bann",
        -11.531968307856317
      ],
      [
        "ous",
        -8.013412851855474
      ],
      [
        "▁forty-",
        -12.336962208317317
      ],
      [
        "▁codependen",
        -11.967605059362096
      ],
      [
        "separa",
        -12.80228733025183
      ],
      [
        "4-79",
        -13.475737153577203
      ],
      [
        "stain",
        -13.317548387480509
      ],
      [
        "gur",
        -11.979366142874603
      ],
      [
        "▁dec",
        -8.830716399304265
      ],
      [
        "▁todd",
        -11.328198673952544
      ],
      [
        "▁coral",
        -12.813824192009854
      ],
      [
        "▁pam",
        -12.855385015337886
      ],
      [
        "▁carry",
        -8.74786032819355
      ],
      [
        "▁sherr",
        -11.062433672169647
      ],
      [
        "▁specialist",
        -10.277847872627277
      ],
      [
        "tcher",
        -11.495374760181917
      ],
      [
        "rou",
        -8.854957786186286
      ],
      [
        "▁01",
        -11.778088733885701
      ],
      [
        "▁stra",
        -12.104662055378167
      ],
      [
        "▁yan",
        -11.676400212060292
      ],
      [
        "▁re-purpos",
        -12.771024938362004
      ],
      [
        "▁possibilit",
        -9.776038697531295
      ],
      [
        "▁mis",
        -9.857366243110253
      ],
      [
        "▁andrea",
        -11.326731735068307
      ],
      [
        "▁shopp",
        -9.524562236260689
      ],
      [
        "▁ash",
        -11.131696973318586
      ],
      [
        "▁muggle",
        -10.331474886500231
      ],
      [
        "▁mandate",
        -11.285577656616894
      ],
      [
        "▁wid",
        -11.176691513609239
      ],
      [
        "▁crimea",
        -12.366538529979987
      ],
      [
        "▁multinational",
        -12.771039509024856
      ],
      [
        "▁cancel",
        -10.510747732023765
      ],
      [
        "▁paralympic",
        -10.452795925684246
      ],
      [
        "▁etc",
        -8.74595794265801
      ],
      [
        "▁bitter",
        -10.845588060041251
      ],
      [
        "▁nanda",
        -11.373803937697424
      ],
      [
        "g",
        -7.802064041395555
      ],
      [
        "▁britanni",
        -12.774784153353425
      ],
      [
        "▁worshiper",
        -12.803997156922014
      ],
      [
        "har",
        -12.794400267113716
      ],
      [
        ".",
        -7.129630536881227
      ],
      [
        "diana",
        -11.646764951582863
      ],
      [
        "▁david",
        -9.177941271524086
      ],
      [
        "nvas",
        -11.220397476231184
      ],
      [
        "▁inheritance",
        -12.271917361227985
      ],
      [
        "▁refere",
        -11.238005745034165
      ],
      [
        "world/",
        -13.391406885764031
      ],
      [
        "▁hypo",
        -12.770917978318284
      ],
      [
        "▁dand",
        -9.850707535455877
      ],
      [
        "ille",
        -11.850120307589071
      ],
      [
        "▁shy",
        -10.621931177496734
      ],
      [
        "011",
        -15.221037539552535
      ],
      [
        "▁techn",
        -12.47001416320031
      ],
      [
        "au",
        -11.97032760426017
      ],
      [
        "▁discourag",
        -10.942565101854285
      ],
      [
        "102",
        -15.4425354296568
      ],
      [
        "▁endure",
        -11.676382465264693
      ],
      [
        "hez",
        -12.038969473472457
      ],
      [
        "mas",
        -9.159550601691219
      ],
      [
        "▁pala",
        -12.802520898452485
      ],
      [
        "▁kittie",
        -12.87955750604662
      ],
      [
        "▁pas",
        -12.47871356481999
      ],
      [
        "wikipedia",
        -11.053168735607464
      ],
      [
        "▁bart",
        -11.66240338754041
      ],
      [
        "gri",
        -11.087957216298108
      ],
      [
        "▁mum",
        -10.036257282629286
      ],
      [
        "▁baby",
        -7.421681434444058
      ],
      [
        "▁bleed",
        -10.861051756438615
      ],
      [
        "▁audit",
        -10.276612711968497
      ],
      [
        "▁fea",
        -11.274701795463406
      ],
      [
        "▁pur",
        -11.928715703665494
      ],
      [
        "▁declar",
        -10.889279765342447
      ],
      [
        "▁rank",
        -9.99691420265277
      ],
      [
        "▁develop",
        -8.391948880344358
      ],
      [
        "cum",
        -13.191003357584147
      ],
      [
        "▁apart",
        -9.743345699065912
      ],
      [
        "note",
        -12.743876876962208
      ],
      [
        ",9",
        -13.146070500982553
      ],
      [
        "▁marxist",
        -12.272356799828753
      ],
      [
        "healthy",
        -10.698294391435066
      ],
      [
        "▁spawn",
        -10.942073040050296
      ],
      [
        "▁rowe",
        -12.518607133078088
      ],
      [
        "oster",
        -12.837626631883635
      ],
      [
        "▁motivate",
        -11.670680305164165
      ],
      [
        "▁car",
        -6.842997137262421
      ],
      [
        "hear",
        -12.140187242508556
      ],
      [
        "▁weav",
        -12.48416707873354
      ],
      [
        "kam",
        -12.893279529907172
      ],
      [
        "▁editors",
        -11.36141594605
      ],
      [
        "▁biochemi",
        -11.703429555052438
      ],
      [
        "tern",
        -13.001954325620956
      ],
      [
        "▁guerrilla",
        -10.667817818827485
      ],
      [
        "▁focus",
        -8.808008085421903
      ],
      [
        "haz",
        -12.57768249064076
      ],
      [
        "▁give",
        -6.618310073129167
      ],
      [
        "▁brief",
        -9.354325026296248
      ],
      [
        "▁early",
        -7.760326121382939
      ],
      [
        "functional",
        -12.7318802096251
      ],
      [
        "▁shi",
        -9.982861565553893
      ],
      [
        "▁gwen",
        -12.27183146022217
      ],
      [
        "▁205",
        -12.660918673195054
      ],
      [
        "price",
        -11.005079022783761
      ],
      [
        "▁disast",
        -12.273913780415914
      ],
      [
        "▁investment",
        -9.77713363017687
      ],
      [
        "yogi",
        -13.21096924230807
      ],
      [
        "▁concern",
        -8.338358583153822
      ],
      [
        "▁thumb",
        -11.053175972857527
      ],
      [
        "▁guardia",
        -10.588354744495211
      ],
      [
        "hers",
        -14.748162080548967
      ],
      [
        "▁licen",
        -11.859580602070697
      ],
      [
        "mulg",
        -12.280686027585448
      ],
      [
        "obber",
        -13.215925380391626
      ],
      [
        "0,000",
        -10.195250905356877
      ],
      [
        "trans",
        -10.240933231132955
      ],
      [
        "▁prohibition",
        -12.775955591747051
      ],
      [
        "▁s.",
        -10.599371767482832
      ],
      [
        "illo",
        -11.46722311793382
      ],
      [
        "▁penal",
        -11.699201957336367
      ],
      [
        "ql",
        -11.420683513906075
      ],
      [
        "▁extract",
        -10.225464254021976
      ],
      [
        "▁iraqiya",
        -12.782176815232852
      ],
      [
        "▁soap",
        -10.522853562229495
      ],
      [
        "▁42,00",
        -13.782910433321955
      ],
      [
        "▁packet",
        -11.496145309901117
      ],
      [
        "▁21,",
        -14.146030434996668
      ],
      [
        "value",
        -12.204619875422917
      ],
      [
        "▁barber",
        -11.391564938319727
      ],
      [
        "inc",
        -8.135972559800303
      ],
      [
        "▁upgrad",
        -11.791017023772039
      ],
      [
        "trivan",
        -13.557583731002609
      ],
      [
        "economic",
        -13.733389174386238
      ],
      [
        "lari",
        -13.672786369848778
      ],
      [
        "▁hatch",
        -11.808190004314605
      ],
      [
        "▁decrease",
        -10.87173727204393
      ],
      [
        "1507",
        -13.383298432819583
      ],
      [
        "▁implie",
        -11.487693912007966
      ],
      [
        "▁mem",
        -8.742872535017423
      ],
      [
        "▁thirty",
        -9.777242291981953
      ],
      [
        "▁me",
        -10.451061185956233
      ],
      [
        "▁fundamental",
        -9.354084747642597
      ],
      [
        "oven",
        -10.27592347478829
      ],
      [
        "▁correspondent",
        -12.771208781500702
      ],
      [
        "▁01:0",
        -13.214497832237065
      ],
      [
        "▁form",
        -7.788411800552783
      ],
      [
        "▁thirt",
        -11.589558869595724
      ],
      [
        "▁setback",
        -11.94222279062928
      ],
      [
        "▁estimat",
        -13.024273976041744
      ],
      [
        "▁liaison",
        -12.771030334765236
      ],
      [
        "khol",
        -12.805474678037783
      ],
      [
        "▁card",
        -8.59746032696778
      ],
      [
        "▁ecu",
        -12.527976738709967
      ],
      [
        "▁royal",
        -9.879896159804689
      ],
      [
        "▁sufficient",
        -9.955071805149895
      ],
      [
        "▁hawk",
        -12.354167093739768
      ],
      [
        "???????????????",
        -11.554970775406666
      ],
      [
        "girl",
        -13.726896580049107
      ],
      [
        "▁lab",
        -9.86818934956857
      ],
      [
        "kansa",
        -11.422780669779202
      ],
      [
        "exist",
        -13.700030419016501
      ],
      [
        "▁qualifi",
        -10.668847703498713
      ],
      [
        "adobe",
        -12.044838376820344
      ],
      [
        "▁saints",
        -12.150198858805162
      ],
      [
        "▁cruel",
        -10.275922440846838
      ],
      [
        "gree",
        -12.725181866128915
      ],
      [
        "233",
        -13.678237943553544
      ],
      [
        "clock",
        -11.727864825242131
      ],
      [
        "▁theor",
        -8.712327955250288
      ],
      [
        "▁jones",
        -10.282270938427645
      ],
      [
        "rry",
        -10.425866491429703
      ],
      [
        "▁notabl",
        -11.115649039584214
      ],
      [
        "▁demand",
        -9.142261467672888
      ],
      [
        "ent",
        -10.352899478348686
      ],
      [
        "▁divorce",
        -11.533367627405864
      ],
      [
        "▁divine",
        -11.337924594802669
      ],
      [
        "▁compel",
        -11.481649024014507
      ],
      [
        "ucas",
        -12.77617624642898
      ],
      [
        "bbc.co.uk/",
        -12.751142013648275
      ],
      [
        "▁envisage",
        -12.271036699430564
      ],
      [
        "▁wrongdo",
        -11.489740949461298
      ],
      [
        "▁extend",
        -9.411003669184256
      ],
      [
        "z",
        -11.758838788587859
      ],
      [
        "▁clarify",
        -11.178169481801483
      ],
      [
        "▁doors",
        -10.887870469755722
      ],
      [
        "▁lev",
        -12.311278255831677
      ],
      [
        ".com/",
        -10.151509655085317
      ],
      [
        "▁natsu",
        -12.585310616935095
      ],
      [
        "▁alternate",
        -11.220948151546553
      ],
      [
        "▁cuisine",
        -11.321024998320633
      ],
      [
        "▁development",
        -8.496023517888062
      ],
      [
        "assemble",
        -12.73286501816849
      ],
      [
        "▁so",
        -11.218941534601761
      ],
      [
        "introduction",
        -12.14355664825429
      ],
      [
        "▁reproduc",
        -11.580808493253958
      ],
      [
        "▁displacement",
        -11.488348003373138
      ],
      [
        "▁viv",
        -13.178566651609096
      ],
      [
        "▁fellow",
        -9.498716136171328
      ],
      [
        "▁european",
        -8.411618776322424
      ],
      [
        "▁dong",
        -10.974608501885374
      ],
      [
        "▁10.",
        -12.227526544380565
      ],
      [
        "▁rbi",
        -11.946273853705462
      ],
      [
        "star",
        -10.85811497811271
      ],
      [
        "▁decor",
        -10.947809679175732
      ],
      [
        "▁gullib",
        -12.401199464929404
      ],
      [
        "▁vc",
        -11.111886830779426
      ],
      [
        "▁infection",
        -10.842818861012963
      ],
      [
        "▁fac",
        -10.316733267226446
      ],
      [
        "▁prescient",
        -11.687776984577807
      ],
      [
        "▁retract",
        -12.699382483601124
      ],
      [
        "▁libel",
        -12.771485595015404
      ],
      [
        "▁grus",
        -12.777340385593451
      ],
      [
        "▁sha'",
        -11.321291435785785
      ],
      [
        "ctus",
        -11.968301917860032
      ],
      [
        "▁smog",
        -12.275303401098672
      ],
      [
        "▁w/",
        -13.028036467691177
      ],
      [
        "+",
        -15.518265406639655
      ],
      [
        "dan",
        -11.181267619385991
      ],
      [
        "▁griss",
        -12.858217440061374
      ],
      [
        "▁percentile",
        -10.590925451683322
      ],
      [
        "ack",
        -12.928599211651854
      ],
      [
        "▁scr",
        -13.619123054623294
      ],
      [
        "▁falter",
        -11.687999591152728
      ],
      [
        "commercial",
        -12.296876650074868
      ],
      [
        "▁plague",
        -11.178197803208782
      ],
      [
        "▁sleigh",
        -12.778311654841328
      ],
      [
        "spec",
        -13.150561858171436
      ],
      [
        "▁put",
        -6.237759447536668
      ],
      [
        "▁kenneth",
        -11.48892431308101
      ],
      [
        "▁baathist",
        -11.937998504724376
      ],
      [
        "▁agenc",
        -9.215646320935976
      ],
      [
        "▁working",
        -8.287187966365074
      ],
      [
        "▁frank",
        -9.639653586300765
      ],
      [
        "/",
        -11.86295882992016
      ],
      [
        "▁hoo",
        -10.543572762489786
      ],
      [
        "96/",
        -13.58763307569862
      ],
      [
        "▁mash",
        -11.50533107513219
      ],
      [
        "▁photos",
        -10.478388908784403
      ],
      [
        "duck",
        -12.879285635143736
      ],
      [
        "ramon",
        -12.213210922443801
      ],
      [
        "▁regime",
        -9.995066820102418
      ],
      [
        "▁bless",
        -10.933509685268513
      ],
      [
        "screen",
        -12.647419417912888
      ],
      [
        "sa",
        -10.695860057288726
      ],
      [
        "ribbean",
        -12.767486358219216
      ],
      [
        "acion",
        -11.365745765385471
      ],
      [
        "taste",
        -12.735557380332683
      ],
      [
        "▁slum",
        -13.091338143748773
      ],
      [
        "▁deport",
        -11.942467216167499
      ],
      [
        "▁supporter",
        -10.380139957767865
      ],
      [
        "▁remnant",
        -11.93769211403371
      ],
      [
        "▁russian",
        -9.295929118712987
      ],
      [
        "rmal",
        -12.748498675541647
      ],
      [
        "10/20",
        -13.973159258028971
      ],
      [
        "▁wet",
        -9.390482360835637
      ],
      [
        "▁fitz",
        -12.281154032618145
      ],
      [
        "▁pheno",
        -12.248934910853189
      ],
      [
        "▁dissatisf",
        -11.321045863615812
      ],
      [
        "beauty",
        -9.421563097855133
      ],
      [
        "▁industrialist",
        -11.939431589794607
      ],
      [
        "furniture",
        -9.712529933698715
      ],
      [
        "▁urge",
        -10.341210738430643
      ],
      [
        "action",
        -11.556816398940446
      ],
      [
        "▁space",
        -8.021829052152064
      ],
      [
        "▁ascend",
        -11.687750603604353
      ],
      [
        "▁6",
        -12.314560894932143
      ],
      [
        "plat",
        -13.725699567272832
      ],
      [
        "result",
        -13.731738361178877
      ],
      [
        "▁200,000",
        -11.169756943986634
      ],
      [
        "▁c",
        -7.305209582171903
      ],
      [
        "▁imperial",
        -11.054396298123875
      ],
      [
        "angie",
        -12.821246558900642
      ],
      [
        "▁whale",
        -9.54318597175979
      ],
      [
        "▁observ",
        -10.401052397575606
      ],
      [
        "▁bound",
        -10.174725860066935
      ],
      [
        "ization",
        -11.100233639206222
      ],
      [
        "ograph",
        -12.685178393823946
      ],
      [
        "agger",
        -13.664054918646018
      ],
      [
        "▁loom",
        -10.950886618814184
      ],
      [
        "ladder",
        -11.905598498527219
      ],
      [
        "▁hege",
        -12.77708821967488
      ],
      [
        "▁aphid",
        -12.771052441425233
      ],
      [
        "▁m-m",
        -12.829682648207083
      ],
      [
        "▁pollutant",
        -12.271294229949119
      ],
      [
        "▁indige",
        -11.3217118664208
      ],
      [
        "iewe",
        -11.690442279546767
      ],
      [
        "ula",
        -11.5325592397742
      ],
      [
        "form",
        -13.6069871966102
      ],
      [
        "nca",
        -12.403582309077763
      ],
      [
        "get",
        -11.33405405661711
      ],
      [
        "▁cliff",
        -9.967293901069464
      ],
      [
        "▁pipp",
        -11.053730942685858
      ],
      [
        "▁pedicure",
        -11.687691602891734
      ],
      [
        "mother",
        -12.780369996904772
      ],
      [
        "nant",
        -11.854830407140497
      ],
      [
        "▁roast",
        -10.942094272777041
      ],
      [
        "▁clink",
        -11.945086456070118
      ],
      [
        "×",
        -11.833785825435129
      ],
      [
        "12",
        -10.115966630470972
      ],
      [
        "▁super",
        -9.04943896582336
      ],
      [
        "▁apologiz",
        -13.65973988704192
      ],
      [
        "▁capsule",
        -11.687694579614147
      ],
      [
        "cu",
        -11.356650890325701
      ],
      [
        "▁near",
        -8.462071939348817
      ],
      [
        "-004",
        -14.199300681685418
      ],
      [
        "poibeau",
        -12.77102554266287
      ],
      [
        "z",
        -8.513776215451227
      ],
      [
        "▁’",
        -10.228851442284377
      ],
      [
        "upon",
        -12.92622239698004
      ],
      [
        "▁departure",
        -10.173511139684614
      ],
      [
        "▁marin",
        -12.025946043040776
      ],
      [
        "▁conclusion",
        -9.743844511968732
      ],
      [
        "▁xml",
        -8.856436320361386
      ],
      [
        "▁nandaro",
        -11.378131439771892
      ],
      [
        "½",
        -14.13677057935472
      ],
      [
        "[MASK]",
        0.0
      ],
      [
        "▁row",
        -9.346129963483953
      ],
      [
        "1602",
        -12.75286170753208
      ],
      [
        "▁ja",
        -12.309018936156052
      ],
      [
        "▁arr",
        -11.508863784435743
      ],
      [
        "▁artwork",
        -10.125988731459845
      ],
      [
        "wa",
        -12.083792402984447
      ],
      [
        "▁zippe",
        -11.69867975070564
      ],
      [
        "▁flourish",
        -11.053335515359336
      ],
      [
        "▁securit",
        -10.796433582391384
      ],
      [
        "fth",
        -10.18213701733694
      ],
      [
        "▁disgusting",
        -12.310382285559365
      ],
      [
        "▁safe",
        -8.287358361877313
      ],
      [
        "▁link",
        -8.635422815354058
      ],
      [
        "▁shave",
        -12.290382432971136
      ],
      [
        "▁conservato",
        -12.271024922395764
      ],
      [
        "▁cuff",
        -12.2409669386087
      ],
      [
        "▁propos",
        -10.472135350399931
      ],
      [
        "▁rough",
        -9.467503571177236
      ],
      [
        "▁commentar",
        -11.309673454755702
      ],
      [
        "▁cane",
        -11.335335863183962
      ],
      [
        "▁penetrate",
        -12.372939945966738
      ],
      [
        "▁ac",
        -10.26036110434609
      ],
      [
        "flower",
        -12.21612029753988
      ],
      [
        "bullfight",
        -12.772389140213882
      ],
      [
        "guy",
        -11.157773862027376
      ],
      [
        "▁rigid",
        -11.487900724684946
      ],
      [
        "▁'",
        -8.499373499932924
      ],
      [
        "▁10:4",
        -12.397343587659027
      ],
      [
        "▁au",
        -11.657133033853109
      ],
      [
        "▁eye",
        -7.663332598656543
      ],
      [
        "▁television",
        -9.596508487370633
      ],
      [
        "giving",
        -9.142384953428785
      ],
      [
        "▁resolve",
        -10.963516281518594
      ],
      [
        "ansen",
        -13.637565979844098
      ],
      [
        "▁accus",
        -10.793331047486706
      ],
      [
        "▁jala",
        -11.694743433494585
      ],
      [
        "heels",
        -12.560268971138372
      ],
      [
        "▁breakthrough",
        -11.689113254597247
      ],
      [
        "▁penta",
        -13.47990592594265
      ],
      [
        "'",
        -5.811804410257997
      ],
      [
        "▁misc.consumers",
        -12.27102494537174
      ],
      [
        "▁channel",
        -9.62487912973235
      ],
      [
        "339",
        -11.238809738318704
      ],
      [
        "er",
        -5.988891500611393
      ],
      [
        "▁recite",
        -12.29435270564899
      ],
      [
        "▁entre",
        -11.532984266888292
      ],
      [
        "ruse",
        -11.5298074496698
      ],
      [
        "ement",
        -12.404538947198873
      ],
      [
        "▁hunche",
        -12.77464338399905
      ],
      [
        "ein",
        -15.518265406639655
      ],
      [
        "herself",
        -13.45138161859207
      ],
      [
        "shore",
        -10.925380983741604
      ],
      [
        "▁deadline",
        -11.054861987146262
      ],
      [
        "ex",
        -13.238609324000258
      ],
      [
        "box",
        -10.556188414334162
      ],
      [
        "▁fil",
        -10.678056777802396
      ],
      [
        "▁beginner",
        -11.380240277512112
      ],
      [
        "shrine",
        -12.725747940435616
      ],
      [
        "pi.",
        -12.787478660160291
      ],
      [
        "morning",
        -13.719865826123922
      ],
      [
        "▁lympho",
        -12.337539391790543
      ],
      [
        "▁luck",
        -9.11970613115524
      ],
      [
        "▁refer",
        -9.526989262062653
      ],
      [
        "▁illegal",
        -10.590893183727845
      ],
      [
        "ors",
        -11.776077782252447
      ],
      [
        "▁gazag",
        -12.278948605351385
      ],
      [
        "entine",
        -13.444968147309602
      ],
      [
        "▁flick",
        -12.530806342707827
      ],
      [
        "system",
        -11.898962630227127
      ],
      [
        "yard",
        -10.685194754089508
      ],
      [
        "▁countenance",
        -12.771039703990283
      ],
      [
        "u",
        -7.903191793250447
      ],
      [
        "▁regina",
        -11.937700580084948
      ],
      [
        "▁05:5",
        -13.15777586100445
      ],
      [
        "▁utiliz",
        -12.515142598487085
      ],
      [
        "▁wee",
        -10.408531398555603
      ],
      [
        "▁alt.animals.",
        -10.565842613368151
      ],
      [
        "rubber",
        -9.934880639989927
      ],
      [
        "▁xi",
        -13.037780232626263
      ],
      [
        "ipped",
        -11.193143283580577
      ],
      [
        "jacobs",
        -13.722338602302216
      ],
      [
        "▁unveil",
        -12.771136275902565
      ],
      [
        "equine",
        -11.18615751815471
      ],
      [
        "polis",
        -8.060622179770988
      ],
      [
        "▁illustrate",
        -11.069175584255664
      ],
      [
        "▁india",
        -8.531676135239588
      ],
      [
        "▁submer",
        -12.27306385961814
      ],
      [
        "▁bash",
        -11.79936331175092
      ],
      [
        "re",
        -7.418210813944742
      ],
      [
        "▁breeze",
        -11.321026451995833
      ],
      [
        "alikh",
        -12.96646491546948
      ],
      [
        "24",
        -12.096653605591769
      ],
      [
        "▁few",
        -7.5328408650622
      ],
      [
        "▁york",
        -7.597243374989292
      ],
      [
        "▁create",
        -8.24624002836422
      ],
      [
        "rake",
        -12.359133705594408
      ],
      [
        "▁pron",
        -10.926128996817967
      ],
      [
        "▁distinct",
        -11.94354169347396
      ],
      [
        "▁hood",
        -11.565507390960647
      ],
      [
        "atic",
        -11.34346250656026
      ],
      [
        "▁0.1",
        -13.296955699958513
      ],
      [
        "▁fourth",
        -9.468113900551128
      ],
      [
        "▁blaze",
        -11.937906770312702
      ],
      [
        "eta",
        -9.564740455031949
      ],
      [
        "▁percell",
        -11.688099592143256
      ],
      [
        "▁argentin",
        -10.080211705682459
      ],
      [
        "▁graphic",
        -10.399808647526124
      ],
      [
        "▁fec",
        -12.317638602783415
      ],
      [
        "call",
        -12.897658816350289
      ],
      [
        "▁peter",
        -8.461092665457901
      ],
      [
        "奈",
        -12.833785825435129
      ],
      [
        "mount",
        -11.648301815991243
      ],
      [
        "▁squash",
        -11.353823061934817
      ],
      [
        "▁acoustic",
        -12.271025450201966
      ],
      [
        "▁reread",
        -12.789455068726705
      ],
      [
        "▁lyn",
        -11.66356034536408
      ],
      [
        "▁rec",
        -11.305070924016547
      ],
      [
        "▁alex",
        -11.178256264529221
      ],
      [
        "▁intermediar",
        -12.271032997365413
      ],
      [
        "▁owl",
        -10.000571504191104
      ],
      [
        "▁policymak",
        -11.186097550214484
      ],
      [
        "▁200",
        -7.835194488110916
      ],
      [
        "▁shiver",
        -12.787759316676318
      ],
      [
        "hen",
        -11.635308161272327
      ],
      [
        "▁wok",
        -12.785621890182863
      ],
      [
        "6:00",
        -11.54136812453849
      ],
      [
        "▁stoke",
        -12.278623133078254
      ],
      [
        "▁sand",
        -10.135325054823396
      ],
      [
        "▁moslem",
        -10.669616779620267
      ],
      [
        "ife",
        -12.59075677883499
      ],
      [
        "▁2:30",
        -11.734134949673816
      ],
      [
        "▁java",
        -12.277439060045081
      ],
      [
        "lys",
        -10.25405955036088
      ],
      [
        "▁admirer",
        -12.809593437087141
      ],
      [
        "inburg",
        -12.271513559844642
      ],
      [
        "▁832.676.",
        -13.136770579315863
      ],
      [
        "9:5",
        -13.21345167014526
      ],
      [
        "▁repurpos",
        -12.771027140727035
      ],
      [
        ".b.",
        -12.049850962101104
      ],
      [
        "▁termin",
        -11.184406195674113
      ],
      [
        "vik",
        -12.270208807559833
      ],
      [
        "well",
        -10.547416033661259
      ],
      [
        "▁backward",
        -10.669225068472619
      ],
      [
        "==",
        -10.802124173760925
      ],
      [
        "▁nav",
        -9.770402691421696
      ],
      [
        "▁scholar",
        -10.323578796658097
      ],
      [
        "oom",
        -12.53596697715926
      ],
      [
        "▁pric",
        -10.191303320883982
      ],
      [
        "▁hugg",
        -11.715287093171789
      ],
      [
        "▁warlord",
        -11.938181724276602
      ],
      [
        "eau",
        -10.944244681849543
      ],
      [
        "▁approv",
        -11.865186569102619
      ],
      [
        "▁position",
        -8.509193647929068
      ],
      [
        "▁ambassador",
        -11.321024918841626
      ],
      [
        "bun",
        -10.865137028520433
      ],
      [
        "▁nationalist",
        -12.289716059194696
      ],
      [
        "▁pinch",
        -10.837995699404324
      ],
      [
        "▁spoil",
        -11.322009960034391
      ],
      [
        "▁overhea",
        -12.462661600716094
      ],
      [
        "reports",
        -11.930213991818134
      ],
      [
        "▁cashi",
        -12.12313564225202
      ],
      [
        "▁garte",
        -13.309279687311788
      ],
      [
        "▁excited",
        -9.726298439799404
      ],
      [
        "▁brake",
        -12.272520427584471
      ],
      [
        "▁structur",
        -12.672970886901647
      ],
      [
        "▁yo",
        -11.72382369226988
      ],
      [
        "▁international",
        -8.037630768109947
      ],
      [
        "▁japane",
        -9.298765471310634
      ],
      [
        "▁thro",
        -12.189584710418389
      ],
      [
        "▁wonderful",
        -9.075354977568995
      ],
      [
        "▁non-re",
        -12.897294096262332
      ],
      [
        "▁g",
        -10.973761537441948
      ],
      [
        "over",
        -9.822249509291382
      ],
      [
        "▁101",
        -12.534622449071785
      ],
      [
        "▁incentive",
        -10.667814942539275
      ],
      [
        "05/",
        -12.771421586909662
      ],
      [
        "▁vangie",
        -11.937941142058243
      ],
      [
        "ne",
        -8.790051701260115
      ],
      [
        "▁fortie",
        -10.820886765515171
      ],
      [
        "rdain",
        -12.33334459561655
      ],
      [
        "abul",
        -11.187044933964831
      ],
      [
        "▁bengal",
        -11.324074774101879
      ],
      [
        "olat",
        -12.508200557779952
      ],
      [
        "▁gentil",
        -12.77160345893171
      ],
      [
        "▁173",
        -13.542186875789044
      ],
      [
        "mohan",
        -13.691208991252902
      ],
      [
        "▁rouss",
        -12.867923640799523
      ],
      [
        "▁shell",
        -9.881490213104946
      ],
      [
        "4/200",
        -11.696837855527704
      ],
      [
        "▁monday",
        -7.807030912487748
      ],
      [
        "▁purge",
        -12.771976352197482
      ],
      [
        "▁shop",
        -8.634681514336533
      ],
      [
        "magne",
        -12.714457293694814
      ],
      [
        "▁deterr",
        -12.302003044682383
      ],
      [
        "▁disclosure",
        -12.771566421999475
      ],
      [
        "▁125",
        -12.781539555372706
      ],
      [
        "mmmm",
        -11.840105667858372
      ],
      [
        "▁prominen",
        -10.519571105282466
      ],
      [
        "▁swap",
        -10.95290526104371
      ],
      [
        "▁tom",
        -7.916845641689411
      ],
      [
        "▁guards",
        -10.965219022931267
      ],
      [
        "▁strict",
        -10.080225751184424
      ],
      [
        "amas",
        -11.408240134955161
      ],
      [
        "▁some",
        -6.347888441191562
      ],
      [
        "ag",
        -12.393280713458324
      ],
      [
        "▁melan",
        -11.929075192439997
      ],
      [
        "▁alt.animals.dog",
        -12.27123867139234
      ],
      [
        "▁nazare",
        -12.77102795993122
      ],
      [
        "-see",
        -12.775024681319422
      ],
      [
        "fluorescent",
        -11.937592556612193
      ],
      [
        "cision",
        -12.564919355084257
      ],
      [
        "▁steve",
        -9.912098874218493
      ],
      [
        "oka",
        -12.83294292877692
      ],
      [
        "▁organ",
        -11.927504304813885
      ],
      [
        "leopard",
        -13.729065040558863
      ],
      [
        "▁pushe",
        -11.573074164960072
      ],
      [
        "▁hankie",
        -12.812358931413595
      ],
      [
        "oodle",
        -10.735517839180812
      ],
      [
        "▁liberate",
        -12.27725256376398
      ],
      [
        "ginn",
        -11.51677083872962
      ],
      [
        "▁forc",
        -12.577520839258913
      ],
      [
        "▁pase",
        -12.891967513219026
      ],
      [
        "▁heavy",
        -9.232981354789754
      ],
      [
        "▁geometric",
        -12.276357014830737
      ],
      [
        "▁consequence",
        -9.87956816605267
      ],
      [
        "▁mast",
        -12.351109470895901
      ],
      [
        "▁made",
        -7.045593571212478
      ],
      [
        "pain",
        -10.13375689093811
      ],
      [
        "▁bail",
        -12.27198707935755
      ],
      [
        "▁digi",
        -12.626482661853453
      ],
      [
        "▁tau",
        -11.173011126309131
      ],
      [
        "zak",
        -12.58442576987121
      ],
      [
        "leopold",
        -11.178167802950101
      ],
      [
        "▁advisor",
        -10.844856527930446
      ],
      [
        "▁meir",
        -11.178680290669146
      ],
      [
        "▁communicate",
        -10.944468088997448
      ],
      [
        "▁log",
        -10.63757522752906
      ],
      [
        "▁+",
        -12.359034424904078
      ],
      [
        "▁donald",
        -10.942557486536677
      ],
      [
        "variation",
        -13.733760285247545
      ],
      [
        "and",
        -10.66544795153681
      ],
      [
        "▁partner",
        -10.319552242410046
      ],
      [
        "▁rudol",
        -12.771062761092002
      ],
      [
        "▁california",
        -8.716431880762592
      ],
      [
        "▁dav",
        -11.174077043999457
      ],
      [
        "▁terrif",
        -12.071465153220862
      ],
      [
        "▁c",
        -10.178172696842289
      ],
      [
        "▁suz",
        -11.942717059526627
      ],
      [
        "▁organisation",
        -10.52127617855543
      ],
      [
        "uffin",
        -11.737387297971972
      ],
      [
        "▁waive",
        -10.842559485021368
      ],
      [
        "▁how",
        -5.8597381293234045
      ],
      [
        "▁vega",
        -8.214068175317152
      ],
      [
        "▁stephen",
        -11.053391365538914
      ],
      [
        "dict",
        -12.108261435810489
      ],
      [
        "▁http://news.",
        -13.72628792241786
      ],
      [
        "▁funn",
        -8.620876673725245
      ],
      [
        "▁loud",
        -9.356874870894
      ],
      [
        "▁reassur",
        -12.462566015158195
      ],
      [
        "▁pe",
        -10.58493336870663
      ],
      [
        "▁sat",
        -8.881832972249015
      ],
      [
        "cles",
        -12.804070278823158
      ],
      [
        "hav",
        -9.281154885061614
      ],
      [
        "▁serve",
        -8.012539097749347
      ],
      [
        "s@e",
        -11.493874526824209
      ],
      [
        "▁temporar",
        -10.455272075386954
      ],
      [
        "▁11",
        -8.972238801626698
      ],
      [
        "333",
        -14.345008994232288
      ],
      [
        "▁printer",
        -11.99434390311603
      ],
      [
        "annibal",
        -12.827138604758472
      ],
      [
        "laim",
        -12.187490011408967
      ],
      [
        "▁connections",
        -10.828112249964592
      ],
      [
        "▁beautiful",
        -8.470853058922621
      ],
      [
        "▁middle",
        -8.470366497304823
      ],
      [
        "alliance",
        -10.173932546106055
      ],
      [
        "tanza",
        -12.006253547051868
      ],
      [
        "▁sue",
        -10.093416392993817
      ],
      [
        "▁eli",
        -12.854776205704727
      ],
      [
        "▁l",
        -12.135684204254646
      ],
      [
        "▁104",
        -13.100297995490417
      ],
      [
        "access",
        -13.731736745010672
      ],
      [
        "nia",
        -9.726279199909234
      ],
      [
        "▁rob",
        -10.23324613010222
      ],
      [
        "path",
        -11.88728424410526
      ],
      [
        "▁follow",
        -8.130827517318195
      ],
      [
        "▁firef",
        -13.178981546356368
      ],
      [
        "values",
        -11.227392804242175
      ],
      [
        "after",
        -11.63697640333626
      ],
      [
        "▁defin",
        -9.800956733371578
      ],
      [
        "ception",
        -12.086098978870893
      ],
      [
        "nning",
        -12.964695795476587
      ],
      [
        "0-2",
        -13.137095825369885
      ],
      [
        "▁infant",
        -11.48782602140989
      ],
      [
        "▁correction",
        -11.497346712605648
      ],
      [
        "▁men",
        -8.191164594293141
      ],
      [
        "isation",
        -10.481439928435528
      ],
      [
        "987",
        -14.893421856703934
      ],
      [
        "▁0.00",
        -15.109614267568244
      ],
      [
        "▁glove",
        -9.880390091606358
      ],
      [
        "▁roadway",
        -12.280170470447548
      ],
      [
        "▁pr",
        -10.45027154150719
      ],
      [
        "mo",
        -11.05508503396024
      ],
      [
        "▁demo",
        -11.111657638048138
      ],
      [
        "▁adj",
        -11.914934128551142
      ],
      [
        "▁goblin",
        -11.687698643667948
      ],
      [
        "▁para",
        -10.213229676076574
      ],
      [
        "26",
        -11.044531444058311
      ],
      [
        "448",
        -13.685044922631343
      ],
      [
        "mu",
        -12.904897371489005
      ],
      [
        "resources",
        -10.554310129828952
      ],
      [
        "▁depth",
        -10.752454550665238
      ],
      [
        "runner",
        -12.732122411922935
      ],
      [
        "▁squeez",
        -12.58414266934491
      ],
      [
        "▁mang",
        -13.44360311786954
      ],
      [
        "▁qa",
        -8.784659638564307
      ],
      [
        "nana",
        -9.662043387588838
      ],
      [
        "▁roll",
        -8.748244303384688
      ],
      [
        "▁accumulat",
        -11.472648396308243
      ],
      [
        "unga",
        -11.598701075666995
      ],
      [
        "▁instruction",
        -9.844030248358507
      ],
      [
        "▁struggl",
        -10.929299648186927
      ],
      [
        "991",
        -12.803767022995844
      ],
      [
        "▁wal",
        -10.352755438971261
      ],
      [
        "▁instruct",
        -11.103671252134138
      ],
      [
        "-------------",
        -10.204800430093533
      ],
      [
        "▁translator",
        -12.272683200434361
      ],
      [
        "hole",
        -11.54467378976375
      ],
      [
        "valuation",
        -12.110494855715169
      ],
      [
        "▁huckle",
        -11.1781682088643
      ],
      [
        "ch",
        -12.08501243113893
      ],
      [
        "iteration",
        -12.77309533587258
      ],
      [
        "/",
        -9.20628404617688
      ],
      [
        "▁become",
        -8.142059709751521
      ],
      [
        "▁discretion",
        -11.32112763245088
      ],
      [
        "▁'60",
        -12.771024951232178
      ],
      [
        ".co.uk/",
        -11.712775433061354
      ],
      [
        "ter",
        -10.432873965842234
      ],
      [
        "napol",
        -12.517391103557882
      ],
      [
        "▁novel",
        -9.141879898838816
      ],
      [
        "▁mins",
        -11.316020539885928
      ],
      [
        "cent",
        -10.823422790160253
      ],
      [
        "9/200",
        -11.994173130074634
      ],
      [
        "▁plac",
        -11.424200858230517
      ],
      [
        "▁rabbi",
        -12.266298057650832
      ],
      [
        "▁mcgo",
        -12.695757624655439
      ],
      [
        "▁overcom",
        -10.754294041834036
      ],
      [
        "middle",
        -13.733388238716529
      ],
      [
        "196",
        -13.559621706648938
      ],
      [
        "cion",
        -13.357598950459646
      ],
      [
        "-supplies/",
        -12.771304635268
      ],
      [
        "▁192",
        -11.94057202446741
      ],
      [
        "oral",
        -11.285129816686023
      ],
      [
        "productive",
        -11.900922662095182
      ],
      [
        "tograph",
        -12.094025373317958
      ],
      [
        "▁quartile",
        -10.037684636047572
      ],
      [
        "▁confine",
        -10.942091871349335
      ],
      [
        "▁tyr",
        -12.287897707630155
      ],
      [
        "ja",
        -12.135023217070913
      ],
      [
        "hearted",
        -12.253739832888051
      ],
      [
        "****",
        -11.720199025079861
      ],
      [
        "▁violen",
        -10.230721778255361
      ],
      [
        "▁helm",
        -11.975452039469657
      ],
      [
        "^",
        -10.478257699563933
      ],
      [
        "ll",
        -11.15993608092593
      ],
      [
        "ened",
        -10.692459198977282
      ],
      [
        "▁stand",
        -11.833815694314197
      ],
      [
        "▁favor",
        -10.198333626645255
      ],
      [
        "▁adam",
        -7.690652088565816
      ],
      [
        "▁beard",
        -10.172212092325005
      ],
      [
        "▁knot",
        -10.668146690273668
      ],
      [
        "▁logical",
        -11.344050461134499
      ],
      [
        "▁04:3",
        -12.39975877017382
      ],
      [
        "/in",
        -12.368545358447015
      ],
      [
        "▁halt",
        -11.378860094874803
      ],
      [
        "ne",
        -10.32490622756281
      ],
      [
        "ove",
        -11.814824832607663
      ],
      [
        "▁cruz",
        -12.771606574308308
      ],
      [
        "6/",
        -13.566124420789025
      ],
      [
        "▁giga",
        -13.707043815652394
      ],
      [
        "▁tann",
        -12.285736534402158
      ],
      [
        "▁total",
        -8.749461251665956
      ],
      [
        "▁quicken",
        -12.32492722142821
      ],
      [
        "▁riches",
        -11.815674763422503
      ],
      [
        "1.8",
        -12.279299099288766
      ],
      [
        "▁robber",
        -11.1809599981548
      ],
      [
        "▁pray",
        -10.517885473366618
      ],
      [
        "der",
        -13.597667753359055
      ],
      [
        "▁8:",
        -14.495891278240808
      ],
      [
        "▁plotter",
        -12.27490975262134
      ],
      [
        "▁re-establish",
        -12.771024918842661
      ],
      [
        "▁birthday",
        -8.544661149551171
      ],
      [
        "▁bount",
        -13.450052680011513
      ],
      [
        "sight",
        -11.40920298912614
      ],
      [
        "occupy",
        -13.728655067189344
      ],
      [
        "▁troop",
        -9.896413368586819
      ],
      [
        "▁moderat",
        -12.627642185516518
      ],
      [
        "▁hoax",
        -11.321940432035555
      ],
      [
        "stance",
        -9.925591153706558
      ],
      [
        "bit",
        -10.827144915171093
      ],
      [
        "@a",
        -11.548842638013548
      ],
      [
        "▁perpetuate",
        -12.787013982415694
      ],
      [
        "▁leader",
        -9.186244450534927
      ],
      [
        "▁secretary",
        -9.546067688371455
      ],
      [
        "▁brain",
        -9.306787388137078
      ],
      [
        "▁its",
        -7.72296247419334
      ],
      [
        "ct",
        -9.519962088824977
      ],
      [
        "siz",
        -13.730114809409962
      ],
      [
        "▁hit",
        -7.956945453730806
      ],
      [
        "▁coheren",
        -11.692857701777646
      ],
      [
        "▁solve",
        -10.400233085267262
      ],
      [
        "▁pseudonym",
        -11.687691595006303
      ],
      [
        "tender",
        -13.165108806701198
      ],
      [
        "▁luther",
        -10.844477656691826
      ],
      [
        "▁=",
        -10.869655881095504
      ],
      [
        "▁kell",
        -11.12559098780228
      ],
      [
        "▁entit",
        -9.875799205523279
      ],
      [
        "▁supplement",
        -10.75122471351771
      ],
      [
        "▁lawsuit",
        -11.321025422997854
      ],
      [
        "▁waterway",
        -11.499953356075089
      ],
      [
        "enti",
        -12.154891043607538
      ],
      [
        "▁suf",
        -10.456491828551915
      ],
      [
        "▁interference",
        -10.944520557589883
      ],
      [
        "leur",
        -11.834203543590597
      ],
      [
        "▁aha",
        -11.67280624013664
      ],
      [
        "▁04:0",
        -12.773739120218524
      ],
      [
        "▁hedge",
        -10.669098297999927
      ],
      [
        "▁renew",
        -10.389854106088015
      ],
      [
        "▁yemen",
        -11.692750920300945
      ],
      [
        "adelphi",
        -6.986225601479354
      ],
      [
        "▁31",
        -10.323166577539656
      ],
      [
        "▁accompany",
        -12.350344709892777
      ],
      [
        "▁altho",
        -8.78807180982115
      ],
      [
        "77.9",
        -13.136809847545772
      ],
      [
        "empirical",
        -12.7311202285793
      ],
      [
        "▁enhance",
        -10.535142361603539
      ],
      [
        "▁wei",
        -12.621471863151188
      ],
      [
        "▁territori",
        -12.57306707979349
      ],
      [
        "▁sacrament",
        -11.937691600777816
      ],
      [
        "▁waiver",
        -10.670645593221316
      ],
      [
        "▁stopp",
        -8.837043180502244
      ],
      [
        "00",
        -9.552396791548091
      ],
      [
        "▁spider",
        -9.25224263874279
      ],
      [
        "▁wel",
        -10.452125002941226
      ],
      [
        "▁oversea",
        -10.751270459834956
      ],
      [
        "▁110",
        -11.62840249240278
      ],
      [
        "▁tail",
        -9.178751558747656
      ],
      [
        "▁addict",
        -10.66787885274194
      ],
      [
        ",00",
        -12.77109588532938
      ],
      [
        "▁vest",
        -10.754824689605012
      ],
      [
        "▁distant",
        -10.942108858445133
      ],
      [
        "▁salt",
        -8.06131751027824
      ],
      [
        "▁dat",
        -8.781383868073103
      ],
      [
        "========",
        -13.622794927605998
      ],
      [
        "▁data",
        -7.696582431807802
      ],
      [
        "▁propert",
        -8.364605058753625
      ],
      [
        "ral",
        -11.010762173428125
      ],
      [
        "resume",
        -12.73199546929392
      ],
      [
        "▁orangutan",
        -11.937691585568569
      ],
      [
        "wt_",
        -12.778940636960343
      ],
      [
        "▁thou",
        -12.829677879941501
      ],
      [
        "▁inclusi",
        -11.640471510147846
      ],
      [
        "▁no",
        -6.215786342814156
      ],
      [
        "▁sa",
        -9.391262604333544
      ],
      [
        "▁play+grou",
        -10.8686905613922
      ],
      [
        "-hea",
        -12.774085120217258
      ],
      [
        "▁artist",
        -9.744574993258588
      ],
      [
        "proposal",
        -12.73302401897148
      ],
      [
        "▁hungarian",
        -12.77122203146874
      ],
      [
        "odor",
        -11.953798672628846
      ],
      [
        "▁gleam",
        -11.321197442827945
      ],
      [
        "▁eaves",
        -12.27264142647383
      ],
      [
        "-en",
        -13.722380887343679
      ],
      [
        "▁remember",
        -7.560807508954338
      ],
      [
        "thus",
        -10.133259834333966
      ],
      [
        "▁wow",
        -9.333522329934793
      ],
      [
        "▁physicist",
        -11.937691588224066
      ],
      [
        "▁scholars",
        -10.18121624071428
      ],
      [
        "▁nipp",
        -11.946663904063968
      ],
      [
        "senate",
        -9.497296671859987
      ],
      [
        "▁pin",
        -9.688527738313223
      ],
      [
        "▁deteriorat",
        -11.768014168068126
      ],
      [
        "▁atm",
        -12.281985210486383
      ],
      [
        "-dslr-",
        -12.774325543087686
      ],
      [
        "▁failure",
        -9.712602446359046
      ],
      [
        "▁contain",
        -8.94953495484532
      ],
      [
        "▁mile",
        -10.191581625708215
      ],
      [
        "kel",
        -11.67571346063321
      ],
      [
        "▁cogniti",
        -10.942423531984456
      ],
      [
        "▁legal",
        -8.848074344517883
      ],
      [
        "▁emer",
        -11.904359821686443
      ],
      [
        "light",
        -9.787493304109189
      ],
      [
        "▁bozo",
        -10.452843960610785
      ],
      [
        "mers",
        -10.936307423385442
      ],
      [
        "▁l.",
        -10.803519393302707
      ],
      [
        "▁inter",
        -11.373820383720101
      ],
      [
        "▁sh",
        -10.592138988891902
      ],
      [
        "l-",
        -12.13759450753502
      ],
      [
        "-size",
        -12.628541845438626
      ],
      [
        "▁found",
        -7.634543749143943
      ],
      [
        "$t",
        -12.822858484187716
      ],
      [
        "▁curb",
        -11.178439383603223
      ],
      [
        "▁tab",
        -10.338706625327122
      ],
      [
        "▁dodg",
        -11.075614756704221
      ],
      [
        "▁liz",
        -10.98597472251028
      ],
      [
        "firefox",
        -10.667835618203817
      ],
      [
        "▁ride",
        -8.371742056065994
      ],
      [
        "▁shelter",
        -10.519757604446605
      ],
      [
        "▁mott",
        -11.976039252999678
      ],
      [
        "▁max",
        -9.494389998404536
      ],
      [
        "acious",
        -12.575278659681576
      ],
      [
        "▁italic",
        -12.777483877710997
      ],
      [
        "▁ad",
        -10.112228209213773
      ],
      [
        "a-ra",
        -12.780300666968179
      ],
      [
        "▁fabo",
        -12.798017739713801
      ],
      [
        "▁enlarg",
        -12.641653975796121
      ],
      [
        "ani",
        -12.19495048445057
      ],
      [
        "▁indoor",
        -10.751234477131757
      ],
      [
        "▁refugee",
        -10.333506970159641
      ],
      [
        "▁slovenia",
        -11.687693277672656
      ],
      [
        "▁jp",
        -12.465842466255088
      ],
      [
        "trophy",
        -12.218691424006424
      ],
      [
        "ric",
        -13.159083272160423
      ],
      [
        "▁increasing",
        -9.421026301991088
      ],
      [
        "▁ideal",
        -10.289642546002835
      ],
      [
        "'",
        -4.0655443185469125
      ],
      [
        "is",
        -7.953645938716318
      ],
      [
        "▁douglas",
        -11.937717630163915
      ],
      [
        "▁acute",
        -11.937748698460693
      ],
      [
        "law",
        -11.447632231573781
      ],
      [
        "▁ranj",
        -12.801834970776778
      ],
      [
        "▁yellow",
        -8.602982581840788
      ],
      [
        "▁napkin",
        -10.453054962048926
      ],
      [
        "assin",
        -12.78094602255416
      ],
      [
        "▁mineral",
        -11.179590469632059
      ],
      [
        "npr",
        -12.77068729351155
      ],
      [
        "▁inde",
        -9.668788598090224
      ],
      [
        "dollar",
        -12.731329505047547
      ],
      [
        "fli",
        -13.677620488801818
      ],
      [
        "▁academ",
        -10.641375373199605
      ],
      [
        "▁exceptional",
        -10.720722650340008
      ],
      [
        "▁uhh",
        -8.316814345696162
      ],
      [
        "▁dual",
        -11.671595521380032
      ],
      [
        "▁frost",
        -10.521193736763085
      ],
      [
        "patho",
        -12.776390753338486
      ],
      [
        "govin",
        -12.976739425986551
      ],
      [
        "▁expo",
        -12.738719786986067
      ],
      [
        "▁when",
        -6.4213386983217475
      ],
      [
        "rift",
        -12.766015761658949
      ],
      [
        "▁hamburg",
        -11.685284765909785
      ],
      [
        "▁commun",
        -12.979058086209188
      ],
      [
        "▁appologi",
        -12.771024997014592
      ],
      [
        "▁dose",
        -10.201269727239893
      ],
      [
        "▁ambitious",
        -10.842061753042707
      ],
      [
        "▁www.",
        -10.489201441666456
      ],
      [
        "▁read",
        -7.142862125368756
      ],
      [
        "▁forest",
        -10.182718154788382
      ],
      [
        "isfa",
        -10.962135609281905
      ],
      [
        "▁158",
        -10.771498006496458
      ],
      [
        "51",
        -13.168608066560093
      ],
      [
        "rence",
        -11.660784564236536
      ],
      [
        "▁afore",
        -12.31570293937571
      ],
      [
        "▁gimm",
        -12.771154633280762
      ],
      [
        "borenste",
        -13.72391564178238
      ],
      [
        "▁count",
        -8.281193064402776
      ],
      [
        "▁amplifi",
        -12.77102493078819
      ],
      [
        "tters",
        -11.137106520621723
      ],
      [
        "▁esco",
        -11.820600437112878
      ],
      [
        "▁practi",
        -13.664507893348095
      ],
      [
        "▁definite",
        -8.924110384119079
      ],
      [
        "tu",
        -10.76028366073866
      ],
      [
        "▁nichol",
        -11.1782129446862
      ],
      [
        "▁parody",
        -12.271031565109524
      ],
      [
        "▁vulga",
        -12.771054382367064
      ],
      [
        "ratio",
        -13.693592973957482
      ],
      [
        "▁http://www.c",
        -11.524164225459065
      ],
      [
        "▁196",
        -10.370659192566032
      ],
      [
        "☏",
        -11.333785825435129
      ],
      [
        "▁velvet",
        -12.271024967521932
      ],
      [
        "large",
        -13.724956202433408
      ],
      [
        "▁usman",
        -12.38515658685902
      ],
      [
        "ipe",
        -11.662679951986929
      ],
      [
        "▁distinguish",
        -10.335659490642072
      ],
      [
        "▁unravel",
        -12.271185681309227
      ],
      [
        "▁300",
        -10.870247792781871
      ],
      [
        "---->",
        -11.77556405770272
      ],
      [
        "▁facult",
        -10.27591835650351
      ],
      [
        "▁necessit",
        -11.178168538211679
      ],
      [
        "ups",
        -11.838837274272374
      ],
      [
        "fe",
        -11.211557085735926
      ],
      [
        "▁16.",
        -14.199282383172989
      ],
      [
        "rush",
        -12.737359071835286
      ],
      [
        "▁r",
        -10.787481821924924
      ],
      [
        "▁gumm",
        -13.312068538808344
      ],
      [
        "▁recipient",
        -10.036745453237767
      ],
      [
        "▁w.",
        -10.337941592541107
      ],
      [
        "▁toppe",
        -12.41347289300324
      ],
      [
        "▁thor",
        -13.035161119351486
      ],
      [
        "ugga",
        -12.801131257269418
      ],
      [
        "▁john",
        -8.21204943643776
      ],
      [
        "▁disband",
        -12.77299976533891
      ],
      [
        "6:5",
        -14.245778065733244
      ],
      [
        "clav",
        -12.760595555124885
      ],
      [
        "▁dozen",
        -11.49103749729561
      ],
      [
        "▁compare",
        -9.690476518085713
      ],
      [
        "▁inch",
        -10.35568982238376
      ],
      [
        "▁hearing",
        -9.542245421815602
      ],
      [
        "▁incite",
        -10.682413067888204
      ],
      [
        "▁deceiv",
        -12.29280504061938
      ],
      [
        "▁ill-",
        -12.781890799841356
      ],
      [
        "▁ip",
        -9.903883800838553
      ],
      [
        "▁hour",
        -7.8831402478187655
      ],
      [
        "▁grum",
        -12.773583420397559
      ],
      [
        "▁pilot",
        -9.569445483337702
      ],
      [
        "▁sp",
        -10.920726615482508
      ],
      [
        "▁work",
        -11.833785839142507
      ],
      [
        "▁anyway",
        -8.745555096741061
      ],
      [
        "▁soci",
        -12.789395290875767
      ],
      [
        "ese",
        -13.969336546849245
      ],
      [
        "▁econom",
        -8.413674890791622
      ],
      [
        "ccp",
        -12.592018837074551
      ],
      [
        "▁coinciden",
        -10.870984969632742
      ],
      [
        "▁trumpet",
        -11.48813838142249
      ],
      [
        "▁right",
        -11.051770298862332
      ],
      [
        "ither",
        -9.673678781304908
      ],
      [
        "ice",
        -10.671132192785878
      ],
      [
        "▁900",
        -12.658041398971825
      ],
      [
        "▁with",
        -10.644170103195178
      ],
      [
        "▁take",
        -6.237107942179385
      ],
      [
        "▁pursu",
        -10.983680189249077
      ],
      [
        "▁jolt",
        -12.77528637204345
      ],
      [
        "▁peru",
        -12.881426180277504
      ],
      [
        "▁natal",
        -12.287682995591991
      ],
      [
        "▁collaboration",
        -10.66781424071453
      ],
      [
        "movie",
        -13.732681976454543
      ],
      [
        "▁sales",
        -9.454580979733269
      ],
      [
        "arco",
        -12.252079155136865
      ],
      [
        "▁yack",
        -11.322061510512455
      ],
      [
        "▁normal",
        -8.999544988200824
      ],
      [
        "▁wi",
        -14.407127597437647
      ],
      [
        "▁coa",
        -10.444514984917536
      ],
      [
        "▁hong",
        -10.75236001997921
      ],
      [
        "tting",
        -13.439247099370707
      ],
      [
        "▁offworlder",
        -12.771034222946556
      ],
      [
        "▁sooner",
        -10.35284563085993
      ],
      [
        "▁insurgent",
        -11.321051847511642
      ],
      [
        "rought",
        -8.78086422942604
      ],
      [
        "▁smooth",
        -10.051613922816424
      ],
      [
        "▁transform",
        -10.002239691347654
      ],
      [
        "▁95",
        -12.338386007555426
      ],
      [
        "▁humili",
        -13.15333204269149
      ],
      [
        "▁relationship",
        -9.252253688834342
      ],
      [
        "##",
        -12.843222124950998
      ],
      [
        "▁exclaim",
        -11.321031247696014
      ],
      [
        "rs.",
        -11.880176496193751
      ],
      [
        "▁sink",
        -9.570535206523903
      ],
      [
        "pho",
        -12.714298630681402
      ],
      [
        "▁back",
        -6.439929621419231
      ],
      [
        "cou",
        -7.440679466282132
      ],
      [
        "▁uncle",
        -9.345682855846032
      ],
      [
        "▁naturalist",
        -12.12885667868274
      ],
      [
        "availab",
        -12.233504658003694
      ],
      [
        "▁select",
        -9.449812863904521
      ],
      [
        "▁thwart",
        -11.693196907603681
      ],
      [
        "spaceflight",
        -12.771087665261726
      ],
      [
        "session",
        -13.7250900394892
      ],
      [
        "▁explanation",
        -10.036733420560926
      ],
      [
        "▁picnic",
        -10.842095910058674
      ],
      [
        "▁modification",
        -10.942086224927543
      ],
      [
        "▁possess",
        -11.700197285978922
      ],
      [
        "▁supplier",
        -11.493178500807241
      ],
      [
        "any",
        -12.632996616841746
      ],
      [
        "▁runflat",
        -12.771024959436387
      ],
      [
        "hos",
        -10.117195108246431
      ],
      [
        "elected",
        -9.649413357402562
      ],
      [
        "▁optimiz",
        -12.433174006298685
      ],
      [
        "▁reactionar",
        -12.47831490959208
      ],
      [
        "▁investigator",
        -12.273221113372825
      ],
      [
        "jean",
        -12.733134924650962
      ],
      [
        "ß",
        -12.833785825435129
      ],
      [
        "▁advertise",
        -11.612285118420901
      ],
      [
        "▁sweat",
        -10.839863542258668
      ],
      [
        "▁bred",
        -12.560624374195312
      ],
      [
        "▁dere",
        -8.174445756763475
      ],
      [
        "y@e",
        -11.877703282032476
      ],
      [
        "▁spl",
        -12.146774924861692
      ],
      [
        "y",
        -9.961283824744118
      ],
      [
        "▁torrent",
        -12.772371715070243
      ],
      [
        "▁griz",
        -12.774117199487364
      ],
      [
        "▁multiplie",
        -12.771037929163425
      ],
      [
        "▁ferr",
        -10.233682660894688
      ],
      [
        "▁eng",
        -9.093817207928826
      ],
      [
        "▁sandwich",
        -9.291826491677178
      ],
      [
        "▁vin",
        -10.818602022898602
      ],
      [
        "ure",
        -10.133591688150167
      ],
      [
        "ck",
        -11.501990416744686
      ],
      [
        "▁twel",
        -10.390534795189271
      ],
      [
        "▁blade",
        -11.488350362677444
      ],
      [
        "1,000",
        -11.273927685449541
      ],
      [
        "wei",
        -12.57802831019734
      ],
      [
        "▁tool",
        -9.37246851552802
      ],
      [
        "▁image",
        -8.71598746682755
      ],
      [
        "▁lis",
        -12.513863069584023
      ],
      [
        "▁impass",
        -12.771292066767778
      ],
      [
        "▁outdoor",
        -10.751219142244064
      ],
      [
        "▁ron",
        -9.319306308185269
      ],
      [
        "▁bun",
        -10.483405957266584
      ],
      [
        "▁09:5",
        -13.197391014154238
      ],
      [
        "believe",
        -12.731727823551534
      ],
      [
        "▁smos",
        -12.27169422840097
      ],
      [
        "▁extension",
        -10.751266791204857
      ],
      [
        "▁balloon",
        -9.333082801721007
      ],
      [
        "ious",
        -9.696079938560352
      ],
      [
        "▁hymn",
        -11.487693079876333
      ],
      [
        "▁nest",
        -9.915997315107292
      ],
      [
        "▁conference",
        -9.012896575057681
      ],
      [
        "▁papa",
        -10.948644055570156
      ],
      [
        "▁magnet",
        -11.536439306939917
      ],
      [
        "▁labyrinth",
        -11.687691665213203
      ],
      [
        "grew",
        -9.518301236184323
      ],
      [
        "▁arth",
        -12.281824533824846
      ],
      [
        "▁prototype",
        -11.321037162941552
      ],
      [
        "583",
        -14.127899028574245
      ],
      [
        "▁chunk",
        -11.687928885689912
      ],
      [
        "▁insane",
        -11.69142783734624
      ],
      [
        "▁reek",
        -12.773477433086398
      ],
      [
        "▁tonne",
        -11.949530140629243
      ],
      [
        ".html",
        -9.469616633204405
      ],
      [
        "▁08",
        -11.701778809336425
      ],
      [
        "▁clothes",
        -8.81922442031286
      ],
      [
        "-up",
        -10.75545244106753
      ],
      [
        "▁anna",
        -11.079328088412133
      ],
      [
        "▁philippine",
        -10.452796001064428
      ],
      [
        "▁sunday",
        -7.9817316274073145
      ],
      [
        "ators",
        -11.322879976361273
      ],
      [
        "6",
        -8.138127856803997
      ],
      [
        "▁friction",
        -11.938173178855374
      ],
      [
        "oxon",
        -12.01575774882157
      ],
      [
        "pakistan",
        -12.732979813067905
      ],
      [
        "0s",
        -12.545402066479028
      ],
      [
        "t-",
        -11.27312751111676
      ],
      [
        "ving",
        -11.400132737932973
      ],
      [
        "▁investor",
        -11.055235017145241
      ],
      [
        "card",
        -11.149247033576918
      ],
      [
        "▁ideolog",
        -11.191750687851686
      ],
      [
        "▁essential",
        -9.447517446139287
      ],
      [
        "▁curse",
        -10.897483312941375
      ],
      [
        "35",
        -11.398557063167647
      ],
      [
        "▁03:5",
        -12.716987644101394
      ],
      [
        "▁accumulate",
        -11.106257029692973
      ],
      [
        "▁928",
        -14.210941688124889
      ],
      [
        "▁enact",
        -11.927964805226079
      ],
      [
        "▁debt",
        -10.390498102376183
      ],
      [
        "▁anti-",
        -10.51997319038674
      ],
      [
        "▁cautious",
        -11.487691767404199
      ],
      [
        "▁cook",
        -8.626932504004559
      ],
      [
        "ritten",
        -8.924135519096495
      ],
      [
        "buy",
        -11.461724757049586
      ],
      [
        "▁url",
        -13.723468021344447
      ],
      [
        "▁numbing",
        -12.865357518490036
      ],
      [
        "▁health",
        -8.286170198541065
      ],
      [
        "▁cape",
        -10.70474754093218
      ],
      [
        "_",
        -7.754997245263987
      ],
      [
        "▁farm",
        -9.442345292246475
      ],
      [
        "▁per",
        -7.829999112380185
      ],
      [
        "▁begu",
        -10.13988254749506
      ],
      [
        "nz",
        -11.370958843495167
      ],
      [
        "pos",
        -10.531974967040128
      ],
      [
        "▁flatten",
        -12.272012858308942
      ],
      [
        "▁door",
        -8.056185438639002
      ],
      [
        "der",
        -9.911072845102526
      ],
      [
        "bread",
        -11.903363160058047
      ],
      [
        "ckey",
        -13.20340154230637
      ],
      [
        "bum",
        -12.79002484631963
      ],
      [
        "▁commitment",
        -10.037093909622852
      ],
      [
        "▁public",
        -7.917158735049806
      ],
      [
        "▁6,",
        -14.13778527497731
      ],
      [
        "▁mont",
        -11.406343531014489
      ],
      [
        "▁pigme",
        -12.936761513232673
      ],
      [
        "▁peek",
        -10.945523946047986
      ],
      [
        "ina",
        -11.045093614955894
      ],
      [
        "_",
        -4.842285251919584
      ],
      [
        "▁estimate",
        -9.119225003796716
      ],
      [
        "3",
        -9.772266817123711
      ],
      [
        "▁4g",
        -12.775474884849523
      ],
      [
        "▁domini",
        -11.906287142242167
      ],
      [
        "▁relay",
        -12.779048086761374
      ],
      [
        "▁never",
        -7.301015815716045
      ],
      [
        "▁favorabl",
        -11.58122076799142
      ],
      [
        ".0",
        -12.397871425506056
      ],
      [
        "▁horrif",
        -12.27405895801266
      ],
      [
        "▁naji",
        -12.771330786912351
      ],
      [
        "▁fake",
        -10.591363790427025
      ],
      [
        "rel",
        -12.394289109067811
      ],
      [
        "▁romance",
        -10.785347515494488
      ],
      [
        "▁fren",
        -11.059663504764602
      ],
      [
        "▁tablet",
        -10.725285765951277
      ],
      [
        "▁appreciate",
        -9.376076803303292
      ],
      [
        "rbi",
        -13.032216881300702
      ],
      [
        "▁button",
        -8.574251669433048
      ],
      [
        "▁reflect",
        -9.090519938099138
      ],
      [
        "ebay.co.uk/itm/",
        -12.271024918880405
      ],
      [
        "▁1-8",
        -14.246827685336344
      ],
      [
        "▁male",
        -9.339202156147657
      ],
      [
        "▁fragran",
        -11.937693706450188
      ],
      [
        "▁assassin",
        -10.748957531668907
      ],
      [
        "inth",
        -12.327358724807874
      ],
      [
        "▁highlight",
        -10.081733250829163
      ],
      [
        "▁nylon",
        -11.181240395143025
      ],
      [
        "▁02:2",
        -13.25195685742674
      ],
      [
        "▁09/",
        -14.713481892351869
      ],
      [
        "▁bumblebee",
        -11.937716886588124
      ],
      [
        "▁instill",
        -12.774438570699594
      ],
      [
        "▁saxon",
        -12.772983469748437
      ],
      [
        "think",
        -13.692411686323432
      ],
      [
        "▁speed",
        -9.560385465828816
      ],
      [
        "▁wakan",
        -11.833833698293466
      ],
      [
        "▁road",
        -8.47988077189402
      ],
      [
        "val",
        -10.471206202784089
      ],
      [
        "q",
        -10.067914050799626
      ],
      [
        "baij",
        -13.707241170195168
      ],
      [
        "▁acqui",
        -13.715209706009738
      ],
      [
        "▁chef",
        -10.591500768673246
      ],
      [
        "cov",
        -12.745332308759972
      ],
      [
        "▁arrange",
        -9.937049533033525
      ],
      [
        "▁169",
        -11.526929689379745
      ],
      [
        "▁table",
        -8.215776044926598
      ],
      [
        "quarter",
        -10.712550791459943
      ],
      [
        "ini",
        -11.5849967716095
      ],
      [
        "▁buddhist",
        -11.054056805157146
      ],
      [
        "▁friendship",
        -10.39220763834918
      ],
      [
        "▁geographic",
        -11.481870317024473
      ],
      [
        "com",
        -13.080497432130679
      ],
      [
        "bul",
        -11.822307506419225
      ],
      [
        "▁putt",
        -9.300395951193694
      ],
      [
        "▁stimul",
        -11.929127897644436
      ],
      [
        "flie",
        -13.403757295704608
      ],
      [
        "▁whip",
        -11.935082940191617
      ],
      [
        "defens",
        -12.236025890562015
      ],
      [
        "ama",
        -10.201356738949254
      ],
      [
        "▁abd",
        -11.746914271509874
      ],
      [
        "▁fundamentalist",
        -11.179737219308377
      ],
      [
        "▁undergo",
        -11.69133019572521
      ],
      [
        "▁sifte",
        -12.271203058335592
      ],
      [
        "ping",
        -10.816402020998954
      ],
      [
        "2.7",
        -13.14138521051941
      ],
      [
        "▁crawf",
        -13.419917881614714
      ],
      [
        "▁reminisce",
        -12.771026898514904
      ],
      [
        "eve",
        -10.31123112989284
      ],
      [
        "▁clin",
        -11.480080350363567
      ],
      [
        "berger",
        -11.582549264689094
      ],
      [
        "▁warp",
        -11.665891491435389
      ],
      [
        "▁convey",
        -11.053263785634819
      ],
      [
        "▁flap",
        -11.319422901577074
      ],
      [
        "▁iron",
        -10.079219279645294
      ],
      [
        "▁eco",
        -10.33190238586662
      ],
      [
        "▁verbal",
        -12.338296817010997
      ],
      [
        "▁motivat",
        -12.821829159889893
      ],
      [
        "▁marvell",
        -11.942035476075848
      ],
      [
        "▁best",
        -7.223060004849218
      ],
      [
        "▁flutter",
        -12.27123941589335
      ],
      [
        "▁catacomb",
        -12.77102723379327
      ],
      [
        "▁recessi",
        -13.090892186935625
      ],
      [
        "▁undermin",
        -12.253971088178965
      ],
      [
        "▁about",
        -7.5400692306283545
      ],
      [
        "▁titan",
        -11.178588540291342
      ],
      [
        "▁stamp",
        -11.290233991023403
      ],
      [
        "▁preach",
        -11.684809211027401
      ],
      [
        "▁sentiment",
        -11.318480174030334
      ],
      [
        "▁surge",
        -11.004332651504413
      ],
      [
        "▁communication",
        -9.469641113299977
      ],
      [
        "▁predator",
        -10.22329343377993
      ],
      [
        "▁horizontal",
        -11.178206730307416
      ],
      [
        "ian",
        -8.897606150837701
      ],
      [
        "▁drown",
        -11.178265620760431
      ],
      [
        "▁dispos",
        -12.720662821708853
      ],
      [
        "▁modulate",
        -12.771053805484955
      ],
      [
        "▁calculat",
        -11.451736822159807
      ],
      [
        "▁quixot",
        -10.75114822453951
      ],
      [
        "▁convenient",
        -10.331472594877983
      ],
      [
        "▁ansi-",
        -10.080655496503754
      ],
      [
        "ity",
        -7.057959802844108
      ],
      [
        "▁cou",
        -10.858686679206002
      ],
      [
        "fall",
        -11.222667166762097
      ],
      [
        "▁visualiz",
        -12.90538209968927
      ],
      [
        "▁inadequa",
        -13.410198060056473
      ],
      [
        "▁kam",
        -11.998371256610428
      ],
      [
        "▁swamp",
        -12.771637073526023
      ],
      [
        "▁relaxe",
        -12.697341848004095
      ],
      [
        "dwell",
        -13.02527111472328
      ],
      [
        "▁andr",
        -12.13131243292669
      ],
      [
        "▁prophe",
        -13.714452814522723
      ],
      [
        "ullen",
        -12.757064626343753
      ],
      [
        "▁haut",
        -13.161576088823248
      ],
      [
        "▁house-el",
        -12.27183736879898
      ],
      [
        "▁me",
        -11.596167386121415
      ],
      [
        "▁domesticat",
        -12.80343267892535
      ],
      [
        "▁outsider",
        -11.773954324442048
      ],
      [
        "▁mon",
        -12.772607019781637
      ],
      [
        "▁michi",
        -10.331973516094214
      ],
      [
        "▁pun",
        -11.482953383746917
      ],
      [
        "20",
        -12.731670396565669
      ],
      [
        "▁hoist",
        -12.27904196782997
      ],
      [
        "reptile",
        -12.730066854341393
      ],
      [
        "▁gib",
        -11.699384346228586
      ],
      [
        "▁sw",
        -10.329407870763276
      ],
      [
        "▁your",
        -5.91319889996456
      ],
      [
        ";",
        -12.303437246021387
      ],
      [
        "neil",
        -10.34150281991403
      ],
      [
        "......",
        -13.23315766491825
      ],
      [
        "▁essen",
        -10.775590153183202
      ],
      [
        "▁twentieth",
        -9.955135804078997
      ],
      [
        "▁cease",
        -10.942265751874505
      ],
      [
        "▁fragment",
        -11.487691765106138
      ],
      [
        "▁dpr",
        -11.937810941081308
      ],
      [
        "▁picannin",
        -12.771024927615905
      ],
      [
        "▁intuitive",
        -11.937769607590656
      ],
      [
        "▁inces",
        -12.891493516725221
      ],
      [
        "▁detaine",
        -12.164690452277041
      ],
      [
        "▁rhe",
        -12.273540469810518
      ],
      [
        "istocks",
        -12.776979554869714
      ],
      [
        "▁soviet",
        -10.454243286789682
      ],
      [
        "▁contour",
        -12.772337749881498
      ],
      [
        "ar",
        -8.773420338324083
      ],
      [
        "▁retail",
        -10.601441459406223
      ],
      [
        "▁jai",
        -10.730833623188724
      ],
      [
        "▁technological",
        -10.39040513937008
      ],
      [
        "▁settle",
        -9.74106380241893
      ],
      [
        "araf",
        -11.207066981483427
      ],
      [
        "alle",
        -12.346705581634012
      ],
      [
        "▁cater",
        -11.108907271251658
      ],
      [
        "thr",
        -11.182826915678534
      ],
      [
        "5-4",
        -14.479836965446822
      ],
      [
        "古",
        -12.833785825435129
      ],
      [
        "▁stump",
        -11.93772783206547
      ],
      [
        "▁train",
        -7.730532628864493
      ],
      [
        "aine",
        -10.528294195106865
      ],
      [
        "akes",
        -11.576361492430832
      ],
      [
        "...",
        -9.005493748066165
      ],
      [
        "▁anti-semiti",
        -12.62811224111757
      ],
      [
        "▁gambl",
        -10.944756952700537
      ],
      [
        "report",
        -13.636796343226436
      ],
      [
        "▁wrestle",
        -10.786250617596187
      ],
      [
        "▁represent",
        -9.123694135965433
      ],
      [
        "▁imagination",
        -10.5198336268014
      ],
      [
        "▁portug",
        -11.68783795567099
      ],
      [
        "_",
        -4.782693395996079
      ],
      [
        "mutation",
        -10.334861396008304
      ],
      [
        "▁stubborn",
        -11.937711530071372
      ],
      [
        "▁attachment",
        -10.39105226949276
      ],
      [
        "acture",
        -11.957018755348962
      ],
      [
        "ρ",
        -11.937691585547157
      ],
      [
        "ullah",
        -11.403905238677256
      ],
      [
        "shaft",
        -12.219284024603157
      ],
      [
        "▁quill",
        -12.771836879191213
      ],
      [
        "vich",
        -12.614887932549067
      ],
      [
        "▁dia",
        -13.086237827269645
      ],
      [
        "▁import",
        -9.799360446035
      ],
      [
        "▁grimace",
        -12.271076710497248
      ],
      [
        "▁nut",
        -10.223915626804832
      ],
      [
        "lic",
        -11.564883093432266
      ],
      [
        "ko",
        -10.363588896815672
      ],
      [
        "▁mid-",
        -10.015106778133108
      ],
      [
        "▁fulfill",
        -10.75263689424613
      ],
      [
        "▁exterminat",
        -11.937743949133928
      ],
      [
        "role",
        -12.00074639738821
      ],
      [
        "lower",
        -12.342277708769133
      ],
      [
        "▁rejuvenat",
        -12.771027495480944
      ],
      [
        "rishi",
        -12.775053513315532
      ],
      [
        "▁accommodate",
        -11.085595847861581
      ],
      [
        "▁grille",
        -11.986619890737353
      ],
      [
        "▁bargain",
        -12.771097138560453
      ],
      [
        "/13/200",
        -12.943764559729503
      ],
      [
        "▁natur",
        -12.575110636072559
      ],
      [
        "▁fat",
        -9.37070308933421
      ],
      [
        "ell",
        -11.871927484342326
      ],
      [
        "sumption",
        -9.882879182879375
      ],
      [
        "▁usi",
        -10.434073353173611
      ],
      [
        "en",
        -9.930597159475044
      ],
      [
        "▁painter",
        -11.523539840594989
      ],
      [
        "▁resembl",
        -12.202731858114417
      ],
      [
        "▁cowboy",
        -9.71254067764961
      ],
      [
        "ared",
        -13.675294786071639
      ],
      [
        "aph",
        -13.454490853338951
      ],
      [
        "edu",
        -11.783538758143898
      ],
      [
        "1-9",
        -13.133680507267583
      ],
      [
        "▁indonesian",
        -11.49738281446357
      ],
      [
        "-in",
        -11.62477305577537
      ],
      [
        "▁th-",
        -10.33390949673437
      ],
      [
        "▁wang",
        -11.402095146962688
      ],
      [
        "obstruct",
        -12.770999188081323
      ],
      [
        "▁claudi",
        -11.941396102528607
      ],
      [
        "▁vine",
        -10.858109034577343
      ],
      [
        "▁node",
        -11.383884607711991
      ],
      [
        "▁delegation",
        -12.271025275124964
      ],
      [
        "iotic",
        -11.443207426033178
      ],
      [
        "▁prog",
        -13.656798460661719
      ],
      [
        "▁beef",
        -10.845434806938833
      ],
      [
        "ressed",
        -12.410557851740423
      ],
      [
        "▁cut",
        -7.915109882909753
      ],
      [
        "▁h",
        -11.05111200066364
      ],
      [
        "▁condition",
        -8.72217526342849
      ],
      [
        "▁useful",
        -9.752026017065837
      ],
      [
        "zal",
        -13.680080620002105
      ],
      [
        "d",
        -4.099817524249051
      ],
      [
        "shima",
        -10.393352148206949
      ],
      [
        "▁manag",
        -10.782942912920504
      ],
      [
        "▁small",
        -7.449204461528797
      ],
      [
        "▁avenue",
        -10.331643767500486
      ],
      [
        "▁hopeless",
        -11.060132247986067
      ],
      [
        "oti",
        -12.226197997343032
      ],
      [
        "▁crypt",
        -12.771336920436157
      ],
      [
        "▁fit",
        -8.652313474936491
      ],
      [
        "▁section",
        -8.938543326822266
      ],
      [
        "▁tiger",
        -9.214547810918342
      ],
      [
        "rising",
        -10.022481125838052
      ],
      [
        "test",
        -11.377810942642606
      ],
      [
        "▁ferri",
        -13.50874015715414
      ],
      [
        "120",
        -14.38482441165698
      ],
      [
        "▁281-51",
        -14.136807499320867
      ],
      [
        "▁confide",
        -12.771337500368352
      ],
      [
        "cade",
        -13.332857133401266
      ],
      [
        "▁blink",
        -10.12580018960677
      ],
      [
        "▁definition",
        -9.880440606689682
      ],
      [
        "▁202.456.1",
        -12.340123241055275
      ],
      [
        "▁whe",
        -8.779464586792185
      ],
      [
        "onso",
        -13.0009218012976
      ],
      [
        "▁institution",
        -9.301006867606564
      ],
      [
        "llery",
        -11.329201728248002
      ],
      [
        "▁fra",
        -12.492985568285592
      ],
      [
        "▁conquistador",
        -12.771024918840567
      ],
      [
        "rat",
        -12.017678604027852
      ],
      [
        "▁protect",
        -8.869053020338168
      ],
      [
        "▁tragic",
        -11.053173151640726
      ],
      [
        "▁principal",
        -10.752001548010409
      ],
      [
        "748",
        -13.395315422654793
      ],
      [
        "3.9",
        -15.105236235809905
      ],
      [
        "▁vowel",
        -12.272161262668185
      ],
      [
        "▁auditor",
        -12.274726699039233
      ],
      [
        "▁creak",
        -12.273074131202156
      ],
      [
        "▁flor",
        -11.516897943134108
      ],
      [
        "▁sweater",
        -10.126758290574536
      ],
      [
        "▁insecur",
        -11.951475863606067
      ],
      [
        "▁crazie",
        -13.694314544563515
      ],
      [
        "▁requirement",
        -9.14305148077176
      ],
      [
        "▁fanatic",
        -11.687933176017363
      ],
      [
        "▁twenty-",
        -12.27102493410763
      ],
      [
        "▁jaqu",
        -11.954977817369464
      ],
      [
        "▁345-",
        -11.796213981224737
      ],
      [
        "▁buffet",
        -11.687857876636821
      ],
      [
        "▁vote",
        -8.63000697400393
      ],
      [
        "1918",
        -11.546116586931637
      ],
      [
        "9/11/",
        -14.264817947757411
      ],
      [
        "▁visual",
        -10.029317816851844
      ],
      [
        "▁dispute",
        -10.598377294928401
      ],
      [
        "478",
        -12.69529157028718
      ],
      [
        "▁contributor",
        -12.275565683455373
      ],
      [
        "▁organize",
        -10.271356255876885
      ],
      [
        "▁resist",
        -10.331895029695836
      ],
      [
        "am",
        -9.517143883705815
      ],
      [
        "▁inter",
        -9.813585210963854
      ],
      [
        "▁branch",
        -10.760065838268059
      ],
      [
        "▁unfold",
        -11.487752359147594
      ],
      [
        "▁03/0",
        -11.442809681049695
      ],
      [
        "airline",
        -13.725034187058132
      ],
      [
        "▁marble",
        -9.776097398920275
      ],
      [
        "▁outline",
        -11.094199732288324
      ],
      [
        "▁stake",
        -11.696045722734514
      ],
      [
        "▁protein",
        -11.178271129656723
      ],
      [
        "128",
        -13.29157952732687
      ],
      [
        "uel",
        -10.584849839083612
      ],
      [
        "▁bust",
        -10.966586849770037
      ],
      [
        "(",
        -11.484595839537269
      ],
      [
        "▁mars",
        -11.45516162523216
      ],
      [
        "▁shu",
        -11.605474654976895
      ],
      [
        "▁ox",
        -10.833919269746042
      ],
      [
        "yours",
        -13.835769279562863
      ],
      [
        "▁/",
        -8.874696097338479
      ],
      [
        "%20",
        -12.27103677212858
      ],
      [
        "ov",
        -11.386597512417616
      ],
      [
        "tamus",
        -11.067495060400281
      ],
      [
        "▁26",
        -10.232134791583128
      ],
      [
        "▁influ",
        -11.938938453649344
      ],
      [
        "▁bien",
        -11.941454854745315
      ],
      [
        "eologis",
        -11.196736447100312
      ],
      [
        "▁measure",
        -8.782334261408318
      ],
      [
        "▁camel",
        -9.241829342069892
      ],
      [
        "aged",
        -12.095787045695664
      ],
      [
        "▁swo",
        -12.77159045121725
      ],
      [
        "▁saluta",
        -12.771430908616686
      ],
      [
        "go",
        -10.366859053500345
      ],
      [
        "for",
        -13.304615301027065
      ],
      [
        "▁grammar",
        -9.809440281517187
      ],
      [
        "▁famous",
        -9.519013391851388
      ],
      [
        "budgie",
        -13.732286747938883
      ],
      [
        "▁email",
        -8.410701259766437
      ],
      [
        "▁tho",
        -8.708963387563907
      ],
      [
        "space",
        -11.693956413396412
      ],
      [
        "▁tombs",
        -13.022673865501114
      ],
      [
        "▁alto",
        -10.812414226109926
      ],
      [
        "▁detect",
        -10.84090129479852
      ],
      [
        "▁mur",
        -11.069118373530443
      ],
      [
        "▁canno",
        -11.334789126135108
      ],
      [
        "▁descripti",
        -11.964832814231826
      ],
      [
        "itarian",
        -12.771986346556808
      ],
      [
        "▁44",
        -11.794641251323517
      ],
      [
        "▁nestl",
        -12.992225268617275
      ],
      [
        "▁kumar",
        -11.325380013445772
      ],
      [
        "apologetic",
        -13.724013038992382
      ],
      [
        "▁ri",
        -11.331930787440795
      ],
      [
        "▁override",
        -12.271054954778243
      ],
      [
        "▁candle",
        -10.520324546039081
      ],
      [
        "▁waz",
        -12.323565260662406
      ],
      [
        "▁duster",
        -12.363171464203585
      ],
      [
        "ley",
        -8.741575474937822
      ],
      [
        "▁trait",
        -11.688422241420724
      ],
      [
        "▁update",
        -9.410169028233204
      ],
      [
        "words",
        -12.852698047892373
      ],
      [
        "pi",
        -12.524631793448291
      ],
      [
        "▁caca",
        -12.27240866599375
      ],
      [
        "04/0",
        -14.183241206755312
      ],
      [
        "▁prow",
        -12.79157021832205
      ],
      [
        "spread",
        -11.014674422163383
      ],
      [
        "▁gov",
        -11.921807981701386
      ],
      [
        "▁masj",
        -12.776189029256997
      ],
      [
        "▁lop",
        -13.71766516645053
      ],
      [
        "▁go",
        -11.944803889857337
      ],
      [
        "▁macadam",
        -12.772636760240355
      ],
      [
        "▁kho",
        -13.732828558187455
      ],
      [
        "▁tin",
        -8.749852402155032
      ],
      [
        "▁evident",
        -10.590891473546405
      ],
      [
        "▁employ",
        -9.289661121090957
      ],
      [
        "surp",
        -12.830140119120124
      ],
      [
        "-whit",
        -12.789937393297407
      ],
      [
        "▁donkey",
        -9.955069179487964
      ],
      [
        "▁tinker",
        -12.771662669971713
      ],
      [
        "▁202-",
        -14.080987957304744
      ],
      [
        "culin",
        -12.221459737473795
      ],
      [
        "▁103",
        -13.542774831643694
      ],
      [
        "arza",
        -10.676588580778489
      ],
      [
        "▁hous",
        -9.97435488088803
      ],
      [
        "▁marshal",
        -11.18275554990067
      ],
      [
        "/chernobyl.htm",
        -11.698893297341616
      ],
      [
        "bus",
        -11.536865279544383
      ],
      [
        "▁ecs",
        -11.39393541148208
      ],
      [
        "▁synch",
        -13.314964216658092
      ],
      [
        "▁wha",
        -12.199710594564875
      ],
      [
        "▁burning",
        -10.915436014860934
      ],
      [
        "▁killi",
        -12.806724295985006
      ],
      [
        "ison",
        -10.526677725204083
      ],
      [
        "▁espeak",
        -11.937822143410786
      ],
      [
        "▁ringle",
        -12.496328712759311
      ],
      [
        "writer",
        -11.649731397589134
      ],
      [
        "li",
        -11.565928113648638
      ],
      [
        "▁bleach",
        -11.488204870121436
      ],
      [
        "with",
        -7.833760072330719
      ],
      [
        "▁aristocra",
        -12.088284421253352
      ],
      [
        "▁derail",
        -12.771084709719878
      ],
      [
        "▁better",
        -7.49854507172318
      ],
      [
        "rre",
        -12.785449329254648
      ],
      [
        "▁minute",
        -7.780048279123015
      ],
      [
        "▁geometr",
        -10.84077619320835
      ],
      [
        "dec",
        -11.668569078427542
      ],
      [
        "▁song",
        -8.914746169895924
      ],
      [
        "▁cola",
        -11.909322635997967
      ],
      [
        "mile",
        -13.636090134448027
      ],
      [
        "tman",
        -13.63943311131088
      ],
      [
        "▁fresh",
        -8.937964082210542
      ],
      [
        "▁southwar",
        -11.961732715934717
      ],
      [
        "▁fu",
        -11.38044149697803
      ],
      [
        "▁abilit",
        -9.323988749918257
      ],
      [
        "▁amen",
        -12.59306566072073
      ],
      [
        "grown",
        -12.802817133517081
      ],
      [
        "82",
        -12.2735848640301
      ],
      [
        "pack",
        -13.637662745508457
      ],
      [
        "▁financ",
        -11.067496548558394
      ],
      [
        "▁fortunate",
        -11.053167891264005
      ],
      [
        "▁proper",
        -8.905014415716147
      ],
      [
        "collapsible",
        -12.772132117611662
      ],
      [
        "▁flow",
        -9.44331739145428
      ],
      [
        "▁159",
        -10.436268207533201
      ],
      [
        "▁resort",
        -10.452807658312619
      ],
      [
        "▁thre",
        -9.796899279818081
      ],
      [
        "▁bacteri",
        -12.273579233289373
      ],
      [
        "9/11",
        -11.116867274471282
      ],
      [
        "ski",
        -12.042231313241379
      ],
      [
        "▁trio",
        -12.370893203909109
      ],
      [
        "came",
        -8.754160884161843
      ],
      [
        "▁participati",
        -10.298025960600489
      ],
      [
        "▁knowledg",
        -12.761064501555138
      ],
      [
        "uire",
        -11.941827388225299
      ],
      [
        "loom",
        -12.803767173169945
      ],
      [
        "▁minus",
        -12.276856854849894
      ],
      [
        "▁unprofessional",
        -12.771024918880496
      ],
      [
        "▁bundl",
        -13.536607612874562
      ],
      [
        "bi",
        -9.69649041939033
      ],
      [
        "▁pressed",
        -12.106730369623534
      ],
      [
        "secure",
        -13.601218230220082
      ],
      [
        "▁dime",
        -11.957576285021114
      ],
      [
        "un",
        -10.611763943213843
      ],
      [
        "▁nepal",
        -12.27178163464923
      ],
      [
        "▁sainte",
        -12.530755743878256
      ],
      [
        "▁acr",
        -11.534372988407824
      ],
      [
        "▁hugh",
        -11.419993358933327
      ],
      [
        "▁kidd",
        -11.199068929026515
      ],
      [
        "270",
        -11.860042949136494
      ],
      [
        "▁switche",
        -12.025783994062794
      ],
      [
        "sium",
        -12.244137478112991
      ],
      [
        "▁decreas",
        -12.589825858584955
      ],
      [
        "393",
        -11.979993705934664
      ],
      [
        "timid",
        -11.951272965007268
      ],
      [
        "▁poach",
        -12.782428868083674
      ],
      [
        "▁example",
        -7.839584063790967
      ],
      [
        "▁beni",
        -13.650873335345914
      ],
      [
        "even",
        -11.842799758205977
      ],
      [
        "oslo",
        -12.39856137901429
      ],
      [
        "▁arbitrari",
        -12.343547915873714
      ],
      [
        "▁ran",
        -9.210816034403845
      ],
      [
        "▁startling",
        -11.950399029631459
      ],
      [
        "▁immobil",
        -12.275376327746933
      ],
      [
        "7-1.",
        -12.137812712626047
      ],
      [
        "▁queens",
        -12.192553982945094
      ],
      [
        "▁strap",
        -10.450657205956286
      ],
      [
        "▁mainstream",
        -11.05333823021925
      ],
      [
        "▁vil",
        -12.842055457090325
      ],
      [
        "142",
        -13.600140993251276
      ],
      [
        "▁copyright",
        -9.810911484194529
      ],
      [
        "▁takeoff",
        -11.495788062184385
      ],
      [
        "▁excite",
        -11.087117067173185
      ],
      [
        "▁vampire",
        -12.771024937093557
      ],
      [
        "respect",
        -13.73365710230267
      ],
      [
        "▁recognise",
        -11.243258555022347
      ],
      [
        "▁152",
        -15.203421698304805
      ],
      [
        "▁yea",
        -6.431988013973588
      ],
      [
        "▁clear",
        -8.073170186317311
      ],
      [
        "▁daydream",
        -12.271476911644509
      ],
      [
        "▁drag",
        -10.74881816052982
      ],
      [
        "▁significan",
        -10.837666255435742
      ],
      [
        "▁....",
        -10.491737081619904
      ],
      [
        "▁circular",
        -11.321034432885536
      ],
      [
        "▁applicant",
        -12.27142462044072
      ],
      [
        "▁torture",
        -11.33655412783875
      ],
      [
        "▁isle",
        -12.381822790086822
      ],
      [
        "▁blum",
        -13.212801464314294
      ],
      [
        "enc",
        -12.091943752111558
      ],
      [
        "other",
        -9.642894568057304
      ],
      [
        "▁forget",
        -9.0915262373823
      ],
      [
        "▁than",
        -7.291350501791546
      ],
      [
        "03:4",
        -15.341353967809004
      ],
      [
        "▁queue",
        -11.321030087698277
      ],
      [
        "▁glacier",
        -11.05316777605769
      ],
      [
        "842",
        -12.352497377056995
      ],
      [
        "▁2051",
        -13.376212310261275
      ],
      [
        "▁issue",
        -7.886271882137513
      ],
      [
        "▁chronicle",
        -11.69797992389575
      ],
      [
        "mere",
        -12.583135946189243
      ],
      [
        "▁practise",
        -12.505628945609006
      ],
      [
        "▁doggie",
        -8.554505797909908
      ],
      [
        "▁insignia",
        -12.7710253673033
      ],
      [
        "big",
        -10.63704951350871
      ],
      [
        "▁organiz",
        -10.752604029419157
      ],
      [
        "▁as",
        -6.878746681766298
      ],
      [
        "valier",
        -11.950567558924728
      ],
      [
        "▁restful",
        -12.808217023357134
      ],
      [
        "▁irre",
        -11.456166867617135
      ],
      [
        "▁rur",
        -9.945217993965095
      ],
      [
        "motion",
        -13.457712457585467
      ],
      [
        "▁lotf",
        -13.102317455227633
      ],
      [
        "▁shallow",
        -11.692745786668652
      ],
      [
        "▁jani",
        -12.125093846456867
      ],
      [
        "ee",
        -10.720525926017277
      ],
      [
        "doctor",
        -12.735948628473468
      ],
      [
        "▁search",
        -9.148471293524906
      ],
      [
        "▁geologist",
        -12.771334974998808
      ],
      [
        "▁morta",
        -12.893952937432116
      ],
      [
        "rable",
        -11.076953573198157
      ],
      [
        "file",
        -11.614510943665314
      ],
      [
        "▁ex-",
        -11.923377624829692
      ],
      [
        "eath",
        -11.715181701680768
      ],
      [
        "▁misfortune",
        -11.937691585578253
      ],
      [
        "158",
        -13.40478322388883
      ],
      [
        "▁intra",
        -12.221793413782077
      ],
      [
        "▁doughnut",
        -9.843857727972075
      ],
      [
        "▁olymp",
        -11.907839523207723
      ],
      [
        "▁25.",
        -14.400507833653691
      ],
      [
        "-2",
        -11.920185692866024
      ],
      [
        "bush",
        -11.90732940915664
      ],
      [
        "bud",
        -12.562681981237306
      ],
      [
        "ting",
        -7.593660369773194
      ],
      [
        "cre",
        -13.452445740389438
      ],
      [
        "▁mustache",
        -12.785724720635823
      ],
      [
        "▁colo",
        -13.108232352072674
      ],
      [
        "▁chief",
        -9.624244865009523
      ],
      [
        "▁size",
        -8.918589670549286
      ],
      [
        "▁marqu",
        -13.630342688040272
      ],
      [
        "▁gu",
        -11.83470245911374
      ],
      [
        "▁tele",
        -11.973608943513758
      ],
      [
        "-of-",
        -11.688483253210668
      ],
      [
        "ro",
        -10.316697848882322
      ],
      [
        "▁death-",
        -12.820181500798789
      ],
      [
        "▁islamist",
        -10.082448690286071
      ],
      [
        "▁octo",
        -9.051896506150467
      ],
      [
        "▁consol",
        -11.694583088890408
      ],
      [
        "▁sub-",
        -11.493107667895401
      ],
      [
        "▁alta",
        -13.727419872107832
      ],
      [
        "ounding",
        -11.719453571346282
      ],
      [
        "▁shove",
        -11.48496613199536
      ],
      [
        "▁awake",
        -10.452886565050155
      ],
      [
        "▁gland",
        -12.407040930799694
      ],
      [
        "▁outbreak",
        -11.178268832803301
      ],
      [
        "▁reception",
        -10.519749453569005
      ],
      [
        "▁apri",
        -8.421788720034796
      ],
      [
        "▁dissipate",
        -13.06569578497374
      ],
      [
        "photography",
        -11.602127138700858
      ],
      [
        "▁modifi",
        -10.842079575593628
      ],
      [
        "▁peripher",
        -11.937884813353076
      ],
      [
        "▁stewardess",
        -12.771211428181303
      ],
      [
        "▁fran",
        -11.978432206694835
      ],
      [
        "4-3",
        -14.138263700674802
      ],
      [
        "igh",
        -11.333586498143701
      ],
      [
        "toga",
        -11.878409773055017
      ],
      [
        "hoe",
        -11.39528768767005
      ],
      [
        "▁kick",
        -9.59653547312439
      ],
      [
        "immigration",
        -10.223339810256252
      ],
      [
        "▁overall",
        -9.142117926059184
      ],
      [
        "▁marlow",
        -11.178303420946698
      ],
      [
        "▁preservati",
        -12.55683981132793
      ],
      [
        "org",
        -13.118604798432168
      ],
      [
        "·",
        -9.904817571414563
      ],
      [
        "▁busie",
        -12.81529725317094
      ],
      [
        "▁polar",
        -10.83609436375513
      ],
      [
        "▁mill",
        -9.334516367393032
      ],
      [
        "▁kni",
        -11.89208940932515
      ],
      [
        "bones",
        -11.550531290294924
      ],
      [
        "▁myco",
        -12.784887133564498
      ],
      [
        "▁philipin",
        -12.785571483922672
      ],
      [
        "ella",
        -10.560460439387477
      ],
      [
        "▁pointe",
        -12.627479262789542
      ],
      [
        "bble",
        -12.710217639623085
      ],
      [
        "▁agricultural",
        -10.334675271356804
      ],
      [
        "r",
        -6.3325037918759675
      ],
      [
        "ul",
        -12.144280310333313
      ],
      [
        "▁continent",
        -8.437434959838772
      ],
      [
        "pose",
        -13.725752714191401
      ],
      [
        "race",
        -11.750169983303135
      ],
      [
        "side-",
        -13.27686810230821
      ],
      [
        "▁metro",
        -10.16705500821707
      ],
      [
        "▁06",
        -14.83179025567944
      ],
      [
        "shakes",
        -12.814335894205612
      ],
      [
        "▁bout",
        -11.333496370193409
      ],
      [
        "6-",
        -13.674574631379441
      ],
      [
        "▁fo",
        -12.838710837665342
      ],
      [
        "wield",
        -13.731453611871437
      ],
      [
        "▁all-",
        -13.443267750911396
      ],
      [
        "▁drool",
        -12.271158044491903
      ],
      [
        "odder",
        -12.667298197765238
      ],
      [
        "350",
        -12.885860862238697
      ],
      [
        "▁contend",
        -12.276892362420034
      ],
      [
        "▁1.1",
        -12.839654478651052
      ],
      [
        "▁over",
        -7.215890673759658
      ],
      [
        "▁examination",
        -10.845698452198127
      ],
      [
        "▁option",
        -8.629324760603573
      ],
      [
        "▁progressive",
        -11.181254013478304
      ],
      [
        "▁nip",
        -12.757982075488112
      ],
      [
        "▁singular",
        -12.271289400740462
      ],
      [
        "ographic",
        -12.494828020116042
      ],
      [
        "▁document",
        -8.49788146092613
      ],
      [
        "ans",
        -11.365661282671361
      ],
      [
        "▁cove",
        -12.881069854713317
      ],
      [
        "vocal",
        -13.732829701306471
      ],
      [
        "▁leg",
        -8.567505592193633
      ],
      [
        "▁fluent",
        -12.012584663685397
      ],
      [
        "andi",
        -12.83477122878123
      ],
      [
        "▁propose",
        -9.069591722304178
      ],
      [
        "775",
        -14.140826648569249
      ],
      [
        "▁inversion",
        -11.938795447595034
      ],
      [
        "▁theatre",
        -9.958066270857966
      ],
      [
        "▁thanksgiv",
        -11.9376107949995
      ],
      [
        "▁occasion",
        -9.856827879613164
      ],
      [
        "▁bronz",
        -10.842072258946242
      ],
      [
        "▁retriev",
        -12.08258347761641
      ],
      [
        "tech",
        -12.574411891333739
      ],
      [
        "▁subsidiar",
        -11.692738520213434
      ],
      [
        "▁01:09",
        -13.137174343487052
      ],
      [
        "▁cardinal",
        -11.17818384991023
      ],
      [
        "ect",
        -11.733665998967979
      ],
      [
        "▁rubb",
        -11.01367726243986
      ],
      [
        "▁chance",
        -8.883166955776305
      ],
      [
        "▁clog",
        -11.941419510741246
      ],
      [
        "▁alternative",
        -9.421055049368544
      ],
      [
        "▁martin",
        -10.275010618248425
      ],
      [
        "1.5",
        -12.304039930639782
      ],
      [
        "frey",
        -11.940868219288488
      ],
      [
        "▁liber",
        -11.284585949186184
      ],
      [
        "▁exclusi",
        -11.94313442292355
      ],
      [
        "bre",
        -13.17297113686798
      ],
      [
        "▁stipe",
        -12.27126864047899
      ],
      [
        "▁aisle",
        -11.05326821176221
      ],
      [
        "▁indonesia",
        -10.746536370820472
      ],
      [
        "▁repetiti",
        -11.321036753648421
      ],
      [
        "▁da",
        -9.249071758621959
      ],
      [
        "ative",
        -10.362021985715007
      ],
      [
        "ometer",
        -12.79457972316609
      ],
      [
        "▁brit",
        -9.245496886245157
      ],
      [
        "jones",
        -12.232164752869929
      ],
      [
        "▁nois",
        -11.579850974882362
      ],
      [
        "strong",
        -12.732553187341392
      ],
      [
        "which",
        -12.79654584332607
      ],
      [
        "yankee",
        -12.72882944356301
      ],
      [
        "hhhhhh",
        -12.77102493357064
      ],
      [
        "▁pigeon",
        -11.937890298506858
      ],
      [
        "+++",
        -13.65833462004859
      ],
      [
        "blime",
        -12.773439484418228
      ],
      [
        "49",
        -12.046337643457095
      ],
      [
        "▁gender",
        -9.809392584184158
      ],
      [
        "ipod",
        -12.017611250252934
      ],
      [
        "▁len",
        -11.205245835148578
      ],
      [
        "▁squir",
        -13.618989898446006
      ],
      [
        "▁tortur",
        -13.626993854940963
      ],
      [
        "arden",
        -12.20321313868522
      ],
      [
        "▁interest",
        -7.757086420800021
      ],
      [
        "/23/200",
        -12.34064088726252
      ],
      [
        "daro",
        -12.83364613195101
      ],
      [
        "▁chemical",
        -9.627987921184976
      ],
      [
        "▁mind",
        -8.179453489203954
      ],
      [
        "▁phantom",
        -11.687692018422801
      ],
      [
        "▁asymmetric",
        -11.178169320623745
      ],
      [
        "▁sali",
        -11.879832592600234
      ],
      [
        "▁thanks",
        -7.759802748881231
      ],
      [
        "▁chil",
        -11.889910358924274
      ],
      [
        "american",
        -13.692537415196096
      ],
      [
        "daily",
        -12.738616834458263
      ],
      [
        "anism",
        -13.4439012958519
      ],
      [
        "▁sovereign",
        -10.519462601230423
      ],
      [
        "▁raci",
        -10.59645405950029
      ],
      [
        "ker",
        -12.168230627385297
      ],
      [
        "▁kami",
        -11.493712100311075
      ],
      [
        "▁explicit",
        -11.32102529291751
      ],
      [
        "▁metaphysic",
        -12.271151718830321
      ],
      [
        "▁bush",
        -7.689224225547353
      ],
      [
        "▁probabilit",
        -11.487830084542786
      ],
      [
        "02",
        -11.49688830303814
      ],
      [
        "▁asha",
        -12.355094139541887
      ],
      [
        "oatme",
        -10.749239563514742
      ],
      [
        "chum",
        -12.454660297130014
      ],
      [
        "▁exhausti",
        -12.878377866294265
      ],
      [
        "▁transnational",
        -12.271047884474829
      ],
      [
        "▁22",
        -10.168178807948134
      ],
      [
        "▁peters",
        -11.368876298923405
      ],
      [
        "▁violate",
        -12.85446095933439
      ],
      [
        "mar",
        -11.87875920010933
      ],
      [
        "▁introduce",
        -9.536927535545741
      ],
      [
        "▁km",
        -10.95361056434702
      ],
      [
        "ex",
        -9.281783810318018
      ],
      [
        "▁gorse",
        -12.782937503996907
      ],
      [
        "▁mann",
        -10.419239949141907
      ],
      [
        "▁!!!!",
        -9.884799963893974
      ],
      [
        "▁30,",
        -14.133461492039805
      ],
      [
        "cruising",
        -12.771089664523274
      ],
      [
        "9",
        -11.466649511569717
      ],
      [
        "sullivan",
        -11.687691588318703
      ],
      [
        "▁rath",
        -8.556708560923367
      ],
      [
        "▁format",
        -9.308072519324202
      ],
      [
        "▁bra",
        -11.38158054780006
      ],
      [
        "▁damag",
        -11.778185134132922
      ],
      [
        "rational",
        -12.924680474753595
      ],
      [
        "niz",
        -12.977710360079456
      ],
      [
        "646-",
        -10.793300965609518
      ],
      [
        "g",
        -6.298432668733279
      ],
      [
        "▁#",
        -13.65519821920551
      ],
      [
        "hich",
        -14.237104677914536
      ],
      [
        "77",
        -12.614120500178377
      ],
      [
        "▁vowe",
        -12.799236722206867
      ],
      [
        "▁stole",
        -10.52687195354179
      ],
      [
        "wa",
        -9.327411686636298
      ],
      [
        "198",
        -12.614044660337438
      ],
      [
        "▁still",
        -7.083346168706199
      ],
      [
        "▁info",
        -9.934484875821157
      ],
      [
        "▁nightmare",
        -11.17818240338509
      ],
      [
        "paper",
        -11.449136681912691
      ],
      [
        "hiri",
        -9.448859894482338
      ],
      [
        "▁04",
        -11.318655228848783
      ],
      [
        "hinn",
        -11.928698482410958
      ],
      [
        "air",
        -10.663895886732114
      ],
      [
        "93",
        -11.856309454895468
      ],
      [
        "▁word",
        -8.2498730649288
      ],
      [
        "▁cec",
        -12.224995529137972
      ],
      [
        "▁ivan",
        -11.687798219301143
      ],
      [
        "▁enjamb",
        -9.809371121369908
      ],
      [
        "▁couch",
        -10.039568503949887
      ],
      [
        "▁calvin",
        -12.272242122271397
      ],
      [
        "▁antiqu",
        -12.736307277773419
      ],
      [
        "▁rate",
        -8.361940939180613
      ],
      [
        "▁non-m",
        -12.851796616670608
      ],
      [
        "ove",
        -12.445527802350513
      ],
      [
        "▁hoste",
        -13.476865972883587
[...]
