{
  "version": "1.0",
  "truncation": null,
  "padding": null,
  "added_tokens": [
    {
      "id": 741,
      "content": "[SEP]",
      "single_word": false,
      "lstrip": false,
      "rstrip": false,
      "normalized": false,
      "special": true
    },
    {
      "id": 803,
      "content": "[PAD]",
      "single_word": false,
      "lstrip": false,
      "rstrip": false,
      "normalized": false,
      "special": true
    },
    {
      "id": 994,
      "content": "[CLS]",
      "single_word": false,
      "lstrip": false,
      "rstrip": false,
      "normalized": false,
      "special": true
    },
    {
      "id": 1824,
      "content": "[MASK]",
      "single_word": false,
      "lstrip": false,
      "rstrip": false,
      "normalized": false,
      "special": true
    },
    {
      "id": 3907,
      "content": "[UNK]",
      "single_word": false,
      "lstrip": false,
      "rstrip": false,
      "normalized": false,
      "special": true
    }
  ],
  "normalizer": {
    "type": "Sequence",
    "normalizers": [
      {
        "type": "NFD"
      },
      {
        "type": "Lowercase"
      },
      {
        "type": "StripAccents"
      }
    ]
  },
  "pre_tokenizer": {
    "type": "Sequence",
    "pretokenizers": [
      {
        "type": "Metaspace",
        "replacement": "▁",
        "prepend_scheme": "always",
        "split": true
      }
    ]
  },
  "post_processor": {
    "type": "TemplateProcessing",
    "single": [
      {
        "SpecialToken": {
          "id": "[CLS]",
          "type_id": 0
        }
      },
      {
        "Sequence": {
          "id": "A",
          "type_id": 0
        }
      },
      {
        "SpecialToken": {
          "id": "[SEP]",
          "type_id": 0
        }
      }
    ],
    "pair": [
      {
        "SpecialToken": {
          "id": "[CLS]",
          "type_id": 0
        }
      },
      {
        "Sequence": {
          "id": "A",
          "type_id": 0
        }
      },
      {
        "SpecialToken": {
          "id": "[SEP]",
          "type_id": 0
        }
      },
      {
        "Sequence": {
          "id": "B",
          "type_id": 1
        }
      },
      {
        "SpecialToken": {
          "id": "[SEP]",
          "type_id": 1
        }
      }
    ],
    "special_tokens": {
      "[CLS]": {
        "id": "[CLS]",
        "ids": [
          994
        ],
        "tokens": [
          "[CLS]"
        ]
      },
      "[SEP]": {
        "id": "[SEP]",
        "ids": [
          741
        ],
        "tokens": [
          "[SEP]"
        ]
      }
    }
  },
  "decoder": {
    "type": "Metaspace",
    "replacement": "▁",
    "prepend_scheme": "always",
    "split": true
  },
  "model": {
    "type": "WordPiece",
    "unk_token": "[UNK]",
    "continuing_subword_prefix": "##",
    "max_input_chars_per_word": 100,
    "vocab": {
      "▁lou": 0,
      "▁respons": 1,
      "##ering": 2,
      "–": 3,
      "▁fix": 4,
      "##5-": 5,
      "▁3/4": 6,
      "##uary": 7,
      "##iness": 8,
      "▁ag": 9,
      "▁67": 10,
      "▁fa": 11,
      "▁beg": 12,
      "▁pit": 13,
      "▁bro": 14,
      "▁prob": 15,
      "▁713-853-3098": 16,
      "▁astride": 17,
      "▁’ll": 18,
      "##ution": 19,
      "##..": 20,
      "##rol": 21,
      "▁animals": 22,
      "▁sch": 23,
      "▁rights": 24,
      "▁may": 25,
      "▁.3": 26,
      "▁10:30": 27,
      "▁partic": 28,
      "▁1783": 29,
      "##ه": 30,
      "##ld": 31,
      "▁343": 32,
      "##ny": 33,
      "▁attention": 34,
      "▁through": 35,
      "▁apar": 36,
      "##??": 37,
      "##ater": 38,
      "▁[": 39,
      "▁noone": 40,
      "ز": 41,
      "##au": 42,
      "▁7:00": 43,
      "▁research": 44,
      "##xt": 45,
      "##.2": 46,
      "▁315-": 47,
      "▁inst": 48,
      "▁09/15/99": 49,
      "▁general": 50,
      "▁tex": 51,
      "##3736": 52,
      "▁time": 53,
      "谿": 54,
      "澹": 55,
      "▁repres": 56,
      "##ts": 57,
      "##ions": 58,
      "▁bul": 59,
      "▁week": 60,
      "▁body": 61,
      "##????????": 62,
      "##ork": 63,
      "▁local": 64,
      "▁person": 65,
      "▁jud": 66,
      "▁eighty": 67,
      "▁report": 68,
      "▁cha": 69,
      "##ints": 70,
      "##el": 71,
      "▁sil": 72,
      "##mp": 73,
      "##ory": 74,
      "▁summer": 75,
      "▁13011": 76,
      "▁1965": 77,
      "▁bed": 78,
      "▁east": 79,
      "▁08/03": 80,
      "▁1580": 81,
      "##ss": 82,
      "##neath": 83,
      "##29": 84,
      "##itt": 85,
      "▁345-99": 86,
      "▁girl": 87,
      "▁32": 88,
      "▁et": 89,
      "##.1": 90,
      "▁1912": 91,
      "▁sw": 92,
      "▁lot": 93,
      "##cl": 94,
      "▁n": 95,
      "▁'re": 96,
      "^": 97,
      "ς": 98,
      "##be": 99,
      "##rou": 100,
      "▁alberta": 101,
      "##36": 102,
      "▁'": 103,
      "▁from": 104,
      "▁5": 105,
      "▁934": 106,
      "▁12/2": 107,
      "▁416-8": 108,
      "▁10/31": 109,
      "▁6:30": 110,
      "##ag": 111,
      "▁priv": 112,
      "##-84": 113,
      "##294-": 114,
      "s": 115,
      "##raph": 116,
      "▁notwithstanding": 117,
      "##four": 118,
      "▁evening": 119,
      "##(": 120,
      "▁838": 121,
      "▁1.75": 122,
      "▁.?": 123,
      "▁issue": 124,
      "##1-9": 125,
      "##als": 126,
      "##eare": 127,
      "##form": 128,
      "<": 129,
      "##1": 130,
      "▁366": 131,
      "▁on": 132,
      "▁col": 133,
      "▁litt": 134,
      "▁city": 135,
      "▁become": 136,
      "▁open": 137,
      "▁03:20": 138,
      "▁pen": 139,
      "▁forty-eight": 140,
      "▁713-654-03": 141,
      "▁899-": 142,
      "▁p": 143,
      "▁tuesday": 144,
      "▁cr": 145,
      "▁don": 146,
      "o": 147,
      "▁646-84": 148,
      "▁over": 149,
      "##-6": 150,
      "▁shall": 151,
      "▁166": 152,
      "##++": 153,
      "▁230": 154,
      "▁americ": 155,
      "▁2007": 156,
      "▁product": 157,
      "▁favor": 158,
      "▁miss": 159,
      "##远": 160,
      "▁system": 161,
      "##________": 162,
      "▁indianapolis": 163,
      "▁leg": 164,
      "##all": 165,
      "▁earliest": 166,
      "▁others": 167,
      "▁sto": 168,
      "▁pack": 169,
      "▁ha": 170,
      "▁wether": 171,
      "▁1222": 172,
      "##inn": 173,
      "‘": 174,
      "m": 175,
      "▁pop": 176,
      "▁car": 177,
      "##eak": 178,
      "▁ball": 179,
      "▁373": 180,
      "▁1300": 181,
      "▁177": 182,
      "▁sc": 183,
      "##.4": 184,
      "##se": 185,
      "##side": 186,
      "▁group": 187,
      "▁national": 188,
      "▁outside": 189,
      "##ade": 190,
      "▁460": 191,
      "▁744": 192,
      "▁game": 193,
      "▁took": 194,
      "##ump": 195,
      "▁wants": 196,
      "▁01/2": 197,
      "▁sy": 198,
      "▁h": 199,
      "▁many": 200,
      "▁either": 201,
      "▁tell": 202,
      "▁property": 203,
      "##j": 204,
      "##000": 205,
      "▁longer": 206,
      "▁cent": 207,
      "##right": 208,
      "##:44": 209,
      "##ou": 210,
      "▁'s": 211,
      "▁possible": 212,
      "##iv": 213,
      "##ml": 214,
      "▁hors": 215,
      "##48": 216,
      "▁20,000": 217,
      "▁him": 218,
      "▁bus": 219,
      "▁2.15": 220,
      "▁?!": 221,
      "##like": 222,
      "▁paren": 223,
      "▁1920": 224,
      "▁217": 225,
      "▁tast": 226,
      "▁??": 227,
      "▁ref": 228,
      "▁8:00": 229,
      "##,8": 230,
      "##amed": 231,
      "▁good": 232,
      "▁received": 233,
      "##ared": 234,
      "##ister": 235,
      "▁pa": 236,
      "##θ": 237,
      "ε": 238,
      "▁three": 239,
      "##9/2000": 240,
      "▁guess": 241,
      "▁cond": 242,
      "▁770": 243,
      "ɛ": 244,
      "▁about": 245,
      "▁direct": 246,
      "▁190": 247,
      "##----------------": 248,
      "▁too": 249,
      "▁1957": 250,
      "▁twenty-six": 251,
      "▁nor": 252,
      "##cond": 253,
      "▁pass": 254,
      "##ians": 255,
      "▁1": 256,
      "##司": 257,
      "▁-": 258,
      "##ard": 259,
      "▁dec": 260,
      "▁814": 261,
      "##谿": 262,
      "▁84": 263,
      "▁nonstop": 264,
      "##/08": 265,
      "▁staff": 266,
      "##com": 267,
      "##ually": 268,
      "▁415.782": 269,
      "##:40": 270,
      "▁06": 271,
      "##ur": 272,
      "▁check": 273,
      "##:38": 274,
      "##25": 275,
      "##...": 276,
      "▁03/09/2000": 277,
      "▁35": 278,
      "##ake": 279,
      "▁highly": 280,
      "▁yes": 281,
      "▁man": 282,
      "##ison": 283,
      "▁238": 284,
      "##0-33": 285,
      "##ive": 286,
      "▁lab": 287,
      "##0": 288,
      "▁800": 289,
      "##ablish": 290,
      "▁should": 291,
      "▁1774": 292,
      "▁cl": 293,
      "▁iraq": 294,
      "##ish": 295,
      "▁besid": 296,
      "##d": 297,
      "▁out": 298,
      "▁ple": 299,
      "##ha": 300,
      "▁press": 301,
      "##ony": 302,
      "▁inf": 303,
      "▁205": 304,
      "▁chicago": 305,
      "##ator": 306,
      "u": 307,
      "##×": 308,
      "##22": 309,
      "▁lay": 310,
      "▁outs": 311,
      "##ime": 312,
      "▁ii": 313,
      "▁anoder": 314,
      "▁253": 315,
      "##ide": 316,
      "##reat": 317,
      "##bit": 318,
      "▁tw": 319,
      "##per": 320,
      "▁downtown": 321,
      "##iday": 322,
      "▁04/16/2001": 323,
      "▁cat": 324,
      "▁b/": 325,
      "▁old": 326,
      "▁400": 327,
      "▁concern": 328,
      "▁bre": 329,
      "▁pret": 330,
      "▁hol": 331,
      "▁so": 332,
      "▁island": 333,
      "▁jap": 334,
      "##!!!!!!!!": 335,
      "##ri": 336,
      "▁read": 337,
      "##ret": 338,
      "##ants": 339,
      "▁1977": 340,
      "▁period": 341,
      "▁going": 342,
      "▁b": 343,
      "▁yellow": 344,
      "▁08:50": 345,
      "▁accept": 346,
      "##’": 347,
      "▁bel": 348,
      "##.99": 349,
      "▁9221": 350,
      "▁pos": 351,
      "##ommend": 352,
      "▁begin": 353,
      "##18": 354,
      "▁iii": 355,
      "##,": 356,
      "▁want": 357,
      "▁yourself": 358,
      "##134": 359,
      "▁perf": 360,
      "##att": 361,
      "##ount": 362,
      "▁party": 363,
      "▁bu": 364,
      "##ense": 365,
      "##out": 366,
      "##ught": 367,
      "▁70.85": 368,
      "▁democr": 369,
      "▁140": 370,
      "▁enough": 371,
      "##45": 372,
      "##:19": 373,
      "▁sm": 374,
      "▁1972": 375,
      "▁s’": 376,
      "▁could": 377,
      "▁04/2": 378,
      "▁http://www.": 379,
      "▁sever": 380,
      "▁thirty-": 381,
      "##lect": 382,
      "▁board": 383,
      "▁amidst": 384,
      "▁44,000": 385,
      "▁ser": 386,
      "▁young": 387,
      "##ef": 388,
      "5": 389,
      "##2": 390,
      "##ally": 391,
      "▁espec": 392,
      "▁tot": 393,
      "##/15": 394,
      "##0072": 395,
      "▁nwww": 396,
      "##ower": 397,
      "▁two": 398,
      "▁date": 399,
      "▁becuse": 400,
      "▁1928": 401,
      "##–": 402,
      "▁your": 403,
      "▁except": 404,
      "##-10": 405,
      "▁1820": 406,
      "▁gre": 407,
      "▁fares": 408,
      "##/0": 409,
      "▁cost": 410,
      "▁1589": 411,
      "▁gr": 412,
      "▁power": 413,
      "▁white": 414,
      "▁thursday": 415,
      "▁dis": 416,
      "▁10/26/2000": 417,
      "##oman": 418,
      "##²": 419,
      "##ect": 420,
      "▁sol": 421,
      "▁st.": 422,
      "▁-----------------------------------------------------------------": 423,
      "##rod": 424,
      "7": 425,
      "##ul": 426,
      "▁ground": 427,
      "▁doo": 428,
      "##ix": 429,
      "##ism": 430,
      "▁mot": 431,
      "▁28,000": 432,
      "▁way": 433,
      "▁529999": 434,
      "##031": 435,
      "▁second": 436,
      "▁d": 437,
      "▁a": 438,
      "▁50,000": 439,
      "##.61": 440,
      "▁was": 441,
      "▁jun": 442,
      "▁both": 443,
      "▁240": 444,
      "▁<": 445,
      "##/13": 446,
      "▁cle": 447,
      "##ang": 448,
      "##ustom": 449,
      "##/03": 450,
      "▁must": 451,
      "▁char": 452,
      "▁ob": 453,
      "##omet": 454,
      "##07": 455,
      "▁million": 456,
      "##....": 457,
      "▁adv": 458,
      "##51": 459,
      "##urs": 460,
      "▁kansas": 461,
      "▁uhh": 462,
      "▁ro": 463,
      "▁reg": 464,
      "▁bush": 465,
      "▁4.0": 466,
      "##esday": 467,
      "▁5.6": 468,
      "▁18": 469,
      "▁wi": 470,
      "##two": 471,
      "##thers": 472,
      "j": 473,
      "▁clear": 474,
      "##room": 475,
      "##415-": 476,
      "▁05908549": 477,
      "##74": 478,
      "x": 479,
      "▁poss": 480,
      "▁hor": 481,
      "##57": 482,
      "▁peace": 483,
      "▁***": 484,
      "##ract": 485,
      "##ve": 486,
      "##gether": 487,
      "▁52": 488,
      "▁1605": 489,
      "▁go": 490,
      "▁500": 491,
      "]": 492,
      "##pped": 493,
      "▁not": 494,
      "##aph": 495,
      "##tt": 496,
      "▁324": 497,
      "▁occ": 498,
      "▁mommy": 499,
      "##,000,000": 500,
      "##ii": 501,
      "##ł": 502,
      "▁pres": 503,
      "▁1871": 504,
      "▁“": 505,
      "##*": 506,
      "▁1964": 507,
      "▁yea": 508,
      "▁bill": 509,
      "##uge": 510,
      "##ative": 511,
      "▁door": 512,
      "##ple": 513,
      "▁ac": 514,
      "▁though": 515,
      "##α": 516,
      "▁1-8": 517,
      "▁birthday": 518,
      "▁never": 519,
      "▁can": 520,
      "▁its": 521,
      "▁44": 522,
      "▁1969": 523,
      "##22,000": 524,
      "▁interv": 525,
      "▁mich": 526,
      "##ing": 527,
      "##xic": 528,
      "##iet": 529,
      "##‘": 530,
      "▁;": 531,
      "##row": 532,
      "▁03:58": 533,
      "▁2017": 534,
      "▁dog": 535,
      "▁170": 536,
      "▁,": 537,
      "▁living": 538,
      "▁sure": 539,
      "##erc": 540,
      "▁law": 541,
      "▁them": 542,
      "▁1974": 543,
      "▁wife": 544,
      "▁usually": 545,
      "▁orig": 546,
      "▁wa": 547,
      "##elt": 548,
      "▁men": 549,
      "▁da": 550,
      "##anc": 551,
      "##iety": 552,
      "##de": 553,
      "##ined": 554,
      "▁known": 555,
      "##ce": 556,
      "▁11/29/2000": 557,
      "▁beside": 558,
      "▁mass": 559,
      "##th": 560,
      "▁delta": 561,
      "▁4": 562,
      "▁soon": 563,
      "▁last": 564,
      "▁id": 565,
      "ω": 566,
      "▁1623": 567,
      "▁hot": 568,
      "##.75": 569,
      "▁/": 570,
      "▁fun": 571,
      "##land": 572,
      "▁ir": 573,
      "▁called": 574,
      "##-8": 575,
      "z": 576,
      "▁1940": 577,
      "▁hands": 578,
      "▁service": 579,
      "▁814.863": 580,
      "##00": 581,
      "##ew": 582,
      "▁1696": 583,
      "▁”": 584,
      "##ery": 585,
      "##:24": 586,
      "▁stand": 587,
      "ο": 588,
      "▁laura": 589,
      "##ency": 590,
      "▁comput": 591,
      "▁harry": 592,
      "▁713": 593,
      "##.77": 594,
      "##iz": 595,
      "▁const": 596,
      "▁some": 597,
      "▁xv": 598,
      "##ains": 599,
      "▁avail": 600,
      "##rench": 601,
      "▁whilst": 602,
      "▁!?": 603,
      "▁art": 604,
      "##:46": 605,
      "▁trillion": 606,
      "▁ear": 607,
      "▁2015": 608,
      "▁20:00": 609,
      "##ina": 610,
      "▁get": 611,
      "▁invol": 612,
      "▁bet": 613,
      "▁281-443-37": 614,
      "▁table": 615,
      "▁2.6": 616,
      "▁pub": 617,
      "▁wan": 618,
      "▁exper": 619,
      "▁west": 620,
      "▁step": 621,
      "##μ": 622,
      "##ody": 623,
      "▁fut": 624,
      "##ass": 625,
      "▁85": 626,
      "▁68": 627,
      "▁prod": 628,
      "##39": 629,
      "##:17": 630,
      "##-9004": 631,
      "▁sub": 632,
      "##illion": 633,
      "##:51": 634,
      "▁185": 635,
      "▁cou": 636,
      "▁run": 637,
      "▁3,202": 638,
      "▁bar": 639,
      "##line": 640,
      "▁prov": 641,
      "▁01:0": 642,
      "▁see": 643,
      "##ident": 644,
      "▁beautiful": 645,
      "##ed": 646,
      "▁around": 647,
      "▁rest": 648,
      "##ise": 649,
      "▁'ll": 650,
      "##-79": 651,
      "##4-": 652,
      "▁particular": 653,
      "##ant": 654,
      "##onto": 655,
      "▁against": 656,
      "▁1220": 657,
      "▁270": 658,
      "▁25": 659,
      "▁de": 660,
      "▁1.4": 661,
      "##stem": 662,
      "▁data": 663,
      "▁sp": 664,
      "##ood": 665,
      "±": 666,
      "▁2,": 667,
      "▁sal": 668,
      "▁alread": 669,
      "▁415": 670,
      "▁360": 671,
      "▁anyone": 672,
      "▁–": 673,
      "##ially": 674,
      "▁everybody": 675,
      "夏": 676,
      "▁f": 677,
      "##70": 678,
      "▁...": 679,
      "▁days": 680,
      "▁idea": 681,
      "##isco": 682,
      "▁twelve": 683,
      "▁cer": 684,
      "▁104": 685,
      "▁phot": 686,
      "▁suff": 687,
      "▁resp": 688,
      "##ology": 689,
      "▁600": 690,
      "##ale": 691,
      "▁..": 692,
      "##ks": 693,
      "▁24": 694,
      "##ell": 695,
      "##ental": 696,
      "▁08/17/2000": 697,
      "##:32": 698,
      "▁16.3": 699,
      "##山": 700,
      "▁08:2": 701,
      "▁agre": 702,
      "##get": 703,
      "▁whereby": 704,
      "##clock": 705,
      "▁1100": 706,
      "▁1836": 707,
      "▁17": 708,
      "▁feet": 709,
      "▁russ": 710,
      ",": 711,
      "▁‘": 712,
      "##or": 713,
      "▁minus": 714,
      "##\"": 715,
      "▁ham": 716,
      "▁origin": 717,
      "▁countries": 718,
      "▁1843": 719,
      "##ere": 720,
      "▁his": 721,
      "▁born": 722,
      "▁1994": 723,
      "▁aft": 724,
      "▁sorry": 725,
      "▁differ": 726,
      "▁================================": 727,
      "##els": 728,
      "##47": 729,
      "##-59": 730,
      "▁york": 731,
      "▁record": 732,
      "##0010": 733,
      "##461": 734,
      "▁'m": 735,
      "##la": 736,
      "##/10/2004": 737,
      "▁2016": 738,
      "▁1835": 739,
      "▁rul": 740,
      "[SEP]": 741,
      "##ellow": 742,
      "▁amount": 743,
      "▁5:30": 744,
      "▁franc": 745,
      "▁al.": 746,
      "▁is": 747,
      "▁throughout": 748,
      "##/16/2001": 749,
      "▁political": 750,
      "▁anybody": 751,
      "▁1765": 752,
      "▁they": 753,
      "▁matter": 754,
      "##.916.718": 755,
      "­": 756,
      "##em": 757,
      "▁where": 758,
      "×": 759,
      "▁1890": 760,
      "▁sar": 761,
      "▁george": 762,
      "▁money": 763,
      "8": 764,
      "##:03": 765,
      "▁transport": 766,
      "▁2005": 767,
      "▁tur": 768,
      "▁800.713.8": 769,
      "▁979": 770,
      "##rib": 771,
      "▁pho": 772,
      "▁without": 773,
      "▁1996": 774,
      "▁11:0": 775,
      "▁_________________________________": 776,
      "▁works": 777,
      "▁care": 778,
      "▁1939": 779,
      "▁60,000": 780,
      "▁415.621.8317": 781,
      "▁talking": 782,
      "##/8/00": 783,
      "▁let": 784,
      "▁!": 785,
      "▁another": 786,
      "##fast": 787,
      "##“": 788,
      "▁’m": 789,
      "▁were": 790,
      "▁1988": 791,
      "▁sleep": 792,
      "一": 793,
      "▁head": 794,
      "##υ": 795,
      "##uch": 796,
      "▁exam": 797,
      "▁1291": 798,
      "▁months": 799,
      "##ea": 800,
      "▁79": 801,
      "##77": 802,
      "[PAD]": 803,
      "▁use": 804,
      "▁albeit": 805,
      "##ify": 806,
      "▁02/13/2001": 807,
      "▁baltimore": 808,
      "##ee": 809,
      "▁john": 810,
      "##c": 811,
      "▁bit": 812,
      "▁pain": 813,
      "##ren": 814,
      "##9999": 815,
      "##-343": 816,
      "##unic": 817,
      "▁no-6": 818,
      "▁928": 819,
      "▁12:1": 820,
      "▁vis": 821,
      "▁side": 822,
      "▁although": 823,
      "▁9:30": 824,
      "▁2010": 825,
      "▁bott": 826,
      "▁stre": 827,
      "▁guys": 828,
      "▁1991": 829,
      "▁light": 830,
      "▁01:14": 831,
      "▁everyone": 832,
      "▁including": 833,
      "▁54": 834,
      "▁ke": 835,
      "##ently": 836,
      "##por": 837,
      "▁st": 838,
      "##ific": 839,
      "##if": 840,
      "##:0": 841,
      "▁900": 842,
      "▁work": 843,
      "▁auth": 844,
      "##ames": 845,
      "▁las": 846,
      "▁1590": 847,
      "▁abs": 848,
      "▁air": 849,
      "▁nobody": 850,
      "▁cons": 851,
      "##:28": 852,
      "##dd": 853,
      "ه": 854,
      "##ought": 855,
      "▁405": 856,
      "▁am": 857,
      "▁dead": 858,
      "##craft": 859,
      "▁hav": 860,
      "▁07/14/2000": 861,
      "##oon": 862,
      "##499": 863,
      "▁then": 864,
      "▁big": 865,
      "▁12,000": 866,
      "▁510": 867,
      "▁langu": 868,
      "▁1829": 869,
      "▁versus": 870,
      "##r": 871,
      "▁keep": 872,
      "▁call": 873,
      "▁ur": 874,
      "▁vs.": 875,
      "▁347": 876,
      "▁pal": 877,
      "##uce": 878,
      "▁or": 879,
      "▁docum": 880,
      "▁repl": 881,
      "##ll": 882,
      "##oot": 883,
      "▁already": 884,
      "▁despite": 885,
      "▁713/8": 886,
      "##================": 887,
      "▁!!!!!!": 888,
      "▁end": 889,
      "▁equ": 890,
      "##end": 891,
      "##4014": 892,
      "▁moving": 893,
      "▁deal": 894,
      "##ail": 895,
      "▁gu": 896,
      "##ρ": 897,
      "▁count": 898,
      "▁80": 899,
      "▁ourselves": 900,
      ">": 901,
      "▁thir": 902,
      "ف": 903,
      "—": 904,
      "##ecess": 905,
      "▁1600": 906,
      "▁05/03/2001": 907,
      "##ration": 908,
      "ɑ": 909,
      "▁311": 910,
      "▁tralee": 911,
      "##-46": 912,
      "▁towards": 913,
      "▁888.916.7184": 914,
      "##ok": 915,
      "##/99": 916,
      "##\\": 917,
      "##ir": 918,
      "▁713-654-1281": 919,
      "▁play": 920,
      "▁friends": 921,
      "▁review": 922,
      "▁11:36": 923,
      "*": 924,
      "##h-": 925,
      "▁ver": 926,
      "▁ma": 927,
      "▁government": 928,
      "▁future": 929,
      "▁296": 930,
      "▁trans": 931,
      "▁seventeen": 932,
      "##清": 933,
      "##75": 934,
      "▁1926": 935,
      "▁stud": 936,
      "▁cit": 937,
      "▁restaur": 938,
      "##qu": 939,
      "##stand": 940,
      "▁cover": 941,
      "##,00": 942,
      "##:00": 943,
      "▁713-6": 944,
      "▁und": 945,
      "##rans": 946,
      "##32": 947,
      "▁unt": 948,
      "##54-": 949,
      "▁1997": 950,
      "▁111": 951,
      "▁1.25": 952,
      "▁ab": 953,
      "##.5": 954,
      "▁pi": 955,
      "##ch": 956,
      "▁br": 957,
      "▁well": 958,
      "##oo": 959,
      "▁themselves": 960,
      "##ken": 961,
      "▁pat": 962,
      "▁1596": 963,
      "▁ev": 964,
      "##ip": 965,
      "##ich": 966,
      "##ʃ": 967,
      "▁har": 968,
      "##i": 969,
      "▁1115": 970,
      "##aq": 971,
      "##/7": 972,
      "▁lat": 973,
      "▁n'": 974,
      "▁`": 975,
      "▁econom": 976,
      "##[": 977,
      "▁se": 978,
      "▁11-20-": 979,
      "▁z": 980,
      "▁awoh": 981,
      "##ak": 982,
      "▁somet": 983,
      "##:18": 984,
      "##ick": 985,
      "▁hear": 986,
      "▁1877": 987,
      "##uma": 988,
      "▁450": 989,
      "▁govern": 990,
      "▁add": 991,
      "▁38,000": 992,
      "##imes": 993,
      "[CLS]": 994,
      "▁yer": 995,
      "▁services": 996,
      "ə": 997,
      "##:07": 998,
      "##—": 999,
      "▁think": 1000,
      "▁2008": 1001,
      "##:21": 1002,
      "▁ban": 1003,
      "▁glob": 1004,
      "##:35": 1005,
      "▁htt": 1006,
      "##aren": 1007,
      "▁saturday": 1008,
      "##17": 1009,
      "▁mor": 1010,
      "##'s": 1011,
      "▁8": 1012,
      "▁78": 1013,
      "##====": 1014,
      "▁750,000": 1015,
      "▁fe": 1016,
      "▁enj": 1017,
      "▁183": 1018,
      "▁cuz": 1019,
      "▁6:00": 1020,
      "##98": 1021,
      "▁than": 1022,
      "▁1980": 1023,
      "##ly": 1024,
      "##ible": 1025,
      "##/16": 1026,
      "▁04:37": 1027,
      "ص": 1028,
      "▁212": 1029,
      "##fully": 1030,
      "##/97": 1031,
      "▁53": 1032,
      "##2-6": 1033,
      "▁twenty-four": 1034,
      "##dy": 1035,
      "▁imp": 1036,
      "▁five": 1037,
      "##ool": 1038,
      "##on": 1039,
      "@": 1040,
      "▁ap": 1041,
      "##-23": 1042,
      "▁stay": 1043,
      "##iver": 1044,
      "##eit": 1045,
      "##ach": 1046,
      "▁814014": 1047,
      "▁death": 1048,
      "▁arri": 1049,
      "▁breakfast": 1050,
      "##uh": 1051,
      "##outh": 1052,
      "▁pri": 1053,
      "▁prom": 1054,
      "▁pay": 1055,
      "▁news": 1056,
      "▁to": 1057,
      "▁oneself": 1058,
      "▁hers": 1059,
      "▁1598": 1060,
      "▁ninety-nine": 1061,
      "▁how": 1062,
      "▁hund": 1063,
      "▁diego": 1064,
      "▁143": 1065,
      "▁£": 1066,
      "▁vs": 1067,
      "##rist": 1068,
      "▁mind": 1069,
      "▁1986": 1070,
      "▁3.8": 1071,
      "▁20": 1072,
      "▁company": 1073,
      "▁listen": 1074,
      "▁h-": 1075,
      "##tain": 1076,
      "##ational": 1077,
      "##/31": 1078,
      "▁713-853": 1079,
      "▁ar": 1080,
      "▁cloth": 1081,
      "▁yesterday": 1082,
      "▁": 1083,
      "▁16": 1084,
      "▁49": 1085,
      "▁make": 1086,
      "▁natural": 1087,
      ".": 1088,
      "##ament": 1089,
      "##and": 1090,
      "##alth": 1091,
      "▁plus": 1092,
      "▁all": 1093,
      "##85": 1094,
      "##ust": 1095,
      "▁value": 1096,
      "▁four": 1097,
      "▁kid": 1098,
      "##ached": 1099,
      "##{": 1100,
      "▁fac": 1101,
      "▁sn": 1102,
      "▁059085": 1103,
      "##31": 1104,
      "▁1611": 1105,
      "▁comp": 1106,
      "##ced": 1107,
      "##:23": 1108,
      "▁fre": 1109,
      "▁1971": 1110,
      "##63": 1111,
      "▁su": 1112,
      "##.16": 1113,
      "##aw": 1114,
      "##oose": 1115,
      "##ason": 1116,
      "▁202.456.2461": 1117,
      "##-468-3": 1118,
      "##819602175": 1119,
      "##rem": 1120,
      "##unch": 1121,
      "##ilities": 1122,
      "##@enron_de": 1123,
      "##enc": 1124,
      "▁des": 1125,
      "▁piec": 1126,
      "##339": 1127,
      "##!!": 1128,
      "▁115": 1129,
      "##:58": 1130,
      "▁further": 1131,
      "##ated": 1132,
      "▁type": 1133,
      "##90": 1134,
      "▁cleveland": 1135,
      "▁trale": 1136,
      "▁american": 1137,
      "▁salt": 1138,
      "▁again": 1139,
      "▁700": 1140,
      "▁646-8420": 1141,
      "##ily": 1142,
      "▁1039": 1143,
      "▁doing": 1144,
      "▁http://www": 1145,
      "▁guy": 1146,
      "▁130": 1147,
      "##t": 1148,
      "▁646": 1149,
      "▁03/21/2001": 1150,
      "##ace": 1151,
      "▁410": 1152,
      "##og": 1153,
      "▁wed": 1154,
      "▁bac": 1155,
      "##ct": 1156,
      "▁thr": 1157,
      "▁1,000": 1158,
      "▁appear": 1159,
      "▁hou": 1160,
      "##.doc": 1161,
      "▁je": 1162,
      "##iter": 1163,
      "##ves": 1164,
      "▁across": 1165,
      "▁aboard": 1166,
      "§": 1167,
      "▁minute": 1168,
      "▁hat": 1169,
      "▁enjoy": 1170,
      "##:56": 1171,
      "▁1562": 1172,
      "▁anything": 1173,
      "##ers": 1174,
      "▁11/7/08": 1175,
      "▁more": 1176,
      "##13": 1177,
      "▁2.7": 1178,
      "##les": 1179,
      "▁1850": 1180,
      "##.676": 1181,
      "##ject": 1182,
      "▁li": 1183,
      "▁just": 1184,
      "##ance": 1185,
      "##.782": 1186,
      "##ortun": 1187,
      "▁acc": 1188,
      "▁one": 1189,
      "▁field": 1190,
      "##av": 1191,
      "▁english": 1192,
      "##uct": 1193,
      "▁gon": 1194,
      "▁office": 1195,
      "▁since": 1196,
      "▁05/01/2001": 1197,
      "##xce": 1198,
      "##ock": 1199,
      "##800": 1200,
      "##opment": 1201,
      "▁207": 1202,
      "▁1776": 1203,
      "f": 1204,
      "▁shakes": 1205,
      "▁official": 1206,
      "▁coun": 1207,
      "▁10:34": 1208,
      "▁that": 1209,
      "##37": 1210,
      "##ol": 1211,
      "▁it": 1212,
      "##ago": 1213,
      "##ain": 1214,
      "▁430": 1215,
      "▁our": 1216,
      "▁sad": 1217,
      "▁left": 1218,
      "▁fire": 1219,
      "▁973": 1220,
      "##ely": 1221,
      "##ru": 1222,
      "▁thank": 1223,
      "▁fri": 1224,
      "▁54,000": 1225,
      "▁result": 1226,
      "▁are": 1227,
      "##.6": 1228,
      "▁mi": 1229,
      "▁because": 1230,
      "##/200": 1231,
      "▁tra": 1232,
      "▁199": 1233,
      "▁26": 1234,
      "ʻ": 1235,
      "▁401": 1236,
      "▁!!!!!!!": 1237,
      "▁1954": 1238,
      "▁whether": 1239,
      "##****": 1240,
      "##ana": 1241,
      "▁eat": 1242,
      "▁chick": 1243,
      "▁1998": 1244,
      "▁11-20-2000": 1245,
      "▁hour": 1246,
      "##50": 1247,
      "##:55": 1248,
      "##ital": 1249,
      "▁ste": 1250,
      "##six": 1251,
      "##58": 1252,
      "▁832": 1253,
      "▁glass": 1254,
      "▁12": 1255,
      "##40": 1256,
      "▁people": 1257,
      "▁1910": 1258,
      "##|": 1259,
      "##cle": 1260,
      "##where": 1261,
      "##/15/2001": 1262,
      "##ster": 1263,
      "(": 1264,
      "##ame": 1265,
      "##anger": 1266,
      "##en": 1267,
      "▁picture": 1268,
      "##ather": 1269,
      "▁…": 1270,
      "▁2018": 1271,
      "##ong": 1272,
      "##21": 1273,
      "l": 1274,
      "##<": 1275,
      "|": 1276,
      "▁vegas": 1277,
      "▁push": 1278,
      "▁low": 1279,
      "##acy": 1280,
      "##=": 1281,
      "▁seem": 1282,
      "▁fare": 1283,
      "μ": 1284,
      "##ived": 1285,
      "▁ta": 1286,
      "##ination": 1287,
      "▁available": 1288,
      "##ght": 1289,
      "▁employ": 1290,
      "##man": 1291,
      "n": 1292,
      "▁330": 1293,
      "▁six": 1294,
      "▁10/20/2000": 1295,
      "▁express": 1296,
      "▁along": 1297,
      "▁150": 1298,
      "##sh": 1299,
      "##os": 1300,
      "##393": 1301,
      "##.15": 1302,
      "##0/2000": 1303,
      "##use": 1304,
      "##ents": 1305,
      "▁75": 1306,
      "▁depart": 1307,
      "▁finally": 1308,
      "##nesday": 1309,
      "##ger": 1310,
      "b": 1311,
      "##ious": 1312,
      "##460-33": 1313,
      "##ec": 1314,
      "▁hard": 1315,
      "▁800-553-3119": 1316,
      "##:34": 1317,
      "▁qu": 1318,
      "##:14": 1319,
      "▁220": 1320,
      "▁345-3436": 1321,
      "▁70": 1322,
      "▁1959": 1323,
      "##erg": 1324,
      "i": 1325,
      "##9.3": 1326,
      "▁7": 1327,
      "▁che": 1328,
      "▁military": 1329,
      "##ments": 1330,
      "##ind": 1331,
      "▁laur": 1332,
      "▁1790": 1333,
      "##________________________________": 1334,
      "▁lic": 1335,
      "##/": 1336,
      "▁civ": 1337,
      "▁.......": 1338,
      "##/4": 1339,
      "ي": 1340,
      "▁....": 1341,
      "▁expl": 1342,
      "▁using": 1343,
      "▁dark": 1344,
      "##u": 1345,
      "▁even": 1346,
      "▁baby": 1347,
      "##ma": 1348,
      "▁plan": 1349,
      "##/00": 1350,
      "1": 1351,
      "##gg": 1352,
      "▁11/10/2000": 1353,
      "##,7": 1354,
      "▁ours": 1355,
      "▁request": 1356,
      "▁itself": 1357,
      "▁ready": 1358,
      "▁fing": 1359,
      "##.85": 1360,
      "▁ty": 1361,
      "▁deb": 1362,
      "##ations": 1363,
      "▁import": 1364,
      "▁hum": 1365,
      "##itting": 1366,
      "▁n't": 1367,
      "##lf": 1368,
      "▁1932": 1369,
      "▁10/23/2000": 1370,
      "▁diff": 1371,
      "▁cup": 1372,
      "▁wednesday": 1373,
      "▁03/27/2001": 1374,
      "▁10:5": 1375,
      "▁claim": 1376,
      "▁tom": 1377,
      "▁expect": 1378,
      "▁gave": 1379,
      "##古": 1380,
      "▁mont": 1381,
      "##mm": 1382,
      "##ek": 1383,
      "##olog": 1384,
      "▁12.": 1385,
      "##z": 1386,
      "▁floor": 1387,
      "▁tor": 1388,
      "▁1000": 1389,
      "##********************************": 1390,
      "##ls": 1391,
      "▁36": 1392,
      "▁03:3": 1393,
      "▁315-460-33": 1394,
      "▁means": 1395,
      "▁ren": 1396,
      "▁answ": 1397,
      "▁yourselves": 1398,
      "د": 1399,
      "▁750": 1400,
      "##琴": 1401,
      "▁seemed": 1402,
      "##ans": 1403,
      "▁thirty": 1404,
      "▁09/16": 1405,
      "##ets": 1406,
      "远": 1407,
      "##way": 1408,
      "▁7.3": 1409,
      "▁seems": 1410,
      "▁03/15/2001": 1411,
      "▁13": 1412,
      "ł": 1413,
      "##,600": 1414,
      "▁1583": 1415,
      "▁public": 1416,
      "##~*": 1417,
      "##ertain": 1418,
      "##ured": 1419,
      "▁bo": 1420,
      "▁face": 1421,
      "##fore": 1422,
      "▁07/1": 1423,
      "▁quest": 1424,
      "▁transportation": 1425,
      "'": 1426,
      "▁non": 1427,
      "##ley": 1428,
      "##029": 1429,
      "##ild": 1430,
      "##pe": 1431,
      "##l": 1432,
      "▁'71": 1433,
      "▁0000108806": 1434,
      "▁fi": 1435,
      "##ogether": 1436,
      "▁goes": 1437,
      "##8/2001": 1438,
      "##onom": 1439,
      "##town": 1440,
      "##ess": 1441,
      "##uff": 1442,
      "▁5.8": 1443,
      "▁8043": 1444,
      "##-33": 1445,
      "▁adam": 1446,
      "▁give": 1447,
      "▁level": 1448,
      "▁real": 1449,
      "▁whi": 1450,
      "▁ten": 1451,
      "▁98": 1452,
      "▁beh": 1453,
      "##♥": 1454,
      "▁beneath": 1455,
      "▁alone": 1456,
      ";": 1457,
      "▁in": 1458,
      "##ize": 1459,
      "▁1500": 1460,
      "▁56": 1461,
      "▁til": 1462,
      "##ators": 1463,
      "▁lik": 1464,
      "樋": 1465,
      "▁04/30/2001": 1466,
      "▁unlike": 1467,
      "▁?": 1468,
      "▁close": 1469,
      "▁2004": 1470,
      "##........": 1471,
      "▁dese": 1472,
      "##igh": 1473,
      "##,000": 1474,
      "▁nine": 1475,
      "▁4:30": 1476,
      "##10": 1477,
      "##==": 1478,
      "##ill": 1479,
      "▁with": 1480,
      "##ors": 1481,
      "##osed": 1482,
      "▁before": 1483,
      "##ic": 1484,
      "##yond": 1485,
      "▁505": 1486,
      "▁ter": 1487,
      "▁children": 1488,
      "##.1234": 1489,
      "▁ph": 1490,
      "##ω": 1491,
      "##ra": 1492,
      "##ʒ": 1493,
      "##ways": 1494,
      "##ank": 1495,
      "▁front": 1496,
      "β": 1497,
      "▁tu": 1498,
      "##rew": 1499,
      "▁includ": 1500,
      "▁ind": 1501,
      "▁em": 1502,
      "##clud": 1503,
      "▁meas": 1504,
      "##urday": 1505,
      "▁pan": 1506,
      "▁me": 1507,
      "▁sha": 1508,
      "▁1846": 1509,
      "▁0": 1510,
      "▁gas": 1511,
      "▁1616": 1512,
      "葉": 1513,
      "▁success": 1514,
      "▁6.2.1": 1515,
      "▁9": 1516,
      "##act": 1517,
      "##inc": 1518,
      "##20": 1519,
      "▁1179": 1520,
      "▁trad": 1521,
      "##§": 1522,
      "##eight": 1523,
      "##got": 1524,
      "##ice": 1525,
      "▁10:46": 1526,
      "▁tick": 1527,
      "##eau": 1528,
      "▁visit": 1529,
      "▁common": 1530,
      "▁713-853-1696": 1531,
      "▁follow": 1532,
      "##im": 1533,
      "▁08:00": 1534,
      "▁woud": 1535,
      "▁doggie": 1536,
      "##721": 1537,
      "▁looks": 1538,
      "e": 1539,
      "▁try": 1540,
      "▁however": 1541,
      "▁but": 1542,
      "▁social": 1543,
      "▁xiii": 1544,
      "▁india": 1545,
      "▁whoever": 1546,
      "##.8317": 1547,
      "▁understand": 1548,
      "▁'d": 1549,
      "##葉": 1550,
      "▁lake": 1551,
      "▁val": 1552,
      "##ograph": 1553,
      "##read": 1554,
      "▁june": 1555,
      "▁less": 1556,
      "##oice": 1557,
      "▁1973": 1558,
      "▁1691": 1559,
      "##gle": 1560,
      "▁2,500": 1561,
      "##-27": 1562,
      "▁international": 1563,
      "▁economy": 1564,
      "▁680": 1565,
      "山": 1566,
      "▁few": 1567,
      "##eet": 1568,
      "▁daily": 1569,
      "▁cause": 1570,
      "##ates": 1571,
      "##ition": 1572,
      "æ": 1573,
      "▁466": 1574,
      "##five": 1575,
      "##ained": 1576,
      "▁refer": 1577,
      "▁com": 1578,
      "##cent": 1579,
      "##iding": 1580,
      "▁713-8": 1581,
      "9": 1582,
      "▁oh": 1583,
      "▁dest": 1584,
      "▁based": 1585,
      "▁health": 1586,
      "▁ever": 1587,
      "##ama": 1588,
      "▁design": 1589,
      "▁%": 1590,
      "▁esp": 1591,
      "##iny": 1592,
      "▁198": 1593,
      "▁other": 1594,
      "▁take": 1595,
      "▁1990": 1596,
      "▁nt": 1597,
      "口": 1598,
      "▁agreement": 1599,
      "▁father": 1600,
      "▁fore": 1601,
      "▁pur": 1602,
      "▁fro": 1603,
      "##**": 1604,
      "▁touch": 1605,
      "▁okay": 1606,
      "##sl": 1607,
      "▁tri": 1608,
      "▁necess": 1609,
      "▁forty-one": 1610,
      "▁dri": 1611,
      "##119": 1612,
      "▁ought": 1613,
      "▁156": 1614,
      "▁268": 1615,
      "▁full": 1616,
      "##128": 1617,
      "▁proc": 1618,
      "##6021": 1619,
      "▁human": 1620,
      "▁difficult": 1621,
      "##orn": 1622,
      "▁times": 1623,
      "##ury": 1624,
      "▁ones": 1625,
      "##veland": 1626,
      "▁sing": 1627,
      "▁du": 1628,
      "▁port": 1629,
      "▁expensive": 1630,
      "##8": 1631,
      "##~": 1632,
      "▁taken": 1633,
      "▁inc": 1634,
      "▁ang": 1635,
      "▁chair": 1636,
      "▁xsl": 1637,
      "##3098": 1638,
      "##ˈ": 1639,
      "▁this": 1640,
      "##.3": 1641,
      "##/26/2001": 1642,
      "##/2": 1643,
      "##iation": 1644,
      "##2,000": 1645,
      "▁community": 1646,
      "##ape": 1647,
      "##)": 1648,
      "▁:(": 1649,
      "##ho": 1650,
      "▁christ": 1651,
      "▁’’": 1652,
      "▁sat": 1653,
      "▁red": 1654,
      "▁her": 1655,
      "▁whose": 1656,
      "##ero": 1657,
      "##ond": 1658,
      "▁die": 1659,
      "▁item": 1660,
      "▁love": 1661,
      "##389": 1662,
      "6": 1663,
      "##ow": 1664,
      "▁dall": 1665,
      "##na": 1666,
      "▁month": 1667,
      "▁3/8/00": 1668,
      "▁07:24": 1669,
      "▁free": 1670,
      "▁addition": 1671,
      "▁do": 1672,
      "▁yours": 1673,
      "▁notwith": 1674,
      "琴": 1675,
      "##:29": 1676,
      "##:02": 1677,
      "##92": 1678,
      "▁713-793-": 1679,
      "##”": 1680,
      "##b": 1681,
      "▁myself": 1682,
      "▁wind": 1683,
      "##ti": 1684,
      "##8196021": 1685,
      "▁continental": 1686,
      "▁any": 1687,
      "##ble": 1688,
      "▁125": 1689,
      "▁ex": 1690,
      "▁opposite": 1691,
      "▁turn": 1692,
      "##/26": 1693,
      "▁0.0": 1694,
      "##ising": 1695,
      "##so": 1696,
      "▁leaving": 1697,
      "w": 1698,
      "##ummy": 1699,
      "▁up": 1700,
      "##oke": 1701,
      "##********": 1702,
      "▁38": 1703,
      "▁87": 1704,
      "▁came": 1705,
      "▁825": 1706,
      "▁ed": 1707,
      "▁youn": 1708,
      "##81": 1709,
      "▁quinn": 1710,
      "▁louis": 1711,
      "##图": 1712,
      "▁165": 1713,
      "▁fort": 1714,
      "▁c": 1715,
      "▁earth": 1716,
      "▁monday": 1717,
      "##ered": 1718,
      "##ember": 1719,
      "▁oper": 1720,
      "##bo": 1721,
      "▁us": 1722,
      "▁mess": 1723,
      "##ouble": 1724,
      "▁1918": 1725,
      "▁********************************": 1726,
      "▁09:14": 1727,
      "▁thing": 1728,
      "▁baltim": 1729,
      "▁sl": 1730,
      "▁milwau": 1731,
      "▁wo": 1732,
      "ن": 1733,
      "▁throu": 1734,
      "▁beaut": 1735,
      "▁key": 1736,
      "##ence": 1737,
      "##8/2000": 1738,
      "▁93": 1739,
      "▁281-": 1740,
      "##iate": 1741,
      "##ones": 1742,
      "▁given": 1743,
      "▁1603": 1744,
      "##vel": 1745,
      "##.45": 1746,
      "##1082": 1747,
      "▁every": 1748,
      "▁345-9945": 1749,
      "▁60": 1750,
      "##et": 1751,
      "▁01:39": 1752,
      "▁foc": 1753,
      "▁1929": 1754,
      "##able": 1755,
      "##.9": 1756,
      "▁mummy": 1757,
      "▁01:09": 1758,
      "▁101": 1759,
      "▁china": 1760,
      "##6": 1761,
      "##¢": 1762,
      "▁000010": 1763,
      "##£": 1764,
      "▁maybe": 1765,
      "▁large": 1766,
      "▁upon": 1767,
      "▁1984": 1768,
      "▁09/15": 1769,
      "##!!!": 1770,
      "##78": 1771,
      "##ert": 1772,
      "▁by": 1773,
      "##ploy": 1774,
      "▁told": 1775,
      "▁21,000": 1776,
      "▁03/28/2001": 1777,
      "##ved": 1778,
      "##ston": 1779,
      "▁202.45": 1780,
      "##apolis": 1781,
      "##oth": 1782,
      "▁169": 1783,
      "▁which": 1784,
      "▁4:50": 1785,
      "▁restaurant": 1786,
      "##/25/2001": 1787,
      "▁un": 1788,
      "##aps": 1789,
      "▁met": 1790,
      "▁18,000": 1791,
      "##435-": 1792,
      "▁defin": 1793,
      "▁point": 1794,
      "▁perform": 1795,
      "##ia": 1796,
      "##100": 1797,
      "##edie": 1798,
      "##ned": 1799,
      "▁>>": 1800,
      "##300": 1801,
      "▁ol": 1802,
      "▁73": 1803,
      "▁angel": 1804,
      "##erv": 1805,
      "▁16.379": 1806,
      "▁det": 1807,
      "¢": 1808,
      "##ica": 1809,
      "##•": 1810,
      "▁al": 1811,
      "▁713-646-3393": 1812,
      "▁1848": 1813,
      "▁tec": 1814,
      "▁63": 1815,
      "▁100": 1816,
      "▁rev": 1817,
      "▁191": 1818,
      "##况": 1819,
      "▁later": 1820,
      "##own": 1821,
      "##atch": 1822,
      "▁untill": 1823,
      "[MASK]": 1824,
      "▁202.456.1": 1825,
      "##2/2000": 1826,
      "和": 1827,
      "▁08/15/2000": 1828,
      "##ping": 1829,
      "##-20": 1830,
      "▁1,": 1831,
      "▁flo": 1832,
      "##_": 1833,
      "▁together": 1834,
      "▁house": 1835,
      "▁profess": 1836,
      "▁225": 1837,
      "▁better": 1838,
      "##le": 1839,
      "▁mag": 1840,
      "▁something": 1841,
      "▁944": 1842,
      "▁08/03/2000": 1843,
      "##,5": 1844,
      "▁978": 1845,
      "##.831": 1846,
      "▁pers": 1847,
      "▁rele": 1848,
      "##est": 1849,
      "##β": 1850,
      "▁tax": 1851,
      "##bur": 1852,
      "##ral": 1853,
      "▁832.676": 1854,
      "▁sim": 1855,
      "▁thru": 1856,
      "##518": 1857,
      "##++++": 1858,
      "▁commission": 1859,
      "##__________": 1860,
      "##otte": 1861,
      "ʒ": 1862,
      "##ull": 1863,
      "▁+1": 1864,
      "###": 1865,
      "▁01810": 1866,
      "▁rich": 1867,
      "▁within": 1868,
      "▁)": 1869,
      "▁doct": 1870,
      "▁1:30": 1871,
      "▁year": 1872,
      "##q": 1873,
      "▁es": 1874,
      "##atic": 1875,
      "▁ride": 1876,
      "##rael": 1877,
      "▁dinner": 1878,
      "##:25": 1879,
      "▁seen": 1880,
      "▁university": 1881,
      "##--------": 1882,
      "▁o'clock": 1883,
      "▁no": 1884,
      "▁also": 1885,
      "▁2020": 1886,
      "##:42": 1887,
      "##1-90": 1888,
      "▁hey": 1889,
      "▁720": 1890,
      "▁2003": 1891,
      "▁66": 1892,
      "▁''": 1893,
      "##☏": 1894,
      "▁800-5": 1895,
      "▁ident": 1896,
      "▁713/853": 1897,
      "▁41": 1898,
      "▁per": 1899,
      "▁bir": 1900,
      "▁2100": 1901,
      "▁47,500": 1902,
      "##2/2001": 1903,
      "##ε": 1904,
      "▁sun": 1905,
      "##iew": 1906,
      "▁mic": 1907,
      "##5/2001": 1908,
      "##ς": 1909,
      "##&": 1910,
      "##静": 1911,
      "▁’": 1912,
      "▁and": 1913,
      "▁button": 1914,
      "▁1602": 1915,
      "v": 1916,
      "~": 1917,
      "▁atlanta": 1918,
      "##ole": 1919,
      "▁11/2": 1920,
      "▁polit": 1921,
      "▁does": 1922,
      "·": 1923,
      "▁88": 1924,
      "▁s/h": 1925,
      "\"": 1926,
      "##/11": 1927,
      "▁vide": 1928,
      "##ook": 1929,
      "▁war": 1930,
      "▁269": 1931,
      "##olution": 1932,
      "▁morning": 1933,
      "##ities": 1934,
      "▁paul": 1935,
      "▁comple": 1936,
      "▁x": 1937,
      "▁1868": 1938,
      "▁’ve": 1939,
      "ʃ": 1940,
      "▁toward": 1941,
      "▁each": 1942,
      "▁onto": 1943,
      "##ature": 1944,
      "##ف": 1945,
      "▁ann": 1946,
      "##ign": 1947,
      "▁1575": 1948,
      "##red": 1949,
      "▁beyond": 1950,
      "▁copy": 1951,
      "▁rather": 1952,
      "▁south": 1953,
      "▁40": 1954,
      "##as": 1955,
      "##-n": 1956,
      "▁lost": 1957,
      "▁295870": 1958,
      "▁530": 1959,
      "▁stop": 1960,
      "▁name": 1961,
      "▁example": 1962,
      "▁00": 1963,
      "▁most": 1964,
      "##ø": 1965,
      "▁commun": 1966,
      "ʊ": 1967,
      "##an": 1968,
      "▁space": 1969,
      "▁505-625-8031": 1970,
      "▁friend": 1971,
      "##v": 1972,
      "▁houston": 1973,
      "▁coming": 1974,
      "▁file": 1975,
      "œ": 1976,
      "##ester": 1977,
      "##und": 1978,
      "##nd": 1979,
      "##61": 1980,
      "▁min": 1981,
      "▁t": 1982,
      "▁e": 1983,
      "▁los": 1984,
      "▁21": 1985,
      "##%": 1986,
      "##26": 1987,
      "▁2.": 1988,
      "▁09:45": 1989,
      "▁provide": 1990,
      "▁break": 1991,
      "▁flight": 1992,
      "▁3": 1993,
      "▁grow": 1994,
      "▁pre": 1995,
      "▁box": 1996,
      "▁43": 1997,
      "▁aircraft": 1998,
      "▁932": 1999,
      "▁phone": 2000,
      "q": 2001,
      "▁08/15": 2002,
      "▁class": 2003,
      "##old": 2004,
      "##ional": 2005,
      "▁always": 2006,
      "##ter": 2007,
      "▁gets": 2008,
      "▁01:58": 2009,
      "##ose": 2010,
      "▁fift": 2011,
      "▁1-800": 2012,
      "▁|": 2013,
      "▁uhhuh": 2014,
      "##ound": 2015,
      "▁these": 2016,
      "▁04:17": 2017,
      "##80-": 2018,
      "▁energy": 2019,
      "##.7822": 2020,
      "##iously": 2021,
      "▁got": 2022,
      "▁letter": 2023,
      "▁opp": 2024,
      "▁1967": 2025,
      "▁early": 2026,
      "▁158": 2027,
      "▁str": 2028,
      "▁there": 2029,
      "▁world": 2030,
      "▁security": 2031,
      "##59": 2032,
      "▁theirs": 2033,
      "▁620-": 2034,
      "☏": 2035,
      "##810": 2036,
      "▁those": 2037,
      "▁project": 2038,
      "▁saying": 2039,
      "##:1": 2040,
      "▁oc": 2041,
      "▁turned": 2042,
      "##φ": 2043,
      "▁road": 2044,
      "▁o": 2045,
      "▁sugg": 2046,
      "##+": 2047,
      "##ical": 2048,
      "½": 2049,
      "##lik": 2050,
      "##ides": 2051,
      "▁return": 2052,
      "▁words": 2053,
      "▁713-654-": 2054,
      "▁1999": 2055,
      "▁yester": 2056,
      "##ress": 2057,
      "▁develop": 2058,
      "##.7": 2059,
      "##-3393": 2060,
      "▁between": 2061,
      "▁6": 2062,
      "静": 2063,
      "▁best": 2064,
      "▁hun": 2065,
      "▁2009": 2066,
      "##enth": 2067,
      "▁lea": 2068,
      "##ight": 2069,
      "▁r": 2070,
      "▁inform": 2071,
      "▁market": 2072,
      "▁certain": 2073,
      "##.": 2074,
      "##ience": 2075,
      "▁37": 2076,
      "▁environ": 2077,
      "▁713-853-3989": 2078,
      "▁200,000": 2079,
      "##sc": 2080,
      "▁land": 2081,
      "▁conv": 2082,
      "##k": 2083,
      "▁ent": 2084,
      "▁fifteen": 2085,
      "▁08/16/2000": 2086,
      "##ore": 2087,
      "▁fin": 2088,
      "##ous": 2089,
      "##ected": 2090,
      "▁new": 2091,
      "##ord": 2092,
      "▁herself": 2093,
      "##o": 2094,
      "▁books": 2095,
      "▁like": 2096,
      "▁1966": 2097,
      "▁969": 2098,
      "▁15": 2099,
      "##/1": 2100,
      "▁prev": 2101,
      "▁iran": 2102,
      "▁137": 2103,
      "▁america": 2104,
      "%": 2105,
      "##ney": 2106,
      "▁know": 2107,
      "▁813": 2108,
      "##pite": 2109,
      "##peare": 2110,
      "▁who's": 2111,
      "##ines": 2112,
      "▁3889": 2113,
      "▁82": 2114,
      "##:13": 2115,
      "▁zero": 2116,
      "##re": 2117,
      "▁major": 2118,
      "▁if": 2119,
      "▁clean": 2120,
      "▁28": 2121,
      "▁11,000": 2122,
      "津": 2123,
      "##ز": 2124,
      "▁far": 2125,
      "▁http": 2126,
      "##ح": 2127,
      "▁interest": 2128,
      "▁505-625": 2129,
      "##ure": 2130,
      "”": 2131,
      "##pl": 2132,
      "▁33": 2133,
      "##ens": 2134,
      "▁sour": 2135,
      "▁area": 2136,
      "▁2:25": 2137,
      "##zac": 2138,
      "##ruct": 2139,
      "▁sign": 2140,
      "▁canad": 2141,
      "##ope": 2142,
      "▁na": 2143,
      "##8-3": 2144,
      "▁hea": 2145,
      "▁san": 2146,
      "##989": 2147,
      "##airs": 2148,
      "▁+45": 2149,
      "▁fur": 2150,
      "▁619": 2151,
      "▁find": 2152,
      "▁4:00": 2153,
      "▁5:00": 2154,
      "▁sixty": 2155,
      "▁late": 2156,
      "▁1955": 2157,
      "▁act": 2158,
      "##ن": 2159,
      "##eap": 2160,
      "σ": 2161,
      "##7": 2162,
      "▁hair": 2163,
      "▁150,000": 2164,
      "▁29": 2165,
      "##­": 2166,
      "##!": 2167,
      "▁effort": 2168,
      "##ould": 2169,
      "##ified": 2170,
      "▁discuss": 2171,
      "##________________": 2172,
      "▁years": 2173,
      "##amm": 2174,
      "▁650": 2175,
      "##fe": 2176,
      "▁arg": 2177,
      "##84": 2178,
      "▁lo": 2179,
      "▁nat": 2180,
      "▁???": 2181,
      "##ead": 2182,
      "▁alber": 2183,
      "▁creat": 2184,
      "▁1841": 2185,
      "▁'ve": 2186,
      "##arch": 2187,
      "▁1738": 2188,
      "▁315": 2189,
      "▁daddy": 2190,
      "▁09:2": 2191,
      "##co": 2192,
      "▁makes": 2193,
      "##ds": 2194,
      "##ices": 2195,
      "▁ach": 2196,
      "▁i": 2197,
      "▁unless": 2198,
      "##ə": 2199,
      "▁713-654-128": 2200,
      "▁q": 2201,
      "##ped": 2202,
      "##bs": 2203,
      "▁416-865-370": 2204,
      "#": 2205,
      "▁happy": 2206,
      "##:05": 2207,
      "▁pot": 2208,
      "▁03/2": 2209,
      "▁here": 2210,
      "##.863": 2211,
      "▁clim": 2212,
      "▁99": 2213,
      "##41": 2214,
      "▁neither": 2215,
      "▁10": 2216,
      "##:15": 2217,
      "▁co": 2218,
      "▁ai": 2219,
      "▁el": 2220,
      "##oh": 2221,
      ")": 2222,
      "▁201": 2223,
      "▁12:3": 2224,
      "##68": 2225,
      "##anta": 2226,
      "▁1896": 2227,
      "▁888": 2228,
      "▁3,202.61": 2229,
      "##ision": 2230,
      "▁2.00": 2231,
      "▁view": 2232,
      "##hip": 2233,
      "##?": 2234,
      "▁95": 2235,
      "▁park": 2236,
      "▁save": 2237,
      "’": 2238,
      "##der": 2239,
      "▁very": 2240,
      "▁1978": 2241,
      "##ving": 2242,
      "##'": 2243,
      "▁third": 2244,
      "▁will": 2245,
      "▁aust": 2246,
      "##ased": 2247,
      "▁1504": 2248,
      "▁hur": 2249,
      "▁behin": 2250,
      "▁03/0": 2251,
      "##/2005": 2252,
      "▁59": 2253,
      "▁won": 2254,
      "▁2013": 2255,
      "▁unto": 2256,
      "▁1878": 2257,
      "##------": 2258,
      "▁#": 2259,
      "°": 2260,
      "▁hi": 2261,
      "▁doctor": 2262,
      "▁jan": 2263,
      "▁iss": 2264,
      "▁did": 2265,
      "▁ret": 2266,
      "▁cal": 2267,
      "▁problems": 2268,
      "▁fact": 2269,
      "##e": 2270,
      "▁teach": 2271,
      "##head": 2272,
      "##od": 2273,
      "▁hop": 2274,
      "▁spec": 2275,
      "▁thous": 2276,
      "##/26/2000": 2277,
      "##velop": 2278,
      "##za": 2279,
      "##6-8": 2280,
      "▁would": 2281,
      "▁dur": 2282,
      "▁women": 2283,
      "▁te": 2284,
      "▁down": 2285,
      "▁via": 2286,
      "##ning": 2287,
      "▁school": 2288,
      "▁web": 2289,
      "##}": 2290,
      "▁exc": 2291,
      "“": 2292,
      "▁wanted": 2293,
      "##oy": 2294,
      "##ult": 2295,
      "▁above": 2296,
      "##:52": 2297,
      "▁1985": 2298,
      "▁pet": 2299,
      "▁process": 2300,
      "▁94": 2301,
      "▁dist": 2302,
      "▁behind": 2303,
      "##pp": 2304,
      "▁recommend": 2305,
      "##bers": 2306,
      "▁1/4": 2307,
      "▁noon": 2308,
      "▁store": 2309,
      "##haps": 2310,
      "▁bring": 2311,
      "▁disc": 2312,
      "▁wor": 2313,
      "##raft": 2314,
      "▁strong": 2315,
      "▁information": 2316,
      "##ost": 2317,
      "▁8:15": 2318,
      "▁impro": 2319,
      "##✉": 2320,
      "##tc": 2321,
      "▁eight": 2322,
      "##ron": 2323,
      "▁plac": 2324,
      "▁apart": 2325,
      "▁cult": 2326,
      "▁1145": 2327,
      "▁home": 2328,
      "▁46": 2329,
      "▁dere": 2330,
      "▁l": 2331,
      "▁1564": 2332,
      "##uz": 2333,
      "▁747": 2334,
      "##olis": 2335,
      "▁555": 2336,
      "•": 2337,
      "▁]": 2338,
      "▁1819": 2339,
      "▁stat": 2340,
      "▁europe": 2341,
      "##omm": 2342,
      "##ling": 2343,
      "▁*": 2344,
      "▁922": 2345,
      "##thing": 2346,
      "▁main": 2347,
      "▁milwaukee": 2348,
      "##ces": 2349,
      "▁author": 2350,
      "▁actually": 2351,
      "▁89": 2352,
      "##ied": 2353,
      "▁$": 2354,
      "##cc": 2355,
      "▁11:30": 2356,
      "▁team": 2357,
      "##uc": 2358,
      "▁1-800-991-90": 2359,
      "##ex": 2360,
      "▁thy": 2361,
      "▁>": 2362,
      "##ives": 2363,
      "▁united": 2364,
      "▁taking": 2365,
      "▁06/01/2001": 2366,
      "▁made": 2367,
      "▁said": 2368,
      "##vers": 2369,
      "##80": 2370,
      "▁round": 2371,
      "▁1960": 2372,
      "▁1925": 2373,
      "▁cheapest": 2374,
      "▁least": 2375,
      "##teen": 2376,
      "##n": 2377,
      "##adelp": 2378,
      "▁eye": 2379,
      "▁americans": 2380,
      "▁3/9": 2381,
      "▁who": 2382,
      "##55": 2383,
      "##津": 2384,
      "▁august": 2385,
      "▁numerous": 2386,
      "##ogn": 2387,
      "##ton": 2388,
      "▁really": 2389,
      "##71": 2390,
      "##/17/2000": 2391,
      "▁rep": 2392,
      "##cept": 2393,
      "▁study": 2394,
      "▁1610": 2395,
      "▁especially": 2396,
      "##ably": 2397,
      "α": 2398,
      "▁list": 2399,
      "▁11/08/2000": 2400,
      "▁making": 2401,
      "▁03": 2402,
      "古": 2403,
      "▁29587": 2404,
      "▁collect": 2405,
      "##----": 2406,
      "▁charlotte": 2407,
      "ø": 2408,
      "▁+44": 2409,
      "▁ninety-n": 2410,
      "▁besides": 2411,
      "##.2461": 2412,
      "▁687": 2413,
      "▁off": 2414,
      "##ern": 2415,
      "##ص": 2416,
      "▁1701": 2417,
      "▁line": 2418,
      "▁colle": 2419,
      "##uss": 2420,
      "▁members": 2421,
      "▁5.5": 2422,
      "▁202.456": 2423,
      "▁ll": 2424,
      "##iddle": 2425,
      "##93": 2426,
      "▁represent": 2427,
      "▁trip": 2428,
      "c": 2429,
      "##w": 2430,
      "##ment": 2431,
      "▁mil": 2432,
      "▁squ": 2433,
      "▁72": 2434,
      "▁11.5": 2435,
      "▁1787": 2436,
      "▁08/0": 2437,
      "##ent": 2438,
      "##28": 2439,
      "▁atl": 2440,
      "▁376": 2441,
      "▁number": 2442,
      "▁2030": 2443,
      "▁bow": 2444,
      "▁1588": 2445,
      "▁deter": 2446,
      "▁travel": 2447,
      "##'re": 2448,
      "##7/99": 2449,
      "▁still": 2450,
      "##:48": 2451,
      "▁balzac": 2452,
      "##ired": 2453,
      "▁quick": 2454,
      "##ys": 2455,
      "##inner": 2456,
      "▁airline": 2457,
      "##’t": 2458,
      "▁102": 2459,
      "▁proble": 2460,
      "##itive": 2461,
      "##isc": 2462,
      "▁30,000": 2463,
      "##gr": 2464,
      "##ne": 2465,
      "▁tem": 2466,
      "▁01/25/2001": 2467,
      "▁1995": 2468,
      "##ath": 2469,
      "▁1951": 2470,
      "▁07": 2471,
      "▁has": 2472,
      "▁uhoh": 2473,
      "##eng": 2474,
      "##ient": 2475,
      "▁159": 2476,
      "##7/2001": 2477,
      "▁2500": 2478,
      "▁present": 2479,
      "▁oakland": 2480,
      "▁takes": 2481,
      "▁none": 2482,
      "##183": 2483,
      "▁fam": 2484,
      "##99": 2485,
      "a": 2486,
      "▁custom": 2487,
      "▁business": 2488,
      "##iron": 2489,
      "▁done": 2490,
      "▁suggest": 2491,
      "▁120,000": 2492,
      "##gress": 2493,
      "▁202.7": 2494,
      "▁1799": 2495,
      "▁be": 2496,
      "##ke": 2497,
      "##atter": 2498,
      "η": 2499,
      "##201": 2500,
      "▁fair": 2501,
      "▁01/24/2001": 2502,
      "▁1700": 2503,
      "##gy": 2504,
      "▁earli": 2505,
      "▁inside": 2506,
      "##16": 2507,
      "▁1160": 2508,
      "▁elect": 2509,
      "▁11:45": 2510,
      "##,000,000,000": 2511,
      "##ο": 2512,
      "▁o'": 2513,
      "##ith": 2514,
      "▁11:35": 2515,
      "▁thousand": 2516,
      "▁58": 2517,
      "▁2.975": 2518,
      "▁great": 2519,
      "##uel": 2520,
      "##004": 2521,
      "▁abe": 2522,
      "▁1:00": 2523,
      "+": 2524,
      "##-780-": 2525,
      "▁107": 2526,
      "▁---": 2527,
      "▁:-)": 2528,
      "▁bi": 2529,
      "##cross": 2530,
      "▁281-443-3744": 2531,
      "##ree": 2532,
      "▁dogg": 2533,
      "▁access": 2534,
      "##sp": 2535,
      "▁11:07": 2536,
      "▁jo": 2537,
      "▁questions": 2538,
      "##-415-": 2539,
      "▁713-654-0365": 2540,
      "▁kn": 2541,
      "▁202.456.1414": 2542,
      "▁hope": 2543,
      "▁th": 2544,
      "▁airl": 2545,
      "▁whil": 2546,
      "▁6871082": 2547,
      "▁1944": 2548,
      "▁boston": 2549,
      "▁dr": 2550,
      "▁2050": 2551,
      "##ont": 2552,
      "##æ": 2553,
      "##ists": 2554,
      "##un": 2555,
      "▁hotel": 2556,
      "▁sty": 2557,
      "▁del": 2558,
      "##m": 2559,
      "▁cam": 2560,
      "##f": 2561,
      "▁sec": 2562,
      "▁07/17/2000": 2563,
      "##ending": 2564,
      "▁2021": 2565,
      "▁iv": 2566,
      "##ot": 2567,
      "▁1.00": 2568,
      "▁ago": 2569,
      "##ior": 2570,
      "##ris": 2571,
      "▁57": 2572,
      "▁!!!": 2573,
      "▁airport": 2574,
      "▁1754": 2575,
      "##ating": 2576,
      "▁2011": 2577,
      "▁pretty": 2578,
      "▁shop": 2579,
      "▁couple": 2580,
      "▁575": 2581,
      "▁wr": 2582,
      "▁mother": 2583,
      "▁748": 2584,
      "▁mom": 2585,
      "##asing": 2586,
      "▁850": 2587,
      "▁160": 2588,
      "▁job": 2589,
      "▁af": 2590,
      "▁dress": 2591,
      "▁&amp;": 2592,
      "▁—": 2593,
      "▁2002": 2594,
      "▁61": 2595,
      "▁kill": 2596,
      "##ove": 2597,
      "▁organ": 2598,
      "▁sit": 2599,
      "##low": 2600,
      "##lish": 2601,
      "▁environment": 2602,
      "υ": 2603,
      "##5,000": 2604,
      "##ided": 2605,
      "##66": 2606,
      "▁6.00": 2607,
      "▁0590": 2608,
      "##ا": 2609,
      "▁15,000": 2610,
      "##ι": 2611,
      "▁particip": 2612,
      "▁2,000": 2613,
      "▁aff": 2614,
      "ʁ": 2615,
      "▁77": 2616,
      "▁num": 2617,
      "[": 2618,
      "##____": 2619,
      "▁eating": 2620,
      "##-3": 2621,
      "##velopment": 2622,
      "▁things": 2623,
      "##--": 2624,
      "##ized": 2625,
      "▁di": 2626,
      "▁11/7": 2627,
      "▁rese": 2628,
      "▁thinking": 2629,
      "▁mo": 2630,
      "▁scient": 2631,
      "▁had": 2632,
      "▁current": 2633,
      "▁enron": 2634,
      "▁05/25/2001": 2635,
      "▁thirty-five": 2636,
      "▁416-865-3": 2637,
      "▁wait": 2638,
      "▁05:37": 2639,
      "▁camp": 2640,
      "g": 2641,
      "司": 2642,
      "▁eu": 2643,
      "##attle": 2644,
      "▁small": 2645,
      "▁mov": 2646,
      "▁14": 2647,
      "▁3.2": 2648,
      "▁chicken": 2649,
      "##:16": 2650,
      "##ate": 2651,
      "##icago": 2652,
      "▁hist": 2653,
      "▁experience": 2654,
      "▁somebody": 2655,
      "##,950": 2656,
      "▁bur": 2657,
      "##our": 2658,
      "▁713-79": 2659,
      "▁2:30": 2660,
      "▁1.1": 2661,
      "▁she": 2662,
      "##87": 2663,
      "▁02/2": 2664,
      "▁jwww": 2665,
      "▁y": 2666,
      "▁dep": 2667,
      "##idence": 2668,
      "##:/": 2669,
      "▁s": 2670,
      "▁instead": 2671,
      "▁when": 2672,
      "▁minutes": 2673,
      "r": 2674,
      "▁say": 2675,
      "##ob": 2676,
      "▁among": 2677,
      "▁short": 2678,
      "##s": 2679,
      "▁working": 2680,
      "▁62": 2681,
      "##.30": 2682,
      "▁6/1": 2683,
      "▁lar": 2684,
      "##-0": 2685,
      "▁story": 2686,
      "▁invest": 2687,
      "▁exist": 2688,
      "▁first": 2689,
      "##ider": 2690,
      "▁800.713.8600": 2691,
      "##itions": 2692,
      "▁bad": 2693,
      "▁eas": 2694,
      "▁soc": 2695,
      "▁713-853-": 2696,
      "▁beach": 2697,
      "▁top": 2698,
      "▁ou": 2699,
      "##orrow": 2700,
      "##33": 2701,
      "##口": 2702,
      "##109": 2703,
      "##ane": 2704,
      "▁2.5": 2705,
      "##ɑ": 2706,
      "▁univers": 2707,
      "##een": 2708,
      "▁spr": 2709,
      "▁roman": 2710,
      "▁10:00": 2711,
      "▁says": 2712,
      "▁1892": 2713,
      "##880": 2714,
      "##ife": 2715,
      "##-20-": 2716,
      "▁weeks": 2717,
      "▁case": 2718,
      "▁cre": 2719,
      "▁belie": 2720,
      "##ff": 2721,
      "##one": 2722,
      "##ins": 2723,
      "▁buy": 2724,
      "▁sixteen": 2725,
      "##27": 2726,
      "▁while": 2727,
      "▁happened": 2728,
      "▁2.3": 2729,
      "▁713.8": 2730,
      "▁72,000": 2731,
      "##ile": 2732,
      "▁please": 2733,
      "##澹": 2734,
      "##ad": 2735,
      "##ement": 2736,
      "▁tomorrow": 2737,
      "##67": 2738,
      "##867": 2739,
      "##.621": 2740,
      "▁sev": 2741,
      "▁pe": 2742,
      "▁1613": 2743,
      "▁astr": 2744,
      "▁humaine": 2745,
      "▁281-435-": 2746,
      "▁197": 2747,
      "▁1561": 2748,
      "##ation": 2749,
      "▁3.7": 2750,
      "▁july": 2751,
      "##????": 2752,
      "▁as": 2753,
      "##pt": 2754,
      "##,008": 2755,
      "▁intern": 2756,
      "▁bn": 2757,
      "##oug": 2758,
      "▁90": 2759,
      "▁42": 2760,
      "##09": 2761,
      "▁worth": 2762,
      "▁92": 2763,
      "##-99": 2764,
      "▁par": 2765,
      "▁often": 2766,
      "▁def": 2767,
      "▁easy": 2768,
      "##ver": 2769,
      "▁rock": 2770,
      "▁milit": 2771,
      "▁member": 2772,
      "▁6871082#": 2773,
      "##omen": 2774,
      "▁teh": 2775,
      "##`": 2776,
      "▁195": 2777,
      "##:30": 2778,
      "##7/2000": 2779,
      "▁1947": 2780,
      "##:01": 2781,
      "##__": 2782,
      "▁74419": 2783,
      "##@ect": 2784,
      "▁852": 2785,
      "▁888.916.718": 2786,
      "▁food": 2787,
      "▁·": 2788,
      "▁piece": 2789,
      "##irl": 2790,
      "▁175": 2791,
      "▁6.2": 2792,
      "##icult": 2793,
      "▁sh": 2794,
      "▁1-800-991-9019": 2795,
      "t": 2796,
      "##3/2000": 2797,
      "##www": 2798,
      "▁dc": 2799,
      "##43": 2800,
      "▁aw": 2801,
      "##ipp": 2802,
      "²": 2803,
      "▁1609": 2804,
      "▁w/": 2805,
      "▁1937": 2806,
      "▁.....": 2807,
      "##ott": 2808,
      "▁requ": 2809,
      "##az": 2810,
      "▁reason": 2811,
      "▁pittsburgh": 2812,
      "▁exp": 2813,
      "▁price": 2814,
      "▁whom": 2815,
      "€": 2816,
      "##iqu": 2817,
      "▁sort": 2818,
      "▁202.456.1111": 2819,
      "##es": 2820,
      "▁bl": 2821,
      "##ik": 2822,
      "▁512": 2823,
      "▁425": 2824,
      "▁7:30": 2825,
      "##111": 2826,
      "##ats": 2827,
      "▁_": 2828,
      "▁1635": 2829,
      "##89": 2830,
      "▁town": 2831,
      "##490": 2832,
      "▁kids": 2833,
      "▁1/2": 2834,
      "##x": 2835,
      "▁bal": 2836,
      "▁ben": 2837,
      "▁israel": 2838,
      "▁3.": 2839,
      "##miss": 2840,
      "▁exce": 2841,
      "##osite": 2842,
      "▁---------------------------------": 2843,
      "▁life": 2844,
      "▁star": 2845,
      "##1696": 2846,
      "##ization": 2847,
      "##hing": 2848,
      "##ion": 2849,
      "▁64": 2850,
      "▁knew": 2851,
      "##/h": 2852,
      "▁260": 2853,
      "▁5.3": 2854,
      "▁typ": 2855,
      "▁gl": 2856,
      "▁2006": 2857,
      "▁759933": 2858,
      "▁secur": 2859,
      "▁5/18": 2860,
      "##ensive": 2861,
      "▁24.7": 2862,
      "##ures": 2863,
      "▁1593": 2864,
      "▁sen": 2865,
      "##ward": 2866,
      "▁50": 2867,
      "##ap": 2868,
      "▁fight": 2869,
      "##aining": 2870,
      "▁7484": 2871,
      "##2000": 2872,
      "##my": 2873,
      "▁north": 2874,
      "▁12:42": 2875,
      "▁water": 2876,
      "▁**": 2877,
      "##ab": 2878,
      "▁washing": 2879,
      "▁g": 2880,
      "##.8": 2881,
      "##fer": 2882,
      "▁email": 2883,
      "▁micro": 2884,
      "▁opt": 2885,
      "▁po": 2886,
      "##]": 2887,
      "##ness": 2888,
      "##op": 2889,
      "##book": 2890,
      "▁1579": 2891,
      "▁history": 2892,
      "▁mu": 2893,
      "##/03/2001": 2894,
      "##te": 2895,
      "▁11": 2896,
      "▁9/11": 2897,
      "♥": 2898,
      "▁place": 2899,
      "▁80,000": 2900,
      "ا": 2901,
      "##53-3119": 2902,
      "▁whereas": 2903,
      "##:50": 2904,
      "▁1777": 2905,
      "▁12:30": 2906,
      "▁dom": 2907,
      "▁3.5": 2908,
      "##****************": 2909,
      "▁bea": 2910,
      "▁half": 2911,
      "##/17/99": 2912,
      "▁sunday": 2913,
      "▁of": 2914,
      "▁250": 2915,
      "##/9": 2916,
      "##ately": 2917,
      "##ial": 2918,
      "##oph": 2919,
      "▁ans": 2920,
      "##p": 2921,
      "▁.2": 2922,
      "##raw": 2923,
      "##.25": 2924,
      "##ric": 2925,
      "##cum": 2926,
      "▁ano": 2927,
      "▁dose": 2928,
      "##ite": 2929,
      "▁42,000": 2930,
      "ˈ": 2931,
      "▁1724": 2932,
      "▁thought": 2933,
      "##oup": 2934,
      "▁post": 2935,
      "▁everything": 2936,
      "▁amongst": 2937,
      "##ays": 2938,
      "▁under": 2939,
      "##-": 2940,
      "▁forth": 2941,
      "##ences": 2942,
      "##:": 2943,
      "▁08:30": 2944,
      "##ability": 2945,
      "³": 2946,
      "##46": 2947,
      "▁417": 2948,
      "▁april": 2949,
      "##aim": 2950,
      "##at": 2951,
      "##st": 2952,
      "##iting": 2953,
      "▁send": 2954,
      "##ited": 2955,
      "▁word": 2956,
      "▁48": 2957,
      "▁consider": 2958,
      "`": 2959,
      "▁345": 2960,
      "▁obs": 2961,
      "##ough": 2962,
      "##res": 2963,
      "##>": 2964,
      "##umb": 2965,
      "##874": 2966,
      "▁indust": 2967,
      "##72": 2968,
      "▁need": 2969,
      "▁09/16/99": 2970,
      "##ics": 2971,
      "▁probably": 2972,
      "▁tr": 2973,
      "##587": 2974,
      "▁ec": 2975,
      "##600": 2976,
      "##noon": 2977,
      "▁mem": 2978,
      "##½": 2979,
      "▁2014": 2980,
      "##301": 2981,
      "##ast": 2982,
      "况": 2983,
      "▁shakespeare": 2984,
      "▁specific": 2985,
      "▁var": 2986,
      "▁walk": 2987,
      "▁poor": 2988,
      "##³": 2989,
      "▁19": 2990,
      "##$": 2991,
      "##ty": 2992,
      "▁1822": 2993,
      "▁educ": 2994,
      "▁charl": 2995,
      "▁looked": 2996,
      "##um": 2997,
      "▁1875": 2998,
      "##60": 2999,
      "▁surpr": 3000,
      "▁av": 3001,
      "▁comm": 3002,
      "▁1902": 3003,
      "##0295": 3004,
      "▁course": 3005,
      "▁huma": 3006,
      "##tsbur": 3007,
      "▁une": 3008,
      "▁energ": 3009,
      "▁567.77": 3010,
      "▁3,000": 3011,
      "▁watch": 3012,
      "▁page": 3013,
      "▁quality": 3014,
      "##1-": 3015,
      "▁ge": 3016,
      "▁1689": 3017,
      "▁1849": 3018,
      "##^": 3019,
      "▁cap": 3020,
      "##ß": 3021,
      "▁163": 3022,
      "▁med": 3023,
      "##ʊ": 3024,
      "▁620-294-": 3025,
      "▁1200": 3026,
      "▁inv": 3027,
      "▁508": 3028,
      "▁res": 3029,
      "▁&amp": 3030,
      "##al": 3031,
      "▁child": 3032,
      "▁345-343": 3033,
      "##ar": 3034,
      "▁1975": 3035,
      "##ons": 3036,
      "▁1779": 3037,
      "▁conf": 3038,
      "▁truck": 3039,
      "##vil": 3040,
      "▁415.782.7822": 3041,
      "▁ens": 3042,
      "▁sand": 3043,
      "▁thurs": 3044,
      "##ian": 3045,
      "##ros": 3046,
      "##alf": 3047,
      "▁2.9": 3048,
      "▁h-0": 3049,
      "##4-79": 3050,
      "▁nice": 3051,
      "▁dad": 3052,
      "##enty": 3053,
      "▁05/30/2001": 3054,
      "##38": 3055,
      "▁ju": 3056,
      "子": 3057,
      "▁cook": 3058,
      "▁01": 3059,
      "▁no-": 3060,
      "▁1914": 3061,
      "▁wil": 3062,
      "##up": 3063,
      "▁important": 3064,
      "▁apr": 3065,
      "▁int": 3066,
      "d": 3067,
      "##enron": 3068,
      "▁throw": 3069,
      "▁sor": 3070,
      "▁http://": 3071,
      "▁proper": 3072,
      "##24": 3073,
      "▁83": 3074,
      "▁past": 3075,
      "▁inter": 3076,
      "▁fell": 3077,
      "▁(": 3078,
      "▁vi": 3079,
      "##oll": 3080,
      "▁3,": 3081,
      "##ried": 3082,
      "▁425-415-": 3083,
      "▁81": 3084,
      "▁630": 3085,
      "▁la": 3086,
      "▁03/08/2000": 3087,
      "▁away": 3088,
      "▁looking": 3089,
      "##ility": 3090,
      "##23": 3091,
      "##/2004": 3092,
      "▁boy": 3093,
      "##ort": 3094,
      "▁green": 3095,
      "▁1958": 3096,
      "▁little": 3097,
      "▁pol": 3098,
      "▁6,000": 3099,
      "▁281": 3100,
      "▁betw": 3101,
      "▁7.2": 3102,
      "##cuz": 3103,
      "▁1604": 3104,
      "##app": 3105,
      "##ondon": 3106,
      "▁address": 3107,
      "▁wear": 3108,
      "##ft": 3109,
      "▁ra": 3110,
      "▁11/28/2000": 3111,
      "p": 3112,
      "▁kind": 3113,
      "##3-37": 3114,
      "▁night": 3115,
      "##used": 3116,
      "▁u": 3117,
      "▁dollars": 3118,
      "##ection": 3119,
      "##ised": 3120,
      "▁1/8": 3121,
      "▁their": 3122,
      "##ued": 3123,
      "▁perhaps": 3124,
      "▁lead": 3125,
      "▁orlando": 3126,
      "▁1530": 3127,
      "▁703": 3128,
      "▁court": 3129,
      "▁yet": 3130,
      "##kk": 3131,
      "##:39": 3132,
      "▁an": 3133,
      "▁sent": 3134,
      "▁483": 3135,
      "▁10:45": 3136,
      "##ʁ": 3137,
      "##η": 3138,
      "▁went": 3139,
      "##lud": 3140,
      "##ud": 3141,
      "##age": 3142,
      "▁+": 3143,
      "ι": 3144,
      "▁1981": 3145,
      "▁3:00": 3146,
      "▁places": 3147,
      "##aking": 3148,
      "▁cour": 3149,
      "▁730": 3150,
      "▁eng": 3151,
      "##round": 3152,
      "▁5/1": 3153,
      "▁train": 3154,
      "▁est": 3155,
      "▁aug": 3156,
      "▁friday": 3157,
      "▁5000": 3158,
      "-": 3159,
      "##ality": 3160,
      "▁chang": 3161,
      "▁2": 3162,
      "▁1.": 3163,
      "##ended": 3164,
      "▁indian": 3165,
      "##utes": 3166,
      "##46-3393": 3167,
      "##96": 3168,
      "▁such": 3169,
      "▁1800": 3170,
      "##ome": 3171,
      "##urn": 3172,
      "▁xii": 3173,
      "▁3-5": 3174,
      "▁--": 3175,
      "▁needs": 3176,
      "▁succ": 3177,
      "##oney": 3178,
      "##iction": 3179,
      "▁pr": 3180,
      "##夏": 3181,
      "##8806": 3182,
      "##int": 3183,
      "##ission": 3184,
      "▁2022": 3185,
      "##wh": 3186,
      "##·": 3187,
      "▁once": 3188,
      "##ever": 3189,
      "##ther": 3190,
      "▁write": 3191,
      "##body": 3192,
      "▁1992": 3193,
      "▁10:25": 3194,
      "▁1847": 3195,
      "▁1780": 3196,
      "##:57": 3197,
      "##icle": 3198,
      "▁dkk": 3199,
      "##aper": 3200,
      "▁phil": 3201,
      "▁drink": 3202,
      "##vern": 3203,
      "▁problem": 3204,
      "##-9": 3205,
      "▁felt": 3206,
      "▁mid": 3207,
      "▁much": 3208,
      "▁1560": 3209,
      "▁1949": 3210,
      "##g": 3211,
      "##ck": 3212,
      "▁sound": 3213,
      "##ars": 3214,
      "##ards": 3215,
      "▁947": 3216,
      "▁mar": 3217,
      "▁ele": 3218,
      "▁1832": 3219,
      "▁nose": 3220,
      "##19": 3221,
      "▁twel": 3222,
      "##oc": 3223,
      "##ether": 3224,
      "▁ve": 3225,
      "##eral": 3226,
      "▁181": 3227,
      "▁1110": 3228,
      "▁billion": 3229,
      "▁mouth": 3230,
      "▁parents": 3231,
      "▁during": 3232,
      "##-3989": 3233,
      "▁1831": 3234,
      "##€": 3235,
      "▁newark": 3236,
      "##44": 3237,
      "▁:": 3238,
      "▁dallas": 3239,
      "##om": 3240,
      "▁1585": 3241,
      "▁part": 3242,
      "##ross": 3243,
      "##ories": 3244,
      "▁started": 3245,
      "▁orland": 3246,
      "▁yo": 3247,
      "▁struct": 3248,
      "##its": 3249,
      "▁ant": 3250,
      "▁contin": 3251,
      "##stop": 3252,
      "▁03/02/2001": 3253,
      "▁loc": 3254,
      "##elf": 3255,
      "▁lad": 3256,
      "▁pittsbur": 3257,
      "##akes": 3258,
      "▁34": 3259,
      "▁1989": 3260,
      "▁.doc": 3261,
      "_": 3262,
      "##ues": 3263,
      "▁100,000": 3264,
      "▁order": 3265,
      "▁president": 3266,
      "##sus": 3267,
      "▁language": 3268,
      "▁playing": 3269,
      "▁rec": 3270,
      "▁den": 3271,
      "##ro": 3272,
      "▁denver": 3273,
      "▁god": 3274,
      "▁trying": 3275,
      "▁412": 3276,
      "▁m": 3277,
      "▁dozen": 3278,
      "▁twenty-two": 3279,
      "##-)": 3280,
      "##ows": 3281,
      "##ي": 3282,
      "▁require": 3283,
      "▁05": 3284,
      "##h": 3285,
      "▁04:28": 3286,
      "▁speak": 3287,
      "##º": 3288,
      "▁50000": 3289,
      "▁wonder": 3290,
      "▁1833": 3291,
      "##:11": 3292,
      "▁blue": 3293,
      "▁08": 3294,
      "▁1647": 3295,
      "▁11/27/2000": 3296,
      "##.11": 3297,
      "θ": 3298,
      "##uation": 3299,
      "▁saw": 3300,
      "▁link": 3301,
      "φ": 3302,
      "▁bath": 3303,
      "▁pl": 3304,
      "▁look": 3305,
      "/": 3306,
      "▁pict": 3307,
      "▁03:48": 3308,
      "2": 3309,
      "##istan": 3310,
      "##tr": 3311,
      "##202": 3312,
      "▁1900": 3313,
      "▁!!": 3314,
      "▁&": 3315,
      "▁2:00": 3316,
      "▁pract": 3317,
      "▁1599": 3318,
      "▁’re": 3319,
      "▁91": 3320,
      "▁attack": 3321,
      "##.com": 3322,
      "##are": 3323,
      "▁progr": 3324,
      "##414": 3325,
      "▁120": 3326,
      "##ash": 3327,
      "##3-": 3328,
      "}": 3329,
      "##urch": 3330,
      "▁env": 3331,
      "▁toronto": 3332,
      "##1/2001": 3333,
      "▁~": 3334,
      "▁eff": 3335,
      "▁move": 3336,
      "##:3": 3337,
      "▁washington": 3338,
      "▁v": 3339,
      "##ively": 3340,
      "▁believe": 3341,
      "▁committ": 3342,
      "##ase": 3343,
      "▁at": 3344,
      "▁black": 3345,
      "空": 3346,
      "##ν": 3347,
      "##د": 3348,
      "▁init": 3349,
      "▁test": 3350,
      "▁dan": 3351,
      "▁1614": 3352,
      "##eck": 3353,
      "##/8": 3354,
      "##eld": 3355,
      "▁cont": 3356,
      "▁hurt": 3357,
      "▁hours": 3358,
      "▁hundred": 3359,
      "ß": 3360,
      "▁happ": 3361,
      "##go": 3362,
      "▁510-642": 3363,
      "##wau": 3364,
      "▁desc": 3365,
      "▁8.3": 3366,
      "▁unles": 3367,
      "▁bear": 3368,
      "▁s/he": 3369,
      "▁meeting": 3370,
      "##.10": 3371,
      "▁din": 3372,
      "▁fly": 3373,
      "▁1943": 3374,
      "##us": 3375,
      "▁mean": 3376,
      "##ocr": 3377,
      "▁350": 3378,
      "▁support": 3379,
      "{": 3380,
      "##:49": 3381,
      "▁1505": 3382,
      "##ush": 3383,
      "##30": 3384,
      "▁mine": 3385,
      "##ters": 3386,
      "▁funny": 3387,
      "▁cor": 3388,
      "▁!!!!!!!!!!!": 3389,
      "##iod": 3390,
      "清": 3391,
      "▁80435": 3392,
      "##.713.8": 3393,
      "▁country": 3394,
      "▁else": 3395,
      "ρ": 3396,
      "▁counter": 3397,
      "▁room": 3398,
      "▁nothing": 3399,
      "##enix": 3400,
      "##-5": 3401,
      "▁1840": 3402,
      "▁afternoon": 3403,
      "##aur": 3404,
      "▁account": 3405,
      "▁les": 3406,
      "▁same": 3407,
      "▁dwww": 3408,
      "▁1.3": 3409,
      "##ula": 3410,
      "▁admin": 3411,
      "▁appro": 3412,
      "##3": 3413,
      "##:45": 3414,
      "##和": 3415,
      "?": 3416,
      "▁fill": 3417,
      "##beit": 3418,
      "##selves": 3419,
      "▁cheap": 3420,
      "▁question": 3421,
      "▁.": 3422,
      "▁lest": 3423,
      "▁10:56": 3424,
      "▁er": 3425,
      "▁what": 3426,
      "▁philadelp": 3427,
      "##angu": 3428,
      "##ults": 3429,
      "▁300": 3430,
      "▁mer": 3431,
      "▁31": 3432,
      "▁1801": 3433,
      "▁ahead": 3434,
      "▁6.1": 3435,
      ":": 3436,
      "▁bas": 3437,
      "▁fourteen": 3438,
      "▁sho": 3439,
      "▁effect": 3440,
      "▁whole": 3441,
      "▁763736": 3442,
      "4": 3443,
      "##ry": 3444,
      "▁euro": 3445,
      "##over": 3446,
      "ɔ": 3447,
      "▁1709": 3448,
      "&": 3449,
      "▁96": 3450,
      "$": 3451,
      "##utions": 3452,
      "k": 3453,
      "º": 3454,
      "✉": 3455,
      "##65-3": 3456,
      "▁gener": 3457,
      "▁ne": 3458,
      "##/30": 3459,
      "##ted": 3460,
      "##ph": 3461,
      "##ither": 3462,
      "▁fig": 3463,
      "▁47": 3464,
      "▁hit": 3465,
      "##/01": 3466,
      "▁bird": 3467,
      "##gan": 3468,
      "▁1993": 3469,
      "▁4.7": 3470,
      "0": 3471,
      "##ɛ": 3472,
      "##.70": 3473,
      "▁eighteen": 3474,
      "▁win": 3475,
      "▁281-518": 3476,
      "▁im": 3477,
      "##.123": 3478,
      "##ams": 3479,
      "▁you": 3480,
      "▁1859": 3481,
      "▁11:32": 3482,
      "▁39": 3483,
      "##5": 3484,
      "▁320": 3485,
      "▁development": 3486,
      "▁help": 3487,
      "##ub": 3488,
      "▁2000": 3489,
      "▁01/12/2001": 3490,
      "##ror": 3491,
      "▁someone": 3492,
      "▁compan": 3493,
      "▁ye": 3494,
      "▁alongside": 3495,
      "▁154": 3496,
      "▁app": 3497,
      "##sid": 3498,
      "##ular": 3499,
      "##σ": 3500,
      "▁draw": 3501,
      "▁birth": 3502,
      "▁372": 3503,
      "##ural": 3504,
      "▁build": 3505,
      "##.0": 3506,
      "##ically": 3507,
      "##huh": 3508,
      "▁dat": 3509,
      "##it": 3510,
      "▁1307": 3511,
      "##,0": 3512,
      "▁22": 3513,
      "##pr": 3514,
      "▁ext": 3515,
      "##to": 3516,
      "▁dey": 3517,
      "▁01/1": 3518,
      "▁mon": 3519,
      "▁economic": 3520,
      "##449": 3521,
      "▁twenty": 3522,
      "##:20": 3523,
      "▁203": 3524,
      "##elp": 3525,
      "##ier": 3526,
      "##ince": 3527,
      "▁196": 3528,
      "▁10,000": 3529,
      "▁02": 3530,
      "##ut": 3531,
      "▁start": 3532,
      "▁’s": 3533,
      "##42": 3534,
      "▁713/": 3535,
      "##ms": 3536,
      "##☎": 3537,
      "▁415.621": 3538,
      "▁1830": 3539,
      "▁1245": 3540,
      "ح": 3541,
      "##no": 3542,
      "##ta": 3543,
      "▁1983": 3544,
      "##hn": 3545,
      "▁pm": 3546,
      "##ute": 3547,
      "##空": 3548,
      "▁05/17/99": 3549,
      "##ity": 3550,
      "##ary": 3551,
      "▁veg": 3552,
      "▁my": 3553,
      "▁69": 3554,
      "图": 3555,
      "▁control": 3556,
      "##79": 3557,
      "▁financ": 3558,
      "##/30/2001": 3559,
      "##ist": 3560,
      "▁huh": 3561,
      "▁found": 3562,
      "##aff": 3563,
      "▁fir": 3564,
      "▁4,": 3565,
      "▁wh": 3566,
      "▁peop": 3567,
      "##================================": 3568,
      "▁d'": 3569,
      "##gh": 3570,
      "##lic": 3571,
      "▁bag": 3572,
      "##-625": 3573,
      "▁tho": 3574,
      "##!!!!": 3575,
      "##air": 3576,
      "▁finish": 3577,
      "▁40,000": 3578,
      "▁kitt": 3579,
      "▁due": 3580,
      "▁dem": 3581,
      "▁pull": 3582,
      "▁offic": 3583,
      "▁2.0": 3584,
      "▁accord": 3585,
      "▁`s": 3586,
      "##er": 3587,
      "##.718": 3588,
      "##orm": 3589,
      "▁forty-": 3590,
      "▁anim": 3591,
      "▁horse": 3592,
      "##ivid": 3593,
      "▁rel": 3594,
      "▁04": 3595,
      "##91": 3596,
      "##lus": 3597,
      "##65": 3598,
      "▁ad": 3599,
      "▁410-468-3": 3600,
      "▁718": 3601,
      "▁grand": 3602,
      "▁rob": 3603,
      "▁leave": 3604,
      "##aken": 3605,
      "▁curren": 3606,
      "▁ya": 3607,
      "▁twenty-": 3608,
      "##-8031": 3609,
      "▁cop": 3610,
      "▁gen": 3611,
      "▁texas": 3612,
      "▁paper": 3613,
      "##-50": 3614,
      "▁02/27/2001": 3615,
      "##ah": 3616,
      "▁hand": 3617,
      "##eth": 3618,
      "▁forward": 3619,
      "▁techn": 3620,
      "##doc": 3621,
      "▁bec": 3622,
      "▁european": 3623,
      "▁hell": 3624,
      "▁change": 3625,
      "▁pric": 3626,
      "▁fifty": 3627,
      "奈": 3628,
      "##ies": 3629,
      "▁wou": 3630,
      "▁1962": 3631,
      "▁street": 3632,
      "▁allow": 3633,
      "▁bab": 3634,
      "##work": 3635,
      "##irt": 3636,
      "▁cur": 3637,
      "▁comedie": 3638,
      "▁3:30": 3639,
      "▁used": 3640,
      "▁01/19/2001": 3641,
      "▁1230": 3642,
      "##12": 3643,
      "##self": 3644,
      "▁1982": 3645,
      "£": 3646,
      "##7.77": 3647,
      "▁establish": 3648,
      "##oun": 3649,
      "##ink": 3650,
      "▁\"": 3651,
      "##-36": 3652,
      "▁society": 3653,
      "▁1970": 3654,
      "▁put": 3655,
      "##ave": 3656,
      "▁'em": 3657,
      "▁next": 3658,
      "▁wilt": 3659,
      "☎": 3660,
      "▁01:39:56": 3661,
      "▁12:12": 3662,
      "▁1699": 3663,
      "▁philadelphia": 3664,
      "##/01/2001": 3665,
      "▁fine": 3666,
      "▁11608": 3667,
      "▁family": 3668,
      "▁con": 3669,
      "▁feel": 3670,
      "▁state": 3671,
      "##4/2000": 3672,
      "▁now": 3673,
      "##ɔ": 3674,
      "▁sur": 3675,
      "=": 3676,
      "▁fr": 3677,
      "\\": 3678,
      "▁200": 3679,
      "▁attached": 3680,
      "▁1821": 3681,
      "##ansas": 3682,
      "##;": 3683,
      "▁ins": 3684,
      "▁geor": 3685,
      "▁fil": 3686,
      "▁treat": 3687,
      "h": 3688,
      "▁45": 3689,
      "▁thirteen": 3690,
      "##key": 3691,
      "##73": 3692,
      "▁show": 3693,
      "##_0": 3694,
      "▁mod": 3695,
      "##@enron": 3696,
      "##by": 3697,
      "##.00": 3698,
      "▁rece": 3699,
      "▁aside": 3700,
      "▁forty": 3701,
      "▁percent": 3702,
      "▁abo": 3703,
      "##/10/2000": 3704,
      "##/13/2001": 3705,
      "▁till": 3706,
      "##aster": 3707,
      "▁113": 3708,
      "▁whe": 3709,
      "##port": 3710,
      "▁10/2": 3711,
      "##34": 3712,
      "▁71": 3713,
      "##-37": 3714,
      "▁flights": 3715,
      "▁76": 3716,
      "▁form": 3717,
      "▁129": 3718,
      "##rect": 3719,
      "##alk": 3720,
      "▁seattle": 3721,
      "▁860": 3722,
      "▁near": 3723,
      "▁718-780-": 3724,
      "##20-": 3725,
      "▁ey": 3726,
      "▁51": 3727,
      "##day": 3728,
      "##:37": 3729,
      "▁639": 3730,
      "##-991-90": 3731,
      "▁come": 3732,
      "▁event": 3733,
      "▁arriving": 3734,
      "▁having": 3735,
      "##53-3": 3736,
      "3": 3737,
      "##822": 3738,
      "▁fav": 3739,
      "▁rem": 3740,
      "▁summ": 3741,
      "▁202": 3742,
      "▁long": 3743,
      "▁several": 3744,
      "##y": 3745,
      "▁amid": 3746,
      "▁mm": 3747,
      "▁prop": 3748,
      "##ries": 3749,
      "▁12/26/2000": 3750,
      "▁re": 3751,
      "##iss": 3752,
      "##uth": 3753,
      "##ium": 3754,
      "▁11:16": 3755,
      "▁wish": 3756,
      "▁lim": 3757,
      "##49": 3758,
      "▁gone": 3759,
      "▁notwithstand": 3760,
      "▁cir": 3761,
      "##ause": 3762,
      "▁own": 3763,
      "▁‘’": 3764,
      "▁sea": 3765,
      "▁fund": 3766,
      "##ue": 3767,
      "##ark": 3768,
      "##/10": 3769,
      "##子": 3770,
      "##://": 3771,
      "▁alth": 3772,
      "##-642": 3773,
      "▁210": 3774,
      "##°": 3775,
      "▁08/16": 3776,
      "▁sk": 3777,
      "▁lear": 3778,
      "▁entire": 3779,
      "##奈": 3780,
      "▁activ": 3781,
      "▁eleven": 3782,
      "▁300,000": 3783,
      "▁1976": 3784,
      "y": 3785,
      "##03": 3786,
      "▁pro": 3787,
      "##ge": 3788,
      "▁excellent": 3789,
      "▁set": 3790,
      "▁pick": 3791,
      "##ire": 3792,
      "▁1.5": 3793,
      "▁getting": 3794,
      "▁att": 3795,
      "▁ah": 3796,
      "▁mr": 3797,
      "▁1968": 3798,
      "▁giv": 3799,
      "▁maj": 3800,
      "▁thanks": 3801,
      "##-696": 3802,
      "▁after": 3803,
      "▁conc": 3804,
      "##819": 3805,
      "▁24,000": 3806,
      "▁arrive": 3807,
      "▁0.00": 3808,
      "▁excell": 3809,
      "▁today": 3810,
      "##is": 3811,
      "##200": 3812,
      "▁1608": 3813,
      "##13.8": 3814,
      "…": 3815,
      "▁sett": 3816,
      "##83": 3817,
      "##ential": 3818,
      "▁2019": 3819,
      "▁1594": 3820,
      "##,9": 3821,
      "##16.718": 3822,
      "▁23": 3823,
      "▁j": 3824,
      "▁milk": 3825,
      "##less": 3826,
      "▁polic": 3827,
      "▁1987": 3828,
      "##ner": 3829,
      "▁himself": 3830,
      "##4/2001": 3831,
      "▁wrong": 3832,
      "▁quite": 3833,
      "▁1805": 3834,
      "▁sometimes": 3835,
      "##du": 3836,
      "##-7": 3837,
      "▁super": 3838,
      "▁1952": 3839,
      "##am": 3840,
      "▁phoenix": 3841,
      "##,500": 3842,
      "▁oak": 3843,
      "▁11/0": 3844,
      "▁<<": 3845,
      "▁2,300": 3846,
      "▁ch": 3847,
      "##ʻ": 3848,
      "▁mark": 3849,
      "▁seven": 3850,
      "▁ca": 3851,
      "▁been": 3852,
      "▁um": 3853,
      "##========": 3854,
      "▁1205": 3855,
      "▁underneath": 3856,
      "##in": 3857,
      "▁1584": 3858,
      "▁1660": 3859,
      "▁he": 3860,
      "▁03:00": 3861,
      "▁manag": 3862,
      "▁into": 3863,
      "##ages": 3864,
      "▁1945": 3865,
      "▁it's": 3866,
      "##--------------------------------": 3867,
      "##~*~*": 3868,
      "▁states": 3869,
      "##erous": 3870,
      "▁the": 3871,
      "##ings": 3872,
      "##ear": 3873,
      "▁09": 3874,
      "▁why": 3875,
      "##ange": 3876,
      "▁eyes": 3877,
      "##br": 3878,
      "▁atop": 3879,
      "##ual": 3880,
      "▁day": 3881,
      "▁nineteen": 3882,
      "##amp": 3883,
      "▁back": 3884,
      "▁ninety": 3885,
      "▁live": 3886,
      "##ber": 3887,
      "##min": 3888,
      "▁asked": 3889,
      "##art": 3890,
      "##kee": 3891,
      "▁we": 3892,
      "##a": 3893,
      "##eric": 3894,
      "##io": 3895,
      "▁@": 3896,
      "▁65": 3897,
      "ν": 3898,
      "▁below": 3899,
      "##ie": 3900,
      "▁6.8": 3901,
      "▁anal": 3902,
      "##/2001": 3903,
      "##ac": 3904,
      "▁age": 3905,
      "▁1888": 3906,
      "[UNK]": 3907,
      "▁francisco": 3908,
      "▁applic": 3909,
      "▁heard": 3910,
      "▁180": 3911,
      "##9/2001": 3912,
      "▁11:00": 3913,
      "▁woman": 3914,
      "▁happen": 3915,
      "##ivers": 3916,
      "##idd": 3917,
      "##tw": 3918,
      "##ack": 3919,
      "▁1,200": 3920,
      "▁8:30": 3921,
      "▁different": 3922,
      "▁04:03": 3923,
      "##88": 3924,
      "▁mus": 3925,
      "▁regard": 3926,
      "##ften": 3927,
      "▁prot": 3928,
      "▁3724": 3929,
      "##:2": 3930,
      "▁oil": 3931,
      "##ances": 3932,
      "▁high": 3933,
      "##ep": 3934,
      "▁30": 3935,
      "##9933": 3936,
      "▁extrem": 3937,
      "▁fo": 3938,
      "▁ask": 3939,
      "▁middle": 3940,
      "▁special": 3941,
      "▁cut": 3942,
      "▁stoy": 3943,
      "##±": 3944,
      "▁hold": 3945,
      "▁yeah": 3946,
      "▁following": 3947,
      "▁detail": 3948,
      "!": 3949,
      "▁almost": 3950,
      "▁whatever": 3951,
      "##par": 3952,
      "▁remember": 3953,
      "▁09:01": 3954,
      "▁airlines": 3955,
      "▁5,000": 3956,
      "▁op": 3957,
      "##ib": 3958,
      "▁tou": 3959,
      "##.95": 3960,
      "▁3,500": 3961,
      "▁right": 3962,
      "##most": 3963,
      "▁899": 3964,
      "▁fl": 3965,
      "▁haf": 3966,
      "▁n’t": 3967,
      "##ig": 3968,
      "##med": 3969,
      "##hia": 3970,
      "##:5": 3971,
      "##zen": 3972,
      "▁01/26/2001": 3973,
      "▁sept": 3974,
      "▁4.6": 3975,
      "##76": 3976,
      "▁=": 3977,
      "##@": 3978,
      "▁miami": 3979,
      "▁ass": 3980,
      "▁comes": 3981,
      "##ict": 3982,
      "▁serv": 3983,
      "▁conn": 3984,
      "▁en": 3985,
      "▁27": 3986,
      "▁seventy": 3987,
      "▁being": 3988,
      "▁727": 3989,
      "##@enron_development": 3990,
      "##iful": 3991,
      "##ay": 3992,
      "▁le": 3993,
      "▁cold": 3994,
      "##li": 3995,
      "##ote": 3996,
      "▁11:3": 3997,
      "##ht": 3998,
      "##wn": 3999,
      "▁september": 4000,
      "##il": 4001,
      "▁prof": 4002,
      "▁b/c": 4003,
      "##樋": 4004,
      "##ven": 4005,
      "##rop": 4006,
      "▁color": 4007,
      "▁lunch": 4008,
      "##443-37": 4009,
      "▁son": 4010,
      "##with": 4011,
      "▁talk": 4012,
      "▁2001": 4013,
      "▁uh": 4014,
      "▁doll": 4015,
      "▁6400": 4016,
      "##ulation": 4017,
      "▁egg": 4018,
      "##02": 4019,
      "##œ": 4020,
      "▁2012": 4021,
      "##82": 4022,
      "##_de": 4023,
      "##ze": 4024,
      "##itch": 4025,
      "##tim": 4026,
      "##53": 4027,
      "▁tim": 4028,
      "▁1,6": 4029,
      "##ged": 4030,
      "##ine": 4031,
      "▁might": 4032,
      "##ami": 4033,
      "▁only": 4034,
      "▁fall": 4035,
      "##4": 4036,
      "▁ok": 4037,
      "▁alright": 4038,
      "##ases": 4039,
      "▁sle": 4040,
      "▁fish": 4041,
      "▁110": 4042,
      "▁k": 4043,
      "##9": 4044,
      "▁for": 4045,
      "▁1950": 4046,
      "##id": 4047,
      "##/11/2004": 4048,
      "##ug": 4049,
      "##ming": 4050,
      "##15": 4051,
      "▁189": 4052,
      "▁supp": 4053,
      "##s.": 4054,
      "▁tried": 4055,
      "##ention": 4056,
      "▁281-435-0295": 4057,
      "▁!!!!": 4058,
      "▁sa": 4059,
      "##ollow": 4060,
      "▁meet": 4061,
      "▁able": 4062,
      "##sel": 4063,
      "##hin": 4064,
      "▁have": 4065,
      "##uck": 4066,
      "##ww": 4067,
      "##ule": 4068,
      "▁incre": 4069,
      "##…": 4070,
      "▁whenever": 4071,
      "▁420": 4072,
      "##一": 4073,
      "##/2000": 4074,
      "##11": 4075,
      "▁1592": 4076,
      "▁book": 4077,
      "▁until": 4078,
      "▁1.6": 4079,
      "##ting": 4080,
      "##ects": 4081,
      "▁55": 4082,
      "▁4.9": 4083,
      "▁:)": 4084,
      "▁33,000": 4085,
      "▁stuff": 4086,
      "##ful": 4087,
      "##led": 4088,
      "▁w": 4089,
      "##ese": 4090,
      "##700": 4091,
      "▁’d": 4092,
      "▁1880": 4093,
      "##14": 4094,
      "▁3.1": 4095
    }
  }
}