{
  "version": "1.0",
  "truncation": null,
  "padding": null,
  "added_tokens": [
    {
      "id": 2653,
      "content": "[PAD]",
      "single_word": false,
      "lstrip": false,
      "rstrip": false,
      "normalized": false,
      "special": true
    },
    {
      "id": 3036,
      "content": "[UNK]",
      "single_word": false,
      "lstrip": false,
      "rstrip": false,
      "normalized": false,
      "special": true
    },
    {
      "id": 3261,
      "content": "[SEP]",
      "single_word": false,
      "lstrip": false,
      "rstrip": false,
      "normalized": false,
      "special": true
    },
    {
      "id": 5318,
      "content": "[CLS]",
      "single_word": false,
      "lstrip": false,
      "rstrip": false,
      "normalized": false,
      "special": true
    },
    {
      "id": 6618,
      "content": "[MASK]",
      "single_word": false,
      "lstrip": false,
      "rstrip": false,
      "normalized": false,
      "special": true
    }
  ],
  "normalizer": {
    "type": "Sequence",
    "normalizers": [
      {
        "type": "NFD"
      },
      {
        "type": "Lowercase"
      },
      {
        "type": "StripAccents"
      }
    ]
  },
  "pre_tokenizer": {
    "type": "Sequence",
    "pretokenizers": [
      {
        "type": "Metaspace",
        "replacement": "▁",
        "prepend_scheme": "always",
        "split": true
      }
    ]
  },
  "post_processor": {
    "type": "TemplateProcessing",
    "single": [
      {
        "SpecialToken": {
          "id": "[CLS]",
          "type_id": 0
        }
      },
      {
        "Sequence": {
          "id": "A",
          "type_id": 0
        }
      },
      {
        "SpecialToken": {
          "id": "[SEP]",
          "type_id": 0
        }
      }
    ],
    "pair": [
      {
        "SpecialToken": {
          "id": "[CLS]",
          "type_id": 0
        }
      },
      {
        "Sequence": {
          "id": "A",
          "type_id": 0
        }
      },
      {
        "SpecialToken": {
          "id": "[SEP]",
          "type_id": 0
        }
      },
      {
        "Sequence": {
          "id": "B",
          "type_id": 1
        }
      },
      {
        "SpecialToken": {
          "id": "[SEP]",
          "type_id": 1
        }
      }
    ],
    "special_tokens": {
      "[CLS]": {
        "id": "[CLS]",
        "ids": [
          5318
        ],
        "tokens": [
          "[CLS]"
        ]
      },
      "[SEP]": {
        "id": "[SEP]",
        "ids": [
          3261
        ],
        "tokens": [
          "[SEP]"
        ]
      }
    }
  },
  "decoder": {
    "type": "Metaspace",
    "replacement": "▁",
    "prepend_scheme": "always",
    "split": true
  },
  "model": {
    "type": "WordPiece",
    "unk_token": "[UNK]",
    "continuing_subword_prefix": "##",
    "max_input_chars_per_word": 100,
    "vocab": {
      "##}": 0,
      "▁imple": 1,
      "▁417": 2,
      "▁pri": 3,
      "▁structural": 4,
      "▁shape": 5,
      "▁calc": 6,
      "▁meals": 7,
      "▁129": 8,
      "▁relax": 9,
      "##-20": 10,
      "##ract": 11,
      "▁names": 12,
      "▁1/8": 13,
      "##oup": 14,
      "▁loose": 15,
      "##ston": 16,
      "##3": 17,
      "▁math": 18,
      "##asing": 19,
      "##irt": 20,
      "▁stuck": 21,
      "▁mich": 22,
      "▁against": 23,
      "##ww": 24,
      "▁becomes": 25,
      "▁theodorus": 26,
      "##ilit": 27,
      "▁great": 28,
      "▁least": 29,
      "##ged": 30,
      "▁discount": 31,
      "▁fee": 32,
      "▁players": 33,
      "##orio": 34,
      "▁ros": 35,
      "▁1608": 36,
      "▁loud": 37,
      "▁23": 38,
      "▁young": 39,
      "##”": 40,
      "▁corn": 41,
      "▁plane": 42,
      "▁had": 43,
      "▁susp": 44,
      "▁leaders": 45,
      "▁empty": 46,
      "▁guid": 47,
      "▁uniform": 48,
      "##ades": 49,
      "▁apprec": 50,
      "##rel": 51,
      "▁ag": 52,
      "▁responsibility": 53,
      "▁secur": 54,
      "▁veh": 55,
      "▁orland": 56,
      "▁chicken": 57,
      "▁paul": 58,
      "▁format": 59,
      "▁last": 60,
      "▁visit": 61,
      "▁shut": 62,
      "##4": 63,
      "##tering": 64,
      "▁presents": 65,
      "##ought": 66,
      "##/30": 67,
      "▁mike": 68,
      "##ρ": 69,
      "▁500": 70,
      "▁she": 71,
      "##ur": 72,
      "▁origin": 73,
      "##ti": 74,
      "##ware": 75,
      "▁completely": 76,
      "▁again": 77,
      "▁told": 78,
      "▁oc": 79,
      "##ires": 80,
      "▁papers": 81,
      "##urs": 82,
      "▁hi": 83,
      "##oose": 84,
      "▁****": 85,
      "##wide": 86,
      "▁dis": 87,
      "▁analysis_0712": 88,
      "▁charged": 89,
      "▁safet": 90,
      "##grin": 91,
      "▁1160": 92,
      "▁padaleck": 93,
      "▁weekly": 94,
      "▁believes": 95,
      "▁stip": 96,
      "▁taiwan": 97,
      "##ound": 98,
      "▁pit": 99,
      "▁continued": 100,
      "▁nobody": 101,
      "▁manner": 102,
      "r": 103,
      "▁whil": 104,
      "▁bell": 105,
      "▁official": 106,
      "▁involved": 107,
      "▁regional": 108,
      "▁microsoft": 109,
      "▁1500": 110,
      "▁wilt": 111,
      "▁file": 112,
      "▁driving": 113,
      "▁chall": 114,
      "##38": 115,
      "▁0000108806": 116,
      "▁garden": 117,
      "▁not": 118,
      "▁5.8": 119,
      "##standing": 120,
      "##σ": 121,
      "##rol": 122,
      "▁laugh": 123,
      "▁straw": 124,
      "▁)": 125,
      "▁159": 126,
      "▁them": 127,
      "▁ex": 128,
      "▁dishes": 129,
      "▁struct": 130,
      "▁pock": 131,
      "▁.!": 132,
      "▁farm": 133,
      "▁rug": 134,
      "w": 135,
      "▁lip": 136,
      "##han": 137,
      "▁wondering": 138,
      "▁gas": 139,
      "▁750,000": 140,
      "▁dough": 141,
      "▁aim": 142,
      "▁lion": 143,
      "▁chat": 144,
      "##abor": 145,
      "▁debate": 146,
      "▁rabbit": 147,
      "▁bringing": 148,
      "▁1964": 149,
      "▁organ": 150,
      "▁story": 151,
      "▁fa": 152,
      "▁345-343": 153,
      "▁into": 154,
      "##iles": 155,
      "▁wh": 156,
      "▁case": 157,
      "▁hundred": 158,
      "▁broken": 159,
      "##ained": 160,
      "##per": 161,
      "##±": 162,
      "▁630": 163,
      "▁11:07": 164,
      "▁majority": 165,
      "▁=": 166,
      "▁11:00": 167,
      "▁lear": 168,
      "▁foreign": 169,
      "▁nerv": 170,
      "▁intr": 171,
      "▁activ": 172,
      "▁emerg": 173,
      "▁state": 174,
      "▁know": 175,
      "▁writing": 176,
      "▁flex": 177,
      "##1082": 178,
      "▁proc": 179,
      "▁66": 180,
      "##..": 181,
      "▁listing": 182,
      "##edie": 183,
      "▁psychology": 184,
      "▁ba": 185,
      "▁sh": 186,
      "▁worst": 187,
      "##ife": 188,
      "▁forget": 189,
      "##teen": 190,
      "▁84": 191,
      "▁chocol": 192,
      "##yond": 193,
      "▁fifth": 194,
      "▁joke": 195,
      "▁first": 196,
      "▁commercial": 197,
      "▁kh": 198,
      "♥": 199,
      "▁sav": 200,
      "▁mechan": 201,
      "##onom": 202,
      "▁festival": 203,
      "▁sleepy": 204,
      "▁tho": 205,
      "##exp": 206,
      "▁bathroom": 207,
      "▁camel": 208,
      "▁property": 209,
      "▁pockets": 210,
      "▁clear": 211,
      "##ats": 212,
      "▁letters": 213,
      "##ounds": 214,
      "##isions": 215,
      "##ys": 216,
      "▁1848": 217,
      "##able": 218,
      "▁tre": 219,
      "▁all": 220,
      "▁09/15": 221,
      "▁800-5": 222,
      "▁ev": 223,
      "▁innov": 224,
      "▁1585": 225,
      "▁memory": 226,
      "▁role": 227,
      "##????": 228,
      "▁beer": 229,
      "▁january": 230,
      "##-l": 231,
      "▁?????": 232,
      "▁talks": 233,
      "▁response": 234,
      "##ple": 235,
      "##lus": 236,
      "##744": 237,
      "▁amazing": 238,
      "▁spoke": 239,
      "▁am": 240,
      "##cel": 241,
      "▁become": 242,
      "▁believed": 243,
      "▁1991": 244,
      "▁standing": 245,
      "▁airline": 246,
      "##aged": 247,
      "##ists": 248,
      "▁59": 249,
      "▁1600": 250,
      "▁income": 251,
      "▁arrest": 252,
      "▁0.0": 253,
      "▁1.4": 254,
      "▁cred": 255,
      "▁foc": 256,
      "▁washing": 257,
      "##8196021": 258,
      "▁bul": 259,
      "▁surpr": 260,
      "##five": 261,
      "##mp": 262,
      "▁dere": 263,
      "▁influ": 264,
      "##/2000": 265,
      "▁recording": 266,
      "▁participation": 267,
      "##iance": 268,
      "▁airl": 269,
      "▁queries": 270,
      "▁;": 271,
      "▁sheet": 272,
      "▁cowboy": 273,
      "##:05": 274,
      "ο": 275,
      "▁1947": 276,
      "▁8:15": 277,
      "##琴": 278,
      "##eare": 279,
      "##ning": 280,
      "##ention": 281,
      "##ca": 282,
      "▁magn": 283,
      "▁apparently": 284,
      "▁access": 285,
      "▁committ": 286,
      "▁tomato": 287,
      "▁sky": 288,
      "▁destroy": 289,
      "##fully": 290,
      "▁1179": 291,
      "▁n’t": 292,
      "▁del": 293,
      "▁color": 294,
      "##ernobyl": 295,
      "▁enter": 296,
      "##ison": 297,
      "▁california": 298,
      "##asa": 299,
      "▁customers": 300,
      "▁1-800-991-90": 301,
      "##????????????????": 302,
      "▁415.621.8317": 303,
      "##[": 304,
      "▁ways": 305,
      "▁140": 306,
      "▁court": 307,
      "▁third": 308,
      "▁1847": 309,
      "##ologies": 310,
      "▁peaceful": 311,
      "▁wear": 312,
      "##stances": 313,
      "▁thirty-": 314,
      "▁figure": 315,
      "▁sweater": 316,
      "▁special": 317,
      "##selves": 318,
      "▁7:30": 319,
      "▁winter": 320,
      "▁b.": 321,
      "▁pas": 322,
      "##pan": 323,
      "▁adam": 324,
      "▁wonderful": 325,
      "▁150,000": 326,
      "▁matt": 327,
      "▁urban": 328,
      "▁doll": 329,
      "▁some": 330,
      "▁takes": 331,
      "##1": 332,
      "▁nook": 333,
      "##akes": 334,
      "▁royal": 335,
      "▁phen": 336,
      "静": 337,
      "▁whereas": 338,
      "▁draw": 339,
      "##cy": 340,
      "▁rush": 341,
      "▁regime": 342,
      "▁60,000": 343,
      "▁ld2": 344,
      "##urning": 345,
      "##.10": 346,
      "##athy": 347,
      "▁islands": 348,
      "▁ans": 349,
      "▁jumped": 350,
      "##tail": 351,
      "▁kitt": 352,
      "▁update": 353,
      "▁202.456.1111": 354,
      "##iar": 355,
      "▁appreciate": 356,
      "▁shin": 357,
      "▁cookies": 358,
      "▁750": 359,
      "▁adult": 360,
      "▁europe": 361,
      "▁arrival": 362,
      "▁166": 363,
      "##load": 364,
      "▁mist": 365,
      "▁banana": 366,
      "▁data": 367,
      "##etime": 368,
      "▁legs": 369,
      "▁prev": 370,
      "▁changes": 371,
      "▁2020": 372,
      "▁aesth": 373,
      "▁personal": 374,
      "▁its": 375,
      "##ision": 376,
      "##macion": 377,
      "##sequ": 378,
      "##oices": 379,
      "##itude": 380,
      "▁race": 381,
      "▁coff": 382,
      "##del": 383,
      "▁nature": 384,
      "▁could": 385,
      "▁delicious": 386,
      "##ired": 387,
      "▁virt": 388,
      "##oulder": 389,
      "▁tem": 390,
      "▁outside": 391,
      "▁five": 392,
      "▁session": 393,
      "▁baseball": 394,
      "▁structures": 395,
      "▁military": 396,
      "▁dam": 397,
      "▁415.782.7822": 398,
      "▁increasing": 399,
      "ε": 400,
      "▁rolling": 401,
      "▁build": 402,
      "▁posted": 403,
      "▁beliefs": 404,
      "##ge": 405,
      "▁aug": 406,
      "▁dancing": 407,
      "▁art": 408,
      "##ens": 409,
      "▁italy": 410,
      "##ss": 411,
      "▁liberty": 412,
      "▁hiking": 413,
      "▁handle": 414,
      "▁1,6": 415,
      "▁showed": 416,
      "▁comfortable": 417,
      "##rect": 418,
      "##my": 419,
      "▁otherwise": 420,
      "▁addition": 421,
      "▁positions": 422,
      "▁penc": 423,
      "▁interested": 424,
      "▁isl": 425,
      "▁deter": 426,
      "▁needed": 427,
      "▁determine": 428,
      "▁cro": 429,
      "##50": 430,
      "##ook": 431,
      "▁ladder": 432,
      "▁breaking": 433,
      "▁1939": 434,
      "##静": 435,
      "▁sym": 436,
      "##-kedne": 437,
      "▁incl": 438,
      "▁duty": 439,
      "▁gym": 440,
      "▁supp": 441,
      "▁43": 442,
      "▁charlie": 443,
      "▁reve": 444,
      "▁---=": 445,
      "##294-": 446,
      "##ength": 447,
      "▁1994": 448,
      "##iling": 449,
      "##vember": 450,
      "##itt": 451,
      "▁supper": 452,
      "##ula": 453,
      "▁individ": 454,
      "▁analy": 455,
      "##eth": 456,
      "▁creating": 457,
      "▁☏": 458,
      "##ane": 459,
      "▁gall": 460,
      "▁toky": 461,
      "▁cia": 462,
      "▁fuel": 463,
      "▁stopover": 464,
      "▁01/2": 465,
      "▁11.5": 466,
      "##aps": 467,
      "▁twenty": 468,
      "▁knowled": 469,
      "##ح": 470,
      "##less": 471,
      "▁lower": 472,
      "##ough": 473,
      "▁crack": 474,
      "▁concerns": 475,
      "▁past": 476,
      "▁fact": 477,
      "▁elect": 478,
      "▁dollie": 479,
      "▁fre": 480,
      "▁metal": 481,
      "▁appropriate": 482,
      "▁nonstop": 483,
      "▁mid": 484,
      "▁afford": 485,
      "##ala": 486,
      "▁equival": 487,
      "▁mess": 488,
      "▁coll": 489,
      "▁12.": 490,
      "▁beyond": 491,
      "##ection": 492,
      "▁sql": 493,
      "##/99": 494,
      "▁courses": 495,
      "▁talk": 496,
      "▁tac": 497,
      "##ily": 498,
      "##ault": 499,
      "▁command": 500,
      "##ato": 501,
      "▁wrong": 502,
      "▁discover": 503,
      "▁match": 504,
      "▁say": 505,
      "▁unfortunately": 506,
      "▁invest": 507,
      "##67": 508,
      "▁6/1": 509,
      "##9/2000": 510,
      "▁dinos": 511,
      "##2,000": 512,
      "##oub": 513,
      "ʊ": 514,
      "▁6.2": 515,
      "##ball": 516,
      "##53": 517,
      "▁1699": 518,
      "▁confl": 519,
      "▁airport": 520,
      "▁comments": 521,
      "##443-3": 522,
      "##0/2000": 523,
      "##umb": 524,
      "▁activities": 525,
      "▁highest": 526,
      "▁monkey": 527,
      "##³": 528,
      "##'": 529,
      "▁everything": 530,
      "▁puzzle": 531,
      "##z": 532,
      "▁170": 533,
      "##way": 534,
      "▁probably": 535,
      "##ag": 536,
      "▁sa": 537,
      "▁ken": 538,
      "▁a": 539,
      "##hn": 540,
      "▁value": 541,
      "▁just": 542,
      "##3098": 543,
      "▁fol": 544,
      "##ecess": 545,
      "▁rather": 546,
      "▁block": 547,
      "▁&": 548,
      "▁reliable": 549,
      "▁must": 550,
      "▁oh": 551,
      "▁_______": 552,
      "##maine": 553,
      "▁balzac": 554,
      "##inc": 555,
      "▁controls": 556,
      "▁display": 557,
      "##unch": 558,
      "##ores": 559,
      "##oll": 560,
      "▁toes": 561,
      "##ide": 562,
      "▁ever": 563,
      "▁daily": 564,
      "▁behavior": 565,
      "▁collection": 566,
      "▁bus": 567,
      "##orial": 568,
      "▁q": 569,
      "▁orig": 570,
      "▁provide": 571,
      "▁def": 572,
      "▁outer": 573,
      "##cle": 574,
      "▁1978": 575,
      "▁rab": 576,
      "▁cloth": 577,
      "##:30": 578,
      "▁hair": 579,
      "▁158": 580,
      "▁glow": 581,
      "▁excellent": 582,
      "##asks": 583,
      "▁11:35": 584,
      "▁documents": 585,
      "##y": 586,
      "▁okay": 587,
      "▁creat": 588,
      "▁decl": 589,
      "▁video": 590,
      "##aries": 591,
      "▁?": 592,
      "▁down": 593,
      "▁move": 594,
      "##bert": 595,
      "▁50000": 596,
      "▁18,000": 597,
      "▁strong": 598,
      "##ism": 599,
      "▁connected": 600,
      "▁dear": 601,
      "▁18": 602,
      "▁once": 603,
      "##ass": 604,
      "▁woud": 605,
      "##els": 606,
      "▁airpl": 607,
      "▁ten": 608,
      "▁snow": 609,
      "▁realized": 610,
      "▁fat": 611,
      "▁immed": 612,
      "▁376": 613,
      "▁sand": 614,
      "##cles": 615,
      "▁sk": 616,
      "▁17": 617,
      "▁basically": 618,
      "▁31": 619,
      "▁wil": 620,
      "▁campaign": 621,
      "▁12": 622,
      "▁comed": 623,
      "▁ren": 624,
      "##**********************************": 625,
      "▁answers": 626,
      "▁tick": 627,
      "▁01/24/2001": 628,
      "▁regist": 629,
      "▁scholars": 630,
      "▁practice": 631,
      "▁albeit": 632,
      "▁penny": 633,
      "##ower": 634,
      "▁loc": 635,
      "##ipping": 636,
      "▁bin": 637,
      "▁heav": 638,
      "▁city": 639,
      "▁medical": 640,
      "▁quickly": 641,
      "▁nandaro": 642,
      "##esh": 643,
      "▁sor": 644,
      "##8-7-01": 645,
      "##oo": 646,
      "▁vol": 647,
      "▁alberta": 648,
      "▁bears": 649,
      "##mos": 650,
      "▁what": 651,
      "▁wentz": 652,
      "##ight": 653,
      "▁aircraft": 654,
      "▁har": 655,
      "▁'m": 656,
      "▁1579": 657,
      "▁divers": 658,
      "▁401": 659,
      "▁leader": 660,
      "0": 661,
      "▁ip": 662,
      "▁dar": 663,
      "##ingu": 664,
      "▁esc": 665,
      "▁decent": 666,
      "▁sar": 667,
      "##byl": 668,
      "▁h": 669,
      "##pite": 670,
      "##lined": 671,
      "▁lost": 672,
      "##iated": 673,
      "▁keeping": 674,
      "▁required": 675,
      "##7/2000": 676,
      "##xt": 677,
      "▁unto": 678,
      "▁’’": 679,
      "▁failure": 680,
      "▁grand": 681,
      "▁yellow": 682,
      "▁inter": 683,
      "▁wit": 684,
      "▁desk": 685,
      "##ating": 686,
      "8": 687,
      "##oint": 688,
      "##§": 689,
      "##ved": 690,
      "##d-": 691,
      "▁totally": 692,
      "▁a.": 693,
      "▁democr": 694,
      "▁nav": 695,
      "▁final": 696,
      "▁199": 697,
      "▁fall": 698,
      "▁negoti": 699,
      "##¢": 700,
      "##46-3393": 701,
      "▁trained": 702,
      "▁nwww": 703,
      "▁t": 704,
      "▁famil": 705,
      "##wet": 706,
      "▁family": 707,
      "▁religious": 708,
      "▁838": 709,
      "##ι": 710,
      "▁went": 711,
      "##16": 712,
      "ح": 713,
      "2": 714,
      "▁methods": 715,
      "”": 716,
      "▁program": 717,
      "▁although": 718,
      "##}*{": 719,
      "▁amendments": 720,
      "▁cer": 721,
      "▁281-435-0295": 722,
      "▁succeed": 723,
      "▁accommod": 724,
      "##corn": 725,
      "▁lord": 726,
      "▁santorum": 727,
      "##ck": 728,
      "▁tickets": 729,
      "▁48": 730,
      "##澹": 731,
      "##erc": 732,
      "▁itself": 733,
      "▁coc": 734,
      "▁major": 735,
      "##ink": 736,
      "▁slightly": 737,
      "▁civ": 738,
      "##illion": 739,
      "▁secret": 740,
      "▁newark": 741,
      "▁thirty-five": 742,
      "▁to": 743,
      "##yl": 744,
      "▁puts": 745,
      "▁weak": 746,
      "▁rib": 747,
      "▁real": 748,
      "##司": 749,
      "▁gdp": 750,
      "##/16": 751,
      "▁east": 752,
      "▁il": 753,
      "▁jelly": 754,
      "##ott": 755,
      "▁cheese": 756,
      "▁independence": 757,
      "▁exact": 758,
      "▁thy": 759,
      "##8-7": 760,
      "▁tower": 761,
      "##ren": 762,
      "##imes": 763,
      "▁estimated": 764,
      "##53-3119": 765,
      "奈": 766,
      "##one": 767,
      "##ace": 768,
      "▁can": 769,
      "##,00": 770,
      "##rast": 771,
      "▁whereby": 772,
      "▁doing": 773,
      "##ational": 774,
      "##als": 775,
      "▁strain": 776,
      "▁neigh": 777,
      "##gill": 778,
      "▁recorder": 779,
      "▁pie": 780,
      "▁treat": 781,
      "▁language": 782,
      "▁priv": 783,
      "▁despite": 784,
      "η": 785,
      "##==============": 786,
      "##.net": 787,
      "▁183": 788,
      "▁died": 789,
      "▁---": 790,
      "▁oil": 791,
      "##和": 792,
      "##远": 793,
      "▁1892": 794,
      "▁three": 795,
      "##ication": 796,
      "▁faces": 797,
      "▁poverty": 798,
      "▁islam": 799,
      "▁pray": 800,
      "##kn": 801,
      "[": 802,
      "▁ship": 803,
      "▁cabin": 804,
      "▁rights": 805,
      "▁wal": 806,
      "▁danger": 807,
      "▁suggests": 808,
      "▁sun": 809,
      "<": 810,
      "##.70": 811,
      "▁horn": 812,
      "▁s’": 813,
      "##ounts": 814,
      "▁1/2": 815,
      "▁fig": 816,
      "##enue": 817,
      "##ics": 818,
      "▁mind": 819,
      "##gth": 820,
      "##tica": 821,
      "##ph": 822,
      "▁6.00": 823,
      "▁yesterday": 824,
      "▁mr.": 825,
      "▁murder": 826,
      "##!!!": 827,
      "##co": 828,
      "▁tex": 829,
      "▁uma": 830,
      "▁oakland": 831,
      "▁people": 832,
      "▁cleaning": 833,
      "▁confir": 834,
      "▁perfectly": 835,
      "▁wether": 836,
      "▁cere": 837,
      "▁hospital": 838,
      "▁pat": 839,
      "▁patter": 840,
      "▁happened": 841,
      "▁series": 842,
      "▁remark": 843,
      "▁800-553-3119": 844,
      "▁tummy": 845,
      "##eable": 846,
      "▁priority": 847,
      "▁deg": 848,
      "▁blood": 849,
      "##oke": 850,
      "▁smoke": 851,
      "▁3.7": 852,
      "##atic": 853,
      "##ansen": 854,
      "▁ourselves": 855,
      "▁cult": 856,
      "▁roman": 857,
      "##ences": 858,
      "▁fail": 859,
      "▁sophie": 860,
      "▁concer": 861,
      "▁thr": 862,
      "▁hard": 863,
      "##91": 864,
      "▁thirty": 865,
      "##*{": 866,
      "##ister": 867,
      "##.00": 868,
      "▁near": 869,
      "##aking": 870,
      "▁mr": 871,
      "▁ol": 872,
      "▁1918": 873,
      "ه": 874,
      "▁shopping": 875,
      "##inated": 876,
      "▁forth": 877,
      "▁12:1": 878,
      "▁current": 879,
      "▁groups": 880,
      "▁categ": 881,
      "▁buildings": 882,
      "▁quinn": 883,
      "\\": 884,
      "▁inv": 885,
      "▁ask": 886,
      "▁mitchell": 887,
      "##cil": 888,
      "▁dan": 889,
      "▁originally": 890,
      "▁delta": 891,
      "▁aud": 892,
      "▁server": 893,
      "##lim": 894,
      "▁3724": 895,
      "##l": 896,
      "##ance": 897,
      "▁sit": 898,
      "▁magazine": 899,
      "▁occur": 900,
      "##-415-": 901,
      "▁claims": 902,
      "▁cliff": 903,
      "▁1738": 904,
      "##9": 905,
      "▁management": 906,
      "▁at": 907,
      "▁identified": 908,
      "▁necessarily": 909,
      "##-1": 910,
      "▁signed": 911,
      "▁greet": 912,
      "琴": 913,
      "▁vietn": 914,
      "##ize": 915,
      "▁click": 916,
      "▁core": 917,
      "##ern": 918,
      "▁frequ": 919,
      "##uced": 920,
      "##hi": 921,
      "▁acts": 922,
      "▁equip": 923,
      "▁complic": 924,
      "▁prep": 925,
      "▁detroit": 926,
      "▁(": 927,
      "▁09/15/99": 928,
      "##ective": 929,
      "▁critical": 930,
      "▁half": 931,
      "▁89": 932,
      "▁database": 933,
      "▁few": 934,
      "##ither": 935,
      "▁anybody": 936,
      "##:1": 937,
      "▁appoint": 938,
      "▁horse": 939,
      "▁presence": 940,
      "▁v": 941,
      "▁formed": 942,
      "##ext": 943,
      "▁solution": 944,
      "##ler": 945,
      "▁forms": 946,
      "▁fed": 947,
      "##________________": 948,
      "▁360": 949,
      "##head": 950,
      "##ince": 951,
      "▁shower": 952,
      "▁grow": 953,
      "##erve": 954,
      "▁201": 955,
      "▁exce": 956,
      "▁dragon": 957,
      "##ish": 958,
      "##ounced": 959,
      "##ipped": 960,
      "▁versus": 961,
      "##oin": 962,
      "##amb": 963,
      "▁ii": 964,
      "▁cert": 965,
      "▁718-780": 966,
      "▁fac": 967,
      "▁disease": 968,
      "▁doggie": 969,
      "##il": 970,
      "##ville": 971,
      "▁==": 972,
      "▁suppose": 973,
      "##>": 974,
      "▁encabalgamiento": 975,
      "▁cell": 976,
      "▁nar": 977,
      "▁commit": 978,
      "▁03/21/2001": 979,
      "▁companies": 980,
      "▁experiment": 981,
      "▁explore": 982,
      "▁laura": 983,
      "##ager": 984,
      "##ain": 985,
      "▁living": 986,
      "▁1580": 987,
      "(": 988,
      "▁łodzian": 989,
      "▁pets": 990,
      "▁ty": 991,
      "##where": 992,
      "▁ingredients": 993,
      "▁party": 994,
      "##velop": 995,
      "▁foundation": 996,
      "▁held": 997,
      "▁behin": 998,
      "▁enj": 999,
      "##tegr": 1000,
      "##2-6": 1001,
      "▁suck": 1002,
      "▁shackleton@ect": 1003,
      "▁patient": 1004,
      "▁quality": 1005,
      "▁orders": 1006,
      "##era": 1007,
      "▁prompt": 1008,
      "▁evening": 1009,
      "▁record": 1010,
      "▁conscious": 1011,
      "##:48": 1012,
      "##60": 1013,
      "▁97": 1014,
      "▁feature": 1015,
      "▁univers": 1016,
      "##ural": 1017,
      "▁punch": 1018,
      "##ɔ": 1019,
      "▁possibly": 1020,
      "▁limited": 1021,
      "▁san": 1022,
      "▁fle": 1023,
      "▁u": 1024,
      "▁call": 1025,
      "▁flu": 1026,
      "▁2002": 1027,
      "▁span": 1028,
      "▁hol": 1029,
      "▁describ": 1030,
      "##om": 1031,
      "▁chinese": 1032,
      "▁832.676": 1033,
      "##84": 1034,
      "▁consum": 1035,
      "▁eb": 1036,
      "##roit": 1037,
      "##ging": 1038,
      "▁recon": 1039,
      "@": 1040,
      "▁peace": 1041,
      "▁.?": 1042,
      "▁conduct": 1043,
      "▁cooked": 1044,
      "##vern": 1045,
      "▁nest": 1046,
      "▁sure": 1047,
      "##verty": 1048,
      "▁cocktail": 1049,
      "▁future": 1050,
      "##iday": 1051,
      "▁860": 1052,
      "▁favorite": 1053,
      "▁gon": 1054,
      "▁sixteen": 1055,
      "▁lift": 1056,
      "▁resp": 1057,
      "##²": 1058,
      "▁45": 1059,
      "▁40": 1060,
      "▁comple": 1061,
      "##ased": 1062,
      "▁whilst": 1063,
      "##================": 1064,
      "▁flavor": 1065,
      "▁wait": 1066,
      "##810": 1067,
      "##ably": 1068,
      "ɔ": 1069,
      "▁alone": 1070,
      "▁cincinnati": 1071,
      "##as": 1072,
      "▁basil": 1073,
      "▁underst": 1074,
      "##ara": 1075,
      "##asy": 1076,
      "▁324": 1077,
      "▁differ": 1078,
      "▁technologies": 1079,
      "▁dudley": 1080,
      "▁madam": 1081,
      "##own": 1082,
      "▁became": 1083,
      "▁1981": 1084,
      "##gy": 1085,
      "▁follows": 1086,
      "▁listed": 1087,
      "##ous": 1088,
      "##ames": 1089,
      "##ugh": 1090,
      "▁lest": 1091,
      "##ces": 1092,
      "▁dry": 1093,
      "▁saw": 1094,
      "▁944": 1095,
      "▁defin": 1096,
      "▁mi": 1097,
      "▁mohamed": 1098,
      "▁transl": 1099,
      "▁flat": 1100,
      "##%": 1101,
      "▁instance": 1102,
      "▁decided": 1103,
      "▁please": 1104,
      "▁company": 1105,
      "▁years": 1106,
      "▁different": 1107,
      "▁11:3": 1108,
      "▁international": 1109,
      "▁stra": 1110,
      "▁115": 1111,
      "##land": 1112,
      "▁be": 1113,
      "##-d": 1114,
      "##ue": 1115,
      "▁bedroom": 1116,
      "▁important": 1117,
      "▁bye": 1118,
      "▁agree": 1119,
      "##ether": 1120,
      "▁terrible": 1121,
      "▁awoh": 1122,
      "##alo": 1123,
      "▁looking": 1124,
      "▁ent": 1125,
      "▁sites": 1126,
      "##for": 1127,
      "##rible": 1128,
      "##子": 1129,
      "▁pad": 1130,
      "##ations": 1131,
      "▁rece": 1132,
      "▁iod": 1133,
      "##--": 1134,
      "##rans": 1135,
      "▁lawy": 1136,
      "▁indianapolis": 1137,
      "▁wednesday": 1138,
      "▁think": 1139,
      "▁cigarette": 1140,
      "▁prec": 1141,
      "▁hurry": 1142,
      "▁words": 1143,
      "▁theod": 1144,
      "▁debra": 1145,
      "##itch": 1146,
      "▁outs": 1147,
      "▁guard": 1148,
      "▁drug": 1149,
      "▁correspond": 1150,
      "▁et": 1151,
      "▁hub": 1152,
      "▁good": 1153,
      "##===": 1154,
      "▁purple": 1155,
      "▁coord": 1156,
      "##ο": 1157,
      "▁powerful": 1158,
      "##kes": 1159,
      "▁nut": 1160,
      "况": 1161,
      "▁sir": 1162,
      "▁nashville": 1163,
      "▁purpose": 1164,
      "##ker": 1165,
      "▁sent": 1166,
      "▁prepare": 1167,
      "##if": 1168,
      "##uj": 1169,
      "##---": 1170,
      "▁lovely": 1171,
      "##ihow": 1172,
      "##ession": 1173,
      "▁using": 1174,
      "▁industry": 1175,
      "▁administ": 1176,
      "▁281-435-": 1177,
      "▁laden": 1178,
      "▁poor": 1179,
      "▁large": 1180,
      "▁scen": 1181,
      "▁muse": 1182,
      "▁implementation": 1183,
      "##ery": 1184,
      "▁--": 1185,
      "▁wid": 1186,
      "▁plants": 1187,
      "##5th": 1188,
      "##ʒ": 1189,
      "▁streets": 1190,
      "##uding": 1191,
      "▁jih": 1192,
      "▁ext": 1193,
      "▁52": 1194,
      "▁tool": 1195,
      "▁amid": 1196,
      "▁bun": 1197,
      "澹": 1198,
      "▁child": 1199,
      "▁kids": 1200,
      "▁citiz": 1201,
      "▁minute": 1202,
      "##cc": 1203,
      "▁give": 1204,
      "▁doubt": 1205,
      "##acle": 1206,
      "▁iranian": 1207,
      "▁os": 1208,
      "▁roll": 1209,
      "▁arrog": 1210,
      "##oot": 1211,
      "▁saying": 1212,
      "▁forgot": 1213,
      "▁evolutionary": 1214,
      "##g": 1215,
      "##ined": 1216,
      "▁instruct": 1217,
      "▁6,000": 1218,
      "▁mand": 1219,
      "##lymp": 1220,
      "▁den": 1221,
      "##奈": 1222,
      "▁rule": 1223,
      "▁knowing": 1224,
      "▁03:58": 1225,
      "▁opposite": 1226,
      "▁abb": 1227,
      "▁account": 1228,
      "▁works": 1229,
      "▁ple": 1230,
      "▁sides": 1231,
      "▁tab": 1232,
      "▁”": 1233,
      "▁context": 1234,
      "▁shakes": 1235,
      "▁known": 1236,
      "##reh": 1237,
      "▁couch": 1238,
      "##age": 1239,
      "▁beach": 1240,
      "##iced": 1241,
      "##employ": 1242,
      "##amed": 1243,
      "▁olivia": 1244,
      "▁adequ": 1245,
      "▁google": 1246,
      "##ho": 1247,
      "▁changing": 1248,
      "▁jack": 1249,
      "▁jo": 1250,
      "▁agricult": 1251,
      "▁fi": 1252,
      "##ians": 1253,
      "##mber": 1254,
      "##-00": 1255,
      "▁finished": 1256,
      "▁dead": 1257,
      "▁receiving": 1258,
      "▁1821": 1259,
      "##elly": 1260,
      "▁com": 1261,
      "▁ye": 1262,
      "##ost": 1263,
      "▁fred": 1264,
      "##ز": 1265,
      "▁anal": 1266,
      "▁doctor": 1267,
      "▁montreal": 1268,
      "▁!!!": 1269,
      "▁latest": 1270,
      "▁8:30": 1271,
      "##nut": 1272,
      "▁tr": 1273,
      "##in": 1274,
      "##23": 1275,
      "##nd": 1276,
      "▁redlined": 1277,
      "##ips": 1278,
      "▁prevent": 1279,
      "##.99": 1280,
      "▁continue": 1281,
      "▁datab": 1282,
      "▁paper": 1283,
      "c": 1284,
      "##ament": 1285,
      "▁success": 1286,
      "##43": 1287,
      "▁·": 1288,
      "▁expertise": 1289,
      "▁zawah": 1290,
      "##:18": 1291,
      "▁11,000": 1292,
      "▁writ": 1293,
      "##aining": 1294,
      "##dred": 1295,
      "##icip": 1296,
      "▁carefully": 1297,
      "##iddle": 1298,
      "▁elephant": 1299,
      "▁intern": 1300,
      "▁arrive": 1301,
      "▁dro": 1302,
      "##bye": 1303,
      "▁lay": 1304,
      "▁min": 1305,
      "▁subjects": 1306,
      "▁lik": 1307,
      "▁airports": 1308,
      "##ifies": 1309,
      "##phis": 1310,
      "▁player": 1311,
      "▁returned": 1312,
      "▁technology": 1313,
      "##ones": 1314,
      "▁elsewhere": 1315,
      "▁forward": 1316,
      "▁runs": 1317,
      "▁anymore": 1318,
      "▁intelligence": 1319,
      "▁trip": 1320,
      "##inews": 1321,
      "▁successfully": 1322,
      "##ember": 1323,
      "▁batter": 1324,
      "▁padalecki": 1325,
      "##ial": 1326,
      "▁deliver": 1327,
      "##fl": 1328,
      "▁unless": 1329,
      "##rest": 1330,
      "▁security": 1331,
      "▁28,000": 1332,
      "▁§": 1333,
      "▁xml": 1334,
      "▁529999": 1335,
      "##ential": 1336,
      "▁bob": 1337,
      "▁713-6": 1338,
      "▁eleven": 1339,
      "▁truth": 1340,
      "▁private": 1341,
      "▁05:37": 1342,
      "▁…": 1343,
      "▁conf": 1344,
      "▁highly": 1345,
      "##ls": 1346,
      "▁2009": 1347,
      "▁ne": 1348,
      "▁taxi": 1349,
      "▁responsible": 1350,
      "▁cle": 1351,
      "▁mama": 1352,
      "##antic": 1353,
      "▁clos": 1354,
      "▁measures": 1355,
      "▁:?": 1356,
      "▁um": 1357,
      "##over": 1358,
      "▁austral": 1359,
      "##ulations": 1360,
      "##ف": 1361,
      "▁om": 1362,
      "▁penal": 1363,
      "▁cam": 1364,
      "##ct": 1365,
      "▁clothes": 1366,
      "▁dey": 1367,
      "▁neu": 1368,
      "▁set": 1369,
      "▁reason": 1370,
      "▁directive": 1371,
      "▁remain": 1372,
      "##uct": 1373,
      "▁800.713.8600": 1374,
      "▁course": 1375,
      "▁lar": 1376,
      "##ache": 1377,
      "▁name": 1378,
      "##17": 1379,
      "##ade": 1380,
      "6": 1381,
      "##pp": 1382,
      "▁jew": 1383,
      "▁un": 1384,
      "##al": 1385,
      "▁...": 1386,
      "▁killed": 1387,
      "▁ninety": 1388,
      "▁fixed": 1389,
      "##iest": 1390,
      "##ild": 1391,
      "▁quino": 1392,
      "▁’re": 1393,
      "##490": 1394,
      "▁purch": 1395,
      "▁hus": 1396,
      "▁putting": 1397,
      "▁come": 1398,
      "▁beau": 1399,
      "▁press": 1400,
      "▁fold": 1401,
      "▁have": 1402,
      "▁enemy": 1403,
      "##elled": 1404,
      "▁pir": 1405,
      "##orm": 1406,
      "▁perf": 1407,
      "##ults": 1408,
      "##.0": 1409,
      "▁.x": 1410,
      "▁readers": 1411,
      "▁receive": 1412,
      "##eap": 1413,
      "▁rice": 1414,
      "▁how": 1415,
      "▁o'": 1416,
      "▁bel": 1417,
      "##uses": 1418,
      "##8806": 1419,
      "▁furniture": 1420,
      "##ivity": 1421,
      "▁abo": 1422,
      "▁network": 1423,
      "##:00": 1424,
      "▁wife": 1425,
      "▁contain": 1426,
      "‘": 1427,
      "▁multiple": 1428,
      "▁quiet": 1429,
      "▁pull": 1430,
      "▁twentieth": 1431,
      "▁santa": 1432,
      "▁perdues": 1433,
      "▁cock": 1434,
      "▁playing": 1435,
      "▁indian": 1436,
      "##enced": 1437,
      "▁11/7": 1438,
      "▁800": 1439,
      "▁moment": 1440,
      "▁res": 1441,
      "▁poll": 1442,
      "##cross": 1443,
      "▁filter": 1444,
      "▁jump": 1445,
      "##:37": 1446,
      "##ustom": 1447,
      "▁`": 1448,
      "▁fans": 1449,
      "▁cre": 1450,
      "▁consist": 1451,
      "▁inn": 1452,
      "▁1754": 1453,
      "▁institutions": 1454,
      "▁ears": 1455,
      "▁5:30": 1456,
      "▁1635": 1457,
      "▁dress": 1458,
      "▁94": 1459,
      "##stem": 1460,
      "##rft": 1461,
      "##ito": 1462,
      "##!": 1463,
      "▁dim": 1464,
      "▁replaced": 1465,
      "½": 1466,
      "▁often": 1467,
      "▁42": 1468,
      "▁dism": 1469,
      "##iw": 1470,
      "▁greatest": 1471,
      "▁mel": 1472,
      "▁proper": 1473,
      "▁settlement": 1474,
      "▁ontario": 1475,
      "##fa": 1476,
      "▁shoulder": 1477,
      "▁mode": 1478,
      "▁quart": 1479,
      "▁occ": 1480,
      "▁cats": 1481,
      "▁statement": 1482,
      "##inging": 1483,
      "▁laur": 1484,
      "##80": 1485,
      "##omet": 1486,
      "▁loves": 1487,
      "▁affect": 1488,
      "▁attack": 1489,
      "▁contents": 1490,
      "▁ou": 1491,
      "▁historical": 1492,
      "▁relevant": 1493,
      "▁claim": 1494,
      "▁----": 1495,
      "▁1590": 1496,
      "ß": 1497,
      "##ored": 1498,
      "##/8": 1499,
      "▁ran": 1500,
      "##with": 1501,
      "▁scene": 1502,
      "▁dg": 1503,
      "▁tur": 1504,
      "▁his": 1505,
      "▁crying": 1506,
      "▁pop": 1507,
      "##are": 1508,
      "▁bos": 1509,
      "##ice": 1510,
      "▁hat": 1511,
      "##lig": 1512,
      "▁1783": 1513,
      "▁separate": 1514,
      "▁tenth": 1515,
      "▁mummy": 1516,
      "▁bones": 1517,
      "▁650": 1518,
      "▁sunn": 1519,
      "▁1709": 1520,
      "▁0590": 1521,
      "▁09:01": 1522,
      "▁tou": 1523,
      "##alam": 1524,
      "▁505-625-8031": 1525,
      "▁gre": 1526,
      "▁suprem": 1527,
      "▁ad": 1528,
      "▁neighbour": 1529,
      "ə": 1530,
      "##,008": 1531,
      "▁door": 1532,
      "##aked": 1533,
      "▁mum": 1534,
      "##olog": 1535,
      "▁ended": 1536,
      "▁july": 1537,
      "##ozer": 1538,
      "##teenth": 1539,
      "▁applic": 1540,
      "##ib": 1541,
      "▁entered": 1542,
      "▁various": 1543,
      "##34": 1544,
      "▁acqu": 1545,
      "▁466": 1546,
      "##:42": 1547,
      "##eld": 1548,
      "▁nt": 1549,
      "▁cogn": 1550,
      "▁proced": 1551,
      "##ows": 1552,
      "##edule": 1553,
      "▁planet": 1554,
      "▁mir": 1555,
      "▁bodies": 1556,
      "▁pac": 1557,
      "##bol": 1558,
      "▁swed": 1559,
      "▁hist": 1560,
      "▁156": 1561,
      "▁supplies": 1562,
      "▁seconds": 1563,
      "▁plenty": 1564,
      "▁personally": 1565,
      "▁understanding": 1566,
      "▁ai": 1567,
      "##www": 1568,
      "##fet": 1569,
      "▁nap": 1570,
      "▁tal": 1571,
      "▁publicly": 1572,
      "▁candid": 1573,
      "▁becuse": 1574,
      "▁surface": 1575,
      "##☎": 1576,
      "##.st": 1577,
      "▁grad": 1578,
      "▁jewish": 1579,
      "##ift": 1580,
      "##90": 1581,
      "##ales": 1582,
      "▁florida": 1583,
      "▁fill": 1584,
      "▁jose": 1585,
      "▁alloc": 1586,
      "##elines": 1587,
      "##ou": 1588,
      "▁1584": 1589,
      "▁weapons": 1590,
      "▁ninth": 1591,
      "▁forest": 1592,
      "▁busy": 1593,
      "##-9": 1594,
      "▁added": 1595,
      "▁1.": 1596,
      "##uclear": 1597,
      "▁25": 1598,
      "▁tonight": 1599,
      "##-s": 1600,
      "##ums": 1601,
      "▁milwau": 1602,
      "▁require": 1603,
      "▁.2": 1604,
      "▁belly": 1605,
      "▁inch": 1606,
      "▁oak": 1607,
      "▁based": 1608,
      "▁alcalde": 1609,
      "▁hand": 1610,
      "▁bub": 1611,
      "▁mentioned": 1612,
      "##ub": 1613,
      "▁grammar": 1614,
      "##iger": 1615,
      "▁cow": 1616,
      "▁11608": 1617,
      "▁6400": 1618,
      "▁everywhere": 1619,
      "▁1973": 1620,
      "▁kim": 1621,
      "##ident": 1622,
      "▁unles": 1623,
      "▁himself": 1624,
      "▁sen": 1625,
      "##49": 1626,
      "▁conflict": 1627,
      "▁sometimes": 1628,
      "▁vict": 1629,
      "▁breast": 1630,
      "▁romantic": 1631,
      "##ˈ": 1632,
      "▁sudden": 1633,
      "▁treatment": 1634,
      "▁11/27/2000": 1635,
      "▁philadelphia": 1636,
      "##inger": 1637,
      "▁69": 1638,
      "▁cover": 1639,
      "▁ansi-": 1640,
      "##gress": 1641,
      "▁arm": 1642,
      "▁281": 1643,
      "##enron.com": 1644,
      "▁toys": 1645,
      "▁conn": 1646,
      "▁scientific": 1647,
      "▁johnson": 1648,
      "##odes": 1649,
      "▁1900": 1650,
      "▁body": 1651,
      "▁less": 1652,
      "▁basic": 1653,
      "▁everyone": 1654,
      "▁represent": 1655,
      "▁baking": 1656,
      "▁copy": 1657,
      "▁observed": 1658,
      "▁nurs": 1659,
      "▁squir": 1660,
      "##-b": 1661,
      "▁cooking": 1662,
      "##ic": 1663,
      "▁medic": 1664,
      "▁saddam": 1665,
      "▁obt": 1666,
      "##qu": 1667,
      "##ght": 1668,
      "▁fil": 1669,
      "##peare": 1670,
      "▁>>": 1671,
      "##on": 1672,
      "##ocent": 1673,
      "▁husband": 1674,
      "▁mater": 1675,
      "##f.doc": 1676,
      "##ord": 1677,
      "▁pages": 1678,
      "▁825": 1679,
      "▁fighting": 1680,
      "▁vogelaviatio": 1681,
      "##ami": 1682,
      "##ich": 1683,
      "▁1989": 1684,
      "▁langu": 1685,
      "远": 1686,
      "▁1613": 1687,
      "▁products": 1688,
      "▁1801": 1689,
      "▁nervous": 1690,
      "▁russian": 1691,
      "##oid": 1692,
      "▁+++++": 1693,
      "▁100": 1694,
      "▁colour": 1695,
      "##osed": 1696,
      "##.831": 1697,
      "▁jord": 1698,
      "▁2015": 1699,
      "##:21": 1700,
      "##.ur": 1701,
      "▁grown": 1702,
      "▁becom": 1703,
      "▁202.7": 1704,
      "##460-33": 1705,
      "▁852": 1706,
      "▁make": 1707,
      "▁35": 1708,
      "##ak": 1709,
      "▁1": 1710,
      "▁catch": 1711,
      "▁deep": 1712,
      "##body": 1713,
      "▁equal": 1714,
      "▁hu": 1715,
      "##itting": 1716,
      "##oman": 1717,
      "▁department": 1718,
      "▁advice": 1719,
      "##ability": 1720,
      "▁stom": 1721,
      "▁vill": 1722,
      "##irl": 1723,
      "▁teachers": 1724,
      "h": 1725,
      "▁offers": 1726,
      "▁killing": 1727,
      "▁charge": 1728,
      "▁awful": 1729,
      "▁lose": 1730,
      "5": 1731,
      "▁888.916.7184": 1732,
      "▁policy": 1733,
      "▁pl": 1734,
      "▁id": 1735,
      "##空": 1736,
      "▁620-294-": 1737,
      "▁1833": 1738,
      "▁disney": 1739,
      "##ons": 1740,
      "▁accomm": 1741,
      "##ced": 1742,
      "▁1871": 1743,
      "▁him": 1744,
      "▁ap": 1745,
      "▁stoy": 1746,
      "▁send": 1747,
      "##415-": 1748,
      "▁stat": 1749,
      "##ield": 1750,
      "##++++": 1751,
      "▁change": 1752,
      "▁turns": 1753,
      "▁wild": 1754,
      "▁keep": 1755,
      "▁afternoon": 1756,
      "▁necess": 1757,
      "▁sleeping": 1758,
      "▁cand": 1759,
      "▁tokyo": 1760,
      "▁3,": 1761,
      "##ette": 1762,
      "▁n't": 1763,
      "▁religion": 1764,
      "▁members": 1765,
      "▁warm": 1766,
      "▁business": 1767,
      "▁sri": 1768,
      "##med": 1769,
      "▁desire": 1770,
      "##zer": 1771,
      "##-642": 1772,
      "▁vs": 1773,
      "▁yourselves": 1774,
      "##ix": 1775,
      "▁nand": 1776,
      "##zac": 1777,
      "▁closer": 1778,
      "##go": 1779,
      "##cept": 1780,
      "▁exam": 1781,
      "▁10": 1782,
      "▁seem": 1783,
      "##ther": 1784,
      "▁1610": 1785,
      "▁xiii": 1786,
      "##ements": 1787,
      "##der": 1788,
      "▁boo": 1789,
      "##oni": 1790,
      "▁bi": 1791,
      "##ution": 1792,
      "▁western": 1793,
      "▁war": 1794,
      "##ʁ": 1795,
      "##lies": 1796,
      "##bur": 1797,
      "▁sel": 1798,
      "##here": 1799,
      "▁hund": 1800,
      "▁beginning": 1801,
      "##rod": 1802,
      "##icial": 1803,
      "▁’s": 1804,
      "▁3,202": 1805,
      "▁shad": 1806,
      "▁renew": 1807,
      "▁hav": 1808,
      "##.5": 1809,
      "▁1925": 1810,
      "▁cooper": 1811,
      "##.2": 1812,
      "▁flowers": 1813,
      "▁mhm": 1814,
      "▁northern": 1815,
      "▁sant": 1816,
      "##435-": 1817,
      "▁grandmother": 1818,
      "▁ve": 1819,
      "▁because": 1820,
      "▁trading": 1821,
      "##illa": 1822,
      "▁fourth": 1823,
      "##ه": 1824,
      "▁hey": 1825,
      "▁1.1": 1826,
      "▁sal": 1827,
      "▁ver": 1828,
      "##gre": 1829,
      "▁transform": 1830,
      "##4/2001": 1831,
      "▁temperature": 1832,
      "▁enjoy": 1833,
      "##ints": 1834,
      "##ya": 1835,
      "▁took": 1836,
      "##ers": 1837,
      "##y@ect": 1838,
      "▁chagrin": 1839,
      "▁cross": 1840,
      "▁101": 1841,
      "▁david": 1842,
      "▁co": 1843,
      "▁08/16/2000": 1844,
      "▁diff": 1845,
      "▁08:50": 1846,
      "▁dolph": 1847,
      "##ended": 1848,
      "▁during": 1849,
      "▁northwest": 1850,
      "▁dest": 1851,
      "▁hum": 1852,
      "##bby": 1853,
      "##ze": 1854,
      "▁particip": 1855,
      "▁ch": 1856,
      "▁gives": 1857,
      "▁threw": 1858,
      "##az": 1859,
      "##i-": 1860,
      "##att": 1861,
      "##fr": 1862,
      "▁sp": 1863,
      "##ops": 1864,
      "▁directly": 1865,
      "##enn": 1866,
      "▁fan": 1867,
      "▁however": 1868,
      "##p": 1869,
      "▁components": 1870,
      "▁chap": 1871,
      "▁legos": 1872,
      "ʃ": 1873,
      "▁encour": 1874,
      "▁edu": 1875,
      "▁depend": 1876,
      "▁fam": 1877,
      "▁compar": 1878,
      "▁gorio": 1879,
      "▁eas": 1880,
      "▁1560": 1881,
      "▁6.8": 1882,
      "▁ju": 1883,
      "▁fab": 1884,
      "##xim": 1885,
      "▁average": 1886,
      "▁qu": 1887,
      "▁specific": 1888,
      "##bar": 1889,
      "▁lights": 1890,
      "▁sue": 1891,
      "▁right": 1892,
      "##roll": 1893,
      "##orn": 1894,
      "##ilt": 1895,
      "▁1996": 1896,
      "▁machine": 1897,
      "▁cigare": 1898,
      "▁1977": 1899,
      "##af": 1900,
      "▁on": 1901,
      "##----------": 1902,
      "##time": 1903,
      "▁glor": 1904,
      "##/10": 1905,
      "##7/2001": 1906,
      "##algamiento": 1907,
      "##erry": 1908,
      "▁calif": 1909,
      "▁japanese": 1910,
      "▁administr": 1911,
      "▁legislation": 1912,
      "▁814": 1913,
      "▁belief": 1914,
      "▁notice": 1915,
      "▁iron": 1916,
      "▁04:37": 1917,
      "▁canad": 1918,
      "▁.....": 1919,
      "▁careful": 1920,
      "▁gulf": 1921,
      "##ars": 1922,
      "▁spect": 1923,
      "##υ": 1924,
      "▁route": 1925,
      "▁mob": 1926,
      "##ughter": 1927,
      "▁coup": 1928,
      "▁inspired": 1929,
      "▁said": 1930,
      "▁employment": 1931,
      "▁ang": 1932,
      "▁arrang": 1933,
      "▁neg": 1934,
      "##ip": 1935,
      "▁experience": 1936,
      "▁54": 1937,
      "▁cutting": 1938,
      "▁immediate": 1939,
      "▁domain": 1940,
      "##fe": 1941,
      "▁2.00": 1942,
      "▁friendly": 1943,
      "##,7": 1944,
      "##ory": 1945,
      "▁ab": 1946,
      "##@enron": 1947,
      "##ber": 1948,
      "##omm": 1949,
      "▁teacher": 1950,
      "##olly": 1951,
      "▁fift": 1952,
      "▁smok": 1953,
      "##ann": 1954,
      "▁713-793-": 1955,
      "##-": 1956,
      "▁in": 1957,
      "▁pleased": 1958,
      "▁away": 1959,
      "▁i.": 1960,
      "▁sli": 1961,
      "μ": 1962,
      "##.95": 1963,
      "▁vote": 1964,
      "##im": 1965,
      "▁xii": 1966,
      "▁code": 1967,
      "▁refused": 1968,
      "##ting": 1969,
      "▁princip": 1970,
      "▁345-99": 1971,
      "##ished": 1972,
      "##igration": 1973,
      "▁quite": 1974,
      "▁establish": 1975,
      "##*": 1976,
      "▁fare": 1977,
      "▁!!!!": 1978,
      "▁dut": 1979,
      "▁flor": 1980,
      "▁lys": 1981,
      "▁image": 1982,
      "▁cooperation": 1983,
      "▁pe": 1984,
      "▁econom": 1985,
      "▁spoken": 1986,
      "▁relations": 1987,
      "▁applications": 1988,
      "▁slide": 1989,
      "▁points": 1990,
      "▁'ve": 1991,
      "##93": 1992,
      "▁web": 1993,
      "▁meeting": 1994,
      "▁phr": 1995,
      "▁34": 1996,
      "▁bec": 1997,
      "▁values": 1998,
      "##use": 1999,
      "▁1602": 2000,
      "▁er": 2001,
      "▁environment": 2002,
      "▁chapter": 2003,
      "▁imp": 2004,
      "▁imposs": 2005,
      "▁br": 2006,
      "##dden": 2007,
      "##under": 2008,
      "##ster": 2009,
      "▁10:34": 2010,
      "##ency": 2011,
      "▁03": 2012,
      "▁iu": 2013,
      "▁dent": 2014,
      "▁3.2": 2015,
      "▁26": 2016,
      "##yr": 2017,
      "##-8": 2018,
      "▁warming": 2019,
      "##ff": 2020,
      "##2": 2021,
      "▁located": 2022,
      "▁mweta": 2023,
      "▁rescue": 2024,
      "▁example": 2025,
      "▁16.379": 2026,
      "▁nose": 2027,
      "▁sing": 2028,
      "▁fro": 2029,
      "▁rack": 2030,
      "y": 2031,
      "▁temper": 2032,
      "▁let": 2033,
      "▁massive": 2034,
      "##iety": 2035,
      "▁177": 2036,
      "##ail": 2037,
      "##ith": 2038,
      "▁exist": 2039,
      "▁occasion": 2040,
      "##339": 2041,
      "##ind": 2042,
      "▁environ": 2043,
      "▁women": 2044,
      "▁13011": 2045,
      "##ering": 2046,
      "##dulo": 2047,
      "▁600": 2048,
      "▁perdu": 2049,
      "▁opportunity": 2050,
      "▁anim": 2051,
      "▁act": 2052,
      "▁concerning": 2053,
      "▁pret": 2054,
      "▁[": 2055,
      "##********************************": 2056,
      "▁song": 2057,
      "▁willing": 2058,
      "▁xslt": 2059,
      "▁iso": 2060,
      "##ess": 2061,
      "▁diego": 2062,
      "▁fuck": 2063,
      "▁height": 2064,
      "▁dri": 2065,
      "##ric": 2066,
      "▁713-654-1281": 2067,
      "▁de": 2068,
      "##30": 2069,
      "▁listen": 2070,
      "##ld": 2071,
      "▁rul": 2072,
      "##lines": 2073,
      "▁human": 2074,
      "▁screen": 2075,
      "##θ": 2076,
      "ʒ": 2077,
      "▁times": 2078,
      "▁212": 2079,
      "▁fut": 2080,
      "▁5/18": 2081,
      "▁1974": 2082,
      "▁actually": 2083,
      "##osoph": 2084,
      "▁800.713.86": 2085,
      "▁mart": 2086,
      "▁built": 2087,
      "▁olymp": 2088,
      "▁j": 2089,
      "##ways": 2090,
      "▁offered": 2091,
      "##king": 2092,
      "▁surprise": 2093,
      "##urch": 2094,
      "▁drinks": 2095,
      "▁webs": 2096,
      "▁oz": 2097,
      "▁argent": 2098,
      "x": 2099,
      "▁spl": 2100,
      "##ans": 2101,
      "▁;)": 2102,
      "▁helpful": 2103,
      "▁inside": 2104,
      "##he": 2105,
      "▁3889": 2106,
      "##gle": 2107,
      "▁87": 2108,
      "▁raised": 2109,
      "##.1": 2110,
      "▁01:0": 2111,
      "▁consequences": 2112,
      "▁tele": 2113,
      "=": 2114,
      "▁mitch": 2115,
      "▁testing": 2116,
      "▁stone": 2117,
      "▁communications": 2118,
      "▁don": 2119,
      "▁03/02/2001": 2120,
      "▁father": 2121,
      "▁trale": 2122,
      "▁mic": 2123,
      "▁mos": 2124,
      "▁cuz": 2125,
      "▁max": 2126,
      "4": 2127,
      "##ounded": 2128,
      "▁whatever": 2129,
      "▁particularly": 2130,
      "▁commission": 2131,
      "##urday": 2132,
      "##`": 2133,
      "▁audience": 2134,
      "##:29": 2135,
      "▁ret": 2136,
      "▁al.": 2137,
      "▁fifty": 2138,
      "▁anyone": 2139,
      "▁boot": 2140,
      "▁wolf": 2141,
      "##古": 2142,
      "▁rules": 2143,
      "##ime": 2144,
      "▁direct": 2145,
      "▁pi": 2146,
      "▁facebook": 2147,
      "▁if": 2148,
      "▁interesting": 2149,
      "##lish": 2150,
      "▁e": 2151,
      "##-468-3": 2152,
      "▁assoc": 2153,
      "▁greater": 2154,
      "▁bn": 2155,
      "##.p": 2156,
      "▁extrem": 2157,
      "▁television": 2158,
      "▁bond": 2159,
      "##46": 2160,
      "▁noon": 2161,
      "▁youtube": 2162,
      "▁mountain": 2163,
      "##so": 2164,
      "▁luck": 2165,
      "▁use": 2166,
      "▁1504": 2167,
      "##.ht": 2168,
      "##raid": 2169,
      "▁9": 2170,
      "▁pur": 2171,
      "▁shoe": 2172,
      "##read": 2173,
      "▁whenever": 2174,
      "##-625": 2175,
      "##sd": 2176,
      "▁wig": 2177,
      "▁111": 2178,
      "▁!!!?": 2179,
      "##ft": 2180,
      "##ath": 2181,
      "▁african": 2182,
      "▁lat": 2183,
      "▁happen": 2184,
      "▁prefer": 2185,
      "##mo": 2186,
      "▁fair": 2187,
      "▁twenty-": 2188,
      "▁pean": 2189,
      "▁possess": 2190,
      "▁elev": 2191,
      "▁ho": 2192,
      "▁straight": 2193,
      "▁bulb": 2194,
      "▁method": 2195,
      "g": 2196,
      "##phere": 2197,
      "▁polit": 2198,
      "▁very": 2199,
      "▁far": 2200,
      "▁,": 2201,
      "##izations": 2202,
      "▁508": 2203,
      "▁level": 2204,
      "▁board": 2205,
      "▁pencil": 2206,
      "##ama": 2207,
      "▁age": 2208,
      "▁introd": 2209,
      "##sters": 2210,
      "▁like": 2211,
      "▁than": 2212,
      "▁sufficient": 2213,
      "▁tractor": 2214,
      "##ansas": 2215,
      "▁email": 2216,
      "▁judg": 2217,
      "▁none": 2218,
      "▁1965": 2219,
      "▁knew": 2220,
      "##aling": 2221,
      "▁seats": 2222,
      "▁imper": 2223,
      "▁infor": 2224,
      "▁311": 2225,
      "▁[...": 2226,
      "▁promise": 2227,
      "▁concent": 2228,
      "▁salt": 2229,
      "▁trying": 2230,
      "##ened": 2231,
      "▁300": 2232,
      "##angu": 2233,
      "▁w": 2234,
      "▁wind": 2235,
      "▁ursula": 2236,
      "##☏": 2237,
      "▁discovered": 2238,
      "▁recip": 2239,
      "▁arrives": 2240,
      "##ma": 2241,
      "▁professional": 2242,
      "▁philosoph": 2243,
      "▁net": 2244,
      "▁mwet": 2245,
      "▁loo": 2246,
      "##--------------------------------": 2247,
      "▁bee": 2248,
      "##389": 2249,
      "▁1596": 2250,
      "▁lot": 2251,
      "##cceed": 2252,
      "▁stupid": 2253,
      "▁pass": 2254,
      "▁experimental": 2255,
      "##.61": 2256,
      "▁efficiency": 2257,
      "▁qual": 2258,
      "##-c": 2259,
      "▁83": 2260,
      "▁smith": 2261,
      "▁stayed": 2262,
      "▁silence": 2263,
      "▁dogg": 2264,
      "▁alber": 2265,
      "▁ensure": 2266,
      "▁1.25": 2267,
      "▁through": 2268,
      "##201": 2269,
      "##ds": 2270,
      "##_de": 2271,
      "▁birthday": 2272,
      "##ends": 2273,
      "▁spear": 2274,
      "▁bare": 2275,
      "▁1940": 2276,
      "▁repl": 2277,
      "▁includ": 2278,
      "##enty": 2279,
      "▁hotels": 2280,
      "▁hamas": 2281,
      "##.c": 2282,
      "▁engine": 2283,
      "▁!!!!!!!!!!": 2284,
      "▁vodka": 2285,
      "▁899": 2286,
      "##ights": 2287,
      "##stip": 2288,
      "▁hy": 2289,
      "▁carry": 2290,
      "##ø": 2291,
      "▁huit": 2292,
      "▁sixty": 2293,
      "##-3": 2294,
      "▁produc": 2295,
      "▁08/03": 2296,
      "▁feel": 2297,
      "▁mor": 2298,
      "▁3/8/00": 2299,
      "##amp": 2300,
      "##4/2000": 2301,
      "##ici": 2302,
      "##igning": 2303,
      "##pts": 2304,
      "▁jen": 2305,
      "▁techn": 2306,
      "▁building": 2307,
      "▁6:00": 2308,
      "▁skills": 2309,
      "▁drinking": 2310,
      "▁background": 2311,
      "##aq": 2312,
      "##ares": 2313,
      "▁army": 2314,
      "▁202.456.2461": 2315,
      "▁digital": 2316,
      "##org": 2317,
      "##arian": 2318,
      "▁diss": 2319,
      "##♥": 2320,
      "##ets": 2321,
      "▁taste": 2322,
      "##ects": 2323,
      "##den": 2324,
      "##­": 2325,
      "▁period": 2326,
      "▁rise": 2327,
      "▁up": 2328,
      "▁he": 2329,
      "##.8317": 2330,
      "▁autom": 2331,
      "##.d": 2332,
      "▁local": 2333,
      "##:/": 2334,
      "▁w.": 2335,
      "▁seattle": 2336,
      "##-m": 2337,
      "##e": 2338,
      "▁karen": 2339,
      "##ive": 2340,
      "▁senate": 2341,
      "▁details": 2342,
      "##ement": 2343,
      "##ertain": 2344,
      "▁2003": 2345,
      "▁28": 2346,
      "▁boys": 2347,
      "▁coffee": 2348,
      "▁zawahiri": 2349,
      "##xce": 2350,
      "▁publish": 2351,
      "▁2017": 2352,
      "ص": 2353,
      "▁heart": 2354,
      "▁minor": 2355,
      "▁04/2": 2356,
      "▁09/16/99": 2357,
      "▁puzz": 2358,
      "▁191": 2359,
      "▁bom": 2360,
      "▁other": 2361,
      "▁pick": 2362,
      "▁tenn": 2363,
      "▁1997": 2364,
      "▁depart": 2365,
      "▁error": 2366,
      "▁horrible": 2367,
      "▁lingu": 2368,
      "##ict": 2369,
      "##otte": 2370,
      "##ps": 2371,
      "▁track": 2372,
      "▁1960": 2373,
      "▁difference": 2374,
      "谿": 2375,
      "▁accept": 2376,
      "##nic": 2377,
      "##44": 2378,
      "▁rare": 2379,
      "▁marbles": 2380,
      "▁factor": 2381,
      "##bo": 2382,
      "▁read": 2383,
      "▁dropped": 2384,
      "☎": 2385,
      "▁william": 2386,
      "▁cit": 2387,
      "▁te": 2388,
      "▁713-853-": 2389,
      "▁resident": 2390,
      "▁gave": 2391,
      "##b)": 2392,
      "▁india": 2393,
      "▁contact": 2394,
      "▁---------------------------------": 2395,
      "▁saud": 2396,
      "▁catholic": 2397,
      "▁1-800": 2398,
      "▁office": 2399,
      ";": 2400,
      "##na": 2401,
      "▁yog": 2402,
      "##.676": 2403,
      "▁bug": 2404,
      "▁27": 2405,
      "##pa": 2406,
      "▁pay": 2407,
      "▁product": 2408,
      "▁cra": 2409,
      "▁483": 2410,
      "葉": 2411,
      "▁ukraine": 2412,
      "▁100,000": 2413,
      "▁performance": 2414,
      "##uge": 2415,
      "##ois": 2416,
      "##ishing": 2417,
      "▁instit": 2418,
      "▁29": 2419,
      "▁53": 2420,
      "▁dallas": 2421,
      "##ee": 2422,
      "▁rub": 2423,
      "##!!": 2424,
      "▁ast": 2425,
      "##uation": 2426,
      "▁considerable": 2427,
      "##res": 2428,
      "▁incorpor": 2429,
      "▁1954": 2430,
      "##d2": 2431,
      "▁leave": 2432,
      "##800": 2433,
      "##anim": 2434,
      "##ua": 2435,
      "▁polic": 2436,
      "##ro": 2437,
      "▁archit": 2438,
      "▁dr": 2439,
      "▁01/26/2001": 2440,
      "▁april": 2441,
      "▁uhh": 2442,
      "▁couple": 2443,
      "▁×": 2444,
      "##ely": 2445,
      "##:25": 2446,
      "▁(:": 2447,
      "▁smart": 2448,
      "▁wants": 2449,
      "▁happ": 2450,
      "▁laws": 2451,
      "▁old": 2452,
      "▁steve": 2453,
      "##oler": 2454,
      "▁ground": 2455,
      "##iner": 2456,
      "##rier": 2457,
      "▁med": 2458,
      "##819": 2459,
      "##beit": 2460,
      "▁-----------------------------------------------------------------------": 2461,
      "▁space": 2462,
      "•": 2463,
      "##ites": 2464,
      "##een": 2465,
      "##other": 2466,
      "▁_____": 2467,
      "▁secure": 2468,
      "▁[...]": 2469,
      "▁profess": 2470,
      "▁merely": 2471,
      "▁expl": 2472,
      "▁04:28": 2473,
      "▁histor": 2474,
      "##:51": 2475,
      "▁2.0": 2476,
      "▁env": 2477,
      "##ws": 2478,
      "▁3": 2479,
      "▁employees": 2480,
      "▁airplane": 2481,
      "##:27": 2482,
      "##ness": 2483,
      "▁exper": 2484,
      "▁cut": 2485,
      "▁global": 2486,
      "▁shr": 2487,
      "▁spac": 2488,
      "▁sched": 2489,
      "▁transp": 2490,
      "▁lu": 2491,
      "##atch": 2492,
      "▁av": 2493,
      "##ically": 2494,
      "▁ackn": 2495,
      "▁altern": 2496,
      "##ieth": 2497,
      "7": 2498,
      "▁love": 2499,
      "##134": 2500,
      "▁justice": 2501,
      "##acters": 2502,
      "##k": 2503,
      "▁bro": 2504,
      "▁passion": 2505,
      "▁202.45": 2506,
      "##idd": 2507,
      "▁pho": 2508,
      "▁should": 2509,
      "▁03/2": 2510,
      "▁38": 2511,
      "▁agre": 2512,
      "▁sorry": 2513,
      "▁107": 2514,
      "▁oblig": 2515,
      "▁01:14": 2516,
      "▁appeared": 2517,
      "##lik": 2518,
      "##****************": 2519,
      "▁tip": 2520,
      "▁charles": 2521,
      "▁circumstances": 2522,
      "##li": 2523,
      "▁bother": 2524,
      "▁hurts": 2525,
      "▁ele": 2526,
      "##isb": 2527,
      "▁rain": 2528,
      "▁3:00": 2529,
      "▁recommended": 2530,
      "▁under": 2531,
      "##ocol": 2532,
      "▁24": 2533,
      "▁02/27/2001": 2534,
      "▁plate": 2535,
      "▁kat": 2536,
      "▁adults": 2537,
      "▁fing": 2538,
      "▁does": 2539,
      "▁21,000": 2540,
      "n": 2541,
      "▁dav": 2542,
      "##2/2001": 2543,
      "▁will": 2544,
      "▁{": 2545,
      "▁1986": 2546,
      "▁stress": 2547,
      "▁syri": 2548,
      "##lect": 2549,
      "▁expect": 2550,
      "▁fell": 2551,
      "##:07": 2552,
      "▁initial": 2553,
      "▁remember": 2554,
      "▁protected": 2555,
      "##ful": 2556,
      "▁hur": 2557,
      "##15": 2558,
      "▁eval": 2559,
      "##al.doc": 2560,
      "▁left": 2561,
      "▁ac": 2562,
      "▁ste": 2563,
      "▁area": 2564,
      "##-8031": 2565,
      "##-01": 2566,
      "▁vent": 2567,
      "▁morning": 2568,
      "##12": 2569,
      "▁following": 2570,
      "▁eastern": 2571,
      "▁delhi": 2572,
      "##ender": 2573,
      "▁watch": 2574,
      "▁05/01/2001": 2575,
      "##ated": 2576,
      "▁http": 2577,
      "▁journ": 2578,
      "▁before": 2579,
      "##~": 2580,
      "▁barn": 2581,
      "▁07/14/2000": 2582,
      "▁1.3": 2583,
      "##ye": 2584,
      "▁dra": 2585,
      "##ckl": 2586,
      "##book": 2587,
      "▁fish": 2588,
      "##fer": 2589,
      "▁vogelaviatiola": 2590,
      "▁ins": 2591,
      "▁touch": 2592,
      "]": 2593,
      "▁twelve": 2594,
      "▁10:5": 2595,
      "▁looks": 2596,
      "▁pair": 2597,
      "▁sup": 2598,
      "▁symbol": 2599,
      "▁researchers": 2600,
      "▁pricing": 2601,
      "▁learned": 2602,
      "▁here": 2603,
      "▁june": 2604,
      "##ibility": 2605,
      "##-5": 2606,
      "▁575": 2607,
      "▁ł": 2608,
      "##****": 2609,
      "▁columbus": 2610,
      "▁top": 2611,
      "##cum": 2612,
      "▁pow": 2613,
      "▁718": 2614,
      "▁relief": 2615,
      "$": 2616,
      "##ued": 2617,
      "▁197": 2618,
      "▁start": 2619,
      "▁support": 2620,
      "▁sweetie": 2621,
      "▁expressed": 2622,
      "##-991-90": 2623,
      "##ale": 2624,
      "##ues": 2625,
      "##pe": 2626,
      "▁fest": 2627,
      "▁scheduled": 2628,
      "▁etc.": 2629,
      "▁coach": 2630,
      "▁continues": 2631,
      "▁partic": 2632,
      "▁crime": 2633,
      "▁allow": 2634,
      "##ner": 2635,
      "▁interests": 2636,
      "##equ": 2637,
      "v": 2638,
      "▁houses": 2639,
      "##c": 2640,
      "▁cart": 2641,
      "▁713-646-3393": 2642,
      "##.85": 2643,
      "##more": 2644,
      "▁toast": 2645,
      "▁&amp": 2646,
      "▁uses": 2647,
      "##par": 2648,
      "##eries": 2649,
      "▁190": 2650,
      "##town": 2651,
      "▁staying": 2652,
      "[PAD]": 2653,
      "▁arab": 2654,
      "##ization": 2655,
      "▁opening": 2656,
      "▁rome": 2657,
      "▁08/16": 2658,
      "▁available": 2659,
      "▁robot": 2660,
      "▁aw": 2661,
      "▁ancient": 2662,
      "▁ano": 2663,
      "##谿": 2664,
      "▁75": 2665,
      "▁horsie": 2666,
      "▁citizens": 2667,
      "##illing": 2668,
      "▁510-642": 2669,
      "▁programs": 2670,
      "▁wiz": 2671,
      "##icide": 2672,
      "▁tells": 2673,
      "▁francisco": 2674,
      "▁reviews": 2675,
      "▁stories": 2676,
      "▁opinion": 2677,
      "▁dirt": 2678,
      "##bage": 2679,
      "▁together": 2680,
      "##bing": 2681,
      "▁principle": 2682,
      "##.1234": 2683,
      "▁syria": 2684,
      "▁upd": 2685,
      "▁integr": 2686,
      "##ev": 2687,
      "▁club": 2688,
      "##iri": 2689,
      "##:15": 2690,
      "▁405": 2691,
      "▁soldiers": 2692,
      "##uing": 2693,
      "▁distingu": 2694,
      "▁64": 2695,
      "▁susan": 2696,
      "▁kn": 2697,
      "▁see": 2698,
      "▁london": 2699,
      "樋": 2700,
      "##isco": 2701,
      "▁look": 2702,
      "▁never": 2703,
      "▁funds": 2704,
      "##zz": 2705,
      "##71": 2706,
      "▁thousand": 2707,
      "▁_________________________________": 2708,
      "##ada": 2709,
      "▁kitch": 2710,
      "##ending": 2711,
      "▁5:00": 2712,
      "▁10:00": 2713,
      "▁1972": 2714,
      "▁consequ": 2715,
      "▁cinc": 2716,
      "▁13": 2717,
      "▁stup": 2718,
      "##viat": 2719,
      "▁che": 2720,
      "▁pin": 2721,
      "##i": 2722,
      "▁broad": 2723,
      "▁considered": 2724,
      "▁potential": 2725,
      "##ult": 2726,
      "##109": 2727,
      "▁governments": 2728,
      "▁trad": 2729,
      "▁days": 2730,
      "##igr": 2731,
      "▁dining": 2732,
      "▁traged": 2733,
      "▁absol": 2734,
      "▁as": 2735,
      "▁contr": 2736,
      "▁pointed": 2737,
      "▁end": 2738,
      "##bles": 2739,
      "▁92": 2740,
      "▁actions": 2741,
      "&": 2742,
      "▁impossible": 2743,
      "▁percentage": 2744,
      "##bow": 2745,
      "##ploy": 2746,
      "▁canadian": 2747,
      "##uring": 2748,
      "▁1966": 2749,
      "##d": 2750,
      "▁aust": 2751,
      "▁august": 2752,
      "▁em": 2753,
      "▁weap": 2754,
      "▁explained": 2755,
      "▁invol": 2756,
      "##ark": 2757,
      "##ay": 2758,
      "▁train": 2759,
      "##rition": 2760,
      "##ago": 2761,
      "▁347": 2762,
      "▁dc": 2763,
      "▁indeed": 2764,
      "▁immediately": 2765,
      "##ship": 2766,
      "▁behav": 2767,
      "▁go": 2768,
      "▁stated": 2769,
      "##eenth": 2770,
      "##ech": 2771,
      "▁-----------------------------------------------------------------": 2772,
      "##hold": 2773,
      "##ors": 2774,
      "##ify": 2775,
      "##ption": 2776,
      "?": 2777,
      "▁hide": 2778,
      "▁rel": 2779,
      "▁safe": 2780,
      "##ively": 2781,
      "▁mother": 2782,
      "##iro": 2783,
      "▁81": 2784,
      "▁surrounded": 2785,
      "▁attach": 2786,
      "▁kent": 2787,
      "▁count": 2788,
      "##mine": 2789,
      "##/13/2001": 2790,
      "##:0": 2791,
      "▁correct": 2792,
      "##ised": 2793,
      "▁hon": 2794,
      "▁traff": 2795,
      "▁kitten": 2796,
      "▁03/27/2001": 2797,
      "▁print": 2798,
      "▁**": 2799,
      "##ha": 2800,
      "##-23": 2801,
      "▁potato": 2802,
      "…": 2803,
      "▁spir": 2804,
      "▁actual": 2805,
      "▁1999": 2806,
      "▁called": 2807,
      "▁asking": 2808,
      "▁33": 2809,
      "▁related": 2810,
      "▁terms": 2811,
      "##vers": 2812,
      "▁unf": 2813,
      "▁several": 2814,
      "▁town": 2815,
      "▁taught": 2816,
      "▁cases": 2817,
      "▁paint": 2818,
      "##uel": 2819,
      "▁journal": 2820,
      "▁mathemat": 2821,
      "▁bump": 2822,
      "▁8:00": 2823,
      "▁1987": 2824,
      "##aster": 2825,
      "▁tri": 2826,
      "##r": 2827,
      "▁branch": 2828,
      "##eland": 2829,
      "▁1926": 2830,
      "##ante": 2831,
      "▁donkey": 2832,
      "▁common": 2833,
      "▁china": 2834,
      "▁ce": 2835,
      "##61": 2836,
      "▁impl": 2837,
      "▁title": 2838,
      "##inary": 2839,
      "▁stops": 2840,
      "▁games": 2841,
      "##“": 2842,
      "##itter": 2843,
      "▁spider": 2844,
      "##arch": 2845,
      "▁places": 2846,
      "▁169": 2847,
      "▁cas": 2848,
      "▁kiss": 2849,
      "##unk": 2850,
      "##ne": 2851,
      "▁difficult": 2852,
      "▁additional": 2853,
      "##.3": 2854,
      "▁legit": 2855,
      "▁dollars": 2856,
      "▁y": 2857,
      "▁recover": 2858,
      "▁330": 2859,
      "▁bon": 2860,
      "##:40": 2861,
      "▁sugar": 2862,
      "##wa": 2863,
      "▁summer": 2864,
      "##les": 2865,
      "##0s": 2866,
      "##cal": 2867,
      "▁free": 2868,
      "##iped": 2869,
      "▁behind": 2870,
      "##nondelibreat": 2871,
      "▁something": 2872,
      "▁ris": 2873,
      "l": 2874,
      "▁06/01/2001": 2875,
      "▁flav": 2876,
      "##boy": 2877,
      "▁advis": 2878,
      "▁sick": 2879,
      "▁belie": 2880,
      "▁:)": 2881,
      "▁樋口": 2882,
      "▁national": 2883,
      "▁mal": 2884,
      "##am": 2885,
      "▁ordered": 2886,
      "▁damage": 2887,
      "##ug": 2888,
      "▁08": 2889,
      "▁blow": 2890,
      "▁characters": 2891,
      "##sm": 2892,
      "##ror": 2893,
      "▁850": 2894,
      "▁picked": 2895,
      "▁room": 2896,
      "##igned": 2897,
      "▁jean": 2898,
      "▁senior": 2899,
      "▁thought": 2900,
      "▁worked": 2901,
      "▁ticket": 2902,
      "##kana": 2903,
      "▁blind": 2904,
      "##01": 2905,
      "▁witness": 2906,
      "-": 2907,
      "##room": 2908,
      "##epend": 2909,
      "▁single": 2910,
      "▁1928": 2911,
      "▁415.621": 2912,
      "▁reference": 2913,
      "##ange": 2914,
      "##dp": 2915,
      "▁popular": 2916,
      "##clus": 2917,
      "▁girl": 2918,
      "+": 2919,
      "▁monday": 2920,
      "##.916.718": 2921,
      "▁famous": 2922,
      "▁prot": 2923,
      "▁anc": 2924,
      "▁control": 2925,
      "▁ach": 2926,
      "##8/2001": 2927,
      "▁accur": 2928,
      "▁646-8420": 2929,
      "▁oper": 2930,
      "##u": 2931,
      "▁29587": 2932,
      "##/7": 2933,
      "##ided": 2934,
      "▁gu": 2935,
      "▁enh": 2936,
      "▁fri": 2937,
      "▁|": 2938,
      "*": 2939,
      "##5-": 2940,
      "▁sexual": 2941,
      "##iat": 2942,
      "▁operation": 2943,
      "##========": 2944,
      "##ammed": 2945,
      "▁conven": 2946,
      "▁dall": 2947,
      "##ru": 2948,
      "##dy": 2949,
      "▁owned": 2950,
      "▁********": 2951,
      "▁pic": 2952,
      "##utes": 2953,
      "–": 2954,
      "▁adding": 2955,
      "▁mexican": 2956,
      "##iously": 2957,
      "▁that": 2958,
      "▁numerous": 2959,
      "##68": 2960,
      "##ing": 2961,
      "##eak": 2962,
      "▁cab": 2963,
      "▁fit": 2964,
      "▁strength": 2965,
      "▁.3": 2966,
      "▁girls": 2967,
      "▁teen": 2968,
      "▁gl": 2969,
      "▁lack": 2970,
      "▁amidst": 2971,
      "##me": 2972,
      "▁som": 2973,
      "▁joined": 2974,
      "##@": 2975,
      "▁flights": 2976,
      "##oth": 2977,
      "##ear": 2978,
      "▁commun": 2979,
      "▁put": 2980,
      "▁–": 2981,
      "▁1724": 2982,
      "▁disco": 2983,
      "▁quinoa": 2984,
      "²": 2985,
      "▁page": 2986,
      "##resp": 2987,
      "▁1245": 2988,
      "▁sou": 2989,
      "▁814014": 2990,
      "▁80435": 2991,
      "##2-": 2992,
      "▁harv": 2993,
      "##unte": 2994,
      "▁quarter": 2995,
      "山": 2996,
      "▁thoughts": 2997,
      "▁conclusion": 2998,
      "▁fir": 2999,
      "▁place": 3000,
      "▁3,202.61": 3001,
      "▁£": 3002,
      "▁jwww": 3003,
      "##-780": 3004,
      "▁licens": 3005,
      "##is_0712": 3006,
      "▁non": 3007,
      "▁site": 3008,
      "▁six": 3009,
      "▁cir": 3010,
      "▁attem": 3011,
      "q": 3012,
      "▁thanks": 3013,
      "▁truly": 3014,
      "▁agreed": 3015,
      "▁978": 3016,
      "▁airlines": 3017,
      "##teboo": 3018,
      "▁05": 3019,
      "##ategy": 3020,
      "##/1": 3021,
      "▁932": 3022,
      "##β": 3023,
      "▁natural": 3024,
      "œ": 3025,
      "▁calm": 3026,
      "▁hearing": 3027,
      "▁vie": 3028,
      "▁sac": 3029,
      "▁88": 3030,
      "▁society": 3031,
      "▁mexico": 3032,
      "▁parts": 3033,
      "▁custom": 3034,
      "▁ind": 3035,
      "[UNK]": 3036,
      "##51": 3037,
      "▁constantly": 3038,
      "##ashed": 3039,
      "▁55": 3040,
      "▁currently": 3041,
      "▁tail": 3042,
      "▁entire": 3043,
      "▁waited": 3044,
      "##ore": 3045,
      "▁30,000": 3046,
      "▁wed": 3047,
      "##ribe": 3048,
      "▁upon": 3049,
      "▁bang": 3050,
      "▁04:17": 3051,
      "▁gramm": 3052,
      "▁sounds": 3053,
      "▁event": 3054,
      "##word": 3055,
      "▁1616": 3056,
      "▁defense": 3057,
      "##ks": 3058,
      "▁students": 3059,
      "▁sett": 3060,
      "▁judge": 3061,
      "▁77": 3062,
      "▁included": 3063,
      "##onto": 3064,
      "##ondon": 3065,
      "▁aut": 3066,
      "ł": 3067,
      "▁e-m": 3068,
      "##ruct": 3069,
      "▁funct": 3070,
      "▁ahead": 3071,
      "▁102": 3072,
      "▁d": 3073,
      "▁running": 3074,
      "▁1689": 3075,
      "▁mud": 3076,
      "##.doc": 3077,
      "##aa": 3078,
      "##cast": 3079,
      "▁snitch": 3080,
      "##bers": 3081,
      "##ll": 3082,
      "▁effective": 3083,
      "##0072": 3084,
      "##ε": 3085,
      "▁cris": 3086,
      "▁ger": 3087,
      "▁prov": 3088,
      "▁….": 3089,
      "▁1902": 3090,
      "▁46": 3091,
      "▁female": 3092,
      "▁253": 3093,
      "▁levels": 3094,
      "▁range": 3095,
      "##act": 3096,
      "▁chief": 3097,
      "▁skitt": 3098,
      "▁labor": 3099,
      "##fore": 3100,
      "##ibly": 3101,
      "▁throu": 3102,
      "##ination": 3103,
      "##0295": 3104,
      "##akk": 3105,
      "##况": 3106,
      "▁chair": 3107,
      "▁bit": 3108,
      "▁buy": 3109,
      "▁pict": 3110,
      "▁meth": 3111,
      "▁risk": 3112,
      "##ury": 3113,
      "▁nope": 3114,
      "▁☎": 3115,
      "▁": 3116,
      "▁beneath": 3117,
      "▁corner": 3118,
      "▁....": 3119,
      "ɛ": 3120,
      "##like": 3121,
      "##uf": 3122,
      "##gl": 3123,
      "▁saved": 3124,
      "▁---------------------------------------------------------------------------": 3125,
      "▁646-84": 3126,
      "##3-3": 3127,
      "▁colon": 3128,
      "##b": 3129,
      "##is_0": 3130,
      "▁ess": 3131,
      "▁forever": 3132,
      "##~*~*~*~*": 3133,
      "##err": 3134,
      "▁prob": 3135,
      "▁1829": 3136,
      "##-nine": 3137,
      "▁sees": 3138,
      "##ce": 3139,
      "ʻ": 3140,
      "▁baltimore": 3141,
      "▁th": 3142,
      "##ly": 3143,
      "▁popcorn": 3144,
      "##igh": 3145,
      "▁nasa": 3146,
      "▁mil": 3147,
      "▁attorn": 3148,
      "▁mainly": 3149,
      "##.782": 3150,
      "▁repe": 3151,
      "▁term": 3152,
      "▁extent": 3153,
      "▁62": 3154,
      "▁phone": 3155,
      "▁musharraf": 3156,
      "▁^_^": 3157,
      "▁exception": 3158,
      "▁interviews": 3159,
      "▁rec": 3160,
      "▁phys": 3161,
      "▁starts": 3162,
      "▁1998": 3163,
      "▁it's": 3164,
      "▁sm": 3165,
      "▁fal": 3166,
      "▁electric": 3167,
      "▁approximately": 3168,
      "##.com/": 3169,
      "▁713-654-": 3170,
      "▁.........": 3171,
      "##:03": 3172,
      "▁school": 3173,
      "▁restaurant": 3174,
      "▁chocolate": 3175,
      "▁1592": 3176,
      "##0th": 3177,
      "▁44,000": 3178,
      "▁bay": 3179,
      "▁bite": 3180,
      "▁compreh": 3181,
      "▁stood": 3182,
      "▁trump": 3183,
      "▁bill": 3184,
      "▁120,000": 3185,
      "▁join": 3186,
      "##eness": 3187,
      "▁cos": 3188,
      "▁8": 3189,
      "α": 3190,
      "▁designed": 3191,
      "▁1957": 3192,
      "##icy": 3193,
      "▁lean": 3194,
      "##ates": 3195,
      "##ayed": 3196,
      "##ulated": 3197,
      "##.6": 3198,
      "▁1307": 3199,
      "##1/2001": 3200,
      "▁sciss": 3201,
      "##rupt": 3202,
      "##ri": 3203,
      "▁power": 3204,
      "▁hel": 3205,
      "##burg": 3206,
      "▁note": 3207,
      "##********": 3208,
      "▁rot": 3209,
      "▁being": 3210,
      "##itions": 3211,
      "##h-": 3212,
      "##/4": 3213,
      "##85": 3214,
      "▁transfer": 3215,
      "▁transaction": 3216,
      "##au": 3217,
      "##uate": 3218,
      "▁jeff": 3219,
      "▁they": 3220,
      "▁dust": 3221,
      "▁1993": 3222,
      "##aff": 3223,
      "##oma": 3224,
      "▁215": 3225,
      "▁academic": 3226,
      "▁eyes": 3227,
      "▁mer": 3228,
      "▁remembered": 3229,
      "▁pakistan": 3230,
      "##low": 3231,
      "▁unique": 3232,
      "▁813": 3233,
      "##se": 3234,
      "▁2050": 3235,
      "▁eight": 3236,
      "▁2004": 3237,
      "▁hind": 3238,
      "▁muscles": 3239,
      "▁nante": 3240,
      "▁tools": 3241,
      "▁quant": 3242,
      "▁6.1": 3243,
      "▁anth": 3244,
      "▁vlog": 3245,
      "▁four": 3246,
      "▁att": 3247,
      "##ird": 3248,
      "##ommend": 3249,
      "▁appearance": 3250,
      "▁kar": 3251,
      "▁angel": 3252,
      "▁80": 3253,
      "▁governor": 3254,
      "▁bird": 3255,
      "▁!!": 3256,
      "##aped": 3257,
      "▁flower": 3258,
      "▁widely": 3259,
      "##ains": 3260,
      "[SEP]": 3261,
      "▁bright": 3262,
      "▁fore": 3263,
      "▁missed": 3264,
      "▁library": 3265,
      "▁1937": 3266,
      "▁enfor": 3267,
      "▁caught": 3268,
      "##22,000": 3269,
      "▁41": 3270,
      "▁france": 3271,
      "##miss": 3272,
      "▁electricity": 3273,
      "▁dursleys": 3274,
      "##hood": 3275,
      "▁mis": 3276,
      "▁elimin": 3277,
      "▁leg": 3278,
      "▁11:36": 3279,
      "▁mat": 3280,
      "▁prim": 3281,
      "##ton": 3282,
      "▁en": 3283,
      "▁heavy": 3284,
      "▁jokes": 3285,
      "▁nail": 3286,
      "▁pach": 3287,
      "▁resour": 3288,
      "▁mac": 3289,
      "▁impress": 3290,
      "▁house": 3291,
      "▁1910": 3292,
      "▁mo": 3293,
      "##tsbur": 3294,
      "##87": 3295,
      "▁vietnam": 3296,
      "##ine": 3297,
      "##cab": 3298,
      "▁ob": 3299,
      "▁import": 3300,
      "▁drive": 3301,
      "▁1877": 3302,
      "▁44": 3303,
      "▁british": 3304,
      "##eeze": 3305,
      "▁teh": 3306,
      "##using": 3307,
      "▁bench": 3308,
      "##ter": 3309,
      "##ia": 3310,
      "##elf": 3311,
      "▁kitchen": 3312,
      "▁296": 3313,
      "▁hen": 3314,
      "▁across": 3315,
      "▁strange": 3316,
      "▁edit": 3317,
      "▁remains": 3318,
      "##rain": 3319,
      "▁making": 3320,
      "▁infrastructure": 3321,
      "▁11:45": 3322,
      "▁03/28/2001": 3323,
      "▁rough": 3324,
      "▁619": 3325,
      "▁opened": 3326,
      "##~*~*": 3327,
      "▁downtown": 3328,
      "▁earth": 3329,
      "▁fin": 3330,
      "▁unknown": 3331,
      "▁pleasant": 3332,
      "##arts": 3333,
      "▁ont": 3334,
      "▁memphis": 3335,
      "##ky": 3336,
      "▁w3c": 3337,
      "▁aband": 3338,
      "▁used": 3339,
      "▁jam": 3340,
      "▁license": 3341,
      "▁aer": 3342,
      "▁examples": 3343,
      "##anta": 3344,
      "##bha": 3345,
      "▁desper": 3346,
      "##iring": 3347,
      "▁ped": 3348,
      "▁30": 3349,
      "▁science": 3350,
      "▁auster": 3351,
      "##orrow": 3352,
      "▁hoc": 3353,
      "##er": 3354,
      "##rant": 3355,
      "▁financ": 3356,
      "▁travel": 3357,
      "▁wel": 3358,
      "▁created": 3359,
      "▁alligator": 3360,
      "ز": 3361,
      "▁calling": 3362,
      "▁select": 3363,
      "▁530": 3364,
      "▁throughout": 3365,
      "▁nic": 3366,
      "▁run": 3367,
      "▁her": 3368,
      "▁stick": 3369,
      "▁***": 3370,
      "##ual": 3371,
      "▁sink": 3372,
      "▁document": 3373,
      "▁plastic": 3374,
      "▁advert": 3375,
      "##apt": 3376,
      "##ior": 3377,
      "▁aboard": 3378,
      "▁life": 3379,
      "▁worse": 3380,
      "▁sister": 3381,
      "▁10/20/2000": 3382,
      "▁ding": 3383,
      "##22": 3384,
      "##:23": 3385,
      "##v": 3386,
      "▁provides": 3387,
      "▁spos": 3388,
      "▁coron": 3389,
      "▁internet": 3390,
      "▁answer": 3391,
      "##8_0": 3392,
      "▁with": 3393,
      "##rax": 3394,
      "##leg": 3395,
      "▁offer": 3396,
      "▁staff": 3397,
      "▁hole": 3398,
      "▁12:12": 3399,
      "▁compared": 3400,
      "▁benefit": 3401,
      "▁uk": 3402,
      "##29": 3403,
      "▁pu": 3404,
      "▁independ": 3405,
      "▁979": 3406,
      "▁wanted": 3407,
      "▁obs": 3408,
      "##six": 3409,
      "▁ought": 3410,
      "##ull": 3411,
      "▁thom": 3412,
      "##31": 3413,
      "##iss": 3414,
      "▁202.456.1414": 3415,
      "##ped": 3416,
      "##ited": 3417,
      "##/31": 3418,
      "▁whale": 3419,
      "▁shi": 3420,
      "▁42,000": 3421,
      "▁det": 3422,
      "▁drove": 3423,
      "▁hate": 3424,
      "▁matter": 3425,
      "▁50": 3426,
      "▁continental": 3427,
      "j": 3428,
      "▁so": 3429,
      "▁reasons": 3430,
      "▁post": 3431,
      "▁cat": 3432,
      "▁afraid": 3433,
      "##57": 3434,
      "▁bulldozer": 3435,
      "▁sunday": 3436,
      "##ible": 3437,
      "▁fresh": 3438,
      "▁subst": 3439,
      "▁strategy": 3440,
      "▁head": 3441,
      "▁try": 3442,
      "▁fashion": 3443,
      "▁10:30": 3444,
      "▁declaration": 3445,
      "▁impro": 3446,
      "##mon": 3447,
      "▁tru": 3448,
      "▁agent": 3449,
      "▁colleagues": 3450,
      "##ias": 3451,
      "##bi": 3452,
      "▁rental": 3453,
      "##huh": 3454,
      "##ners": 3455,
      "▁$": 3456,
      "##risk": 3457,
      "▁tam": 3458,
      "▁declar": 3459,
      "▁1799": 3460,
      "▁dollar": 3461,
      "##chester": 3462,
      "##-12": 3463,
      "▁group": 3464,
      "▁charl": 3465,
      "##+----------------": 3466,
      "ø": 3467,
      "▁ath": 3468,
      "▁1609": 3469,
      "▁incre": 3470,
      "▁front": 3471,
      "▁mosqu": 3472,
      "▁strateg": 3473,
      "▁rapidly": 3474,
      "▁08/15/2000": 3475,
      "▁window": 3476,
      "▁why": 3477,
      "▁assem": 3478,
      "##iew": 3479,
      "##arm": 3480,
      "▁models": 3481,
      "▁one": 3482,
      "▁415.782": 3483,
      "##work": 3484,
      "▁2.": 3485,
      "▁programm": 3486,
      "▁missing": 3487,
      "▁america": 3488,
      "##ius": 3489,
      "▁row": 3490,
      "▁training": 3491,
      "▁brings": 3492,
      "▁online": 3493,
      "##owled": 3494,
      "▁1583": 3495,
      "▁veget": 3496,
      "▁ict": 3497,
      "▁passing": 3498,
      "##:38": 3499,
      "##en": 3500,
      "##doc": 3501,
      "▁detailed": 3502,
      "▁alth": 3503,
      "##460-3": 3504,
      "##how": 3505,
      "##-w": 3506,
      "▁l": 3507,
      "▁astride": 3508,
      "▁news": 3509,
      "##la": 3510,
      "##48": 3511,
      "▁golden": 3512,
      "▁900": 3513,
      "##j": 3514,
      "▁1589": 3515,
      "▁original": 3516,
      "##otion": 3517,
      "▁zeal": 3518,
      "##8/2000": 3519,
      "##ana": 3520,
      "▁total": 3521,
      "##!!!!": 3522,
      "▁eating": 3523,
      "▁written": 3524,
      "▁billion": 3525,
      "▁ocean": 3526,
      "##w": 3527,
      "▁meat": 3528,
      "▁exposure": 3529,
      "▁writers": 3530,
      "▁1878": 3531,
      "##iron": 3532,
      "▁reserve": 3533,
      "▁americ": 3534,
      "##iel": 3535,
      "▁associate": 3536,
      "▁tall": 3537,
      "▁amounts": 3538,
      "▁1890": 3539,
      "▁andy": 3540,
      "##resh": 3541,
      "##yan": 3542,
      "€": 3543,
      "▁battle": 3544,
      "▁sam": 3545,
      "▁weas": 3546,
      "##301": 3547,
      "▁04:": 3548,
      "▁1959": 3549,
      "##inny": 3550,
      "▁glob": 3551,
      "##self": 3552,
      "▁1800": 3553,
      "▁woman": 3554,
      "▁hanging": 3555,
      "##jam": 3556,
      "▁tacoma": 3557,
      "▁thous": 3558,
      "▁qaeda": 3559,
      "▁hor": 3560,
      "▁9:30": 3561,
      "▁scale": 3562,
      "##izes": 3563,
      "▁tried": 3564,
      "▁dial": 3565,
      "▁bri": 3566,
      "##]": 3567,
      "##822": 3568,
      "##74": 3569,
      "##ree": 3570,
      "▁st.": 3571,
      "▁approxim": 3572,
      "▁removed": 3573,
      "▁175": 3574,
      "##aper": 3575,
      "▁arri": 3576,
      "▁2019": 3577,
      "▁die": 3578,
      "##ento": 3579,
      "▁rs": 3580,
      "▁))": 3581,
      "ι": 3582,
      "▁ski": 3583,
      "▁!": 3584,
      "##:19": 3585,
      "▁stay": 3586,
      "##.2461": 3587,
      "▁maybe": 3588,
      "##7/99": 3589,
      "▁proceed": 3590,
      "▁1888": 3591,
      "▁peanut": 3592,
      "▁07/17/2000": 3593,
      "▁345": 3594,
      "▁increased": 3595,
      "▁pocket": 3596,
      "##ants": 3597,
      "##9933": 3598,
      "▁ours": 3599,
      "##munic": 3600,
      "##asp": 3601,
      "▁food": 3602,
      "##iveness": 3603,
      "##jects": 3604,
      "▁dud": 3605,
      "æ": 3606,
      "##kk": 3607,
      "##istic": 3608,
      "▁tract": 3609,
      "▁ign": 3610,
      "▁ear": 3611,
      "##por": 3612,
      "▁corpor": 3613,
      "▁yo": 3614,
      "##ried": 3615,
      "▁63": 3616,
      "##ret": 3617,
      "▁hall": 3618,
      "▁study": 3619,
      "▁brown": 3620,
      "##atively": 3621,
      "▁sec": 3622,
      "▁mosquito": 3623,
      "##riage": 3624,
      "▁comb": 3625,
      "▁clean": 3626,
      "▁mathematics": 3627,
      "▁drag": 3628,
      "▁transmission": 3629,
      "▁tren": 3630,
      "▁oct": 3631,
      "▁bring": 3632,
      "▁dr.": 3633,
      "##1-90": 3634,
      "▁iraq": 3635,
      "##.45": 3636,
      "▁1647": 3637,
      "▁err": 3638,
      "▁fund": 3639,
      "##ona": 3640,
      "▁maint": 3641,
      "▁esp": 3642,
      "▁sarah": 3643,
      "▁general": 3644,
      "##000": 3645,
      "▁dose": 3646,
      "##:32": 3647,
      "▁687": 3648,
      "##eric": 3649,
      "▁unif": 3650,
      "▁mont": 3651,
      "##el": 3652,
      "▁150": 3653,
      "##ien": 3654,
      "▁worried": 3655,
      "▁federal": 3656,
      "##ut": 3657,
      "▁ryan": 3658,
      "▁colle": 3659,
      "▁besides": 3660,
      "▁dand": 3661,
      "##ots": 3662,
      "##ally": 3663,
      "▁concepts": 3664,
      "▁comment": 3665,
      "##mail": 3666,
      "▁challeng": 3667,
      "▁line": 3668,
      "##‘": 3669,
      "▁mostly": 3670,
      "▁e.g": 3671,
      "▁wood": 3672,
      "▁re": 3673,
      "▁along": 3674,
      "▁raining": 3675,
      "▁1841": 3676,
      "##587": 3677,
      "▁kinds": 3678,
      "▁happy": 3679,
      "##ampa": 3680,
      "▁polar": 3681,
      "▁wikinews": 3682,
      "▁neat": 3683,
      "▁trash": 3684,
      "▁clin": 3685,
      "##entions": 3686,
      "##just": 3687,
      "▁jordan": 3688,
      "##449": 3689,
      "▁bar": 3690,
      "▁1205": 3691,
      "##3/2000": 3692,
      "▁communication": 3693,
      "▁189": 3694,
      "##atter": 3695,
      "▁events": 3696,
      "##mark": 3697,
      "▁cous": 3698,
      "▁transportation": 3699,
      "▁thinks": 3700,
      "▁holding": 3701,
      "▁~": 3702,
      "##/15/2001": 3703,
      "▁apply": 3704,
      "▁telev": 3705,
      "▁essential": 3706,
      "▁ll": 3707,
      "##ant": 3708,
      "▁swim": 3709,
      "▁trav": 3710,
      "##73": 3711,
      "▁discip": 3712,
      "▁ton": 3713,
      "▁par": 3714,
      "▁loved": 3715,
      "▁dwww": 3716,
      "▁mouth": 3717,
      "▁those": 3718,
      "##7.77": 3719,
      "▁505-625": 3720,
      "##ida": 3721,
      "▁appro": 3722,
      "▁adv": 3723,
      "▁mon": 3724,
      "▁recently": 3725,
      "▁screw": 3726,
      "▁today": 3727,
      "▁get": 3728,
      "▁2.15": 3729,
      "##.m": 3730,
      "▁euro": 3731,
      "▁riding": 3732,
      "▁02": 3733,
      "##stick": 3734,
      "▁yourself": 3735,
      "▁influence": 3736,
      "▁user": 3737,
      "▁cool": 3738,
      "▁11:0": 3739,
      "##bs": 3740,
      "##==============================================": 3741,
      "▁mile": 3742,
      "##300": 3743,
      "▁fiction": 3744,
      "▁inform": 3745,
      "▁naim": 3746,
      "##.org": 3747,
      "▁government": 3748,
      "##rael": 3749,
      "##mas": 3750,
      "▁rat": 3751,
      "夏": 3752,
      "##h": 3753,
      "##96": 3754,
      "##----": 3755,
      "▁from": 3756,
      "▁challenges": 3757,
      "▁standards": 3758,
      "▁legisl": 3759,
      "▁tag": 3760,
      "▁approach": 3761,
      "▁these": 3762,
      "▁tit": 3763,
      "▁1774": 3764,
      "▁intel": 3765,
      "##ollow": 3766,
      "▁ny": 3767,
      "##going": 3768,
      "▁bow": 3769,
      "##new": 3770,
      "##ione": 3771,
      "▁nation": 3772,
      "▁recommend": 3773,
      "##ouble": 3774,
      "▁tiny": 3775,
      "▁sweet": 3776,
      "##ool": 3777,
      "##ox": 3778,
      "##75": 3779,
      "##ios": 3780,
      "▁iss": 3781,
      "▁120": 3782,
      "##ices": 3783,
      "##le": 3784,
      "##uled": 3785,
      "##.77": 3786,
      "▁thing": 3787,
      "▁decide": 3788,
      "##odz": 3789,
      "##11": 3790,
      "##pl": 3791,
      "▁928": 3792,
      "##man": 3793,
      "##.4": 3794,
      "▁bone": 3795,
      "▁feels": 3796,
      "▁rep": 3797,
      "▁agric": 3798,
      "##vant": 3799,
      "▁’d": 3800,
      "▁tables": 3801,
      "##ie": 3802,
      "▁already": 3803,
      "▁rocks": 3804,
      "▁01": 3805,
      "▁statements": 3806,
      "▁basis": 3807,
      "▁uhoh": 3808,
      "§": 3809,
      "▁/": 3810,
      "▁71": 3811,
      "▁craw": 3812,
      "▁month": 3813,
      "▁medium": 3814,
      "▁businesses": 3815,
      "▁best": 3816,
      "▁team": 3817,
      "▁environmental": 3818,
      "▁speed": 3819,
      "##iful": 3820,
      "##ole": 3821,
      "##aming": 3822,
      "▁conversation": 3823,
      "▁est": 3824,
      "▁technical": 3825,
      "▁but": 3826,
      "▁anything": 3827,
      "▁interview": 3828,
      "▁281-443-3744": 3829,
      "▁territory": 3830,
      "▁world": 3831,
      "▁significant": 3832,
      "##819602175": 3833,
      "▁alt": 3834,
      "##ux": 3835,
      "##nine": 3836,
      "▁neighbor": 3837,
      "▁agenda": 3838,
      "▁1780": 3839,
      "▁spoon": 3840,
      "▁1920": 3841,
      "▁caused": 3842,
      "▁vide": 3843,
      "▁09:": 3844,
      "##ele": 3845,
      "▁......": 3846,
      "▁economic": 3847,
      "▁o'clock": 3848,
      "▁1562": 3849,
      "▁contem": 3850,
      "▁chang": 3851,
      "▁2018": 3852,
      "▁1790": 3853,
      "▁tot": 3854,
      "▁tell": 3855,
      "##ather": 3856,
      "▁visitors": 3857,
      "▁1850": 3858,
      "##on@ect": 3859,
      "##@enron.com": 3860,
      "▁98": 3861,
      "▁brit": 3862,
      "▁’": 3863,
      "▁distrib": 3864,
      "▁buttons": 3865,
      "▁death": 3866,
      "▁tv": 3867,
      "▁thirteen": 3868,
      "▁pizza": 3869,
      "##.7": 3870,
      "##rup": 3871,
      "▁kept": 3872,
      "▁congress": 3873,
      "▁are": 3874,
      "▁among": 3875,
      "▁launch": 3876,
      "##wich": 3877,
      "▁magic": 3878,
      "▁indo": 3879,
      "▁big": 3880,
      "▁1951": 3881,
      "##isf": 3882,
      "▁estim": 3883,
      "##ense": 3884,
      "##uch": 3885,
      "##isc": 3886,
      "▁follow": 3887,
      "▁book": 3888,
      "##ick": 3889,
      "▁03:20": 3890,
      "▁atl": 3891,
      "▁kansas": 3892,
      "▁november": 3893,
      "##ving": 3894,
      "##_": 3895,
      "▁lots": 3896,
      "▁stillman": 3897,
      "##ney": 3898,
      "✉": 3899,
      "##图": 3900,
      "##/0": 3901,
      "▁full": 3902,
      "▁families": 3903,
      "▁emerging": 3904,
      "▁concerned": 3905,
      "▁2000": 3906,
      "▁scar": 3907,
      "##ape": 3908,
      "▁cond": 3909,
      "▁do": 3910,
      "▁^": 3911,
      "##4-79": 3912,
      "▁zealand": 3913,
      "▁lou": 3914,
      "▁cheapest": 3915,
      "##order": 3916,
      "▁formica": 3917,
      "▁no-": 3918,
      "▁dist": 3919,
      "▁cou": 3920,
      "▁usual": 3921,
      "▁1969": 3922,
      "▁-----------------": 3923,
      "##ograph": 3924,
      "▁'": 3925,
      "▁cook": 3926,
      "▁2011": 3927,
      "▁minimum": 3928,
      "▁received": 3929,
      "▁jun": 3930,
      "▁noone": 3931,
      "▁likes": 3932,
      "▁_________________________________________________": 3933,
      "▁proble": 3934,
      "##口": 3935,
      "▁================================================": 3936,
      "##ack": 3937,
      "▁gone": 3938,
      "##itely": 3939,
      "▁root": 3940,
      "▁cy": 3941,
      "##veland": 3942,
      "##£": 3943,
      "▁1880": 3944,
      "▁objects": 3945,
      "▁cage": 3946,
      "▁alleged": 3947,
      "▁b": 3948,
      "##ell": 3949,
      "##boo": 3950,
      "▁live": 3951,
      "▁asp": 3952,
      "▁aunt": 3953,
      "##erves": 3954,
      "▁council": 3955,
      "▁housing": 3956,
      "▁bugs": 3957,
      "##9/2001": 3958,
      "▁compet": 3959,
      "##**": 3960,
      "▁no": 3961,
      "▁washington": 3962,
      "##ar": 3963,
      "▁ed": 3964,
      "▁2:30": 3965,
      "##elds": 3966,
      "▁350": 3967,
      "▁mouse": 3968,
      "▁hundreds": 3969,
      "▁generation": 3970,
      "▁2500": 3971,
      "▁bid": 3972,
      "▁complete": 3973,
      "▁cromer": 3974,
      "##gin": 3975,
      "▁industrial": 3976,
      "▁offic": 3977,
      "▁seventy": 3978,
      "▁eggs": 3979,
      "##soft": 3980,
      "▁02/2": 3981,
      "##nondel": 3982,
      "▁counterfe": 3983,
      "▁http://www": 3984,
      "▁it": 3985,
      "▁1779": 3986,
      "▁quest": 3987,
      "##ifying": 3988,
      "▁camp": 3989,
      "▁pill": 3990,
      "▁rom": 3991,
      "▁pere": 3992,
      "▁drink": 3993,
      "▁tar": 3994,
      "##ris": 3995,
      "▁came": 3996,
      "▁vogel": 3997,
      "▁col": 3998,
      "▁finding": 3999,
      "▁prem": 4000,
      "▁silk": 4001,
      "▁short": 4002,
      "▁climate": 4003,
      "▁date": 4004,
      "▁favor": 4005,
      "##sel": 4006,
      "▁goat": 4007,
      "▁well": 4008,
      "▁04": 4009,
      "▁238": 4010,
      "▁stairs": 4011,
      "▁neither": 4012,
      "▁47": 4013,
      "▁;-)": 4014,
      "▁flying": 4015,
      "▁measure": 4016,
      "##ibilities": 4017,
      "▁mount": 4018,
      "▁scott": 4019,
      "▁determined": 4020,
      "▁programme": 4021,
      "▁bern": 4022,
      "▁desert": 4023,
      "##at": 4024,
      "▁49": 4025,
      "##ams": 4026,
      "##uc": 4027,
      "▁iraqi": 4028,
      "▁1944": 4029,
      "▁le": 4030,
      "▁teams": 4031,
      "▁shock": 4032,
      "▁pen": 4033,
      "▁explain": 4034,
      "▁found": 4035,
      "▁distort": 4036,
      "▁mad": 4037,
      "▁turn": 4038,
      "▁easy": 4039,
      "▁fruit": 4040,
      "##thing": 4041,
      "▁glad": 4042,
      "##ually": 4043,
      "▁graduate": 4044,
      "▁established": 4045,
      "▁described": 4046,
      "##rog": 4047,
      "▁nick": 4048,
      "##op": 4049,
      "▁having": 4050,
      "▁soc": 4051,
      "▁gar": 4052,
      "##/30/2001": 4053,
      "▁pil": 4054,
      "▁franc": 4055,
      "##fin": 4056,
      "▁negot": 4057,
      "▁bunch": 4058,
      "##enes": 4059,
      "3": 4060,
      "▁estimate": 4061,
      "##athers": 4062,
      "▁length": 4063,
      "▁blanket": 4064,
      "▁behalf": 4065,
      "##ah": 4066,
      "▁const": 4067,
      "▁thin": 4068,
      "##ached": 4069,
      "▁jap": 4070,
      "▁emb": 4071,
      "##enth": 4072,
      "▁position": 4073,
      "▁issues": 4074,
      "▁country": 4075,
      "▁knowledge": 4076,
      "▁breakfast": 4077,
      "##gers": 4078,
      "▁1604": 4079,
      "##8-3": 4080,
      "▁enjambment": 4081,
      "▁independent": 4082,
      "▁1.5": 4083,
      "▁spending": 4084,
      "▁gets": 4085,
      "##.": 4086,
      "▁treated": 4087,
      "▁shared": 4088,
      "▁soil": 4089,
      "▁tomorrow": 4090,
      "##ado": 4091,
      "▁men": 4092,
      "▁freed": 4093,
      "##urt": 4094,
      "▁2013": 4095,
      "▁sto": 4096,
      "##port": 4097,
      "▁hea": 4098,
      "▁passed": 4099,
      "##tip": 4100,
      "▁formal": 4101,
      "▁israeli": 4102,
      "▁confer": 4103,
      "##iver": 4104,
      "##:11": 4105,
      "##.x": 4106,
      "▁describe": 4107,
      "▁calls": 4108,
      "##iff": 4109,
      "▁walking": 4110,
      "▁george": 4111,
      "##raf": 4112,
      "▁!!!!!!!!!!!!!!!!!!!": 4113,
      "▁shakespeare": 4114,
      "▁da": 4115,
      "##14": 4116,
      "##aleck": 4117,
      "e": 4118,
      "▁sect": 4119,
      "##mm": 4120,
      "▁michelle": 4121,
      "▁vers": 4122,
      "▁laid": 4123,
      "▁tro": 4124,
      "▁settled": 4125,
      "▁knows": 4126,
      "▁pakistani": 4127,
      "▁alongside": 4128,
      "▁card": 4129,
      "##s.": 4130,
      "▁:(": 4131,
      "##.html": 4132,
      "▁hear": 4133,
      "▁coat": 4134,
      "▁suffer": 4135,
      "▁red": 4136,
      "ا": 4137,
      "##iately": 4138,
      "▁back": 4139,
      "▁adopted": 4140,
      "▁1200": 4141,
      "▁tour": 4142,
      "▁ro": 4143,
      "▁tw": 4144,
      "##elling": 4145,
      "▁forg": 4146,
      "▁-------------------------------------------------": 4147,
      "▁n": 4148,
      "▁return": 4149,
      "▁key": 4150,
      "▁manager": 4151,
      "▁763736": 4152,
      "▁married": 4153,
      "##izing": 4154,
      "##light": 4155,
      "▁momma": 4156,
      "▁studying": 4157,
      "▁beauveria": 4158,
      "▁compl": 4159,
      "▁incor": 4160,
      "▁db": 4161,
      "##gets": 4162,
      "▁fortun": 4163,
      "▁credit": 4164,
      "##...": 4165,
      "▁creation": 4166,
      "##36": 4167,
      "##.15": 4168,
      "##ome": 4169,
      "▁asleep": 4170,
      "▁fbi": 4171,
      "▁1-8": 4172,
      "▁progress": 4173,
      "▁economy": 4174,
      "##/15": 4175,
      "³": 4176,
      "▁etc": 4177,
      "##7": 4178,
      "▁interp": 4179,
      "▁query": 4180,
      "▁own": 4181,
      "▁argument": 4182,
      "▁day": 4183,
      "▁forty-one": 4184,
      "▁vi": 4185,
      "▁potty": 4186,
      "▁main": 4187,
      "▁1952": 4188,
      "▁capital": 4189,
      "▁almost": 4190,
      "▁700": 4191,
      "##ɑ": 4192,
      "▁05/30/2001": 4193,
      "p": 4194,
      "θ": 4195,
      "##istan": 4196,
      "##osure": 4197,
      "▁01:58": 4198,
      "▁10,000": 4199,
      "▁mommy": 4200,
      "▁(a)": 4201,
      "▁drew": 4202,
      "##s": 4203,
      "▁approved": 4204,
      "▁community": 4205,
      "▁sole": 4206,
      "▁ar": 4207,
      "▁restrict": 4208,
      "▁dog": 4209,
      "##tain": 4210,
      "▁ball": 4211,
      "▁communic": 4212,
      "▁yep": 4213,
      "▁realize": 4214,
      "▁anti-": 4215,
      "##89": 4216,
      "▁european": 4217,
      "▁facilities": 4218,
      "▁12:42": 4219,
      "▁htt": 4220,
      "▁1830": 4221,
      "▁push": 4222,
      "##uz": 4223,
      "▁miles": 4224,
      "▁11/08/2000": 4225,
      "▁15,000": 4226,
      "##cond": 4227,
      "▁’m": 4228,
      "##.621": 4229,
      "▁hun": 4230,
      "##ival": 4231,
      "▁message": 4232,
      "##ften": 4233,
      "##pped": 4234,
      "▁toronto": 4235,
      "##ote": 4236,
      "▁=---": 4237,
      "▁6.2.1": 4238,
      "##867": 4239,
      "▁centre": 4240,
      "##sem": 4241,
      "▁grant": 4242,
      "##oph": 4243,
      "▁wo": 4244,
      "▁successful": 4245,
      "##off": 4246,
      "▁i": 4247,
      "▁ge": 4248,
      "▁10:45": 4249,
      "▁source": 4250,
      "##0": 4251,
      "##alth": 4252,
      "▁initi": 4253,
      "▁approval": 4254,
      "▁transport": 4255,
      "▁angeles": 4256,
      "▁su": 4257,
      "▁l2": 4258,
      "▁nab": 4259,
      "▁hidden": 4260,
      "▁1859": 4261,
      "▁constit": 4262,
      "##ottable": 4263,
      "▁empt": 4264,
      "▁plat": 4265,
      "▁74419": 4266,
      "##uary": 4267,
      "▁cruise": 4268,
      "▁fy": 4269,
      "##-9004": 4270,
      "▁dur": 4271,
      "▁joy": 4272,
      "▁xsd": 4273,
      "##ulous": 4274,
      "▁ig": 4275,
      "▁service": 4276,
      "▁peau": 4277,
      "##val": 4278,
      "##asons": 4279,
      "##uries": 4280,
      "##ave": 4281,
      "##neath": 4282,
      "▁satisf": 4283,
      "▁chris": 4284,
      "▁bottles": 4285,
      "##ipe": 4286,
      "##imin": 4287,
      "##oted": 4288,
      "▁165": 4289,
      "▁threat": 4290,
      "##??": 4291,
      "▁leaves": 4292,
      "▁humaine": 4293,
      "##:3": 4294,
      "▁extremely": 4295,
      "▁contribution": 4296,
      "▁03:3": 4297,
      "▁presentation": 4298,
      "##✉": 4299,
      "##art": 4300,
      "▁frozen": 4301,
      "▁italian": 4302,
      "▁delivery": 4303,
      "▁weapon": 4304,
      "▁investig": 4305,
      "##grad": 4306,
      "▁individual": 4307,
      "▁moral": 4308,
      "▁countries": 4309,
      "▁advanced": 4310,
      "##/16/2001": 4311,
      "▁symp": 4312,
      "##:35": 4313,
      "▁storm": 4314,
      "##://": 4315,
      "▁tun": 4316,
      "▁media": 4317,
      "▁bo": 4318,
      "▁sound": 4319,
      "##enc": 4320,
      "▁recent": 4321,
      "▁6871082#": 4322,
      "▁egypt": 4323,
      "▁interv": 4324,
      "##its": 4325,
      "▁2030": 4326,
      "ي": 4327,
      "▁dem": 4328,
      "##:17": 4329,
      "▁113": 4330,
      "▁westchester": 4331,
      "##ives": 4332,
      "##ach": 4333,
      "##ese": 4334,
      "##ac": 4335,
      "##/01": 4336,
      "د": 4337,
      "▁01:39": 4338,
      "▁avo": 4339,
      "▁wik": 4340,
      "##ite": 4341,
      "##str": 4342,
      "##ress": 4343,
      "▁version": 4344,
      "▁kid": 4345,
      "##iban": 4346,
      "▁dep": 4347,
      "▁congrat": 4348,
      "▁transm": 4349,
      "▁climb": 4350,
      "▁ta": 4351,
      "▁‘’": 4352,
      "▁mention": 4353,
      "▁predict": 4354,
      "▁committee": 4355,
      "▁confirm": 4356,
      "▁cheek": 4357,
      "▁assume": 4358,
      "▁surr": 4359,
      "▁decline": 4360,
      "▁class": 4361,
      "##ppy": 4362,
      "▁returning": 4363,
      "##ht": 4364,
      "▁u.": 4365,
      "▁rob": 4366,
      "▁moving": 4367,
      "▁long": 4368,
      "##enda": 4369,
      "▁...............": 4370,
      "▁mom": 4371,
      "▁ir": 4372,
      "▁did": 4373,
      "▁usually": 4374,
      "##enge": 4375,
      "##葉": 4376,
      "▁wake": 4377,
      "##rees": 4378,
      "▁|--------+----------------": 4379,
      "清": 4380,
      "##arraf": 4381,
      "##gg": 4382,
      "##ty": 4383,
      "##utions": 4384,
      "▁broke": 4385,
      "▁chaos": 4386,
      "##and": 4387,
      "##tern": 4388,
      "▁:-)": 4389,
      "▁cray": 4390,
      "▁pul": 4391,
      "▁waters": 4392,
      "▁century": 4393,
      "▁exchange": 4394,
      "▁blank": 4395,
      "##bank": 4396,
      "▁enjoyed": 4397,
      "##awah": 4398,
      "##es": 4399,
      "##lic": 4400,
      "▁says": 4401,
      "▁rap": 4402,
      "▁peoples": 4403,
      "##imum": 4404,
      "▁315-": 4405,
      "▁carol": 4406,
      "▁too": 4407,
      "▁mem": 4408,
      "b": 4409,
      "##-79": 4410,
      "▁gro": 4411,
      "▁anti": 4412,
      "▁greek": 4413,
      "▁absolutely": 4414,
      "##f": 4415,
      "##osh": 4416,
      "▁harry": 4417,
      "▁pig": 4418,
      "##umble": 4419,
      "▁1660": 4420,
      "##zy": 4421,
      "▁enough": 4422,
      "##-f": 4423,
      "##clusion": 4424,
      "▁l'": 4425,
      "▁close": 4426,
      "▁tea": 4427,
      "▁713-654-0365": 4428,
      "▁57": 4429,
      "▁intellig": 4430,
      "▁docum": 4431,
      "##aman": 4432,
      "##-3989": 4433,
      "▁frag": 4434,
      "▁2:25": 4435,
      "▁unfortun": 4436,
      "▁shall": 4437,
      "##get": 4438,
      "▁boots": 4439,
      "##elle": 4440,
      "▁hungry": 4441,
      "▁number": 4442,
      "▁director": 4443,
      "▁seating": 4444,
      "▁round": 4445,
      "##du": 4446,
      "▁walk": 4447,
      "##itive": 4448,
      "▁show": 4449,
      "▁languages": 4450,
      "ˈ": 4451,
      "▁sim": 4452,
      "##apolis": 4453,
      "▁agreement": 4454,
      "▁willi": 4455,
      "▁granted": 4456,
      "▁mill": 4457,
      "▁has": 4458,
      "▁played": 4459,
      "▁yester": 4460,
      "▁1.00": 4461,
      "##e.": 4462,
      "▁wiggle": 4463,
      "▁huge": 4464,
      "▁concern": 4465,
      "▁definition": 4466,
      "▁purs": 4467,
      "▁folks": 4468,
      "▁bott": 4469,
      "▁efficient": 4470,
      "##icycle": 4471,
      "▁animal": 4472,
      "▁tight": 4473,
      "##us": 4474,
      "▁sust": 4475,
      "▁wrote": 4476,
      "▁falluj": 4477,
      "▁small": 4478,
      "▁was": 4479,
      "▁1700": 4480,
      "▁burn": 4481,
      "▁silly": 4482,
      "▁info": 4483,
      "▁sept": 4484,
      "▁..........": 4485,
      "▁applied": 4486,
      "▁decision": 4487,
      "▁260": 4488,
      "##veria": 4489,
      "▁ther": 4490,
      "##oring": 4491,
      "▁mun": 4492,
      "▁results": 4493,
      "▁arriving": 4494,
      "##ad": 4495,
      "##ral": 4496,
      "▁4.7": 4497,
      "▁ban": 4498,
      "▁pepper": 4499,
      "##em": 4500,
      "##ring": 4501,
      "##df": 4502,
      "##or": 4503,
      "##700": 4504,
      "▁serve": 4505,
      "##ervation": 4506,
      "▁recogn": 4507,
      "▁invited": 4508,
      "▁:p": 4509,
      "▁alex": 4510,
      "▁tom": 4511,
      "▁+++": 4512,
      "##umn": 4513,
      "▁flag": 4514,
      "##:50": 4515,
      "▁falling": 4516,
      "##iao": 4517,
      "▁seriously": 4518,
      "##ternal": 4519,
      "##vely": 4520,
      "▁properties": 4521,
      "▁noted": 4522,
      "##gr": 4523,
      "##ose": 4524,
      "▁analysis": 4525,
      "▁forty-": 4526,
      "▁load": 4527,
      "##ulty": 4528,
      "##ablish": 4529,
      "##lying": 4530,
      "##rison": 4531,
      "##allow": 4532,
      "▁butter": 4533,
      "##ands": 4534,
      "##_2": 4535,
      "##idence": 4536,
      "▁grass": 4537,
      "#": 4538,
      "▁720": 4539,
      "▁suffering": 4540,
      "##6": 4541,
      "##/11/2004": 4542,
      "##3.6": 4543,
      "##arter": 4544,
      "▁libr": 4545,
      "▁simple": 4546,
      "▁neighborhood": 4547,
      "##一": 4548,
      "▁twenty-four": 4549,
      "##usion": 4550,
      "▁happening": 4551,
      "▁5,000": 4552,
      "▁draft": 4553,
      "▁1,": 4554,
      "▁vegas": 4555,
      "▁wish": 4556,
      "▁towards": 4557,
      "##ß": 4558,
      "▁especially": 4559,
      "▁8.3": 4560,
      "##ils": 4561,
      "▁1,200": 4562,
      "▁198": 4563,
      "▁cup": 4564,
      "▁republic": 4565,
      "▁parad": 4566,
      "▁416-8": 4567,
      "##--------": 4568,
      "##all": 4569,
      "▁slight": 4570,
      "▁acad": 4571,
      "▁reached": 4572,
      "▁mm": 4573,
      "##/2004": 4574,
      "▁?!?": 4575,
      "▁singing": 4576,
      "##25": 4577,
      "##-3393": 4578,
      "##ي": 4579,
      "▁202.456": 4580,
      "##uments": 4581,
      "▁sex": 4582,
      "##????????": 4583,
      "##ipt": 4584,
      "▁theirs": 4585,
      "##ij": 4586,
      "##ven": 4587,
      "##_^": 4588,
      "▁seventh": 4589,
      "##viatio": 4590,
      "▁marie": 4591,
      "##ger": 4592,
      "##part": 4593,
      "▁accepted": 4594,
      "▁bed": 4595,
      "▁>": 4596,
      "▁boston": 4597,
      "##693": 4598,
      "##up": 4599,
      "▁1971": 4600,
      "##gest": 4601,
      "▁innovation": 4602,
      "##erre": 4603,
      "##wood": 4604,
      "##ten": 4605,
      "##kee": 4606,
      "##erv": 4607,
      "▁93": 4608,
      "##ς": 4609,
      "▁taking": 4610,
      "##fort": 4611,
      "▁1943": 4612,
      "▁doct": 4613,
      "▁palestin": 4614,
      "▁leadership": 4615,
      "▁succ": 4616,
      "▁planned": 4617,
      "▁cereal": 4618,
      "▁view": 4619,
      "▁brain": 4620,
      "▁string": 4621,
      "▁for": 4622,
      "##66": 4623,
      "##eping": 4624,
      "▁im": 4625,
      "▁whose": 4626,
      "▁ships": 4627,
      "##tered": 4628,
      "▁lad": 4629,
      "▁neighb": 4630,
      "▁replication": 4631,
      "##:20": 4632,
      "##phone": 4633,
      "##tr": 4634,
      "▁wall": 4635,
      "▁sc": 4636,
      "▁county": 4637,
      "##lf": 4638,
      "▁pa": 4639,
      "##un": 4640,
      "▁gentle": 4641,
      "▁path": 4642,
      "▁enjamb": 4643,
      "▁russ": 4644,
      "▁beauty": 4645,
      "##iwan": 4646,
      "▁s/h": 4647,
      "▁ect": 4648,
      "▁commons": 4649,
      "▁saturday": 4650,
      "▁16.3": 4651,
      "▁begin": 4652,
      "▁text": 4653,
      "▁tong": 4654,
      "▁specifically": 4655,
      "▁universal": 4656,
      "▁style": 4657,
      "##880": 4658,
      "▁shoes": 4659,
      "▁7.3": 4660,
      "▁stopping": 4661,
      "▁goals": 4662,
      "▁is": 4663,
      "▁pract": 4664,
      "▁00": 4665,
      "▁baltim": 4666,
      "##ances": 4667,
      "▁looked": 4668,
      "▁non-": 4669,
      "▁officials": 4670,
      "▁56": 4671,
      "▁flood": 4672,
      "##ortun": 4673,
      "▁9/11": 4674,
      "▁beh": 4675,
      "▁les": 4676,
      "##@ect": 4677,
      "▁workers": 4678,
      "▁parents": 4679,
      "##ity": 4680,
      "▁chines": 4681,
      "▁10/31": 4682,
      "▁amend": 4683,
      "▁september": 4684,
      "▁showing": 4685,
      "##eing": 4686,
      "##ordon": 4687,
      "##32": 4688,
      "##:45": 4689,
      "▁888.916.718": 4690,
      "▁jason": 4691,
      "▁consult": 4692,
      "##:02": 4693,
      "##ep": 4694,
      "##thern": 4695,
      "▁taken": 4696,
      "▁analyst": 4697,
      "▁sour": 4698,
      "▁whi": 4699,
      "▁div": 4700,
      "▁wak": 4701,
      "▁excell": 4702,
      "▁espec": 4703,
      "▁250": 4704,
      "▁infrast": 4705,
      "▁artwork": 4706,
      "##itable": 4707,
      "▁1980": 4708,
      "▁2014": 4709,
      "▁21": 4710,
      "{": 4711,
      "▁rubber": 4712,
      "##ines": 4713,
      "▁expected": 4714,
      "▁impact": 4715,
      "▁04/16/2001": 4716,
      "##t": 4717,
      "##ame": 4718,
      "▁map": 4719,
      "▁ter": 4720,
      "▁concept": 4721,
      "9": 4722,
      "▁export": 4723,
      "▁jour": 4724,
      "▁clay": 4725,
      "▁million": 4726,
      "##lied": 4727,
      "▁7": 4728,
      "##what": 4729,
      "▁japan": 4730,
      "▁airfare": 4731,
      "▁while": 4732,
      "▁audit": 4733,
      "▁knife": 4734,
      "▁depends": 4735,
      "▁unp": 4736,
      "▁representative": 4737,
      "▁inh": 4738,
      "▁turning": 4739,
      "##ase": 4740,
      "▁hous": 4741,
      "▁islamic": 4742,
      "▁smooth": 4743,
      "▁users": 4744,
      "▁piv": 4745,
      "▁huh": 4746,
      "##eline": 4747,
      "▁project": 4748,
      "##od": 4749,
      "▁-fin": 4750,
      "▁convers": 4751,
      "▁serves": 4752,
      "##tw": 4753,
      "▁movies": 4754,
      "##oud": 4755,
      "##led": 4756,
      "▁gal": 4757,
      "▁computer": 4758,
      "▁paris": 4759,
      "▁millions": 4760,
      "▁counterpart": 4761,
      "##,8": 4762,
      "▁certific": 4763,
      "##iqu": 4764,
      "▁nmemdrft8-7-01": 4765,
      "##.75": 4766,
      "▁develop": 4767,
      "▁demon": 4768,
      "##mar": 4769,
      "▁ooh": 4770,
      "▁situation": 4771,
      "▁definitely": 4772,
      "▁512": 4773,
      "▁1777": 4774,
      "##rical": 4775,
      "▁cla": 4776,
      "##ario": 4777,
      "▁dream": 4778,
      "##ond": 4779,
      "▁bank": 4780,
      "▁democracy": 4781,
      "▁cream": 4782,
      "▁inc": 4783,
      "▁02/13/2001": 4784,
      "▁penn": 4785,
      "▁prepared": 4786,
      "▁juice": 4787,
      "##onse": 4788,
      "▁save": 4789,
      "▁mirror": 4790,
      "##ver": 4791,
      "▁except": 4792,
      "司": 4793,
      "##x": 4794,
      "▁vet": 4795,
      "##21": 4796,
      "▁%": 4797,
      "▁ka": 4798,
      "▁yes": 4799,
      "▁year": 4800,
      "▁effect": 4801,
      "##ees": 4802,
      "¢": 4803,
      "▁complet": 4804,
      "▁basket": 4805,
      "##alle": 4806,
      "▁pros": 4807,
      "▁hop": 4808,
      "▁amongst": 4809,
      "##iot": 4810,
      "▁begins": 4811,
      "▁photograph": 4812,
      "▁ga": 4813,
      "▁uns": 4814,
      "▁means": 4815,
      "▁arg": 4816,
      "▁executive": 4817,
      "▁balance": 4818,
      "▁discuss": 4819,
      "##ugg": 4820,
      "▁2010": 4821,
      "##ork": 4822,
      "▁witch": 4823,
      "▁named": 4824,
      "##sy": 4825,
      "##oned": 4826,
      "▁14": 4827,
      "▁sn": 4828,
      "##;": 4829,
      "▁daniel": 4830,
      "▁boxes": 4831,
      "▁1:00": 4832,
      "▁'d": 4833,
      "▁iv": 4834,
      "##ust": 4835,
      "▁north": 4836,
      "▁lun": 4837,
      "▁teach": 4838,
      "##20": 4839,
      "▁atlanta": 4840,
      "▁achieve": 4841,
      "▁border": 4842,
      "▁revenue": 4843,
      "▁6871082": 4844,
      "▁educ": 4845,
      "▁ate": 4846,
      "▁direction": 4847,
      "▁christian": 4848,
      "▁high": 4849,
      "▁provided": 4850,
      "##16.718": 4851,
      "▁accord": 4852,
      "##:01": 4853,
      "▁efforts": 4854,
      "▁via": 4855,
      "▁3:30": 4856,
      "▁toward": 4857,
      "▁though": 4858,
      "▁703": 4859,
      "##re": 4860,
      "##ted": 4861,
      "▁van": 4862,
      "▁moder": 4863,
      "▁provisions": 4864,
      "▁elected": 4865,
      "▁perm": 4866,
      "▁till": 4867,
      "▁mult": 4868,
      "##de": 4869,
      "##ina": 4870,
      "▁remo": 4871,
      "##hing": 4872,
      "##pr": 4873,
      "▁experienced": 4874,
      "▁plant": 4875,
      "▁nash": 4876,
      "▁1230": 4877,
      "▁intended": 4878,
      "▁seeking": 4879,
      "▁pet": 4880,
      "▁exch": 4881,
      "##oun": 4882,
      "▁comedie": 4883,
      "▁station": 4884,
      "▁dese": 4885,
      "▁texas": 4886,
      "▁pub": 4887,
      "▁cheap": 4888,
      "▁painting": 4889,
      "##ns": 4890,
      "##.htm": 4891,
      "##.m.": 4892,
      "▁internal": 4893,
      "▁force": 4894,
      "▁earli": 4895,
      "##rib": 4896,
      "##ve": 4897,
      "▁minutes": 4898,
      "##st": 4899,
      "##/26": 4900,
      "▁1598": 4901,
      "▁http://": 4902,
      "▁curren": 4903,
      "▁attract": 4904,
      "▁flight": 4905,
      "▁stage": 4906,
      "▁eff": 4907,
      "##ny": 4908,
      "##13.86": 4909,
      "▁bomb": 4910,
      "▁skittles": 4911,
      "▁certain": 4912,
      "##ening": 4913,
      "▁longer": 4914,
      "▁eat": 4915,
      "▁biological": 4916,
      "▁information": 4917,
      "▁hang": 4918,
      "▁meal": 4919,
      "▁focused": 4920,
      "##ino": 4921,
      "▁spent": 4922,
      "▁report": 4923,
      "▁lesson": 4924,
      "▁1776": 4925,
      "▁above": 4926,
      "▁reli": 4927,
      "▁thro": 4928,
      "▁bab": 4929,
      "▁2006": 4930,
      "▁californ": 4931,
      "▁demand": 4932,
      "▁lead": 4933,
      "##ril": 4934,
      "▁bulld": 4935,
      "▁heads": 4936,
      "▁4": 4937,
      "##ian": 4938,
      "▁pr": 4939,
      "##sex": 4940,
      "▁geograph": 4941,
      "##ibreat": 4942,
      "▁filled": 4943,
      "▁most": 4944,
      "▁consumption": 4945,
      "▁wilson": 4946,
      "▁create": 4947,
      "##uela": 4948,
      "▁init": 4949,
      "▁regards": 4950,
      "▁grandm": 4951,
      "▁ready": 4952,
      "▁imag": 4953,
      "##itten": 4954,
      "▁police": 4955,
      "▁larger": 4956,
      "##1.": 4957,
      "##agon": 4958,
      "▁sle": 4959,
      "▁2016": 4960,
      "##alys": 4961,
      "##.718": 4962,
      "##q": 4963,
      "▁inj": 4964,
      "▁beaut": 4965,
      "##ission": 4966,
      "▁multip": 4967,
      "▁presented": 4968,
      "###693": 4969,
      "▁stan": 4970,
      "▁b/c": 4971,
      "▁rice@enron": 4972,
      "##,500": 4973,
      "▁stri": 4974,
      "▁domin": 4975,
      "##====": 4976,
      "▁surgery": 4977,
      "##line": 4978,
      "▁po": 4979,
      "▁-----": 4980,
      "##ier": 4981,
      "##ul": 4982,
      "▁4_2": 4983,
      "▁items": 4984,
      "▁acknowled": 4985,
      "▁gri": 4986,
      "##bruary": 4987,
      "▁occup": 4988,
      "▁target": 4989,
      "▁remove": 4990,
      "▁680": 4991,
      "▁10:46": 4992,
      "▁many": 4993,
      "▁08/03/2000": 4994,
      "▁surround": 4995,
      "▁rank": 4996,
      "##00": 4997,
      "▁1300": 4998,
      "▁7.2": 4999,
      "##oons": 5000,
      "▁the": 5001,
      "ν": 5002,
      "##°": 5003,
      "▁bad": 5004,
      "##ilar": 5005,
      "▁dad": 5006,
      "▁pink": 5007,
      "▁burst": 5008,
      "##oe": 5009,
      "▁alt.": 5010,
      "▁steps": 5011,
      "##5-0": 5012,
      "##ile": 5013,
      "▁standard": 5014,
      "▁38,000": 5015,
      "▁proposal": 5016,
      "▁problems": 5017,
      "▁2021": 5018,
      "▁05/17/99": 5019,
      "▁anne": 5020,
      "##est": 5021,
      "▁would": 5022,
      "##iate": 5023,
      "##ast": 5024,
      "▁honest": 5025,
      "▁coal": 5026,
      "##aph": 5027,
      "▁college": 5028,
      "▁505": 5029,
      "▁middle": 5030,
      "▁47,500": 5031,
      "▁coast": 5032,
      "##air": 5033,
      "▁620-": 5034,
      "▁amaz": 5035,
      "##ica": 5036,
      "▁gross": 5037,
      "##ider": 5038,
      "▁reprod": 5039,
      "##ented": 5040,
      "▁‘": 5041,
      "▁225": 5042,
      "▁fix": 5043,
      "##989": 5044,
      "##ts": 5045,
      "▁01/25/2001": 5046,
      "▁prop": 5047,
      "▁leigh": 5048,
      "##--------------------------------------------": 5049,
      "▁tig": 5050,
      "▁twist": 5051,
      "▁hire": 5052,
      "▁03/0": 5053,
      "▁stand": 5054,
      "▁gun": 5055,
      "▁appeal": 5056,
      "▁consc": 5057,
      "▁customer": 5058,
      "##raw": 5059,
      "▁finger": 5060,
      "▁leaving": 5061,
      "▁’ve": 5062,
      "##ides": 5063,
      "##oy": 5064,
      "▁there": 5065,
      "▁including": 5066,
      "##ays": 5067,
      "▁`s": 5068,
      "##urn": 5069,
      "▁somebody": 5070,
      "▁development": 5071,
      "▁dev": 5072,
      "##1696": 5073,
      "▁second": 5074,
      "##-)": 5075,
      "▁telephone": 5076,
      "▁until": 5077,
      "▁word": 5078,
      "##band": 5079,
      "▁piec": 5080,
      "▁4,": 5081,
      "▁holt": 5082,
      "##ular": 5083,
      "▁followed": 5084,
      "▁over": 5085,
      "▁ukrain": 5086,
      "▁fourteen": 5087,
      "##do": 5088,
      "▁changed": 5089,
      "##haps": 5090,
      "▁drop": 5091,
      "▁366": 5092,
      "▁smell": 5093,
      "▁robin": 5094,
      "▁nato": 5095,
      "▁avoid": 5096,
      "##verage": 5097,
      "▁3,500": 5098,
      "▁younger": 5099,
      "▁cute": 5100,
      "▁municip": 5101,
      "▁bre": 5102,
      "▁channel": 5103,
      "##================================": 5104,
      "##ties": 5105,
      "##ok": 5106,
      "##ω": 5107,
      "▁percent": 5108,
      "▁watching": 5109,
      "▁ultim": 5110,
      "▁kind": 5111,
      "▁yer": 5112,
      "▁glove": 5113,
      "▁advance": 5114,
      "▁cleveland": 5115,
      "##uts": 5116,
      "##山": 5117,
      "▁65": 5118,
      "▁helping": 5119,
      "▁copies": 5120,
      "▁para": 5121,
      "##etch": 5122,
      "▁reality": 5123,
      "▁40,000": 5124,
      "##war": 5125,
      "▁cig": 5126,
      "##ium": 5127,
      "▁gaz": 5128,
      "▁angry": 5129,
      "▁further": 5130,
      "▁population": 5131,
      "▁check": 5132,
      "▁ep": 5133,
      "▁meh-risk": 5134,
      "##an": 5135,
      "▁traffic": 5136,
      "▁feed": 5137,
      "▁ham": 5138,
      "▁hog": 5139,
      "##io": 5140,
      "▁culture": 5141,
      "##—": 5142,
      "▁shoot": 5143,
      "##eling": 5144,
      "▁ke": 5145,
      "▁planning": 5146,
      "##erno": 5147,
      "▁clim": 5148,
      "▁critic": 5149,
      "##ived": 5150,
      "▁bottle": 5151,
      "▁ser": 5152,
      "▁70.85": 5153,
      "▁assist": 5154,
      "##lae": 5155,
      "▁pushed": 5156,
      "▁advantage": 5157,
      "▁unkn": 5158,
      "▁chance": 5159,
      "##-50": 5160,
      "▁domestic": 5161,
      "▁areas": 5162,
      "##ong": 5163,
      "▁subm": 5164,
      "▁154": 5165,
      "▁78": 5166,
      "▁stands": 5167,
      "▁identity": 5168,
      "##ow": 5169,
      "▁ena": 5170,
      "▁thinking": 5171,
      "▁mix": 5172,
      "▁forced": 5173,
      "▁dark": 5174,
      "▁box": 5175,
      "▁night": 5176,
      "##most": 5177,
      "▁leads": 5178,
      "▁1,000": 5179,
      "▁about": 5180,
      "▁market": 5181,
      "▁coinc": 5182,
      "▁qa": 5183,
      "▁lowest": 5184,
      "▁stir": 5185,
      "▁packed": 5186,
      "##ax": 5187,
      "▁soup": 5188,
      "##ition": 5189,
      "▁51": 5190,
      "▁dre": 5191,
      "▁nearly": 5192,
      "▁guidelines": 5193,
      "▁4.9": 5194,
      "▁================================": 5195,
      "▁€": 5196,
      "▁ok": 5197,
      "##ash": 5198,
      "▁1912": 5199,
      "▁failed": 5200,
      "▁afric": 5201,
      "##47": 5202,
      "##arily": 5203,
      "▁trick": 5204,
      "▁trial": 5205,
      "▁displ": 5206,
      "▁415": 5207,
      "##orum": 5208,
      "▁op": 5209,
      "▁morality": 5210,
      "▁conc": 5211,
      "▁sol": 5212,
      "▁...................": 5213,
      "▁king": 5214,
      "▁type": 5215,
      "▁paren": 5216,
      "##º": 5217,
      "▁maintain": 5218,
      "▁palestinian": 5219,
      "▁location": 5220,
      "▁enc": 5221,
      "▁turned": 5222,
      "▁-ect": 5223,
      "▁fun": 5224,
      "▁production": 5225,
      "##edge": 5226,
      "▁thir": 5227,
      "▁help": 5228,
      "##itted": 5229,
      "▁sixth": 5230,
      "▁wine": 5231,
      "##k.ur": 5232,
      "##202": 5233,
      "▁<<": 5234,
      "▁every": 5235,
      "▁education": 5236,
      "▁table": 5237,
      "▁milk": 5238,
      "##ocr": 5239,
      ",": 5240,
      "▁inf": 5241,
      "▁jer": 5242,
      "▁fundamental": 5243,
      "##cement": 5244,
      "▁piece": 5245,
      "▁09:45": 5246,
      "▁1846": 5247,
      "##<----": 5248,
      "▁captain": 5249,
      "▁luc": 5250,
      "▁democratic": 5251,
      "▁lope": 5252,
      "▁fear": 5253,
      "▁turis": 5254,
      "##algami": 5255,
      "▁contrib": 5256,
      "▁las": 5257,
      "▁.......": 5258,
      "▁milwaukee": 5259,
      "▁atmosphere": 5260,
      "▁rem": 5261,
      "##ught": 5262,
      "▁marriage": 5263,
      "▁michael": 5264,
      "##ud": 5265,
      "▁-": 5266,
      "φ": 5267,
      "▁eth": 5268,
      "▁container": 5269,
      "▁completed": 5270,
      "##outh": 5271,
      "##:28": 5272,
      "▁owner": 5273,
      "▁paral": 5274,
      "▁africa": 5275,
      "##ate": 5276,
      "▁2.5": 5277,
      "±": 5278,
      "▁'71": 5279,
      "▁!!!!!!!!!!!": 5280,
      "▁chairs": 5281,
      "##sych": 5282,
      "##ies": 5283,
      "▁trail": 5284,
      "##a": 5285,
      "▁participants": 5286,
      "##aviatio": 5287,
      "▁collabor": 5288,
      "▁lic": 5289,
      "▁apple": 5290,
      "▁whole": 5291,
      "▁boat": 5292,
      "▁lopez": 5293,
      "##004": 5294,
      "▁giving": 5295,
      "##aim": 5296,
      "▁beatles": 5297,
      "▁upstairs": 5298,
      "▁1949": 5299,
      "▁united": 5300,
      "##house": 5301,
      "▁!.": 5302,
      "▁leading": 5303,
      "▁gold": 5304,
      "▁notwith": 5305,
      "▁alliance": 5306,
      "▁weight": 5307,
      "##ol": 5308,
      "▁lucky": 5309,
      "▁hour": 5310,
      "▁4:00": 5311,
      "▁address": 5312,
      "▁closed": 5313,
      "##ig": 5314,
      "▁union": 5315,
      "##come": 5316,
      "▁floor": 5317,
      "[CLS]": 5318,
      "##osite": 5319,
      "##wor": 5320,
      "##leep": 5321,
      "’": 5322,
      "▁wash": 5323,
      "▁pretty": 5324,
      "##nov": 5325,
      "▁policies": 5326,
      "▁letter": 5327,
      "##o": 5328,
      "▁valid": 5329,
      "##,000,000": 5330,
      "##esday": 5331,
      "▁tear": 5332,
      "▁exec": 5333,
      "▁reading": 5334,
      "##ot": 5335,
      "▁existing": 5336,
      "▁procedure": 5337,
      "▁2.9": 5338,
      "▁mu": 5339,
      "▁@": 5340,
      "##app": 5341,
      "##face": 5342,
      "▁placed": 5343,
      "##iation": 5344,
      "##ward": 5345,
      "▁amount": 5346,
      "▁ice": 5347,
      "##eal": 5348,
      "##ham": 5349,
      "##/9": 5350,
      "▁toge": 5351,
      "▁loss": 5352,
      "▁wave": 5353,
      "▁hal": 5354,
      "▁german": 5355,
      "▁systems": 5356,
      "##ford": 5357,
      "▁canc": 5358,
      "▁requested": 5359,
      "▁agency": 5360,
      "▁demonstr": 5361,
      "▁01810": 5362,
      "▁solid": 5363,
      "▁epis": 5364,
      "##ها": 5365,
      "▁es": 5366,
      "▁70": 5367,
      "▁egyptian": 5368,
      "▁-ect-kedne": 5369,
      "▁uv": 5370,
      "▁stop": 5371,
      "▁'ll": 5372,
      "子": 5373,
      "##wards": 5374,
      "▁11-20-": 5375,
      "##mer": 5376,
      "▁230": 5377,
      "1": 5378,
      "▁apartment": 5379,
      "##ube": 5380,
      "▁metro": 5381,
      "##9999": 5382,
      "▁<": 5383,
      "▁jobs": 5384,
      "▁tiger": 5385,
      "##inner": 5386,
      "▁counter": 5387,
      "▁ec": 5388,
      "▁onto": 5389,
      "▁unit": 5390,
      "▁elevator": 5391,
      "##used": 5392,
      "▁pron": 5393,
      "▁03:48": 5394,
      "##oam": 5395,
      "##œ": 5396,
      "##ique": 5397,
      "##eet": 5398,
      "▁wast": 5399,
      "▁345-3436": 5400,
      "▁2007": 5401,
      "##anch": 5402,
      "▁rock": 5403,
      "▁earned": 5404,
      "▁usd": 5405,
      "▁job": 5406,
      "▁bra": 5407,
      "##---------------": 5408,
      "▁deriv": 5409,
      "▁carro": 5410,
      "▁unh": 5411,
      "##oured": 5412,
      "##si": 5413,
      "▁sector": 5414,
      "▁counterparty": 5415,
      "▁parliament": 5416,
      "▁zero": 5417,
      "▁costs": 5418,
      "▁yeah": 5419,
      "▁light": 5420,
      "##4014": 5421,
      "▁char": 5422,
      "##sl": 5423,
      "▁any": 5424,
      "▁status": 5425,
      "▁comput": 5426,
      "##-20-": 5427,
      "▁clock": 5428,
      "##icing": 5429,
      "▁boom": 5430,
      "▁released": 5431,
      "▁veg": 5432,
      "▁whom": 5433,
      "▁wi": 5434,
      "▁713": 5435,
      "▁soon": 5436,
      "##.713.86": 5437,
      "▁certainly": 5438,
      "##----------------": 5439,
      "▁confidential": 5440,
      "▁apar": 5441,
      "▁ninety-nine": 5442,
      "▁andaman": 5443,
      "▁agents": 5444,
      "##mission": 5445,
      "▁we": 5446,
      "▁progr": 5447,
      "##entially": 5448,
      "▁twent": 5449,
      "##ves": 5450,
      "▁foods": 5451,
      "##rr": 5452,
      "▁hamm": 5453,
      "##pping": 5454,
      "▁********************************": 5455,
      "▁growing": 5456,
      "##usal": 5457,
      "▁church": 5458,
      "▁soph": 5459,
      "▁08:30": 5460,
      "▁repeated": 5461,
      "▁gray": 5462,
      "▁particular": 5463,
      "▁satan": 5464,
      "##-p": 5465,
      "▁worms": 5466,
      "▁article": 5467,
      "▁lines": 5468,
      "▁our": 5469,
      "##opment": 5470,
      "##ases": 5471,
      "▁pictures": 5472,
      "▁shops": 5473,
      "##ros": 5474,
      "▁hold": 5475,
      "##/25/2001": 5476,
      "##gami": 5477,
      "##pre": 5478,
      "▁mov": 5479,
      "▁reasonable": 5480,
      "▁newspaper": 5481,
      "▁vot": 5482,
      "▁shown": 5483,
      "##/2005": 5484,
      "▁sty": 5485,
      "##etic": 5486,
      "▁el": 5487,
      "▁cycle": 5488,
      "▁01:09": 5489,
      "##md": 5490,
      "▁celebr": 5491,
      "▁revolution": 5492,
      "▁speak": 5493,
      "▁54,000": 5494,
      "▁petersburg": 5495,
      "▁who": 5496,
      "▁accom": 5497,
      "▁break": 5498,
      "▁32": 5499,
      "##ining": 5500,
      "##pri": 5501,
      "ن": 5502,
      "▁election": 5503,
      "##erg": 5504,
      "##ling": 5505,
      "▁thick": 5506,
      "▁wro": 5507,
      "▁pants": 5508,
      "▁normal": 5509,
      "▁p.s.": 5510,
      "▁order": 5511,
      "##65": 5512,
      "▁burbank": 5513,
      "▁''": 5514,
      "▁#": 5515,
      "▁who's": 5516,
      "▁substant": 5517,
      "##-10": 5518,
      "▁find": 5519,
      "▁345-9945": 5520,
      "▁funny": 5521,
      "▁necessary": 5522,
      "##life": 5523,
      "▁discussed": 5524,
      "▁talking": 5525,
      "▁20": 5526,
      "##æ": 5527,
      "▁care": 5528,
      "▁11/29/2000": 5529,
      "▁1990": 5530,
      "▁ful": 5531,
      "▁time": 5532,
      "▁hoo": 5533,
      "▁814.86": 5534,
      "##ta": 5535,
      "##sey": 5536,
      "▁danny": 5537,
      "##津": 5538,
      "▁ireland": 5539,
      "##ients": 5540,
      "▁babies": 5541,
      "##orus": 5542,
      "##iz": 5543,
      "▁disappoint": 5544,
      "##raph": 5545,
      "##łodz": 5546,
      "▁harmon": 5547,
      "▁1000": 5548,
      "▁center": 5549,
      "##isation": 5550,
      "▁brother": 5551,
      "▁lie": 5552,
      "▁anthrax": 5553,
      "##__": 5554,
      "##.25": 5555,
      "▁cast": 5556,
      "▁410": 5557,
      "▁attended": 5558,
      "##:16": 5559,
      "##ql": 5560,
      "##ings": 5561,
      "▁poet": 5562,
      "▁639": 5563,
      "▁writer": 5564,
      "▁tickle": 5565,
      "▁1914": 5566,
      "▁josh": 5567,
      "▁american": 5568,
      "##ction": 5569,
      "▁earlier": 5570,
      "##log": 5571,
      "▁compon": 5572,
      "##com": 5573,
      "▁male": 5574,
      "▁crazy": 5575,
      "▁hell": 5576,
      "▁opin": 5577,
      "##id": 5578,
      "▁issue": 5579,
      "▁purp": 5580,
      "▁kore": 5581,
      "▁arrived": 5582,
      "##ste": 5583,
      "##________________________________": 5584,
      "▁carried": 5585,
      "▁dans": 5586,
      "▁ghost": 5587,
      "▁rol": 5588,
      "▁legal": 5589,
      "▁tu": 5590,
      "▁review": 5591,
      "▁point": 5592,
      "▁notwithstanding": 5593,
      "##ecca": 5594,
      "▁510": 5595,
      "▁kitty": 5596,
      "▁milit": 5597,
      "##ake": 5598,
      "▁stretch": 5599,
      "##ously": 5600,
      "▁slow": 5601,
      "##son": 5602,
      "d": 5603,
      "▁children": 5604,
      "▁hill": 5605,
      "▁1831": 5606,
      "▁sport": 5607,
      "##wn": 5608,
      "##zai": 5609,
      "▁mine": 5610,
      "▁713-853-3098": 5611,
      "▁sort": 5612,
      "##eech": 5613,
      "▁15": 5614,
      "▁ow": 5615,
      "▁improvement": 5616,
      "##ike": 5617,
      "##ckleton@ect": 5618,
      "##ronic": 5619,
      "▁experts": 5620,
      "▁meet": 5621,
      "▁clothing": 5622,
      "▁visited": 5623,
      "▁features": 5624,
      "##łod": 5625,
      "▁1976": 5626,
      "##aska": 5627,
      "▁christ": 5628,
      "▁obv": 5629,
      "▁familiar": 5630,
      "##ards": 5631,
      "▁surprising": 5632,
      "▁95": 5633,
      "##akistan": 5634,
      "▁rate": 5635,
      "▁'re": 5636,
      "##:14": 5637,
      "▁11/2": 5638,
      "##ute": 5639,
      "▁stopped": 5640,
      "▁01:39:56": 5641,
      "^": 5642,
      "##ges": 5643,
      "##sa": 5644,
      "▁4:30": 5645,
      "▁design": 5646,
      "##uction": 5647,
      "▁dig": 5648,
      "\"": 5649,
      "##gue": 5650,
      "▁scient": 5651,
      "▁variety": 5652,
      "▁circum": 5653,
      "▁classes": 5654,
      "▁cor": 5655,
      "▁1564": 5656,
      "▁entitled": 5657,
      "▁hou": 5658,
      "##imp": 5659,
      "▁cold": 5660,
      "▁plans": 5661,
      "▁s/he": 5662,
      "▁views": 5663,
      "▁trans": 5664,
      "##tra": 5665,
      "▁11/0": 5666,
      "▁korea": 5667,
      "▁implement": 5668,
      "##α": 5669,
      "▁tampa": 5670,
      "▁typ": 5671,
      "▁material": 5672,
      "▁nice": 5673,
      "##une": 5674,
      "▁affected": 5675,
      "▁author": 5676,
      "▁1:30": 5677,
      "##apes": 5678,
      "##77": 5679,
      "▁master": 5680,
      "▁respond": 5681,
      "▁star": 5682,
      "`": 5683,
      "▁baby": 5684,
      "▁booked": 5685,
      "▁fly": 5686,
      "▁mag": 5687,
      "▁160": 5688,
      "##arant": 5689,
      "##/11": 5690,
      "▁likely": 5691,
      "▁minister": 5692,
      "##100": 5693,
      "▁spirit": 5694,
      "▁list": 5695,
      "▁valle": 5696,
      "“": 5697,
      "##acy": 5698,
      "▁repair": 5699,
      "▁portion": 5700,
      "▁76": 5701,
      "▁anyway": 5702,
      "▁fellow": 5703,
      "▁defined": 5704,
      "##@enron_de": 5705,
      "▁08:00": 5706,
      "▁coming": 5707,
      "▁district": 5708,
      "▁tank": 5709,
      "▁33,000": 5710,
      "##ially": 5711,
      "##ا": 5712,
      "▁learning": 5713,
      "##ries": 5714,
      "##?": 5715,
      "▁loan": 5716,
      "##ilities": 5717,
      "##oh": 5718,
      "▁281-443-3": 5719,
      "▁567.77": 5720,
      "▁produced": 5721,
      "▁theat": 5722,
      "▁1868": 5723,
      "##ra": 5724,
      "▁gard": 5725,
      "##ett": 5726,
      "##ope": 5727,
      "##ality": 5728,
      "▁58": 5729,
      "##eared": 5730,
      "▁phil": 5731,
      "▁dinner": 5732,
      "##ids": 5733,
      "▁refr": 5734,
      "▁truck": 5735,
      "▁stead": 5736,
      "▁after": 5737,
      "▁rac": 5738,
      "▁perhaps": 5739,
      "▁remind": 5740,
      "##ask": 5741,
      "▁frequently": 5742,
      "##mony": 5743,
      "▁around": 5744,
      "▁e-mail": 5745,
      "##53-3": 5746,
      "▁sending": 5747,
      "▁more": 5748,
      "▁experim": 5749,
      "▁yout": 5750,
      "▁sev": 5751,
      "##rif": 5752,
      "▁bottom": 5753,
      "▁nothing": 5754,
      "▁signific": 5755,
      "▁noticed": 5756,
      "▁carrying": 5757,
      "▁overall": 5758,
      "▁hes": 5759,
      "▁introduced": 5760,
      "▁tralee": 5761,
      "▁pro": 5762,
      "##ding": 5763,
      "▁4.0": 5764,
      "##wik": 5765,
      "▁germany": 5766,
      "##6021": 5767,
      "▁scre": 5768,
      "##fare": 5769,
      "▁increase": 5770,
      "▁3/9": 5771,
      "▁mot": 5772,
      "▁cities": 5773,
      "▁exp": 5774,
      "##lear": 5775,
      "▁xsl": 5776,
      "##anda": 5777,
      "▁notes": 5778,
      "▁shark": 5779,
      "##=": 5780,
      "##rated": 5781,
      "▁square": 5782,
      "##:5": 5783,
      "##eight": 5784,
      "▁explor": 5785,
      "##ulate": 5786,
      "▁20.doc": 5787,
      "▁cl": 5788,
      "##eed": 5789,
      "▁91": 5790,
      "##wh": 5791,
      "▁unt": 5792,
      "▁la": 5793,
      "##dom": 5794,
      "▁worth": 5795,
      "▁manufact": 5796,
      "▁take": 5797,
      "▁double": 5798,
      "##ins": 5799,
      "##rou": 5800,
      "▁separ": 5801,
      "▁łodz": 5802,
      "▁wol": 5803,
      "▁24,000": 5804,
      "▁involve": 5805,
      "##iking": 5806,
      "▁french": 5807,
      "##yal": 5808,
      "##98": 5809,
      "##\"": 5810,
      "▁apparent": 5811,
      "▁5.6": 5812,
      "##/01/2001": 5813,
      "▁09:14": 5814,
      "▁lies": 5815,
      "##/10/2004": 5816,
      "##uck": 5817,
      "##anie": 5818,
      "β": 5819,
      "▁03/08/2000": 5820,
      "▁much": 5821,
      "▁next": 5822,
      "▁crop": 5823,
      "▁late": 5824,
      "##70": 5825,
      "▁studied": 5826,
      "▁1832": 5827,
      "▁727": 5828,
      "▁senator": 5829,
      "##da": 5830,
      "▁capac": 5831,
      "▁03/09/2000": 5832,
      "▁mixed": 5833,
      "▁settle": 5834,
      "▁dinosaur": 5835,
      "▁astr": 5836,
      "▁smile": 5837,
      "##cent": 5838,
      "▁---------------------------------------------------------------------": 5839,
      "▁entit": 5840,
      "▁silver": 5841,
      "##<": 5842,
      "##81": 5843,
      "##uss": 5844,
      "▁int": 5845,
      "##-------": 5846,
      "▁wolves": 5847,
      "##eit": 5848,
      "##58": 5849,
      "▁tourists": 5850,
      "##18": 5851,
      "▁mayor": 5852,
      "▁gr": 5853,
      "##sid": 5854,
      "▁public": 5855,
      "▁prepar": 5856,
      "▁expert": 5857,
      "▁evolution": 5858,
      "▁car": 5859,
      "▁odd": 5860,
      "▁social": 5861,
      "##ever": 5862,
      "▁island": 5863,
      "##omen": 5864,
      "▁-2-": 5865,
      "▁restaurants": 5866,
      "##of": 5867,
      "▁shows": 5868,
      "▁picture": 5869,
      "▁doub": 5870,
      "!": 5871,
      "u": 5872,
      "▁suggest": 5873,
      "▁bat": 5874,
      "▁rapid": 5875,
      "▁god": 5876,
      "s": 5877,
      "▁such": 5878,
      "▁unc": 5879,
      "▁4.6": 5880,
      "▁di": 5881,
      "##usions": 5882,
      "▁size": 5883,
      "▁emph": 5884,
      "▁coun": 5885,
      "▁maj": 5886,
      "##atically": 5887,
      "##…": 5888,
      "▁cour": 5889,
      "▁english": 5890,
      "##craft": 5891,
      "##9.3": 5892,
      "▁intellect": 5893,
      "▁processes": 5894,
      "##.g": 5895,
      "▁05908549": 5896,
      "▁1-800-991-9019": 5897,
      "##gh": 5898,
      "▁james": 5899,
      "▁bound": 5900,
      "▁walked": 5901,
      "▁wou": 5902,
      "▁surv": 5903,
      "▁01/1": 5904,
      "▁clearly": 5905,
      "▁inst": 5906,
      "▁illusions": 5907,
      "##ents": 5908,
      "▁arr": 5909,
      "▁dyn": 5910,
      "##3c": 5911,
      "##stop": 5912,
      "##ibald": 5913,
      "▁shorts": 5914,
      "▁entirely": 5915,
      "▁1896": 5916,
      "▁dat": 5917,
      "▁vast": 5918,
      "##astic": 5919,
      "▁magaz": 5920,
      "##.9": 5921,
      "▁home": 5922,
      "▁protect": 5923,
      "##acts": 5924,
      "▁their": 5925,
      "▁limit": 5926,
      "▁afgh": 5927,
      "##two": 5928,
      "▁-stip": 5929,
      "'": 5930,
      "▁plac": 5931,
      "▁doors": 5932,
      "▁947": 5933,
      "##72": 5934,
      "▁08/15": 5935,
      "▁412": 5936,
      "▁crimin": 5937,
      "▁713-853": 5938,
      "##-7": 5939,
      "▁choo": 5940,
      "▁shot": 5941,
      "##hin": 5942,
      "▁pres": 5943,
      "##)": 5944,
      "##/26/2001": 5945,
      "▁stomach": 5946,
      "z": 5947,
      "▁vs.": 5948,
      "▁then": 5949,
      "▁model": 5950,
      "▁dec": 5951,
      "##end": 5952,
      "##icult": 5953,
      "▁mech": 5954,
      "▁trillion": 5955,
      "▁structure": 5956,
      "▁task": 5957,
      "▁“": 5958,
      "▁uhhuh": 5959,
      "▁colleag": 5960,
      "▁leon": 5961,
      "▁spread": 5962,
      "##round": 5963,
      "##,5": 5964,
      "##bre": 5965,
      "▁2001": 5966,
      "▁1.75": 5967,
      "##____": 5968,
      "##ley": 5969,
      "##3736": 5970,
      "##ulation": 5971,
      "##encies": 5972,
      "▁household": 5973,
      "▁gent": 5974,
      "▁purchase": 5975,
      "##ʻ": 5976,
      "▁files": 5977,
      "##rit": 5978,
      "##not": 5979,
      "▁forces": 5980,
      "▁low": 5981,
      "▁759933": 5982,
      "▁fav": 5983,
      "▁cub": 5984,
      "▁glass": 5985,
      "▁password": 5986,
      "▁upper": 5987,
      "▁assum": 5988,
      "▁rev": 5989,
      "##mica": 5990,
      "##ental": 5991,
      "##emic": 5992,
      "▁insur": 5993,
      "▁attacks": 5994,
      "▁nor": 5995,
      "▁made": 5996,
      "▁budget": 5997,
      "▁moon": 5998,
      "▁things": 5999,
      "##414": 6000,
      "▁tax": 6001,
      "##reg": 6002,
      "▁thru": 6003,
      "##6-8": 6004,
      "▁sy": 6005,
      "##erved": 6006,
      "▁poo": 6007,
      "##friend": 6008,
      "▁consider": 6009,
      "▁stars": 6010,
      "▁969": 6011,
      "和": 6012,
      "▁orange": 6013,
      "▁con": 6014,
      "##os": 6015,
      "##hol": 6016,
      "▁thursday": 6017,
      "▁1/4": 6018,
      "▁encab": 6019,
      "▁application": 6020,
      "▁sales": 6021,
      "▁rid": 6022,
      "▁paying": 6023,
      "▁situ": 6024,
      "▁713/8": 6025,
      "##ano": 6026,
      "##5/2001": 6027,
      "##rist": 6028,
      "##99": 6029,
      "##55": 6030,
      "##ument": 6031,
      "##ih": 6032,
      "▁naima": 6033,
      "▁switch": 6034,
      "##vin": 6035,
      "▁voice": 6036,
      "##==": 6037,
      "▁,?": 6038,
      "▁spok": 6039,
      "▁closely": 6040,
      "▁warhol": 6041,
      "##ises": 6042,
      "▁authorities": 6043,
      "▁dangerous": 6044,
      "▁ca": 6045,
      "▁which": 6046,
      "##av": 6047,
      "▁disapp": 6048,
      "##ators": 6049,
      "▁oneself": 6050,
      "▁79": 6051,
      "▁713-79": 6052,
      "▁dh": 6053,
      "##rop": 6054,
      "▁bu": 6055,
      "▁offices": 6056,
      "▁kay": 6057,
      "##,9": 6058,
      "▁humans": 6059,
      "##stein": 6060,
      "▁ide": 6061,
      "▁afghan": 6062,
      "▁hos": 6063,
      "▁causes": 6064,
      "▁li": 6065,
      "▁dish": 6066,
      "▁awesome": 6067,
      "##518": 6068,
      "##ron": 6069,
      "##esc": 6070,
      "▁wee": 6071,
      "▁spray": 6072,
      "##/00": 6073,
      "—": 6074,
      "▁arrow": 6075,
      "▁foot": 6076,
      "▁twel": 6077,
      "##/26/2000": 6078,
      "▁brush": 6079,
      "▁185": 6080,
      "##iques": 6081,
      "▁insurance": 6082,
      "##ned": 6083,
      "▁kev": 6084,
      "▁resc": 6085,
      "º": 6086,
      "##___________": 6087,
      "▁se": 6088,
      "▁micro": 6089,
      "▁]": 6090,
      "##-27": 6091,
      "▁newsp": 6092,
      "▁want": 6093,
      "▁2": 6094,
      "▁partners": 6095,
      "▁evol": 6096,
      "▁jews": 6097,
      "▁425-415-": 6098,
      "##iny": 6099,
      "▁black": 6100,
      "##ea": 6101,
      "▁coo": 6102,
      "a": 6103,
      "▁happens": 6104,
      "▁+44": 6105,
      "##ming": 6106,
      "##atures": 6107,
      "##iration": 6108,
      "▁orient": 6109,
      "▁saving": 6110,
      "▁whoever": 6111,
      "▁20:00": 6112,
      "▁athens": 6113,
      "▁affair": 6114,
      "▁hom": 6115,
      "▁respons": 6116,
      "▁chann": 6117,
      "ف": 6118,
      "▁hamster": 6119,
      "##ising": 6120,
      "▁713/853": 6121,
      "##33": 6122,
      "▁od": 6123,
      "▁colors": 6124,
      "##amm": 6125,
      "▁talked": 6126,
      "▁seventeen": 6127,
      "▁hm": 6128,
      "##,6": 6129,
      "##glo": 6130,
      "##mdrft": 6131,
      "▁menu": 6132,
      "##$": 6133,
      "▁137": 6134,
      "▁dozen": 6135,
      "▁rail": 6136,
      "▁appropri": 6137,
      "▁floating": 6138,
      "▁hours": 6139,
      "▁confident": 6140,
      "##nel": 6141,
      "▁little": 6142,
      "##orton": 6143,
      "##ment": 6144,
      "##out": 6145,
      "▁finally": 6146,
      "▁295870": 6147,
      "▁pack": 6148,
      "▁748": 6149,
      "▁occurred": 6150,
      "##·": 6151,
      "▁sho": 6152,
      "##ke": 6153,
      "▁wealth": 6154,
      "▁1115": 6155,
      "▁04:03": 6156,
      "▁descri": 6157,
      "▁elements": 6158,
      "##lebr": 6159,
      "▁lab": 6160,
      "▁paid": 6161,
      "##ai": 6162,
      "▁parties": 6163,
      "▁yea": 6164,
      "▁bush": 6165,
      "##09": 6166,
      "▁score": 6167,
      "▁highlight": 6168,
      "##ew": 6169,
      "▁rang": 6170,
      "▁1970": 6171,
      "▁cont": 6172,
      "▁classical": 6173,
      "▁ring": 6174,
      "▁squ": 6175,
      "▁orlando": 6176,
      "##illed": 6177,
      "##ont": 6178,
      "▁4-12": 6179,
      "▁ber": 6180,
      "▁373": 6181,
      "##te": 6182,
      "##action": 6183,
      "▁bal": 6184,
      "▁9221": 6185,
      "##.s": 6186,
      "##wau": 6187,
      "▁generally": 6188,
      "##th": 6189,
      "▁evidence": 6190,
      "##ock": 6191,
      "▁spend": 6192,
      "##:44": 6193,
      "▁jihad": 6194,
      "##39": 6195,
      "▁*": 6196,
      "▁11/10/2000": 6197,
      "▁viol": 6198,
      "▁268": 6199,
      "##uals": 6200,
      "##istics": 6201,
      "##be": 6202,
      "▁advant": 6203,
      "▁tim": 6204,
      "▁eventually": 6205,
      "▁.doc": 6206,
      "##no": 6207,
      "▁southern": 6208,
      "▁sta": 6209,
      "##itation": 6210,
      "##ause": 6211,
      "▁somet": 6212,
      "▁guy": 6213,
      "##aiss": 6214,
      "##721": 6215,
      "▁appears": 6216,
      "##cell": 6217,
      "▁extra": 6218,
      "##actions": 6219,
      "##stand": 6220,
      "▁salad": 6221,
      "▁images": 6222,
      "▁chick": 6223,
      "▁defe": 6224,
      "▁reported": 6225,
      "##ered": 6226,
      "▁mrs": 6227,
      "▁snake": 6228,
      "##eapolis": 6229,
      "▁alternative": 6230,
      "##ody": 6231,
      "▁416-865-3": 6232,
      "▁belg": 6233,
      "▁wor": 6234,
      "▁comfort": 6235,
      "▁simply": 6236,
      "▁lunch": 6237,
      "▁each": 6238,
      "▁true": 6239,
      "▁beautiful": 6240,
      "▁5.5": 6241,
      "▁spec": 6242,
      "▁translation": 6243,
      "##ital": 6244,
      "##128": 6245,
      "▁raise": 6246,
      "▁khin": 6247,
      "▁novel": 6248,
      "▁ants": 6249,
      "##76": 6250,
      "m": 6251,
      "▁01/12/2001": 6252,
      "▁throw": 6253,
      "▁months": 6254,
      "▁professor": 6255,
      "▁v.": 6256,
      "▁weasley": 6257,
      "▁nat": 6258,
      "▁1291": 6259,
      "▁cry": 6260,
      "▁2.975": 6261,
      "##iv": 6262,
      "##ove": 6263,
      "▁suff": 6264,
      "##ead": 6265,
      "▁ago": 6266,
      ":": 6267,
      "##ses": 6268,
      "▁dkk": 6269,
      "▁relig": 6270,
      "##hia": 6271,
      "##78": 6272,
      "▁departing": 6273,
      "▁h-0": 6274,
      "▁eleph": 6275,
      "▁scientology": 6276,
      "▁understand": 6277,
      "##ology": 6278,
      "▁effects": 6279,
      "▁expectations": 6280,
      "}": 6281,
      "▁assemb": 6282,
      "##red": 6283,
      "▁1691": 6284,
      "▁spot": 6285,
      "▁obviously": 6286,
      "▁benef": 6287,
      "##ran": 6288,
      "▁breath": 6289,
      "▁reports": 6290,
      "##’t": 6291,
      "▁shelf": 6292,
      "▁moved": 6293,
      "▁previous": 6294,
      "▁sitting": 6295,
      "##ule": 6296,
      "##ded": 6297,
      "▁architect": 6298,
      "▁ment": 6299,
      "▁72,000": 6300,
      "▁studies": 6301,
      "▁07:24": 6302,
      "▁stre": 6303,
      "▁cycl": 6304,
      "▁doo": 6305,
      "▁contemporary": 6306,
      "▁govern": 6307,
      "▁psych": 6308,
      "##ills": 6309,
      "▁liter": 6310,
      "##c)": 6311,
      "▁subsc": 6312,
      "▁5": 6313,
      "##ied": 6314,
      "##++": 6315,
      "▁now": 6316,
      "▁surger": 6317,
      "▁excited": 6318,
      "▁1039": 6319,
      "▁181": 6320,
      "▁05/03/2001": 6321,
      "##antly": 6322,
      "##unt": 6323,
      "##eck": 6324,
      "▁12/2": 6325,
      "▁ma": 6326,
      "▁instructions": 6327,
      "▁air": 6328,
      "▁bear": 6329,
      "##ative": 6330,
      "▁'em": 6331,
      "▁pot": 6332,
      "▁jim": 6333,
      "▁december": 6334,
      "▁refer": 6335,
      "▁sold": 6336,
      "▁10:56": 6337,
      "▁seven": 6338,
      "▁object": 6339,
      "▁cath": 6340,
      "▁p": 6341,
      "▁’ll": 6342,
      "▁occas": 6343,
      "##irts": 6344,
      "▁won": 6345,
      "▁swimming": 6346,
      "▁sens": 6347,
      "▁twa": 6348,
      "##ata": 6349,
      "▁columb": 6350,
      "▁vog": 6351,
      "▁apr": 6352,
      "▁grew": 6353,
      "▁or": 6354,
      "▁mus": 6355,
      "##&": 6356,
      "##/03": 6357,
      "##enron": 6358,
      "▁11/28/2000": 6359,
      "▁israel": 6360,
      "▁growth": 6361,
      "▁8043": 6362,
      "▁tort": 6363,
      "▁cognitive": 6364,
      "▁working": 6365,
      "##eton@ect": 6366,
      "▁mut": 6367,
      "▁this": 6368,
      "##42": 6369,
      "##we": 6370,
      "▁reb": 6371,
      "▁resources": 6372,
      "##anger": 6373,
      "▁litt": 6374,
      "▁tough": 6375,
      "▁pivottable": 6376,
      "▁195": 6377,
      "▁200,000": 6378,
      "▁meant": 6379,
      "▁eng": 6380,
      "▁fingers": 6381,
      "▁norton": 6382,
      "▁unable": 6383,
      "▁ass": 6384,
      "##ked": 6385,
      "▁fully": 6386,
      "▁manage": 6387,
      "##rep": 6388,
      "▁10/23/2000": 6389,
      "▁geor": 6390,
      "##/2001": 6391,
      "##eo": 6392,
      "##...@": 6393,
      "▁early": 6394,
      "##iders": 6395,
      "▁moh": 6396,
      "▁assess": 6397,
      "▁everybody": 6398,
      "▁neck": 6399,
      "▁104": 6400,
      "▁gul": 6401,
      "▁friends": 6402,
      "##yn": 6403,
      "##ories": 6404,
      "▁ann": 6405,
      "##west": 6406,
      "▁durs": 6407,
      "▁f": 6408,
      "##ures": 6409,
      "▁easily": 6410,
      "##m": 6411,
      "##ael": 6412,
      "▁bla": 6413,
      "▁ingred": 6414,
      "▁twenty-six": 6415,
      "##65-3": 6416,
      "##jo": 6417,
      "▁:": 6418,
      "▁pos": 6419,
      "▁expensive": 6420,
      "▁write": 6421,
      "▁2100": 6422,
      "##,000,000,000": 6423,
      "▁requ": 6424,
      "▁microphone": 6425,
      "▁congr": 6426,
      "▁syn": 6427,
      "▁compan": 6428,
      "▁comp": 6429,
      "▁river": 6430,
      "##.8": 6431,
      "▁dele": 6432,
      "×": 6433,
      "##ests": 6434,
      "▁contract": 6435,
      "##ions": 6436,
      "▁1822": 6437,
      "▁vis": 6438,
      "##ary": 6439,
      "▁frame": 6440,
      "▁termin": 6441,
      "##.30": 6442,
      "▁peter": 6443,
      "▁cash": 6444,
      "##road": 6445,
      "##esth": 6446,
      "▁incom": 6447,
      "▁goes": 6448,
      "▁win": 6449,
      "▁bever": 6450,
      "▁narr": 6451,
      "▁serv": 6452,
      "▁wr": 6453,
      "##ized": 6454,
      "▁alcal": 6455,
      "▁attempt": 6456,
      "▁1962": 6457,
      "##eng": 6458,
      "##ief": 6459,
      "▁strike": 6460,
      "▁til": 6461,
      "▁12/26/2000": 6462,
      "▁produce": 6463,
      "▁nmemdrft": 6464,
      "▁ya": 6465,
      "▁me": 6466,
      "▁president": 6467,
      "##2-0": 6468,
      "##idge": 6469,
      "▁sever": 6470,
      "##oon": 6471,
      "▁shar": 6472,
      "▁disc": 6473,
      "▁12:30": 6474,
      "##alk": 6475,
      "##leys": 6476,
      "▁connecting": 6477,
      "▁creative": 6478,
      "##40": 6479,
      "▁stream": 6480,
      "▁listening": 6481,
      "##cion": 6482,
      "▁ey": 6483,
      "##ublic": 6484,
      "▁1575": 6485,
      "▁000010": 6486,
      "▁started": 6487,
      "▁125": 6488,
      "▁physical": 6489,
      "▁sometime": 6490,
      "▁you": 6491,
      "▁explan": 6492,
      "##aced": 6493,
      "▁2,300": 6494,
      "▁equ": 6495,
      "▁shit": 6496,
      "▁scary": 6497,
      "##bal": 6498,
      "▁hurt": 6499,
      "▁cars": 6500,
      "▁both": 6501,
      "▁af": 6502,
      "▁wearing": 6503,
      "##acter": 6504,
      "##four": 6505,
      "##ey": 6506,
      "▁due": 6507,
      "▁substantial": 6508,
      "▁welcome": 6509,
      "▁!?": 6510,
      "~": 6511,
      "▁excuse": 6512,
      "▁protest": 6513,
      "▁03/15/2001": 6514,
      "##½": 6515,
      "▁eighteen": 6516,
      "##ap": 6517,
      "##dd": 6518,
      "▁valley": 6519,
      "▁character": 6520,
      "▁street": 6521,
      "##iving": 6522,
      "##ason": 6523,
      "▁mh": 6524,
      "▁charlotte": 6525,
      "▁vod": 6526,
      "▁_": 6527,
      "▁sight": 6528,
      "##inn": 6529,
      "▁delivered": 6530,
      "▁respect": 6531,
      "▁my": 6532,
      "▁ph": 6533,
      "▁subject": 6534,
      "▁when": 6535,
      "▁08/17/2000": 6536,
      "▁christmas": 6537,
      "▁1995": 6538,
      "▁soft": 6539,
      "▁1145": 6540,
      "##iding": 6541,
      "▁extended": 6542,
      "▁cha": 6543,
      "▁1100": 6544,
      "▁dram": 6545,
      "▁96": 6546,
      "##ently": 6547,
      "▁ash": 6548,
      "▁prime": 6549,
      "▁deals": 6550,
      "▁normally": 6551,
      "▁sources": 6552,
      "f": 6553,
      "▁energy": 6554,
      "##029": 6555,
      "▁lake": 6556,
      "▁3,000": 6557,
      "▁interact": 6558,
      "▁10:25": 6559,
      "##8": 6560,
      "▁cod": 6561,
      "▁circle": 6562,
      "▁!!!!!!": 6563,
      "▁mexic": 6564,
      "##rin": 6565,
      "##clud": 6566,
      "▁pieces": 6567,
      "▁crit": 6568,
      "▁friend": 6569,
      "▁swe": 6570,
      "▁fe": 6571,
      "▁energ": 6572,
      "▁cruc": 6573,
      "▁eighth": 6574,
      "▁chemical": 6575,
      "▁68": 6576,
      "▁mur": 6577,
      "##ific": 6578,
      "▁website": 6579,
      "▁shell": 6580,
      "▁fr": 6581,
      "##ancy": 6582,
      "▁driver": 6583,
      "##ension": 6584,
      "▁82": 6585,
      "▁wan": 6586,
      "▁0": 6587,
      "▁.": 6588,
      "▁lick": 6589,
      "##dies": 6590,
      "▁detail": 6591,
      "##82": 6592,
      "▁poetry": 6593,
      "▁hosp": 6594,
      "▁anoder": 6595,
      "▁08/0": 6596,
      "##anced": 6597,
      "▁uncle": 6598,
      "▁still": 6599,
      "▁410-468-3": 6600,
      "▁green": 6601,
      "▁u.s.": 6602,
      "▁migr": 6603,
      "##east": 6604,
      "##ble": 6605,
      "t": 6606,
      "##hip": 6607,
      "▁student": 6608,
      "▁individuals": 6609,
      "▁below": 6610,
      "£": 6611,
      "##03": 6612,
      "▁suggested": 6613,
      "ɑ": 6614,
      "▁collected": 6615,
      "▁202.456.1": 6616,
      "▁award": 6617,
      "[MASK]": 6618,
      "##-343": 6619,
      "σ": 6620,
      "▁safety": 6621,
      "▁legislative": 6622,
      "##:55": 6623,
      "▁constitution": 6624,
      "##-59": 6625,
      "▁iii": 6626,
      "##amental": 6627,
      "##+": 6628,
      "▁tuesday": 6629,
      "▁reform": 6630,
      "▁tul": 6631,
      "▁alright": 6632,
      "##estic": 6633,
      "##3-": 6634,
      "##5": 6635,
      "##igu": 6636,
      "##rial": 6637,
      "▁authority": 6638,
      "▁us": 6639,
      "▁column": 6640,
      "▁bridge": 6641,
      "▁somewhat": 6642,
      "▁hot": 6643,
      "%": 6644,
      "##@t": 6645,
      "▁k": 6646,
      "▁secretary": 6647,
      "##by": 6648,
      "##pet": 6649,
      "###": 6650,
      "▁adopt": 6651,
      "▁political": 6652,
      "▁tec": 6653,
      "▁bea": 6654,
      "▁effort": 6655,
      "##------------": 6656,
      "▁03:00": 6657,
      "▁app": 6658,
      "▁4.": 6659,
      "##ban": 6660,
      "▁person": 6661,
      "##41": 6662,
      "▁fl": 6663,
      "▁281-518": 6664,
      "▁(b)": 6665,
      "▁alike": 6666,
      "▁analys": 6667,
      "##/200": 6668,
      "▁1985": 6669,
      "▁1955": 6670,
      "▁son": 6671,
      "▁99": 6672,
      "▁moreau": 6673,
      "##um": 6674,
      "▁80,000": 6675,
      "▁shop": 6676,
      "##bit": 6677,
      "▁fifteen": 6678,
      "##:": 6679,
      "▁gisb": 6680,
      "##und": 6681,
      "▁remained": 6682,
      "▁protection": 6683,
      "##ert": 6684,
      "▁nineteen": 6685,
      "▁simp": 6686,
      "▁ident": 6687,
      "▁liquid": 6688,
      "▁piz": 6689,
      "▁suicide": 6690,
      "▁270": 6691,
      "▁1220": 6692,
      "▁1820": 6693,
      "▁fairly": 6694,
      "▁555": 6695,
      "▁dom": 6696,
      "▁literature": 6697,
      "##712": 6698,
      "▁since": 6699,
      "▁1530": 6700,
      "▁releases": 6701,
      "▁val": 6702,
      "▁mass": 6703,
      "▁joint": 6704,
      "##row": 6705,
      "▁opt": 6706,
      "▁bunny": 6707,
      "▁ital": 6708,
      "##eb": 6709,
      "##ec": 6710,
      "##........": 6711,
      "▁faith": 6712,
      "▁economies": 6713,
      "##ion": 6714,
      "▁worry": 6715,
      "▁waste": 6716,
      "##et": 6717,
      "▁collective": 6718,
      "▁cards": 6719,
      "▁uh": 6720,
      "▁expand": 6721,
      "##aint": 6722,
      "▁visual": 6723,
      "##92": 6724,
      "▁rude": 6725,
      "▁1968": 6726,
      "##utely": 6727,
      "##ellow": 6728,
      "##======": 6729,
      "▁corresp": 6730,
      "▁196": 6731,
      "##461": 6732,
      "▁process": 6733,
      "##vil": 6734,
      "##1-": 6735,
      "▁72": 6736,
      "▁windows": 6737,
      "▁out": 6738,
      "▁enforcement": 6739,
      "▁lem": 6740,
      "▁60": 6741,
      "▁ha": 6742,
      "##right": 6743,
      "▁+1": 6744,
      "▁test": 6745,
      "▁reply": 6746,
      "▁mountains": 6747,
      "▁fields": 6748,
      "▁tow": 6749,
      "▁share": 6750,
      "##.16": 6751,
      "▁claimed": 6752,
      "▁kinda": 6753,
      "▁served": 6754,
      "▁mach": 6755,
      "▁socks": 6756,
      "##apers": 6757,
      "▁pool": 6758,
      "##2/2000": 6759,
      "##ure": 6760,
      "▁bread": 6761,
      "▁37": 6762,
      "##ected": 6763,
      "▁action": 6764,
      "▁function": 6765,
      "▁somehow": 6766,
      "▁bac": 6767,
      "##got": 6768,
      "▁frank": 6769,
      "▁untill": 6770,
      "##thers": 6771,
      "▁step": 6772,
      "▁mathem": 6773,
      "##aled": 6774,
      "##ɛ": 6775,
      "▁largest": 6776,
      "▁1787": 6777,
      "##rad": 6778,
      "▁circ": 6779,
      "▁ire": 6780,
      "##清": 6781,
      "##is": 6782,
      "▁mission": 6783,
      "##ush": 6784,
      "▁corp": 6785,
      "▁chem": 6786,
      "▁spell": 6787,
      "▁seemed": 6788,
      "▁problem": 6789,
      "▁else": 6790,
      "##η": 6791,
      "▁finance": 6792,
      "▁143": 6793,
      "▁telling": 6794,
      "▁brows": 6795,
      "▁nations": 6796,
      "▁selection": 6797,
      "▁also": 6798,
      "▁dressed": 6799,
      "▁200": 6800,
      "▁sur": 6801,
      "▁whe": 6802,
      "▁joe": 6803,
      "##let": 6804,
      "▁mistake": 6805,
      "▁regard": 6806,
      "▁alive": 6807,
      "##--------+----------------": 6808,
      "▁subsequ": 6809,
      "▁z": 6810,
      "▁>--------------------------------": 6811,
      "▁2012": 6812,
      "▁better": 6813,
      "▁regions": 6814,
      "▁elections": 6815,
      "##:13": 6816,
      "▁glasses": 6817,
      "▁collect": 6818,
      "▁seeing": 6819,
      "▁1932": 6820,
      "▁health": 6821,
      "▁option": 6822,
      "▁fort": 6823,
      "▁\"": 6824,
      "▁1835": 6825,
      "▁refuge": 6826,
      "▁ups": 6827,
      "##her": 6828,
      "▁1982": 6829,
      "▁no-6": 6830,
      "▁constitu": 6831,
      "▁lank": 6832,
      "▁flow": 6833,
      "▁form": 6834,
      "▁only": 6835,
      "▁11": 6836,
      "▁mid-": 6837,
      "▁payment": 6838,
      "▁vernon": 6839,
      "▁degree": 6840,
      "▁beside": 6841,
      "▁tog": 6842,
      "##874": 6843,
      "##79": 6844,
      "▁10/2": 6845,
      "##,0": 6846,
      "▁cake": 6847,
      "##ire": 6848,
      "▁heat": 6849,
      "▁(c)": 6850,
      "▁priced": 6851,
      "##eda": 6852,
      "▁play": 6853,
      "##elp": 6854,
      "▁philadelp": 6855,
      "##bed": 6856,
      "▁hopefully": 6857,
      "▁06": 6858,
      "▁duck": 6859,
      "▁install": 6860,
      "▁emphas": 6861,
      "##eds": 6862,
      "▁met": 6863,
      "图": 6864,
      "▁sus": 6865,
      "▁york": 6866,
      "##ece": 6867,
      "▁daughter": 6868,
      "­": 6869,
      "##ception": 6870,
      "##-99": 6871,
      "##ouse": 6872,
      "▁180": 6873,
      "▁percell": 6874,
      "▁execut": 6875,
      "##vert": 6876,
      "▁trees": 6877,
      "##roy": 6878,
      "▁crow": 6879,
      "▁khan": 6880,
      "▁section": 6881,
      "▁pip": 6882,
      "▁fight": 6883,
      "##chi": 6884,
      "▁tourist": 6885,
      "▁p.s": 6886,
      "▁avail": 6887,
      "▁may": 6888,
      "▁899-": 6889,
      "▁former": 6890,
      "▁village": 6891,
      "▁4:50": 6892,
      "##old": 6893,
      "▁ones": 6894,
      "##zing": 6895,
      "▁1623": 6896,
      "▁thank": 6897,
      "▁tape": 6898,
      "▁distance": 6899,
      "##'s": 6900,
      "##/17/2000": 6901,
      "##ə": 6902,
      "▁lighting": 6903,
      "##ters": 6904,
      "##fri": 6905,
      "▁05/25/2001": 6906,
      "▁=)": 6907,
      "▁ben": 6908,
      "▁iodine": 6909,
      "▁off": 6910,
      "##ikh": 6911,
      "▁b/": 6912,
      "▁hors": 6913,
      "##key": 6914,
      "▁19": 6915,
      "▁appear": 6916,
      "▁jan": 6917,
      "▁spanish": 6918,
      "▁investment": 6919,
      "▁connect": 6920,
      "##erson": 6921,
      "▁white": 6922,
      "▁713-853-1696": 6923,
      "▁informed": 6924,
      "▁ram": 6925,
      "##28": 6926,
      "▁employ": 6927,
      "▁blue": 6928,
      "▁vince": 6929,
      "▁ens": 6930,
      "▁sil": 6931,
      "▁bl": 6932,
      "▁dipl": 6933,
      "▁egg": 6934,
      "▁e.": 6935,
      "##oms": 6936,
      "▁helps": 6937,
      "##onn": 6938,
      "▁c.": 6939,
      "##aw": 6940,
      "##/8/00": 6941,
      "▁south": 6942,
      "##ivia": 6943,
      "##/": 6944,
      "▁'s": 6945,
      "▁1696": 6946,
      "##ene": 6947,
      "##wise": 6948,
      "▁birth": 6949,
      "▁rese": 6950,
      "▁sell": 6951,
      "▁speaking": 6952,
      "##,950": 6953,
      "▁1836": 6954,
      "##sh": 6955,
      "##2000": 6956,
      "▁projects": 6957,
      "▁freedom": 6958,
      "##za": 6959,
      "▁theatre": 6960,
      "▁430": 6961,
      "##porary": 6962,
      "▁aside": 6963,
      "##ella": 6964,
      "▁wa": 6965,
      "▁makes": 6966,
      "▁steph": 6967,
      "##111": 6968,
      "▁pour": 6969,
      "##ercial": 6970,
      "▁eighty": 6971,
      "##men": 6972,
      "##stairs": 6973,
      "##0-3": 6974,
      "▁expression": 6975,
      "▁twenty-two": 6976,
      "▁amb": 6977,
      "▁emergency": 6978,
      "##ik": 6979,
      "▁whether": 6980,
      "▁???": 6981,
      "▁ends": 6982,
      "▁1945": 6983,
      "▁und": 6984,
      "▁+45": 6985,
      "▁cc": 6986,
      "▁bag": 6987,
      "▁useful": 6988,
      "▁tor": 6989,
      "▁1843": 6990,
      "▁schedule": 6991,
      "▁present": 6992,
      "##ature": 6993,
      "▁樋": 6994,
      "▁competition": 6995,
      "▁asian": 6996,
      "▁opportun": 6997,
      "##iness": 6998,
      "▁towns": 6999,
      "▁drawing": 7000,
      "##unic": 7001,
      "▁diplom": 7002,
      "▁ltte": 7003,
      "##ogether": 7004,
      "##uated": 7005,
      "▁1958": 7006,
      "▁mod": 7007,
      "##oa": 7008,
      "▁regarding": 7009,
      "##ration": 7010,
      "##200": 7011,
      "▁besid": 7012,
      "##φ": 7013,
      "##ities": 7014,
      "▁without": 7015,
      "▁str": 7016,
      "##:56": 7017,
      "▁wow": 7018,
      "▁pain": 7019,
      "▁210": 7020,
      "▁vice": 7021,
      "##ist": 7022,
      "##tch": 7023,
      "##rick": 7024,
      "##aren": 7025,
      "##ard": 7026,
      "▁feeling": 7027,
      "▁published": 7028,
      "##a)": 7029,
      "▁open": 7030,
      "▁giv": 7031,
      "▁abe": 7032,
      "▁07": 7033,
      "▁motion": 7034,
      "##393": 7035,
      "##ed": 7036,
      "▁possible": 7037,
      "▁lived": 7038,
      "▁sally": 7039,
      "▁decade": 7040,
      "▁spring": 7041,
      "##raft": 7042,
      "▁pun": 7043,
      "▁aware": 7044,
      "▁mean": 7045,
      "##tt": 7046,
      "▁pric": 7047,
      "▁hope": 7048,
      "##ummy": 7049,
      "▁prom": 7050,
      "·": 7051,
      "##ushing": 7052,
      "▁cr": 7053,
      "▁attend": 7054,
      "▁hotel": 7055,
      "##ester": 7056,
      "▁bigger": 7057,
      "▁going": 7058,
      "##innati": 7059,
      "▁plus": 7060,
      "##ation": 7061,
      "▁link": 7062,
      "▁turkey": 7063,
      "▁rooms": 7064,
      "▁1849": 7065,
      "▁severe": 7066,
      "##omer": 7067,
      "▁differences": 7068,
      "▁tied": 7069,
      "##ping": 7070,
      "▁log": 7071,
      "▁lim": 7072,
      "▁2.3": 7073,
      "▁num": 7074,
      "▁result": 7075,
      "▁lol": 7076,
      "##enix": 7077,
      "##0010": 7078,
      "▁began": 7079,
      "▁cons": 7080,
      "▁movie": 7081,
      "▁fif": 7082,
      "▁peters": 7083,
      "▁hands": 7084,
      "▁incred": 7085,
      "##erous": 7086,
      "▁50,000": 7087,
      "▁prove": 7088,
      "▁construction": 7089,
      "##uit": 7090,
      "▁61": 7091,
      "##ages": 7092,
      "##case": 7093,
      "##ms": 7094,
      "▁speech": 7095,
      "▁1984": 7096,
      "▁deb": 7097,
      "▁norm": 7098,
      "##oes": 7099,
      "▁202": 7100,
      "##otted": 7101,
      "▁experi": 7102,
      "##gan": 7103,
      "▁voices": 7104,
      "▁thomas": 7105,
      "▁getting": 7106,
      "##rem": 7107,
      "▁pressure": 7108,
      "▁allowed": 7109,
      "##×": 7110,
      "▁requirements": 7111,
      "##s/": 7112,
      "▁e.g.": 7113,
      "##ared": 7114,
      "▁and": 7115,
      "▁per": 7116,
      "▁36": 7117,
      "▁prices": 7118,
      "##ateg": 7119,
      "▁supposed": 7120,
      "##------": 7121,
      "##inking": 7122,
      "▁vir": 7123,
      "▁shake": 7124,
      "▁attrib": 7125,
      "##ipp": 7126,
      "▁conver": 7127,
      "▁work": 7128,
      "##side": 7129,
      "▁walls": 7130,
      "▁pittsburgh": 7131,
      "▁forty": 7132,
      "##vel": 7133,
      "▁3/4": 7134,
      "▁scan": 7135,
      "▁honey": 7136,
      "▁earliest": 7137,
      "##:57": 7138,
      "▁unlike": 7139,
      "▁832": 7140,
      "▁determin": 7141,
      "##aro": 7142,
      "▁by": 7143,
      "▁dando": 7144,
      "▁pittsbur": 7145,
      "##uk": 7146,
      "▁tulsa": 7147,
      "▁269": 7148,
      "▁achie": 7149,
      "##uted": 7150,
      "▁sea": 7151,
      "▁conditions": 7152,
      "▁way": 7153,
      "▁5000": 7154,
      "▁'0": 7155,
      "▁exhib": 7156,
      "▁learn": 7157,
      "▁minn": 7158,
      "▁pump": 7159,
      "▁dirty": 7160,
      "▁420": 7161,
      "▁express": 7162,
      "▁manuf": 7163,
      "▁kick": 7164,
      "▁5.3": 7165,
      "##ir": 7166,
      "▁fus": 7167,
      "##~*": 7168,
      "▁pretend": 7169,
      "▁12:3": 7170,
      "##ient": 7171,
      "▁button": 7172,
      "▁3.5": 7173,
      "▁lives": 7174,
      "ʁ": 7175,
      "▁11:30": 7176,
      "▁puppy": 7177,
      "▁princ": 7178,
      "▁marked": 7179,
      "▁s": 7180,
      "▁dogs": 7181,
      "##ooth": 7182,
      "▁february": 7183,
      "▁bath": 7184,
      "▁adm": 7185,
      "▁sat": 7186,
      "▁facts": 7187,
      "▁713-654-128": 7188,
      "▁suddenly": 7189,
      "##|": 7190,
      "▁question": 7191,
      "▁1561": 7192,
      "▁ciao": 7193,
      "▁3.8": 7194,
      "▁bought": 7195,
      "▁hung": 7196,
      "▁exerc": 7197,
      "##ensive": 7198,
      "▁signs": 7199,
      "##greg": 7200,
      "▁ru": 7201,
      "▁ride": 7202,
      "/": 7203,
      "▁mush": 7204,
      "▁1594": 7205,
      "▁shirt": 7206,
      "▁hello": 7207,
      "▁diversity": 7208,
      "▁england": 7209,
      "▁weekend": 7210,
      "##ن": 7211,
      "▁liqu": 7212,
      "▁others": 7213,
      "▁713-8": 7214,
      "▁manag": 7215,
      "▁really": 7216,
      "##iod": 7217,
      "▁afghanistan": 7218,
      "▁always": 7219,
      "##>===": 7220,
      "▁646": 7221,
      "▁perman": 7222,
      "▁ing": 7223,
      "##arent": 7224,
      "▁pm": 7225,
      "▁ideas": 7226,
      "▁brief": 7227,
      "▁connection": 7228,
      "▁guess": 7229,
      "▁rates": 7230,
      "▁strongly": 7231,
      "▁reg": 7232,
      "▁ul": 7233,
      "##night": 7234,
      "▁fork": 7235,
      "▁pers": 7236,
      "▁✉": 7237,
      "▁might": 7238,
      "##claim": 7239,
      "##verse": 7240,
      "▁deal": 7241,
      "▁crisis": 7242,
      "▁110": 7243,
      "▁320": 7244,
      "▁edge": 7245,
      "##ent": 7246,
      "▁regulation": 7247,
      "▁====================================================": 7248,
      "▁park": 7249,
      "▁abs": 7250,
      "##oss": 7251,
      "▁tree": 7252,
      "##iet": 7253,
      "▁equipment": 7254,
      "▁saudi": 7255,
      "▁noise": 7256,
      "##–": 7257,
      "▁grounds": 7258,
      "▁includes": 7259,
      "▁owners": 7260,
      "▁somewhere": 7261,
      "##our": 7262,
      "▁conference": 7263,
      "▁season": 7264,
      "##iers": 7265,
      "##10": 7266,
      "##!!!!!!!!": 7267,
      "##bon": 7268,
      "▁1599": 7269,
      "▁cultural": 7270,
      "▁history": 7271,
      "▁2005": 7272,
      "▁game": 7273,
      "津": 7274,
      "▁starting": 7275,
      "▁!!!!!": 7276,
      "▁accident": 7277,
      "▁sandwich": 7278,
      "##ility": 7279,
      "▁minneapolis": 7280,
      "▁na": 7281,
      "▁ric": 7282,
      "▁museum": 7283,
      "▁construct": 7284,
      "##ober": 7285,
      "▁been": 7286,
      "##oc": 7287,
      "##ony": 7288,
      "▁robert": 7289,
      "▁1992": 7290,
      "▁1588": 7291,
      "##-ked": 7292,
      "▁059085": 7293,
      "ρ": 7294,
      "##int": 7295,
      "▁supreme": 7296,
      "##ject": 7297,
      "##ob": 7298,
      "##ł": 7299,
      "▁regular": 7300,
      "▁1110": 7301,
      "▁stren": 7302,
      "▁gh": 7303,
      "##kins": 7304,
      "▁2,": 7305,
      "o": 7306,
      "▁idea": 7307,
      "##attle": 7308,
      "▁disaster": 7309,
      "ω": 7310,
      "##•": 7311,
      "▁seen": 7312,
      "▁exhibit": 7313,
      "▁narrow": 7314,
      "##alf": 7315,
      "▁tradition": 7316,
      "▁1875": 7317,
      "▁trouble": 7318,
      "▁11:32": 7319,
      "##-46": 7320,
      "##ν": 7321,
      "▁pilot": 7322,
      "##-0": 7323,
      "##asc": 7324,
      "▁inqu": 7325,
      "##ying": 7326,
      "▁zoo": 7327,
      "▁needs": 7328,
      "▁vacation": 7329,
      "##樋": 7330,
      "▁asia": 7331,
      "##ashion": 7332,
      "##-h": 7333,
      "▁discussion": 7334,
      ">": 7335,
      "##kin": 7336,
      "▁implementing": 7337,
      "▁financial": 7338,
      "▁later": 7339,
      "▁muslim": 7340,
      "▁speaker": 7341,
      "▁gordon": 7342,
      "▁accurate": 7343,
      "▁recru": 7344,
      "▁face": 7345,
      "▁mc": 7346,
      "▁rad": 7347,
      "口": 7348,
      "▁strict": 7349,
      "▁exactly": 7350,
      "▁2,500": 7351,
      "##ign": 7352,
      "▁wand": 7353,
      "▁bud": 7354,
      "▁suit": 7355,
      "▁minus": 7356,
      "▁bassiana": 7357,
      "▁salon": 7358,
      "▁pan": 7359,
      "▁tra": 7360,
      "##icago": 7361,
      "▁der": 7362,
      "▁cru": 7363,
      "##board": 7364,
      "▁sports": 7365,
      "▁types": 7366,
      "▁records": 7367,
      "▁higher": 7368,
      "▁heard": 7369,
      "▁ded": 7370,
      "▁reject": 7371,
      "▁sad": 7372,
      "▁infl": 7373,
      "##clock": 7374,
      "##/17/99": 7375,
      "##ified": 7376,
      "▁your": 7377,
      "##zen": 7378,
      "▁agriculture": 7379,
      "▁fantastic": 7380,
      "▁rout": 7381,
      "##sc": 7382,
      "▁proud": 7383,
      "▁10/26/2000": 7384,
      "▁books": 7385,
      "▁super": 7386,
      "▁450": 7387,
      "▁same": 7388,
      "▁trust": 7389,
      "##ical": 7390,
      "##xic": 7391,
      "▁led": 7392,
      "▁j.doc": 7393,
      "##ise": 7394,
      "▁ord": 7395,
      "▁130": 7396,
      "▁answ": 7397,
      "##ken": 7398,
      "▁seek": 7399,
      "▁blog": 7400,
      "##orders": 7401,
      "▁myself": 7402,
      "▁scared": 7403,
      "▁wide": 7404,
      "▁?!": 7405,
      "▁wars": 7406,
      "▁bet": 7407,
      "▁acc": 7408,
      "▁713/": 7409,
      "##/10/2000": 7410,
      "▁thurs": 7411,
      "##ect": 7412,
      "一": 7413,
      "##ments": 7414,
      "▁sw": 7415,
      "▁restaur": 7416,
      "▁thousands": 7417,
      "▁cost": 7418,
      "##oice": 7419,
      "▁dol": 7420,
      "▁cur": 7421,
      "▁therefore": 7422,
      "▁road": 7423,
      "▁rent": 7424,
      "▁___________": 7425,
      "▁self": 7426,
      "▁attention": 7427,
      "▁beat": 7428,
      "##:58": 7429,
      "▁spr": 7430,
      "▁opp": 7431,
      "##,600": 7432,
      "▁swing": 7433,
      "▁organization": 7434,
      "▁similar": 7435,
      "##aters": 7436,
      "##lers": 7437,
      "▁iran": 7438,
      "▁fem": 7439,
      "##/97": 7440,
      "▁sch": 7441,
      "▁stud": 7442,
      "▁1593": 7443,
      "▁..": 7444,
      "▁fool": 7445,
      "▁pillow": 7446,
      "##ables": 7447,
      "▁new": 7448,
      "▁6": 7449,
      "▁ocho": 7450,
      "▁associated": 7451,
      "▁excel": 7452,
      "▁focus": 7453,
      "▁11/7/08": 7454,
      "▁wet": 7455,
      "▁01/19/2001": 7456,
      "##د": 7457,
      "##59": 7458,
      "▁skin": 7459,
      "##siana": 7460,
      "▁chicago": 7461,
      "▁goal": 7462,
      "▁mary": 7463,
      "▁repres": 7464,
      "▁exercise": 7465,
      "▁theory": 7466,
      "##2.doc": 7467,
      "▁corporate": 7468,
      "##:39": 7469,
      "##icle": 7470,
      "##:46": 7471,
      "##tim": 7472,
      "▁escape": 7473,
      "▁pleasure": 7474,
      "##ill": 7475,
      "##ured": 7476,
      "▁boy": 7477,
      "▁nine": 7478,
      "##24": 7479,
      "▁ron": 7480,
      "▁port": 7481,
      "▁nam": 7482,
      "##ructure": 7483,
      "▁stock": 7484,
      "▁3-5": 7485,
      "▁atop": 7486,
      "▁20,000": 7487,
      "▁movement": 7488,
      "▁need": 7489,
      "##tte": 7490,
      "▁thus": 7491,
      "▁man": 7492,
      "##back": 7493,
      "▁miami": 7494,
      "##igator": 7495,
      "##ples": 7496,
      "▁services": 7497,
      "##13": 7498,
      "##/2": 7499,
      "##ence": 7500,
      "▁w/": 7501,
      "▁arms": 7502,
      "▁m": 7503,
      "##ross": 7504,
      "##lo": 7505,
      "▁st": 7506,
      "▁1505": 7507,
      "k": 7508,
      "##noon": 7509,
      "▁interest": 7510,
      "▁request": 7511,
      "▁content": 7512,
      "▁properly": 7513,
      "▁chickens": 7514,
      "##4-": 7515,
      "##ص": 7516,
      "##-84": 7517,
      "▁band": 7518,
      "▁university": 7519,
      "▁fo": 7520,
      "##sp": 7521,
      "▁host": 7522,
      "▁09": 7523,
      "▁205": 7524,
      "▁experiences": 7525,
      ".": 7526,
      "##sus": 7527,
      "▁auth": 7528,
      "▁camera": 7529,
      "▁315": 7530,
      "▁aid": 7531,
      "▁carolina": 7532,
      "▁sem": 7533,
      "▁:d": 7534,
      "##eur": 7535,
      "▁within": 7536,
      "▁anywhere": 7537,
      "▁exc": 7538,
      "##tto": 7539,
      "▁finish": 7540,
      "▁choice": 7541,
      "▁wrap": 7542,
      "▁934": 7543,
      "▁aff": 7544,
      "▁sense": 7545,
      "▁options": 7546,
      "▁week": 7547,
      "▁member": 7548,
      "##ript": 7549,
      "▁birds": 7550,
      "##vey": 7551,
      "##e@enron": 7552,
      "▁gener": 7553,
      "▁condition": 7554,
      "##uce": 7555,
      "▁plays": 7556,
      "▁belong": 7557,
      "##iting": 7558,
      "##37": 7559,
      "▁activity": 7560,
      "▁+": 7561,
      "##dam": 7562,
      "▁west": 7563,
      "##ex": 7564,
      "▁je": 7565,
      "##atory": 7566,
      "##it": 7567,
      "##{": 7568,
      "▁re-": 7569,
      "▁1765": 7570,
      "##/03/2001": 7571,
      "##119": 7572,
      "▁nana": 7573,
      "▁goo": 7574,
      "▁garage": 7575,
      "▁phoenix": 7576,
      "▁sha": 7577,
      "▁revised": 7578,
      "▁fast": 7579,
      "##esome": 7580,
      "▁cal": 7581,
      "▁enron": 7582,
      "##ellig": 7583,
      "▁easier": 7584,
      "##ank": 7585,
      "▁flo": 7586,
      "▁425": 7587,
      "▁163": 7588,
      "▁747": 7589,
      "##uff": 7590,
      "▁bowl": 7591,
      "##eter": 7592,
      "▁lee": 7593,
      "▁pericles": 7594,
      "▁decisions": 7595,
      "##ator": 7596,
      "##ema": 7597,
      "▁cap": 7598,
      "##y@enron_development": 7599,
      "##og": 7600,
      "▁ven": 7601,
      "▁pleas": 7602,
      "▁developing": 7603,
      "▁des": 7604,
      "##anc": 7605,
      "##to": 7606,
      "##/13": 7607,
      "▁conclud": 7608,
      "_": 7609,
      "▁copyright": 7610,
      "▁dw": 7611,
      "▁eye": 7612,
      "##ologist": 7613,
      "▁1929": 7614,
      "##form": 7615,
      "##88": 7616,
      "▁brought": 7617,
      "▁1605": 7618,
      "▁release": 7619,
      "▁terror": 7620,
      "▁fax": 7621,
      "空": 7622,
      "##vo": 7623,
      "##ym": 7624,
      "▁sleep": 7625,
      "▁nin": 7626,
      "▁part": 7627,
      "▁haf": 7628,
      "▁betw": 7629,
      "▁falls": 7630,
      "▁-%": 7631,
      "▁firm": 7632,
      "▁ability": 7633,
      "▁adop": 7634,
      "▁themselves": 7635,
      "##emy": 7636,
      "##83": 7637,
      "▁3.": 7638,
      "▁yet": 7639,
      "▁fares": 7640,
      "▁dise": 7641,
      "▁comes": 7642,
      "▁buck": 7643,
      "##/08": 7644,
      "▁lists": 7645,
      "▁09/16": 7646,
      "▁twice": 7647,
      "▁surprised": 7648,
      "▁quote": 7649,
      "▁922": 7650,
      "##________": 7651,
      "▁mar": 7652,
      "▁item": 7653,
      "▁nuclear": 7654,
      "▁furn": 7655,
      "▁cent": 7656,
      "▁imm": 7657,
      "▁07/1": 7658,
      "▁knock": 7659,
      "▁notwithstand": 7660,
      "##_0": 7661,
      "##ek": 7662,
      "##ode": 7663,
      "▁traveling": 7664,
      "▁search": 7665,
      "##arr": 7666,
      "▁were": 7667,
      "▁pal": 7668,
      "▁desc": 7669,
      "▁spain": 7670,
      "▁tast": 7671,
      "##ka": 7672,
      "▁prosper": 7673,
      "▁relationship": 7674,
      "▁gender": 7675,
      "##夏": 7676,
      "##ii": 7677,
      "▁sub": 7678,
      "##icient": 7679,
      "##rict": 7680,
      "##eding": 7681,
      "▁goods": 7682,
      "▁bask": 7683,
      "▁aft": 7684,
      "▁russia": 7685,
      "##etary": 7686,
      "▁240": 7687,
      "##olis": 7688,
      "▁entertain": 7689,
      "▁guys": 7690,
      "##ience": 7691,
      "##μ": 7692,
      "▁done": 7693,
      "▁herself": 7694,
      ")": 7695,
      "▁devil": 7696,
      "##ude": 7697,
      "##icles": 7698,
      "▁lock": 7699,
      "▁fur": 7700,
      "▁waiting": 7701,
      "##'re": 7702,
      "▁prof": 7703,
      "##uth": 7704,
      "##inting": 7705,
      "▁pred": 7706,
      "▁atmos": 7707,
      "##ald": 7708,
      "▁film": 7709,
      "▁alle": 7710,
      "▁ah": 7711,
      "▁xv": 7712,
      "▁rose": 7713,
      "##que": 7714,
      "▁instead": 7715,
      "▁jul": 7716,
      "▁system": 7717,
      "##velopment": 7718,
      "▁ky": 7719,
      "▁peop": 7720,
      "▁horses": 7721,
      "▁modern": 7722,
      "▁1950": 7723,
      "##ota": 7724,
      "##uh": 7725,
      "##ram": 7726,
      "##ater": 7727,
      "##(": 7728,
      "▁din": 7729,
      "▁prior": 7730,
      "##oul": 7731,
      "▁une": 7732,
      "▁ku": 7733,
      "##ʃ": 7734,
      "▁daddy": 7735,
      "▁opportunities": 7736,
      "▁forty-eight": 7737,
      "▁doughnut": 7738,
      "▁schools": 7739,
      "##ground": 7740,
      "▁mail": 7741,
      "▁scr": 7742,
      "▁adjust": 7743,
      "▁flies": 7744,
      "▁law": 7745,
      "▁troops": 7746,
      "▁sara": 7747,
      "▁complex": 7748,
      "▁1983": 7749,
      "▁tend": 7750,
      "▁addiction": 7751,
      "##och": 7752,
      "▁land": 7753,
      "▁flash": 7754,
      "▁glo": 7755,
      "##499": 7756,
      "##183": 7757,
      "▁two": 7758,
      "▁tie": 7759,
      "▁given": 7760,
      "▁poss": 7761,
      "▁1.6": 7762,
      "▁either": 7763,
      "▁c": 7764,
      "▁cause": 7765,
      "▁g": 7766,
      "▁300,000": 7767,
      "▁&amp;": 7768,
      "▁1611": 7769,
      "▁sign": 7770,
      "##,000": 7771,
      "▁67": 7772,
      "▁phot": 7773,
      "##26": 7774,
      "##aves": 7775,
      "##real": 7776,
      "▁yard": 7777,
      "▁____________________________________________________________": 7778,
      "▁commissioner": 7779,
      "▁spin": 7780,
      "##fast": 7781,
      "▁jud": 7782,
      "▁numbers": 7783,
      "▁ut": 7784,
      "##oney": 7785,
      "▁propos": 7786,
      "▁7484": 7787,
      "▁unemploy": 7788,
      "▁22": 7789,
      "##ch": 7790,
      "##lin": 7791,
      "▁price": 7792,
      "▁asked": 7793,
      "▁career": 7794,
      "##ulating": 7795,
      "##takana": 7796,
      "▁2,000": 7797,
      "##aken": 7798,
      "▁developed": 7799,
      "##27": 7800,
      "▁2022": 7801,
      "▁mark": 7802,
      "▁weather": 7803,
      "▁palest": 7804,
      "▁cupc": 7805,
      "▁include": 7806,
      "▁another": 7807,
      "▁active": 7808,
      "##0.doc": 7809,
      "▁1975": 7810,
      "▁ballet": 7811,
      "▁research": 7812,
      "▁comm": 7813,
      "▁meas": 7814,
      "▁region": 7815,
      "▁canada": 7816,
      "##ood": 7817,
      "▁meaning": 7818,
      "▁220": 7819,
      "##eau": 7820,
      "▁http://www.": 7821,
      "▁appointment": 7822,
      "ς": 7823,
      "▁serving": 7824,
      "##ceed": 7825,
      "▁choose": 7826,
      "##ef": 7827,
      "▁got": 7828,
      "##ould": 7829,
      "▁ill": 7830,
      "°": 7831,
      "▁713-654-03": 7832,
      "##ious": 7833,
      "##ry": 7834,
      "▁hug": 7835,
      "##ero": 7836,
      "▁kill": 7837,
      "▁imagine": 7838,
      "##airs": 7839,
      "▁campa": 7840,
      "▁11:16": 7841,
      "▁field": 7842,
      "▁balloon": 7843,
      "▁sugg": 7844,
      "##.uk": 7845,
      "▁covered": 7846,
      "##eral": 7847,
      "▁wheel": 7848,
      "##aging": 7849,
      "▁civil": 7850,
      "▁relatively": 7851,
      "##ately": 7852,
      "▁liber": 7853,
      "▁where": 7854,
      "▁rh": 7855,
      "▁lea": 7856,
      "▁pure": 7857,
      "▁sin": 7858,
      "▁terrorist": 7859,
      "▁promised": 7860,
      "▁cens": 7861,
      "▁forster": 7862,
      "▁fusca": 7863,
      "##ere": 7864,
      "▁americans": 7865,
      "▁houston": 7866,
      "▁healthy": 7867,
      "▁territ": 7868,
      "▁begun": 7869,
      "▁richard": 7870,
      "##95": 7871,
      "▁r": 7872,
      "##nesday": 7873,
      "▁importance": 7874,
      "▁400": 7875,
      "▁of": 7876,
      "▁cop": 7877,
      "▁los": 7878,
      "▁operators": 7879,
      "##031": 7880,
      "▁recall": 7881,
      "▁sample": 7882,
      "▁galois": 7883,
      "▁bir": 7884,
      "▁ra": 7885,
      "▁louis": 7886,
      "▁85": 7887,
      "▁1988": 7888,
      "▁oce": 7889,
      "▁ale": 7890,
      "##.11": 7891,
      "##ucing": 7892,
      "▁amendment": 7893,
      "▁assistance": 7894,
      "▁john": 7895,
      "▁perfect": 7896,
      "##’": 7897,
      "▁conv": 7898,
      "▁swww": 7899,
      "##iter": 7900,
      "▁setting": 7901,
      "▁meh-": 7902,
      "▁base": 7903,
      "▁states": 7904,
      "▁!!!!!!!": 7905,
      "▁indust": 7906,
      "▁bray": 7907,
      "##tc": 7908,
      "##cl": 7909,
      "##isl": 7910,
      "▁older": 7911,
      "##ional": 7912,
      "##atives": 7913,
      "▁central": 7914,
      "##-6": 7915,
      "##:52": 7916,
      "##hib": 7917,
      "##ount": 7918,
      "##ung": 7919,
      "##^": 7920,
      "▁motor": 7921,
      "▁39": 7922,
      "▁??": 7923,
      "▁fine": 7924,
      "▁du": 7925,
      "▁believe": 7926,
      "▁1805": 7927,
      "▁2.7": 7928,
      "##eless": 7929,
      "▁announced": 7930,
      "##rec": 7931,
      "▁beg": 7932,
      "▁24.7": 7933,
      "##gar": 7934,
      "▁able": 7935,
      "##ati": 7936,
      "##/h": 7937,
      "##__________": 7938,
      "▁lo": 7939,
      "▁currency": 7940,
      "##olution": 7941,
      "▁fire": 7942,
      "##iture": 7943,
      "▁ft": 7944,
      "▁urs": 7945,
      "▁2:00": 7946,
      "▁ref": 7947,
      "▁store": 7948,
      "▁nme": 7949,
      "▁questions": 7950,
      "▁hit": 7951,
      "▁attached": 7952,
      "##.7822": 7953,
      "▁sustain": 7954,
      "##gu": 7955,
      "##ivid": 7956,
      "▁slowly": 7957,
      "▁viet": 7958,
      "▁prod": 7959,
      "▁wedding": 7960,
      "##conn": 7961,
      "▁744": 7962,
      "▁negative": 7963,
      "▁watched": 7964,
      "##54-": 7965,
      "▁favour": 7966,
      "▁1819": 7967,
      "##tle": 7968,
      "▁0.00": 7969,
      "##liament": 7970,
      "##oses": 7971,
      "▁tired": 7972,
      "##ological": 7973,
      "▁tent": 7974,
      "▁medicine": 7975,
      "▁713-853-3989": 7976,
      "▁fright": 7977,
      "▁cathol": 7978,
      "▁teaching": 7979,
      "▁feet": 7980,
      "▁considering": 7981,
      "▁12,000": 7982,
      "▁smaller": 7983,
      "υ": 7984,
      "##ang": 7985,
      "▁n'": 7986,
      "▁improve": 7987,
      "▁—": 7988,
      "▁quick": 7989,
      "▁absor": 7990,
      "##ov": 7991,
      "▁11-20-2000": 7992,
      "▁even": 7993,
      "##-696": 7994,
      "##inct": 7995,
      "▁yours": 7996,
      "▁toy": 7997,
      "▁reflect": 7998,
      "▁depending": 7999,
      "▁operations": 8000,
      "▁plan": 8001,
      "##ab": 8002,
      "▁x": 8003,
      "▁pre": 8004,
      "▁an": 8005,
      "##.com": 8006,
      "▁281-": 8007,
      "▁bike": 8008,
      "##iled": 8009,
      "▁visa": 8010,
      "▁side": 8011,
      "▁march": 8012,
      "▁888": 8013,
      "▁apart": 8014,
      "▁seems": 8015,
      "##iction": 8016,
      "▁pulled": 8017,
      "▁answered": 8018,
      "▁insp": 8019,
      "▁october": 8020,
      "▁dance": 8021,
      "☏": 8022,
      "▁lady": 8023,
      "▁summ": 8024,
      "▁sl": 8025,
      "▁breat": 8026,
      "▁teeth": 8027,
      "##!?": 8028,
      "▁trade": 8029,
      "▁providing": 8030,
      "##day": 8031,
      "▁arch": 8032,
      "▁felt": 8033,
      "##@enron_development": 8034,
      "##ioned": 8035,
      "##bie": 8036,
      "##pper": 8037,
      "##iciency": 8038,
      "##....": 8039,
      "▁disp": 8040,
      "##reat": 8041,
      "▁d'": 8042,
      "▁taliban": 8043,
      "##berry": 8044,
      "▁miss": 8045,
      "▁animals": 8046,
      "▁anglo": 8047,
      "▁770": 8048,
      "▁pol": 8049,
      "▁16": 8050,
      "▁eu": 8051,
      "▁weeks": 8052,
      "▁grab": 8053,
      "##ʊ": 8054,
      "##adelp": 8055,
      "##pt": 8056,
      "▁460": 8057,
      "古": 8058,
      "▁conce": 8059,
      "▁bas": 8060,
      "▁730": 8061,
      "▁benefits": 8062,
      "##ogn": 8063,
      "▁money": 8064,
      "▁wonder": 8065,
      "▁5/1": 8066,
      "▁gen": 8067,
      "▁rele": 8068,
      "▁element": 8069,
      "▁hers": 8070,
      "▁1603": 8071,
      "▁217": 8072,
      "##€": 8073,
      "i": 8074,
      "##.n": 8075,
      "##ification": 8076,
      "▁343": 8077,
      "▁o": 8078,
      "▁client": 8079,
      "▁schol": 8080,
      "|": 8081,
      "▁73": 8082,
      "▁04/30/2001": 8083,
      "▁rural": 8084,
      "▁al": 8085,
      "▁mohammed": 8086,
      "▁decades": 8087,
      "▁species": 8088,
      "##.123": 8089,
      "▁90": 8090,
      "▁1614": 8091,
      "▁stuff": 8092,
      "▁between": 8093,
      "▁capacity": 8094,
      "▁alread": 8095,
      "##19": 8096,
      "▁ur": 8097,
      "▁liked": 8098,
      "▁music": 8099,
      "▁buying": 8100,
      "▁admin": 8101,
      "▁indic": 8102,
      "▁rich": 8103,
      "▁dir": 8104,
      "▁2.6": 8105,
      "▁2008": 8106,
      "##br": 8107,
      "##ml": 8108,
      "▁issued": 8109,
      "▁balls": 8110,
      "▁proposed": 8111,
      "##min": 8112,
      "▁marsh": 8113,
      "▁underneath": 8114,
      "##,": 8115,
      "▁gather": 8116,
      "##non": 8117,
      "▁1222": 8118,
      "▁water": 8119,
      "▁aspects": 8120,
      "▁guarant": 8121,
      "##45": 8122,
      "##osition": 8123,
      "▁emp": 8124,
      "▁convention": 8125,
      "##20-": 8126,
      "▁1840": 8127,
      "##cuz": 8128,
      "▁helped": 8129,
      "▁gi": 8130,
      "##ume": 8131,
      "▁cara": 8132,
      "▁6:30": 8133,
      "##rew": 8134,
      "▁1967": 8135,
      "##icious": 8136,
      "##.86": 8137,
      "▁alt.animals": 8138,
      "▁critics": 8139,
      "##ump": 8140,
      "##gypt": 8141,
      "▁according": 8142,
      "▁youn": 8143,
      "▁perform": 8144,
      "▁vac": 8145,
      "▁1701": 8146,
      "##ched": 8147,
      "▁administration": 8148,
      "▁add": 8149,
      "##oug": 8150,
      "##n": 8151,
      "▁denver": 8152,
      "▁henry": 8153,
      "▁var": 8154,
      "##ivers": 8155,
      "##elt": 8156,
      "##ort": 8157,
      "▁reach": 8158,
      "▁fant": 8159,
      "▁parking": 8160,
      "▁3.1": 8161,
      "▁born": 8162,
      "▁315-460-33": 8163,
      "##idden": 8164,
      "▁bur": 8165,
      "▁markets": 8166,
      "##\\": 8167,
      "▁rest": 8168,
      "▁ble": 8169,
      "▁australia": 8170,
      "▁stores": 8171,
      "##:24": 8172,
      "▁friday": 8173,
      "▁ant": 8174,
      "▁positive": 8175,
      "▁guarantee": 8176,
      "▁207": 8177,
      "▁capt": 8178,
      "▁someone": 8179,
      "▁416-865-370": 8180,
      "##rench": 8181,
      "▁contin": 8182,
      "##aur": 8183,
      "▁serious": 8184,
      "##tejo": 8185,
      "##animals": 8186,
      "▁d.": 8187,
      "▁7:00": 8188,
      "##ancing": 8189,
      "▁seat": 8190,
      "##:34": 8191
    }
  }
}