{
  "version": "1.0",
  "truncation": null,
  "padding": null,
  "added_tokens": [
    {
      "id": 789,
      "content": "[SEP]",
      "single_word": false,
      "lstrip": false,
      "rstrip": false,
      "normalized": false,
      "special": true
    },
    {
      "id": 3126,
      "content": "[CLS]",
      "single_word": false,
      "lstrip": false,
      "rstrip": false,
      "normalized": false,
      "special": true
    },
    {
      "id": 12317,
      "content": "[UNK]",
      "single_word": false,
      "lstrip": false,
      "rstrip": false,
      "normalized": false,
      "special": true
    },
    {
      "id": 13528,
      "content": "[MASK]",
      "single_word": false,
      "lstrip": false,
      "rstrip": false,
      "normalized": false,
      "special": true
    },
    {
      "id": 14248,
      "content": "[PAD]",
      "single_word": false,
      "lstrip": false,
      "rstrip": false,
      "normalized": false,
      "special": true
    }
  ],
  "normalizer": {
    "type": "Sequence",
    "normalizers": [
      {
        "type": "NFD"
      },
      {
        "type": "Lowercase"
      },
      {
        "type": "StripAccents"
      }
    ]
  },
  "pre_tokenizer": {
    "type": "Sequence",
    "pretokenizers": [
      {
        "type": "Metaspace",
        "replacement": "▁",
        "prepend_scheme": "always",
        "split": true
      }
    ]
  },
  "post_processor": {
    "type": "TemplateProcessing",
    "single": [
      {
        "SpecialToken": {
          "id": "[CLS]",
          "type_id": 0
        }
      },
      {
        "Sequence": {
          "id": "A",
          "type_id": 0
        }
      },
      {
        "SpecialToken": {
          "id": "[SEP]",
          "type_id": 0
        }
      }
    ],
    "pair": [
      {
        "SpecialToken": {
          "id": "[CLS]",
          "type_id": 0
        }
      },
      {
        "Sequence": {
          "id": "A",
          "type_id": 0
        }
      },
      {
        "SpecialToken": {
          "id": "[SEP]",
          "type_id": 0
        }
      },
      {
        "Sequence": {
          "id": "B",
          "type_id": 1
        }
      },
      {
        "SpecialToken": {
          "id": "[SEP]",
          "type_id": 1
        }
      }
    ],
    "special_tokens": {
      "[CLS]": {
        "id": "[CLS]",
        "ids": [
          3126
        ],
        "tokens": [
          "[CLS]"
        ]
      },
      "[SEP]": {
        "id": "[SEP]",
        "ids": [
          789
        ],
        "tokens": [
          "[SEP]"
        ]
      }
    }
  },
  "decoder": {
    "type": "Metaspace",
    "replacement": "▁",
    "prepend_scheme": "always",
    "split": true
  },
  "model": {
    "type": "WordPiece",
    "unk_token": "[UNK]",
    "continuing_subword_prefix": "##",
    "max_input_chars_per_word": 100,
    "vocab": {
      "▁classic": 0,
      "▁wite": 1,
      "▁text": 2,
      "▁trials": 3,
      "▁taxi": 4,
      "▁jih": 5,
      "##ase": 6,
      "▁advertising": 7,
      "▁fried": 8,
      "▁saudi": 9,
      "▁candy": 10,
      "▁codes": 11,
      "▁future": 12,
      "▁protocol": 13,
      "##gg": 14,
      "▁vac": 15,
      "▁immigrants": 16,
      "##io": 17,
      "▁loans": 18,
      "▁anch": 19,
      "▁dickens": 20,
      "##ories": 21,
      "▁polic": 22,
      "▁reop": 23,
      "▁thursdays": 24,
      "▁defining": 25,
      "▁camping": 26,
      "▁struggling": 27,
      "▁lessons": 28,
      "▁morph": 29,
      "▁withdrawn": 30,
      "▁face": 31,
      "##jects": 32,
      "▁brad": 33,
      "▁buyer": 34,
      "▁negotiations": 35,
      "##corn": 36,
      "##£": 37,
      "▁al": 38,
      "▁editions": 39,
      "▁dev": 40,
      "▁mutual": 41,
      "▁fbi": 42,
      "▁sew": 43,
      "##ocked": 44,
      "▁mosc": 45,
      "▁eol": 46,
      "▁&": 47,
      "##ird": 48,
      "##693": 49,
      "▁evac": 50,
      "▁resources": 51,
      "▁tiny": 52,
      "▁strange": 53,
      "▁determine": 54,
      "▁manufact": 55,
      "▁approved": 56,
      "▁nephew": 57,
      "▁bath+room": 58,
      "▁decisions": 59,
      "▁promising": 60,
      "▁07/14/2000": 61,
      "▁damp": 62,
      "▁batman": 63,
      "▁imagination": 64,
      "##can": 65,
      "▁mi": 66,
      "▁subst": 67,
      "▁busy": 68,
      "▁equipment": 69,
      "▁politics": 70,
      "##idden": 71,
      "▁punched": 72,
      "##amble": 73,
      "▁spin": 74,
      "▁sign": 75,
      "▁wra": 76,
      "##ip": 77,
      "▁groc": 78,
      "##ort": 79,
      "##cont": 80,
      "▁tol": 81,
      "▁wikimedia": 82,
      "▁1868": 83,
      "▁asia": 84,
      "##er": 85,
      "▁713-646-3393": 86,
      "▁impacts": 87,
      "▁cape": 88,
      "##ved": 89,
      "▁cott": 90,
      "▁endless": 91,
      "▁sadr": 92,
      "▁obstacles": 93,
      "▁favorite": 94,
      "▁tul": 95,
      "▁bib": 96,
      "▁(b)": 97,
      "▁excell": 98,
      "##ا": 99,
      "##able": 100,
      "▁sled": 101,
      "▁baltim": 102,
      "▁jerry": 103,
      "▁toll": 104,
      "▁08/03/2000": 105,
      "▁traci": 106,
      "▁appreh": 107,
      "▁shares": 108,
      "▁anxious": 109,
      "##acious": 110,
      "▁hull": 111,
      "▁inexpensive": 112,
      "▁carn": 113,
      "▁taj": 114,
      "▁animal": 115,
      "▁collapse": 116,
      "##-by": 117,
      "##uum": 118,
      "▁artillery": 119,
      "##erv": 120,
      "▁story": 121,
      "▁jennifer": 122,
      "▁recipients": 123,
      "▁francois": 124,
      "▁6.8": 125,
      "▁defeated": 126,
      "##ras": 127,
      "▁talented": 128,
      "▁singapore": 129,
      "▁kevin": 130,
      "▁bern": 131,
      "▁aut": 132,
      "▁inhabit": 133,
      "▁context": 134,
      "▁advice": 135,
      "▁telev": 136,
      "▁respect": 137,
      "▁brain": 138,
      "d": 139,
      "▁23": 140,
      "▁twisted": 141,
      "##wart": 142,
      "▁tik": 143,
      "##ers": 144,
      "▁change": 145,
      "##end": 146,
      "▁exceptional": 147,
      "##entic": 148,
      "▁potty": 149,
      "▁alcohol": 150,
      "▁murders": 151,
      "▁1928": 152,
      "▁proclaim": 153,
      "▁ginny": 154,
      "▁per": 155,
      "##night": 156,
      "▁alternatives": 157,
      "▁concent": 158,
      "▁considering": 159,
      "##all": 160,
      "##bern": 161,
      "▁claiming": 162,
      "▁techn": 163,
      "▁pimple": 164,
      "▁setup": 165,
      "##gate": 166,
      "▁endeavor": 167,
      "▁agriculture": 168,
      "▁jenna": 169,
      "▁as400": 170,
      "##adv": 171,
      "▁scanning": 172,
      "##ap": 173,
      "##ieu": 174,
      "##ensive": 175,
      "##ract": 176,
      "##ither": 177,
      "▁wif": 178,
      "▁olympics": 179,
      "▁mailman": 180,
      "▁{": 181,
      "▁volunteer": 182,
      "▁deadline": 183,
      "▁argues": 184,
      "▁exhibits": 185,
      "▁look": 186,
      "▁lig": 187,
      "▁espec": 188,
      "▁compel": 189,
      "##66": 190,
      "▁enterpr": 191,
      "##-7-0": 192,
      "·": 193,
      "##mar": 194,
      "▁832": 195,
      "▁canon": 196,
      "▁float": 197,
      "##code": 198,
      "##led": 199,
      "▁att": 200,
      "▁recon": 201,
      "▁padaleck": 202,
      "##ε": 203,
      "图": 204,
      "▁aircraft": 205,
      "▁headband": 206,
      "▁poo": 207,
      "##are": 208,
      "##alk": 209,
      "▁prohib": 210,
      "▁forgotten": 211,
      "▁functioning": 212,
      "▁01:14": 213,
      "▁neglig": 214,
      "▁inst": 215,
      "▁hit": 216,
      "▁petition": 217,
      "▁remaining": 218,
      "▁04:28": 219,
      "▁emotion": 220,
      "##n.": 221,
      "▁tut": 222,
      "##istor": 223,
      "▁january": 224,
      "##/99": 225,
      "▁century": 226,
      "##omed": 227,
      "▁1902": 228,
      "▁05/03/2001": 229,
      "##urch": 230,
      "##arter": 231,
      "▁agrees": 232,
      "▁bwww": 233,
      "▁paseo": 234,
      "▁monumental": 235,
      "▁thous": 236,
      "##.11": 237,
      "▁gro": 238,
      "##elds": 239,
      "##49": 240,
      "##abel": 241,
      "▁deserted": 242,
      "▁der": 243,
      "##ervation": 244,
      "▁susp": 245,
      "▁mere": 246,
      "▁yacht": 247,
      "▁extra": 248,
      "▁kw": 249,
      "▁bigger": 250,
      "▁now": 251,
      "▁1951": 252,
      "6": 253,
      "▁run": 254,
      "▁location": 255,
      "▁affected": 256,
      "▁graphic": 257,
      "##80": 258,
      "▁beaches": 259,
      "##ones": 260,
      "▁nah": 261,
      "##ake": 262,
      "▁viet": 263,
      "▁mort": 264,
      "▁03": 265,
      "▁airpl": 266,
      "▁lem": 267,
      "▁simp": 268,
      "▁chin": 269,
      "▁senses": 270,
      "▁uhoh": 271,
      "▁fiscal": 272,
      "▁event": 273,
      "▁disapp": 274,
      "▁must": 275,
      "▁cabbage": 276,
      "▁productive": 277,
      "▁great": 278,
      "▁coordination": 279,
      "▁1599": 280,
      "▁represented": 281,
      "▁alt.animals.c": 282,
      "▁price": 283,
      "▁perse": 284,
      "##rosh": 285,
      "▁neg": 286,
      "▁ai": 287,
      "▁814014": 288,
      "▁kitch": 289,
      "##’": 290,
      "▁addressed": 291,
      "▁champ": 292,
      "▁2500": 293,
      "▁bee": 294,
      "▁glob": 295,
      "▁few": 296,
      "##ise": 297,
      "##aman": 298,
      "▁94": 299,
      "▁belg": 300,
      "▁his": 301,
      "##ensely": 302,
      "▁random": 303,
      "##:14": 304,
      "▁4.0": 305,
      "▁attracting": 306,
      "▁god": 307,
      "▁frontiers": 308,
      "▁church": 309,
      "▁blond": 310,
      "▁191": 311,
      "▁straps": 312,
      "▁grammar": 313,
      "##eces": 314,
      "▁danger": 315,
      "▁whereby": 316,
      "##[": 317,
      "##ex": 318,
      "▁cens": 319,
      "▁ostr": 320,
      "▁l'": 321,
      "##itters": 322,
      "▁gone": 323,
      "▁dip": 324,
      "▁predators": 325,
      "##.1234": 326,
      "##art": 327,
      "▁hotel": 328,
      "##ights": 329,
      "▁olive": 330,
      "##ce": 331,
      "▁test": 332,
      "▁covered": 333,
      "▁socc": 334,
      "▁although": 335,
      "▁tehr": 336,
      "##arked": 337,
      "▁steam": 338,
      "▁lab": 339,
      "▁bund": 340,
      "##liver": 341,
      "▁stead": 342,
      "▁salesman": 343,
      "##ith": 344,
      "▁wall": 345,
      "▁ratt": 346,
      "##gs": 347,
      "▁empan": 348,
      "##enna": 349,
      "##oes": 350,
      "##uces": 351,
      "▁diaper": 352,
      "▁proc": 353,
      "▁chann": 354,
      "▁bureaucr": 355,
      "▁guaranty": 356,
      "▁supposed": 357,
      "##903": 358,
      "##___________": 359,
      "▁santa": 360,
      "##chernobyl": 361,
      "▁force": 362,
      "▁gathering": 363,
      "▁vertical": 364,
      "▁03/27/2001": 365,
      "▁amounts": 366,
      "▁subsequent": 367,
      "▁leading": 368,
      "▁debris": 369,
      "##itten": 370,
      "##/index": 371,
      "▁nobel": 372,
      "▁legisl": 373,
      "##-8": 374,
      "▁fortun": 375,
      "▁horizon": 376,
      "▁queb": 377,
      "▁11/29/2000": 378,
      "##science": 379,
      "▁catholic": 380,
      "##with": 381,
      "▁collect": 382,
      "##rd": 383,
      "##oren": 384,
      "▁balloons": 385,
      "##anda": 386,
      "▁receipt": 387,
      "##hin": 388,
      "##alog": 389,
      "▁redistrib": 390,
      "▁sla": 391,
      "▁neoc": 392,
      "▁1530": 393,
      "▁statement": 394,
      "▁rot": 395,
      "▁equally": 396,
      "▁insurg": 397,
      "##ouble": 398,
      "▁november": 399,
      "▁ya": 400,
      "▁1960s": 401,
      "##renched": 402,
      "▁perman": 403,
      "▁deemed": 404,
      "▁rarely": 405,
      "##rough": 406,
      "▁demonstrated": 407,
      "▁relaxing": 408,
      "##oculars": 409,
      "##orton": 410,
      "▁requiring": 411,
      "▁listen": 412,
      "▁217": 413,
      "▁match": 414,
      "▁undert": 415,
      "▁dyn": 416,
      "##--------+----------------": 417,
      "▁interp": 418,
      "▁booking": 419,
      "▁fut": 420,
      "##ular": 421,
      "▁8:30": 422,
      "▁collaborative": 423,
      ">": 424,
      "▁environment": 425,
      "▁smart": 426,
      "▁afterwards": 427,
      "▁gave": 428,
      "▁superior": 429,
      "▁this": 430,
      "▁changes": 431,
      "▁cleric": 432,
      "▁hamilton": 433,
      "▁peek": 434,
      "r": 435,
      "▁your": 436,
      "▁vacc": 437,
      "▁gun": 438,
      "▁studied": 439,
      "▁achievement": 440,
      "▁readers": 441,
      "▁09/16": 442,
      "▁danny": 443,
      "▁unkn": 444,
      "##ologist": 445,
      "▁dand": 446,
      "▁notch": 447,
      "▁120,000": 448,
      "##matic": 449,
      "▁pon": 450,
      "▁sensitivity": 451,
      "▁compan": 452,
      "##room": 453,
      "▁persons": 454,
      "▁critic": 455,
      "▁fair": 456,
      "##ales": 457,
      "##erable": 458,
      "▁terms": 459,
      "▁tigers": 460,
      "##,008": 461,
      "##ribly": 462,
      "▁1608": 463,
      "▁grow": 464,
      "##.0": 465,
      "▁hog": 466,
      "##its": 467,
      "##ts": 468,
      "▁512": 469,
      "▁decor": 470,
      "##amar": 471,
      "##ech": 472,
      "▁advised": 473,
      "##beth": 474,
      "▁vice": 475,
      "▁tradem": 476,
      "▁mohamed": 477,
      "▁listing": 478,
      "▁amendments": 479,
      "▁cried": 480,
      "▁muscle": 481,
      "▁ones": 482,
      "▁williams": 483,
      "▁stro": 484,
      "##occo": 485,
      "▁wise": 486,
      "▁st": 487,
      "▁completed": 488,
      "▁reject": 489,
      "▁202": 490,
      "##ronic": 491,
      "##oral": 492,
      "##ogn": 493,
      "▁28,000": 494,
      "▁pressure": 495,
      "▁earned": 496,
      "▁period": 497,
      "▁_______": 498,
      "▁sneeze": 499,
      "##ador": 500,
      "▁state": 501,
      "▁behaviour": 502,
      "▁3,": 503,
      "▁biggest": 504,
      "▁apost": 505,
      "▁!!!": 506,
      "▁fix": 507,
      "▁knows": 508,
      "▁mathemat": 509,
      "▁packing": 510,
      "##ke": 511,
      "▁processes": 512,
      "▁(c)": 513,
      "▁glasses": 514,
      "▁dresses": 515,
      "▁legit": 516,
      "##61": 517,
      "▁misunder": 518,
      "▁succeed": 519,
      "▁03/08/2000": 520,
      "▁burned": 521,
      "##chart": 522,
      "▁.?": 523,
      "▁month": 524,
      "▁plane": 525,
      "##-49": 526,
      "##onna": 527,
      "▁clients": 528,
      "▁coupled": 529,
      "▁1944": 530,
      "##ug": 531,
      "▁continuously": 532,
      "##iss": 533,
      "▁caut": 534,
      "▁spine": 535,
      "▁skip": 536,
      "▁swing": 537,
      "▁infinite": 538,
      "▁5:30": 539,
      "▁obligation": 540,
      "✉": 541,
      "▁fast": 542,
      "▁theat": 543,
      "▁-ect": 544,
      "▁listed": 545,
      "▁volleyball": 546,
      "▁gal": 547,
      "##mike": 548,
      "▁interference": 549,
      "▁belief": 550,
      "##itely": 551,
      "▁amster": 552,
      "▁guadel": 553,
      "▁exchanged": 554,
      "##nondel": 555,
      "##rid": 556,
      "▁syntactic": 557,
      "▁decl": 558,
      "▁concepts": 559,
      "▁equip": 560,
      "▁tablet": 561,
      "▁makes": 562,
      "▁shiny": 563,
      "▁underwear": 564,
      "▁compact": 565,
      "▁risk": 566,
      "▁nc": 567,
      "▁interrog": 568,
      "▁401": 569,
      "▁anthrop": 570,
      "▁uniqu": 571,
      "▁entertainment": 572,
      "▁orth": 573,
      "ł": 574,
      "##9933": 575,
      "##gment": 576,
      "▁surviv": 577,
      ";": 578,
      "▁common": 579,
      "▁propose": 580,
      "▁enorm": 581,
      "▁introduce": 582,
      "##.75": 583,
      "##ille": 584,
      "▁costly": 585,
      "▁attain": 586,
      "▁imposs": 587,
      "##inely": 588,
      "▁salty": 589,
      "▁kin": 590,
      "##version": 591,
      "▁neoclassical": 592,
      "##umer": 593,
      "▁horiz": 594,
      "▁concrete": 595,
      "▁harrow": 596,
      "▁sl": 597,
      "▁disappoint": 598,
      "▁kam": 599,
      "▁biew": 600,
      "▁kend": 601,
      "▁blah": 602,
      "▁3/9": 603,
      "▁interests": 604,
      "▁lucy": 605,
      "##izabeth": 606,
      "▁priced": 607,
      "##points": 608,
      "##off": 609,
      "▁locom": 610,
      "▁somewhat": 611,
      "▁restruct": 612,
      "##oped": 613,
      "▁chess": 614,
      "▁.2": 615,
      "▁yoko": 616,
      "##med": 617,
      "##85": 618,
      "▁introducing": 619,
      "▁singer": 620,
      "▁operating": 621,
      "▁schedule": 622,
      "▁puppet": 623,
      "▁trop": 624,
      "##eline": 625,
      "▁radiation": 626,
      "▁delivery": 627,
      "##arents": 628,
      "▁six": 629,
      "▁sciss": 630,
      "▁treas": 631,
      "▁queen": 632,
      "▁becom": 633,
      "▁nails": 634,
      "▁nation": 635,
      "##urs": 636,
      "▁runs": 637,
      "▁07/1": 638,
      "▁rank": 639,
      "▁trump": 640,
      "##ellow": 641,
      "▁wikinews": 642,
      "▁430": 643,
      "▁!": 644,
      "▁ans": 645,
      "##k.ur": 646,
      "##uting": 647,
      "▁cocktail": 648,
      "##and": 649,
      "▁cy": 650,
      "▁planning": 651,
      "▁normally": 652,
      "▁prey": 653,
      "▁the": 654,
      "▁shower": 655,
      "▁ideally": 656,
      "▁23rd": 657,
      "▁ahead": 658,
      "▁fift": 659,
      "▁scored": 660,
      "▁carbon": 661,
      "##acters": 662,
      "▁situation": 663,
      "▁petroleum": 664,
      "▁co-": 665,
      "▁vers": 666,
      "▁bears": 667,
      "▁ramp": 668,
      "▁action": 669,
      "▁ling": 670,
      "▁virginia": 671,
      "▁eighteen": 672,
      "▁damned": 673,
      "$": 674,
      "▁raphael": 675,
      "▁posters": 676,
      "▁sher": 677,
      "▁http://www.4gamer.net/news/image/2005.09/2005": 678,
      "▁spill": 679,
      "##inski": 680,
      "▁bc": 681,
      "▁mich": 682,
      "▁evolve": 683,
      "▁extraordinary": 684,
      "▁aka": 685,
      "▁nig": 686,
      "▁ian": 687,
      "▁10:30": 688,
      "##abi": 689,
      "▁crazy": 690,
      "▁absent": 691,
      "▁princess": 692,
      "▁jail": 693,
      "▁enj": 694,
      "▁appropri": 695,
      "##tt": 696,
      "▁lys": 697,
      "▁concert": 698,
      "▁maize": 699,
      "▁impose": 700,
      "▁compressor": 701,
      "▁facilitate": 702,
      "▁ep": 703,
      "▁wooden": 704,
      "▁opponent": 705,
      "▁345": 706,
      "▁heard": 707,
      "▁issued": 708,
      "▁palestinians": 709,
      "▁intends": 710,
      "▁abdul": 711,
      "▁depot": 712,
      "▁cargill": 713,
      "▁folks": 714,
      "##/10/2004": 715,
      "▁[...]": 716,
      "▁searches": 717,
      "▁websites": 718,
      "##othy": 719,
      "▁bid": 720,
      "▁urine": 721,
      "▁servant": 722,
      "▁wiped": 723,
      "▁charge": 724,
      "▁deficit": 725,
      "▁repeated": 726,
      "▁assum": 727,
      "▁takeoff": 728,
      "▁fabio": 729,
      "▁inherent": 730,
      "▁gag": 731,
      "▁grace": 732,
      "▁testing": 733,
      "▁xsd": 734,
      "▁percell": 735,
      "▁irr": 736,
      "##enger": 737,
      "▁leonardo": 738,
      "▁draft": 739,
      "##ahan": 740,
      "▁indig": 741,
      "▁neighbourhood": 742,
      "▁officially": 743,
      "▁dedication": 744,
      "▁ice": 745,
      "▁1-800-991-9": 746,
      "▁oath": 747,
      "##nine": 748,
      "▁loop": 749,
      "##od": 750,
      "▁zeal": 751,
      "▁vietnam": 752,
      "▁claims": 753,
      "##inking": 754,
      "▁cows": 755,
      "##reck": 756,
      "▁undergraduate": 757,
      "▁eco": 758,
      "▁trad": 759,
      "▁cara": 760,
      "▁derived": 761,
      "▁!?!": 762,
      "##unition": 763,
      "▁decision": 764,
      "▁grizz": 765,
      "▁robots": 766,
      "▁feared": 767,
      "##1696": 768,
      "▁experi": 769,
      "▁toxic": 770,
      "##otten": 771,
      "▁cons": 772,
      "##des": 773,
      "▁cen": 774,
      "##epend": 775,
      "▁middle": 776,
      "▁01/2": 777,
      "##irus": 778,
      "##web": 779,
      "▁parenteau": 780,
      "▁automatically": 781,
      "▁sexually": 782,
      "▁loc": 783,
      "▁protects": 784,
      "▁congressional": 785,
      "##-780-": 786,
      "##dging": 787,
      "▁braver": 788,
      "[SEP]": 789,
      "▁1997": 790,
      "##et": 791,
      "▁carnival": 792,
      "▁live": 793,
      "##ang": 794,
      "▁oops": 795,
      "▁fry": 796,
      "▁ok": 797,
      "▁gigantic": 798,
      "##clusion": 799,
      "▁exactly": 800,
      "##illy": 801,
      "▁8:00": 802,
      "▁contacts": 803,
      "▁squirt": 804,
      "▁identical": 805,
      "▁justin": 806,
      "▁+1": 807,
      "▁balanced": 808,
      "##kins": 809,
      "▁refrigerator": 810,
      "▁closest": 811,
      "▁fridays": 812,
      "▁registration": 813,
      "▁includ": 814,
      "▁boil": 815,
      "▁contributions": 816,
      "##porary": 817,
      "▁believes": 818,
      "▁obama": 819,
      "▁salute": 820,
      "▁protected": 821,
      "▁1689": 822,
      "##415-": 823,
      "▁generators": 824,
      "▁woke": 825,
      "▁province": 826,
      "▁trails": 827,
      "▁:d": 828,
      "▁anna": 829,
      "▁saitama": 830,
      "▁worthy": 831,
      "▁yesterday": 832,
      "▁wonderful": 833,
      "##eeze": 834,
      "▁session": 835,
      "▁play": 836,
      "▁315-460-33": 837,
      "▁dine": 838,
      "▁submitted": 839,
      "▁answering": 840,
      "▁ridic": 841,
      "▁shibu": 842,
      "▁naim": 843,
      "##inging": 844,
      "▁hay": 845,
      "▁gentlemen": 846,
      "▁pocketbook": 847,
      "##erc": 848,
      "▁standards": 849,
      "▁hous": 850,
      "##rew": 851,
      "##uls": 852,
      "▁thorough": 853,
      "##ada": 854,
      "▁1888": 855,
      "##icemail": 856,
      "▁bless": 857,
      "▁5.5": 858,
      "▁sock": 859,
      "▁anytime": 860,
      "▁squeeze": 861,
      "▁lid": 862,
      "▁texas": 863,
      "▁read": 864,
      "▁putting": 865,
      "▁affairs": 866,
      "▁enrongss": 867,
      "▁carrier": 868,
      "▁alloc": 869,
      "▁mister": 870,
      "##el": 871,
      "▁crane": 872,
      "##irl": 873,
      "▁observed": 874,
      "▁***": 875,
      "▁summer": 876,
      "##ough": 877,
      "▁nich": 878,
      "▁equals": 879,
      "▁hospitals": 880,
      "##official": 881,
      "##oph": 882,
      "▁established": 883,
      "▁funds": 884,
      "▁decent": 885,
      "▁marginal": 886,
      "##acon": 887,
      "▁resem": 888,
      "▁oregon": 889,
      "▁team": 890,
      "▁maintains": 891,
      "▁du": 892,
      "##quis": 893,
      "▁const": 894,
      "▁defence": 895,
      "▁canned": 896,
      "▁chronic": 897,
      "##9999": 898,
      "▁shortest": 899,
      "▁tid": 900,
      "▁pop": 901,
      "▁appeared": 902,
      "▁wandering": 903,
      "##vor": 904,
      "▁magazines": 905,
      "▁jenn": 906,
      "▁impossible": 907,
      "▁fillmore": 908,
      "▁miles": 909,
      "ا": 910,
      "##by": 911,
      "▁×": 912,
      "▁ideal": 913,
      "▁fount": 914,
      "3": 915,
      "▁que": 916,
      "▁814": 917,
      "▁preced": 918,
      "##ont": 919,
      "##fire": 920,
      "##ieve": 921,
      "▁lev": 922,
      "▁score": 923,
      "▁neighborhood": 924,
      "▁false": 925,
      "▁nineteen": 926,
      "▁888.916.718": 927,
      "▁adoption": 928,
      "▁stupid": 929,
      "##eez": 930,
      "##ictions": 931,
      "▁je": 932,
      "▁a.m.": 933,
      "▁newark": 934,
      "▁planes": 935,
      "▁a1": 936,
      "▁beaver": 937,
      "##ł": 938,
      "▁taiwan": 939,
      "▁genetic": 940,
      "▁smok": 941,
      "▁advert": 942,
      "▁promise": 943,
      "##inson": 944,
      "▁1836": 945,
      "▁simpl": 946,
      "##ests": 947,
      "▁collective": 948,
      "##ild": 949,
      "▁tony": 950,
      "▁dump": 951,
      "▁prior": 952,
      "##æ": 953,
      "##940": 954,
      "##image": 955,
      "▁photographers": 956,
      "▁pants": 957,
      "▁recre": 958,
      "##attering": 959,
      "##7/2000": 960,
      "▁returns": 961,
      "▁being": 962,
      "▁rumsfeld": 963,
      "##miah": 964,
      "▁contributing": 965,
      "▁jurisdiction": 966,
      "▁ski": 967,
      "▁sic": 968,
      "▁near": 969,
      "##ull": 970,
      "##200": 971,
      "▁stepped": 972,
      "##nia": 973,
      "▁choo": 974,
      "▁pierre": 975,
      "▁riding": 976,
      "##yn": 977,
      "▁poet": 978,
      "▁closed": 979,
      "▁convinc": 980,
      "▁dursleys": 981,
      "▁succeeded": 982,
      "▁daniel": 983,
      "▁se": 984,
      "▁comprom": 985,
      "▁neurol": 986,
      "▁unh": 987,
      "▁requirement": 988,
      "▁programming": 989,
      "##og": 990,
      "##ف": 991,
      "▁similarly": 992,
      "▁sofa": 993,
      "▁bent": 994,
      "▁goriot": 995,
      "▁lik": 996,
      "▁********************************": 997,
      "ز": 998,
      "▁toystore": 999,
      "▁hajj": 1000,
      "▁embass": 1001,
      "▁transmission": 1002,
      "##iah": 1003,
      "##lf": 1004,
      "##anas": 1005,
      "▁encour": 1006,
      "##raid": 1007,
      "▁linda": 1008,
      "▁german": 1009,
      "▁646-8420": 1010,
      "▁histor": 1011,
      "▁explo": 1012,
      "▁junior": 1013,
      "▁hire": 1014,
      "▁logic": 1015,
      "▁1801": 1016,
      "▁bir": 1017,
      "##tle": 1018,
      "▁17": 1019,
      "▁lines": 1020,
      "##rina": 1021,
      "▁nov": 1022,
      "##ions": 1023,
      "▁virtuous": 1024,
      "##ler": 1025,
      "##.co.uk/": 1026,
      "▁overt": 1027,
      "▁quino": 1028,
      "▁previous": 1029,
      "▁propos": 1030,
      "▁ingred": 1031,
      "▁estimate": 1032,
      "▁laid": 1033,
      "▁styrofoam": 1034,
      "▁tropical": 1035,
      "▁referee": 1036,
      "▁krist": 1037,
      "▁tankers": 1038,
      "▁los": 1039,
      "##enron.com": 1040,
      "▁tel": 1041,
      "▁guarantee": 1042,
      "▁superf": 1043,
      "▁occupied": 1044,
      "▁pas": 1045,
      "▁racing": 1046,
      "##place": 1047,
      "▁everyday": 1048,
      "##eting": 1049,
      "▁gym": 1050,
      "##ach": 1051,
      "▁considered": 1052,
      "▁discouraging": 1053,
      "▁places": 1054,
      "▁romantic": 1055,
      "▁journey": 1056,
      "##.5": 1057,
      "▁handker": 1058,
      "▁floyd": 1059,
      "▁forty-eight": 1060,
      "▁counter": 1061,
      "▁bu": 1062,
      "▁service": 1063,
      "##maine": 1064,
      "▁harris": 1065,
      "▁it's": 1066,
      "##essee": 1067,
      "▁presumably": 1068,
      "▁donkey": 1069,
      "##ual": 1070,
      "▁whoo": 1071,
      "▁sunglasses": 1072,
      "▁incomes": 1073,
      "##ene": 1074,
      "▁convey": 1075,
      "▁resolution": 1076,
      "▁araf": 1077,
      "▁508": 1078,
      "▁helped": 1079,
      "▁ll": 1080,
      "##eenth": 1081,
      "▁marks": 1082,
      "▁names": 1083,
      "▁ld2": 1084,
      "▁tended": 1085,
      "▁minneapolis": 1086,
      "▁things": 1087,
      "▁foreigner": 1088,
      "▁begins": 1089,
      "▁perfect": 1090,
      "▁justification": 1091,
      "▁console": 1092,
      "##ders": 1093,
      "▁asked": 1094,
      "##riv": 1095,
      "##--------------------------------------------": 1096,
      "##oo": 1097,
      "▁))": 1098,
      "##pring": 1099,
      "▁directives": 1100,
      "▁excellent": 1101,
      "▁divor": 1102,
      "▁urge": 1103,
      "▁analy": 1104,
      "##esses": 1105,
      "▁imp": 1106,
      "▁atta": 1107,
      "▁counterfeiting": 1108,
      "▁twelf": 1109,
      "▁somehow": 1110,
      "▁hundreds": 1111,
      "▁bound": 1112,
      "▁neare": 1113,
      "▁councill": 1114,
      "▁integrity": 1115,
      "▁hippopotamus": 1116,
      "##atter": 1117,
      "▁sf": 1118,
      "▁wandered": 1119,
      "▁identified": 1120,
      "▁headaches": 1121,
      "▁tur": 1122,
      "▁sv": 1123,
      "▁belongs": 1124,
      "▁amidst": 1125,
      "▁set": 1126,
      "▁produce": 1127,
      "##ired": 1128,
      "##phis": 1129,
      "▁315-": 1130,
      "##reh": 1131,
      "{": 1132,
      "▁apolog": 1133,
      "##imony": 1134,
      "▁homeopath": 1135,
      "▁reduced": 1136,
      "##azz": 1137,
      "▁mac": 1138,
      "▁tighten": 1139,
      "▁shoes": 1140,
      "▁structure": 1141,
      "▁europe": 1142,
      "##set": 1143,
      "##rete": 1144,
      "▁absorb": 1145,
      "▁gaming": 1146,
      "▁melting": 1147,
      "▁fewer": 1148,
      "▁characterized": 1149,
      "▁padd": 1150,
      "▁wildcard": 1151,
      "▁08/03": 1152,
      "▁reservation": 1153,
      "▁dh": 1154,
      "##apt": 1155,
      "▁king": 1156,
      "▁possibly": 1157,
      "▁pre-": 1158,
      "▁legitimate": 1159,
      "▁suspicion": 1160,
      "▁branch": 1161,
      "▁allowing": 1162,
      "▁arab": 1163,
      "▁nothing": 1164,
      "##ternal": 1165,
      "▁chant": 1166,
      "▁dese": 1167,
      "▁6:00": 1168,
      "▁simple": 1169,
      "▁axis": 1170,
      "##enders": 1171,
      "▁moreau": 1172,
      "##ro": 1173,
      "##athy": 1174,
      "山": 1175,
      "##du": 1176,
      "##urtz": 1177,
      "▁whereas": 1178,
      "▁www": 1179,
      "▁contrast": 1180,
      "▁highlight": 1181,
      "▁statute": 1182,
      "▁reasonably": 1183,
      "▁airport": 1184,
      "▁uncomfortable": 1185,
      "▁browser": 1186,
      "▁health": 1187,
      "▁drift": 1188,
      "▁nanny": 1189,
      "▁notebook": 1190,
      "▁emphas": 1191,
      "▁kat": 1192,
      "##1.": 1193,
      "▁60,000": 1194,
      "▁university": 1195,
      "##igu": 1196,
      "▁770": 1197,
      "▁mass": 1198,
      "##460-3": 1199,
      "▁land": 1200,
      "▁purely": 1201,
      "▁diego": 1202,
      "▁sidd": 1203,
      "▁forms": 1204,
      "▁crawl": 1205,
      "##boro": 1206,
      "▁mine": 1207,
      "▁fol": 1208,
      "▁central": 1209,
      "▁homes": 1210,
      "▁72,000": 1211,
      "##zai": 1212,
      "▁wav": 1213,
      "▁festival": 1214,
      "▁share": 1215,
      "▁representation": 1216,
      "▁autumn": 1217,
      "##-in": 1218,
      "▁width": 1219,
      "▁remarked": 1220,
      "p": 1221,
      "▁namely": 1222,
      "▁assets": 1223,
      "▁sudan": 1224,
      "##bs": 1225,
      "▁australia": 1226,
      "▁overwh": 1227,
      "##‘": 1228,
      "▁http://www.c": 1229,
      "##ullah": 1230,
      "▁brooklyn": 1231,
      "▁405": 1232,
      "▁addition": 1233,
      "▁exclud": 1234,
      "▁makeup": 1235,
      "▁robinson": 1236,
      "▁arr": 1237,
      "##bun": 1238,
      "##tern": 1239,
      "##:39": 1240,
      "▁here": 1241,
      "▁corruption": 1242,
      "##emade": 1243,
      "▁shy": 1244,
      "▁gates": 1245,
      "▁bump": 1246,
      "▁korean": 1247,
      "##ttes": 1248,
      "##.net/news/image/2005.09": 1249,
      "▁pediat": 1250,
      "▁invested": 1251,
      "##<": 1252,
      "▁children": 1253,
      "▁bankrupt": 1254,
      "▁gradually": 1255,
      "▁studying": 1256,
      "β": 1257,
      "##.g": 1258,
      "▁earn": 1259,
      "▁brutal": 1260,
      "▁hogwarts": 1261,
      "##μ": 1262,
      "▁hol": 1263,
      "▁towns": 1264,
      "▁soy": 1265,
      "▁aesth": 1266,
      "▁honest": 1267,
      "▁desire": 1268,
      "▁clean": 1269,
      "▁limits": 1270,
      "##iers": 1271,
      "▁ow": 1272,
      "▁pleased": 1273,
      "▁flir": 1274,
      "▁port": 1275,
      "##ream": 1276,
      "##ieval": 1277,
      "##endous": 1278,
      "▁literature": 1279,
      "##gr": 1280,
      "▁+": 1281,
      "▁gardens": 1282,
      "##rec": 1283,
      "▁advanced": 1284,
      "▁allowance": 1285,
      "##ipple": 1286,
      "▁batteries": 1287,
      "▁rising": 1288,
      "##~*~*": 1289,
      "▁values": 1290,
      "##ief": 1291,
      "▁cave": 1292,
      "▁interstellar": 1293,
      "##acio": 1294,
      "▁ink": 1295,
      "▁proceeding": 1296,
      "▁subscrib": 1297,
      "▁stub": 1298,
      "³": 1299,
      "##iv": 1300,
      "▁crushing": 1301,
      "##the": 1302,
      "▁2017": 1303,
      "▁>--------------------------------": 1304,
      "▁datab": 1305,
      "▁probability": 1306,
      "##uck": 1307,
      "▁1972": 1308,
      "▁demands": 1309,
      "▁soviet": 1310,
      "▁astron": 1311,
      "##res": 1312,
      "##ier": 1313,
      "▁reward": 1314,
      "##anamo": 1315,
      "##ur": 1316,
      "▁exact": 1317,
      "▁cav": 1318,
      "▁08": 1319,
      "▁repet": 1320,
      "▁mailing": 1321,
      "▁kennedy": 1322,
      "##8-7-01": 1323,
      "▁!!!!!!!!!!!!!!!": 1324,
      "##erry": 1325,
      "▁eee": 1326,
      "▁dragged": 1327,
      "##bruary": 1328,
      "▁writer": 1329,
      "##enues": 1330,
      "▁rathbun": 1331,
      "▁husband": 1332,
      "##orus": 1333,
      "▁vlog": 1334,
      "▁remainder": 1335,
      "▁pean": 1336,
      "▁forster": 1337,
      "▁reference": 1338,
      "▁swed": 1339,
      "##9th": 1340,
      "##ones@": 1341,
      "##bank": 1342,
      "##ision": 1343,
      "##口": 1344,
      "▁myth": 1345,
      "##issipp": 1346,
      "##killed": 1347,
      "▁713-853-3098": 1348,
      "##90": 1349,
      "▁approximation": 1350,
      "▁amending": 1351,
      "▁sin": 1352,
      "▁troops": 1353,
      "▁compuls": 1354,
      "▁monitor": 1355,
      "▁electrical": 1356,
      "▁crick": 1357,
      "▁advise": 1358,
      "▁coin": 1359,
      "▁bronze": 1360,
      "▁contain": 1361,
      "▁proper": 1362,
      "▁inspired": 1363,
      "▁noted": 1364,
      "▁article": 1365,
      "▁11:45": 1366,
      "▁undertaken": 1367,
      "▁bludgers": 1368,
      "##-e": 1369,
      "▁grade": 1370,
      "▁handsome": 1371,
      "▁tastes": 1372,
      "▁unhappy": 1373,
      "##201": 1374,
      "▁wonder": 1375,
      "▁judging": 1376,
      "▁devon": 1377,
      "▁injustice": 1378,
      "▁corn": 1379,
      "▁russians": 1380,
      "▁shirt": 1381,
      "▁included": 1382,
      "▁argent": 1383,
      "▁exem": 1384,
      "▁monthly": 1385,
      "▁invoked": 1386,
      "▁hydrogen": 1387,
      "▁rebels": 1388,
      "▁ulterior": 1389,
      "##zb": 1390,
      "▁165": 1391,
      "▁britney": 1392,
      "▁turns": 1393,
      "##oy": 1394,
      "▁correctly": 1395,
      "“": 1396,
      "▁generous": 1397,
      "▁cant": 1398,
      "▁mean": 1399,
      "▁chemical": 1400,
      "▁communicate": 1401,
      "▁spank": 1402,
      "▁secular": 1403,
      "##hastings.com": 1404,
      "##...": 1405,
      "##alo": 1406,
      "▁stops": 1407,
      "▁responsibilities": 1408,
      "▁progress": 1409,
      "▁934": 1410,
      "##ors": 1411,
      "##av": 1412,
      "▁legitim": 1413,
      "##pped": 1414,
      "##@n": 1415,
      "▁title": 1416,
      "▁successfully": 1417,
      "▁appearing": 1418,
      "##ued": 1419,
      "▁ralph": 1420,
      "▁business": 1421,
      "▁valley": 1422,
      "▁represent": 1423,
      "▁parts": 1424,
      "▁core": 1425,
      "▁belonged": 1426,
      "▁noise": 1427,
      "##acent": 1428,
      "▁quidditch": 1429,
      "▁unfortun": 1430,
      "▁filters": 1431,
      "##olly": 1432,
      "▁guess": 1433,
      "▁connecting": 1434,
      "##lessly": 1435,
      "▁robes": 1436,
      "##??": 1437,
      "▁spores": 1438,
      "▁david": 1439,
      "▁cred": 1440,
      "▁orientation": 1441,
      "##ards": 1442,
      "##ned": 1443,
      "▁delicious": 1444,
      "▁replication": 1445,
      "▁2nd": 1446,
      "▁goodbye": 1447,
      "▁analys": 1448,
      "▁barcl": 1449,
      "▁katrina": 1450,
      "▁nicobar": 1451,
      "▁compulsive": 1452,
      "▁purple": 1453,
      "▁retrie": 1454,
      "▁expert": 1455,
      "▁universal": 1456,
      "▁sect": 1457,
      "##-50": 1458,
      "▁dresser": 1459,
      "##hear": 1460,
      "▁powell": 1461,
      "▁poiss": 1462,
      "▁a": 1463,
      "▁scared": 1464,
      "▁legacy": 1465,
      "▁mob": 1466,
      "▁tower": 1467,
      "▁mangal": 1468,
      "▁organize": 1469,
      "▁travelled": 1470,
      "##eping": 1471,
      "▁jons": 1472,
      "▁gotted": 1473,
      "▁who": 1474,
      "▁unp": 1475,
      "▁furthermore": 1476,
      "▁filing": 1477,
      "▁bosnia": 1478,
      "▁sensing": 1479,
      "##ateral": 1480,
      "▁twelve": 1481,
      "▁antioch": 1482,
      "▁1958": 1483,
      "##12": 1484,
      "##ater": 1485,
      "▁obt": 1486,
      "##inger": 1487,
      "▁nationality": 1488,
      "琴": 1489,
      "▁courses": 1490,
      "▁wherever": 1491,
      "▁joshua": 1492,
      "▁politicians": 1493,
      "▁root": 1494,
      "##wig": 1495,
      "▁supers": 1496,
      "▁tim": 1497,
      "▁pest": 1498,
      "▁unaccept": 1499,
      "▁ups": 1500,
      "▁complex": 1501,
      "▁blackline": 1502,
      "##co": 1503,
      "▁administration": 1504,
      "##nament": 1505,
      "▁regulated": 1506,
      "▁1500": 1507,
      "▁flirting": 1508,
      "▁olivia": 1509,
      "▁3rd": 1510,
      "▁..........": 1511,
      "▁01:09": 1512,
      "▁association": 1513,
      "##aware": 1514,
      "▁scheduled": 1515,
      "▁cc": 1516,
      "##^": 1517,
      "##iana": 1518,
      "▁aff": 1519,
      "▁wis": 1520,
      "▁pri": 1521,
      "▁termination": 1522,
      "▁aug": 1523,
      "▁between": 1524,
      "y": 1525,
      "▁comed": 1526,
      "##202": 1527,
      "▁cloud": 1528,
      "▁tet": 1529,
      "##merce": 1530,
      "▁dinosaur": 1531,
      "▁exception": 1532,
      "▁37": 1533,
      "▁conditioning": 1534,
      "##ys": 1535,
      "▁nasa": 1536,
      "##ump": 1537,
      "##!!!!": 1538,
      "▁ercot": 1539,
      "##ins": 1540,
      "▁tickets": 1541,
      "##一": 1542,
      "▁jacob": 1543,
      "▁covid": 1544,
      "▁healing": 1545,
      "▁alter": 1546,
      "##:38": 1547,
      "▁11:16": 1548,
      "▁discomfort": 1549,
      "▁sk": 1550,
      "▁rescued": 1551,
      "▁ang": 1552,
      "##dham": 1553,
      "▁daughter": 1554,
      "▁wednesdays": 1555,
      "▁broadcasting": 1556,
      "##ken": 1557,
      "▁visited": 1558,
      "▁inning": 1559,
      "▁duties": 1560,
      "▁sp": 1561,
      "▁dipl": 1562,
      "▁sheikh": 1563,
      "▁roman": 1564,
      "▁british": 1565,
      "▁candles": 1566,
      "▁competition": 1567,
      "▁intellectual": 1568,
      "▁referring": 1569,
      "▁twin": 1570,
      "▁blows": 1571,
      "##ord": 1572,
      "▁distance": 1573,
      "▁cabinet": 1574,
      "##asc": 1575,
      "▁publicly": 1576,
      "▁exhausted": 1577,
      "▁boost": 1578,
      "▁equine": 1579,
      "##空": 1580,
      "▁electron": 1581,
      "▁lawsuit": 1582,
      "▁factor": 1583,
      "▁predict": 1584,
      "▁1.25": 1585,
      "▁12:3": 1586,
      "▁hon": 1587,
      "▁y": 1588,
      "##ature": 1589,
      "▁noises": 1590,
      "▁cul": 1591,
      "▁inspire": 1592,
      "▁partnership": 1593,
      "##urn": 1594,
      "##.p": 1595,
      "▁components": 1596,
      "▁html": 1597,
      "▁sad": 1598,
      "▁yaw": 1599,
      "##84": 1600,
      "▁coo": 1601,
      "▁twent": 1602,
      "▁tasty": 1603,
      "##unity": 1604,
      "##ione": 1605,
      "▁kidna": 1606,
      "▁tig": 1607,
      "▁pat": 1608,
      "▁transported": 1609,
      "▁tralee": 1610,
      "▁bure": 1611,
      "▁openly": 1612,
      "5": 1613,
      "##oding": 1614,
      "▁hum": 1615,
      "▁lettuce": 1616,
      "▁yoga": 1617,
      "▁in": 1618,
      "▁567.77": 1619,
      "▁190": 1620,
      "▁concerns": 1621,
      "▁burger": 1622,
      "▁nice": 1623,
      "▁traffic": 1624,
      "▁annoy": 1625,
      "▁muslim": 1626,
      "##anged": 1627,
      "▁curt": 1628,
      "▁dryer": 1629,
      "▁joh": 1630,
      "##54-": 1631,
      "▁1039": 1632,
      "▁guerr": 1633,
      "##ure": 1634,
      "▁answer": 1635,
      "▁pooh": 1636,
      "▁wash": 1637,
      "##119": 1638,
      "▁aber": 1639,
      "▁53": 1640,
      "▁escaped": 1641,
      "▁reduces": 1642,
      "▁exists": 1643,
      "▁pink": 1644,
      "▁derivatives": 1645,
      "▁stup": 1646,
      "##ration": 1647,
      "##128": 1648,
      "▁likewise": 1649,
      "▁beverage": 1650,
      "▁term": 1651,
      "▁conviction": 1652,
      "##book": 1653,
      "##ilight": 1654,
      "▁purp": 1655,
      "▁sufficient": 1656,
      "▁balloon": 1657,
      "▁hunt": 1658,
      "▁led": 1659,
      "▁holder": 1660,
      "▁insur": 1661,
      "▁harmony": 1662,
      "▁deput": 1663,
      "▁mailto:": 1664,
      "▁fundamentalist": 1665,
      "▁profess": 1666,
      "▁****": 1667,
      "▁ide": 1668,
      "▁ess": 1669,
      "##ko": 1670,
      "▁cheese": 1671,
      "▁arm": 1672,
      "##selves": 1673,
      "▁farmers": 1674,
      "▁prolong": 1675,
      "▁chu": 1676,
      "▁backed": 1677,
      "▁basically": 1678,
      "▁fa": 1679,
      "▁perfume": 1680,
      "▁1/4": 1681,
      "▁regime": 1682,
      "▁lime": 1683,
      "▁fin": 1684,
      "▁auth": 1685,
      "▁historic": 1686,
      "▁o'clock": 1687,
      "▁skilled": 1688,
      "##emies": 1689,
      "##yah": 1690,
      "▁gl": 1691,
      "▁ninety-nine": 1692,
      "▁russ": 1693,
      "▁dy": 1694,
      "▁cozy": 1695,
      "▁departments": 1696,
      "▁sch": 1697,
      "▁activities": 1698,
      "##e.": 1699,
      "▁italian": 1700,
      "##ama": 1701,
      "▁neuro": 1702,
      "▁travelers": 1703,
      "▁1600": 1704,
      "▁1955": 1705,
      "##ened": 1706,
      "▁exciting": 1707,
      "▁1593": 1708,
      "▁sincer": 1709,
      "▁positive": 1710,
      "▁cla": 1711,
      "▁ozone": 1712,
      "▁stopping": 1713,
      "▁issues": 1714,
      "##ville": 1715,
      "▁spring": 1716,
      "##haps": 1717,
      "##idge": 1718,
      "##pool": 1719,
      "▁ship": 1720,
      "▁interpret": 1721,
      "▁beatles": 1722,
      "▁pops": 1723,
      "▁strolled": 1724,
      "##eb": 1725,
      "▁feet": 1726,
      "##uation": 1727,
      "▁playstation": 1728,
      "▁involving": 1729,
      "▁dun": 1730,
      "▁easier": 1731,
      "▁conversational": 1732,
      "▁bees": 1733,
      "##being": 1734,
      "##unh": 1735,
      "▁taller": 1736,
      "▁manufacturers": 1737,
      "▁ment": 1738,
      "▁skill": 1739,
      "▁scrape": 1740,
      "##uction": 1741,
      "▁room": 1742,
      "▁believe": 1743,
      "▁oval": 1744,
      "▁sympt": 1745,
      "▁horror": 1746,
      "▁place": 1747,
      "▁invo": 1748,
      "##naissance": 1749,
      "##son": 1750,
      "▁yourselves": 1751,
      "##.16": 1752,
      "##ects": 1753,
      "▁230": 1754,
      "▁acupunct": 1755,
      "▁ann": 1756,
      "##itt": 1757,
      "▁tat": 1758,
      "##,950": 1759,
      "▁christian": 1760,
      "##search": 1761,
      "b": 1762,
      "▁modification": 1763,
      "▁fan": 1764,
      "▁car": 1765,
      "##standing": 1766,
      "▁showing": 1767,
      "▁okay": 1768,
      "▁alright": 1769,
      "▁substances": 1770,
      "▁awards": 1771,
      "##oler": 1772,
      "▁spread": 1773,
      "##outs": 1774,
      "▁poland": 1775,
      "▁inexp": 1776,
      "▁smells": 1777,
      "##tie": 1778,
      "▁1245": 1779,
      "▁hamper": 1780,
      "▁pretty": 1781,
      "▁subsequently": 1782,
      "▁light": 1783,
      "▁journal": 1784,
      "▁subject": 1785,
      "##ive": 1786,
      "##ative": 1787,
      "##ico": 1788,
      "▁approached": 1789,
      "▁soap": 1790,
      "##ad": 1791,
      "▁bookstore": 1792,
      "▁earthworms": 1793,
      "▁dis": 1794,
      "▁holds": 1795,
      "▁skin": 1796,
      "##exp": 1797,
      "▁enjambment": 1798,
      "##aroni": 1799,
      "▁80,000": 1800,
      "▁stations": 1801,
      "▁seconds": 1802,
      "##formed": 1803,
      "▁por": 1804,
      "##ivers": 1805,
      "▁papers": 1806,
      "▁(a)": 1807,
      "▁deserve": 1808,
      "##ughty": 1809,
      "##com": 1810,
      "##~*~*~*~*": 1811,
      "▁missing": 1812,
      "▁insights": 1813,
      "▁firing": 1814,
      "▁400": 1815,
      "▁might": 1816,
      "▁delays": 1817,
      "▁agre": 1818,
      "▁higu": 1819,
      "▁entirely": 1820,
      "▁ordinary": 1821,
      "▁scale": 1822,
      "▁ballerina": 1823,
      "▁punch": 1824,
      "▁aaf": 1825,
      "##yon": 1826,
      "▁cro": 1827,
      "▁scoring": 1828,
      "▁roared": 1829,
      "▁2004": 1830,
      "▁such": 1831,
      "▁subscribe": 1832,
      "▁indigenous": 1833,
      "##auts": 1834,
      "##ist": 1835,
      "▁fest": 1836,
      "▁luc": 1837,
      "##/4": 1838,
      "▁description": 1839,
      "▁3:30": 1840,
      "▁friendships": 1841,
      "▁ships": 1842,
      "▁scholars": 1843,
      "▁self-": 1844,
      "▁ngu": 1845,
      "▁lamb": 1846,
      "▁howard": 1847,
      "▁brushing": 1848,
      "▁amend": 1849,
      "##icial": 1850,
      "▁7:00": 1851,
      "▁tran": 1852,
      "▁malfoy": 1853,
      "▁world": 1854,
      "##oss": 1855,
      "▁locust": 1856,
      "▁plaintiffs": 1857,
      "▁lonely": 1858,
      "▁happier": 1859,
      "##:37": 1860,
      "▁rick": 1861,
      "##ally": 1862,
      "▁artists": 1863,
      "▁financially": 1864,
      "##arian": 1865,
      "▁venture": 1866,
      "##ite": 1867,
      "▁376": 1868,
      "##vals": 1869,
      "▁eng": 1870,
      "▁guy": 1871,
      "▁training": 1872,
      "▁warning": 1873,
      "##inence": 1874,
      "▁greatest": 1875,
      "▁entrepreneurial": 1876,
      "▁curator": 1877,
      "▁fif": 1878,
      "▁junk": 1879,
      "▁enr": 1880,
      "▁cuisine": 1881,
      "▁autonomy": 1882,
      "▁pictures": 1883,
      "▁china": 1884,
      "▁okinawa": 1885,
      "▁peer": 1886,
      "▁normal": 1887,
      "▁philosophers": 1888,
      "▁finish": 1889,
      "▁welcomed": 1890,
      "▁regard": 1891,
      "▁mental": 1892,
      "▁options": 1893,
      "▁mystery": 1894,
      "▁deliber": 1895,
      "▁115": 1896,
      "▁----==": 1897,
      "##y@ect": 1898,
      "▁reli": 1899,
      "##as": 1900,
      "▁frustration": 1901,
      "▁epc": 1902,
      "##77": 1903,
      "▁pettigrew": 1904,
      "▁pervez": 1905,
      "▁aggressive": 1906,
      "##ere": 1907,
      "▁announced": 1908,
      "▁dislike": 1909,
      "▁harb": 1910,
      "▁precise": 1911,
      "静": 1912,
      "▁structures": 1913,
      "##ters": 1914,
      "▁programm": 1915,
      "▁airline": 1916,
      "▁client": 1917,
      "ص": 1918,
      "▁caf": 1919,
      "##v": 1920,
      "▁struct": 1921,
      "▁relief": 1922,
      "▁d.": 1923,
      "▁evening": 1924,
      "▁registered": 1925,
      "▁alito": 1926,
      "▁auntie": 1927,
      "▁doctor": 1928,
      "##,000,000,000": 1929,
      "##alt": 1930,
      "▁tripped": 1931,
      "##:15": 1932,
      "##iots": 1933,
      "▁time": 1934,
      "▁torch": 1935,
      "▁contains": 1936,
      "▁exporting": 1937,
      "▁hob": 1938,
      "▁antique": 1939,
      "▁knocked": 1940,
      "▁atlantic": 1941,
      "▁occupation": 1942,
      "##ibald": 1943,
      "##ceptions": 1944,
      "▁brill": 1945,
      "▁abbreviation": 1946,
      "▁cz": 1947,
      "▁complic": 1948,
      "▁5000": 1949,
      "▁lovely": 1950,
      "##6021": 1951,
      "▁rene": 1952,
      "##21": 1953,
      "▁guerrillas": 1954,
      "##come": 1955,
      "▁mycel": 1956,
      "▁foods": 1957,
      "▁applause": 1958,
      "▁extending": 1959,
      "▁sunni": 1960,
      "▁tempt": 1961,
      "▁particip": 1962,
      "▁59": 1963,
      "▁hub": 1964,
      "▁iraqis": 1965,
      "##和": 1966,
      "▁naq": 1967,
      "▁vis": 1968,
      "▁ba'ath": 1969,
      "▁null": 1970,
      "▁initiatives": 1971,
      "##3-3744": 1972,
      "▁1925": 1973,
      "▁heaven": 1974,
      "##tedly": 1975,
      "▁sony": 1976,
      "▁generated": 1977,
      "▁glac": 1978,
      "##otic": 1979,
      "▁1611": 1980,
      "##ikes": 1981,
      "##:32": 1982,
      "▁713-654-128": 1983,
      "▁163": 1984,
      "▁solas": 1985,
      "▁exposure": 1986,
      "▁edison": 1987,
      "▁drives": 1988,
      "▁repairs": 1989,
      "##reen": 1990,
      "##ivity": 1991,
      "▁commitment": 1992,
      "▁safe": 1993,
      "▁wheel": 1994,
      "##oping": 1995,
      "c": 1996,
      "▁france": 1997,
      "▁lav": 1998,
      "▁widely": 1999,
      "▁choices": 2000,
      "▁dentist": 2001,
      "▁expense": 2002,
      "▁unequ": 2003,
      "▁start": 2004,
      "▁seem": 2005,
      "##ribe": 2006,
      "▁agra": 2007,
      "▁unfortunate": 2008,
      "▁limited": 2009,
      "▁knew": 2010,
      "▁mild": 2011,
      "▁ours": 2012,
      "▁waive": 2013,
      "▁mezza": 2014,
      "▁princip": 2015,
      "▁spectacular": 2016,
      "▁futures": 2017,
      "▁flexibility": 2018,
      "▁surroundings": 2019,
      "##23": 2020,
      "##pent": 2021,
      "▁oct.": 2022,
      "▁jumps": 2023,
      "▁alban": 2024,
      "▁menu": 2025,
      "▁hear": 2026,
      "##rael": 2027,
      "▁thirty": 2028,
      "▁fore": 2029,
      "##:2": 2030,
      "▁infected": 2031,
      "▁grad": 2032,
      "▁fun": 2033,
      "▁entree": 2034,
      "▁2008": 2035,
      "▁fulf": 2036,
      "▁aboard": 2037,
      "▁focusing": 2038,
      "▁slight": 2039,
      "▁pickle": 2040,
      "▁objective": 2041,
      "▁discrim": 2042,
      "▁comp.s": 2043,
      "##58": 2044,
      "▁eager": 2045,
      "▁bell": 2046,
      "▁stain": 2047,
      "##'": 2048,
      "▁reminder": 2049,
      "▁lucky": 2050,
      "##rick": 2051,
      "##ashion": 2052,
      "##parnasse": 2053,
      "##ables": 2054,
      "##ange": 2055,
      "▁desper": 2056,
      "##>": 2057,
      "##gamer": 2058,
      "▁dart": 2059,
      "##:07": 2060,
      "▁surround": 2061,
      "▁gul": 2062,
      "▁discussion": 2063,
      "##icop": 2064,
      "▁rapport": 2065,
      "##ole": 2066,
      "▁roadgrad": 2067,
      "##mare": 2068,
      "▁unl": 2069,
      "##lv": 2070,
      "▁clim": 2071,
      "▁walter": 2072,
      "##ould": 2073,
      "葉": 2074,
      "##45": 2075,
      "##rates": 2076,
      "▁sight": 2077,
      "▁patty": 2078,
      "▁highest": 2079,
      "▁sixth": 2080,
      "▁luther": 2081,
      "▁crad": 2082,
      "▁regulatory": 2083,
      "▁durs": 2084,
      "▁functionality": 2085,
      "▁enfor": 2086,
      "▁201": 2087,
      "▁avocado": 2088,
      "##illed": 2089,
      "▁shipped": 2090,
      "##ware": 2091,
      "##0010": 2092,
      "▁nam": 2093,
      "▁paid": 2094,
      "##ugg": 2095,
      "▁scrib": 2096,
      "##0365": 2097,
      "▁dream": 2098,
      "▁ect": 2099,
      "##pp": 2100,
      "▁dut": 2101,
      "▁van": 2102,
      "##argement": 2103,
      "▁cartoon": 2104,
      "▁uhh": 2105,
      "▁268": 2106,
      "▁paral": 2107,
      "▁''": 2108,
      "▁releases": 2109,
      "▁printing": 2110,
      "##verance": 2111,
      "##gress": 2112,
      "##oug": 2113,
      "▁burnt": 2114,
      "▁accounting": 2115,
      "▁opening": 2116,
      "~": 2117,
      "▁teleph": 2118,
      "▁clarify": 2119,
      "▁build": 2120,
      "▁pict": 2121,
      "▁credential": 2122,
      "▁even": 2123,
      "▁table": 2124,
      "▁h-0": 2125,
      "▁refuse": 2126,
      "樋": 2127,
      "▁grid": 2128,
      "▁mcc": 2129,
      "▁creates": 2130,
      "▁pittsburgh": 2131,
      "▁licensed": 2132,
      "▁losing": 2133,
      "▁dallas": 2134,
      "▁everyone": 2135,
      "▁allegations": 2136,
      "##mon": 2137,
      "▁davis": 2138,
      "▁release": 2139,
      "##bish": 2140,
      "▁mushroom": 2141,
      "▁trade": 2142,
      "▁sql": 2143,
      "▁surger": 2144,
      "▁reporter": 2145,
      "▁par": 2146,
      "▁labyr": 2147,
      "▁meals": 2148,
      "▁phone": 2149,
      "▁dottie": 2150,
      "▁lope": 2151,
      "▁cond": 2152,
      "##-9": 2153,
      "##zema": 2154,
      "▁backpack": 2155,
      "##owned": 2156,
      "▁fence": 2157,
      "▁hunh": 2158,
      "##roduct": 2159,
      "##-war": 2160,
      "▁analyses": 2161,
      "▁education": 2162,
      "##ulated": 2163,
      "▁fam": 2164,
      "▁dim": 2165,
      "▁brian": 2166,
      "▁cryst": 2167,
      "▁nonstop": 2168,
      "▁andaman": 2169,
      "▁overpriced": 2170,
      "▁organisation": 2171,
      "▁female": 2172,
      "▁five": 2173,
      "▁shows": 2174,
      "▁contrib": 2175,
      "▁presum": 2176,
      "▁syd": 2177,
      "▁basic": 2178,
      "##υ": 2179,
      "▁reflects": 2180,
      "##lev": 2181,
      "▁slow": 2182,
      "▁poverty": 2183,
      "▁sunn": 2184,
      "▁416-865-370": 2185,
      "##uced": 2186,
      "▁facts": 2187,
      "▁race": 2188,
      "##raph": 2189,
      "▁musicians": 2190,
      "▁barbeque": 2191,
      "▁silic": 2192,
      "▁thousands": 2193,
      "▁instructor": 2194,
      "##essed": 2195,
      "▁demonstration": 2196,
      "▁states": 2197,
      "▁direct": 2198,
      "##achel": 2199,
      "##era": 2200,
      "▁thanks": 2201,
      "▁sophistic": 2202,
      "▁mar": 2203,
      "##asis": 2204,
      "▁m": 2205,
      "▁emph": 2206,
      "##rop": 2207,
      "▁763736": 2208,
      "▁529999": 2209,
      "▁lam": 2210,
      "▁char": 2211,
      "▁oreg": 2212,
      "▁stall": 2213,
      "▁treatment": 2214,
      "▁stipulation": 2215,
      "▁snow": 2216,
      "▁folio": 2217,
      "▁magnificent": 2218,
      "##iversary": 2219,
      "▁fitting": 2220,
      "▁without": 2221,
      "▁713-79": 2222,
      "▁sticker": 2223,
      "▁yup": 2224,
      "▁border": 2225,
      "▁motionless": 2226,
      "▁involved": 2227,
      "▁poem": 2228,
      "##orne": 2229,
      "##.7": 2230,
      "▁allegedly": 2231,
      "▁won": 2232,
      "▁cash": 2233,
      "▁bare": 2234,
      "▁seed": 2235,
      "▁trail": 2236,
      "▁seventeen": 2237,
      "▁cub": 2238,
      "▁coincidence": 2239,
      "##”": 2240,
      "▁unemployment": 2241,
      "▁with": 2242,
      "▁stores": 2243,
      "▁saud": 2244,
      "▁d'": 2245,
      "##§": 2246,
      "##me": 2247,
      "▁terminal": 2248,
      "##isia": 2249,
      "▁row": 2250,
      "▁khinss": 2251,
      "##imir": 2252,
      "½": 2253,
      "▁bur": 2254,
      "##-up": 2255,
      "▁eyes": 2256,
      "##je": 2257,
      "▁emperor": 2258,
      "▁tested": 2259,
      "▁picnic": 2260,
      "##ans": 2261,
      "##-10": 2262,
      "##.ur": 2263,
      "▁adding": 2264,
      "▁nostr": 2265,
      "##cohol": 2266,
      "▁resc": 2267,
      "▁substantial": 2268,
      "▁aggregate": 2269,
      "▁mouth": 2270,
      "▁orchestra": 2271,
      "▁administr": 2272,
      "##agan": 2273,
      "▁discussed": 2274,
      "##kes": 2275,
      "##big.html": 2276,
      "▁ltte": 2277,
      "▁tricks": 2278,
      "▁reprod": 2279,
      "▁.doc": 2280,
      "##alys": 2281,
      "▁records": 2282,
      "##tsbur": 2283,
      "▁giraffe": 2284,
      "▁oo": 2285,
      "▁container": 2286,
      "##oub": 2287,
      "##7/2001": 2288,
      "▁trips": 2289,
      "▁acknowledge": 2290,
      "##eller": 2291,
      "▁uk": 2292,
      "##ell": 2293,
      "▁behav": 2294,
      "▁–": 2295,
      "##eff": 2296,
      "▁barger": 2297,
      "▁execut": 2298,
      "▁literary": 2299,
      "▁depth": 2300,
      "▁appro": 2301,
      "▁milk": 2302,
      "▁territ": 2303,
      "##nets": 2304,
      "▁enter": 2305,
      "▁fel": 2306,
      "▁heather": 2307,
      "▁gathered": 2308,
      "##self": 2309,
      "##stand": 2310,
      "##cling": 2311,
      "▁transc": 2312,
      "▁princ": 2313,
      "▁affluent": 2314,
      "▁activity": 2315,
      "▁fe": 2316,
      "▁ax": 2317,
      "=": 2318,
      "##teenth": 2319,
      "##mond": 2320,
      "##rem": 2321,
      "▁celebrity": 2322,
      "▁420": 2323,
      "▁clou": 2324,
      "▁smallest": 2325,
      "##ten": 2326,
      "▁accurately": 2327,
      "##n": 2328,
      "▁1988": 2329,
      "▁array": 2330,
      "▁insp": 2331,
      "##iger": 2332,
      "▁nasty": 2333,
      "▁copied": 2334,
      "▁ques": 2335,
      "▁background": 2336,
      "▁olmec": 2337,
      "##not": 2338,
      "##text": 2339,
      "▁halls": 2340,
      "##atted": 2341,
      "▁perhaps": 2342,
      "▁sweater": 2343,
      "▁pu": 2344,
      "##:24": 2345,
      "▁pins": 2346,
      "▁zurbaran": 2347,
      "▁england": 2348,
      "▁supporting": 2349,
      "▁4": 2350,
      "##ult": 2351,
      "##o": 2352,
      "▁greeting": 2353,
      "▁pret": 2354,
      "▁q": 2355,
      "##hi": 2356,
      "##091": 2357,
      "##ero": 2358,
      "▁fant": 2359,
      "▁.........": 2360,
      "##019": 2361,
      "▁strong": 2362,
      "▁greater": 2363,
      "▁1300": 2364,
      "▁lengthy": 2365,
      "##tra": 2366,
      "▁humor": 2367,
      "▁requesting": 2368,
      "▁bm": 2369,
      "▁gaz": 2370,
      "▁mind": 2371,
      "▁kos": 2372,
      "▁desir": 2373,
      "▁jumping": 2374,
      "▁ouij": 2375,
      "##attle": 2376,
      "▁rath": 2377,
      "▁conservative": 2378,
      "▁sor": 2379,
      "▁tro": 2380,
      "▁ir": 2381,
      "▁04/30/2001": 2382,
      "▁&amp;": 2383,
      "▁seeds": 2384,
      "▁classified": 2385,
      "▁palm": 2386,
      "##isure": 2387,
      "▁obsession": 2388,
      "▁customers": 2389,
      "▁ecodes": 2390,
      "!": 2391,
      "▁regarded": 2392,
      "##utory": 2393,
      "▁participated": 2394,
      "▁witnesses": 2395,
      "##isp": 2396,
      "▁heel": 2397,
      "▁began": 2398,
      "▁3.1": 2399,
      "▁1962": 2400,
      "▁sensitive": 2401,
      "▁showed": 2402,
      "▁bottles": 2403,
      "▁687": 2404,
      "##36": 2405,
      "##kaido": 2406,
      "▁engineer": 2407,
      "▁complain": 2408,
      "▁boarding": 2409,
      "▁zip": 2410,
      "##ari": 2411,
      "▁zion": 2412,
      "▁whisper": 2413,
      "##one": 2414,
      "##ه": 2415,
      "##he": 2416,
      "▁rays": 2417,
      "##ran": 2418,
      "▁enabled": 2419,
      "▁40": 2420,
      "▁syntax": 2421,
      "▁helmet": 2422,
      "▁styl": 2423,
      "▁apartments": 2424,
      "▁louis": 2425,
      "##-m": 2426,
      "##ograph": 2427,
      "##ims": 2428,
      "▁sum": 2429,
      "##ses": 2430,
      "▁kinds": 2431,
      "▁army": 2432,
      "▁steve": 2433,
      "##cat": 2434,
      "▁responded": 2435,
      "##animals": 2436,
      "##ands": 2437,
      "▁seventeenth": 2438,
      "▁'ve": 2439,
      "▁webs": 2440,
      "▁646-84": 2441,
      "##aping": 2442,
      "▁starts": 2443,
      "▁j.": 2444,
      "▁diarr": 2445,
      "▁reconst": 2446,
      "##dog": 2447,
      "▁acc": 2448,
      "▁defensive": 2449,
      "##tica": 2450,
      "▁professors": 2451,
      "▁governments": 2452,
      "##.clair@enron.com": 2453,
      "▁enjoyed": 2454,
      "▁bosom": 2455,
      "▁mostly": 2456,
      "▁kim": 2457,
      "▁conscience": 2458,
      "▁ninety": 2459,
      "▁difficulty": 2460,
      "##79": 2461,
      "▁metals": 2462,
      "▁classical": 2463,
      "▁unre": 2464,
      "##uffling": 2465,
      "▁rhodes": 2466,
      "▁fusca": 2467,
      "▁412": 2468,
      "##fr": 2469,
      "▁matt": 2470,
      "▁fashion": 2471,
      "▁l.": 2472,
      "▁principles": 2473,
      "▁use": 2474,
      "▁depart": 2475,
      "▁purse": 2476,
      "▁beauveria": 2477,
      "▁betty": 2478,
      "##uce": 2479,
      "▁remove": 2480,
      "▁products": 2481,
      "##ucks": 2482,
      "##thst": 2483,
      "##ambling": 2484,
      "▁dash": 2485,
      "▁prop": 2486,
      "▁mississipp": 2487,
      "▁lust": 2488,
      "##inqu": 2489,
      "▁raph": 2490,
      "##os.com": 2491,
      "▁lol": 2492,
      "▁portland": 2493,
      "▁838": 2494,
      "##------": 2495,
      "▁emer": 2496,
      "▁shar": 2497,
      "##laim": 2498,
      "##group": 2499,
      "▁domin": 2500,
      "▁denied": 2501,
      "▁austin": 2502,
      "▁be": 2503,
      "▁themselves": 2504,
      "▁eb": 2505,
      "▁squared": 2506,
      "▁introd": 2507,
      "▁loo": 2508,
      "▁14": 2509,
      "▁sex": 2510,
      "▁truth": 2511,
      "##itch": 2512,
      "▁10:25": 2513,
      "##.95": 2514,
      "▁merchant": 2515,
      "##atan": 2516,
      "▁nodd": 2517,
      "▁nursery": 2518,
      "▁orland": 2519,
      "▁sweat": 2520,
      "▁replacing": 2521,
      "▁wide": 2522,
      "▁trust": 2523,
      "▁outcom": 2524,
      "##bean": 2525,
      "##arent": 2526,
      "▁danc": 2527,
      "##les": 2528,
      "▁holders": 2529,
      "▁sounds": 2530,
      "▁significantly": 2531,
      "▁goode": 2532,
      "▁customer": 2533,
      "##eda": 2534,
      "##iel": 2535,
      "▁levels": 2536,
      "▁sc": 2537,
      "▁authors": 2538,
      "▁society": 2539,
      "▁airlines": 2540,
      "▁£": 2541,
      "▁heightened": 2542,
      "▁shouted": 2543,
      "▁tele": 2544,
      "##ol": 2545,
      "▁cin": 2546,
      "▁telephones": 2547,
      "▁america": 2548,
      "##illance": 2549,
      "▁underground": 2550,
      "▁containing": 2551,
      "##get": 2552,
      "▁elaborate": 2553,
      "▁shed": 2554,
      "##di": 2555,
      "##fore": 2556,
      "▁ger": 2557,
      "▁craig": 2558,
      "##—": 2559,
      "▁mayonnaise": 2560,
      "▁oneself": 2561,
      "##verning": 2562,
      "▁ton": 2563,
      "▁tv": 2564,
      "▁weight": 2565,
      "##樋": 2566,
      "▁pilgrims": 2567,
      "▁bo": 2568,
      "▁l'enf": 2569,
      "▁tooth": 2570,
      "▁chang": 2571,
      "▁*": 2572,
      "▁stew": 2573,
      "▁martyrs": 2574,
      "##ini": 2575,
      "▁looks": 2576,
      "▁42,000": 2577,
      "▁ana": 2578,
      "▁wildlife": 2579,
      "▁apron": 2580,
      "▁crappy": 2581,
      "##ahoo": 2582,
      "▁clock": 2583,
      "▁vietn": 2584,
      "▁1947": 2585,
      "▁aimed": 2586,
      "▁khin": 2587,
      "▁cuck": 2588,
      "▁gw": 2589,
      "▁according": 2590,
      "##gers": 2591,
      "##–": 2592,
      "]": 2593,
      "▁entrance": 2594,
      "▁moustache": 2595,
      "▁island": 2596,
      "▁prepare": 2597,
      "▁bank": 2598,
      "▁success": 2599,
      "▁voices": 2600,
      "▁freedoms": 2601,
      "▁jihad": 2602,
      "##isl": 2603,
      "▁exist": 2604,
      "▁div": 2605,
      "▁mist": 2606,
      "▁143": 2607,
      "##司": 2608,
      "▁detail": 2609,
      "▁whatsoever": 2610,
      "▁anth": 2611,
      "##pi": 2612,
      "▁twa": 2613,
      "##sl": 2614,
      "##iness": 2615,
      "▁shin": 2616,
      "##just": 2617,
      "##:/": 2618,
      "##==": 2619,
      "##fort": 2620,
      "▁zeus": 2621,
      "▁11,000": 2622,
      "▁occas": 2623,
      "▁20:00": 2624,
      "▁guaranteed": 2625,
      "▁dish": 2626,
      "▁destiny": 2627,
      "▁unit": 2628,
      "##---": 2629,
      "▁igu": 2630,
      "▁comedy": 2631,
      "##__": 2632,
      "▁feelings": 2633,
      "▁01/12/2001": 2634,
      "▁coming": 2635,
      "##tw": 2636,
      "▁therap": 2637,
      "▁borgin": 2638,
      "##igator": 2639,
      "▁1110": 2640,
      "▁mm": 2641,
      "▁resist": 2642,
      "▁clin": 2643,
      "▁guards": 2644,
      "##ending": 2645,
      "▁winter": 2646,
      "##berry": 2647,
      "▁download": 2648,
      "▁travel": 2649,
      "▁thank": 2650,
      "##-house": 2651,
      "▁somet": 2652,
      "▁arrange": 2653,
      "▁magical": 2654,
      "▁punishment": 2655,
      "##ational": 2656,
      "▁producers": 2657,
      "##bee": 2658,
      "▁olympic": 2659,
      "▁crime": 2660,
      "▁lant": 2661,
      "▁o'": 2662,
      "▁mold": 2663,
      "▁outlets": 2664,
      "▁court": 2665,
      "▁ar": 2666,
      "v": 2667,
      "▁fourth": 2668,
      "▁www.": 2669,
      "##arraf": 2670,
      "##grade": 2671,
      "▁punchline": 2672,
      "▁barn": 2673,
      "▁scient": 2674,
      "##ayed": 2675,
      "##avian": 2676,
      "▁courts": 2677,
      "▁cooker": 2678,
      "▁oppress": 2679,
      "▁duration": 2680,
      "##tegr": 2681,
      "▁dropped": 2682,
      "▁207": 2683,
      "▁tyler": 2684,
      "▁shale": 2685,
      "▁away": 2686,
      "▁hippop": 2687,
      "##iov": 2688,
      "▁spacetime": 2689,
      "##rella": 2690,
      "##ement": 2691,
      "▁hjalmar": 2692,
      "▁hu": 2693,
      "▁missile": 2694,
      "▁reception": 2695,
      "▁mish": 2696,
      "▁opposed": 2697,
      "▁adam": 2698,
      "▁dram": 2699,
      "▁radical": 2700,
      "▁observation": 2701,
      "##ulations": 2702,
      "▁lee": 2703,
      "##uated": 2704,
      "##antics": 2705,
      "▁cooperate": 2706,
      "▁motiv": 2707,
      "▁smiled": 2708,
      "▁consistently": 2709,
      "▁neatly": 2710,
      "▁west": 2711,
      "▁descriptions": 2712,
      "▁’ll": 2713,
      "##oween": 2714,
      "##ases": 2715,
      "▁waves": 2716,
      "▁failures": 2717,
      "▁neolog": 2718,
      "##ricane": 2719,
      "▁preferences": 2720,
      "▁permitted": 2721,
      "▁eric": 2722,
      "▁paine": 2723,
      "▁deliver": 2724,
      "▁inevitable": 2725,
      "▁marshm": 2726,
      "▁cos": 2727,
      "▁ear": 2728,
      "▁invented": 2729,
      "▁amuse": 2730,
      "▁cosm": 2731,
      "##ette": 2732,
      "▁florida": 2733,
      "##ʻ": 2734,
      "##osoph": 2735,
      "▁romeo": 2736,
      "▁bum": 2737,
      "##ora": 2738,
      "▁glacier": 2739,
      "##/chernobyl/": 2740,
      "##assing": 2741,
      "▁assist": 2742,
      "▁chomsky": 2743,
      "▁consc": 2744,
      "▁motion": 2745,
      "▁shade": 2746,
      "▁1819": 2747,
      "##59": 2748,
      "##031": 2749,
      "▁travels": 2750,
      "▁reviews": 2751,
      "▁communications": 2752,
      "##imin": 2753,
      "▁ackn": 2754,
      "▁rais": 2755,
      "##uations": 2756,
      "##urt": 2757,
      "▁2.975": 2758,
      "##ires": 2759,
      "▁attach": 2760,
      "##----------": 2761,
      "▁sources": 2762,
      "##ario": 2763,
      "▁remain": 2764,
      "##-st": 2765,
      "▁wish": 2766,
      "▁nail": 2767,
      "▁each": 2768,
      "▁cognition": 2769,
      "▁...............": 2770,
      "▁fancy": 2771,
      "▁drive": 2772,
      "▁revision": 2773,
      "▁fung": 2774,
      "##iot": 2775,
      "▁20": 2776,
      "▁’’": 2777,
      "▁spend": 2778,
      "##iking": 2779,
      "▁strang": 2780,
      "▁applies": 2781,
      "##ology": 2782,
      "##:23": 2783,
      "##oin": 2784,
      "##/25/2001": 2785,
      "▁butt": 2786,
      "▁billion": 2787,
      "▁270": 2788,
      "▁taliban": 2789,
      "##vet": 2790,
      "▁stre": 2791,
      "▁lasts": 2792,
      "▁1981": 2793,
      "##eney": 2794,
      "▁ml": 2795,
      "▁thinking": 2796,
      "▁prest": 2797,
      "▁compli": 2798,
      "▁arrivals": 2799,
      "▁video": 2800,
      "▁htt": 2801,
      "▁fist": 2802,
      "##ways": 2803,
      "##za": 2804,
      "▁2.15": 2805,
      "▁hoo": 2806,
      "##-5": 2807,
      "##etch": 2808,
      "##use": 2809,
      "▁2010": 2810,
      "##len": 2811,
      "▁descended": 2812,
      "▁curves": 2813,
      "▁adn": 2814,
      "##amm": 2815,
      "##action": 2816,
      "▁stars": 2817,
      "▁compl": 2818,
      "##ain": 2819,
      "▁federal": 2820,
      "▁1977": 2821,
      "▁header": 2822,
      "▁behin": 2823,
      "▁puerto": 2824,
      "▁ny": 2825,
      "▁hours": 2826,
      "▁civil": 2827,
      "▁midwest": 2828,
      "##aroo": 2829,
      "▁dependent": 2830,
      "##yard": 2831,
      "▁labrad": 2832,
      "▁opinions": 2833,
      "▁librarians": 2834,
      "▁thunder": 2835,
      "▁factors": 2836,
      "▁jo": 2837,
      "▁myst": 2838,
      "▁usd": 2839,
      "▁circles": 2840,
      "▁admit": 2841,
      "▁michigan": 2842,
      "▁rab": 2843,
      "▁selling": 2844,
      "▁415.782": 2845,
      "▁----": 2846,
      "▁abrupt": 2847,
      "##ct": 2848,
      "##mn": 2849,
      "▁p.": 2850,
      "▁current": 2851,
      "▁alternatively": 2852,
      "▁specify": 2853,
      "##ested": 2854,
      "▁pillars": 2855,
      "▁marvel": 2856,
      "▁vel": 2857,
      "▁aberde": 2858,
      "▁quad": 2859,
      "▁informative": 2860,
      "▁sed": 2861,
      "▁eerie": 2862,
      "▁starvation": 2863,
      "▁s’": 2864,
      "##iring": 2865,
      "▁shakespeare": 2866,
      "▁seems": 2867,
      "▁1200": 2868,
      "▁979": 2869,
      "▁modes": 2870,
      "▁bowl": 2871,
      "▁flying": 2872,
      "▁telesc": 2873,
      "▁indication": 2874,
      "##ir": 2875,
      "##em": 2876,
      "▁collins": 2877,
      "##icking": 2878,
      "ɛ": 2879,
      "##ask": 2880,
      "▁ro": 2881,
      "▁helping": 2882,
      "▁sue": 2883,
      "▁saucepan": 2884,
      "▁correlation": 2885,
      "▁cincinnati": 2886,
      "▁transm": 2887,
      "▁incentive": 2888,
      "▁civ": 2889,
      "##aw": 2890,
      "##ute": 2891,
      "▁vince": 2892,
      "▁dwell": 2893,
      "▁tournament": 2894,
      "▁laughed": 2895,
      "▁burn": 2896,
      "▁crunch": 2897,
      "▁decide": 2898,
      "##asse": 2899,
      "##isy": 2900,
      "▁libya": 2901,
      "▁modified": 2902,
      "▁renting": 2903,
      "▁jim": 2904,
      "▁draw": 2905,
      "▁1,6": 2906,
      "▁explore": 2907,
      "##hib": 2908,
      "▁shore": 2909,
      "▁mut": 2910,
      "##nam": 2911,
      "▁polit": 2912,
      "##jatra": 2913,
      "[": 2914,
      "▁mid-1": 2915,
      "▁digitally": 2916,
      "▁47,500": 2917,
      "##enix": 2918,
      "▁uncover": 2919,
      "##ctic": 2920,
      "▁ground": 2921,
      "▁andy": 2922,
      "▁anti": 2923,
      "▁nomination": 2924,
      "##:18": 2925,
      "▁received": 2926,
      "▁curb": 2927,
      "▁korea": 2928,
      "▁athens": 2929,
      "▁poll": 2930,
      "▁05/01/2001": 2931,
      "▁lifetime": 2932,
      "##oga": 2933,
      "##05": 2934,
      "##itated": 2935,
      "▁motives": 2936,
      "▁excel": 2937,
      "▁since": 2938,
      "##.m.": 2939,
      "▁masterpi": 2940,
      "##equ": 2941,
      "▁childcare": 2942,
      "清": 2943,
      "##non": 2944,
      "▁historical": 2945,
      "▁tuna": 2946,
      "▁washing": 2947,
      "▁troub": 2948,
      "##affle": 2949,
      "▁lately": 2950,
      "▁2022": 2951,
      "▁nt": 2952,
      "▁michael": 2953,
      "▁upi": 2954,
      "▁mag": 2955,
      "▁september": 2956,
      "▁collectively": 2957,
      "▁canad": 2958,
      "▁idiot": 2959,
      "▁phenomen": 2960,
      "##ki": 2961,
      "▁khan@transredes": 2962,
      "▁braz": 2963,
      "▁worksh": 2964,
      "▁constitu": 2965,
      "▁inc": 2966,
      "▁bailey": 2967,
      "▁valid": 2968,
      "▁pione": 2969,
      "##va": 2970,
      "##acarias": 2971,
      "##ver": 2972,
      "▁łodz": 2973,
      "▁uneasy": 2974,
      "##iqui": 2975,
      "▁stick": 2976,
      "##++++++++": 2977,
      "▁vul": 2978,
      "▁prem": 2979,
      "▁********": 2980,
      "▁wishes": 2981,
      "▁titled": 2982,
      "▁enough": 2983,
      "▁tofu": 2984,
      "▁nav": 2985,
      "▁kidding": 2986,
      "▁41": 2987,
      "▁beard": 2988,
      "▁area": 2989,
      "##琴": 2990,
      "▁honour": 2991,
      "▁doughnuts": 2992,
      "##aneous": 2993,
      "▁hesit": 2994,
      "▁`s": 2995,
      "▁judiciary": 2996,
      "▁mil": 2997,
      "▁rescue": 2998,
      "▁gives": 2999,
      "##ipper": 3000,
      "▁agg": 3001,
      "▁alt.animals.": 3002,
      "▁shown": 3003,
      "▁sydney": 3004,
      "##d-": 3005,
      "##arded": 3006,
      "##otts": 3007,
      "##lemm": 3008,
      "##quest": 3009,
      "##ju": 3010,
      "▁settled": 3011,
      "▁productivity": 3012,
      "▁banana": 3013,
      "▁celebrating": 3014,
      "▁poss": 3015,
      "▁opinion": 3016,
      "▁diary": 3017,
      "▁pilots": 3018,
      "▁prince": 3019,
      "##:19": 3020,
      "▁cited": 3021,
      "##ings.com": 3022,
      "▁shorts": 3023,
      "▁09:01": 3024,
      "##card": 3025,
      "▁virgin": 3026,
      "▁falling": 3027,
      "▁networks": 3028,
      "▁wig": 3029,
      "▁ambit": 3030,
      "▁ter": 3031,
      "##,9": 3032,
      "▁upr": 3033,
      "▁express": 3034,
      "▁provision": 3035,
      "▁awww": 3036,
      "##ons": 3037,
      "▁plat": 3038,
      "▁assigned": 3039,
      "▁stuck": 3040,
      "▁fran": 3041,
      "▁matching": 3042,
      "▁technology": 3043,
      "##uling": 3044,
      "▁lazy": 3045,
      "▁kind": 3046,
      "##15": 3047,
      "▁clar": 3048,
      "##清": 3049,
      "▁compat": 3050,
      "▁3,500": 3051,
      "▁maple": 3052,
      "##ansion": 3053,
      "##erald": 3054,
      "##ually": 3055,
      "##ec": 3056,
      "▁hey": 3057,
      "##enue": 3058,
      "▁ownership": 3059,
      "▁02/27/2001": 3060,
      "##raw": 3061,
      "▁sheep": 3062,
      "▁architectural": 3063,
      "▁democracy": 3064,
      "▁crab": 3065,
      "▁slower": 3066,
      "▁secret": 3067,
      "▁sits": 3068,
      "##rib": 3069,
      "##ude": 3070,
      "▁covering": 3071,
      "▁frogs": 3072,
      "▁called": 3073,
      "▁learned": 3074,
      "##ato": 3075,
      "##hone": 3076,
      "▁satisf": 3077,
      "▁neil": 3078,
      "##worm": 3079,
      "▁removal": 3080,
      "▁liquid": 3081,
      "▁netherlands": 3082,
      "▁sain": 3083,
      "▁sacrifice": 3084,
      "▁intention": 3085,
      "▁mins": 3086,
      "▁ceremony": 3087,
      "▁2015": 3088,
      "##²": 3089,
      "▁purposes": 3090,
      "▁unlikely": 3091,
      "▁part": 3092,
      "▁thirty-five": 3093,
      "▁important": 3094,
      "▁weeks": 3095,
      "▁million": 3096,
      "▁ducks": 3097,
      "▁alligator": 3098,
      "▁11:32": 3099,
      "▁tresp": 3100,
      "▁profit": 3101,
      "▁experim": 3102,
      "▁charlotte": 3103,
      "▁bleachers": 3104,
      "##aaaa": 3105,
      "▁civilized": 3106,
      "▁attachments": 3107,
      "▁łodzian": 3108,
      "##.ell": 3109,
      "##stop": 3110,
      "▁reflecting": 3111,
      "▁trauma": 3112,
      "▁employment": 3113,
      "▁correl": 3114,
      "▁agricult": 3115,
      "▁arriving": 3116,
      "▁transparency": 3117,
      "▁destination": 3118,
      "▁hoped": 3119,
      "▁lanka": 3120,
      "##int": 3121,
      "▁mou": 3122,
      "▁special": 3123,
      "##721": 3124,
      "▁#": 3125,
      "[CLS]": 3126,
      "▁campaign": 3127,
      "▁macaroni": 3128,
      "▁anthony": 3129,
      "▁ms.": 3130,
      "▁boat": 3131,
      "▁treated": 3132,
      "▁updates": 3133,
      "▁sauv": 3134,
      "▁glow": 3135,
      "▁11/27/2000": 3136,
      "▁applied": 3137,
      "▁strateg": 3138,
      "▁huck": 3139,
      "▁interconn": 3140,
      "▁manusc": 3141,
      "▁professionals": 3142,
      "##thers": 3143,
      "▁reads": 3144,
      "▁aft": 3145,
      "▁dies": 3146,
      "▁worlds": 3147,
      "###693": 3148,
      "##ted": 3149,
      "▁during": 3150,
      "▁stories": 3151,
      "##bol": 3152,
      "▁1890": 3153,
      "▁ahmed": 3154,
      "▁pricing": 3155,
      "▁incompreh": 3156,
      "##/c": 3157,
      "##iful": 3158,
      "▁method": 3159,
      "▁hack": 3160,
      "▁lesson": 3161,
      "##eapolis": 3162,
      "▁exce": 3163,
      "▁prospects": 3164,
      "▁mic": 3165,
      "▁sail": 3166,
      "▁tou": 3167,
      "##pin": 3168,
      "▁fighting": 3169,
      "▁466": 3170,
      "▁handy": 3171,
      "▁roles": 3172,
      "##nd": 3173,
      "▁line": 3174,
      "▁?!?": 3175,
      "##ring": 3176,
      "▁substant": 3177,
      "▁p.m.": 3178,
      "▁statutory": 3179,
      "▁hasidim": 3180,
      "▁extreme": 3181,
      "▁hano": 3182,
      "▁rational": 3183,
      "▁past": 3184,
      "▁seventh": 3185,
      "##orable": 3186,
      "##ant": 3187,
      "▁vegetarian": 3188,
      "▁718": 3189,
      "▁relations": 3190,
      "▁arguments": 3191,
      "▁chiro": 3192,
      "▁cigare": 3193,
      "▁luxurious": 3194,
      "▁palest": 3195,
      "##part": 3196,
      "▁wink": 3197,
      "▁chalk": 3198,
      "##cab": 3199,
      "▁meant": 3200,
      "▁rah": 3201,
      "▁brave": 3202,
      "##king": 3203,
      "▁stay": 3204,
      "▁sounded": 3205,
      "##819602175": 3206,
      "▁khan@transred": 3207,
      "##huh": 3208,
      "▁leopold": 3209,
      "▁french": 3210,
      "##riage": 3211,
      "j": 3212,
      "▁volunte": 3213,
      "▁microphone": 3214,
      "▁rigid": 3215,
      "##ces": 3216,
      "▁continents": 3217,
      "▁^": 3218,
      "▁civilian": 3219,
      "▁warhol": 3220,
      "▁power": 3221,
      "##entive": 3222,
      "▁incident": 3223,
      "▁************************************************": 3224,
      "▁416-865-3": 3225,
      "▁flav": 3226,
      "▁messages": 3227,
      "▁ug": 3228,
      "▁grande": 3229,
      "▁threat": 3230,
      "##rupt": 3231,
      "##yen": 3232,
      "##@ect": 3233,
      "▁questar": 3234,
      "##uct": 3235,
      "▁submit": 3236,
      "##zzy": 3237,
      "▁congratulate": 3238,
      "▁orbit": 3239,
      "▁weasleys": 3240,
      "▁pot": 3241,
      "▁ultim": 3242,
      "子": 3243,
      "▁sailed": 3244,
      "▁damascus": 3245,
      "±": 3246,
      "▁guild": 3247,
      "##fer": 3248,
      "▁occurred": 3249,
      "▁overcome": 3250,
      "▁1973": 3251,
      "▁iranian": 3252,
      "##iqu": 3253,
      "▁amazing": 3254,
      "##bi": 3255,
      "▁displaced": 3256,
      "##oard": 3257,
      "▁dav": 3258,
      "▁jeffrey": 3259,
      "##wet": 3260,
      "▁estimated": 3261,
      "▁assisting": 3262,
      "▁scratching": 3263,
      "▁protein": 3264,
      "##azu": 3265,
      "▁quotes": 3266,
      "▁dwww": 3267,
      "##..": 3268,
      "▁youth": 3269,
      "▁sexual": 3270,
      "▁hook": 3271,
      "▁fisheries": 3272,
      "▁canc": 3273,
      "▁saturday": 3274,
      "▁bleeding": 3275,
      "##ability": 3276,
      "▁11:30": 3277,
      "##/10/2000": 3278,
      "▁arrows": 3279,
      "▁coupons": 3280,
      "##ʁ": 3281,
      "▁generation": 3282,
      "▁viewing": 3283,
      "▁amazingly": 3284,
      "▁decre": 3285,
      "▁football": 3286,
      "##aham": 3287,
      "##embers": 3288,
      "▁courtney": 3289,
      "▁glance": 3290,
      "▁accustomed": 3291,
      "▁fed": 3292,
      "##ching": 3293,
      "▁kar": 3294,
      "▁wou": 3295,
      "##unch": 3296,
      "▁harry": 3297,
      "▁sponsored": 3298,
      "##iate": 3299,
      "##ublic": 3300,
      "▁weap": 3301,
      "##pot": 3302,
      "▁sat": 3303,
      "▁200": 3304,
      "##2.doc": 3305,
      "▁blood": 3306,
      "▁defend": 3307,
      "▁pyr": 3308,
      "▁les": 3309,
      "▁patch": 3310,
      "##liness": 3311,
      "##step": 3312,
      "▁celebr": 3313,
      "▁hr": 3314,
      "▁scenic": 3315,
      "##ade": 3316,
      "▁universe": 3317,
      "##ges": 3318,
      "▁unemploy": 3319,
      "▁fourteen": 3320,
      "▁net": 3321,
      "##icient": 3322,
      "▁baff": 3323,
      "##-a": 3324,
      "##iated": 3325,
      "▁059085": 3326,
      "▁domain": 3327,
      "▁grandm": 3328,
      "▁tomato": 3329,
      "▁horn": 3330,
      "##cond": 3331,
      "##!": 3332,
      "▁beg": 3333,
      "##ounced": 3334,
      "▁sid": 3335,
      "▁strength": 3336,
      "##expl": 3337,
      "&": 3338,
      "▁'71": 3339,
      "▁voldemort": 3340,
      "▁soften": 3341,
      "▁somewhere": 3342,
      "##ots": 3343,
      "▁ye": 3344,
      "▁cpa": 3345,
      "▁emper": 3346,
      "▁complained": 3347,
      "▁accidentally": 3348,
      "▁1115": 3349,
      "▁flat": 3350,
      "▁ecosystem": 3351,
      "▁nap": 3352,
      "▁bedroom": 3353,
      "▁liv": 3354,
      "▁stat": 3355,
      "▁thinks": 3356,
      "##t": 3357,
      "▁cont": 3358,
      "▁experts": 3359,
      "▁newspapers": 3360,
      "▁death": 3361,
      "##ij": 3362,
      "##isal": 3363,
      "▁panc": 3364,
      "##ha": 3365,
      "▁striking": 3366,
      "▁diff": 3367,
      "▁upstairs": 3368,
      "▁solely": 3369,
      "##itis": 3370,
      "##elia": 3371,
      "▁commons": 3372,
      "##:01": 3373,
      "▁dock": 3374,
      "##ocation": 3375,
      "##da": 3376,
      "▁wings": 3377,
      "▁gin": 3378,
      "▁thrones": 3379,
      "▁stung": 3380,
      "▁museums": 3381,
      "##ails": 3382,
      "▁presence": 3383,
      "##hous": 3384,
      "▁porch": 3385,
      "▁infl": 3386,
      "##oices": 3387,
      "▁claim": 3388,
      "##ulating": 3389,
      "▁pregn": 3390,
      "▁syrup": 3391,
      "▁ignorant": 3392,
      "▁ign": 3393,
      "##ummy": 3394,
      "▁initial": 3395,
      "##lik": 3396,
      "##5/2001": 3397,
      "▁convention": 3398,
      "▁urs": 3399,
      "##ida": 3400,
      "▁duck": 3401,
      "▁regards": 3402,
      "▁stock": 3403,
      "▁para": 3404,
      "##-com": 3405,
      "##onent": 3406,
      "▁1610": 3407,
      "▁memphis": 3408,
      "▁difference": 3409,
      "▁norwe": 3410,
      "▁catastroph": 3411,
      "▁flash": 3412,
      "▁epistemic": 3413,
      "▁mankind": 3414,
      "▁jersey": 3415,
      "##ether": 3416,
      "▁congratulations": 3417,
      "▁bomb": 3418,
      "▁shaped": 3419,
      "▁inquiry": 3420,
      "##als": 3421,
      "▁complement": 3422,
      "▁negotiated": 3423,
      "▁remo": 3424,
      "▁spikes": 3425,
      "▁pachom": 3426,
      "▁nichol": 3427,
      "##-cl": 3428,
      "▁conspir": 3429,
      "▁1986": 3430,
      "▁trans": 3431,
      "▁asset": 3432,
      "▁faculty": 3433,
      "▁1993": 3434,
      "▁liber": 3435,
      "▁empty": 3436,
      "▁cathy": 3437,
      "##note": 3438,
      "▁depends": 3439,
      "▁ugh": 3440,
      "▁timely": 3441,
      "▁harbor": 3442,
      "▁economy": 3443,
      "▁disin": 3444,
      "▁beating": 3445,
      "▁settlements": 3446,
      "▁pine": 3447,
      "▁peter": 3448,
      "▁1583": 3449,
      "▁strengthening": 3450,
      "▁admissions": 3451,
      "▁160": 3452,
      "##,0": 3453,
      "##¢": 3454,
      "▁peanuts": 3455,
      "▁documented": 3456,
      "▁widespread": 3457,
      "▁breast": 3458,
      "▁landsc": 3459,
      "▁852": 3460,
      "##elt": 3461,
      "##liament": 3462,
      "▁cru": 3463,
      "##iscal": 3464,
      "▁awareness": 3465,
      "##cion": 3466,
      "▁°": 3467,
      "▁frustrated": 3468,
      "▁oper": 3469,
      "##est": 3470,
      "▁ox": 3471,
      "##0's": 3472,
      "▁geographical": 3473,
      "##*{": 3474,
      "▁reaff": 3475,
      "##ause": 3476,
      "▁soup": 3477,
      "▁snitch": 3478,
      "▁11-20-2000": 3479,
      "▁granger": 3480,
      "▁chatting": 3481,
      "▁demonstr": 3482,
      "▁ł": 3483,
      "▁consist": 3484,
      "##ingle": 3485,
      "##eros": 3486,
      "##ical": 3487,
      "▁error": 3488,
      "##81": 3489,
      "▁slee": 3490,
      "##ellig": 3491,
      "▁exagger": 3492,
      "▁raw": 3493,
      "▁cuz": 3494,
      "▁d": 3495,
      "▁exc": 3496,
      "▁ul": 3497,
      "▁rs": 3498,
      "▁memorial": 3499,
      "##op": 3500,
      "▁laugh": 3501,
      "▁game": 3502,
      "▁!!!!!!!": 3503,
      "▁installed": 3504,
      "▁curve": 3505,
      "▁vic": 3506,
      "##icip": 3507,
      "▁>----------------------------------------------------------------------------|": 3508,
      "##ensen": 3509,
      "##ihood": 3510,
      "▁thri": 3511,
      "▁....": 3512,
      "##20s": 3513,
      "##unks": 3514,
      "▁dall": 3515,
      "##fri": 3516,
      "▁western": 3517,
      "##.c.": 3518,
      "##acc": 3519,
      "▁for": 3520,
      "▁nurse": 3521,
      "▁embedded": 3522,
      "▁than": 3523,
      "##raved": 3524,
      "▁perceptions": 3525,
      "▁contempl": 3526,
      "▁owing": 3527,
      "##abling": 3528,
      "▁interviewers": 3529,
      "▁cath": 3530,
      "▁adopt": 3531,
      "▁schools": 3532,
      "▁joint": 3533,
      "▁meditation": 3534,
      "▁stacked": 3535,
      "▁gentle": 3536,
      "▁houston": 3537,
      "##5-0": 3538,
      "▁byebye": 3539,
      "▁eating": 3540,
      "▁whoever": 3541,
      "▁surgery": 3542,
      "▁philippines": 3543,
      "▁saturdays": 3544,
      "▁persistent": 3545,
      "▁wins": 3546,
      "▁result": 3547,
      "##.jpg": 3548,
      "##onym": 3549,
      "▁smaller": 3550,
      "▁1598": 3551,
      "##eal": 3552,
      "▁four": 3553,
      "▁package": 3554,
      "▁medic": 3555,
      "▁upcoming": 3556,
      "▁co-f": 3557,
      "▁fold": 3558,
      "▁ninth": 3559,
      "▁kurtz": 3560,
      "▁lunch": 3561,
      "##roy": 3562,
      "##elp": 3563,
      "▁occur": 3564,
      "▁escape": 3565,
      "##six": 3566,
      "##inal": 3567,
      "▁d.c.": 3568,
      "##hop": 3569,
      "▁100": 3570,
      "▁permission": 3571,
      "▁heck": 3572,
      "▁whole": 3573,
      "##asiness": 3574,
      "▁instructed": 3575,
      "▁furniture": 3576,
      "##anie": 3577,
      "▁br": 3578,
      "▁shinjuku": 3579,
      "▁stand": 3580,
      "▁nationwide": 3581,
      "##uff": 3582,
      "##:05": 3583,
      "▁11/08/2000": 3584,
      "▁mariner": 3585,
      "▁ja": 3586,
      "▁forwarded": 3587,
      "▁anticip": 3588,
      "##-27": 3589,
      "▁ontario": 3590,
      "一": 3591,
      "▁virtually": 3592,
      "▁cargo": 3593,
      "▁petsmart": 3594,
      "▁ma": 3595,
      "▁maria": 3596,
      "▁?????": 3597,
      "▁goose": 3598,
      "▁3.5": 3599,
      "▁18,000": 3600,
      "▁income": 3601,
      "▁notify": 3602,
      "▁tiger": 3603,
      "▁relativ": 3604,
      "▁armies": 3605,
      "##ched": 3606,
      "▁portions": 3607,
      "##arf": 3608,
      "▁sinking": 3609,
      "▁percentiles": 3610,
      "▁natives": 3611,
      "▁accent": 3612,
      "▁arkansas": 3613,
      "▁financed": 3614,
      "▁bubbles": 3615,
      "##2-6": 3616,
      "▁quebec": 3617,
      "▁watered": 3618,
      "▁jack": 3619,
      "▁hussein": 3620,
      "##uster": 3621,
      "▁whom": 3622,
      "▁?": 3623,
      "▁compens": 3624,
      "##.html": 3625,
      "▁proposing": 3626,
      "▁18": 3627,
      "▁banned": 3628,
      "▁priorities": 3629,
      "##eeting": 3630,
      "##ister": 3631,
      "##ence": 3632,
      "▁analysis": 3633,
      "▁accessible": 3634,
      "▁uncom": 3635,
      "▁l2": 3636,
      "▁comparative": 3637,
      "▁moved": 3638,
      "▁osaka": 3639,
      "▁matters": 3640,
      "##pre": 3641,
      "▁kus": 3642,
      "▁relics": 3643,
      "▁slipped": 3644,
      "▁do": 3645,
      "▁tape": 3646,
      "▁alphabet": 3647,
      "▁richard": 3648,
      "▁year": 3649,
      "▁robber": 3650,
      "▁6/1": 3651,
      "▁39": 3652,
      "##\\": 3653,
      "▁antiqu": 3654,
      "▁electric": 3655,
      "▁bn": 3656,
      "▁one": 3657,
      "s": 3658,
      "▁plant": 3659,
      "▁88": 3660,
      "▁unto": 3661,
      "▁emphasize": 3662,
      "▁motive": 3663,
      "▁heading": 3664,
      "▁obvious": 3665,
      "▁embarrass": 3666,
      "▁pled": 3667,
      "▁patrick": 3668,
      "▁luck": 3669,
      "##walk": 3670,
      "##ihu": 3671,
      "▁steel": 3672,
      "▁seam": 3673,
      "▁beat": 3674,
      "▁momma": 3675,
      "▁phoenix": 3676,
      "▁transactions": 3677,
      "##mo": 3678,
      "▁extensive": 3679,
      "▁pach": 3680,
      "▁:-)": 3681,
      "##ai": 3682,
      "▁libriv": 3683,
      "▁britain": 3684,
      "##stairs": 3685,
      "▁descend": 3686,
      "▁win": 3687,
      "▁jokes": 3688,
      "▁auck": 3689,
      "▁hamburg": 3690,
      "##eness": 3691,
      "▁producing": 3692,
      "▁wrongdo": 3693,
      "▁suspended": 3694,
      "##beit": 3695,
      "▁until": 3696,
      "##ely": 3697,
      "▁effect": 3698,
      "▁westchester": 3699,
      "▁oz": 3700,
      "▁dna": 3701,
      "▁scorp": 3702,
      "▁o": 3703,
      "▁pushing": 3704,
      "▁constant": 3705,
      "▁ninet": 3706,
      "▁turnpike": 3707,
      "##umb": 3708,
      "##uity": 3709,
      "▁habitat": 3710,
      "▁stare": 3711,
      "##verted": 3712,
      "##aded": 3713,
      "▁appell": 3714,
      "▁13": 3715,
      "▁chill": 3716,
      "##iard": 3717,
      "▁-%": 3718,
      "▁pairs": 3719,
      "##asser": 3720,
      "▁ewww": 3721,
      "##42": 3722,
      "##-class": 3723,
      "▁101": 3724,
      "##ivia": 3725,
      "▁!?": 3726,
      "▁4_2": 3727,
      "▁vagu": 3728,
      "▁fal": 3729,
      "##57": 3730,
      "▁entered": 3731,
      "▁food": 3732,
      "▁hamburger": 3733,
      "▁ecodesign": 3734,
      "▁traditionally": 3735,
      "▁suddenly": 3736,
      "▁airplane": 3737,
      "##season": 3738,
      "▁its": 3739,
      "##erie": 3740,
      "▁consume": 3741,
      "##ca": 3742,
      "▁house": 3743,
      "▁http://www": 3744,
      "##-84": 3745,
      "▁weapons": 3746,
      "##.uk": 3747,
      "▁lt": 3748,
      "▁determination": 3749,
      "▁creek": 3750,
      "▁formica": 3751,
      "▁ambition": 3752,
      "▁troubled": 3753,
      "▁poses": 3754,
      "▁employ": 3755,
      "▁ta": 3756,
      "▁absence": 3757,
      "▁=)": 3758,
      "##thansa": 3759,
      "▁resting": 3760,
      "##ords": 3761,
      "▁lyn": 3762,
      "##owl": 3763,
      "##guard": 3764,
      "7": 3765,
      "##....": 3766,
      "##gmail.com": 3767,
      "▁1724": 3768,
      "▁horsies": 3769,
      "▁muggle": 3770,
      "▁job": 3771,
      "##es": 3772,
      "##rum": 3773,
      "▁guit": 3774,
      "▁adjustments": 3775,
      "▁houses": 3776,
      "▁committee": 3777,
      "▁furn": 3778,
      "▁ec": 3779,
      "▁files": 3780,
      "▁book": 3781,
      "▁popeye": 3782,
      "▁how": 3783,
      "▁deriv": 3784,
      "▁ethnocentrism": 3785,
      "##ates": 3786,
      "##asts": 3787,
      "▁asking": 3788,
      "##igible": 3789,
      "▁paulo": 3790,
      "▁te": 3791,
      "▁josh": 3792,
      "▁researching": 3793,
      "▁ap": 3794,
      "▁enemy": 3795,
      "▁bombings": 3796,
      "▁liquidweb": 3797,
      "##le": 3798,
      "▁neu": 3799,
      "▁label": 3800,
      "▁blinked": 3801,
      "##ercial": 3802,
      "▁smell": 3803,
      "▁requests": 3804,
      "▁todd": 3805,
      "▁walls": 3806,
      "▁sharon": 3807,
      "▁atl": 3808,
      "▁rode": 3809,
      "▁attachment": 3810,
      "▁meth": 3811,
      "▁generate": 3812,
      "▁ward": 3813,
      "▁bom": 3814,
      "##osite": 3815,
      "▁investigation": 3816,
      "▁martyr": 3817,
      "▁spacecraft": 3818,
      "##iately": 3819,
      "##wind": 3820,
      "▁subsc": 3821,
      "##lest": 3822,
      "▁ak": 3823,
      "##cot": 3824,
      "▁waving": 3825,
      "▁igts": 3826,
      "▁gil": 3827,
      "▁toy": 3828,
      "▁sem": 3829,
      "▁rapidly": 3830,
      "##2951_": 3831,
      "▁knot": 3832,
      "▁vlad": 3833,
      "▁able": 3834,
      "▁worked": 3835,
      "▁zo": 3836,
      "▁knock": 3837,
      "▁tunisia": 3838,
      "▁gorbach": 3839,
      "▁bureauc": 3840,
      "▁authentic": 3841,
      "▁metro": 3842,
      "▁pock": 3843,
      "##========": 3844,
      "▁touch": 3845,
      "▁bumped": 3846,
      "##bell": 3847,
      "▁org": 3848,
      "▁discussing": 3849,
      "▁lung": 3850,
      "▁happ": 3851,
      "▁morocco": 3852,
      "##b": 3853,
      "##ifies": 3854,
      "▁secure": 3855,
      "##ugh": 3856,
      "▁capacity": 3857,
      "▁fuss": 3858,
      "▁majority": 3859,
      "##sen": 3860,
      "▁tore": 3861,
      "▁interval": 3862,
      "▁possibilities": 3863,
      "▁planet": 3864,
      "▁tile": 3865,
      "▁solved": 3866,
      "▁significance": 3867,
      "▁ther": 3868,
      "▁african": 3869,
      "##atra": 3870,
      "▁declaring": 3871,
      "▁iq": 3872,
      "▁tells": 3873,
      "▁adapted": 3874,
      "▁shone": 3875,
      "▁madrid": 3876,
      "▁rhym": 3877,
      "▁licens": 3878,
      "▁ell": 3879,
      "▁attended": 3880,
      "##ransred": 3881,
      "▁milwaukee": 3882,
      "▁combined": 3883,
      "##hole": 3884,
      "##ial": 3885,
      "##opment": 3886,
      "▁nicely": 3887,
      "▁suite": 3888,
      "▁town": 3889,
      "▁consideration": 3890,
      "##gary": 3891,
      "##il": 3892,
      "##viat": 3893,
      "▁suggesting": 3894,
      "▁translates": 3895,
      "▁perro": 3896,
      "▁policy": 3897,
      "▁disappeared": 3898,
      "▁after": 3899,
      "▁temp": 3900,
      "##iped": 3901,
      "▁w3c": 3902,
      "##roit": 3903,
      "##icted": 3904,
      "##amped": 3905,
      "▁dries": 3906,
      "▁overfl": 3907,
      "▁wednesday": 3908,
      "##ica": 3909,
      "▁recommended": 3910,
      "▁assemb": 3911,
      "▁allerg": 3912,
      "▁frust": 3913,
      "##ich": 3914,
      "▁scramb": 3915,
      "▁vict": 3916,
      "▁colored": 3917,
      "▁cre": 3918,
      "▁entities": 3919,
      "##news/image/2005.09": 3920,
      "##zilla": 3921,
      "##.consum": 3922,
      "##ay": 3923,
      "##acts": 3924,
      "##ulatory": 3925,
      "▁malf": 3926,
      "▁throu": 3927,
      "##71": 3928,
      "▁endang": 3929,
      "▁scientology": 3930,
      "▁800.713.86": 3931,
      "##ffin": 3932,
      "##eling": 3933,
      "▁checked": 3934,
      "##sus": 3935,
      "▁stranger": 3936,
      "▁angles": 3937,
      "▁notified": 3938,
      "▁directly": 3939,
      "▁forwarding": 3940,
      "▁farmer": 3941,
      "▁@": 3942,
      "▁253": 3943,
      "▁inter": 3944,
      "##l": 3945,
      "▁constit": 3946,
      "▁iu": 3947,
      "##iences": 3948,
      "▁1.4": 3949,
      "▁overth": 3950,
      "▁march": 3951,
      "▁keeps": 3952,
      "##our": 3953,
      "▁breaking": 3954,
      "▁cute": 3955,
      "▁erase": 3956,
      "##erto": 3957,
      "▁manuf": 3958,
      "##ba": 3959,
      "▁presentation": 3960,
      "▁kenya": 3961,
      "▁pieces": 3962,
      "▁6871082": 3963,
      "▁please": 3964,
      "▁07/17/2000": 3965,
      "##况": 3966,
      "▁design": 3967,
      "▁double": 3968,
      "▁beetle": 3969,
      "##ster": 3970,
      "▁posed": 3971,
      "▁counterpart": 3972,
      "##ovich": 3973,
      "▁7:30": 3974,
      "▁placed": 3975,
      "▁11:07": 3976,
      "▁fragile": 3977,
      "▁conf": 3978,
      "▁farms": 3979,
      "▁legitimacy": 3980,
      "##aper": 3981,
      "▁expon": 3982,
      "##}*{": 3983,
      "▁fabric": 3984,
      "▁kwww": 3985,
      "▁concer": 3986,
      "▁weeds": 3987,
      "▁situations": 3988,
      "▁citrus": 3989,
      "▁sust": 3990,
      "▁s-": 3991,
      "▁publish": 3992,
      "▁doggies": 3993,
      "##ploy": 3994,
      "▁protect": 3995,
      "▁estimates": 3996,
      "▁any": 3997,
      "##oon": 3998,
      "▁finding": 3999,
      "▁desert": 4000,
      "##.b": 4001,
      "▁tug": 4002,
      "▁mecca": 4003,
      "▁11.5": 4004,
      "▁moment": 4005,
      "##90s": 4006,
      "▁colom": 4007,
      "▁cind": 4008,
      "▁recreat": 4009,
      "▁old": 4010,
      "▁motorcy": 4011,
      "▁cyn": 4012,
      "##owed": 4013,
      "▁swallow": 4014,
      "##-to": 4015,
      "▁coher": 4016,
      "▁them": 4017,
      "▁flour": 4018,
      "▁minus": 4019,
      "▁prov": 4020,
      "▁machines": 4021,
      "▁expl": 4022,
      "▁non-avian": 4023,
      "▁linking": 4024,
      "##ile": 4025,
      "▁triv": 4026,
      "▁......": 4027,
      "▁tray": 4028,
      "▁total": 4029,
      "▁miss": 4030,
      "▁moist": 4031,
      "##bed": 4032,
      "▁all": 4033,
      "▁chem": 4034,
      "▁website": 4035,
      "▁theropod": 4036,
      "▁completing": 4037,
      "▁dread": 4038,
      "##r.": 4039,
      "##umbled": 4040,
      "▁iqr": 4041,
      "##uing": 4042,
      "▁chao": 4043,
      "▁residential": 4044,
      "▁nyc": 4045,
      "▁injust": 4046,
      "▁moust": 4047,
      "▁n’t": 4048,
      "▁leader": 4049,
      "▁450": 4050,
      "▁incentives": 4051,
      "##2000": 4052,
      "▁geographic": 4053,
      "▁sar": 4054,
      "##olyn": 4055,
      "▁carvings": 4056,
      "▁bars": 4057,
      "##65-3": 4058,
      "▁maintenance": 4059,
      "▁bicycle": 4060,
      "▁wak": 4061,
      "##st": 4062,
      "▁chop": 4063,
      "▁-----": 4064,
      "▁join": 4065,
      "▁roost": 4066,
      "##derm": 4067,
      "##.676": 4068,
      "▁integr": 4069,
      "▁jose": 4070,
      "▁know": 4071,
      "##wr": 4072,
      "▁poles": 4073,
      "▁occasionally": 4074,
      "▁theirs": 4075,
      "▁permits": 4076,
      "▁da": 4077,
      "▁comp": 4078,
      "▁receive": 4079,
      "▁presently": 4080,
      "▁purch": 4081,
      "▁trying": 4082,
      "##uit": 4083,
      "▁enthusiasm": 4084,
      "▁http://www.4gamer.net/news/image/2005.09/2005091903": 4085,
      "▁causes": 4086,
      "▁nym": 4087,
      "▁reserves": 4088,
      "▁forget": 4089,
      "▁economically": 4090,
      "▁boing": 4091,
      "▁explains": 4092,
      "▁manager": 4093,
      "▁popsicle": 4094,
      "▁league": 4095,
      "▁store": 4096,
      "##cell": 4097,
      "##-b": 4098,
      "▁followed": 4099,
      "##htub": 4100,
      "##gal": 4101,
      "▁toronto": 4102,
      "▁features": 4103,
      "t": 4104,
      "▁rip": 4105,
      "##d2": 4106,
      "##boy": 4107,
      "▁define": 4108,
      "▁750": 4109,
      "▁dissemination": 4110,
      "▁bott": 4111,
      "▁knowledg": 4112,
      "▁phd": 4113,
      "##zy": 4114,
      "▁alan": 4115,
      "▁1-8": 4116,
      "▁repaired": 4117,
      "##anted": 4118,
      "▁ano": 4119,
      "##rison": 4120,
      "▁compliance": 4121,
      "##rev": 4122,
      "▁preparation": 4123,
      "▁raf": 4124,
      "▁minimal": 4125,
      "##lies": 4126,
      "▁dir": 4127,
      "▁technologies": 4128,
      "▁filthy": 4129,
      "##/2000": 4130,
      "▁case": 4131,
      "▁check": 4132,
      "▁pile": 4133,
      "▁borrow": 4134,
      "▁nag": 4135,
      "▁trim": 4136,
      "▁loyal": 4137,
      "▁thousand": 4138,
      "▁rely": 4139,
      "▁macbeth": 4140,
      "▁deer": 4141,
      "▁extent": 4142,
      "▁encourage": 4143,
      "▁eleg": 4144,
      "▁plut": 4145,
      "▁membership": 4146,
      "##way": 4147,
      "##ais": 4148,
      "▁statistics": 4149,
      "##osure": 4150,
      "##rol": 4151,
      "▁scottish": 4152,
      "▁kicking": 4153,
      "▁sprouts": 4154,
      "▁ensured": 4155,
      "▁extract": 4156,
      "▁gods": 4157,
      "##eurial": 4158,
      "▁non-": 4159,
      "▁endea": 4160,
      "▁uniquely": 4161,
      "▁compensate": 4162,
      "##tail": 4163,
      "▁role": 4164,
      "##.3": 4165,
      "##/30/2001": 4166,
      "▁aim": 4167,
      "▁mujah": 4168,
      "▁deem": 4169,
      "##rest": 4170,
      "##山": 4171,
      "▁filtering": 4172,
      "▁6:30": 4173,
      "▁muscles": 4174,
      "▁transwestern": 4175,
      "▁twink": 4176,
      "##angu": 4177,
      "##g": 4178,
      "▁autom": 4179,
      "▁bapt": 4180,
      "##land": 4181,
      "▁bang": 4182,
      "▁policeman": 4183,
      "▁1843": 4184,
      "▁exhibited": 4185,
      "▁lottery": 4186,
      "▁molec": 4187,
      "▁doggy": 4188,
      "##ember": 4189,
      "##rence": 4190,
      "▁jump": 4191,
      "▁plun": 4192,
      "▁writ": 4193,
      "▁ever": 4194,
      "##orio": 4195,
      "▁sentence": 4196,
      "▁pew": 4197,
      "##ital": 4198,
      "▁leaves": 4199,
      "▁turned": 4200,
      "▁tal": 4201,
      "##oui": 4202,
      "▁orient": 4203,
      "▁settle": 4204,
      "##ipping": 4205,
      "▁deploy": 4206,
      "▁spirit": 4207,
      "▁neoclass": 4208,
      "##die": 4209,
      "##pa": 4210,
      "##3/2000": 4211,
      "▁undergrad": 4212,
      "▁purpose": 4213,
      "▁guilt": 4214,
      "##eland": 4215,
      "▁poetic": 4216,
      "▁sanders": 4217,
      "▁gorbachev": 4218,
      "▁subs": 4219,
      "▁native": 4220,
      "▁arabia": 4221,
      "##ror": 4222,
      "##jam": 4223,
      "▁rolled": 4224,
      "##ney": 4225,
      "▁dog": 4226,
      "##?!?": 4227,
      "▁officers": 4228,
      "▁factory": 4229,
      "▁intellig": 4230,
      "▁revolution": 4231,
      "▁seating": 4232,
      "▁personal": 4233,
      "▁denise": 4234,
      "▁blur": 4235,
      "▁upside": 4236,
      "##isters": 4237,
      "▁devil": 4238,
      "▁snakes": 4239,
      "▁exch": 4240,
      "##iary": 4241,
      "▁260": 4242,
      "▁observations": 4243,
      "▁713-853-1696": 4244,
      "##ints": 4245,
      "▁parent": 4246,
      "▁713-793-": 4247,
      "▁has": 4248,
      "▁demon": 4249,
      "▁inhabitants": 4250,
      "##sex": 4251,
      "▁gear": 4252,
      "▁best": 4253,
      "▁constitution": 4254,
      "▁pain": 4255,
      "▁neither": 4256,
      "▁guadeloupe": 4257,
      "▁suspected": 4258,
      "▁uh": 4259,
      "▁end": 4260,
      "▁improvements": 4261,
      "##iciency": 4262,
      "▁doors": 4263,
      "▁mcg": 4264,
      "##oming": 4265,
      "##eech": 4266,
      "▁parallel": 4267,
      "▁spac": 4268,
      "▁bugs": 4269,
      "##igration": 4270,
      "##ites": 4271,
      "##-p": 4272,
      "▁naval": 4273,
      "##ft": 4274,
      "▁hauled": 4275,
      "##.ed": 4276,
      "##eys": 4277,
      "▁darker": 4278,
      ",": 4279,
      "▁terrible": 4280,
      "##:48": 4281,
      "▁tommy": 4282,
      "▁70": 4283,
      "▁high": 4284,
      "▁cha": 4285,
      "▁had": 4286,
      "▁holt": 4287,
      "▁619": 4288,
      "▁nmemdrft8-7-01": 4289,
      "##at": 4290,
      "▁60": 4291,
      "▁03/09/2000": 4292,
      "▁fault": 4293,
      "##nik": 4294,
      "▁2,300": 4295,
      "##lec": 4296,
      "▁patients": 4297,
      "▁bert": 4298,
      "##omic": 4299,
      "▁afford": 4300,
      "▁twilight": 4301,
      "▁greetings": 4302,
      "▁mit": 4303,
      "▁dialog": 4304,
      "▁sandra": 4305,
      "##3-3": 4306,
      "▁---->===}*{===<----": 4307,
      "##beijing": 4308,
      "##ction": 4309,
      "##adar": 4310,
      "##ura": 4311,
      "▁`": 4312,
      "##te": 4313,
      "▁spices": 4314,
      "▁poems": 4315,
      "▁hoc": 4316,
      "▁hambal": 4317,
      "▁notions": 4318,
      "▁recip": 4319,
      "##łod": 4320,
      "▁household": 4321,
      "▁massive": 4322,
      "▁pro": 4323,
      "▁rec": 4324,
      "##erves": 4325,
      "▁daughters": 4326,
      "▁attract": 4327,
      "##iet": 4328,
      "##front": 4329,
      "▁cou": 4330,
      "▁broke": 4331,
      "▁1978": 4332,
      "▁713/8": 4333,
      "▁river": 4334,
      "##unk": 4335,
      "##ilty": 4336,
      "##instein": 4337,
      "▁finest": 4338,
      "▁obser": 4339,
      "▁morgan": 4340,
      "▁curren": 4341,
      "▁baby": 4342,
      "▁consensus": 4343,
      "▁encabalgamiento": 4344,
      "▁bodies": 4345,
      "##isions": 4346,
      "▁awkward": 4347,
      "▁tickle": 4348,
      "##usions": 4349,
      "▁columns": 4350,
      "▁transmedia": 4351,
      "##oved": 4352,
      "##time": 4353,
      "▁apple": 4354,
      "##icycle": 4355,
      "▁users": 4356,
      "##icide": 4357,
      "▁obligations": 4358,
      "▁offered": 4359,
      "##om": 4360,
      "▁provided": 4361,
      "▁ass": 4362,
      "##8/2000": 4363,
      "▁p&": 4364,
      "▁fled": 4365,
      "▁finger": 4366,
      "▁nante": 4367,
      "▁systematic": 4368,
      "▁landings": 4369,
      "▁cu": 4370,
      "▁spider": 4371,
      "▁wanted": 4372,
      "▁confirms": 4373,
      "##page": 4374,
      "▁maintaining": 4375,
      "▁g": 4376,
      "##ye": 4377,
      "▁manual": 4378,
      "▁caves": 4379,
      "##onsider": 4380,
      "▁09/15": 4381,
      "▁exploring": 4382,
      "▁hong": 4383,
      "▁scope": 4384,
      "▁hurting": 4385,
      "▁sufficiently": 4386,
      "▁planted": 4387,
      "▁li": 4388,
      "▁!!!!": 4389,
      "▁rough": 4390,
      "▁acquiring": 4391,
      "▁watch": 4392,
      "▁satellite": 4393,
      "##se": 4394,
      "▁convince": 4395,
      "##iration": 4396,
      "##ther": 4397,
      "▁syrian": 4398,
      "##oulder": 4399,
      "##lig": 4400,
      "▁wol": 4401,
      "##la": 4402,
      "▁did": 4403,
      "▁develop": 4404,
      "▁rush": 4405,
      "##?": 4406,
      "▁pittsbur": 4407,
      "▁families": 4408,
      "▁depths": 4409,
      "▁bearing": 4410,
      "##ton": 4411,
      "▁string": 4412,
      "▁athlet": 4413,
      "##enge": 4414,
      "▁notes": 4415,
      "▁fungus": 4416,
      "▁,": 4417,
      "##47": 4418,
      "▁adults": 4419,
      "▁converted": 4420,
      "▁profession": 4421,
      "▁invention": 4422,
      "##静": 4423,
      "▁sj": 4424,
      "##ass": 4425,
      "##leys": 4426,
      "▁bridges": 4427,
      "##iders": 4428,
      "▁consumer": 4429,
      "▁opposite": 4430,
      "##ities": 4431,
      "▁an": 4432,
      "▁main": 4433,
      "##26": 4434,
      "▁podcast": 4435,
      "▁laws": 4436,
      "▁attrib": 4437,
      "##ilization": 4438,
      "▁marcel": 4439,
      "##ek": 4440,
      "▁conserv": 4441,
      "▁50000": 4442,
      "▁ansi-92": 4443,
      "##}": 4444,
      "##ʒ": 4445,
      "▁gut": 4446,
      "▁78": 4447,
      "▁heating": 4448,
      "##anding": 4449,
      "▁likely": 4450,
      "▁english": 4451,
      "##met": 4452,
      "▁cher": 4453,
      "▁conqu": 4454,
      "▁spaw": 4455,
      "▁human": 4456,
      "▁fiction": 4457,
      "##obar": 4458,
      "##che": 4459,
      "▁woo": 4460,
      "▁perspective": 4461,
      "▁commentary": 4462,
      "##isations": 4463,
      "##:34": 4464,
      "▁stage": 4465,
      "##act": 4466,
      "##eds": 4467,
      "▁1875": 4468,
      "##3-": 4469,
      "##gle": 4470,
      "##ancing": 4471,
      "##________________________________": 4472,
      "▁arrangement": 4473,
      "##umental": 4474,
      "▁seated": 4475,
      "▁dec": 4476,
      "▁thin": 4477,
      "▁sponge": 4478,
      "##illas": 4479,
      "##2/2001": 4480,
      "▁281-443-3744": 4481,
      "▁execution": 4482,
      "▁sculpt": 4483,
      "▁verify": 4484,
      "▁exile": 4485,
      "▁afghanistan": 4486,
      "##g&e": 4487,
      "▁screaming": 4488,
      "##alous": 4489,
      "▁galleries": 4490,
      "▁9/11": 4491,
      "▁glanced": 4492,
      "▁dea": 4493,
      "##oney": 4494,
      "▁concern": 4495,
      "##744": 4496,
      "##oring": 4497,
      "▁abandoned": 4498,
      "▁lym": 4499,
      "▁outcome": 4500,
      "▁elbow": 4501,
      "▁unbel": 4502,
      "▁but": 4503,
      "##rane": 4504,
      "▁rural": 4505,
      "▁dab": 4506,
      "▁-----------------": 4507,
      "##bye": 4508,
      "▁expect": 4509,
      "▁joseph": 4510,
      "▁hel": 4511,
      "##plus": 4512,
      "▁famil": 4513,
      "##,6": 4514,
      "##mes": 4515,
      "##lem": 4516,
      "▁circum": 4517,
      "##-t": 4518,
      "▁reass": 4519,
      "##ale": 4520,
      "▁pull": 4521,
      "▁suffer": 4522,
      "##rain": 4523,
      "▁po": 4524,
      "▁talk": 4525,
      "▁entitled": 4526,
      "”": 4527,
      "▁actress": 4528,
      "▁satanism": 4529,
      "▁paints": 4530,
      "▁merida": 4531,
      "▁indian": 4532,
      "▁horrible": 4533,
      "▁connected": 4534,
      "▁votes": 4535,
      "▁grumble": 4536,
      "##uration": 4537,
      "▁abuse": 4538,
      "▁preventing": 4539,
      "▁meat": 4540,
      "##takana": 4541,
      "▁well-": 4542,
      "##juku": 4543,
      "▁lon": 4544,
      "▁120": 4545,
      "▁geograph": 4546,
      "4": 4547,
      "▁sang": 4548,
      "##39": 4549,
      "##en.": 4550,
      "▁identifying": 4551,
      "##abeth": 4552,
      "▁lone": 4553,
      "▁410-468-3": 4554,
      "▁transwest": 4555,
      "▁rid": 4556,
      "▁surveillance": 4557,
      "▁sending": 4558,
      "▁punct": 4559,
      "▁chat": 4560,
      "▁gam": 4561,
      "##ortun": 4562,
      "▁encouraged": 4563,
      "▁obl": 4564,
      "▁committed": 4565,
      "▁http://www.4gamer.net/news/image/2005.09": 4566,
      "▁exercises": 4567,
      "▁passionate": 4568,
      "▁purs": 4569,
      "▁pric": 4570,
      "##ew": 4571,
      "▁el": 4572,
      "▁bread": 4573,
      "▁impression": 4574,
      "▁cliffy": 4575,
      "##esa": 4576,
      "##ikh": 4577,
      "▁owned": 4578,
      "##vely": 4579,
      "▁galois": 4580,
      "##pite": 4581,
      "##ents": 4582,
      "##cill": 4583,
      "▁panic": 4584,
      "▁fernand": 4585,
      "▁lumin": 4586,
      "▁recommendation": 4587,
      "▁jam": 4588,
      "▁leisure": 4589,
      "▁dogg": 4590,
      "▁6.1": 4591,
      "##thy": 4592,
      "▁charity": 4593,
      "▁mainland": 4594,
      "▁arthur": 4595,
      "##ised": 4596,
      "##media": 4597,
      "▁putin": 4598,
      "▁status": 4599,
      "▁rubble": 4600,
      "▁vet": 4601,
      "▁microsoft": 4602,
      "▁sump": 4603,
      "▁implemented": 4604,
      "▁valuable": 4605,
      "▁seat": 4606,
      "▁tabennese": 4607,
      "##-cage": 4608,
      "▁47": 4609,
      "##bles": 4610,
      "▁diana": 4611,
      "##establish": 4612,
      "▁marketers": 4613,
      "▁sway": 4614,
      "▁pennsylv": 4615,
      "▁ant": 4616,
      "▁front": 4617,
      "##quart": 4618,
      "▁jones": 4619,
      "▁nowhere": 4620,
      "▁08/0": 4621,
      "▁240": 4622,
      "▁ob": 4623,
      "##itage": 4624,
      "##utical": 4625,
      "▁probably": 4626,
      "▁austria": 4627,
      "▁wine": 4628,
      "▁superb": 4629,
      "##ik": 4630,
      "▁religion": 4631,
      "##ading": 4632,
      "▁presidents": 4633,
      "▁pre": 4634,
      "▁ne": 4635,
      "##ues": 4636,
      "##ids": 4637,
      "▁ris": 4638,
      "▁travis": 4639,
      "▁stink": 4640,
      "##manship": 4641,
      "##zed": 4642,
      "▁filling": 4643,
      "▁!!!!!!": 4644,
      "▁neighb": 4645,
      "##bal": 4646,
      "▁created": 4647,
      "▁terry": 4648,
      "▁polish": 4649,
      "▁median": 4650,
      "▁doctors": 4651,
      "▁1800": 4652,
      "▁moslem": 4653,
      "ʊ": 4654,
      "▁---------------------------------": 4655,
      "▁accepted": 4656,
      "▁comments": 4657,
      "▁2": 4658,
      "▁06": 4659,
      "▁harbour": 4660,
      "▁could": 4661,
      "▁manh": 4662,
      "▁gent": 4663,
      "▁heights": 4664,
      "▁enlargement": 4665,
      "▁pal": 4666,
      "▁christchurch": 4667,
      "##erged": 4668,
      "▁over": 4669,
      "▁piano": 4670,
      "##de": 4671,
      "##iro": 4672,
      "▁re": 4673,
      "▁bull": 4674,
      "▁fundamentally": 4675,
      "##miss": 4676,
      "▁intense": 4677,
      "▁lies": 4678,
      "##eny": 4679,
      "▁sinh": 4680,
      "▁prod": 4681,
      "##__________": 4682,
      "##ouch": 4683,
      "▁committ": 4684,
      "##ose": 4685,
      "##2,000": 4686,
      "▁cliff": 4687,
      "##id": 4688,
      "▁nut": 4689,
      "##-kedne": 4690,
      "▁grandpa": 4691,
      "▁official": 4692,
      "▁exposed": 4693,
      "▁beware": 4694,
      "▁essex": 4695,
      "▁inex": 4696,
      "▁loss": 4697,
      "▁000010": 4698,
      "▁intended": 4699,
      "▁guessed": 4700,
      "##48": 4701,
      "▁storage": 4702,
      "▁departing": 4703,
      "▁length": 4704,
      "▁intermed": 4705,
      "▁backwards": 4706,
      "##alities": 4707,
      "▁swept": 4708,
      "▁enjoyable": 4709,
      "▁designated": 4710,
      "▁autobiograph": 4711,
      "▁coord": 4712,
      "▁inc.": 4713,
      "▁mentioned": 4714,
      "▁pastor": 4715,
      "▁least": 4716,
      "▁achieve": 4717,
      "##ner": 4718,
      "##eration": 4719,
      "▁730": 4720,
      "▁wtc": 4721,
      "▁chasing": 4722,
      "▁message": 4723,
      "##del": 4724,
      "▁1504": 4725,
      "##sheet": 4726,
      "▁mason": 4727,
      "▁actor": 4728,
      "▁1949": 4729,
      "##,00": 4730,
      "##onomy": 4731,
      "▁usual": 4732,
      "▁hamas": 4733,
      "▁3.8": 4734,
      "▁condem": 4735,
      "▁hitting": 4736,
      "##ogical": 4737,
      "▁cray": 4738,
      "##une": 4739,
      "##apse": 4740,
      "▁themes": 4741,
      "▁cent": 4742,
      "##igs": 4743,
      "▁vacuum": 4744,
      "▁outcomes": 4745,
      "▁transformation": 4746,
      "▁pioneer": 4747,
      "▁hym": 4748,
      "▁mater": 4749,
      "▁securities": 4750,
      "▁vot": 4751,
      "▁dubai": 4752,
      "▁republicans": 4753,
      "▁iguazu": 4754,
      "▁squir": 4755,
      "▁chalmers": 4756,
      "▁shame": 4757,
      "▁foot": 4758,
      "▁empirical": 4759,
      "▁neologism": 4760,
      "▁sitting": 4761,
      "▁arrow": 4762,
      "▁knights": 4763,
      "▁verd": 4764,
      "##ocrats": 4765,
      "▁embr": 4766,
      "▁grumbles": 4767,
      "▁popular": 4768,
      "##enron": 4769,
      "▁pray": 4770,
      "▁15,000": 4771,
      "▁email": 4772,
      "##ut": 4773,
      "▁function": 4774,
      "▁black": 4775,
      "▁1841": 4776,
      "▁ferry": 4777,
      "▁frightened": 4778,
      "##asible": 4779,
      "▁painful": 4780,
      "▁1588": 4781,
      "▁represents": 4782,
      "▁warmer": 4783,
      "▁spr": 4784,
      "##hip": 4785,
      "▁helicopters": 4786,
      "▁phant": 4787,
      "##istics": 4788,
      "▁adaptation": 4789,
      "▁11/2": 4790,
      "▁mant": 4791,
      "▁alleged": 4792,
      "▁ill": 4793,
      "##arrass": 4794,
      "▁anthrax": 4795,
      "▁1623": 4796,
      "▁band": 4797,
      "▁balances": 4798,
      "▁canadian": 4799,
      "▁crust": 4800,
      "▁81": 4801,
      "▁canvas": 4802,
      "##ized": 4803,
      "▁uncont": 4804,
      "##fa": 4805,
      "▁co": 4806,
      "▁grim": 4807,
      "▁forster@enron": 4808,
      "▁yelling": 4809,
      "##achers": 4810,
      "▁charl": 4811,
      "##ron": 4812,
      "▁asap": 4813,
      "▁dates": 4814,
      "##α": 4815,
      "▁locations": 4816,
      "▁hindu": 4817,
      "##forward": 4818,
      "▁fixing": 4819,
      "##ender": 4820,
      "▁166": 4821,
      "▁\"": 4822,
      "▁refriger": 4823,
      "▁85": 4824,
      "▁record": 4825,
      "▁yea": 4826,
      "▁manage": 4827,
      "▁schema": 4828,
      "▁strict": 4829,
      "▁former": 4830,
      "##✉": 4831,
      "▁contrary": 4832,
      "##licts": 4833,
      "▁migrants": 4834,
      "▁eurostar": 4835,
      "▁pouring": 4836,
      "▁650": 4837,
      "▁20,000": 4838,
      "▁vom": 4839,
      "▁suspic": 4840,
      "▁bat": 4841,
      "▁vegas": 4842,
      "##rell": 4843,
      "##rovers": 4844,
      "▁circumstances": 4845,
      "▁bobby": 4846,
      "▁pilgr": 4847,
      "##sty": 4848,
      "##ogel": 4849,
      "▁spectac": 4850,
      "##eem": 4851,
      "▁males": 4852,
      "▁percentile": 4853,
      "▁gail": 4854,
      "▁enhance": 4855,
      "▁knife": 4856,
      "▁display": 4857,
      "▁target": 4858,
      "▁ruler": 4859,
      "▁problem": 4860,
      "▁1983": 4861,
      "▁lea": 4862,
      "▁mysterious": 4863,
      "▁greece": 4864,
      "▁joking": 4865,
      "▁2:30": 4866,
      "▁organization": 4867,
      "▁und": 4868,
      "▁whose": 4869,
      "▁star": 4870,
      "##iterranean": 4871,
      "▁movies": 4872,
      "▁trash": 4873,
      "▁communist": 4874,
      "▁chocolates": 4875,
      "▁potter": 4876,
      "▁traveling": 4877,
      "▁chart": 4878,
      "▁girls": 4879,
      "▁policies": 4880,
      "▁flow": 4881,
      "##oty": 4882,
      "▁founder": 4883,
      "▁survive": 4884,
      "▁deeply": 4885,
      "▁allergic": 4886,
      "▁physic": 4887,
      "▁trusted": 4888,
      "▁505-625-8031": 4889,
      "▁barrett": 4890,
      "▁relig": 4891,
      "▁fruit": 4892,
      "▁evolution": 4893,
      "##bond": 4894,
      "##ified": 4895,
      "▁eec": 4896,
      "▁kill": 4897,
      "▁proceed": 4898,
      "▁accordingly": 4899,
      "##ka": 4900,
      "▁goo": 4901,
      "▁flirt": 4902,
      "▁broken": 4903,
      "▁liqu": 4904,
      "▁ret": 4905,
      "▁chair": 4906,
      "▁adh": 4907,
      "▁etc.": 4908,
      "▁fork": 4909,
      "▁constitutional": 4910,
      "▁norway": 4911,
      "▁pseud": 4912,
      "▁tatt": 4913,
      "▁patterns": 4914,
      "▁years": 4915,
      "▁subtle": 4916,
      "▁137": 4917,
      "▁freedom": 4918,
      "##389": 4919,
      "▁genius": 4920,
      "▁ba": 4921,
      "▁dried": 4922,
      "##keys": 4923,
      "▁dodge": 4924,
      "▁boeing": 4925,
      "▁gloria": 4926,
      "▁mushrooms": 4927,
      "▁twenty": 4928,
      "▁manag": 4929,
      "##/2005.09": 4930,
      "▁stadium": 4931,
      "▁v": 4932,
      "▁woods": 4933,
      "##oons": 4934,
      "▁posts": 4935,
      "▁tear": 4936,
      "▁moreover": 4937,
      "▁mechanic": 4938,
      "▁ii": 4939,
      "▁post": 4940,
      "▁swe": 4941,
      "▁dance": 4942,
      "▁bren": 4943,
      "▁ark": 4944,
      "▁posting": 4945,
      "▁especially": 4946,
      "##cing": 4947,
      "▁evans": 4948,
      "▁>": 4949,
      "▁hilar": 4950,
      "▁japanese": 4951,
      "▁s/he": 4952,
      "▁greet": 4953,
      "##-20": 4954,
      "▁eats": 4955,
      "▁specialist": 4956,
      "▁expenses": 4957,
      "##comm": 4958,
      "况": 4959,
      "▁supporter": 4960,
      "##ave": 4961,
      "▁1967": 4962,
      "▁gold": 4963,
      "▁terrell": 4964,
      "▁continuation": 4965,
      "▁df": 4966,
      "▁limous": 4967,
      "▁appet": 4968,
      "▁naked": 4969,
      "▁reluct": 4970,
      "▁evaluate": 4971,
      "▁anti-": 4972,
      "▁gifts": 4973,
      "▁childhood": 4974,
      "##apes": 4975,
      "▁partially": 4976,
      "▁attacks": 4977,
      "▁involves": 4978,
      "##ator": 4979,
      "##ulation": 4980,
      "▁acquisition": 4981,
      "▁conventional": 4982,
      "▁straight": 4983,
      "▁contribution": 4984,
      "##ciation": 4985,
      "▁policymakers": 4986,
      "##ering": 4987,
      "▁capabilities": 4988,
      "▁1994": 4989,
      "▁industry": 4990,
      "▁bi": 4991,
      "▁comic": 4992,
      "▁strawberry": 4993,
      "▁buzz": 4994,
      "▁borders": 4995,
      "##ray": 4996,
      "▁prosec": 4997,
      "▁offer": 4998,
      "##bage": 4999,
      "##oyd": 5000,
      "##mber": 5001,
      "##fly": 5002,
      "▁di": 5003,
      "▁commod": 5004,
      "▁pup": 5005,
      "▁button": 5006,
      "##.s.": 5007,
      "▁compress": 5008,
      "##ysis": 5009,
      "▁inspector": 5010,
      "▁say": 5011,
      "▁medieval": 5012,
      "▁possible": 5013,
      "▁staff": 5014,
      "▁aband": 5015,
      "▁ciao": 5016,
      "▁shrug": 5017,
      "##in": 5018,
      "##teboo": 5019,
      "##**": 5020,
      "▁rise": 5021,
      "##dp": 5022,
      "▁poodle": 5023,
      "▁bron": 5024,
      "▁greeted": 5025,
      "▁vinny": 5026,
      "▁24": 5027,
      "▁congregation": 5028,
      "▁squashed": 5029,
      "▁supplies": 5030,
      "▁measured": 5031,
      "##regard": 5032,
      "▁sender": 5033,
      "▁attached": 5034,
      "▁mos": 5035,
      "▁1754": 5036,
      "▁slim": 5037,
      "▁lu": 5038,
      "▁tren": 5039,
      "▁congr": 5040,
      "▁ignorance": 5041,
      "▁down": 5042,
      "▁cosplay": 5043,
      "##/15/2001": 5044,
      "##c.": 5045,
      "▁inflation": 5046,
      "▁controls": 5047,
      "▁announcement": 5048,
      "▁heav": 5049,
      "▁policing": 5050,
      "▁truly": 5051,
      "##less": 5052,
      "##itively": 5053,
      "▁kay": 5054,
      "▁vast": 5055,
      "##inoc": 5056,
      "▁patrons": 5057,
      "▁sochi": 5058,
      "##uh": 5059,
      "▁assass": 5060,
      "▁intelligence": 5061,
      "▁yan": 5062,
      "▁lions": 5063,
      "▁wear": 5064,
      "▁expand": 5065,
      "▁egyptian": 5066,
      "##veria": 5067,
      "▁andril": 5068,
      "##lessness": 5069,
      "▁treatise": 5070,
      "k": 5071,
      "▁senior": 5072,
      "▁host": 5073,
      "▁aesthetics": 5074,
      "▁optim": 5075,
      "▁software": 5076,
      "##eter": 5077,
      "▁hamster": 5078,
      "▁trucks": 5079,
      "##aters": 5080,
      "▁purchases": 5081,
      "##ric": 5082,
      "▁enthus": 5083,
      "▁beauty": 5084,
      "▁custom": 5085,
      "▁stronger": 5086,
      "▁utility": 5087,
      "▁surrender": 5088,
      "▁islamic": 5089,
      "▁infant": 5090,
      "▁lipsticks": 5091,
      "▁thought": 5092,
      "▁darkness": 5093,
      "##sey": 5094,
      "▁225": 5095,
      "▁capable": 5096,
      "▁5,000": 5097,
      "▁smoking": 5098,
      "▁gambling": 5099,
      "##udge": 5100,
      "▁associate": 5101,
      "▁municipality": 5102,
      "▁tong": 5103,
      "▁mour": 5104,
      "▁unst": 5105,
      "▁dinos": 5106,
      "▁thomas": 5107,
      "▁overwhel": 5108,
      "▁abc": 5109,
      "▁si": 5110,
      "##rants": 5111,
      "▁meet": 5112,
      "▁respectively": 5113,
      "▁abs": 5114,
      "##ateg": 5115,
      "▁renew": 5116,
      "▁domains": 5117,
      "▁opener": 5118,
      "▁nancy": 5119,
      "▁oakland": 5120,
      "▁coc": 5121,
      "##phone": 5122,
      "▁!!!?": 5123,
      "▁elected": 5124,
      "▁ol": 5125,
      "▁pushed": 5126,
      "▁mozilla": 5127,
      "▁handled": 5128,
      "▁potentially": 5129,
      "▁bad": 5130,
      "▁prints": 5131,
      "##!!!": 5132,
      "▁agricultural": 5133,
      "▁acceptable": 5134,
      "▁hood": 5135,
      "##awed": 5136,
      "▁behavior": 5137,
      "▁em": 5138,
      "▁transp": 5139,
      "##news/": 5140,
      "▁nim": 5141,
      "▁blinking": 5142,
      "##rench": 5143,
      "##m": 5144,
      "▁stardust": 5145,
      "▁cake": 5146,
      "▁willingness": 5147,
      "##arr": 5148,
      "▁topic": 5149,
      "▁charco": 5150,
      "▁wizards": 5151,
      "▁couple": 5152,
      "▁blanket": 5153,
      "##wi": 5154,
      "▁unlim": 5155,
      "▁dang": 5156,
      "##mir": 5157,
      "▁photographic": 5158,
      "##,000": 5159,
      "##ment": 5160,
      "▁03/0": 5161,
      "##-th": 5162,
      "▁cookie": 5163,
      "##78": 5164,
      "##ently": 5165,
      "▁revised": 5166,
      "▁sovereignty": 5167,
      "u": 5168,
      "▁leonard": 5169,
      "▁7.2": 5170,
      "##irts": 5171,
      "##--------------------------------": 5172,
      "▁constitute": 5173,
      "▁launched": 5174,
      "▁713-853": 5175,
      "##y@enron_development": 5176,
      "▁yeah": 5177,
      "h": 5178,
      "▁888.916.7184": 5179,
      "▁immers": 5180,
      "▁subur": 5181,
      "▁sonnets": 5182,
      "▁xbox": 5183,
      "▁against": 5184,
      "▁vari": 5185,
      "▁kenneth": 5186,
      "▁players": 5187,
      "##.61": 5188,
      "▁corps": 5189,
      "▁inclusive": 5190,
      "▁onions": 5191,
      "##of": 5192,
      "▁certainty": 5193,
      "▁3-5": 5194,
      "▁nmemdrft": 5195,
      "▁engaging": 5196,
      "##igan": 5197,
      "▁gulf": 5198,
      "▁00": 5199,
      "▁sustainable": 5200,
      "▁175": 5201,
      "▁avoided": 5202,
      "##lear": 5203,
      "▁beaut": 5204,
      "##ucker": 5205,
      "##iling": 5206,
      "##unct": 5207,
      "▁intend": 5208,
      "▁leather": 5209,
      "##emort": 5210,
      "▁overd": 5211,
      "▁vehicle": 5212,
      "▁11/10/2000": 5213,
      "▁flexible": 5214,
      "▁purchasing": 5215,
      "▁invited": 5216,
      "▁1561": 5217,
      "▁bible": 5218,
      "▁fig": 5219,
      "▁course": 5220,
      "##ager": 5221,
      "▁shrimp": 5222,
      "▁mechanism": 5223,
      "##ously": 5224,
      "ف": 5225,
      "▁or": 5226,
      "▁forum": 5227,
      "▁elephants": 5228,
      "▁affordable": 5229,
      "▁sunburn": 5230,
      "▁inside": 5231,
      "##organ": 5232,
      "##ioch": 5233,
      "##y": 5234,
      "▁close": 5235,
      "▁dul": 5236,
      "▁homeopathy": 5237,
      "##ford": 5238,
      "▁worthwhile": 5239,
      "▁refr": 5240,
      "▁plain": 5241,
      "▁x": 5242,
      "▁fifteen": 5243,
      "▁—": 5244,
      "▁garbage": 5245,
      "▁essentially": 5246,
      "▁rem": 5247,
      "##oc": 5248,
      "▁pose": 5249,
      "▁chath": 5250,
      "▁huit": 5251,
      "▁exclus": 5252,
      "▁intake": 5253,
      "▁h": 5254,
      "▁independence": 5255,
      "▁rachel": 5256,
      "▁dressed": 5257,
      "▁nix": 5258,
      "▁w/": 5259,
      "▁secondly": 5260,
      "▁lobster": 5261,
      "▁marshall": 5262,
      "▁report": 5263,
      "▁programmes": 5264,
      "▁shop": 5265,
      "▁complet": 5266,
      "##92": 5267,
      "▁comparable": 5268,
      "▁achie": 5269,
      "▁procedures": 5270,
      "▁make": 5271,
      "##stream": 5272,
      "##roll": 5273,
      "▁tonight": 5274,
      "##.htm": 5275,
      "▁democr": 5276,
      "▁trading": 5277,
      "▁compar": 5278,
      "▁1846": 5279,
      "▁bedding": 5280,
      "▁debts": 5281,
      "##her": 5282,
      "##eur": 5283,
      "▁gis": 5284,
      "▁oth": 5285,
      "▁prayer": 5286,
      "▁adequately": 5287,
      "▁assort": 5288,
      "▁marketing": 5289,
      "▁hug": 5290,
      "▁lwww": 5291,
      "▁dough": 5292,
      "##cal": 5293,
      "##'re": 5294,
      "##orth": 5295,
      "▁climate": 5296,
      "▁collecting": 5297,
      "▁create": 5298,
      "##sych": 5299,
      "▁giov": 5300,
      "▁metrop": 5301,
      "##澹": 5302,
      "▁controlling": 5303,
      "##berries": 5304,
      "##ipop": 5305,
      "##ag": 5306,
      "▁built": 5307,
      "<": 5308,
      "▁hipp": 5309,
      "▁armen": 5310,
      "▁mco": 5311,
      "▁works": 5312,
      "▁founders": 5313,
      "##ifications": 5314,
      "##.go": 5315,
      "▁heads": 5316,
      "▁silver": 5317,
      "##mp": 5318,
      "▁officer": 5319,
      "▁comes": 5320,
      "##_": 5321,
      "▁gest": 5322,
      "▁ignored": 5323,
      "▁absurd": 5324,
      "▁bush": 5325,
      "▁contact": 5326,
      "##499": 5327,
      "▁knowing": 5328,
      "▁65": 5329,
      "##lers": 5330,
      "##airah": 5331,
      "##uts": 5332,
      "▁frequent": 5333,
      "▁pett": 5334,
      "▁sticks": 5335,
      "▁ps": 5336,
      "▁crisis": 5337,
      "▁ev": 5338,
      "▁1505": 5339,
      "▁reluctant": 5340,
      "▁may": 5341,
      "▁pump": 5342,
      "▁approach": 5343,
      "▁dying": 5344,
      "▁toilet": 5345,
      "▁treaty": 5346,
      "▁summar": 5347,
      "▁gels": 5348,
      "▁buildings": 5349,
      "##.j": 5350,
      "▁relationship": 5351,
      "▁licenses": 5352,
      "##asant": 5353,
      "##ing": 5354,
      "▁strikes": 5355,
      "##elines": 5356,
      "▁269": 5357,
      "▁stood": 5358,
      "▁spos": 5359,
      "▁items": 5360,
      "▁(": 5361,
      "▁implementing": 5362,
      "▁spiders": 5363,
      "▁1": 5364,
      "▁yo": 5365,
      "##po": 5366,
      "##0-3": 5367,
      "▁typ": 5368,
      "▁execute": 5369,
      "▁deal": 5370,
      "▁hoping": 5371,
      "▁scarf": 5372,
      "▁chernobyl": 5373,
      "##uk": 5374,
      "▁sull": 5375,
      "▁prevent": 5376,
      "▁declar": 5377,
      "▁saying": 5378,
      "▁capture": 5379,
      "▁abandon": 5380,
      "▁shad": 5381,
      "▁facebook": 5382,
      "▁engineering": 5383,
      "▁stopped": 5384,
      "▁collapsed": 5385,
      "▁limerick": 5386,
      "▁combat": 5387,
      "▁crush": 5388,
      "▁bunch": 5389,
      "##itement": 5390,
      "▁israeli": 5391,
      "▁thumb": 5392,
      "##ades": 5393,
      "▁restriction": 5394,
      "▁ignor": 5395,
      "▁smile": 5396,
      "##uter": 5397,
      "▁day": 5398,
      "▁small": 5399,
      "##/26": 5400,
      "##itzer": 5401,
      "f": 5402,
      "▁tourists": 5403,
      "▁04:03": 5404,
      "##:40": 5405,
      "▁arizona": 5406,
      "▁ich": 5407,
      "▁bombing": 5408,
      "▁cohesion": 5409,
      "▁tang": 5410,
      "▁hokkaido": 5411,
      "▁train": 5412,
      "▁syria": 5413,
      "▁balance": 5414,
      "▁kabul": 5415,
      "▁gerry": 5416,
      "▁throat": 5417,
      "▁waiting": 5418,
      "##ener": 5419,
      "▁pennies": 5420,
      "▁vine": 5421,
      "▁byron": 5422,
      "▁voting": 5423,
      "##.ca/": 5424,
      "▁pall": 5425,
      "▁grabbed": 5426,
      "▁proceeds": 5427,
      "▁immigration": 5428,
      "▁reviewed": 5429,
      "▁wire": 5430,
      "##cast": 5431,
      "▁beach": 5432,
      "▁checks": 5433,
      "▁apart": 5434,
      "##bur": 5435,
      "▁sho": 5436,
      "▁rob": 5437,
      "▁adapt": 5438,
      "▁pap": 5439,
      "▁hotdog": 5440,
      "▁facilities": 5441,
      "▁william": 5442,
      "▁lords": 5443,
      "▁latest": 5444,
      "▁hockey": 5445,
      "##sing": 5446,
      "▁gloom": 5447,
      "▁results": 5448,
      "▁pros": 5449,
      "▁agents": 5450,
      "##:44": 5451,
      "▁150,000": 5452,
      "▁everybody": 5453,
      "▁od": 5454,
      "▁tasting": 5455,
      "▁tor": 5456,
      "▁baggage": 5457,
      "▁isda": 5458,
      "▁toky": 5459,
      "▁functional": 5460,
      "▁monks": 5461,
      "▁reck": 5462,
      "▁squ": 5463,
      "▁quartiles": 5464,
      "▁hurts": 5465,
      "▁counterfe": 5466,
      "##ensed": 5467,
      "##innati": 5468,
      "▁inv": 5469,
      "▁so-called": 5470,
      "▁sunk": 5471,
      "##nis": 5472,
      "##.asp": 5473,
      "▁rides": 5474,
      "▁phill": 5475,
      "▁..": 5476,
      "▁refusing": 5477,
      "##abled": 5478,
      "▁meh-ris": 5479,
      "##aments": 5480,
      "▁interested": 5481,
      "##=": 5482,
      "▁nana": 5483,
      "▁arabs": 5484,
      "▁jerusal": 5485,
      "▁fuel": 5486,
      "▁acqu": 5487,
      "##ounts": 5488,
      "##4": 5489,
      "##oli": 5490,
      "▁colonial": 5491,
      "▁wor": 5492,
      "▁tupper": 5493,
      "▁oatmeal": 5494,
      "▁345-99": 5495,
      "▁91": 5496,
      "▁birthday": 5497,
      "##elly": 5498,
      "▁resol": 5499,
      "▁1976": 5500,
      "▁huckle": 5501,
      "▁indef": 5502,
      "▁freely": 5503,
      "▁sunshine": 5504,
      "##ottable": 5505,
      "▁env": 5506,
      "▁chardonnay": 5507,
      "▁wid": 5508,
      "##.09": 5509,
      "▁dischar": 5510,
      "▁passes": 5511,
      "▁bottom": 5512,
      "▁experiments": 5513,
      "##xic": 5514,
      "▁alongside": 5515,
      "▁thr": 5516,
      "▁speech": 5517,
      "▁portion": 5518,
      "▁ste": 5519,
      "▁repe": 5520,
      "▁1980": 5521,
      "##elson": 5522,
      "▁cros": 5523,
      "##ertain": 5524,
      "▁broom": 5525,
      "▁pattern": 5526,
      "##://": 5527,
      "▁joining": 5528,
      "▁jurisd": 5529,
      "▁reapp": 5530,
      "▁haha": 5531,
      "##65": 5532,
      "▁dreamed": 5533,
      "▁01/24/2001": 5534,
      "▁fits": 5535,
      "▁shoo": 5536,
      "▁ld2d-#693": 5537,
      "▁monday": 5538,
      "▁buses": 5539,
      "##ansa": 5540,
      "▁findings": 5541,
      "▁armored": 5542,
      "▁2020": 5543,
      "▁needs": 5544,
      "▁proclaimed": 5545,
      "▁smooth": 5546,
      "▁8": 5547,
      "##unte": 5548,
      "▁dare": 5549,
      "##iri": 5550,
      "▁yourself": 5551,
      "▁diet": 5552,
      "▁entit": 5553,
      "▁larry": 5554,
      "▁key": 5555,
      "▁song": 5556,
      "▁radio": 5557,
      "▁mir": 5558,
      "▁defended": 5559,
      "▁produces": 5560,
      "▁format": 5561,
      "▁chef": 5562,
      "▁clip": 5563,
      "▁scrub": 5564,
      "▁suit": 5565,
      "▁850": 5566,
      "▁ware": 5567,
      "##health": 5568,
      "▁lifted": 5569,
      "▁hitler": 5570,
      "▁gri": 5571,
      "##++++": 5572,
      "##_de": 5573,
      "##log": 5574,
      "▁lect": 5575,
      "▁gay": 5576,
      "▁chamber": 5577,
      "▁shia": 5578,
      "▁institute": 5579,
      "▁illness": 5580,
      "▁highly": 5581,
      "▁yar": 5582,
      "▁cancel": 5583,
      "▁switzerland": 5584,
      "##--": 5585,
      "▁shri": 5586,
      "▁sides": 5587,
      "##alph": 5588,
      "▁logical": 5589,
      "▁republican": 5590,
      "▁similar": 5591,
      "##13.86": 5592,
      "▁latin": 5593,
      "▁saving": 5594,
      "▁beans": 5595,
      "▁agent": 5596,
      "▁carrots": 5597,
      "##tery": 5598,
      "▁spots": 5599,
      "▁so": 5600,
      "▁midas": 5601,
      "▁drawer": 5602,
      "▁audiences": 5603,
      "▁renee": 5604,
      "▁ave": 5605,
      "▁separated": 5606,
      "▁recently": 5607,
      "▁francis": 5608,
      "▁sub": 5609,
      "▁1970s": 5610,
      "▁newfound": 5611,
      "▁07:24": 5612,
      "▁encoun": 5613,
      "▁agreements": 5614,
      "▁long": 5615,
      "##anes": 5616,
      "▁202.456": 5617,
      "▁1832": 5618,
      "▁will": 5619,
      "▁maps": 5620,
      "▁minor": 5621,
      "▁interpre": 5622,
      "##arency": 5623,
      "▁coff": 5624,
      "▁chinese": 5625,
      "▁play+": 5626,
      "▁charming": 5627,
      "▁1660": 5628,
      "▁holding": 5629,
      "▁magazine": 5630,
      "▁blanc": 5631,
      "▁scott": 5632,
      "▁skills": 5633,
      "▁popped": 5634,
      "▁targeting": 5635,
      "##ret": 5636,
      "▁jr.": 5637,
      "▁gwww": 5638,
      "▁hosp": 5639,
      "▁organizing": 5640,
      "▁yield": 5641,
      "##50": 5642,
      "▁strol": 5643,
      "##urse": 5644,
      "##orough": 5645,
      "▁shipping": 5646,
      "▁argentina": 5647,
      "##ami": 5648,
      "▁paintings": 5649,
      "▁customs": 5650,
      "▁marking": 5651,
      "▁dent": 5652,
      "▁rap": 5653,
      "▁blueberry": 5654,
      "##oven": 5655,
      "▁contex": 5656,
      "##ley": 5657,
      "▁draco": 5658,
      "##cliff": 5659,
      "##sticks": 5660,
      "▁rhinoc": 5661,
      "▁powers": 5662,
      "▁hatfill": 5663,
      "▁perling": 5664,
      "▁quickly": 5665,
      "##rax": 5666,
      "##ainted": 5667,
      "##lyn": 5668,
      "▁already": 5669,
      "▁mov": 5670,
      "▁cheek": 5671,
      "▁creative": 5672,
      "##water": 5673,
      "▁nord": 5674,
      "▁accum": 5675,
      "▁thanksg": 5676,
      "##issions": 5677,
      "▁guacamole": 5678,
      "▁judged": 5679,
      "▁baba": 5680,
      "##ham": 5681,
      "▁musharraf": 5682,
      "▁hann": 5683,
      "##oshikii": 5684,
      "▁deserves": 5685,
      "▁rel": 5686,
      "##8/2001": 5687,
      "▁ironic": 5688,
      "▁bought": 5689,
      "▁asc": 5690,
      "▁tah": 5691,
      "▁attendance": 5692,
      "▁slavery": 5693,
      "ي": 5694,
      "▁rag": 5695,
      "▁lean": 5696,
      "##row": 5697,
      "▁2021": 5698,
      "##ecca": 5699,
      "▁carrot": 5700,
      "▁headset": 5701,
      "▁safety": 5702,
      "▁notably": 5703,
      "▁vaccine": 5704,
      "▁transmitted": 5705,
      "▁de": 5706,
      "##ru": 5707,
      "▁530": 5708,
      "▁enforcement": 5709,
      "▁managing": 5710,
      "##ault": 5711,
      "▁dess": 5712,
      "▁pc": 5713,
      "##away": 5714,
      "▁meg": 5715,
      "▁times": 5716,
      "▁collections": 5717,
      "##-faced": 5718,
      "▁281-435-0295": 5719,
      "▁shut": 5720,
      "##oameric": 5721,
      "▁known": 5722,
      "▁bar": 5723,
      "▁bust": 5724,
      "▁transport": 5725,
      "▁emerged": 5726,
      "▁print": 5727,
      "▁rebuild": 5728,
      "▁lord": 5729,
      "▁kand": 5730,
      "▁switch": 5731,
      "▁713-654-": 5732,
      "##ipedia": 5733,
      "▁lawyers": 5734,
      "▁endangered": 5735,
      "##angle": 5736,
      "##/2": 5737,
      "▁flood": 5738,
      "▁bind": 5739,
      "▁commonplace": 5740,
      "▁faint": 5741,
      "##gence": 5742,
      "▁nickn": 5743,
      "##/17/99": 5744,
      "##velopment": 5745,
      "▁bos": 5746,
      "▁awa": 5747,
      "▁pard": 5748,
      "▁primarily": 5749,
      "##orescent": 5750,
      "##www": 5751,
      "▁281": 5752,
      "▁1848": 5753,
      "▁violent": 5754,
      "▁dolls": 5755,
      "##ove": 5756,
      "▁03/21/2001": 5757,
      "##ω": 5758,
      "▁brown": 5759,
      "▁aud": 5760,
      "▁patient": 5761,
      "▁redeem": 5762,
      "##-696": 5763,
      "##vest": 5764,
      "##nb": 5765,
      "▁strengthen": 5766,
      "▁tehran": 5767,
      "▁belie": 5768,
      "▁-": 5769,
      "▁modest": 5770,
      "▁independ": 5771,
      "ι": 5772,
      "▁restaur": 5773,
      "▁confidence": 5774,
      "z": 5775,
      "▁broader": 5776,
      "▁flakes": 5777,
      "▁deliberate": 5778,
      "##pl": 5779,
      "##cedented": 5780,
      "▁trot": 5781,
      "▁implementation": 5782,
      "▁30th": 5783,
      "▁samuel": 5784,
      "▁union": 5785,
      "▁inequality": 5786,
      "##fts": 5787,
      "▁prosper": 5788,
      "▁traders": 5789,
      "▁yet": 5790,
      "▁altern": 5791,
      "▁revenues": 5792,
      "▁stolen": 5793,
      "▁kick": 5794,
      "▁latter": 5795,
      "▁mr": 5796,
      "▁evely": 5797,
      "▁describing": 5798,
      "▁rewards": 5799,
      "▁another": 5800,
      "▁rats": 5801,
      "▁britt": 5802,
      "▁ferr": 5803,
      "##-sh": 5804,
      "##ush": 5805,
      "▁washington": 5806,
      "▁strongest": 5807,
      "▁345-3436": 5808,
      "▁allowed": 5809,
      "▁vs.": 5810,
      "▁catalog": 5811,
      "▁rout": 5812,
      "▁sings": 5813,
      "▁sci": 5814,
      "##w": 5815,
      "##ri": 5816,
      "谿": 5817,
      "##gin": 5818,
      "▁figured": 5819,
      "##iques": 5820,
      "▁immigr": 5821,
      "▁rev": 5822,
      "▁responses": 5823,
      "▁interrupted": 5824,
      "▁wan": 5825,
      "▁numerous": 5826,
      "##real": 5827,
      "▁instinct": 5828,
      "▁buy": 5829,
      "▁mel": 5830,
      "▁tract": 5831,
      "▁became": 5832,
      "▁superseding": 5833,
      "▁tact": 5834,
      "##encer": 5835,
      "▁vintage": 5836,
      "##rus": 5837,
      "▁thro": 5838,
      "##dad": 5839,
      "▁guarant": 5840,
      "▁handle": 5841,
      "▁pollution": 5842,
      "▁northeast": 5843,
      "##ption": 5844,
      "▁delay": 5845,
      "▁reason": 5846,
      "▁grandma": 5847,
      "▁bog": 5848,
      "▁patter": 5849,
      "▁him": 5850,
      "▁modulo": 5851,
      "▁alert": 5852,
      "▁profits": 5853,
      "▁aafia": 5854,
      "▁celebration": 5855,
      "▁generations": 5856,
      "##itz": 5857,
      "▁non-bondad": 5858,
      "▁found": 5859,
      "▁give": 5860,
      "▁366": 5861,
      "▁missed": 5862,
      "▁lasted": 5863,
      "▁link": 5864,
      "▁ut": 5865,
      "##algami": 5866,
      "##oil": 5867,
      "##asing": 5868,
      "##soft": 5869,
      "▁425-415-": 5870,
      "▁bus": 5871,
      "▁ripe": 5872,
      "▁sweep": 5873,
      "▁.": 5874,
      "▁pitter": 5875,
      "▁harsh": 5876,
      "▁maya": 5877,
      "▁sample": 5878,
      "##osy": 5879,
      "##izing": 5880,
      "▁eggs": 5881,
      "▁flaw": 5882,
      "▁valentine": 5883,
      "▁dismiss": 5884,
      "▁08:30": 5885,
      "▁1604": 5886,
      "##e@enron": 5887,
      "##entives": 5888,
      "▁bananas": 5889,
      "##bum": 5890,
      "▁parking": 5891,
      "▁nervous": 5892,
      "##arine": 5893,
      "▁passage": 5894,
      "▁qa": 5895,
      "▁lion": 5896,
      "▁ultr": 5897,
      "▁happened": 5898,
      "##sel": 5899,
      "▁nandaro": 5900,
      "##ication": 5901,
      "▁ku": 5902,
      "▁weakness": 5903,
      "▁targets": 5904,
      "##oma": 5905,
      "▁died": 5906,
      "▁taste": 5907,
      "##den": 5908,
      "▁10/26/2000": 5909,
      "▁dans": 5910,
      "▁paralympic": 5911,
      "##.": 5912,
      "##etti": 5913,
      "▁solicit": 5914,
      "##ril": 5915,
      "▁surprises": 5916,
      "##urally": 5917,
      "##aint": 5918,
      "##7.77": 5919,
      "▁ethics": 5920,
      "▁indicate": 5921,
      "▁sup": 5922,
      "##ola": 5923,
      "▁seld": 5924,
      "▁simply": 5925,
      "▁cotton": 5926,
      "▁re-e": 5927,
      "▁duty": 5928,
      "▁newsgroup": 5929,
      "##rect": 5930,
      "▁counted": 5931,
      "##ommend": 5932,
      "▁campus": 5933,
      "▁tags": 5934,
      "▁1859": 5935,
      "▁anderson": 5936,
      "##ception": 5937,
      "▁62": 5938,
      "##uku": 5939,
      "▁among": 5940,
      "▁told": 5941,
      "##oice": 5942,
      "▁barclays": 5943,
      "▁installing": 5944,
      "▁hints": 5945,
      "▁updated": 5946,
      "##--------": 5947,
      "▁spot": 5948,
      "▁dum": 5949,
      "▁painted": 5950,
      "▁active": 5951,
      "##cp": 5952,
      "▁clause": 5953,
      "▁twelfth": 5954,
      "##xce": 5955,
      "##utz": 5956,
      "▁timing": 5957,
      "▁afric": 5958,
      "w": 5959,
      "▁jeremy": 5960,
      "▁days": 5961,
      "##ozer": 5962,
      "▁workforce": 5963,
      "▁sector": 5964,
      "▁1.75": 5965,
      "▁answered": 5966,
      "##.n": 5967,
      "▁bearded": 5968,
      "##-642": 5969,
      "▁dan": 5970,
      "▁anyway": 5971,
      "▁prevention": 5972,
      "##anan": 5973,
      "▁stim": 5974,
      "▁whol": 5975,
      "▁feature": 5976,
      "▁squeak": 5977,
      "▁feels": 5978,
      "▁gift": 5979,
      "##arians": 5980,
      "▁lawn": 5981,
      "▁fox": 5982,
      "▁1954": 5983,
      "▁fy": 5984,
      "▁8043": 5985,
      "▁leaning": 5986,
      "▁insist": 5987,
      "▁cold": 5988,
      "▁scrap": 5989,
      "▁shakes": 5990,
      "▁esp": 5991,
      "▁1.5": 5992,
      "##ih": 5993,
      "▁standing": 5994,
      "##dge": 5995,
      "▁cupc": 5996,
      "▁ha": 5997,
      "▁harv": 5998,
      "▁dispute": 5999,
      "##berts": 6000,
      "▁interact": 6001,
      "▁tanks": 6002,
      "▁threats": 6003,
      "##łodz": 6004,
      "▁lipstick": 6005,
      "##atisf": 6006,
      "▁ukrain": 6007,
      "##pat": 6008,
      "▁arg": 6009,
      "▁details": 6010,
      "▁3.": 6011,
      "▁mcdonald": 6012,
      "##df": 6013,
      "▁karen": 6014,
      "##zz": 6015,
      "##.c": 6016,
      "▁pse": 6017,
      "▁mad": 6018,
      "▁earli": 6019,
      "##29": 6020,
      "▁minnesota": 6021,
      "▁nuts": 6022,
      "##for": 6023,
      "▁character": 6024,
      "▁stretch": 6025,
      "##:3": 6026,
      "##a)": 6027,
      "##tec": 6028,
      "##oos": 6029,
      "▁buried": 6030,
      "▁713": 6031,
      "▁applic": 6032,
      "▁fill": 6033,
      "▁compete": 6034,
      "▁holy": 6035,
      "▁ed": 6036,
      "##org": 6037,
      "▁pivotchart": 6038,
      "▁graph": 6039,
      "▁harmonisation": 6040,
      "▁borne": 6041,
      "▁impart": 6042,
      "▁doctr": 6043,
      "##agen": 6044,
      "▁fit": 6045,
      "▁pl": 6046,
      "▁aunt": 6047,
      "▁rabbits": 6048,
      "##world": 6049,
      "▁chagrin": 6050,
      "##-9004": 6051,
      "▁need": 6052,
      "▁belgium": 6053,
      "▁mornings": 6054,
      "▁repeatedly": 6055,
      "##andy": 6056,
      "▁2.00": 6057,
      "▁713/853": 6058,
      "▁pepper": 6059,
      "▁relat": 6060,
      "▁1900": 6061,
      "##gregation": 6062,
      "▁norton": 6063,
      "▁mama": 6064,
      "▁epm": 6065,
      "▁44,000": 6066,
      "▁empower": 6067,
      "▁whi": 6068,
      "##vas": 6069,
      "##chief": 6070,
      "▁mare": 6071,
      "▁petersburg": 6072,
      "▁numb": 6073,
      "▁oatm": 6074,
      "##89": 6075,
      "▁occurring": 6076,
      "▁processor": 6077,
      "##d": 6078,
      "▁decade": 6079,
      "▁killing": 6080,
      "##ue": 6081,
      "▁researchers": 6082,
      "▁shuffling": 6083,
      "▁afghan": 6084,
      "▁affil": 6085,
      "▁alt": 6086,
      "▁research": 6087,
      "▁anyways": 6088,
      "##38": 6089,
      "##uman": 6090,
      "▁strictly": 6091,
      "▁tracking": 6092,
      "▁blount": 6093,
      "▁neighbor": 6094,
      "▁fu": 6095,
      "##phere": 6096,
      "▁varied": 6097,
      "▁packet": 6098,
      "##iff": 6099,
      "▁discom": 6100,
      "▁wrapped": 6101,
      "▁58": 6102,
      "▁quarters": 6103,
      "▁scotland": 6104,
      "##ρ": 6105,
      "▁paw": 6106,
      "▁careful": 6107,
      "▁burbank": 6108,
      "##erm": 6109,
      "▁saw": 6110,
      "▁proportion": 6111,
      "##v.": 6112,
      "##ety": 6113,
      "##rict": 6114,
      "▁exerc": 6115,
      "▁addresses": 6116,
      "▁foc": 6117,
      "##60": 6118,
      "##d-#693": 6119,
      "▁600": 6120,
      "▁stephen": 6121,
      "▁wang": 6122,
      "▁played": 6123,
      "▁accommodation": 6124,
      "▁mwww": 6125,
      "▁classroom": 6126,
      "##4/2001": 6127,
      "▁wizard": 6128,
      "##ocent": 6129,
      "##’t": 6130,
      "##amed": 6131,
      "▁extraord": 6132,
      "##远": 6133,
      "▁reaches": 6134,
      "▁156": 6135,
      "##.edu/": 6136,
      "▁undoubtedly": 6137,
      "##津": 6138,
      "▁1991": 6139,
      "▁€": 6140,
      "##8-7-0": 6141,
      "▁5/18": 6142,
      "##bondad": 6143,
      "▁meaning": 6144,
      "▁chute": 6145,
      "##lied": 6146,
      ".": 6147,
      "▁incorrect": 6148,
      "##par": 6149,
      "##ob": 6150,
      "▁equal": 6151,
      "##ople": 6152,
      "##64": 6153,
      "##.10": 6154,
      "▁airbnb": 6155,
      "▁teppy": 6156,
      "##asa": 6157,
      "▁authorities": 6158,
      "0": 6159,
      "▁moral": 6160,
      "▁rebu": 6161,
      "▁participating": 6162,
      "▁copying": 6163,
      "▁mo": 6164,
      "##ining": 6165,
      "▁gorio": 6166,
      "▁1799": 6167,
      "|": 6168,
      "▁cock": 6169,
      "▁require": 6170,
      "##index": 6171,
      "▁stanford": 6172,
      "▁slic": 6173,
      "▁venus": 6174,
      "##rav": 6175,
      "▁cleveland": 6176,
      "▁penal": 6177,
      "▁required": 6178,
      "▁bernoul": 6179,
      "##-79": 6180,
      "▁elimin": 6181,
      "▁tec": 6182,
      "▁individual": 6183,
      "##iew": 6184,
      "▁plenty": 6185,
      "▁crying": 6186,
      "▁representative": 6187,
      "▁witch": 6188,
      "▁moisture": 6189,
      "▁claus": 6190,
      "##inez": 6191,
      "▁olds": 6192,
      "▁corp.": 6193,
      "▁yes": 6194,
      "▁reporting": 6195,
      "▁theore": 6196,
      "▁vod": 6197,
      "▁snake": 6198,
      "▁origin": 6199,
      "▁decree": 6200,
      "▁peninsula": 6201,
      "▁murph": 6202,
      "##.123": 6203,
      "▁push": 6204,
      "▁claimed": 6205,
      "##su": 6206,
      "▁brilliant": 6207,
      "##ul": 6208,
      "▁sab": 6209,
      "▁beast": 6210,
      "▁---=": 6211,
      "▁attracted": 6212,
      "▁ehow": 6213,
      "▁1564": 6214,
      "▁immunity": 6215,
      "▁volunt": 6216,
      "l": 6217,
      "##/8/00": 6218,
      "▁theater": 6219,
      "▁implications": 6220,
      "▁mix": 6221,
      "▁afgh": 6222,
      "▁across": 6223,
      "▁bes": 6224,
      "▁vold": 6225,
      "▁good": 6226,
      "▁bre": 6227,
      "▁longer": 6228,
      "▁charged": 6229,
      "##greg": 6230,
      "▁phot": 6231,
      "▁chief": 6232,
      "▁revenue": 6233,
      "##vis": 6234,
      "▁crayon": 6235,
      "▁storing": 6236,
      "▁stirrup": 6237,
      "▁oak": 6238,
      "▁99": 6239,
      "▁yogurt": 6240,
      "##ح": 6241,
      "▁enabling": 6242,
      "▁rules": 6243,
      "▁rol": 6244,
      "▁process": 6245,
      "▁ruby": 6246,
      "▁slides": 6247,
      "▁numbers": 6248,
      "▁gir": 6249,
      "▁hand": 6250,
      "##ament": 6251,
      "▁experimental": 6252,
      "▁interf": 6253,
      "##atch": 6254,
      "▁tab": 6255,
      "##aneously": 6256,
      "▁delta": 6257,
      "▁cottage": 6258,
      "▁tuck": 6259,
      "##driver": 6260,
      "▁sal": 6261,
      "▁stan": 6262,
      "▁reminded": 6263,
      "▁campaigns": 6264,
      "▁suff": 6265,
      "▁gradu": 6266,
      "##ah": 6267,
      "▁campa": 6268,
      "##子": 6269,
      "▁sie": 6270,
      "▁impro": 6271,
      "▁debr": 6272,
      "▁lbs": 6273,
      "▁network": 6274,
      "▁discovered": 6275,
      "▁accordance": 6276,
      "▁1st": 6277,
      "▁8.3": 6278,
      "‘": 6279,
      "▁ease": 6280,
      "▁remained": 6281,
      "▁mitig": 6282,
      "▁nicer": 6283,
      "##/s": 6284,
      "##osed": 6285,
      "▁october": 6286,
      "##vn": 6287,
      "▁donna": 6288,
      "▁beings": 6289,
      "▁intercept": 6290,
      "▁traged": 6291,
      "##alled": 6292,
      "▁2012": 6293,
      "▁catch": 6294,
      "▁person": 6295,
      "▁block": 6296,
      "▁staring": 6297,
      "▁publishing": 6298,
      "▁refresh": 6299,
      "▁rud": 6300,
      "▁privileged": 6301,
      "##anmar": 6302,
      "▁350": 6303,
      "α": 6304,
      "▁10": 6305,
      "▁lower": 6306,
      "▁mol": 6307,
      "##gar": 6308,
      "▁better": 6309,
      "##neath": 6310,
      "▁345-9945": 6311,
      "##abul": 6312,
      "▁incub": 6313,
      "▁dress": 6314,
      "▁33": 6315,
      "▁1940": 6316,
      "▁blended": 6317,
      "▁summ": 6318,
      "▁1892": 6319,
      "##ishment": 6320,
      "▁1980s": 6321,
      "▁previously": 6322,
      "▁understood": 6323,
      "##urp": 6324,
      "▁exclusive": 6325,
      "▁idiots": 6326,
      "▁tend": 6327,
      "##math": 6328,
      "▁whe": 6329,
      "▁merely": 6330,
      "▁knight": 6331,
      "▁jamie": 6332,
      "▁takes": 6333,
      "##irm": 6334,
      "▁signature": 6335,
      "▁replace": 6336,
      "▁libraries": 6337,
      "##nels": 6338,
      "▁02-0": 6339,
      "▁spelling": 6340,
      "▁ate": 6341,
      "▁proph": 6342,
      "▁colonel": 6343,
      "▁maint": 6344,
      "▁460": 6345,
      "▁targeted": 6346,
      "▁surrounded": 6347,
      "▁sept.": 6348,
      "▁edit": 6349,
      "▁speakers": 6350,
      "▁noisy": 6351,
      "##eded": 6352,
      "##ram": 6353,
      "▁convinced": 6354,
      "▁assure": 6355,
      "▁/": 6356,
      "▁excited": 6357,
      "▁clouds": 6358,
      "▁sta": 6359,
      "▁salon": 6360,
      "▁lets": 6361,
      "▁159": 6362,
      "▁fundamental": 6363,
      "▁structured": 6364,
      "▁migr": 6365,
      "▁firms": 6366,
      "▁interaction": 6367,
      "▁expecting": 6368,
      "##32": 6369,
      "▁modem": 6370,
      "▁animals": 6371,
      "▁needles": 6372,
      "▁freight": 6373,
      "▁max": 6374,
      "▁flowers": 6375,
      "▁cle": 6376,
      "##ijing": 6377,
      "##boys": 6378,
      "##ition": 6379,
      "▁interest": 6380,
      "▁76": 6381,
      "##ear": 6382,
      "▁+45": 6383,
      "▁140": 6384,
      "##gn": 6385,
      "▁chee": 6386,
      "##cross": 6387,
      "##uously": 6388,
      "##enn": 6389,
      "▁terrorist": 6390,
      "▁05908549": 6391,
      "•": 6392,
      "▁nierman": 6393,
      "▁viewers": 6394,
      "▁prime": 6395,
      "▁contexts": 6396,
      "▁admiration": 6397,
      "▁socks": 6398,
      "▁tay": 6399,
      "##keep": 6400,
      "##ahar": 6401,
      "▁11/0": 6402,
      "▁6.2.1": 6403,
      "##esome": 6404,
      "##ella": 6405,
      "▁headquarters": 6406,
      "##ifying": 6407,
      "##,500": 6408,
      "▁wy": 6409,
      "##ory": 6410,
      "##iwan": 6411,
      "▁stra": 6412,
      "▁44": 6413,
      "▁cem": 6414,
      "▁nash": 6415,
      "▁1849": 6416,
      "▁bath+": 6417,
      "▁slip": 6418,
      "▁deter": 6419,
      "##ging": 6420,
      "▁stayed": 6421,
      "▁seized": 6422,
      "▁spanking": 6423,
      "▁yidd": 6424,
      "▁stored": 6425,
      "##uals": 6426,
      "▁sole": 6427,
      "▁techniques": 6428,
      "##ven": 6429,
      "▁pledge": 6430,
      "▁acad": 6431,
      "▁developed": 6432,
      "▁admitted": 6433,
      "▁twenty-": 6434,
      "▁operation": 6435,
      "▁conference": 6436,
      "##esion": 6437,
      "▁confident": 6438,
      "##-23": 6439,
      "##ern": 6440,
      "▁fus": 6441,
      "▁irrit": 6442,
      "▁judgment": 6443,
      "▁art": 6444,
      "▁swim": 6445,
      "▁nearly": 6446,
      "▁filed": 6447,
      "▁refund": 6448,
      "▁palace": 6449,
      "##itably": 6450,
      "##ois": 6451,
      "##/0": 6452,
      "▁deeper": 6453,
      "▁women": 6454,
      "▁steps": 6455,
      "▁680": 6456,
      "##oid": 6457,
      "▁propaganda": 6458,
      "▁ern": 6459,
      "▁weak": 6460,
      "▁resident": 6461,
      "▁psych": 6462,
      "▁isl": 6463,
      "▁request": 6464,
      "▁upload": 6465,
      "##imes": 6466,
      "▁crews": 6467,
      "▁moon": 6468,
      "▁inher": 6469,
      "▁hes": 6470,
      "▁palestinian": 6471,
      "▁wanting": 6472,
      "▁colleges": 6473,
      "##af": 6474,
      "▁embed": 6475,
      "▁fool": 6476,
      "▁2.0": 6477,
      "▁lego": 6478,
      "##ev": 6479,
      "▁horribly": 6480,
      "▁united": 6481,
      "▁puff": 6482,
      "▁convers": 6483,
      "▁discovery": 6484,
      "▁dem": 6485,
      "▁pyramid": 6486,
      "▁stating": 6487,
      "奈": 6488,
      "▁useful": 6489,
      "▁amy": 6490,
      "▁self": 6491,
      "▁holoca": 6492,
      "▁hence": 6493,
      "▁graduated": 6494,
      "▁significant": 6495,
      "▁group": 6496,
      "▁visit": 6497,
      "▁zacarias": 6498,
      "▁rifle": 6499,
      "▁peau": 6500,
      "##achment": 6501,
      "▁chapter": 6502,
      "▁169": 6503,
      "##oud": 6504,
      "▁loads": 6505,
      "▁0": 6506,
      "▁nonsense": 6507,
      "▁empathy": 6508,
      "▁opposition": 6509,
      "▁essential": 6510,
      "▁aston": 6511,
      "▁hedge": 6512,
      "▁incompet": 6513,
      "▁actual": 6514,
      "▁chaos": 6515,
      "▁ske": 6516,
      "##orders": 6517,
      "▁surviving": 6518,
      "▁rhonda": 6519,
      "##-s": 6520,
      "▁kr": 6521,
      "▁augment": 6522,
      "##portion": 6523,
      "▁sympath": 6524,
      "##********************************": 6525,
      "▁banknot": 6526,
      "▁nicholas": 6527,
      "▁doo": 6528,
      "▁u.s.": 6529,
      "##thing": 6530,
      "##aug": 6531,
      "▁hm": 6532,
      "▁brazil": 6533,
      "▁con": 6534,
      "##eable": 6535,
      "▁87": 6536,
      "▁~": 6537,
      "▁spagh": 6538,
      "▁forming": 6539,
      "▁winds": 6540,
      "▁bucks": 6541,
      "▁annual": 6542,
      "▁swinging": 6543,
      "▁freak": 6544,
      "▁accident": 6545,
      "##ographic": 6546,
      "##pan": 6547,
      "▁guerre": 6548,
      "▁feasible": 6549,
      "▁seriously": 6550,
      "▁tam": 6551,
      "##(": 6552,
      "▁pent": 6553,
      "▁amongst": 6554,
      "▁blew": 6555,
      "▁saf": 6556,
      "##.edu": 6557,
      "▁ireland": 6558,
      "▁databases": 6559,
      "▁>>": 6560,
      "▁frequently": 6561,
      "▁american": 6562,
      "##where": 6563,
      "▁tin": 6564,
      "'": 6565,
      "##bir": 6566,
      "▁yang": 6567,
      "▁argument": 6568,
      "##/08": 6569,
      "▁uncertainty": 6570,
      "▁elderly": 6571,
      "##esota": 6572,
      "##ollah": 6573,
      "##ats": 6574,
      "▁lufthansa": 6575,
      "▁answ": 6576,
      "▁confirm": 6577,
      "▁73": 6578,
      "▁doub": 6579,
      "▁peacefully": 6580,
      "▁insurgency": 6581,
      "▁roots": 6582,
      "▁nor": 6583,
      "##ingly": 6584,
      "▁mayor": 6585,
      "▁bozo": 6586,
      "##.00": 6587,
      "▁shelter": 6588,
      "▁caring": 6589,
      "▁unhapp": 6590,
      "▁spong": 6591,
      "▁subd": 6592,
      "▁dipped": 6593,
      "##reat": 6594,
      "▁allawi": 6595,
      "▁fem": 6596,
      "##path": 6597,
      "▁symbols": 6598,
      "##ect": 6599,
      "▁mountains": 6600,
      "▁bright": 6601,
      "▁fish": 6602,
      "▁lighting": 6603,
      "▁=": 6604,
      "▁secondary": 6605,
      "▁evaluator": 6606,
      "▁kil": 6607,
      "##enner": 6608,
      "▁doughnut": 6609,
      "▁gravity": 6610,
      "##road": 6611,
      "▁base": 6612,
      "▁toile": 6613,
      "##ocks": 6614,
      "▁cool": 6615,
      "▁lists": 6616,
      "▁notwi": 6617,
      "▁compare": 6618,
      "##berger": 6619,
      "▁snail": 6620,
      "▁feat": 6621,
      "▁prepar": 6622,
      "▁tarzan": 6623,
      "▁war": 6624,
      "▁crucial": 6625,
      "##================": 6626,
      "##ocular": 6627,
      "▁yout": 6628,
      "##oll": 6629,
      "▁prett": 6630,
      "##ieties": 6631,
      "▁estate": 6632,
      "▁mount": 6633,
      "▁1.00": 6634,
      "▁1805": 6635,
      "▁universities": 6636,
      "▁their": 6637,
      "▁cupcakes": 6638,
      "▁possession": 6639,
      "▁criticism": 6640,
      "▁vib": 6641,
      "▁ideas": 6642,
      "▁except": 6643,
      "▁sss": 6644,
      "▁sh-": 6645,
      "##z": 6646,
      "▁sorry": 6647,
      "▁sleeve": 6648,
      "▁janice": 6649,
      "▁107": 6650,
      "▁reserved": 6651,
      "##orial": 6652,
      "ɑ": 6653,
      "▁☏": 6654,
      "▁elpaso": 6655,
      "▁camp": 6656,
      "▁iphone": 6657,
      "▁2:25": 6658,
      "▁500": 6659,
      "▁somm": 6660,
      "▁fares": 6661,
      "##friend": 6662,
      "▁25": 6663,
      "##:21": 6664,
      "▁hardest": 6665,
      "##ate": 6666,
      "▁db": 6667,
      "▁lawyer": 6668,
      "##:1": 6669,
      "▁coalition": 6670,
      "▁election": 6671,
      "▁buttered": 6672,
      "▁craw": 6673,
      "▁1/2": 6674,
      "▁sweetie": 6675,
      "▁images": 6676,
      "##etically": 6677,
      "▁val": 6678,
      "▁pasta": 6679,
      "▁reimbur": 6680,
      "##ee": 6681,
      "▁dave": 6682,
      "▁pip": 6683,
      "##lass": 6684,
      "▁some": 6685,
      "▁prestigious": 6686,
      "▁sri": 6687,
      "##aurs": 6688,
      "▁rather": 6689,
      "▁extensible": 6690,
      "▁expanding": 6691,
      "▁bask": 6692,
      "▁pursue": 6693,
      "##lie": 6694,
      "▁un": 6695,
      "##-991-9": 6696,
      "##k.": 6697,
      "▁vogelaviatio": 6698,
      "##****************": 6699,
      "▁sustained": 6700,
      "▁pursuit": 6701,
      "##athers": 6702,
      "▁hostile": 6703,
      "▁cell": 6704,
      "▁julien": 6705,
      "##ruct": 6706,
      "##------------": 6707,
      "▁product": 6708,
      "▁1699": 6709,
      "▁montreal": 6710,
      "▁wilkins": 6711,
      "▁ga": 6712,
      "▁tech": 6713,
      "##asks": 6714,
      "▁usually": 6715,
      "▁cart": 6716,
      "##ennium": 6717,
      "▁masses": 6718,
      "▁1580": 6719,
      "▁individually": 6720,
      "▁giv": 6721,
      "##arking": 6722,
      "▁prototy": 6723,
      "▁displac": 6724,
      "▁date": 6725,
      "▁couns": 6726,
      "▁burst": 6727,
      "▁rocks": 6728,
      "▁farrier": 6729,
      "▁mosul": 6730,
      "▁ripped": 6731,
      "##ains": 6732,
      "▁dizzy": 6733,
      "▁bruce": 6734,
      "##/15": 6735,
      "▁treating": 6736,
      "▁wax": 6737,
      "##ess": 6738,
      "▁9": 6739,
      "▁80": 6740,
      "▁origins": 6741,
      "▁vehicles": 6742,
      "▁rich": 6743,
      "##aker": 6744,
      "▁vendors": 6745,
      "▁.!": 6746,
      "▁judges": 6747,
      "##ny": 6748,
      "▁happily": 6749,
      "▁nguyen": 6750,
      "▁monetary": 6751,
      "▁want": 6752,
      "▁quart": 6753,
      "##ulous": 6754,
      "▁loan": 6755,
      "▁proposal": 6756,
      "▁**": 6757,
      "▁confir": 6758,
      "▁copy": 6759,
      "▁1696": 6760,
      "▁vision": 6761,
      "##ymp": 6762,
      "▁m80": 6763,
      "##ua": 6764,
      "▁owes": 6765,
      "▁horsie": 6766,
      "▁11/7": 6767,
      "##/31": 6768,
      "▁33,000": 6769,
      "##raf": 6770,
      "##omm": 6771,
      "▁fired": 6772,
      "##rosp": 6773,
      "▁neph": 6774,
      "##club": 6775,
      "▁default": 6776,
      "##hol": 6777,
      "▁happiness": 6778,
      "▁ehr": 6779,
      "▁aladar": 6780,
      "▁silk": 6781,
      "▁coconut": 6782,
      "▁sundays": 6783,
      "▁counters": 6784,
      "##ook": 6785,
      "##96": 6786,
      "▁quoted": 6787,
      "▁artworks": 6788,
      "▁single": 6789,
      "▁transformative": 6790,
      "▁concentrate": 6791,
      "▁1602": 6792,
      "▁obtained": 6793,
      "▁amsterdam": 6794,
      "▁reader": 6795,
      "##oned": 6796,
      "▁sunlight": 6797,
      "▁textile": 6798,
      "▁scientists": 6799,
      "▁campbell": 6800,
      "##°": 6801,
      "▁confused": 6802,
      "▁authority": 6803,
      "▁populations": 6804,
      "▁owns": 6805,
      "▁athe": 6806,
      "##ame": 6807,
      "▁poke": 6808,
      "▁squares": 6809,
      "▁spor": 6810,
      "▁gala": 6811,
      "##omatic": 6812,
      "▁successful": 6813,
      "▁unity": 6814,
      "▁...................": 6815,
      "▁shaking": 6816,
      "▁history": 6817,
      "▁awarded": 6818,
      "▁traditions": 6819,
      "▁stove": 6820,
      "▁i": 6821,
      "▁man": 6822,
      "▁calm": 6823,
      "▁captain": 6824,
      "▁compound": 6825,
      "▁ecosy": 6826,
      "▁70.85": 6827,
      "##err": 6828,
      "▁sloven": 6829,
      "##etics": 6830,
      "▁quest": 6831,
      "▁==----": 6832,
      "▁fle": 6833,
      "##dd": 6834,
      "▁shall": 6835,
      "▁khan": 6836,
      "▁montana": 6837,
      "▁pending": 6838,
      "▁solidarity": 6839,
      "▁lots": 6840,
      "▁transition": 6841,
      "▁evenings": 6842,
      "▁3": 6843,
      "▁sleepy": 6844,
      "▁chos": 6845,
      "▁1777": 6846,
      "▁disabled": 6847,
      "##big": 6848,
      "£": 6849,
      "▁mummy": 6850,
      "##/01": 6851,
      "▁phen": 6852,
      "▁thing": 6853,
      "▁barrel": 6854,
      "▁outdo": 6855,
      "##amb": 6856,
      "▁vide": 6857,
      "##oni": 6858,
      "’": 6859,
      "▁confidentiality": 6860,
      "▁vessel": 6861,
      "▁dimensions": 6862,
      "▁spont": 6863,
      "▁window": 6864,
      "▁crown": 6865,
      "▁visitor": 6866,
      "▁itiner": 6867,
      "▁likes": 6868,
      "##zen": 6869,
      "##88": 6870,
      "▁landed": 6871,
      "▁chew": 6872,
      "▁buck": 6873,
      "▁valent": 6874,
      "▁bla": 6875,
      "▁market": 6876,
      "▁desc": 6877,
      "▁sn": 6878,
      "▁ancest": 6879,
      "▁safet": 6880,
      "##-415-": 6881,
      "##enerate": 6882,
      "##vo": 6883,
      "▁flesh": 6884,
      "▁routes": 6885,
      "▁crack": 6886,
      "▁actors": 6887,
      "▁dots": 6888,
      "▁roly": 6889,
      "▁jur": 6890,
      "##ersonal": 6891,
      "▁imm": 6892,
      "▁dinosaurs": 6893,
      "▁dismissed": 6894,
      "▁tar": 6895,
      "▁ord": 6896,
      "▁charitable": 6897,
      "▁badge": 6898,
      "▁lar": 6899,
      "▁leash": 6900,
      "##ibiot": 6901,
      "##ting": 6902,
      "▁inform": 6903,
      "##au": 6904,
      "▁spokes": 6905,
      "▁dw": 6906,
      "▁grumb": 6907,
      "▁boundaries": 6908,
      "▁shook": 6909,
      "▁arrival": 6910,
      "▁pit": 6911,
      "##gled": 6912,
      "▁hideout": 6913,
      "▁energ": 6914,
      "▁pro-": 6915,
      "▁imaginary": 6916,
      "▁505-625": 6917,
      "▁occasions": 6918,
      "▁conditions": 6919,
      "▁5:00": 6920,
      "▁headline": 6921,
      "▁devast": 6922,
      "▁obsf": 6923,
      "▁3724": 6924,
      "▁genetically": 6925,
      "▁distribution": 6926,
      "▁pho": 6927,
      "▁funct": 6928,
      "##h": 6929,
      "▁most": 6930,
      "▁fac": 6931,
      "▁media": 6932,
      "▁blue": 6933,
      "▁trained": 6934,
      "▁crowd": 6935,
      "▁identify": 6936,
      "##rin": 6937,
      "##aq.com": 6938,
      "▁rums": 6939,
      "▁essie": 6940,
      "▁carroll": 6941,
      "▁hats": 6942,
      "▁bta": 6943,
      "▁mini": 6944,
      "##ena": 6945,
      "##:16": 6946,
      "##1/2001": 6947,
      "▁flop": 6948,
      "▁carey": 6949,
      "##-7": 6950,
      "▁5th": 6951,
      "##ogether": 6952,
      "##aze": 6953,
      "▁portra": 6954,
      "##icated": 6955,
      "##itarian": 6956,
      "▁establishing": 6957,
      "##rans": 6958,
      "▁increases": 6959,
      "▁builders": 6960,
      "▁grampy": 6961,
      "▁stairs": 6962,
      "##ior": 6963,
      "##urd": 6964,
      "▁gif": 6965,
      "▁deep": 6966,
      "▁inspiration": 6967,
      "▁del": 6968,
      "▁arrested": 6969,
      "▁solo": 6970,
      "▁calendar": 6971,
      "▁multip": 6972,
      "▁carl": 6973,
      "##hire": 6974,
      "##onc": 6975,
      "##br": 6976,
      "▁ensure": 6977,
      "▁sour": 6978,
      "▁myster": 6979,
      "▁parish": 6980,
      "##|": 6981,
      "▁destruction": 6982,
      "▁subjects": 6983,
      "▁fact": 6984,
      "▁participate": 6985,
      "▁som": 6986,
      "▁uncertain": 6987,
      "▁mia": 6988,
      "▁tabled": 6989,
      "▁joy": 6990,
      "##entary": 6991,
      "▁billing": 6992,
      "▁10/31": 6993,
      "▁wikipedia": 6994,
      "▁legislation": 6995,
      "##own": 6996,
      "▁weather": 6997,
      "▁hen": 6998,
      "▁tana": 6999,
      "▁departures": 7000,
      "▁newer": 7001,
      "▁na": 7002,
      "##esis": 7003,
      "▁assassination": 7004,
      "▁misc": 7005,
      "▁mistaken": 7006,
      "▁holes": 7007,
      "▁religious": 7008,
      "▁itself": 7009,
      "▁lad": 7010,
      "▁circular": 7011,
      "##unia": 7012,
      "▁teeth": 7013,
      "▁wolf": 7014,
      "▁barack": 7015,
      "▁yahoo!": 7016,
      "▁pers": 7017,
      "▁rang": 7018,
      "▁exchanges": 7019,
      "▁said": 7020,
      "▁originally": 7021,
      "##0": 7022,
      "▁sealed": 7023,
      "▁muffin": 7024,
      "##sh-e": 7025,
      "▁rhinoceros": 7026,
      "▁premium": 7027,
      "▁favor": 7028,
      "▁recommend": 7029,
      "##olog": 7030,
      "▁ms": 7031,
      "▁apprec": 7032,
      "▁criter": 7033,
      "▁availability": 7034,
      "▁medal": 7035,
      "▁202.456.2461": 7036,
      "▁chalabi": 7037,
      "##eman": 7038,
      "▁1609": 7039,
      "▁wheat": 7040,
      "▁week": 7041,
      "▁appropriate": 7042,
      "▁pyth": 7043,
      "▁elena": 7044,
      "##hy": 7045,
      "▁dynamic": 7046,
      "▁caus": 7047,
      "▁oklahoma": 7048,
      "▁u.": 7049,
      "▁explan": 7050,
      "▁825": 7051,
      "##14": 7052,
      "▁compreh": 7053,
      "▁drafted": 7054,
      "▁tempor": 7055,
      "▁meiring": 7056,
      "▁advantages": 7057,
      "##ibilities": 7058,
      "##etary": 7059,
      "##boats": 7060,
      "##iori": 7061,
      "▁ketchup": 7062,
      "▁84": 7063,
      "##ache": 7064,
      "##-l": 7065,
      "##erts": 7066,
      "▁y-": 7067,
      "▁clear": 7068,
      "▁seven": 7069,
      "##clusions": 7070,
      "▁anem": 7071,
      "▁photograph": 7072,
      "▁_________________________________________________": 7073,
      "▁dining": 7074,
      "▁households": 7075,
      "▁disorder": 7076,
      "▁p": 7077,
      "ρ": 7078,
      "▁searching": 7079,
      "▁messed": 7080,
      "▁det": 7081,
      "▁arena": 7082,
      "▁sites": 7083,
      "▁trick": 7084,
      "##rent": 7085,
      "▁no": 7086,
      "▁fascinating": 7087,
      "##rett": 7088,
      "##inth": 7089,
      "##lying": 7090,
      "▁cuts": 7091,
      "▁chantilly": 7092,
      "##ased": 7093,
      "▁achieving": 7094,
      "##laimed": 7095,
      "▁signal": 7096,
      "▁oy": 7097,
      "▁toss": 7098,
      "▁pleasure": 7099,
      "##.6": 7100,
      "▁else": 7101,
      "##iles": 7102,
      "▁google": 7103,
      "▁witness": 7104,
      "##ected": 7105,
      "▁hagrid": 7106,
      "▁meal": 7107,
      "▁answers": 7108,
      "##mm": 7109,
      "▁lifet": 7110,
      "▁creativity": 7111,
      "##aiss": 7112,
      "▁hated": 7113,
      "▁fishie": 7114,
      "##isons": 7115,
      "▁responsibility": 7116,
      "▁powder": 7117,
      "▁graduate": 7118,
      "▁brief": 7119,
      "▁obstacle": 7120,
      "▁referend": 7121,
      "▁evalu": 7122,
      "▁figures": 7123,
      "▁noida": 7124,
      "##bha-": 7125,
      "▁inner": 7126,
      "▁temperatures": 7127,
      "##:50": 7128,
      "##rie": 7129,
      "▁silent": 7130,
      "##oman": 7131,
      "▁cupboard": 7132,
      "##ebe": 7133,
      "▁georgia": 7134,
      "▁tire": 7135,
      "▁thron": 7136,
      "▁plates": 7137,
      "▁montalvo": 7138,
      "##dom": 7139,
      "▁diversity": 7140,
      "▁focus": 7141,
      "##order": 7142,
      "▁turning": 7143,
      "▁appli": 7144,
      "▁ken": 7145,
      "▁neigh": 7146,
      "▁lawy": 7147,
      "▁nineteenth": 7148,
      "##raft": 7149,
      "▁quaffle": 7150,
      "▁mosquitoes": 7151,
      "▁pul": 7152,
      "▁attem": 7153,
      "##dies": 7154,
      "▁kid": 7155,
      "▁coordinator": 7156,
      "▁stealing": 7157,
      "▁diving": 7158,
      "▁gdp": 7159,
      "##sp": 7160,
      "▁pharmaceutical": 7161,
      "▁ted": 7162,
      "▁molly": 7163,
      "##asons": 7164,
      "##/16/2001": 7165,
      "▁gross": 7166,
      "▁economists": 7167,
      "▁cheer": 7168,
      "▁cleaned": 7169,
      "##fahan": 7170,
      "▁ambulance": 7171,
      "##achusetts": 7172,
      "##mail": 7173,
      "▁starving": 7174,
      "▁sacrif": 7175,
      "▁jesus": 7176,
      "▁road": 7177,
      "▁stability": 7178,
      "##bard": 7179,
      "▁05/17/99": 7180,
      "▁pdt": 7181,
      "▁nabe": 7182,
      "▁peanut": 7183,
      "▁tens": 7184,
      "▁417": 7185,
      "##is_0712": 7186,
      "▁managers": 7187,
      "▁esther": 7188,
      "##ary": 7189,
      "▁evolutionary": 7190,
      "▁list": 7191,
      "▁living": 7192,
      "##power": 7193,
      "▁intervals": 7194,
      "▁cm": 7195,
      "##ecess": 7196,
      "▁shi": 7197,
      "▁proud": 7198,
      "▁gentleman": 7199,
      "▁employee": 7200,
      "▁eleventh": 7201,
      "▁http://en.": 7202,
      "##orn": 7203,
      "▁larger": 7204,
      "▁cross-s": 7205,
      "##lic": 7206,
      "##do": 7207,
      "▁faster": 7208,
      "##1082": 7209,
      "▁asylum": 7210,
      "##ained": 7211,
      "▁drink": 7212,
      "▁maintain": 7213,
      "##-fl": 7214,
      "▁thirtieth": 7215,
      "▁formula": 7216,
      "▁profitable": 7217,
      "▁au": 7218,
      "##acam": 7219,
      "▁hors": 7220,
      "▁cyclone": 7221,
      "##ding": 7222,
      "##etime": 7223,
      "▁1307": 7224,
      "▁510-642": 7225,
      "▁negotiating": 7226,
      "##ibreat": 7227,
      "▁particular": 7228,
      "▁channel": 7229,
      "▁wearing": 7230,
      "▁era": 7231,
      "▁outdoors": 7232,
      "▁dire": 7233,
      "▁cogn": 7234,
      "▁anton": 7235,
      "▁sports": 7236,
      "▁existence": 7237,
      "▁discharge": 7238,
      "▁contacted": 7239,
      "##erved": 7240,
      "▁name": 7241,
      "▁philadelphia": 7242,
      "▁’ve": 7243,
      "▁saint": 7244,
      "##­": 7245,
      "▁cit": 7246,
      "▁sisters": 7247,
      "▁marked": 7248,
      "▁headache": 7249,
      "▁enrich": 7250,
      "▁-------------------------------------------------": 7251,
      "##ators": 7252,
      "▁ornament": 7253,
      "##cher": 7254,
      "▁grave": 7255,
      "▁inade": 7256,
      "▁protection": 7257,
      "▁county": 7258,
      "▁cuban": 7259,
      "▁transfer": 7260,
      "▁seattle": 7261,
      "▁oven": 7262,
      "▁albeit": 7263,
      "##ifer": 7264,
      "▁dfw": 7265,
      "▁hurry": 7266,
      "▁honestly": 7267,
      "▁baking": 7268,
      "##ices": 7269,
      "##ati": 7270,
      "▁broad": 7271,
      "▁arrived": 7272,
      "▁external": 7273,
      "▁unus": 7274,
      "▁teh": 7275,
      "▁appear": 7276,
      "▁cox": 7277,
      "##lined": 7278,
      "▁fost": 7279,
      "▁gender": 7280,
      "▁appeal": 7281,
      "▁headquart": 7282,
      "##i": 7283,
      "##abilities": 7284,
      "##arity": 7285,
      "▁vir": 7286,
      "▁interv": 7287,
      "▁kansas": 7288,
      "##ordon": 7289,
      "##.d": 7290,
      "▁crow": 7291,
      "▁lift": 7292,
      "##ailand": 7293,
      "▁applicable": 7294,
      "##hh": 7295,
      "▁shirts": 7296,
      "▁blown": 7297,
      "▁bags": 7298,
      "▁awesome": 7299,
      "▁explanations": 7300,
      "▁park": 7301,
      "##pread": 7302,
      "▁pi": 7303,
      "##vd": 7304,
      "▁expired": 7305,
      "▁prote": 7306,
      "▁swings": 7307,
      "▁where": 7308,
      "▁cat": 7309,
      "▁limitation": 7310,
      "▁philipp": 7311,
      "▁equivalence": 7312,
      "▁identification": 7313,
      "▁3/8/00": 7314,
      "▁supply": 7315,
      "##'ath": 7316,
      "##rayed": 7317,
      "▁carol.st": 7318,
      "▁clos": 7319,
      "▁style": 7320,
      "▁toast": 7321,
      "▁advantage": 7322,
      "▁improving": 7323,
      "▁interior": 7324,
      "▁prize": 7325,
      "▁cannon": 7326,
      "##nes": 7327,
      "▁phase": 7328,
      "▁prominent": 7329,
      "▁commonly": 7330,
      "##,600": 7331,
      "##urious": 7332,
      "##elberger": 7333,
      "▁weird": 7334,
      "▁finished": 7335,
      "▁dg": 7336,
      "##view": 7337,
      "▁abstract": 7338,
      "▁ambitious": 7339,
      "▁rounds": 7340,
      "▁3:00": 7341,
      "▁bas": 7342,
      "▁1966": 7343,
      "▁fleeing": 7344,
      "##%": 7345,
      "##zza": 7346,
      "▁infection": 7347,
      "▁thurs": 7348,
      "▁microw": 7349,
      "▁syn": 7350,
      "▁return": 7351,
      "##6": 7352,
      "▁carol.st.clair@enron.com": 7353,
      "▁advent": 7354,
      "▁jeop": 7355,
      "##pport": 7356,
      "▁vangu": 7357,
      "▁cause": 7358,
      "▁alley": 7359,
      "▁badly": 7360,
      "##woman": 7361,
      "▁nier": 7362,
      "▁batch": 7363,
      "▁memorable": 7364,
      "▁splend": 7365,
      "##-d": 7366,
      "▁chapters": 7367,
      "##ina": 7368,
      "▁archive": 7369,
      "▁reaching": 7370,
      "▁visas": 7371,
      "▁mart": 7372,
      "▁enrongss.xls": 7373,
      "▁relax": 7374,
      "##teous": 7375,
      "##otion": 7376,
      "##-ch": 7377,
      "##ino": 7378,
      "▁festivals": 7379,
      "##utely": 7380,
      "▁curry": 7381,
      "##enos": 7382,
      "▁myanmar": 7383,
      "▁attempt": 7384,
      "▁beyond": 7385,
      "▁pom": 7386,
      "▁exercise": 7387,
      "▁conferences": 7388,
      "##ark": 7389,
      "▁mate": 7390,
      "▁vi": 7391,
      "##gage": 7392,
      "▁voters": 7393,
      "▁drain": 7394,
      "▁realization": 7395,
      "▁pointing": 7396,
      "##anche": 7397,
      "▁ride": 7398,
      "##/11": 7399,
      "▁1787": 7400,
      "##iously": 7401,
      "▁continent": 7402,
      "▁attack": 7403,
      "▁bullet": 7404,
      "##pe": 7405,
      "▁shahar": 7406,
      "▁duke": 7407,
      "##lect": 7408,
      "▁students": 7409,
      "##iled": 7410,
      "##ori": 7411,
      "##~": 7412,
      "▁totally": 7413,
      "▁tourism": 7414,
      "▁general": 7415,
      "##.15": 7416,
      "▁ras": 7417,
      "##ross": 7418,
      "▁cir": 7419,
      "▁aqu": 7420,
      "▁dinner": 7421,
      "▁meow": 7422,
      "##rele": 7423,
      "##ered": 7424,
      "▁eu": 7425,
      "▁different": 7426,
      "▁family": 7427,
      "##½": 7428,
      "▁55": 7429,
      "▁intervening": 7430,
      "▁partners": 7431,
      "##books": 7432,
      "##ural": 7433,
      "▁magic": 7434,
      "▁bulbs": 7435,
      "▁bh": 7436,
      "▁intact": 7437,
      "▁audio": 7438,
      "▁garage": 7439,
      "##80s": 7440,
      "▁oriented": 7441,
      "▁dominant": 7442,
      "##hand": 7443,
      "▁styles": 7444,
      "▁simult": 7445,
      "##thstanding": 7446,
      "▁assumed": 7447,
      "##osexual": 7448,
      "▁signed": 7449,
      "##ics": 7450,
      "##20-": 7451,
      "▁forehead": 7452,
      "▁discl": 7453,
      "▁seiz": 7454,
      "##nondelibreat": 7455,
      "▁http": 7456,
      "▁region": 7457,
      "▁j": 7458,
      "##iday": 7459,
      "▁1950": 7460,
      "▁yer": 7461,
      "▁mah": 7462,
      "▁gramp": 7463,
      "##*": 7464,
      "##icles": 7465,
      "▁+++": 7466,
      "▁ninny": 7467,
      "▁visible": 7468,
      "▁shell": 7469,
      "##iod": 7470,
      "▁corners": 7471,
      "▁officials": 7472,
      "▁dennis": 7473,
      "▁tr": 7474,
      "▁bones": 7475,
      "▁nine": 7476,
      "##8": 7477,
      "##ateful": 7478,
      "▁elect": 7479,
      "▁situ": 7480,
      "▁turtle": 7481,
      "▁ash": 7482,
      "口": 7483,
      "ʒ": 7484,
      "▁hesitate": 7485,
      "##ito": 7486,
      "▁directed": 7487,
      "▁cities": 7488,
      "##.com/": 7489,
      "▁liz": 7490,
      "▁priest": 7491,
      "▁roughly": 7492,
      "▁57": 7493,
      "▁operator": 7494,
      "▁photo": 7495,
      "▁communication": 7496,
      "▁quant": 7497,
      "▁dol": 7498,
      "##.2": 7499,
      "▁pajamas": 7500,
      "##xual": 7501,
      "▁fought": 7502,
      "##ful": 7503,
      "▁sale": 7504,
      "▁kpa": 7505,
      "##ias": 7506,
      "▁revealed": 7507,
      "▁april": 7508,
      "▁sympathy": 7509,
      "▁cuis": 7510,
      "▁margin": 7511,
      "▁flag": 7512,
      "▁mixed": 7513,
      "▁performed": 7514,
      "##4-": 7515,
      "▁claws": 7516,
      "##.45": 7517,
      "▁wed": 7518,
      "▁wellington": 7519,
      "▁go": 7520,
      "##omet": 7521,
      "##chester": 7522,
      "▁operators": 7523,
      "▁dobby": 7524,
      "##t.": 7525,
      "##aches": 7526,
      "▁dollar": 7527,
      "▁govern": 7528,
      "▁-2-": 7529,
      "##ya": 7530,
      "▁sought": 7531,
      "▁picked": 7532,
      "▁dey": 7533,
      "▁emb": 7534,
      "▁tractor": 7535,
      "▁wai": 7536,
      "▁'re": 7537,
      "▁designs": 7538,
      "▁very": 7539,
      "##roedter": 7540,
      "▁exceed": 7541,
      "▁helicop": 7542,
      "▁gramm": 7543,
      "▁jobs": 7544,
      "##ived": 7545,
      "▁incred": 7546,
      "▁llms": 7547,
      "▁thawed": 7548,
      "▁alone": 7549,
      "▁bab": 7550,
      "▁atmosphere": 7551,
      "▁1616": 7552,
      "##cut": 7553,
      "##load": 7554,
      "##iable": 7555,
      "##umph": 7556,
      "▁possibility": 7557,
      "▁stop": 7558,
      "▁spiritual": 7559,
      "##880": 7560,
      "▁edu": 7561,
      "▁laser": 7562,
      "▁forgiveness": 7563,
      "▁there": 7564,
      "▁plastic": 7565,
      "▁proprietary": 7566,
      "▁rose": 7567,
      "▁distingu": 7568,
      "##alle": 7569,
      "φ": 7570,
      "▁harm": 7571,
      "▁triumph": 7572,
      "▁fr": 7573,
      "▁faithful": 7574,
      "▁legos": 7575,
      "▁drove": 7576,
      "##gre": 7577,
      "##rial": 7578,
      "##$$": 7579,
      "▁sag": 7580,
      "▁caused": 7581,
      "▁lap": 7582,
      "##ryn": 7583,
      "▁someplace": 7584,
      "##“": 7585,
      "▁hund": 7586,
      "▁importantly": 7587,
      "▁sport": 7588,
      "##د": 7589,
      "▁cruise": 7590,
      "▁before": 7591,
      "▁pork": 7592,
      "##pro": 7593,
      "▁crackers": 7594,
      "▁xv": 7595,
      "▁82": 7596,
      "▁supernatural": 7597,
      "▁http://": 7598,
      "▁roll": 7599,
      "▁conven": 7600,
      "▁olymp": 7601,
      "▁affirm": 7602,
      "远": 7603,
      "▁discrimination": 7604,
      "▁gaps": 7605,
      "▁wentz": 7606,
      "▁ames": 7607,
      "▁candidate": 7608,
      "##:02": 7609,
      "▁copies": 7610,
      "##p": 7611,
      "▁639": 7612,
      "▁ena": 7613,
      "▁respond": 7614,
      "▁proble": 7615,
      "▁315": 7616,
      "##bing": 7617,
      "##.621": 7618,
      "▁sushi": 7619,
      "▁focuses": 7620,
      "▁elevator": 7621,
      "▁tours": 7622,
      "▁nerv": 7623,
      "▁considerably": 7624,
      "▁jour": 7625,
      "##rist": 7626,
      "##134": 7627,
      "##enth": 7628,
      "▁zurbar": 7629,
      "##ahu": 7630,
      "##pt": 7631,
      "##ota": 7632,
      "▁improvement": 7633,
      "▁field": 7634,
      "▁mycelium": 7635,
      "##aco": 7636,
      "▁englishman": 7637,
      "▁strat": 7638,
      "▁threw": 7639,
      "##109": 7640,
      "▁prestig": 7641,
      "##$": 7642,
      "▁supp": 7643,
      "▁tool": 7644,
      "▁amended": 7645,
      "▁unrelated": 7646,
      "▁wondered": 7647,
      "##aska": 7648,
      "▁component": 7649,
      "▁toler": 7650,
      "▁abst": 7651,
      "▁☎": 7652,
      "##ils": 7653,
      "##osh": 7654,
      "▁gisb": 7655,
      "▁bubble": 7656,
      "##sters": 7657,
      "##ht": 7658,
      "▁presidential": 7659,
      "▁continuing": 7660,
      "▁penn": 7661,
      "▁reinfor": 7662,
      "▁waff": 7663,
      "▁composed": 7664,
      "▁humans": 7665,
      "▁weary": 7666,
      "▁envelop": 7667,
      "▁bite": 7668,
      "##ti": 7669,
      "▁dkk": 7670,
      "▁nons": 7671,
      "▁nonna": 7672,
      "##rier": 7673,
      "##ality": 7674,
      "▁passenger": 7675,
      "▁concerned": 7676,
      "▁experiences": 7677,
      "▁however": 7678,
      "▁internet": 7679,
      "▁1647": 7680,
      "▁elastic": 7681,
      "##oqu": 7682,
      "▁precision": 7683,
      "▁bce": 7684,
      "▁ou": 7685,
      "▁floor": 7686,
      "▁bub": 7687,
      "▁guidelines": 7688,
      "▁stab": 7689,
      "▁wasted": 7690,
      "▁needing": 7691,
      "##ky": 7692,
      "##ants": 7693,
      "##lah": 7694,
      "▁gimp": 7695,
      "##earing": 7696,
      "▁sle": 7697,
      "##ss": 7698,
      "▁belong": 7699,
      "▁grant": 7700,
      "##13": 7701,
      "▁sov": 7702,
      "▁reality": 7703,
      "▁crop": 7704,
      "▁des": 7705,
      "▁super": 7706,
      "▁jew": 7707,
      "##igning": 7708,
      "##ensity": 7709,
      "▁oppose": 7710,
      "▁distrib": 7711,
      "▁03:48": 7712,
      "##aring": 7713,
      "▁particles": 7714,
      "▁present": 7715,
      "▁side": 7716,
      "▁dancers": 7717,
      "▁separation": 7718,
      "##ieved": 7719,
      "▁goods": 7720,
      "▁hier": 7721,
      "▁sigh": 7722,
      "▁truck": 7723,
      "▁bathroom": 7724,
      "▁meanwhile": 7725,
      "▁moo": 7726,
      "▁carolina": 7727,
      "##iao": 7728,
      "▁program": 7729,
      "▁phones": 7730,
      "▁controvers": 7731,
      "▁refused": 7732,
      "▁stoo": 7733,
      "▁clam": 7734,
      "##tact": 7735,
      "##port": 7736,
      "##round": 7737,
      "▁sam": 7738,
      "▁seeks": 7739,
      "##.com": 7740,
      "▁supper": 7741,
      "##aces": 7742,
      "▁stem": 7743,
      "▁others": 7744,
      "▁chance": 7745,
      "##ita": 7746,
      "▁law": 7747,
      "▁suggested": 7748,
      "▁umb": 7749,
      "▁hiroshima": 7750,
      "▁premise": 7751,
      "▁gener": 7752,
      "▁pin": 7753,
      "▁screen": 7754,
      "▁which": 7755,
      "##ises": 7756,
      "▁01/26/2001": 7757,
      "▁definition": 7758,
      "▁paint": 7759,
      "▁bacon": 7760,
      "▁tigger": 7761,
      "▁hosting": 7762,
      "▁moderate": 7763,
      "##obile": 7764,
      "▁taipe": 7765,
      "▁railway": 7766,
      "▁major": 7767,
      "##393": 7768,
      "▁shark": 7769,
      "▁compon": 7770,
      "▁veteran": 7771,
      "▁released": 7772,
      "##lymp": 7773,
      "▁drinks": 7774,
      "▁supporters": 7775,
      "▁ideation": 7776,
      "##ores": 7777,
      "##nesday": 7778,
      "##alee": 7779,
      "##-343": 7780,
      "##ination": 7781,
      "▁|": 7782,
      "##amese": 7783,
      "▁maker": 7784,
      "▁90s": 7785,
      "▁kum": 7786,
      "▁laundry": 7787,
      "▁unexp": 7788,
      "▁utilities": 7789,
      "▁pivottable": 7790,
      "▁sanct": 7791,
      "▁seemingly": 7792,
      "▁explain": 7793,
      "▁1100": 7794,
      "▁1613": 7795,
      "▁due": 7796,
      "##inations": 7797,
      "▁composition": 7798,
      "▁routine": 7799,
      "▁failing": 7800,
      "▁clark": 7801,
      "▁dull": 7802,
      "▁besides": 7803,
      "##ga": 7804,
      "▁site": 7805,
      "▁arrogance": 7806,
      "##imum": 7807,
      "▁ge": 7808,
      "##ennese": 7809,
      "##inary": 7810,
      "##itivity": 7811,
      "▁voice": 7812,
      "▁cocoa": 7813,
      "▁methods": 7814,
      "▁ansi-89": 7815,
      "##lebr": 7816,
      "x": 7817,
      "▁seventy": 7818,
      "▁sails": 7819,
      "▁willing": 7820,
      "▁indust": 7821,
      "▁ded": 7822,
      "▁talent": 7823,
      "▁favorable": 7824,
      "▁skirts": 7825,
      "##ling": 7826,
      "▁paralymp": 7827,
      "▁3.7": 7828,
      "##field": 7829,
      "▁banner": 7830,
      "##-20-": 7831,
      "▁amaz": 7832,
      "▁888": 7833,
      "▁remark": 7834,
      "▁agric": 7835,
      "▁steak": 7836,
      "▁unlike": 7837,
      "▁hotels": 7838,
      "▁wides": 7839,
      "▁01/19/2001": 7840,
      "▁stopovers": 7841,
      "##yr": 7842,
      "▁trial": 7843,
      "##9/2001": 7844,
      "##ilities": 7845,
      "▁military": 7846,
      "##wright": 7847,
      "##zing": 7848,
      "▁floating": 7849,
      "▁termin": 7850,
      "▁425": 7851,
      "▁04/16/2001": 7852,
      "▁addicted": 7853,
      "▁summit": 7854,
      "##munic": 7855,
      "▁appealing": 7856,
      "▁med": 7857,
      "##nut": 7858,
      "▁proposed": 7859,
      "▁remarks": 7860,
      "▁encounter": 7861,
      "##umes": 7862,
      "­": 7863,
      "▁halal": 7864,
      "▁marg": 7865,
      "##no": 7866,
      "▁expected": 7867,
      "▁political": 7868,
      "▁asp": 7869,
      "▁increasing": 7870,
      "▁christmas": 7871,
      "▁strain": 7872,
      "▁ties": 7873,
      "▁mothers": 7874,
      "▁muggles": 7875,
      "▁dasovich": 7876,
      "▁persec": 7877,
      "▁well": 7878,
      "▁hierarch": 7879,
      "▁changed": 7880,
      "▁cham": 7881,
      "▁129": 7882,
      "▁mal": 7883,
      "▁hour": 7884,
      "##astery": 7885,
      "▁tsar": 7886,
      "▁nina": 7887,
      "▁unpre": 7888,
      "▁contr": 7889,
      "##uary": 7890,
      "▁surprised": 7891,
      "▁158": 7892,
      "▁surve": 7893,
      "▁karl": 7894,
      "▁homemade": 7895,
      "##ald": 7896,
      "o": 7897,
      "▁kleenex": 7898,
      "##astroph": 7899,
      "▁shelf": 7900,
      "##anim": 7901,
      "▁22": 7902,
      "##lace": 7903,
      "##used": 7904,
      "▁parach": 7905,
      "▁dam": 7906,
      "▁grape": 7907,
      "▁circling": 7908,
      "▁distant": 7909,
      "▁steph": 7910,
      "▁‘’": 7911,
      "##aste": 7912,
      "▁apparent": 7913,
      "##ona": 7914,
      "▁b.": 7915,
      "▁horses": 7916,
      "▁revers": 7917,
      "▁supernat": 7918,
      "▁z": 7919,
      "##ising": 7920,
      "▁shared": 7921,
      "##encing": 7922,
      "津": 7923,
      "œ": 7924,
      "▁easter": 7925,
      "▁declined": 7926,
      "##ellar": 7927,
      "▁candle": 7928,
      "▁dollars": 7929,
      "▁anywhere": 7930,
      "▁democrats": 7931,
      "▁demand": 7932,
      "##mer": 7933,
      "▁jerome": 7934,
      "▁forecast": 7935,
      "▁num": 7936,
      "▁waved": 7937,
      "▁tant": 7938,
      "##icle": 7939,
      "▁bumble": 7940,
      "▁thrown": 7941,
      "##inate": 7942,
      "▁c.": 7943,
      "▁featured": 7944,
      "▁thirds": 7945,
      "##preh": 7946,
      "▁offering": 7947,
      "▁limb": 7948,
      "▁wong": 7949,
      "▁consistent": 7950,
      "▁interventions": 7951,
      "▁principal": 7952,
      "▁gotten": 7953,
      "▁1179": 7954,
      "▁addiction": 7955,
      "▁airb": 7956,
      "▁worm": 7957,
      "▁me": 7958,
      "▁reducing": 7959,
      "▁contained": 7960,
      "▁statements": 7961,
      "▁cruel": 7962,
      "##ckline": 7963,
      "▁palestine": 7964,
      "##ancy": 7965,
      "▁conducting": 7966,
      "▁pee": 7967,
      "▁comedie": 7968,
      "▁miser": 7969,
      "##ph": 7970,
      "▁bombs": 7971,
      "▁neural": 7972,
      "##net": 7973,
      "##ania": 7974,
      "##ector": 7975,
      "##tax": 7976,
      "▁closer": 7977,
      "▁intim": 7978,
      "▁driver": 7979,
      "▁pag": 7980,
      "##8_00.doc": 7981,
      "▁crops": 7982,
      "▁painting": 7983,
      "##jud": 7984,
      "▁mor": 7985,
      "▁bitter": 7986,
      "▁signs": 7987,
      "▁don": 7988,
      "##aro": 7989,
      "▁26": 7990,
      "▁seek": 7991,
      "▁pretend": 7992,
      "▁disrupt": 7993,
      "▁enrononline": 7994,
      "▁dri": 7995,
      "▁gots": 7996,
      "##:17": 7997,
      "▁hards": 7998,
      "##itudes": 7999,
      "▁terrif": 8000,
      "▁underst": 8001,
      "▁tob": 8002,
      "▁settlement": 8003,
      "▁first": 8004,
      "▁facing": 8005,
      "▁late": 8006,
      "▁rein": 8007,
      "▁giant": 8008,
      "▁morning": 8009,
      "▁hilton": 8010,
      "▁arrogant": 8011,
      "▁sandwich": 8012,
      "▁1575": 8013,
      "▁wakes": 8014,
      "▁average": 8015,
      "▁announ": 8016,
      "##2-": 8017,
      "▁months": 8018,
      "##ounding": 8019,
      "▁basil": 8020,
      "▁battle": 8021,
      "▁cheers": 8022,
      "▁shel": 8023,
      "▁cas": 8024,
      "▁resolved": 8025,
      "▁procedure": 8026,
      "▁individ": 8027,
      "▁canada": 8028,
      "▁ran": 8029,
      "##wood": 8030,
      "▁notice": 8031,
      "▁rand": 8032,
      "▁hens": 8033,
      "▁crude": 8034,
      "▁highlights": 8035,
      "▁clothing": 8036,
      "##iber": 8037,
      "▁11:0": 8038,
      "▁illusions": 8039,
      "##pal": 8040,
      "▁walker": 8041,
      "▁support": 8042,
      "▁invoice": 8043,
      "##53": 8044,
      "▁remod": 8045,
      "▁public": 8046,
      "▁along": 8047,
      "▁185": 8048,
      "▁legs": 8049,
      "▁wrest": 8050,
      "##peare": 8051,
      "▁crisp": 8052,
      "▁indefin": 8053,
      "▁defense": 8054,
      "##emor": 8055,
      "##700": 8056,
      "▁suggests": 8057,
      "@": 8058,
      "▁debbie": 8059,
      "▁honda": 8060,
      "▁brit": 8061,
      "▁bloody": 8062,
      "##nal": 8063,
      "▁elabor": 8064,
      "▁unsure": 8065,
      "▁killed": 8066,
      "##ival": 8067,
      "▁philosoph": 8068,
      "▁hundred": 8069,
      "▁1896": 8070,
      "▁34": 8071,
      "▁hmm": 8072,
      "##on": 8073,
      "▁odd": 8074,
      "▁verb": 8075,
      "▁professionally": 8076,
      "▁restored": 8077,
      "▁enormous": 8078,
      "##ante": 8079,
      "▁202.456.1414": 8080,
      "▁e.g": 8081,
      "▁electricity": 8082,
      "▁earthqu": 8083,
      "▁view": 8084,
      "▁twenty-four": 8085,
      "##algamiento": 8086,
      "▁satisfy": 8087,
      "▁scent": 8088,
      "▁vallee": 8089,
      "▁imported": 8090,
      "▁defines": 8091,
      "▁2005": 8092,
      "▁paralympics": 8093,
      "▁rainy": 8094,
      "##flies": 8095,
      "▁consequences": 8096,
      "▁jordan": 8097,
      "▁yours": 8098,
      "▁we": 8099,
      "▁resumed": 8100,
      "▁fee": 8101,
      "##ruction": 8102,
      "##-625": 8103,
      "▁boards": 8104,
      "▁choose": 8105,
      "▁unload": 8106,
      "▁prec": 8107,
      "▁homeland": 8108,
      "##ructure": 8109,
      "▁dedicated": 8110,
      "▁jerk": 8111,
      "▁dist": 8112,
      "▁if": 8113,
      "▁regret": 8114,
      "▁distinguished": 8115,
      "▁professionalism": 8116,
      "▁eul": 8117,
      "▁home": 8118,
      "▁progr": 8119,
      "▁relationships": 8120,
      "▁initiate": 8121,
      "▁ex": 8122,
      "##fast": 8123,
      "▁mixture": 8124,
      "##enes": 8125,
      "▁walking": 8126,
      "▁certainly": 8127,
      "▁democrat": 8128,
      "##.70": 8129,
      "▁ayman": 8130,
      "▁tun": 8131,
      "▁illusion": 8132,
      "▁centers": 8133,
      "▁toaster": 8134,
      "▁kent": 8135,
      "##0.doc": 8136,
      "▁recipe": 8137,
      "▁iraq": 8138,
      "##ify": 8139,
      "▁cruc": 8140,
      "▁insurance": 8141,
      "##ø": 8142,
      "▁city": 8143,
      "##.4": 8144,
      "▁substance": 8145,
      "##master": 8146,
      "▁embarrassment": 8147,
      "##anks": 8148,
      "▁jay": 8149,
      "##rit": 8150,
      "▁contract": 8151,
      "▁connection": 8152,
      "▁penny": 8153,
      "▁funding": 8154,
      "##ume": 8155,
      "▁retained": 8156,
      "▁versions": 8157,
      "##uj": 8158,
      "##:00": 8159,
      "##aut": 8160,
      "##ught": 8161,
      "▁explanation": 8162,
      "▁promotion": 8163,
      "▁defe": 8164,
      "▁attacked": 8165,
      "▁designer": 8166,
      "▁relent": 8167,
      "▁courage": 8168,
      "▁drivers": 8169,
      "▁jer": 8170,
      "▁46": 8171,
      "##emen": 8172,
      "##thew": 8173,
      "##ches": 8174,
      "▁cover": 8175,
      "▁indicates": 8176,
      "▁departs": 8177,
      "##boat": 8178,
      "▁interpreted": 8179,
      "##itation": 8180,
      "▁bl": 8181,
      "▁67": 8182,
      "▁conducted": 8183,
      "##-of": 8184,
      "▁hoax": 8185,
      "▁wake": 8186,
      "▁keen": 8187,
      "##owning": 8188,
      "▁bour": 8189,
      "##wyn": 8190,
      "▁reve": 8191,
      "▁girl": 8192,
      "##ious": 8193,
      "##ub": 8194,
      "▁monsters": 8195,
      "▁enh": 8196,
      "▁emerg": 8197,
      "##dered": 8198,
      "▁forced": 8199,
      "▁government": 8200,
      "▁concerning": 8201,
      "▁cheeks": 8202,
      "▁recruiting": 8203,
      "▁regarding": 8204,
      "▁season": 8205,
      "▁relevant": 8206,
      "##uable": 8207,
      "##li": 8208,
      "▁gate": 8209,
      "▁greek": 8210,
      "▁moh": 8211,
      "##orum": 8212,
      "##/17/2000": 8213,
      "▁governor": 8214,
      "▁fine": 8215,
      "▁w": 8216,
      "##ast": 8217,
      "▁booked": 8218,
      "▁rum": 8219,
      "##ز": 8220,
      "▁extremist": 8221,
      "▁esc": 8222,
      "▁inch": 8223,
      "##english": 8224,
      "##omen": 8225,
      "▁gum": 8226,
      "▁image": 8227,
      "▁arrang": 8228,
      "▁confl": 8229,
      "▁btw": 8230,
      "▁informacion": 8231,
      "▁floren": 8232,
      "▁cultural": 8233,
      "##i.": 8234,
      "▁demanded": 8235,
      "##illes": 8236,
      "##icked": 8237,
      "##ceed": 8238,
      "▁exec": 8239,
      "▁innocent": 8240,
      "▁benefited": 8241,
      "##_1": 8242,
      "▁prevail": 8243,
      "▁mullah": 8244,
      "▁1820": 8245,
      "▁32": 8246,
      "▁marvelous": 8247,
      "▁bobo": 8248,
      "▁groan": 8249,
      "▁waited": 8250,
      "▁hot": 8251,
      "▁begun": 8252,
      "▁slippers": 8253,
      "▁corpus": 8254,
      "▁needed": 8255,
      "▁shit": 8256,
      "▁injured": 8257,
      "▁haf": 8258,
      "▁horm": 8259,
      "▁minute": 8260,
      "▁pm": 8261,
      "▁implicated": 8262,
      "##ications": 8263,
      "▁strike": 8264,
      "▁divine": 8265,
      "▁yazid": 8266,
      "▁oct": 8267,
      "▁stripes": 8268,
      "▁revisions": 8269,
      "▁strawberries": 8270,
      "▁stirring": 8271,
      "▁trem": 8272,
      "▁conclusion": 8273,
      "▁295870": 8274,
      "▁m.": 8275,
      "▁err": 8276,
      "▁cares": 8277,
      "▁examined": 8278,
      "▁credit": 8279,
      "▁company": 8280,
      "▁pod": 8281,
      "▁thais": 8282,
      "▁permit": 8283,
      "▁29587": 8284,
      "▁genuine": 8285,
      "▁die": 8286,
      "▁28": 8287,
      "▁candidates": 8288,
      "▁chas": 8289,
      "##ounded": 8290,
      "▁tale": 8291,
      "▁pie": 8292,
      "##ares": 8293,
      "▁scan": 8294,
      "▁tu": 8295,
      "▁lun": 8296,
      "▁u.s": 8297,
      "▁pale": 8298,
      "▁fridge": 8299,
      "▁chairs": 8300,
      "##ody": 8301,
      "▁52": 8302,
      "▁-2-f.doc": 8303,
      "▁hea": 8304,
      "▁malaysia": 8305,
      "▁golf": 8306,
      "▁hasid": 8307,
      "▁acceler": 8308,
      "▁words": 8309,
      "▁medicine": 8310,
      "▁given": 8311,
      "▁patri": 8312,
      "▁1691": 8313,
      "▁11/7/08": 8314,
      "▁paragraph": 8315,
      "▁unn": 8316,
      "▁brains": 8317,
      "▁contest": 8318,
      "##clock": 8319,
      "▁station": 8320,
      "▁lamp": 8321,
      "▁mode": 8322,
      "▁atlanta": 8323,
      "▁judy": 8324,
      "##email": 8325,
      "##@comp": 8326,
      "▁1220": 8327,
      "▁entry": 8328,
      "▁advance": 8329,
      "▁critics": 8330,
      "▁cuckoo": 8331,
      "▁judg": 8332,
      "▁once": 8333,
      "▁chicken": 8334,
      "##rons": 8335,
      "▁reveal": 8336,
      "##uded": 8337,
      "▁casc": 8338,
      "▁memor": 8339,
      "##ced": 8340,
      "▁consortium": 8341,
      "▁structural": 8342,
      "▁sec": 8343,
      "##ict": 8344,
      "##na": 8345,
      "##teen": 8346,
      "▁leung": 8347,
      "▁4:50": 8348,
      "▁air": 8349,
      "▁75": 8350,
      "▁kuwait": 8351,
      "▁mexic": 8352,
      "▁baghdad": 8353,
      "▁severe": 8354,
      "▁mhc": 8355,
      "▁fitness": 8356,
      "##var": 8357,
      "▁hus": 8358,
      "▁pace": 8359,
      "##esco": 8360,
      "▁popcorn": 8361,
      "▁12,000": 8362,
      "▁pony": 8363,
      "##51": 8364,
      "▁rapid": 8365,
      "▁um": 8366,
      "ø": 8367,
      "▁delighted": 8368,
      "▁threatens": 8369,
      "▁apparently": 8370,
      "▁gallon": 8371,
      "▁swirl": 8372,
      "▁chosen": 8373,
      "▁cop": 8374,
      "▁symptoms": 8375,
      "▁retrosp": 8376,
      "##ox": 8377,
      "▁generally": 8378,
      "##leum": 8379,
      "▁monkey": 8380,
      "▁quality": 8381,
      "▁abo": 8382,
      "▁towards": 8383,
      "▁ath": 8384,
      "##light": 8385,
      "▁johann": 8386,
      "▁volume": 8387,
      "▁red": 8388,
      "a": 8389,
      "▁mot": 8390,
      "##ot": 8391,
      "##product": 8392,
      "▁wines": 8393,
      "▁firmly": 8394,
      "▁fucking": 8395,
      "##ud": 8396,
      "▁crit": 8397,
      "##glo": 8398,
      "▁200,000": 8399,
      "##awk": 8400,
      "##ery": 8401,
      "▁coke": 8402,
      "▁welfare": 8403,
      "▁susan": 8404,
      "▁nations": 8405,
      "##/200": 8406,
      "▁reveals": 8407,
      "▁1562": 8408,
      "▁opin": 8409,
      "##vern": 8410,
      "▁luna": 8411,
      "▁technique": 8412,
      "▁mars": 8413,
      "##sem": 8414,
      "▁61": 8415,
      "▁victory": 8416,
      "▁enc": 8417,
      "##onsc": 8418,
      "##vil": 8419,
      "##====": 8420,
      "▁iv": 8421,
      "▁shining": 8422,
      "▁providers": 8423,
      "##ury": 8424,
      "▁flu": 8425,
      "▁observ": 8426,
      "▁t": 8427,
      "##grad": 8428,
      "▁withd": 8429,
      "▁complaint": 8430,
      "▁office": 8431,
      "▁stair": 8432,
      "▁limousine": 8433,
      "▁angle": 8434,
      "▁chard": 8435,
      "##☏": 8436,
      "▁713-853-3989": 8437,
      "º": 8438,
      "▁leadership": 8439,
      "##ance": 8440,
      "▁1971": 8441,
      "▁murder": 8442,
      "▁cakes": 8443,
      "##ason": 8444,
      "##itted": 8445,
      "▁next": 8446,
      "▁1995": 8447,
      "▁177": 8448,
      "▁wisdom": 8449,
      "##lics": 8450,
      "##key": 8451,
      "▁conduct": 8452,
      "▁http://www.b": 8453,
      "▁walked": 8454,
      "▁question": 8455,
      "##46": 8456,
      "▁related": 8457,
      "▁10:00": 8458,
      "▁towel": 8459,
      "##ink": 8460,
      "▁infor": 8461,
      "▁capt": 8462,
      "##xture": 8463,
      "▁type": 8464,
      "▁12.": 8465,
      "▁nature": 8466,
      "+": 8467,
      "▁below": 8468,
      "▁constituency": 8469,
      "##fin": 8470,
      "▁laying": 8471,
      "▁b/c": 8472,
      "▁besid": 8473,
      "古": 8474,
      "▁explaining": 8475,
      "▁lob": 8476,
      "▁newspaper": 8477,
      "##doc": 8478,
      "▁switched": 8479,
      "▁4-12": 8480,
      "▁exclaim": 8481,
      "▁notion": 8482,
      "##force": 8483,
      "▁yaz": 8484,
      "##through": 8485,
      "▁web": 8486,
      "▁palestin": 8487,
      "##bridge": 8488,
      "##ologically": 8489,
      "▁bug": 8490,
      "▁equival": 8491,
      "▁---->===": 8492,
      "##raz": 8493,
      "▁param": 8494,
      "▁hard": 8495,
      "▁been": 8496,
      "▁ua": 8497,
      "▁huh": 8498,
      "▁415.621": 8499,
      "▁jugg": 8500,
      "▁snuffy": 8501,
      "▁care": 8502,
      "▁nandakk": 8503,
      "▁cases": 8504,
      "##inges": 8505,
      "##44": 8506,
      "##aly": 8507,
      "▁pres": 8508,
      "▁;)": 8509,
      "##.713.86": 8510,
      "▁pig": 8511,
      "##16.718": 8512,
      "▁errors": 8513,
      "▁preferred": 8514,
      "▁paul": 8515,
      "▁prom": 8516,
      "##ittal": 8517,
      "▁culturally": 8518,
      "▁morality": 8519,
      "##rition": 8520,
      "▁_________________________________": 8521,
      "▁pete": 8522,
      "▁4:30": 8523,
      "▁attempts": 8524,
      "▁complete": 8525,
      "▁gand": 8526,
      "▁enterprise": 8527,
      "▁degenerate": 8528,
      "##unga": 8529,
      "##uc": 8530,
      "▁international": 8531,
      "▁pea": 8532,
      "▁inapp": 8533,
      "▁syntact": 8534,
      "▁t-": 8535,
      "▁aware": 8536,
      "##byl": 8537,
      "▁lat": 8538,
      "▁ey": 8539,
      "▁checking": 8540,
      "##lier": 8541,
      "▁maternal": 8542,
      "▁dressing": 8543,
      "▁russian": 8544,
      "▁soda": 8545,
      "▁documentation": 8546,
      "▁third": 8547,
      "▁cameras": 8548,
      "▁carries": 8549,
      "▁breakfast": 8550,
      "▁fert": 8551,
      "▁joan": 8552,
      "##70": 8553,
      "##ust": 8554,
      "▁prompted": 8555,
      "▁news": 8556,
      "▁checkers": 8557,
      "▁coverage": 8558,
      "▁mei": 8559,
      "▁hostess": 8560,
      "##elf": 8561,
      "▁money": 8562,
      "##bon": 8563,
      "▁lantern": 8564,
      "##oun": 8565,
      "▁1878": 8566,
      "▁critical": 8567,
      "▁versus": 8568,
      "##opular": 8569,
      "##ensus": 8570,
      "▁reservations": 8571,
      "▁brought": 8572,
      "▁frame": 8573,
      "▁typical": 8574,
      "▁rocket": 8575,
      "▁urler": 8576,
      "▁hp": 8577,
      "▁mayko": 8578,
      "▁sunday": 8579,
      "▁accuracy": 8580,
      "▁atop": 8581,
      "▁ohio": 8582,
      "▁bondad": 8583,
      "▁pays": 8584,
      "▁jacket": 8585,
      "▁9221": 8586,
      "##ellation": 8587,
      "▁intensive": 8588,
      "##uss": 8589,
      "▁tacoma": 8590,
      "υ": 8591,
      "▁diag": 8592,
      "##uela": 8593,
      "▁bits": 8594,
      "▁movie": 8595,
      "##vert": 8596,
      "##07": 8597,
      "##mers": 8598,
      "▁philosophy": 8599,
      "▁759933": 8600,
      "##ql": 8601,
      "▁198": 8602,
      "▁monde": 8603,
      "##ire": 8604,
      "▁occup": 8605,
      "▁tit": 8606,
      "##box": 8607,
      "##tto": 8608,
      "##ported": 8609,
      "▁freezer": 8610,
      "▁pad": 8611,
      "▁atomic": 8612,
      "▁prosp": 8613,
      "▁scen": 8614,
      "▁films": 8615,
      "▁influence": 8616,
      "▁goodness": 8617,
      "▁underlying": 8618,
      "▁ekrapels@esaibos.com": 8619,
      "▁geomet": 8620,
      "##athan": 8621,
      "▁proust": 8622,
      "▁stip": 8623,
      "##usion": 8624,
      "▁femoral": 8625,
      "▁emp": 8626,
      "##uring": 8627,
      "▁xii": 8628,
      "▁waterfall": 8629,
      "▁falled": 8630,
      "▁advis": 8631,
      "##wiki": 8632,
      "▁dost": 8633,
      "▁anne": 8634,
      "▁achieved": 8635,
      "##ppo": 8636,
      "▁fir": 8637,
      "▁victims": 8638,
      "##ath": 8639,
      "▁resour": 8640,
      "##-nine": 8641,
      "▁litt": 8642,
      "▁ultimately": 8643,
      "▁chi": 8644,
      "▁renewed": 8645,
      "▁impe": 8646,
      "▁subm": 8647,
      "▁281-43": 8648,
      "▁sword": 8649,
      "▁birds": 8650,
      "##rical": 8651,
      "▁provinc": 8652,
      "▁1833": 8653,
      "▁came": 8654,
      "▁focused": 8655,
      "▁speed": 8656,
      "▁characteristics": 8657,
      "▁cherry": 8658,
      "▁checkout": 8659,
      "▁surprising": 8660,
      "##enty": 8661,
      "▁vegetables": 8662,
      "▁05/25/2001": 8663,
      "▁sol": 8664,
      "▁intr": 8665,
      "▁lifestyle": 8666,
      "▁mom": 8667,
      "▁roses": 8668,
      "▁cia": 8669,
      "▁about": 8670,
      "▁gov": 8671,
      "##ax": 8672,
      "▁specialists": 8673,
      "▁farther": 8674,
      "▁not": 8675,
      "##xon": 8676,
      "▁spilled": 8677,
      "▁plural": 8678,
      "▁licking": 8679,
      "##;": 8680,
      "▁storms": 8681,
      "##:11": 8682,
      "▁expectation": 8683,
      "##adel": 8684,
      "▁glen": 8685,
      "▁rainbow": 8686,
      "▁padalecki": 8687,
      "▁juice": 8688,
      "▁comb": 8689,
      "▁explained": 8690,
      "▁comple": 8691,
      "▁debate": 8692,
      "##ux": 8693,
      "##oth": 8694,
      "##70s": 8695,
      "##ower": 8696,
      "▁effective": 8697,
      "▁should": 8698,
      "▁alcalde": 8699,
      "▁barrels": 8700,
      "##oxide": 8701,
      "▁clearly": 8702,
      "▁emma": 8703,
      "▁drying": 8704,
      "▁thoroughly": 8705,
      "▁loved": 8706,
      "##antanamo": 8707,
      "▁entering": 8708,
      "▁citizens": 8709,
      "▁sadat": 8710,
      "▁low": 8711,
[...]
