{
  "version": "1.0",
  "truncation": null,
  "padding": null,
  "added_tokens": [
    {
      "id": 756,
      "content": "[SEP]",
      "single_word": false,
      "lstrip": false,
      "rstrip": false,
      "normalized": false,
      "special": true
    },
    {
      "id": 1187,
      "content": "[MASK]",
      "single_word": false,
      "lstrip": false,
      "rstrip": false,
      "normalized": false,
      "special": true
    },
    {
      "id": 1929,
      "content": "[PAD]",
      "single_word": false,
      "lstrip": false,
      "rstrip": false,
      "normalized": false,
      "special": true
    },
    {
      "id": 3103,
      "content": "[CLS]",
      "single_word": false,
      "lstrip": false,
      "rstrip": false,
      "normalized": false,
      "special": true
    },
    {
      "id": 4009,
      "content": "[UNK]",
      "single_word": false,
      "lstrip": false,
      "rstrip": false,
      "normalized": false,
      "special": true
    }
  ],
  "normalizer": {
    "type": "Sequence",
    "normalizers": [
      {
        "type": "NFD"
      },
      {
        "type": "Lowercase"
      },
      {
        "type": "StripAccents"
      }
    ]
  },
  "pre_tokenizer": {
    "type": "Sequence",
    "pretokenizers": [
      {
        "type": "Metaspace",
        "replacement": "▁",
        "prepend_scheme": "always",
        "split": true
      }
    ]
  },
  "post_processor": {
    "type": "TemplateProcessing",
    "single": [
      {
        "SpecialToken": {
          "id": "[CLS]",
          "type_id": 0
        }
      },
      {
        "Sequence": {
          "id": "A",
          "type_id": 0
        }
      },
      {
        "SpecialToken": {
          "id": "[SEP]",
          "type_id": 0
        }
      }
    ],
    "pair": [
      {
        "SpecialToken": {
          "id": "[CLS]",
          "type_id": 0
        }
      },
      {
        "Sequence": {
          "id": "A",
          "type_id": 0
        }
      },
      {
        "SpecialToken": {
          "id": "[SEP]",
          "type_id": 0
        }
      },
      {
        "Sequence": {
          "id": "B",
          "type_id": 1
        }
      },
      {
        "SpecialToken": {
          "id": "[SEP]",
          "type_id": 1
        }
      }
    ],
    "special_tokens": {
      "[CLS]": {
        "id": "[CLS]",
        "ids": [
          3103
        ],
        "tokens": [
          "[CLS]"
        ]
      },
      "[SEP]": {
        "id": "[SEP]",
        "ids": [
          756
        ],
        "tokens": [
          "[SEP]"
        ]
      }
    }
  },
  "decoder": {
    "type": "Metaspace",
    "replacement": "▁",
    "prepend_scheme": "always",
    "split": true
  },
  "model": {
    "type": "WordPiece",
    "unk_token": "[UNK]",
    "continuing_subword_prefix": "##",
    "max_input_chars_per_word": 100,
    "vocab": {
      "▁exper": 0,
      "▁non": 1,
      "▁1579": 2,
      "▁295870": 3,
      "##ase": 4,
      "▁toronto": 5,
      "##461": 6,
      "t": 7,
      "▁company": 8,
      "▁dress": 9,
      "▁750": 10,
      "▁29587": 11,
      "▁die": 12,
      "▁future": 13,
      "##gg": 14,
      "▁bott": 15,
      "▁28": 16,
      "##:27": 17,
      "##io": 18,
      "▁1-8": 19,
      "##ories": 20,
      "▁ano": 21,
      "##-780": 22,
      "▁step": 23,
      "▁polic": 24,
      "▁thirty-": 25,
      "▁outside": 26,
      "▁tu": 27,
      "▁face": 28,
      "▁52": 29,
      "▁12:12": 30,
      "##/2000": 31,
      "##£": 32,
      "▁al": 33,
      "▁lake": 34,
      "▁case": 35,
      "▁address": 36,
      "▁check": 37,
      "▁hea": 38,
      "▁show": 39,
      "▁words": 40,
      "▁given": 41,
      "▁&": 42,
      "▁thousand": 43,
      "▁1691": 44,
      "▁11/7/08": 45,
      "##way": 46,
      "▁718-780": 47,
      "##rol": 48,
      "▁point": 49,
      "▁1937": 50,
      "▁07/14/2000": 51,
      "▁mi": 52,
      "##clock": 53,
      "▁atlanta": 54,
      "▁hold": 55,
      "##460-33": 56,
      "##.3": 57,
      "▁sign": 58,
      "##/30/2001": 59,
      "##ip": 60,
      "▁expensive": 61,
      "##ort": 62,
      "▁1220": 63,
      "##山": 64,
      "▁once": 65,
      "##cept": 66,
      "▁6:30": 67,
      "▁1868": 68,
      "▁chicken": 69,
      "##er": 70,
      "##angu": 71,
      "##g": 72,
      "▁713-646-3393": 73,
      "##ved": 74,
      "##land": 75,
      "▁sec": 76,
      "##ict": 77,
      "##ced": 78,
      "▁1843": 79,
      "▁281-443-3": 80,
      "##na": 81,
      "##teen": 82,
      "##ember": 83,
      "▁4:50": 84,
      "▁air": 85,
      "▁75": 86,
      "##ا": 87,
      "##able": 88,
      "▁excell": 89,
      "▁jump": 90,
      "▁many": 91,
      "▁baltim": 92,
      "▁ever": 93,
      "▁08/03/2000": 94,
      "##ital": 95,
      "▁lo": 96,
      "##five": 97,
      "▁members": 98,
      "##989": 99,
      "##ν": 100,
      "##kk": 101,
      "▁turned": 102,
      "▁1709": 103,
      "▁12,000": 104,
      "##51": 105,
      "▁um": 106,
      "ø": 107,
      "##ote": 108,
      "##3/2000": 109,
      "##erv": 110,
      "▁story": 111,
      "▁cop": 112,
      "▁bed": 113,
      "▁6.8": 114,
      "##ror": 115,
      "▁1830": 116,
      "##ney": 117,
      "▁something": 118,
      "▁dog": 119,
      "▁quality": 120,
      "▁abo": 121,
      "▁towards": 122,
      "▁myself": 123,
      "##800": 124,
      "▁23": 125,
      "d": 126,
      "##akes": 127,
      "a": 128,
      "▁red": 129,
      "##ot": 130,
      "▁onto": 131,
      "▁40,000": 132,
      "##ers": 133,
      "##8-3": 134,
      "▁mot": 135,
      "▁effort": 136,
      "▁our": 137,
      "##ud": 138,
      "▁change": 139,
      "##end": 140,
      "▁200,000": 141,
      "##.30": 142,
      "▁1928": 143,
      "##ery": 144,
      "▁260": 145,
      "▁per": 146,
      "▁713-853-1696": 147,
      "▁2,000": 148,
      "##ints": 149,
      "▁713-793-": 150,
      "##all": 151,
      "▁has": 152,
      "##/200": 153,
      "▁1562": 154,
      "▁best": 155,
      "▁pain": 156,
      "##vern": 157,
      "▁techn": 158,
      "▁61": 159,
      "##3.6": 160,
      "▁neither": 161,
      "▁uh": 162,
      "▁end": 163,
      "▁write": 164,
      "##====": 165,
      "##vil": 166,
      "▁iv": 167,
      "▁1.6": 168,
      "##ury": 169,
      "▁t": 170,
      "##ap": 171,
      "▁ext": 172,
      "▁office": 173,
      "##ensive": 174,
      "##ract": 175,
      "##ither": 176,
      "##☏": 177,
      "▁713-853-3989": 178,
      "º": 179,
      "▁1971": 180,
      "##ance": 181,
      "##ft": 182,
      "▁look": 183,
      "²": 184,
      "▁espec": 185,
      "##ason": 186,
      "▁177": 187,
      "▁next": 188,
      "▁1995": 189,
      "##66": 190,
      "·": 191,
      "##key": 192,
      "▁832": 193,
      ",": 194,
      "##led": 195,
      "▁question": 196,
      "▁att": 197,
      "##:48": 198,
      "##46": 199,
      "▁high": 200,
      "▁70": 201,
      "##ε": 202,
      "▁had": 203,
      "▁tick": 204,
      "▁cha": 205,
      "▁619": 206,
      "##-": 207,
      "▁10:00": 208,
      "##at": 209,
      "##are": 210,
      "##alk": 211,
      "▁60": 212,
      "##ink": 213,
      "▁03/09/2000": 214,
      "▁2,300": 215,
      "▁type": 216,
      "▁01:14": 217,
      "▁12.": 218,
      "▁02/13/2001": 219,
      "+": 220,
      "▁inst": 221,
      "▁hit": 222,
      "▁04:28": 223,
      "▁below": 224,
      "▁03/15/2001": 225,
      "▁yester": 226,
      "▁04:17": 227,
      "▁ninety-n": 228,
      "##/99": 229,
      "▁b/c": 230,
      "▁'s": 231,
      "▁besid": 232,
      "##3-3": 233,
      "##ets": 234,
      "古": 235,
      "▁tem": 236,
      "▁05/03/2001": 237,
      "▁1902": 238,
      "▁`": 239,
      "##urch": 240,
      "##te": 241,
      "##doc": 242,
      "▁thous": 243,
      "##.11": 244,
      "##49": 245,
      "▁pro": 246,
      "▁web": 247,
      "▁rec": 248,
      "▁repres": 249,
      "▁attention": 250,
      "▁easy": 251,
      "##iet": 252,
      "▁now": 253,
      "▁1951": 254,
      "6": 255,
      "▁nobody": 256,
      "▁hard": 257,
      "▁run": 258,
      "▁cou": 259,
      "▁n't": 260,
      "▁been": 261,
      "▁1978": 262,
      "▁713/8": 263,
      "▁huh": 264,
      "##80": 265,
      "▁415.621": 266,
      "##ones": 267,
      "▁care": 268,
      "▁curren": 269,
      "##ake": 270,
      "▁baby": 271,
      "▁03": 272,
      "▁pres": 273,
      "##44": 274,
      "▁71": 275,
      "##.713.86": 276,
      "##16.718": 277,
      "▁sing": 278,
      "▁uhoh": 279,
      "##cent": 280,
      "▁event": 281,
      "▁paul": 282,
      "▁prom": 283,
      "▁must": 284,
      "▁_________________________________": 285,
      "##stem": 286,
      "▁4:30": 287,
      "▁great": 288,
      "▁1599": 289,
      "##om": 290,
      "▁ass": 291,
      "▁under": 292,
      "▁price": 293,
      "##8/2000": 294,
      "▁ai": 295,
      "▁56": 296,
      "▁814014": 297,
      "##uc": 298,
      "##’": 299,
      "▁international": 300,
      "▁glass": 301,
      "▁wanted": 302,
      "▁2500": 303,
      "▁g": 304,
      "▁glob": 305,
      "▁few": 306,
      "##ise": 307,
      "▁94": 308,
      "▁ey": 309,
      "▁lat": 310,
      "▁his": 311,
      "▁09/15": 312,
      "##:14": 313,
      "▁4.0": 314,
      "▁third": 315,
      "▁god": 316,
      "▁li": 317,
      "▁!!!!": 318,
      "▁191": 319,
      "▁breakfast": 320,
      "▁watch": 321,
      "##se": 322,
      "##70": 323,
      "##ust": 324,
      "▁whereby": 325,
      "▁news": 326,
      "##[": 327,
      "##ther": 328,
      "##ex": 329,
      "##la": 330,
      "▁did": 331,
      "▁develop": 332,
      "▁money": 333,
      "##?": 334,
      "▁pittsbur": 335,
      "##elf": 336,
      "##oun": 337,
      "▁gone": 338,
      "▁versus": 339,
      "▁1878": 340,
      "▁ens": 341,
      "##ton": 342,
      "##.1234": 343,
      "##art": 344,
      "▁hotel": 345,
      "▁ju": 346,
      "▁,": 347,
      "##ce": 348,
      "▁sunday": 349,
      "▁test": 350,
      "##47": 351,
      "▁although": 352,
      "▁commission": 353,
      "##.1": 354,
      "▁atop": 355,
      "▁lab": 356,
      "##静": 357,
      "▁aside": 358,
      "##ith": 359,
      "##ass": 360,
      "▁9221": 361,
      "▁opposite": 362,
      "##uss": 363,
      "υ": 364,
      "##ities": 365,
      "▁an": 366,
      "▁main": 367,
      "▁proc": 368,
      "##26": 369,
      "▁759933": 370,
      "▁198": 371,
      "##ek": 372,
      "##****": 373,
      "▁50000": 374,
      "€": 375,
      "##}": 376,
      "##ʒ": 377,
      "##ire": 378,
      "▁78": 379,
      "##…": 380,
      "▁english": 381,
      "▁angel": 382,
      "▁03/27/2001": 383,
      "▁6,000": 384,
      "▁<<": 385,
      "▁human": 386,
      "##bo": 387,
      "▁1977": 388,
      "##iny": 389,
      "##ve": 390,
      "▁xii": 391,
      "▁local": 392,
      "##-8": 393,
      "▁1291": 394,
      "##:34": 395,
      "##act": 396,
      "▁11/29/2000": 397,
      "▁1875": 398,
      "##3-": 399,
      "##with": 400,
      "##________________________________": 401,
      "▁collect": 402,
      "##gle": 403,
      "##apolis": 404,
      "▁fir": 405,
      "▁dec": 406,
      "##ath": 407,
      "##hin": 408,
      "##2/2001": 409,
      "▁litt": 410,
      "▁ver": 411,
      "▁281-443-3744": 412,
      "▁prot": 413,
      "▁1530": 414,
      "##ouble": 415,
      "▁ya": 416,
      "▁1833": 417,
      "▁came": 418,
      "▁9/11": 419,
      "▁03:58": 420,
      "▁217": 421,
      "##oney": 422,
      "▁listen": 423,
      "##enty": 424,
      "▁concern": 425,
      "▁05/25/2001": 426,
      "▁sol": 427,
      "▁property": 428,
      "▁mom": 429,
      "##ular": 430,
      "▁fut": 431,
      "▁8:30": 432,
      "##744": 433,
      ">": 434,
      "▁environment": 435,
      "▁about": 436,
      "▁gave": 437,
      "▁this": 438,
      "##be": 439,
      "r": 440,
      "##ple": 441,
      "▁not": 442,
      "▁but": 443,
      "▁your": 444,
      "▁09/16": 445,
      "##;": 446,
      "##e": 447,
      "##:11": 448,
      "▁expect": 449,
      "▁120,000": 450,
      "##,6": 451,
      "▁compan": 452,
      "▁11/28/2000": 453,
      "##/he": 454,
      "##room": 455,
      "▁wh": 456,
      "##ale": 457,
      "▁comple": 458,
      "▁pull": 459,
      "##oth": 460,
      "▁po": 461,
      "▁talk": 462,
      "##ower": 463,
      "”": 464,
      "▁should": 465,
      "▁fair": 466,
      "▁indian": 467,
      "▁accord": 468,
      "##,008": 469,
      "▁1608": 470,
      "▁bow": 471,
      "▁grow": 472,
      "##.0": 473,
      "▁wait": 474,
      "##its": 475,
      "##ts": 476,
      "▁countries": 477,
      "▁512": 478,
      "##8196021": 479,
      "▁low": 480,
      "##ech": 481,
      "▁letter": 482,
      "▁120": 483,
      "♥": 484,
      "▁ones": 485,
      "▁s": 486,
      "4": 487,
      "##39": 488,
      "▁st": 489,
      "▁202": 490,
      "##+": 491,
      "▁mess": 492,
      "##ogn": 493,
      "▁410-468-3": 494,
      "▁28,000": 495,
      "▁period": 496,
      "##ortun": 497,
      "▁ref": 498,
      "▁state": 499,
      "▁laura": 500,
      "##74": 501,
      "▁am": 502,
      "▁alread": 503,
      "▁3,": 504,
      "▁pric": 505,
      "##ew": 506,
      "▁el": 507,
      "▁cloth": 508,
      "▁pa": 509,
      "##4-79": 510,
      "##ming": 511,
      "▁!!!": 512,
      "▁fix": 513,
      "##.7822": 514,
      "##ke": 515,
      "▁1970": 516,
      "##61": 517,
      "▁coun": 518,
      "##pite": 519,
      "##ents": 520,
      "▁says": 521,
      "▁03/08/2000": 522,
      "▁month": 523,
      "▁.?": 524,
      "▁conv": 525,
      "##ʃ": 526,
      "▁1944": 527,
      "##ug": 528,
      "##iss": 529,
      "▁6.1": 530,
      "▁dogg": 531,
      "▁value": 532,
      "##ised": 533,
      "▁5:30": 534,
      "✉": 535,
      "▁483": 536,
      "▁unt": 537,
      "##ig": 538,
      "▁e": 539,
      "▁based": 540,
      "##eau": 541,
      "▁tot": 542,
      "##my": 543,
      "##app": 544,
      "▁have": 545,
      "▁47": 546,
      "▁ant": 547,
      "▁front": 548,
      "▁7.3": 549,
      "▁1929": 550,
      "▁makes": 551,
      "▁bit": 552,
      "▁16": 553,
      "▁08/0": 554,
      "▁240": 555,
      "##867": 556,
      "▁ob": 557,
      "▁1230": 558,
      "▁really": 559,
      "##σ": 560,
      "▁ask": 561,
      "▁probably": 562,
      "▁ten": 563,
      "##ively": 564,
      "##irt": 565,
      "▁1910": 566,
      "▁im": 567,
      "▁401": 568,
      "▁like": 569,
      "##ble": 570,
      "##ik": 571,
      "☏": 572,
      "ł": 573,
      "▁pre": 574,
      "▁ne": 575,
      "##ues": 576,
      "▁64": 577,
      "##9933": 578,
      ";": 579,
      "▁01810": 580,
      "ʃ": 581,
      "##00": 582,
      "▁common": 583,
      "##.75": 584,
      "##ese": 585,
      "▁113": 586,
      "▁!!!!!!": 587,
      "##sc": 588,
      "▁surpr": 589,
      "▁1800": 590,
      "##ge": 591,
      "▁friday": 592,
      "▁poor": 593,
      "▁2.5": 594,
      "ʊ": 595,
      "##9/2000": 596,
      "▁---------------------------------": 597,
      "▁sl": 598,
      "▁enjoy": 599,
      "##ail": 600,
      "▁it": 601,
      "▁2": 602,
      "▁06": 603,
      "▁sy": 604,
      "▁03/2": 605,
      "▁could": 606,
      "▁6.00": 607,
      "▁3/9": 608,
      "▁noon": 609,
      "##ount": 610,
      "##xt": 611,
      "▁pal": 612,
      "▁over": 613,
      "##ached": 614,
      "▁.2": 615,
      "##med": 616,
      "##de": 617,
      "##85": 618,
      "▁plus": 619,
      "▁re": 620,
      "▁.......": 621,
      "##miss": 622,
      "▁aust": 623,
      "##θ": 624,
      "▁board": 625,
      "▁six": 626,
      "▁prod": 627,
      "##__________": 628,
      "▁committ": 629,
      "##ose": 630,
      "##2,000": 631,
      "##urs": 632,
      "##id": 633,
      "▁05/30/2001": 634,
      "▁07/1": 635,
      "▁official": 636,
      "##ellow": 637,
      "▁430": 638,
      "▁!": 639,
      "▁000010": 640,
      "▁ans": 641,
      "▁197": 642,
      "##48": 643,
      "##490": 644,
      "##and": 645,
      "##41": 646,
      "##ww": 647,
      "▁181": 648,
      "▁the": 649,
      "##ams": 650,
      "##igh": 651,
      "▁fift": 652,
      "▁ahead": 653,
      "▁fly": 654,
      "##ine": 655,
      "▁least": 656,
      "##ony": 657,
      "##ner": 658,
      "▁1822": 659,
      "▁wilt": 660,
      "##ml": 661,
      "▁ke": 662,
      "▁730": 663,
      "▁eighteen": 664,
      "▁1504": 665,
      "$": 666,
      "9": 667,
      "##ie": 668,
      "▁invol": 669,
      "▁eff": 670,
      "▁finally": 671,
      "▁1949": 672,
      "##,00": 673,
      "▁mother": 674,
      "▁mich": 675,
      "▁th": 676,
      "▁3.8": 677,
      "▁01": 678,
      "▁10:30": 679,
      "▁cent": 680,
      "▁mont": 681,
      "▁priv": 682,
      "▁enj": 683,
      "##tt": 684,
      "▁01:39": 685,
      "▁at": 686,
      "▁1,": 687,
      "▁345": 688,
      "▁heard": 689,
      "▁4.6": 690,
      "##.831": 691,
      "##/10/2004": 692,
      "▁ready": 693,
      "▁1205": 694,
      "##enron": 695,
      "▁713-654-1281": 696,
      "##eck": 697,
      "▁15,000": 698,
      "▁email": 699,
      "##ut": 700,
      "▁black": 701,
      "▁1841": 702,
      "▁04:": 703,
      "##uel": 704,
      "##99": 705,
      "▁mu": 706,
      "##67": 707,
      "▁july": 708,
      "##'s": 709,
      "▁oil": 710,
      "▁1588": 711,
      "▁spr": 712,
      "##hip": 713,
      "##s.": 714,
      "▁1585": 715,
      "▁11/2": 716,
      "##od": 717,
      "▁number": 718,
      "▁astr": 719,
      "##eng": 720,
      "▁1623": 721,
      "##itive": 722,
      "▁81": 723,
      "▁rock": 724,
      "##ized": 725,
      "▁forty": 726,
      "▁co": 727,
      "▁trad": 728,
      "▁charl": 729,
      "##ron": 730,
      "▁done": 731,
      "##α": 732,
      "##1696": 733,
      "▁16.379": 734,
      "##ch": 735,
      "▁cons": 736,
      "▁800-553-3119": 737,
      "▁ind": 738,
      "▁balzac": 739,
      "▁166": 740,
      "▁01/2": 741,
      "▁\"": 742,
      "▁national": 743,
      "▁middle": 744,
      "▁85": 745,
      "▁record": 746,
      "▁yea": 747,
      "▁79": 748,
      "##✉": 749,
      "▁loc": 750,
      "▁650": 751,
      "##ll": 752,
      "▁20,000": 753,
      "▁1614": 754,
      "##lud": 755,
      "[SEP]": 756,
      "▁differ": 757,
      "▁guys": 758,
      "1": 759,
      "##et": 760,
      "▁ur": 761,
      "▁live": 762,
      "##ang": 763,
      "##±": 764,
      "▁1997": 765,
      "▁ok": 766,
      "▁1831": 767,
      "▁vegas": 768,
      "▁8:00": 769,
      "▁only": 770,
      "▁opp": 771,
      "▁beneath": 772,
      "▁+1": 773,
      "▁29": 774,
      "##•": 775,
      "▁problem": 776,
      "##line": 777,
      "▁1983": 778,
      "▁lea": 779,
      "▁.....": 780,
      "▁includ": 781,
      "▁2:30": 782,
      "##古": 783,
      "▁und": 784,
      "▁whose": 785,
      "▁natural": 786,
      "▁star": 787,
      "▁paper": 788,
      "▁1689": 789,
      "##415-": 790,
      "`": 791,
      "▁'em": 792,
      "▁kitt": 793,
      "▁04": 794,
      "▁he": 795,
      "▁yesterday": 796,
      "▁3.2": 797,
      "▁315-460-33": 798,
      "▁play": 799,
      "▁short": 800,
      "▁505-625-8031": 801,
      "▁713/": 802,
      "##az": 803,
      "▁whether": 804,
      "▁xsl": 805,
      "##ified": 806,
      "▁03/02/2001": 807,
      "▁kill": 808,
      "▁leaving": 809,
      "##uma": 810,
      "##erc": 811,
      "##ka": 812,
      "▁president": 813,
      "▁country": 814,
      "##rew": 815,
      "▁1888": 816,
      "▁sent": 817,
      "▁ret": 818,
      "▁chair": 819,
      "▁5.5": 820,
      "▁years": 821,
      "▁read": 822,
      "▁noone": 823,
      "▁exam": 824,
      "##389": 825,
      "▁1926": 826,
      "▁49": 827,
      "▁137": 828,
      "▁texas": 829,
      "▁quite": 830,
      "▁pack": 831,
      "##el": 832,
      "▁twenty": 833,
      "▁manag": 834,
      "##irl": 835,
      "##/01/2001": 836,
      "▁v": 837,
      "▁***": 838,
      "##16": 839,
      "▁see": 840,
      "▁summer": 841,
      "##ough": 842,
      "▁whil": 843,
      "▁180": 844,
      "##ash": 845,
      "▁eleven": 846,
      "▁02": 847,
      "##oph": 848,
      "▁account": 849,
      "▁0.0": 850,
      "##ock": 851,
      "▁post": 852,
      "▁back": 853,
      "▁unless": 854,
      "▁ii": 855,
      "▁bea": 856,
      "▁piece": 857,
      "▁team": 858,
      "▁especially": 859,
      "▁du": 860,
      "▁>": 861,
      "▁s/he": 862,
      "▁const": 863,
      "##uz": 864,
      "▁contin": 865,
      "##-20": 866,
      "▁6400": 867,
      "##9999": 868,
      "##re": 869,
      "▁ach": 870,
      "况": 871,
      "##ave": 872,
      "▁pop": 873,
      "▁col": 874,
      "▁1967": 875,
      "▁treat": 876,
      "▁pub": 877,
      "▁talking": 878,
      "ا": 879,
      "##by": 880,
      "▁just": 881,
      "3": 882,
      "▁discuss": 883,
      "##ides": 884,
      "▁814": 885,
      "##ward": 886,
      "##.doc": 887,
      "▁bet": 888,
      "##ont": 889,
      "▁rele": 890,
      "▁nineteen": 891,
      "##ator": 892,
      "##ives": 893,
      "##ulation": 894,
      "▁888.916.718": 895,
      "▁tri": 896,
      "▁spec": 897,
      "▁8:15": 898,
      "▁bel": 899,
      "▁early": 900,
      "##ering": 901,
      "▁727": 902,
      "▁je": 903,
      "▁newark": 904,
      "▁1590": 905,
      "▁1994": 906,
      "##17": 907,
      "▁bi": 908,
      "▁2002": 909,
      "##ł": 910,
      "##old": 911,
      "(": 912,
      "▁went": 913,
      "▁360": 914,
      "▁di": 915,
      "▁1836": 916,
      "▁friends": 917,
      "▁button": 918,
      "▁are": 919,
      "##ild": 920,
      "▁say": 921,
      "##æ": 922,
      "▁possible": 923,
      "▁staff": 924,
      "▁af": 925,
      "##in": 926,
      "▁wr": 927,
      "▁box": 928,
      "##**": 929,
      "##7/2000": 930,
      "▁being": 931,
      "▁24": 932,
      "##ures": 933,
      "▁near": 934,
      "##ull": 935,
      "▁96": 936,
      "##:29": 937,
      "▁1222": 938,
      "▁attached": 939,
      "##200": 940,
      "▁43": 941,
      "▁india": 942,
      "▁1754": 943,
      "▁beside": 944,
      "▁deb": 945,
      "▁1959": 946,
      "▁down": 947,
      "##/15/2001": 948,
      "##gy": 949,
      "▁932": 950,
      "▁gon": 951,
      "g": 952,
      "##min": 953,
      "##alth": 954,
      "##less": 955,
      "##day": 956,
      "##uh": 957,
      "▁se": 958,
      "▁713-8": 959,
      "▁wear": 960,
      "##0/2000": 961,
      "##.25": 962,
      "##810": 963,
      "k": 964,
      "##og": 965,
      "▁'m": 966,
      "##ف": 967,
      "##ances": 968,
      "##gether": 969,
      "▁several": 970,
      "▁global": 971,
      "▁lik": 972,
      "##夏": 973,
      "▁out": 974,
      "##30": 975,
      "##/03": 976,
      "ز": 977,
      "##ially": 978,
      "##ric": 979,
      "▁********************************": 980,
      "▁project": 981,
      "##:51": 982,
      "##ivid": 983,
      "▁age": 984,
      "▁custom": 985,
      "##lf": 986,
      "▁2.": 987,
      "##ou": 988,
      "▁right": 989,
      "▁646-8420": 990,
      "▁800-5": 991,
      "▁205": 992,
      "##cc": 993,
      "▁1992": 994,
      "▁thought": 995,
      "▁713-6": 996,
      "▁225": 997,
      "▁5,000": 998,
      "▁12/2": 999,
      "▁1801": 1000,
      "▁bir": 1001,
      "##hing": 1002,
      "▁17": 1003,
      "▁1,200": 1004,
      "▁herself": 1005,
      "##ions": 1006,
      "##iction": 1007,
      "##us": 1008,
      "▁meet": 1009,
      "▁sleep": 1010,
      "▁b/": 1011,
      "##form": 1012,
      "▁abs": 1013,
      "▁los": 1014,
      "θ": 1015,
      "▁oakland": 1016,
      "▁’d": 1017,
      "▁'ll": 1018,
      "##ach": 1019,
      "▁places": 1020,
      "/": 1021,
      "▁48": 1022,
      "▁ben": 1023,
      "▁ol": 1024,
      "##.5": 1025,
      "▁press": 1026,
      "▁bad": 1027,
      "##to": 1028,
      "##ack": 1029,
      "##!!!": 1030,
      "##.77": 1031,
      "▁earth": 1032,
      "▁forty-eight": 1033,
      "▁counter": 1034,
      "##rou": 1035,
      "▁em": 1036,
      "▁bu": 1037,
      "##istan": 1038,
      "ε": 1039,
      "##×": 1040,
      "▁service": 1041,
      "▁510": 1042,
      "▁hat": 1043,
      "▁it's": 1044,
      "##m": 1045,
      "##rench": 1046,
      "##ual": 1047,
      "▁508": 1048,
      "▁01/1": 1049,
      "▁couple": 1050,
      "▁ll": 1051,
      "##,000": 1052,
      "##ment": 1053,
      "▁things": 1054,
      "▁03/0": 1055,
      "##414": 1056,
      "##78": 1057,
      "##ently": 1058,
      "▁asked": 1059,
      "u": 1060,
      "▁7.2": 1061,
      "##--------------------------------": 1062,
      "##oo": 1063,
      "▁93": 1064,
      "##os": 1065,
      "▁toward": 1066,
      "▁713-853": 1067,
      "▁yeah": 1068,
      "h": 1069,
      "▁more": 1070,
      "##34": 1071,
      "▁1:30": 1072,
      "▁quinn": 1073,
      "▁excellent": 1074,
      "▁against": 1075,
      "▁888.916.7184": 1076,
      "▁imp": 1077,
      "ɔ": 1078,
      "##.61": 1079,
      "▁body": 1080,
      "▁study": 1081,
      "##~*": 1082,
      "##ks": 1083,
      "▁3-5": 1084,
      "##atter": 1085,
      "▁phil": 1086,
      "▁6871082#": 1087,
      "▁": 1088,
      "▁alberta": 1089,
      "▁daily": 1090,
      "▁up": 1091,
      "▁10:5": 1092,
      "▁tur": 1093,
      "▁amidst": 1094,
      "{": 1095,
      "▁set": 1096,
      "##ane": 1097,
      "##ired": 1098,
      "▁315-": 1099,
      "▁00": 1100,
      "▁cor": 1101,
      "▁175": 1102,
      "▁beaut": 1103,
      "▁europe": 1104,
      "▁kn": 1105,
      "▁dep": 1106,
      "▁08/03": 1107,
      "▁11/10/2000": 1108,
      "▁505": 1109,
      "##********": 1110,
      "##olution": 1111,
      "▁1561": 1112,
      "▁+44": 1113,
      "▁free": 1114,
      "▁fig": 1115,
      "▁last": 1116,
      "▁course": 1117,
      "▁nothing": 1118,
      "##s": 1119,
      "##_0": 1120,
      "▁dese": 1121,
      "▁6:00": 1122,
      "ف": 1123,
      "▁or": 1124,
      "##eric": 1125,
      "▁inside": 1126,
      "##ro": 1127,
      "##out": 1128,
      "山": 1129,
      "##du": 1130,
      "▁son": 1131,
      "##y": 1132,
      "▁close": 1133,
      "▁whereas": 1134,
      "▁1:00": 1135,
      "##cil": 1136,
      "▁having": 1137,
      "n": 1138,
      "▁09:": 1139,
      "##22,000": 1140,
      "▁airport": 1141,
      "▁x": 1142,
      "▁fifteen": 1143,
      "▁—": 1144,
      "▁health": 1145,
      "▁1998": 1146,
      "##:58": 1147,
      "▁dat": 1148,
      "▁rem": 1149,
      "##{": 1150,
      "##oc": 1151,
      "▁60,000": 1152,
      "▁university": 1153,
      "▁parents": 1154,
      "▁h": 1155,
      "▁770": 1156,
      "##460-3": 1157,
      "▁mass": 1158,
      "▁land": 1159,
      "▁w/": 1160,
      "▁cheap": 1161,
      "▁forward": 1162,
      "▁report": 1163,
      "▁jwww": 1164,
      "▁shop": 1165,
      "▁fall": 1166,
      "▁10,000": 1167,
      "▁diego": 1168,
      "▁whilst": 1169,
      "▁mine": 1170,
      "▁$": 1171,
      "##92": 1172,
      "▁quick": 1173,
      "##ef": 1174,
      "▁make": 1175,
      "▁1982": 1176,
      "▁72,000": 1177,
      "▁pay": 1178,
      "##oup": 1179,
      "▁jan": 1180,
      "▁democr": 1181,
      "▁1846": 1182,
      "p": 1183,
      "▁soc": 1184,
      "##bs": 1185,
      "##‘": 1186,
      "[MASK]": 1187,
      "▁405": 1188,
      "▁2000": 1189,
      "▁[": 1190,
      "▁addition": 1191,
      "▁avail": 1192,
      "▁1596": 1193,
      "▁eight": 1194,
      "##inc": 1195,
      "##:39": 1196,
      "▁here": 1197,
      "▁fil": 1198,
      "##'re": 1199,
      "▁including": 1200,
      "##<": 1201,
      "▁children": 1202,
      "▁2050": 1203,
      "##澹": 1204,
      "β": 1205,
      "▁320": 1206,
      "##μ": 1207,
      "▁hol": 1208,
      "##ag": 1209,
      "<": 1210,
      "▁clean": 1211,
      "▁sort": 1212,
      "▁09/15/99": 1213,
      "▁piec": 1214,
      "▁occ": 1215,
      "▁port": 1216,
      "▁works": 1217,
      "▁hun": 1218,
      "##gr": 1219,
      "▁+": 1220,
      "##ments": 1221,
      "##mp": 1222,
      "▁sa": 1223,
      "▁comes": 1224,
      "##_": 1225,
      "##~*~*": 1226,
      "▁way": 1227,
      "##enc": 1228,
      "▁bush": 1229,
      "##499": 1230,
      "▁65": 1231,
      "▁pass": 1232,
      "##]": 1233,
      "▁int": 1234,
      "▁215": 1235,
      "³": 1236,
      "##iv": 1237,
      "▁questions": 1238,
      "▁09/16/99": 1239,
      "▁boston": 1240,
      "▁2017": 1241,
      "##3098": 1242,
      "▁ev": 1243,
      "▁little": 1244,
      "##28": 1245,
      "▁1505": 1246,
      "##uck": 1247,
      "▁1972": 1248,
      "##ter": 1249,
      "▁may": 1250,
      "##ren": 1251,
      "##res": 1252,
      "##ier": 1253,
      "▁head": 1254,
      "▁pan": 1255,
      "##amed": 1256,
      "##ur": 1257,
      "▁12:42": 1258,
      "##ing": 1259,
      "##/2005": 1260,
      "▁08": 1261,
      "##2/2000": 1262,
      "▁means": 1263,
      "▁269": 1264,
      "##oke": 1265,
      "▁tex": 1266,
      "##most": 1267,
      "▁(": 1268,
      "##kee": 1269,
      "▁1": 1270,
      "▁jap": 1271,
      "▁yo": 1272,
      "##0-3": 1273,
      "▁youn": 1274,
      "▁hell": 1275,
      "▁typ": 1276,
      "▁deal": 1277,
      "▁ab": 1278,
      "▁saying": 1279,
      "▁ph": 1280,
      "▁11608": 1281,
      "##ision": 1282,
      "##口": 1283,
      "##ic": 1284,
      "▁713-853-3098": 1285,
      "##ian": 1286,
      "##90": 1287,
      "##/2001": 1288,
      "▁huma": 1289,
      "##ured": 1290,
      "▁1877": 1291,
      "▁day": 1292,
      "▁small": 1293,
      "▁ele": 1294,
      "##/26": 1295,
      "f": 1296,
      "##:52": 1297,
      "▁04:03": 1298,
      "##:40": 1299,
      "▁train": 1300,
      "▁proper": 1301,
      "▁11:45": 1302,
      "▁1592": 1303,
      "▁anybody": 1304,
      "##aff": 1305,
      "▁1738": 1306,
      "##ral": 1307,
      "▁http://www.": 1308,
      "##201": 1309,
      "##53-3119": 1310,
      "▁wonder": 1311,
      "##/26/2001": 1312,
      "##th": 1313,
      "▁dad": 1314,
      "▁follow": 1315,
      "▁12/26/2000": 1316,
      "##♥": 1317,
      "▁beach": 1318,
      "▁apart": 1319,
      "##bur": 1320,
      "▁sho": 1321,
      "▁rob": 1322,
      "▁su": 1323,
      "##43": 1324,
      "▁tom": 1325,
      "▁&amp": 1326,
      "▁165": 1327,
      "##ore": 1328,
      "##-99": 1329,
      "##oy": 1330,
      "▁800": 1331,
      "▁150": 1332,
      "##:44": 1333,
      "“": 1334,
      "▁everybody": 1335,
      "▁150,000": 1336,
      "▁mean": 1337,
      "▁tor": 1338,
      "▁ago": 1339,
      "▁hav": 1340,
      "##...": 1341,
      "▁squ": 1342,
      "##eare": 1343,
      "##x": 1344,
      "▁934": 1345,
      "▁inv": 1346,
      "▁--": 1347,
      "##ors": 1348,
      "▁available": 1349,
      "▁community": 1350,
      "ν": 1351,
      "▁08/16": 1352,
      "##av": 1353,
      "##pped": 1354,
      "▁..": 1355,
      "##ued": 1356,
      "▁business": 1357,
      "▁never": 1358,
      "##ible": 1359,
      "▁iss": 1360,
      "▁represent": 1361,
      "▁conn": 1362,
      "▁inf": 1363,
      "##ope": 1364,
      "##hia": 1365,
      "##=": 1366,
      "▁ins": 1367,
      "▁guess": 1368,
      "##4": 1369,
      "##??": 1370,
      "▁11:3": 1371,
      "▁cheapest": 1372,
      "▁wor": 1373,
      "▁cred": 1374,
      "##ards": 1375,
      "##ned": 1376,
      "▁mus": 1377,
      "▁345-99": 1378,
      "▁91": 1379,
      "▁324": 1380,
      "▁who's": 1381,
      "▁birthday": 1382,
      "▁1976": 1383,
      "##un": 1384,
      "▁env": 1385,
      "▁104": 1386,
      "##eak": 1387,
      "##-50": 1388,
      "▁12": 1389,
      "▁1,000": 1390,
      "##ɑ": 1391,
      "▁a": 1392,
      "##:28": 1393,
      "##xic": 1394,
      "▁alongside": 1395,
      "e": 1396,
      "▁3,202": 1397,
      "##ə": 1398,
      "##ather": 1399,
      "▁green": 1400,
      "▁thr": 1401,
      "##294-": 1402,
      "▁‘": 1403,
      "▁ste": 1404,
      "▁---": 1405,
      "▁750,000": 1406,
      "▁har": 1407,
      "▁1980": 1408,
      "##ertain": 1409,
      "##ong": 1410,
      "▁who": 1411,
      "##ider": 1412,
      "##://": 1413,
      "##7": 1414,
      "▁dark": 1415,
      "▁color": 1416,
      "##:42": 1417,
      "▁978": 1418,
      "▁twelve": 1419,
      "##65": 1420,
      "▁1958": 1421,
      "##12": 1422,
      "##ater": 1423,
      "▁01/25/2001": 1424,
      "▁01/24/2001": 1425,
      "##:03": 1426,
      "▁832.676": 1427,
      "8": 1428,
      "▁still": 1429,
      "琴": 1430,
      "▁monday": 1431,
      "▁mommy": 1432,
      "▁tim": 1433,
      "▁cour": 1434,
      "##:55": 1435,
      "▁transportation": 1436,
      "▁ah": 1437,
      "##eight": 1438,
      "##erous": 1439,
      "##co": 1440,
      "ə": 1441,
      "▁2020": 1442,
      "▁needs": 1443,
      "▁1500": 1444,
      "▁8": 1445,
      "▁yourself": 1446,
      "▁01:09": 1447,
      "##^": 1448,
      "▁aff": 1449,
      "▁wind": 1450,
      "▁key": 1451,
      "▁pri": 1452,
      "▁:": 1453,
      "▁r": 1454,
      "▁aug": 1455,
      "▁between": 1456,
      "y": 1457,
      "##202": 1458,
      "##urday": 1459,
      "##ansas": 1460,
      "▁850": 1461,
      "▁238": 1462,
      "▁moving": 1463,
      "▁713-654-0365": 1464,
      "▁37": 1465,
      "▁you": 1466,
      "##ens": 1467,
      "##ys": 1468,
      "▁08/15": 1469,
      "▁fort": 1470,
      "##++++": 1471,
      "##ump": 1472,
      "##!!!!": 1473,
      "##_de": 1474,
      "▁11:36": 1475,
      "##ins": 1476,
      "##111": 1477,
      "##一": 1478,
      "▁tell": 1479,
      "##:38": 1480,
      "▁come": 1481,
      "▁11:16": 1482,
      "▁sk": 1483,
      "▁highly": 1484,
      "▁ang": 1485,
      "##--": 1486,
      "##it": 1487,
      "##ken": 1488,
      "##:20": 1489,
      "▁sp": 1490,
      "##13.86": 1491,
      "▁european": 1492,
      ")": 1493,
      "▁roman": 1494,
      "▁ban": 1495,
      "▁so": 1496,
      "##aining": 1497,
      "##)": 1498,
      "▁gas": 1499,
      "▁le": 1500,
      "ς": 1501,
      "##ord": 1502,
      "▁sub": 1503,
      "##ency": 1504,
      "##ace": 1505,
      "▁07:24": 1506,
      "▁apar": 1507,
      "▁l": 1508,
      "▁economic": 1509,
      "▁long": 1510,
      "▁trale": 1511,
      "▁202.456": 1512,
      "##空": 1513,
      "##ape": 1514,
      "▁plac": 1515,
      "▁will": 1516,
      "▁1832": 1517,
      "▁1.25": 1518,
      "▁er": 1519,
      "▁12:3": 1520,
      "▁y": 1521,
      "▁38": 1522,
      "▁bro": 1523,
      "##ature": 1524,
      "▁tra": 1525,
      "##-)": 1526,
      "##urn": 1527,
      "▁1660": 1528,
      "▁sad": 1529,
      "▁data": 1530,
      "▁activ": 1531,
      "##ily": 1532,
      "##84": 1533,
      "▁would": 1534,
      "▁av": 1535,
      "▁0590": 1536,
      "##ret": 1537,
      "▁en": 1538,
      "▁08/16/2000": 1539,
      "##erg": 1540,
      "##vel": 1541,
      "##50": 1542,
      "▁703": 1543,
      "▁pat": 1544,
      "▁tralee": 1545,
      "–": 1546,
      "5": 1547,
      "▁7484": 1548,
      "▁50": 1549,
      "▁count": 1550,
      "##ami": 1551,
      "▁hum": 1552,
      "▁in": 1553,
      "▁567.77": 1554,
      "##ley": 1555,
      "▁190": 1556,
      "▁11-20-": 1557,
      "▁comput": 1558,
      "##ared": 1559,
      "▁forty-one": 1560,
      "▁nice": 1561,
      "▁170": 1562,
      "▁hurt": 1563,
      "▁social": 1564,
      "##ill": 1565,
      "##fe": 1566,
      "▁leave": 1567,
      "▁already": 1568,
      "▁mov": 1569,
      "##54-": 1570,
      "▁1039": 1571,
      "▁energy": 1572,
      "##ure": 1573,
      "▁fi": 1574,
      "▁cult": 1575,
      "##119": 1576,
      "§": 1577,
      "▁act": 1578,
      "▁trip": 1579,
      "▁invest": 1580,
      "▁53": 1581,
      "##----": 1582,
      "▁rel": 1583,
      "##8/2001": 1584,
      "##ana": 1585,
      "##ration": 1586,
      "##128": 1587,
      "ي": 1588,
      "▁twenty-six": 1589,
      "##book": 1590,
      "▁anim": 1591,
      "##row": 1592,
      "▁2021": 1593,
      "##idence": 1594,
      "##fully": 1595,
      "▁sometimes": 1596,
      "▁dc": 1597,
      "▁de": 1598,
      "##ok": 1599,
      "##ru": 1600,
      "▁is": 1601,
      "▁profess": 1602,
      "▁530": 1603,
      "▁bill": 1604,
      "▁off": 1605,
      "##iation": 1606,
      "▁beh": 1607,
      "▁times": 1608,
      "##selves": 1609,
      "▁281-435-0295": 1610,
      "▁conc": 1611,
      "▁lim": 1612,
      "▁somebody": 1613,
      "▁known": 1614,
      "▁bar": 1615,
      "▁transport": 1616,
      "▁fa": 1617,
      "☎": 1618,
      "▁1/4": 1619,
      "▁defin": 1620,
      "##000": 1621,
      "▁fin": 1622,
      "▁auth": 1623,
      "▁713-654-": 1624,
      "▁o'clock": 1625,
      "▁189": 1626,
      "##/2004": 1627,
      "▁gl": 1628,
      "▁ninety-nine": 1629,
      "▁1145": 1630,
      "▁russ": 1631,
      "##/2": 1632,
      "▁f": 1633,
      "##c": 1634,
      "▁05": 1635,
      "▁sch": 1636,
      "##/17/99": 1637,
      "##ama": 1638,
      "##velopment": 1639,
      "▁1600": 1640,
      "▁hers": 1641,
      "▁1955": 1642,
      "##www": 1643,
      "▁100,000": 1644,
      "▁281": 1645,
      "▁fro": 1646,
      "▁1848": 1647,
      "▁1593": 1648,
      "##ove": 1649,
      "▁03/21/2001": 1650,
      "σ": 1651,
      "##5": 1652,
      "##ω": 1653,
      "▁620-": 1654,
      "▁969": 1655,
      "##-696": 1656,
      "##ries": 1657,
      "##ime": 1658,
      "##noon": 1659,
      "##ι": 1660,
      "##haps": 1661,
      "▁iran": 1662,
      "▁belie": 1663,
      "▁-": 1664,
      "ι": 1665,
      "▁restaur": 1666,
      "z": 1667,
      "##ide": 1668,
      "##pl": 1669,
      "¢": 1670,
      "▁because": 1671,
      "▁feet": 1672,
      "##uation": 1673,
      "##k": 1674,
      "▁1.3": 1675,
      "##adelp": 1676,
      "▁yet": 1677,
      "▁1850": 1678,
      "▁ch": 1679,
      "▁room": 1680,
      "▁mr": 1681,
      "▁believe": 1682,
      "▁another": 1683,
      "##72": 1684,
      "▁place": 1685,
      "##ush": 1686,
      "▁washington": 1687,
      "▁1/8": 1688,
      "▁345-3436": 1689,
      "▁yourselves": 1690,
      "##.16": 1691,
      "##ects": 1692,
      "▁230": 1693,
      "▁281-": 1694,
      "▁vs.": 1695,
      "▁ann": 1696,
      "▁sty": 1697,
      "##itt": 1698,
      "##w": 1699,
      "##ri": 1700,
      "谿": 1701,
      "##,950": 1702,
      "b": 1703,
      "▁rev": 1704,
      "▁car": 1705,
      "▁wan": 1706,
      "▁okay": 1707,
      "▁nat": 1708,
      "##ften": 1709,
      "▁alright": 1710,
      "▁numerous": 1711,
      "▁buy": 1712,
      "▁cup": 1713,
      "##ck": 1714,
      "▁2006": 1715,
      "##f": 1716,
      "▁1245": 1717,
      "▁oc": 1718,
      "##oose": 1719,
      "▁pretty": 1720,
      "▁used": 1721,
      "##ber": 1722,
      "▁life": 1723,
      "▁light": 1724,
      "▁dr": 1725,
      "▁reason": 1726,
      "▁certain": 1727,
      "##435-": 1728,
      "▁2009": 1729,
      "##º": 1730,
      "▁him": 1731,
      "##奈": 1732,
      "▁found": 1733,
      "##ive": 1734,
      "▁give": 1735,
      "##ative": 1736,
      "▁630": 1737,
      "▁366": 1738,
      "▁06/01/2001": 1739,
      "▁sh": 1740,
      "##pr": 1741,
      "▁take": 1742,
      "—": 1743,
      "▁link": 1744,
      "##asing": 1745,
      "##ad": 1746,
      "▁ac": 1747,
      "▁425-415-": 1748,
      "▁bus": 1749,
      "▁dis": 1750,
      "▁899": 1751,
      "ω": 1752,
      "##4/2000": 1753,
      "##ow": 1754,
      "▁80,000": 1755,
      "▁top": 1756,
      "▁.": 1757,
      "▁hop": 1758,
      "▁forth": 1759,
      "##ivers": 1760,
      "##arch": 1761,
      "▁behind": 1762,
      "##91": 1763,
      "▁notwithstanding": 1764,
      "##com": 1765,
      "▁400": 1766,
      "▁77": 1767,
      "▁might": 1768,
      "▁ra": 1769,
      "▁agre": 1770,
      "▁peace": 1771,
      "##ically": 1772,
      "▁74419": 1773,
      "ح": 1774,
      "▁08:30": 1775,
      "▁1604": 1776,
      "▁young": 1777,
      "▁300": 1778,
      "▁hope": 1779,
      "▁2004": 1780,
      "▁such": 1781,
      "##sid": 1782,
      "▁happened": 1783,
      "##sel": 1784,
      "##ist": 1785,
      "▁whatever": 1786,
      "##man": 1787,
      "##/4": 1788,
      "▁3:30": 1789,
      "##town": 1790,
      "▁10/26/2000": 1791,
      "▁seen": 1792,
      "▁1989": 1793,
      "▁5.3": 1794,
      "▁7:00": 1795,
      "##.": 1796,
      "##eral": 1797,
      "▁world": 1798,
      "▁upon": 1799,
      "▁2,500": 1800,
      "##ving": 1801,
      "##7.77": 1802,
      "▁03:3": 1803,
      "▁800.713.8600": 1804,
      "▁understand": 1805,
      "##:37": 1806,
      "##ally": 1807,
      "▁343": 1808,
      "▁sett": 1809,
      "▁ham": 1810,
      "##rect": 1811,
      "##ite": 1812,
      "##esday": 1813,
      "▁376": 1814,
      "▁eng": 1815,
      "##ommend": 1816,
      "▁guy": 1817,
      "▁din": 1818,
      "##und": 1819,
      "▁pen": 1820,
      "▁1859": 1821,
      "▁find": 1822,
      "▁china": 1823,
      "▁62": 1824,
      "▁disc": 1825,
      "▁tax": 1826,
      "▁among": 1827,
      "▁told": 1828,
      "##ondon": 1829,
      "##oice": 1830,
      "##ists": 1831,
      "▁prof": 1832,
      "▁finish": 1833,
      "▁regard": 1834,
      "▁lear": 1835,
      "##is": 1836,
      "##--------": 1837,
      "▁115": 1838,
      "▁why": 1839,
      "▁add": 1840,
      "##as": 1841,
      "##inn": 1842,
      "##77": 1843,
      "##ere": 1844,
      "##airs": 1845,
      "##xce": 1846,
      "▁san": 1847,
      "静": 1848,
      "w": 1849,
      "##ters": 1850,
      "▁days": 1851,
      "##tc": 1852,
      "▁airline": 1853,
      "ص": 1854,
      "▁1.75": 1855,
      "##v": 1856,
      "和": 1857,
      "##20": 1858,
      "▁struct": 1859,
      "##-642": 1860,
      "▁evening": 1861,
      "▁dan": 1862,
      "##,000,000,000": 1863,
      "##95": 1864,
      "▁tho": 1865,
      "澹": 1866,
      "▁repl": 1867,
      "▁doctor": 1868,
      "▁dur": 1869,
      "##:15": 1870,
      "▁time": 1871,
      "▁1954": 1872,
      "▁8043": 1873,
      "##ms": 1874,
      "##/16": 1875,
      "▁cold": 1876,
      "▁08/15/2000": 1877,
      "##0295": 1878,
      "▁1880": 1879,
      "▁shakes": 1880,
      "▁1.5": 1881,
      "▁esp": 1882,
      "▁5000": 1883,
      "▁iii": 1884,
      "▁afternoon": 1885,
      "▁ha": 1886,
      "▁working": 1887,
      "##6021": 1888,
      "▁cap": 1889,
      "##gan": 1890,
      "##21": 1891,
      "##.916.718": 1892,
      "▁13011": 1893,
      "▁59": 1894,
      "▁particip": 1895,
      "##和": 1896,
      "▁taking": 1897,
      "▁vis": 1898,
      "▁arg": 1899,
      "▁3.": 1900,
      "##ool": 1901,
      "▁281-518": 1902,
      "▁2.7": 1903,
      "▁outs": 1904,
      "##ن": 1905,
      "▁earli": 1906,
      "▁2014": 1907,
      "##29": 1908,
      "▁1925": 1909,
      "▁k": 1910,
      "▁further": 1911,
      "##:3": 1912,
      "▁63": 1913,
      "▁4,": 1914,
      "##ians": 1915,
      "▁713": 1916,
      "▁applic": 1917,
      "##aking": 1918,
      "▁fill": 1919,
      "▁fur": 1920,
      "▁1611": 1921,
      "##:32": 1922,
      "##ork": 1923,
      "##aur": 1924,
      "▁713-654-128": 1925,
      "▁163": 1926,
      "▁51": 1927,
      "▁arri": 1928,
      "[PAD]": 1929,
      "##ution": 1930,
      "##onto": 1931,
      "▁713-853-": 1932,
      "▁ed": 1933,
      "▁1974": 1934,
      "##ston": 1935,
      "##@enron": 1936,
      "##ick": 1937,
      "▁water": 1938,
      "▁meas": 1939,
      "▁access": 1940,
      "##ated": 1941,
      "▁doggie": 1942,
      "##go": 1943,
      "▁pe": 1944,
      "▁pl": 1945,
      "c": 1946,
      "▁2:00": 1947,
      "##-9004": 1948,
      "▁1840": 1949,
      "▁need": 1950,
      "▁860": 1951,
      "▁half": 1952,
      "▁2.00": 1953,
      "▁713/853": 1954,
      "▁start": 1955,
      "▁seem": 1956,
      "▁1900": 1957,
      "▁44,000": 1958,
      "▁knew": 1959,
      "▁ours": 1960,
      "##ited": 1961,
      "▁whi": 1962,
      "▁1000": 1963,
      "▁9:30": 1964,
      "▁accept": 1965,
      "▁think": 1966,
      "▁10:45": 1967,
      "▁throw": 1968,
      "##23": 1969,
      "▁does": 1970,
      "##89": 1971,
      "##d": 1972,
      "##ue": 1973,
      "▁hear": 1974,
      "▁research": 1975,
      "##rael": 1976,
      "▁thirty": 1977,
      "▁fore": 1978,
      "##38": 1979,
      "▁!!": 1980,
      "▁fun": 1981,
      "▁2008": 1982,
      "##ization": 1983,
      "▁rep": 1984,
      "▁aboard": 1985,
      "▁58": 1986,
      "▁soon": 1987,
      "##ρ": 1988,
      "▁80435": 1989,
      "##58": 1990,
      "▁these": 1991,
      "###": 1992,
      "▁saw": 1993,
      "##????????": 1994,
      "##'": 1995,
      "▁154": 1996,
      "##-3": 1997,
      "##ange": 1998,
      "##ta": 1999,
      "##60": 2000,
      "##>": 2001,
      "▁agreement": 2002,
      "##:07": 2003,
      "▁600": 2004,
      "▁foc": 2005,
      "##3": 2006,
      "##图": 2007,
      "▁child": 2008,
      "##ole": 2009,
      "▁res": 2010,
      "##4/2001": 2011,
      "▁clim": 2012,
      "▁amount": 2013,
      "▁commun": 2014,
      "##’t": 2015,
      "##ould": 2016,
      "##37": 2017,
      "▁rese": 2018,
      "##45": 2019,
      "葉": 2020,
      "▁156": 2021,
      "▁system": 2022,
      "▁1560": 2023,
      "##远": 2024,
      "##津": 2025,
      "▁1991": 2026,
      "▁54": 2027,
      "▁fo": 2028,
      "▁5/18": 2029,
      "▁.3": 2030,
      "##029": 2031,
      "▁app": 2032,
      ".": 2033,
      "##par": 2034,
      "##ob": 2035,
      "▁americ": 2036,
      "▁7": 2037,
      "▁201": 2038,
      "##.10": 2039,
      "▁gu": 2040,
      "0": 2041,
      "▁90": 2042,
      "##0010": 2043,
      "▁lead": 2044,
      "▁less": 2045,
      "##46-3393": 2046,
      "▁mo": 2047,
      "##0365": 2048,
      "##edie": 2049,
      "##u": 2050,
      "▁c": 2051,
      "|": 2052,
      "##pp": 2053,
      "▁1799": 2054,
      "▁require": 2055,
      "▁tast": 2056,
      "▁2.9": 2057,
      "▁fifty": 2058,
      "▁cleveland": 2059,
      "▁uhh": 2060,
      "▁268": 2061,
      "##-79": 2062,
      "▁when": 2063,
      "▁''": 2064,
      "▁tec": 2065,
      "##iew": 2066,
      "##gress": 2067,
      "##ff": 2068,
      "##oug": 2069,
      "~": 2070,
      "▁yes": 2071,
      "空": 2072,
      "▁build": 2073,
      "▁pict": 2074,
      "▁even": 2075,
      "▁table": 2076,
      "▁195": 2077,
      "▁69": 2078,
      "▁h-0": 2079,
      "##cl": 2080,
      "##ince": 2081,
      "樋": 2082,
      "▁origin": 2083,
      "▁pittsburgh": 2084,
      "##so": 2085,
      "▁2013": 2086,
      "▁dallas": 2087,
      "##.123": 2088,
      "##ried": 2089,
      "▁everyone": 2090,
      "▁push": 2091,
      "##ul": 2092,
      "▁1564": 2093,
      "ن": 2094,
      "##.782": 2095,
      "l": 2096,
      "▁friend": 2097,
      "▁par": 2098,
      "##/8/00": 2099,
      "▁phone": 2100,
      "▁across": 2101,
      "##-9": 2102,
      "▁cond": 2103,
      "##3736": 2104,
      "▁yellow": 2105,
      "##ound": 2106,
      "▁good": 2107,
      "▁bre": 2108,
      "▁1783": 2109,
      "▁longer": 2110,
      "▁phot": 2111,
      "##per": 2112,
      "▁fam": 2113,
      "##83": 2114,
      "##onom": 2115,
      "▁nonstop": 2116,
      "▁oak": 2117,
      "▁99": 2118,
      "▁wil": 2119,
      "##ح": 2120,
      "▁five": 2121,
      "##ought": 2122,
      "▁lost": 2123,
      "▁process": 2124,
      "▁rol": 2125,
      "##υ": 2126,
      "▁03:00": 2127,
      "▁hand": 2128,
      "##ament": 2129,
      "▁leg": 2130,
      "▁problems": 2131,
      "##atch": 2132,
      "▁416-865-370": 2133,
      "▁delta": 2134,
      "##raph": 2135,
      "▁refer": 2136,
      "##q": 2137,
      "▁5/1": 2138,
      "▁work": 2139,
      "▁sal": 2140,
      "▁suff": 2141,
      "▁member": 2142,
      "##ah": 2143,
      "▁states": 2144,
      "▁direct": 2145,
      "##子": 2146,
      "▁impro": 2147,
      "▁cal": 2148,
      "##ze": 2149,
      "▁11:35": 2150,
      "▁thanks": 2151,
      "▁mar": 2152,
      "▁m": 2153,
      "##ress": 2154,
      "##rop": 2155,
      "▁8.3": 2156,
      "▁763736": 2157,
      "▁let": 2158,
      "▁529999": 2159,
      "‘": 2160,
      "▁new": 2161,
      "▁char": 2162,
      "▁110": 2163,
      "##orrow": 2164,
      "▁’": 2165,
      "##osed": 2166,
      "▁colle": 2167,
      "▁without": 2168,
      "▁mem": 2169,
      "▁713-79": 2170,
      "▁maj": 2171,
      "##iety": 2172,
      "▁10/23/2000": 2173,
      "##ost": 2174,
      "##.7": 2175,
      "▁won": 2176,
      "▁2012": 2177,
      "▁person": 2178,
      "▁us": 2179,
      "▁exp": 2180,
      "▁seventeen": 2181,
      "##”": 2182,
      "##over": 2183,
      "▁indianapolis": 2184,
      "▁with": 2185,
      "▁d'": 2186,
      "##§": 2187,
      "▁above": 2188,
      "▁350": 2189,
      "α": 2190,
      "▁10": 2191,
      "##otte": 2192,
      "▁better": 2193,
      "▁bur": 2194,
      "▁milwau": 2195,
      "½": 2196,
      "▁himself": 2197,
      "▁eyes": 2198,
      "▁33": 2199,
      "##neath": 2200,
      "▁1940": 2201,
      "▁345-9945": 2202,
      "##ation": 2203,
      "##ays": 2204,
      "▁bear": 2205,
      "▁summ": 2206,
      "▁1892": 2207,
      "▁within": 2208,
      "▁pet": 2209,
      "▁whe": 2210,
      "▁30,000": 2211,
      "##ans": 2212,
      "▁underneath": 2213,
      "##-10": 2214,
      "▁langu": 2215,
      "▁97": 2216,
      "▁takes": 2217,
      "▁entire": 2218,
      "▁mouth": 2219,
      "##ς": 2220,
      "##iter": 2221,
      "##:5": 2222,
      "▁street": 2223,
      "▁460": 2224,
      "▁sm": 2225,
      "▁410": 2226,
      "▁lou": 2227,
      "▁2011": 2228,
      "##ls": 2229,
      "▁mod": 2230,
      "##ib": 2231,
      "▁/": 2232,
      "▁sto": 2233,
      "▁.doc": 2234,
      "▁aw": 2235,
      "▁la": 2236,
      "▁159": 2237,
      "##/11/2004": 2238,
      "##tsbur": 2239,
      "▁ser": 2240,
      "▁tw": 2241,
      "##7/2001": 2242,
      "▁woud": 2243,
      "▁1635": 2244,
      "▁1-800-991-9019": 2245,
      "##32": 2246,
      "##ell": 2247,
      "▁–": 2248,
      "▁animals": 2249,
      "▁38,000": 2250,
      "▁school": 2251,
      "▁cle": 2252,
      "▁appro": 2253,
      "▁milk": 2254,
      "##ition": 2255,
      "▁interest": 2256,
      "▁76": 2257,
      "▁geor": 2258,
      "##self": 2259,
      "##ear": 2260,
      "▁+45": 2261,
      "▁10:46": 2262,
      "▁140": 2263,
      "▁second": 2264,
      "##cross": 2265,
      "##stand": 2266,
      "##ra": 2267,
      "▁5.8": 2268,
      "•": 2269,
      "▁05908549": 2270,
      "##ife": 2271,
      "▁fe": 2272,
      "▁220": 2273,
      "▁worth": 2274,
      "▁till": 2275,
      "##518": 2276,
      "##atic": 2277,
      "=": 2278,
      "▁sixteen": 2279,
      "▁6.2.1": 2280,
      "▁11/0": 2281,
      "▁345-343": 2282,
      "▁salt": 2283,
      "▁baltimore": 2284,
      "▁egg": 2285,
      "▁via": 2286,
      "##rem": 2287,
      "##,500": 2288,
      "▁1918": 2289,
      "▁420": 2290,
      "##ory": 2291,
      "▁sit": 2292,
      "▁44": 2293,
      "##ults": 2294,
      "▁5.6": 2295,
      "…": 2296,
      "##/00": 2297,
      "▁1849": 2298,
      "▁deter": 2299,
      "##n": 2300,
      "▁1584": 2301,
      "▁op": 2302,
      "##like": 2303,
      "▁1988": 2304,
      "##ven": 2305,
      "##-0": 2306,
      "▁twenty-": 2307,
      "▁ad": 2308,
      "▁three": 2309,
      "▁415": 2310,
      "##utions": 2311,
      "##-23": 2312,
      "▁68": 2313,
      "##ern": 2314,
      "##zac": 2315,
      "▁univers": 2316,
      "##ead": 2317,
      "▁art": 2318,
      "▁perf": 2319,
      "##/0": 2320,
      "##ii": 2321,
      "▁perhaps": 2322,
      "▁680": 2323,
      "▁women": 2324,
      "##:24": 2325,
      "▁900": 2326,
      "##,000,000": 2327,
      "##iding": 2328,
      "▁request": 2329,
      "▁4": 2330,
      "##ult": 2331,
      "##o": 2332,
      "##ism": 2333,
      "##imes": 2334,
      "▁2003": 2335,
      "▁347": 2336,
      "▁pret": 2337,
      "▁q": 2338,
      "##ero": 2339,
      "▁fre": 2340,
      "##27": 2341,
      "▁1300": 2342,
      "▁strong": 2343,
      "▁2.0": 2344,
      "▁mind": 2345,
      "##819": 2346,
      "▁united": 2347,
      "##attle": 2348,
      "▁sor": 2349,
      "▁ir": 2350,
      "▁04/30/2001": 2351,
      "▁dem": 2352,
      "▁27": 2353,
      "▁&amp;": 2354,
      "▁2,": 2355,
      "▁together": 2356,
      "▁1774": 2357,
      "!": 2358,
      "奈": 2359,
      "▁pr": 2360,
      "2": 2361,
      "▁she": 2362,
      "▁3.1": 2363,
      "▁1962": 2364,
      "▁-----------------------------------------------------------------": 2365,
      "▁group": 2366,
      "##@enron_de": 2367,
      "▁visit": 2368,
      "▁sixty": 2369,
      "▁’s": 2370,
      "##ided": 2371,
      "##!!": 2372,
      "▁687": 2373,
      "##36": 2374,
      "▁169": 2375,
      "▁0": 2376,
      "▁102": 2377,
      "##one": 2378,
      "##ه": 2379,
      "##he": 2380,
      "##aken": 2381,
      "▁40": 2382,
      "▁idea": 2383,
      "▁cer": 2384,
      "##work": 2385,
      "##ense": 2386,
      "▁louis": 2387,
      "##ograph": 2388,
      "▁dom": 2389,
      "▁fing": 2390,
      "##ds": 2391,
      "##craft": 2392,
      "▁!!!!!!!!!!!": 2393,
      "##aim": 2394,
      "##ands": 2395,
      "▁men": 2396,
      "▁pos": 2397,
      "▁'ve": 2398,
      "##********************************": 2399,
      "▁646-84": 2400,
      "▁becuse": 2401,
      "▁doo": 2402,
      "##.8317": 2403,
      "##thing": 2404,
      "▁acc": 2405,
      "▁sha": 2406,
      "▁veg": 2407,
      "▁con": 2408,
      "▁87": 2409,
      "▁com": 2410,
      "▁~": 2411,
      "##ever": 2412,
      "▁full": 2413,
      "##79": 2414,
      "▁orig": 2415,
      "▁ninety": 2416,
      "▁…": 2417,
      "##9": 2418,
      "##a": 2419,
      "▁bag": 2420,
      "▁2001": 2421,
      "▁1835": 2422,
      "▁412": 2423,
      "▁teach": 2424,
      "▁use": 2425,
      "▁depart": 2426,
      "##(": 2427,
      "▁dose": 2428,
      "▁11": 2429,
      "##uce": 2430,
      "\\": 2431,
      "▁amongst": 2432,
      "▁gets": 2433,
      "▁>>": 2434,
      "▁american": 2435,
      "##ention": 2436,
      "##where": 2437,
      "▁1987": 2438,
      "'": 2439,
      "▁fell": 2440,
      "▁prop": 2441,
      "##/08": 2442,
      "##ats": 2443,
      "##ix": 2444,
      "▁:(": 2445,
      "▁838": 2446,
      "▁answ": 2447,
      "▁73": 2448,
      "##------": 2449,
      "▁nor": 2450,
      "##al": 2451,
      "##55": 2452,
      "##eap": 2453,
      "▁move": 2454,
      "##.00": 2455,
      "▁330": 2456,
      "##an": 2457,
      "##ard": 2458,
      "▁jun": 2459,
      "▁1932": 2460,
      "▁be": 2461,
      "▁much": 2462,
      "▁later": 2463,
      "##amp": 2464,
      "▁themselves": 2465,
      "##ho": 2466,
      "##reat": 2467,
      "##low": 2468,
      "##iz": 2469,
      "▁14": 2470,
      "▁john": 2471,
      "##itch": 2472,
      "##ect": 2473,
      "▁10:25": 2474,
      "##.95": 2475,
      "##-468-3": 2476,
      "##ood": 2477,
      "▁orland": 2478,
      "#": 2479,
      "▁fish": 2480,
      "▁=": 2481,
      "ˈ": 2482,
      "##les": 2483,
      "▁cut": 2484,
      "▁anything": 2485,
      "##ger": 2486,
      "▁sc": 2487,
      "▁society": 2488,
      ":": 2489,
      "##ning": 2490,
      "▁airlines": 2491,
      "▁£": 2492,
      "##ol": 2493,
      "##:35": 2494,
      "▁francisco": 2495,
      "##outh": 2496,
      "▁america": 2497,
      "▁war": 2498,
      "##================": 2499,
      "##oll": 2500,
      "▁thru": 2501,
      "▁1990": 2502,
      "▁1.00": 2503,
      "##get": 2504,
      "▁their": 2505,
      "▁1805": 2506,
      "▁except": 2507,
      "##ations": 2508,
      "##um": 2509,
      "##z": 2510,
      "▁sorry": 2511,
      "▁107": 2512,
      "▁big": 2513,
      "##/97": 2514,
      "ɑ": 2515,
      "##fore": 2516,
      "▁camp": 2517,
      "##ris": 2518,
      "▁2:25": 2519,
      "▁08:50": 2520,
      "▁oneself": 2521,
      "▁04/2": 2522,
      "▁500": 2523,
      "##—": 2524,
      "▁1829": 2525,
      "##en": 2526,
      "▁fares": 2527,
      "▁25": 2528,
      "##:21": 2529,
      "##++": 2530,
      "##ate": 2531,
      "##red": 2532,
      "##:1": 2533,
      "▁??": 2534,
      "##樋": 2535,
      "▁1/2": 2536,
      "▁bo": 2537,
      "▁extrem": 2538,
      "▁val": 2539,
      "▁thir": 2540,
      "▁chang": 2541,
      "▁*": 2542,
      "##ee": 2543,
      "▁looks": 2544,
      "▁some": 2545,
      "▁42,000": 2546,
      "▁rather": 2547,
      "▁astride": 2548,
      "▁un": 2549,
      "##ne": 2550,
      "##300": 2551,
      "▁1847": 2552,
      "##****************": 2553,
      "▁19": 2554,
      "##inner": 2555,
      "▁66": 2556,
      "▁1947": 2557,
      "##vers": 2558,
      "##ruct": 2559,
      "▁whenever": 2560,
      "▁product": 2561,
      "▁sept": 2562,
      "▁hou": 2563,
      "▁1699": 2564,
      "]": 2565,
      "##–": 2566,
      "##lo": 2567,
      "▁island": 2568,
      "▁var": 2569,
      "▁usually": 2570,
      "▁success": 2571,
      "▁1580": 2572,
      "##ility": 2573,
      "▁reg": 2574,
      "▁eat": 2575,
      "▁giv": 2576,
      "▁35": 2577,
      "▁left": 2578,
      "▁143": 2579,
      "▁east": 2580,
      "##司": 2581,
      "▁kids": 2582,
      "▁exist": 2583,
      "▁detail": 2584,
      "▁date": 2585,
      "▁hur": 2586,
      "##449": 2587,
      "▁3,202.61": 2588,
      "##sl": 2589,
      "##ains": 2590,
      "##iness": 2591,
      "##/15": 2592,
      "##:/": 2593,
      "##alf": 2594,
      "##==": 2595,
      "##ess": 2596,
      "▁9": 2597,
      "▁goes": 2598,
      "▁send": 2599,
      "▁80": 2600,
      "▁11,000": 2601,
      "▁meeting": 2602,
      "▁1939": 2603,
      "▁rich": 2604,
      "▁put": 2605,
      "▁too": 2606,
      "▁20:00": 2607,
      "##ny": 2608,
      "▁want": 2609,
      "##__": 2610,
      "##ent": 2611,
      "▁01/12/2001": 2612,
      "▁coming": 2613,
      "##tw": 2614,
      "▁**": 2615,
      "▁1696": 2616,
      "▁copy": 2617,
      "▁bul": 2618,
      "▁by": 2619,
      "▁1110": 2620,
      "▁0000108806": 2621,
      "▁mm": 2622,
      "##ʊ": 2623,
      "▁11/7": 2624,
      "##/31": 2625,
      "▁08:00": 2626,
      "▁813": 2627,
      "##ending": 2628,
      "▁33,000": 2629,
      "▁same": 2630,
      "##two": 2631,
      "##omm": 2632,
      "▁doll": 2633,
      "▁travel": 2634,
      "##874": 2635,
      "##:13": 2636,
      "▁thank": 2637,
      "▁thy": 2638,
      "▁somet": 2639,
      "##ational": 2640,
      "##ook": 2641,
      "##96": 2642,
      "▁al.": 2643,
      "##een": 2644,
      "▁o'": 2645,
      "▁untill": 2646,
      "▁wrong": 2647,
      "▁575": 2648,
      "▁6.2": 2649,
      "▁1602": 2650,
      "▁court": 2651,
      "▁ar": 2652,
      "##lish": 2653,
      "v": 2654,
      "η": 2655,
      "ʻ": 2656,
      "▁services": 2657,
      "▁scient": 2658,
      "▁instead": 2659,
      "▁'d": 2660,
      "##-59": 2661,
      "▁rights": 2662,
      "##°": 2663,
      "##/": 2664,
      "د": 2665,
      "##:30": 2666,
      "▁dest": 2667,
      "##ame": 2668,
      "▁207": 2669,
      "▁’re": 2670,
      "▁fight": 2671,
      "##ي": 2672,
      "▁that": 2673,
      "##ped": 2674,
      "##ert": 2675,
      "▁also": 2676,
      "##ies": 2677,
      "▁away": 2678,
      "▁history": 2679,
      "▁author": 2680,
      "##24": 2681,
      "▁i": 2682,
      "##hn": 2683,
      "##ement": 2684,
      "▁man": 2685,
      "▁<": 2686,
      "##:25": 2687,
      "▁1779": 2688,
      "夏": 2689,
      "▁enron": 2690,
      "▁70.85": 2691,
      "▁adam": 2692,
      "▁miami": 2693,
      "▁1.1": 2694,
      "##anger": 2695,
      "▁prob": 2696,
      "▁get": 2697,
      "▁obs": 2698,
      "▁quest": 2699,
      "▁las": 2700,
      "##ission": 2701,
      "▁shall": 2702,
      "##dd": 2703,
      "▁docum": 2704,
      "▁continental": 2705,
      "##365": 2706,
      "##itting": 2707,
      "▁3": 2708,
      "▁west": 2709,
      "\"": 2710,
      "##uch": 2711,
      "▁’ll": 2712,
      "▁1790": 2713,
      "##ases": 2714,
      "▁other": 2715,
      "▁going": 2716,
      "£": 2717,
      "▁pract": 2718,
      "▁1777": 2719,
      "##/01": 2720,
      "▁mummy": 2721,
      "▁24,000": 2722,
      "▁thing": 2723,
      "##tain": 2724,
      "▁vide": 2725,
      "▁they": 2726,
      "’": 2727,
      "##icult": 2728,
      "▁ear": 2729,
      "▁une": 2730,
      "▁den": 2731,
      "##ep": 2732,
      "▁cost": 2733,
      "##88": 2734,
      "##zen": 2735,
      "##93": 2736,
      "##ential": 2737,
      "##ʻ": 2738,
      "▁market": 2739,
      "▁desc": 2740,
      "▁sn": 2741,
      "▁organ": 2742,
      "##ied": 2743,
      "▁father": 2744,
      "##-415-": 2745,
      "▁apr": 2746,
      "▁1819": 2747,
      "##59": 2748,
      "##031": 2749,
      "##ak": 2750,
      "##uth": 2751,
      "▁08/17/2000": 2752,
      "▁succ": 2753,
      "▁2.975": 2754,
      "▁humaine": 2755,
      "▁grand": 2756,
      "▁lar": 2757,
      "▁tomorrow": 2758,
      "▁comm": 2759,
      "▁wish": 2760,
      "##ly": 2761,
      "▁each": 2762,
      "▁into": 2763,
      "##ting": 2764,
      "▁inform": 2765,
      "##au": 2766,
      "▁rul": 2767,
      "▁around": 2768,
      "▁’’": 2769,
      "▁pit": 2770,
      "▁20": 2771,
      "▁ourselves": 2772,
      "##ology": 2773,
      "##:23": 2774,
      "▁forty-": 2775,
      "▁energ": 2776,
      "q": 2777,
      "##/25/2001": 2778,
      "▁505-625": 2779,
      "▁billion": 2780,
      "▁270": 2781,
      "▁4.7": 2782,
      "▁5:00": 2783,
      "▁stre": 2784,
      "▁1981": 2785,
      "▁large": 2786,
      "▁thinking": 2787,
      "▁3724": 2788,
      "▁lot": 2789,
      "▁htt": 2790,
      "▁pho": 2791,
      "##veland": 2792,
      "##h": 2793,
      "▁most": 2794,
      "##ways": 2795,
      "▁fac": 2796,
      "▁blue": 2797,
      "▁3/4": 2798,
      "▁2.15": 2799,
      "##za": 2800,
      "▁899-": 2801,
      "μ": 2802,
      "##ows": 2803,
      "▁mid": 2804,
      "##-5": 2805,
      "##use": 2806,
      "▁her": 2807,
      "▁2010": 2808,
      "##amm": 2809,
      "##ain": 2810,
      "##:16": 2811,
      "##1/2001": 2812,
      "##iddle": 2813,
      "##33": 2814,
      "▁form": 2815,
      "▁using": 2816,
      "##ond": 2817,
      "▁behin": 2818,
      "▁42": 2819,
      "##-7": 2820,
      "##004": 2821,
      "##&": 2822,
      "##ogether": 2823,
      "##443-3": 2824,
      "##por": 2825,
      "▁hours": 2826,
      "▁oh": 2827,
      "##.718": 2828,
      "##rans": 2829,
      "▁cl": 2830,
      "ß": 2831,
      "▁percent": 2832,
      "▁jo": 2833,
      "##ior": 2834,
      "▁111": 2835,
      "▁1952": 2836,
      "##6-8": 2837,
      "##ection": 2838,
      "▁ren": 2839,
      "▁lic": 2840,
      "▁del": 2841,
      "##:46": 2842,
      "##339": 2843,
      "▁bath": 2844,
      "▁south": 2845,
      "▁415.782": 2846,
      "##ct": 2847,
      "##unic": 2848,
      "▁met": 2849,
      "##aps": 2850,
      "##br": 2851,
      "▁current": 2852,
      "▁1965": 2853,
      "▁sour": 2854,
      "##-3989": 2855,
      "▁03/28/2001": 2856,
      "▁415.621.8317": 2857,
      "##|": 2858,
      "▁sugg": 2859,
      "▁748": 2860,
      "▁fact": 2861,
      "▁s’": 2862,
      "▁those": 2863,
      "##:": 2864,
      "▁dere": 2865,
      "▁shakespeare": 2866,
      "▁seems": 2867,
      "▁1200": 2868,
      "▁wi": 2869,
      "##19": 2870,
      "▁979": 2871,
      "▁10/31": 2872,
      "##ir": 2873,
      "##em": 2874,
      "▁sever": 2875,
      "▁offic": 2876,
      "ɛ": 2877,
      "▁ro": 2878,
      "##own": 2879,
      "##isc": 2880,
      "▁got": 2881,
      "▁na": 2882,
      "▁civ": 2883,
      "##aw": 2884,
      "##ute": 2885,
      "▁;": 2886,
      "▁ent": 2887,
      "▁itself": 2888,
      "##rod": 2889,
      "▁1914": 2890,
      "▁lad": 2891,
      "▁notwith": 2892,
      "▁pers": 2893,
      "▁taken": 2894,
      "▁my": 2895,
      "▁said": 2896,
      "##r": 2897,
      "▁fav": 2898,
      "▁1594": 2899,
      "▁downtown": 2900,
      "##0": 2901,
      "▁1700": 2902,
      "▁plan": 2903,
      "▁draw": 2904,
      "▁“": 2905,
      "▁1,6": 2906,
      "▁sw": 2907,
      "▁recommend": 2908,
      "▁favor": 2909,
      "##olog": 2910,
      "▁polit": 2911,
      "##ind": 2912,
      "[": 2913,
      "▁rece": 2914,
      "▁202.456.2461": 2915,
      "▁47,500": 2916,
      "##enix": 2917,
      "▁ground": 2918,
      "▁econom": 2919,
      "##ably": 2920,
      "▁1609": 2921,
      "##:18": 2922,
      "##☎": 2923,
      "▁received": 2924,
      "▁week": 2925,
      "▁05/01/2001": 2926,
      "▁21,000": 2927,
      "▁since": 2928,
      "▁825": 2929,
      "##14": 2930,
      "##-6": 2931,
      "清": 2932,
      "▁both": 2933,
      "##utes": 2934,
      "▁10/2": 2935,
      "▁84": 2936,
      "▁washing": 2937,
      "▁clear": 2938,
      "▁seven": 2939,
      "▁own": 2940,
      "▁2022": 2941,
      "▁nt": 2942,
      "▁happy": 2943,
      "▁woman": 2944,
      "▁mag": 2945,
      "▁p": 2946,
      "▁september": 2947,
      "▁page": 2948,
      "ρ": 2949,
      "▁canad": 2950,
      "##ating": 2951,
      "##iron": 2952,
      "##75": 2953,
      "▁looked": 2954,
      "##air": 2955,
      "▁det": 2956,
      "▁1-800-991-90": 2957,
      "▁thirteen": 2958,
      "▁inc": 2959,
      "##side": 2960,
      "▁no": 2961,
      "##ver": 2962,
      "##ased": 2963,
      "▁development": 2964,
      "▁open": 2965,
      "▁enough": 2966,
      "▁3889": 2967,
      "##.6": 2968,
      "▁else": 2969,
      "▁41": 2970,
      "##ected": 2971,
      "##ab": 2972,
      "##im": 2973,
      "##/1": 2974,
      "##0072": 2975,
      "^": 2976,
      "##lus": 2977,
      "##mm": 2978,
      "▁area": 2979,
      "##琴": 2980,
      "▁`s": 2981,
      "▁nwww": 2982,
      "##-991-90": 2983,
      "▁mil": 2984,
      "▁620-294-": 2985,
      "##€": 2986,
      "##η": 2987,
      "##ience": 2988,
      "▁every": 2989,
      "▁12:1": 2990,
      "▁suggest": 2991,
      "▁·": 2992,
      "##wn": 2993,
      "▁always": 2994,
      "##:50": 2995,
      "▁poss": 2996,
      "▁311": 2997,
      "##oman": 2998,
      "##:19": 2999,
      "▁flo": 3000,
      "##ac": 3001,
      "▁dead": 3002,
      "▁1969": 3003,
      "▁09:01": 3004,
      "##40": 3005,
      "##iver": 3006,
      "▁ter": 3007,
      "##,9": 3008,
      "▁202.456.1": 3009,
      "图": 3010,
      "▁express": 3011,
      "##raft": 3012,
      "##ons": 3013,
      "▁1.": 3014,
      "▁fri": 3015,
      "##87": 3016,
      "▁373": 3017,
      "▁walk": 3018,
      "▁birth": 3019,
      "##@enron_development": 3020,
      "▁kind": 3021,
      "##15": 3022,
      "##清": 3023,
      "▁as": 3024,
      "▁kid": 3025,
      "▁3,500": 3026,
      "▁54,000": 3027,
      "▁1776": 3028,
      "##ually": 3029,
      "##ec": 3030,
      "▁hey": 3031,
      "##sp": 3032,
      "▁02/27/2001": 3033,
      "##-n": 3034,
      "##raw": 3035,
      "##/16/2001": 3036,
      "##.9": 3037,
      "司": 3038,
      "##2": 3039,
      "▁no-6": 3040,
      "▁1701": 3041,
      "▁doing": 3042,
      "▁road": 3043,
      "##rib": 3044,
      "▁05/17/99": 3045,
      "##82": 3046,
      "▁747": 3047,
      "▁417": 3048,
      "▁called": 3049,
      "##ary": 3050,
      "##ank": 3051,
      "▁45": 3052,
      "▁list": 3053,
      "▁living": 3054,
      "▁micro": 3055,
      "##ecess": 3056,
      "▁break": 3057,
      "▁christ": 3058,
      "▁202.456.1111": 3059,
      "##orn": 3060,
      "##lic": 3061,
      "▁2015": 3062,
      "##²": 3063,
      "##ific": 3064,
      "##1082": 3065,
      "▁eas": 3066,
      "##ained": 3067,
      "▁part": 3068,
      "##.8": 3069,
      "▁important": 3070,
      "▁drink": 3071,
      "▁million": 3072,
      "▁1765": 3073,
      "##aster": 3074,
      "▁lay": 3075,
      "▁11:32": 3076,
      "▁720": 3077,
      "▁thirty-five": 3078,
      "▁weeks": 3079,
      "▁fare": 3080,
      "▁charlotte": 3081,
      "▁hors": 3082,
      "▁1307": 3083,
      "▁510-642": 3084,
      "##ental": 3085,
      "▁particular": 3086,
      "##head": 3087,
      "##stop": 3088,
      "##els": 3089,
      "##ages": 3090,
      "▁2.3": 3091,
      "##ames": 3092,
      "▁pol": 3093,
      "▁bec": 3094,
      "▁arriving": 3095,
      "▁someone": 3096,
      "##int": 3097,
      "▁creat": 3098,
      "▁09": 3099,
      "▁special": 3100,
      "##721": 3101,
      "▁#": 3102,
      "[CLS]": 3103,
      "##qu": 3104,
      "▁’ve": 3105,
      "▁name": 3106,
      "▁philadelphia": 3107,
      "##­": 3108,
      "▁cit": 3109,
      "##³": 3110,
      "▁183": 3111,
      "##ators": 3112,
      "▁11/27/2000": 3113,
      "▁gen": 3114,
      "▁keep": 3115,
      "*": 3116,
      "▁%": 3117,
      "##icago": 3118,
      "##thers": 3119,
      "##iting": 3120,
      "▁aft": 3121,
      "▁albeit": 3122,
      "▁seattle": 3123,
      "##ish": 3124,
      "▁what": 3125,
      "##ted": 3126,
      "▁dozen": 3127,
      "▁during": 3128,
      "▁1920": 3129,
      "##ices": 3130,
      "▁1890": 3131,
      "▁teh": 3132,
      "▁appear": 3133,
      "▁98": 3134,
      "▁95": 3135,
      "##iful": 3136,
      "▁212": 3137,
      "▁199": 3138,
      "▁exce": 3139,
      "##i": 3140,
      "▁partic": 3141,
      "▁mic": 3142,
      "▁real": 3143,
      "▁interv": 3144,
      "▁36": 3145,
      "▁kansas": 3146,
      "▁tou": 3147,
      "▁sil": 3148,
      "##olis": 3149,
      "▁level": 3150,
      "##31": 3151,
      "▁466": 3152,
      "##nd": 3153,
      "▁line": 3154,
      "▁park": 3155,
      "▁wants": 3156,
      "▁pi": 3157,
      "▁fund": 3158,
      "##ings": 3159,
      "▁12:30": 3160,
      "▁twel": 3161,
      "▁where": 3162,
      "▁cat": 3163,
      "▁past": 3164,
      "▁3/8/00": 3165,
      "▁alth": 3166,
      "##ant": 3167,
      "▁718": 3168,
      "▁paren": 3169,
      "##cum": 3170,
      "▁orlando": 3171,
      "##/8": 3172,
      "▁jud": 3173,
      "##bit": 3174,
      "▁n'": 3175,
      "▁took": 3176,
      "▁thursday": 3177,
      "▁review": 3178,
      "▁stuff": 3179,
      "##葉": 3180,
      "##/10": 3181,
      "▁stay": 3182,
      "▁israel": 3183,
      "##,600": 3184,
      "##819602175": 3185,
      "%": 3186,
      "▁admin": 3187,
      "##huh": 3188,
      "▁10/20/2000": 3189,
      "ʁ": 3190,
      "▁xiii": 3191,
      "▁24.7": 3192,
      "j": 3193,
      "▁bas": 3194,
      "▁3:00": 3195,
      "▁1966": 3196,
      "##%": 3197,
      "##ed": 3198,
      "##ces": 3199,
      "▁thurs": 3200,
      "▁power": 3201,
      "▁202.45": 3202,
      "▁416-865-3": 3203,
      "▁744": 3204,
      "##@ect": 3205,
      "▁return": 3206,
      "##6": 3207,
      "##uct": 3208,
      "▁cause": 3209,
      "▁pot": 3210,
      "子": 3211,
      "±": 3212,
      "##25": 3213,
      "▁11:00": 3214,
      "##fer": 3215,
      "##ina": 3216,
      "▁296": 3217,
      "##ined": 3218,
      "▁1973": 3219,
      "▁alber": 3220,
      "▁196": 3221,
      "##illion": 3222,
      "##iqu": 3223,
      "▁item": 3224,
      "▁cr": 3225,
      "▁1996": 3226,
      "##ablish": 3227,
      "▁07": 3228,
      "▁calif": 3229,
      "▁beyond": 3230,
      "##der": 3231,
      "##ark": 3232,
      "▁perform": 3233,
      "▁wa": 3234,
      "▁vi": 3235,
      "▁10:56": 3236,
      "▁books": 3237,
      "▁dwww": 3238,
      "##wau": 3239,
      "##..": 3240,
      "▁saturday": 3241,
      "▁people": 3242,
      "▁call": 3243,
      "▁0.00": 3244,
      "▁11:30": 3245,
      "##ability": 3246,
      "##/10/2000": 3247,
      "##ʁ": 3248,
      "▁es": 3249,
      "##/11": 3250,
      "▁resp": 3251,
      "▁maybe": 3252,
      "▁1787": 3253,
      "##!!!!!!!!": 3254,
      "##iously": 3255,
      "##pe": 3256,
      "▁attack": 3257,
      "▁ride": 3258,
      "##lect": 3259,
      "##~": 3260,
      "##anc": 3261,
      "▁general": 3262,
      "▁str": 3263,
      "▁no-": 3264,
      "##.15": 3265,
      "▁2030": 3266,
      "##ross": 3267,
      "▁following": 3268,
      "▁cir": 3269,
      "▁abe": 3270,
      "##,8": 3271,
      "▁dinner": 3272,
      "▁wou": 3273,
      "##unch": 3274,
      "##ree": 3275,
      "▁harry": 3276,
      "##ered": 3277,
      "▁from": 3278,
      "##iate": 3279,
      "▁eu": 3280,
      "▁different": 3281,
      "▁turn": 3282,
      "▁family": 3283,
      "##½": 3284,
      "▁55": 3285,
      "▁01:0": 3286,
      "▁sat": 3287,
      "▁200": 3288,
      "##ural": 3289,
      "##j": 3290,
      "▁les": 3291,
      "##ient": 3292,
      "▁flights": 3293,
      "▁was": 3294,
      "##ula": 3295,
      "##ade": 3296,
      "##ics": 3297,
      "##20-": 3298,
      "▁necess": 3299,
      "##clud": 3300,
      "▁http": 3301,
      "▁fourteen": 3302,
      "×": 3303,
      "▁j": 3304,
      "##iday": 3305,
      "▁1950": 3306,
      "▁yer": 3307,
      "##*": 3308,
      "▁philadelp": 3309,
      "▁059085": 3310,
      "##att": 3311,
      "##sh": 3312,
      "##cond": 3313,
      "##up": 3314,
      "?": 3315,
      "##iod": 3316,
      "##!": 3317,
      "▁tr": 3318,
      "##ˈ": 3319,
      "▁beg": 3320,
      "▁nine": 3321,
      "▁init": 3322,
      "##8": 3323,
      "▁nose": 3324,
      "&": 3325,
      "▁elect": 3326,
      "▁'71": 3327,
      "口": 3328,
      "ʒ": 3329,
      "▁ye": 3330,
      "▁922": 3331,
      "▁1160": 3332,
      "##ص": 3333,
      "▁1115": 3334,
      "▁57": 3335,
      "##eld": 3336,
      "▁stat": 3337,
      "▁05:37": 3338,
      "▁euro": 3339,
      "##t": 3340,
      "▁cont": 3341,
      "##ars": 3342,
      "##.2": 3343,
      "▁death": 3344,
      "##-3393": 3345,
      "##ful": 3346,
      "▁sen": 3347,
      "##ha": 3348,
      "##ity": 3349,
      "▁april": 3350,
      "▁diff": 3351,
      "▁sim": 3352,
      "##4-": 3353,
      "##ves": 3354,
      "##.45": 3355,
      "▁wed": 3356,
      "▁go": 3357,
      "▁ty": 3358,
      "##omet": 3359,
      "##:01": 3360,
      "▁2.6": 3361,
      "▁twenty-two": 3362,
      "▁consider": 3363,
      "▁peop": 3364,
      "##dy": 3365,
      "m": 3366,
      "▁sun": 3367,
      "▁govern": 3368,
      "▁2018": 3369,
      "▁help": 3370,
      "##:45": 3371,
      "▁dey": 3372,
      "▁anal": 3373,
      "##:56": 3374,
      "##ia": 3375,
      "▁1605": 3376,
      "▁sur": 3377,
      "##ion": 3378,
      "▁'re": 3379,
      "▁example": 3380,
      "##----------------": 3381,
      "##________": 3382,
      "▁claim": 3383,
      "▁very": 3384,
      "##yond": 3385,
      "▁04:37": 3386,
      "##ummy": 3387,
      "##lik": 3388,
      "i": 3389,
      "▁300,000": 3390,
      "▁281-435-": 3391,
      "##5/2001": 3392,
      "##ived": 3393,
      "▁try": 3394,
      "▁1985": 3395,
      "▁'": 3396,
      "▁alone": 3397,
      "##velop": 3398,
      "▁bab": 3399,
      "▁1616": 3400,
      "▁amid": 3401,
      "▁1610": 3402,
      "▁franc": 3403,
      "▁id": 3404,
      "▁stop": 3405,
      "##880": 3406,
      "##ium": 3407,
      "▁ple": 3408,
      "##ld": 3409,
      "▁there": 3410,
      "##ether": 3411,
      "##als": 3412,
      "φ": 3413,
      "##ollow": 3414,
      "▁fr": 3415,
      "##aph": 3416,
      "▁1986": 3417,
      "▁trans": 3418,
      "▁seemed": 3419,
      "ο": 3420,
      "▁while": 3421,
      "▁1993": 3422,
      "##itions": 3423,
      "▁b": 3424,
      "##ice": 3425,
      "▁far": 3426,
      "▁1780": 3427,
      "▁through": 3428,
      "▁03:20": 3429,
      "▁]": 3430,
      "▁1984": 3431,
      "▁economy": 3432,
      "▁1589": 3433,
      "▁mon": 3434,
      "##“": 3435,
      "▁hund": 3436,
      "▁1583": 3437,
      "▁01:58": 3438,
      "##د": 3439,
      "##ry": 3440,
      "▁before": 3441,
      "▁160": 3442,
      "##,0": 3443,
      "▁often": 3444,
      "▁space": 3445,
      "##183": 3446,
      "##¢": 3447,
      "▁stoy": 3448,
      "▁814.86": 3449,
      "▁class": 3450,
      "##elt": 3451,
      "▁anyone": 3452,
      "▁http://": 3453,
      "##orm": 3454,
      "▁82": 3455,
      "##/26/2000": 3456,
      "▁xv": 3457,
      "远": 3458,
      "▁852": 3459,
      "▁5": 3460,
      "▁315": 3461,
      "##:02": 3462,
      "▁requ": 3463,
      "##p": 3464,
      "▁oper": 3465,
      "##est": 3466,
      "▁639": 3467,
      "▁proble": 3468,
      "▁love": 3469,
      "##.621": 3470,
      "▁bird": 3471,
      "##ause": 3472,
      "▁awoh": 3473,
      "▁11-20-2000": 3474,
      "▁928": 3475,
      "##rist": 3476,
      "##134": 3477,
      "##enth": 3478,
      "▁doct": 3479,
      "##pt": 3480,
      "▁earliest": 3481,
      "▁sure": 3482,
      "▁field": 3483,
      "▁despite": 3484,
      "▁and": 3485,
      "##ines": 3486,
      "▁save": 3487,
      "##109": 3488,
      "##ical": 3489,
      "▁6": 3490,
      "##$": 3491,
      "##81": 3492,
      "▁supp": 3493,
      "##wh": 3494,
      "##cuz": 3495,
      "▁30": 3496,
      "▁door": 3497,
      "##β": 3498,
      "▁everything": 3499,
      "▁cuz": 3500,
      "▁d": 3501,
      "##ht": 3502,
      "▁250": 3503,
      "▁exc": 3504,
      "▁milit": 3505,
      "##op": 3506,
      "▁mark": 3507,
      "▁game": 3508,
      "▁!!!!!!!": 3509,
      "▁language": 3510,
      "▁speak": 3511,
      "##ti": 3512,
      "▁dkk": 3513,
      "##-8031": 3514,
      "▁remember": 3515,
      "▁89": 3516,
      "▁looking": 3517,
      "##____": 3518,
      "▁1957": 3519,
      "▁zero": 3520,
      "##,5": 3521,
      "##ality": 3522,
      "▁....": 3523,
      "##uge": 3524,
      "▁dall": 3525,
      "▁1647": 3526,
      "▁however": 3527,
      "▁ou": 3528,
      "▁floor": 3529,
      "▁for": 3530,
      "▁2016": 3531,
      "▁cook": 3532,
      "##tr": 3533,
      "##1-90": 3534,
      "##ants": 3535,
      "▁than": 3536,
      "##ison": 3537,
      "##ness": 3538,
      "▁sle": 3539,
      "▁americans": 3540,
      "##ss": 3541,
      "##13": 3542,
      "▁til": 3543,
      "▁houston": 3544,
      "▁21": 3545,
      "##ject": 3546,
      "▁des": 3547,
      "▁super": 3548,
      "▁throughout": 3549,
      "▁whoever": 3550,
      "▁eating": 3551,
      "▁03:48": 3552,
      "▁to": 3553,
      "▁present": 3554,
      "▁944": 3555,
      "▁side": 3556,
      "##or": 3557,
      "▁result": 3558,
      "▁4.9": 3559,
      "##ended": 3560,
      "▁16.3": 3561,
      "▁aircraft": 3562,
      "▁truck": 3563,
      "▁unles": 3564,
      "##ɔ": 3565,
      "▁four": 3566,
      "▁1598": 3567,
      "▁lest": 3568,
      "▁1943": 3569,
      "▁notwithstand": 3570,
      "▁lunch": 3571,
      "##elp": 3572,
      "##ize": 3573,
      "##six": 3574,
      "##ident": 3575,
      "▁incre": 3576,
      "▁100": 3577,
      "▁whole": 3578,
      "▁31": 3579,
      "##port": 3580,
      "##round": 3581,
      "▁hi": 3582,
      "##.com": 3583,
      "▁br": 3584,
      "▁stand": 3585,
      "##uff": 3586,
      "##:05": 3587,
      "▁others": 3588,
      "##301": 3589,
      "##4014": 3590,
      "▁born": 3591,
      "▁issue": 3592,
      "▁11/08/2000": 3593,
      "▁opt": 3594,
      "##-27": 3595,
      "##22": 3596,
      "▁law": 3597,
      "一": 3598,
      "▁ought": 3599,
      "▁ma": 3600,
      "##idd": 3601,
      "##ocr": 3602,
      "▁gener": 3603,
      "▁3.5": 3604,
      "▁laur": 3605,
      "▁which": 3606,
      "##ros": 3607,
      "▁01/26/2001": 3608,
      "▁18,000": 3609,
      "##ional": 3610,
      "▁provide": 3611,
      "▁gre": 3612,
      "▁2007": 3613,
      "▁denver": 3614,
      "▁major": 3615,
      "▁become": 3616,
      "##393": 3617,
      "##\"": 3618,
      "▁ag": 3619,
      "##ately": 3620,
      "▁betw": 3621,
      "##2-6": 3622,
      "##.99": 3623,
      "##nesday": 3624,
      "▁hor": 3625,
      "▁whom": 3626,
      "##/03/2001": 3627,
      "▁?": 3628,
      "▁making": 3629,
      "##-343": 3630,
      "▁18": 3631,
      "▁happen": 3632,
      "##ination": 3633,
      "▁|": 3634,
      "▁allow": 3635,
      "##ister": 3636,
      "##ence": 3637,
      "▁555": 3638,
      "▁bring": 3639,
      "##four": 3640,
      "▁june": 3641,
      "▁security": 3642,
      "▁do": 3643,
      "▁year": 3644,
      "▁hands": 3645,
      "▁1100": 3646,
      "▁1613": 3647,
      "▁6/1": 3648,
      "▁due": 3649,
      "▁1-800": 3650,
      "▁39": 3651,
      "▁either": 3652,
      "▁besides": 3653,
      "##\\": 3654,
      "ه": 3655,
      "##,": 3656,
      "▁bn": 3657,
      "▁difficult": 3658,
      "▁one": 3659,
      "s": 3660,
      "▁ge": 3661,
      "▁york": 3662,
      "▁88": 3663,
      "▁eighty": 3664,
      "▁unto": 3665,
      "▁1912": 3666,
      "##/7": 3667,
      "##tim": 3668,
      "x": 3669,
      "▁_": 3670,
      "▁seventy": 3671,
      "▁indust": 3672,
      "##ling": 3673,
      "▁3.7": 3674,
      "▁phoenix": 3675,
      "##-20-": 3676,
      "▁party": 3677,
      "▁888": 3678,
      "##age": 3679,
      "##ipp": 3680,
      "▁north": 3681,
      "▁unlike": 3682,
      "▁:-)": 3683,
      "▁st.": 3684,
      "▁01/19/2001": 3685,
      "##if": 3686,
      "▁win": 3687,
      "##9/2001": 3688,
      "##53-3": 3689,
      "▁01:39:56": 3690,
      "▁bal": 3691,
      "##ilities": 3692,
      "▁military": 3693,
      "##ma": 3694,
      "▁3,000": 3695,
      "▁chicago": 3696,
      "▁210": 3697,
      "##aq": 3698,
      "æ": 3699,
      "##anta": 3700,
      "##beit": 3701,
      "▁until": 3702,
      "##ely": 3703,
      "##587": 3704,
      "▁425": 3705,
      "▁04/16/2001": 3706,
      "▁minutes": 3707,
      "▁n": 3708,
      "▁effect": 3709,
      "▁med": 3710,
      "▁o": 3711,
      "­": 3712,
      "##umb": 3713,
      "##no": 3714,
      "▁political": 3715,
      "▁none": 3716,
      "##ous": 3717,
      "▁13": 3718,
      "▁1960": 3719,
      "##.86": 3720,
      "##ustom": 3721,
      "▁cam": 3722,
      "▁well": 3723,
      "##acy": 3724,
      "-": 3725,
      "##42": 3726,
      "##1-": 3727,
      "##oh": 3728,
      "▁mer": 3729,
      "▁101": 3730,
      "▁129": 3731,
      "▁!?": 3732,
      "▁hour": 3733,
      "▁”": 3734,
      "▁night": 3735,
      "##57": 3736,
      "##uary": 3737,
      "▁158": 3738,
      "▁intern": 3739,
      "▁1871": 3740,
      "▁food": 3741,
      "##gh": 3742,
      "o": 3743,
      "▁file": 3744,
      "_": 3745,
      "▁qu": 3746,
      "▁72": 3747,
      "##9.3": 3748,
      "##isco": 3749,
      "##________________": 3750,
      "▁import": 3751,
      "▁specific": 3752,
      "▁feel": 3753,
      "▁its": 3754,
      "##ea": 3755,
      "▁22": 3756,
      "▁playing": 3757,
      "##ences": 3758,
      "##used": 3759,
      "▁house": 3760,
      "▁respons": 3761,
      "##-84": 3762,
      "▁http://www": 3763,
      "##1": 3764,
      "▁‘’": 3765,
      "▁prev": 3766,
      "▁z": 3767,
      "##ising": 3768,
      "▁equ": 3769,
      "▁2100": 3770,
      "▁ta": 3771,
      "##100": 3772,
      "##/13/2001": 3773,
      "▁83": 3774,
      "##:57": 3775,
      "津": 3776,
      "œ": 3777,
      "▁employ": 3778,
      "##822": 3779,
      "7": 3780,
      "##....": 3781,
      "▁dollars": 3782,
      "##10": 3783,
      "▁1724": 3784,
      "▁picture": 3785,
      "▁1603": 3786,
      "##œ": 3787,
      "▁job": 3788,
      "##es": 3789,
      "▁num": 3790,
      "▁125": 3791,
      "##icle": 3792,
      "▁92": 3793,
      "▁ec": 3794,
      "##================================": 3795,
      "▁book": 3796,
      "▁pur": 3797,
      "▁how": 3798,
      "▁50,000": 3799,
      "▁min": 3800,
      "##ates": 3801,
      "▁cur": 3802,
      "▁bac": 3803,
      "▁4:00": 3804,
      "▁10:34": 3805,
      "▁te": 3806,
      "▁1179": 3807,
      "▁wether": 3808,
      "▁ap": 3809,
      "##le": 3810,
      "▁me": 3811,
      "▁tuesday": 3812,
      "▁round": 3813,
      "▁ball": 3814,
      "▁financ": 3815,
      "▁atl": 3816,
      "▁comedie": 3817,
      "##ph": 3818,
      "##osite": 3819,
      "}": 3820,
      "##read": 3821,
      "▁sev": 3822,
      "▁1964": 3823,
      "##φ": 3824,
      "▁sand": 3825,
      "▁beautiful": 3826,
      "▁order": 3827,
      "▁mor": 3828,
      "▁don": 3829,
      "##/9": 3830,
      "▁secur": 3831,
      "▁26": 3832,
      "▁def": 3833,
      "▁sea": 3834,
      "▁dri": 3835,
      "▁1821": 3836,
      "##:17": 3837,
      "▁?!": 3838,
      "▁establish": 3839,
      "▁1999": 3840,
      "▁ca": 3841,
      "▁first": 3842,
      "▁actually": 3843,
      "▁late": 3844,
      "▁rest": 3845,
      "▁able": 3846,
      "▁morning": 3847,
      "▁eye": 3848,
      "▁1975": 3849,
      "▁700": 3850,
      "▁airl": 3851,
      "▁1575": 3852,
      "▁months": 3853,
      "##-46": 3854,
      "##========": 3855,
      "▁touch": 3856,
      "##ott": 3857,
      "▁two": 3858,
      "##ar": 3859,
      "▁947": 3860,
      "▁matter": 3861,
      "▁happ": 3862,
      "##b": 3863,
      "##ule": 3864,
      "##ping": 3865,
      "##ty": 3866,
      "▁11:0": 3867,
      "▁flight": 3868,
      "##oot": 3869,
      "##7/99": 3870,
      "▁serv": 3871,
      "▁et": 3872,
      "▁support": 3873,
      "##eet": 3874,
      "##53": 3875,
      "▁???": 3876,
      "▁public": 3877,
      "▁along": 3878,
      "▁185": 3879,
      "##am": 3880,
      "▁tried": 3881,
      "##peare": 3882,
      "##ɛ": 3883,
      "▁wife": 3884,
      "##700": 3885,
      "▁’m": 3886,
      "▁09:14": 3887,
      "##:0": 3888,
      "##.2461": 3889,
      "▁george": 3890,
      "@": 3891,
      "##right": 3892,
      "▁horse": 3893,
      "▁416-8": 3894,
      "▁educ": 3895,
      "##ß": 3896,
      "▁hair": 3897,
      "▁hundred": 3898,
      "▁1896": 3899,
      "▁milwaukee": 3900,
      "▁34": 3901,
      "▁1968": 3902,
      "▁================================": 3903,
      "##on": 3904,
      "▁fl": 3905,
      "▁...": 3906,
      "##ial": 3907,
      "▁646": 3908,
      "##11": 3909,
      "▁gr": 3910,
      "##opment": 3911,
      "##cle": 3912,
      "▁202.456.1414": 3913,
      "▁pick": 3914,
      "▁view": 3915,
      "▁twenty-four": 3916,
      "▁02/2": 3917,
      "▁town": 3918,
      "##il": 3919,
      "▁2005": 3920,
      "##8806": 3921,
      "▁were": 3922,
      "▁yours": 3923,
      "°": 3924,
      "▁we": 3925,
      "▁after": 3926,
      "##@": 3927,
      "▁hist": 3928,
      "##-625": 3929,
      "▁415.782.7822": 3930,
      "▁ve": 3931,
      "##.85": 3932,
      "▁environ": 3933,
      "▁est": 3934,
      "▁wednesday": 3935,
      "##ica": 3936,
      "##/13": 3937,
      "▁vs": 3938,
      "▁dist": 3939,
      "▁if": 3940,
      "##ich": 3941,
      "▁started": 3942,
      "▁home": 3943,
      "▁cre": 3944,
      "▁progr": 3945,
      "##ay": 3946,
      "▁trillion": 3947,
      "▁again": 3948,
      "▁ex": 3949,
      "##fast": 3950,
      "▁throu": 3951,
      "##71": 3952,
      "▁arrive": 3953,
      "##.70": 3954,
      "▁800.713.86": 3955,
      "▁1945": 3956,
      "▁130": 3957,
      "##sus": 3958,
      "##98": 3959,
      "▁u": 3960,
      "▁today": 3961,
      "▁chick": 3962,
      "▁@": 3963,
      "▁253": 3964,
      "▁inter": 3965,
      "##l": 3966,
      "##ight": 3967,
      "▁iraq": 3968,
      "▁getting": 3969,
      "##ify": 3970,
      "##ø": 3971,
      "▁city": 3972,
      "##ght": 3973,
      "##.4": 3974,
      "▁1.4": 3975,
      "##谿": 3976,
      "##eth": 3977,
      "▁che": 3978,
      "##/30": 3979,
      "##our": 3980,
      "##aren": 3981,
      "##76": 3982,
      "▁restaurant": 3983,
      "▁control": 3984,
      "##-00": 3985,
      "▁anoder": 3986,
      "▁6871082": 3987,
      "▁please": 3988,
      "##:00": 3989,
      "##body": 3990,
      "▁2019": 3991,
      "▁07/17/2000": 3992,
      "##况": 3993,
      "▁design": 3994,
      "##ster": 3995,
      "##ught": 3996,
      "▁though": 3997,
      "▁made": 3998,
      "▁7:30": 3999,
      "▁)": 4000,
      "▁11:07": 4001,
      "▁conf": 4002,
      "▁on": 4003,
      "▁46": 4004,
      "##ged": 4005,
      "##18": 4006,
      "##aper": 4007,
      "▁cover": 4008,
      "[UNK]": 4009,
      "##5-": 4010,
      "▁09:45": 4011,
      "▁bl": 4012,
      "▁67": 4013,
      "▁uhhuh": 4014,
      "##ploy": 4015,
      "##ester": 4016,
      "▁15": 4017,
      "▁any": 4018,
      "##ome": 4019,
      "▁begin": 4020,
      "##oon": 4021,
      "▁stud": 4022,
      "▁felt": 4023,
      "▁white": 4024,
      "▁august": 4025,
      "▁11.5": 4026,
      "▁'0": 4027,
      "##,7": 4028,
      "▁girl": 4029,
      "##ious": 4030,
      "##ub": 4031,
      "##ign": 4032,
      "▁old": 4033,
      "▁wo": 4034,
      "▁them": 4035,
      "▁minus": 4036,
      "##68": 4037,
      "▁prov": 4038,
      "▁expl": 4039,
      "▁of": 4040,
      "##ile": 4041,
      "▁government": 4042,
      "##got": 4043,
      "▁daddy": 4044,
      "▁miss": 4045,
      "##ο": 4046,
      "##73": 4047,
      "▁all": 4048,
      "##li": 4049,
      "##/17/2000": 4050,
      "▁then": 4051,
      "##????": 4052,
      "▁fine": 4053,
      "▁w": 4054,
      "##ast": 4055,
      "##ز": 4056,
      "▁information": 4057,
      "▁can": 4058,
      "▁adv": 4059,
      "▁n’t": 4060,
      "▁450": 4061,
      "##omen": 4062,
      "▁funny": 4063,
      "##2000": 4064,
      "##eit": 4065,
      "▁almost": 4066,
      "▁fire": 4067,
      "##bers": 4068,
      "##`": 4069,
      "▁sar": 4070,
      "##ago": 4071,
      "##65-3": 4072,
      "##st": 4073,
      "▁1820": 4074,
      "##.676": 4075,
      "▁ident": 4076,
      "▁32": 4077,
      "▁know": 4078,
      "▁:)": 4079,
      "▁theirs": 4080,
      "##·": 4081,
      "▁da": 4082,
      "▁comp": 4083,
      "▁hot": 4084,
      "▁boy": 4085,
      "▁trying": 4086,
      "▁word": 4087,
      "▁haf": 4088,
      "▁experience": 4089,
      "▁minute": 4090,
      "▁pm": 4091,
      "##........": 4092,
      "▁202.7": 4093,
      "▁sound": 4094,
      "▁store": 4095
    }
  }
}