{
  "version": "1.0",
  "truncation": null,
  "padding": null,
  "added_tokens": [
    {
      "id": 370,
      "content": "[CLS]",
      "single_word": false,
      "lstrip": false,
      "rstrip": false,
      "normalized": false,
      "special": true
    },
    {
      "id": 1130,
      "content": "[UNK]",
      "single_word": false,
      "lstrip": false,
      "rstrip": false,
      "normalized": false,
      "special": true
    },
    {
      "id": 1624,
      "content": "[MASK]",
      "single_word": false,
      "lstrip": false,
      "rstrip": false,
      "normalized": false,
      "special": true
    },
    {
      "id": 3165,
      "content": "[SEP]",
      "single_word": false,
      "lstrip": false,
      "rstrip": false,
      "normalized": false,
      "special": true
    },
    {
      "id": 3951,
      "content": "[PAD]",
      "single_word": false,
      "lstrip": false,
      "rstrip": false,
      "normalized": false,
      "special": true
    }
  ],
  "normalizer": {
    "type": "Sequence",
    "normalizers": [
      {
        "type": "NFD"
      },
      {
        "type": "Lowercase"
      },
      {
        "type": "StripAccents"
      }
    ]
  },
  "pre_tokenizer": {
    "type": "Sequence",
    "pretokenizers": [
      {
        "type": "Metaspace",
        "replacement": "▁",
        "prepend_scheme": "always",
        "split": true
      }
    ]
  },
  "post_processor": {
    "type": "TemplateProcessing",
    "single": [
      {
        "SpecialToken": {
          "id": "[CLS]",
          "type_id": 0
        }
      },
      {
        "Sequence": {
          "id": "A",
          "type_id": 0
        }
      },
      {
        "SpecialToken": {
          "id": "[SEP]",
          "type_id": 0
        }
      }
    ],
    "pair": [
      {
        "SpecialToken": {
          "id": "[CLS]",
          "type_id": 0
        }
      },
      {
        "Sequence": {
          "id": "A",
          "type_id": 0
        }
      },
      {
        "SpecialToken": {
          "id": "[SEP]",
          "type_id": 0
        }
      },
      {
        "Sequence": {
          "id": "B",
          "type_id": 1
        }
      },
      {
        "SpecialToken": {
          "id": "[SEP]",
          "type_id": 1
        }
      }
    ],
    "special_tokens": {
      "[CLS]": {
        "id": "[CLS]",
        "ids": [
          370
        ],
        "tokens": [
          "[CLS]"
        ]
      },
      "[SEP]": {
        "id": "[SEP]",
        "ids": [
          3165
        ],
        "tokens": [
          "[SEP]"
        ]
      }
    }
  },
  "decoder": {
    "type": "Metaspace",
    "replacement": "▁",
    "prepend_scheme": "always",
    "split": true
  },
  "model": {
    "type": "Unigram",
    "unk_id": 1130,
    "vocab": [
      [
        "▁offer",
        -8.22869929388593
      ],
      [
        "▁foreign",
        -9.1527000244429
      ],
      [
        "ance",
        -7.7432585332357515
      ],
      [
        "▁111",
        -12.80605270452926
      ],
      [
        "171",
        -13.819819207365457
      ],
      [
        "form",
        -11.74397402995111
      ],
      [
        "…",
        -9.311962512561424
      ],
      [
        "▁ar",
        -6.938284200336329
      ],
      [
        "-33",
        -14.126752647604532
      ],
      [
        "▁enron",
        -11.789098139055671
      ],
      [
        "▁hard",
        -7.741128957604253
      ],
      [
        "75",
        -11.071151051921955
      ],
      [
        ".",
        -1.4798978484674539
      ],
      [
        "twenty",
        -11.271913807343168
      ],
      [
        "▁finish",
        -8.298791037512773
      ],
      [
        "1030",
        -15.236251623969013
      ],
      [
        "6.3",
        -14.15124683494006
      ],
      [
        "250",
        -13.491759104348043
      ],
      [
        "▁poor",
        -8.664930276117857
      ],
      [
        "505",
        -13.9775971815707
      ],
      [
        "0",
        -8.460475786846796
      ],
      [
        "▁serious",
        -8.770719245777551
      ],
      [
        "55",
        -11.29034389136408
      ],
      [
        "▁do",
        -6.7340541368657005
      ],
      [
        "▁hit",
        -8.069167359074193
      ],
      [
        "another",
        -10.357494289543581
      ],
      [
        "▁3,",
        -11.986573016429368
      ],
      [
        "▁member",
        -8.443433911983092
      ],
      [
        "▁thu",
        -9.157580957891149
      ],
      [
        "ac",
        -11.991757960654494
      ],
      [
        "▁11:",
        -12.774231487304524
      ],
      [
        "zen",
        -11.834053334203773
      ],
      [
        "les",
        -13.952486469106416
      ],
      [
        "▁replace",
        -9.378756057119327
      ],
      [
        ";",
        -5.847096126235187
      ],
      [
        "▁manage",
        -8.8232996821932
      ],
      [
        "▁very",
        -6.380647254253594
      ],
      [
        "▁2,2",
        -13.414392304097612
      ],
      [
        "▁europe",
        -8.738643113534511
      ],
      [
        "▁national",
        -8.098977046408763
      ],
      [
        "▁3",
        -10.461879651757403
      ],
      [
        "▁arriv",
        -7.871323536174779
      ],
      [
        "-04",
        -14.123579800210047
      ],
      [
        "eter",
        -11.834159184535453
      ],
      [
        "▁fix",
        -8.863041534418361
      ],
      [
        "▁bo",
        -11.551938346342482
      ],
      [
        "044",
        -14.67210541398539
      ],
      [
        "▁van",
        -9.22929272081095
      ],
      [
        "pl",
        -8.631111455045067
      ],
      [
        "☎",
        -11.833785825435129
      ],
      [
        "▁cool",
        -9.109692941867838
      ],
      [
        "ca",
        -8.016332254324864
      ],
      [
        "real",
        -8.968296233379672
      ],
      [
        "▁was",
        -7.401714394676815
      ],
      [
        "ed",
        -9.811572089528623
      ],
      [
        "▁under",
        -8.387445511989107
      ],
      [
        "ak",
        -8.371234189928263
      ],
      [
        "▁throw",
        -8.544612872558414
      ],
      [
        "▁first",
        -6.407064579153715
      ],
      [
        "▁11/2",
        -13.632092236267711
      ],
      [
        "32",
        -11.669857894312882
      ],
      [
        "▁expect",
        -8.860987714708688
      ],
      [
        "▁fail",
        -9.304109995523763
      ],
      [
        ".782",
        -12.337539463900077
      ],
      [
        "?????",
        -11.077398246995248
      ],
      [
        "▁uncle",
        -9.458643283433911
      ],
      [
        "ig",
        -8.338245687720693
      ],
      [
        "gg",
        -8.33360750247629
      ],
      [
        "▁'s",
        -7.4286311711759225
      ],
      [
        "▁mommy",
        -6.828050079635062
      ],
      [
        "phis",
        -8.89676085730484
      ],
      [
        "▁4,",
        -13.54847460893589
      ],
      [
        "▁where",
        -8.802452388749018
      ],
      [
        "▁161",
        -11.458814305941752
      ],
      [
        "▁mess",
        -9.350750057702106
      ],
      [
        "▁private",
        -9.152731880492148
      ],
      [
        "my",
        -8.402523764829516
      ],
      [
        "▁oil",
        -8.615610593247059
      ],
      [
        "85",
        -12.218760611373044
      ],
      [
        "011",
        -15.221037539552533
      ],
      [
        "▁wet",
        -9.467737134454339
      ],
      [
        "▁welcome",
        -9.267528089630378
      ],
      [
        "later",
        -8.009614194567252
      ],
      [
        "102",
        -15.442535429656798
      ],
      [
        "184",
        -12.62128093123546
      ],
      [
        "ritten",
        -9.049634338073206
      ],
      [
        "k",
        -6.070529180937507
      ],
      [
        "▁secret",
        -9.479269031270722
      ],
      [
        "you",
        -7.21641018486248
      ],
      [
        "▁dress",
        -8.536270170150711
      ],
      [
        "249",
        -14.261623159528837
      ],
      [
        "line",
        -8.479136179438736
      ],
      [
        "▁dra",
        -11.397091660772798
      ],
      [
        "▁international",
        -8.16313022423994
      ],
      [
        "▁620-294-",
        -12.665389467361313
      ],
      [
        ",300",
        -12.803982360712018
      ],
      [
        "▁female",
        -9.397324191051233
      ],
      [
        "ip",
        -8.106814888374583
      ],
      [
        "▁second",
        -7.752874367135832
      ],
      [
        "▁until",
        -8.319056567480276
      ],
      [
        "ho",
        -11.461160583291992
      ],
      [
        "▁taste",
        -8.9830624085963
      ],
      [
        ":39:",
        -13.171812098358995
      ],
      [
        "om",
        -8.375282610503437
      ],
      [
        "5:5",
        -15.21029726114531
      ],
      [
        "▁`",
        -11.280003543173743
      ],
      [
        "▁friends",
        -8.193579564449253
      ],
      [
        "▁shape",
        -9.361451619547784
      ],
      [
        "▁is",
        -6.925834268543755
      ],
      [
        "1-",
        -13.88331746913178
      ],
      [
        "▁253",
        -12.845769189610536
      ],
      [
        "54",
        -12.936357879777361
      ],
      [
        "▁staff",
        -8.487008771436097
      ],
      [
        ".html",
        -9.4411483478697
      ],
      [
        "ward",
        -8.880695661209415
      ],
      [
        "pos",
        -11.663577894839388
      ],
      [
        "end",
        -8.71821150919169
      ],
      [
        "▁.",
        -6.116290613496916
      ],
      [
        "▁initial",
        -9.184138248324551
      ],
      [
        "▁5:",
        -13.578265554939463
      ],
      [
        "▁for",
        -5.030157282061143
      ],
      [
        "▁grow",
        -7.906343720573748
      ],
      [
        "her",
        -7.767715035430991
      ],
      [
        "▁drop",
        -9.133219905071801
      ],
      [
        "195",
        -14.098294440862103
      ],
      [
        "▁salt",
        -8.186672379131807
      ],
      [
        "md",
        -11.141550706240368
      ],
      [
        "▁insur",
        -9.419037488848904
      ],
      [
        "---------------",
        -9.308357502044146
      ],
      [
        "ize",
        -8.457323121922123
      ],
      [
        "8-37",
        -14.882399749141332
      ],
      [
        "▁6:",
        -15.21017344784904
      ],
      [
        "die",
        -10.223377604815685
      ],
      [
        "▁po",
        -11.008071481084977
      ],
      [
        "bever",
        -11.340099135873395
      ],
      [
        "▁population",
        -9.03571595590969
      ],
      [
        "▁night",
        -7.411750940611162
      ],
      [
        "round",
        -7.77048312425168
      ],
      [
        "▁ta",
        -8.020093458518847
      ],
      [
        "▁guess",
        -8.455898557350597
      ],
      [
        "▁south",
        -8.090960897067845
      ],
      [
        "▁license",
        -8.64181516889321
      ],
      [
        "▁ro",
        -8.38067664810028
      ],
      [
        "c",
        -8.583264543799583
      ],
      [
        "▁10:5",
        -11.912176536891272
      ],
      [
        "x",
        -9.923621729153174
      ],
      [
        "▁sever",
        -8.042072041928101
      ],
      [
        "4.4",
        -13.305398854713754
      ],
      [
        "180",
        -13.395822881608929
      ],
      [
        "▁iran",
        -8.698886423181982
      ],
      [
        "▁ears",
        -9.4217337623598
      ],
      [
        "shal",
        -11.894227517962465
      ],
      [
        "▁move",
        -7.975882236602133
      ],
      [
        "▁60",
        -10.413109585665811
      ],
      [
        "▁check",
        -8.129158903877165
      ],
      [
        "▁mi",
        -11.290189893230616
      ],
      [
        "f",
        -10.257164615019802
      ],
      [
        "▁form",
        -11.39195798495936
      ],
      [
        "▁woul",
        -6.090018846673981
      ],
      [
        "▁12/26/200",
        -12.666535639137338
      ],
      [
        "mon",
        -8.42846453361582
      ],
      [
        "▁199",
        -8.832557886515348
      ],
      [
        "▁driv",
        -8.846800497726601
      ],
      [
        "land",
        -6.90719114552788
      ],
      [
        "▁approach",
        -9.152634606693947
      ],
      [
        "r",
        -5.3909271172463145
      ],
      [
        "▁fight",
        -8.463797051937139
      ],
      [
        "▁fine",
        -8.35651953059299
      ],
      [
        "▁operation",
        -9.268775951018455
      ],
      [
        "▁5.8",
        -13.211594130304274
      ],
      [
        "▁require",
        -8.622501118655226
      ],
      [
        "▁economic",
        -8.548063199715806
      ],
      [
        "111",
        -12.788292034875846
      ],
      [
        "▁thirty-",
        -12.337669254678353
      ],
      [
        "p",
        -9.077018352588304
      ],
      [
        "▁process",
        -7.979376282256552
      ],
      [
        "if",
        -10.983017135113453
      ],
      [
        "▁butter",
        -9.266925302368225
      ],
      [
        "ennes",
        -11.4152029478778
      ],
      [
        "▁associate",
        -9.321094436421
      ],
      [
        "93",
        -11.85630945489547
      ],
      [
        "▁529999",
        -13.136774160688283
      ],
      [
        "▁cha",
        -11.250268752536995
      ],
      [
        "▁proposal",
        -9.152633956561754
      ],
      [
        "▁mathematic",
        -9.216654415232721
      ],
      [
        "▁!!!!!!!!!!",
        -11.698363094807423
      ],
      [
        "lo",
        -9.686887479395796
      ],
      [
        "▁mia",
        -11.835498122457036
      ],
      [
        "▁impos",
        -9.44864488163779
      ],
      [
        "▁relat",
        -8.99723480385558
      ],
      [
        "▁pa",
        -7.979554195531551
      ],
      [
        "bec",
        -9.720690803025338
      ],
      [
        "584",
        -13.069565258838212
      ],
      [
        "▁air",
        -7.402936138943131
      ],
      [
        "70",
        -11.821631001181984
      ],
      [
        "▁supposed",
        -8.936985577081632
      ],
      [
        "9",
        -8.635468173052672
      ],
      [
        "▁micro",
        -9.396208242575334
      ],
      [
        "194",
        -14.45571447231612
      ],
      [
        "-696",
        -14.0991084797417
      ],
      [
        "▁wear",
        -8.367143702655582
      ],
      [
        "cal",
        -9.204075846044258
      ],
      [
        "▁china",
        -8.425219458995342
      ],
      [
        "▁iraqi",
        -9.149839215545414
      ],
      [
        "▁include",
        -8.551138632842516
      ],
      [
        "▁167",
        -13.956538851473839
      ],
      [
        "▁mexic",
        -9.457496184890255
      ],
      [
        "▁gone",
        -8.554883353947012
      ],
      [
        "▁toys",
        -9.0430042854149
      ],
      [
        "for",
        -6.699129353135135
      ],
      [
        "▁af",
        -10.680045281053735
      ],
      [
        "▁t",
        -8.335420785946603
      ],
      [
        "▁hold",
        -8.15313570184476
      ],
      [
        "▁husband",
        -9.397320337340588
      ],
      [
        "د",
        -11.833785825435129
      ],
      [
        "▁take",
        -6.356664569782491
      ],
      [
        "▁fu",
        -10.818085774961895
      ],
      [
        "▁3/9/",
        -13.141521256888392
      ],
      [
        "▁confirm",
        -9.250270258832135
      ],
      [
        "▁and",
        -10.843541831848249
      ],
      [
        "▁mo",
        -7.656791271578299
      ],
      [
        "▁fel",
        -8.420485704895075
      ],
      [
        "0/200",
        -13.144123309107325
      ],
      [
        "▁meeting",
        -8.467471764150293
      ],
      [
        "▁dish",
        -9.448174478367768
      ],
      [
        "▁184",
        -11.262160856172258
      ],
      [
        "que",
        -8.404514644194837
      ],
      [
        "▁tol",
        -7.606090584739392
      ],
      [
        "▁heart",
        -8.84250165629578
      ],
      [
        "▁11/0",
        -12.309214898187184
      ],
      [
        "▁go",
        -5.255380411753386
      ],
      [
        "▁card",
        -8.613361188467714
      ],
      [
        "▁how",
        -8.861903242976682
      ],
      [
        "▁713/8",
        -14.340536229756822
      ],
      [
        ":5",
        -14.280357869335674
      ],
      [
        "▁la",
        -9.448892749659029
      ],
      [
        "▁36",
        -11.01212807405217
      ],
      [
        "▁change",
        -7.529481757579184
      ],
      [
        "▁space",
        -8.141103972494037
      ],
      [
        "▁position",
        -8.639536937081633
      ],
      [
        "ock",
        -8.8376419852231
      ],
      [
        "▁646-",
        -12.991578501901367
      ],
      [
        "▁drink",
        -8.12921314097227
      ],
      [
        "thou",
        -11.455493883691979
      ],
      [
        "▁04:5",
        -13.362917933474566
      ],
      [
        "2007",
        -10.590895164732354
      ],
      [
        "▁another",
        -7.52354668913458
      ],
      [
        "▁113",
        -13.113565674700755
      ],
      [
        "▁francisco",
        -6.61919322909907
      ],
      [
        "▁religious",
        -9.397319896840088
      ],
      [
        "▁03:3",
        -13.301144353011441
      ],
      [
        "▁aware",
        -9.419159707345734
      ],
      [
        "▁4.9",
        -12.967616918539465
      ],
      [
        "▁notice",
        -8.673246041336952
      ],
      [
        "▁qu",
        -11.69859529127919
      ],
      [
        "284",
        -14.231690287536495
      ],
      [
        "▁message",
        -8.750039384167764
      ],
      [
        "▁made",
        -7.171192307671957
      ],
      [
        "▁lack",
        -8.995420384128039
      ],
      [
        "be",
        -11.653583948774578
      ],
      [
        "▁free",
        -7.862159468868082
      ],
      [
        "▁often",
        -8.298752740171434
      ],
      [
        "▁09:4",
        -12.138591205918773
      ],
      [
        "▁gain",
        -9.42771359818227
      ],
      [
        "▁stillman",
        -9.095977626586404
      ],
      [
        "▁jump",
        -8.792110093993298
      ],
      [
        "▁.32",
        -14.792785263810401
      ],
      [
        "=",
        -9.479384224177249
      ],
      [
        "l",
        -5.540654461374949
      ],
      [
        "▁10:",
        -12.180176153817651
      ],
      [
        "▁writer",
        -9.092590946354285
      ],
      [
        "ies",
        -6.245779430837088
      ],
      [
        ".8",
        -14.116702061422428
      ],
      [
        "▁long",
        -6.823392798277003
      ],
      [
        "00",
        -9.442479071316274
      ],
      [
        "▁desk",
        -9.172263309435863
      ],
      [
        "▁a",
        -9.349514141884656
      ],
      [
        "uck",
        -8.843088058298653
      ],
      [
        "▁any",
        -6.499089214725912
      ],
      [
        "--------------",
        -9.780025658042359
      ],
      [
        "▁mar",
        -8.230179774128711
      ],
      [
        "▁morning",
        -7.076127055766016
      ],
      [
        "'",
        -8.557040239238049
      ],
      [
        "▁in",
        -5.625432472469343
      ],
      [
        "5-9",
        -14.137390615099072
      ],
      [
        "nine",
        -11.35742145335647
      ],
      [
        "▁choose",
        -9.200267041357325
      ],
      [
        "▁sleep",
        -8.195794072268583
      ],
      [
        "ax",
        -8.953014012554288
      ],
      [
        "3.8",
        -12.702689943172382
      ],
      [
        "▁pen",
        -8.550203771091985
      ],
      [
        "▁195",
        -10.468279737945544
      ],
      [
        "▁to",
        -8.298286431205742
      ],
      [
        "▁cook",
        -8.740813154708885
      ],
      [
        "es",
        -11.942189965879606
      ],
      [
        "▁piece",
        -8.02383157896596
      ],
      [
        "▁in",
        -6.438660467612767
      ],
      [
        "ary",
        -7.524600412238357
      ],
      [
        "▁stopover",
        -9.16856835747033
      ],
      [
        "▁are",
        -7.251485683306447
      ],
      [
        "▁select",
        -9.337985547290014
      ],
      [
        "▁cap",
        -8.941438613426236
      ],
      [
        "every",
        -9.955181868268271
      ],
      [
        "ical",
        -8.140492728333298
      ],
      [
        "▁t",
        -11.219338199887599
      ],
      [
        "▁focus",
        -8.82508048018904
      ],
      [
        "▁floor",
        -8.410823350701232
      ],
      [
        "oth",
        -11.630005899227083
      ],
      [
        "▁48",
        -11.650344269400826
      ],
      [
        "stella",
        -11.33379892341695
      ],
      [
        "§",
        -11.833785825435129
      ],
      [
        "999",
        -12.577476596359821
      ],
      [
        "▁me",
        -8.801239114016097
      ],
      [
        "/29/200",
        -13.527257651397825
      ],
      [
        "▁kill",
        -8.504169585782346
      ],
      [
        "▁vogelaviatiolap",
        -11.385101046274048
      ],
      [
        "▁works",
        -9.140894629748711
      ],
      [
        "25/01",
        -14.13408639190938
      ],
      [
        "▁send",
        -8.369763564530729
      ],
      [
        "▁155",
        -13.15109811699319
      ],
      [
        "lie",
        -8.859419244860831
      ],
      [
        "▁age",
        -8.443478993561214
      ],
      [
        "ome",
        -8.970686798042294
      ],
      [
        "es",
        -5.909293184352468
      ],
      [
        "▁spend",
        -9.008415453343208
      ],
      [
        "▁11:1",
        -14.098589520058274
      ],
      [
        "▁public",
        -7.93710943194348
      ],
      [
        "▁sat",
        -8.760824251425891
      ],
      [
        "▁exact",
        -8.882558196589454
      ],
      [
        "incin",
        -9.043479078396043
      ],
      [
        "tair",
        -11.5315465560451
      ],
      [
        "fte",
        -8.871126370217361
      ],
      [
        "▁cage",
        -9.177868758447403
      ],
      [
        "▁equal",
        -8.7707046698573
      ],
      [
        "ula",
        -8.419505169167849
      ],
      [
        "▁filter",
        -8.73968876944629
      ],
      [
        "848",
        -14.227528089212955
      ],
      [
        "twe",
        -7.82087300365329
      ],
      [
        "ard",
        -8.465365078071507
      ],
      [
        "orland",
        -8.515462419079277
      ],
      [
        "▁why",
        -7.0177420575112714
      ],
      [
        "▁main",
        -8.281627675159033
      ],
      [
        "8011",
        -13.265494279497794
      ],
      [
        "▁202",
        -11.617891900155048
      ],
      [
        "let",
        -8.954312172598478
      ],
      [
        "▁horsie",
        -9.008507360296054
      ],
      [
        "20,000",
        -13.372871885397519
      ],
      [
        "▁97",
        -13.586404668654046
      ],
      [
        "▁field",
        -8.046149516013326
      ],
      [
        "▁spot",
        -9.137418892337003
      ],
      [
        "▁facilit",
        -9.267511747915616
      ],
      [
        "776",
        -12.023279956286235
      ],
      [
        "177",
        -13.361139344580995
      ],
      [
        "ps",
        -11.805325689791168
      ],
      [
        "▁sun",
        -8.094113022699155
      ],
      [
        "▁wind",
        -9.135769864530083
      ],
      [
        "stead",
        -8.280668333769
      ],
      [
        "▁122",
        -14.496571227426578
      ],
      [
        "hol",
        -8.708623042667957
      ],
      [
        "▁0",
        -12.590165494098185
      ],
      [
        "wa",
        -8.416591560051394
      ],
      [
        "916",
        -13.315553684963554
      ],
      [
        "▁12/",
        -14.078541079163124
      ],
      [
        "ever",
        -7.498368399672411
      ],
      [
        "han",
        -8.712874978533407
      ],
      [
        "49",
        -12.046337643457093
      ],
      [
        "▁kind",
        -7.226958355986993
      ],
      [
        "century",
        -8.956210006349773
      ],
      [
        "▁wil",
        -12.654613728656043
      ],
      [
        "▁210",
        -12.59373170075374
      ],
      [
        "[CLS]",
        0.0
      ],
      [
        "▁past",
        -8.374079492420162
      ],
      [
        "ive",
        -7.072697790879858
      ],
      [
        "▁or",
        -9.076491273026871
      ],
      [
        "▁01/19/",
        -12.359978021860883
      ],
      [
        "facebook",
        -9.428099048457657
      ],
      [
        ":14",
        -12.457220388685272
      ],
      [
        "▁28",
        -10.454550929746874
      ],
      [
        "▁sch",
        -11.04252027193222
      ],
      [
        "922",
        -12.522603151732726
      ],
      [
        "ect",
        -8.327070345160179
      ],
      [
        "▁08:50",
        -13.137895891914496
      ],
      [
        "ily",
        -8.908191325943104
      ],
      [
        "▁east",
        -8.604034617263736
      ],
      [
        "▁860",
        -13.31026522641037
      ],
      [
        ":30",
        -9.919950766679145
      ],
      [
        "/",
        -6.3884726436073205
      ],
      [
        "▁seat",
        -8.796786051361217
      ],
      [
        "▁refer",
        -9.315646740539501
      ],
      [
        "18/",
        -14.138103351134408
      ],
      [
        "▁lay",
        -8.742502923506533
      ],
      [
        "▁shop",
        -8.716554426331921
      ],
      [
        "1",
        -7.860746011381004
      ],
      [
        "▁normal",
        -9.039408267063543
      ],
      [
        "▁qualit",
        -8.417873050970487
      ],
      [
        "someon",
        -11.278191597539164
      ],
      [
        "▁stick",
        -8.957052342689282
      ],
      [
        "6/9",
        -12.808934602602188
      ],
      [
        "▁\"",
        -8.78674515612092
      ],
      [
        "▁eat",
        -6.944106996930494
      ],
      [
        "▁pop",
        -8.886871280805652
      ],
      [
        "wo",
        -11.00704601879946
      ],
      [
        "▁career",
        -9.359673286835307
      ],
      [
        "al",
        -5.7199010305978035
      ],
      [
        "▁10,000",
        -11.468522943360597
      ],
      [
        "▁da",
        -13.348798848459843
      ],
      [
        "▁:",
        -7.256476862053417
      ],
      [
        "101",
        -12.952621968553853
      ],
      [
        "▁08:3",
        -12.515232474275917
      ],
      [
        "▁her",
        -8.88294077427687
      ],
      [
        "▁ground",
        -7.63479674409019
      ],
      [
        "bert",
        -10.242654352680248
      ],
      [
        "▁write",
        -7.927922863889929
      ],
      [
        "▁root",
        -9.250392531515134
      ],
      [
        "▁rid",
        -9.313196286378393
      ],
      [
        "▁reflect",
        -9.022016065270943
      ],
      [
        "port",
        -9.34775882068247
      ],
      [
        "▁quote",
        -9.417358708261931
      ],
      [
        "▁understand",
        -8.182545433918742
      ],
      [
        "▁book",
        -7.3348330514564495
      ],
      [
        "▁event",
        -8.405168208074507
      ],
      [
        "▁1.8",
        -13.505533095204397
      ],
      [
        "▁xs",
        -11.866820475824259
      ],
      [
        "▁fixed",
        -9.333412058029293
      ],
      [
        "▁democra",
        -9.07743194857009
      ],
      [
        "▁father",
        -8.013536959243856
      ],
      [
        "▁whil",
        -9.251389154135119
      ],
      [
        ".29",
        -14.076169668931792
      ],
      [
        "▁limit",
        -8.742638482598206
      ],
      [
        "$",
        -6.573299397139614
      ],
      [
        "1/01",
        -12.746409468391521
      ],
      [
        "}",
        -11.333785825435129
      ],
      [
        "▁here",
        -6.079985084639703
      ],
      [
        "20-2",
        -13.170838406954257
      ],
      [
        "▁momm",
        -9.109018317258517
      ],
      [
        "▁24",
        -9.636353922881266
      ],
      [
        "▁table",
        -8.156468420105254
      ],
      [
        "▁development",
        -8.615410014724759
      ],
      [
        "s",
        -2.6832207985066727
      ],
      [
        "▁abilit",
        -9.458429502825519
      ],
      [
        "▁standing",
        -9.47185307670295
      ],
      [
        "▁digital",
        -9.458561096700796
      ],
      [
        "nd",
        -8.038269447322932
      ],
      [
        "▁franc",
        -9.17833463352477
      ],
      [
        "▁did",
        -7.5413585664766245
      ],
      [
        "▁08:2",
        -12.405270304354552
      ],
      [
        "ka",
        -9.052917900272035
      ],
      [
        "▁just",
        -5.99834896920404
      ],
      [
        "▁plu",
        -9.317925974123064
      ],
      [
        "▁broad",
        -9.328797016490913
      ],
      [
        "▁phoe",
        -8.27915623775321
      ],
      [
        "▁fear",
        -9.219452584421449
      ],
      [
        "▁coming",
        -8.158538310037521
      ],
      [
        "449",
        -14.15307238737037
      ],
      [
        "▁full",
        -7.951226508436741
      ],
      [
        "▁79",
        -13.348276525599443
      ],
      [
        "▁out",
        -6.916244102671383
      ],
      [
        "▁though",
        -8.616290882458149
      ],
      [
        "woul",
        -8.996040675627027
      ],
      [
        "ney",
        -9.016085564131828
      ],
      [
        "▁report",
        -7.817262282848566
      ],
      [
        "▁necessar",
        -8.87078733228203
      ],
      [
        "im",
        -7.70616469866205
      ],
      [
        "▁discover",
        -9.107321138211672
      ],
      [
        "420",
        -13.637063103502198
      ],
      [
        "te",
        -15.405337077280535
      ],
      [
        "▁duck",
        -9.093012334788327
      ],
      [
        "▁059085495",
        -13.136770580472842
      ],
      [
        "▁hot",
        -8.19354142034331
      ],
      [
        "▁850",
        -12.738656435075244
      ],
      [
        "no",
        -10.6955255510563
      ],
      [
        "w",
        -10.535206273216964
      ],
      [
        "▁154",
        -12.83746435478679
      ],
      [
        "▁0.05",
        -13.136790309889701
      ],
      [
        "▁si",
        -10.89098871490355
      ],
      [
        "▁x",
        -8.81212139725916
      ],
      [
        "▁settle",
        -9.47996776800741
      ],
      [
        "02",
        -11.277532520438841
      ],
      [
        "60",
        -10.949356537605158
      ],
      [
        "urs",
        -11.334386090581136
      ],
      [
        "got",
        -12.9597684416641
      ],
      [
        "2,000",
        -10.97749512582482
      ],
      [
        "5-2",
        -13.171837843619866
      ],
      [
        "over",
        -10.135244341423348
      ],
      [
        "▁11:0",
        -11.779412810543928
      ],
      [
        "▁21",
        -9.720348909308502
      ],
      [
        "▁cat",
        -7.885527890535573
      ],
      [
        "▁paul",
        -8.119814649359714
      ],
      [
        "wi",
        -8.782008284836756
      ],
      [
        "169",
        -14.13230324013388
      ],
      [
        "▁responsibilit",
        -9.417319489815606
      ],
      [
        "ative",
        -9.328075495436508
      ],
      [
        "▁old",
        -7.357478987282643
      ],
      [
        "▁sea",
        -7.963269238900617
      ],
      [
        "▁link",
        -8.76035684786639
      ],
      [
        "▁06:1",
        -13.632271856717784
      ],
      [
        "656",
        -15.204647324905137
      ],
      [
        "▁evening",
        -8.250203668818394
      ],
      [
        "▁ad",
        -8.680325829351203
      ],
      [
        "38",
        -11.571807773434363
      ],
      [
        "/200",
        -13.438106912467259
      ],
      [
        "▁every",
        -7.080078169630708
      ],
      [
        "▁01:3",
        -12.365376718875854
      ],
      [
        "fr",
        -13.637637297361696
      ],
      [
        "ph",
        -8.422004053556652
      ],
      [
        "ul",
        -12.818709659508759
      ],
      [
        "▁attack",
        -8.605283229577338
      ],
      [
        "▁kh",
        -11.834523457572555
      ],
      [
        "▁extreme",
        -8.882551827632184
      ],
      [
        "▁dadd",
        -7.248343020021337
      ],
      [
        "ba",
        -8.442408036886821
      ],
      [
        "▁street",
        -8.19833094395371
      ],
      [
        "▁trouble",
        -8.918699870505279
      ],
      [
        "▁fit",
        -8.657267832670458
      ],
      [
        "▁snow",
        -9.267535015827455
      ],
      [
        "▁176",
        -13.441094984774196
      ],
      [
        "▁choice",
        -9.137364226853677
      ],
      [
        "istan",
        -9.047922897781412
      ],
      [
        "emp",
        -11.876212475785815
      ],
      [
        "▁recommend",
        -8.18057243576773
      ],
      [
        "▁follow",
        -8.257495573670635
      ],
      [
        "▁do",
        -5.569588503419654
      ],
      [
        "ie",
        -7.400553069533786
      ],
      [
        "▁critic",
        -9.194602700856649
      ],
      [
        "uq",
        -11.84168689817814
      ],
      [
        "▁ear",
        -9.482445896107494
      ],
      [
        ">",
        -8.485528575884175
      ],
      [
        "▁up",
        -6.475747422416015
      ],
      [
        "oo",
        -10.573184319002312
      ],
      [
        "-----------",
        -11.031360156236898
      ],
      [
        "▁balti",
        -7.1057036716394215
      ],
      [
        "▁10:0",
        -12.793923703826332
      ],
      [
        "▁20",
        -10.758623086612115
      ],
      [
        "▁we",
        -6.530690589681937
      ],
      [
        ".80",
        -14.353379162439051
      ],
      [
        "▁boy",
        -8.154039556316734
      ],
      [
        "2",
        -10.53881921003439
      ],
      [
        "▁vo",
        -9.077135596352171
      ],
      [
        "134",
        -13.188304911748338
      ],
      [
        "thin",
        -7.525429256744984
      ],
      [
        "i",
        -9.80170027582974
      ],
      [
        "115",
        -14.502428714841685
      ],
      [
        "▁girl",
        -7.772185495719854
      ],
      [
        "▁da",
        -8.115773740426295
      ],
      [
        "▁54",
        -11.691610356896991
      ],
      [
        "▁pretend",
        -9.479863453829646
      ],
      [
        "281",
        -13.08571318027819
      ],
      [
        "▁315-460-334",
        -13.136770579354721
      ],
      [
        "▁bathroom",
        -9.358573516342458
      ],
      [
        "▁additional",
        -9.19177840242694
      ],
      [
        "what",
        -7.9954044867101235
      ],
      [
        "▁according",
        -8.818681673590882
      ],
      [
        "ers",
        -7.032992897869819
      ],
      [
        "ft",
        -10.860161527332979
      ],
      [
        "樋",
        -11.333785825435129
      ],
      [
        "xx",
        -14.147609184277664
      ],
      [
        "nasa",
        -9.210891380903762
      ],
      [
        "▁co",
        -11.082967748862703
      ],
      [
        "abou",
        -9.432236889204198
      ],
      [
        "ict",
        -9.276167643000433
      ],
      [
        "▁no-",
        -13.47376073561761
      ],
      [
        "▁pitt",
        -6.928270392283772
      ],
      [
        "yet",
        -8.78146950483262
      ],
      [
        "▁1.6",
        -12.34208568727186
      ],
      [
        "▁concern",
        -8.463473497425397
      ],
      [
        "170",
        -14.674369146106468
      ],
      [
        "▁eng",
        -8.882648323949992
      ],
      [
        "▁705",
        -13.150366755684853
      ],
      [
        "ob",
        -11.496845026184019
      ],
      [
        "ter",
        -7.252168314323317
      ],
      [
        "▁25",
        -9.47633880356933
      ],
      [
        "747",
        -12.054775261011347
      ],
      [
        "u",
        -6.422267840021647
      ],
      [
        "n",
        -9.616052484599335
      ],
      [
        "▁1030",
        -14.191480154345427
      ],
      [
        "▁s",
        -9.536036570880462
      ],
      [
        "▁every",
        -9.104257892657134
      ],
      [
        "018",
        -13.097555483422406
      ],
      [
        "▁get",
        -5.830814678986
      ],
      [
        "08",
        -11.329350389901101
      ],
      [
        "lle",
        -11.518747435289725
      ],
      [
        "306",
        -13.62520520153245
      ],
      [
        "industry",
        -9.184141764804597
      ],
      [
        "▁12:0",
        -12.672542544953671
      ],
      [
        "do",
        -9.304210382376619
      ],
      [
        "▁the",
        -3.2262610317436575
      ],
      [
        "▁al",
        -9.593659622937922
      ],
      [
        "▁cash",
        -9.399326700659085
      ],
      [
        "275",
        -13.948612843905096
      ],
      [
        "▁action",
        -8.376132064816296
      ],
      [
        "▁customer",
        -8.466936804475827
      ],
      [
        "▁was",
        -5.269250295583504
      ],
      [
        "▁reach",
        -8.65273279334581
      ],
      [
        "▁test",
        -8.19301428417343
      ],
      [
        "▁collect",
        -9.181638368721284
      ],
      [
        "which",
        -9.262264540950643
      ],
      [
        "92",
        -12.130184995798194
      ],
      [
        "▁fro",
        -4.951061705951037
      ],
      [
        "91",
        -11.94434201620654
      ],
      [
        "▁505",
        -12.496806499314392
      ],
      [
        "001",
        -12.849675556321584
      ],
      [
        "▁02:",
        -13.328867592342894
      ],
      [
        "▁involv",
        -8.739440411174712
      ],
      [
        "▁ticket",
        -8.670118717659758
      ],
      [
        "▁round",
        -7.688890215141053
      ],
      [
        "-518",
        -14.187807511083523
      ],
      [
        "▁sexual",
        -9.358490974295862
      ],
      [
        "▁1.5",
        -10.928556940654722
      ],
      [
        "▁cut",
        -8.036058299590657
      ],
      [
        "▁201",
        -8.15549122295678
      ],
      [
        "▁thou",
        -10.500572065356513
      ],
      [
        "▁sense",
        -8.793414736986076
      ],
      [
        "10",
        -9.765559445705975
      ],
      [
        "c",
        -5.810137483510255
      ],
      [
        "▁rose",
        -9.369828435343674
      ],
      [
        "▁201-",
        -14.09272654832999
      ],
      [
        "▁cleve",
        -8.596598378718156
      ],
      [
        "6.8",
        -11.52194411340363
      ],
      [
        "3.",
        -15.003059156334114
      ],
      [
        "▁detail",
        -8.670124713738677
      ],
      [
        "▁bun",
        -9.298187841374073
      ],
      [
        "▁lead",
        -8.48072085801997
      ],
      [
        "▁story",
        -8.53893376897219
      ],
      [
        "▁day",
        -6.593518791607408
      ],
      [
        "▁effective",
        -9.269005580703237
      ],
      [
        "41",
        -12.725585459944703
      ],
      [
        "▁factor",
        -9.098206871256597
      ],
      [
        "▁any",
        -8.460412774370067
      ],
      [
        "▁8:3",
        -12.739873861330425
      ],
      [
        "▁.2",
        -12.818583968968841
      ],
      [
        "-20",
        -14.062585561929335
      ],
      [
        "▁1",
        -8.106310199785788
      ],
      [
        "30",
        -9.658731711958618
      ],
      [
        "▁179",
        -12.177181067986169
      ],
      [
        ",10",
        -14.134301008475443
      ],
      [
        "▁off",
        -7.800521261141659
      ],
      [
        "▁5",
        -11.486037404032146
      ],
      [
        "▁ri",
        -8.778915234489821
      ],
      [
        "65",
        -11.062979589335495
      ],
      [
        "▁child",
        -8.471181286660201
      ],
      [
        "▁act",
        -8.296104074190776
      ],
      [
        "242",
        -14.03003538722958
      ],
      [
        "▁memor",
        -8.983818163722479
      ],
      [
        "ign",
        -9.28194018706497
      ],
      [
        "▁way",
        -6.527088376330729
      ],
      [
        "hap",
        -8.574613792161854
      ],
      [
        "▁1327",
        -13.139428332926997
      ],
      [
        "▁woman",
        -8.596368750148525
      ],
      [
        "▁spoke",
        -8.894793938609986
      ],
      [
        "▁sure",
        -7.579524265868766
      ],
      [
        "bo",
        -11.596433781311088
      ],
      [
        "▁10:3",
        -12.310518676031213
      ],
      [
        "▁11/29/",
        -11.588860208461057
      ],
      [
        "5/",
        -12.852576072044881
      ],
      [
        "▁win",
        -9.353503107474642
      ],
      [
        "▁treatment",
        -9.360188140913941
      ],
      [
        "▁con",
        -10.832625508225734
      ],
      [
        "/26/200",
        -11.340770759941888
      ],
      [
        "oc",
        -9.067274792690018
      ],
      [
        "2:3",
        -14.199321364264764
      ],
      [
        "ti",
        -11.721458890591762
      ],
      [
        "▁bottom",
        -9.168259628896369
      ],
      [
        "▁earth",
        -8.740105103077067
      ],
      [
        "▁thes",
        -7.428819531863239
      ],
      [
        "800",
        -11.907406779862322
      ],
      [
        "▁quer",
        -9.141005751000835
      ],
      [
        "▁20",
        -8.49387196891552
      ],
      [
        "ton",
        -8.44393098595527
      ],
      [
        "▁lego",
        -9.396970437877538
      ],
      [
        "▁713-853-3",
        -10.96826864569135
      ],
      [
        "2.1",
        -13.661571770770541
      ],
      [
        "750",
        -14.563579567680097
      ],
      [
        "th",
        -6.649475204389279
      ],
      [
        "▁arrive",
        -7.9987786042691775
      ],
      [
        "night",
        -9.151461935808936
      ],
      [
        "fi",
        -11.32805404988979
      ],
      [
        "▁boat",
        -8.650284950100124
      ],
      [
        "▁addition",
        -9.428457389860654
      ],
      [
        "▁thousand",
        -9.47983761589992
      ],
      [
        "▁11/",
        -12.525804538246268
      ],
      [
        "▁bit",
        -7.839721431144988
      ],
      [
        "*",
        -8.451504526190725
      ],
      [
        "des",
        -12.59592963524149
      ],
      [
        "1/200",
        -13.247358491964661
      ],
      [
        "25-",
        -13.398557885729506
      ],
      [
        "29.",
        -13.145976147055816
      ],
      [
        "09/20",
        -13.900643861991316
      ],
      [
        "▁29",
        -11.664104785589076
      ],
      [
        "no",
        -10.794430943084201
      ],
      [
        "▁06:",
        -13.14265919178965
      ],
      [
        "760",
        -13.82235795581947
      ],
      [
        "▁06/0",
        -14.136984329702415
      ],
      [
        "▁create",
        -8.462202658961115
      ],
      [
        "g",
        -9.85599899805753
      ],
      [
        "▁right",
        -6.365197453296573
      ],
      [
        "▁165",
        -13.333829689480131
      ],
      [
        "368",
        -12.773220836068143
      ],
      [
        "▁performance",
        -9.37820211189143
      ],
      [
        "▁cup",
        -8.504102855402973
      ],
      [
        "▁carry",
        -8.874870589804512
      ],
      [
        "▁63",
        -12.09361104463087
      ],
      [
        "r",
        -4.496868874099677
      ],
      [
        "▁novel",
        -8.996557960240636
      ],
      [
        "▁print",
        -9.173599572633712
      ],
      [
        "▁to",
        -6.35662362462921
      ],
      [
        "ll",
        -8.07882068783164
      ],
      [
        "bi",
        -11.031529250619979
      ],
      [
        "▁expert",
        -9.233322288233786
      ],
      [
        "lla",
        -11.55015558589468
      ],
      [
        "▁source",
        -8.587537859194317
      ],
      [
        "/01/200",
        -12.253837409322445
      ],
      [
        "any",
        -9.173355829436742
      ],
      [
        "▁415",
        -11.58093456553975
      ],
      [
        "of",
        -7.711049108475501
      ],
      [
        "=============",
        -11.216882392454107
      ],
      [
        "▁intelligence",
        -9.437727653063284
      ],
      [
        "ition",
        -9.127816098095735
      ],
      [
        ":32",
        -12.490201473690343
      ],
      [
        "/01",
        -12.978977334180982
      ],
      [
        "8/01",
        -14.138566737487656
      ],
      [
        "▁interest",
        -7.8841830716920045
      ],
      [
        "▁popular",
        -9.216656727367196
      ],
      [
        "wha",
        -12.930203603982541
      ],
      [
        "-44",
        -14.00929965221193
      ],
      [
        "▁path",
        -9.453428611366956
      ],
      [
        "/10/200",
        -11.680262662674137
      ],
      [
        "on",
        -10.927554331646155
      ],
      [
        "▁69",
        -13.421823213516547
      ],
      [
        "▁island",
        -8.322916155942726
      ],
      [
        "0981",
        -14.135593250866743
      ],
      [
        "ent",
        -7.2508152056311115
      ],
      [
        "▁doctor",
        -8.570049751681912
      ],
      [
        "▁wide",
        -8.832873757790887
      ],
      [
        "gen",
        -8.8430279038182
      ],
      [
        "▁taco",
        -9.129668645108982
      ],
      [
        "ri",
        -7.147276753752399
      ],
      [
        "▁david",
        -9.30291563676381
      ],
      [
        "noth",
        -10.310046823389452
      ],
      [
        "▁laura",
        -7.896577501300375
      ],
      [
        "age",
        -11.003488229021976
      ],
      [
        "▁baby",
        -7.546433875679714
      ],
      [
        "1.3",
        -11.69160675419613
      ],
      [
        "k",
        -9.838251410787471
      ],
      [
        "▁17,",
        -14.128355496279145
      ],
      [
        "y",
        -5.310532547169547
      ],
      [
        "▁1000",
        -10.355355157779499
      ],
      [
        "▁30",
        -9.486190054048716
      ],
      [
        "▁six",
        -8.466198163007565
      ],
      [
        "through",
        -10.343789277758114
      ],
      [
        "▁50",
        -9.85620643860546
      ],
      [
        "238",
        -12.736357786554253
      ],
      [
        "▁listen",
        -8.749738043853295
      ],
      [
        "▁comp",
        -8.338081157888505
      ],
      [
        "▁express",
        -8.929417914309537
      ],
      [
        "ough",
        -7.869987987627029
      ],
      [
        "▁speak",
        -8.624089345065224
      ],
      [
        "▁sudden",
        -9.285459839963249
      ],
      [
        "▁our",
        -6.8694529814894745
      ],
      [
        "ang",
        -11.833863112049684
      ],
      [
        "▁winter",
        -9.064270977641193
      ],
      [
        "▁375",
        -13.567938652830124
      ],
      [
        "▁82",
        -11.78840042592635
      ],
      [
        "▁save",
        -8.80732772472192
      ],
      [
        "343",
        -12.390815633755022
      ],
      [
        "▁saying",
        -8.896075748815
      ],
      [
        "▁04:4",
        -12.694115992812023
      ],
      [
        "▁reli",
        -9.485358987219954
      ],
      [
        "▁meal",
        -8.663911325144536
      ],
      [
        "▁section",
        -9.06369677004811
      ],
      [
        "▁tog",
        -8.109197478131247
      ],
      [
        "▁apartment",
        -9.45914834815667
      ],
      [
        "108",
        -12.520739791687621
      ],
      [
        "▁minne",
        -9.064856351970965
      ],
      [
        "▁terribl",
        -9.384530569014213
      ],
      [
        "6867",
        -13.1370270105642
      ],
      [
        "▁1.",
        -11.516512236922686
      ],
      [
        "adelphi",
        -7.111725521570295
      ],
      [
        "canada",
        -9.207455906658074
      ],
      [
        "▁s",
        -12.258378671938006
      ],
      [
        "▁turn",
        -7.568144309718592
      ],
      [
        "▁1940",
        -12.335329628465026
      ],
      [
        "▁7.",
        -12.563655679205034
      ],
      [
        "nson@enron",
        -11.833845510207494
      ],
      [
        "ic",
        -6.91688763267916
      ],
      [
        "▁better",
        -7.624404749596124
      ],
      [
        "▁va",
        -9.05559998514169
      ],
      [
        "002",
        -14.61004216545788
      ],
      [
        "ut",
        -11.124828315595805
      ],
      [
        "▁google",
        -9.285057413080233
      ],
      [
        "▁jose",
        -8.957217217278583
      ],
      [
        "▁half",
        -8.559099409172754
      ],
      [
        "▁fat",
        -9.075277988164977
      ],
      [
        "928",
        -14.76729306089482
      ],
      [
        "▁applie",
        -9.437981343054203
      ],
      [
        "400",
        -11.158984950287465
      ],
      [
        "▁state",
        -7.084784572624046
      ],
      [
        "/31/200",
        -14.531245091965793
      ],
      [
        "▁vi",
        -8.399841972136993
      ],
      [
        "at",
        -7.4784153419715915
      ],
      [
        "▁version",
        -9.321107518969331
      ],
      [
        "-59",
        -13.070384567929214
      ],
      [
        "47",
        -11.295163113814404
      ],
      [
        "um",
        -7.195936018384947
      ],
      [
        "▁someon",
        -8.389355761262244
      ],
      [
        "63",
        -13.001747287727072
      ],
      [
        "▁eu",
        -9.218965206608047
      ],
      [
        "tion",
        -7.915784878248402
      ],
      [
        "ls",
        -11.685671346963831
      ],
      [
        "7",
        -8.494770528860942
      ],
      [
        "▁gri",
        -9.093158576266752
      ],
      [
        "▁dec",
        -8.185402736637872
      ],
      [
        "▁sound",
        -8.326542185238385
      ],
      [
        "ors",
        -9.035631897303896
      ],
      [
        "▁king",
        -9.167495426394733
      ],
      [
        "296",
        -12.485626599436337
      ],
      [
        "whe",
        -11.84489578683961
      ],
      [
        "66",
        -12.073162576097861
      ],
      [
        "900",
        -12.649802691990901
      ],
      [
        "ins",
        -12.689876329818208
      ],
      [
        "▁big",
        -7.060017274274955
      ],
      [
        "▁got",
        -9.69475897458434
      ],
      [
        "2/",
        -14.043906342491137
      ],
      [
        "▁shar",
        -9.09657546447218
      ],
      [
        "..",
        -11.613151332723893
      ],
      [
        "500",
        -11.860447827041964
      ],
      [
        "▁928",
        -14.21094168812489
      ],
      [
        "/08/",
        -13.300465877902399
      ],
      [
        "09",
        -11.90827491673484
      ],
      [
        "▁so",
        -12.844909382572624
      ],
      [
        "2/200",
        -11.389975573398571
      ],
      [
        "ot",
        -13.94217627046138
      ],
      [
        "▁abou",
        -6.522750562308343
      ],
      [
        "▁network",
        -9.479897033600011
      ],
      [
        "▁code",
        -8.701200383260678
      ],
      [
        "▁protect",
        -8.993558966190022
      ],
      [
        "▁p",
        -9.90999624969824
      ],
      [
        "▁11:16:",
        -13.156524772672467
      ],
      [
        "088",
        -14.609238966070613
      ],
      [
        "****************",
        -9.647989595493517
      ],
      [
        "▁there",
        -6.2148264473071615
      ],
      [
        "▁temp",
        -9.25024760440739
      ],
      [
        "▁opinion",
        -9.358483151541456
      ],
      [
        "3-3",
        -13.158791324548858
      ],
      [
        "in",
        -6.8126454986383775
      ],
      [
        "185",
        -14.936288602100408
      ],
      [
        ".com/",
        -9.15353441579065
      ],
      [
        "six",
        -10.787426841008156
      ],
      [
        "▁703",
        -13.389617785203246
      ],
      [
        "▁decision",
        -8.709150859755374
      ],
      [
        "ur",
        -11.393468614066895
      ],
      [
        "▁movie",
        -8.490661238715285
      ],
      [
        "▁du",
        -8.315982365261156
      ],
      [
        "▁saw",
        -7.888727547702498
      ],
      [
        "h",
        -9.117748607228467
      ],
      [
        "▁100,000",
        -11.258550211967702
      ],
      [
        "199",
        -11.808463155916124
      ],
      [
        "▁twi",
        -8.96465989225911
      ],
      [
        "ca",
        -10.50055351711131
      ],
      [
        "▁2",
        -8.323821680644631
      ],
      [
        "▁al",
        -5.937467870188136
      ],
      [
        "▁weapon",
        -9.092466611229273
      ],
      [
        "▁explor",
        -9.23332187576857
      ],
      [
        "▁cry",
        -9.085279096331416
      ],
      [
        "ook",
        -9.212274363111531
      ],
      [
        "▁no",
        -7.909575133478278
      ],
      [
        "▁forward",
        -8.527755422434613
      ],
      [
        "▁force",
        -8.226163264373263
      ],
      [
        "und",
        -8.394454848542383
      ],
      [
        "▁face",
        -7.917214705659844
      ],
      [
        "▁inc",
        -8.725250090019678
      ],
      [
        "▁bulldo",
        -9.479837666752841
      ],
      [
        "nc",
        -13.143028727913363
      ],
      [
        "tar",
        -9.390873903757038
      ],
      [
        "▁price",
        -7.749061059209247
      ],
      [
        "▁150",
        -11.06156230055472
      ],
      [
        "ur",
        -10.506677442453604
      ],
      [
        "3:5",
        -14.208247099564232
      ],
      [
        "28",
        -10.97103305750776
      ],
      [
        "130",
        -14.874720468683947
      ],
      [
        "▁am",
        -7.504540412758822
      ],
      [
        "▁ones",
        -12.644688079861359
      ],
      [
        "▁twa",
        -9.419144142525125
      ],
      [
        "▁straight",
        -9.285057345847179
      ],
      [
        "▁enter",
        -9.040646191921816
      ],
      [
        "ad",
        -11.29363953844414
      ],
      [
        "w",
        -4.938168009100055
      ],
      [
        "at",
        -11.735037344101684
      ],
      [
        "t",
        -4.855431475116225
      ],
      [
        "ated",
        -8.14417362803356
      ],
      [
        "art",
        -8.920651376889344
      ],
      [
        "29",
        -11.000795650078883
      ],
      [
        "98",
        -10.894723327413537
      ],
      [
        "&",
        -10.750452492101797
      ],
      [
        "▁di",
        -9.299796853513923
      ],
      [
        "▁n",
        -10.854310079964955
      ],
      [
        "ether",
        -7.974193418872432
      ],
      [
        "ern",
        -8.89672716777547
      ],
      [
        "▁creat",
        -8.801459216929164
      ],
      [
        "95",
        -11.454904720194879
      ],
      [
        "ul",
        -7.561824814818439
      ],
      [
        "-19",
        -14.096896478575978
      ],
      [
        "▁9.",
        -14.140127953573415
      ],
      [
        "thi",
        -7.4687070885228275
      ],
      [
        "▁introduc",
        -8.982011362448398
      ],
      [
        "▁murder",
        -9.302916919835535
      ],
      [
        "il",
        -6.945403971323207
      ],
      [
        "ver",
        -11.024067939475756
      ],
      [
        "most",
        -8.097267040735842
      ],
      [
        "▁subject",
        -8.679733769747534
      ],
      [
        "▁front",
        -8.269957627238659
      ],
      [
        "▁proper",
        -9.021095426288998
      ],
      [
        "36",
        -11.652622853764742
      ],
      [
        "agr",
        -10.984714191306647
      ],
      [
        "▁attention",
        -8.699246431356801
      ],
      [
        "▁central",
        -9.200261268772064
      ],
      [
        "▁124",
        -12.957445890925836
      ],
      [
        "▁01:",
        -12.702476815545065
      ],
      [
        "▁z",
        -11.679987020174599
      ],
      [
        "▁",
        -0.7229493926812545
      ],
      [
        "▁172",
        -13.09131332977712
      ],
      [
        "▁6.2",
        -13.59099710178936
      ],
      [
        "is",
        -9.444125738853518
      ],
      [
        "▁ja",
        -8.75489157243334
      ],
      [
        "▁r",
        -10.787481821924922
      ],
      [
        "▁hour",
        -7.915317067221076
      ],
      [
        "190",
        -13.810053399207337
      ],
      [
        "▁view",
        -8.02085085885247
      ],
      [
        "▁stoo",
        -9.1949304447066
      ],
      [
        "▁problem",
        -7.711670384366869
      ],
      [
        "▁mo",
        -11.730657660372195
      ],
      [
        "security",
        -8.511195542049105
      ],
      [
        "▁generat",
        -9.436348314165311
      ],
      [
        "▁adult",
        -9.267522862061087
      ],
      [
        "▁climb",
        -9.302912806792664
      ],
      [
        "▁breakfast",
        -8.689442434269353
      ],
      [
        "il",
        -11.044022491264839
      ],
      [
        "▁life",
        -7.423548496518453
      ],
      [
        "74",
        -12.34134876797
      ],
      [
        "▁heavy",
        -9.358481269033254
      ],
      [
        "m",
        -5.968008717968257
      ],
      [
        "▁rain",
        -8.774566461397919
      ],
      [
        "thes",
        -10.352235109980318
      ],
      [
        "▁area",
        -7.709226061424238
      ],
      [
        "▁animal",
        -8.134721613395833
      ],
      [
        "159",
        -14.034648351999111
      ],
      [
        "to",
        -8.568824384538232
      ],
      [
        "5000",
        -13.766487213310356
      ],
      [
        "474",
        -14.504383402546411
      ],
      [
        "▁amazing",
        -9.152635647225232
      ],
      [
        "▁india",
        -8.655951773765649
      ],
      [
        "▁190",
        -11.796319890941167
      ],
      [
        "▁para",
        -9.095461738780365
      ],
      [
        "€",
        -10.750452492101797
      ],
      [
        "by",
        -8.921716996317237
      ],
      [
        "▁indiana",
        -8.508209370476877
      ],
      [
        "______________",
        -10.890899768835993
      ],
      [
        "▁concept",
        -9.184220755485647
      ],
      [
        "ban",
        -8.863998678055278
      ],
      [
        "▁finger",
        -8.680933932740388
      ],
      [
        "▁flight",
        -5.13634912581686
      ],
      [
        "▁found",
        -7.691961485952451
      ],
      [
        "p",
        -7.972623554296506
      ],
      [
        "▁1.4",
        -12.362851284027002
      ],
      [
        "▁401",
        -14.13652949020046
      ],
      [
        "▁san",
        -6.3522289742939755
      ],
      [
        "/15/200",
        -11.71241481715062
      ],
      [
        "orrow",
        -8.136880108973667
      ],
      [
        "▁mari",
        -11.608463054468066
      ],
      [
        "w",
        -6.620321346354703
      ],
      [
        "179",
        -13.39745496023807
      ],
      [
        "houston",
        -8.293769357863145
      ],
      [
        "50",
        -10.090879082816057
      ],
      [
        "ver",
        -7.870001327357097
      ],
      [
        "▁analys",
        -9.225790506890544
      ],
      [
        "having",
        -8.25480320721967
      ],
      [
        "d",
        -7.957113490295205
      ],
      [
        "________________",
        -9.675548522665636
      ],
      [
        "▁most",
        -7.114565288015805
      ],
      [
        "▁method",
        -8.83630250105598
      ],
      [
        "888",
        -14.243603115788291
      ],
      [
        "▁w/o",
        -13.283869278045032
      ],
      [
        "▁bed",
        -8.361339988649735
      ],
      [
        "▁element",
        -9.092493755545314
      ],
      [
        "▁us",
        -11.512281127981279
      ],
      [
        "▁service",
        -7.385787973910443
      ],
      [
        "▁case",
        -7.87164977499383
      ],
      [
        "▁women",
        -8.49501001346341
      ],
      [
        "▁benefit",
        -8.956203834511657
      ],
      [
        "▁sq",
        -9.311085010968922
      ],
      [
        "▁55",
        -11.36494310179424
      ],
      [
        "▁grandmother",
        -9.321094601332543
      ],
      [
        "▁cross",
        -8.882601384987055
      ],
      [
        "hal",
        -12.11520426761416
      ],
      [
        "ough",
        -8.427482906163835
      ],
      [
        "er",
        -5.2050555028833685
      ],
      [
        "▁twenty-",
        -12.16465112501011
      ],
      [
        "▁1338",
        -13.184186855170024
      ],
      [
        ".",
        -6.4180026618428165
      ],
      [
        "0072",
        -13.439753158054558
      ],
      [
        "ar",
        -8.96739030467699
      ],
      [
        "5,7",
        -13.612706607221204
      ],
      [
        "▁2",
        -10.556276463566192
      ],
      [
        "▁attend",
        -8.943552896883073
      ],
      [
        "▁poet",
        -9.290557250469163
      ],
      [
        "▁240",
        -13.106045885865703
      ],
      [
        "▁account",
        -8.570052354223293
      ],
      [
        "▁him",
        -6.551944350379654
      ],
      [
        "▁750",
        -12.229681738664153
      ],
      [
        "42",
        -12.274953641953008
      ],
      [
        "sible",
        -9.190698177059708
      ],
      [
        "▁one",
        -6.339602012111239
      ],
      [
        "▁econom",
        -8.437004820376927
      ],
      [
        "▁h-00",
        -14.077939751247342
      ],
      [
        "▁star",
        -8.14527790040605
      ],
      [
        "▁p",
        -6.971191907334956
      ],
      [
        "ster",
        -11.33481441047147
      ],
      [
        "bb",
        -8.841923596694695
      ],
      [
        "62",
        -12.786065695044039
      ],
      [
        "6-84",
        -14.806907614809187
      ],
      [
        "▁alon",
        -8.69157456885372
      ],
      [
        "▁ham",
        -8.897939982664708
      ],
      [
        "al",
        -10.361669615324121
      ],
      [
        "bal",
        -10.581441968368038
      ],
      [
        "▁p",
        -13.445667666071776
      ],
      [
        "▁!",
        -6.755596490218561
      ],
      [
        "▁sick",
        -9.236105372964726
      ],
      [
        "▁similar",
        -9.049603576178495
      ],
      [
        "▁science",
        -9.001748761538906
      ],
      [
        "▁simpl",
        -8.811087065123843
      ],
      [
        "940",
        -13.144619348236319
      ],
      [
        "--------",
        -11.160764127950651
      ],
      [
        "▁circle",
        -9.189127684803035
      ],
      [
        "▁not",
        -11.602694169155521
      ],
      [
        "▁335",
        -13.289610428496676
      ],
      [
        ".4",
        -12.436816092376473
      ],
      [
        "side",
        -8.765355711292926
      ],
      [
        "▁programme",
        -8.969842060668356
      ],
      [
        "▁determine",
        -9.137252438523475
      ],
      [
        "▁help",
        -6.983886387995887
      ],
      [
        "▁airline",
        -7.072390819400008
      ],
      [
        "v",
        -8.162352736604976
      ],
      [
        "▁37",
        -11.88765483250735
      ],
      [
        "----",
        -10.450866178525061
      ],
      [
        "▁water",
        -7.407185368231337
      ],
      [
        "▁along",
        -9.01432402308101
      ],
      [
        "▁climate",
        -9.33961297865113
      ],
      [
        "▁law",
        -8.03589962893776
      ],
      [
        "te",
        -10.853311653238517
      ],
      [
        "ft",
        -14.523025007239074
      ],
      [
        "▁shoe",
        -8.471207512857436
      ],
      [
        "▁01/1",
        -11.985543249189035
      ],
      [
        "▁unit",
        -9.22035681408232
      ],
      [
        "7:3",
        -13.59615174620778
      ],
      [
        "▁late",
        -7.8343796688237894
      ],
      [
        "56",
        -12.270905061205726
      ],
      [
        "▁52",
        -13.489944193561968
      ],
      [
        "▁mention",
        -8.860124567583966
      ],
      [
        "466",
        -11.802185778398112
      ],
      [
        "0.00",
        -12.093399042272235
      ],
      [
        "▁couple",
        -8.535992633842405
      ],
      [
        "▁gu",
        -8.57607712131697
      ],
      [
        "▁doggie",
        -8.67989770955515
      ],
      [
        "880",
        -15.44640996818414
      ],
      [
        "▁title",
        -9.458675931298345
      ],
      [
        "▁special",
        -8.3739270774801
      ],
      [
        "▁station",
        -8.811991768344281
      ],
      [
        "187",
        -12.753397997597109
      ],
      [
        "▁month",
        -7.661263725797659
      ],
      [
        "▁present",
        -8.108183123337689
      ],
      [
        "▁as",
        -6.8487368666545105
      ],
      [
        "▁document",
        -8.623384389050628
      ],
      [
        "day",
        -9.08668385851262
      ],
      [
        "3.1",
        -12.945575938572823
      ],
      [
        "▁pig",
        -9.369181804127194
      ],
      [
        "▁'",
        -7.870610159838657
      ],
      [
        "▁congress",
        -9.18413204735796
      ],
      [
        "▁farm",
        -9.463778130953877
      ],
      [
        "▁department",
        -9.023307413585153
      ],
      [
        "▁look",
        -6.129075583363739
      ],
      [
        "ere",
        -10.431743240538172
      ],
      [
        "▁thanks",
        -7.871898693129786
      ],
      [
        "▁texa",
        -8.719147810234261
      ],
      [
        "▁risk",
        -8.956420314468527
      ],
      [
        "▁899-4",
        -13.136770620605855
      ],
      [
        "---------",
        -11.42153724811176
      ],
      [
        "▁design",
        -8.498427167692373
      ],
      [
        "▁develop",
        -8.37321975814184
      ],
      [
        "!!!!!!!!!!!!!!!!",
        -11.406486109637537
      ],
      [
        "▁standard",
        -9.268628420925303
      ],
      [
        "▁oh",
        -6.371531704994283
      ],
      [
        "▁2000",
        -9.714470099810217
      ],
      [
        "▁um",
        -7.036908117612676
      ],
      [
        "▁!!!!!!!",
        -11.688410197959811
      ],
      [
        "@",
        -10.554571148747016
      ],
      [
        "▁shal",
        -8.887905078232698
      ],
      [
        "▁happ",
        -8.244998459925089
      ],
      [
        "4",
        -8.42520533948636
      ],
      [
        "▁hum",
        -9.448611413692879
      ],
      [
        "▁alway",
        -7.588793854884187
      ],
      [
        "▁business",
        -7.905459198446441
      ],
      [
        "▁allowed",
        -9.280557163694084
      ],
      [
        "▁16",
        -9.237816764183771
      ],
      [
        "▁safe",
        -8.381472408601297
      ],
      [
        "▁rate",
        -8.502301486008594
      ],
      [
        "er",
        -8.73873720195392
      ],
      [
        "▁08/0",
        -12.957041608583907
      ],
      [
        "*****",
        -11.566808758753416
      ],
      [
        "an",
        -8.57482120710274
      ],
      [
        "ro",
        -11.369268642045476
      ],
      [
        "▁impress",
        -9.425645623569224
      ],
      [
        "▁200,",
        -14.14712352768953
      ],
      [
        "▁cause",
        -8.419775699577377
      ],
      [
        "▁purchase",
        -9.450782720003156
      ],
      [
        "▁un",
        -6.949505867999903
      ],
      [
        "row",
        -9.080148648220085
      ],
      [
        "st.",
        -7.961080282360186
      ],
      [
        "enron",
        -11.020742050745039
      ],
      [
        "▁0.3",
        -13.34791874631892
      ],
      [
        "▁example",
        -7.96508404169245
      ],
      [
        "▁careful",
        -9.304289284637445
      ],
      [
        "▁wou",
        -13.229284662502392
      ],
      [
        "▁60,00",
        -13.953467716680118
      ],
      [
        "▁fall",
        -7.952996807523438
      ],
      [
        "taking",
        -8.142583171213966
      ],
      [
        "▁",
        -1.3739155028004877
      ],
      [
        "305",
        -14.449579635922536
      ],
      [
        "ior",
        -8.992303881116104
      ],
      [
        "—",
        -6.155130551164682
      ],
      [
        "!!!!!!",
        -10.851202100899231
      ],
      [
        "der",
        -8.368736154867895
      ],
      [
        "[UNK]",
        0.0
      ],
      [
        "▁record",
        -8.192387930378501
      ],
      [
        "▁05",
        -11.350817077834545
      ],
      [
        "b",
        -5.330992993415272
      ],
      [
        "let",
        -11.33634975264456
      ],
      [
        "/8/",
        -13.141982870234665
      ],
      [
        "▁spen",
        -9.279798267960071
      ],
      [
        "▁09:1",
        -12.941428925022906
      ],
      [
        "om",
        -12.8212762194449
      ],
      [
        "▁11/8/",
        -13.136932820969
      ],
      [
        "▁alre",
        -7.760373454554562
      ],
      [
        "▁final",
        -8.20358079882001
      ],
      [
        "▁talk",
        -7.2246175086016935
      ],
      [
        "▁government",
        -7.905508617095933
      ],
      [
        "g",
        -6.096330494060682
      ],
      [
        "▁leav",
        -7.397352012425666
      ],
      [
        "▁join",
        -8.761611441660243
      ],
      [
        "▁how",
        -5.985237486863187
      ],
      [
        "▁police",
        -8.900531768048698
      ],
      [
        "▁mam",
        -9.232711548908595
      ],
      [
        "2-20",
        -13.143407717162013
      ],
      [
        "▁chicken",
        -8.527663203247066
      ],
      [
        "▁discuss",
        -8.63093987568281
      ],
      [
        "▁can",
        -8.655796546149432
      ],
      [
        "/08",
        -13.1520347351975
      ],
      [
        "▁230",
        -11.64354903219914
      ],
      [
        "rench",
        -8.763932936891983
      ],
      [
        "_____________",
        -11.525029049914908
      ],
      [
        "v",
        -6.637390567748724
      ],
      [
        "317",
        -12.522027844751664
      ],
      [
        "▁middle",
        -8.57005088348302
      ],
      [
        "tter",
        -8.918767816572103
      ],
      [
        "▁financial",
        -8.82506533676229
      ],
      [
        "ling",
        -7.929749040505826
      ],
      [
        "▁exist",
        -8.615224431346014
      ],
      [
        "▁ne",
        -8.742753231612326
      ],
      [
        "▁nine",
        -9.205736100991716
      ],
      [
        "▁07:5",
        -13.366398234128265
      ],
      [
        "▁06/01/200",
        -12.339716654186573
      ],
      [
        "▁august",
        -8.339131121506124
      ],
      [
        "▁3-5",
        -14.178510138455286
      ],
      [
        ",",
        -2.069537032793109
      ],
      [
        "986",
        -15.106985701431281
      ],
      [
        "▁project",
        -8.241013731660468
      ],
      [
        "6/200",
        -15.097693619441639
      ],
      [
        "bru",
        -8.880569168605344
      ],
      [
        "▁were",
        -8.561856678746626
      ],
      [
        "head",
        -8.766458726024013
      ],
      [
        "794",
        -15.05311632631664
      ],
      [
        "90",
        -11.556925731215681
      ],
      [
        "▁explain",
        -8.605281237073928
      ],
      [
        "▁step",
        -8.519195235183968
      ],
      [
        "▁give",
        -6.663791035394664
      ],
      [
        "internet",
        -8.825590452305224
      ],
      [
        "rg",
        -11.834427539130644
      ],
      [
        "▁be",
        -11.273560827601584
      ],
      [
        "▁some",
        -8.474755848595633
      ],
      [
        "800.",
        -12.777623006555508
      ],
      [
        "▁08:",
        -12.893960135802669
      ],
      [
        "-20",
        -11.85227201413492
      ],
      [
        "▁d",
        -10.280019826971163
      ],
      [
        "▁k",
        -11.022160819746748
      ],
      [
        "▁louis",
        -8.760184100810815
      ],
      [
        "▁money",
        -7.974785059150473
      ],
      [
        "▁saturday",
        -8.140337292772891
      ],
      [
        "▁order",
        -7.784069344065935
      ],
      [
        "4",
        -7.806431209066833
      ],
      [
        "▁percentage",
        -9.153042650529773
      ],
      [
        "▁point",
        -7.604953291364946
      ],
      [
        "▁societ",
        -8.535991084832455
      ],
      [
        "197",
        -11.99851441851724
      ],
      [
        "▁roman",
        -7.7262340949204065
      ],
      [
        "▁penn",
        -9.07658852170224
      ],
      [
        "▁plane",
        -8.84135033592889
      ],
      [
        "▁aspect",
        -9.285064818823624
      ],
      [
        "67",
        -11.822474206709575
      ],
      [
        "▁1-800-",
        -12.663110100375743
      ],
      [
        "▁got",
        -6.575460791453855
      ],
      [
        "1",
        -9.7911173076794
      ],
      [
        "===",
        -10.728766094539285
      ],
      [
        "▁comment",
        -8.624209708606559
      ],
      [
        "▁51",
        -12.8531108732909
      ],
      [
        "or",
        -9.02650783446284
      ],
      [
        "▁jan",
        -9.415534310511545
      ],
      [
        "▁citizens",
        -9.216606301738508
      ],
      [
        "▁wa",
        -11.64081789390056
      ],
      [
        "wer",
        -11.29929180413551
      ],
      [
        "▁spider",
        -9.377737114398595
      ],
      [
        "mine",
        -11.79533885365613
      ],
      [
        "▁01:0",
        -13.214497832237068
      ],
      [
        "81",
        -13.96535903970435
      ],
      [
        "▁us",
        -9.506253679050264
      ],
      [
        "▁jul",
        -8.046448147272812
      ],
      [
        "▁nice",
        -7.6312034328629545
      ],
      [
        "58",
        -11.951611418715437
      ],
      [
        "ria",
        -11.73691810135671
      ],
      [
        "▁b",
        -6.928886776619579
      ],
      [
        "even",
        -10.255110157750392
      ],
      [
        "▁10,",
        -14.137997860855931
      ],
      [
        "▁978",
        -14.088774827596918
      ],
      [
        "▁short",
        -8.074919767007621
      ],
      [
        "▁noon",
        -8.50844939746029
      ],
      [
        "▁64.",
        -14.236755398932868
      ],
      [
        "▁64",
        -12.54155585686422
      ],
      [
        "▁sector",
        -9.397330827019227
      ],
      [
        "▁cousin",
        -11.833838526586176
      ],
      [
        "▁wonder",
        -8.698905957585577
      ],
      [
        "▁flower",
        -9.072013867325332
      ],
      [
        "183",
        -12.30278992028547
      ],
      [
        "▁40",
        -10.154022803970175
      ],
      [
        "▁2.",
        -11.0544669463262
      ],
      [
        "▁tom",
        -7.957814130123761
      ],
      [
        "▁moon",
        -9.371780109731455
      ],
      [
        "▁letter",
        -8.283342674621665
      ],
      [
        "▁judge",
        -9.45890423524743
      ],
      [
        "72",
        -11.567392815125887
      ],
      [
        "apita",
        -11.833815009729172
      ],
      [
        "ca",
        -8.252335262780884
      ],
      [
        "bu",
        -8.933136665927833
      ],
      [
        "▁814",
        -13.626596620227598
      ],
      [
        "ong",
        -8.800996149081914
      ],
      [
        "▁>>",
        -8.408942050936023
      ],
      [
        "acio",
        -11.783930075849659
      ],
      [
        "▁coast",
        -9.33970354179852
      ],
      [
        "pa",
        -7.865608297240437
      ],
      [
        "▁94720-",
        -13.136776257797244
      ],
      [
        "&",
        -8.721264882567068
      ],
      [
        "one",
        -8.564066777187822
      ],
      [
        "===============",
        -10.485113607253007
      ],
      [
        "eb",
        -11.780674056722553
      ],
      [
        "▁excellent",
        -8.689443345147737
      ],
      [
        "ons",
        -10.56595692661573
      ],
      [
        "▁education",
        -8.770704693436638
      ],
      [
        "▁thought",
        -7.60018103901237
      ],
      [
        "▁vs",
        -11.575267346929792
      ],
      [
        "▁713-853-",
        -12.650615157195254
      ],
      [
        "▁start",
        -7.288919533272805
      ],
      [
        "▁press",
        -8.907300424867906
      ],
      [
        "ry@enron",
        -11.848195031338767
      ],
      [
        "▁respond",
        -9.397319582307512
      ],
      [
        "37.",
        -13.177392460549235
      ],
      [
        "▁tax",
        -8.967388484282994
      ],
      [
        "▁wake",
        -9.45874376421201
      ],
      [
        "est",
        -7.2638654368414715
      ],
      [
        "▁tea",
        -8.735294306497288
      ],
      [
        "▁bug",
        -9.203873502317869
      ],
      [
        "▁as",
        -8.425093425843386
      ],
      [
        "▁brain",
        -9.268975673971514
      ],
      [
        "201",
        -10.775007777357064
      ],
      [
        "▁2.9",
        -12.683758666043078
      ],
      [
        "▁hi",
        -7.478900208156902
      ],
      [
        "▁77",
        -12.39158047060522
      ],
      [
        "680",
        -12.884090929504229
      ],
      [
        "’",
        -8.356425803803674
      ],
      [
        "▁times",
        -8.658193721260975
      ],
      [
        "ward",
        -11.834056055878488
      ],
      [
        "▁ship",
        -8.853183430174463
      ],
      [
        "washington",
        -7.311773059098636
      ],
      [
        "is",
        -6.826998565267502
      ],
      [
        "419",
        -15.147059457703024
      ],
      [
        "-f",
        -11.867378889831972
      ],
      [
        "ook",
        -11.669820182477455
      ],
      [
        "▁birthday",
        -8.67016535774053
      ],
      [
        "832",
        -13.25468514613769
      ],
      [
        "▁brit",
        -9.103986955656643
      ],
      [
        "▁cri",
        -8.850982704990425
      ],
      [
        "▁to",
        -11.047449325321436
      ],
      [
        "here",
        -8.1828814778635
      ],
      [
        "history",
        -8.596385151016023
      ],
      [
        "ris",
        -10.491595483652752
      ],
      [
        "▁03:",
        -11.982710755806442
      ],
      [
        "▁more",
        -6.131523263062251
      ],
      [
        "4-6",
        -14.856897830413907
      ],
      [
        ":15",
        -12.622561123925353
      ],
      [
        "▁serve",
        -8.130137942141157
      ],
      [
        "▁beat",
        -8.86396425508639
      ],
      [
        "et",
        -7.40900309027625
      ],
      [
        "▁lu",
        -8.657790556456982
      ],
      [
        "er",
        -10.869329306103351
      ],
      [
        "▁fla",
        -9.231904641082046
      ],
      [
        "▁european",
        -8.53683435789577
      ],
      [
        "▁38",
        -10.592551675736491
      ],
      [
        "▁755",
        -13.738721046877318
      ],
      [
        "ady",
        -7.724935193210339
      ],
      [
        "▁forty-",
        -12.336962208317317
      ],
      [
        "▁road",
        -8.527815339463732
      ],
      [
        "x",
        -10.14291768608771
      ],
      [
        "▁del",
        -11.06091041640448
      ],
      [
        "▁perform",
        -9.267428060819277
      ],
      [
        "4-79",
        -13.475737153577203
      ],
      [
        "▁creative",
        -9.419036456332506
      ],
      [
        "not",
        -8.101082181027035
      ],
      [
        "▁mark",
        -8.433802814841112
      ],
      [
        "gar",
        -9.109780035017742
      ],
      [
        "7/200",
        -11.393922540536888
      ],
      [
        "▁01",
        -11.778088733885701
      ],
      [
        "▁03/2",
        -13.199689666990963
      ],
      [
        "rou",
        -8.854957786186286
      ],
      [
        "▁12/2",
        -13.177041296236148
      ],
      [
        "conne",
        -11.33380572033166
      ],
      [
        "our",
        -8.449365008953343
      ],
      [
        "ka",
        -11.598593399000144
      ],
      [
        "▁pakistan",
        -9.31696554796669
      ],
      [
        "▁197",
        -9.69459253888492
      ],
      [
        "▁course",
        -8.059215663877014
      ],
      [
        "2000",
        -9.70736640342331
      ],
      [
        "▁third",
        -8.587518582692859
      ],
      [
        "▁ones",
        -9.157528673661453
      ],
      [
        "202",
        -13.909683113755968
      ],
      [
        "▁too",
        -6.357359606552462
      ],
      [
        "▁able",
        -8.197164151208376
      ],
      [
        "▁fundamental",
        -9.321094573193802
      ],
      [
        "do",
        -9.846160357156576
      ],
      [
        "min",
        -8.351432278294237
      ],
      [
        "ee",
        -13.339296558323799
      ],
      [
        "▁trip",
        -7.6171272280313325
      ],
      [
        "▁nanda",
        -11.373803937697424
      ],
      [
        "▁na",
        -8.151332163933816
      ],
      [
        "▁pin",
        -9.226219411562406
      ],
      [
        "0.9",
        -15.298300968100728
      ],
      [
        "▁pizza",
        -9.152637911976269
      ],
      [
        "▁whe",
        -8.779464586792184
      ],
      [
        "▁xml",
        -8.943558319623566
      ],
      [
        "3/10/",
        -13.858668163224241
      ],
      [
        "gan",
        -8.109000240996837
      ],
      [
        "▁183",
        -10.543131175840326
      ],
      [
        "▁ti",
        -8.516038583366361
      ],
      [
        "fifty",
        -13.529294893685877
      ],
      [
        "▁ball",
        -7.984127301677496
      ],
      [
        "▁site",
        -8.614808128189022
      ],
      [
        "si",
        -11.213306943358026
      ],
      [
        "▁working",
        -8.41268260442057
      ],
      [
        "040",
        -14.25756983765908
      ],
      [
        "▁pri",
        -11.348572751093645
      ],
      [
        "3-32",
        -14.140185884914017
      ],
      [
        "-84",
        -13.610000242966729
      ],
      [
        "ite",
        -8.55027274426798
      ],
      [
        "b",
        -6.32537973211012
      ],
      [
        "▁further",
        -8.605281261656483
      ],
      [
        "▁item",
        -8.67981566881572
      ],
      [
        "▁wo",
        -11.941090509525177
      ],
      [
        "ad",
        -13.093669832419435
      ],
      [
        "▁forget",
        -9.21665989680845
      ],
      [
        "auv",
        -11.334233271583926
      ],
      [
        "ol",
        -7.6031890526570365
      ],
      [
        "919",
        -14.487614837274576
      ],
      [
        "▁22,",
        -14.13564255438126
      ],
      [
        "▁total",
        -8.760402233104454
      ],
      [
        "▁difficult",
        -8.561414820270276
      ],
      [
        "▁credit",
        -8.969039844600289
      ],
      [
        "oz",
        -13.096519113337363
      ],
      [
        "erre",
        -11.834469720779595
      ],
      [
        "once",
        -8.789961681433875
      ],
      [
        "gri",
        -11.087957216298108
      ],
      [
        "id",
        -7.339463188296634
      ],
      [
        "▁adopt",
        -9.28506079737508
      ],
      [
        "id",
        -11.523085669888701
      ],
      [
        "tan",
        -8.94386680107125
      ],
      [
        "029",
        -14.571113188046223
      ],
      [
        "way",
        -8.425097892577401
      ],
      [
        "▁great",
        -6.94173455512452
      ],
      [
        "sie",
        -11.754802446786904
      ],
      [
        "nter",
        -11.334028696955503
      ],
      [
        "▁implement",
        -8.982011316213576
      ],
      [
        "▁bank",
        -9.008644020305056
      ],
      [
        "▁tam",
        -8.641980672463568
      ],
      [
        "▁council",
        -8.995169230314936
      ],
      [
        "▁35",
        -10.99613841971775
      ],
      [
        "▁de",
        -13.020138656770019
      ],
      [
        "▁depart",
        -8.640730814050844
      ],
      [
        ",9",
        -13.146070500982553
      ],
      [
        "▁wakan",
        -11.83383369829346
      ],
      [
        "▁com",
        -9.718636425590534
      ],
      [
        "▁review",
        -8.285734789753
      ],
      [
        "▁country",
        -7.9374095229821195
      ],
      [
        "▁sit",
        -7.594828483804202
      ],
      [
        "▁other",
        -6.288896977530215
      ],
      [
        "▁hop",
        -11.83466611609779
      ],
      [
        ".99",
        -13.829769440686343
      ],
      [
        "▁man",
        -7.114086891866973
      ],
      [
        "ها",
        -11.833785825409558
      ],
      [
        "8.9",
        -15.33959221900913
      ],
      [
        "▁fact",
        -7.982333429154997
      ],
      [
        "▁e",
        -11.439061779438207
      ],
      [
        "▁suit",
        -9.283135083341412
      ],
      [
        "858",
        -14.142649939049774
      ],
      [
        "▁meat",
        -9.217741195914428
      ],
      [
        "34",
        -11.423907652486516
      ],
      [
        "▁205",
        -12.660918673195054
      ],
      [
        "▁ma",
        -8.017112226473932
      ],
      [
        "▁general",
        -8.05922773660982
      ],
      [
        "thirty",
        -12.183877326748673
      ],
      [
        "▁perfect",
        -8.894458389270973
      ],
      [
        "▁person",
        -7.8820255338065826
      ],
      [
        "hers",
        -14.748162080548967
      ],
      [
        "jo",
        -11.43397011805476
      ],
      [
        "@",
        -8.770704637354378
      ],
      [
        "▁us",
        -6.626421391711564
      ],
      [
        "0,000",
        -10.195250905356877
      ],
      [
        "▁mother",
        -7.937312854097388
      ],
      [
        "988",
        -13.709422723261254
      ],
      [
        "trans",
        -10.240933231132955
      ],
      [
        "▁like",
        -5.812901594015099
      ],
      [
        "▁attempt",
        -8.847664937528982
      ],
      [
        "▁575",
        -13.298948382838432
      ],
      [
        "▁season",
        -9.340218801756293
      ],
      [
        "▁yellow",
        -8.709187613460623
      ],
      [
        "71",
        -11.60846397450329
      ],
      [
        "▁affect",
        -9.168260095875588
      ],
      [
        "rick",
        -9.054948935291522
      ],
      [
        "▁42,00",
        -13.782910433321955
      ],
      [
        "n@enron",
        -11.729776130192164
      ],
      [
        "▁21,",
        -14.146030434996668
      ],
      [
        "▁wh",
        -9.220690979633488
      ],
      [
        "inc",
        -8.135972559800303
      ],
      [
        "▁12",
        -8.716716429943682
      ],
      [
        "▁xsl",
        -10.123975032621118
      ],
      [
        "lotte",
        -8.468857228126392
      ],
      [
        "▁whil",
        -7.852958576257973
      ],
      [
        "▁191",
        -11.896980550058402
      ],
      [
        "▁roll",
        -8.838916832360711
      ],
      [
        "▁rock",
        -8.463473539954041
      ],
      [
        "ik",
        -11.833857830146384
      ],
      [
        "ible",
        -9.196143436331143
      ],
      [
        "▁few",
        -7.65877021458277
      ],
      [
        "ght",
        -14.671549717397365
      ],
      [
        "▁came",
        -7.697227780784615
      ],
      [
        "▁photograph",
        -9.078025570392285
      ],
      [
        "▁environment",
        -9.043529787999816
      ],
      [
        "hi",
        -9.42458128149114
      ],
      [
        "▁bar",
        -8.071273315480267
      ],
      [
        "▁seek",
        -8.97932723430932
      ],
      [
        "▁regional",
        -9.273699075971575
      ],
      [
        "870",
        -12.325971475335379
      ],
      [
        "1507",
        -13.383298432819583
      ],
      [
        "▁3.2",
        -13.445561934583502
      ],
      [
        "▁thirty",
        -9.777242291981953
      ],
      [
        "33",
        -11.518810232972719
      ],
      [
        "▁access",
        -8.04375481951472
      ],
      [
        "▁hands",
        -8.644163836495892
      ],
      [
        "▁306",
        -14.143148896271562
      ],
      [
        "out",
        -8.79875215010852
      ],
      [
        "▁wild",
        -9.20355195540764
      ],
      [
        "▁term",
        -8.262691444169427
      ],
      [
        "▁si",
        -8.948515150589138
      ],
      [
        "▁again",
        -7.123884226758554
      ],
      [
        "▁purpose",
        -9.122097794115687
      ],
      [
        "▁thirt",
        -11.589558869595724
      ],
      [
        "de",
        -9.369169666168602
      ],
      [
        "▁constitution",
        -9.41731948981723
      ],
      [
        "▁hair",
        -8.01395832510704
      ],
      [
        "▁fellow",
        -9.480745310986391
      ],
      [
        "▁agent",
        -9.459580307141533
      ],
      [
        "▁bird",
        -8.425289795079221
      ],
      [
        "d",
        -4.114341191525112
      ],
      [
        "???????????????",
        -11.554970775406666
      ],
      [
        "19-2",
        -14.135609393524858
      ],
      [
        "▁156",
        -11.352272366395722
      ],
      [
        "64",
        -12.106504557730869
      ],
      [
        "▁wan",
        -6.811400397092409
      ],
      [
        "5",
        -7.525741223050758
      ],
      [
        "nal",
        -11.838409662774964
      ],
      [
        "▁maintain",
        -9.200626103584723
      ],
      [
        "▁match",
        -9.18500587117051
      ],
      [
        "233",
        -13.678237943553544
      ],
      [
        "▁nonstop",
        -8.359965118229407
      ],
      [
        "lin",
        -8.669889247315794
      ],
      [
        "than",
        -10.213510771916935
      ],
      [
        "ent",
        -10.352899478348686
      ],
      [
        "▁strateg",
        -9.417322866764238
      ],
      [
        "▁187",
        -11.728130844442212
      ],
      [
        "t",
        -2.6296534203519837
      ],
      [
        "z",
        -11.758838788587859
      ],
      [
        "ack",
        -8.254200762811369
      ],
      [
        "n",
        -4.9763626086880635
      ],
      [
        "▁so",
        -11.218941534601761
      ],
      [
        "**********",
        -11.222325853193087
      ],
      [
        "▁10.",
        -12.227526544380565
      ],
      [
        "▁never",
        -7.426569446895361
      ],
      [
        "▁he",
        -8.181341627242086
      ],
      [
        "▁leaders",
        -9.357159366454384
      ],
      [
        "‘",
        -9.441460514763136
      ],
      [
        "▁complete",
        -8.39572611075491
      ],
      [
        "▁i",
        -7.92159767903883
      ],
      [
        "▁vi",
        -10.603769107239941
      ],
      [
        "▁w/",
        -13.028036467691177
      ],
      [
        "▁raise",
        -9.178604369341468
      ],
      [
        "+",
        -15.518265406639655
      ],
      [
        "▁coffee",
        -8.931045904356257
      ],
      [
        "▁ga",
        -7.524515666659403
      ],
      [
        "▁situation",
        -8.802976107959458
      ],
      [
        "▁67",
        -11.6889463992993
      ],
      [
        "▁b/",
        -12.079815656165398
      ],
      [
        "▁period",
        -8.455634343455467
      ],
      [
        "(",
        -4.749593983020589
      ],
      [
        "2",
        -7.6049283355976325
      ],
      [
        "▁holding",
        -9.335634709137251
      ],
      [
        "/",
        -11.86295882992016
      ],
      [
        "96/",
        -13.58763307569862
      ],
      [
        "1:4",
        -14.232888692478268
      ],
      [
        "tra",
        -8.192058384072824
      ],
      [
        "▁168",
        -12.511084376247195
      ],
      [
        "wise",
        -9.084918910057233
      ],
      [
        "▁sc",
        -8.393453553289538
      ],
      [
        "▁bell",
        -9.3670936031942
      ],
      [
        "▁bu",
        -8.539807235532612
      ],
      [
        "▁children",
        -8.118061985030268
      ],
      [
        "ner",
        -11.893441421125146
      ],
      [
        "sa",
        -10.695860057288726
      ],
      [
        "▁indian",
        -9.011320480352442
      ],
      [
        "▁specific",
        -8.561417037768834
      ],
      [
        "acion",
        -11.365745765385471
      ],
      [
        "▁tha",
        -4.704439761942432
      ],
      [
        "-8",
        -12.581491700602657
      ],
      [
        "▁08:5",
        -12.695296350327887
      ],
      [
        "▁major",
        -8.461192528997785
      ],
      [
        "ston",
        -6.397381409040662
      ],
      [
        "▁knowledge",
        -9.035717065352483
      ],
      [
        "31",
        -11.692241147114807
      ],
      [
        "▁harr",
        -7.994555857934574
      ],
      [
        "10/20",
        -13.973159258028971
      ],
      [
        "▁ton",
        -9.313993778128054
      ],
      [
        "045",
        -14.051548089164978
      ],
      [
        "▁157",
        -12.084632893631422
      ],
      [
        "▁le",
        -10.86344947938667
      ],
      [
        "▁_",
        -7.489743914877709
      ],
      [
        "$",
        -13.701907056799467
      ],
      [
        "▁kar",
        -9.14676914636079
      ],
      [
        "▁capacit",
        -9.339652444279714
      ],
      [
        "▁practice",
        -9.175821333046333
      ],
      [
        "▁their",
        -6.577564744618091
      ],
      [
        "▁sevent",
        -8.689448320450783
      ],
      [
        "▁ko",
        -9.336646544465042
      ],
      [
        "▁single",
        -9.050458117480591
      ],
      [
        "▁bush",
        -7.815454602702461
      ],
      [
        "▁answer",
        -8.381243890602551
      ],
      [
        "▁pott",
        -9.050398777073429
      ],
      [
        "▁when",
        -7.1746790269173095
      ],
      [
        "z",
        -11.587180466242845
      ],
      [
        "ada",
        -9.15558329932448
      ],
      [
        "▁apply",
        -9.132918392127742
      ],
      [
        "▁early",
        -7.885513161119622
      ],
      [
        "▁auster",
        -9.45858177534136
      ],
      [
        "ization",
        -9.424486519676286
      ],
      [
        "▁california",
        -8.81395422527767
      ],
      [
        "ve",
        -7.179020698767759
      ],
      [
        "▁thei",
        -15.118736514093019
      ],
      [
        "▁imagine",
        -9.122097810249327
      ],
      [
        "61",
        -12.975113719148485
      ],
      [
        "y",
        -4.088388950837395
      ],
      [
        "▁new",
        -6.165316119612403
      ],
      [
        "▁49",
        -12.296047747943508
      ],
      [
        "▁remind",
        -9.479931203211212
      ],
      [
        "▁cheese",
        -8.918811434316613
      ],
      [
        "▁200,000",
        -11.169756943986634
      ],
      [
        "▁milk",
        -7.9035435467874215
      ],
      [
        "▁04:1",
        -12.256999863441552
      ],
      [
        "▁tuesday",
        -8.043747939839925
      ],
      [
        "330",
        -13.120737973817718
      ],
      [
        "▁keep",
        -7.549489584849413
      ],
      [
        "▁102",
        -12.015717884418418
      ],
      [
        "1/",
        -13.869957499964796
      ],
      [
        "▁music",
        -8.814181669613612
      ],
      [
        "▁pe",
        -9.603703697944885
      ],
      [
        "▁ha",
        -9.472018468067569
      ],
      [
        "▁71",
        -12.27401445262819
      ],
      [
        "her",
        -11.334030496893174
      ],
      [
        ".3",
        -12.322597446836587
      ],
      [
        "52",
        -12.89288325036499
      ],
      [
        "ula",
        -11.5325592397742
      ],
      [
        "▁lake",
        -8.464283060374191
      ],
      [
        "ant",
        -7.771913969583044
      ],
      [
        "▁left",
        -7.896576691700168
      ],
      [
        "▁cold",
        -8.526486346327324
      ],
      [
        "813",
        -12.636830846163312
      ],
      [
        "▁366",
        -12.639888687731418
      ],
      [
        "get",
        -11.33405405661711
      ],
      [
        "▁count",
        -8.389434935915597
      ],
      [
        "ami",
        -8.25693671035533
      ],
      [
        "12",
        -10.115966630470972
      ],
      [
        "×",
        -11.833785825435129
      ],
      [
        "as",
        -11.683377276244991
      ],
      [
        "▁bite",
        -8.994047791491422
      ],
      [
        "▁find",
        -6.936189724143099
      ],
      [
        "iv",
        -8.364024096655697
      ],
      [
        "▁bet",
        -9.198266971612888
      ],
      [
        "▁1.",
        -12.094938996564373
      ],
      [
        "▁’",
        -10.228851442284377
      ],
      [
        "▁probabl",
        -7.946349374308388
      ],
      [
        "janu",
        -9.012529184372067
      ],
      [
        "▁four",
        -8.194599694491092
      ],
      [
        "½",
        -14.13677057935472
      ],
      [
        "▁attract",
        -9.479837688291516
      ],
      [
        "88",
        -12.876593555634733
      ],
      [
        "[MASK]",
        0.0
      ],
      [
        "where",
        -11.75353131760598
      ],
      [
        "▁date",
        -8.582679340268426
      ],
      [
        "▁demand",
        -9.267764845560109
      ],
      [
        "1602",
        -12.75286170753208
      ],
      [
        "▁trust",
        -9.093463956594574
      ],
      [
        "!!!!!!!!!!",
        -11.520021148139234
      ],
      [
        "▁ca",
        -8.130361962406907
      ],
      [
        "board",
        -9.158413708727863
      ],
      [
        "nte",
        -11.329980172230284
      ],
      [
        "▁42,000",
        -12.744463221080972
      ],
      [
        "828-",
        -13.137496001915123
      ],
      [
        "m",
        -9.434558845565434
      ],
      [
        "▁376",
        -14.053687754394758
      ],
      [
        "le",
        -6.156208793046736
      ],
      [
        "▁political",
        -8.38976114102742
      ],
      [
        "▁281",
        -12.76221967779616
      ],
      [
        "▁river",
        -8.894960140568601
      ],
      [
        "▁decided",
        -8.928317741876294
      ],
      [
        "▁wood",
        -9.264582684763637
      ],
      [
        "▁people",
        -6.4750262662327325
      ],
      [
        "ness",
        -7.710406897402901
      ],
      [
        "▁on",
        -6.120852885470933
      ],
      [
        "th",
        -8.187693223871946
      ],
      [
        "▁0590",
        -13.23014613029047
      ],
      [
        "▁study",
        -8.14038480794115
      ],
      [
        "cy",
        -7.950367526259003
      ],
      [
        "town",
        -8.465258903254005
      ],
      [
        "f",
        -4.036213711664914
      ],
      [
        "onto",
        -8.438593295706436
      ],
      [
        "▁10:4",
        -12.397343587659027
      ],
      [
        "▁3",
        -8.585018104094017
      ],
      [
        "os",
        -14.266191704702232
      ],
      [
        "▁wall",
        -8.814699817942223
      ],
      [
        "▁'",
        -8.499373499932924
      ],
      [
        "age",
        -7.609327764005606
      ],
      [
        "um",
        -10.357854736078675
      ],
      [
        "ry",
        -7.846355199563948
      ],
      [
        "▁ble",
        -9.318490523864863
      ],
      [
        "rio",
        -11.368284490750389
      ],
      [
        "ught",
        -8.455100814478431
      ],
      [
        "▁#",
        -9.37756217200701
      ],
      [
        "▁ben",
        -9.036344534000268
      ],
      [
        "35-",
        -12.600562428656753
      ],
      [
        "▁ex",
        -8.427774897017361
      ],
      [
        "44",
        -11.598422574296848
      ],
      [
        "'",
        -5.811804410257997
      ],
      [
        "▁wha",
        -9.743228513517918
      ],
      [
        "▁return",
        -7.969822759794965
      ],
      [
        "▁)",
        -8.872842140444845
      ],
      [
        "▁color",
        -8.07058591490328
      ],
      [
        "▁statement",
        -9.367110581213284
      ],
      [
        "339",
        -11.238809738318704
      ],
      [
        "ein",
        -15.518265406639655
      ],
      [
        "696",
        -12.743389716032905
      ],
      [
        "▁hav",
        -6.307941970917244
      ],
      [
        "herself",
        -13.45138161859207
      ],
      [
        "ship",
        -8.619687396246926
      ],
      [
        "▁quick",
        -8.403088566148249
      ],
      [
        "▁through",
        -7.510134204880654
      ],
      [
        "at",
        -10.216755346387043
      ],
      [
        "▁blue",
        -8.300430566511789
      ],
      [
        "ors",
        -11.776077782252447
      ],
      [
        "▁airport",
        -7.914527219907147
      ],
      [
        "▁spo",
        -9.187914300464719
      ],
      [
        "▁lower",
        -9.295224184371286
      ],
      [
        "rs",
        -10.527302468335112
      ],
      [
        "1.",
        -10.975907898287584
      ],
      [
        "▁transport",
        -7.607249264941008
      ],
      [
        "▁enjoy",
        -8.298721826529349
      ],
      [
        "6-9",
        -12.684351220659938
      ],
      [
        "▁cla",
        -8.488489221713367
      ],
      [
        "/27/200",
        -11.799692145187812
      ],
      [
        "▁05:5",
        -13.15777586100445
      ],
      [
        "rote",
        -8.887742140375238
      ],
      [
        "▁cruise",
        -9.339612981150038
      ],
      [
        "▁en",
        -7.406324160778273
      ],
      [
        "▁measure",
        -8.843334497481088
      ],
      [
        "/16",
        -14.567007781419006
      ],
      [
        "▁image",
        -8.837018348044026
      ],
      [
        "-90",
        -13.068844075328698
      ],
      [
        "606",
        -13.08386531655481
      ],
      [
        "▁contain",
        -9.068986770881587
      ],
      [
        ".",
        -10.366278973944398
      ],
      [
        "re",
        -7.418210813944742
      ],
      [
        "▁198",
        -9.942974826774229
      ],
      [
        "ing",
        -9.928808428270834
      ],
      [
        "ut",
        -7.568379116798127
      ],
      [
        "▁che",
        -8.09254794576394
      ],
      [
        "▁busy",
        -8.967659238411784
      ],
      [
        "▁richard",
        -9.339831224164172
      ],
      [
        "▁luck",
        -9.201284092354715
      ],
      [
        "moi",
        -11.88521742952827
      ],
      [
        "▁op",
        -9.410963210879657
      ],
      [
        "▁ever",
        -7.942229594798344
      ],
      [
        "!",
        -5.053267665729648
      ],
      [
        "▁treat",
        -8.701189388748887
      ],
      [
        "▁figure",
        -8.651161005150467
      ],
      [
        "▁success",
        -9.320641879552777
      ],
      [
        "45",
        -10.75905829108645
      ],
      [
        "175",
        -13.89952388135222
      ],
      [
        "▁basi",
        -9.301586439885288
      ],
      [
        "▁b",
        -8.234301792178819
      ],
      [
        "▁cow",
        -9.222389023674035
      ],
      [
        "▁gr",
        -8.940966751633571
      ],
      [
        "▁den",
        -9.04984440854133
      ],
      [
        "1.0",
        -14.848236296224862
      ],
      [
        "▁0.1",
        -13.296955699958513
      ],
      [
        "ude",
        -11.343820274385248
      ],
      [
        "▁281-4",
        -12.337157708975118
      ],
      [
        "888.",
        -12.636947950041677
      ],
      [
        "▁814.863.",
        -13.136770579354716
      ],
      [
        "-5",
        -13.761965689359299
      ],
      [
        "ball",
        -9.180405061590378
      ],
      [
        "22",
        -10.750684418784664
      ],
      [
        "mas",
        -8.903198891689637
      ],
      [
        "▁worth",
        -8.20658266051677
      ],
      [
        "▁building",
        -8.618208250147067
      ],
      [
        "▁part",
        -7.214034911025166
      ],
      [
        "▁har",
        -8.724925730893997
      ],
      [
        "59,",
        -14.128729149811772
      ],
      [
        "▁common",
        -8.410505660944114
      ],
      [
        "▁mc",
        -9.273195485861411
      ],
      [
        "▁43",
        -12.118601240506226
      ],
      [
        "ami",
        -11.171813005991753
      ],
      [
        "▁structure",
        -9.063688071770724
      ],
      [
        "▁blood",
        -9.137252172900816
      ],
      [
        ":00",
        -9.712247828919523
      ],
      [
        "▁sh",
        -8.65026203836372
      ],
      [
        "▁sub",
        -8.658869461967162
      ],
      [
        "▁shoul",
        -7.016245635624688
      ],
      [
        "▁bear",
        -8.072137983948192
      ],
      [
        "1530",
        -12.901235037960074
      ],
      [
        "▁za",
        -9.20571539012046
      ],
      [
        "6:00",
        -11.54136812453849
      ],
      [
        "▁atlant",
        -6.80533860402621
      ],
      [
        "▁2:30",
        -11.734134949673816
      ],
      [
        "▁88",
        -13.04942698006511
      ],
      [
        "16",
        -10.36257830423802
      ],
      [
        "lys",
        -10.25405955036088
      ],
      [
        "▁wa",
        -11.753053668244322
      ],
      [
        "α",
        -11.833785825395173
      ],
      [
        "▁feature",
        -9.417325303551872
      ],
      [
        "came",
        -8.857316094309306
      ],
      [
        "▁program",
        -8.650539981645998
      ],
      [
        "▁4.",
        -11.347282326888081
      ],
      [
        "▁832.676.",
        -13.136770579315863
      ],
      [
        "▁sha",
        -8.713700683610444
      ],
      [
        "▁soft",
        -9.123359489771174
      ],
      [
        "9:5",
        -13.21345167014526
      ],
      [
        "▁heat",
        -8.850924179609608
      ],
      [
        "7",
        -9.838895927332633
      ],
      [
        "▁deep",
        -8.919565352815548
      ],
      [
        "▁hub",
        -11.366333878990952
      ],
      [
        "stair",
        -8.944017653035283
      ],
      [
        "▁simple",
        -9.25948605580195
      ],
      [
        ".16",
        -14.099913540792532
      ],
      [
        "right",
        -8.273522008051504
      ],
      [
        "20",
        -9.664350029724119
      ],
      [
        "==",
        -10.802124173760925
      ],
      [
        "▁fantas",
        -9.479892101171222
      ],
      [
        "▁pric",
        -10.191303320883982
      ],
      [
        "how",
        -9.453405709065052
      ],
      [
        "eau",
        -10.944244681849543
      ],
      [
        "415",
        -15.196552822100086
      ],
      [
        "▁school",
        -7.306817209297452
      ],
      [
        "▁bomb",
        -9.285446769149551
      ],
      [
        "▁led",
        -9.392628584895078
      ],
      [
        "▁horse",
        -7.9987493457772265
      ],
      [
        "▁twenty-f",
        -12.946639624578598
      ],
      [
        "▁painting",
        -9.4657053033708
      ],
      [
        "▁happen",
        -7.540778603896124
      ],
      [
        "▁represent",
        -8.99516338268464
      ],
      [
        "res",
        -11.577153767094353
      ],
      [
        "▁rath",
        -8.622339746213
      ],
      [
        "▁will",
        -6.119805035457615
      ],
      [
        "▁713-793-",
        -13.136770769999327
      ],
      [
        "▁friend",
        -7.729455722612003
      ],
      [
        "iz",
        -8.276154834026684
      ],
      [
        "▁yo",
        -11.72382369226988
      ],
      [
        "▁russian",
        -9.424099899491626
      ],
      [
        "ish",
        -7.983739829070976
      ],
      [
        "▁68",
        -13.449249827824033
      ],
      [
        "▁vi",
        -11.090089463635374
      ],
      [
        "▁pr",
        -9.426108997092987
      ],
      [
        "▁egg",
        -8.978947567514542
      ],
      [
        "▁g",
        -10.973761537441948
      ],
      [
        "▁101",
        -12.534622449071785
      ],
      [
        "dy",
        -12.875179971822407
      ],
      [
        "▁trans",
        -8.99432784093039
      ],
      [
        ".1",
        -13.151530141619638
      ],
      [
        "▁prevent",
        -9.37771929746769
      ],
      [
        "1/30/",
        -14.050747197655259
      ],
      [
        "▁availab",
        -7.651153585039174
      ],
      [
        "fore",
        -8.831458765007323
      ],
      [
        "▁line",
        -7.679004719538242
      ],
      [
        "▁193",
        -11.572276976136822
      ],
      [
        "230",
        -14.095816919097267
      ],
      [
        "▁data",
        -7.774998910312053
      ],
      [
        "▁sa",
        -8.263256492080124
      ],
      [
        "▁white",
        -8.018706093022354
      ],
      [
        "ve",
        -6.802310410472683
      ],
      [
        "▁fe",
        -8.376142166383671
      ],
      [
        "▁&",
        -9.8279021695494
      ],
      [
        "▁173",
        -13.542186875789044
      ],
      [
        "▁type",
        -8.048894339631772
      ],
      [
        "600",
        -11.637633919009222
      ],
      [
        "▁dear",
        -9.354996641669977
      ],
      [
        "▁202.456.",
        -13.13539424992046
      ],
      [
        "4/200",
        -11.696837855527704
      ],
      [
        "425",
        -14.180756138798783
      ],
      [
        "▁conversation",
        -9.152635135900173
      ],
      [
        "▁sw",
        -8.701361567285625
      ],
      [
        "use",
        -9.199202023701332
      ],
      [
        "rry",
        -8.830956450210095
      ],
      [
        "▁institution",
        -9.233321081892912
      ],
      [
        "▁#",
        -9.271507836159145
      ],
      [
        "▁base",
        -7.784773430758982
      ],
      [
        "side",
        -8.896573886283262
      ],
      [
        "755",
        -14.450526138564245
      ],
      [
        "▁george",
        -8.605281653238041
      ],
      [
        "▁125",
        -12.781539555372706
      ],
      [
        "▁ski",
        -9.196183477616515
      ],
      [
        "**",
        -11.101205993619278
      ],
      [
        "▁u",
        -8.673568592083257
      ],
      [
        "▁some",
        -6.347888441191562
      ],
      [
        "76",
        -11.504346634557045
      ],
      [
        "▁turned",
        -8.740080552263287
      ],
      [
        "ag",
        -12.393280713458324
      ],
      [
        "▁w",
        -7.000356910635804
      ],
      [
        "▁camp",
        -8.871768595770135
      ],
      [
        "▁425-415-30",
        -13.13677057933544
      ],
      [
        "▁et",
        -9.566894945876847
      ],
      [
        "▁afternoon",
        -7.853360221099013
      ],
      [
        "tor",
        -8.557881457806737
      ],
      [
        "▁186",
        -13.602023377258487
      ],
      [
        "▁certain",
        -8.210341734413243
      ],
      [
        "▁city",
        -7.08900132846103
      ],
      [
        "▁ninety",
        -11.077728537876116
      ],
      [
        "▁euro",
        -9.303436355193707
      ],
      [
        "22-",
        -13.183234638764144
      ],
      [
        "▁which",
        -6.3952446191528125
      ],
      [
        "asnondelibreaten",
        -11.833786315327183
      ],
      [
        "▁award",
        -9.483640792162157
      ],
      [
        "▁language",
        -8.043747694198618
      ],
      [
        "▁m",
        -11.005205169478106
      ],
      [
        "▁russia",
        -9.451554106252448
      ],
      [
        "▁local",
        -8.367155005268057
      ],
      [
        "▁land",
        -8.163169286121262
      ],
      [
        "▁fo",
        -12.595832372441105
      ],
      [
        "▁96/",
        -13.462906433389357
      ],
      [
        "744",
        -12.115352357480173
      ],
      [
        "mi",
        -10.350978540918218
      ],
      [
        "f",
        -6.3315229325161955
      ],
      [
        "▁iraq",
        -8.375385278747695
      ],
      [
        "713-853-3",
        -14.69068872296564
      ],
      [
        "8:",
        -13.917734500659604
      ],
      [
        "▁eggs",
        -9.025928156034908
      ],
      [
        "▁locate",
        -9.437937709866972
      ],
      [
        "▁+",
        -12.359034424904078
      ],
      [
        "▁side",
        -8.056787216542324
      ],
      [
        "▁pain",
        -9.049276137121005
      ],
      [
        "▁wil",
        -9.233489701380488
      ],
      [
        "68",
        -12.36399916790613
      ],
      [
        "▁theor",
        -8.761149241215318
      ],
      [
        "▁713-6",
        -13.034209030646098
      ],
      [
        "389",
        -14.104025639813528
      ],
      [
        "and",
        -10.66544795153681
      ],
      [
        "▁sunday",
        -8.107214613726656
      ],
      [
        "ine",
        -11.054311485750521
      ],
      [
        "vi",
        -13.271633197609207
      ],
      [
        "▁firm",
        -9.358505854378699
      ],
      [
        "▁el",
        -8.592585245758299
      ],
      [
        "0.23",
        -13.696436300133028
      ],
      [
        "▁c",
        -10.178172696842289
      ],
      [
        "▁statu",
        -9.16867907759687
      ],
      [
        "▁post",
        -8.082860672158626
      ],
      [
        "▁per",
        -7.465536829958841
      ],
      [
        "▁interesting",
        -9.02093022651853
      ],
      [
        "▁loud",
        -9.417427769974596
      ],
      [
        "▁movement",
        -9.401028900958266
      ],
      [
        "▁unique",
        -9.479845537755084
      ],
      [
        "tain",
        -8.848921292524526
      ],
      [
        "ac",
        -7.671151142865232
      ],
      [
        "▁port",
        -8.911652126279183
      ],
      [
        "upper",
        -9.38223094218792
      ],
      [
        "oursel",
        -11.26406108510363
      ],
      [
        "hav",
        -9.281154885061614
      ],
      [
        "333",
        -14.345008994232288
      ],
      [
        "▁11",
        -8.972238801626698
      ],
      [
        "▁computer",
        -8.825074330416612
      ],
      [
        "▁social",
        -8.352990205776946
      ],
      [
        "▁mean",
        -7.006517564451174
      ],
      [
        "▁16.3",
        -12.63810091809569
      ],
      [
        "▁fax",
        -9.252485094935327
      ],
      [
        "▁modern",
        -9.07802223139273
      ],
      [
        "xsl",
        -10.981309638386165
      ],
      [
        "84",
        -12.264908599423453
      ],
      [
        "▁banana",
        -8.931202189121102
      ],
      [
        "▁104",
        -13.100297995490417
      ],
      [
        "▁chocolate",
        -9.417319540117488
      ],
      [
        "i",
        -5.892702216880954
      ],
      [
        "▁attach",
        -8.37410053232264
      ],
      [
        "▁dr",
        -8.45195268702559
      ],
      [
        "▁3,20",
        -14.285822218088654
      ],
      [
        "▁decade",
        -9.250611710093224
      ],
      [
        "▁cap",
        -11.042763508224242
      ],
      [
        "▁tip",
        -9.359150190155818
      ],
      [
        "▁master",
        -9.417619448669582
      ],
      [
        "▁earlie",
        -7.928002129149238
      ],
      [
        "▁federal",
        -9.302921081023673
      ],
      [
        "unl",
        -12.934716141644028
      ],
      [
        "rought",
        -8.849283837263279
      ],
      [
        "ran",
        -8.712925263363157
      ],
      [
        "▁grand",
        -9.301516137280387
      ],
      [
        "n",
        -3.3255869364285555
      ],
      [
        "0-2",
        -13.137095825369885
      ],
      [
        "±",
        -14.13677057935472
      ],
      [
        "987",
        -14.893421856703934
      ],
      [
        "▁mode",
        -9.146403984005811
      ],
      [
        "▁read",
        -7.21149781327418
      ],
      [
        "▁0.00",
        -15.109614267568244
      ],
      [
        "▁per",
        -10.524772088798718
      ],
      [
        "▁surviv",
        -9.339614064115857
      ],
      [
        "▁wednesday",
        -7.6138609492557325
      ],
      [
        "▁rabbit",
        -9.479838386115853
      ],
      [
        "▁inside",
        -9.051821142161216
      ],
      [
        "ight",
        -7.9177091116007565
      ],
      [
        "/",
        -7.807649408801953
      ],
      [
        "▁hole",
        -9.0245622253634
      ],
      [
        "▁47",
        -12.395029450852924
      ],
      [
        "▁‘",
        -9.464789161370845
      ],
      [
        "or",
        -6.600107834567394
      ],
      [
        "mo",
        -11.05508503396024
      ],
      [
        "▁134",
        -14.919254389209478
      ],
      [
        "▁run",
        -8.237245478969747
      ],
      [
        "▁ride",
        -8.461299245399118
      ],
      [
        "26",
        -11.044531444058311
      ],
      [
        "▁n",
        -11.765257504191936
      ],
      [
        "▁cheape",
        -8.059707439221047
      ],
      [
        "▁fr",
        -8.48447974396392
      ],
      [
        "mu",
        -12.904897371489005
      ],
      [
        "▁marriage",
        -9.168872666662818
      ],
      [
        "448",
        -13.685044922631343
      ],
      [
        "▁vari",
        -8.848719465712563
      ],
      [
        "▁breath",
        -9.339630642775514
      ],
      [
        "▁real",
        -6.515121601978277
      ],
      [
        "yond",
        -9.85779799892806
      ],
      [
        "▁friday",
        -8.096277143588452
      ],
      [
        "table",
        -8.678623382765831
      ],
      [
        ".322",
        -13.137284014680993
      ],
      [
        "▁previous",
        -9.397320691123902
      ],
      [
        "▁am",
        -9.866600663869718
      ],
      [
        "▁xi",
        -13.03778023262626
      ],
      [
        "▁decide",
        -9.463288256737279
      ],
      [
        "814",
        -13.41959975627615
      ],
      [
        "o",
        -5.205643195539958
      ],
      [
        ".62",
        -13.211030304685309
      ],
      [
        "▁time",
        -6.171470959961684
      ],
      [
        "beside",
        -13.177654069771513
      ],
      [
        "991",
        -12.803767022995844
      ],
      [
        "ten",
        -8.393836517523205
      ],
      [
        "▁05:0",
        -13.188630233891784
      ],
      [
        "lan",
        -9.40165689300834
      ],
      [
        "▁w",
        -10.342911633810916
      ],
      [
        "▁come",
        -6.622907201550287
      ],
      [
        "wau",
        -8.160369840895928
      ],
      [
        "▁band",
        -8.97025770025658
      ],
      [
        "▁owner",
        -8.860649405906557
      ],
      [
        "▁181",
        -12.6722014366133
      ],
      [
        "wh",
        -12.456898445064779
      ],
      [
        "...............",
        -11.472085322917493
      ],
      [
        "▁07/1",
        -11.467963282922424
      ],
      [
        "▁03/",
        -13.930564962300714
      ],
      [
        "ter",
        -10.432873965842234
      ],
      [
        "▁bra",
        -9.310555841840522
      ],
      [
        "▁grant",
        -9.379595921572697
      ],
      [
        "9/200",
        -11.994173130074634
      ],
      [
        "▁above",
        -9.321117826801455
      ],
      [
        "▁ba",
        -11.474094207813557
      ],
      [
        "▁bill",
        -8.653457007336172
      ],
      [
        "▁;",
        -8.155138699324173
      ],
      [
        "196",
        -13.559621706648938
      ],
      [
        "▁own",
        -7.448835893108939
      ],
      [
        "▁192",
        -11.94057202446741
      ],
      [
        "▁environmental",
        -9.4677735527223
      ],
      [
        "▁monday",
        -7.932528626202647
      ],
      [
        "▁73",
        -12.691161218511667
      ],
      [
        "ev",
        -8.761739189594156
      ],
      [
        "shoul",
        -9.890237644806534
      ],
      [
        "▁far",
        -7.752446483238548
      ],
      [
        "▁me",
        -11.596167386121422
      ],
      [
        "▁09:",
        -12.264147356493273
      ],
      [
        "ice",
        -9.380189855670036
      ],
      [
        "ere",
        -6.953201077980379
      ],
      [
        "****",
        -11.720199025079861
      ],
      [
        "lta",
        -8.506766985088579
      ],
      [
        "▁church",
        -8.85916183489805
      ],
      [
        "7",
        -8.305378306802192
      ],
      [
        "ist",
        -7.575286803880958
      ],
      [
        "19",
        -10.456865167975522
      ],
      [
        "37,0",
        -14.136448329617062
      ],
      [
        "^",
        -10.478257699563933
      ],
      [
        "▁level",
        -8.374107863782426
      ],
      [
        "▁04:3",
        -12.39975877017382
      ],
      [
        "▁stand",
        -11.833815694314197
      ],
      [
        "re",
        -9.464589152516979
      ],
      [
        "ne",
        -10.32490622756281
      ],
      [
        "▁employ",
        -9.24961456355694
      ],
      [
        "6/",
        -13.566124420789025
      ],
      [
        "▁pick",
        -8.129658110788995
      ],
      [
        "ing",
        -3.849112137686067
      ],
      [
        "▁713-",
        -11.018494241629348
      ],
      [
        "1.8",
        -12.279299099288766
      ],
      [
        "der",
        -13.597667753359055
      ],
      [
        "▁8:",
        -14.495891278240808
      ],
      [
        "▁kitchen",
        -9.21665511843467
      ],
      [
        "▁energy",
        -8.561415531862524
      ],
      [
        "▁hi",
        -9.539530827976856
      ],
      [
        "▁carol",
        -9.469062360446756
      ],
      [
        "▁administration",
        -9.23395969019624
      ],
      [
        "▁say",
        -6.528208512843556
      ],
      [
        "▁row",
        -9.459549204836993
      ],
      [
        "n'",
        -9.381928970317361
      ],
      [
        "ade",
        -9.148209155988173
      ],
      [
        "▁world",
        -7.192082914332565
      ],
      [
        "▁its",
        -7.72296247419334
      ],
      [
        "ct",
        -9.519962088824977
      ],
      [
        "▁arab",
        -8.943645700470407
      ],
      [
        "ce",
        -6.5269895898694905
      ],
      [
        "/03/200",
        -12.146972687042123
      ],
      [
        "▁bee",
        -9.337284152115924
      ],
      [
        "▁lo",
        -8.15480119145138
      ],
      [
        "ce",
        -12.10047152210219
      ],
      [
        "7:4",
        -13.733506680232077
      ],
      [
        "▁union",
        -9.121394897269436
      ],
      [
        "▁pull",
        -8.440342531566156
      ],
      [
        "1000",
        -13.790121036013629
      ],
      [
        "▁713.",
        -15.35656633532893
      ],
      [
        "oul",
        -7.370660610853058
      ],
      [
        "▁=",
        -10.869655881095504
      ],
      [
        "ge",
        -8.139565776436296
      ],
      [
        "▁nose",
        -8.727774450963965
      ],
      [
        "00:",
        -14.117195805228246
      ],
      [
        "▁members",
        -8.846924023561048
      ],
      [
        "leur",
        -11.834203543590597
      ],
      [
        ":13",
        -14.84515451780603
      ],
      [
        "▁04:0",
        -12.773739120218524
      ],
      [
        "▁miss",
        -8.300908098283447
      ],
      [
        "▁hey",
        -7.820241034561922
      ],
      [
        "15",
        -10.272007946672396
      ],
      [
        "▁opening",
        -9.38545385611569
      ],
      [
        "▁robin",
        -9.304126490438026
      ],
      [
        "▁31",
        -10.323166577539656
      ],
      [
        "▁expens",
        -8.553385723005405
      ],
      [
        "▁wif",
        -8.480385675790949
      ],
      [
        "▁ant",
        -9.073024977707346
      ],
      [
        "▁altho",
        -8.78807180982115
      ],
      [
        "▁material",
        -9.1220998824962
      ],
      [
        "men",
        -8.868307050217439
      ],
      [
        "▁lock",
        -9.398330688809981
      ],
      [
        "ua",
        -8.94098830068903
      ],
      [
        "▁yours",
        -10.490369004197085
      ],
      [
        "▁office",
        -7.914370879502322
      ],
      [
        "▁opportunit",
        -8.995169198593423
      ],
      [
        "eries",
        -9.125916097601708
      ],
      [
        "▁15",
        -8.984665687247123
      ],
      [
        "www",
        -7.7044821098898915
      ],
      [
        "▁...",
        -8.8342426881669
      ],
      [
        "technology",
        -9.339612952898609
      ],
      [
        "▁official",
        -8.679734561007695
      ],
      [
        "▁vote",
        -8.727720465532151
      ],
      [
        "▁qu",
        -8.751746564549723
      ],
      [
        "00",
        -9.552396791548091
      ],
      [
        "▁universit",
        -8.345357537422469
      ],
      [
        "▁3.",
        -11.838486170755697
      ],
      [
        "▁110",
        -11.62840249240278
      ],
      [
        "▁th",
        -8.061117238200357
      ],
      [
        "▁israel",
        -8.916499859838606
      ],
      [
        "▁light",
        -7.629553508006208
      ],
      [
        "▁one",
        -6.836813497303867
      ],
      [
        "▁it",
        -7.425108546980829
      ],
      [
        "-46",
        -14.683129009797762
      ],
      [
        "▁campaign",
        -9.200261990454724
      ],
      [
        "▁10/31/",
        -13.136852295825433
      ],
      [
        "▁sister",
        -9.078127862201187
      ],
      [
        "▁130",
        -11.559624943780829
      ],
      [
        "then",
        -6.388216966940169
      ],
      [
        "▁met",
        -8.407022798764137
      ],
      [
        "▁460",
        -13.649907694200532
      ],
      [
        "▁weekend",
        -9.138281083688813
      ],
      [
        "▁189",
        -11.15103278247761
      ],
      [
        "am",
        -12.966085211699605
      ],
      [
        "▁08:0",
        -12.552782992181449
      ],
      [
        "▁value",
        -8.285975436350224
      ],
      [
        "▁120",
        -10.933966636273306
      ],
      [
        "836",
        -13.541867489895994
      ],
      [
        "▁***",
        -11.499181947681452
      ],
      [
        "ica",
        -10.485087838248676
      ],
      [
        "▁",
        -3.652374462945046
      ],
      [
        "ence",
        -8.340010184771522
      ],
      [
        "▁tour",
        -9.07761036384632
      ],
      [
        "▁eas",
        -8.490011894250035
      ],
      [
        "a",
        -4.874593473079168
      ],
      [
        "▁pass",
        -8.122029868508767
      ],
      [
        "nab",
        -11.450820924465399
      ],
      [
        "▁team",
        -8.52977066952731
      ],
      [
        "▁detr",
        -9.12885969313563
      ],
      [
        "▁paper",
        -7.874754310344524
      ],
      [
        "373",
        -11.658286692588113
      ],
      [
        "▁share",
        -8.922815607555453
      ],
      [
        "▁64.7",
        -13.148243418369379
      ],
      [
        "ours",
        -13.891153374149832
      ],
      [
        "▁fi",
        -12.276772853692052
      ],
      [
        "▁tie",
        -8.871693403340057
      ],
      [
        "▁behavior",
        -9.479837582301117
      ],
      [
        "▁chine",
        -9.458804677150583
      ],
      [
        "▁inter",
        -11.373820383720101
      ],
      [
        "▁sh",
        -10.592138988891902
      ],
      [
        "▁propose",
        -9.06369589093162
      ],
      [
        "ke",
        -11.17710765828124
      ],
      [
        "▁18",
        -9.022365567867356
      ],
      [
        "▁315",
        -13.155477789292316
      ],
      [
        "00,000",
        -13.506341496060433
      ],
      [
        "▁due",
        -8.508742466962772
      ],
      [
        "▁ph",
        -8.91123966592749
      ],
      [
        "▁questions",
        -8.42883104358518
      ],
      [
        "self",
        -7.580187025236798
      ],
      [
        "▁toward",
        -9.099749241976577
      ],
      [
        "▁leader",
        -9.318890686610604
      ],
      [
        "k",
        -9.541850912049885
      ],
      [
        "▁shin",
        -9.342011397497858
      ],
      [
        "428",
        -13.59096394870987
      ],
      [
        "▁tire",
        -8.832365390621545
      ],
      [
        "ed",
        -3.9656774943322937
      ],
      [
        "▁play",
        -6.713109236374405
      ],
      [
        "me",
        -9.799251337819435
      ],
      [
        "▁410-468-3",
        -13.136770579350877
      ],
      [
        "▁quit",
        -8.523315041221952
      ],
      [
        "'",
        -4.0655443185469125
      ],
      [
        "▁home",
        -7.148845412766445
      ],
      [
        "▁film",
        -9.036787325173155
      ],
      [
        "ine",
        -8.365569771497185
      ],
      [
        "▁1,",
        -11.196637822129153
      ],
      [
        "▁publish",
        -8.956203777057869
      ],
      [
        "▁words",
        -8.716184807541797
      ],
      [
        "▁direct",
        -8.498970148065773
      ],
      [
        "▁ma",
        -10.677501707364895
      ],
      [
        "▁mem",
        -8.784776181654262
      ],
      [
        "▁rat",
        -9.043856318786693
      ],
      [
        "82",
        -12.695234607868187
      ],
      [
        "gi",
        -11.87950964443083
      ],
      [
        "▁19",
        -9.1076050918256
      ],
      [
        "ll",
        -5.735079957665787
      ],
      [
        "▁establish",
        -8.916913396385812
      ],
      [
        "▁red",
        -7.8614364107523915
      ],
      [
        "▁158",
        -10.771498006496458
      ],
      [
        "51",
        -13.168608066560093
      ],
      [
        "he",
        -7.136458974037556
      ],
      [
        "▁cost",
        -7.930841934260759
      ],
      [
        "▁authorit",
        -9.300806463721969
      ],
      [
        "ick",
        -8.815580966292195
      ],
      [
        "+",
        -9.375196107582326
      ],
      [
        "▁accident",
        -9.15263392696086
      ],
      [
        "“",
        -6.515170392843602
      ],
      [
        "▁65",
        -11.678712553193165
      ],
      [
        "▁less",
        -8.205940347737268
      ],
      [
        "▁2/",
        -14.396171217010773
      ],
      [
        "re",
        -6.801905974082538
      ],
      [
        "▁he",
        -8.534720388220435
      ],
      [
        "▁112",
        -13.20433502805754
      ],
      [
        "▁196",
        -10.370659192566032
      ],
      [
        "▁202.4",
        -14.138177894591795
      ],
      [
        "▁sand",
        -11.379848541685982
      ],
      [
        "▁fee",
        -8.444985718813658
      ],
      [
        "☏",
        -11.333785825435129
      ],
      [
        "ow",
        -11.530249375954355
      ],
      [
        "▁meaning",
        -9.43516245025275
      ],
      [
        "▁over",
        -7.317003890912325
      ],
      [
        "▁^",
        -11.511548002523554
      ],
      [
        "▁article",
        -8.931514531714825
      ],
      [
        "13",
        -10.571710913851277
      ],
      [
        "cia",
        -11.334118227712164
      ],
      [
        "mm",
        -11.33518421489015
      ],
      [
        "90",
        -11.918338620993051
      ],
      [
        "▁300",
        -10.870247792781871
      ],
      [
        "---->",
        -11.77556405770272
      ],
      [
        "▁cake",
        -9.251620867004046
      ],
      [
        "nix",
        -8.260684047589304
      ],
      [
        "▁16.",
        -14.199282383172989
      ],
      [
        "▁o",
        -9.672946019114775
      ],
      [
        "/25/200",
        -12.112325426631577
      ],
      [
        "et",
        -10.675836850049606
      ],
      [
        "▁6",
        -8.907968840771389
      ],
      [
        "▁email",
        -8.535990976883408
      ],
      [
        "▁pre",
        -7.892985261762488
      ],
      [
        "▁head",
        -7.455726300054692
      ],
      [
        "▁leas",
        -7.916156262882128
      ],
      [
        "▁north",
        -8.235852191569846
      ],
      [
        "▁se",
        -8.275472266587787
      ],
      [
        "▁strong",
        -8.325570007715264
      ],
      [
        "▁respect",
        -8.689442727417957
      ],
      [
        "▁250",
        -11.689807638237173
      ],
      [
        "8,8",
        -13.136802463436528
      ],
      [
        "1/13/200",
        -13.410633610127514
      ],
      [
        "6:5",
        -14.245778065733244
      ],
      [
        "▁bu",
        -5.83388619210857
      ],
      [
        "5.6",
        -13.1400501831892
      ],
      [
        "▁noise",
        -9.220706296893482
      ],
      [
        "▁stuff",
        -8.346394656993702
      ],
      [
        "▁forty",
        -11.341341411131513
      ],
      [
        "▁promot",
        -9.339617434028039
      ],
      [
        "▁american",
        -7.215073173516174
      ],
      [
        "48-",
        -13.886555118997332
      ],
      [
        "8",
        -8.96975207556825
      ],
      [
        "▁away",
        -7.588429204491961
      ],
      [
        "graph",
        -9.284978186357645
      ],
      [
        "▁want",
        -5.831740931120217
      ],
      [
        "▁object",
        -9.034844309929719
      ],
      [
        "***",
        -10.342156866963231
      ],
      [
        "▁work",
        -11.833785839142507
      ],
      [
        ".5",
        -11.877263202958114
      ],
      [
        "not",
        -9.213458832237539
      ],
      [
        "▁ac",
        -8.72849576719444
      ],
      [
        "97",
        -11.603342702020502
      ],
      [
        "▁at",
        -8.801486665589223
      ],
      [
        "whil",
        -10.789586528270528
      ],
      [
        "___________",
        -10.848298036816363
      ],
      [
        "ese",
        -13.969336546849245
      ],
      [
        "▁online",
        -9.345065539222006
      ],
      [
        "▁machine",
        -9.267515509682298
      ],
      [
        "▁right",
        -11.051770298862332
      ],
      [
        "▁companie",
        -9.358562124000587
      ],
      [
        "▁garden",
        -9.15264317206688
      ],
      [
        "▁freedom",
        -9.137263977326423
      ],
      [
        ")",
        -4.6644456325462995
      ],
      [
        "▁wine",
        -9.074356694013222
      ],
      [
        "▁j",
        -10.937809915570798
      ],
      [
        "▁flat",
        -9.453862856993135
      ],
      [
        "eight",
        -11.16883579998074
      ],
      [
        "ember",
        -7.636829375397406
      ],
      [
        "▁system",
        -8.028513379639403
      ],
      [
        "▁website",
        -8.894472591396134
      ],
      [
        "▁chi",
        -11.906643426785514
      ],
      [
        "▁aw",
        -8.873379297897902
      ],
      [
        "▁car",
        -6.8003619268037685
      ],
      [
        "l",
        -6.231528932805014
      ],
      [
        "der",
        -11.612089083720626
      ],
      [
        "/26/",
        -14.189086006831161
      ],
      [
        "▁bag",
        -8.472880162673748
      ],
      [
        "▁wi",
        -14.407127597437647
      ],
      [
        "▁terr",
        -9.426215588396751
      ],
      [
        "▁media",
        -9.023361139596279
      ],
      [
        ",500",
        -10.760021148299018
      ],
      [
        "▁feel",
        -7.631612183078572
      ],
      [
        "▁95",
        -12.338386007555426
      ],
      [
        "in",
        -10.121798497307285
      ],
      [
        "▁daily",
        -8.709479327931545
      ],
      [
        "▁toast",
        -8.906543134094544
      ],
      [
        "▁role",
        -8.851534101756588
      ],
      [
        "100",
        -11.126169046448927
      ],
      [
        "----------------",
        -8.665339290745422
      ],
      [
        "----------",
        -11.627260667774785
      ],
      [
        "▁for",
        -10.508521129987447
      ],
      [
        "nea",
        -14.363243559794505
      ],
      [
        "▁try",
        -7.099828766322751
      ],
      [
        "cou",
        -7.440679466282132
      ],
      [
        "-7",
        -12.297963295908984
      ],
      [
        "▁str",
        -8.929131828557663
      ],
      [
        "u",
        -5.730887179067297
      ],
      [
        "▁cre",
        -9.146761474322211
      ],
      [
        "▁bec",
        -6.743294393000094
      ],
      [
        "[",
        -6.198132057417013
      ],
      [
        "aden",
        -11.83580841930351
      ],
      [
        "ap",
        -8.145506936056785
      ],
      [
        "▁militar",
        -8.552935495445297
      ],
      [
        "▁absolute",
        -9.267511614295344
      ],
      [
        "▁stor",
        -8.944989070975222
      ],
      [
        "▁pi",
        -9.098907352307261
      ],
      [
        "hos",
        -10.117195108246431
      ],
      [
        "▁unl",
        -9.680113489348734
      ],
      [
        "???",
        -11.362839390116866
      ],
      [
        "▁pink",
        -9.484336818354326
      ],
      [
        "ier",
        -8.857155260113991
      ],
      [
        "▁su",
        -7.744578658365107
      ],
      [
        "▁push",
        -8.41036830840308
      ],
      [
        "▁teacher",
        -9.008519634225074
      ],
      [
        "▁committee",
        -9.039404905147737
      ],
      [
        "▁realize",
        -9.423634447648192
      ],
      [
        "▁orange",
        -9.06368863199884
      ],
      [
        "hundred",
        -12.469625072036138
      ],
      [
        "▁question",
        -7.967671605006728
      ],
      [
        "<",
        -7.273053706688606
      ],
      [
        "94",
        -12.022107636496196
      ],
      [
        "y",
        -9.961283824744118
      ],
      [
        "y@e",
        -11.877703282032476
      ],
      [
        "mus",
        -9.408800247951719
      ],
      [
        "1:1",
        -14.344002145884023
      ],
      [
        "▁!!",
        -8.519732313854664
      ],
      [
        "where",
        -8.072700902504359
      ],
      [
        "ck",
        -11.501990416744686
      ],
      [
        "▁6/",
        -14.986465349723131
      ],
      [
        "ur",
        -6.955957959426383
      ],
      [
        "1,000",
        -11.273927685449541
      ],
      [
        "▁eastern",
        -9.285421281427753
      ],
      [
        "low",
        -8.599710657972288
      ],
      [
        "▁high",
        -7.304286923076324
      ],
      [
        "▁smart",
        -9.458570898256136
      ],
      [
        "▁glad",
        -9.37790027234155
      ],
      [
        "▁anyway",
        -8.871137879543578
      ],
      [
        "▁09:5",
        -13.197391014154238
      ],
      [
        "ackl",
        -11.41247990272296
      ],
      [
        "▁square",
        -8.749761878767423
      ],
      [
        "▁10:46",
        -13.191033757998555
      ],
      [
        "16:",
        -14.198968335694197
      ],
      [
        "▁set",
        -7.790878888423752
      ],
      [
        "▁>",
        -9.25200696802715
      ],
      [
        "▁h",
        -9.927331136986187
      ],
      [
        "▁shirt",
        -8.89448096449406
      ],
      [
        "their",
        -9.446301580601954
      ],
      [
        "▁call",
        -6.7216416894606965
      ],
      [
        "▁gon",
        -6.920525873760533
      ],
      [
        "▁fan",
        -8.95586788580983
      ],
      [
        "!!!!!!!",
        -11.378490256407192
      ],
      [
        "▁german",
        -9.20028939871354
      ],
      [
        "▁gene",
        -9.353516034189944
      ],
      [
        "▁intend",
        -9.285147534024091
      ],
      [
        "am",
        -7.768135859811432
      ],
      [
        "▁significant",
        -9.064865802999417
      ],
      [
        "▁urs",
        -8.970050033297127
      ],
      [
        "ful",
        -7.711316853370289
      ],
      [
        "▁08",
        -11.701778809336425
      ],
      [
        "838",
        -11.947564887353263
      ],
      [
        "▁jo",
        -8.881615430799823
      ],
      [
        "414",
        -13.14622484673741
      ],
      [
        "▁8.",
        -12.09011977899719
      ],
      [
        "▁kansa",
        -8.632561531566685
      ],
      [
        "▁718",
        -12.70140278258359
      ],
      [
        "6",
        -8.138127856803997
      ],
      [
        "▁lie",
        -9.265321697314791
      ],
      [
        "▁close",
        -7.780009932448987
      ],
      [
        "▁303-",
        -13.136798001269481
      ],
      [
        "▁d",
        -9.553231019557948
      ],
      [
        "▁propert",
        -8.495621845838272
      ],
      [
        "▁surprise",
        -8.749761682488774
      ],
      [
        "▁12:",
        -12.101167411589989
      ],
      [
        "35",
        -11.398557063167647
      ],
      [
        "▁483",
        -12.866366678941011
      ],
      [
        "▁q",
        -9.218875718650828
      ],
      [
        "▁03:5",
        -12.716987644101394
      ],
      [
        "▁when",
        -6.546808709674236
      ],
      [
        "▁ag",
        -9.062038990771534
      ],
      [
        "▁10",
        -8.18158323818868
      ],
      [
        "/03",
        -14.34099684011953
      ],
      [
        "▁th",
        -5.884171476561597
      ],
      [
        "▁care",
        -8.248981595006228
      ],
      [
        "▁control",
        -8.266257615497242
      ],
      [
        "ty-",
        -14.613439696182796
      ],
      [
        "598",
        -13.839166517124493
      ],
      [
        "▁shi",
        -9.29063951170854
      ],
      [
        "530",
        -12.305600989107393
      ],
      [
        "▁plant",
        -8.663925308143618
      ],
      [
        "▁ec",
        -9.204466119048512
      ],
      [
        "▁resource",
        -9.250270440065396
      ],
      [
        "21",
        -11.158998581851865
      ],
      [
        "▁1754",
        -12.676592216331013
      ],
      [
        "▁|",
        -9.754805093749667
      ],
      [
        "pos",
        -10.531974967040128
      ],
      [
        "▁j",
        -7.408547457695581
      ],
      [
        "▁ha",
        -8.148079909553115
      ],
      [
        "▁neck",
        -9.20048405653802
      ],
      [
        "out",
        -7.858831281268998
      ],
      [
        "372",
        -12.895773325174972
      ],
      [
        "▁cho",
        -9.108383058366654
      ],
      [
        "▁condition",
        -8.847672262212463
      ],
      [
        "▁6,",
        -14.13778527497731
      ],
      [
        "ma",
        -10.331830571402174
      ],
      [
        "▁mont",
        -11.406343531014489
      ],
      [
        "804",
        -15.39459273833808
      ],
      [
        "803",
        -13.975360954908663
      ],
      [
        "ug",
        -8.756244557765031
      ],
      [
        "▁dc",
        -8.145385871074929
      ],
      [
        "_",
        -4.842285251919584
      ],
      [
        "▁hear",
        -7.336917028142592
      ],
      [
        "▁goal",
        -9.261072047832112
      ],
      [
        "-40",
        -14.138646239169773
      ],
      [
        "en",
        -10.98587827178205
      ],
      [
        "3",
        -9.772266817123711
      ],
      [
        "2.4",
        -14.15936974051795
      ],
      [
        "▁text",
        -8.944112004130112
      ],
      [
        "under",
        -10.713415379023516
      ],
      [
        "▁170",
        -11.451663510935797
      ],
      [
        "▁reference",
        -9.233544933395274
      ],
      [
        "so",
        -6.647691394852842
      ],
      [
        "la",
        -7.448072295591105
      ],
      [
        "▁apple",
        -9.305684417843906
      ],
      [
        "▁7:",
        -14.019212079305508
      ],
      [
        ".37",
        -13.779820701624006
      ],
      [
        "▁paris",
        -8.983831156883138
      ],
      [
        "▁separate",
        -9.322710807573849
      ],
      [
        "▁student",
        -8.503068395692749
      ],
      [
        "▁nov",
        -8.811756235799233
      ],
      [
        "▁1-8",
        -14.246827685336344
      ],
      [
        "121",
        -13.863877334317046
      ],
      [
        "▁pivot",
        -9.23332245535191
      ],
      [
        "▁beautiful",
        -8.596352649492474
      ],
      [
        "ze",
        -10.628007461540824
      ],
      [
        "▁mail",
        -8.984764109359897
      ],
      [
        "▁kne",
        -8.397810095460972
      ],
      [
        "▁mass",
        -9.052316903576198
      ],
      [
        "▁hang",
        -9.12327716518514
      ],
      [
        "ha",
        -9.601993731172115
      ],
      [
        "▁178",
        -11.993874165942232
      ],
      [
        "▁02:2",
        -13.25195685742674
      ],
      [
        "▁09/",
        -14.713481892351869
      ],
      [
        "▁mac",
        -9.478362219903811
      ],
      [
        "▁individual",
        -9.008502530910537
      ],
      [
        "ung",
        -9.13499072233341
      ],
      [
        "▁bye",
        -9.451484346456063
      ],
      [
        "ept",
        -9.456805362320324
      ],
      [
        "ty",
        -7.8311047565964165
      ],
      [
        "▁tell",
        -7.001529896655604
      ],
      [
        "▁year",
        -6.53341175999965
      ],
      [
        "▁16,",
        -14.139170133244484
      ],
      [
        "ou",
        -9.381210504395051
      ],
      [
        "▁169",
        -11.526929689379745
      ],
      [
        "▁cheap",
        -8.847228811780486
      ],
      [
        "#",
        -8.99009556207349
      ],
      [
        "▁ant",
        -11.860894755500919
      ],
      [
        "▁glass",
        -8.699260709324173
      ],
      [
        "------------",
        -10.630566914886277
      ],
      [
        "▁41",
        -11.462132681209736
      ],
      [
        "▁out",
        -6.816256364628311
      ],
      [
        "mul",
        -11.833896043499934
      ],
      [
        "▁bon",
        -11.44154234529399
      ],
      [
        "▁60,",
        -14.127858255991535
      ],
      [
        "ch",
        -6.615790907789595
      ],
      [
        "▁,",
        -8.356357715006416
      ],
      [
        ".9",
        -13.237707183940275
      ],
      [
        "▁ninet",
        -11.980756886517543
      ],
      [
        "2.7",
        -13.14138521051941
      ],
      [
        "3:2",
        -15.15680264399381
      ],
      [
        "ion",
        -11.21408476222782
      ],
      [
        "eve",
        -10.31123112989284
      ],
      [
        "range",
        -11.833816507855477
      ],
      [
        "▁sad",
        -9.000892316252658
      ],
      [
        "ation",
        -10.323213255553194
      ],
      [
        "▁whi",
        -9.229987249173394
      ],
      [
        "▁ya",
        -14.202852529658717
      ],
      [
        "▁word",
        -8.372734462772268
      ],
      [
        "▁mountain",
        -9.216654721351713
      ],
      [
        "ect",
        -10.011284538849868
      ],
      [
        "▁qa",
        -8.930513883366908
      ],
      [
        "up",
        -7.945150414157004
      ],
      [
        "▁hand",
        -7.497518979261562
      ],
      [
        "345-",
        -13.370892840682906
      ],
      [
        "allas",
        -6.940086865768157
      ],
      [
        "▁picture",
        -8.384252107684983
      ],
      [
        "on",
        -8.513306147673212
      ],
      [
        "▁body",
        -8.749245870183064
      ],
      [
        "▁die",
        -7.918433343401407
      ],
      [
        "▁job",
        -7.85095512315574
      ],
      [
        "▁advi",
        -9.27430540641541
      ],
      [
        "▁not",
        -8.53643910340995
      ],
      [
        "▁note",
        -8.668737389537004
      ],
      [
        "!!!",
        -8.800632584710378
      ],
      [
        "ment",
        -9.51561824584022
      ],
      [
        "▁39",
        -12.103642793380354
      ],
      [
        "fro",
        -7.918171548395994
      ],
      [
        "▁cor",
        -9.14226948466284
      ],
      [
        "polis",
        -8.186168000525893
      ],
      [
        "▁entire",
        -8.792097210213818
      ],
      [
        "ut",
        -11.225827436522898
      ],
      [
        "▁rec",
        -11.836390683277891
      ],
      [
        "▁dance",
        -9.332604311287438
      ],
      [
        "▁stopp",
        -8.97534902100777
      ],
      [
        "▁al",
        -7.856982673714978
      ],
      [
        "▁increase",
        -8.587503366591687
      ],
      [
        "hin",
        -10.374880887447764
      ],
      [
        "▁xv",
        -13.162449918911665
      ],
      [
        "▁34",
        -11.55316952087386
      ],
      [
        "=---",
        -11.827184960077153
      ],
      [
        "▁m",
        -9.468035479108515
      ],
      [
        "▁cou",
        -10.858686679206002
      ],
      [
        "▁president",
        -7.807897979675755
      ],
      [
        "msel",
        -12.496307117546552
      ],
      [
        "▁skill",
        -9.267886954774834
      ],
      [
        "whos",
        -12.609213014906798
      ],
      [
        "582",
        -13.102324567069683
      ],
      [
        "908",
        -13.98920289307353
      ],
      [
        "▁til",
        -14.239400027983454
      ],
      [
        "hat",
        -7.3915594095763515
      ],
      [
        "▁afghan",
        -9.063688081431916
      ],
      [
        "▁405",
        -13.318467009434517
      ],
      [
        "▁magic",
        -9.092572860610453
      ],
      [
        "295",
        -12.160820367757692
      ],
      [
        "▁sam",
        -7.230643045010175
      ],
      [
        "▁food",
        -7.270885616640191
      ],
      [
        "toward",
        -12.052568335774453
      ],
      [
        "2:30",
        -12.60871249453827
      ],
      [
        "fift",
        -13.783852951107855
      ],
      [
        "▁27",
        -10.732058639073955
      ],
      [
        "▁has",
        -6.935440177997947
      ],
      [
        "7,5",
        -14.136437153738301
      ],
      [
        "▁your",
        -5.91319889996456
      ],
      [
        "8",
        -10.549383621644612
      ],
      [
        "▁handle",
        -9.456435398949045
      ],
      [
        ";",
        -12.303437246021387
      ],
      [
        "▁de",
        -5.953690385181636
      ],
      [
        "▁sometime",
        -8.15180021967446
      ],
      [
        "▁begin",
        -8.995053743415895
      ],
      [
        "▁fare",
        -7.33981947661013
      ],
      [
        "14",
        -10.356076179222697
      ],
      [
        "▁345",
        -12.680343372250727
      ],
      [
        "am",
        -11.474157171086144
      ],
      [
        "▁stay",
        -7.741700828550655
      ],
      [
        "af",
        -13.774373078014477
      ],
      [
        "▁wish",
        -8.772867135140297
      ],
      [
        "▁york",
        -7.72274335684789
      ],
      [
        "igh",
        -12.634214216105145
      ],
      [
        "▁…",
        -9.423272303804797
      ],
      [
        "naiss",
        -11.833792202418863
      ],
      [
        "▁phil",
        -7.058950833716645
      ],
      [
        "▁min",
        -12.218398821156091
      ],
      [
        "nti",
        -11.70323711919211
      ],
      [
        "▁no",
        -6.159727394576912
      ],
      [
        "▁re",
        -6.85163545660317
      ],
      [
        "▁warm",
        -8.66712169278605
      ],
      [
        "▁ge",
        -8.756685726088502
      ],
      [
        "thr",
        -11.182826915678534
      ],
      [
        "5-4",
        -14.479836965446822
      ],
      [
        "o",
        -8.471522179778704
      ],
      [
        "▁$",
        -8.88609295041069
      ],
      [
        "▁bike",
        -9.340251002493488
      ],
      [
        "▁wow",
        -9.460741977088928
      ],
      [
        "▁skin",
        -9.408308491706626
      ],
      [
        "▁solution",
        -9.23332132375319
      ],
      [
        "▁ca",
        -5.9021396961811305
      ],
      [
        "aine",
        -10.528294195106865
      ],
      [
        "...",
        -9.005493748066165
      ],
      [
        "aught",
        -9.216016350606036
      ],
      [
        "is",
        -7.5887397610774014
      ],
      [
        "▁many",
        -6.905827656353487
      ],
      [
        "▁art",
        -8.340513606055428
      ],
      [
        "▁connect",
        -9.105572392138432
      ],
      [
        "z",
        -6.898449859787357
      ],
      [
        "▁g",
        -7.171230191593828
      ],
      [
        "_______",
        -10.805570786638603
      ],
      [
        ":50",
        -14.104129210442572
      ],
      [
        "ous",
        -7.753065982711499
      ],
      [
        "_",
        -4.782693395996079
      ],
      [
        "ville",
        -8.825174274258941
      ],
      [
        "3.6",
        -13.500323944744153
      ],
      [
        "che",
        -11.833663739475321
      ],
      [
        "{",
        -11.000452492101788
      ],
      [
        "▁prett",
        -7.970090002706426
      ],
      [
        "▁correct",
        -8.87078803900549
      ],
      [
        "▁na",
        -11.199504350597584
      ],
      [
        "▁fresh",
        -9.049659124195593
      ],
      [
        "▁col",
        -8.671266669952859
      ],
      [
        "▁suggest",
        -8.697621377325525
      ],
      [
        "aima",
        -9.127047648349816
      ],
      [
        "▁distribut",
        -9.377711646729807
      ],
      [
        "ner",
        -9.133533080036345
      ],
      [
        "▁the",
        -9.24450712759215
      ],
      [
        "6.1",
        -12.319184560544816
      ],
      [
        "▁directive",
        -9.185844407104192
      ],
      [
        "oach",
        -9.287346454368125
      ],
      [
        "craft",
        -8.527658160691736
      ],
      [
        "they",
        -8.51994232805994
      ],
      [
        "/13/200",
        -12.943764559729503
      ],
      [
        "461",
        -13.307979721832814
      ],
      [
        "ell",
        -11.871927484342326
      ],
      [
        "en",
        -9.930597159475044
      ],
      [
        "▁seem",
        -7.659110186010247
      ],
      [
        "▁peace",
        -8.709295350438492
      ],
      [
        "▁option",
        -8.623554416691986
      ],
      [
        "▁feed",
        -8.945194048880122
      ],
      [
        "du",
        -14.463914734342401
      ],
      [
        "edu",
        -11.783538758143898
      ],
      [
        "1-9",
        -13.133680507267583
      ],
      [
        "ill",
        -10.131124135757073
      ],
      [
        "own",
        -9.042029173230507
      ],
      [
        "q",
        -8.829264080064537
      ],
      [
        "nati",
        -9.021036664708447
      ],
      [
        "277",
        -14.07244370210741
      ],
      [
        "▁connection",
        -8.690503634231327
      ],
      [
        "▁wheel",
        -9.341045251857551
      ],
      [
        "▁tank",
        -9.138322846520841
      ],
      [
        "▁v",
        -10.38300473262063
      ],
      [
        "▁barn",
        -9.384713544748747
      ],
      [
        "▁discussion",
        -9.462267424378581
      ],
      [
        "▁h",
        -11.05111200066364
      ],
      [
        "▁char",
        -7.857096029407509
      ],
      [
        "non",
        -11.334182745020696
      ],
      [
        "▁deal",
        -8.071334748305066
      ],
      [
        "▁reading",
        -9.227517744325743
      ],
      [
        "the",
        -5.642825194949209
      ],
      [
        "how",
        -12.00020881905705
      ],
      [
        "▁built",
        -9.33962983214521
      ],
      [
        "on",
        -6.204848907200459
      ],
      [
        "▁sa",
        -11.392299626641806
      ],
      [
        "▁use",
        -6.727165163165881
      ],
      [
        "▁file",
        -8.085936698541158
      ],
      [
        "▁well",
        -6.467894724136594
      ],
      [
        "▁dollar",
        -8.312360726638037
      ],
      [
        "▁web",
        -8.79462554103955
      ],
      [
        "▁now",
        -6.137152089125766
      ],
      [
        "▁become",
        -8.266273394390149
      ],
      [
        "ating",
        -8.949278652868351
      ],
      [
        "▁281-51",
        -14.136807499320867
      ],
      [
        "▁ok",
        -8.486245695946849
      ],
      [
        "▁202.456.1",
        -12.340123241055275
      ],
      [
        "▁rec",
        -8.871032993191386
      ],
      [
        "▁clothes",
        -8.896366026768241
      ],
      [
        "1-51",
        -14.136826951535193
      ],
      [
        "▁usual",
        -8.388843450976974
      ],
      [
        "▁studie",
        -8.719265601142766
      ],
      [
        "0.2",
        -14.1427018553399
      ],
      [
        "748",
        -13.395315422654793
      ],
      [
        "▁pm",
        -7.143833198925833
      ],
      [
        "3.9",
        -15.105236235809905
      ],
      [
        "▁ours",
        -11.486000418694196
      ],
      [
        "▁ever",
        -14.412819073874982
      ],
      [
        "▁fell",
        -8.780107843904094
      ],
      [
        "▁ig",
        -11.51413377136796
      ],
      [
        "▁tw",
        -9.14012390288319
      ],
      [
        "78",
        -11.48576980660741
      ],
      [
        "▁529",
        -14.148934904333597
      ],
      [
        "193",
        -14.38386731268611
      ],
      [
        "▁345-",
        -11.796213981224737
      ],
      [
        "1918",
        -11.546116586931637
      ],
      [
        "▁watch",
        -7.726459587710223
      ],
      [
        "▁buy",
        -7.960327122718979
      ],
      [
        "▁mix",
        -9.02468437513701
      ],
      [
        "478",
        -12.69529157028718
      ],
      [
        "0.8",
        -12.754940125285833
      ],
      [
        "9/11/",
        -14.264817947757411
      ],
      [
        "▁w",
        -8.44909452292899
      ],
      [
        "▁sophie",
        -9.479853441975928
      ],
      [
        "▁back",
        -6.541148634886515
      ],
      [
        "que",
        -11.476850546345958
      ],
      [
        "▁laugh",
        -8.871818216869805
      ],
      [
        "▁search",
        -9.200286336227126
      ],
      [
        "▁trade",
        -8.814306883299565
      ],
      [
        "▁03/0",
        -11.442809681049695
      ],
      [
        "wa",
        -14.382662615359285
      ],
      [
        ":",
        -15.518065406639655
      ],
      [
        "▁bone",
        -9.445336473516052
      ],
      [
        "7.3",
        -12.70913607973589
      ],
      [
        "be",
        -8.125530184423782
      ],
      [
        "▁issue",
        -7.9939131771123
      ],
      [
        "▁chang",
        -9.29428301087292
      ],
      [
        "▁runn",
        -8.84101656151062
      ],
      [
        "st",
        -6.520657291895864
      ],
      [
        "ifie",
        -9.268583316643017
      ],
      [
        "yours",
        -13.835769279562863
      ],
      [
        "▁/",
        -8.874696097338479
      ],
      [
        "▁consider",
        -8.116765615889669
      ],
      [
        "324",
        -13.101879675234535
      ],
      [
        "▁park",
        -8.426853465573384
      ],
      [
        "▁26",
        -10.232134791583128
      ],
      [
        "1:",
        -14.542473638832043
      ],
      [
        "ism",
        -8.037118565267317
      ],
      [
        "▁hurt",
        -8.432822400094187
      ],
      [
        "▁an",
        -6.4124937552070085
      ],
      [
        "▁mil",
        -7.810684850678914
      ],
      [
        "go",
        -10.366859053500345
      ],
      [
        "▁in",
        -10.559781155066872
      ],
      [
        "▁tho",
        -8.708963387563907
      ],
      [
        "▁sixt",
        -10.805887792387185
      ],
      [
        "5.0",
        -14.634618052259844
      ],
      [
        "▁-",
        -6.672550242218498
      ],
      [
        "▁store",
        -8.097017739464242
      ],
      [
        "3.0",
        -14.167747683965414
      ],
      [
        "▁com",
        -8.7242924317773
      ],
      [
        "▁225",
        -12.177426783633818
      ],
      [
        "▁hug",
        -8.673235280943608
      ],
      [
        "▁44",
        -11.794641251323517
      ],
      [
        "▁fish",
        -8.176006601282968
      ],
      [
        "▁713.8",
        -14.139852382530703
      ],
      [
        "▁pe",
        -8.69348870597367
      ],
      [
        "▁03:1",
        -12.490305688520102
      ],
      [
        "▁suffer",
        -9.18414865621412
      ],
      [
        "▁support",
        -8.033570006278703
      ],
      [
        "as",
        -9.405082315508245
      ],
      [
        "▁20,000",
        -11.18698593061998
      ],
      [
        "04/0",
        -14.183241206755312
      ],
      [
        "▁ni",
        -8.782962799544531
      ],
      [
        "▁response",
        -8.918699875219943
      ],
      [
        "▁important",
        -8.097147459271259
      ],
      [
        "▁john",
        -8.269185049672725
      ],
      [
        "1,6",
        -13.58883323936137
      ],
      [
        "▁80",
        -10.64119910423305
      ],
      [
        "▁dad",
        -8.351794705872948
      ],
      [
        "▁clear",
        -8.198340153352461
      ],
      [
        "59",
        -12.012136318615285
      ],
      [
        "▁713-654-",
        -12.338945399348273
      ],
      [
        "▁super",
        -8.670207929065622
      ],
      [
        "▁danc",
        -9.472831881069402
      ],
      [
        "▁254",
        -14.829903551071723
      ],
      [
        "gue",
        -9.318209955335476
      ],
      [
        "▁nash",
        -9.123575550694625
      ],
      [
        "▁place",
        -6.92533168395223
      ],
      [
        "▁32",
        -11.230927335086662
      ],
      [
        "/17/",
        -12.886927881943858
      ],
      [
        "▁04:",
        -12.413054408096652
      ],
      [
        "▁202-",
        -14.080987957304744
      ],
      [
        "ar",
        -6.807554330580581
      ],
      [
        "▁pat",
        -9.246598164130866
      ],
      [
        "▁civil",
        -9.107511223837708
      ],
      [
        ".12",
        -13.146163943071922
      ],
      [
        "▁103",
        -13.542774831643694
      ],
      [
        "859",
        -12.901515156474916
      ],
      [
        "163",
        -15.14065267998616
      ],
      [
        "pe",
        -13.042329633844208
      ],
      [
        "u",
        -9.36905735747882
      ],
      [
        "giving",
        -9.218170616975675
      ],
      [
        "▁prefer",
        -9.462999698604085
      ],
      [
        "▁bigge",
        -8.999151136954275
      ],
      [
        "▁region",
        -8.855094648305986
      ],
      [
        "e",
        -3.1746558395188593
      ],
      [
        "ator",
        -9.013621663302489
      ],
      [
        "▁ka",
        -8.55097014870329
      ],
      [
        "▁blow",
        -8.804303860599514
      ],
      [
        "▁slow",
        -8.721176168855834
      ],
      [
        "man",
        -7.558719227012472
      ],
      [
        "0",
        -7.942014689472322
      ],
      [
        "with",
        -7.833760072330719
      ],
      [
        "▁page",
        -8.093126097168017
      ],
      [
        "uh",
        -8.320668914799748
      ],
      [
        "uma",
        -10.957900631582513
      ],
      [
        "▁a",
        -7.553362449753704
      ],
      [
        "▁cover",
        -8.464929252740955
      ],
      [
        "ever",
        -9.015581108515743
      ],
      [
        "▁with",
        -5.2317098867092025
      ],
      [
        "▁mind",
        -8.253193736297868
      ],
      [
        "ki",
        -11.83482000002184
      ],
      [
        "▁182",
        -11.921712514434294
      ],
      [
        "▁think",
        -6.277539420584063
      ],
      [
        "▁du",
        -10.433267498874661
      ],
      [
        "-",
        -6.356993500672364
      ],
      [
        "05",
        -11.33380875399571
      ],
      [
        "▁soon",
        -8.305441629013618
      ],
      [
        "▁fill",
        -8.724057199394569
      ],
      [
        "▁ice",
        -9.162622349788418
      ],
      [
        "el",
        -11.736101132493474
      ],
      [
        "▁83",
        -15.322788547072959
      ],
      [
        "some",
        -9.085706270044335
      ],
      [
        "tha",
        -7.447652869023349
      ],
      [
        "ne",
        -12.218300795250945
      ],
      [
        "0",
        -10.782683652942984
      ],
      [
        "▁receiv",
        -9.148245788328586
      ],
      [
        "713-",
        -15.202423208569172
      ],
      [
        "rui",
        -11.834054007462155
      ],
      [
        "▁be",
        -6.7243931281676685
      ],
      [
        "▁activit",
        -8.689452500007512
      ],
      [
        "46",
        -11.619091125597334
      ],
      [
        "▁door",
        -8.127555876375599
      ],
      [
        "had",
        -7.888036462142847
      ],
      [
        "▁66",
        -12.565870066596311
      ],
      [
        "9/11",
        -11.116867274471282
      ],
      [
        "▁207",
        -13.14865086461803
      ],
      [
        "▁ye",
        -7.862836672991424
      ],
      [
        "▁truck",
        -8.556163145659767
      ],
      [
        "▁pocket",
        -8.836302032978608
      ],
      [
        "▁size",
        -9.039476916277597
      ],
      [
        "▁content",
        -9.10721222081299
      ],
      [
        "▁56",
        -12.820438180065187
      ],
      [
        "8389",
        -13.541293472806034
      ],
      [
        "4,",
        -13.63281336500848
      ],
      [
        "-94",
        -14.161600023403992
      ],
      [
        "▁5/1",
        -12.79150994845858
      ],
      [
        "1,",
        -14.673378306135053
      ],
      [
        "burban",
        -9.417746827345699
      ],
      [
        ",000",
        -9.14239492692628
      ],
      [
        "▁10.9",
        -13.49551542024026
      ],
      [
        "/11/200",
        -12.790331325970005
      ],
      [
        "▁whole",
        -8.014134468616886
      ],
      [
        "\"",
        -4.250245863309695
      ],
      [
        "▁dirt",
        -8.760493851524505
      ],
      [
        "3/4",
        -12.323964283376021
      ],
      [
        "▁following",
        -8.51427309567449
      ],
      [
        "▁near",
        -8.58859383215866
      ],
      [
        "▁wash",
        -8.717640736864396
      ],
      [
        "▁hoo",
        -9.477694750119108
      ],
      [
        "270",
        -11.860042949136494
      ],
      [
        "▁true",
        -8.844486774276842
      ],
      [
        "87",
        -11.624567727260336
      ],
      [
        "munic",
        -10.472638223775927
      ],
      [
        "▁visit",
        -8.263462216705479
      ],
      [
        "▁culture",
        -8.781344989227929
      ],
      [
        "393",
        -11.979993705934664
      ],
      [
        "▁screen",
        -9.479842432968237
      ],
      [
        "▁seven",
        -8.978118629881944
      ],
      [
        "▁pay",
        -8.20729259092504
      ],
      [
        "▁*",
        -9.609198289345132
      ],
      [
        "▁believe",
        -7.941718895976133
      ],
      [
        "▁recent",
        -8.30576552918234
      ],
      [
        "687",
        -12.508169247228805
      ],
      [
        "ib",
        -9.100983143059235
      ],
      [
        "831",
        -13.883646719328423
      ],
      [
        "▁yoursel",
        -9.209680784957506
      ],
      [
        "▁chic",
        -8.254649751031181
      ],
      [
        "142",
        -13.600140993251276
      ],
      [
        "▁3.7",
        -12.773552462560504
      ],
      [
        "▁152",
        -15.203421698304805
      ],
      [
        "%",
        -7.579075707415162
      ],
      [
        "▁born",
        -8.65598801312891
      ],
      [
        "▁forgot",
        -9.168263893134126
      ],
      [
        "▁....",
        -10.491737081619904
      ],
      [
        "4.",
        -14.018402976933867
      ],
      [
        "ly",
        -4.5774113969845
      ],
      [
        "▁author",
        -8.907924360174873
      ],
      [
        "▁litera",
        -9.02941976478841
      ],
      [
        "03:4",
        -15.341353967809004
      ],
      [
        "▁tent",
        -9.425463567275704
      ],
      [
        "▁than",
        -7.291350501791546
      ],
      [
        "▁ah",
        -8.644166417501276
      ],
      [
        ":46",
        -13.579038763616385
      ],
      [
        "842",
        -12.352497377056995
      ],
      [
        "-----",
        -11.828237302032942
      ],
      [
        "icles",
        -9.47415876164063
      ],
      [
        "eac",
        -8.274376285108616
      ],
      [
        "▁2051",
        -13.376212310261275
      ],
      [
        "▁restaurant",
        -8.519392082582367
      ],
      [
        "lock",
        -8.284784692874336
      ],
      [
        "▁u.s.",
        -9.122098148383625
      ],
      [
        "▁commission",
        -8.432082682872998
      ],
      [
        "▁open",
        -7.4791654533338985
      ],
      [
        "▁different",
        -7.623924759984851
      ],
      [
        "▁con",
        -7.473643817539984
      ],
      [
        "ee",
        -10.720525926017277
      ],
      [
        "ssi",
        -11.28931369261818
      ],
      [
        "▁copy",
        -8.956143785348793
      ],
      [
        "|",
        -9.70691813184516
      ],
      [
        "▁6.",
        -13.152792151780694
      ],
      [
        "158",
        -13.40478322388883
      ],
      [
        "▁ra",
        -7.864630054001813
      ],
      [
        "▁nandaro",
        -11.378131439771888
      ],
      [
        "000",
        -12.033561010171683
      ],
      [
        "ight",
        -9.35774673288997
      ],
      [
        "▁di",
        -7.753884268383928
      ],
      [
        "▁25.",
        -14.400507833653691
      ],
      [
        "▁4",
        -8.742783755132502
      ],
      [
        "▁mr",
        -7.819645212629676
      ],
      [
        "▁may",
        -7.223659519644929
      ],
      [
        "▁rest",
        -8.357267310280875
      ],
      [
        "▁good",
        -6.384740347368566
      ],
      [
        "tu",
        -11.618331073044233
      ],
      [
        "en",
        -6.679782614980278
      ],
      [
        "▁song",
        -9.051696356655228
      ],
      [
        "▁gentl",
        -9.46114334349636
      ],
      [
        "▁an",
        -7.78334740390641
      ],
      [
        "ion",
        -6.441495724832759
      ],
      [
        "▁key",
        -8.580191064805202
      ],
      [
        "▁gu",
        -11.83470245911374
      ],
      [
        "▁avoid",
        -9.107172503120278
      ],
      [
        "▁immediate",
        -9.137249338937497
      ],
      [
        "▁ka",
        -11.80448258593769
      ],
      [
        "▁peter",
        -8.535274866371044
      ],
      [
        "tu",
        -8.698470255939217
      ],
      [
        "nda",
        -8.975231535341855
      ],
      [
        "▁01/2",
        -13.142620214681031
      ],
      [
        "▁la",
        -7.417438781615467
      ],
      [
        "ext",
        -7.969855399548294
      ],
      [
        "▁at",
        -10.976289584009784
      ],
      [
        "usi",
        -10.751881598698496
      ],
      [
        "▁services",
        -8.906277508582328
      ],
      [
        "▁phone",
        -8.228640163044583
      ],
      [
        "▁so",
        -5.549549276191813
      ],
      [
        "▁202.7",
        -13.178606100086416
      ],
      [
        "▁train",
        -7.824806751013414
      ],
      [
        ",",
        -14.062328514601079
      ],
      [
        "▁english",
        -8.552868894697612
      ],
      [
        "di",
        -11.345092246721592
      ],
      [
        "▁713-8",
        -14.144922617056224
      ],
      [
        ".78",
        -14.47481841691544
      ],
      [
        "4-3",
        -14.138263700674802
      ],
      [
        "▁713-79",
        -14.137051361386526
      ],
      [
        "igh",
        -11.333586498143701
      ],
      [
        "▁best",
        -7.351765805524213
      ],
      [
        "3-16",
        -14.136905767427562
      ],
      [
        "ha",
        -10.276535708534151
      ],
      [
        "▁moral",
        -8.762084221321373
      ],
      [
        "432",
        -13.678790289678101
      ],
      [
        "---",
        -10.562408915400244
      ],
      [
        "920",
        -12.849170236525222
      ],
      [
        "▁drive",
        -8.606349870873476
      ],
      [
        "·",
        -9.904817571414563
      ],
      [
        "▁425-",
        -14.137749306873557
      ],
      [
        "▁105",
        -13.812547057226544
      ],
      [
        "43",
        -12.249869721942224
      ],
      [
        "yo",
        -15.099394858063627
      ],
      [
        "b",
        -9.498189642449134
      ],
      [
        "itie",
        -9.304613658610265
      ],
      [
        "07",
        -11.86690334019674
      ],
      [
        "light",
        -9.157669538440729
      ],
      [
        "▁46",
        -11.362534726783958
      ],
      [
        "▁korea",
        -9.358529051436395
      ],
      [
        "ott",
        -9.410100417656075
      ],
      [
        "place",
        -9.434332709484208
      ],
      [
        "▁scientology",
        -9.458560998889725
      ],
      [
        "▁wrong",
        -8.623386407104508
      ],
      [
        "will",
        -9.026017628551928
      ],
      [
        "800-",
        -13.222800058092481
      ],
      [
        "iv",
        -11.534717983037275
      ],
      [
        "▁marri",
        -9.439966671673657
      ],
      [
        "ago",
        -8.145972882155217
      ],
      [
        "▁wiki",
        -9.30113275163512
      ],
      [
        "▁michael",
        -9.267511657376819
      ],
      [
        "▁whom",
        -9.933139747952437
      ],
      [
        "-4",
        -12.857549285628796
      ],
      [
        "▁718-780-0",
        -13.13677057931521
      ],
      [
        "6-",
        -13.674574631379441
      ],
      [
        "▁06",
        -14.83179025567944
      ],
      [
        "================",
        -9.931655747755622
      ],
      [
        "▁7.2",
        -11.348988672922982
      ],
      [
        "▁320",
        -12.642809539566734
      ],
      [
        "▁capital",
        -8.96902775803622
      ],
      [
        "be",
        -7.17887837628711
      ],
      [
        "▁po",
        -7.94644824046135
      ],
      [
        "350",
        -12.885860862238697
      ],
      [
        "▁pa",
        -10.829832861928496
      ],
      [
        "an",
        -6.926761948213764
      ],
      [
        "▁minute",
        -7.90544277499122
      ],
      [
        "na",
        -7.532758845571232
      ],
      [
        "sterda",
        -8.725999996569229
      ],
      [
        "03",
        -10.997704795848549
      ],
      [
        "▁over",
        -7.215890673759658
      ],
      [
        "▁1.1",
        -12.839654478651052
      ],
      [
        "▁accept",
        -8.5359902248609
      ],
      [
        "ow",
        -13.920453066150827
      ],
      [
        "tw",
        -10.822631328216058
      ],
      [
        "▁break",
        -8.425352470361611
      ],
      [
        "▁les",
        -14.569714431125762
      ],
      [
        "ans",
        -11.365661282671361
      ],
      [
        "▁cu",
        -9.094123095014615
      ],
      [
        "al",
        -9.879150985532643
      ],
      [
        "▁living",
        -8.552926303116104
      ],
      [
        "775",
        -14.140826648569249
      ],
      [
        "▁refus",
        -9.339724853164547
      ],
      [
        "us",
        -7.100720917647171
      ],
      [
        "▁top",
        -8.12305106527343
      ],
      [
        "▁2.0",
        -11.449299207262337
      ],
      [
        "▁c",
        -9.43580686398338
      ],
      [
        "▁01:09",
        -13.137174343487052
      ],
      [
        "▁learn",
        -7.974593705190157
      ],
      [
        "1.5",
        -12.304039930639782
      ],
      [
        "▁travel",
        -8.059220193429141
      ],
      [
        "▁12:42",
        -13.166541441986316
      ],
      [
        "▁muc",
        -6.973535614468273
      ],
      [
        "▁non-",
        -9.092721433577362
      ],
      [
        "00",
        -11.338619248245909
      ],
      [
        "▁smell",
        -9.137267359189961
      ],
      [
        "▁dat",
        -10.961870180146766
      ],
      [
        "ia",
        -7.56042000740755
      ],
      [
        "▁70",
        -10.827511708373175
      ],
      [
        "whom",
        -13.147185253957925
      ],
      [
        "435",
        -13.081662452102297
      ],
      [
        "▁sent",
        -8.50692650751395
      ],
      [
        "1/2",
        -11.18934658260106
      ],
      [
        "550",
        -14.138024971197327
      ],
      [
        "▁touch",
        -8.64250328341635
      ],
      [
        "abilit",
        -8.993232555272602
      ],
      [
        "▁1/",
        -13.887911633017264
      ],
      [
        "▁dead",
        -8.488587797024852
      ],
      [
        "nia",
        -9.26027699979371
      ],
      [
        "-10",
        -14.133997772797096
      ],
      [
        "▁speci",
        -9.433993959763855
      ],
      [
        "▁broke",
        -8.25355523330639
      ],
      [
        "ure",
        -8.624355134773031
      ],
      [
        "ber",
        -8.218154199560123
      ],
      [
        "098",
        -13.688847105212474
      ],
      [
        "▁daughter",
        -9.137256604017558
      ],
      [
        "▁deliver",
        -8.836302419392005
      ],
      [
        "dden",
        -9.321967803572306
      ],
      [
        "▁list",
        -6.724935285476686
      ],
      [
        "/23/200",
        -12.34064088726252
      ],
      [
        "2",
        -7.896452976926298
      ],
      [
        "▁02:4",
        -13.19370597151417
      ],
      [
        "2-46",
        -13.18303338315813
      ],
      [
        "464",
        -15.254803851314197
      ],
      [
        "p",
        -5.823333045741623
      ],
      [
        "up",
        -9.571776430989441
      ],
      [
        "▁hide",
        -9.401148749252206
      ],
      [
        "!!!!",
        -9.691707156797474
      ],
      [
        "uch",
        -7.736554341381519
      ],
      [
        "▁las",
        -8.53011980818167
      ],
      [
        "other",
        -12.279273453871173
      ],
      [
        "▁dis",
        -7.639820818334891
      ],
      [
        "▁legal",
        -8.968627206688469
      ],
      [
        "▁rich",
        -9.399923998795042
      ],
      [
        "▁quiet",
        -9.417379651943339
      ],
      [
        "▁definite",
        -9.049805022763316
      ],
      [
        "ink",
        -9.169075642938145
      ],
      [
        "d",
        -4.011586997049184
      ],
      [
        "▁vega",
        -8.339773056898313
      ],
      [
        "▁fair",
        -8.570379001703756
      ],
      [
        "1",
        -7.526925805932847
      ],
      [
        "▁mouth",
        -8.760213784343858
      ],
      [
        "▁01:5",
        -12.124920194609327
      ],
      [
        "lace",
        -11.855295916706593
      ],
      [
        "▁22",
        -10.168178807948134
      ],
      [
        "53",
        -12.926587056744161
      ],
      [
        "▁reasonabl",
        -9.426903967162524
      ],
      [
        "▁need",
        -6.315856772210233
      ],
      [
        "▁114",
        -13.672578331648024
      ],
      [
        "mar",
        -11.87875920010933
      ],
      [
        "ex",
        -9.281783810318018
      ],
      [
        "▁281-",
        -14.130872119281483
      ],
      [
        "▁!!!!",
        -9.884799963893974
      ],
      [
        "sit",
        -11.467061234695635
      ],
      [
        "▁herself",
        -10.235000470458207
      ],
      [
        "▁balance",
        -9.138262615599746
      ],
      [
        "▁30,",
        -14.133461492039805
      ],
      [
        "▁leg",
        -8.238585087274286
      ],
      [
        "ou",
        -11.274927960313955
      ],
      [
        "ate",
        -7.264486358758153
      ],
      [
        "-",
        -11.33326351805243
      ],
      [
        "ve",
        -10.988946458107845
      ],
      [
        "!!",
        -8.680316007598034
      ],
      [
        "▁build",
        -9.11565323356609
      ],
      [
        "when",
        -10.093911075754406
      ],
      [
        "646-",
        -10.793300965609518
      ],
      [
        "ther",
        -7.090046076519715
      ],
      [
        "g",
        -6.298432668733279
      ],
      [
        "▁lu",
        -11.835344235695308
      ],
      [
        "▁evidence",
        -9.339612961542672
      ],
      [
        "▁#",
        -13.65519821920551
      ],
      [
        "▁conc",
        -9.097007757390232
      ],
      [
        "77",
        -12.614120500178377
      ],
      [
        "hich",
        -14.237104677914536
      ],
      [
        "▁220",
        -11.833843655943172
      ],
      [
        "198",
        -12.614044660337438
      ],
      [
        "▁effect",
        -8.718285105658385
      ],
      [
        "▁reason",
        -8.154685171974
      ],
      [
        "▁(",
        -7.710081261439022
      ],
      [
        "kk",
        -10.129784113247265
      ],
      [
        "▁apri",
        -8.545779646290505
      ],
      [
        "uk",
        -8.960605887137618
      ],
      [
        "▁04",
        -11.318655228848783
      ],
      [
        "▁hu",
        -10.54529047320942
      ],
      [
        "▁director",
        -9.401279684286715
      ],
      [
        "▁bridge",
        -9.417598753678721
      ],
      [
        "89",
        -10.199888421912359
      ],
      [
        "four",
        -10.682034391298334
      ],
      [
        "▁seattle",
        -8.623395706754756
      ],
      [
        "2.6",
        -12.444938920687479
      ],
      [
        "100,000",
        -15.487655502934642
      ],
      [
        "▁160",
        -10.48923474133084
      ],
      [
        "▁12.4",
        -12.675189927992927
      ],
      [
        "▁launch",
        -9.302916467452288
      ],
      [
        "▁format",
        -9.31197093788241
      ],
      [
        "ie",
        -10.957348115487262
      ],
      [
        ".7",
        -12.93833858127602
      ],
      [
        "▁bring",
        -8.028826587772635
      ],
      [
        "▁not",
        -5.826808915645819
      ],
      [
        "ove",
        -12.445527802350513
      ],
      [
        "▁bowl",
        -9.011021689531791
      ],
      [
        "▁200",
        -7.835194488110917
      ],
      [
        "▁let",
        -6.657253422921517
      ],
      [
        "-66",
        -14.128816852154578
      ],
      [
        "▁f",
        -14.121066608634777
      ],
      [
        "▁famil",
        -7.690217645415598
      ],
      [
        "3.7",
        -14.341387363873036
      ],
      [
        "▁schedule",
        -8.859160632803475
      ],
      [
        "▁balzac",
        -8.605281244455933
      ],
      [
        "/21/200",
        -13.001555604525423
      ],
      [
        "▁271",
        -13.991854088309573
      ],
      [
        "1-800",
        -14.139206792892828
      ],
      [
        "▁target",
        -9.377711894345303
      ],
      [
        "&",
        -9.184131940291007
      ],
      [
        "▁style",
        -9.05009030508094
      ],
      [
        "▁young",
        -8.112558615669563
      ],
      [
        "▁standards",
        -9.357858980849075
      ],
      [
        "▁user",
        -9.218026813084803
      ],
      [
        "28",
        -11.333881110935934
      ],
      [
        "▁1,0",
        -14.58135672868335
      ],
      [
        "ial",
        -7.9714031229525535
      ],
      [
        "el",
        -7.249964921174018
      ],
      [
        "▁have",
        -5.49594958171741
      ],
      [
        "▁dark",
        -8.441454759001926
      ],
      [
        "▁electric",
        -9.25037472189848
      ],
      [
        "/30/200",
        -11.247169219236588
      ],
      [
        "▁son",
        -9.072459893514072
      ],
      [
        "▁border",
        -9.479901969804425
      ],
      [
        "▁dangerous",
        -9.321227290789272
      ],
      [
        "tho",
        -11.220322659418951
      ],
      [
        "▁<",
        -9.428811894508193
      ],
      [
        "514",
        -14.796244535458388
      ],
      [
        "▁09",
        -12.321597955198031
      ],
      [
        "▁original",
        -8.77723676968968
      ],
      [
        "▁30,0",
        -14.113596497784208
      ],
      [
        "room",
        -9.37236372896799
      ],
      [
        "pre",
        -11.826766477842504
      ],
      [
        "▁what",
        -5.09320280019549
      ],
      [
        "▁12:3",
        -12.209603630901498
      ],
      [
        "cal",
        -11.155704790119795
      ],
      [
        "▁fire",
        -8.381478063018474
      ],
      [
        "ho",
        -15.256809929066952
      ],
      [
        "▁11.",
        -12.246845594090738
      ],
      [
        "96",
        -11.613919797726455
      ],
      [
        "▁contract",
        -9.01952217036407
      ],
      [
        "▁500",
        -10.955114086710612
      ],
      [
        "sixt",
        -14.516672584551015
      ],
      [
        "▁requirement",
        -9.269196157595784
      ],
      [
        "sh",
        -11.580471676368933
      ],
      [
        "650",
        -14.807816924349003
      ],
      [
        "▁make",
        -6.3146914622615204
      ],
      [
        "01",
        -10.77805322712215
      ],
      [
        "to",
        -10.339334777003861
      ],
      [
        "509",
        -14.165141654191874
      ],
      [
        "▁33",
        -11.540855205242467
      ],
      [
        "▁london",
        -8.825065854796385
      ],
      [
        "countries",
        -8.41080273761471
      ],
      [
        "▁b",
        -10.167201760957562
      ],
      [
        "▁regular",
        -9.15263396182148
      ],
      [
        "tra",
        -11.286326700046635
      ],
      [
        "▁x",
        -10.277760178101257
      ],
      [
        "▁gra",
        -8.157646178477867
      ],
      [
        "160",
        -12.373121820272267
      ],
      [
        "ninety",
        -15.0738503011854
      ],
      [
        "ian",
        -7.60916502345207
      ],
      [
        "▁percent",
        -9.357951579456499
      ],
      [
        "300",
        -11.818994592795601
      ],
      [
        "▁bo",
        -6.0419013894935985
      ],
      [
        "val",
        -11.348403420490468
      ],
      [
        "▁a",
        -6.419568800409828
      ],
      [
        "48",
        -11.190259833701614
      ],
      [
        "▁hop",
        -9.255239106991883
      ],
      [
        "▁mill",
        -9.334516367393029
      ],
      [
        "▁technical",
        -9.437727653408743
      ],
      [
        "▁713/",
        -13.066201541249049
      ],
      [
        "▁5.3",
        -12.917050090092495
      ],
      [
        "483",
        -13.516001727325241
      ],
      [
        "▁bright",
        -9.361559164616367
      ],
      [
        "3.30",
        -13.842287739511173
      ],
      [
        "_",
        -8.880128849305423
      ],
      [
        "▁f",
        -6.932738154048342
      ],
      [
        "▁group",
        -7.581125817888864
      ],
      [
        "[SEP]",
        0.0
      ],
      [
        "▁sai",
        -6.464694710125676
      ],
      [
        "▁clean",
        -8.018541165034154
      ],
      [
        "▁171",
        -13.30374834720713
      ],
      [
        "▁hall",
        -9.395913248595198
      ],
      [
        "▁potential",
        -9.267511628304081
      ],
      [
        "▁pal",
        -11.623352589811217
      ],
      [
        "va",
        -8.99857129951463
      ],
      [
        "▁13",
        -9.708661677019629
      ],
      [
        "▁06:2",
        -12.823132787264766
      ],
      [
        "m",
        -4.126316415305995
      ],
      [
        "▁video",
        -8.802967022553727
      ],
      [
        "▁mak",
        -7.852869009868516
      ],
      [
        "ara",
        -11.66586477604424
      ],
      [
        "▁week",
        -7.42353420028597
      ],
      [
        "▁sept",
        -8.235352983711465
      ],
      [
        "▁tu",
        -8.598809402587051
      ],
      [
        "▁hol",
        -9.368614190354268
      ],
      [
        "▁carrie",
        -9.409804468852743
      ],
      [
        "we",
        -8.084226335730307
      ],
      [
        "ana",
        -9.942388696697838
      ],
      [
        "▁who",
        -6.506588786527327
      ],
      [
        "▁6/1",
        -13.68037551197092
      ],
      [
        "▁ba",
        -7.864008324699797
      ],
      [
        "lve",
        -15.294268364475526
      ],
      [
        "▁traffic",
        -9.479844245249957
      ],
      [
        "11-",
        -13.161902737639597
      ],
      [
        "958",
        -13.341006206325527
      ],
      [
        "▁09/1",
        -12.073086897726844
      ],
      [
        "ri",
        -11.447435099548533
      ],
      [
        "▁57",
        -11.163484242835816
      ],
      [
        "▁honey",
        -8.871103608613964
      ],
      [
        "▁hers",
        -12.827484547626566
      ],
      [
        ">>",
        -10.62399969170513
      ],
      [
        "▁vacation",
        -9.458570413108083
      ],
      [
        "▁53",
        -11.83521502435301
      ],
      [
        "▁3-52",
        -13.137000630792741
      ],
      [
        "ba",
        -11.549657294385684
      ],
      [
        "▁hu",
        -7.767487986879568
      ],
      [
        "▁protection",
        -9.252358658623871
      ],
      [
        "ill",
        -9.453818242452195
      ],
      [
        "▁atmospher",
        -9.41731948979772
      ],
      [
        "▁abo",
        -9.942026802887208
      ],
      [
        "done",
        -7.924389163755589
      ],
      [
        "▁no-4",
        -13.278173271145704
      ],
      [
        "▁receive",
        -8.6259965447626
      ],
      [
        "▁ab",
        -8.672700136299252
      ],
      [
        "nature",
        -9.208546941985716
      ],
      [
        "-004",
        -14.199300681685395
      ],
      [
        "se",
        -10.75939678579618
      ],
      [
        "▁balloon",
        -9.458611226953286
      ],
      [
        "▁sixt",
        -9.339728533482056
      ],
      [
        "▁walk",
        -7.679194140199733
      ],
      [
        "less",
        -8.147620233894948
      ],
      [
        "▁163",
        -12.509491590173866
      ],
      [
        "▁121",
        -14.581591867325715
      ],
      [
        "/4",
        -14.507837677050668
      ],
      [
        "▁claim",
        -8.561911248881554
      ],
      [
        "s",
        -7.82004737457296
      ],
      [
        "▁display",
        -9.00861891466375
      ],
      [
        "▁pant",
        -9.385128034454175
      ],
      [
        "ware",
        -9.448121605498573
      ],
      [
        "▁god",
        -9.310029383370292
      ],
      [
        "▁stock",
        -9.45989104929193
      ],
      [
        "▁hor",
        -11.464129427629091
      ],
      [
        "26/0",
        -14.093152072854176
      ],
      [
        "▁185",
        -11.266486185287963
      ],
      [
        "▁[",
        -8.845600951931221
      ],
      [
        "ester",
        -9.360892092528687
      ],
      [
        "▁uh",
        -7.396638407131301
      ],
      [
        "▁spa",
        -8.895556345533514
      ],
      [
        "more",
        -6.93931928247482
      ],
      [
        "▁14",
        -9.756769856757689
      ],
      [
        "▁election",
        -9.036884679602524
      ],
      [
        "▁direction",
        -9.484160156402055
      ],
      [
        "▁defin",
        -9.09243326522773
      ],
      [
        "▁exchange",
        -9.458560990902521
      ],
      [
        "in",
        -6.530014506079228
      ],
      [
        "and",
        -3.8970350390850186
      ],
      [
        "o",
        -2.821872209097938
      ],
      [
        "▁ap",
        -8.962912394055863
      ],
      [
        "j",
        -12.63677057935472
      ],
      [
        "▁888",
        -15.102084738941228
      ],
[...]
