{
  "version": "1.0",
  "truncation": null,
  "padding": null,
  "added_tokens": [
    {
      "id": 1541,
      "content": "[CLS]",
      "single_word": false,
      "lstrip": false,
      "rstrip": false,
      "normalized": false,
      "special": true
    },
    {
      "id": 2837,
      "content": "[MASK]",
      "single_word": false,
      "lstrip": false,
      "rstrip": false,
      "normalized": false,
      "special": true
    },
    {
      "id": 5676,
      "content": "[PAD]",
      "single_word": false,
      "lstrip": false,
      "rstrip": false,
      "normalized": false,
      "special": true
    },
    {
      "id": 6067,
      "content": "[UNK]",
      "single_word": false,
      "lstrip": false,
      "rstrip": false,
      "normalized": false,
      "special": true
    },
    {
      "id": 7927,
      "content": "[SEP]",
      "single_word": false,
      "lstrip": false,
      "rstrip": false,
      "normalized": false,
      "special": true
    }
  ],
  "normalizer": {
    "type": "Sequence",
    "normalizers": [
      {
        "type": "NFD"
      },
      {
        "type": "Lowercase"
      },
      {
        "type": "StripAccents"
      }
    ]
  },
  "pre_tokenizer": {
    "type": "Sequence",
    "pretokenizers": [
      {
        "type": "Metaspace",
        "replacement": "▁",
        "prepend_scheme": "always",
        "split": true
      }
    ]
  },
  "post_processor": {
    "type": "TemplateProcessing",
    "single": [
      {
        "SpecialToken": {
          "id": "[CLS]",
          "type_id": 0
        }
      },
      {
        "Sequence": {
          "id": "A",
          "type_id": 0
        }
      },
      {
        "SpecialToken": {
          "id": "[SEP]",
          "type_id": 0
        }
      }
    ],
    "pair": [
      {
        "SpecialToken": {
          "id": "[CLS]",
          "type_id": 0
        }
      },
      {
        "Sequence": {
          "id": "A",
          "type_id": 0
        }
      },
      {
        "SpecialToken": {
          "id": "[SEP]",
          "type_id": 0
        }
      },
      {
        "Sequence": {
          "id": "B",
          "type_id": 1
        }
      },
      {
        "SpecialToken": {
          "id": "[SEP]",
          "type_id": 1
        }
      }
    ],
    "special_tokens": {
      "[CLS]": {
        "id": "[CLS]",
        "ids": [
          1541
        ],
        "tokens": [
          "[CLS]"
        ]
      },
      "[SEP]": {
        "id": "[SEP]",
        "ids": [
          7927
        ],
        "tokens": [
          "[SEP]"
        ]
      }
    }
  },
  "decoder": {
    "type": "Metaspace",
    "replacement": "▁",
    "prepend_scheme": "always",
    "split": true
  },
  "model": {
    "type": "Unigram",
    "unk_id": 6067,
    "vocab": [
      [
        "▁shed",
        -10.338589670652677
      ],
      [
        "▁and",
        -10.843541831848249
      ],
      [
        "▁legislature",
        -10.698920082361969
      ],
      [
        "▁spani",
        -9.835388413342354
      ],
      [
        "eral",
        -11.845563440408633
      ],
      [
        "ve",
        -7.179020698767757
      ],
      [
        "▁post",
        -8.21368532157217
      ],
      [
        "ed",
        -3.9099723365377272
      ],
      [
        "▁peel",
        -10.792317086096173
      ],
      [
        "of",
        -7.711049108475499
      ],
      [
        "▁effective",
        -9.175270313222226
      ],
      [
        "▁al",
        -5.883539490107041
      ],
      [
        "▁per",
        -7.651239297079777
      ],
      [
        "▁li",
        -12.400345616303753
      ],
      [
        "776",
        -12.023279956286233
      ],
      [
        "▁pad",
        -9.751500756020015
      ],
      [
        "▁fabric",
        -10.782230009007378
      ],
      [
        "▁flavor",
        -9.683897521339254
      ],
      [
        "▁pm",
        -7.046624845514733
      ],
      [
        "415-",
        -14.136912363440238
      ],
      [
        "▁elaborate",
        -10.973139097793489
      ],
      [
        "▁frequenc",
        -10.973139122380898
      ],
      [
        "301",
        -13.512431290676588
      ],
      [
        "▁76",
        -11.534173471198564
      ],
      [
        "▁occurr",
        -9.776968278096408
      ],
      [
        "line",
        -9.413211024688355
      ],
      [
        "▁lei",
        -13.470949667794704
      ],
      [
        "▁railway",
        -10.78259210052808
      ],
      [
        "/2005.09/200509",
        -10.873139097778202
      ],
      [
        "▁alre",
        -7.660596022457105
      ],
      [
        "▁mom",
        -7.819081400025759
      ],
      [
        "▁production",
        -9.580345379370915
      ],
      [
        "ish",
        -8.23995531956783
      ],
      [
        "▁launch",
        -9.208678384082257
      ],
      [
        "▁lifestyle",
        -10.973140972294438
      ],
      [
        "ina",
        -10.335495820432765
      ],
      [
        "▁300",
        -10.870247792781871
      ],
      [
        "▁unique",
        -9.385421554095007
      ],
      [
        "▁bunn",
        -9.45496783020425
      ],
      [
        "▁low",
        -8.654194471717037
      ],
      [
        "▁leas",
        -7.820394138740565
      ],
      [
        "▁twa",
        -9.31546027163797
      ],
      [
        "▁dimension",
        -10.621973686626875
      ],
      [
        "ut",
        -11.124828315595806
      ],
      [
        "▁criteri",
        -10.550571235774022
      ],
      [
        "wa",
        -8.993915640486486
      ],
      [
        "▁cutting",
        -9.718855201826862
      ],
      [
        "▁negotiation",
        -10.205352931878844
      ],
      [
        "▁01/2",
        -13.142620214681036
      ],
      [
        "▁win",
        -9.546417672640114
      ],
      [
        "▁invent",
        -10.202104857930625
      ],
      [
        "▁video",
        -8.708548482727391
      ],
      [
        "▁event",
        -8.288376792463676
      ],
      [
        "▁wind",
        -9.041806547572808
      ],
      [
        "▁infect",
        -10.69789289619604
      ],
      [
        "02",
        -11.27753252043884
      ],
      [
        "page",
        -10.44255235687459
      ],
      [
        "▁gam",
        -10.54330296832061
      ],
      [
        "j",
        -12.636770579354717
      ],
      [
        "lena",
        -11.133085530454839
      ],
      [
        "▁web",
        -8.707674925952503
      ],
      [
        "▁mass",
        -9.275943492125531
      ],
      [
        "▁work",
        -11.833785839142502
      ],
      [
        "▁sap",
        -11.09131312668061
      ],
      [
        "fid",
        -12.179832456372521
      ],
      [
        "▁award",
        -9.386453371563798
      ],
      [
        "g&",
        -11.096875282320301
      ],
      [
        "▁180",
        -11.117175652875954
      ],
      [
        "ua",
        -9.500032956693179
      ],
      [
        "mo",
        -11.05508503396024
      ],
      [
        "▁relevan",
        -9.665040727552835
      ],
      [
        "/01",
        -12.97897733418098
      ],
      [
        "▁1.5",
        -10.928556940654719
      ],
      [
        "▁clinic",
        -10.370075657248501
      ],
      [
        "▁plate",
        -9.42978862977814
      ],
      [
        "burn",
        -10.86871051009459
      ],
      [
        "▁wear",
        -8.274042707586668
      ],
      [
        "nver",
        -6.4505950741997635
      ],
      [
        "▁keep",
        -7.455030079453249
      ],
      [
        "▁internal",
        -10.026183894072787
      ],
      [
        "▁operate",
        -10.704235954051942
      ],
      [
        "▁3",
        -10.470862676844954
      ],
      [
        "▁dong",
        -11.004985380303683
      ],
      [
        "at",
        -8.580003650869935
      ],
      [
        "▁is",
        -6.683859530650609
      ],
      [
        "▁local",
        -8.272617127562505
      ],
      [
        "▁israel",
        -8.826317731794024
      ],
      [
        "▁intention",
        -10.255178754485943
      ],
      [
        "▁ten",
        -9.875351497645157
      ],
      [
        "▁nonsens",
        -11.084266166044502
      ],
      [
        "▁inc",
        -9.08541703512168
      ],
      [
        "in",
        -10.121798497307285
      ],
      [
        "▁feeling",
        -9.010242694322397
      ],
      [
        "▁beep",
        -10.554045291669198
      ],
      [
        "rap",
        -10.35995163919156
      ],
      [
        "199",
        -11.808463155916122
      ],
      [
        "▁fever",
        -10.436682111850317
      ],
      [
        "▁c",
        -7.001118939860497
      ],
      [
        "▁disappoint",
        -10.306302219207758
      ],
      [
        "▁annex",
        -11.08874485218461
      ],
      [
        "49",
        -12.046337643457093
      ],
      [
        "ch",
        -11.427146876420405
      ],
      [
        "▁recipient",
        -10.067815841254962
      ],
      [
        "▁wash",
        -8.8186276693769
      ],
      [
        "100",
        -11.126169046448926
      ],
      [
        "▁bla",
        -10.66547882595629
      ],
      [
        "澹",
        -12.833785825435129
      ],
      [
        "▁expert",
        -9.13890369569092
      ],
      [
        "▁random",
        -10.782424371423929
      ],
      [
        "▁s.",
        -10.629615480501327
      ],
      [
        "▁analyse",
        -10.935621053285427
      ],
      [
        "▁intelligent",
        -11.20925020890288
      ],
      [
        "▁marx",
        -10.485231116177626
      ],
      [
        "▁bobb",
        -11.050338377718365
      ],
      [
        "▁abe",
        -8.32297401654299
      ],
      [
        "▁http://",
        -9.4520909100886
      ],
      [
        "▁hit",
        -7.964894790564406
      ],
      [
        "▁mi",
        -11.290189893230613
      ],
      [
        "▁right",
        -6.270653959419714
      ],
      [
        "us",
        -7.317155285853317
      ],
      [
        "▁leaders",
        -9.262508924031085
      ],
      [
        "ridge",
        -10.625448970823681
      ],
      [
        "▁hedge",
        -10.698928098408363
      ],
      [
        "▁earth",
        -8.64532043558489
      ],
      [
        "▁little",
        -6.756416918978919
      ],
      [
        "▁devote",
        -10.427830082543995
      ],
      [
        "ck",
        -11.501990416744686
      ],
      [
        "▁isda",
        -10.424876960385172
      ],
      [
        "15",
        -10.272007946672392
      ],
      [
        "▁bit",
        -7.810951364632925
      ],
      [
        "wikipedia",
        -11.084252198310033
      ],
      [
        "880",
        -15.446409968184138
      ],
      [
        "th",
        -13.300727225114223
      ],
      [
        "her",
        -7.76771503543099
      ],
      [
        "rising",
        -9.814152427969711
      ],
      [
        "▁impe",
        -11.111898630816517
      ],
      [
        "or",
        -11.559536562033587
      ],
      [
        "een",
        -10.053247329201625
      ],
      [
        "er",
        -8.73873720195392
      ],
      [
        "/08",
        -13.152034735197498
      ],
      [
        "▁plaintiff",
        -10.782253669719442
      ],
      [
        "▁02:3",
        -14.03913544468183
      ],
      [
        "tra",
        -11.286326700046635
      ],
      [
        "▁erase",
        -10.996810911656796
      ],
      [
        "▁incubat",
        -11.084305446558652
      ],
      [
        "▁go",
        -11.944803889857337
      ],
      [
        "res",
        -11.577153767094357
      ],
      [
        "ce",
        -6.707250711934617
      ],
      [
        "ting",
        -12.485813309269616
      ],
      [
        "▁wagon",
        -10.700438899651251
      ],
      [
        "▁trend",
        -10.254525871019972
      ],
      [
        "▁act",
        -8.345860179927508
      ],
      [
        "▁soon",
        -8.322823599925718
      ],
      [
        "▁1030",
        -14.191480154345426
      ],
      [
        "▁simp",
        -10.899614139184639
      ],
      [
        "mul",
        -11.833896043499934
      ],
      [
        "▁sto",
        -10.42753028408853
      ],
      [
        "▁charge",
        -8.54806971049041
      ],
      [
        "▁clause",
        -10.634656630255527
      ],
      [
        "▁syn",
        -10.794093712609337
      ],
      [
        "▁uk",
        -9.796629383737784
      ],
      [
        "▁representation",
        -10.311150562286752
      ],
      [
        "▁167",
        -13.956538851473839
      ],
      [
        "orrow",
        -8.115700336615571
      ],
      [
        "▁virtual",
        -10.362554844554719
      ],
      [
        "▁how",
        -8.86190324297668
      ],
      [
        "firefox",
        -10.698896977054662
      ],
      [
        "▁quot",
        -11.012410731660072
      ],
      [
        "1.0",
        -14.84823629622486
      ],
      [
        "▁asian",
        -10.12307226087226
      ],
      [
        "▁productive",
        -11.013172743341498
      ],
      [
        "1,6",
        -13.588833239361369
      ],
      [
        "form",
        -10.459964239826919
      ],
      [
        "▁ad",
        -13.069983555914995
      ],
      [
        "▁pressure",
        -9.627669301113205
      ],
      [
        "▁write",
        -7.835614184940715
      ],
      [
        "▁youth",
        -10.362876922292854
      ],
      [
        "▁3,",
        -11.986573016429364
      ],
      [
        "7:3",
        -13.59615174620778
      ],
      [
        "tion",
        -12.18006846808419
      ],
      [
        "c",
        -6.053272481059235
      ],
      [
        "▁12:0",
        -12.67254254495367
      ],
      [
        "▁sock",
        -10.628883240796343
      ],
      [
        "uck",
        -10.257283761250696
      ],
      [
        "11-",
        -13.161902737639597
      ],
      [
        "▁port",
        -9.120980125631112
      ],
      [
        "▁mistake",
        -9.40717504513859
      ],
      [
        "▁rinse",
        -10.782767716487317
      ],
      [
        "truck",
        -10.351035891065324
      ],
      [
        "▁panel",
        -10.363738447183305
      ],
      [
        "▁jud",
        -10.592944357146491
      ],
      [
        "▁6.",
        -13.152792151780693
      ],
      [
        "▁consist",
        -10.254514990933082
      ],
      [
        "▁boxe",
        -9.929398466386692
      ],
      [
        "▁thi",
        -5.393002986392684
      ],
      [
        "rio",
        -11.368284490750389
      ],
      [
        "▁rush",
        -10.111933897292074
      ],
      [
        "▁sch",
        -11.042520271932212
      ],
      [
        "▁saddam",
        -10.111302390269547
      ],
      [
        "▁situat",
        -11.208460947332666
      ],
      [
        "▁cake",
        -9.157675138773254
      ],
      [
        "▁repeated",
        -9.928620188757991
      ],
      [
        "▁gym",
        -10.068078908405791
      ],
      [
        "nata",
        -10.789670591084066
      ],
      [
        "▁fre",
        -10.273914318210835
      ],
      [
        "▁01/19/",
        -12.359978021860881
      ],
      [
        "mi",
        -10.350978540918216
      ],
      [
        "80",
        -10.68097320844364
      ],
      [
        "nca",
        -12.403582309077763
      ],
      [
        "▁silkie",
        -10.635416506247132
      ],
      [
        "more",
        -6.852969888899753
      ],
      [
        "▁drag",
        -10.77971198718258
      ],
      [
        "▁215",
        -12.777466169421308
      ],
      [
        "ottie",
        -11.203777375557895
      ],
      [
        "iji",
        -11.001225357799534
      ],
      [
        "▁dead",
        -8.511929414312135
      ],
      [
        "▁fake",
        -10.62221587017501
      ],
      [
        "▁27",
        -10.732058639073951
      ],
      [
        "▁hid",
        -9.837729331349369
      ],
      [
        "▁struggle",
        -10.193871526927166
      ],
      [
        "▁interact",
        -10.507899277201977
      ],
      [
        "▁05:3",
        -12.668251370718803
      ],
      [
        "▁sleep",
        -8.101267159867184
      ],
      [
        "tangle",
        -11.08437780800704
      ],
      [
        "pover",
        -10.107722259940449
      ],
      [
        "▁permit",
        -10.538948456232369
      ],
      [
        "▁fil",
        -10.3999925728365
      ],
      [
        "83",
        -12.471646851363039
      ],
      [
        "al",
        -9.879150985532643
      ],
      [
        "▁protect",
        -8.899782816520466
      ],
      [
        "▁revolution",
        -9.88044153998165
      ],
      [
        "ig",
        -9.772597130105794
      ],
      [
        "▁spring",
        -9.32533119850187
      ],
      [
        "▁sleeve",
        -10.306999996939576
      ],
      [
        "▁concentrate",
        -10.972435086980399
      ],
      [
        "▁brass",
        -10.882739485267997
      ],
      [
        "▁1.2",
        -12.884990035352796
      ],
      [
        "▁du",
        -9.594023106383746
      ],
      [
        "er",
        -10.869329306103351
      ],
      [
        "io",
        -9.117164473535738
      ],
      [
        "▁lime",
        -10.363357443698016
      ],
      [
        "▁scann",
        -11.093382694906582
      ],
      [
        "▁code",
        -8.641263454512213
      ],
      [
        "lie",
        -9.012540161252048
      ],
      [
        "▁transition",
        -10.307949856833767
      ],
      [
        "▁know",
        -5.7441817362972625
      ],
      [
        "u",
        -7.139613557669702
      ],
      [
        "▁committe",
        -10.308668485151847
      ],
      [
        "lo",
        -9.686887479395796
      ],
      [
        "▁wednesday",
        -7.519443471921703
      ],
      [
        "▁copy",
        -8.863153176486648
      ],
      [
        "▁its",
        -7.722962474193338
      ],
      [
        "▁?",
        -6.9934883581140035
      ],
      [
        "immigration",
        -10.25436769463617
      ],
      [
        "ushi",
        -10.336889269321167
      ],
      [
        "▁reserve",
        -9.264064336902718
      ],
      [
        "▁still",
        -7.114101251391491
      ],
      [
        "▁team",
        -8.434061617845794
      ],
      [
        "▁m.",
        -10.114025076790021
      ],
      [
        "48-",
        -13.88655511899733
      ],
      [
        "▁straight",
        -9.190638234466917
      ],
      [
        "▁babi",
        -9.970463330795825
      ],
      [
        "▁politic",
        -10.302718565225753
      ],
      [
        "isation",
        -10.367091781794418
      ],
      [
        "▁cha",
        -9.83474512130551
      ],
      [
        "▁notice",
        -8.576804992108414
      ],
      [
        "bert",
        -10.242654352680248
      ],
      [
        "▁200,",
        -14.14712352768953
      ],
      [
        "26",
        -11.04453144405831
      ],
      [
        "▁destroy",
        -9.683897589894258
      ],
      [
        "▁acro",
        -10.689507265366785
      ],
      [
        "▁belgi",
        -10.36210762639962
      ],
      [
        "▁11/",
        -12.525804538246266
      ],
      [
        "up",
        -9.571776430989441
      ],
      [
        "▁quarter",
        -9.81708088388471
      ],
      [
        "|",
        -9.706918131845164
      ],
      [
        "▁bigge",
        -8.916124205783511
      ],
      [
        "4,",
        -13.632813365008479
      ],
      [
        "▁nam",
        -10.715254853365963
      ],
      [
        "h",
        -9.117748607228467
      ],
      [
        "▁coup",
        -10.41931607670518
      ],
      [
        "▁major",
        -8.370324619599955
      ],
      [
        "▁dab",
        -10.902979590423204
      ],
      [
        "▁laundr",
        -10.42137876648194
      ],
      [
        "▁281-51",
        -14.136807499320865
      ],
      [
        "▁morning",
        -6.9817030623203244
      ],
      [
        "▁alexand",
        -11.185491854750431
      ],
      [
        "▁gray",
        -10.178894564130413
      ],
      [
        "▁loss",
        -10.018440900185789
      ],
      [
        "▁log",
        -10.08206878732548
      ],
      [
        "▁cope",
        -11.00506652439455
      ],
      [
        "▁middle",
        -8.475625066981417
      ],
      [
        "▁ma",
        -10.677501707364895
      ],
      [
        "▁franc",
        -9.407964931714847
      ],
      [
        "▁browser",
        -10.362555224308817
      ],
      [
        "ye",
        -12.846015260932829
      ],
      [
        "▁01:0",
        -13.214497832237065
      ],
      [
        "▁militar",
        -8.459025526855871
      ],
      [
        "▁day",
        -6.499656336635169
      ],
      [
        "▁guitar",
        -11.08425207516053
      ],
      [
        "▁collection",
        -9.656853409245846
      ],
      [
        "another",
        -10.357494289543578
      ],
      [
        "▁scent",
        -10.785406109721967
      ],
      [
        "body",
        -10.179364759477298
      ],
      [
        "▁ble",
        -10.345001213350344
      ],
      [
        "▁k",
        -11.02216081974675
      ],
      [
        "▁45",
        -11.407942744300975
      ],
      [
        "▁historical",
        -9.69079308828038
      ],
      [
        "rre",
        -12.785449329254636
      ],
      [
        "▁?!?",
        -13.647540773753782
      ],
      [
        "108",
        -12.52073979168762
      ],
      [
        "▁sut",
        -11.019368493883382
      ],
      [
        "▁revise",
        -10.156753188198486
      ],
      [
        "▁partial",
        -10.981810534576992
      ],
      [
        "ix",
        -12.696653061457788
      ],
      [
        "9",
        -11.755654067596884
      ],
      [
        "680",
        -12.884090929504227
      ],
      [
        "du",
        -12.226091588455985
      ],
      [
        "ether",
        -7.940213336792466
      ],
      [
        "+",
        -15.518165406639653
      ],
      [
        "▁grandmother",
        -9.226677100744084
      ],
      [
        "▁economic",
        -8.452623553565067
      ],
      [
        "▁iso",
        -10.295115650840907
      ],
      [
        "▁mean",
        -6.91240497839214
      ],
      [
        "lump",
        -10.898721281335666
      ],
      [
        "▁ital",
        -9.875697668932332
      ],
      [
        "▁twirl",
        -11.085729714778335
      ],
      [
        "tel",
        -12.258190552242459
      ],
      [
        "▁sen",
        -9.4815734141918
      ],
      [
        "▁mush",
        -9.84052544427432
      ],
      [
        "▁architect",
        -10.96838616691122
      ],
      [
        "▁34",
        -11.553169520873858
      ],
      [
        "▁share",
        -8.799696603581921
      ],
      [
        "▁’",
        -8.643293563333355
      ],
      [
        "▁vintage",
        -10.873144820074906
      ],
      [
        "conne",
        -11.333805720331656
      ],
      [
        "▁ya",
        -14.202852529658713
      ],
      [
        "28",
        -11.333881110935947
      ],
      [
        "▁chick",
        -10.893145825371228
      ],
      [
        "▁lu",
        -11.835344235695308
      ],
      [
        "▁initiative",
        -9.84099475373919
      ],
      [
        "▁sentiment",
        -11.084262694515118
      ],
      [
        "1:1",
        -14.344002145884021
      ],
      [
        "▁comb",
        -10.372946331290741
      ],
      [
        "!!!!!!!!!!!!!!!!",
        -11.406486109637537
      ],
      [
        "▁revenue",
        -9.947753609610423
      ],
      [
        "▁nas",
        -9.950716072037087
      ],
      [
        "age",
        -11.003488229021976
      ],
      [
        "5000",
        -13.766487213310354
      ],
      [
        "▁march",
        -8.742655882322797
      ],
      [
        "▁tie",
        -8.675215726611224
      ],
      [
        "044",
        -14.672105413985395
      ],
      [
        "▁forecast",
        -11.084301800983066
      ],
      [
        "ification",
        -9.80287009699273
      ],
      [
        "▁hum",
        -9.940930220010681
      ],
      [
        "▁importan",
        -10.282433620549224
      ],
      [
        "ris",
        -10.491595483652752
      ],
      [
        "▁commun",
        -11.030934135768177
      ],
      [
        "▁correct",
        -8.848082190692676
      ],
      [
        "▁cross-",
        -10.823791946579682
      ],
      [
        "▁favor",
        -10.218145956383687
      ],
      [
        "▁mal",
        -10.19982927564501
      ],
      [
        "▁in",
        -5.625432472469342
      ],
      [
        "▁skirt",
        -10.550582358574758
      ],
      [
        "▁192",
        -11.940572024467409
      ],
      [
        "▁taco",
        -9.02897010181363
      ],
      [
        "96/",
        -13.587633075698617
      ],
      [
        "▁arriv",
        -7.780266606038238
      ],
      [
        "▁orientation",
        -10.97487353961395
      ],
      [
        "720",
        -13.183827365458086
      ],
      [
        "▁approximate",
        -9.988716370749165
      ],
      [
        "ori",
        -10.740347578746341
      ],
      [
        "ivo",
        -10.916121020340515
      ],
      [
        "▁unl",
        -9.680113489348734
      ],
      [
        "aden",
        -11.835808419303513
      ],
      [
        "▁exten",
        -9.764618087497988
      ],
      [
        "270",
        -11.860042949136492
      ],
      [
        "95",
        -11.454904720194877
      ],
      [
        "co",
        -8.598166052977433
      ],
      [
        "▁tiger",
        -9.245198975223296
      ],
      [
        "▁vi",
        -11.090089463635374
      ],
      [
        "▁weekend",
        -9.043186274808786
      ],
      [
        "▁wink",
        -10.311075316492127
      ],
      [
        "▁admir",
        -10.254499118101068
      ],
      [
        ",10",
        -14.134301008475441
      ],
      [
        "▁franco",
        -11.101711939672366
      ],
      [
        "▁boost",
        -10.555594823568532
      ],
      [
        "▁+4",
        -13.201922390698037
      ],
      [
        "▁learn",
        -7.88042129122728
      ],
      [
        "<",
        -7.273053706688606
      ],
      [
        "▁09",
        -12.32159795519803
      ],
      [
        "clusive",
        -11.119254990182814
      ],
      [
        "▁robot",
        -9.711791175242558
      ],
      [
        "▁expose",
        -10.904598698611846
      ],
      [
        "▁baba",
        -10.894556038690567
      ],
      [
        "▁carolin",
        -9.922967456489788
      ],
      [
        "530",
        -12.305600989107392
      ],
      [
        "witz",
        -10.562971888693689
      ],
      [
        ".com",
        -8.322054983344787
      ],
      [
        "▁cher",
        -10.310361936095525
      ],
      [
        "oto",
        -10.913814579791683
      ],
      [
        "▁sixt",
        -9.245239739577888
      ],
      [
        "▁drunk",
        -10.782230973077153
      ],
      [
        "▁cycle",
        -9.747507064698562
      ],
      [
        "▁‘",
        -9.464789161370842
      ],
      [
        "uf",
        -11.175036411485149
      ],
      [
        "eau",
        -10.253468116882853
      ],
      [
        "317",
        -12.522027844751662
      ],
      [
        "▁inde",
        -9.667730167186834
      ],
      [
        "▁mor",
        -9.778046396027692
      ],
      [
        "▁becom",
        -10.499615983742935
      ],
      [
        "▁element",
        -8.998054476934989
      ],
      [
        "▁wav",
        -10.50523074739857
      ],
      [
        "1/13/200",
        -13.410633610127512
      ],
      [
        "▁bert",
        -10.928570099223112
      ],
      [
        "▁inflation",
        -10.698896780851863
      ],
      [
        "▁6",
        -8.907968840771385
      ],
      [
        "▁sufficient",
        -9.98615615527456
      ],
      [
        "oz",
        -13.096519113337362
      ],
      [
        "▁|",
        -9.754805093749667
      ],
      [
        "▁turned",
        -8.648522304257177
      ],
      [
        "▁shah",
        -10.920497979420233
      ],
      [
        "▁nonstop",
        -8.265548227104436
      ],
      [
        "b",
        -7.499961753875149
      ],
      [
        "▁y",
        -12.731331290976449
      ],
      [
        "▁broom",
        -10.423432896332802
      ],
      [
        "▁155",
        -13.151098116993188
      ],
      [
        "ins",
        -12.689876329818206
      ],
      [
        "▁person",
        -7.789927045074678
      ],
      [
        "▁temple",
        -10.308089099180016
      ],
      [
        "hai",
        -12.449413438634446
      ],
      [
        "▁punctu",
        -11.084250331073529
      ],
      [
        "991",
        -12.803767022995842
      ],
      [
        "▁even",
        -6.782816792514361
      ],
      [
        "▁grip",
        -10.949213861747415
      ],
      [
        ":14",
        -12.45722038868527
      ],
      [
        "▁tel",
        -10.530182352291902
      ],
      [
        "lace",
        -11.855295916706593
      ],
      [
        "ountain",
        -10.972564648702694
      ],
      [
        "▁safe",
        -8.315998056707837
      ],
      [
        "▁teen",
        -10.623483841898741
      ],
      [
        "▁orange",
        -8.969270651009642
      ],
      [
        "▁distract",
        -10.806672564793171
      ],
      [
        "▁heaven",
        -10.362557677018103
      ],
      [
        "▁mrs",
        -9.3615233859849
      ],
      [
        "▁strain",
        -9.986977529289321
      ],
      [
        "▁exceptional",
        -10.732586149771393
      ],
      [
        "▁attachment",
        -10.42366629778322
      ],
      [
        "▁prosecutor",
        -11.08425020904966
      ],
      [
        "▁60,00",
        -13.953467716680116
      ],
      [
        "1/8",
        -12.30354400335542
      ],
      [
        "▁ag",
        -10.388638485166753
      ],
      [
        "0",
        -10.782683652942984
      ],
      [
        "▁radi",
        -9.89921035706232
      ],
      [
        "usi",
        -10.751881598698503
      ],
      [
        "831",
        -13.883646719328421
      ],
      [
        "▁download",
        -10.42199723261336
      ],
      [
        "▁jess",
        -10.786509836177169
      ],
      [
        "▁shoulder",
        -9.655325938927177
      ],
      [
        "▁room",
        -7.3800578799824645
      ],
      [
        "▁alleged",
        -10.156753319927555
      ],
      [
        "▁secure",
        -10.218344977783595
      ],
      [
        "▁abuse",
        -10.363283460497282
      ],
      [
        "il",
        -8.404542542897484
      ],
      [
        "▁more",
        -6.036639033968968
      ],
      [
        "▁bowl",
        -8.915394627159664
      ],
      [
        "0.00",
        -12.093399042272234
      ],
      [
        "▁pet",
        -9.005199560456031
      ],
      [
        "▁d",
        -9.553231019557947
      ],
      [
        "▁player",
        -9.370077421276076
      ],
      [
        "▁honor",
        -9.840467773912945
      ],
      [
        "▁relationship",
        -9.283337721318198
      ],
      [
        "▁271",
        -13.991854088309571
      ],
      [
        "▁scenario",
        -10.362554829206719
      ],
      [
        "▁cand",
        -10.55232531109695
      ],
      [
        "▁lives",
        -8.987456441984108
      ],
      [
        "technology",
        -9.245195476529135
      ],
      [
        ".6",
        -12.64527802129072
      ],
      [
        "▁sense",
        -8.698475774852616
      ],
      [
        "fi",
        -9.71222687409375
      ],
      [
        "▁council",
        -8.969267946425328
      ],
      [
        "▁1-800-",
        -12.663110100375741
      ],
      [
        "oul",
        -11.013200914464909
      ],
      [
        "▁bil",
        -11.005537854427239
      ],
      [
        "orti",
        -11.126882874253962
      ],
      [
        "▁eight",
        -9.059025391871746
      ],
      [
        "mor",
        -13.22662618153365
      ],
      [
        "▁timing",
        -10.873267822616477
      ],
      [
        "▁fore",
        -9.677585858184015
      ],
      [
        ".........",
        -12.588671540398497
      ],
      [
        "▁/",
        -8.874696097338475
      ],
      [
        "▁media",
        -8.900765811820936
      ],
      [
        "▁138",
        -12.923627014658868
      ],
      [
        "if",
        -9.854273665376308
      ],
      [
        "▁board",
        -8.796111760294771
      ],
      [
        "▁hundred",
        -9.48139668862184
      ],
      [
        "▁equivalent",
        -10.787338395453988
      ],
      [
        "???",
        -11.362839390116868
      ],
      [
        "▁million",
        -9.714007873929823
      ],
      [
        "nondelibreate",
        -12.83378457584191
      ],
      [
        "▁this",
        -10.553284573521324
      ],
      [
        "▁crossing",
        -10.266192068243237
      ],
      [
        "▁lake",
        -8.371272675956211
      ],
      [
        "▁excited",
        -9.758622470540478
      ],
      [
        "▁odd",
        -9.775211919052893
      ],
      [
        "▁detr",
        -9.091675216079931
      ],
      [
        "▁fear",
        -9.12317845442543
      ],
      [
        "▁teach",
        -10.177180199698679
      ],
      [
        "▁impartial",
        -10.782263638098122
      ],
      [
        "▁participant",
        -9.68389736136428
      ],
      [
        "▁screen",
        -9.385420392795186
      ],
      [
        "came",
        -8.775453636545953
      ],
      [
        "▁roast",
        -10.97317924388968
      ],
      [
        "▁recent",
        -8.211008927317451
      ],
      [
        "▁education",
        -8.676287189590543
      ],
      [
        "25/01",
        -14.134086391909378
      ],
      [
        "▁moslem",
        -10.69889757726148
      ],
      [
        "▁lecture",
        -11.084250793162967
      ],
      [
        "/25/200",
        -12.112325426631575
      ],
      [
        "15/200",
        -14.513831683276631
      ],
      [
        "▁ros",
        -10.315188558753325
      ],
      [
        "03/",
        -13.793640388604162
      ],
      [
        "▁fellow",
        -9.385780841845765
      ],
      [
        "▁baby",
        -7.45338679853995
      ],
      [
        "▁representative",
        -9.364530787346673
      ],
      [
        "'",
        -5.811804410257997
      ],
      [
        "where",
        -11.75353131760598
      ],
      [
        "md",
        -11.141550706240368
      ],
      [
        "▁hack",
        -10.623199884324796
      ],
      [
        "ied",
        -10.031937227247091
      ],
      [
        "▁summar",
        -10.167849183697484
      ],
      [
        "▁racket",
        -10.622152089241034
      ],
      [
        "▁confidence",
        -10.254367695694974
      ],
      [
        "▁squash",
        -10.873140376564779
      ],
      [
        "bell",
        -10.411182326663337
      ],
      [
        "▁relative",
        -9.3230722447374
      ],
      [
        "▁belief",
        -9.475365837398577
      ],
      [
        "▁play",
        -6.6231897240285145
      ],
      [
        "▁sport",
        -9.386736886292443
      ],
      [
        "▁reduce",
        -9.701495233217969
      ],
      [
        "▁after",
        -9.748141363374536
      ],
      [
        "▁import",
        -9.88753724402639
      ],
      [
        "▁1/",
        -13.887911633017264
      ],
      [
        "ium",
        -10.288458490563283
      ],
      [
        "▁sad",
        -9.191961505716062
      ],
      [
        "▁rest",
        -8.3962735459037
      ],
      [
        "▁health",
        -8.212131579872535
      ],
      [
        "▁cloth",
        -9.451844180782675
      ],
      [
        "▁limousine",
        -10.42137835894662
      ],
      [
        "▁satellite",
        -10.550545144310844
      ],
      [
        "▁basket",
        -9.947689586132517
      ],
      [
        "________________",
        -9.675548522665636
      ],
      [
        "▁gather",
        -9.807318566942248
      ],
      [
        "os",
        -14.26619170470223
      ],
      [
        "▁message",
        -8.65617995854252
      ],
      [
        "▁10,",
        -14.137997860855918
      ],
      [
        "œ",
        -12.833785825435129
      ],
      [
        "▁deal",
        -8.104452548948185
      ],
      [
        "▁+1",
        -12.262684937133976
      ],
      [
        "▁technique",
        -9.743612156323895
      ],
      [
        "▁chor",
        -10.878942323700588
      ],
      [
        "▁heal",
        -10.557732414120334
      ],
      [
        "▁181",
        -12.672201436613298
      ],
      [
        "▁worry",
        -9.775230001408566
      ],
      [
        "▁dem",
        -9.69989078906838
      ],
      [
        "/26/200",
        -11.340770759941886
      ],
      [
        "▁barrel",
        -10.307236268637428
      ],
      [
        "▁address",
        -8.57038704206899
      ],
      [
        "▁hug",
        -8.55825019292379
      ],
      [
        "▁196",
        -10.37065919256603
      ],
      [
        "6-",
        -13.67457463137944
      ],
      [
        "▁pom",
        -10.758217265956368
      ],
      [
        "▁andaman",
        -10.026150148558429
      ],
      [
        "enti",
        -12.154891043607538
      ],
      [
        "▁distribut",
        -9.826778119136614
      ],
      [
        "▁connected",
        -10.254950085545678
      ],
      [
        "ect",
        -9.905673899473904
      ],
      [
        "of",
        -10.387444100209503
      ],
      [
        "▁derive",
        -10.97357463945604
      ],
      [
        "▁find",
        -6.839903537726631
      ],
      [
        "▁fame",
        -10.364349642941828
      ],
      [
        "▁avail",
        -9.253036216915286
      ],
      [
        "ob",
        -11.496845026184019
      ],
      [
        "▁tha",
        -4.70443976194243
      ],
      [
        "▁vast",
        -9.744470614321973
      ],
      [
        "▁shiite",
        -10.156876261658965
      ],
      [
        "▁solv",
        -10.885667189453141
      ],
      [
        "sc",
        -12.953296218781974
      ],
      [
        "▁sho",
        -10.926270522688158
      ],
      [
        "760",
        -13.822357955819468
      ],
      [
        "iv",
        -11.534717983037273
      ],
      [
        "▁discriminat",
        -10.873595797475925
      ],
      [
        "▁hussein",
        -10.782230467622774
      ],
      [
        "▁condition",
        -8.753249109736508
      ],
      [
        "▁follow",
        -8.161544618847138
      ],
      [
        "▁louis",
        -8.76461621472598
      ],
      [
        "▁surface",
        -9.343312016479421
      ],
      [
        "gar",
        -10.117817981444786
      ],
      [
        "▁malfo",
        -10.545441264749448
      ],
      [
        "▁adjust",
        -9.947002420506642
      ],
      [
        "▁witch",
        -9.911587183688408
      ],
      [
        "war",
        -12.294744634745067
      ],
      [
        "▁shopp",
        -9.559939624826331
      ],
      [
        "▁04:0",
        -12.773739120218522
      ],
      [
        "/26/",
        -14.189086006831158
      ],
      [
        "▁members",
        -8.754821145162007
      ],
      [
        "▁qa",
        -8.806594226707492
      ],
      [
        "▁fight",
        -8.47028326476148
      ],
      [
        "▁sch",
        -10.146093743714044
      ],
      [
        "▁unexpected",
        -10.483878358994067
      ],
      [
        "▁await",
        -10.78225767087819
      ],
      [
        "9.3",
        -14.113070844606726
      ],
      [
        "▁problem",
        -7.617252621318437
      ],
      [
        "▁tip",
        -9.590451127015182
      ],
      [
        "▁cocktail",
        -10.2043677066754
      ],
      [
        "▁deadline",
        -11.085482313062178
      ],
      [
        "6-9",
        -12.68435122065994
      ],
      [
        "▁harmonis",
        -10.376695013296981
      ],
      [
        "▁mau",
        -10.752713958860419
      ],
      [
        "▁wol",
        -9.949220266966655
      ],
      [
        "ø",
        -12.833785825435129
      ],
      [
        "▁snake",
        -9.38542073547698
      ],
      [
        "▁69",
        -13.421823213516543
      ],
      [
        "▁system",
        -7.934558105987523
      ],
      [
        "▁33",
        -11.540855205242465
      ],
      [
        "▁tippy",
        -10.873264095122337
      ],
      [
        "▁tw",
        -9.782578314154152
      ],
      [
        "▁x",
        -10.277760178101254
      ],
      [
        "n",
        -9.616052484599335
      ],
      [
        "▁pric",
        -10.191303320883982
      ],
      [
        "▁survey",
        -10.369168625885816
      ],
      [
        "▁sussex",
        -10.973217328020851
      ],
      [
        "wa",
        -14.382662615359283
      ],
      [
        "▁202.4",
        -14.138177894591795
      ],
      [
        "▁fuel",
        -9.911371422154803
      ],
      [
        "man@e",
        -12.817118239485756
      ],
      [
        "▁funnel",
        -10.78527659658753
      ],
      [
        "▁ow",
        -9.81590645955922
      ],
      [
        "▁hell",
        -8.577527358787936
      ],
      [
        "ter",
        -10.432873965842234
      ],
      [
        "ie",
        -10.95734811548726
      ],
      [
        "▁16.3",
        -12.638100918095688
      ],
      [
        "▁gun",
        -9.2190870035348
      ],
      [
        "▁polar",
        -10.69923363789085
      ],
      [
        "▁pakistan",
        -9.224720600257486
      ],
      [
        "07",
        -11.866903340196739
      ],
      [
        "▁182",
        -11.921712514434294
      ],
      [
        "883",
        -14.154380312032659
      ],
      [
        "▁infinit",
        -10.698897661972119
      ],
      [
        "n'",
        -9.381928970317361
      ],
      [
        "1.8",
        -12.279299099288764
      ],
      [
        "▁bagg",
        -10.985486298958568
      ],
      [
        "▁rubb",
        -10.556193243532423
      ],
      [
        "▁careful",
        -9.209808356231283
      ],
      [
        "41",
        -12.725585459944702
      ],
      [
        "▁govern",
        -10.256767498350003
      ],
      [
        "r",
        -4.496868874099675
      ],
      [
        "▁nail",
        -9.455161150031387
      ],
      [
        "▁float",
        -9.877077042697405
      ],
      [
        "▁d'",
        -11.991204330988092
      ],
      [
        "▁peter",
        -8.435930581279571
      ],
      [
        "▁house",
        -7.187298756520364
      ],
      [
        "▁examin",
        -10.40894579969902
      ],
      [
        "ch",
        -12.085012431138926
      ],
      [
        "▁grammar",
        -9.840460227214418
      ],
      [
        "▁russia",
        -9.359103812867705
      ],
      [
        "▁physical",
        -9.627548393460176
      ],
      [
        "▁mcg",
        -11.039267585948807
      ],
      [
        "colin",
        -11.187993983627077
      ],
      [
        "▁owners",
        -10.375647256691646
      ],
      [
        "▁engine",
        -9.739069501954194
      ],
      [
        "dw",
        -12.848581974628713
      ],
      [
        "▁strike",
        -9.840472291679719
      ],
      [
        "▁foreigner",
        -10.444335220204398
      ],
      [
        "nife",
        -9.990148098623385
      ],
      [
        "3:5",
        -14.20824709956423
      ],
      [
        "▁answer",
        -8.28682518310099
      ],
      [
        "26/0",
        -14.093152072854174
      ],
      [
        "▁geometr",
        -10.621973603536597
      ],
      [
        "▁ba",
        -11.474094207813556
      ],
      [
        "646-",
        -10.793300965609516
      ],
      [
        "▁progress",
        -9.406538376805553
      ],
      [
        "▁christian",
        -9.548968311450828
      ],
      [
        "▁–",
        -8.83025937391971
      ],
      [
        "▁ram",
        -9.93450016978628
      ],
      [
        "▁mouse",
        -9.655521115019415
      ],
      [
        "47",
        -11.086617663416188
      ],
      [
        "▁83",
        -15.322788547072957
      ],
      [
        "▁cracker",
        -10.163463600744313
      ],
      [
        "03",
        -11.086069468468352
      ],
      [
        "▁frontier",
        -10.783475190147874
      ],
      [
        "▁accommodate",
        -11.123945676984308
      ],
      [
        "▁london",
        -8.731668120950399
      ],
      [
        "▁order",
        -7.689555316556323
      ],
      [
        "▁passion",
        -10.31468458078601
      ],
      [
        "▁da",
        -8.952820310393305
      ],
      [
        "▁conform",
        -10.62223196113791
      ],
      [
        "den",
        -9.087725871295806
      ],
      [
        "▁fluid",
        -10.622243741345308
      ],
      [
        "▁=",
        -10.869655881095504
      ],
      [
        "▁duckie",
        -10.81920791047557
      ],
      [
        "▁breath",
        -9.468799828326695
      ],
      [
        "▁filth",
        -11.085999536042905
      ],
      [
        "▁attention",
        -8.604839086216852
      ],
      [
        "▁immense",
        -10.975990935391113
      ],
      [
        "▁gaze",
        -10.977126213777451
      ],
      [
        "3.1",
        -12.945575938572821
      ],
      [
        "▁nan",
        -12.25253368878968
      ],
      [
        "▁rome",
        -9.847033492724538
      ],
      [
        "▁context",
        -9.499181823347236
      ],
      [
        "▁plug",
        -10.734393576495323
      ],
      [
        "un",
        -9.193911747915315
      ],
      [
        "place",
        -9.970270574572172
      ],
      [
        "meter",
        -10.504192174387097
      ],
      [
        "▁compound",
        -10.550579954677715
      ],
      [
        "▁card",
        -8.584562181125989
      ],
      [
        ":5",
        -14.280357869335672
      ],
      [
        "▁albania",
        -10.362642799032344
      ],
      [
        "▁significan",
        -10.86806411131368
      ],
      [
        "re",
        -7.41821081394474
      ],
      [
        "▁quote",
        -9.39944893569014
      ],
      [
        "▁prepare",
        -9.939418236022362
      ],
      [
        "▁consider",
        -8.115239313969617
      ],
      [
        "▁argu",
        -10.567350716739064
      ],
      [
        "cal",
        -9.517099063106011
      ],
      [
        "▁łodz",
        -12.833783221425183
      ],
      [
        "▁accurac",
        -11.209250214708716
      ],
      [
        "ganda",
        -10.871272004792155
      ],
      [
        "fi",
        -11.328054049889788
      ],
      [
        "▁pronounce",
        -10.699390621285309
      ],
      [
        "7/9",
        -12.765859434088394
      ],
      [
        "us",
        -7.936784403825471
      ],
      [
        "pass",
        -10.768434800115557
      ],
      [
        "leopold",
        -11.209250211215084
      ],
      [
        "▁bag",
        -8.436553402376084
      ],
      [
        "sible",
        -9.173462979821124
      ],
      [
        "!!!!!!!!!!!!!!",
        -12.295588014338717
      ],
      [
        "!!!!",
        -9.691707156797474
      ],
      [
        "media",
        -10.396040399386203
      ],
      [
        "▁ap",
        -9.409162409789095
      ],
      [
        "ught",
        -8.638387818111717
      ],
      [
        "▁07/1",
        -11.467963282922423
      ],
      [
        "▁sample",
        -9.523654875330958
      ],
      [
        "/31/200",
        -14.53124509196579
      ],
      [
        "▁happ",
        -8.153841663651347
      ],
      [
        "▁future",
        -8.301271372954384
      ],
      [
        "▁'",
        -9.940251085542698
      ],
      [
        "▁airline",
        -6.977882350243302
      ],
      [
        "▁afterward",
        -10.111357485578354
      ],
      [
        "▁white",
        -7.924957886826736
      ],
      [
        "fire",
        -11.062236503976782
      ],
      [
        "▁michel",
        -9.986261830264223
      ],
      [
        "▁apply",
        -9.030911858741433
      ],
      [
        "sion",
        -10.424354767085728
      ],
      [
        "▁pre",
        -8.89534139102248
      ],
      [
        "▁seal",
        -10.198472083714798
      ],
      [
        "light",
        -9.497353822158251
      ],
      [
        "/9",
        -15.44729760529276
      ],
      [
        "set",
        -10.19819172543238
      ],
      [
        "hua",
        -10.519227549924604
      ],
      [
        "▁pro",
        -12.087576576142846
      ],
      [
        "837",
        -14.14819031276042
      ],
      [
        "mon",
        -9.708812970665495
      ],
      [
        "▁syd",
        -11.002519776959867
      ],
      [
        "▁sh",
        -8.650262038363719
      ],
      [
        "▁butterfl",
        -10.700816987314223
      ],
      [
        "9025",
        -13.941520505513102
      ],
      [
        "buck",
        -11.059213604200227
      ],
      [
        "▁encourage",
        -9.60052112823979
      ],
      [
        "▁dud",
        -9.932512515900438
      ],
      [
        "▁take",
        -6.268031808232548
      ],
      [
        "▁tea",
        -8.885492223483286
      ],
      [
        "33",
        -11.518810232972715
      ],
      [
        "▁416",
        -14.782803597790647
      ],
      [
        "▁class",
        -7.3837290081576015
      ],
      [
        "science",
        -10.556809667448846
      ],
      [
        "▁10:5",
        -11.91217653689127
      ],
      [
        "▁…",
        -9.423272303804795
      ],
      [
        "▁grain",
        -10.4848623637211
      ],
      [
        "▁employ",
        -9.156157894048636
      ],
      [
        "uri",
        -11.894408370198882
      ],
      [
        "▁press",
        -8.804496807644863
      ],
      [
        "▁94720-",
        -13.136776257797242
      ],
      [
        "abo",
        -13.2260141682147
      ],
      [
        "▁karl",
        -11.138561168755803
      ],
      [
        "▁approve",
        -9.570717233175927
      ],
      [
        "▁102",
        -12.015717884418416
      ],
      [
        "▁innovative",
        -10.873405067601121
      ],
      [
        "oper",
        -10.51871930258092
      ],
      [
        "▁0",
        -12.590165494098184
      ],
      [
        "920",
        -12.849170236525222
      ],
      [
        "ung",
        -9.465420556680959
      ],
      [
        "54",
        -12.93635787977736
      ],
      [
        "wa",
        -12.083792402984447
      ],
      [
        "raz",
        -12.216306027598762
      ],
      [
        "doc",
        -9.634255655510263
      ],
      [
        "▁hu",
        -7.962625385083752
      ],
      [
        "09/",
        -13.576926037779199
      ],
      [
        "=",
        -9.479384224177249
      ],
      [
        "▁dutch",
        -11.086037303387592
      ],
      [
        "▁bla",
        -11.153801094753153
      ],
      [
        "▁jump",
        -8.697701325878736
      ],
      [
        "▁rang",
        -10.027473499589643
      ],
      [
        "▁maca",
        -10.217989222855016
      ],
      [
        "rinn",
        -11.088642044172623
      ],
      [
        "▁sequence",
        -10.78223306919667
      ],
      [
        "▁backward",
        -10.701961728181358
      ],
      [
        "▁star",
        -8.317383557827743
      ],
      [
        "▁juic",
        -8.92950417007518
      ],
      [
        "▁article",
        -8.83707676878501
      ],
      [
        "▁lunch",
        -8.566171830671895
      ],
      [
        "▁outline",
        -11.094219830048704
      ],
      [
        "▁opt",
        -10.886424240305194
      ],
      [
        "▁o'c",
        -8.376772786656169
      ],
      [
        "tha",
        -7.447652869023347
      ],
      [
        "▁adviser",
        -10.9832161353241
      ],
      [
        "▁modest",
        -11.094211895295786
      ],
      [
        "▁cancer",
        -10.873230252226753
      ],
      [
        "▁worth",
        -8.112003809419583
      ],
      [
        "ing",
        -9.928808428270834
      ],
      [
        "393",
        -11.979993705934662
      ],
      [
        "sis",
        -12.693411606486883
      ],
      [
        "8/10/200",
        -13.466113830950322
      ],
      [
        "▁patien",
        -10.545305427358098
      ],
      [
        "▁04:3",
        -12.399758770173818
      ],
      [
        "▁town",
        -8.240935918116394
      ],
      [
        "▁better",
        -7.529875546611563
      ],
      [
        "64-7",
        -13.572722259480486
      ],
      [
        "▁bronz",
        -10.873139455963921
      ],
      [
        "▁hig",
        -10.422960124931194
      ],
      [
        "ukraine",
        -9.523565031294602
      ],
      [
        "▁real",
        -6.447431398550839
      ],
      [
        "▁camera",
        -9.50068615968036
      ],
      [
        "▁201",
        -8.155491222956778
      ],
      [
        "▁tsar",
        -10.973347328799575
      ],
      [
        "▁pho",
        -10.845826107710002
      ],
      [
        "▁bless",
        -10.565649587140063
      ],
      [
        "▁turtle",
        -10.483883256237753
      ],
      [
        "▁travel",
        -8.214959285963763
      ],
      [
        "ifie",
        -10.122084064464827
      ],
      [
        "▁corrupt",
        -10.621973656080424
      ],
      [
        "▁raid",
        -11.086113231501947
      ],
      [
        "93",
        -11.856309454895467
      ],
      [
        "999",
        -12.57747659635982
      ],
      [
        "▁traveler",
        -10.301337493693392
      ],
      [
        "▁circum",
        -9.841160603545681
      ],
      [
        "-2",
        -11.920185692866024
      ],
      [
        "▁nazi",
        -11.08462085375221
      ],
      [
        "▁05:",
        -13.864709534199491
      ],
      [
        "▁shade",
        -10.309871582071008
      ],
      [
        "▁consol",
        -11.088312524713245
      ],
      [
        "空",
        -12.833785825435129
      ],
      [
        "2-66",
        -13.140576993165098
      ],
      [
        "12",
        -10.115966630470972
      ],
      [
        "▁executive",
        -9.574310482411583
      ],
      [
        "▁luxur",
        -10.973139510593205
      ],
      [
        "ritten",
        -8.955216860392161
      ],
      [
        "▁jason",
        -10.06796867416301
      ],
      [
        "▁subject",
        -8.58531618994361
      ],
      [
        "▁complex",
        -9.523564447795286
      ],
      [
        "ed",
        -9.811572089528623
      ],
      [
        "▁zo",
        -10.998873661242811
      ],
      [
        "minate",
        -10.993126635007146
      ],
      [
        "▁bright",
        -9.26642981440937
      ],
      [
        "▁tunnel",
        -10.55054533816844
      ],
      [
        "▁whipp",
        -11.088592871576495
      ],
      [
        "▁help",
        -6.918072615016294
      ],
      [
        "▁food",
        -7.176777099072254
      ],
      [
        "▁object",
        -9.041198399435679
      ],
      [
        "425",
        -14.180756138798781
      ],
      [
        "▁los",
        -7.763301937634288
      ],
      [
        "▁121",
        -14.581591867325713
      ],
      [
        "▁dragg",
        -10.484540829240407
      ],
      [
        "▁650",
        -13.191743379778188
      ],
      [
        "min",
        -9.957249813968367
      ],
      [
        "▁prayer",
        -10.627417579358552
      ],
      [
        "▁disrupt",
        -10.421378540388849
      ],
      [
        "▁7.2",
        -11.34898867292298
      ],
      [
        "****************",
        -9.647989595493517
      ],
      [
        "▁anyway",
        -8.776648282742809
      ],
      [
        "96",
        -11.613919797726453
      ],
      [
        "▁fix",
        -8.828776728669421
      ],
      [
        "▁mystery",
        -10.483879285138752
      ],
      [
        "▁president",
        -7.71426759051692
      ],
      [
        "▁baker",
        -10.912674112482717
      ],
      [
        "▁ben",
        -8.996996115228672
      ],
      [
        "hol",
        -9.001898470515815
      ],
      [
        "▁legislati",
        -9.39223777323842
      ],
      [
        "▁prospect",
        -10.48387896697021
      ],
      [
        ":46",
        -13.579038763616383
      ],
      [
        "/16/200",
        -11.522972034904175
      ],
      [
        "▁basic",
        -8.865345052444496
      ],
      [
        "aid",
        -8.980888963073902
      ],
      [
        "▁imagination",
        -10.551068692518175
      ],
      [
        "▁data",
        -7.727877367826411
      ],
      [
        "}",
        -11.333785825435129
      ],
      [
        "▁po",
        -9.736513970615437
      ],
      [
        "▁justice",
        -9.690381009134365
      ],
      [
        "▁nanda",
        -11.373803937697424
      ],
      [
        "▁melt",
        -10.383589936719918
      ],
      [
        "1",
        -8.721474785169907
      ],
      [
        "▁weight",
        -9.578458903833841
      ],
      [
        "6/200",
        -15.097693619441635
      ],
      [
        "▁snack",
        -10.483896756056883
      ],
      [
        "▁band",
        -8.883103168476957
      ],
      [
        "▁ja",
        -9.854479678191636
      ],
      [
        "1.5",
        -12.30403993063978
      ],
      [
        "/03/200",
        -12.14697268704212
      ],
      [
        "▁pudd",
        -10.993211504636179
      ],
      [
        "▁deliberate",
        -10.483878387701438
      ],
      [
        "1960",
        -11.315720686444235
      ],
      [
        "and",
        -10.665447951536812
      ],
      [
        "ip",
        -9.932655409933886
      ],
      [
        "~",
        -9.582223498820056
      ],
      [
        "you",
        -7.216410184862478
      ],
      [
        "▁evans",
        -10.97808831655384
      ],
      [
        "plastic",
        -9.887731683576222
      ],
      [
        "▁discourag",
        -10.973518002183923
      ],
      [
        "▁distribute",
        -10.17582058411438
      ],
      [
        "▁pencil",
        -8.955186415849358
      ],
      [
        "▁04:5",
        -13.362917933474565
      ],
      [
        "▁restaurant",
        -8.424974601917057
      ],
      [
        "142",
        -13.600140993251275
      ],
      [
        "▁neighbor",
        -10.11123368444347
      ],
      [
        "▁audience",
        -9.548564336239389
      ],
      [
        "▁description",
        -9.910656727339655
      ],
      [
        "▁intellectual",
        -10.25436796455335
      ],
      [
        "山",
        -12.833785825435129
      ],
      [
        "ه",
        -14.203297884361366
      ],
      [
        "▁tasting",
        -10.807199133888707
      ],
      [
        "▁carol",
        -9.362572025720514
      ],
      [
        "ble",
        -13.325705585333473
      ],
      [
        "ulation",
        -11.002238990791497
      ],
      [
        "#",
        -11.058960742878682
      ],
      [
        "▁flie",
        -9.807853956987563
      ],
      [
        "▁chest",
        -10.210835437385603
      ],
      [
        "▁shackle",
        -10.873139206618037
      ],
      [
        "▁3/9/",
        -13.14152125688839
      ],
      [
        "▁invitation",
        -10.363814143225648
      ],
      [
        "***********",
        -13.316906961952219
      ],
      [
        "la",
        -8.939497410352898
      ],
      [
        "▁simple",
        -9.16226029597457
      ],
      [
        "ated",
        -9.376059212414237
      ],
      [
        "▁honest",
        -9.499185949862639
      ],
      [
        "▁rein",
        -10.380623108764258
      ],
      [
        "▁annoy",
        -10.362584225603936
      ],
      [
        "▁driver",
        -9.572565374928324
      ],
      [
        "information",
        -7.360091903266648
      ],
      [
        "▁tourist",
        -9.267349256962817
      ],
      [
        "305",
        -14.449579635922536
      ],
      [
        "bu",
        -8.933136665927833
      ],
      [
        "187",
        -12.753397997597109
      ],
      [
        "▁rifle",
        -10.973145156223907
      ],
      [
        "▁luc",
        -10.447948098513276
      ],
      [
        "hi",
        -9.42458128149114
      ],
      [
        "pike",
        -10.88679229561571
      ],
      [
        "!!!!!!!!!!!",
        -12.790094382530567
      ],
      [
        "va",
        -9.82661049775386
      ],
      [
        "▁xml",
        -8.849131228084183
      ],
      [
        "marie",
        -10.454421070252378
      ],
      [
        "▁yellow",
        -8.614741321517261
      ],
      [
        "0",
        -9.597530363980798
      ],
      [
        "▁mut",
        -11.044780148767371
      ],
      [
        "▁where",
        -8.802452388749018
      ],
      [
        "▁slice",
        -10.11130148491057
      ],
      [
        "www",
        -7.6099547592086685
      ],
      [
        "31",
        -11.692241147114805
      ],
      [
        "▁dramatic",
        -10.36285685661835
      ],
      [
        "13",
        -10.571710913851275
      ],
      [
        "roni",
        -10.076164355454045
      ],
      [
        "▁be",
        -6.99458582791663
      ],
      [
        "▁tube",
        -10.637353572919544
      ],
      [
        "for",
        -13.304615301027066
      ],
      [
        "hu",
        -10.177736831634473
      ],
      [
        "▁rating",
        -10.798922707093958
      ],
      [
        "▁investigation",
        -10.484413067809
      ],
      [
        "▁mosco",
        -11.084484593408018
      ],
      [
        "▁gu",
        -11.83470245911374
      ],
      [
        "ical",
        -8.670614710682718
      ],
      [
        "▁allocat",
        -10.235516861576203
      ],
      [
        "6-84",
        -14.806907614809186
      ],
      [
        ">",
        -8.485528575884176
      ],
      [
        "▁bath",
        -9.327314677299698
      ],
      [
        "-04",
        -14.123579800210045
      ],
      [
        "▁love",
        -7.309301433863601
      ],
      [
        "qui",
        -10.31687270070033
      ],
      [
        "▁shel",
        -9.875802785374397
      ],
      [
        "▁sp",
        -9.448108329777904
      ],
      [
        "1/200",
        -13.24735849196466
      ],
      [
        "▁feed",
        -8.833696497134564
      ],
      [
        "ins",
        -12.84528629625656
      ],
      [
        "▁sink",
        -9.602638274731227
      ],
      [
        "▁jane",
        -10.57102750948751
      ],
      [
        "ida",
        -10.062880400488224
      ],
      [
        "▁hunh",
        -10.782827101910152
      ],
      [
        "▁canadian",
        -9.574205372869981
      ],
      [
        "▁eas",
        -8.417393767588418
      ],
      [
        "▁spice",
        -11.107184777066141
      ],
      [
        "ow",
        -13.920453066150825
      ],
      [
        "▁broc",
        -10.981602705256968
      ],
      [
        "▁pla",
        -10.776013639092602
      ],
      [
        "▁superb",
        -11.111043902644049
      ],
      [
        "▁debut",
        -10.973148977735374
      ],
      [
        "erre",
        -11.834469720779595
      ],
      [
        "mar",
        -11.878759200109332
      ],
      [
        "2-3",
        -14.13762684307704
      ],
      [
        "▁indian",
        -8.915089792179348
      ],
      [
        "ß",
        -12.833785825435129
      ],
      [
        "▁solve",
        -10.476053078191834
      ],
      [
        "05",
        -10.938229125670123
      ],
      [
        "▁renew",
        -10.204370689335715
      ],
      [
        "▁203.",
        -13.141448739224417
      ],
      [
        "▁involvement",
        -10.4859251383747
      ],
      [
        "▁goose",
        -10.699703285467194
      ],
      [
        "▁all",
        -7.308132405240762
      ],
      [
        "▁deserve",
        -10.362569114872025
      ],
      [
        "▁hal",
        -10.332912452363267
      ],
      [
        "▁ld2d-#693",
        -10.78201469201394
      ],
      [
        "▁expectation",
        -9.914362365066339
      ],
      [
        "▁cruel",
        -10.306999290650564
      ],
      [
        "hi",
        -9.928677159225433
      ],
      [
        "▁anticipate",
        -11.137130087799024
      ],
      [
        "▁machine",
        -9.173094665394029
      ],
      [
        "▁cha",
        -11.250268752536988
      ],
      [
        "▁operative",
        -10.974529270296333
      ],
      [
        "▁trash",
        -9.948010524712183
      ],
      [
        "▁convenient",
        -10.362554829351422
      ],
      [
        "▁motion",
        -9.775332028648016
      ],
      [
        "▁slow",
        -8.625579336918518
      ],
      [
        "▁minister",
        -9.52359771966728
      ],
      [
        "za",
        -9.528997129283837
      ],
      [
        "cent",
        -10.40397727995201
      ],
      [
        "ugh",
        -10.799613475865524
      ],
      [
        "415",
        -15.196552822100085
      ],
      [
        "n-",
        -10.352872497043453
      ],
      [
        "▁miram",
        -10.4217188290074
      ],
      [
        "by",
        -9.258694004423091
      ],
      [
        "▁steak",
        -10.483882522389678
      ],
      [
        ":50",
        -14.10412921044257
      ],
      [
        "dominant",
        -11.02387044484599
      ],
      [
        "▁2.0",
        -11.449299207262335
      ],
      [
        "▁framework",
        -10.307084840116433
      ],
      [
        "ular",
        -10.562250258082946
      ],
      [
        "▁swallow",
        -10.621974229591077
      ],
      [
        "akan",
        -12.241331569319104
      ],
      [
        "▁focus",
        -8.730657250069413
      ],
      [
        "▁loom",
        -10.97617272575432
      ],
      [
        "▁re-",
        -10.048096196068752
      ],
      [
        "▁chip",
        -10.28197374326766
      ],
      [
        "▁blu",
        -10.726064686152132
      ],
      [
        "▁30,",
        -14.133461492039803
      ],
      [
        "▁holiday",
        -9.84045520745625
      ],
      [
        "▁turn",
        -7.4735667017925715
      ],
      [
        "---",
        -10.562408915400242
      ],
      [
        "▁photograph",
        -9.336721744667937
      ],
      [
        "▁indoor",
        -10.782235469962759
      ],
      [
        "▁male",
        -9.375924948884723
      ],
      [
        "▁cultural",
        -8.970567883913088
      ],
      [
        "ack",
        -9.76645184946713
      ],
      [
        "1-51",
        -14.136826951535191
      ],
      [
        ".0",
        -12.397871425506054
      ],
      [
        "▁francisco",
        -6.5247777840419205
      ],
      [
        "▁375",
        -13.567938652830122
      ],
      [
        "evel",
        -10.97180094236422
      ],
      [
        "▁specify",
        -10.622017947604288
      ],
      [
        "▁appeal",
        -9.840468049808036
      ],
      [
        "▁apo",
        -10.990728966092083
      ],
      [
        "▁single",
        -8.955590215494038
      ],
      [
        "▁protest",
        -10.067630981717372
      ],
      [
        "▁9",
        -10.07482853981363
      ],
      [
        "oral",
        -10.763098550143075
      ],
      [
        "▁tail",
        -9.208738562798509
      ],
      [
        "▁al",
        -9.59365962293792
      ],
      [
        "▁tall",
        -9.475657944293513
      ],
      [
        "rent",
        -10.515982332423805
      ],
      [
        "▁ill",
        -9.943678002587184
      ],
      [
        "▁lose",
        -9.560895771100656
      ],
      [
        "▁anti",
        -10.088555111136227
      ],
      [
        "▁commitment",
        -10.06831984992056
      ],
      [
        "▁plant",
        -8.564721984931827
      ],
      [
        "▁page",
        -8.002149902982854
      ],
      [
        "▁rock",
        -8.519707724901052
      ],
      [
        "▁stay",
        -7.647084889668953
      ],
      [
        "2.1",
        -13.66157177077054
      ],
      [
        "die",
        -10.223377604815687
      ],
      [
        "janu",
        -8.886379401140855
      ],
      [
        "▁emergenc",
        -9.840475346217156
      ],
      [
        "▁b",
        -7.155592931822903
      ],
      [
        "bye",
        -10.207259023339528
      ],
      [
        "▁interjection",
        -11.084250208948113
      ],
      [
        "▁greeting",
        -10.363356476549598
      ],
      [
        "▁satisfact",
        -10.555784743981635
      ],
      [
        "▁domain",
        -9.874948404542526
      ],
      [
        "▁trim",
        -11.100986070987782
      ],
      [
        "▁112",
        -13.204335028057539
      ],
      [
        "▁wee",
        -10.434030456801738
      ],
      [
        "▁distinction",
        -10.550552807064125
      ],
      [
        "▁terre",
        -10.747630374118458
      ],
      [
        "▁sub",
        -9.224662261207182
      ],
      [
        "▁predict",
        -9.875423179182691
      ],
      [
        "▁submitt",
        -10.560915627134758
      ],
      [
        "▁eng",
        -8.949208129558002
      ],
      [
        "o",
        -2.8218722090979362
      ],
      [
        "▁po",
        -11.008071481084977
      ],
      [
        "▁away",
        -7.493676026543827
      ],
      [
        "853-3",
        -14.140827607357917
      ],
      [
        "▁b",
        -10.16720176095756
      ],
      [
        "▁elbow",
        -10.782230378206922
      ],
      [
        "▁refer",
        -9.381174092002295
      ],
      [
        "▁discre",
        -11.209135483606705
      ],
      [
        "▁heart",
        -8.733621495611612
      ],
      [
        "▁woman",
        -8.502980456225128
      ],
      [
        "▁tray",
        -10.441970949039163
      ],
      [
        "▁pupp",
        -9.743793142133914
      ],
      [
        "▁ferr",
        -10.106624938140355
      ],
      [
        "08",
        -11.3293503899011
      ],
      [
        "▁mia",
        -11.835498122457036
      ],
      [
        "ell",
        -8.400179467499125
      ],
      [
        "ible",
        -9.758858697396299
      ],
      [
        "▁600",
        -11.992235792398532
      ],
      [
        "▁desperate",
        -10.205149944016684
      ],
      [
        "▁kick",
        -9.627784484248615
      ],
      [
        "▁premium",
        -11.084250776352164
      ],
      [
        "▁169",
        -11.526929689379742
      ],
      [
        "598",
        -13.839166517124482
      ],
      [
        "th",
        -7.1145587139161846
      ],
      [
        "eries",
        -9.215375674315126
      ],
      [
        "▁fir",
        -11.005064603428156
      ],
      [
        "▁census",
        -10.550609585763745
      ],
      [
        "mala",
        -11.120796003906795
      ],
      [
        "▁regard",
        -8.110749527844678
      ],
      [
        "▁costume",
        -10.783949542322876
      ],
      [
        "▁del",
        -11.060910416404479
      ],
      [
        "▁pian",
        -10.48852277553748
      ],
      [
        "▁belt",
        -10.114843530013616
      ],
      [
        "▁discount",
        -10.111361096708025
      ],
      [
        "▁participati",
        -10.818503586278975
      ],
      [
        "▁evolv",
        -9.874936370379228
      ],
      [
        "▁dim",
        -10.840637767454819
      ],
      [
        "▁bulb",
        -9.8749469175353
      ],
      [
        "▁>",
        -9.25200696802715
      ],
      [
        "▁admitted",
        -10.421553032521256
      ],
      [
        "▁hungr",
        -9.421505513942542
      ],
      [
        "▁cowboy",
        -9.743615033969302
      ],
      [
        "yours",
        -13.83576927956286
      ],
      [
        "▁truth",
        -9.429978628376253
      ],
      [
        "ee",
        -10.720525926017277
      ],
      [
        "▁09:5",
        -13.197391014154237
      ],
      [
        "tagon",
        -10.816536665264755
      ],
      [
        "▁curat",
        -11.085247760210613
      ],
      [
        "▁ansi",
        -10.420722978376048
      ],
      [
        "▁grande",
        -11.042194639497195
      ],
      [
        "▁tolerat",
        -10.976632258988321
      ],
      [
        "▁sit",
        -7.52758754723961
      ],
      [
        "▁advantage",
        -9.743612156453075
      ],
      [
        "▁mam",
        -8.874823739281819
      ],
      [
        "▁notion",
        -10.077543876072896
      ],
      [
        ",300",
        -12.803982360712016
      ],
      [
        "▁billion",
        -10.983429258751208
      ],
      [
        "▁10:4",
        -12.397343587659025
      ],
      [
        "▁self",
        -9.041629833148797
      ],
      [
        "!!!!!!!",
        -11.378490256407192
      ],
      [
        "▁folder",
        -11.106187786831919
      ],
      [
        "▁17",
        -10.782245585253664
      ],
      [
        "▁striv",
        -10.877207190306837
      ],
      [
        "och",
        -12.918959700262555
      ],
      [
        "▁hub",
        -11.366333878990952
      ],
      [
        "▁nice",
        -7.536357891801644
      ],
      [
        "▁crash",
        -9.98615963372275
      ],
      [
        "▁stack",
        -10.97445518656735
      ],
      [
        "▁lifetime",
        -10.554194908489867
      ],
      [
        "▁filter",
        -8.645072239826987
      ],
      [
        "▁tre",
        -9.99675730152057
      ],
      [
        "▁total",
        -8.708634889825497
      ],
      [
        "▁desert",
        -10.067892908168949
      ],
      [
        "ase",
        -10.78973269745037
      ],
      [
        "▁09:1",
        -12.941428925022908
      ],
      [
        "irr",
        -12.829351814011266
      ],
      [
        "▁6/1",
        -13.680375511970919
      ],
      [
        ".5",
        -11.877263202958112
      ],
      [
        "▁advise",
        -9.912028745128671
      ],
      [
        "▁playwright",
        -10.69891107249346
      ],
      [
        "!!!!!!!!!!!!!",
        -12.30698754839941
      ],
      [
        "▁ron",
        -9.217835943510662
      ],
      [
        "3",
        -9.772266817123713
      ],
      [
        "▁com",
        -9.718636425590537
      ],
      [
        "▁phone",
        -8.133027680288292
      ],
      [
        "▁over",
        -7.215890673759656
      ],
      [
        "aria",
        -10.486855195212351
      ],
      [
        "andy",
        -9.98619636907725
      ],
      [
        "▁sq",
        -9.251753467931723
      ],
      [
        "▁enhance",
        -10.307037034714982
      ],
      [
        "▁at",
        -10.976289584009782
      ],
      [
        "▁meat",
        -9.122382270561744
      ],
      [
        "▁liver",
        -10.951239035914238
      ],
      [
        "ketch",
        -10.620191418066447
      ],
      [
        "▁educate",
        -10.421378912509311
      ],
      [
        "to",
        -10.339334777003861
      ],
      [
        "▁officer",
        -9.671135448160328
      ],
      [
        "▁environmental",
        -9.371191840705933
      ],
      [
        "l",
        -6.231528932805012
      ],
      [
        "▁dancer",
        -10.916711993011237
      ],
      [
        "▁21",
        -9.720348909308498
      ],
      [
        "g",
        -6.298432668733277
      ],
      [
        "▁yoursel",
        -9.209680784957502
      ],
      [
        "grew",
        -9.548785293535612
      ],
      [
        "▁refund",
        -10.699100592639054
      ],
      [
        "m",
        -4.126316415305993
      ],
      [
        "▁tor",
        -8.082311227337001
      ],
      [
        "▁pretend",
        -9.387367967308139
      ],
      [
        "▁uhh",
        -8.351133090417981
      ],
      [
        "▁ninety",
        -11.077728537876116
      ],
      [
        "▁wag",
        -10.820295173950202
      ],
      [
        "▁absent",
        -10.707100284758077
      ],
      [
        "▁inherit",
        -11.084258142103687
      ],
      [
        "▁iris",
        -10.515298404737104
      ],
      [
        "▁thin",
        -9.991270050337674
      ],
      [
        "▁string",
        -9.492072391848916
      ],
      [
        "ta",
        -13.295403756520322
      ],
      [
        "thi",
        -7.468707088522826
      ],
      [
        "▁coll",
        -10.953706270342861
      ],
      [
        "▁fourth",
        -9.499175065965673
      ],
      [
        "merida",
        -10.783692921566256
      ],
      [
        "fro",
        -7.918171548395992
      ],
      [
        "▁yes",
        -7.209091090792579
      ],
      [
        "▁12",
        -8.71671642994368
      ],
      [
        "▁hobb",
        -10.849451284854522
      ],
      [
        "▁qua",
        -10.892641802211031
      ],
      [
        "ston",
        -6.309361508078603
      ],
      [
        "▁return",
        -7.875419268427524
      ],
      [
        "▁finger",
        -8.585793179689816
      ],
      [
        "roll",
        -10.28995736936308
      ],
      [
        "▁musician",
        -10.874777041976019
      ],
      [
        "4:5",
        -14.567715117453755
      ],
      [
        "▁fac",
        -10.219118484401793
      ],
      [
        "▁under",
        -8.752557188756818
      ],
      [
        "▁pizza",
        -9.058225023239046
      ],
      [
        "▁1960",
        -11.084250244129834
      ],
      [
        "atta",
        -12.241038137187177
      ],
      [
        "▁2/",
        -14.396171217010771
      ],
      [
        "▁rider",
        -11.041609719656446
      ],
      [
        "707",
        -13.147084992139545
      ],
      [
        "▁interference",
        -10.973194083582447
      ],
      [
        "▁stillman",
        -9.001052209822694
      ],
      [
        "▁haircut",
        -10.622281997406839
      ],
      [
        "▁daughter",
        -9.042834527859924
      ],
      [
        "▁exhibit",
        -9.548564316089628
      ],
      [
        "▁surplus",
        -11.209250211141214
      ],
      [
        "ap",
        -9.602738098524734
      ],
      [
        "▁sweater",
        -10.158709255728454
      ],
      [
        "▁insect",
        -10.204544091751508
      ],
      [
        "▁value",
        -8.191214021686617
      ],
      [
        "▁police",
        -8.804575288289929
      ],
      [
        "▁femora",
        -11.084339054378685
      ],
      [
        "▁retain",
        -10.873585930166469
      ],
      [
        "▁equit",
        -11.157451592742849
      ],
      [
        "▁scribble",
        -10.782230021613067
      ],
      [
        "▁vessel",
        -10.698897976939016
      ],
      [
        "▁kent",
        -9.95490671918438
      ],
      [
        "▁190",
        -11.796319890941165
      ],
      [
        "▁jaz",
        -11.08563888862248
      ],
      [
        "ry@enron",
        -11.848195031338767
      ],
      [
        "▁establishment",
        -10.372533127952549
      ],
      [
        "▁beca",
        -10.971985154867644
      ],
      [
        "▁carne",
        -10.972961012151051
      ],
      [
        "▁floor",
        -8.316029719346911
      ],
      [
        "▁zac",
        -11.073291581889665
      ],
      [
        "▁flourish",
        -11.084465176906907
      ],
      [
        "▁dat",
        -8.77097999038324
      ],
      [
        "▁hydro",
        -10.873139676129117
      ],
      [
        "▁g",
        -7.650181126835427
      ],
      [
        "▁pete",
        -10.672562620191462
      ],
      [
        "▁asset",
        -10.112671690500227
      ],
      [
        "▁picture",
        -8.28902122602114
      ],
      [
        "▁ansi-",
        -10.112259386372155
      ],
      [
        "461",
        -13.307979721832812
      ],
      [
        "me",
        -9.087113698318992
      ],
      [
        "▁danny",
        -9.600606259402063
      ],
      [
        "ا",
        -12.833785825398444
      ],
      [
        "▁vomit",
        -10.782238152140465
      ],
      [
        "ile",
        -12.729286221543994
      ],
      [
        "ell",
        -11.871927484342326
      ],
      [
        "▁print",
        -9.079069130684047
      ],
      [
        "▁route",
        -9.657903526493904
      ],
      [
        "▁remarkabl",
        -10.389585100228677
      ],
      [
        "▁twenty-f",
        -12.946639624578596
      ],
      [
        "▁solution",
        -9.139008841750574
      ],
      [
        "▁rom",
        -10.9520890947953
      ],
      [
        "▁key",
        -8.484768462327857
      ],
      [
        "▁casual",
        -10.770752255974218
      ],
      [
        "▁laurie",
        -10.87314068080245
      ],
      [
        "▁motor",
        -9.840610077927533
      ],
      [
        "▁quiet",
        -9.322999391073672
      ],
      [
        "▁friday",
        -8.001843765119784
      ],
      [
        "▁female",
        -9.302902584175493
      ],
      [
        "▁den",
        -9.545510220442276
      ],
      [
        "▁warning",
        -10.391558131966397
      ],
      [
        "▁preferabl",
        -11.167434356257967
      ],
      [
        "▁woo",
        -10.136769255227076
      ],
      [
        "▁adult",
        -9.173094693974939
      ],
      [
        "▁moham",
        -10.201316315726167
      ],
      [
        "▁chalk",
        -10.484778205254052
      ],
      [
        "▁soup",
        -9.961064608481632
      ],
      [
        "▁assist",
        -9.661615380039985
      ],
      [
        "▁proceed",
        -9.962258143406764
      ],
      [
        "▁for",
        -9.358701241817672
      ],
      [
        "▁[",
        -8.84560095193122
      ],
      [
        "kin",
        -9.891673832123367
      ],
      [
        "st",
        -6.99241356099325
      ],
      [
        "arctic",
        -10.785328606408319
      ],
      [
        "▁realise",
        -10.663869402260746
      ],
      [
        "▁complian",
        -10.973140849643853
      ],
      [
        "ma",
        -13.489069089140443
      ],
      [
        "▁math",
        -10.720070540265677
      ],
      [
        "▁invasi",
        -10.973341193301934
      ],
      [
        "▁rocket",
        -10.367554758589847
      ],
      [
        "ul",
        -9.086764229552148
      ],
      [
        "09/20",
        -13.900643861991314
      ],
      [
        "pact",
        -10.880286362034163
      ],
      [
        "▁neck",
        -9.105903831150789
      ],
      [
        "▁iraqi",
        -9.057995711614069
      ],
      [
        "▁simultaneous",
        -10.873139097778193
      ],
      [
        "▁registr",
        -10.873139123460003
      ],
      [
        "ary",
        -7.565911730171641
      ],
      [
        "zem",
        -10.982531757811765
      ],
      [
        "▁lexic",
        -10.961740967565884
      ],
      [
        "▁amaze",
        -10.973247720852486
      ],
      [
        "ight",
        -7.917709111600755
      ],
      [
        "▁therap",
        -10.865503248450585
      ],
      [
        "most",
        -8.003636098482094
      ],
      [
        "bald",
        -10.17965172118081
      ],
      [
        "one",
        -10.618925815360097
      ],
      [
        "▁shy",
        -10.62989802750641
      ],
      [
        "▁pivot",
        -9.13890421962273
      ],
      [
        "▁dust",
        -9.418672047758305
      ],
      [
        "▁african",
        -9.530535689183772
      ],
      [
        "altho",
        -11.74134684819306
      ],
      [
        "▁friend",
        -7.704360411853864
      ],
      [
        "▁attach",
        -9.03417307993718
      ],
      [
        "▁dinosaur",
        -8.900755064400187
      ],
      [
        "▁hop",
        -11.83466611609779
      ],
      [
        "00",
        -11.338619248245909
      ],
      [
        "5:1",
        -12.952843723349197
      ],
      [
        "▁pop",
        -9.193950031686068
      ],
      [
        "way",
        -8.645593651391925
      ],
      [
        "▁magnific",
        -10.485194129636461
      ],
      [
        "▁child",
        -8.37677597984495
      ],
      [
        "▁opening",
        -9.301654071613436
      ],
      [
        "▁++",
        -13.436075599114549
      ],
      [
        "/",
        -8.28130137214162
      ],
      [
        "ll",
        -11.63392656839943
      ],
      [
        "▁venture",
        -10.307054513452616
      ],
      [
        "▁disco",
        -10.835856600365666
      ],
      [
        "▁face",
        -7.830147147524809
      ],
      [
        "▁lab",
        -9.870482063777704
      ],
      [
        "!!",
        -8.680316007598035
      ],
      [
        "▁construct",
        -10.419738533303297
      ],
      [
        "琴",
        -12.833785825435129
      ],
      [
        "camo",
        -10.868434306164147
      ],
      [
        "▁cub",
        -10.964025412535719
      ],
      [
        "▁american",
        -7.120184207789342
      ],
      [
        "▁cohesi",
        -10.622061999656516
      ],
      [
        "urs",
        -11.334386090581136
      ],
      [
        "▁continent",
        -8.468002396080681
      ],
      [
        "755",
        -14.450526138564243
      ],
      [
        "▁fo",
        -12.838710837665342
      ],
      [
        "▁an",
        -8.534176259144129
      ],
      [
        "▁x",
        -8.663881306236346
      ],
      [
        "fr",
        -13.637637297361698
      ],
      [
        "▁boo",
        -10.477239473166328
      ],
      [
        "re",
        -7.9997735210760155
      ],
      [
        "is",
        -7.5887397610774
      ],
      [
        "▁02",
        -12.852745059953296
      ],
      [
        "▁jim",
        -9.71841839902676
      ],
      [
        "▁cris",
        -9.850505167213981
      ],
      [
        "te",
        -10.853311653238517
      ],
      [
        "▁05908",
        -14.1378574751992
      ],
      [
        "ced",
        -12.752075754843505
      ],
      [
        "▁poo",
        -9.991591175357835
      ],
      [
        "▁1,",
        -11.196637822129151
      ],
      [
        "alle",
        -12.34670558163401
      ],
      [
        "▁dear",
        -9.235538882342603
      ],
      [
        "▁mold",
        -10.62230169518466
      ],
      [
        "▁liber",
        -10.951031623260318
      ],
      [
        "▁luther",
        -10.87329492147498
      ],
      [
        "▁drift",
        -10.973293215019027
      ],
      [
        "▁word",
        -8.278749321263371
      ],
      [
        "front",
        -11.05359308017691
      ],
      [
        "▁use",
        -6.632537810678495
      ],
      [
        "2/22/200",
        -13.31876325343751
      ],
      [
        "▁die",
        -7.781664094991877
      ],
      [
        "jama",
        -10.884845336795617
      ],
      [
        "▁tomm",
        -10.905212448280473
      ],
      [
        "▁side",
        -8.06770306737863
      ],
      [
        "5-5",
        -14.771435945680576
      ],
      [
        "▁correspondence",
        -10.782336227724157
      ],
      [
        "-b",
        -10.20473189415127
      ],
      [
        "ria",
        -11.73691810135671
      ],
      [
        "ho",
        -15.25680992906695
      ],
      [
        "▁jame",
        -9.589597741223777
      ],
      [
        "▁content",
        -9.01372874874559
      ],
      [
        "▁755",
        -13.738721046877316
      ],
      [
        "▁scholar",
        -10.349349034379241
      ],
      [
        "▁dollar",
        -8.217972870313835
      ],
      [
        "▁vet",
        -9.409198912199674
      ],
      [
        "▁chute",
        -10.973441359350653
      ],
      [
        "▁la",
        -7.904863133567718
      ],
      [
        "along",
        -11.988352002306266
      ],
      [
        "▁drawing",
        -10.12176973869357
      ],
      [
        "▁japan",
        -9.482287619868831
      ],
      [
        "▁four",
        -8.19459969449109
      ],
      [
        "▁regional",
        -9.177320772649427
      ],
      [
        "▁examine",
        -10.43344293428124
      ],
      [
        "▁evaluat",
        -10.11030663666757
      ],
      [
        "oui",
        -10.775827366298696
      ],
      [
        "airbnb",
        -10.78223183272435
      ],
      [
        "▁ramp",
        -11.115502458776644
      ],
      [
        "upper",
        -10.178111168113647
      ],
      [
        "▁103",
        -13.542774831643692
      ],
      [
        "▁fe",
        -8.964975167056476
      ],
      [
        "▁exact",
        -8.788134548729051
      ],
      [
        "▁deposit",
        -10.669935623028433
      ],
      [
        "▁mis",
        -9.928265337287938
      ],
      [
        "▁sw",
        -9.439053817588057
      ],
      [
        "▁circu",
        -10.420086463471744
      ],
      [
        "▁cry",
        -9.108958169507517
      ],
      [
        "▁rum",
        -10.271077794814662
      ],
      [
        ":32",
        -12.490201473690341
      ],
      [
        "▁fi",
        -14.154370951148582
      ],
      [
        "“",
        -6.515170392843602
      ],
      [
        "ro",
        -11.369268642045473
      ],
      [
        "ad",
        -13.093669832419435
      ],
      [
        ">>",
        -10.623999691705132
      ],
      [
        "▁tummy",
        -9.807217156515375
      ],
      [
        "shore",
        -10.949051467294982
      ],
      [
        "ll",
        -5.735079957665786
      ],
      [
        "▁wizard",
        -10.067816128528214
      ],
      [
        "▁pier",
        -10.437985514774054
      ],
      [
        "▁consult",
        -10.204368450368081
      ],
      [
        "side",
        -8.89657388628326
      ],
      [
        "town",
        -8.368010673077002
      ],
      [
        "c",
        -6.857402155246581
      ],
      [
        "▁possession",
        -10.36255485277689
      ],
      [
        "▁sale",
        -10.179520140623758
      ],
      [
        "▁border",
        -9.385474837556275
      ],
      [
        "▁disorder",
        -10.873140580116985
      ],
      [
        "▁ruler",
        -11.012571321199605
      ],
      [
        "ti",
        -11.721458890591762
      ],
      [
        "▁kiss",
        -9.809046638854664
      ],
      [
        "▁holocaust",
        -10.973139097792046
      ],
      [
        "▁.......",
        -12.94234137720511
      ],
      [
        "`",
        -11.307802325334926
      ],
      [
        "▁oak",
        -7.78465491882055
      ],
      [
        "▁principle",
        -9.655739769141405
      ],
      [
        "▁bank",
        -9.028098151087228
      ],
      [
        "9:5",
        -13.213451670145258
      ],
      [
        "▁doughnut",
        -9.874936426282439
      ],
      [
        "▁collapse",
        -10.20436901743862
      ],
      [
        "▁avoid",
        -9.012767046517897
      ],
      [
        "▁restrict",
        -10.876103267543755
      ],
      [
        "▁bridge",
        -9.323140178129563
      ],
      [
        "bby",
        -9.93645208046426
      ],
      [
        "▁saw",
        -7.795989903789526
      ],
      [
        "▁pose",
        -10.46370333331644
      ],
      [
        "▁drink",
        -8.034724400246262
      ],
      [
        "▁show",
        -5.970318070480243
      ],
      [
        "▁!!!!!!",
        -11.049216165262704
      ],
      [
        "▁sunn",
        -10.603610305596899
      ],
      [
        "▁atlant",
        -6.7109201785828185
      ],
      [
        "▁e",
        -11.439061779438205
      ],
      [
        "▁gr",
        -10.339923065306172
      ],
      [
        "▁peace",
        -8.676055608737634
      ],
      [
        "▁intend",
        -9.190664007654163
      ],
      [
        "▁desk",
        -9.075860319009784
      ],
      [
        "▁manage",
        -8.756721150847328
      ],
      [
        "ف",
        -12.833785825435129
      ],
      [
        "▁royal",
        -9.910749390134207
      ],
      [
        "▁til",
        -14.239400027983452
      ],
      [
        "713-",
        -15.20242320856917
      ],
      [
        "▁aggressive",
        -10.782500001088744
      ],
      [
        "azi",
        -10.794398206654602
      ],
      [
        "▁nah",
        -10.91806674624446
      ],
      [
        "graph",
        -10.61870139870344
      ],
      [
        "▁trigger",
        -11.084318940227922
      ],
      [
        "▁organiz",
        -10.441649482129073
      ],
      [
        "▁surviv",
        -9.995050917382725
      ],
      [
        ")",
        -4.6644456325463
      ],
      [
        "▁multiple",
        -10.111295169131482
      ],
      [
        "237",
        -13.823535084092077
      ],
      [
        "▁treat",
        -8.6655024072791
      ],
      [
        "ate",
        -7.970077845651387
      ],
      [
        "ri",
        -8.049557552297205
      ],
      [
        "du",
        -14.4639147343424
      ],
      [
        "▁rent",
        -9.50679364064101
      ],
      [
        "gue",
        -10.497366488242804
      ],
      [
        "▁science",
        -8.90554277928733
      ],
      [
        "▁communit",
        -8.505529887664174
      ],
      [
        "▁transformation",
        -10.552991782242126
      ],
      [
        "▁imprison",
        -10.698896674172563
      ],
      [
        "▁youtube",
        -9.874938431648538
      ],
      [
        "▁tactic",
        -10.6990387585676
      ],
      [
        "5",
        -9.078884607816788
      ],
      [
        "9/200",
        -11.994173130074632
      ],
      [
        "▁calculation",
        -10.788770170427583
      ],
      [
        "▁asyl",
        -10.48970998789505
      ],
      [
        "▁god",
        -9.188733570179135
      ],
      [
        "▁short",
        -8.068090473482703
      ],
      [
        "1:",
        -14.54247363883203
      ],
      [
        "fth",
        -10.223022180069869
      ],
      [
        "abilit",
        -9.369392739057933
      ],
      [
        "▁artwork",
        -10.157144001435805
      ],
      [
        "▁permanent",
        -10.254368743501209
      ],
      [
        "▁steam",
        -10.42095619549449
      ],
      [
        "▁archi",
        -10.030074686922266
      ],
      [
        "▁accompan",
        -10.78245403043924
      ],
      [
        "▁cheap",
        -8.580361714666562
      ],
      [
        "▁assum",
        -10.405099238509848
      ],
      [
        "▁ant",
        -11.860894755500915
      ],
      [
        "▁risk",
        -8.86184843609528
      ],
      [
        "dra",
        -10.577543245678065
      ],
      [
        "▁invi",
        -10.697438658865801
      ],
      [
        "▁aka",
        -10.976140764046942
      ],
      [
        "▁mobile",
        -10.491702122992727
      ],
      [
        "▁beast",
        -11.084767835117031
      ],
      [
        "▁ju",
        -12.091573502807867
      ],
      [
        "▁angle",
        -10.707286844098736
      ],
      [
        "▁they",
        -5.616133746390839
      ],
      [
        "▁glamo",
        -11.08437573166784
      ],
      [
        "6/",
        -13.566124420789023
      ],
      [
        "▁cancel",
        -10.307090867762613
      ],
      [
        "▁gap",
        -10.03508961409538
      ],
      [
        "asnondelibreaten",
        -11.833786315327183
      ],
      [
        "61",
        -12.975113719148483
      ],
      [
        "▁throat",
        -10.156748802465845
      ],
      [
        "tub",
        -10.468112016233555
      ],
      [
        "sky",
        -10.668733407829906
      ],
      [
        "▁fuss",
        -11.093835632945332
      ],
      [
        "▁driv",
        -8.762500317779459
      ],
      [
        "▁one",
        -6.3396020121112375
      ],
      [
        "▁works",
        -9.07721609789462
      ],
      [
        "281",
        -13.085713180278189
      ],
      [
        "[CLS]",
        0.0
      ],
      [
        "▁third",
        -8.493086579592074
      ],
      [
        "▁l'e",
        -10.36747170203419
      ],
      [
        "eec",
        -10.798463564139205
      ],
      [
        "▁issue",
        -7.8994683171990365
      ],
      [
        "045",
        -14.051548089164976
      ],
      [
        "3:2",
        -15.156802643993807
      ],
      [
        "ft",
        -14.523025007239072
      ],
      [
        "▁integrate",
        -10.25900908705318
      ],
      [
        "▁suggestion",
        -9.716268978266022
      ],
      [
        "igator",
        -9.92405412604732
      ],
      [
        "▁skittle",
        -9.840453616678788
      ],
      [
        "▁monaster",
        -11.090454011677629
      ],
      [
        "pression",
        -11.182970721705052
      ],
      [
        "▁bun",
        -10.000044766690026
      ],
      [
        "▁move",
        -7.8848987885699415
      ],
      [
        "am",
        -8.751407306297265
      ],
      [
        "▁server",
        -9.82197898953482
      ],
      [
        "▁talent",
        -10.026276871861983
      ],
      [
        "▁midwest",
        -10.637891023701902
      ],
      [
        "▁165",
        -13.33382968948013
      ],
      [
        "ms",
        -11.919613931885362
      ],
      [
        "▁ginger",
        -10.623815494166784
      ],
      [
        "6/9",
        -12.808934602602186
      ],
      [
        "111",
        -12.788292034875845
      ],
      [
        "▁artificial",
        -10.782234905805863
      ],
      [
        "▁traffic",
        -9.572708649024872
      ],
      [
        "▁tab",
        -10.345234292705108
      ],
      [
        "▁acc",
        -10.442670164225598
      ],
      [
        "▁statute",
        -10.873702188177758
      ],
      [
        "▁183",
        -10.543131175840324
      ],
      [
        "fu",
        -10.2520490595709
      ],
      [
        "▁emil",
        -10.973735754305352
      ],
      [
        "▁method",
        -8.839900117692412
      ],
      [
        "▁335",
        -13.289610428496676
      ],
      [
        "10",
        -10.470433479940182
      ],
      [
        "▁chapter",
        -9.807190365250314
      ],
      [
        "▁athen",
        -9.859163454921605
      ],
      [
        "▁kenne",
        -10.888433854981386
      ],
      [
        "▁woul",
        -6.0900188466739795
      ],
      [
        "ha",
        -10.276535708534153
      ],
      [
        "▁feel",
        -7.534497227242223
      ],
      [
        "ff",
        -9.298201613901163
      ],
      [
        "4-449",
        -13.136787201776144
      ],
      [
        "▁cousin",
        -10.621985770981672
      ],
      [
        "▁etc",
        -8.776424771210493
      ],
      [
        "▁let",
        -6.560592762468597
      ],
      [
        "ehr",
        -11.166055404637989
      ],
      [
        "right",
        -8.178679926087064
      ],
      [
        "▁any",
        -6.4990892147259105
      ],
      [
        "▁stu",
        -10.956381838765317
      ],
      [
        "ole",
        -10.14142842405845
      ],
      [
        "eol",
        -10.406421876790422
      ],
      [
        "▁for",
        -10.508521129987447
      ],
      [
        "▁832.676.",
        -13.136770579315861
      ],
      [
        "▁dignit",
        -10.854460898547245
      ],
      [
        "▁caution",
        -10.973143235969845
      ],
      [
        "▁holding",
        -9.241074712082153
      ],
      [
        "▁datasheet",
        -10.782579545198551
      ],
      [
        "▁adam",
        -7.721631801519224
      ],
      [
        "▁up",
        -6.8551603158540315
      ],
      [
        "▁bell",
        -9.34409901729765
      ],
      [
        "▁achiev",
        -10.124040477643891
      ],
      [
        "ies",
        -6.20435151805251
      ],
      [
        "wise",
        -9.220251406717114
      ],
      [
        "▁perceive",
        -10.421391781380118
      ],
      [
        "erno",
        -12.834028763676212
      ],
      [
        "▁truck",
        -8.462301455477888
      ],
      [
        "▁texa",
        -8.624730545374206
      ],
      [
        "▁harmon",
        -10.606856239634842
      ],
      [
        "▁rail",
        -10.111542284518068
      ],
      [
        "▁magician",
        -10.974477225271045
      ],
      [
        "▁sacre",
        -11.084314192861953
      ],
      [
        "munic",
        -10.472638223775926
      ],
      [
        "▁accus",
        -10.404098791092213
      ],
      [
        "▁improve",
        -9.343227650206593
      ],
      [
        "▁simpl",
        -8.809611150738293
      ],
      [
        "▁resolve",
        -11.089183476267916
      ],
      [
        "▁reward",
        -10.36316106623224
      ],
      [
        "▁evil",
        -10.421388575750399
      ],
      [
        "▁coron",
        -10.113023550767714
      ],
      [
        "homa",
        -11.107778053053801
      ],
      [
        "itie",
        -9.804402092164613
      ],
      [
        "ian",
        -8.500126074296503
      ],
      [
        "▁milk",
        -7.807794509389648
      ],
      [
        "▁av",
        -13.367145336733245
      ],
      [
        "▁marine",
        -10.335232068725158
      ],
      [
        "888.",
        -12.636947950041675
      ],
      [
        "▁phenomen",
        -10.421399869634929
      ],
      [
        "134",
        -13.188304911748336
      ],
      [
        "▁chamber",
        -10.782231221353266
      ],
      [
        "-to-",
        -10.973149718017703
      ],
      [
        "8",
        -8.166321644259854
      ],
      [
        "▁fi",
        -10.326349963524976
      ],
      [
        "▁ku",
        -10.599635454007057
      ],
      [
        "i",
        -6.653357807233611
      ],
      [
        "▁motivation",
        -10.873139103038191
      ],
      [
        "▁united",
        -7.351920910224737
      ],
      [
        "wart",
        -10.303383653084605
      ],
      [
        "▁am",
        -7.520988588867129
      ],
      [
        "▁mask",
        -10.307595552842113
      ],
      [
        "▁&",
        -9.827902169549398
      ],
      [
        "▁ghost",
        -9.840453805032464
      ],
      [
        "▁08/0",
        -12.957041608583909
      ],
      [
        "▁liberal",
        -10.255461818913398
      ],
      [
        "▁get",
        -5.735858642197
      ],
      [
        "▁organization",
        -9.106141914490811
      ],
      [
        "▁job",
        -7.892940234901602
      ],
      [
        "ock",
        -9.98356814984513
      ],
      [
        "▁deny",
        -10.554684630802532
      ],
      [
        "kinaw",
        -10.324425420311606
      ],
      [
        "/01/200",
        -12.253837409322443
      ],
      [
        "▁era",
        -9.915296927339309
      ],
      [
        "'s",
        -9.29672248805738
      ],
      [
        "******",
        -12.428278979198952
      ],
      [
        "▁impact",
        -9.208514341806804
      ],
      [
        "▁happens",
        -9.756012780593961
      ],
      [
        "▁unknown",
        -9.94768764085454
      ],
      [
        "▁alternative",
        -9.452148556009037
      ],
      [
        "▁index",
        -10.974472342159496
      ],
      [
        "▁patient",
        -9.658679189255121
      ],
      [
        "▁smoke",
        -9.55307373417793
      ],
      [
        "or",
        -9.026507834462839
      ],
      [
        "who",
        -9.48318164603857
      ],
      [
        "▁do",
        -12.000557710238303
      ],
      [
        "350",
        -12.885860862238696
      ],
      [
        "▁judgment",
        -10.111450781742505
      ],
      [
        "hiro",
        -10.889337986138534
      ],
      [
        "▁pancake",
        -10.483904894072653
      ],
      [
        "▁marri",
        -9.343370162338168
      ],
      [
        "▁luck",
        -9.1062310936973
      ],
      [
        "▁remind",
        -9.38542537827361
      ],
      [
        "▁foot",
        -8.741893678836874
      ],
      [
        "▁author",
        -8.957173358623304
      ],
      [
        "▁silen",
        -10.199970308854196
      ],
      [
        "▁full",
        -7.8561436211605615
      ],
      [
        "will",
        -9.026017628551926
      ],
      [
        "▁publish",
        -8.962630177023936
      ],
      [
        "149",
        -13.721615169170052
      ],
      [
        "▁power",
        -8.058886506483084
      ],
      [
        "▁guerrilla",
        -10.698896674451039
      ],
      [
        "▁slave",
        -10.362607587771247
      ],
      [
        "▁pleasant",
        -9.683897362402389
      ],
      [
        "cc",
        -10.689679487776264
      ],
      [
        "▁dolphin",
        -10.204367706832988
      ],
      [
        "xsl",
        -10.981309638386165
      ],
      [
        "د",
        -11.833785825435129
      ],
      [
        "cion",
        -13.357598950459646
      ],
      [
        "▁dri",
        -10.771114292758138
      ],
      [
        "w",
        -4.938168009100053
      ],
      [
        "▁boot",
        -9.163013781762231
      ],
      [
        "▁814.863.",
        -13.136770579314762
      ],
      [
        "▁burn",
        -9.667671962602784
      ],
      [
        "▁influen",
        -10.484547158755351
      ],
      [
        "▁char",
        -8.018682344236295
      ],
      [
        "▁853-",
        -14.134241513096974
      ],
      [
        "▁pickle",
        -11.107768104612832
      ],
      [
        "▁.",
        -6.116290613496916
      ],
      [
        "si",
        -11.213306943358026
      ],
      [
        "▁emperor",
        -10.362554830427175
      ],
      [
        "▁mar",
        -9.104443359614772
      ],
      [
        "▁iu",
        -11.539925515610605
      ],
      [
        "▁leisure",
        -11.084250451910332
      ],
      [
        "▁awake",
        -10.483890606377358
      ],
      [
        "globe",
        -10.37077260754506
      ],
      [
        "standing",
        -10.281065856891491
      ],
      [
        "tyler",
        -11.054904945206218
      ],
      [
        "▁roll",
        -8.758668089006322
      ],
      [
        "▁click",
        -9.74361346957305
      ],
      [
        "▁scan",
        -10.555954591156478
      ],
      [
        "▁1.4",
        -12.362851284027002
      ],
      [
        "▁gis",
        -10.571108952347021
      ],
      [
        "▁75",
        -10.786024161906026
      ],
      [
        "▁audit",
        -10.15676455097204
      ],
      [
        "mp",
        -9.53389577911485
      ],
      [
        "▁mad",
        -9.456303742328492
      ],
      [
        "head",
        -8.672593617448424
      ],
      [
        "uni",
        -13.005202505838987
      ],
      [
        "▁men",
        -8.19607513670263
      ],
      [
        "▁draco",
        -10.97316230132834
      ],
      [
        ":48",
        -13.969906159124324
      ],
      [
        "ab",
        -12.134109862263205
      ],
      [
        "ine",
        -11.054311485750521
      ],
      [
        "▁currenc",
        -9.910656282398373
      ],
      [
        "▁photo",
        -10.082778506771009
      ],
      [
        "▁rapporteur",
        -10.421378358520037
      ],
      [
        "▁control",
        -8.241589411148528
      ],
      [
        "▁neo",
        -9.919572678084231
      ],
      [
        "name",
        -10.48635976571936
      ],
      [
        "▁missi",
        -10.631172510193263
      ],
      [
        "and",
        -3.897035039085017
      ],
      [
        "▁telephone",
        -9.574805872846179
      ],
      [
        "▁conference",
        -9.04425441188977
      ],
      [
        "▁complement",
        -11.084251502249018
      ],
      [
        "▁than",
        -7.291350501791544
      ],
      [
        "▁lobby",
        -10.782443130946803
      ],
      [
        "▁study",
        -8.045934415874715
      ],
      [
        "▁tau",
        -10.965296760509407
      ],
      [
        "435",
        -13.081662452102295
      ],
      [
        "▁big",
        -6.967008261820932
      ],
      [
        "▁memor",
        -9.1431398826326
      ],
      [
        "▁minorit",
        -10.952712007260772
      ],
      [
        "▁season",
        -9.248332791050082
      ],
      [
        "2",
        -7.60492833559763
      ],
      [
        "▁digg",
        -10.700975331876998
      ],
      [
        "▁initiat",
        -9.947087319060564
      ],
      [
        "▁para",
        -10.100087377997593
      ],
      [
        "▁portray",
        -11.084281985948444
      ],
      [
        "▁reveal",
        -9.807131693457865
      ],
      [
        "history",
        -8.608259189325832
      ],
      [
        "▁fruit",
        -9.548574298883736
      ],
      [
        "▁alcohol",
        -10.538867401135802
      ],
      [
        "▁jack",
        -9.429513576507524
      ],
      [
        "▁upside",
        -10.257175337530626
      ],
      [
        "▁63",
        -12.093611044630869
      ],
      [
        "▁115",
        -13.452826453989033
      ],
      [
        "naiss",
        -11.833792202418863
      ],
      [
        "▁technical",
        -9.343310187811191
      ],
      [
        "ug",
        -9.674912179649512
      ],
      [
        "▁most",
        -7.018956699682698
      ],
      [
        "▁northwest",
        -9.481563775086435
      ],
      [
        "r.",
        -10.13031318877856
      ],
      [
        "368",
        -12.773220836068141
      ],
      [
        "▁ingredient",
        -10.06781584798188
      ],
      [
        "▁56",
        -12.820438180065185
      ],
      [
        "-1.",
        -11.08405888417923
      ],
      [
        "▁boil",
        -10.278572414974619
      ],
      [
        "▁guild",
        -10.973152135145865
      ],
      [
        "▁odara",
        -10.698898615638793
      ],
      [
        "▁wonderful",
        -9.106555518415144
      ],
      [
        "▁resident",
        -9.68404071248232
      ],
      [
        "▁front",
        -8.253063980619388
      ],
      [
        "@e",
        -12.090087232157849
      ],
      [
        "▁monk",
        -10.485541011990424
      ],
      [
        "ov",
        -9.767176147223115
      ],
      [
        "!?!?",
        -12.308329842777054
      ],
      [
        "▁oath",
        -10.550564432933415
      ],
      [
        "eve",
        -10.31123112989284
      ],
      [
        "leur",
        -11.834203543590597
      ],
      [
        "▁flexibilit",
        -11.084263892446321
      ],
      [
        "▁date",
        -8.485175268656285
      ],
      [
        "▁raise",
        -9.307571758468216
      ],
      [
        "▁hi",
        -9.539530827976858
      ],
      [
        "28",
        -10.97103305750776
      ],
      [
        "▁clay",
        -10.036692393104618
      ],
      [
        "▁jungle",
        -10.873154223361327
      ],
      [
        "▁medal",
        -10.874648199305858
      ],
      [
        "▁coast",
        -9.245211602458163
      ],
      [
        "▁negotiat",
        -10.20338342726102
      ],
      [
        "▁salon",
        -10.067976965406952
      ],
      [
        "▁afr",
        -9.524788917176375
      ],
      [
        "▁.....",
        -12.265366154194611
      ],
      [
        "▁sang",
        -10.775440601106125
      ],
      [
        "------------",
        -10.630566914886277
      ],
      [
        "▁purchas",
        -10.49389603932395
      ],
      [
        "▁of",
        -5.314681426468248
      ],
      [
        "\\",
        -11.833785825435129
      ],
      [
        "rice",
        -11.031928129019633
      ],
      [
        "▁champion",
        -11.084909105306409
      ],
      [
        "63",
        -13.00174728772707
      ],
      [
        "163",
        -15.140652679986157
      ],
      [
        "▁quantit",
        -10.565069967206448
      ],
      [
        "▁protection",
        -9.157104932572686
      ],
      [
        "▁anti-",
        -10.254052816132312
      ],
      [
        "▁haf",
        -7.746963796290526
      ],
      [
        "▁928",
        -14.210941688124889
      ],
      [
        "▁meter",
        -10.356874062823099
      ],
      [
        "▁knight",
        -10.20558794290887
      ],
      [
        "▁knee",
        -9.894490405340115
      ],
      [
        "▁mac",
        -9.799652425538548
      ],
      [
        "▁manufacturer",
        -10.560429993632692
      ],
      [
        "275",
        -13.948612843905094
      ],
      [
        "▁degree",
        -9.47562404155615
      ],
      [
        "ad",
        -11.293639538444141
      ],
      [
        "▁'s",
        -7.340703092259739
      ],
      [
        "▁complain",
        -10.301544449659234
      ],
      [
        "▁external",
        -10.254367829945295
      ],
      [
        "▁wh",
        -9.220690979633487
      ],
      [
        "sti",
        -12.903858762386612
      ],
      [
        "▁ambitious",
        -10.873146829491942
      ],
      [
        "▁client",
        -9.80712078592235
      ],
      [
        "▁price",
        -7.655481973824937
      ],
      [
        "1530",
        -12.901235037960072
      ],
      [
        "▁camp",
        -8.940700988802973
      ],
      [
        "▁ag",
        -9.062038990771534
      ],
      [
        "▁vi",
        -9.182863351817204
      ],
      [
        "▁link",
        -8.6658025783777
      ],
      [
        "essie",
        -11.067723525337712
      ],
      [
        "▁dub",
        -10.39829606080935
      ],
      [
        "h",
        -5.068145445380351
      ],
      [
        "nd",
        -12.574555320074737
      ],
      [
        "ahar",
        -10.805670949114758
      ],
      [
        "▁parliament",
        -8.812087271922188
      ],
      [
        "▁coinciden",
        -10.875704546320113
      ],
      [
        "▁crowd",
        -9.476926501554429
      ],
      [
        "▁11:16:",
        -13.156524772672466
      ],
      [
        ".1",
        -13.151530141619634
      ],
      [
        "▁gil",
        -11.019719633217903
      ],
      [
        "compaq.com",
        -11.085452085135776
      ],
      [
        "▁rare",
        -9.684382366829245
      ],
      [
        "/03",
        -14.34099684011953
      ],
      [
        "▁164",
        -13.046176533905447
      ],
      [
        "▁phrase",
        -10.25437030354695
      ],
      [
        "▁04:4",
        -12.694115992812021
      ],
      [
        "▁rescue",
        -9.87494931159543
      ],
      [
        "usa",
        -12.832706118609991
      ],
      [
        "▁entit",
        -9.90816746409653
      ],
      [
        "▁horses",
        -10.123208117387705
      ],
      [
        "▁interpretation",
        -10.623802134642816
      ],
      [
        "ons",
        -10.56595692661573
      ],
      [
        "up",
        -8.753341417653875
      ],
      [
        "▁scor",
        -10.936680727427504
      ],
      [
        "▁over",
        -7.36005997528514
      ],
      [
        "tamus",
        -11.11382609652345
      ],
      [
        "0.2",
        -14.142701855339899
      ],
      [
        "▁hold",
        -8.12880221659761
      ],
      [
        "ne",
        -12.218300795250943
      ],
      [
        "a",
        -8.241796670952791
      ],
      [
        "microsoft",
        -9.226677554791916
      ],
      [
        "-19",
        -14.096896478575976
      ],
      [
        "▁clar",
        -10.713316466102865
      ],
      [
        "▁servant",
        -10.873139181658324
      ],
      [
        "▁natural",
        -8.558330571881157
      ],
      [
        "mill",
        -12.402941211649512
      ],
      [
        "pal",
        -12.51080733618937
      ],
      [
        "▁2.1",
        -13.295520636728769
      ],
      [
        "▁281-",
        -14.13087211928148
      ],
      [
        "1-",
        -13.883317469131779
      ],
      [
        "leans",
        -10.307879103370025
      ],
      [
        "uma",
        -10.957900631582513
      ],
      [
        "▁gentle",
        -10.494918343451673
      ],
      [
        "▁regret",
        -10.156748692735986
      ],
      [
        "▁starv",
        -10.569893336544482
      ],
      [
        "687",
        -12.508169247228803
      ],
      [
        "▁sake",
        -10.363180213463842
      ],
      [
        "▁bid",
        -9.962144390340566
      ],
      [
        "elia",
        -10.710021214375006
      ],
      [
        "000",
        -12.033561010171681
      ],
      [
        "▁guide",
        -10.21224067162671
      ],
      [
        "▁sorr",
        -8.46755420336326
      ],
      [
        "▁mohamm",
        -10.114359489354625
      ],
      [
        "▁classic",
        -10.365574844729636
      ],
      [
        "▁bill",
        -8.658093049267228
      ],
      [
        "▁meaning",
        -9.363749474879175
      ],
      [
        "▁dip",
        -11.085540310382648
      ],
      [
        "▁with",
        -5.231709886709201
      ],
      [
        "-",
        -4.291460331790701
      ],
      [
        "▁pitch",
        -10.624703098271443
      ],
      [
        "▁4,",
        -13.548474608935889
      ],
      [
        "ard",
        -13.130028084185607
      ],
      [
        "▁lie",
        -9.050131991599887
      ],
      [
        "el",
        -11.736101132493474
      ],
      [
        "▁actress",
        -10.97316910449439
      ],
      [
        "▁contact",
        -8.741895650522395
      ],
      [
        "========",
        -13.622794927606003
      ],
      [
        "▁irre",
        -11.205714063362205
      ],
      [
        "tory",
        -10.194995512772444
      ],
      [
        "rou",
        -8.854957786186283
      ],
      [
        "▁seven",
        -8.978118629881944
      ],
      [
        "▁addresse",
        -10.927621424870253
      ],
      [
        "▁dumb",
        -10.621990525634208
      ],
      [
        "67.7",
        -12.636840797132226
      ],
      [
        "zen",
        -11.83405333420376
      ],
      [
        "▁edit",
        -9.912282292532446
      ],
      [
        "ja",
        -12.13970297163354
      ],
      [
        "uchi",
        -10.351889406709885
      ],
      [
        "▁22",
        -10.168178807948133
      ],
      [
        "▁vol",
        -10.213493279735793
      ],
      [
        "13",
        -10.554443607867526
      ],
      [
        "▁threaten",
        -10.114871678192507
      ],
      [
        "▁islamist",
        -10.113644401077655
      ],
      [
        "▁he",
        -8.181341627242084
      ],
      [
        "▁pursu",
        -10.944607685626538
      ],
      [
        "▁assign",
        -10.026196719945812
      ],
      [
        "▁191",
        -11.896980550058402
      ],
      [
        "▁jenn",
        -10.389167631225849
      ],
      [
        "▁guy",
        -7.7004890689592
      ],
      [
        "▁claw",
        -11.086750261910474
      ],
      [
        "lin",
        -9.056969608611318
      ],
      [
        "▁thre",
        -9.627823232223626
      ],
      [
        "▁inspiration",
        -11.086379355328912
      ],
      [
        "▁wine",
        -8.970752331541515
      ],
      [
        "▁idiot",
        -10.873139288814624
      ],
      [
        "▁32",
        -11.23092733508666
      ],
      [
        "▁by",
        -9.863838491433988
      ],
      [
        "▁hate",
        -9.691702620320942
      ],
      [
        "1602",
        -12.752861707532078
      ],
      [
        "▁hat",
        -8.53135205741857
      ],
      [
        ".2",
        -12.489296254993782
      ],
      [
        "r",
        -6.00790320594875
      ],
      [
        "zu",
        -10.380894990605798
      ],
      [
        "▁separat",
        -10.686925538784612
      ],
      [
        "ar",
        -7.965964220060476
      ],
      [
        "incin",
        -8.950775990607584
      ],
      [
        "lock",
        -8.187548455389415
      ],
      [
        "wikihow",
        -10.213938585777234
      ],
      [
        "ic",
        -7.528556480818281
      ],
      [
        "▁traditional",
        -10.127235216054286
      ],
      [
        "▁rhythm",
        -11.084250209378883
      ],
      [
        "▁gentlem",
        -11.116521412924591
      ],
      [
        "ur",
        -11.393468614066895
      ],
      [
        "sheet",
        -11.058017091042267
      ],
      [
        "▁horsie",
        -8.914086456739675
      ],
      [
        "▁obstacle",
        -10.621973597665901
      ],
      [
        "ator",
        -10.215284400497234
      ],
      [
        "▁04:1",
        -12.25699986344155
      ],
      [
        "▁conviction",
        -10.699656887747961
      ],
      [
        "▁official",
        -8.586600793156787
      ],
      [
        "▁entrepreneur",
        -10.78223000686885
      ],
      [
        "broad",
        -10.458101864185505
      ],
      [
        "▁2:30",
        -11.734134949673814
      ],
      [
        "ley",
        -8.723333522603777
      ],
      [
        "▁reviv",
        -10.97336889035007
      ],
      [
        "▁expens",
        -8.624846248232295
      ],
      [
        "▁nak",
        -10.630678359349384
      ],
      [
        "--------------",
        -9.78002565804236
      ],
      [
        "▁undertake",
        -10.622077302442465
      ],
      [
        "▁divers",
        -9.59153674329994
      ],
      [
        "▁strong",
        -8.231082438299033
      ],
      [
        "nel",
        -10.565950804463371
      ],
      [
        "▁welcome",
        -9.201376930136448
      ],
      [
        "217",
        -12.04535533788108
      ],
      [
        "▁laure",
        -10.879866111901205
      ],
      [
        "▁41",
        -11.462132681209734
      ],
      [
        "▁kingdom",
        -10.421538404211905
      ],
      [
        "▁ok",
        -8.384361398967076
      ],
      [
        "▁oil",
        -8.522924481945939
      ],
      [
        "eight",
        -11.168835799980739
      ],
      [
        "▁receive",
        -8.509869303689786
      ],
      [
        "t",
        -8.622881059948114
      ],
      [
        "008",
        -13.284409566334318
      ],
      [
        "cho",
        -11.18965547867573
      ],
      [
        "▁bleed",
        -10.914453633963511
      ],
      [
        "▁novelist",
        -10.70096777392445
      ],
      [
        "▁fung",
        -10.315103775195091
      ],
      [
        "▁moo",
        -10.774072696878319
      ],
      [
        "▁jar",
        -10.262709601577356
      ],
      [
        "▁experience",
        -7.845855437230273
      ],
      [
        "ujai",
        -10.873283046572181
      ],
      [
        "▁mention",
        -8.765077179867944
      ],
      [
        "▁clock",
        -9.991985763781523
      ],
      [
        "▁ice",
        -9.134265575820562
      ],
      [
        "▁166",
        -11.901068853582828
      ],
      [
        "775",
        -14.140826648569245
      ],
      [
        "▁quit",
        -8.420873754523155
      ],
      [
        "▁af",
        -10.504862344166291
      ],
      [
        "▁interfere",
        -11.08424644966685
      ],
      [
        "▁southwest",
        -10.487899462797216
      ],
      [
        "▁transmitt",
        -10.557547469064236
      ],
      [
        "▁buddhist",
        -11.084255402050815
      ],
      [
        "▁ball",
        -7.999732829961001
      ],
      [
        "pdf",
        -10.255628992738792
      ],
      [
        "▁rob",
        -10.18374252843906
      ],
      [
        "▁santa",
        -9.527575930950608
      ],
      [
        "▁01/25/200",
        -12.666143543723845
      ],
      [
        "▁8",
        -9.408204222629283
      ],
      [
        "▁confirm",
        -9.2635565498862
      ],
      [
        "▁islami",
        -10.02298010211642
      ],
      [
        "▁affect",
        -9.073841518225603
      ],
      [
        "▁0.3",
        -13.347918746318918
      ],
      [
        "▁gulf",
        -9.683899644226974
      ],
      [
        "▁psych",
        -11.160885993962271
      ],
      [
        "600",
        -11.637633919009222
      ],
      [
        "???????????????",
        -11.554970775406666
      ],
      [
        "▁broke",
        -8.214928836177446
      ],
      [
        "▁got",
        -9.694758974584339
      ],
      [
        "▁shine",
        -11.04270335710804
      ],
      [
        "out",
        -9.061841395065887
      ],
      [
        "▁homosexual",
        -11.084250209205056
      ],
      [
        "▁heat",
        -8.763110575261006
      ],
      [
        "▁90",
        -10.827220631113347
      ],
      [
        "▁fly",
        -7.267932427625445
      ],
      [
        "▁disagree",
        -10.873139847553551
      ],
      [
        "/27/200",
        -11.79969214518781
      ],
      [
        "▁the",
        -3.2262610317436557
      ],
      [
        "endou",
        -10.81039620476071
      ],
      [
        "▁chan",
        -10.819596805044338
      ],
      [
        "▁network",
        -9.385474428738236
      ],
      [
        "▁159",
        -10.436268207533201
      ],
      [
        "▁fifth",
        -9.452232373785431
      ],
      [
        "▁za",
        -9.366009149676747
      ],
      [
        "inst",
        -8.311210208200961
      ],
      [
        "▁emission",
        -10.421660995390901
      ],
      [
        "▁phil",
        -6.981496531733103
      ],
      [
        "▁t.",
        -10.982348734523061
      ],
      [
        ":39:",
        -13.171812098358993
      ],
      [
        ".7",
        -12.938338581276017
      ],
      [
        "▁scrambl",
        -10.973139103297207
      ],
      [
        "▁wow",
        -9.364503754678372
      ],
      [
        "uh",
        -8.20771102106255
      ],
      [
        "▁section",
        -8.96936023308644
      ],
      [
        "tial",
        -10.123767922022834
      ],
      [
        "by",
        -12.22496603737503
      ],
      [
        "▁.........",
        -13.519393851272076
      ],
      [
        "▁teacher",
        -8.915643045252391
      ],
      [
        "▁agricultural",
        -10.366051476349973
      ],
      [
        "▁manager",
        -9.110328011213706
      ],
      [
        "him",
        -9.53100735965861
      ],
      [
        "*",
        -8.451504526190725
      ],
      [
        "20",
        -9.664350029724119
      ],
      [
        "▁ethnocentri",
        -11.084250208892616
      ],
      [
        "▁4",
        -9.981226615369412
      ],
      [
        "▁713-8",
        -14.144922617056222
      ],
      [
        "▁..",
        -12.692418167268967
      ],
      [
        "▁p.m",
        -10.254386378599051
      ],
      [
        "ty-",
        -14.613439696182809
      ],
      [
        "ists",
        -9.913637173474573
      ],
      [
        "▁sound",
        -8.231313584953632
      ],
      [
        "▁stadium",
        -10.87313912836256
      ],
      [
        "▁label",
        -10.225638731557837
      ],
      [
        "03:4",
        -15.341353967809003
      ],
      [
        "oach",
        -9.17870659778825
      ],
      [
        "804",
        -15.394592738338076
      ],
      [
        "col",
        -10.000125359167338
      ],
      [
        "▁he",
        -9.296821485417924
      ],
      [
        "5,7",
        -13.612706607221202
      ],
      [
        "▁aisle",
        -11.084449726584925
      ],
      [
        "ir",
        -9.122160282993223
      ],
      [
        "▁encounter",
        -10.550545984719854
      ],
      [
        "▁agreement",
        -8.511502147942181
      ],
      [
        "▁yan",
        -10.876802819939188
      ],
      [
        "▁favorite",
        -8.914110698792726
      ],
      [
        "002",
        -14.610042165457877
      ],
      [
        "etic",
        -10.543931013159224
      ],
      [
        "▁stars",
        -10.446578348065646
      ],
      [
        "▁ya",
        -9.476042642476957
      ],
      [
        "▁valid",
        -10.204870113274898
      ],
      [
        "▁handl",
        -10.323534643606212
      ],
      [
        "uction",
        -10.371252983794573
      ],
      [
        "▁sola",
        -10.746024876768761
      ],
      [
        "▁mur",
        -10.987044337471406
      ],
      [
        "▁kansa",
        -8.539770468004393
      ],
      [
        "▁assume",
        -9.530681234997301
      ],
      [
        "z",
        -11.75883878858786
      ],
      [
        "▁unemploy",
        -10.15680767686933
      ],
      [
        "419",
        -15.147059457703023
      ],
      [
        "▁road",
        -8.43327568167518
      ],
      [
        "▁envelope",
        -11.094138390792462
      ],
      [
        "▁193",
        -11.57227697613682
      ],
      [
        "▁wh",
        -10.483639927514325
      ],
      [
        "/22/200",
        -13.13396136511428
      ],
      [
        "ight",
        -12.834719490624838
      ],
      [
        "696",
        -12.743389716032901
      ],
      [
        "cinna",
        -10.873620870596088
      ],
      [
        "4.",
        -14.018402976933865
      ],
      [
        "▁services",
        -8.815271832094506
      ],
      [
        "▁1754",
        -12.676592216331011
      ],
      [
        "▁shelter",
        -10.550991501949838
      ],
      [
        "inches",
        -10.859283484310678
      ],
      [
        "6",
        -9.073734559914337
      ],
      [
        "198",
        -12.614044660337436
      ],
      [
        "▁gone",
        -8.432336216418669
      ],
      [
        "6.3",
        -14.15124683494006
      ],
      [
        "▁functional",
        -10.076453321198054
      ],
      [
        "▁blank",
        -9.985967813730909
      ],
      [
        "▁persian",
        -10.873516893617701
      ],
      [
        "▁mood",
        -10.80088021996229
      ],
      [
        "▁interior",
        -10.484951003392592
      ],
      [
        "▁hill",
        -9.566889628728445
      ],
      [
        "▁imagine",
        -9.043286949930211
      ],
      [
        "demic",
        -10.699018809228818
      ],
      [
        "▁choo",
        -10.111816456168068
      ],
      [
        "▁time",
        -6.0771170514633415
      ],
      [
        "3.0",
        -14.167747683965413
      ],
      [
        "▁personalit",
        -10.590570452780067
      ],
      [
        "▁sir",
        -9.875637114542162
      ],
      [
        "▁adequate",
        -10.208911520232537
      ],
      [
        "▁sand",
        -11.37984854168598
      ],
      [
        "▁doggie",
        -8.585602087281515
      ],
      [
        "▁spore",
        -10.874514914584548
      ],
      [
        "ami",
        -11.171813005991753
      ],
      [
        "▁medica",
        -9.54727541524291
      ],
      [
        "▁sauce",
        -10.421543581335143
      ],
      [
        "▁crisp",
        -10.976628823118238
      ],
      [
        "▁passport",
        -10.55121168145962
      ],
      [
        "▁spend",
        -8.916611899490949
      ],
      [
        "n",
        -3.3255869364285537
      ],
      [
        "▁regular",
        -9.058216524715608
      ],
      [
        "▁mc",
        -9.628672447463806
      ],
      [
        "▁north",
        -8.13960940319174
      ],
      [
        "▁va",
        -13.588427220972488
      ],
      [
        "▁federal",
        -9.208650277256993
      ],
      [
        "▁register",
        -9.947687800632444
      ],
      [
        "▁639",
        -13.138918451395153
      ],
      [
        "▁levi",
        -10.975562109103297
      ],
      [
        "urler",
        -11.195041481570172
      ],
      [
        "▁pray",
        -10.54586515302908
      ],
      [
        "▁$",
        -13.370188823105776
      ],
      [
        "▁jesu",
        -10.622448360598924
      ],
      [
        "311",
        -13.198320466201265
      ],
      [
        "▁---",
        -13.066352447763768
      ],
      [
        "rs",
        -10.527302468335112
      ],
      [
        "▁01/1",
        -11.985543249189035
      ],
      [
        "▁independen",
        -9.77064997430328
      ],
      [
        "▁borgi",
        -11.086483350127166
      ],
      [
        "crazy",
        -10.157027014643486
      ],
      [
        "▁shoul",
        -7.016245635624686
      ],
      [
        "cin",
        -12.841946993867692
      ],
      [
        "▁vin",
        -10.587056823347234
      ],
      [
        "▁district",
        -9.683897364850015
      ],
      [
        "▁garden",
        -9.058277219690027
      ],
      [
        "▁onion",
        -10.320959234672143
      ],
      [
        "▁antonio",
        -10.421492793025996
      ],
      [
        "×",
        -11.833785825435129
      ],
      [
        "▁hammer",
        -10.421395625710122
      ],
      [
        "▁pregnan",
        -10.483878886229391
      ],
      [
        "0.9",
        -15.298300968100726
      ],
      [
        "erome",
        -10.519516830348334
      ],
      [
        "▁important",
        -8.002763386549248
      ],
      [
        "▁enjoy",
        -8.204305387255843
      ],
      [
        "▁chairman",
        -10.310408972950427
      ],
      [
        "▁group",
        -7.486920746737258
      ],
      [
        "▁comment",
        -8.592913554637315
      ],
      [
        "▁08:",
        -12.893960135802667
      ],
      [
        "▁l",
        -12.135684204254645
      ],
      [
        "1-1",
        -13.213214100529337
      ],
      [
        "▁civilization",
        -10.62206643398177
      ],
      [
        "yon",
        -14.389299085700888
      ],
      [
        "ugh",
        -8.690765165144809
      ],
      [
        "▁belo",
        -9.677261835659987
      ],
      [
        "▁no-4",
        -13.278173271145702
      ],
      [
        "958",
        -13.341006206325526
      ],
      [
        "▁abc",
        -10.55315817587254
      ],
      [
        "phone",
        -9.775553562698688
      ],
      [
        "e",
        -4.602601403317653
      ],
      [
        "▁reception",
        -10.550865507729316
      ],
      [
        "▁left",
        -7.802147178864391
      ],
      [
        "sit",
        -11.467061234695631
      ],
      [
        "▁11:",
        -12.774231487304522
      ],
      [
        "▁11:4",
        -12.172957016856621
      ],
      [
        "ological",
        -10.202655226948623
      ],
      [
        "ther",
        -7.090046076519713
      ],
      [
        "▁extraordinar",
        -10.483878358852513
      ],
      [
        "▁virgi",
        -10.42137848210575
      ],
      [
        "▁slim",
        -10.78225422358552
      ],
      [
        "sixt",
        -14.516672584551014
      ],
      [
        "▁cleric",
        -10.973176579381743
      ],
      [
        "▁celebration",
        -10.484871031734622
      ],
      [
        "▁tuesday",
        -7.9493302519740325
      ],
      [
        "▁crucial",
        -10.204367698919711
      ],
      [
        "val",
        -10.083863660740562
      ],
      [
        "▁bra",
        -10.249151430181135
      ],
      [
        "▁foundation",
        -9.784632926658542
      ],
      [
        "▁shu",
        -11.075652444865925
      ],
      [
        "▁unnecessar",
        -11.20925021182549
      ],
      [
        "▁josh",
        -10.290418357686457
      ],
      [
        "oc",
        -9.067274792690016
      ],
      [
        "▁gentleman",
        -11.085593229846864
      ],
      [
        "▁locomoti",
        -10.698896705336098
      ],
      [
        "bond",
        -11.105194501331919
      ],
      [
        "▁ga",
        -8.032894666866108
      ],
      [
        "▁prevail",
        -10.87313950421714
      ],
      [
        "▁tw",
        -8.869397554264346
      ],
      [
        "▁scale",
        -9.84071725393196
      ],
      [
        "▁mu",
        -9.426527072591902
      ],
      [
        "▁bat",
        -9.819321890693324
      ],
      [
        "▁we",
        -12.03066344970174
      ],
      [
        "▁shal",
        -8.887905078232697
      ],
      [
        "▁160",
        -10.48923474133084
      ],
      [
        "▁step",
        -8.51172678844682
      ],
      [
        "yard",
        -10.624917448303096
      ],
      [
        "_______",
        -10.805570786638603
      ],
      [
        "▁alt.animals.",
        -10.553587556405924
      ],
      [
        "▁dal",
        -10.650001091976666
      ],
      [
        "▁mutual",
        -10.782235539557208
      ],
      [
        "▁68",
        -13.449249827824032
      ],
      [
        "▁315-460-334",
        -13.136770579354717
      ],
      [
        "▁urs",
        -8.863958073948023
      ],
      [
        "▁!!!!",
        -9.884799963893974
      ],
      [
        "▁hub",
        -10.801801898119855
      ],
      [
        "oo",
        -10.573184319002314
      ],
      [
        "1,000",
        -11.27392768544954
      ],
      [
        "▁penalt",
        -10.782640377643007
      ],
      [
        "▁tell",
        -6.906932338357019
      ],
      [
        "▁spider",
        -9.283295180277678
      ],
      [
        "orland",
        -8.410516301592102
      ],
      [
        "oul",
        -7.370660610853056
      ],
      [
        "▁yoyo",
        -10.973143194596831
      ],
      [
        "▁precise",
        -9.776355421215523
      ],
      [
        "46-",
        -13.341309110493484
      ],
      [
        "▁efficien",
        -10.198952793563505
      ],
      [
        "aima",
        -8.956940157347182
      ],
      [
        "▁cou",
        -10.858686679206002
      ],
      [
        "▁mm",
        -8.79408386791583
      ],
      [
        "▁must",
        -10.77259595241954
      ],
      [
        "ara",
        -10.38420504990581
      ],
      [
        "ity",
        -6.983142717109059
      ],
      [
        "▁bottom",
        -9.073841554591539
      ],
      [
        "uta",
        -10.96004014275531
      ],
      [
        "▁wall",
        -8.730214424684723
      ],
      [
        "▁search",
        -9.10585886283555
      ],
      [
        "▁tana",
        -10.82534201347118
      ],
      [
        "▁harr",
        -8.007388779922819
      ],
      [
        "▁working",
        -8.325255110505058
      ],
      [
        "▁winn",
        -10.00125401625725
      ],
      [
        "▁li",
        -9.134548271373834
      ],
      [
        "▁hurri",
        -10.782253229947424
      ],
      [
        "▁respond",
        -9.30290202273884
      ],
      [
        "her",
        -11.334030496893174
      ],
      [
        "▁pai",
        -9.136408446243367
      ],
      [
        "•",
        -12.833785825435129
      ],
      [
        "▁rain",
        -8.676584227600062
      ],
      [
        "▁systematic",
        -10.62199773448522
      ],
      [
        "▁eye",
        -7.682078734997096
      ],
      [
        "▁equivalen",
        -10.867578689185054
      ],
      [
        "load",
        -10.945768877218068
      ],
      [
        "448",
        -13.685044922631342
      ],
      [
        "▁advertis",
        -10.027649214794119
      ],
      [
        "*****",
        -11.566808758753416
      ],
      [
        "▁desir",
        -10.48546760983999
      ],
      [
        "▁world",
        -7.097523313472097
      ],
      [
        "937",
        -13.654207620765868
      ],
      [
        "nathan",
        -10.573789380699868
      ],
      [
        "▁good",
        -6.299121307940173
      ],
      [
        "/23/200",
        -12.340640887262518
      ],
      [
        "▁cyclone",
        -10.307023162573316
      ],
      [
        "▁dentist",
        -10.483887671462217
      ],
      [
        "▁kid",
        -8.09327007034939
      ],
      [
        "▁native",
        -10.068069071139936
      ],
      [
        "j",
        -11.993990655777992
      ],
      [
        "▁execute",
        -9.950429432794612
      ],
      [
        "▁canne",
        -11.00107064858711
      ],
      [
        "▁grape",
        -10.067953544676161
      ],
      [
        "▁do",
        -6.734054136865699
      ],
      [
        "▁łodz",
        -10.067815840752065
      ],
      [
        "▁climb",
        -9.208533246993113
      ],
      [
        "▁minim",
        -10.783800087424487
      ],
      [
        "▁responsibilit",
        -9.322902013417542
      ],
      [
        "2:3",
        -14.199321364264762
      ],
      [
        "chernobyl",
        -10.117469147220918
      ],
      [
        "▁cooperati",
        -10.064382514313037
      ],
      [
        "▁pillow",
        -9.475364856555213
      ],
      [
        "eenth",
        -9.71809106585776
      ],
      [
        "656",
        -15.204647324905135
      ],
      [
        "▁call",
        -6.627181724743064
      ],
      [
        "▁curve",
        -10.026154957621898
      ],
      [
        "▁-",
        -6.672550242218496
      ],
      [
        "arra",
        -9.661732579722017
      ],
      [
        "▁(",
        -7.71008126143902
      ],
      [
        "▁studio",
        -10.307000357603705
      ],
      [
        "▁round",
        -7.5928805542551485
      ],
      [
        "hallow",
        -11.103156054070269
      ],
      [
        "&",
        -10.750452492101797
      ],
      [
        "▁histor",
        -10.527085506116299
      ],
      [
        "▁les",
        -14.56971443112576
      ],
      [
        "ius",
        -10.471658471223911
      ],
      [
        "▁romance",
        -10.8115959335913
      ],
      [
        "▁p",
        -13.445667666071774
      ],
      [
        "▁bin",
        -9.6610324373028
      ],
      [
        "▁mari",
        -11.608463054468066
      ],
      [
        "ontario",
        -9.523571022552305
      ],
      [
        "▁piece",
        -7.929776084190847
      ],
      [
        "ban",
        -9.460161785489724
      ],
      [
        "▁advance",
        -9.187060429267405
      ],
      [
        "side",
        -9.307825458137218
      ],
      [
        "-------------",
        -10.204800430093535
      ],
      [
        "▁pot",
        -10.095223320954554
      ],
      [
        "▁experiment",
        -9.942244963103835
      ],
      [
        "quarter",
        -10.75629779434438
      ],
      [
        "tag",
        -11.064948211145376
      ],
      [
        "on",
        -6.434801464072722
      ],
      [
        "▁office",
        -7.822017503973563
      ],
      [
        "▁install",
        -9.873700194819445
      ],
      [
        "▁pure",
        -9.948496827320778
      ],
      [
        "▁w/",
        -13.028036467691175
      ],
      [
        "▁fact",
        -7.942860533828772
      ],
      [
        "▁ga",
        -12.271472656463636
      ],
      [
        "▁congress",
        -9.089726586740422
      ],
      [
        "▁crop",
        -9.849031564781006
      ],
      [
        "▁merit",
        -10.782670180670198
      ],
      [
        "▁cow",
        -9.11295927612094
      ],
      [
        "▁fold",
        -9.769774027660766
      ],
      [
        "▁4.",
        -14.174409290499895
      ],
      [
        "▁boom",
        -9.631582630288975
      ],
      [
        "down",
        -10.066886239285454
      ],
      [
        "▁state",
        -6.990105886890454
      ],
      [
        "even",
        -10.25511015775039
      ],
      [
        "▁79",
        -13.348276525599442
      ],
      [
        "▁put",
        -6.221635324443236
      ],
      [
        "▁integr",
        -10.249748207991805
      ],
      [
        "taking",
        -8.046389070022471
      ],
      [
        "▁w.",
        -10.273830386683649
      ],
      [
        "▁fifteen",
        -10.550682654688673
      ],
      [
        "▁1",
        -10.229035535106615
      ],
      [
        "▁throw",
        -8.451380294034394
      ],
      [
        "▁offer",
        -8.200846703104524
      ],
      [
        "band",
        -10.650115086136228
      ],
      [
        "▁evaluation",
        -10.363863580829555
      ],
      [
        "▁withdraw",
        -10.483878382730937
      ],
      [
        "ww",
        -11.333822930986166
      ],
      [
        "▁further",
        -8.510869129574889
      ],
      [
        "century",
        -8.861814597322066
      ],
      [
        "▁6.2",
        -13.590997101789359
      ],
      [
        "ei",
        -12.533510383517699
      ],
      [
        "▁52",
        -13.489944193561966
      ],
      [
        "▁apple",
        -9.208888715283639
      ],
      [
        "27",
        -10.991960113745261
      ],
      [
        "i",
        -9.80170027582974
      ],
      [
        "▁enterprise",
        -10.873139102883327
      ],
      [
        "▁hog",
        -10.208087255347845
      ],
      [
        "▁ge",
        -10.184432201086087
      ],
      [
        "▁425-",
        -14.137749306873555
      ],
      [
        "▁stuff",
        -8.251634003677033
      ],
      [
        "▁recognize",
        -9.629563296634123
      ],
      [
        "▁ena",
        -10.089514242043123
      ],
      [
        "▁psycholog",
        -9.850127191668175
      ],
      [
        "▁cap",
        -9.28969438673027
      ],
      [
        "▁thirt",
        -11.589558869595724
      ],
      [
        "99",
        -10.043455824054849
      ],
      [
        "▁energy",
        -8.466997461311127
      ],
      [
        "****",
        -11.720199025079861
      ],
      [
        "▁f",
        -12.447108393056931
      ],
      [
        "berkeley",
        -11.08425073845234
      ],
      [
        "▁map",
        -9.449652112771531
      ],
      [
        "▁language",
        -7.949330217281645
      ],
      [
        "▁lantern",
        -10.78223061098274
      ],
      [
        "▁gri",
        -9.915790588367688
      ],
      [
        "1/2",
        -11.189346582601058
      ],
      [
        "▁knock",
        -9.499175025023927
      ],
      [
        "h",
        -4.251603060837544
      ],
      [
        "aat",
        -10.600805449444916
      ],
      [
        "▁1.",
        -11.516512236922686
      ],
      [
        "▁lanka",
        -10.11130469733655
      ],
      [
        "▁ka",
        -11.80448258593769
      ],
      [
        "▁golden",
        -9.876150185289776
      ],
      [
        "▁mission",
        -9.76278801259919
      ],
      [
        "▁kind",
        -7.1335061063185785
      ],
      [
        "▁college",
        -9.02768057999804
      ],
      [
        "twe",
        -7.820873003653288
      ],
      [
        ".12",
        -13.14616394307191
      ],
      [
        "▁ambulance",
        -10.782230293840053
      ],
      [
        "▁endanger",
        -10.782230120846496
      ],
      [
        "andi",
        -12.83477122878123
      ],
      [
        "▁robbi",
        -11.128564904719159
      ],
      [
        "▁conclusion",
        -9.774862157549517
      ],
      [
        "int",
        -12.839402515140927
      ],
      [
        "03",
        -10.997704795848547
      ],
      [
        "110",
        -13.650665772775566
      ],
      [
        "▁cuba",
        -10.104603280832787
      ],
      [
        "▁mat",
        -10.859128195647184
      ],
      [
        "ady",
        -7.638505959234532
      ],
      [
        "▁ne",
        -9.20321900348517
      ],
      [
        "183",
        -12.302789920285466
      ],
      [
        "▁metropoli",
        -11.087056827575786
      ],
      [
        "▁exist",
        -8.520010701450786
      ],
      [
        "▁ah",
        -8.715110230455835
      ],
      [
        "▁micro",
        -9.427415796789694
      ],
      [
        "▁bird",
        -8.378669166328248
      ],
      [
        "▁shore",
        -10.216982745968023
      ],
      [
        "▁4.9",
        -12.967616918539463
      ],
      [
        "▁ruin",
        -9.948368777946149
      ],
      [
        "▁finding",
        -9.422643015323228
      ],
      [
        "▁recover",
        -10.067899112831862
      ],
      [
        "▁ocean",
        -9.874937163773595
      ],
      [
        "▁chef",
        -10.624313700391756
      ],
      [
        "▁de",
        -9.38426533896157
      ],
      [
        "▁sector",
        -9.303006791755726
      ],
      [
        "713",
        -13.119237268663518
      ],
      [
        "it",
        -12.42730772646016
      ],
      [
        "▁ship",
        -8.751198079522283
      ],
      [
        "▁steer",
        -10.97350129065047
      ],
      [
        "▁has",
        -6.8581785637493855
      ],
      [
        "▁instant",
        -10.204377402794236
      ],
      [
        "▁forum",
        -10.484998183881094
      ],
      [
        "===========",
        -11.614216336397975
      ],
      [
        "和",
        -12.833785825435129
      ],
      [
        "▁convert",
        -10.029357588634547
      ],
      [
        "ier",
        -9.34119833028225
      ],
      [
        "▁counsel",
        -10.306999286176705
      ],
      [
        "▁laws",
        -9.8503651936506
      ],
      [
        "prop",
        -10.365018816758838
      ],
      [
        "▁savage",
        -10.483879326471028
      ],
      [
        "▁163",
        -12.509491590173862
      ],
      [
        "▁bear",
        -8.10825277360431
      ],
      [
        "▁administrat",
        -10.066846773898055
      ],
      [
        "ext",
        -7.649550094451105
      ],
      [
        "▁alt",
        -14.29094296191901
      ],
      [
        "▁budget",
        -9.499174560523482
      ],
      [
        "▁increasing",
        -9.452108736266501
      ],
      [
        "▁transparen",
        -10.48387894933041
      ],
      [
        "60",
        -10.949356537605155
      ],
      [
        "▁greas",
        -10.973152101639501
      ],
      [
        "▁useful",
        -9.78515183736997
      ],
      [
        "...",
        -9.00549374806617
      ],
      [
        "▁rub",
        -10.168139659864543
      ],
      [
        "well",
        -10.278309650911378
      ],
      [
        "rry",
        -10.098921721006654
      ],
      [
        "▁operation",
        -9.301029896347814
      ],
      [
        ".37",
        -13.779820701624004
      ],
      [
        "st",
        -12.984708586078437
      ],
      [
        "▁ever",
        -14.41281907387498
      ],
      [
        "▁scot",
        -10.545246675391496
      ],
      [
        "their",
        -9.44630158060195
      ],
      [
        "987",
        -14.893421856703933
      ],
      [
        "▁bench",
        -10.112803623073946
      ],
      [
        "▁momm",
        -8.900877225897347
      ],
      [
        "▁who",
        -9.77453779214179
      ],
      [
        "/15/",
        -14.27211249848015
      ],
      [
        "▁enron",
        -11.78909813905567
      ],
      [
        "▁abilit",
        -9.347728917489423
      ],
      [
        "▁artist",
        -9.776934371833772
      ],
      [
        "▁paw",
        -11.091095130442133
      ],
      [
        "?????",
        -11.077398246995248
      ],
      [
        "nut",
        -10.65491105913275
      ],
      [
        "wha",
        -12.93020360398254
      ],
      [
        "▁color",
        -7.975312836366239
      ],
      [
        "▁92",
        -11.352258743075412
      ],
      [
        "▁movement",
        -9.305682674770164
      ],
      [
        "▁net",
        -9.572443247893244
      ],
      [
        "▁array",
        -11.086151217435793
      ],
      [
        "▁debate",
        -9.343335723780509
      ],
      [
        "▁rose",
        -9.317844527618277
      ],
      [
        "▁origin",
        -9.986028843094855
      ],
      [
        "▁forgot",
        -9.073852814432453
      ],
      [
        "▁report",
        -7.7755583564881805
      ],
      [
        "▁as",
        -8.425093425843384
      ],
      [
        "535",
        -13.34204307208362
      ],
      [
        "▁weaken",
        -10.976991419956672
      ],
      [
        "▁jer",
        -9.9761851117503
      ],
      [
        "▁institute",
        -10.423962749011809
      ],
      [
        "▁conservation",
        -11.209250211288964
      ],
      [
        "747",
        -12.054775261011347
      ],
      [
        "----------------",
        -8.665339290745424
      ],
      [
        "▁memorial",
        -10.69962452396595
      ],
      [
        "▁11/29/",
        -11.588860208461055
      ],
      [
        "▁gum",
        -10.631521985532578
      ],
      [
        "▁4",
        -8.7427837551325
      ],
      [
        "▁620-294-",
        -12.665389467361312
      ],
      [
        "▁faint",
        -11.084267017502647
      ],
      [
        "▁trading",
        -9.743831549720417
      ],
      [
        "▁fit",
        -8.559964024200578
      ],
      [
        "▁couch",
        -10.070680095625164
      ],
      [
        "▁199",
        -8.832557886515346
      ],
      [
        "▁surgeon",
        -10.874727293739172
      ],
      [
        "▁background",
        -9.911567567866742
      ],
      [
        "**************",
        -12.417404986949427
      ],
      [
        "▁website",
        -8.800046261706354
      ],
      [
        "▁tru",
        -9.800951603678632
      ],
      [
        "▁beneficia",
        -10.973375269007084
      ],
      [
        "ought",
        -10.226220826128586
      ],
      [
        "▁wiggle",
        -9.98728672386784
      ],
      [
        "ng",
        -7.326946056636672
      ],
      [
        "muel",
        -10.34189084126414
      ],
      [
        "▁cuc",
        -10.702438069313784
      ],
      [
        "▁welcom",
        -11.01712026475972
      ],
      [
        "▁fork",
        -9.685730496842861
      ],
      [
        "to",
        -9.200376153881685
      ],
      [
        "▁excess",
        -10.550562445581454
      ],
      [
        "▁b",
        -8.234301792178817
      ],
      [
        "▁window",
        -8.417129021806172
      ],
      [
        "ax",
        -9.18009830267879
      ],
      [
        "▁convey",
        -11.084416653453022
      ],
      [
        "▁***",
        -11.49918194768145
      ],
      [
        "aja",
        -10.335956040603655
      ],
      [
        "▁edward",
        -10.026649394389592
      ],
      [
        "▁standards",
        -9.257269154148753
      ],
      [
        "▁hung",
        -9.81963923021652
      ],
      [
        "▁stroll",
        -10.550715348338382
      ],
      [
        "▁bother",
        -9.68913144319813
      ],
      [
        "ill",
        -9.453818242452193
      ],
      [
        "sie",
        -11.754802446786904
      ],
      [
        "▁hi",
        -8.170927441392577
      ],
      [
        "alaba",
        -10.553160435148431
      ],
      [
        "y",
        -9.961283824744118
      ],
      [
        "177",
        -13.361139344580993
      ],
      [
        "▁robe",
        -10.828161857964457
      ],
      [
        "478",
        -12.695291570287178
      ],
      [
        "▁horribl",
        -9.574205454371512
      ],
      [
        "▁899-4",
        -13.136770620605853
      ],
      [
        "▁376",
        -14.053687754394755
      ],
      [
        "▁site",
        -8.50319084476613
      ],
      [
        "▁pro",
        -8.946599094671818
      ],
      [
        "nde",
        -12.81357135271133
      ],
      [
        "▁proceeding",
        -10.668841601076785
      ],
      [
        "ot",
        -13.942176270461372
      ],
      [
        "▁project",
        -8.146639795652543
      ],
      [
        "▁mouss",
        -10.700183873829056
      ],
      [
        "▁branch",
        -10.77560239826677
      ],
      [
        "▁guid",
        -10.19700847883468
      ],
      [
        "▁phillip",
        -10.782234522955564
      ],
      [
        "delhi",
        -10.02637984006667
      ],
      [
        "▁dangerous",
        -9.226805459243224
      ],
      [
        "▁113",
        -13.113565674700752
      ],
      [
        "29.",
        -13.145976147055816
      ],
      [
        "▁ham",
        -9.280060565766112
      ],
      [
        "▁swap",
        -10.98790692180973
      ],
      [
        "▁tin",
        -8.692355116401423
      ],
      [
        "▁allow",
        -8.804257228262099
      ],
      [
        "▁movie",
        -8.396301792864575
      ],
      [
        "▁345",
        -12.680343372250725
      ],
      [
        "▁bac",
        -10.425217228104895
      ],
      [
        "-40",
        -14.138646239169772
      ],
      [
        "if",
        -10.98301713511345
      ],
      [
        "▁mo",
        -11.730657660372193
      ],
      [
        "▁figure",
        -8.55674353959412
      ],
      [
        "2",
        -10.53881921003439
      ],
      [
        "▁partner",
        -10.349314017229075
      ],
      [
        "▁gar",
        -11.938717667428307
      ],
      [
        "ecca",
        -10.938936590055048
      ],
      [
        "-----------",
        -11.0313601562369
      ],
      [
        "▁elder",
        -10.484244448914763
      ],
      [
        "▁cradle",
        -10.873139415213295
      ],
      [
        "cious",
        -10.899994821185008
      ],
      [
        "▁fr",
        -10.153127594799267
      ],
      [
        "▁ethic",
        -10.790297215860974
      ],
      [
        "▁flew",
        -10.698948896580314
      ],
      [
        "12",
        -10.505726646373432
      ],
      [
        "then",
        -6.304621920954483
      ],
      [
        "▁5,",
        -14.439061198417924
      ],
      [
        "▁landing",
        -10.551452720486946
      ],
      [
        "▁17,",
        -14.128355496279143
      ],
      [
        "▁foster",
        -11.084467409001967
      ],
      [
        "▁ones",
        -12.644688079861357
      ],
      [
        "▁confident",
        -10.25421752301807
      ],
      [
        "ba",
        -9.362308715097319
      ],
      [
        "▁whee",
        -10.779511923805421
      ],
      [
        "▁banjo",
        -10.698956502375562
      ],
      [
        "▁averag",
        -9.523692171080093
      ],
      [
        "\"",
        -4.250245863309695
      ],
      [
        "nook",
        -10.166981447595251
      ],
      [
        "▁paine",
        -10.227321389786928
      ],
      [
        "▁moderate",
        -10.701869998622572
      ],
      [
        "ett",
        -13.27741638829742
      ],
      [
        "▁emerg",
        -9.520259465764106
      ],
      [
        "woul",
        -8.996040675627025
      ],
      [
        "▁sevent",
        -11.493210934503708
      ],
      [
        "son@",
        -12.833766077176563
      ],
      [
        "▁eve",
        -10.429775631390832
      ],
      [
        "▁civilize",
        -10.484638688785727
      ],
      [
        "▁funn",
        -8.652168365494113
      ],
      [
        "▁cartoon",
        -9.774865484621335
      ],
      [
        "-94",
        -14.16160002340399
      ],
      [
        "▁instrument",
        -10.69889667364693
      ],
      [
        "▁law",
        -8.146995868553539
      ],
      [
        "▁literal",
        -10.216435973081543
      ],
      [
        "6.1",
        -12.319184560544814
      ],
      [
        "▁kell",
        -10.994236221906172
      ],
      [
        "120",
        -14.384824411656979
      ],
      [
        "▁alway",
        -7.494077491090278
      ],
      [
        "▁arrive",
        -7.901899479042666
      ],
      [
        "▁abbreviation",
        -11.084250208928754
      ],
      [
        ":15",
        -12.622561123925353
      ],
      [
        "▁charles",
        -10.073862865423585
      ],
      [
        "▁prop",
        -12.834253715479338
      ],
      [
        "▁rank",
        -9.897470499584426
      ],
      [
        "51",
        -13.168608066560093
      ],
      [
        "ty",
        -8.090588672545262
      ],
      [
        "▁geographical",
        -10.62406800676357
      ],
      [
        "▁moment",
        -8.557791436270698
      ],
      [
        "ten",
        -9.120651061828884
      ],
      [
        "▁incredibl",
        -10.026149544886373
      ],
      [
        "▁carrot",
        -10.254409270645382
      ],
      [
        "242",
        -14.030035387229578
      ],
      [
        "▁pitt",
        -6.833825180859635
      ],
      [
        "859",
        -12.901515156474915
      ],
      [
        "▁16",
        -9.23781676418377
      ],
      [
        "▁hook",
        -10.63727748395278
      ],
      [
        "▁5.",
        -12.27680653524275
      ],
      [
        "▁receipt",
        -10.483878368499408
      ],
      [
        "97",
        -11.603342702020502
      ],
      [
        "▁commission",
        -8.3410138646631
      ],
      [
        "▁trem",
        -10.783530300177619
      ],
      [
        "▁sympath",
        -10.306999293729387
      ],
      [
        "▁own",
        -7.355152662122664
      ],
      [
        "46-5",
        -15.42887903727835
      ],
      [
        "▁mo",
        -8.504125468166889
      ],
      [
        "▁dunn",
        -10.782321786566396
      ],
      [
        "uc",
        -12.842263175669295
      ],
      [
        "▁treatment",
        -9.265273919885482
      ],
      [
        "▁predator",
        -10.254372035817202
      ],
      [
        "▁choice",
        -9.0428396835315
      ],
      [
        "-4",
        -12.857549285628794
      ],
      [
        "▁urban",
        -10.067824236583757
      ],
      [
        "▁depart",
        -8.546685954523994
      ],
      [
        "514",
        -14.796244535458387
      ],
      [
        "▁francis",
        -11.087628223068057
      ],
      [
        "▁5.3",
        -12.917050090092493
      ],
      [
        "▁lope",
        -9.840881221715945
      ],
      [
        "‘",
        -14.136770579354707
      ],
      [
        "▁vogel",
        -12.833785843711352
      ],
      [
        "▁weekday",
        -10.552593004906736
      ],
      [
        "▁why",
        -6.9237535254701035
      ],
      [
        "▁possesse",
        -10.973174792224851
      ],
      [
        "▁202",
        -11.617891900155046
      ],
      [
        "▁compassion",
        -11.084250339928246
      ],
      [
        "▁shout",
        -10.307112749166887
      ],
      [
        "▁1.0",
        -13.891586422040149
      ],
      [
        "fore",
        -8.751763233800682
      ],
      [
        "▁hoo",
        -10.193322045195066
      ],
      [
        "▁laid",
        -10.069988113535608
      ],
      [
        "▁sponsor",
        -10.782231072615552
      ],
      [
        "▁tons",
        -10.64213656056911
      ],
      [
        "▁export",
        -9.499238822260022
      ],
      [
        "ham",
        -9.872893983544602
      ],
      [
        "▁sail",
        -10.186589821493465
      ],
      [
        "▁qu",
        -10.412207750123624
      ],
      [
        "▁973-",
        -13.136809148661033
      ],
      [
        "▁attempt",
        -8.75324748236065
      ],
      [
        "▁tree",
        -8.66131432277415
      ],
      [
        "1",
        -7.526925805932845
      ],
      [
        "▁instance",
        -9.71432769384752
      ],
      [
        "200",
        -8.756247508088084
      ],
      [
        "▁bond",
        -10.161035225666378
      ],
      [
        "through",
        -10.025984896003525
      ],
      [
        "389",
        -14.104025639813527
      ],
      [
        "tery",
        -10.722350268244758
      ],
      [
        "▁threat",
        -9.362625527334512
      ],
      [
        "800",
        -11.90740677986232
      ],
      [
        "▁coupon",
        -10.624072695211321
      ],
      [
        "▁depr",
        -11.110454232042768
      ],
      [
        "▁compensation",
        -11.084250316031385
      ],
      [
        "▁320",
        -12.642809539566732
      ],
      [
        "▁steve",
        -9.942482136974146
      ],
      [
        "go",
        -7.828250290974991
      ],
      [
        "▁shorts",
        -10.49088240066591
      ],
      [
        "▁emotion",
        -10.967011937434215
      ],
      [
        "ver",
        -11.941202826001042
      ],
      [
        "▁hermi",
        -10.699223612173219
      ],
      [
        "▁b/",
        -12.079815656165396
      ],
      [
        "time",
        -8.809829255372616
      ],
      [
        "▁notabl",
        -11.189700688768166
      ],
      [
        "▁...",
        -8.834242688166903
      ],
      [
        "▁grass",
        -9.747686775499886
      ],
      [
        "▁reaction",
        -10.111881543821
      ],
      [
        "▁us",
        -11.512281127981279
      ],
      [
        "▁supplement",
        -10.782321196666741
      ],
      [
        "▁06:0",
        -12.34229211102906
      ],
      [
        "▁translat",
        -10.563970159340064
      ],
      [
        "i",
        -2.8124076435862957
      ],
      [
        "▁challenge",
        -9.233768861981016
      ],
      [
        "val",
        -11.34840342049047
      ],
      [
        "▁amuse",
        -10.885630252194463
      ],
      [
        "▁florid",
        -9.550972857015589
      ],
      [
        "an",
        -7.749024924842498
      ],
      [
        "▁quick",
        -8.308569840722752
      ],
      [
        "▁father",
        -7.9196914763000725
      ],
      [
        "▁twel",
        -10.421944521785559
      ],
      [
        "▁commissioner",
        -9.897748857497746
      ],
      [
        "▁h-02",
        -12.636821816479886
      ],
      [
        "▁george",
        -8.510863764464974
      ],
      [
        "▁painful",
        -11.086559195918362
      ],
      [
        "▁steps",
        -9.47062441429753
      ],
      [
        "b",
        -5.33099299341527
      ],
      [
        "pool",
        -10.86570847116308
      ],
      [
        "yo",
        -15.099394858063626
      ],
      [
        "▁scatter",
        -10.782232701828015
      ],
      [
        "▁lb",
        -10.783618444690232
      ],
      [
        "▁reject",
        -10.15674876379641
      ],
      [
        "▁clo",
        -10.872281236244511
      ],
      [
        "▁worship",
        -10.779421287507963
      ],
      [
        "40",
        -11.0758074842878
      ],
      [
        "?????????????",
        -12.716038584967094
      ],
      [
        "▁manuscript",
        -10.873139609598834
      ],
      [
        "▁40",
        -10.154022803970173
      ],
      [
        "▁columb",
        -9.416684963412077
      ],
      [
        "▁kill",
        -8.62201226921261
      ],
      [
        "▁symbol",
        -10.421182334513556
      ],
      [
        "mart",
        -10.440612187667245
      ],
      [
        "▁book",
        -7.220696943215867
      ],
      [
        "▁oliv",
        -9.579439993800401
      ],
      [
        "ur",
        -10.506677442453602
      ],
      [
        "▁ago",
        -8.30489380358946
      ],
      [
        "▁toll",
        -10.39540193772413
      ],
      [
        "▁basi",
        -9.223738261959738
      ],
      [
        "▁71",
        -12.274014452628188
      ],
      [
        "▁res",
        -13.761319965363798
      ],
      [
        "▁sooner",
        -10.400181632701488
      ],
      [
        "e",
        -3.1746558395188575
      ],
      [
        "v",
        -10.803216070016004
      ],
      [
        "▁firm",
        -9.264443195184324
      ],
      [
        "▁found",
        -7.662833526269344
      ],
      [
        "▁arrest",
        -9.655336391081956
      ],
      [
        "nix",
        -8.167615380050695
      ],
      [
        "▁violen",
        -10.275246393532704
      ],
      [
        "▁aspect",
        -9.190640413785733
      ],
      [
        "▁202.456.1",
        -12.340123241055274
      ],
      [
        "▁concentration",
        -10.622230306402338
      ],
      [
        "our",
        -14.203397884361365
      ],
      [
        "+",
        -10.373814954979327
      ],
      [
        "genda",
        -10.29826526687497
      ],
      [
        "▁absolute",
        -9.173094137321737
      ],
      [
        "▁2.",
        -11.054466946326201
      ],
      [
        "lve",
        -15.294268364475524
      ],
      [
        "▁tulsa",
        -10.026151011125464
      ],
      [
        "▁11/2",
        -13.63209223626771
      ],
      [
        "▁contrast",
        -10.700966935499807
      ],
      [
        "▁poop",
        -10.206310785270084
      ],
      [
        "look",
        -10.757386026713824
      ],
      [
        "▁noon",
        -8.408007409882366
      ],
      [
        "ful",
        -7.756954765414779
      ],
      [
        "▁or",
        -9.547816572173035
      ],
      [
        "▁robin",
        -9.208700614259355
      ],
      [
        "▁facult",
        -10.30700205514011
      ],
      [
        "avia",
        -10.558225672703909
      ],
      [
        "▁developer",
        -10.673851438671011
      ],
      [
        "ca",
        -9.144750437210643
      ],
      [
        "ka",
        -11.598593399000144
      ],
      [
        "▁prefer",
        -10.036384042793918
      ],
      [
        "▁bug",
        -9.144577828000006
      ],
      [
        "ly",
        -12.684573575705421
      ],
      [
        "▁depict",
        -10.78381867318382
      ],
      [
        "▁buri",
        -10.783036128557075
      ],
      [
        "▁hav",
        -6.307941970917242
      ],
      [
        "▁killing",
        -10.080638348429739
      ],
      [
        "▁associate",
        -9.22667695934851
      ],
      [
        "▁explosive",
        -11.209250209117135
      ],
      [
        "emp",
        -11.876212475785815
      ],
      [
        "▁lip",
        -10.716563262835747
      ],
      [
        "en",
        -10.985878271782049
      ],
      [
        "ya",
        -12.271013452895534
      ],
      [
        "▁pony",
        -10.783132127397295
      ],
      [
        "ul",
        -12.144280310333304
      ],
      [
        "$",
        -13.701907056799465
      ],
      [
        "nfant",
        -10.483870515745163
      ],
      [
        "▁moon",
        -9.271432626961925
      ],
      [
        "▁inside",
        -8.956089121354628
      ],
      [
        "we",
        -8.084226335730307
      ],
      [
        "▁11:3",
        -11.27190361061721
      ],
      [
        "ist",
        -8.227925635947678
      ],
      [
        "-90",
        -13.068844075328697
      ],
      [
        "▁weapon",
        -9.039450327971604
      ],
      [
        "▁han",
        -10.372876117014705
      ],
      [
        "▁z",
        -11.679987020174599
      ],
      [
        "▁inevitabl",
        -10.550545110781142
      ],
      [
        "+",
        -9.375196107582328
      ],
      [
        "▁thing",
        -6.598772447468989
      ],
      [
        "▁scientology",
        -9.364982753419213
      ],
      [
        "at",
        -10.21675534638704
      ],
      [
        "▁laptop",
        -10.973202611702124
      ],
      [
        "▁restor",
        -10.495184972482729
      ],
      [
        "▁again",
        -7.029466446335007
      ],
      [
        "mike",
        -8.877175224612067
      ],
      [
        "▁right",
        -11.051770298862332
      ],
      [
        "▁val",
        -9.47660142037704
      ],
      [
        "02/",
        -14.117092650879103
      ],
      [
        "▁+++",
        -12.358572978158323
      ],
      [
        "▁memoir",
        -10.782232839824534
      ],
      [
        "▁tri",
        -8.384749075884825
      ],
      [
        "&",
        -9.650196930708166
      ],
      [
        "▁08:1",
        -13.967495779385963
      ],
      [
        "6867",
        -13.137027010564198
      ],
      [
        "½",
        -14.136770579354717
      ],
      [
        "▁)",
        -8.872842140444845
      ],
      [
        "▁size",
        -8.943134331160117
      ],
      [
        "nson@enron",
        -11.833845510207494
      ],
      [
        "1/",
        -13.869957499964794
      ],
      [
        "man",
        -12.141727430762012
      ],
      [
        "▁retreat",
        -10.87313914459913
      ],
      [
        "▁dislike",
        -10.551371030564349
      ],
      [
        "▁structure",
        -8.97181510545484
      ],
      [
        "古",
        -12.833785825435129
      ],
      [
        "▁gear",
        -10.6996935562554
      ],
      [
        "▁5",
        -11.486037404032146
      ],
      [
        "▁afternoon",
        -7.758943884537265
      ],
      [
        "▁198",
        -9.942974826774227
      ],
      [
        "▁remote",
        -10.62202741693656
      ],
      [
        "▁pay",
        -8.09979969254273
      ],
      [
        "▁eat",
        -6.849259437185254
      ],
      [
        "▁wonder",
        -8.604444397065972
      ],
      [
        "72",
        -11.567392815125885
      ],
      [
        "ford",
        -9.786995027015621
      ],
      [
        "elve",
        -8.718995318874823
      ],
      [
        "'",
        -9.44936229819311
      ],
      [
        "▁m",
        -11.005205169478105
      ],
      [
        "bun",
        -10.560419836200156
      ],
      [
        "rui",
        -11.834054007462155
      ],
      [
        "▁184",
        -11.262160856172255
      ],
      [
        "▁abbas",
        -10.55056130100833
      ],
      [
        "oatme",
        -10.778654167455988
      ],
      [
        "▁draw",
        -8.023142053893745
      ],
      [
        "stead",
        -8.272547320490578
      ],
      [
        "▁rip",
        -9.74814727716516
      ],
      [
        "pa",
        -13.720982255518187
      ],
      [
        "force",
        -10.660635018840182
      ],
      [
        "▁appropriate",
        -9.432296933988706
      ],
      [
        "▁bangladesh",
        -10.867528499405825
      ],
      [
        "▁as",
        -6.912757811287375
      ],
      [
        "▁direct",
        -8.406305212865606
      ],
      [
        "▁company",
        -8.128477239894305
      ],
      [
        "▁202.",
        -14.06696132614932
      ],
      [
        "▁gar",
        -9.858379495443078
      ],
      [
        "1918",
        -11.546116586931635
      ],
      [
        "craft",
        -8.465931625215791
      ],
      [
        "wildlife",
        -10.552955185858414
      ],
      [
        "▁consent",
        -10.786497342468856
      ],
      [
        "▁michael",
        -9.173094140490939
      ],
      [
        "▁connect",
        -9.363794353351953
      ],
      [
        "▁glacier",
        -11.084250209879071
      ],
      [
        "▁ridiculous",
        -10.873309578703292
      ],
      [
        "ow",
        -9.925344315070316
      ],
      [
        "▁sustain",
        -9.744585281804113
      ],
      [
        "▁session",
        -9.774872792862244
      ],
      [
        "▁ko",
        -9.426190994450568
      ],
      [
        "ent",
        -8.721089345305105
      ],
      [
        "▁review",
        -8.191228696821646
      ],
      [
        "hood",
        -9.736592906049385
      ],
      [
        "[MASK]",
        0.0
      ],
      [
        "53-3",
        -13.165316267144014
      ],
      [
        "▁material",
        -9.027680630673654
      ],
      [
        "ily",
        -9.067209170638304
      ],
      [
        "▁litera",
        -9.55165512951099
      ],
      [
        "▁exp",
        -12.831553775942016
      ],
      [
        "4.4",
        -13.305398854713752
      ],
      [
        "▁rental",
        -9.746425132348913
      ],
      [
        "▁718-780-0",
        -13.136770579315208
      ],
      [
        "ladie",
        -10.653143941266732
      ],
      [
        "▁sovereign",
        -10.550545035231512
      ],
      [
        "▁catch",
        -8.789110931341876
      ],
      [
        "▁secretary",
        -9.575888758086439
      ],
      [
        "▁summ",
        -10.780632045419036
      ],
      [
        "mai",
        -13.010525709899309
      ],
      [
        "▁978",
        -14.088774827596916
      ],
      [
        "ff",
        -11.980794772189306
      ],
      [
        "internet",
        -8.73156106710295
      ],
      [
        "▁argentin",
        -10.111294106890856
      ],
      [
        "▁stable",
        -10.996689230876141
      ],
      [
        "▁interrupt",
        -10.625044490176375
      ],
      [
        "▁elite",
        -10.550816276136345
      ],
      [
        "▁symptom",
        -11.084297502871946
      ],
      [
        "▁headache",
        -10.974435596490418
      ],
      [
        "▁global",
        -8.67628738823569
      ],
      [
        "▁2.9",
        -12.683758666043076
      ],
      [
        "bever",
        -11.340099135873393
      ],
      [
        "▁with",
        -10.577457793838306
      ],
      [
        "▁28",
        -10.454550929746873
      ],
      [
        "▁da",
        -12.782111484042254
      ],
      [
        "▁remember",
        -7.5918894277223075
      ],
      [
        "▁place",
        -6.830668594570771
      ],
      [
        "▁before",
        -8.625549974881018
      ],
      [
        "bit",
        -10.457690702777972
      ],
      [
        "▁hebrew",
        -11.20925021008891
      ],
      [
        "▁western",
        -9.369088236322312
      ],
      [
        "▁06:2",
        -12.823132787264765
      ],
      [
        "▁default",
        -10.204367698915043
      ],
      [
        "ick",
        -10.132046877133082
      ],
      [
        "▁primari",
        -10.64238478458082
      ],
      [
        "▁thes",
        -7.428819531863237
      ],
      [
        "▁designate",
        -11.154347884831648
      ],
      [
        "▁u",
        -9.187278560530263
      ],
      [
        "▁decade",
        -9.155944193568827
      ],
      [
        "▁fer",
        -10.308766693184365
      ],
      [
        "✉",
        -11.333785825435129
      ],
      [
        "▁near",
        -8.493275322131007
      ],
      [
        "▁39",
        -12.103642793380352
      ],
      [
        "wide",
        -10.086089268928692
      ],
      [
        "▁bread",
        -9.014134261037015
      ],
      [
        "▁uh",
        -7.30352553536834
      ],
      [
        "care",
        -10.673365544268542
      ],
      [
        "wear",
        -11.204002201397703
      ],
      [
        "toxic",
        -10.620979383968251
      ],
      [
        "▁fift",
        -10.360459669577793
      ],
      [
        "▁hu",
        -10.54529047320942
      ],
      [
        "master",
        -11.06119709878956
      ],
      [
        "be",
        -7.3382005433760105
      ],
      [
        "rais",
        -10.934649994852478
      ],
      [
        "▁involve",
        -9.483667105606104
      ],
      [
        "▁holder",
        -10.78671918398154
      ],
      [
        "ours",
        -13.89115337414983
      ],
      [
        "ook",
        -11.182728768570309
      ],
      [
        "▁bite",
        -8.882192736897272
      ],
      [
        "igh",
        -12.634214216105143
      ],
      [
        "gur",
        -11.012294776216754
      ],
      [
        "▁vacu",
        -10.973253659171906
      ],
      [
        "ott",
        -9.763156690135414
      ],
      [
        "▁cit",
        -9.32307346964867
      ],
      [
        "▁see",
        -5.838848389374716
      ],
      [
        "9",
        -8.142959650847832
      ],
      [
        "▁sigh",
        -10.967727821731627
      ],
      [
        "▁acupunctur",
        -11.209250208901995
      ],
      [
        "▁option",
        -8.629982394301976
      ],
      [
        "▁sandwich",
        -9.322909567810164
      ],
      [
        "▁measure",
        -8.82170350278074
      ],
      [
        "▁top",
        -8.030367224448653
      ],
      [
        "▁receiv",
        -9.091497159262875
      ],
      [
        "32",
        -11.66985789431288
      ],
      [
        "▁earn",
        -9.688818002807789
      ],
      [
        "▁???",
        -12.15424849418477
      ],
      [
        "re",
        -9.464589152516979
      ],
      [
        "▁disturb",
        -10.782230017059518
      ],
      [
        "▁hil",
        -11.033613786924558
      ],
      [
        "▁when",
        -7.174679026917308
      ],
      [
        "▁microscop",
        -10.705930218179468
      ],
      [
        "▁height",
        -9.986259286483449
      ],
      [
        "▁arrogant",
        -10.30863613314014
      ],
      [
        "6.7",
        -13.007225354165229
      ],
      [
        "▁balloon",
        -9.364163480317831
      ],
      [
        "▁believe",
        -7.85162323027068
      ],
      [
        "▁creativ",
        -11.19971268653034
      ],
      [
        "▁cost",
        -7.890335100128528
      ],
      [
        "▁accurate",
        -9.876345296489148
      ],
      [
        "▁muff",
        -11.086259669152037
      ],
      [
        "▁42",
        -11.224730240689343
      ],
      [
        "[",
        -6.198132057417013
      ],
      [
        "++++++",
        -11.00302849415197
      ],
      [
        "▁wrap",
        -10.20275401625351
      ],
      [
        "▁bust",
        -10.689696948332692
      ],
      [
        "labi",
        -11.104361439136788
      ],
      [
        "▁improv",
        -9.873926820320495
      ],
      [
        "▁ken",
        -9.94309372024912
      ],
      [
        "▁trick",
        -9.775141775574184
      ],
      [
        "▁10:3",
        -12.310518676031213
      ],
      [
        "▁hurry",
        -9.910946570297073
      ],
      [
        "▁out",
        -6.9162441026713815
      ],
      [
        "▁713-79",
        -14.137051361386522
      ],
      [
        "♥",
        -12.833785825435129
      ],
      [
        ")",
        -11.209250208901656
      ],
      [
        "my",
        -8.402523764829514
      ],
      [
        "▁calculate",
        -10.679327286921298
      ],
      [
        "▁principal",
        -10.782230006869987
      ],
      [
        "▁shovel",
        -11.086593187879595
      ],
      [
        "▁che",
        -9.504498449523574
      ],
      [
        "!!!!!!",
        -10.851202100899231
      ],
      [
        "018",
        -13.097555483422404
      ],
      [
        "▁62",
        -12.292935032403633
      ],
      [
        "▁give",
        -6.569044848676262
      ],
      [
        "▁35",
        -10.996138419717749
      ],
      [
        "▁rhino",
        -10.782230774427454
      ],
      [
        "▁harv",
        -10.646021733898124
      ],
      [
        "▁10/31/",
        -13.136852295825431
      ],
      [
        "▁enron",
        -8.301320029435264
      ],
      [
        "744",
        -12.115352357480171
      ],
      [
        "p",
        -9.077018352588304
      ],
      [
        "kan",
        -13.878336595411938
      ],
      [
        "nt",
        -15.500372919647578
      ],
      [
        "▁emotional",
        -10.979304004788368
      ],
      [
        "▁crate",
        -11.084452426312467
      ],
      [
        "▁the",
        -9.847847264519224
      ],
      [
        "▁curious",
        -10.42140571106518
      ],
      [
        "ota",
        -10.081100537911363
      ],
      [
        "▁loan",
        -9.429887506525649
      ],
      [
        "▁fin",
        -10.231516812266767
      ],
      [
        "▁mine",
        -10.774985846253598
      ],
      [
        "▁mount",
        -10.491689334224944
      ],
      [
        "▁ari",
        -10.9643028161149
      ],
      [
        "▁01:",
        -12.702476815545062
      ],
      [
        "shire",
        -10.423135002491737
      ],
      [
        "▁0.00",
        -15.109614267568244
      ],
      [
        "cia",
        -11.33411822771216
      ],
      [
        "▁we",
        -6.530690589681935
      ],
      [
        "▁occur",
        -10.023447959209639
      ],
      [
        "▁shadow",
        -9.87493756778584
      ],
      [
        "▁indi",
        -11.04205246981168
      ],
      [
        "▁brother",
        -8.849407188241042
      ],
      [
        "▁contemporar",
        -10.111294101529586
      ],
      [
        "39",
        -11.637206619097423
      ],
      [
        "▁settle",
        -9.771911506636336
      ],
      [
        "▁employee",
        -9.45261656198875
      ],
      [
        "▁25.",
        -14.40050783365369
      ],
      [
        "▁rode",
        -10.370388089257775
      ],
      [
        "▁18:",
        -13.104846448394454
      ],
      [
        "▁stamp",
        -11.20911858789488
      ],
      [
        "▁usual",
        -8.294175329753353
      ],
      [
        "▁serve",
        -8.037806622712779
      ],
      [
        "▁jones",
        -10.316613612649606
      ],
      [
        "▁bubble",
        -9.910650756671924
      ],
      [
        "▁island",
        -8.22835318912909
      ],
      [
        "▁worst",
        -9.365023829943588
      ],
      [
        "▁able",
        -8.105547329319004
      ],
      [
        "▁summer",
        -8.615156397380883
      ],
      [
        "▁position",
        -8.539686451992031
      ],
      [
        "▁destructi",
        -10.423836529495675
      ],
      [
        "at",
        -11.735037344101684
      ],
      [
        "related",
        -11.117318286679861
      ],
      [
        "▁lodg",
        -10.62261085279007
      ],
      [
        "▁practical",
        -10.03219373853603
      ],
      [
        "▁of",
        -10.271062706744775
      ],
      [
        "mozilla",
        -10.973145272536598
      ],
      [
        "▁trot",
        -10.783143822318094
      ],
      [
        "▁blueberr",
        -10.87348919033801
      ],
      [
        "▁fleet",
        -11.101417952336762
      ],
      [
        "▁minor",
        -10.375098538087073
      ],
      [
        "571",
        -14.156374722740878
      ],
      [
        "▁cover",
        -8.369377328714162
      ],
      [
        "73",
        -12.572276549803446
      ],
      [
        "▁proof",
        -10.484037411919687
      ],
      [
        "▁genuine",
        -10.483878365707556
      ],
      [
        "▁peek",
        -10.9814191326297
      ],
      [
        "▁60",
        -10.41310958566581
      ],
      [
        "▁0.1",
        -13.296955699958511
      ],
      [
        "▁golf",
        -10.973682995264534
      ],
      [
        "▁bean",
        -10.078103541352045
      ],
      [
        "▁soldier",
        -9.574259415485042
      ],
      [
        "half",
        -9.960722211744548
      ],
      [
        "▁ana",
        -10.446390125435023
      ],
      [
        "▁qui",
        -10.10108212959259
      ],
      [
        "/16",
        -14.567007781419004
      ],
      [
        "▁vision",
        -10.484130588957454
      ],
      [
        "▁listen",
        -8.652816277108192
      ],
      [
        "bi",
        -8.910361586796142
      ],
      [
        "▁e.g",
        -11.33402471195896
      ],
      [
        "▁57",
        -11.163484242835814
      ],
      [
        "▁astronaut",
        -11.209250208958494
      ],
      [
        "tion",
        -9.013993685284298
      ],
      [
        "▁tribe",
        -10.720551045264124
      ],
      [
        "fence",
        -10.30956950608956
      ],
      [
        "hobby",
        -11.133881692598013
      ],
      [
        "u",
        -5.730887179067296
      ],
      [
        "▁\"",
        -8.786745156120919
      ],
      [
        "▁575",
        -13.29894838283843
      ],
      [
        "▁dick",
        -10.622675451820747
      ],
      [
        "▁anthr",
        -9.574255411679363
      ],
      [
        "▁overcom",
        -10.786662451436817
      ],
      [
        "▁bald",
        -10.854832258179222
      ],
      [
        "▁domestic",
        -10.067816125409335
      ],
      [
        "pos",
        -10.531974967040128
      ],
      [
        "▁mor",
        -12.56811899830669
      ],
      [
        "agr",
        -10.984714191306646
      ],
      [
        "▁format",
        -9.215496976939292
      ],
      [
        "opher",
        -10.633137544442626
      ],
      [
        "▁pie",
        -9.571091870884427
      ],
      [
        "▁joint",
        -10.175624316707406
      ],
      [
        "一",
        -12.833785825435129
      ],
      [
        "▁hostil",
        -11.095690854744861
      ],
      [
        "▁peanut",
        -9.452117736950006
      ],
      [
        "▁electric",
        -9.155873102452997
      ],
      [
        "▁reservation",
        -10.421378360632154
      ],
      [
        "▁178",
        -11.99387416594223
      ],
      [
        "▁happening",
        -9.914543032080713
      ],
      [
        "▁speaker",
        -9.670637949003032
      ],
      [
        "eur",
        -12.843554417548672
      ],
      [
        "▁sent",
        -8.479552331171764
      ],
      [
        "▁chair",
        -8.315479766564518
      ],
      [
        "▁herself",
        -10.235000470458203
      ],
      [
        "ou",
        -11.27492796031396
      ],
      [
        "▁communist",
        -10.425161423851383
      ],
      [
        "▁inspir",
        -10.721101419095906
      ],
      [
        "▁church",
        -8.76700001969672
      ],
      [
        "▁susan",
        -10.204478479882056
      ],
      [
        "▁fashion",
        -10.156749172775537
      ],
      [
        "▁potato",
        -10.156750059154401
      ],
      [
        "▁rot",
        -10.045272757946453
      ],
      [
        "▁kitchen",
        -9.122237068411469
      ],
      [
        "▁104",
        -13.100297995490415
      ],
      [
        "1507",
        -13.383298432819581
      ],
      [
        "case",
        -11.110437938765031
      ],
      [
        "▁myceli",
        -10.621973699964737
      ],
      [
        "▁prob",
        -11.152579614308333
      ],
      [
        "▁cough",
        -10.89356251595644
      ],
      [
        "▁record",
        -8.22145530443655
      ],
      [
        "war",
        -10.682546089654341
      ],
      [
        "▁replac",
        -10.584854812841268
      ],
      [
        "▁486",
        -12.653032614800074
      ],
      [
        "▁propert",
        -8.396754565936831
      ],
      [
        "▁1.1",
        -12.83965447865105
      ],
      [
        "▁cal",
        -10.258542711671321
      ],
      [
        "80",
        -9.707693221937271
      ],
      [
        "▁veteran",
        -10.483885136786792
      ],
      [
        ";",
        -5.847096126235188
      ],
      [
        "▁sneez",
        -11.084252858369165
      ],
      [
        "▁participate",
        -10.289281120787095
      ],
      [
        "▁robert",
        -9.429419381940164
      ],
      [
        "▁taste",
        -8.913784963038744
      ],
      [
        "▁may",
        -7.182855929768164
      ],
      [
        "▁505",
        -12.49680649931439
      ],
      [
        "▁vogelaviatiolap",
        -11.385101046274047
      ],
      [
        "▁utilit",
        -10.48388314492855
      ],
      [
        "▁ninet",
        -11.980756886517542
      ],
      [
        "▁voice",
        -8.538168063413751
      ],
      [
        "acio",
        -11.783930075849659
      ],
      [
        "▁154",
        -12.837464354786789
      ],
      [
        "▁yield",
        -10.421378660246614
      ],
      [
        "▁05:0",
        -13.188630233891782
      ],
      [
        "▁713-853-3",
        -10.96826864569135
      ],
      [
        "▁tickle",
        -9.922821781373251
      ],
      [
        "▁creative",
        -9.325209902463534
      ],
      [
        "our",
        -8.449365008953343
      ],
      [
        "▁scient",
        -9.601163815918593
      ],
      [
        "▁pre-",
        -10.18933125995792
      ],
      [
        "me",
        -9.799251337819435
      ],
      [
        "▁taylor",
        -10.873139244553116
      ],
      [
        "▁dinner",
        -8.159157259826387
      ],
      [
        "▁successful",
        -9.107243610514848
      ],
      [
        "▁among",
        -8.705769502659555
      ],
      [
        "▁offend",
        -10.783645873545835
      ],
      [
        "rank",
        -10.157654785705393
      ],
      [
        "▁th-",
        -10.367154402671856
      ],
      [
        "▁investigat",
        -11.031164998501893
      ],
      [
        "▁flexibl",
        -11.087126812306446
      ],
      [
        "▁labour",
        -10.699100853361198
      ],
      [
        "---->",
        -11.77556405770272
      ],
      [
        "▁bay",
        -9.760641887762839
      ],
      [
        "▁manifest",
        -11.084253117265948
      ],
      [
        "▁procedure",
        -9.475364548367429
      ],
      [
        "▁socks",
        -10.154595911521278
      ],
      [
        "▁often",
        -8.204318893928306
      ],
      [
        "▁f",
        -14.121066608634774
      ],
      [
        "mail",
        -10.7506421492864
      ],
      [
        "▁murderer",
        -10.808071338190853
      ],
      [
        "field",
        -10.337021971103859
      ],
      [
        "▁8:",
        -14.495891278240808
      ],
      [
        "900",
        -12.649802691990901
      ],
      [
        "▁resign",
        -10.97318902695763
      ],
      [
        "▁df",
        -10.563077858529102
      ],
      [
        "▁complet",
        -10.267186840989106
      ],
      [
        "ls",
        -11.685671346963831
      ],
      [
        "▁english",
        -8.458450690811581
      ],
      [
        "lap",
        -12.842704468806712
      ],
      [
        "0.8",
        -12.754940125285831
      ],
      [
        "▁419",
        -13.99156420335817
      ],
      [
        "▁brush",
        -9.874961141542752
      ],
      [
        "▁rebel",
        -10.910375777774538
      ],
      [
        "▁epi",
        -10.768127818459682
      ],
      [
        "▁v",
        -9.59243631711555
      ],
      [
        "santorum",
        -9.774881382732016
      ],
      [
        "▁water",
        -7.3433845228055326
      ],
      [
        "▁related",
        -9.08533728740783
      ],
      [
        "four",
        -10.68203439129833
      ],
      [
        "▁seek",
        -9.085974236951703
      ],
      [
        ".......",
        -12.703372935004918
      ],
      [
        "ba",
        -11.549657294385682
      ],
      [
        "▁motive",
        -10.622001044666902
      ],
      [
        "iling",
        -10.20389837161698
      ],
      [
        "▁migrate",
        -11.084250420452125
      ],
      [
        "▁editor",
        -10.022216625980503
      ],
      [
        "▁government",
        -7.811072301366397
      ],
      [
        "parnass",
        -10.873144692489142
      ],
      [
        "▁outfit",
        -10.622000019134093
      ],
      [
        "▁hm",
        -9.359473734038662
      ],
      [
        "92",
        -10.54845270092631
      ],
      [
        "▁abundant",
        -11.087255735208817
      ],
      [
        "hey",
        -14.08912143937207
      ],
      [
        "▁woke",
        -10.307006825855852
      ],
      [
        "▁iraq",
        -8.27978349047526
      ],
      [
        "▁participat",
        -9.87216361338525
      ],
      [
        "▁hide",
        -9.47103403018706
      ],
      [
        "▁stand",
        -8.48568162038282
      ],
      [
        "▁drawer",
        -10.474598376935136
      ],
      [
        "▁excit",
        -10.38666624403752
      ],
      [
        "▁plunge",
        -10.973350559591818
      ],
      [
        "☎",
        -11.833785825435129
      ],
      [
        "▁ca",
        -5.902139696181129
      ],
      [
        "▁67",
        -11.688946399299299
      ],
      [
        "▁shoe",
        -8.380056526732112
      ],
      [
        "=============",
        -11.216882392454108
      ],
      [
        "▁cleve",
        -8.502031710780809
      ],
      [
        "▁pal",
        -11.623352589811217
      ],
      [
        "▁urgent",
        -10.782477655880484
      ],
      [
        "▁text",
        -9.04007653836441
      ],
      [
        "▁stand",
        -11.833815694314197
      ],
      [
        "ware",
        -9.559928505583992
      ],
      [
        "▁specialist",
        -10.310566882413637
      ],
      [
        "▁moral",
        -8.66672178014904
      ],
      [
        "▁705",
        -13.150366755684853
      ],
      [
        "ooh",
        -9.903849316898613
      ],
      [
        "▁gel",
        -10.226393329864845
      ],
      [
        "▁maxim",
        -10.30730871791731
      ],
      [
        "▁plan",
        -8.239561364058881
      ],
      [
        "▁carry",
[...]
