{
  "version": "1.0",
  "truncation": null,
  "padding": null,
  "added_tokens": [
    {
      "id": 390,
      "content": "[SEP]",
      "single_word": false,
      "lstrip": false,
      "rstrip": false,
      "normalized": false,
      "special": true
    },
    {
      "id": 1583,
      "content": "[CLS]",
      "single_word": false,
      "lstrip": false,
      "rstrip": false,
      "normalized": false,
      "special": true
    },
    {
      "id": 6201,
      "content": "[UNK]",
      "single_word": false,
      "lstrip": false,
      "rstrip": false,
      "normalized": false,
      "special": true
    },
    {
      "id": 6787,
      "content": "[MASK]",
      "single_word": false,
      "lstrip": false,
      "rstrip": false,
      "normalized": false,
      "special": true
    },
    {
      "id": 7139,
      "content": "[PAD]",
      "single_word": false,
      "lstrip": false,
      "rstrip": false,
      "normalized": false,
      "special": true
    }
  ],
  "normalizer": {
    "type": "Sequence",
    "normalizers": [
      {
        "type": "NFD"
      },
      {
        "type": "Lowercase"
      },
      {
        "type": "StripAccents"
      }
    ]
  },
  "pre_tokenizer": {
    "type": "Sequence",
    "pretokenizers": [
      {
        "type": "Metaspace",
        "replacement": "▁",
        "prepend_scheme": "always",
        "split": true
      }
    ]
  },
  "post_processor": {
    "type": "TemplateProcessing",
    "single": [
      {
        "SpecialToken": {
          "id": "[CLS]",
          "type_id": 0
        }
      },
      {
        "Sequence": {
          "id": "A",
          "type_id": 0
        }
      },
      {
        "SpecialToken": {
          "id": "[SEP]",
          "type_id": 0
        }
      }
    ],
    "pair": [
      {
        "SpecialToken": {
          "id": "[CLS]",
          "type_id": 0
        }
      },
      {
        "Sequence": {
          "id": "A",
          "type_id": 0
        }
      },
      {
        "SpecialToken": {
          "id": "[SEP]",
          "type_id": 0
        }
      },
      {
        "Sequence": {
          "id": "B",
          "type_id": 1
        }
      },
      {
        "SpecialToken": {
          "id": "[SEP]",
          "type_id": 1
        }
      }
    ],
    "special_tokens": {
      "[CLS]": {
        "id": "[CLS]",
        "ids": [
          1583
        ],
        "tokens": [
          "[CLS]"
        ]
      },
      "[SEP]": {
        "id": "[SEP]",
        "ids": [
          390
        ],
        "tokens": [
          "[SEP]"
        ]
      }
    }
  },
  "decoder": {
    "type": "Metaspace",
    "replacement": "▁",
    "prepend_scheme": "always",
    "split": true
  },
  "model": {
    "type": "WordPiece",
    "unk_token": "[UNK]",
    "continuing_subword_prefix": "##",
    "max_input_chars_per_word": 100,
    "vocab": {
      "▁text": 0,
      "▁taxi": 1,
      "▁jih": 2,
      "##ase": 3,
      "▁saudi": 4,
      "▁future": 5,
      "##gg": 6,
      "▁vac": 7,
      "##io": 8,
      "##ories": 9,
      "▁polic": 10,
      "▁face": 11,
      "##jects": 12,
      "##corn": 13,
      "##£": 14,
      "▁al": 15,
      "▁dev": 16,
      "▁fbi": 17,
      "▁&": 18,
      "##ird": 19,
      "▁resources": 20,
      "▁tiny": 21,
      "▁strange": 22,
      "▁determine": 23,
      "▁manufact": 24,
      "▁approved": 25,
      "▁decisions": 26,
      "▁07/14/2000": 27,
      "▁mi": 28,
      "▁subst": 29,
      "▁busy": 30,
      "▁equipment": 31,
      "##idden": 32,
      "▁spin": 33,
      "▁sign": 34,
      "##ip": 35,
      "##ort": 36,
      "▁1868": 37,
      "▁asia": 38,
      "##er": 39,
      "▁713-646-3393": 40,
      "##ved": 41,
      "▁favorite": 42,
      "▁tul": 43,
      "▁(b)": 44,
      "▁excell": 45,
      "##ا": 46,
      "##able": 47,
      "▁baltim": 48,
      "▁08/03/2000": 49,
      "▁animal": 50,
      "##erv": 51,
      "▁story": 52,
      "▁6.8": 53,
      "▁bern": 54,
      "▁aut": 55,
      "▁context": 56,
      "▁advice": 57,
      "▁telev": 58,
      "▁respect": 59,
      "▁brain": 60,
      "d": 61,
      "▁23": 62,
      "##ers": 63,
      "▁change": 64,
      "##end": 65,
      "▁potty": 66,
      "▁1928": 67,
      "▁per": 68,
      "##night": 69,
      "▁concent": 70,
      "▁considering": 71,
      "##all": 72,
      "▁techn": 73,
      "▁agriculture": 74,
      "##ap": 75,
      "##ensive": 76,
      "##ract": 77,
      "##ither": 78,
      "▁{": 79,
      "▁look": 80,
      "▁espec": 81,
      "##66": 82,
      "·": 83,
      "##mar": 84,
      "▁832": 85,
      "##led": 86,
      "▁att": 87,
      "▁recon": 88,
      "▁padaleck": 89,
      "##ε": 90,
      "图": 91,
      "▁aircraft": 92,
      "▁poo": 93,
      "##are": 94,
      "##alk": 95,
      "▁01:14": 96,
      "▁inst": 97,
      "▁hit": 98,
      "▁04:28": 99,
      "▁january": 100,
      "##/99": 101,
      "▁century": 102,
      "▁1902": 103,
      "▁05/03/2001": 104,
      "##urch": 105,
      "##arter": 106,
      "▁thous": 107,
      "##.11": 108,
      "##49": 109,
      "##elds": 110,
      "▁gro": 111,
      "▁der": 112,
      "##ervation": 113,
      "▁susp": 114,
      "▁extra": 115,
      "▁bigger": 116,
      "▁now": 117,
      "▁1951": 118,
      "6": 119,
      "▁run": 120,
      "▁location": 121,
      "▁affected": 122,
      "##80": 123,
      "##ones": 124,
      "##ake": 125,
      "▁viet": 126,
      "▁03": 127,
      "▁airpl": 128,
      "▁lem": 129,
      "▁simp": 130,
      "▁uhoh": 131,
      "▁event": 132,
      "▁disapp": 133,
      "▁must": 134,
      "▁great": 135,
      "▁1599": 136,
      "▁price": 137,
      "▁neg": 138,
      "▁ai": 139,
      "▁814014": 140,
      "▁kitch": 141,
      "##’": 142,
      "▁2500": 143,
      "▁bee": 144,
      "▁glob": 145,
      "▁few": 146,
      "##ise": 147,
      "▁94": 148,
      "##aman": 149,
      "▁belg": 150,
      "▁his": 151,
      "##:14": 152,
      "▁4.0": 153,
      "▁god": 154,
      "▁church": 155,
      "▁191": 156,
      "▁grammar": 157,
      "▁danger": 158,
      "▁whereby": 159,
      "##[": 160,
      "##ex": 161,
      "▁cens": 162,
      "▁l'": 163,
      "▁gone": 164,
      "##.1234": 165,
      "##art": 166,
      "▁hotel": 167,
      "##ights": 168,
      "▁713-654-03": 169,
      "##ce": 170,
      "▁test": 171,
      "▁covered": 172,
      "▁although": 173,
      "▁lab": 174,
      "▁stead": 175,
      "##ith": 176,
      "▁wall": 177,
      "##oes": 178,
      "▁proc": 179,
      "▁chann": 180,
      "▁supposed": 181,
      "##___________": 182,
      "▁santa": 183,
      "▁force": 184,
      "▁03/27/2001": 185,
      "▁amounts": 186,
      "▁leading": 187,
      "##itten": 188,
      "▁legisl": 189,
      "##-8": 190,
      "▁fortun": 191,
      "▁11/29/2000": 192,
      "▁catholic": 193,
      "##with": 194,
      "▁collect": 195,
      "##anda": 196,
      "##hin": 197,
      "▁1530": 198,
      "▁statement": 199,
      "▁rot": 200,
      "##ouble": 201,
      "▁november": 202,
      "▁ya": 203,
      "▁perman": 204,
      "##orton": 205,
      "▁listen": 206,
      "▁217": 207,
      "▁match": 208,
      "▁dyn": 209,
      "##--------+----------------": 210,
      "▁interp": 211,
      "▁fut": 212,
      "##ular": 213,
      "▁8:30": 214,
      ">": 215,
      "▁environment": 216,
      "▁smart": 217,
      "▁gave": 218,
      "▁this": 219,
      "▁changes": 220,
      "r": 221,
      "▁your": 222,
      "▁gun": 223,
      "▁studied": 224,
      "▁09/16": 225,
      "▁readers": 226,
      "▁danny": 227,
      "▁unkn": 228,
      "##ologist": 229,
      "▁dand": 230,
      "▁120,000": 231,
      "▁compan": 232,
      "##room": 233,
      "▁critic": 234,
      "▁fair": 235,
      "##ales": 236,
      "▁terms": 237,
      "##,008": 238,
      "▁1608": 239,
      "▁grow": 240,
      "##.0": 241,
      "▁hog": 242,
      "##its": 243,
      "##ts": 244,
      "▁512": 245,
      "##ech": 246,
      "▁vice": 247,
      "▁mohamed": 248,
      "▁listing": 249,
      "▁amendments": 250,
      "▁ones": 251,
      "▁st": 252,
      "▁completed": 253,
      "▁reject": 254,
      "▁202": 255,
      "##ronic": 256,
      "##ogn": 257,
      "▁28,000": 258,
      "▁pressure": 259,
      "▁earned": 260,
      "▁period": 261,
      "▁_______": 262,
      "▁state": 263,
      "▁3,": 264,
      "▁!!!": 265,
      "▁fix": 266,
      "▁knows": 267,
      "▁mathemat": 268,
      "##ke": 269,
      "▁(c)": 270,
      "▁processes": 271,
      "▁glasses": 272,
      "▁legit": 273,
      "##61": 274,
      "▁succeed": 275,
      "▁03/08/2000": 276,
      "▁.?": 277,
      "▁month": 278,
      "▁plane": 279,
      "▁1944": 280,
      "##ug": 281,
      "##iss": 282,
      "▁swing": 283,
      "▁5:30": 284,
      "✉": 285,
      "▁fast": 286,
      "▁theat": 287,
      "▁-ect": 288,
      "▁listed": 289,
      "▁gal": 290,
      "▁belief": 291,
      "##itely": 292,
      "##nondel": 293,
      "▁decl": 294,
      "▁concepts": 295,
      "▁equip": 296,
      "▁makes": 297,
      "▁risk": 298,
      "▁401": 299,
      "ł": 300,
      "##9933": 301,
      ";": 302,
      "▁common": 303,
      "##.75": 304,
      "▁imposs": 305,
      "▁sl": 306,
      "▁disappoint": 307,
      "▁3/9": 308,
      "▁interests": 309,
      "▁priced": 310,
      "##off": 311,
      "▁somewhat": 312,
      "▁.2": 313,
      "##med": 314,
      "##85": 315,
      "▁schedule": 316,
      "##eline": 317,
      "▁delivery": 318,
      "▁six": 319,
      "▁sciss": 320,
      "▁becom": 321,
      "▁nation": 322,
      "##urs": 323,
      "▁runs": 324,
      "▁07/1": 325,
      "▁rank": 326,
      "▁trump": 327,
      "##ellow": 328,
      "▁430": 329,
      "▁!": 330,
      "▁wikinews": 331,
      "▁ans": 332,
      "▁cocktail": 333,
      "##and": 334,
      "▁cy": 335,
      "▁planning": 336,
      "▁normally": 337,
      "▁the": 338,
      "▁shower": 339,
      "▁ahead": 340,
      "▁fift": 341,
      "##acters": 342,
      "▁situation": 343,
      "▁vers": 344,
      "▁bears": 345,
      "▁action": 346,
      "▁eighteen": 347,
      "$": 348,
      "▁mich": 349,
      "▁incl": 350,
      "▁10:30": 351,
      "▁crazy": 352,
      "▁enj": 353,
      "▁appropri": 354,
      "##tt": 355,
      "▁lys": 356,
      "▁ep": 357,
      "▁345": 358,
      "###6": 359,
      "▁heard": 360,
      "▁issued": 361,
      "##/10/2004": 362,
      "▁folks": 363,
      "▁[...]": 364,
      "▁bid": 365,
      "▁charge": 366,
      "▁repeated": 367,
      "▁assum": 368,
      "▁xsd": 369,
      "▁04:": 370,
      "▁testing": 371,
      "▁draft": 372,
      "▁ice": 373,
      "##nine": 374,
      "##od": 375,
      "▁zeal": 376,
      "▁vietnam": 377,
      "▁claims": 378,
      "##inking": 379,
      "▁trad": 380,
      "▁cara": 381,
      "▁decision": 382,
      "##1696": 383,
      "▁experi": 384,
      "▁cons": 385,
      "##epend": 386,
      "▁middle": 387,
      "▁01/2": 388,
      "▁loc": 389,
      "[SEP]": 390,
      "▁1997": 391,
      "##et": 392,
      "▁live": 393,
      "##ang": 394,
      "▁ok": 395,
      "##clusion": 396,
      "▁exactly": 397,
      "▁8:00": 398,
      "▁+1": 399,
      "##kins": 400,
      "▁includ": 401,
      "##porary": 402,
      "▁believes": 403,
      "▁protected": 404,
      "▁1689": 405,
      "##415-": 406,
      "▁:d": 407,
      "▁yesterday": 408,
      "▁wonderful": 409,
      "##eeze": 410,
      "▁315-460-33": 411,
      "▁play": 412,
      "▁session": 413,
      "▁naim": 414,
      "##inging": 415,
      "##erc": 416,
      "▁standards": 417,
      "▁hous": 418,
      "##rew": 419,
      "▁1888": 420,
      "##ada": 421,
      "▁5.5": 422,
      "▁texas": 423,
      "▁read": 424,
      "▁putting": 425,
      "▁alloc": 426,
      "##el": 427,
      "##irl": 428,
      "▁***": 429,
      "▁observed": 430,
      "▁summer": 431,
      "##ough": 432,
      "##oph": 433,
      "▁established": 434,
      "▁funds": 435,
      "▁decent": 436,
      "▁team": 437,
      "▁du": 438,
      "▁const": 439,
      "##uding": 440,
      "##9999": 441,
      "▁pop": 442,
      "▁appeared": 443,
      "▁impossible": 444,
      "ا": 445,
      "▁×": 446,
      "▁miles": 447,
      "##by": 448,
      "3": 449,
      "▁814": 450,
      "##ont": 451,
      "▁nineteen": 452,
      "▁score": 453,
      "▁neighborhood": 454,
      "▁888.916.718": 455,
      "▁stupid": 456,
      "▁je": 457,
      "▁newark": 458,
      "##ł": 459,
      "▁taiwan": 460,
      "▁smok": 461,
      "▁advert": 462,
      "▁promise": 463,
      "▁1836": 464,
      "##ests": 465,
      "▁collective": 466,
      "##ild": 467,
      "▁prior": 468,
      "##æ": 469,
      "▁pants": 470,
      "##7/2000": 471,
      "▁being": 472,
      "▁ski": 473,
      "▁near": 474,
      "##ull": 475,
      "##200": 476,
      "▁choo": 477,
      "▁riding": 478,
      "##yn": 479,
      "▁poet": 480,
      "▁closed": 481,
      "▁dursleys": 482,
      "▁daniel": 483,
      "▁se": 484,
      "▁unh": 485,
      "##og": 486,
      "##ف": 487,
      "▁lik": 488,
      "▁********************************": 489,
      "ز": 490,
      "▁transmission": 491,
      "##lf": 492,
      "▁encour": 493,
      "##raid": 494,
      "▁german": 495,
      "▁646-8420": 496,
      "▁histor": 497,
      "▁hire": 498,
      "▁1801": 499,
      "▁bir": 500,
      "##tle": 501,
      "▁17": 502,
      "▁lines": 503,
      "##ions": 504,
      "##ler": 505,
      "▁quino": 506,
      "▁previous": 507,
      "▁propos": 508,
      "▁ingred": 509,
      "▁estimate": 510,
      "▁laid": 511,
      "▁los": 512,
      "##enron.com": 513,
      "▁guarantee": 514,
      "▁pas": 515,
      "▁gym": 516,
      "##ach": 517,
      "▁considered": 518,
      "▁places": 519,
      "▁romantic": 520,
      "##.5": 521,
      "▁forty-eight": 522,
      "▁counter": 523,
      "▁bu": 524,
      "▁service": 525,
      "##maine": 526,
      "▁it's": 527,
      "▁donkey": 528,
      "##ual": 529,
      "##ene": 530,
      "▁508": 531,
      "▁helped": 532,
      "▁ll": 533,
      "##eenth": 534,
      "▁names": 535,
      "▁ld2": 536,
      "▁minneapolis": 537,
      "▁things": 538,
      "▁begins": 539,
      "▁perfect": 540,
      "▁asked": 541,
      "##--------------------------------------------": 542,
      "##oo": 543,
      "▁))": 544,
      "▁excellent": 545,
      "▁analy": 546,
      "▁imp": 547,
      "▁somehow": 548,
      "▁hundreds": 549,
      "▁bound": 550,
      "##atter": 551,
      "▁identified": 552,
      "▁tur": 553,
      "▁amidst": 554,
      "{": 555,
      "▁set": 556,
      "▁produce": 557,
      "##ired": 558,
      "##phis": 559,
      "▁315-": 560,
      "##reh": 561,
      "▁mac": 562,
      "▁shoes": 563,
      "▁structure": 564,
      "▁europe": 565,
      "▁08/03": 566,
      "▁dh": 567,
      "##apt": 568,
      "▁king": 569,
      "▁possibly": 570,
      "▁branch": 571,
      "▁arab": 572,
      "▁nothing": 573,
      "##ternal": 574,
      "▁dese": 575,
      "▁6:00": 576,
      "▁simple": 577,
      "▁moreau": 578,
      "##ro": 579,
      "山": 580,
      "##du": 581,
      "##athy": 582,
      "▁whereas": 583,
      "▁highlight": 584,
      "▁airport": 585,
      "▁health": 586,
      "▁emphas": 587,
      "▁kat": 588,
      "##1.": 589,
      "▁60,000": 590,
      "▁university": 591,
      "##igu": 592,
      "▁770": 593,
      "▁mass": 594,
      "##460-3": 595,
      "▁land": 596,
      "▁diego": 597,
      "▁forms": 598,
      "▁mine": 599,
      "▁fol": 600,
      "▁central": 601,
      "▁72,000": 602,
      "##zai": 603,
      "▁festival": 604,
      "▁share": 605,
      "p": 606,
      "##bs": 607,
      "▁australia": 608,
      "##‘": 609,
      "▁405": 610,
      "▁addition": 611,
      "▁arr": 612,
      "##tern": 613,
      "##:39": 614,
      "▁here": 615,
      "▁bump": 616,
      "##<": 617,
      "▁children": 618,
      "▁studying": 619,
      "β": 620,
      "##.g": 621,
      "##μ": 622,
      "▁hol": 623,
      "▁towns": 624,
      "▁aesth": 625,
      "▁honest": 626,
      "▁desire": 627,
      "▁clean": 628,
      "##iers": 629,
      "▁ow": 630,
      "▁pleased": 631,
      "▁port": 632,
      "▁literature": 633,
      "##gr": 634,
      "▁+": 635,
      "##rec": 636,
      "▁advanced": 637,
      "##~*~*": 638,
      "▁values": 639,
      "##ief": 640,
      "³": 641,
      "##iv": 642,
      "▁2017": 643,
      "▁>--------------------------------": 644,
      "▁datab": 645,
      "##uck": 646,
      "▁1972": 647,
      "##res": 648,
      "##ier": 649,
      "##ur": 650,
      "▁exact": 651,
      "▁08": 652,
      "##8-7-01": 653,
      "##erry": 654,
      "##bruary": 655,
      "▁writer": 656,
      "▁husband": 657,
      "##orus": 658,
      "▁vlog": 659,
      "▁pean": 660,
      "▁forster": 661,
      "▁reference": 662,
      "▁swed": 663,
      "##bank": 664,
      "##ision": 665,
      "##口": 666,
      "▁713-853-3098": 667,
      "##90": 668,
      "▁sin": 669,
      "▁troops": 670,
      "▁contain": 671,
      "▁proper": 672,
      "▁inspired": 673,
      "▁noted": 674,
      "▁article": 675,
      "▁11:45": 676,
      "##201": 677,
      "▁wonder": 678,
      "▁corn": 679,
      "▁shirt": 680,
      "▁included": 681,
      "▁argent": 682,
      "▁165": 683,
      "▁turns": 684,
      "##oy": 685,
      "“": 686,
      "▁mean": 687,
      "▁chemical": 688,
      "##...": 689,
      "##alo": 690,
      "▁stops": 691,
      "▁progress": 692,
      "▁934": 693,
      "##ors": 694,
      "##av": 695,
      "##pped": 696,
      "▁title": 697,
      "▁successfully": 698,
      "##ued": 699,
      "▁business": 700,
      "▁valley": 701,
      "▁represent": 702,
      "▁parts": 703,
      "▁core": 704,
      "▁noise": 705,
      "▁unfortun": 706,
      "##olly": 707,
      "▁guess": 708,
      "▁connecting": 709,
      "##??": 710,
      "▁david": 711,
      "▁cred": 712,
      "##ards": 713,
      "##ned": 714,
      "▁delicious": 715,
      "▁replication": 716,
      "▁analys": 717,
      "▁purple": 718,
      "▁expert": 719,
      "##-50": 720,
      "▁sect": 721,
      "▁universal": 722,
      "▁a": 723,
      "▁scared": 724,
      "▁mob": 725,
      "▁tower": 726,
      "##eping": 727,
      "▁who": 728,
      "▁unp": 729,
      "▁twelve": 730,
      "▁1958": 731,
      "##12": 732,
      "##ater": 733,
      "▁obt": 734,
      "##inger": 735,
      "琴": 736,
      "▁courses": 737,
      "▁root": 738,
      "▁tim": 739,
      "▁ups": 740,
      "▁complex": 741,
      "##co": 742,
      "▁administration": 743,
      "▁1500": 744,
      "▁olivia": 745,
      "▁..........": 746,
      "▁01:09": 747,
      "▁scheduled": 748,
      "##^": 749,
      "▁cc": 750,
      "▁aff": 751,
      "▁pri": 752,
      "▁aug": 753,
      "▁between": 754,
      "y": 755,
      "▁comed": 756,
      "##202": 757,
      "▁dinosaur": 758,
      "▁exception": 759,
      "▁37": 760,
      "##ys": 761,
      "▁nasa": 762,
      "##ump": 763,
      "##!!!!": 764,
      "##ins": 765,
      "▁tickets": 766,
      "##一": 767,
      "##:38": 768,
      "▁11:16": 769,
      "▁sk": 770,
      "▁ang": 771,
      "▁daughter": 772,
      "##ken": 773,
      "▁visited": 774,
      "▁sp": 775,
      "▁dipl": 776,
      "▁roman": 777,
      "▁british": 778,
      "▁competition": 779,
      "##ord": 780,
      "▁distance": 781,
      "##asc": 782,
      "▁publicly": 783,
      "##空": 784,
      "▁factor": 785,
      "▁1.25": 786,
      "▁predict": 787,
      "▁12:3": 788,
      "▁hon": 789,
      "▁y": 790,
      "##ature": 791,
      "##urn": 792,
      "##.p": 793,
      "▁components": 794,
      "▁sad": 795,
      "##84": 796,
      "▁coo": 797,
      "▁twent": 798,
      "##ione": 799,
      "▁tig": 800,
      "▁pat": 801,
      "▁tralee": 802,
      "5": 803,
      "▁hum": 804,
      "▁in": 805,
      "▁567.77": 806,
      "▁190": 807,
      "▁concerns": 808,
      "▁nice": 809,
      "▁traffic": 810,
      "▁muslim": 811,
      "##54-": 812,
      "▁1039": 813,
      "##ure": 814,
      "▁answer": 815,
      "▁wash": 816,
      "##119": 817,
      "▁53": 818,
      "▁pink": 819,
      "▁stup": 820,
      "##ration": 821,
      "##128": 822,
      "▁term": 823,
      "##book": 824,
      "▁purp": 825,
      "▁sufficient": 826,
      "▁balloon": 827,
      "▁led": 828,
      "▁insur": 829,
      "▁profess": 830,
      "▁****": 831,
      "▁ide": 832,
      "▁ess": 833,
      "▁cheese": 834,
      "▁arm": 835,
      "##selves": 836,
      "▁basically": 837,
      "▁fa": 838,
      "▁1/4": 839,
      "▁regime": 840,
      "▁fin": 841,
      "▁auth": 842,
      "▁o'clock": 843,
      "▁gl": 844,
      "▁ninety-nine": 845,
      "▁russ": 846,
      "▁sch": 847,
      "▁activities": 848,
      "##e.": 849,
      "▁italian": 850,
      "##ama": 851,
      "▁1600": 852,
      "▁1955": 853,
      "##ened": 854,
      "▁1593": 855,
      "▁positive": 856,
      "▁cla": 857,
      "▁stopping": 858,
      "▁issues": 859,
      "##ville": 860,
      "▁spring": 861,
      "##haps": 862,
      "##idge": 863,
      "▁ship": 864,
      "▁beatles": 865,
      "##!?": 866,
      "##eb": 867,
      "▁feet": 868,
      "##uation": 869,
      "▁easier": 870,
      "▁ment": 871,
      "##uction": 872,
      "▁room": 873,
      "▁believe": 874,
      "▁place": 875,
      "##son": 876,
      "▁yourselves": 877,
      "##.16": 878,
      "##ects": 879,
      "▁230": 880,
      "▁ann": 881,
      "##itt": 882,
      "##,950": 883,
      "▁christian": 884,
      "b": 885,
      "▁fan": 886,
      "▁car": 887,
      "##standing": 888,
      "▁showing": 889,
      "▁okay": 890,
      "▁alright": 891,
      "##oler": 892,
      "▁spread": 893,
      "▁1245": 894,
      "▁pretty": 895,
      "▁light": 896,
      "▁journal": 897,
      "▁subject": 898,
      "##ive": 899,
      "##ative": 900,
      "##ad": 901,
      "▁dis": 902,
      "▁skin": 903,
      "##exp": 904,
      "▁enjambment": 905,
      "▁80,000": 906,
      "▁seconds": 907,
      "##ivers": 908,
      "▁(a)": 909,
      "▁papers": 910,
      "##com": 911,
      "##~*~*~*~*": 912,
      "▁missing": 913,
      "▁400": 914,
      "▁might": 915,
      "▁agre": 916,
      "▁entirely": 917,
      "▁scale": 918,
      "▁punch": 919,
      "▁cro": 920,
      "▁2004": 921,
      "▁such": 922,
      "##ist": 923,
      "▁fest": 924,
      "▁luc": 925,
      "##/4": 926,
      "▁3:30": 927,
      "▁ships": 928,
      "▁scholars": 929,
      "▁amend": 930,
      "▁7:00": 931,
      "##icial": 932,
      "▁world": 933,
      "##oss": 934,
      "##:37": 935,
      "##ally": 936,
      "##arian": 937,
      "##ite": 938,
      "▁376": 939,
      "▁eng": 940,
      "▁guy": 941,
      "▁training": 942,
      "▁greatest": 943,
      "▁fif": 944,
      "▁pictures": 945,
      "▁china": 946,
      "▁normal": 947,
      "▁finish": 948,
      "▁regard": 949,
      "▁options": 950,
      "▁115": 951,
      "##y@ect": 952,
      "▁reli": 953,
      "##as": 954,
      "##77": 955,
      "##ere": 956,
      "▁announced": 957,
      "静": 958,
      "▁structures": 959,
      "##ters": 960,
      "▁programm": 961,
      "▁airline": 962,
      "▁client": 963,
      "ص": 964,
      "##v": 965,
      "▁struct": 966,
      "▁d.": 967,
      "▁relief": 968,
      "▁evening": 969,
      "▁doctor": 970,
      "##,000,000,000": 971,
      "##:15": 972,
      "▁time": 973,
      "##ibald": 974,
      "▁5000": 975,
      "▁complic": 976,
      "▁lovely": 977,
      "##6021": 978,
      "##21": 979,
      "##come": 980,
      "▁foods": 981,
      "▁sunni": 982,
      "▁particip": 983,
      "▁59": 984,
      "▁hub": 985,
      "##和": 986,
      "▁vis": 987,
      "▁1925": 988,
      "▁1611": 989,
      "##:32": 990,
      "▁713-654-128": 991,
      "▁163": 992,
      "▁exposure": 993,
      "##ivity": 994,
      "▁safe": 995,
      "▁wheel": 996,
      "c": 997,
      "▁france": 998,
      "▁widely": 999,
      "▁start": 1000,
      "▁seem": 1001,
      "##ribe": 1002,
      "▁limited": 1003,
      "▁knew": 1004,
      "▁ours": 1005,
      "▁princip": 1006,
      "##23": 1007,
      "▁menu": 1008,
      "▁hear": 1009,
      "##rael": 1010,
      "▁thirty": 1011,
      "▁fore": 1012,
      "▁grad": 1013,
      "▁fun": 1014,
      "▁2008": 1015,
      "▁aboard": 1016,
      "▁slight": 1017,
      "##58": 1018,
      "▁bell": 1019,
      "##'": 1020,
      "▁lucky": 1021,
      "##rick": 1022,
      "##ashion": 1023,
      "##ables": 1024,
      "##ange": 1025,
      "##>": 1026,
      "▁desper": 1027,
      "##:07": 1028,
      "▁surround": 1029,
      "▁gul": 1030,
      "▁discussion": 1031,
      "##ole": 1032,
      "▁clim": 1033,
      "##ould": 1034,
      "葉": 1035,
      "##45": 1036,
      "▁sight": 1037,
      "▁highest": 1038,
      "▁sixth": 1039,
      "▁durs": 1040,
      "▁201": 1041,
      "▁enfor": 1042,
      "##illed": 1043,
      "##ware": 1044,
      "##0010": 1045,
      "▁nam": 1046,
      "▁paid": 1047,
      "##ugg": 1048,
      "▁dream": 1049,
      "▁ect": 1050,
      "##pp": 1051,
      "▁dut": 1052,
      "▁van": 1053,
      "▁uhh": 1054,
      "▁268": 1055,
      "▁''": 1056,
      "▁releases": 1057,
      "▁paral": 1058,
      "##gress": 1059,
      "##oug": 1060,
      "▁opening": 1061,
      "~": 1062,
      "▁build": 1063,
      "▁pict": 1064,
      "▁even": 1065,
      "▁table": 1066,
      "▁h-0": 1067,
      "樋": 1068,
      "▁pittsburgh": 1069,
      "▁dallas": 1070,
      "▁everyone": 1071,
      "##mon": 1072,
      "▁release": 1073,
      "▁trade": 1074,
      "▁sql": 1075,
      "▁surger": 1076,
      "▁par": 1077,
      "▁meals": 1078,
      "▁phone": 1079,
      "##-9": 1080,
      "▁cond": 1081,
      "▁lope": 1082,
      "▁education": 1083,
      "##ulated": 1084,
      "▁fam": 1085,
      "▁dim": 1086,
      "▁nonstop": 1087,
      "▁andaman": 1088,
      "▁female": 1089,
      "▁five": 1090,
      "▁shows": 1091,
      "▁contrib": 1092,
      "▁basic": 1093,
      "##υ": 1094,
      "▁slow": 1095,
      "▁416-865-370": 1096,
      "▁poverty": 1097,
      "##uced": 1098,
      "▁facts": 1099,
      "▁race": 1100,
      "##raph": 1101,
      "▁thousands": 1102,
      "▁states": 1103,
      "▁direct": 1104,
      "##era": 1105,
      "▁thanks": 1106,
      "▁mar": 1107,
      "▁m": 1108,
      "▁763736": 1109,
      "##rop": 1110,
      "▁emph": 1111,
      "▁529999": 1112,
      "▁char": 1113,
      "▁treatment": 1114,
      "▁snow": 1115,
      "▁without": 1116,
      "▁713-79": 1117,
      "▁border": 1118,
      "▁involved": 1119,
      "##.7": 1120,
      "▁won": 1121,
      "▁cash": 1122,
      "▁bare": 1123,
      "▁trail": 1124,
      "▁seventeen": 1125,
      "▁cub": 1126,
      "##”": 1127,
      "▁with": 1128,
      "▁d'": 1129,
      "##§": 1130,
      "##me": 1131,
      "▁stores": 1132,
      "▁saud": 1133,
      "▁row": 1134,
      "½": 1135,
      "▁bur": 1136,
      "▁eyes": 1137,
      "##ans": 1138,
      "##-10": 1139,
      "▁adding": 1140,
      "▁resc": 1141,
      "▁substantial": 1142,
      "▁mouth": 1143,
      "▁administr": 1144,
      "▁discussed": 1145,
      "##kes": 1146,
      "▁ltte": 1147,
      "▁reprod": 1148,
      "▁.doc": 1149,
      "##alys": 1150,
      "▁records": 1151,
      "##tsbur": 1152,
      "##7/2001": 1153,
      "##oub": 1154,
      "▁container": 1155,
      "▁uk": 1156,
      "##ell": 1157,
      "▁behav": 1158,
      "▁–": 1159,
      "▁execut": 1160,
      "▁literary": 1161,
      "▁appro": 1162,
      "▁milk": 1163,
      "▁territ": 1164,
      "▁enter": 1165,
      "##self": 1166,
      "##stand": 1167,
      "▁princ": 1168,
      "▁activity": 1169,
      "▁fe": 1170,
      "##518": 1171,
      "=": 1172,
      "##teenth": 1173,
      "##rem": 1174,
      "▁420": 1175,
      "##ten": 1176,
      "##n": 1177,
      "▁1988": 1178,
      "▁insp": 1179,
      "##iger": 1180,
      "▁background": 1181,
      "##not": 1182,
      "▁perhaps": 1183,
      "▁sweater": 1184,
      "▁pu": 1185,
      "##:24": 1186,
      "▁england": 1187,
      "▁4": 1188,
      "##ult": 1189,
      "##o": 1190,
      "▁pret": 1191,
      "▁q": 1192,
      "##hi": 1193,
      "##ero": 1194,
      "▁fant": 1195,
      "▁.........": 1196,
      "▁1300": 1197,
      "▁strong": 1198,
      "▁greater": 1199,
      "##tra": 1200,
      "▁gaz": 1201,
      "▁mind": 1202,
      "##attle": 1203,
      "▁sor": 1204,
      "▁tro": 1205,
      "▁ir": 1206,
      "▁04/30/2001": 1207,
      "▁&amp;": 1208,
      "▁customers": 1209,
      "!": 1210,
      "▁began": 1211,
      "▁3.1": 1212,
      "▁1962": 1213,
      "▁showed": 1214,
      "▁bottles": 1215,
      "▁687": 1216,
      "##36": 1217,
      "##one": 1218,
      "##ه": 1219,
      "##he": 1220,
      "##ran": 1221,
      "▁40": 1222,
      "▁louis": 1223,
      "##-m": 1224,
      "##ograph": 1225,
      "##ses": 1226,
      "▁kinds": 1227,
      "▁army": 1228,
      "▁steve": 1229,
      "##animals": 1230,
      "##ands": 1231,
      "▁'ve": 1232,
      "▁webs": 1233,
      "▁646-84": 1234,
      "▁starts": 1235,
      "▁acc": 1236,
      "##tica": 1237,
      "▁governments": 1238,
      "▁enjoyed": 1239,
      "▁mostly": 1240,
      "▁kim": 1241,
      "▁ninety": 1242,
      "##79": 1243,
      "▁classical": 1244,
      "▁fusca": 1245,
      "▁412": 1246,
      "##fr": 1247,
      "▁matt": 1248,
      "▁fashion": 1249,
      "▁use": 1250,
      "▁depart": 1251,
      "▁beauveria": 1252,
      "##uce": 1253,
      "▁remove": 1254,
      "▁products": 1255,
      "▁prop": 1256,
      "▁lol": 1257,
      "▁838": 1258,
      "##------": 1259,
      "▁shar": 1260,
      "▁domin": 1261,
      "▁be": 1262,
      "▁themselves": 1263,
      "▁eb": 1264,
      "▁introd": 1265,
      "▁loo": 1266,
      "▁14": 1267,
      "▁sex": 1268,
      "▁10:25": 1269,
      "##itch": 1270,
      "##.95": 1271,
      "▁truth": 1272,
      "▁orland": 1273,
      "▁wide": 1274,
      "▁trust": 1275,
      "##arent": 1276,
      "##les": 1277,
      "▁sounds": 1278,
      "▁customer": 1279,
      "##eda": 1280,
      "##iel": 1281,
      "▁levels": 1282,
      "▁sc": 1283,
      "▁society": 1284,
      "▁airlines": 1285,
      "▁£": 1286,
      "▁tele": 1287,
      "##ol": 1288,
      "▁america": 1289,
      "##get": 1290,
      "##fore": 1291,
      "▁ger": 1292,
      "##—": 1293,
      "▁oneself": 1294,
      "▁ton": 1295,
      "▁tv": 1296,
      "▁weight": 1297,
      "##樋": 1298,
      "▁bo": 1299,
      "▁chang": 1300,
      "▁*": 1301,
      "▁looks": 1302,
      "▁42,000": 1303,
      "▁clock": 1304,
      "▁1947": 1305,
      "▁vietn": 1306,
      "▁khin": 1307,
      "▁according": 1308,
      "]": 1309,
      "##–": 1310,
      "##gers": 1311,
      "▁island": 1312,
      "▁prepare": 1313,
      "▁bank": 1314,
      "▁success": 1315,
      "▁voices": 1316,
      "##isl": 1317,
      "▁jihad": 1318,
      "▁exist": 1319,
      "▁div": 1320,
      "▁mist": 1321,
      "▁143": 1322,
      "##司": 1323,
      "▁detail": 1324,
      "▁anth": 1325,
      "▁twa": 1326,
      "##sl": 1327,
      "##iness": 1328,
      "▁shin": 1329,
      "##just": 1330,
      "##:/": 1331,
      "##==": 1332,
      "##fort": 1333,
      "▁11,000": 1334,
      "▁occas": 1335,
      "▁20:00": 1336,
      "▁dish": 1337,
      "##---": 1338,
      "▁unit": 1339,
      "##__": 1340,
      "▁01/12/2001": 1341,
      "▁coming": 1342,
      "##tw": 1343,
      "##igator": 1344,
      "▁1110": 1345,
      "▁mm": 1346,
      "▁clin": 1347,
      "##ending": 1348,
      "▁winter": 1349,
      "##berry": 1350,
      "▁travel": 1351,
      "▁thank": 1352,
      "▁somet": 1353,
      "##ational": 1354,
      "▁crime": 1355,
      "▁o'": 1356,
      "▁court": 1357,
      "▁ar": 1358,
      "v": 1359,
      "▁fourth": 1360,
      "##arraf": 1361,
      "▁barn": 1362,
      "▁scient": 1363,
      "##ayed": 1364,
      "▁207": 1365,
      "##tegr": 1366,
      "▁dropped": 1367,
      "▁away": 1368,
      "##ement": 1369,
      "▁hu": 1370,
      "▁adam": 1371,
      "▁dram": 1372,
      "##ulations": 1373,
      "▁lee": 1374,
      "##uated": 1375,
      "▁west": 1376,
      "▁’ll": 1377,
      "##ases": 1378,
      "▁deliver": 1379,
      "▁cos": 1380,
      "▁ear": 1381,
      "##ette": 1382,
      "▁florida": 1383,
      "##ʻ": 1384,
      "##osoph": 1385,
      "▁assist": 1386,
      "▁consc": 1387,
      "▁motion": 1388,
      "▁1819": 1389,
      "##59": 1390,
      "##031": 1391,
      "▁reviews": 1392,
      "▁communications": 1393,
      "##imin": 1394,
      "▁ackn": 1395,
      "##urt": 1396,
      "▁2.975": 1397,
      "##ires": 1398,
      "##----------": 1399,
      "▁attach": 1400,
      "▁sources": 1401,
      "##ario": 1402,
      "▁remain": 1403,
      "▁wish": 1404,
      "▁nail": 1405,
      "▁each": 1406,
      "▁...............": 1407,
      "▁drive": 1408,
      "▁’’": 1409,
      "##iot": 1410,
      "▁20": 1411,
      "▁spend": 1412,
      "##iking": 1413,
      "##ology": 1414,
      "##:23": 1415,
      "##oin": 1416,
      "##/25/2001": 1417,
      "▁billion": 1418,
      "▁270": 1419,
      "▁taliban": 1420,
      "▁stre": 1421,
      "▁1981": 1422,
      "▁thinking": 1423,
      "▁video": 1424,
      "▁htt": 1425,
      "##ways": 1426,
      "##za": 1427,
      "▁2.15": 1428,
      "##-5": 1429,
      "▁hoo": 1430,
      "##etch": 1431,
      "##use": 1432,
      "▁2010": 1433,
      "##amm": 1434,
      "##action": 1435,
      "▁stars": 1436,
      "▁compl": 1437,
      "##ain": 1438,
      "▁federal": 1439,
      "▁1977": 1440,
      "▁behin": 1441,
      "▁ny": 1442,
      "▁hours": 1443,
      "▁civil": 1444,
      "▁jo": 1445,
      "▁usd": 1446,
      "▁rab": 1447,
      "▁415.782": 1448,
      "▁----": 1449,
      "##ct": 1450,
      "▁current": 1451,
      "▁s’": 1452,
      "##iring": 1453,
      "▁shakespeare": 1454,
      "▁seems": 1455,
      "▁979": 1456,
      "▁1200": 1457,
      "▁bowl": 1458,
      "▁flying": 1459,
      "##ir": 1460,
      "##em": 1461,
      "ɛ": 1462,
      "##ask": 1463,
      "▁ro": 1464,
      "▁helping": 1465,
      "▁sue": 1466,
      "▁cincinnati": 1467,
      "▁transm": 1468,
      "▁civ": 1469,
      "##aw": 1470,
      "##ute": 1471,
      "▁vince": 1472,
      "▁burn": 1473,
      "▁decide": 1474,
      "▁jim": 1475,
      "▁draw": 1476,
      "▁1,6": 1477,
      "▁explore": 1478,
      "##hib": 1479,
      "▁mut": 1480,
      "▁polit": 1481,
      "[": 1482,
      "▁47,500": 1483,
      "##enix": 1484,
      "▁ground": 1485,
      "▁andy": 1486,
      "▁anti": 1487,
      "##:18": 1488,
      "▁received": 1489,
      "▁korea": 1490,
      "▁athens": 1491,
      "▁05/01/2001": 1492,
      "▁poll": 1493,
      "▁since": 1494,
      "▁excel": 1495,
      "##.m.": 1496,
      "##equ": 1497,
      "清": 1498,
      "##non": 1499,
      "▁historical": 1500,
      "▁washing": 1501,
      "▁2022": 1502,
      "▁nt": 1503,
      "▁michael": 1504,
      "▁mag": 1505,
      "▁september": 1506,
      "▁canad": 1507,
      "▁constitu": 1508,
      "▁inc": 1509,
      "▁valid": 1510,
      "##ver": 1511,
      "▁łodz": 1512,
      "▁stick": 1513,
      "▁********": 1514,
      "▁prem": 1515,
      "▁enough": 1516,
      "▁nav": 1517,
      "▁41": 1518,
      "▁area": 1519,
      "##琴": 1520,
      "▁`s": 1521,
      "##-991-90": 1522,
      "▁mil": 1523,
      "▁rescue": 1524,
      "▁gives": 1525,
      "▁shown": 1526,
      "##d-": 1527,
      "▁settled": 1528,
      "▁banana": 1529,
      "▁poss": 1530,
      "▁opinion": 1531,
      "##:19": 1532,
      "▁09:01": 1533,
      "▁shorts": 1534,
      "▁falling": 1535,
      "▁wig": 1536,
      "▁ter": 1537,
      "##,9": 1538,
      "▁express": 1539,
      "##ons": 1540,
      "▁plat": 1541,
      "▁stuck": 1542,
      "▁technology": 1543,
      "▁kind": 1544,
      "##15": 1545,
      "##清": 1546,
      "▁3,500": 1547,
      "##ually": 1548,
      "##ec": 1549,
      "▁hey": 1550,
      "##enue": 1551,
      "▁02/27/2001": 1552,
      "##raw": 1553,
      "▁democracy": 1554,
      "▁secret": 1555,
      "##rib": 1556,
      "##ude": 1557,
      "▁called": 1558,
      "▁learned": 1559,
      "##ato": 1560,
      "▁satisf": 1561,
      "▁liquid": 1562,
      "▁2015": 1563,
      "##²": 1564,
      "▁part": 1565,
      "▁thirty-five": 1566,
      "▁important": 1567,
      "▁weeks": 1568,
      "▁million": 1569,
      "▁11:32": 1570,
      "▁alligator": 1571,
      "▁experim": 1572,
      "▁charlotte": 1573,
      "▁łodzian": 1574,
      "##stop": 1575,
      "▁employment": 1576,
      "▁agricult": 1577,
      "▁arriving": 1578,
      "##int": 1579,
      "▁special": 1580,
      "##721": 1581,
      "▁#": 1582,
      "[CLS]": 1583,
      "▁campaign": 1584,
      "▁boat": 1585,
      "▁treated": 1586,
      "▁glow": 1587,
      "▁11/27/2000": 1588,
      "▁applied": 1589,
      "▁strateg": 1590,
      "##thers": 1591,
      "▁aft": 1592,
      "##ted": 1593,
      "▁during": 1594,
      "▁stories": 1595,
      "##bol": 1596,
      "▁1890": 1597,
      "▁pricing": 1598,
      "##iful": 1599,
      "▁method": 1600,
      "▁exce": 1601,
      "##eapolis": 1602,
      "▁lesson": 1603,
      "▁mic": 1604,
      "▁tou": 1605,
      "▁fighting": 1606,
      "▁466": 1607,
      "##nd": 1608,
      "▁line": 1609,
      "▁?!?": 1610,
      "##ring": 1611,
      "▁substant": 1612,
      "▁past": 1613,
      "▁seventh": 1614,
      "##ant": 1615,
      "▁718": 1616,
      "▁relations": 1617,
      "▁cigare": 1618,
      "▁palest": 1619,
      "##part": 1620,
      "##cab": 1621,
      "▁meant": 1622,
      "##king": 1623,
      "▁stay": 1624,
      "##819602175": 1625,
      "##huh": 1626,
      "▁french": 1627,
      "##riage": 1628,
      "j": 1629,
      "▁volunte": 1630,
      "▁microphone": 1631,
      "##ces": 1632,
      "▁^": 1633,
      "▁warhol": 1634,
      "▁power": 1635,
      "▁416-865-3": 1636,
      "▁flav": 1637,
      "▁threat": 1638,
      "##rupt": 1639,
      "##@ect": 1640,
      "##uct": 1641,
      "▁pot": 1642,
      "子": 1643,
      "▁ultim": 1644,
      "±": 1645,
      "##fer": 1646,
      "▁occurred": 1647,
      "▁1973": 1648,
      "▁iranian": 1649,
      "##iqu": 1650,
      "▁amazing": 1651,
      "##bi": 1652,
      "▁dav": 1653,
      "##wet": 1654,
      "▁estimated": 1655,
      "▁dwww": 1656,
      "##..": 1657,
      "▁sexual": 1658,
      "▁canc": 1659,
      "▁saturday": 1660,
      "##ability": 1661,
      "▁11:30": 1662,
      "##/10/2000": 1663,
      "##ʁ": 1664,
      "▁generation": 1665,
      "▁fed": 1666,
      "▁kar": 1667,
      "▁wou": 1668,
      "##unch": 1669,
      "▁harry": 1670,
      "##iate": 1671,
      "##ublic": 1672,
      "▁weap": 1673,
      "▁sat": 1674,
      "▁200": 1675,
      "##2.doc": 1676,
      "▁blood": 1677,
      "▁les": 1678,
      "▁celebr": 1679,
      "##ade": 1680,
      "##ges": 1681,
      "▁unemploy": 1682,
      "▁fourteen": 1683,
      "▁net": 1684,
      "##icient": 1685,
      "##iated": 1686,
      "▁059085": 1687,
      "▁domain": 1688,
      "▁grandm": 1689,
      "##cond": 1690,
      "▁horn": 1691,
      "▁tomato": 1692,
      "##!": 1693,
      "▁beg": 1694,
      "##ounced": 1695,
      "▁strength": 1696,
      "&": 1697,
      "▁'71": 1698,
      "▁somewhere": 1699,
      "##ots": 1700,
      "▁ye": 1701,
      "▁1115": 1702,
      "▁flat": 1703,
      "▁nap": 1704,
      "▁bedroom": 1705,
      "▁stat": 1706,
      "▁thinks": 1707,
      "##t": 1708,
      "▁cont": 1709,
      "▁experts": 1710,
      "▁death": 1711,
      "##ij": 1712,
      "##ha": 1713,
      "▁diff": 1714,
      "▁upstairs": 1715,
      "▁commons": 1716,
      "##:01": 1717,
      "##da": 1718,
      "▁presence": 1719,
      "▁infl": 1720,
      "##oices": 1721,
      "▁claim": 1722,
      "##ulating": 1723,
      "▁ign": 1724,
      "##ummy": 1725,
      "##lik": 1726,
      "▁initial": 1727,
      "##5/2001": 1728,
      "▁convention": 1729,
      "▁urs": 1730,
      "##ida": 1731,
      "▁duck": 1732,
      "▁regards": 1733,
      "▁stock": 1734,
      "▁para": 1735,
      "▁1610": 1736,
      "▁memphis": 1737,
      "▁difference": 1738,
      "▁flash": 1739,
      "##ether": 1740,
      "▁bomb": 1741,
      "##als": 1742,
      "▁remo": 1743,
      "▁1986": 1744,
      "▁trans": 1745,
      "▁1993": 1746,
      "▁liber": 1747,
      "▁empty": 1748,
      "▁depends": 1749,
      "▁economy": 1750,
      "▁1583": 1751,
      "▁peter": 1752,
      "▁160": 1753,
      "##,0": 1754,
      "##¢": 1755,
      "▁breast": 1756,
      "▁852": 1757,
      "##elt": 1758,
      "##liament": 1759,
      "▁cru": 1760,
      "##cion": 1761,
      "▁oper": 1762,
      "##est": 1763,
      "##*{": 1764,
      "##ause": 1765,
      "▁soup": 1766,
      "▁11-20-2000": 1767,
      "▁snitch": 1768,
      "▁demonstr": 1769,
      "▁ł": 1770,
      "▁consist": 1771,
      "##ical": 1772,
      "▁error": 1773,
      "##81": 1774,
      "##ellig": 1775,
      "▁cuz": 1776,
      "▁d": 1777,
      "▁exc": 1778,
      "▁ul": 1779,
      "▁rs": 1780,
      "##op": 1781,
      "▁laugh": 1782,
      "▁game": 1783,
      "▁!!!!!!!": 1784,
      "##icip": 1785,
      "▁....": 1786,
      "▁dall": 1787,
      "##fri": 1788,
      "▁western": 1789,
      "▁for": 1790,
      "▁than": 1791,
      "▁cath": 1792,
      "▁adopt": 1793,
      "▁schools": 1794,
      "▁joint": 1795,
      "##5-0": 1796,
      "▁houston": 1797,
      "▁gentle": 1798,
      "▁eating": 1799,
      "▁whoever": 1800,
      "▁surgery": 1801,
      "▁result": 1802,
      "▁smaller": 1803,
      "▁1598": 1804,
      "##eal": 1805,
      "▁four": 1806,
      "▁medic": 1807,
      "▁fold": 1808,
      "▁ninth": 1809,
      "▁notwithstand": 1810,
      "▁lunch": 1811,
      "##roy": 1812,
      "##elp": 1813,
      "▁occur": 1814,
      "##six": 1815,
      "▁escape": 1816,
      "▁100": 1817,
      "▁whole": 1818,
      "▁furniture": 1819,
      "##anie": 1820,
      "▁br": 1821,
      "▁stand": 1822,
      "##uff": 1823,
      "##:05": 1824,
      "▁11/08/2000": 1825,
      "##-27": 1826,
      "▁ontario": 1827,
      "一": 1828,
      "▁ma": 1829,
      "▁?????": 1830,
      "▁3.5": 1831,
      "▁18,000": 1832,
      "▁income": 1833,
      "▁tiger": 1834,
      "##ched": 1835,
      "##2-6": 1836,
      "▁jack": 1837,
      "▁whom": 1838,
      "▁?": 1839,
      "##.html": 1840,
      "▁18": 1841,
      "##ister": 1842,
      "##ence": 1843,
      "▁analysis": 1844,
      "▁l2": 1845,
      "▁moved": 1846,
      "##pre": 1847,
      "▁do": 1848,
      "▁tape": 1849,
      "▁richard": 1850,
      "▁year": 1851,
      "▁6/1": 1852,
      "▁39": 1853,
      "##\\": 1854,
      "▁bn": 1855,
      "▁electric": 1856,
      "▁one": 1857,
      "s": 1858,
      "▁plant": 1859,
      "▁88": 1860,
      "▁unto": 1861,
      "▁luck": 1862,
      "▁beat": 1863,
      "▁momma": 1864,
      "▁phoenix": 1865,
      "##mo": 1866,
      "▁pach": 1867,
      "▁:-)": 1868,
      "##ai": 1869,
      "##stairs": 1870,
      "▁win": 1871,
      "▁jokes": 1872,
      "##eness": 1873,
      "##beit": 1874,
      "▁until": 1875,
      "##ely": 1876,
      "▁effect": 1877,
      "▁westchester": 1878,
      "▁oz": 1879,
      "▁o": 1880,
      "##umb": 1881,
      "▁13": 1882,
      "▁-%": 1883,
      "##42": 1884,
      "▁101": 1885,
      "##ivia": 1886,
      "▁!?": 1887,
      "##trans": 1888,
      "▁fal": 1889,
      "##57": 1890,
      "▁entered": 1891,
      "▁food": 1892,
      "▁suddenly": 1893,
      "▁airplane": 1894,
      "▁its": 1895,
      "##ca": 1896,
      "▁house": 1897,
      "▁http://www": 1898,
      "##-84": 1899,
      "▁weapons": 1900,
      "##.uk": 1901,
      "▁formica": 1902,
      "▁employ": 1903,
      "▁ta": 1904,
      "▁=)": 1905,
      "7": 1906,
      "##....": 1907,
      "▁1724": 1908,
      "▁job": 1909,
      "##es": 1910,
      "▁houses": 1911,
      "▁committee": 1912,
      "▁furn": 1913,
      "▁ec": 1914,
      "▁files": 1915,
      "▁book": 1916,
      "##_28": 1917,
      "▁how": 1918,
      "▁deriv": 1919,
      "##ates": 1920,
      "▁asking": 1921,
      "▁te": 1922,
      "▁josh": 1923,
      "▁ap": 1924,
      "▁enemy": 1925,
      "##le": 1926,
      "▁neu": 1927,
      "##ercial": 1928,
      "▁smell": 1929,
      "▁walls": 1930,
      "▁atl": 1931,
      "▁meth": 1932,
      "▁bom": 1933,
      "##osite": 1934,
      "##iately": 1935,
      "▁subsc": 1936,
      "▁toy": 1937,
      "▁sem": 1938,
      "▁rapidly": 1939,
      "▁able": 1940,
      "▁worked": 1941,
      "▁knock": 1942,
      "▁metro": 1943,
      "▁pock": 1944,
      "##========": 1945,
      "▁touch": 1946,
      "▁happ": 1947,
      "##b": 1948,
      "##ifies": 1949,
      "▁secure": 1950,
      "##ugh": 1951,
      "▁capacity": 1952,
      "▁majority": 1953,
      "▁planet": 1954,
      "▁ther": 1955,
      "▁african": 1956,
      "▁tells": 1957,
      "▁licens": 1958,
      "▁attended": 1959,
      "▁meh-r": 1960,
      "▁milwaukee": 1961,
      "##ial": 1962,
      "##opment": 1963,
      "▁town": 1964,
      "##il": 1965,
      "##viat": 1966,
      "▁policy": 1967,
      "▁after": 1968,
      "##iped": 1969,
      "▁w3c": 1970,
      "##roit": 1971,
      "▁wednesday": 1972,
      "##ica": 1973,
      "▁recommended": 1974,
      "▁assemb": 1975,
      "##ich": 1976,
      "▁vict": 1977,
      "▁cre": 1978,
      "##ay": 1979,
      "##acts": 1980,
      "▁throu": 1981,
      "##71": 1982,
      "▁scientology": 1983,
      "▁800.713.86": 1984,
      "##eling": 1985,
      "##sus": 1986,
      "▁directly": 1987,
      "▁@": 1988,
      "▁253": 1989,
      "▁inter": 1990,
      "##l": 1991,
      "▁constit": 1992,
      "▁iu": 1993,
      "▁1.4": 1994,
      "▁march": 1995,
      "##our": 1996,
      "▁breaking": 1997,
      "▁cute": 1998,
      "▁manuf": 1999,
      "▁presentation": 2000,
      "▁pieces": 2001,
      "▁6871082": 2002,
      "▁please": 2003,
      "▁07/17/2000": 2004,
      "##况": 2005,
      "▁design": 2006,
      "▁double": 2007,
      "##ster": 2008,
      "▁counterpart": 2009,
      "▁7:30": 2010,
      "▁placed": 2011,
      "▁11:07": 2012,
      "▁conf": 2013,
      "##aper": 2014,
      "##}*{": 2015,
      "▁concer": 2016,
      "▁sust": 2017,
      "▁publish": 2018,
      "##ploy": 2019,
      "▁protect": 2020,
      "▁any": 2021,
      "##oon": 2022,
      "▁finding": 2023,
      "▁desert": 2024,
      "▁11.5": 2025,
      "▁moment": 2026,
      "▁old": 2027,
      "▁them": 2028,
      "▁minus": 2029,
      "▁prov": 2030,
      "▁expl": 2031,
      "##ile": 2032,
      "▁......": 2033,
      "▁total": 2034,
      "▁miss": 2035,
      "##bed": 2036,
      "▁all": 2037,
      "▁chem": 2038,
      "▁website": 2039,
      "##uing": 2040,
      "▁n’t": 2041,
      "▁leader": 2042,
      "▁450": 2043,
      "##2000": 2044,
      "▁sar": 2045,
      "##65-3": 2046,
      "▁wak": 2047,
      "##st": 2048,
      "▁-----": 2049,
      "▁join": 2050,
      "##.676": 2051,
      "▁integr": 2052,
      "▁jose": 2053,
      "▁know": 2054,
      "▁theirs": 2055,
      "▁da": 2056,
      "▁comp": 2057,
      "▁receive": 2058,
      "▁purch": 2059,
      "▁trying": 2060,
      "##uit": 2061,
      "▁causes": 2062,
      "▁forget": 2063,
      "▁manager": 2064,
      "▁store": 2065,
      "##cell": 2066,
      "##-b": 2067,
      "▁followed": 2068,
      "▁toronto": 2069,
      "▁features": 2070,
      "t": 2071,
      "##d2": 2072,
      "▁750": 2073,
      "##boy": 2074,
      "▁bott": 2075,
      "##zy": 2076,
      "▁1-8": 2077,
      "▁ano": 2078,
      "##rison": 2079,
      "##lies": 2080,
      "▁dir": 2081,
      "▁technologies": 2082,
      "##/2000": 2083,
      "▁case": 2084,
      "▁check": 2085,
      "▁thousand": 2086,
      "▁extent": 2087,
      "##way": 2088,
      "##osure": 2089,
      "##rol": 2090,
      "▁non-": 2091,
      "##tail": 2092,
      "▁role": 2093,
      "##.3": 2094,
      "##/30/2001": 2095,
      "▁aim": 2096,
      "##rest": 2097,
      "##山": 2098,
      "▁6:30": 2099,
      "▁muscles": 2100,
      "##angu": 2101,
      "##g": 2102,
      "▁autom": 2103,
      "▁281-443-3": 2104,
      "##land": 2105,
      "▁bang": 2106,
      "▁1843": 2107,
      "##ember": 2108,
      "▁jump": 2109,
      "▁writ": 2110,
      "▁ever": 2111,
      "##orio": 2112,
      "##ital": 2113,
      "▁leaves": 2114,
      "▁turned": 2115,
      "▁tal": 2116,
      "▁orient": 2117,
      "▁settle": 2118,
      "##ipping": 2119,
      "▁spirit": 2120,
      "##pa": 2121,
      "##3/2000": 2122,
      "▁purpose": 2123,
      "##eland": 2124,
      "##ror": 2125,
      "##jam": 2126,
      "##ney": 2127,
      "▁dog": 2128,
      "▁intellig": 2129,
      "▁revolution": 2130,
      "▁seating": 2131,
      "▁personal": 2132,
      "▁devil": 2133,
      "▁exch": 2134,
      "▁260": 2135,
      "▁713-853-1696": 2136,
      "##ints": 2137,
      "▁713-793-": 2138,
      "▁has": 2139,
      "▁demon": 2140,
      "##sex": 2141,
      "▁best": 2142,
      "▁constitution": 2143,
      "▁pain": 2144,
      "▁neither": 2145,
      "▁uh": 2146,
      "▁end": 2147,
      "##iciency": 2148,
      "▁doors": 2149,
      "##eech": 2150,
      "▁spac": 2151,
      "▁bugs": 2152,
      "##igration": 2153,
      "##ites": 2154,
      "##-p": 2155,
      "##ft": 2156,
      ",": 2157,
      "▁terrible": 2158,
      "##:48": 2159,
      "▁70": 2160,
      "▁high": 2161,
      "▁cha": 2162,
      "▁had": 2163,
      "▁619": 2164,
      "▁holt": 2165,
      "▁nmemdrft8-7-01": 2166,
      "##at": 2167,
      "▁60": 2168,
      "▁03/09/2000": 2169,
      "▁2,300": 2170,
      "▁afford": 2171,
      "##3-3": 2172,
      "##ction": 2173,
      "▁`": 2174,
      "##te": 2175,
      "▁hoc": 2176,
      "▁recip": 2177,
      "##łod": 2178,
      "▁household": 2179,
      "▁massive": 2180,
      "▁pro": 2181,
      "▁rec": 2182,
      "##erves": 2183,
      "▁attract": 2184,
      "##iet": 2185,
      "▁cou": 2186,
      "▁broke": 2187,
      "▁1978": 2188,
      "▁713/8": 2189,
      "▁river": 2190,
      "##unk": 2191,
      "▁curren": 2192,
      "▁baby": 2193,
      "▁encabalgamiento": 2194,
      "▁bodies": 2195,
      "##isions": 2196,
      "▁tickle": 2197,
      "##usions": 2198,
      "##time": 2199,
      "▁apple": 2200,
      "##icycle": 2201,
      "▁users": 2202,
      "##icide": 2203,
      "▁offered": 2204,
      "##om": 2205,
      "▁provided": 2206,
      "▁ass": 2207,
      "##8/2000": 2208,
      "▁finger": 2209,
      "▁nante": 2210,
      "▁spider": 2211,
      "▁wanted": 2212,
      "▁g": 2213,
      "##ye": 2214,
      "▁09/15": 2215,
      "▁li": 2216,
      "▁!!!!": 2217,
      "▁rough": 2218,
      "▁watch": 2219,
      "##se": 2220,
      "##iration": 2221,
      "##ther": 2222,
      "##oulder": 2223,
      "##lig": 2224,
      "▁wol": 2225,
      "##la": 2226,
      "▁did": 2227,
      "▁develop": 2228,
      "▁rush": 2229,
      "##?": 2230,
      "▁pittsbur": 2231,
      "▁families": 2232,
      "##ton": 2233,
      "▁string": 2234,
      "##enge": 2235,
      "▁notes": 2236,
      "▁,": 2237,
      "##47": 2238,
      "▁adults": 2239,
      "##静": 2240,
      "##ass": 2241,
      "##leys": 2242,
      "##iders": 2243,
      "▁opposite": 2244,
      "##ities": 2245,
      "▁an": 2246,
      "▁main": 2247,
      "##26": 2248,
      "▁laws": 2249,
      "▁attrib": 2250,
      "##ek": 2251,
      "▁50000": 2252,
      "##}": 2253,
      "##ʒ": 2254,
      "▁78": 2255,
      "▁likely": 2256,
      "▁english": 2257,
      "▁human": 2258,
      "▁fiction": 2259,
      "##:34": 2260,
      "▁stage": 2261,
      "##act": 2262,
      "▁1875": 2263,
      "##eds": 2264,
      "##3-": 2265,
      "##gle": 2266,
      "##ancing": 2267,
      "##________________________________": 2268,
      "▁dec": 2269,
      "▁thin": 2270,
      "##2/2001": 2271,
      "▁281-443-3744": 2272,
      "▁afghanistan": 2273,
      "▁9/11": 2274,
      "##oney": 2275,
      "▁concern": 2276,
      "##744": 2277,
      "##oring": 2278,
      "▁but": 2279,
      "▁rural": 2280,
      "▁-----------------": 2281,
      "##bye": 2282,
      "▁expect": 2283,
      "▁hel": 2284,
      "▁famil": 2285,
      "##,6": 2286,
      "▁circum": 2287,
      "##ale": 2288,
      "▁pull": 2289,
      "▁suffer": 2290,
      "##rain": 2291,
      "▁po": 2292,
      "▁talk": 2293,
      "▁entitled": 2294,
      "”": 2295,
      "▁indian": 2296,
      "▁horrible": 2297,
      "▁connected": 2298,
      "▁meat": 2299,
      "##takana": 2300,
      "▁120": 2301,
      "▁geograph": 2302,
      "4": 2303,
      "##39": 2304,
      "▁410-468-3": 2305,
      "▁rid": 2306,
      "▁sending": 2307,
      "▁chat": 2308,
      "##ortun": 2309,
      "▁purs": 2310,
      "▁pric": 2311,
      "##ew": 2312,
      "▁el": 2313,
      "▁bread": 2314,
      "##ikh": 2315,
      "▁owned": 2316,
      "##vely": 2317,
      "▁galois": 2318,
      "##pite": 2319,
      "##ents": 2320,
      "▁jam": 2321,
      "▁dogg": 2322,
      "▁6.1": 2323,
      "##ised": 2324,
      "▁status": 2325,
      "▁vet": 2326,
      "▁microsoft": 2327,
      "▁seat": 2328,
      "▁47": 2329,
      "##bles": 2330,
      "▁ant": 2331,
      "▁front": 2332,
      "▁08/0": 2333,
      "▁240": 2334,
      "▁ob": 2335,
      "▁probably": 2336,
      "▁wine": 2337,
      "##ik": 2338,
      "▁religion": 2339,
      "▁pre": 2340,
      "▁ne": 2341,
      "##ues": 2342,
      "##ids": 2343,
      "▁ris": 2344,
      "▁!!!!!!": 2345,
      "▁neighb": 2346,
      "##bal": 2347,
      "▁created": 2348,
      "▁1800": 2349,
      "ʊ": 2350,
      "▁---------------------------------": 2351,
      "▁accepted": 2352,
      "▁comments": 2353,
      "▁2": 2354,
      "▁06": 2355,
      "▁could": 2356,
      "▁gent": 2357,
      "▁pal": 2358,
      "▁over": 2359,
      "##de": 2360,
      "##iro": 2361,
      "▁re": 2362,
      "##miss": 2363,
      "▁lies": 2364,
      "▁prod": 2365,
      "##__________": 2366,
      "▁committ": 2367,
      "##ose": 2368,
      "##2,000": 2369,
      "##-kedne": 2370,
      "##id": 2371,
      "▁nut": 2372,
      "▁cliff": 2373,
      "▁official": 2374,
      "▁loss": 2375,
      "▁000010": 2376,
      "▁intended": 2377,
      "##48": 2378,
      "▁departing": 2379,
      "▁length": 2380,
      "▁coord": 2381,
      "▁mentioned": 2382,
      "▁least": 2383,
      "▁achieve": 2384,
      "##ner": 2385,
      "▁730": 2386,
      "▁message": 2387,
      "##del": 2388,
      "▁1504": 2389,
      "▁1949": 2390,
      "##,00": 2391,
      "▁usual": 2392,
      "▁hamas": 2393,
      "▁3.8": 2394,
      "▁cray": 2395,
      "##une": 2396,
      "▁cent": 2397,
      "▁mater": 2398,
      "▁vot": 2399,
      "▁squir": 2400,
      "▁foot": 2401,
      "▁sitting": 2402,
      "▁arrow": 2403,
      "▁popular": 2404,
      "##enron": 2405,
      "▁pray": 2406,
      "▁15,000": 2407,
      "▁email": 2408,
      "##ut": 2409,
      "▁function": 2410,
      "▁black": 2411,
      "▁1841": 2412,
      "▁1588": 2413,
      "▁spr": 2414,
      "##hip": 2415,
      "##istics": 2416,
      "▁11/2": 2417,
      "▁alleged": 2418,
      "▁ill": 2419,
      "▁anthrax": 2420,
      "▁1623": 2421,
      "▁band": 2422,
      "▁canadian": 2423,
      "▁81": 2424,
      "##ized": 2425,
      "##fa": 2426,
      "▁co": 2427,
      "▁charl": 2428,
      "##ron": 2429,
      "##α": 2430,
      "▁166": 2431,
      "##ender": 2432,
      "▁\"": 2433,
      "▁85": 2434,
      "▁record": 2435,
      "▁yea": 2436,
      "##✉": 2437,
      "▁manage": 2438,
      "▁strict": 2439,
      "▁former": 2440,
      "▁650": 2441,
      "▁20,000": 2442,
      "▁bat": 2443,
      "▁vegas": 2444,
      "▁circumstances": 2445,
      "##ogel": 2446,
      "▁knife": 2447,
      "▁display": 2448,
      "▁target": 2449,
      "▁problem": 2450,
      "▁1983": 2451,
      "▁lea": 2452,
      "▁2:30": 2453,
      "▁organization": 2454,
      "▁und": 2455,
      "▁whose": 2456,
      "▁star": 2457,
      "▁movies": 2458,
      "▁trash": 2459,
      "▁traveling": 2460,
      "▁girls": 2461,
      "▁policies": 2462,
      "▁flow": 2463,
      "▁505-625-8031": 2464,
      "▁relig": 2465,
      "▁fruit": 2466,
      "▁evolution": 2467,
      "##ified": 2468,
      "▁kill": 2469,
      "▁proceed": 2470,
      "##ka": 2471,
      "▁goo": 2472,
      "▁broken": 2473,
      "▁liqu": 2474,
      "▁ret": 2475,
      "▁chair": 2476,
      "▁etc.": 2477,
      "▁fork": 2478,
      "▁years": 2479,
      "▁137": 2480,
      "▁freedom": 2481,
      "##389": 2482,
      "▁ba": 2483,
      "▁twenty": 2484,
      "▁manag": 2485,
      "▁v": 2486,
      "##oons": 2487,
      "▁tear": 2488,
      "▁ii": 2489,
      "▁post": 2490,
      "▁swe": 2491,
      "▁dance": 2492,
      "▁especially": 2493,
      "▁>": 2494,
      "▁japanese": 2495,
      "▁s/he": 2496,
      "▁greet": 2497,
      "##-20": 2498,
      "况": 2499,
      "##ave": 2500,
      "▁1967": 2501,
      "▁gold": 2502,
      "▁anti-": 2503,
      "##apes": 2504,
      "▁attacks": 2505,
      "##ator": 2506,
      "##ulation": 2507,
      "▁straight": 2508,
      "▁contribution": 2509,
      "##ering": 2510,
      "▁1994": 2511,
      "▁industry": 2512,
      "▁bi": 2513,
      "▁offer": 2514,
      "##bage": 2515,
      "##mber": 2516,
      "▁di": 2517,
      "▁button": 2518,
      "▁say": 2519,
      "▁possible": 2520,
      "▁staff": 2521,
      "▁aband": 2522,
      "▁ciao": 2523,
      "##in": 2524,
      "##teboo": 2525,
      "##**": 2526,
      "▁rise": 2527,
      "##dp": 2528,
      "▁24": 2529,
      "▁supplies": 2530,
      "▁attached": 2531,
      "▁mos": 2532,
      "▁1754": 2533,
      "▁lu": 2534,
      "▁tren": 2535,
      "▁congr": 2536,
      "▁down": 2537,
      "##/15/2001": 2538,
      "▁controls": 2539,
      "▁heav": 2540,
      "▁truly": 2541,
      "##less": 2542,
      "▁kay": 2543,
      "▁vast": 2544,
      "##uh": 2545,
      "▁intelligence": 2546,
      "▁wear": 2547,
      "▁expand": 2548,
      "▁egyptian": 2549,
      "##veria": 2550,
      "k": 2551,
      "▁senior": 2552,
      "▁host": 2553,
      "##eter": 2554,
      "▁hamster": 2555,
      "##aters": 2556,
      "##ric": 2557,
      "▁beauty": 2558,
      "▁custom": 2559,
      "▁islamic": 2560,
      "▁thought": 2561,
      "##sey": 2562,
      "▁225": 2563,
      "▁5,000": 2564,
      "▁associate": 2565,
      "▁tong": 2566,
      "▁dinos": 2567,
      "▁thomas": 2568,
      "▁meet": 2569,
      "▁abs": 2570,
      "##ateg": 2571,
      "▁renew": 2572,
      "▁oakland": 2573,
      "▁coc": 2574,
      "##phone": 2575,
      "▁!!!?": 2576,
      "▁elected": 2577,
      "▁ol": 2578,
      "▁pushed": 2579,
      "▁bad": 2580,
      "##!!!": 2581,
      "▁behavior": 2582,
      "▁em": 2583,
      "▁transp": 2584,
      "##rench": 2585,
      "##m": 2586,
      "▁cake": 2587,
      "##arr": 2588,
      "▁couple": 2589,
      "▁blanket": 2590,
      "##,000": 2591,
      "##ment": 2592,
      "▁03/0": 2593,
      "##78": 2594,
      "##ently": 2595,
      "▁revised": 2596,
      "u": 2597,
      "▁7.2": 2598,
      "##irts": 2599,
      "##--------------------------------": 2600,
      "▁713-853": 2601,
      "##y@enron_development": 2602,
      "▁yeah": 2603,
      "h": 2604,
      "▁888.916.7184": 2605,
      "▁against": 2606,
      "▁players": 2607,
      "##.61": 2608,
      "##of": 2609,
      "▁3-5": 2610,
      "▁nmemdrft": 2611,
      "▁gulf": 2612,
      "▁00": 2613,
      "▁175": 2614,
      "##lear": 2615,
      "▁beaut": 2616,
      "##iling": 2617,
      "▁11/10/2000": 2618,
      "▁invited": 2619,
      "▁1561": 2620,
      "▁fig": 2621,
      "▁course": 2622,
      "##ager": 2623,
      "##ously": 2624,
      "ف": 2625,
      "▁or": 2626,
      "▁inside": 2627,
      "##y": 2628,
      "▁close": 2629,
      "##ford": 2630,
      "▁09:": 2631,
      "▁refr": 2632,
      "▁x": 2633,
      "▁fifteen": 2634,
      "▁—": 2635,
      "▁rem": 2636,
      "##oc": 2637,
      "▁huit": 2638,
      "▁h": 2639,
      "▁independence": 2640,
      "▁dressed": 2641,
      "▁w/": 2642,
      "▁report": 2643,
      "▁shop": 2644,
      "▁complet": 2645,
      "##92": 2646,
      "▁achie": 2647,
      "▁make": 2648,
      "##roll": 2649,
      "▁tonight": 2650,
      "##.htm": 2651,
      "▁democr": 2652,
      "▁1846": 2653,
      "▁compar": 2654,
      "▁trading": 2655,
      "##her": 2656,
      "##eur": 2657,
      "▁hug": 2658,
      "▁dough": 2659,
      "##cal": 2660,
      "##'re": 2661,
      "▁climate": 2662,
      "▁create": 2663,
      "##sych": 2664,
      "##澹": 2665,
      "##ag": 2666,
      "▁built": 2667,
      "<": 2668,
      "▁works": 2669,
      "▁heads": 2670,
      "▁silver": 2671,
      "##mp": 2672,
      "▁comes": 2673,
      "##_": 2674,
      "▁bush": 2675,
      "▁contact": 2676,
      "##499": 2677,
      "▁65": 2678,
      "▁knowing": 2679,
      "##lers": 2680,
      "##uts": 2681,
      "▁1505": 2682,
      "▁crisis": 2683,
      "▁ev": 2684,
      "▁may": 2685,
      "▁pump": 2686,
      "▁approach": 2687,
      "▁buildings": 2688,
      "▁relationship": 2689,
      "##ing": 2690,
      "▁269": 2691,
      "##elines": 2692,
      "▁stood": 2693,
      "▁spos": 2694,
      "▁items": 2695,
      "▁(": 2696,
      "▁implementing": 2697,
      "▁1": 2698,
      "▁yo": 2699,
      "##0-3": 2700,
      "▁typ": 2701,
      "▁deal": 2702,
      "##uk": 2703,
      "▁prevent": 2704,
      "▁declar": 2705,
      "▁saying": 2706,
      "▁shad": 2707,
      "▁facebook": 2708,
      "▁stopped": 2709,
      "▁bunch": 2710,
      "▁israeli": 2711,
      "##ades": 2712,
      "▁smile": 2713,
      "▁day": 2714,
      "▁small": 2715,
      "##/26": 2716,
      "f": 2717,
      "▁04:03": 2718,
      "▁tourists": 2719,
      "##:40": 2720,
      "▁train": 2721,
      "▁syria": 2722,
      "▁balance": 2723,
      "▁waiting": 2724,
      "##cast": 2725,
      "▁beach": 2726,
      "▁apart": 2727,
      "##bur": 2728,
      "▁sho": 2729,
      "▁rob": 2730,
      "▁facilities": 2731,
      "▁william": 2732,
      "▁latest": 2733,
      "▁results": 2734,
      "▁pros": 2735,
      "##:44": 2736,
      "▁agents": 2737,
      "▁150,000": 2738,
      "▁everybody": 2739,
      "▁od": 2740,
      "▁tor": 2741,
      "▁toky": 2742,
      "▁squ": 2743,
      "▁hurts": 2744,
      "▁counterfe": 2745,
      "##innati": 2746,
      "▁inv": 2747,
      "▁..": 2748,
      "▁interested": 2749,
      "##=": 2750,
      "▁nana": 2751,
      "▁fuel": 2752,
      "▁acqu": 2753,
      "##ounts": 2754,
      "##4": 2755,
      "▁wor": 2756,
      "▁345-99": 2757,
      "▁91": 2758,
      "▁birthday": 2759,
      "▁1976": 2760,
      "##elly": 2761,
      "##ottable": 2762,
      "▁env": 2763,
      "▁wid": 2764,
      "▁bottom": 2765,
      "##xic": 2766,
      "▁alongside": 2767,
      "▁thr": 2768,
      "▁speech": 2769,
      "▁portion": 2770,
      "▁ste": 2771,
      "▁repe": 2772,
      "▁1980": 2773,
      "##ertain": 2774,
      "##isk": 2775,
      "##://": 2776,
      "##65": 2777,
      "▁01/24/2001": 2778,
      "▁monday": 2779,
      "▁2020": 2780,
      "▁needs": 2781,
      "▁smooth": 2782,
      "▁8": 2783,
      "##unte": 2784,
      "##iri": 2785,
      "▁yourself": 2786,
      "▁entit": 2787,
      "▁key": 2788,
      "▁song": 2789,
      "▁mir": 2790,
      "▁format": 2791,
      "▁suit": 2792,
      "▁850": 2793,
      "##++++": 2794,
      "▁gri": 2795,
      "##_de": 2796,
      "##log": 2797,
      "▁highly": 2798,
      "##--": 2799,
      "▁sides": 2800,
      "▁similar": 2801,
      "##13.86": 2802,
      "▁saving": 2803,
      "▁agent": 2804,
      "▁so": 2805,
      "▁recently": 2806,
      "▁sub": 2807,
      "▁07:24": 2808,
      "▁long": 2809,
      "▁202.456": 2810,
      "▁1832": 2811,
      "▁will": 2812,
      "▁minor": 2813,
      "▁coff": 2814,
      "▁chinese": 2815,
      "▁1660": 2816,
      "▁holding": 2817,
      "▁magazine": 2818,
      "▁scott": 2819,
      "▁skills": 2820,
      "##ret": 2821,
      "▁hosp": 2822,
      "##50": 2823,
      "##ami": 2824,
      "▁dent": 2825,
      "▁rap": 2826,
      "##ley": 2827,
      "▁quickly": 2828,
      "##rax": 2829,
      "▁already": 2830,
      "▁mov": 2831,
      "▁creative": 2832,
      "▁cheek": 2833,
      "##ham": 2834,
      "▁musharraf": 2835,
      "▁rel": 2836,
      "##8/2001": 2837,
      "▁bought": 2838,
      "ي": 2839,
      "▁lean": 2840,
      "##row": 2841,
      "▁2021": 2842,
      "##ecca": 2843,
      "▁safety": 2844,
      "▁de": 2845,
      "##ru": 2846,
      "▁530": 2847,
      "▁enforcement": 2848,
      "##ault": 2849,
      "▁times": 2850,
      "▁281-435-0295": 2851,
      "▁shut": 2852,
      "▁known": 2853,
      "▁bar": 2854,
      "▁transport": 2855,
      "▁print": 2856,
      "▁lord": 2857,
      "▁switch": 2858,
      "▁713-654-": 2859,
      "##/2": 2860,
      "▁flood": 2861,
      "##/17/99": 2862,
      "##velopment": 2863,
      "▁bos": 2864,
      "▁1848": 2865,
      "##www": 2866,
      "▁281": 2867,
      "##ove": 2868,
      "▁03/21/2001": 2869,
      "##ω": 2870,
      "▁brown": 2871,
      "▁aud": 2872,
      "▁patient": 2873,
      "##-696": 2874,
      "▁belie": 2875,
      "▁-": 2876,
      "▁independ": 2877,
      "ι": 2878,
      "▁restaur": 2879,
      "z": 2880,
      "##pl": 2881,
      "▁implementation": 2882,
      "▁union": 2883,
      "▁prosper": 2884,
      "▁yet": 2885,
      "▁altern": 2886,
      "▁kick": 2887,
      "▁mr": 2888,
      "▁another": 2889,
      "##ush": 2890,
      "▁washington": 2891,
      "▁345-3436": 2892,
      "▁allowed": 2893,
      "▁vs.": 2894,
      "▁rout": 2895,
      "##w": 2896,
      "##ri": 2897,
      "谿": 2898,
      "##gin": 2899,
      "##iques": 2900,
      "▁rev": 2901,
      "▁wan": 2902,
      "▁numerous": 2903,
      "##real": 2904,
      "▁buy": 2905,
      "▁mel": 2906,
      "▁tract": 2907,
      "▁became": 2908,
      "▁thro": 2909,
      "▁guarant": 2910,
      "▁handle": 2911,
      "##ption": 2912,
      "▁reason": 2913,
      "##435-": 2914,
      "▁patter": 2915,
      "▁him": 2916,
      "▁found": 2917,
      "▁give": 2918,
      "▁366": 2919,
      "▁missed": 2920,
      "##algami": 2921,
      "▁link": 2922,
      "▁ut": 2923,
      "##asing": 2924,
      "##soft": 2925,
      "▁425-415-": 2926,
      "▁bus": 2927,
      "▁.": 2928,
      "▁sample": 2929,
      "##izing": 2930,
      "▁eggs": 2931,
      "▁08:30": 2932,
      "▁1604": 2933,
      "##e@enron": 2934,
      "▁parking": 2935,
      "▁nervous": 2936,
      "▁qa": 2937,
      "▁lion": 2938,
      "▁happened": 2939,
      "##sel": 2940,
      "▁nandaro": 2941,
      "##ication": 2942,
      "▁ku": 2943,
      "##oma": 2944,
      "▁died": 2945,
      "▁taste": 2946,
      "##den": 2947,
      "▁10/26/2000": 2948,
      "▁dans": 2949,
      "##.": 2950,
      "##ril": 2951,
      "##7.77": 2952,
      "##aint": 2953,
      "▁sup": 2954,
      "▁simply": 2955,
      "▁duty": 2956,
      "##rect": 2957,
      "##ommend": 2958,
      "▁1859": 2959,
      "##ception": 2960,
      "▁62": 2961,
      "▁among": 2962,
      "▁told": 2963,
      "##oice": 2964,
      "##--------": 2965,
      "▁spot": 2966,
      "▁active": 2967,
      "##xce": 2968,
      "▁afric": 2969,
      "w": 2970,
      "▁days": 2971,
      "##ozer": 2972,
      "▁1.75": 2973,
      "▁sector": 2974,
      "▁answered": 2975,
      "##.n": 2976,
      "##-642": 2977,
      "▁dan": 2978,
      "▁anyway": 2979,
      "▁feature": 2980,
      "▁feels": 2981,
      "▁1954": 2982,
      "▁8043": 2983,
      "▁fy": 2984,
      "▁cold": 2985,
      "##0295": 2986,
      "▁shakes": 2987,
      "▁esp": 2988,
      "▁1.5": 2989,
      "##ih": 2990,
      "▁standing": 2991,
      "▁cupc": 2992,
      "▁ha": 2993,
      "▁harv": 2994,
      "▁interact": 2995,
      "##łodz": 2996,
      "▁ukrain": 2997,
      "▁arg": 2998,
      "▁details": 2999,
      "▁3.": 3000,
      "##df": 3001,
      "▁karen": 3002,
      "##zz": 3003,
      "##.c": 3004,
      "▁mad": 3005,
      "▁earli": 3006,
      "##29": 3007,
      "##for": 3008,
      "▁character": 3009,
      "##:3": 3010,
      "##a)": 3011,
      "▁stretch": 3012,
      "▁713": 3013,
      "▁applic": 3014,
      "▁fill": 3015,
      "▁ed": 3016,
      "##org": 3017,
      "▁fit": 3018,
      "▁pl": 3019,
      "▁aunt": 3020,
      "▁chagrin": 3021,
      "##-9004": 3022,
      "▁need": 3023,
      "▁2.00": 3024,
      "▁713/853": 3025,
      "▁pepper": 3026,
      "▁1900": 3027,
      "▁44,000": 3028,
      "▁mama": 3029,
      "▁norton": 3030,
      "▁whi": 3031,
      "▁petersburg": 3032,
      "##89": 3033,
      "##d": 3034,
      "▁decade": 3035,
      "▁killing": 3036,
      "##ue": 3037,
      "▁researchers": 3038,
      "▁afghan": 3039,
      "▁alt": 3040,
      "▁research": 3041,
      "##38": 3042,
      "▁neighbor": 3043,
      "##phere": 3044,
      "##iff": 3045,
      "▁58": 3046,
      "##ρ": 3047,
      "▁careful": 3048,
      "▁burbank": 3049,
      "▁saw": 3050,
      "##rict": 3051,
      "▁exerc": 3052,
      "▁foc": 3053,
      "##60": 3054,
      "▁600": 3055,
      "▁played": 3056,
      "##4/2001": 3057,
      "##ocent": 3058,
      "##’t": 3059,
      "##amed": 3060,
      "##远": 3061,
      "▁156": 3062,
      "##津": 3063,
      "▁1991": 3064,
      "▁€": 3065,
      "▁5/18": 3066,
      "▁meaning": 3067,
      "##lied": 3068,
      ".": 3069,
      "##par": 3070,
      "##ob": 3071,
      "▁equal": 3072,
      "##.10": 3073,
      "##asa": 3074,
      "▁authorities": 3075,
      "0": 3076,
      "▁moral": 3077,
      "▁mo": 3078,
      "▁gorio": 3079,
      "##ining": 3080,
      "▁1799": 3081,
      "|": 3082,
      "▁cock": 3083,
      "▁require": 3084,
      "▁cleveland": 3085,
      "▁penal": 3086,
      "▁required": 3087,
      "##-79": 3088,
      "▁elimin": 3089,
      "▁tec": 3090,
      "▁individual": 3091,
      "##iew": 3092,
      "▁plenty": 3093,
      "▁crying": 3094,
      "▁representative": 3095,
      "▁witch": 3096,
      "▁yes": 3097,
      "▁vod": 3098,
      "▁snake": 3099,
      "▁origin": 3100,
      "##.123": 3101,
      "▁push": 3102,
      "▁claimed": 3103,
      "##ul": 3104,
      "▁---=": 3105,
      "▁1564": 3106,
      "l": 3107,
      "##/8/00": 3108,
      "▁mix": 3109,
      "▁afgh": 3110,
      "▁across": 3111,
      "▁good": 3112,
      "▁bre": 3113,
      "▁longer": 3114,
      "▁charged": 3115,
      "##greg": 3116,
      "▁phot": 3117,
      "▁chief": 3118,
      "▁revenue": 3119,
      "▁oak": 3120,
      "▁99": 3121,
      "##ح": 3122,
      "▁rules": 3123,
      "▁rol": 3124,
      "▁process": 3125,
      "▁numbers": 3126,
      "▁hand": 3127,
      "##ament": 3128,
      "▁experimental": 3129,
      "##atch": 3130,
      "▁tab": 3131,
      "▁delta": 3132,
      "▁sal": 3133,
      "▁stan": 3134,
      "▁suff": 3135,
      "##ah": 3136,
      "▁campa": 3137,
      "##子": 3138,
      "▁impro": 3139,
      "▁network": 3140,
      "▁discovered": 3141,
      "▁8.3": 3142,
      "‘": 3143,
      "▁remained": 3144,
      "##osed": 3145,
      "▁october": 3146,
      "▁traged": 3147,
      "▁2012": 3148,
      "▁catch": 3149,
      "▁person": 3150,
      "▁block": 3151,
      "▁350": 3152,
      "α": 3153,
      "▁10": 3154,
      "▁lower": 3155,
      "##gar": 3156,
      "▁better": 3157,
      "▁345-9945": 3158,
      "##neath": 3159,
      "▁dress": 3160,
      "▁33": 3161,
      "▁1940": 3162,
      "▁summ": 3163,
      "▁1892": 3164,
      "▁tend": 3165,
      "▁whe": 3166,
      "▁merely": 3167,
      "▁takes": 3168,
      "▁ate": 3169,
      "▁maint": 3170,
      "▁460": 3171,
      "▁surrounded": 3172,
      "▁edit": 3173,
      "##ram": 3174,
      "▁/": 3175,
      "▁excited": 3176,
      "▁sta": 3177,
      "▁salon": 3178,
      "▁159": 3179,
      "▁fundamental": 3180,
      "▁migr": 3181,
      "##32": 3182,
      "▁animals": 3183,
      "▁max": 3184,
      "▁flowers": 3185,
      "▁cle": 3186,
      "##ition": 3187,
      "▁interest": 3188,
      "▁76": 3189,
      "##ear": 3190,
      "▁+45": 3191,
      "▁140": 3192,
      "##cross": 3193,
      "##enn": 3194,
      "•": 3195,
      "▁05908549": 3196,
      "▁terrorist": 3197,
      "▁prime": 3198,
      "▁socks": 3199,
      "▁6.2.1": 3200,
      "▁11/0": 3201,
      "##esome": 3202,
      "##ella": 3203,
      "##,500": 3204,
      "##ifying": 3205,
      "##ory": 3206,
      "▁44": 3207,
      "▁stra": 3208,
      "##iwan": 3209,
      "▁nash": 3210,
      "▁1849": 3211,
      "▁deter": 3212,
      "##ging": 3213,
      "▁stayed": 3214,
      "##uals": 3215,
      "▁sole": 3216,
      "##ven": 3217,
      "▁twenty-": 3218,
      "▁acad": 3219,
      "▁developed": 3220,
      "▁operation": 3221,
      "▁conference": 3222,
      "▁confident": 3223,
      "##-23": 3224,
      "##ern": 3225,
      "▁fus": 3226,
      "▁art": 3227,
      "▁swim": 3228,
      "▁nearly": 3229,
      "##/0": 3230,
      "##ois": 3231,
      "▁women": 3232,
      "▁steps": 3233,
      "▁680": 3234,
      "##oid": 3235,
      "▁weak": 3236,
      "▁resident": 3237,
      "▁psych": 3238,
      "▁isl": 3239,
      "▁request": 3240,
      "##imes": 3241,
      "▁moon": 3242,
      "▁hes": 3243,
      "▁palestinian": 3244,
      "##af": 3245,
      "▁fool": 3246,
      "▁2.0": 3247,
      "##ev": 3248,
      "▁united": 3249,
      "▁convers": 3250,
      "▁dem": 3251,
      "奈": 3252,
      "▁useful": 3253,
      "▁self": 3254,
      "▁significant": 3255,
      "▁group": 3256,
      "▁visit": 3257,
      "▁peau": 3258,
      "▁169": 3259,
      "▁chapter": 3260,
      "##oud": 3261,
      "▁0": 3262,
      "▁essential": 3263,
      "▁actual": 3264,
      "▁chaos": 3265,
      "##orders": 3266,
      "##-s": 3267,
      "##********************************": 3268,
      "▁doo": 3269,
      "▁u.s.": 3270,
      "##thing": 3271,
      "▁hm": 3272,
      "▁con": 3273,
      "##eable": 3274,
      "▁87": 3275,
      "▁~": 3276,
      "▁accident": 3277,
      "##pan": 3278,
      "▁seriously": 3279,
      "▁tam": 3280,
      "##(": 3281,
      "▁amongst": 3282,
      "▁ireland": 3283,
      "▁>>": 3284,
      "▁frequently": 3285,
      "▁american": 3286,
      "##where": 3287,
      "'": 3288,
      "▁argument": 3289,
      "##/08": 3290,
      "##ats": 3291,
      "▁answ": 3292,
      "▁73": 3293,
      "▁confirm": 3294,
      "▁doub": 3295,
      "▁nor": 3296,
      "▁mayor": 3297,
      "##.00": 3298,
      "##reat": 3299,
      "▁fem": 3300,
      "##ect": 3301,
      "##8-7": 3302,
      "▁mountains": 3303,
      "▁bright": 3304,
      "▁fish": 3305,
      "▁lighting": 3306,
      "▁=": 3307,
      "▁doughnut": 3308,
      "##road": 3309,
      "▁base": 3310,
      "▁cool": 3311,
      "▁lists": 3312,
      "▁prepar": 3313,
      "▁war": 3314,
      "##================": 3315,
      "▁yout": 3316,
      "##oll": 3317,
      "▁mount": 3318,
      "▁1.00": 3319,
      "▁1805": 3320,
      "▁their": 3321,
      "▁ideas": 3322,
      "▁except": 3323,
      "##z": 3324,
      "▁sorry": 3325,
      "▁107": 3326,
      "##orial": 3327,
      "ɑ": 3328,
      "▁☏": 3329,
      "▁camp": 3330,
      "▁2:25": 3331,
      "▁500": 3332,
      "▁fares": 3333,
      "▁25": 3334,
      "##:21": 3335,
      "##friend": 3336,
      "##ate": 3337,
      "▁db": 3338,
      "##:1": 3339,
      "▁election": 3340,
      "▁craw": 3341,
      "▁1/2": 3342,
      "▁sweetie": 3343,
      "▁images": 3344,
      "▁val": 3345,
      "##ee": 3346,
      "▁pip": 3347,
      "▁some": 3348,
      "▁sri": 3349,
      "▁rather": 3350,
      "▁bask": 3351,
      "▁un": 3352,
      "##k.": 3353,
      "▁vogelaviatio": 3354,
      "##****************": 3355,
      "##athers": 3356,
      "▁cell": 3357,
      "##ruct": 3358,
      "##------------": 3359,
      "▁product": 3360,
      "▁1699": 3361,
      "▁montreal": 3362,
      "▁ga": 3363,
      "##asks": 3364,
      "▁usually": 3365,
      "▁cart": 3366,
      "▁1580": 3367,
      "▁giv": 3368,
      "▁date": 3369,
      "▁burst": 3370,
      "▁rocks": 3371,
      "##ains": 3372,
      "##/15": 3373,
      "##ess": 3374,
      "▁9": 3375,
      "▁80": 3376,
      "▁rich": 3377,
      "▁.!": 3378,
      "##ny": 3379,
      "▁want": 3380,
      "▁quart": 3381,
      "##ulous": 3382,
      "▁loan": 3383,
      "▁proposal": 3384,
      "▁**": 3385,
      "▁confir": 3386,
      "▁copy": 3387,
      "▁1696": 3388,
      "##ua": 3389,
      "▁horsie": 3390,
      "▁11/7": 3391,
      "##/31": 3392,
      "▁33,000": 3393,
      "##raf": 3394,
      "##omm": 3395,
      "##hol": 3396,
      "▁silk": 3397,
      "##ook": 3398,
      "##96": 3399,
      "▁single": 3400,
      "▁1602": 3401,
      "##oned": 3402,
      "##°": 3403,
      "▁authority": 3404,
      "##ame": 3405,
      "▁successful": 3406,
      "▁...................": 3407,
      "▁history": 3408,
      "▁i": 3409,
      "▁man": 3410,
      "▁calm": 3411,
      "▁captain": 3412,
      "▁70.85": 3413,
      "##err": 3414,
      "▁quest": 3415,
      "▁fle": 3416,
      "##dd": 3417,
      "▁shall": 3418,
      "▁khan": 3419,
      "▁lots": 3420,
      "▁3": 3421,
      "▁sleepy": 3422,
      "▁1777": 3423,
      "£": 3424,
      "▁mummy": 3425,
      "##/01": 3426,
      "▁phen": 3427,
      "▁thing": 3428,
      "##amb": 3429,
      "▁vide": 3430,
      "##oni": 3431,
      "’": 3432,
      "▁window": 3433,
      "▁likes": 3434,
      "##zen": 3435,
      "##88": 3436,
      "▁buck": 3437,
      "▁bla": 3438,
      "▁market": 3439,
      "▁desc": 3440,
      "▁sn": 3441,
      "▁safet": 3442,
      "##-415-": 3443,
      "##vo": 3444,
      "▁crack": 3445,
      "▁imm": 3446,
      "▁tar": 3447,
      "▁ord": 3448,
      "▁lar": 3449,
      "##ting": 3450,
      "▁inform": 3451,
      "##au": 3452,
      "▁dw": 3453,
      "▁arrival": 3454,
      "▁pit": 3455,
      "▁energ": 3456,
      "▁505-625": 3457,
      "▁conditions": 3458,
      "▁5:00": 3459,
      "▁3724": 3460,
      "▁pho": 3461,
      "##.s.": 3462,
      "##h": 3463,
      "▁most": 3464,
      "▁fac": 3465,
      "▁media": 3466,
      "▁blue": 3467,
      "▁899-": 3468,
      "##rin": 3469,
      "▁funct": 3470,
      "▁trained": 3471,
      "##:16": 3472,
      "##1/2001": 3473,
      "##443-3": 3474,
      "##-7": 3475,
      "##ogether": 3476,
      "##rans": 3477,
      "▁stairs": 3478,
      "##ior": 3479,
      "▁deep": 3480,
      "▁del": 3481,
      "▁multip": 3482,
      "##br": 3483,
      "▁ensure": 3484,
      "▁sour": 3485,
      "##|": 3486,
      "▁subjects": 3487,
      "▁fact": 3488,
      "▁som": 3489,
      "▁joy": 3490,
      "▁10/31": 3491,
      "▁legislation": 3492,
      "##own": 3493,
      "▁weather": 3494,
      "▁hen": 3495,
      "▁na": 3496,
      "▁religious": 3497,
      "▁itself": 3498,
      "▁lad": 3499,
      "▁teeth": 3500,
      "▁notwith": 3501,
      "▁wolf": 3502,
      "▁pers": 3503,
      "▁rang": 3504,
      "▁said": 3505,
      "▁originally": 3506,
      "##0": 3507,
      "▁favor": 3508,
      "▁recommend": 3509,
      "##olog": 3510,
      "▁apprec": 3511,
      "▁202.456.2461": 3512,
      "▁1609": 3513,
      "▁week": 3514,
      "▁appropriate": 3515,
      "▁u.": 3516,
      "▁explan": 3517,
      "▁825": 3518,
      "##14": 3519,
      "▁compreh": 3520,
      "##ibilities": 3521,
      "##etary": 3522,
      "▁84": 3523,
      "##ache": 3524,
      "##-l": 3525,
      "▁clear": 3526,
      "▁seven": 3527,
      "▁photograph": 3528,
      "▁_________________________________________________": 3529,
      "▁dining": 3530,
      "▁p": 3531,
      "ρ": 3532,
      "▁det": 3533,
      "▁sites": 3534,
      "▁trick": 3535,
      "▁no": 3536,
      "##lying": 3537,
      "##ased": 3538,
      "##.6": 3539,
      "▁pleasure": 3540,
      "▁else": 3541,
      "##iles": 3542,
      "▁google": 3543,
      "▁witness": 3544,
      "##ected": 3545,
      "▁4_28": 3546,
      "▁meal": 3547,
      "▁answers": 3548,
      "##mm": 3549,
      "##aiss": 3550,
      "▁responsibility": 3551,
      "▁graduate": 3552,
      "▁brief": 3553,
      "##:50": 3554,
      "##oman": 3555,
      "##dom": 3556,
      "▁diversity": 3557,
      "▁focus": 3558,
      "##order": 3559,
      "▁turning": 3560,
      "▁ken": 3561,
      "▁neigh": 3562,
      "▁lawy": 3563,
      "##raft": 3564,
      "▁pul": 3565,
      "▁attem": 3566,
      "##dies": 3567,
      "▁kid": 3568,
      "▁gdp": 3569,
      "##sp": 3570,
      "##asons": 3571,
      "##/16/2001": 3572,
      "▁gross": 3573,
      "##mail": 3574,
      "▁road": 3575,
      "▁05/17/99": 3576,
      "▁417": 3577,
      "##is_0712": 3578,
      "▁peanut": 3579,
      "##ary": 3580,
      "▁evolutionary": 3581,
      "▁list": 3582,
      "▁living": 3583,
      "##ecess": 3584,
      "▁shi": 3585,
      "▁proud": 3586,
      "##orn": 3587,
      "▁larger": 3588,
      "##lic": 3589,
      "##do": 3590,
      "##1082": 3591,
      "##ained": 3592,
      "▁drink": 3593,
      "▁maintain": 3594,
      "▁hors": 3595,
      "##ding": 3596,
      "▁1307": 3597,
      "▁510-642": 3598,
      "##etime": 3599,
      "##ibreat": 3600,
      "▁particular": 3601,
      "▁channel": 3602,
      "▁wearing": 3603,
      "▁cogn": 3604,
      "▁sports": 3605,
      "##erved": 3606,
      "▁name": 3607,
      "▁philadelphia": 3608,
      "▁’ve": 3609,
      "##­": 3610,
      "▁cit": 3611,
      "▁marked": 3612,
      "▁-------------------------------------------------": 3613,
      "##ators": 3614,
      "▁protection": 3615,
      "▁county": 3616,
      "▁transfer": 3617,
      "▁seattle": 3618,
      "▁albeit": 3619,
      "▁hurry": 3620,
      "▁baking": 3621,
      "##ices": 3622,
      "##ati": 3623,
      "▁broad": 3624,
      "▁arrived": 3625,
      "▁teh": 3626,
      "▁appear": 3627,
      "##lined": 3628,
      "▁gender": 3629,
      "▁appeal": 3630,
      "##i": 3631,
      "▁vir": 3632,
      "▁interv": 3633,
      "▁kansas": 3634,
      "##ordon": 3635,
      "##.d": 3636,
      "▁crow": 3637,
      "▁lift": 3638,
      "▁awesome": 3639,
      "▁park": 3640,
      "▁pi": 3641,
      "▁where": 3642,
      "▁cat": 3643,
      "▁3/8/00": 3644,
      "▁clos": 3645,
      "▁style": 3646,
      "▁toast": 3647,
      "▁advantage": 3648,
      "##,600": 3649,
      "▁dg": 3650,
      "▁finished": 3651,
      "▁3:00": 3652,
      "▁bas": 3653,
      "▁1966": 3654,
      "##%": 3655,
      "▁thurs": 3656,
      "▁syn": 3657,
      "▁return": 3658,
      "##6": 3659,
      "▁cause": 3660,
      "##-d": 3661,
      "##ina": 3662,
      "▁mart": 3663,
      "▁relax": 3664,
      "##otion": 3665,
      "##ino": 3666,
      "##utely": 3667,
      "▁attempt": 3668,
      "▁beyond": 3669,
      "▁exercise": 3670,
      "##ark": 3671,
      "▁vi": 3672,
      "▁ride": 3673,
      "▁1787": 3674,
      "##/11": 3675,
      "##iously": 3676,
      "▁attack": 3677,
      "##pe": 3678,
      "##lect": 3679,
      "▁students": 3680,
      "##iled": 3681,
      "##~": 3682,
      "▁totally": 3683,
      "##.15": 3684,
      "▁general": 3685,
      "##ross": 3686,
      "▁cir": 3687,
      "▁dinner": 3688,
      "##ered": 3689,
      "▁eu": 3690,
      "▁55": 3691,
      "▁different": 3692,
      "▁family": 3693,
      "##½": 3694,
      "▁partners": 3695,
      "##ural": 3696,
      "▁magic": 3697,
      "▁garage": 3698,
      "▁signed": 3699,
      "##ics": 3700,
      "##20-": 3701,
      "##nondelibreat": 3702,
      "▁http": 3703,
      "▁region": 3704,
      "▁yer": 3705,
      "▁j": 3706,
      "##iday": 3707,
      "▁1950": 3708,
      "##*": 3709,
      "##icles": 3710,
      "▁+++": 3711,
      "▁shell": 3712,
      "##iod": 3713,
      "▁officials": 3714,
      "▁tr": 3715,
      "▁nine": 3716,
      "▁bones": 3717,
      "##8": 3718,
      "▁elect": 3719,
      "▁situ": 3720,
      "▁ash": 3721,
      "口": 3722,
      "ʒ": 3723,
      "##ito": 3724,
      "▁cities": 3725,
      "##.com/": 3726,
      "▁57": 3727,
      "▁communication": 3728,
      "▁quant": 3729,
      "##.2": 3730,
      "▁dol": 3731,
      "##ful": 3732,
      "##ias": 3733,
      "▁april": 3734,
      "▁flag": 3735,
      "▁mixed": 3736,
      "##4-": 3737,
      "##.45": 3738,
      "▁wed": 3739,
      "▁go": 3740,
      "##omet": 3741,
      "##chester": 3742,
      "▁operators": 3743,
      "▁dollar": 3744,
      "▁govern": 3745,
      "▁-2-": 3746,
      "##ya": 3747,
      "▁dey": 3748,
      "▁picked": 3749,
      "▁emb": 3750,
      "▁tractor": 3751,
      "▁'re": 3752,
      "▁very": 3753,
      "▁gramm": 3754,
      "▁jobs": 3755,
      "##ived": 3756,
      "▁incred": 3757,
      "▁alone": 3758,
      "▁bab": 3759,
      "▁atmosphere": 3760,
      "▁1616": 3761,
      "##load": 3762,
      "▁stop": 3763,
      "##880": 3764,
      "▁edu": 3765,
      "▁there": 3766,
      "▁plastic": 3767,
      "▁rose": 3768,
      "▁distingu": 3769,
      "##alle": 3770,
      "φ": 3771,
      "▁fr": 3772,
      "##gre": 3773,
      "▁legos": 3774,
      "▁drove": 3775,
      "##rial": 3776,
      "▁caused": 3777,
      "##“": 3778,
      "▁hund": 3779,
      "▁sport": 3780,
      "##د": 3781,
      "▁cruise": 3782,
      "▁before": 3783,
      "▁xv": 3784,
      "▁82": 3785,
      "▁http://": 3786,
      "▁roll": 3787,
      "▁conven": 3788,
      "▁olymp": 3789,
      "远": 3790,
      "▁wentz": 3791,
      "▁315": 3792,
      "##:02": 3793,
      "▁639": 3794,
      "##p": 3795,
      "##.621": 3796,
      "▁copies": 3797,
      "▁respond": 3798,
      "▁proble": 3799,
      "▁ena": 3800,
      "##bing": 3801,
      "▁elevator": 3802,
      "▁nerv": 3803,
      "▁jour": 3804,
      "##rist": 3805,
      "##134": 3806,
      "##enth": 3807,
      "##pt": 3808,
      "##ota": 3809,
      "▁improvement": 3810,
      "▁field": 3811,
      "▁threw": 3812,
      "##109": 3813,
      "##$": 3814,
      "▁supp": 3815,
      "▁tool": 3816,
      "##aska": 3817,
      "▁☎": 3818,
      "##ils": 3819,
      "▁gisb": 3820,
      "##osh": 3821,
      "##sters": 3822,
      "##ht": 3823,
      "▁penn": 3824,
      "▁humans": 3825,
      "▁bite": 3826,
      "##ti": 3827,
      "▁dkk": 3828,
      "##rier": 3829,
      "##ality": 3830,
      "▁concerned": 3831,
      "▁1647": 3832,
      "▁however": 3833,
      "▁internet": 3834,
      "▁experiences": 3835,
      "▁ou": 3836,
      "▁floor": 3837,
      "▁bub": 3838,
      "▁guidelines": 3839,
      "##ky": 3840,
      "##ants": 3841,
      "▁sle": 3842,
      "##ss": 3843,
      "▁belong": 3844,
      "▁grant": 3845,
      "##13": 3846,
      "▁reality": 3847,
      "▁crop": 3848,
      "▁des": 3849,
      "▁super": 3850,
      "▁jew": 3851,
      "##igning": 3852,
      "▁distrib": 3853,
      "▁03:48": 3854,
      "▁present": 3855,
      "▁side": 3856,
      "▁goods": 3857,
      "▁truck": 3858,
      "▁bathroom": 3859,
      "▁carolina": 3860,
      "##iao": 3861,
      "▁program": 3862,
      "▁refused": 3863,
      "##port": 3864,
      "##round": 3865,
      "▁sam": 3866,
      "##.com": 3867,
      "▁supper": 3868,
      "▁others": 3869,
      "▁chance": 3870,
      "▁law": 3871,
      "▁suggested": 3872,
      "▁gener": 3873,
      "▁pin": 3874,
      "▁which": 3875,
      "▁screen": 3876,
      "##ises": 3877,
      "▁01/26/2001": 3878,
      "▁definition": 3879,
      "▁paint": 3880,
      "▁major": 3881,
      "##393": 3882,
      "▁shark": 3883,
      "▁compon": 3884,
      "▁released": 3885,
      "##lymp": 3886,
      "▁drinks": 3887,
      "##ores": 3888,
      "##nesday": 3889,
      "##-343": 3890,
      "##ination": 3891,
      "▁|": 3892,
      "▁pivottable": 3893,
      "▁explain": 3894,
      "▁1100": 3895,
      "▁1613": 3896,
      "▁due": 3897,
      "▁besides": 3898,
      "▁site": 3899,
      "##imum": 3900,
      "▁ge": 3901,
      "##inary": 3902,
      "▁voice": 3903,
      "▁methods": 3904,
      "##lebr": 3905,
      "x": 3906,
      "▁seventy": 3907,
      "▁willing": 3908,
      "▁indust": 3909,
      "▁ded": 3910,
      "##ling": 3911,
      "▁3.7": 3912,
      "##-20-": 3913,
      "▁amaz": 3914,
      "▁888": 3915,
      "▁remark": 3916,
      "▁agric": 3917,
      "▁unlike": 3918,
      "▁hotels": 3919,
      "▁01/19/2001": 3920,
      "##9/2001": 3921,
      "##yr": 3922,
      "▁trial": 3923,
      "##ilities": 3924,
      "▁military": 3925,
      "##zing": 3926,
      "▁floating": 3927,
      "▁termin": 3928,
      "▁425": 3929,
      "▁04/16/2001": 3930,
      "##munic": 3931,
      "▁med": 3932,
      "##nut": 3933,
      "▁proposed": 3934,
      "­": 3935,
      "##no": 3936,
      "▁expected": 3937,
      "▁political": 3938,
      "▁asp": 3939,
      "▁increasing": 3940,
      "▁christmas": 3941,
      "▁strain": 3942,
      "▁well": 3943,
      "▁changed": 3944,
      "##1-": 3945,
      "▁129": 3946,
      "▁mal": 3947,
      "▁hour": 3948,
      "▁contr": 3949,
      "##uary": 3950,
      "▁surprised": 3951,
      "▁158": 3952,
      "##ald": 3953,
      "o": 3954,
      "▁shelf": 3955,
      "##anim": 3956,
      "▁22": 3957,
      "##used": 3958,
      "▁dam": 3959,
      "▁steph": 3960,
      "▁‘’": 3961,
      "▁apparent": 3962,
      "▁b.": 3963,
      "##ona": 3964,
      "▁horses": 3965,
      "▁z": 3966,
      "##ising": 3967,
      "▁shared": 3968,
      "津": 3969,
      "œ": 3970,
      "▁dollars": 3971,
      "▁anywhere": 3972,
      "▁demand": 3973,
      "##mer": 3974,
      "▁num": 3975,
      "##icle": 3976,
      "▁c.": 3977,
      "▁1179": 3978,
      "▁addiction": 3979,
      "##url": 3980,
      "▁me": 3981,
      "▁statements": 3982,
      "##ancy": 3983,
      "▁comedie": 3984,
      "##ph": 3985,
      "▁closer": 3986,
      "▁driver": 3987,
      "▁painting": 3988,
      "▁mor": 3989,
      "▁signs": 3990,
      "▁don": 3991,
      "##aro": 3992,
      "▁26": 3993,
      "▁seek": 3994,
      "▁pretend": 3995,
      "▁dri": 3996,
      "##:17": 3997,
      "▁underst": 3998,
      "▁first": 3999,
      "▁settlement": 4000,
      "▁late": 4001,
      "▁morning": 4002,
      "▁sandwich": 4003,
      "▁1575": 4004,
      "##2-": 4005,
      "▁average": 4006,
      "▁months": 4007,
      "▁basil": 4008,
      "▁battle": 4009,
      "▁cas": 4010,
      "▁procedure": 4011,
      "▁individ": 4012,
      "▁canada": 4013,
      "▁ran": 4014,
      "##wood": 4015,
      "▁notice": 4016,
      "▁clothing": 4017,
      "▁11:0": 4018,
      "▁illusions": 4019,
      "▁support": 4020,
      "##53": 4021,
      "▁public": 4022,
      "▁along": 4023,
      "▁185": 4024,
      "▁legs": 4025,
      "##peare": 4026,
      "▁defense": 4027,
      "##700": 4028,
      "▁suggests": 4029,
      "@": 4030,
      "▁brit": 4031,
      "▁killed": 4032,
      "##ival": 4033,
      "▁philosoph": 4034,
      "▁hundred": 4035,
      "▁1896": 4036,
      "▁34": 4037,
      "##on": 4038,
      "▁odd": 4039,
      "##ante": 4040,
      "▁202.456.1414": 4041,
      "▁e.g": 4042,
      "▁electricity": 4043,
      "▁view": 4044,
      "▁twenty-four": 4045,
      "##algamiento": 4046,
      "▁2005": 4047,
      "▁consequences": 4048,
      "▁yours": 4049,
      "▁jordan": 4050,
      "▁we": 4051,
      "##-625": 4052,
      "▁fee": 4053,
      "▁choose": 4054,
      "▁prec": 4055,
      "##ructure": 4056,
      "▁dist": 4057,
      "▁if": 4058,
      "▁home": 4059,
      "▁progr": 4060,
      "▁ex": 4061,
      "##fast": 4062,
      "##enes": 4063,
      "▁walking": 4064,
      "▁certainly": 4065,
      "##.70": 4066,
      "▁tun": 4067,
      "##0.doc": 4068,
      "▁kent": 4069,
      "▁iraq": 4070,
      "##ify": 4071,
      "▁cruc": 4072,
      "▁insurance": 4073,
      "##ø": 4074,
      "▁city": 4075,
      "##.4": 4076,
      "##rit": 4077,
      "▁contract": 4078,
      "▁connection": 4079,
      "▁penny": 4080,
      "##ume": 4081,
      "##:00": 4082,
      "##uj": 4083,
      "##ught": 4084,
      "▁defe": 4085,
      "▁jer": 4086,
      "▁46": 4087,
      "▁cover": 4088,
      "##itation": 4089,
      "▁bl": 4090,
      "▁67": 4091,
      "▁wake": 4092,
      "▁reve": 4093,
      "▁girl": 4094,
      "##ious": 4095,
      "##ub": 4096,
      "▁enh": 4097,
      "▁emerg": 4098,
      "▁forced": 4099,
      "▁government": 4100,
      "▁concerning": 4101,
      "▁regarding": 4102,
      "▁season": 4103,
      "▁relevant": 4104,
      "##li": 4105,
      "##/17/2000": 4106,
      "▁greek": 4107,
      "▁moh": 4108,
      "##orum": 4109,
      "▁governor": 4110,
      "▁fine": 4111,
      "▁w": 4112,
      "##ast": 4113,
      "##ز": 4114,
      "▁booked": 4115,
      "▁esc": 4116,
      "▁inch": 4117,
      "##omen": 4118,
      "▁image": 4119,
      "▁arrang": 4120,
      "▁confl": 4121,
      "▁cultural": 4122,
      "##ceed": 4123,
      "▁exec": 4124,
      "▁1820": 4125,
      "▁32": 4126,
      "▁waited": 4127,
      "▁hot": 4128,
      "▁begun": 4129,
      "▁needed": 4130,
      "▁shit": 4131,
      "▁haf": 4132,
      "▁minute": 4133,
      "▁pm": 4134,
      "▁strike": 4135,
      "▁oct": 4136,
      "▁conclusion": 4137,
      "▁295870": 4138,
      "▁err": 4139,
      "▁credit": 4140,
      "▁company": 4141,
      "▁29587": 4142,
      "▁die": 4143,
      "▁28": 4144,
      "##ounded": 4145,
      "▁pie": 4146,
      "##ares": 4147,
      "▁scan": 4148,
      "▁tu": 4149,
      "▁lun": 4150,
      "▁52": 4151,
      "##ody": 4152,
      "▁chairs": 4153,
      "▁hea": 4154,
      "▁words": 4155,
      "▁medicine": 4156,
      "▁given": 4157,
      "▁1691": 4158,
      "▁11/7/08": 4159,
      "##clock": 4160,
      "▁station": 4161,
      "▁mode": 4162,
      "▁atlanta": 4163,
      "▁1220": 4164,
      "▁advance": 4165,
      "▁critics": 4166,
      "▁judg": 4167,
      "▁once": 4168,
      "▁chicken": 4169,
      "##ced": 4170,
      "▁structural": 4171,
      "▁sec": 4172,
      "##ict": 4173,
      "##na": 4174,
      "##teen": 4175,
      "▁4:50": 4176,
      "▁air": 4177,
      "▁75": 4178,
      "▁mexic": 4179,
      "▁severe": 4180,
      "▁hus": 4181,
      "▁popcorn": 4182,
      "▁12,000": 4183,
      "##51": 4184,
      "▁rapid": 4185,
      "▁um": 4186,
      "ø": 4187,
      "▁apparently": 4188,
      "▁cop": 4189,
      "##ox": 4190,
      "▁generally": 4191,
      "▁monkey": 4192,
      "▁quality": 4193,
      "▁abo": 4194,
      "▁towards": 4195,
      "▁ath": 4196,
      "##light": 4197,
      "▁red": 4198,
      "a": 4199,
      "▁mot": 4200,
      "##ot": 4201,
      "##ud": 4202,
      "▁crit": 4203,
      "##glo": 4204,
      "▁200,000": 4205,
      "##ery": 4206,
      "▁susan": 4207,
      "▁nations": 4208,
      "##/200": 4209,
      "▁1562": 4210,
      "▁opin": 4211,
      "##vern": 4212,
      "▁61": 4213,
      "##sem": 4214,
      "▁enc": 4215,
      "##vil": 4216,
      "##====": 4217,
      "▁iv": 4218,
      "##ury": 4219,
      "▁flu": 4220,
      "▁t": 4221,
      "##grad": 4222,
      "▁office": 4223,
      "##☏": 4224,
      "▁713-853-3989": 4225,
      "º": 4226,
      "▁1971": 4227,
      "##ance": 4228,
      "▁leadership": 4229,
      "▁murder": 4230,
      "##ason": 4231,
      "##itted": 4232,
      "▁next": 4233,
      "▁1995": 4234,
      "▁177": 4235,
      "##key": 4236,
      "▁conduct": 4237,
      "▁walked": 4238,
      "▁question": 4239,
      "##46": 4240,
      "▁related": 4241,
      "▁10:00": 4242,
      "##ink": 4243,
      "▁infor": 4244,
      "▁capt": 4245,
      "▁type": 4246,
      "▁12.": 4247,
      "▁nature": 4248,
      "+": 4249,
      "▁below": 4250,
      "##fin": 4251,
      "▁b/c": 4252,
      "▁besid": 4253,
      "古": 4254,
      "##doc": 4255,
      "▁newspaper": 4256,
      "▁4-12": 4257,
      "▁web": 4258,
      "▁palestin": 4259,
      "▁bug": 4260,
      "▁equival": 4261,
      "▁hard": 4262,
      "▁been": 4263,
      "▁huh": 4264,
      "▁415.621": 4265,
      "▁care": 4266,
      "▁cases": 4267,
      "##44": 4268,
      "▁pres": 4269,
      "▁;)": 4270,
      "##.713.86": 4271,
      "▁pig": 4272,
      "##16.718": 4273,
      "▁paul": 4274,
      "▁prom": 4275,
      "▁morality": 4276,
      "##rition": 4277,
      "▁_________________________________": 4278,
      "▁4:30": 4279,
      "▁complete": 4280,
      "##uc": 4281,
      "▁international": 4282,
      "▁aware": 4283,
      "##byl": 4284,
      "▁lat": 4285,
      "▁ey": 4286,
      "▁russian": 4287,
      "▁third": 4288,
      "▁breakfast": 4289,
      "##70": 4290,
      "##ust": 4291,
      "▁news": 4292,
      "##elf": 4293,
      "▁money": 4294,
      "##bon": 4295,
      "##oun": 4296,
      "▁1878": 4297,
      "▁versus": 4298,
      "▁critical": 4299,
      "▁brought": 4300,
      "▁frame": 4301,
      "▁sunday": 4302,
      "▁atop": 4303,
      "▁9221": 4304,
      "##uss": 4305,
      "▁tacoma": 4306,
      "υ": 4307,
      "##uela": 4308,
      "▁movie": 4309,
      "##vert": 4310,
      "▁759933": 4311,
      "##ql": 4312,
      "▁198": 4313,
      "##ire": 4314,
      "▁occup": 4315,
      "▁tit": 4316,
      "##tto": 4317,
      "▁pad": 4318,
      "▁scen": 4319,
      "▁influence": 4320,
      "▁stip": 4321,
      "##usion": 4322,
      "▁emp": 4323,
      "##uring": 4324,
      "▁xii": 4325,
      "▁advis": 4326,
      "▁anne": 4327,
      "▁fir": 4328,
      "##ath": 4329,
      "▁resour": 4330,
      "##-nine": 4331,
      "▁litt": 4332,
      "▁subm": 4333,
      "▁birds": 4334,
      "##rical": 4335,
      "▁1833": 4336,
      "▁came": 4337,
      "▁focused": 4338,
      "▁speed": 4339,
      "▁surprising": 4340,
      "##enty": 4341,
      "▁05/25/2001": 4342,
      "▁sol": 4343,
      "▁intr": 4344,
      "▁mom": 4345,
      "▁cia": 4346,
      "▁about": 4347,
      "##ax": 4348,
      "▁not": 4349,
      "##;": 4350,
      "##:11": 4351,
      "▁padalecki": 4352,
      "▁juice": 4353,
      "▁comb": 4354,
      "▁explained": 4355,
      "▁comple": 4356,
      "▁debate": 4357,
      "##ux": 4358,
      "##oth": 4359,
      "##ower": 4360,
      "▁should": 4361,
      "▁effective": 4362,
      "▁alcalde": 4363,
      "▁clearly": 4364,
      "▁loved": 4365,
      "▁citizens": 4366,
      "▁low": 4367,
      "▁hill": 4368,
      "▁degree": 4369,
      "##ession": 4370,
      "♥": 4371,
      "▁reflect": 4372,
      "▁s": 4373,
      "##c)": 4374,
      "▁chickens": 4375,
      "##+": 4376,
      "▁mess": 4377,
      "##dam": 4378,
      "▁held": 4379,
      "▁assem": 4380,
      "▁hal": 4381,
      "▁ref": 4382,
      "##74": 4383,
      "▁alread": 4384,
      "▁cloth": 4385,
      "▁realize": 4386,
      "▁orders": 4387,
      "##ming": 4388,
      "▁private": 4389,
      "▁coun": 4390,
      "▁counterparty": 4391,
      "▁ip": 4392,
      "▁oblig": 4393,
      "##wa": 4394,
      "▁carefully": 4395,
      "▁production": 4396,
      "▁arrives": 4397,
      "▁glad": 4398,
      "▁planned": 4399,
      "▁plans": 4400,
      "▁tulsa": 4401,
      "▁483": 4402,
      "▁sales": 4403,
      "▁depend": 4404,
      "▁unt": 4405,
      "##ig": 4406,
      "##kana": 4407,
      "▁shops": 4408,
      "▁tot": 4409,
      "##eau": 4410,
      "▁correspond": 4411,
      "▁mat": 4412,
      "##app": 4413,
      "▁fat": 4414,
      "▁7.3": 4415,
      "▁1929": 4416,
      "▁bit": 4417,
      "▁16": 4418,
      "▁stress": 4419,
      "▁1230": 4420,
      "▁ten": 4421,
      "▁ask": 4422,
      "▁mitch": 4423,
      "##irt": 4424,
      "▁im": 4425,
      "▁fax": 4426,
      "▁like": 4427,
      "##ble": 4428,
      "☏": 4429,
      "▁|--------+----------------": 4430,
      "▁01810": 4431,
      "ʃ": 4432,
      "##00": 4433,
      "▁mathematics": 4434,
      "▁culture": 4435,
      "▁familiar": 4436,
      "▁surpr": 4437,
      "##igr": 4438,
      "▁friday": 4439,
      "▁poor": 4440,
      "▁2.5": 4441,
      "▁wild": 4442,
      "##9/2000": 4443,
      "▁it": 4444,
      "##ail": 4445,
      "▁paren": 4446,
      "▁6.00": 4447,
      "##712": 4448,
      "▁sy": 4449,
      "▁install": 4450,
      "##ount": 4451,
      "##xt": 4452,
      "▁performance": 4453,
      "##ript": 4454,
      "▁surr": 4455,
      "##iving": 4456,
      "▁plus": 4457,
      "▁.......": 4458,
      "▁aust": 4459,
      "▁santorum": 4460,
      "▁adequ": 4461,
      "▁restrict": 4462,
      "▁05/30/2001": 4463,
      "##new": 4464,
      "##iner": 4465,
      "##arant": 4466,
      "▁tip": 4467,
      "##pri": 4468,
      "▁197": 4469,
      "##gl": 4470,
      "▁wars": 4471,
      "▁blind": 4472,
      "▁deals": 4473,
      "##igh": 4474,
      "##i-": 4475,
      "▁stomach": 4476,
      "▁fly": 4477,
      "##ine": 4478,
      "▁wilt": 4479,
      "▁1822": 4480,
      "▁ke": 4481,
      "9": 4482,
      "##ie": 4483,
      "▁invol": 4484,
      "▁eff": 4485,
      "▁finally": 4486,
      "▁guid": 4487,
      "▁mother": 4488,
      "▁arms": 4489,
      "▁priv": 4490,
      "▁01:39": 4491,
      "▁1,": 4492,
      "▁virt": 4493,
      "##ulate": 4494,
      "▁frank": 4495,
      "▁4.6": 4496,
      "▁====================================================": 4497,
      "##.831": 4498,
      "▁spending": 4499,
      "▁variety": 4500,
      "##itter": 4501,
      "▁ready": 4502,
      "▁driving": 4503,
      "▁update": 4504,
      "##eck": 4505,
      "▁boot": 4506,
      "▁candid": 4507,
      "▁track": 4508,
      "▁nope": 4509,
      "▁july": 4510,
      "##'s": 4511,
      "##ov": 4512,
      "▁wood": 4513,
      "▁hang": 4514,
      "##s.": 4515,
      "▁1585": 4516,
      "##wide": 4517,
      "▁tail": 4518,
      "##eng": 4519,
      "▁astr": 4520,
      "▁prefer": 4521,
      "▁rock": 4522,
      "▁chris": 4523,
      "▁detailed": 4524,
      "▁negative": 4525,
      "▁raining": 4526,
      "▁16.379": 4527,
      "▁skittles": 4528,
      "##ch": 4529,
      "▁800-553-3119": 4530,
      "▁seeking": 4531,
      "▁existing": 4532,
      "▁national": 4533,
      "##oint": 4534,
      "▁calc": 4535,
      "▁79": 4536,
      "▁views": 4537,
      "##what": 4538,
      "▁involve": 4539,
      "##ll": 4540,
      "▁1614": 4541,
      "▁disease": 4542,
      "▁guys": 4543,
      "▁ur": 4544,
      "##±": 4545,
      "▁sister": 4546,
      "▁only": 4547,
      "▁opp": 4548,
      "▁beneath": 4549,
      "##ilar": 4550,
      "##•": 4551,
      "▁.....": 4552,
      "▁pred": 4553,
      "▁rat": 4554,
      "▁!!!!!!!!!!": 4555,
      "##古": 4556,
      "▁natural": 4557,
      "▁wow": 4558,
      "##ius": 4559,
      "▁'em": 4560,
      "▁cra": 4561,
      "▁damage": 4562,
      "▁additional": 4563,
      "▁madam": 4564,
      "▁he": 4565,
      "▁-stip": 4566,
      "##cceed": 4567,
      "▁rule": 4568,
      "##????????????????": 4569,
      "▁713/": 4570,
      "▁whether": 4571,
      "▁03/02/2001": 4572,
      "▁principle": 4573,
      "▁reports": 4574,
      "▁alliance": 4575,
      "▁1926": 4576,
      "##mark": 4577,
      "▁exam": 4578,
      "▁49": 4579,
      "▁section": 4580,
      "▁pack": 4581,
      "##/01/2001": 4582,
      "▁selection": 4583,
      "##16": 4584,
      "▁library": 4585,
      "▁immediate": 4586,
      "##aped": 4587,
      "##ash": 4588,
      "▁eleven": 4589,
      "▁02": 4590,
      "▁620-294-": 4591,
      "▁unless": 4592,
      "▁back": 4593,
      "▁decades": 4594,
      "▁piece": 4595,
      "▁tent": 4596,
      "▁imag": 4597,
      "▁appreciate": 4598,
      "▁6400": 4599,
      "##uz": 4600,
      "▁contin": 4601,
      "▁noticed": 4602,
      "▁closely": 4603,
      "▁responsible": 4604,
      "##re": 4605,
      "▁pub": 4606,
      "##let": 4607,
      "▁pets": 4608,
      "▁just": 4609,
      "▁discuss": 4610,
      "▁fingers": 4611,
      "##rup": 4612,
      "▁rele": 4613,
      "▁boom": 4614,
      "▁senator": 4615,
      "▁accur": 4616,
      "##ives": 4617,
      "▁tri": 4618,
      "▁spec": 4619,
      "▁8:15": 4620,
      "##mdrft": 4621,
      "▁ocean": 4622,
      "▁sens": 4623,
      "##how": 4624,
      "▁bel": 4625,
      "▁early": 4626,
      "▁727": 4627,
      "▁pizza": 4628,
      "▁streets": 4629,
      "##17": 4630,
      "▁sustain": 4631,
      "##vant": 4632,
      "▁2002": 4633,
      "▁specifically": 4634,
      "(": 4635,
      "▁practice": 4636,
      "▁james": 4637,
      "▁friends": 4638,
      "▁solid": 4639,
      "▁af": 4640,
      "##burg": 4641,
      "##ures": 4642,
      "▁capac": 4643,
      "▁1222": 4644,
      "##:29": 4645,
      "▁43": 4646,
      "▁beside": 4647,
      "▁1959": 4648,
      "▁reply": 4649,
      "▁mile": 4650,
      "▁gon": 4651,
      "g": 4652,
      "##alth": 4653,
      "▁considerable": 4654,
      "▁etc": 4655,
      "▁tummy": 4656,
      "▁713-8": 4657,
      "##.25": 4658,
      "▁+++++": 4659,
      "##gether": 4660,
      "▁several": 4661,
      "▁shackleton": 4662,
      "▁address": 4663,
      "##30": 4664,
      "##ially": 4665,
      "▁intel": 4666,
      "##:51": 4667,
      "▁age": 4668,
      "##ashed": 4669,
      "▁re-": 4670,
      "##ou": 4671,
      "▁800-5": 4672,
      "▁205": 4673,
      "▁1992": 4674,
      "▁kev": 4675,
      "▁transl": 4676,
      "▁running": 4677,
      "▁713-6": 4678,
      "▁valle": 4679,
      "▁12/2": 4680,
      "##ibly": 4681,
      "##hing": 4682,
      "▁lopez": 4683,
      "##iction": 4684,
      "##ado": 4685,
      "▁camera": 4686,
      "▁b/": 4687,
      "##form": 4688,
      "##cel": 4689,
      "##ns": 4690,
      "θ": 4691,
      "▁zealand": 4692,
      "▁’d": 4693,
      "/": 4694,
      "##istic": 4695,
      "##to": 4696,
      "##rou": 4697,
      "##istan": 4698,
      "▁mweta": 4699,
      "▁01/1": 4700,
      "▁shock": 4701,
      "##414": 4702,
      "▁carol": 4703,
      "##34": 4704,
      "▁quinn": 4705,
      "▁kitchen": 4706,
      "▁bye": 4707,
      "▁rub": 4708,
      "ɔ": 4709,
      "▁query": 4710,
      "▁sell": 4711,
      "▁environmental": 4712,
      "▁protest": 4713,
      "▁appears": 4714,
      "▁body": 4715,
      "▁study": 4716,
      "##ks": 4717,
      "▁police": 4718,
      "▁phil": 4719,
      "▁": 4720,
      "▁daily": 4721,
      "▁alberta": 4722,
      "▁up": 4723,
      "▁10:5": 4724,
      "##al.doc": 4725,
      "##imp": 4726,
      "##rible": 4727,
      "▁kn": 4728,
      "##********": 4729,
      "▁reasons": 4730,
      "▁505": 4731,
      "##olution": 4732,
      "▁free": 4733,
      "▁last": 4734,
      "▁species": 4735,
      "##s": 4736,
      "▁hospital": 4737,
      "##out": 4738,
      "▁son": 4739,
      "▁1:00": 4740,
      "##cil": 4741,
      "▁having": 4742,
      "▁determined": 4743,
      "▁glor": 4744,
      "n": 4745,
      "##22,000": 4746,
      "▁aid": 4747,
      "▁colour": 4748,
      "##ological": 4749,
      "▁named": 4750,
      "▁dat": 4751,
      "▁nest": 4752,
      "▁parents": 4753,
      "##==============": 4754,
      "▁cheap": 4755,
      "##uf": 4756,
      "▁fall": 4757,
      "▁$": 4758,
      "▁certific": 4759,
      "▁quick": 4760,
      "##ef": 4761,
      "▁owners": 4762,
      "▁pay": 4763,
      "▁jan": 4764,
      "▁soc": 4765,
      "▁movement": 4766,
      "▁warm": 4767,
      "▁added": 4768,
      "▁2000": 4769,
      "▁eight": 4770,
      "##inc": 4771,
      "▁basis": 4772,
      "##ective": 4773,
      "▁imagine": 4774,
      "##ها": 4775,
      "▁iso": 4776,
      "▁uses": 4777,
      "▁09/15/99": 4778,
      "▁mech": 4779,
      "▁promised": 4780,
      "▁elements": 4781,
      "▁absol": 4782,
      "▁strategy": 4783,
      "▁ast": 4784,
      "▁divers": 4785,
      "##ips": 4786,
      "▁way": 4787,
      "▁elections": 4788,
      "##]": 4789,
      "▁09/16/99": 4790,
      "▁questions": 4791,
      "##ter": 4792,
      "##ren": 4793,
      "##illa": 4794,
      "▁head": 4795,
      "▁pan": 4796,
      "▁filter": 4797,
      "▁mainly": 4798,
      "▁12:42": 4799,
      "▁nand": 4800,
      "▁tex": 4801,
      "▁plants": 4802,
      "##viatio": 4803,
      "##kee": 4804,
      "▁spl": 4805,
      "▁weekend": 4806,
      "##tering": 4807,
      "▁joke": 4808,
      "▁warming": 4809,
      "▁ab": 4810,
      "▁serves": 4811,
      "▁sink": 4812,
      "##ian": 4813,
      "##/2001": 4814,
      "##ured": 4815,
      "▁1877": 4816,
      "▁veh": 4817,
      "▁ele": 4818,
      "▁mur": 4819,
      "▁sac": 4820,
      "▁1592": 4821,
      "▁anybody": 4822,
      "##aff": 4823,
      "▁professional": 4824,
      "▁http://www.": 4825,
      "##53-3119": 4826,
      "##th": 4827,
      "▁dad": 4828,
      "▁12/26/2000": 4829,
      "##ampa": 4830,
      "##♥": 4831,
      "##43": 4832,
      "▁su": 4833,
      "▁tom": 4834,
      "▁online": 4835,
      "▁&amp": 4836,
      "▁pool": 4837,
      "##ore": 4838,
      "##-99": 4839,
      "▁polar": 4840,
      "##lim": 4841,
      "▁hav": 4842,
      "##erve": 4843,
      "▁mitchell": 4844,
      "▁amendment": 4845,
      "##.x": 4846,
      "▁--": 4847,
      "▁jason": 4848,
      "##lines": 4849,
      "▁community": 4850,
      "ν": 4851,
      "##edule": 4852,
      "##ground": 4853,
      "▁08/16": 4854,
      "▁village": 4855,
      "▁sweet": 4856,
      "##erre": 4857,
      "▁---------------------------------------------------------------------": 4858,
      "▁angry": 4859,
      "▁systems": 4860,
      "▁conn": 4861,
      "##eared": 4862,
      "##ipe": 4863,
      "##==============================================": 4864,
      "▁circle": 4865,
      "##ope": 4866,
      "▁bulb": 4867,
      "##bby": 4868,
      "▁11:3": 4869,
      "▁mus": 4870,
      "▁324": 4871,
      "##ema": 4872,
      "▁who's": 4873,
      "##un": 4874,
      "▁condition": 4875,
      "▁potential": 4876,
      "▁104": 4877,
      "##eak": 4878,
      "##aming": 4879,
      "▁loves": 4880,
      "##ɑ": 4881,
      "##:28": 4882,
      "▁3,202": 4883,
      "▁territory": 4884,
      "##ather": 4885,
      "▁robin": 4886,
      "▁---": 4887,
      "▁har": 4888,
      "▁mum": 4889,
      "##7": 4890,
      "▁rack": 4891,
      "##:42": 4892,
      "▁978": 4893,
      "▁scre": 4894,
      "##mony": 4895,
      "▁01/25/2001": 4896,
      "8": 4897,
      "▁mommy": 4898,
      "▁garden": 4899,
      "▁ding": 4900,
      "▁cour": 4901,
      "##:55": 4902,
      "▁swww": 4903,
      "▁brush": 4904,
      "▁transportation": 4905,
      "▁regist": 4906,
      "##**********************************": 4907,
      "▁asian": 4908,
      "▁yep": 4909,
      "▁wind": 4910,
      "##ober": 4911,
      "▁brother": 4912,
      "##urday": 4913,
      "##ansas": 4914,
      "▁moving": 4915,
      "▁worst": 4916,
      "▁238": 4917,
      "▁713-654-0365": 4918,
      "##1-9": 4919,
      "▁you": 4920,
      "▁08/15": 4921,
      "▁fort": 4922,
      "▁11:36": 4923,
      "##esth": 4924,
      "##111": 4925,
      "▁come": 4926,
      "##band": 4927,
      "▁upper": 4928,
      "▁watched": 4929,
      "▁european": 4930,
      "##:20": 4931,
      "▁adopted": 4932,
      ")": 4933,
      "▁click": 4934,
      "##aining": 4935,
      "##wards": 4936,
      "▁le": 4937,
      "ς": 4938,
      "▁soph": 4939,
      "▁shackleton@ect": 4940,
      "▁fifth": 4941,
      "##ace": 4942,
      "▁l": 4943,
      "▁weas": 4944,
      "##ape": 4945,
      "▁plac": 4946,
      "▁er": 4947,
      "▁initi": 4948,
      "▁38": 4949,
      "▁millions": 4950,
      "▁music": 4951,
      "##gami": 4952,
      "▁map": 4953,
      "▁data": 4954,
      "##ily": 4955,
      "▁av": 4956,
      "▁0590": 4957,
      "▁properly": 4958,
      "▁december": 4959,
      "▁en": 4960,
      "##erg": 4961,
      "▁703": 4962,
      "▁sant": 4963,
      "##f.doc": 4964,
      "▁arch": 4965,
      "▁7484": 4966,
      "▁50": 4967,
      "▁count": 4968,
      "##akistan": 4969,
      "▁joined": 4970,
      "▁comput": 4971,
      "▁11-20-": 4972,
      "##ni": 4973,
      "▁forty-one": 4974,
      "▁hurt": 4975,
      "▁estim": 4976,
      "##ill": 4977,
      "▁energy": 4978,
      "▁reasonable": 4979,
      "▁sheet": 4980,
      "▁fi": 4981,
      "▁act": 4982,
      "▁dise": 4983,
      "##----": 4984,
      "##ana": 4985,
      "##icy": 4986,
      "▁municip": 4987,
      "##710": 4988,
      "▁pleas": 4989,
      "▁twenty-six": 4990,
      "▁hate": 4991,
      "▁anim": 4992,
      "▁position": 4993,
      "▁coast": 4994,
      "##idence": 4995,
      "##fully": 4996,
      "▁sometimes": 4997,
      "▁dc": 4998,
      "▁bray": 4999,
      "▁symbol": 5000,
      "▁expressed": 5001,
      "▁recording": 5002,
      "▁bill": 5003,
      "▁off": 5004,
      "##gth": 5005,
      "▁beh": 5006,
      "▁tour": 5007,
      "▁rom": 5008,
      "☎": 5009,
      "▁yard": 5010,
      "▁defin": 5011,
      "##000": 5012,
      "##other": 5013,
      "▁affect": 5014,
      "▁helps": 5015,
      "▁189": 5016,
      "##/2004": 5017,
      "▁ghost": 5018,
      "▁1145": 5019,
      "▁tight": 5020,
      "▁05": 5021,
      "▁heat": 5022,
      "▁eval": 5023,
      "▁fro": 5024,
      "σ": 5025,
      "##5": 5026,
      "▁969": 5027,
      "##xim": 5028,
      "▁mission": 5029,
      "▁parliament": 5030,
      "##ide": 5031,
      "▁mwet": 5032,
      "▁because": 5033,
      "▁swimming": 5034,
      "▁1.3": 5035,
      "▁cowboy": 5036,
      "##adelp": 5037,
      "▁tag": 5038,
      "##72": 5039,
      "▁mhm": 5040,
      "▁1/8": 5041,
      "▁quinoa": 5042,
      "▁nat": 5043,
      "##ym": 5044,
      "▁rubber": 5045,
      "▁eastern": 5046,
      "▁user": 5047,
      "▁supreme": 5048,
      "▁2006": 5049,
      "▁!!!!!!!!!!!!!!!!!!!": 5050,
      "##oose": 5051,
      "▁used": 5052,
      "##ber": 5053,
      "▁reform": 5054,
      "▁investment": 5055,
      "▁fright": 5056,
      "▁2009": 5057,
      "##º": 5058,
      "▁bridge": 5059,
      "▁fab": 5060,
      "—": 5061,
      "▁sh": 5062,
      "▁take": 5063,
      "▁forg": 5064,
      "▁actions": 5065,
      "▁load": 5066,
      "▁hop": 5067,
      "▁bever": 5068,
      "##emy": 5069,
      "▁top": 5070,
      "▁puppy": 5071,
      "▁forth": 5072,
      "▁suppose": 5073,
      "▁lived": 5074,
      "▁pencil": 5075,
      "▁ho": 5076,
      "▁pow": 5077,
      "▁depending": 5078,
      "▁74419": 5079,
      "▁categ": 5080,
      "##ically": 5081,
      "ح": 5082,
      "##bie": 5083,
      "▁airports": 5084,
      "▁300": 5085,
      "▁hope": 5086,
      "##sid": 5087,
      "##man": 5088,
      "##town": 5089,
      "▁seen": 5090,
      "▁1989": 5091,
      "▁ft": 5092,
      "▁sel": 5093,
      "##eral": 5094,
      "▁assoc": 5095,
      "▁license": 5096,
      "▁upon": 5097,
      "▁800.713.8600": 5098,
      "▁understand": 5099,
      "▁liter": 5100,
      "▁baseball": 5101,
      "▁sett": 5102,
      "▁din": 5103,
      "▁model": 5104,
      "▁frozen": 5105,
      "▁:?": 5106,
      "▁find": 5107,
      "▁tax": 5108,
      "▁include": 5109,
      "▁corp": 5110,
      "▁learning": 5111,
      "▁code": 5112,
      "##ists": 5113,
      "##verage": 5114,
      "▁executive": 5115,
      "##airs": 5116,
      "▁san": 5117,
      "▁rh": 5118,
      "和": 5119,
      "▁published": 5120,
      "▁pir": 5121,
      "▁tho": 5122,
      "▁dur": 5123,
      "▁wal": 5124,
      "▁hom": 5125,
      "##/16": 5126,
      "▁1880": 5127,
      "▁collabor": 5128,
      "▁communic": 5129,
      "▁offers": 5130,
      "▁afternoon": 5131,
      "##iat": 5132,
      "▁immed": 5133,
      "##gan": 5134,
      "▁elephant": 5135,
      "▁object": 5136,
      "▁seeing": 5137,
      "▁rib": 5138,
      "▁ursula": 5139,
      "▁apartment": 5140,
      "▁participants": 5141,
      "##ool": 5142,
      "▁281-518": 5143,
      "▁2.7": 5144,
      "▁democratic": 5145,
      "##ن": 5146,
      "▁keeping": 5147,
      "▁2014": 5148,
      "▁k": 5149,
      "##ians": 5150,
      "##aking": 5151,
      "▁listening": 5152,
      "▁fur": 5153,
      "##2-0": 5154,
      "##aur": 5155,
      "▁scientific": 5156,
      "##ution": 5157,
      "##@enron": 5158,
      "▁log": 5159,
      "▁meas": 5160,
      "▁1974": 5161,
      "▁mud": 5162,
      "▁doggie": 5163,
      "▁hungry": 5164,
      "▁water": 5165,
      "▁master": 5166,
      "▁access": 5167,
      "##go": 5168,
      "▁carry": 5169,
      "▁2:00": 5170,
      "▁860": 5171,
      "▁avo": 5172,
      "▁half": 5173,
      "▁seats": 5174,
      "##enda": 5175,
      "##ited": 5176,
      "▁1000": 5177,
      "▁think": 5178,
      "▁10:45": 5179,
      "▁does": 5180,
      "##ele": 5181,
      "▁!!": 5182,
      "▁creation": 5183,
      "▁mun": 5184,
      "##ization": 5185,
      "##aled": 5186,
      "▁rep": 5187,
      "▁apply": 5188,
      "##ills": 5189,
      "▁soon": 5190,
      "▁tac": 5191,
      "##????????": 5192,
      "▁deg": 5193,
      "▁154": 5194,
      "##-3": 5195,
      "▁agreement": 5196,
      "▁properties": 5197,
      "▁requirements": 5198,
      "▁mary": 5199,
      "##oses": 5200,
      "▁amount": 5201,
      "▁rese": 5202,
      "▁system": 5203,
      "▁fo": 5204,
      "▁overall": 5205,
      "▁app": 5206,
      "▁americ": 5207,
      "▁7": 5208,
      "▁drop": 5209,
      "▁cycle": 5210,
      "▁schol": 5211,
      "##>===": 5212,
      "##u": 5213,
      "▁c": 5214,
      "▁tast": 5215,
      "▁penc": 5216,
      "▁ancient": 5217,
      "▁knowledge": 5218,
      "▁when": 5219,
      "##ff": 5220,
      "▁nin": 5221,
      "▁engine": 5222,
      "##verse": 5223,
      "▁easily": 5224,
      "▁195": 5225,
      "##cl": 5226,
      "##ince": 5227,
      "▁understanding": 5228,
      "##so": 5229,
      "##ried": 5230,
      "##bre": 5231,
      "▁teaching": 5232,
      "##acter": 5233,
      "##ples": 5234,
      "▁smoke": 5235,
      "▁arrog": 5236,
      "▁mill": 5237,
      "▁salad": 5238,
      "▁yellow": 5239,
      "##3736": 5240,
      "▁citiz": 5241,
      "▁effects": 5242,
      "##per": 5243,
      "##83": 5244,
      "▁bone": 5245,
      "▁younger": 5246,
      "▁regular": 5247,
      "▁wil": 5248,
      "##ought": 5249,
      "▁lost": 5250,
      "▁agree": 5251,
      "▁thick": 5252,
      "▁sick": 5253,
      "##urning": 5254,
      "▁ladder": 5255,
      "▁refer": 5256,
      "▁5/1": 5257,
      "▁work": 5258,
      "▁member": 5259,
      "▁suicide": 5260,
      "▁11:35": 5261,
      "##que": 5262,
      "##ress": 5263,
      "▁let": 5264,
      "▁110": 5265,
      "▁new": 5266,
      "##orrow": 5267,
      "▁solution": 5268,
      "▁mathem": 5269,
      "▁’": 5270,
      "##ension": 5271,
      "▁harmon": 5272,
      "▁goals": 5273,
      "▁starting": 5274,
      "▁grew": 5275,
      "▁colle": 5276,
      "##iety": 5277,
      "▁10/23/2000": 5278,
      "##ost": 5279,
      "▁negot": 5280,
      "▁golden": 5281,
      "▁increase": 5282,
      "▁us": 5283,
      "▁content": 5284,
      "▁indianapolis": 5285,
      "▁applications": 5286,
      "▁earlier": 5287,
      "##otte": 5288,
      "▁realized": 5289,
      "▁rabbit": 5290,
      "▁austral": 5291,
      "▁within": 5292,
      "▁30,000": 5293,
      "▁langu": 5294,
      "▁entire": 5295,
      "▁jen": 5296,
      "▁uns": 5297,
      "▁hamm": 5298,
      "##iter": 5299,
      "##:5": 5300,
      "▁ukraine": 5301,
      "▁describe": 5302,
      "▁410": 5303,
      "▁pron": 5304,
      "▁lou": 5305,
      "▁professor": 5306,
      "▁ends": 5307,
      "▁indic": 5308,
      "▁spell": 5309,
      "##ib": 5310,
      "▁tools": 5311,
      "▁diplom": 5312,
      "▁minn": 5313,
      "▁types": 5314,
      "▁sto": 5315,
      "▁staying": 5316,
      "▁vent": 5317,
      "▁aw": 5318,
      "▁behalf": 5319,
      "##inated": 5320,
      "▁la": 5321,
      "▁saved": 5322,
      "▁fairly": 5323,
      "▁tw": 5324,
      "▁woud": 5325,
      "▁1635": 5326,
      "▁1-800-991-9019": 5327,
      "▁38,000": 5328,
      "▁analyst": 5329,
      "▁geor": 5330,
      "##ocol": 5331,
      "##@enron.com": 5332,
      "▁5.8": 5333,
      "##ra": 5334,
      "##ife": 5335,
      "▁filled": 5336,
      "▁worth": 5337,
      "##atic": 5338,
      "▁345-343": 5339,
      "▁salt": 5340,
      "▁egg": 5341,
      "▁impl": 5342,
      "▁5.6": 5343,
      "…": 5344,
      "##/00": 5345,
      "▁route": 5346,
      "▁impress": 5347,
      "▁op": 5348,
      "##like": 5349,
      "##...@": 5350,
      "##onn": 5351,
      "▁415": 5352,
      "##---------------": 5353,
      "##utions": 5354,
      "##zac": 5355,
      "▁68": 5356,
      "##aa": 5357,
      "▁possess": 5358,
      "##ead": 5359,
      "▁perf": 5360,
      "##atives": 5361,
      "▁tow": 5362,
      "##ii": 5363,
      "▁mosquito": 5364,
      "▁trouble": 5365,
      "▁900": 5366,
      "##,000,000": 5367,
      "##iding": 5368,
      "▁viol": 5369,
      "▁2003": 5370,
      "▁mistake": 5371,
      "▁contents": 5372,
      "▁bond": 5373,
      "▁fre": 5374,
      "▁obv": 5375,
      "##tter": 5376,
      "▁27": 5377,
      "▁2,": 5378,
      "▁powerful": 5379,
      "▁efforts": 5380,
      "▁wondering": 5381,
      "▁pr": 5382,
      "##verty": 5383,
      "2": 5384,
      "##izations": 5385,
      "##aling": 5386,
      "##!!": 5387,
      "▁ig": 5388,
      "##isb": 5389,
      "▁102": 5390,
      "▁opened": 5391,
      "▁unfortunately": 5392,
      "##aken": 5393,
      "▁accommod": 5394,
      "▁cer": 5395,
      "▁californ": 5396,
      "##ense": 5397,
      "▁london": 5398,
      "▁ballet": 5399,
      "▁dom": 5400,
      "▁fing": 5401,
      "▁bulldozer": 5402,
      "##ds": 5403,
      "##ckleton": 5404,
      "##craft": 5405,
      "##aim": 5406,
      "##.org": 5407,
      "▁otherwise": 5408,
      "##.8317": 5409,
      "▁mexico": 5410,
      "▁sha": 5411,
      "▁veg": 5412,
      "▁com": 5413,
      "▁full": 5414,
      "▁…": 5415,
      "▁royal": 5416,
      "▁games": 5417,
      "##9": 5418,
      "##a": 5419,
      "▁pillow": 5420,
      "▁2001": 5421,
      "▁1835": 5422,
      "▁wave": 5423,
      "▁feed": 5424,
      "▁teach": 5425,
      "▁dose": 5426,
      "▁11": 5427,
      "▁gets": 5428,
      "##ention": 5429,
      "##ube": 5430,
      "▁incorpor": 5431,
      "▁fell": 5432,
      "▁rome": 5433,
      "##ix": 5434,
      "▁:(": 5435,
      "##pping": 5436,
      "##anced": 5437,
      "##55": 5438,
      "▁destroy": 5439,
      "##eap": 5440,
      "▁330": 5441,
      "##cement": 5442,
      "##an": 5443,
      "##ard": 5444,
      "▁1932": 5445,
      "▁edge": 5446,
      "##amp": 5447,
      "##iz": 5448,
      "##-468-3": 5449,
      "▁john": 5450,
      "▁expertise": 5451,
      "##ball": 5452,
      "#": 5453,
      "▁bud": 5454,
      "ˈ": 5455,
      "▁cut": 5456,
      "▁rooms": 5457,
      "▁failed": 5458,
      "▁anything": 5459,
      "▁kiss": 5460,
      "▁continued": 5461,
      ":": 5462,
      "##ning": 5463,
      "##fet": 5464,
      "▁dollie": 5465,
      "▁gh": 5466,
      "▁francisco": 5467,
      "##stick": 5468,
      "##outh": 5469,
      "▁multiple": 5470,
      "▁farm": 5471,
      "▁hall": 5472,
      "▁cere": 5473,
      "▁fully": 5474,
      "##war": 5475,
      "▁mid-": 5476,
      "##ations": 5477,
      "##um": 5478,
      "##/97": 5479,
      "▁foundation": 5480,
      "▁babies": 5481,
      "▁08:50": 5482,
      "▁04/2": 5483,
      "▁climb": 5484,
      "▁wik": 5485,
      "▁wikihow": 5486,
      "▁hy": 5487,
      "▁legal": 5488,
      "▁offices": 5489,
      "▁provisions": 5490,
      "▁alt.": 5491,
      "▁indeed": 5492,
      "▁1847": 5493,
      "▁anglo": 5494,
      "▁66": 5495,
      "##vers": 5496,
      "▁receiving": 5497,
      "##rog": 5498,
      "▁journ": 5499,
      "▁whenever": 5500,
      "▁hou": 5501,
      "##actions": 5502,
      "##lo": 5503,
      "▁================================================": 5504,
      "▁var": 5505,
      "▁_____": 5506,
      "▁failure": 5507,
      "▁east": 5508,
      "##tch": 5509,
      "▁square": 5510,
      "##board": 5511,
      "▁hur": 5512,
      "▁3,202.61": 5513,
      "##eless": 5514,
      "▁recent": 5515,
      "▁meeting": 5516,
      "▁1939": 5517,
      "▁too": 5518,
      "▁(:": 5519,
      "▁worry": 5520,
      "▁theod": 5521,
      "▁rad": 5522,
      "▁markets": 5523,
      "▁teacher": 5524,
      "##ent": 5525,
      "▁bul": 5526,
      "▁0000108806": 5527,
      "▁08:00": 5528,
      "▁813": 5529,
      "▁doll": 5530,
      "##:13": 5531,
      "▁thy": 5532,
      "▁twentieth": 5533,
      "##under": 5534,
      "##ode": 5535,
      "▁directive": 5536,
      "▁surprise": 5537,
      "▁al.": 5538,
      "##een": 5539,
      "▁6.2": 5540,
      "▁marriage": 5541,
      "η": 5542,
      "▁tree": 5543,
      "▁rights": 5544,
      "##-59": 5545,
      "▁companies": 5546,
      "د": 5547,
      "▁suck": 5548,
      "##:30": 5549,
      "▁reliable": 5550,
      "▁cereal": 5551,
      "▁fight": 5552,
      "▁that": 5553,
      "##ies": 5554,
      "▁ict": 5555,
      "##hn": 5556,
      "##:25": 5557,
      "▁1779": 5558,
      "▁enron": 5559,
      "##anger": 5560,
      "▁prob": 5561,
      "▁get": 5562,
      "▁leads": 5563,
      "▁obs": 5564,
      "▁southern": 5565,
      "▁labor": 5566,
      "▁continental": 5567,
      "\"": 5568,
      "▁pract": 5569,
      "##rif": 5570,
      "▁chall": 5571,
      "▁24,000": 5572,
      "##tain": 5573,
      "▁conclud": 5574,
      "▁definitely": 5575,
      "▁they": 5576,
      "▁accom": 5577,
      "##icult": 5578,
      "##stein": 5579,
      "##back": 5580,
      "▁une": 5581,
      "▁comfortable": 5582,
      "##93": 5583,
      "▁-ect-kedne": 5584,
      "▁student": 5585,
      "##ential": 5586,
      "▁organ": 5587,
      "▁cous": 5588,
      "▁shopping": 5589,
      "##ak": 5590,
      "▁succ": 5591,
      "▁08/17/2000": 5592,
      "▁humaine": 5593,
      "▁tomorrow": 5594,
      "▁cabin": 5595,
      "##ly": 5596,
      "##lae": 5597,
      "▁into": 5598,
      "▁stated": 5599,
      "##ammed": 5600,
      "▁johnson": 5601,
      "▁calls": 5602,
      "▁ourselves": 5603,
      "▁passing": 5604,
      "▁flies": 5605,
      "▁ka": 5606,
      "##asp": 5607,
      "▁judge": 5608,
      "▁peoples": 5609,
      "▁coach": 5610,
      "▁large": 5611,
      "▁true": 5612,
      "##veland": 5613,
      "▁teen": 5614,
      "▁^_^": 5615,
      "μ": 5616,
      "##ows": 5617,
      "▁prompt": 5618,
      "▁her": 5619,
      "##ara": 5620,
      "##iddle": 5621,
      "▁happens": 5622,
      "##33": 5623,
      "##004": 5624,
      "▁form": 5625,
      "##ond": 5626,
      "▁42": 5627,
      "▁piz": 5628,
      "##&": 5629,
      "##por": 5630,
      "##using": 5631,
      "▁discount": 5632,
      "▁collected": 5633,
      "▁camel": 5634,
      "▁hanging": 5635,
      "▁tired": 5636,
      "▁cig": 5637,
      "##rr": 5638,
      "▁1952": 5639,
      "▁recru": 5640,
      "##339": 5641,
      "▁bath": 5642,
      "▁discip": 5643,
      "##unic": 5644,
      "##-3989": 5645,
      "▁sugg": 5646,
      "▁748": 5647,
      "▁parties": 5648,
      "▁wet": 5649,
      "▁becomes": 5650,
      "▁those": 5651,
      "##:": 5652,
      "▁nato": 5653,
      "##ument": 5654,
      "▁bay": 5655,
      "##umn": 5656,
      "▁challenges": 5657,
      "▁colors": 5658,
      "▁sever": 5659,
      "▁beliefs": 5660,
      "▁got": 5661,
      "▁perdues": 5662,
      "▁audience": 5663,
      "▁ent": 5664,
      "##ipt": 5665,
      "##rod": 5666,
      "▁1914": 5667,
      "▁fav": 5668,
      "▁downtown": 5669,
      "▁“": 5670,
      "▁programme": 5671,
      "▁languages": 5672,
      "▁ont": 5673,
      "▁instance": 5674,
      "▁rece": 5675,
      "▁sched": 5676,
      "▁econom": 5677,
      "##ughter": 5678,
      "▁hiking": 5679,
      "##ably": 5680,
      "▁traff": 5681,
      "##erson": 5682,
      "▁colon": 5683,
      "▁21,000": 5684,
      "##itable": 5685,
      "▁peaceful": 5686,
      "▁institutions": 5687,
      "▁requested": 5688,
      "▁both": 5689,
      "##utes": 5690,
      "▁10/2": 5691,
      "▁wilson": 5692,
      "##hold": 5693,
      "▁columb": 5694,
      "▁pilot": 5695,
      "##wor": 5696,
      "##iron": 5697,
      "▁looked": 5698,
      "##75": 5699,
      "▁range": 5700,
      "##air": 5701,
      "▁1-800-991-90": 5702,
      "▁thirteen": 5703,
      "▁urban": 5704,
      "##iced": 5705,
      "▁open": 5706,
      "▁orange": 5707,
      "▁dele": 5708,
      "▁3889": 5709,
      "▁document": 5710,
      "▁justice": 5711,
      "▁exhib": 5712,
      "##0072": 5713,
      "##oms": 5714,
      "^": 5715,
      "▁beer": 5716,
      "▁nwww": 5717,
      "▁bra": 5718,
      "▁remembered": 5719,
      "▁club": 5720,
      "##€": 5721,
      "##η": 5722,
      "▁contemporary": 5723,
      "▁every": 5724,
      "▁12:1": 5725,
      "▁bringing": 5726,
      "##wn": 5727,
      "▁always": 5728,
      "▁drug": 5729,
      "▁flo": 5730,
      "##ac": 5731,
      "▁1969": 5732,
      "▁beau": 5733,
      "▁202.456.1": 5734,
      "▁biological": 5735,
      "▁1.": 5736,
      "##87": 5737,
      "▁neat": 5738,
      "▁material": 5739,
      "##employ": 5740,
      "##eo": 5741,
      "▁turkey": 5742,
      "▁perdu": 5743,
      "▁conscious": 5744,
      "▁vernon": 5745,
      "司": 5746,
      "##2": 5747,
      "▁mirror": 5748,
      "▁tenn": 5749,
      "▁micro": 5750,
      "▁cards": 5751,
      "▁break": 5752,
      "▁christ": 5753,
      "▁willi": 5754,
      "▁202.456.1111": 5755,
      "▁agency": 5756,
      "▁eas": 5757,
      "▁1765": 5758,
      "##ker": 5759,
      "##aster": 5760,
      "##oam": 5761,
      "▁720": 5762,
      "▁fare": 5763,
      "##oe": 5764,
      "##ental": 5765,
      "▁marsh": 5766,
      "##els": 5767,
      "▁pol": 5768,
      "▁09": 5769,
      "##-01": 5770,
      "▁objectives": 5771,
      "##qu": 5772,
      "##³": 5773,
      "▁gen": 5774,
      "*": 5775,
      "▁%": 5776,
      "▁ability": 5777,
      "▁dozen": 5778,
      "▁cars": 5779,
      "▁95": 5780,
      "▁199": 5781,
      "▁liberty": 5782,
      "▁partic": 5783,
      "▁real": 5784,
      "▁interview": 5785,
      "##onse": 5786,
      "▁36": 5787,
      "##olis": 5788,
      "▁12:30": 5789,
      "▁twel": 5790,
      "▁alth": 5791,
      "▁joe": 5792,
      "##/8": 5793,
      "##bit": 5794,
      "▁commissioner": 5795,
      "▁thursday": 5796,
      "▁review": 5797,
      "▁flower": 5798,
      "▁stuff": 5799,
      "▁consequ": 5800,
      "▁israel": 5801,
      "▁10/20/2000": 5802,
      "▁xiii": 5803,
      "▁stone": 5804,
      "▁ring": 5805,
      "##ed": 5806,
      "▁wast": 5807,
      "▁744": 5808,
      "▁egypt": 5809,
      "▁slightly": 5810,
      "▁separ": 5811,
      "▁extended": 5812,
      "##25": 5813,
      "▁296": 5814,
      "##ined": 5815,
      "▁areas": 5816,
      "▁alber": 5817,
      "▁196": 5818,
      "##leg": 5819,
      "▁item": 5820,
      "▁1996": 5821,
      "▁07": 5822,
      "▁sleeping": 5823,
      "▁translation": 5824,
      "▁wa": 5825,
      "▁10:56": 5826,
      "##wau": 5827,
      "▁ways": 5828,
      "▁people": 5829,
      "▁writers": 5830,
      "▁resp": 5831,
      "▁maybe": 5832,
      "▁search": 5833,
      "▁elev": 5834,
      "▁completely": 5835,
      "▁theory": 5836,
      "▁repair": 5837,
      "▁no-": 5838,
      "▁str": 5839,
      "▁bother": 5840,
      "▁2030": 5841,
      "##cles": 5842,
      "▁following": 5843,
      "▁heart": 5844,
      "▁abe": 5845,
      "▁reported": 5846,
      "##ree": 5847,
      "##h-r": 5848,
      "▁unf": 5849,
      "▁01:0": 5850,
      "##j": 5851,
      "##ient": 5852,
      "##iest": 5853,
      "▁was": 5854,
      "##ula": 5855,
      "▁span": 5856,
      "##clud": 5857,
      "▁confer": 5858,
      "##att": 5859,
      "##sh": 5860,
      "##up": 5861,
      "▁series": 5862,
      "▁butter": 5863,
      "▁opportun": 5864,
      "▁1160": 5865,
      "▁wiz": 5866,
      "▁attorn": 5867,
      "▁happening": 5868,
      "▁05:37": 5869,
      "##-3393": 5870,
      "▁sen": 5871,
      "▁!!!!!": 5872,
      "##ity": 5873,
      "▁hos": 5874,
      "##ves": 5875,
      "▁twenty-two": 5876,
      "▁alle": 5877,
      "▁2.6": 5878,
      "▁consider": 5879,
      "▁sold": 5880,
      "##dy": 5881,
      "m": 5882,
      "▁mention": 5883,
      "▁telling": 5884,
      "▁medical": 5885,
      "▁anal": 5886,
      "##:56": 5887,
      "##ia": 5888,
      "▁sur": 5889,
      "##ion": 5890,
      "##________": 5891,
      "▁example": 5892,
      "▁281-435-": 5893,
      "▁wiggle": 5894,
      "##-c": 5895,
      "▁try": 5896,
      "▁parad": 5897,
      "##velop": 5898,
      "▁opportunity": 5899,
      "▁passed": 5900,
      "▁sudden": 5901,
      "▁amid": 5902,
      "▁immediately": 5903,
      "▁absolutely": 5904,
      "▁reb": 5905,
      "▁ple": 5906,
      "##ld": 5907,
      "##asy": 5908,
      "##ollow": 5909,
      "##aph": 5910,
      "▁mr.": 5911,
      "▁minister": 5912,
      "▁sarah": 5913,
      "▁seemed": 5914,
      "ο": 5915,
      "##yan": 5916,
      "##ppy": 5917,
      "▁b": 5918,
      "##vin": 5919,
      "▁]": 5920,
      "▁tradition": 5921,
      "▁anymore": 5922,
      "▁frequ": 5923,
      "▁impact": 5924,
      "▁814.86": 5925,
      "##183": 5926,
      "▁space": 5927,
      "▁spain": 5928,
      "▁anyone": 5929,
      "▁math": 5930,
      "##/26/2000": 5931,
      "▁adjust": 5932,
      "▁5": 5933,
      "▁laden": 5934,
      "▁requ": 5935,
      "▁bob": 5936,
      "▁awoh": 5937,
      "▁928": 5938,
      "##oted": 5939,
      "##here": 5940,
      "▁lank": 5941,
      "▁sym": 5942,
      "▁sure": 5943,
      "##rel": 5944,
      "▁developing": 5945,
      "##wh": 5946,
      "▁30": 5947,
      "▁presented": 5948,
      "▁speaker": 5949,
      "▁everything": 5950,
      "▁250": 5951,
      "▁various": 5952,
      "▁personally": 5953,
      "▁stands": 5954,
      "▁89": 5955,
      "▁looking": 5956,
      "▁mail": 5957,
      "▁singing": 5958,
      "▁____________________________________________________________": 5959,
      "▁zero": 5960,
      "##uge": 5961,
      "▁council": 5962,
      "##tered": 5963,
      "##men": 5964,
      "##tr": 5965,
      "▁2016": 5966,
      "▁cook": 5967,
      "##1-90": 5968,
      "##ison": 5969,
      "##ness": 5970,
      "▁cooperation": 5971,
      "▁americans": 5972,
      "▁21": 5973,
      "▁4.9": 5974,
      "##ended": 5975,
      "▁wro": 5976,
      "▁16.3": 5977,
      "▁classes": 5978,
      "▁unles": 5979,
      "▁lest": 5980,
      "▁1943": 5981,
      "▁.x": 5982,
      "##ident": 5983,
      "▁incre": 5984,
      "▁metal": 5985,
      "##unt": 5986,
      "▁dud": 5987,
      "▁e-m": 5988,
      "▁issue": 5989,
      "##301": 5990,
      "▁honey": 5991,
      "▁ought": 5992,
      "##idd": 5993,
      "##ounds": 5994,
      "##iance": 5995,
      "▁cage": 5996,
      "▁laur": 5997,
      "##ros": 5998,
      "▁gre": 5999,
      "▁peters": 6000,
      "▁2007": 6001,
      "▁sus": 6002,
      "▁couch": 6003,
      "▁suffering": 6004,
      "▁newsp": 6005,
      "▁become": 6006,
      "##\"": 6007,
      "▁ag": 6008,
      "##ately": 6009,
      "▁award": 6010,
      "▁betw": 6011,
      "##house": 6012,
      "##/03/2001": 6013,
      "▁corner": 6014,
      "▁making": 6015,
      "▁happen": 6016,
      "▁africa": 6017,
      "##kin": 6018,
      "▁unif": 6019,
      "▁june": 6020,
      "▁nar": 6021,
      "▁flor": 6022,
      "▁physical": 6023,
      "▁gray": 6024,
      "▁replaced": 6025,
      "ه": 6026,
      "▁lingu": 6027,
      "▁york": 6028,
      "▁toys": 6029,
      "▁businesses": 6030,
      "##/7": 6031,
      "▁stopover": 6032,
      "##tim": 6033,
      "▁_": 6034,
      "▁pakistan": 6035,
      "▁drawing": 6036,
      "##fl": 6037,
      "▁party": 6038,
      "▁satan": 6039,
      "##age": 6040,
      "▁st.": 6041,
      "▁cross": 6042,
      "▁expression": 6043,
      "▁a.": 6044,
      "##53-3": 6045,
      "▁01:39:56": 6046,
      "▁bal": 6047,
      "▁3,000": 6048,
      "▁chicago": 6049,
      "##dden": 6050,
      "▁210": 6051,
      "##aq": 6052,
      "æ": 6053,
      "▁pac": 6054,
      "##587": 6055,
      "▁minutes": 6056,
      "▁n": 6057,
      "▁declaration": 6058,
      "▁none": 6059,
      "▁sophie": 6060,
      "##ous": 6061,
      "##.86": 6062,
      "##ustom": 6063,
      "▁cam": 6064,
      "-": 6065,
      "##oh": 6066,
      "▁fred": 6067,
      "▁”": 6068,
      "▁boots": 6069,
      "▁night": 6070,
      "▁vote": 6071,
      "##9.3": 6072,
      "▁qu": 6073,
      "▁gordon": 6074,
      "▁import": 6075,
      "▁specific": 6076,
      "▁feel": 6077,
      "##conn": 6078,
      "▁gard": 6079,
      "##ea": 6080,
      "▁playing": 6081,
      "##ences": 6082,
      "##sd": 6083,
      "▁california": 6084,
      "▁storm": 6085,
      "▁hidden": 6086,
      "▁prev": 6087,
      "▁trees": 6088,
      "▁anc": 6089,
      "▁2100": 6090,
      "##/13/2001": 6091,
      "▁pulled": 6092,
      "##jo": 6093,
      "##822": 6094,
      "▁attend": 6095,
      "▁glove": 6096,
      "▁92": 6097,
      "▁50,000": 6098,
      "▁min": 6099,
      "▁cur": 6100,
      "▁bac": 6101,
      "▁4:00": 6102,
      "▁married": 6103,
      "##wich": 6104,
      "▁bunny": 6105,
      "▁leaders": 6106,
      "▁points": 6107,
      "▁financ": 6108,
      "▁sev": 6109,
      "▁increased": 6110,
      "}": 6111,
      "##φ": 6112,
      "▁beautiful": 6113,
      "##/9": 6114,
      "▁secur": 6115,
      "▁def": 6116,
      "▁adm": 6117,
      "▁sea": 6118,
      "▁ful": 6119,
      "▁ca": 6120,
      "▁archit": 6121,
      "▁eye": 6122,
      "▁1975": 6123,
      "##ott": 6124,
      "▁syri": 6125,
      "▁two": 6126,
      "▁947": 6127,
      "##ucing": 6128,
      "▁exhibit": 6129,
      "▁disaster": 6130,
      "▁flight": 6131,
      "▁et": 6132,
      "▁serv": 6133,
      "▁desk": 6134,
      "▁???": 6135,
      "▁hello": 6136,
      "##am": 6137,
      "▁italy": 6138,
      "▁mult": 6139,
      "##ɛ": 6140,
      "▁auster": 6141,
      "▁benefits": 6142,
      "##.2461": 6143,
      "▁airfare": 6144,
      "▁george": 6145,
      "▁posted": 6146,
      "▁hair": 6147,
      "▁1968": 6148,
      "##11": 6149,
      "▁gr": 6150,
      "##cle": 6151,
      "▁02/2": 6152,
      "▁dism": 6153,
      "##face": 6154,
      "▁ryan": 6155,
      "▁were": 6156,
      "##boo": 6157,
      "▁carrying": 6158,
      "##@": 6159,
      "▁hist": 6160,
      "▁415.782.7822": 6161,
      "▁ve": 6162,
      "##abor": 6163,
      "▁dr.": 6164,
      "##<----": 6165,
      "▁wee": 6166,
      "▁vs": 6167,
      "▁conce": 6168,
      "▁again": 6169,
      "▁arrive": 6170,
      "▁boo": 6171,
      "##0th": 6172,
      "▁relatively": 6173,
      "▁1945": 6174,
      "▁xslt": 6175,
      "▁indo": 6176,
      "▁u": 6177,
      "▁today": 6178,
      "▁drinking": 6179,
      "▁chick": 6180,
      "##ght": 6181,
      "##谿": 6182,
      "##eth": 6183,
      "▁limit": 6184,
      "▁che": 6185,
      "▁card": 6186,
      "▁excuse": 6187,
      "▁atmos": 6188,
      "##aren": 6189,
      "##76": 6190,
      "▁control": 6191,
      "▁leon": 6192,
      "▁anoder": 6193,
      "▁2019": 6194,
      "▁though": 6195,
      "▁regions": 6196,
      "##entially": 6197,
      "▁rain": 6198,
      "▁grandmother": 6199,
      "##oul": 6200,
      "[UNK]": 6201,
      "##5-": 6202,
      "▁guard": 6203,
      "▁uhhuh": 6204,
      "##ester": 6205,
      "▁vie": 6206,
      "▁ears": 6207,
      "▁felt": 6208,
      "▁source": 6209,
      "##vember": 6210,
      "▁growth": 6211,
      "▁'0": 6212,
      "▁pill": 6213,
      "##ign": 6214,
      "▁wo": 6215,
      "▁outer": 6216,
      "##clus": 6217,
      "▁opportunities": 6218,
      "▁participation": 6219,
      "##arily": 6220,
      "▁descri": 6221,
      "▁bassiana": 6222,
      "▁nurs": 6223,
      "▁i.": 6224,
      "▁banks": 6225,
      "▁obviously": 6226,
      "▁column": 6227,
      "▁theodorus": 6228,
      "▁zawah": 6229,
      "▁information": 6230,
      "▁can": 6231,
      "▁adv": 6232,
      "▁individuals": 6233,
      "▁funny": 6234,
      "▁hind": 6235,
      "##`": 6236,
      "▁ident": 6237,
      "##·": 6238,
      "▁stream": 6239,
      "▁quote": 6240,
      "▁experience": 6241,
      "##ieth": 6242,
      "▁models": 6243,
      "▁exper": 6244,
      "▁non": 6245,
      "▁1579": 6246,
      "##461": 6247,
      "▁displ": 6248,
      "##isf": 6249,
      "##rep": 6250,
      "##:27": 6251,
      "▁sometime": 6252,
      "##-780": 6253,
      "▁step": 6254,
      "▁thirty-": 6255,
      "▁outside": 6256,
      "▁12:12": 6257,
      "▁lake": 6258,
      "▁sara": 6259,
      "▁show": 6260,
      "▁heavy": 6261,
      "##antly": 6262,
      "▁spray": 6263,
      "##sa": 6264,
      "▁instructions": 6265,
      "▁magn": 6266,
      "▁718-780": 6267,
      "##arm": 6268,
      "▁point": 6269,
      "▁1937": 6270,
      "##gypt": 6271,
      "▁ram": 6272,
      "▁interesting": 6273,
      "▁hold": 6274,
      "##460-33": 6275,
      "##amental": 6276,
      "▁expensive": 6277,
      "▁concept": 6278,
      "##cept": 6279,
      "▁crimin": 6280,
      "▁thus": 6281,
      "▁pere": 6282,
      "▁circ": 6283,
      "▁many": 6284,
      "##otted": 6285,
      "▁innovation": 6286,
      "##five": 6287,
      "▁lo": 6288,
      "▁members": 6289,
      "##989": 6290,
      "##ν": 6291,
      "▁norm": 6292,
      "▁1709": 6293,
      "##kk": 6294,
      "##allow": 6295,
      "##ote": 6296,
      "▁avoid": 6297,
      "▁construction": 6298,
      "▁bed": 6299,
      "▁j.doc": 6300,
      "▁1830": 6301,
      "▁bon": 6302,
      "▁something": 6303,
      "▁myself": 6304,
      "▁mh": 6305,
      "##029": 6306,
      "##800": 6307,
      "##akes": 6308,
      "▁onto": 6309,
      "▁workers": 6310,
      "▁40,000": 6311,
      "##8-3": 6312,
      "▁effort": 6313,
      "▁our": 6314,
      "##.30": 6315,
      "▁sli": 6316,
      "▁2,000": 6317,
      "▁fail": 6318,
      "▁mechan": 6319,
      "##3.6": 6320,
      "▁write": 6321,
      "▁cinc": 6322,
      "▁1.6": 6323,
      "▁ext": 6324,
      "##ops": 6325,
      "²": 6326,
      "▁appoint": 6327,
      "▁puts": 6328,
      "▁vacation": 6329,
      "▁delhi": 6330,
      "▁unknown": 6331,
      "##iture": 6332,
      "▁e.": 6333,
      "▁lowest": 6334,
      "▁tick": 6335,
      "▁account": 6336,
      "##-": 6337,
      "▁tenth": 6338,
      "▁breat": 6339,
      "##omer": 6340,
      "▁02/13/2001": 6341,
      "▁copyright": 6342,
      "▁prep": 6343,
      "▁03/15/2001": 6344,
      "▁yester": 6345,
      "▁04:17": 6346,
      "▁'s": 6347,
      "▁tem": 6348,
      "▁gi": 6349,
      "##ets": 6350,
      "▁prim": 6351,
      "▁teams": 6352,
      "▁repres": 6353,
      "▁attention": 6354,
      "▁easy": 6355,
      "##alam": 6356,
      "▁kitten": 6357,
      "▁nobody": 6358,
      "▁n't": 6359,
      "##apers": 6360,
      "▁tourist": 6361,
      "▁71": 6362,
      "▁compared": 6363,
      "▁sing": 6364,
      "##cent": 6365,
      "▁arrest": 6366,
      "##eding": 6367,
      "▁decline": 6368,
      "##stem": 6369,
      "##ala": 6370,
      "##thern": 6371,
      "▁under": 6372,
      "▁wrote": 6373,
      "▁56": 6374,
      "▁glass": 6375,
      "▁examples": 6376,
      "▁muse": 6377,
      "##ification": 6378,
      "▁dishes": 6379,
      "##yl": 6380,
      "##5th": 6381,
      "▁director": 6382,
      "▁diss": 6383,
      "##erno": 6384,
      "##ked": 6385,
      "▁ens": 6386,
      "##aviatio": 6387,
      "▁ju": 6388,
      "##.1": 6389,
      "▁commission": 6390,
      "##mine": 6391,
      "▁friendly": 6392,
      "▁w.": 6393,
      "▁aside": 6394,
      "▁zawahiri": 6395,
      "▁career": 6396,
      "##****": 6397,
      "€": 6398,
      "▁eighth": 6399,
      "##…": 6400,
      "▁angel": 6401,
      "▁6,000": 6402,
      "##iveness": 6403,
      "▁<<": 6404,
      "##bo": 6405,
      "##iny": 6406,
      "##ve": 6407,
      "▁local": 6408,
      "▁1291": 6409,
      "▁spear": 6410,
      "▁wel": 6411,
      "##apolis": 6412,
      "▁described": 6413,
      "▁measure": 6414,
      "▁ver": 6415,
      "▁prot": 6416,
      "▁growing": 6417,
      "▁gall": 6418,
      "##pper": 6419,
      "▁pic": 6420,
      "▁empt": 6421,
      "▁03:58": 6422,
      "##aced": 6423,
      "##bert": 6424,
      "▁property": 6425,
      "▁cigarette": 6426,
      "▁adult": 6427,
      "##be": 6428,
      "##ple": 6429,
      "▁welcome": 6430,
      "▁ped": 6431,
      "##e": 6432,
      "##uses": 6433,
      "▁;-)": 6434,
      "▁programs": 6435,
      "▁11/28/2000": 6436,
      "##/he": 6437,
      "▁consum": 6438,
      "▁wh": 6439,
      "▁paying": 6440,
      "▁chocolate": 6441,
      "▁accord": 6442,
      "▁qaeda": 6443,
      "▁cromer": 6444,
      "▁scary": 6445,
      "▁bow": 6446,
      "▁wait": 6447,
      "▁television": 6448,
      "▁countries": 6449,
      "##8196021": 6450,
      "▁fields": 6451,
      "▁letter": 6452,
      "▁lock": 6453,
      "▁largest": 6454,
      "##eries": 6455,
      "▁bun": 6456,
      "▁sugar": 6457,
      "▁lip": 6458,
      "▁plays": 6459,
      "▁laura": 6460,
      "▁determin": 6461,
      "▁am": 6462,
      "##4-79": 6463,
      "▁pa": 6464,
      "▁:p": 6465,
      "##.7822": 6466,
      "▁1970": 6467,
      "▁says": 6468,
      "▁conv": 6469,
      "##ʃ": 6470,
      "▁enjamb": 6471,
      "▁direction": 6472,
      "▁value": 6473,
      "▁continues": 6474,
      "▁tables": 6475,
      "▁e": 6476,
      "▁pleasant": 6477,
      "▁ital": 6478,
      "▁based": 6479,
      "▁dar": 6480,
      "##ece": 6481,
      "##my": 6482,
      "▁flavor": 6483,
      "▁have": 6484,
      "▁commercial": 6485,
      "▁letters": 6486,
      "▁spir": 6487,
      "▁proced": 6488,
      "▁strongly": 6489,
      "##ively": 6490,
      "▁giving": 6491,
      "▁really": 6492,
      "##σ": 6493,
      "▁produc": 6494,
      "▁windows": 6495,
      "▁1910": 6496,
      "##hood": 6497,
      "▁mrs": 6498,
      "▁64": 6499,
      "##ese": 6500,
      "▁113": 6501,
      "▁nashville": 6502,
      "##sc": 6503,
      "##han": 6504,
      "##ge": 6505,
      "▁enjoy": 6506,
      "▁noon": 6507,
      "▁03/2": 6508,
      "▁pakistani": 6509,
      "▁fresh": 6510,
      "##ached": 6511,
      "▁balls": 6512,
      "▁february": 6513,
      "▁film": 6514,
      "##ael": 6515,
      "▁goat": 6516,
      "▁tru": 6517,
      "##θ": 6518,
      "▁board": 6519,
      "▁whale": 6520,
      "##west": 6521,
      "##bar": 6522,
      "▁neck": 6523,
      "##east": 6524,
      "▁grass": 6525,
      "▁acknowled": 6526,
      "▁ocho": 6527,
      "##490": 6528,
      "##41": 6529,
      "##ww": 6530,
      "▁hearing": 6531,
      "▁epis": 6532,
      "▁181": 6533,
      "##ams": 6534,
      "▁launch": 6535,
      "##ony": 6536,
      "▁carro": 6537,
      "##ml": 6538,
      "▁studies": 6539,
      "##aleck": 6540,
      "▁implement": 6541,
      "▁th": 6542,
      "▁01": 6543,
      "▁shoot": 6544,
      "▁mont": 6545,
      "▁written": 6546,
      "##ien": 6547,
      "▁at": 6548,
      "##rated": 6549,
      "##odes": 6550,
      "▁henry": 6551,
      "▁dial": 6552,
      "##word": 6553,
      "▁eventually": 6554,
      "▁1205": 6555,
      "▁shot": 6556,
      "▁713-654-1281": 6557,
      "▁cris": 6558,
      "##uel": 6559,
      "##99": 6560,
      "▁mu": 6561,
      "##67": 6562,
      "▁puzz": 6563,
      "▁mosqu": 6564,
      "▁oil": 6565,
      "##umble": 6566,
      "##elling": 6567,
      "▁asleep": 6568,
      "▁number": 6569,
      "##sequ": 6570,
      "##ategy": 6571,
      "▁michelle": 6572,
      "##itive": 6573,
      "##oa": 6574,
      "▁shr": 6575,
      "▁leigh": 6576,
      "▁forty": 6577,
      "▁ordered": 6578,
      "▁stir": 6579,
      "▁collection": 6580,
      "##gu": 6581,
      "▁done": 6582,
      "▁quiet": 6583,
      "▁phr": 6584,
      "▁ind": 6585,
      "▁freed": 6586,
      "▁balzac": 6587,
      "▁influ": 6588,
      "##enced": 6589,
      "▁dre": 6590,
      "▁memory": 6591,
      "▁differ": 6592,
      "▁mer": 6593,
      "##aked": 6594,
      "1": 6595,
      "▁challeng": 6596,
      "▁1831": 6597,
      "▁serve": 6598,
      "▁___________": 6599,
      "##atory": 6600,
      "▁29": 6601,
      "▁helpful": 6602,
      "##line": 6603,
      "##inct": 6604,
      "▁dangerous": 6605,
      "▁accomm": 6606,
      "▁option": 6607,
      "▁cooking": 6608,
      "▁paper": 6609,
      "▁kept": 6610,
      "`": 6611,
      "▁kitt": 6612,
      "##kn": 6613,
      "##ett": 6614,
      "▁reading": 6615,
      "▁04": 6616,
      "▁amb": 6617,
      "▁3.2": 6618,
      "▁jews": 6619,
      "▁short": 6620,
      "▁healthy": 6621,
      "##az": 6622,
      "▁xsl": 6623,
      "▁twice": 6624,
      "▁documents": 6625,
      "▁leaving": 6626,
      "▁colleag": 6627,
      "▁discover": 6628,
      "▁president": 6629,
      "▁country": 6630,
      "▁sent": 6631,
      "▁department": 6632,
      "▁gather": 6633,
      "▁raise": 6634,
      "▁noone": 6635,
      "##ios": 6636,
      "▁quite": 6637,
      "##ihow": 6638,
      "▁innov": 6639,
      "##ernobyl": 6640,
      "▁see": 6641,
      "▁whil": 6642,
      "▁180": 6643,
      "▁0.0": 6644,
      "##ock": 6645,
      "▁bea": 6646,
      "▁scar": 6647,
      "▁disco": 6648,
      "▁eth": 6649,
      "▁ach": 6650,
      "▁ric": 6651,
      "▁col": 6652,
      "▁treat": 6653,
      "▁dogs": 6654,
      "▁talking": 6655,
      "##mas": 6656,
      "##ides": 6657,
      "##.doc": 6658,
      "##ward": 6659,
      "▁bet": 6660,
      "▁pockets": 6661,
      "##acle": 6662,
      "▁cutting": 6663,
      "##sy": 6664,
      "▁marbles": 6665,
      "▁1590": 6666,
      "▁lights": 6667,
      "▁inj": 6668,
      "##old": 6669,
      "▁bench": 6670,
      "▁watching": 6671,
      "▁✉": 6672,
      "▁went": 6673,
      "▁360": 6674,
      "##gue": 6675,
      "▁are": 6676,
      "▁recall": 6677,
      "▁wr": 6678,
      "▁box": 6679,
      "##09": 6680,
      "▁96": 6681,
      "▁india": 6682,
      "▁e-mail": 6683,
      "▁dudley": 6684,
      "▁deb": 6685,
      "##gy": 6686,
      "▁932": 6687,
      "##min": 6688,
      "##day": 6689,
      "##0/2000": 6690,
      "##810": 6691,
      "▁marie": 6692,
      "▁'m": 6693,
      "▁wealth": 6694,
      "##ances": 6695,
      "▁taught": 6696,
      "▁imper": 6697,
      "▁global": 6698,
      "▁project": 6699,
      "##夏": 6700,
      "▁out": 6701,
      "##ivid": 6702,
      "##/03": 6703,
      "▁currency": 6704,
      "▁approval": 6705,
      "▁inqu": 6706,
      "▁2.": 6707,
      "▁right": 6708,
      "##ield": 6709,
      "##cc": 6710,
      "▁explor": 6711,
      "▁1,200": 6712,
      "▁herself": 6713,
      "##ements": 6714,
      "##us": 6715,
      "▁sleep": 6716,
      "▁adop": 6717,
      "▁il": 6718,
      "▁groups": 6719,
      "##ored": 6720,
      "▁yog": 6721,
      "▁os": 6722,
      "▁'ll": 6723,
      "▁48": 6724,
      "▁blank": 6725,
      "▁ben": 6726,
      "▁press": 6727,
      "▁earth": 6728,
      "##ack": 6729,
      "##.77": 6730,
      "ε": 6731,
      "##×": 6732,
      "▁hat": 6733,
      "▁510": 6734,
      "▁instruct": 6735,
      "##siana": 6736,
      "▁aspects": 6737,
      "▁benef": 6738,
      "▁wrap": 6739,
      "▁93": 6740,
      "▁coron": 6741,
      "##os": 6742,
      "▁toward": 6743,
      "▁agreed": 6744,
      "▁more": 6745,
      "▁1:30": 6746,
      "##si": 6747,
      "▁recorder": 6748,
      "▁rail": 6749,
      "##~*": 6750,
      "▁6871082#": 6751,
      "##ane": 6752,
      "▁academic": 6753,
      "##ded": 6754,
      "▁cor": 6755,
      "▁dep": 6756,
      "##lin": 6757,
      "##.st": 6758,
      "▁knowled": 6759,
      "▁+44": 6760,
      "##5,000": 6761,
      "##_0": 6762,
      "##nic": 6763,
      "▁player": 6764,
      "##eric": 6765,
      "##yal": 6766,
      "##edge": 6767,
      "▁ky": 6768,
      "▁temperature": 6769,
      "##esh": 6770,
      "##inting": 6771,
      "▁1998": 6772,
      "##:58": 6773,
      "##ying": 6774,
      "##{": 6775,
      "▁follows": 6776,
      "▁drag": 6777,
      "▁percentage": 6778,
      "▁forward": 6779,
      "▁jwww": 6780,
      "▁10,000": 6781,
      "▁center": 6782,
      "▁whilst": 6783,
      "▁1982": 6784,
      "▁talks": 6785,
      "##oup": 6786,
      "[MASK]": 6787,
      "▁[": 6788,
      "▁avail": 6789,
      "▁1596": 6790,
      "▁differences": 6791,
      "▁fil": 6792,
      "##-------": 6793,
      "##ished": 6794,
      "▁dirty": 6795,
      "▁including": 6796,
      "▁2050": 6797,
      "##we": 6798,
      "▁gar": 6799,
      "▁320": 6800,
      "▁straw": 6801,
      "▁objects": 6802,
      "##encies": 6803,
      "▁pure": 6804,
      "▁sort": 6805,
      "▁piec": 6806,
      "▁serving": 6807,
      "▁occ": 6808,
      "▁prices": 6809,
      "▁hun": 6810,
      "▁select": 6811,
      "▁tre": 6812,
      "##ments": 6813,
      "▁sa": 6814,
      "▁extremely": 6815,
      "▁password": 6816,
      "##enc": 6817,
      "▁rac": 6818,
      "##elle": 6819,
      "▁pass": 6820,
      "##gest": 6821,
      "▁int": 6822,
      "▁modern": 6823,
      "▁boston": 6824,
      "##3098": 6825,
      "▁little": 6826,
      "##28": 6827,
      "##/2005": 6828,
      "##2/2000": 6829,
      "▁means": 6830,
      "##oke": 6831,
      "▁note": 6832,
      "##ilit": 6833,
      "##most": 6834,
      "##rees": 6835,
      "▁jap": 6836,
      "##leep": 6837,
      "▁youn": 6838,
      "▁hell": 6839,
      "▁ph": 6840,
      "▁perm": 6841,
      "▁visual": 6842,
      "▁commit": 6843,
      "▁11608": 6844,
      "##ic": 6845,
      "▁uv": 6846,
      "##:52": 6847,
      "▁pun": 6848,
      "▁falls": 6849,
      "▁brows": 6850,
      "▁frag": 6851,
      "##ral": 6852,
      "▁1738": 6853,
      "▁regional": 6854,
      "▁veget": 6855,
      "▁screw": 6856,
      "##ship": 6857,
      "##/26/2001": 6858,
      "▁follow": 6859,
      "##life": 6860,
      "▁height": 6861,
      "▁redlined": 6862,
      "▁slide": 6863,
      "▁800": 6864,
      "▁150": 6865,
      "▁learn": 6866,
      "▁ago": 6867,
      "▁boxes": 6868,
      "▁rug": 6869,
      "▁dolph": 6870,
      "##eare": 6871,
      "##x": 6872,
      "##ung": 6873,
      "▁available": 6874,
      "▁infrastructure": 6875,
      "▁ended": 6876,
      "##ws": 6877,
      "▁restaurants": 6878,
      "▁iraqi": 6879,
      "▁never": 6880,
      "▁tie": 6881,
      "##ible": 6882,
      "▁iss": 6883,
      "##ums": 6884,
      "▁inf": 6885,
      "▁payment": 6886,
      "▁elsewhere": 6887,
      "##hia": 6888,
      "▁surv": 6889,
      "▁ins": 6890,
      "▁cheapest": 6891,
      "##cy": 6892,
      "▁mc": 6893,
      "▁cab": 6894,
      "▁12": 6895,
      "▁stren": 6896,
      "▁1,000": 6897,
      "▁surface": 6898,
      "e": 6899,
      "▁capital": 6900,
      "##gill": 6901,
      "##ə": 6902,
      "▁green": 6903,
      "▁750,000": 6904,
      "##294-": 6905,
      "▁‘": 6906,
      "▁designed": 6907,
      "▁reached": 6908,
      "##ong": 6909,
      "##ider": 6910,
      "##ike": 6911,
      "▁brings": 6912,
      "▁dark": 6913,
      "▁color": 6914,
      "▁transaction": 6915,
      "▁stom": 6916,
      "▁832.676": 6917,
      "##:03": 6918,
      "▁still": 6919,
      "##anch": 6920,
      "▁ah": 6921,
      "▁analysis_0712": 6922,
      "##eight": 6923,
      "##erous": 6924,
      "ə": 6925,
      "##ici": 6926,
      "##aged": 6927,
      "##case": 6928,
      "##astic": 6929,
      "▁:": 6930,
      "##uate": 6931,
      "▁r": 6932,
      "▁trav": 6933,
      "▁distort": 6934,
      "##ens": 6935,
      "▁magaz": 6936,
      "▁owner": 6937,
      "##pts": 6938,
      "▁tell": 6939,
      "▁rude": 6940,
      "▁conflict": 6941,
      "▁rates": 6942,
      "##it": 6943,
      "▁ros": 6944,
      "▁nic": 6945,
      "▁clothes": 6946,
      "▁ban": 6947,
      "##)": 6948,
      "▁gas": 6949,
      "##ency": 6950,
      "▁experienced": 6951,
      "▁returned": 6952,
      "▁apar": 6953,
      "▁economic": 6954,
      "▁trale": 6955,
      "▁bro": 6956,
      "##nel": 6957,
      "▁waste": 6958,
      "▁tra": 6959,
      "##-)": 6960,
      "##etic": 6961,
      "▁activ": 6962,
      "▁figure": 6963,
      "▁would": 6964,
      "##atively": 6965,
      "▁legislative": 6966,
      "▁08/16/2000": 6967,
      "##vel": 6968,
      "–": 6969,
      "▁nick": 6970,
      "▁positions": 6971,
      "##ared": 6972,
      "▁standard": 6973,
      "▁170": 6974,
      "▁social": 6975,
      "##fe": 6976,
      "▁leave": 6977,
      "▁continue": 6978,
      "▁cult": 6979,
      "§": 6980,
      "▁terror": 6981,
      "▁trip": 6982,
      "▁invest": 6983,
      "▁located": 6984,
      "▁expectations": 6985,
      "▁tied": 6986,
      "▁batter": 6987,
      "▁formed": 6988,
      "##uted": 6989,
      "▁beginning": 6990,
      "##ok": 6991,
      "▁is": 6992,
      "▁domestic": 6993,
      "##iation": 6994,
      "▁tall": 6995,
      "▁conc": 6996,
      "▁lim": 6997,
      "▁science": 6998,
      "▁somebody": 6999,
      "▁incor": 7000,
      "▁cod": 7001,
      "▁ble": 7002,
      "▁f": 7003,
      "##c": 7004,
      "##bow": 7005,
      "▁hers": 7006,
      "▁chocol": 7007,
      "▁100,000": 7008,
      "▁620-": 7009,
      "##ries": 7010,
      "##ime": 7011,
      "▁recover": 7012,
      "##noon": 7013,
      "##ι": 7014,
      "▁iran": 7015,
      "##izes": 7016,
      "▁served": 7017,
      "¢": 7018,
      "##k": 7019,
      "▁1850": 7020,
      "▁ch": 7021,
      "##mica": 7022,
      "▁281-": 7023,
      "##tip": 7024,
      "▁sty": 7025,
      "▁falluj": 7026,
      "▁export": 7027,
      "##ften": 7028,
      "▁cup": 7029,
      "##ck": 7030,
      "##f": 7031,
      "▁oc": 7032,
      "▁life": 7033,
      "▁certain": 7034,
      "▁republic": 7035,
      "▁dr": 7036,
      "▁flex": 7037,
      "##奈": 7038,
      "▁630": 7039,
      "▁06/01/2001": 7040,
      "▁response": 7041,
      "##pr": 7042,
      "▁ac": 7043,
      "▁mohammed": 7044,
      "▁899": 7045,
      "ω": 7046,
      "##4/2000": 7047,
      "##ow": 7048,
      "##arch": 7049,
      "▁behind": 7050,
      "##91": 7051,
      "▁notwithstanding": 7052,
      "▁financial": 7053,
      "▁77": 7054,
      "▁ra": 7055,
      "▁peace": 7056,
      "▁entertain": 7057,
      "##iw": 7058,
      "▁樋": 7059,
      "▁young": 7060,
      "▁soldiers": 7061,
      "▁whatever": 7062,
      "##ipped": 7063,
      "##rft": 7064,
      "▁theatre": 7065,
      "▁5.3": 7066,
      "▁2,500": 7067,
      "▁03:3": 7068,
      "##ving": 7069,
      "▁343": 7070,
      "▁ham": 7071,
      "##esday": 7072,
      "▁ooh": 7073,
      "##-12": 7074,
      "▁sky": 7075,
      "▁remains": 7076,
      "##und": 7077,
      "▁lose": 7078,
      "▁pen": 7079,
      "▁appearance": 7080,
      "##ata": 7081,
      "▁coal": 7082,
      "##chi": 7083,
      "▁lady": 7084,
      "▁assistance": 7085,
      "##icing": 7086,
      "▁disc": 7087,
      "▁silence": 7088,
      "##ondon": 7089,
      "▁prof": 7090,
      "▁pericles": 7091,
      "▁lear": 7092,
      "##is": 7093,
      "▁approximately": 7094,
      "▁why": 7095,
      "▁add": 7096,
      "##inn": 7097,
      "▁soil": 7098,
      "▁slowly": 7099,
      "##ologies": 7100,
      "▁emerging": 7101,
      "▁ticket": 7102,
      "▁server": 7103,
      "##tc": 7104,
      "▁4.": 7105,
      "▁smith": 7106,
      "▁removed": 7107,
      "▁spent": 7108,
      "##20": 7109,
      "▁!.": 7110,
      "▁ce": 7111,
      "▁repl": 7112,
      "澹": 7113,
      "▁narr": 7114,
      "##ms": 7115,
      "▁08/15/2000": 7116,
      "##gets": 7117,
      "▁iii": 7118,
      "▁working": 7119,
      "▁cap": 7120,
      "▁japan": 7121,
      "##.916.718": 7122,
      "▁13011": 7123,
      "##dred": 7124,
      "▁alex": 7125,
      "▁taking": 7126,
      "▁outs": 7127,
      "##nov": 7128,
      "##ansen": 7129,
      "▁further": 7130,
      "▁hung": 7131,
      "▁63": 7132,
      "▁4,": 7133,
      "▁forgot": 7134,
      "▁museum": 7135,
      "##ork": 7136,
      "▁51": 7137,
      "▁arri": 7138,
      "[PAD]": 7139,
      "##onto": 7140,
      "▁713-853-": 7141,
      "##ston": 7142,
      "▁creating": 7143,
      "##ick": 7144,
      "##ated": 7145,
      "▁pe": 7146,
      "##str": 7147,
      "▁goal": 7148,
      "▁1840": 7149,
      "▁digital": 7150,
      "▁樋口": 7151,
      "▁experiment": 7152,
      "▁tough": 7153,
      "▁9:30": 7154,
      "▁accept": 7155,
      "▁mand": 7156,
      "▁throw": 7157,
      "▁iron": 7158,
      "▁russia": 7159,
      "##mission": 7160,
      "▁80435": 7161,
      "▁these": 7162,
      "###": 7163,
      "▁colleagues": 7164,
      "▁contem": 7165,
      "▁upd": 7166,
      "##ta": 7167,
      "▁refuge": 7168,
      "##3": 7169,
      "##图": 7170,
      "▁currently": 7171,
      "▁child": 7172,
      "▁res": 7173,
      "▁events": 7174,
      "▁commun": 7175,
      "▁debra": 7176,
      "▁=---": 7177,
      "##37": 7178,
      "##fare": 7179,
      "▁1560": 7180,
      "▁54": 7181,
      "▁.3": 7182,
      "▁tampa": 7183,
      "▁setting": 7184,
      "▁gu": 7185,
      "▁occasion": 7186,
      "▁90": 7187,
      "▁vodka": 7188,
      "▁operations": 7189,
      "▁lead": 7190,
      "▁less": 7191,
      "##46-3393": 7192,
      "##ouse": 7193,
      "##edie": 7194,
      "▁piv": 7195,
      "▁quarter": 7196,
      "▁2.9": 7197,
      "▁nook": 7198,
      "▁fifty": 7199,
      "##akk": 7200,
      "▁spanish": 7201,
      "▁coll": 7202,
      "▁perfectly": 7203,
      "空": 7204,
      "▁foreign": 7205,
      "▁69": 7206,
      "▁absor": 7207,
      "▁2013": 7208,
      "▁uncle": 7209,
      "▁dust": 7210,
      "##.782": 7211,
      "ن": 7212,
      "▁friend": 7213,
      "##ound": 7214,
      "▁1783": 7215,
      "##onom": 7216,
      "▁comfort": 7217,
      "▁famous": 7218,
      "▁shape": 7219,
      "▁population": 7220,
      "▁03:00": 7221,
      "▁leg": 7222,
      "▁problems": 7223,
      "▁providing": 7224,
      "##q": 7225,
      "##ze": 7226,
      "▁phys": 7227,
      "▁cal": 7228,
      "▁priority": 7229,
      "▁§": 7230,
      "##osition": 7231,
      "▁incom": 7232,
      "▁produced": 7233,
      "▁mem": 7234,
      "▁maj": 7235,
      "▁visitors": 7236,
      "▁unable": 7237,
      "▁exp": 7238,
      "##wik": 7239,
      "##over": 7240,
      "▁remind": 7241,
      "▁above": 7242,
      "▁himself": 7243,
      "▁milwau": 7244,
      "##ioned": 7245,
      "##ation": 7246,
      "##ays": 7247,
      "▁bear": 7248,
      "▁stri": 7249,
      "▁pet": 7250,
      "▁underneath": 7251,
      "▁calling": 7252,
      "▁97": 7253,
      "▁identity": 7254,
      "##ς": 7255,
      "##ann": 7256,
      "▁street": 7257,
      "##md": 7258,
      "▁sm": 7259,
      "▁potato": 7260,
      "▁2011": 7261,
      "▁bin": 7262,
      "##more": 7263,
      "▁congrat": 7264,
      "##ls": 7265,
      "▁mod": 7266,
      "▁path": 7267,
      "▁ire": 7268,
      "▁talked": 7269,
      "##/11/2004": 7270,
      "▁ser": 7271,
      "▁school": 7272,
      "▁cow": 7273,
      "▁suprem": 7274,
      "▁10:46": 7275,
      "▁second": 7276,
      "##zer": 7277,
      "##ingu": 7278,
      "▁220": 7279,
      "▁lives": 7280,
      "▁till": 7281,
      "##emic": 7282,
      "▁sixteen": 7283,
      "▁baltimore": 7284,
      "▁via": 7285,
      "##ults": 7286,
      "▁1918": 7287,
      "▁sit": 7288,
      "▁alternative": 7289,
      "▁packed": 7290,
      "##ento": 7291,
      "▁element": 7292,
      "▁detroit": 7293,
      "▁1584": 7294,
      "▁subsequ": 7295,
      "##-0": 7296,
      "▁ad": 7297,
      "▁three": 7298,
      "▁univers": 7299,
      "▁comment": 7300,
      "▁germany": 7301,
      "▁machine": 7302,
      "##ism": 7303,
      "▁347": 7304,
      "▁improve": 7305,
      "##27": 7306,
      "▁glo": 7307,
      "##val": 7308,
      "▁silly": 7309,
      "▁thoughts": 7310,
      "##819": 7311,
      "▁benefit": 7312,
      "▁neighbour": 7313,
      "▁together": 7314,
      "▁1774": 7315,
      "▁rental": 7316,
      "▁poetry": 7317,
      "▁college": 7318,
      "##ban": 7319,
      "▁turis": 7320,
      "▁she": 7321,
      "▁-----------------------------------------------------------------": 7322,
      "▁size": 7323,
      "##@enron_de": 7324,
      "##ulty": 7325,
      "▁sixty": 7326,
      "▁’s": 7327,
      "##ided": 7328,
      "▁unique": 7329,
      "▁mexican": 7330,
      "▁wedding": 7331,
      "▁unc": 7332,
      "▁idea": 7333,
      "##work": 7334,
      "▁older": 7335,
      "▁independent": 7336,
      "▁measures": 7337,
      "##inews": 7338,
      "##+----------------": 7339,
      "▁evol": 7340,
      "▁nab": 7341,
      "▁xml": 7342,
      "▁!!!!!!!!!!!": 7343,
      "▁men": 7344,
      "▁pos": 7345,
      "▁becuse": 7346,
      "▁blog": 7347,
      "##rast": 7348,
      "▁formal": 7349,
      "▁sally": 7350,
      "##mos": 7351,
      "##ever": 7352,
      "##isation": 7353,
      "▁orig": 7354,
      "▁bag": 7355,
      "▁spoke": 7356,
      "▁hopefully": 7357,
      "▁speaking": 7358,
      "▁serious": 7359,
      "▁building": 7360,
      "\\": 7361,
      "▁version": 7362,
      "▁coat": 7363,
      "▁thom": 7364,
      "▁writing": 7365,
      "##ushing": 7366,
      "▁congress": 7367,
      "▁1987": 7368,
      "▁jean": 7369,
      "##ift": 7370,
      "▁eleph": 7371,
      "▁rice": 7372,
      "▁forever": 7373,
      "▁islands": 7374,
      "##al": 7375,
      "##eed": 7376,
      "▁signific": 7377,
      "▁move": 7378,
      "▁iod": 7379,
      "▁regulation": 7380,
      "▁jun": 7381,
      "▁much": 7382,
      "▁later": 7383,
      "▁dry": 7384,
      "##ho": 7385,
      "##ooth": 7386,
      "▁uniform": 7387,
      "##low": 7388,
      "▁zoo": 7389,
      "##ood": 7390,
      "▁meh-risk": 7391,
      "▁ron": 7392,
      "##ger": 7393,
      "▁corpor": 7394,
      "##:35": 7395,
      "▁conver": 7396,
      "▁pointed": 7397,
      "▁thru": 7398,
      "▁1990": 7399,
      "▁fellow": 7400,
      "▁jumped": 7401,
      "▁correct": 7402,
      "▁big": 7403,
      "##ext": 7404,
      "▁narrow": 7405,
      "##ris": 7406,
      "▁coinc": 7407,
      "▁1829": 7408,
      "##en": 7409,
      "##++": 7410,
      "##red": 7411,
      "▁??": 7412,
      "##86": 7413,
      "▁extrem": 7414,
      "##elled": 7415,
      "▁thir": 7416,
      "▁novel": 7417,
      "▁kitty": 7418,
      "▁astride": 7419,
      "##ilt": 7420,
      "##ne": 7421,
      "##300": 7422,
      "▁19": 7423,
      "##inner": 7424,
      "##owled": 7425,
      "▁cand": 7426,
      "##agon": 7427,
      "▁application": 7428,
      "▁sept": 7429,
      "▁….": 7430,
      "##ey": 7431,
      "▁blow": 7432,
      "▁teachers": 7433,
      "▁cast": 7434,
      "##ility": 7435,
      "▁reg": 7436,
      "▁35": 7437,
      "▁eat": 7438,
      "▁kids": 7439,
      "▁left": 7440,
      "##.m": 7441,
      "▁management": 7442,
      "▁,?": 7443,
      "##449": 7444,
      "##uments": 7445,
      "▁affair": 7446,
      "##alf": 7447,
      "▁command": 7448,
      "▁goes": 7449,
      "▁send": 7450,
      "▁waters": 7451,
      "##iban": 7452,
      "▁put": 7453,
      "▁consumption": 7454,
      "▁puzzle": 7455,
      "▁by": 7456,
      "##wise": 7457,
      "##ʊ": 7458,
      "▁plate": 7459,
      "▁same": 7460,
      "##two": 7461,
      "##874": 7462,
      "▁approxim": 7463,
      "##iar": 7464,
      "▁untill": 7465,
      "▁wrong": 7466,
      "▁575": 7467,
      "##lish": 7468,
      "▁kh": 7469,
      "ʻ": 7470,
      "▁services": 7471,
      "▁instead": 7472,
      "▁'d": 7473,
      "▁describ": 7474,
      "▁advant": 7475,
      "▁architect": 7476,
      "##/": 7477,
      "▁informed": 7478,
      "▁dest": 7479,
      "##atures": 7480,
      "▁tort": 7481,
      "▁costs": 7482,
      "▁’re": 7483,
      "##ي": 7484,
      "##ped": 7485,
      "##ert": 7486,
      "▁also": 7487,
      "▁alcal": 7488,
      "▁author": 7489,
      "##24": 7490,
      "▁<": 7491,
      "▁housing": 7492,
      "夏": 7493,
      "▁choice": 7494,
      "▁miami": 7495,
      "▁1.1": 7496,
      "▁robert": 7497,
      "##_^": 7498,
      "▁dig": 7499,
      "▁las": 7500,
      "##ission": 7501,
      "▁docum": 7502,
      "▁feeling": 7503,
      "▁tokyo": 7504,
      "##itting": 7505,
      "▁1790": 7506,
      "##uch": 7507,
      "▁other": 7508,
      "▁going": 7509,
      "▁fear": 7510,
      "▁projects": 7511,
      "▁transform": 7512,
      "▁ale": 7513,
      "▁den": 7514,
      "##ep": 7515,
      "▁cost": 7516,
      "▁jeff": 7517,
      "▁vogel": 7518,
      "##ength": 7519,
      "##======": 7520,
      "##ibility": 7521,
      "▁defined": 7522,
      "##ied": 7523,
      "▁father": 7524,
      "▁finance": 7525,
      "▁apr": 7526,
      "▁efficiency": 7527,
      "▁accurate": 7528,
      "##uth": 7529,
      "▁faces": 7530,
      "▁alike": 7531,
      "▁grand": 7532,
      "▁comm": 7533,
      "▁ingredients": 7534,
      "▁inh": 7535,
      "##is_0": 7536,
      "▁rul": 7537,
      "▁bulld": 7538,
      "▁shoe": 7539,
      "▁around": 7540,
      "▁decided": 7541,
      "▁mike": 7542,
      "▁minimum": 7543,
      "##===": 7544,
      "▁forty-": 7545,
      "q": 7546,
      "▁4.7": 7547,
      "▁favour": 7548,
      "▁carried": 7549,
      "▁shoulder": 7550,
      "▁skitt": 7551,
      "▁lot": 7552,
      "▁appointment": 7553,
      "▁3/4": 7554,
      "▁mid": 7555,
      "##stances": 7556,
      "▁shake": 7557,
      "▁using": 7558,
      "▁northwest": 7559,
      "▁oh": 7560,
      "##.718": 7561,
      "▁cl": 7562,
      "ß": 7563,
      "▁pour": 7564,
      "▁percent": 7565,
      "▁wolves": 7566,
      "▁pair": 7567,
      "▁disney": 7568,
      "▁111": 7569,
      "##01": 7570,
      "▁vill": 7571,
      "##6-8": 7572,
      "##ection": 7573,
      "▁ren": 7574,
      "▁lic": 7575,
      "##:46": 7576,
      "▁dirt": 7577,
      "▁delivered": 7578,
      "▁south": 7579,
      "▁met": 7580,
      "##aps": 7581,
      "▁1965": 7582,
      "▁03/28/2001": 7583,
      "▁415.621.8317": 7584,
      "▁conversation": 7585,
      "▁sense": 7586,
      "##ening": 7587,
      "▁provides": 7588,
      "▁kore": 7589,
      "▁dere": 7590,
      "▁wi": 7591,
      "##19": 7592,
      "##-1": 7593,
      "▁qual": 7594,
      "▁computer": 7595,
      "▁offic": 7596,
      "##icious": 7597,
      "▁cooked": 7598,
      "##isc": 7599,
      "##reg": 7600,
      "▁;": 7601,
      "▁clay": 7602,
      "##@trans": 7603,
      "▁taken": 7604,
      "▁my": 7605,
      "##r": 7606,
      "▁1594": 7607,
      "▁1700": 7608,
      "▁plan": 7609,
      "▁sw": 7610,
      "##ind": 7611,
      "▁forces": 7612,
      "##☎": 7613,
      "##ste": 7614,
      "▁grab": 7615,
      "##.ht": 7616,
      "▁prepared": 7617,
      "▁spect": 7618,
      "##-6": 7619,
      "▁soft": 7620,
      "##resh": 7621,
      "▁raised": 7622,
      "▁own": 7623,
      "▁happy": 7624,
      "▁woman": 7625,
      "▁page": 7626,
      "▁technical": 7627,
      "##ating": 7628,
      "##illing": 7629,
      "▁introduced": 7630,
      "▁artwork": 7631,
      "▁scene": 7632,
      "##side": 7633,
      "▁assume": 7634,
      "▁alt.animals": 7635,
      "▁development": 7636,
      "##aves": 7637,
      "##3c": 7638,
      "##ab": 7639,
      "##resp": 7640,
      "▁original": 7641,
      "##im": 7642,
      "▁rate": 7643,
      "##/1": 7644,
      "▁ber": 7645,
      "##lus": 7646,
      "▁recogn": 7647,
      "▁northern": 7648,
      "##odz": 7649,
      "##ience": 7650,
      "▁suggest": 7651,
      "▁·": 7652,
      "▁basket": 7653,
      "▁311": 7654,
      "▁islam": 7655,
      "▁weapon": 7656,
      "▁dead": 7657,
      "▁iodine": 7658,
      "##40": 7659,
      "▁interviews": 7660,
      "##iver": 7661,
      "▁fri": 7662,
      "▁373": 7663,
      "▁liked": 7664,
      "▁walk": 7665,
      "▁exchange": 7666,
      "▁birth": 7667,
      "##@enron_development": 7668,
      "▁as": 7669,
      "▁54,000": 7670,
      "▁1776": 7671,
      "##.9": 7672,
      "▁no-6": 7673,
      "▁1701": 7674,
      "▁doing": 7675,
      "▁scr": 7676,
      "▁administ": 7677,
      "##82": 7678,
      "▁747": 7679,
      "##macion": 7680,
      "##ank": 7681,
      "▁45": 7682,
      "▁passion": 7683,
      "##-f": 7684,
      "▁spoken": 7685,
      "▁cycl": 7686,
      "##ific": 7687,
      "##.8": 7688,
      "▁lay": 7689,
      "▁20.doc": 7690,
      "▁centre": 7691,
      "##gel": 7692,
      "##head": 7693,
      "##ages": 7694,
      "▁2.3": 7695,
      "##ames": 7696,
      "▁bec": 7697,
      "▁someone": 7698,
      "▁sir": 7699,
      "▁creat": 7700,
      "▁reach": 7701,
      "▁183": 7702,
      "▁purchase": 7703,
      "▁keep": 7704,
      "##icago": 7705,
      "##iting": 7706,
      "▁particularly": 7707,
      "##ish": 7708,
      "▁what": 7709,
      "▁1920": 7710,
      "▁characters": 7711,
      "##grin": 7712,
      "▁stillman": 7713,
      "▁consult": 7714,
      "▁212": 7715,
      "▁compet": 7716,
      "▁ansi-": 7717,
      "▁sil": 7718,
      "▁level": 7719,
      "##31": 7720,
      "##ique": 7721,
      "▁pocket": 7722,
      "▁wants": 7723,
      "▁jelly": 7724,
      "▁industrial": 7725,
      "▁fund": 7726,
      "##ings": 7727,
      "▁task": 7728,
      "▁sav": 7729,
      "##rad": 7730,
      "▁vol": 7731,
      "##cum": 7732,
      "▁orlando": 7733,
      "▁jud": 7734,
      "▁n'": 7735,
      "▁took": 7736,
      "##葉": 7737,
      "▁corporate": 7738,
      "##/10": 7739,
      "▁doubt": 7740,
      "%": 7741,
      "▁admin": 7742,
      "ʁ": 7743,
      "▁24.7": 7744,
      "▁boys": 7745,
      "▁jul": 7746,
      "▁202.45": 7747,
      "▁visa": 7748,
      "▁audit": 7749,
      "▁evidence": 7750,
      "▁telephone": 7751,
      "▁youtube": 7752,
      "▁11:00": 7753,
      "##illion": 7754,
      "▁nme": 7755,
      "▁cr": 7756,
      "##ablish": 7757,
      "▁calif": 7758,
      "##der": 7759,
      "▁perform": 7760,
      "▁books": 7761,
      "▁p.s.": 7762,
      "▁call": 7763,
      "▁0.00": 7764,
      "▁worse": 7765,
      "▁es": 7766,
      "##!!!!!!!!": 7767,
      "▁medium": 7768,
      "▁mis": 7769,
      "▁prove": 7770,
      "##ees": 7771,
      "##anc": 7772,
      "▁bike": 7773,
      "##sm": 7774,
      "##,8": 7775,
      "▁negoti": 7776,
      "▁intellect": 7777,
      "▁sees": 7778,
      "##ano": 7779,
      "▁chines": 7780,
      "▁from": 7781,
      "▁twist": 7782,
      "▁turn": 7783,
      "▁coffee": 7784,
      "▁efficient": 7785,
      "▁assess": 7786,
      "▁info": 7787,
      "▁tea": 7788,
      "##ented": 7789,
      "▁spoon": 7790,
      "▁flights": 7791,
      "▁necess": 7792,
      "×": 7793,
      "▁rice@enron": 7794,
      "▁higher": 7795,
      "▁philadelp": 7796,
      "▁==": 7797,
      "?": 7798,
      "▁economies": 7799,
      "▁init": 7800,
      "##ˈ": 7801,
      "▁bottle": 7802,
      "▁nose": 7803,
      "▁922": 7804,
      "▁infrast": 7805,
      "▁rolling": 7806,
      "▁cats": 7807,
      "##ص": 7808,
      "▁rare": 7809,
      "▁[...": 7810,
      "##eld": 7811,
      "▁confidential": 7812,
      "▁necessarily": 7813,
      "▁euro": 7814,
      "##ars": 7815,
      "##antic": 7816,
      "▁sim": 7817,
      "▁robot": 7818,
      "▁sou": 7819,
      "▁ty": 7820,
      "▁acts": 7821,
      "▁peop": 7822,
      "▁dra": 7823,
      "▁2018": 7824,
      "▁sun": 7825,
      "▁returning": 7826,
      "▁help": 7827,
      "##:45": 7828,
      "##b)": 7829,
      "▁1605": 7830,
      "##----------------": 7831,
      "##yond": 7832,
      "▁04:37": 7833,
      "▁dear": 7834,
      "i": 7835,
      "▁300,000": 7836,
      "▁kinda": 7837,
      "▁district": 7838,
      "▁buying": 7839,
      "▁1985": 7840,
      "▁'": 7841,
      "▁drew": 7842,
      "▁uma": 7843,
      "▁aer": 7844,
      "▁everywhere": 7845,
      "▁franc": 7846,
      "▁id": 7847,
      "##ium": 7848,
      "▁grounds": 7849,
      "##itions": 7850,
      "▁while": 7851,
      "▁belly": 7852,
      "##itude": 7853,
      "▁huge": 7854,
      "##ice": 7855,
      "▁far": 7856,
      "▁1780": 7857,
      "▁through": 7858,
      "▁03:20": 7859,
      "▁1984": 7860,
      "▁1589": 7861,
      "▁mon": 7862,
      "##.net": 7863,
      "▁afraid": 7864,
      "▁agenda": 7865,
      "▁01:58": 7866,
      "##ry": 7867,
      "▁often": 7868,
      "##ps": 7869,
      "▁stoy": 7870,
      "▁v.": 7871,
      "▁firm": 7872,
      "▁class": 7873,
      "##orm": 7874,
      "▁pages": 7875,
      "▁secretary": 7876,
      "▁love": 7877,
      "▁bird": 7878,
      "▁dancing": 7879,
      "▁doct": 7880,
      "▁instit": 7881,
      "##ners": 7882,
      "▁earliest": 7883,
      "##ishing": 7884,
      "▁despite": 7885,
      "▁and": 7886,
      "##ines": 7887,
      "▁save": 7888,
      "▁6": 7889,
      "##aging": 7890,
      "##cuz": 7891,
      "##-h": 7892,
      "▁door": 7893,
      "##β": 7894,
      "▁dando": 7895,
      "▁milit": 7896,
      "▁libr": 7897,
      "▁mark": 7898,
      "▁rent": 7899,
      "▁naima": 7900,
      "▁language": 7901,
      "▁speak": 7902,
      "##-8031": 7903,
      "▁remember": 7904,
      "##____": 7905,
      "▁1957": 7906,
      "##,5": 7907,
      "▁internal": 7908,
      "▁charlie": 7909,
      "▁til": 7910,
      "##ject": 7911,
      "##eing": 7912,
      "▁throughout": 7913,
      "▁to": 7914,
      "▁construct": 7915,
      "▁944": 7916,
      "##or": 7917,
      "▁cleaning": 7918,
      "##bha": 7919,
      "##estic": 7920,
      "##ɔ": 7921,
      "▁cathol": 7922,
      "▁columbus": 7923,
      "##ize": 7924,
      "▁31": 7925,
      "▁hi": 7926,
      "▁fantastic": 7927,
      "▁tank": 7928,
      "▁separate": 7929,
      "▁faith": 7930,
      "▁born": 7931,
      "##4014": 7932,
      "▁awful": 7933,
      "▁opt": 7934,
      "##22": 7935,
      "##ients": 7936,
      "##stip": 7937,
      "▁queries": 7938,
      "▁cert": 7939,
      "##tte": 7940,
      "##ocr": 7941,
      "##ional": 7942,
      "▁provide": 7943,
      "▁alive": 7944,
      "▁denver": 7945,
      "▁connect": 7946,
      "▁toes": 7947,
      "▁weekly": 7948,
      "##aries": 7949,
      "▁lick": 7950,
      "##.99": 7951,
      "▁hor": 7952,
      "▁constantly": 7953,
      "▁imple": 7954,
      "▁allow": 7955,
      "▁555": 7956,
      "▁bring": 7957,
      "##four": 7958,
      "▁ing": 7959,
      "▁oce": 7960,
      "▁mach": 7961,
      "▁security": 7962,
      "▁budget": 7963,
      "▁hands": 7964,
      "▁1-800": 7965,
      "##usal": 7966,
      "▁either": 7967,
      "▁weasley": 7968,
      "##,": 7969,
      "##uclear": 7970,
      "▁difficult": 7971,
      "▁employees": 7972,
      "▁eighty": 7973,
      "▁1912": 7974,
      "▁fuck": 7975,
      "▁saddam": 7976,
      "▁male": 7977,
      "▁manner": 7978,
      "▁cream": 7979,
      "▁coup": 7980,
      "##ipp": 7981,
      "▁north": 7982,
      "##if": 7983,
      "##ma": 7984,
      "▁worms": 7985,
      "▁lack": 7986,
      "##anta": 7987,
      "▁e.g.": 7988,
      "▁senate": 7989,
      "▁1960": 7990,
      "##-r": 7991,
      "##acy": 7992,
      "▁dro": 7993,
      "▁intern": 7994,
      "▁1871": 7995,
      "▁file": 7996,
      "##gh": 7997,
      "##________________": 7998,
      "▁72": 7999,
      "_": 8000,
      "##isco": 8001,
      "##leton": 8002,
      "▁respons": 8003,
      "▁corresp": 8004,
      "##1": 8005,
      "▁equ": 8006,
      "##100": 8007,
      "▁83": 8008,
      "##:57": 8009,
      "▁buttons": 8010,
      "▁changing": 8011,
      "##10": 8012,
      "▁picture": 8013,
      "▁spok": 8014,
      "▁1603": 8015,
      "##œ": 8016,
      "▁125": 8017,
      "▁abb": 8018,
      "▁motor": 8019,
      "▁temper": 8020,
      "##================================": 8021,
      "▁loose": 8022,
      "▁pur": 8023,
      "▁granted": 8024,
      "▁-fin": 8025,
      "##-ked": 8026,
      "▁10:34": 8027,
      "▁wether": 8028,
      "▁mush": 8029,
      "▁worried": 8030,
      "▁om": 8031,
      "▁tuesday": 8032,
      "▁round": 8033,
      "▁ball": 8034,
      "▁encab": 8035,
      "▁psychology": 8036,
      "▁hide": 8037,
      "##read": 8038,
      "▁cookies": 8039,
      "▁charles": 8040,
      "▁investig": 8041,
      "▁1964": 8042,
      "▁sand": 8043,
      "▁order": 8044,
      "##awah": 8045,
      "▁1821": 8046,
      "▁establish": 8047,
      "▁therefore": 8048,
      "▁1999": 8049,
      "▁?!": 8050,
      "▁lie": 8051,
      "▁actually": 8052,
      "▁ven": 8053,
      "▁rest": 8054,
      "##s/": 8055,
      "▁nuclear": 8056,
      "▁cooper": 8057,
      "▁700": 8058,
      "▁airl": 8059,
      "##-46": 8060,
      "##ar": 8061,
      "▁matter": 8062,
      "##ping": 8063,
      "##ule": 8064,
      "##ty": 8065,
      "##tejo": 8066,
      "##oot": 8067,
      "##7/99": 8068,
      "▁grown": 8069,
      "▁believed": 8070,
      "##eet": 8071,
      "▁tried": 8072,
      "▁presents": 8073,
      "##03": 8074,
      "▁wife": 8075,
      "▁’m": 8076,
      "▁09:14": 8077,
      "##:0": 8078,
      "##right": 8079,
      "▁horse": 8080,
      "##arts": 8081,
      "▁fans": 8082,
      "▁416-8": 8083,
      "▁educ": 8084,
      "##ß": 8085,
      "▁================================": 8086,
      "##atically": 8087,
      "▁fl": 8088,
      "▁...": 8089,
      "▁646": 8090,
      "##ends": 8091,
      "##-w": 8092,
      "▁pick": 8093,
      "▁inn": 8094,
      "▁paris": 8095,
      "▁wand": 8096,
      "▁vogelaviatiola": 8097,
      "##8806": 8098,
      "▁emergency": 8099,
      "°": 8100,
      "▁bri": 8101,
      "##.85": 8102,
      "▁environ": 8103,
      "▁loud": 8104,
      "▁est": 8105,
      "▁associated": 8106,
      "##/13": 8107,
      "▁jord": 8108,
      "▁importance": 8109,
      "▁fixed": 8110,
      "▁started": 8111,
      "▁necessary": 8112,
      "▁cry": 8113,
      "▁trillion": 8114,
      "▁130": 8115,
      "▁pil": 8116,
      "##98": 8117,
      "▁ru": 8118,
      "##ties": 8119,
      "##ight": 8120,
      "▁getting": 8121,
      "##/30": 8122,
      "▁restaurant": 8123,
      "##-00": 8124,
      "##inny": 8125,
      "▁mouse": 8126,
      "##going": 8127,
      "▁symp": 8128,
      "##body": 8129,
      "##uries": 8130,
      "▁made": 8131,
      "▁jewish": 8132,
      "▁)": 8133,
      "##vey": 8134,
      "▁breath": 8135,
      "▁on": 8136,
      "▁database": 8137,
      "##ged": 8138,
      "##18": 8139,
      "##och": 8140,
      "▁chap": 8141,
      "▁09:45": 8142,
      "▁wit": 8143,
      "##uled": 8144,
      "▁15": 8145,
      "▁begin": 8146,
      "##ome": 8147,
      "▁stud": 8148,
      "▁white": 8149,
      "▁august": 8150,
      "##,7": 8151,
      "▁ants": 8152,
      "##68": 8153,
      "▁moder": 8154,
      "▁of": 8155,
      "##claim": 8156,
      "##got": 8157,
      "##entions": 8158,
      "▁daddy": 8159,
      "##ο": 8160,
      "##73": 8161,
      "▁forest": 8162,
      "▁reserve": 8163,
      "▁then": 8164,
      "##????": 8165,
      "##0s": 8166,
      "▁final": 8167,
      "▁cognitive": 8168,
      "▁dragon": 8169,
      "##rant": 8170,
      "##igned": 8171,
      "▁includes": 8172,
      "##eit": 8173,
      "▁almost": 8174,
      "▁fire": 8175,
      "##bers": 8176,
      "##ago": 8177,
      "▁hole": 8178,
      "▁mountain": 8179,
      "▁caught": 8180,
      "##oured": 8181,
      "▁:)": 8182,
      "▁boy": 8183,
      "##esc": 8184,
      "▁disp": 8185,
      "▁word": 8186,
      "##pet": 8187,
      "▁angeles": 8188,
      "##........": 8189,
      "▁202.7": 8190,
      "▁sound": 8191
    }
  }
}