{
  "version": "1.0",
  "truncation": null,
  "padding": null,
  "added_tokens": [
    {
      "id": 2422,
      "content": "[SEP]",
      "single_word": false,
      "lstrip": false,
      "rstrip": false,
      "normalized": false,
      "special": true
    },
    {
      "id": 3988,
      "content": "[UNK]",
      "single_word": false,
      "lstrip": false,
      "rstrip": false,
      "normalized": false,
      "special": true
    },
    {
      "id": 4976,
      "content": "[MASK]",
      "single_word": false,
      "lstrip": false,
      "rstrip": false,
      "normalized": false,
      "special": true
    },
    {
      "id": 6571,
      "content": "[PAD]",
      "single_word": false,
      "lstrip": false,
      "rstrip": false,
      "normalized": false,
      "special": true
    },
    {
      "id": 6672,
      "content": "[CLS]",
      "single_word": false,
      "lstrip": false,
      "rstrip": false,
      "normalized": false,
      "special": true
    }
  ],
  "normalizer": {
    "type": "Sequence",
    "normalizers": [
      {
        "type": "NFD"
      },
      {
        "type": "Lowercase"
      },
      {
        "type": "StripAccents"
      }
    ]
  },
  "pre_tokenizer": {
    "type": "Sequence",
    "pretokenizers": [
      {
        "type": "Metaspace",
        "replacement": "▁",
        "prepend_scheme": "always",
        "split": true
      }
    ]
  },
  "post_processor": {
    "type": "TemplateProcessing",
    "single": [
      {
        "SpecialToken": {
          "id": "[CLS]",
          "type_id": 0
        }
      },
      {
        "Sequence": {
          "id": "A",
          "type_id": 0
        }
      },
      {
        "SpecialToken": {
          "id": "[SEP]",
          "type_id": 0
        }
      }
    ],
    "pair": [
      {
        "SpecialToken": {
          "id": "[CLS]",
          "type_id": 0
        }
      },
      {
        "Sequence": {
          "id": "A",
          "type_id": 0
        }
      },
      {
        "SpecialToken": {
          "id": "[SEP]",
          "type_id": 0
        }
      },
      {
        "Sequence": {
          "id": "B",
          "type_id": 1
        }
      },
      {
        "SpecialToken": {
          "id": "[SEP]",
          "type_id": 1
        }
      }
    ],
    "special_tokens": {
      "[CLS]": {
        "id": "[CLS]",
        "ids": [
          6672
        ],
        "tokens": [
          "[CLS]"
        ]
      },
      "[SEP]": {
        "id": "[SEP]",
        "ids": [
          2422
        ],
        "tokens": [
          "[SEP]"
        ]
      }
    }
  },
  "decoder": {
    "type": "Metaspace",
    "replacement": "▁",
    "prepend_scheme": "always",
    "split": true
  },
  "model": {
    "type": "WordPiece",
    "unk_token": "[UNK]",
    "continuing_subword_prefix": "##",
    "max_input_chars_per_word": 100,
    "vocab": {
      "▁controls": 0,
      "▁translation": 1,
      "▁complex": 2,
      "▁wealth": 3,
      "▁713-853-3098": 4,
      "▁astride": 5,
      "▁sch": 6,
      "##fl": 7,
      "▁.3": 8,
      "▁10:30": 9,
      "##ه": 10,
      "▁aim": 11,
      "▁343": 12,
      "▁attention": 13,
      "▁encab": 14,
      "##otted": 15,
      "▁noone": 16,
      "▁7:00": 17,
      "▁inst": 18,
      "▁09/15/99": 19,
      "▁general": 20,
      "▁tex": 21,
      "##3736": 22,
      "▁repres": 23,
      "▁ran": 24,
      "谿": 25,
      "▁turning": 26,
      "##ions": 27,
      "▁rid": 28,
      "▁lady": 29,
      "▁body": 30,
      "##icing": 31,
      "▁tv": 32,
      "##????????": 33,
      "▁columbus": 34,
      "▁person": 35,
      "▁cha": 36,
      "▁relevant": 37,
      "##el": 38,
      "##mp": 39,
      "▁sexual": 40,
      "##ona": 41,
      "▁1965": 42,
      "▁08/03": 43,
      "▁acts": 44,
      "▁345-99": 45,
      "▁32": 46,
      "##iel": 47,
      "▁dragon": 48,
      "▁cast": 49,
      "▁display": 50,
      "▁alberta": 51,
      "▁om": 52,
      "##36": 53,
      "▁forever": 54,
      "▁simply": 55,
      "▁12/2": 56,
      "▁receiving": 57,
      "▁chief": 58,
      "▁channel": 59,
      "##ements": 60,
      "s": 61,
      "##raph": 62,
      "▁on": 63,
      "▁city": 64,
      "▁suck": 65,
      "▁03:20": 66,
      "▁gar": 67,
      "▁hamm": 68,
      "▁ingred": 69,
      "▁646-84": 70,
      "▁shall": 71,
      "▁^": 72,
      "##ilit": 73,
      "▁favor": 74,
      "▁deep": 75,
      "▁insp": 76,
      "▁unit": 77,
      "▁leg": 78,
      "▁dogs": 79,
      "▁sto": 80,
      "▁ha": 81,
      "▁04:": 82,
      "##inn": 83,
      "▁pu": 84,
      "m": 85,
      "▁pop": 86,
      "▁car": 87,
      "▁calif": 88,
      "▁diss": 89,
      "▁older": 90,
      "▁group": 91,
      "▁furn": 92,
      "▁outside": 93,
      "##ade": 94,
      "▁formed": 95,
      "▁experiences": 96,
      "##ires": 97,
      "▁took": 98,
      "##ump": 99,
      "▁wants": 100,
      "▁bones": 101,
      "▁tell": 102,
      "##oring": 103,
      "▁cent": 104,
      "##ounds": 105,
      "▁busy": 106,
      "▁___________": 107,
      "▁traged": 108,
      "▁tast": 109,
      "▁??": 110,
      "▁infl": 111,
      "▁received": 112,
      "ε": 113,
      "##9/2000": 114,
      "##ema": 115,
      "▁about": 116,
      "##-s": 117,
      "▁too": 118,
      "##cond": 119,
      "▁ships": 120,
      "##ians": 121,
      "▁scott": 122,
      "▁-": 123,
      "▁satisf": 124,
      "▁coc": 125,
      "▁814": 126,
      "##谿": 127,
      "▁84": 128,
      "▁nonstop": 129,
      "##/08": 130,
      "##ually": 131,
      "##:38": 132,
      "##...": 133,
      "▁celebr": 134,
      "▁highly": 135,
      "##clus": 136,
      "##val": 137,
      "▁dinosaur": 138,
      "##ners": 139,
      "##ive": 140,
      "▁artwork": 141,
      "▁jen": 142,
      "▁respons": 143,
      "##ha": 144,
      "##ish": 145,
      "▁vogelaviatio": 146,
      "▁205": 147,
      "##ator": 148,
      "▁tac": 149,
      "▁knowing": 150,
      "##ime": 151,
      "▁253": 152,
      "##ide": 153,
      "##reat": 154,
      "▁downtown": 155,
      "##ival": 156,
      "▁04/16/2001": 157,
      "▁mech": 158,
      "▁old": 159,
      "▁400": 160,
      "▁rank": 161,
      "▁scientific": 162,
      "▁yellow": 163,
      "##’": 164,
      "▁recent": 165,
      "##ommend": 166,
      "▁cig": 167,
      "▁syria": 168,
      "##134": 169,
      "▁pressure": 170,
      "##ught": 171,
      "▁democr": 172,
      "▁140": 173,
      "▁leon": 174,
      "▁amidst": 175,
      "▁tourist": 176,
      "▁44,000": 177,
      "▁cens": 178,
      "▁ser": 179,
      "▁advanced": 180,
      "5": 181,
      "▁espec": 182,
      "▁analys": 183,
      "▁nwww": 184,
      "▁date": 185,
      "##–": 186,
      "▁models": 187,
      "##+----------------": 188,
      "##liament": 189,
      "▁walls": 190,
      "##²": 191,
      "▁lion": 192,
      "▁mistake": 193,
      "▁doub": 194,
      "▁doo": 195,
      "▁efficient": 196,
      "▁palestinian": 197,
      "##exp": 198,
      "▁contem": 199,
      "▁perman": 200,
      "▁truth": 201,
      "▁soup": 202,
      "▁harv": 203,
      "▁lol": 204,
      "▁adop": 205,
      "▁<": 206,
      "▁both": 207,
      "▁interesting": 208,
      "##/13": 209,
      "##/03": 210,
      "▁must": 211,
      "▁bye": 212,
      "▁eggs": 213,
      "▁toys": 214,
      "▁kansas": 215,
      "▁dando": 216,
      "##urs": 217,
      "▁reg": 218,
      "▁bush": 219,
      "▁5.6": 220,
      "▁bos": 221,
      "▁18": 222,
      "▁ice": 223,
      "##thers": 224,
      "##two": 225,
      "▁cigare": 226,
      "##415-": 227,
      "▁atmosphere": 228,
      "x": 229,
      "▁surprise": 230,
      "##57": 231,
      "▁***": 232,
      "##ract": 233,
      "##ve": 234,
      "▁500": 235,
      "##aph": 236,
      "##tt": 237,
      "▁lopez": 238,
      "▁“": 239,
      "▁tells": 240,
      "##uge": 241,
      "##ative": 242,
      "▁princ": 243,
      "##ple": 244,
      "▁birthday": 245,
      "▁its": 246,
      "##22,000": 247,
      "▁mich": 248,
      "▁prevent": 249,
      "##row": 250,
      "▁-----------------": 251,
      "▁quiet": 252,
      "▁,": 253,
      "##erc": 254,
      "▁sure": 255,
      "##ackl": 256,
      "▁wife": 257,
      "▁them": 258,
      "▁usually": 259,
      "▁document": 260,
      "▁men": 261,
      "##iety": 262,
      "##de": 263,
      "##ellig": 264,
      "▁writ": 265,
      "##eared": 266,
      "##asc": 267,
      "##th": 268,
      "▁transform": 269,
      "▁delta": 270,
      "▁escape": 271,
      "▁4": 272,
      "▁interests": 273,
      "##under": 274,
      "▁agency": 275,
      "##.75": 276,
      "▁fun": 277,
      "##land": 278,
      "▁opportunity": 279,
      "▁puppy": 280,
      "##-8": 281,
      "##ball": 282,
      "▁student": 283,
      "##00": 284,
      "##...@": 285,
      "▁smooth": 286,
      "##ery": 287,
      "▁-%": 288,
      "▁stand": 289,
      "ο": 290,
      "▁laura": 291,
      "##iz": 292,
      "##rench": 293,
      "▁!?": 294,
      "▁virt": 295,
      "▁trillion": 296,
      "▁appeared": 297,
      "##ina": 298,
      "▁guard": 299,
      "▁domestic": 300,
      "▁delicious": 301,
      "▁bet": 302,
      "▁step": 303,
      "▁west": 304,
      "▁everywhere": 305,
      "▁fut": 306,
      "##ass": 307,
      "▁boat": 308,
      "▁conclud": 309,
      "##39": 310,
      "##-9004": 311,
      "▁mostly": 312,
      "▁hog": 313,
      "▁sub": 314,
      "▁booked": 315,
      "▁prov": 316,
      "##tip": 317,
      "▁01:0": 318,
      "▁beautiful": 319,
      "##ed": 320,
      "▁rest": 321,
      "▁'ll": 322,
      "##phis": 323,
      "##4-": 324,
      "##-79": 325,
      "##ocol": 326,
      "▁prepared": 327,
      "##łod": 328,
      "▁–": 329,
      "▁sal": 330,
      "##ially": 331,
      "▁qual": 332,
      "##70": 333,
      "##fort": 334,
      "▁resp": 335,
      "▁saud": 336,
      "▁600": 337,
      "▁royal": 338,
      "▁susan": 339,
      "##ks": 340,
      "▁online": 341,
      "▁argent": 342,
      "▁conver": 343,
      "##ental": 344,
      "▁amazing": 345,
      "▁contract": 346,
      "▁mile": 347,
      "▁1100": 348,
      "##dam": 349,
      "▁russ": 350,
      ",": 351,
      "##ibility": 352,
      "##izes": 353,
      "▁his": 354,
      "##osure": 355,
      "▁aft": 356,
      "▁substantial": 357,
      "▁================================": 358,
      "##els": 359,
      "##47": 360,
      "##461": 361,
      "▁communication": 362,
      "▁raised": 363,
      "▁poetry": 364,
      "▁rul": 365,
      "▁legal": 366,
      "▁click": 367,
      "##ellow": 368,
      "##order": 369,
      "▁al.": 370,
      "▁is": 371,
      "▁e.g": 372,
      "▁political": 373,
      "##.916.718": 374,
      "▁slowly": 375,
      "­": 376,
      "×": 377,
      "▁wrote": 378,
      "▁mater": 379,
      "▁money": 380,
      "▁campa": 381,
      "▁veget": 382,
      "##ulty": 383,
      "▁800.713.8": 384,
      "▁basis": 385,
      "▁works": 386,
      "▁without": 387,
      "▁1996": 388,
      "▁proud": 389,
      "▁1939": 390,
      "▁string": 391,
      "▁another": 392,
      "##fast": 393,
      "▁disaster": 394,
      "▁realized": 395,
      "##ips": 396,
      "▁democratic": 397,
      "▁:?": 398,
      "▁enjoyed": 399,
      "一": 400,
      "▁1291": 401,
      "▁chris": 402,
      "▁introd": 403,
      "▁noise": 404,
      "▁mayor": 405,
      "▁john": 406,
      "##ici": 407,
      "▁pain": 408,
      "▁reject": 409,
      "▁collective": 410,
      "▁no-6": 411,
      "▁vis": 412,
      "▁although": 413,
      "▁turkey": 414,
      "▁2010": 415,
      "▁guys": 416,
      "▁01:14": 417,
      "▁condition": 418,
      "▁including": 419,
      "##-w": 420,
      "▁descri": 421,
      "▁succeed": 422,
      "▁worry": 423,
      "▁technology": 424,
      "▁abs": 425,
      "▁1590": 426,
      "▁pakistan": 427,
      "▁donkey": 428,
      "▁cry": 429,
      "▁am": 430,
      "▁presented": 431,
      "▁dead": 432,
      "▁ur": 433,
      "▁revised": 434,
      "##ll": 435,
      "▁despite": 436,
      "▁already": 437,
      "##bruary": 438,
      "▁shark": 439,
      "▁battle": 440,
      "▁equ": 441,
      "▁moving": 442,
      "▁80": 443,
      "▁count": 444,
      "##nut": 445,
      "ɑ": 446,
      "▁mac": 447,
      "##ok": 448,
      "▁713-654-1281": 449,
      "▁muse": 450,
      "▁pir": 451,
      "▁scale": 452,
      "▁loved": 453,
      "▁killing": 454,
      "▁ma": 455,
      "▁male": 456,
      "▁sixth": 457,
      "▁bottle": 458,
      "▁vent": 459,
      "▁296": 460,
      "▁towns": 461,
      "##清": 462,
      "##75": 463,
      "▁1926": 464,
      "▁stands": 465,
      "▁purple": 466,
      "▁stud": 467,
      "##stand": 468,
      "▁section": 469,
      "##,00": 470,
      "▁ton": 471,
      "##:00": 472,
      "▁attem": 473,
      "##ux": 474,
      "▁spir": 475,
      "▁fab": 476,
      "▁1.25": 477,
      "▁dollie": 478,
      "▁br": 479,
      "▁paral": 480,
      "▁serving": 481,
      "▁themselves": 482,
      "##orders": 483,
      "▁anti": 484,
      "▁appears": 485,
      "▁evol": 486,
      "▁pat": 487,
      "##ius": 488,
      "▁1596": 489,
      "▁ev": 490,
      "##uts": 491,
      "▁?????": 492,
      "▁`": 493,
      "##ak": 494,
      "##:18": 495,
      "##ick": 496,
      "▁hear": 497,
      "▁twice": 498,
      "##d2": 499,
      "▁remo": 500,
      "▁add": 501,
      "##imes": 502,
      "▁statements": 503,
      "ə": 504,
      "▁television": 505,
      "▁think": 506,
      "##cel": 507,
      "▁informed": 508,
      "▁2008": 509,
      "##ca": 510,
      "▁critical": 511,
      "##aren": 512,
      "▁?!?": 513,
      "##17": 514,
      "▁78": 515,
      "▁750,000": 516,
      "##algami": 517,
      "##-nine": 518,
      "##ottable": 519,
      "▁od": 520,
      "▁researchers": 521,
      "##/16": 522,
      "▁04:37": 523,
      "▁rat": 524,
      "▁sleepy": 525,
      "▁212": 526,
      "▁guidelines": 527,
      "▁gaz": 528,
      "▁relig": 529,
      "▁connecting": 530,
      "▁block": 531,
      "▁five": 532,
      "▁spos": 533,
      "##boy": 534,
      "▁ap": 535,
      "##-23": 536,
      "▁load": 537,
      "##org": 538,
      "▁decades": 539,
      "##uh": 540,
      "▁famous": 541,
      "##ioned": 542,
      "##rist": 543,
      "▁mum": 544,
      "▁teeth": 545,
      "▁3.8": 546,
      "▁bulldozer": 547,
      "▁administr": 548,
      "▁brit": 549,
      "▁tokyo": 550,
      "##ucing": 551,
      "##tain": 552,
      "##/31": 553,
      "▁yesterday": 554,
      "▁setting": 555,
      "▁49": 556,
      "▁natural": 557,
      "▁exercise": 558,
      "##ception": 559,
      "##ament": 560,
      "##alth": 561,
      "##not": 562,
      "▁replaced": 563,
      "##ust": 564,
      "▁consult": 565,
      "##ugg": 566,
      "▁fac": 567,
      "##zing": 568,
      "##31": 569,
      "##63": 570,
      "##-468-3": 571,
      "##aw": 572,
      "##ason": 573,
      "▁entirely": 574,
      "▁basic": 575,
      "▁confir": 576,
      "##enc": 577,
      "##339": 578,
      "▁expression": 579,
      "▁falls": 580,
      "▁hung": 581,
      "▁mr.": 582,
      "##90": 583,
      "▁american": 584,
      "▁salt": 585,
      "▁seeing": 586,
      "▁700": 587,
      "▁http://www": 588,
      "▁c.": 589,
      "##stairs": 590,
      "##t": 591,
      "▁cere": 592,
      "▁babies": 593,
      "▁uma": 594,
      "▁wed": 595,
      "▁pros": 596,
      "##ct": 597,
      "▁orient": 598,
      "##.doc": 599,
      "##iter": 600,
      "§": 601,
      "##gue": 602,
      "▁1562": 603,
      "▁nashville": 604,
      "▁tip": 605,
      "▁more": 606,
      "##13": 607,
      "##wards": 608,
      "▁2.7": 609,
      "##ortun": 610,
      "##.676": 611,
      "▁just": 612,
      "##.782": 613,
      "▁spray": 614,
      "##ging": 615,
      "##uct": 616,
      "▁gon": 617,
      "##elle": 618,
      "▁05/01/2001": 619,
      "##xce": 620,
      "##ock": 621,
      "▁background": 622,
      "##opment": 623,
      "▁207": 624,
      "▁garden": 625,
      "▁1776": 626,
      "f": 627,
      "▁================================================": 628,
      "▁poet": 629,
      "▁10:34": 630,
      "▁safet": 631,
      "##ients": 632,
      "▁worst": 633,
      "▁sad": 634,
      "▁executive": 635,
      "▁fire": 636,
      "##ru": 637,
      "##eline": 638,
      "▁fri": 639,
      "▁mi": 640,
      "▁because": 641,
      "▁missed": 642,
      "##alle": 643,
      "▁1954": 644,
      "##****": 645,
      "▁proposed": 646,
      "▁increased": 647,
      "##-------": 648,
      "▁people": 649,
      "##where": 650,
      "##ather": 651,
      "▁err": 652,
      "▁2018": 653,
      "▁technologies": 654,
      "|": 655,
      "##=": 656,
      "▁seem": 657,
      "##ived": 658,
      "▁iodine": 659,
      "▁incorpor": 660,
      "▁judge": 661,
      "##ination": 662,
      "▁available": 663,
      "▁construction": 664,
      "▁license": 665,
      "##os": 666,
      "▁alligator": 667,
      "▁region": 668,
      "▁considered": 669,
      "▁alive": 670,
      "▁authorities": 671,
      "▁cooper": 672,
      "▁finally": 673,
      "▁individuals": 674,
      "##ati": 675,
      "▁letters": 676,
      "▁stip": 677,
      "▁cc": 678,
      "▁realize": 679,
      "i": 680,
      "▁math": 681,
      "▁resour": 682,
      "##ategy": 683,
      "##time": 684,
      "##hi": 685,
      "▁notice": 686,
      "▁france": 687,
      "▁spanish": 688,
      "▁apparently": 689,
      "▁baby": 690,
      "▁a.": 691,
      "##ulations": 692,
      "▁ours": 693,
      "▁redlined": 694,
      "▁traff": 695,
      "▁itself": 696,
      "▁symbol": 697,
      "##.85": 698,
      "▁enjamb": 699,
      "▁isl": 700,
      "##ations": 701,
      "▁ect": 702,
      "##itting": 703,
      "▁10/23/2000": 704,
      "▁---------------------------------------------------------------------": 705,
      "▁cup": 706,
      "##ief": 707,
      "▁tom": 708,
      "▁drinking": 709,
      "##ls": 710,
      "▁tor": 711,
      "▁1000": 712,
      "▁heart": 713,
      "▁36": 714,
      "▁yourselves": 715,
      "▁750": 716,
      "##gill": 717,
      "##ans": 718,
      "▁mob": 719,
      "##ets": 720,
      "▁****": 721,
      "##way": 722,
      "▁1583": 723,
      "##iques": 724,
      "▁islam": 725,
      "##~*": 726,
      "##ertain": 727,
      "▁dough": 728,
      "##ley": 729,
      "##encies": 730,
      "##8/2001": 731,
      "##ess": 732,
      "▁moder": 733,
      "##uff": 734,
      "▁users": 735,
      "▁give": 736,
      "▁fol": 737,
      "▁beneath": 738,
      "##url": 739,
      ";": 740,
      "▁swim": 741,
      "▁flex": 742,
      "##pan": 743,
      "▁movement": 744,
      "▁lik": 745,
      "##........": 746,
      "▁dese": 747,
      "##igh": 748,
      "##==": 749,
      "##ill": 750,
      "▁with": 751,
      "##ikh": 752,
      "▁ter": 753,
      "▁children": 754,
      "▁ph": 755,
      "##ω": 756,
      "▁export": 757,
      "▁israeli": 758,
      "▁husband": 759,
      "β": 760,
      "##rew": 761,
      "▁firm": 762,
      "##usion": 763,
      "▁pan": 764,
      "▁gas": 765,
      "▁success": 766,
      "##pet": 767,
      "##itten": 768,
      "##ice": 769,
      "▁hidden": 770,
      "▁713-853-1696": 771,
      "##ateg": 772,
      "▁ka": 773,
      "▁highest": 774,
      "▁woud": 775,
      "e": 776,
      "▁try": 777,
      "▁however": 778,
      "▁running": 779,
      "▁gray": 780,
      "▁'d": 781,
      "▁singing": 782,
      "##ograph": 783,
      "##read": 784,
      "▁telling": 785,
      "##eet": 786,
      "▁gym": 787,
      "▁cause": 788,
      "##ition": 789,
      "▁regions": 790,
      "##ained": 791,
      "▁talked": 792,
      "▁rough": 793,
      "▁options": 794,
      "▁oh": 795,
      "▁recover": 796,
      "##iny": 797,
      "▁soldiers": 798,
      "▁design": 799,
      "▁father": 800,
      "##sl": 801,
      "▁tri": 802,
      "▁unf": 803,
      "▁charlie": 804,
      "▁riding": 805,
      "##119": 806,
      "▁ought": 807,
      "▁156": 808,
      "▁268": 809,
      "▁pockets": 810,
      "▁henry": 811,
      "▁extremely": 812,
      "▁baseball": 813,
      "▁expensive": 814,
      "##8": 815,
      "▁occur": 816,
      "▁taken": 817,
      "▁inc": 818,
      "▁carolina": 819,
      "▁xsl": 820,
      "##3098": 821,
      "##ˈ": 822,
      "▁limited": 823,
      "▁solution": 824,
      "▁alcal": 825,
      "##let": 826,
      "##2,000": 827,
      "▁kam": 828,
      "▁intended": 829,
      "▁her": 830,
      "▁regulation": 831,
      "▁figure": 832,
      "▁interact": 833,
      "▁die": 834,
      "##men": 835,
      "▁carry": 836,
      "▁religious": 837,
      "##389": 838,
      "▁temper": 839,
      "##yn": 840,
      "▁french": 841,
      "▁3/8/00": 842,
      "▁07:24": 843,
      "▁free": 844,
      "▁yours": 845,
      "▁amendments": 846,
      "琴": 847,
      "▁detroit": 848,
      "▁brows": 849,
      "##:02": 850,
      "##92": 851,
      "▁visa": 852,
      "##8196021": 853,
      "▁continental": 854,
      "##ble": 855,
      "▁ber": 856,
      "▁ex": 857,
      "▁details": 858,
      "▁calling": 859,
      "##/26": 860,
      "▁length": 861,
      "▁germany": 862,
      "##ising": 863,
      "##so": 864,
      "##oke": 865,
      "##lae": 866,
      "▁louis": 867,
      "##ructure": 868,
      "▁blind": 869,
      "##yal": 870,
      "##orial": 871,
      "▁emph": 872,
      "▁remain": 873,
      "▁wit": 874,
      "▁according": 875,
      "▁sant": 876,
      "▁nar": 877,
      "##bo": 878,
      "##ario": 879,
      "▁1918": 880,
      "▁09:14": 881,
      "##orus": 882,
      "▁signs": 883,
      "▁fed": 884,
      "ن": 885,
      "▁throu": 886,
      "▁beaut": 887,
      "▁prefer": 888,
      "##ence": 889,
      "##8/2000": 890,
      "▁281-": 891,
      "##anch": 892,
      "##.45": 893,
      "▁shut": 894,
      "▁345-9945": 895,
      "▁center": 896,
      "▁foc": 897,
      "▁cra": 898,
      "##.9": 899,
      "▁mummy": 900,
      "##¢": 901,
      "##6": 902,
      "▁ship": 903,
      "▁scre": 904,
      "▁maybe": 905,
      "▁ont": 906,
      "▁coach": 907,
      "##!!!": 908,
      "▁closer": 909,
      "▁by": 910,
      "▁told": 911,
      "▁located": 912,
      "▁202.45": 913,
      "##oth": 914,
      "##etary": 915,
      "▁coat": 916,
      "▁dev": 917,
      "##aps": 918,
      "▁effects": 919,
      "▁18,000": 920,
      "▁defin": 921,
      "##gre": 922,
      "▁storm": 923,
      "▁lighting": 924,
      "▁mrs": 925,
      "##hol": 926,
      "▁angel": 927,
      "▁net": 928,
      "▁det": 929,
      "##•": 930,
      "▁al": 931,
      "##ingu": 932,
      "▁713-646-3393": 933,
      "▁1848": 934,
      "▁bud": 935,
      "▁ballet": 936,
      "▁191": 937,
      "##cab": 938,
      "##2/2000": 939,
      "▁drinks": 940,
      "▁flo": 941,
      "▁releases": 942,
      "▁profess": 943,
      "##itude": 944,
      "▁cleaning": 945,
      "▁differences": 946,
      "▁08/03/2000": 947,
      "##b)": 948,
      "##,5": 949,
      "▁pump": 950,
      "▁pers": 951,
      "▁.x": 952,
      "##acle": 953,
      "▁psychology": 954,
      "▁wave": 955,
      "##bur": 956,
      "▁sports": 957,
      "▁chinese": 958,
      "▁tie": 959,
      "##----------": 960,
      "▁year": 961,
      "▁quickly": 962,
      "▁minn": 963,
      "▁ride": 964,
      "▁widely": 965,
      "##--------": 966,
      "▁conclusion": 967,
      "▁o'clock": 968,
      "▁libr": 969,
      "##1-90": 970,
      "▁intellect": 971,
      "▁''": 972,
      "▁contrib": 973,
      "▁complic": 974,
      "▁flav": 975,
      "▁41": 976,
      "▁2100": 977,
      "▁completed": 978,
      "▁efficiency": 979,
      "▁obv": 980,
      "##iew": 981,
      "▁amounts": 982,
      "▁david": 983,
      "▁mult": 984,
      "##ς": 985,
      "##&": 986,
      "▁’": 987,
      "▁and": 988,
      "▁cookies": 989,
      "▁vernon": 990,
      "▁1602": 991,
      "##uela": 992,
      "▁polit": 993,
      "▁does": 994,
      "▁88": 995,
      "##ook": 996,
      "▁war": 997,
      "▁pictures": 998,
      "▁avo": 999,
      "▁paul": 1000,
      "##ities": 1001,
      "##atio": 1002,
      "▁mathematics": 1003,
      "▁1868": 1004,
      "▁governor": 1005,
      "▁nmem": 1006,
      "##aked": 1007,
      "▁rac": 1008,
      "▁environmental": 1009,
      "##ature": 1010,
      "▁1575": 1011,
      "▁aer": 1012,
      "▁example": 1013,
      "▁vlog": 1014,
      "▁higher": 1015,
      "ʊ": 1016,
      "▁snitch": 1017,
      "▁moral": 1018,
      "▁bathroom": 1019,
      "▁houston": 1020,
      "▁creating": 1021,
      "▁settle": 1022,
      "▁kiss": 1023,
      "▁westchester": 1024,
      "##%": 1025,
      "##26": 1026,
      "▁provide": 1027,
      "▁flight": 1028,
      "▁phone": 1029,
      "##old": 1030,
      "▁suffer": 1031,
      "▁always": 1032,
      "▁01:58": 1033,
      "▁these": 1034,
      "##.7822": 1035,
      "▁scary": 1036,
      "▁arrives": 1037,
      "##ifies": 1038,
      "▁str": 1039,
      "▁world": 1040,
      "##59": 1041,
      "▁theirs": 1042,
      "##:1": 1043,
      "▁text": 1044,
      "▁turned": 1045,
      "▁ups": 1046,
      "##ammed": 1047,
      "##tered": 1048,
      "##lik": 1049,
      "##ides": 1050,
      "▁session": 1051,
      "▁1999": 1052,
      "##-3393": 1053,
      "▁between": 1054,
      "▁6": 1055,
      "▁dropped": 1056,
      "▁best": 1057,
      "▁administration": 1058,
      "##@enron.com": 1059,
      "▁xslt": 1060,
      "##ength": 1061,
      "##.": 1062,
      "▁37": 1063,
      "▁hes": 1064,
      "▁713-853-3989": 1065,
      "▁200,000": 1066,
      "##k": 1067,
      "▁ent": 1068,
      "▁actions": 1069,
      "▁dr.": 1070,
      "▁publicly": 1071,
      "▁new": 1072,
      "##ord": 1073,
      "▁rise": 1074,
      "▁books": 1075,
      "▁determin": 1076,
      "▁mand": 1077,
      "▁imple": 1078,
      "▁_______": 1079,
      "▁apparent": 1080,
      "##ney": 1081,
      "▁813": 1082,
      "##pite": 1083,
      "▁who's": 1084,
      "##ines": 1085,
      "##:13": 1086,
      "▁administ": 1087,
      "▁colon": 1088,
      "▁recon": 1089,
      "▁site": 1090,
      "▁interest": 1091,
      "▁advance": 1092,
      "▁model": 1093,
      "##ens": 1094,
      "▁absor": 1095,
      "##uries": 1096,
      "▁san": 1097,
      "▁619": 1098,
      "##ites": 1099,
      "▁5:00": 1100,
      "##oid": 1101,
      "▁1955": 1102,
      "▁act": 1103,
      "##eap": 1104,
      "▁mathem": 1105,
      "▁150,000": 1106,
      "▁smok": 1107,
      "▁slide": 1108,
      "##ould": 1109,
      "##________________": 1110,
      "▁650": 1111,
      "##amm": 1112,
      "##fe": 1113,
      "##ked": 1114,
      "▁???": 1115,
      "##ead": 1116,
      "▁spent": 1117,
      "▁makes": 1118,
      "▁bask": 1119,
      "##ds": 1120,
      "##fet": 1121,
      "▁accommod": 1122,
      "▁hate": 1123,
      "##we": 1124,
      "▁pot": 1125,
      "▁commit": 1126,
      "▁belly": 1127,
      "##41": 1128,
      "▁neither": 1129,
      "▁10": 1130,
      "##ext": 1131,
      "▁ai": 1132,
      "##oh": 1133,
      "▁necessarily": 1134,
      "##ashed": 1135,
      "▁purch": 1136,
      "▁1896": 1137,
      "▁888": 1138,
      "##ision": 1139,
      "##?": 1140,
      "▁entered": 1141,
      "▁third": 1142,
      "▁will": 1143,
      "▁rare": 1144,
      "▁behin": 1145,
      "##iw": 1146,
      "##igu": 1147,
      "▁#": 1148,
      "▁hi": 1149,
      "▁fbi": 1150,
      "▁did": 1151,
      "▁cal": 1152,
      "▁problems": 1153,
      "▁charged": 1154,
      "##enue": 1155,
      "##/26/2000": 1156,
      "▁thous": 1157,
      "▁waited": 1158,
      "▁robin": 1159,
      "▁characters": 1160,
      "▁trained": 1161,
      "##ning": 1162,
      "▁character": 1163,
      "##}": 1164,
      "▁plenty": 1165,
      "▁pet": 1166,
      "##ato": 1167,
      "▁advantage": 1168,
      "▁dist": 1169,
      "▁behind": 1170,
      "##pp": 1171,
      "▁noon": 1172,
      "▁opinion": 1173,
      "▁dam": 1174,
      "▁ocean": 1175,
      "▁components": 1176,
      "##rible": 1177,
      "▁mission": 1178,
      "▁strong": 1179,
      "▁information": 1180,
      "##ost": 1181,
      "▁eight": 1182,
      "▁faces": 1183,
      "▁healthy": 1184,
      "▁swed": 1185,
      "▁1564": 1186,
      "▁substant": 1187,
      "▁kitchen": 1188,
      "▁discussed": 1189,
      "▁]": 1190,
      "##olis": 1191,
      "▁pred": 1192,
      "•": 1193,
      "▁1819": 1194,
      "▁main": 1195,
      "▁drew": 1196,
      "▁stra": 1197,
      "##ibly": 1198,
      "▁vote": 1199,
      "▁$": 1200,
      "▁team": 1201,
      "▁unemploy": 1202,
      "##uc": 1203,
      "##ex": 1204,
      "▁significant": 1205,
      "##k.": 1206,
      "▁microphone": 1207,
      "##acion": 1208,
      "▁taking": 1209,
      "▁visited": 1210,
      "##vers": 1211,
      "##fer": 1212,
      "▁cheapest": 1213,
      "▁least": 1214,
      "##n": 1215,
      "##adelp": 1216,
      "▁americans": 1217,
      "▁3/9": 1218,
      "##津": 1219,
      "▁list": 1220,
      "▁believed": 1221,
      "古": 1222,
      "▁brain": 1223,
      "##-f": 1224,
      "▁attach": 1225,
      "▁colle": 1226,
      "▁decided": 1227,
      "▁packed": 1228,
      "▁christmas": 1229,
      "##uss": 1230,
      "▁categ": 1231,
      "▁trading": 1232,
      "▁mil": 1233,
      "▁1787": 1234,
      "▁08/0": 1235,
      "##28": 1236,
      "▁lank": 1237,
      "▁2030": 1238,
      "▁deter": 1239,
      "##7/99": 1240,
      "▁still": 1241,
      "##:48": 1242,
      "▁african": 1243,
      "▁district": 1244,
      "▁airline": 1245,
      "▁scr": 1246,
      "▁zeal": 1247,
      "▁rs": 1248,
      "▁tem": 1249,
      "▁1995": 1250,
      "▁root": 1251,
      "▁observed": 1252,
      "##jects": 1253,
      "▁minimum": 1254,
      "##ient": 1255,
      "▁forget": 1256,
      "▁present": 1257,
      "▁shops": 1258,
      "##183": 1259,
      "▁ciao": 1260,
      "##iron": 1261,
      "##ervation": 1262,
      "▁suggest": 1263,
      "▁grad": 1264,
      "##gy": 1265,
      "▁shoot": 1266,
      "##ilar": 1267,
      "▁chemical": 1268,
      "##16": 1269,
      "##,000,000,000": 1270,
      "##ο": 1271,
      "▁dele": 1272,
      "▁o'": 1273,
      "▁thousand": 1274,
      "▁58": 1275,
      "▁2.975": 1276,
      "▁great": 1277,
      "▁instructions": 1278,
      "▁abe": 1279,
      "▁meh-risk": 1280,
      "▁exchange": 1281,
      "▁format": 1282,
      "▁ment": 1283,
      "▁th": 1284,
      "▁airl": 1285,
      "##sd": 1286,
      "##erry": 1287,
      "##rical": 1288,
      "##viatio": 1289,
      "##ont": 1290,
      "▁hotel": 1291,
      "▁stock": 1292,
      "##un": 1293,
      "▁empt": 1294,
      "▁girls": 1295,
      "▁enforcement": 1296,
      "##asy": 1297,
      "##rep": 1298,
      "▁tow": 1299,
      "##arant": 1300,
      "▁moon": 1301,
      "##ior": 1302,
      "▁57": 1303,
      "▁flies": 1304,
      "▁raise": 1305,
      "##uk": 1306,
      "▁sunn": 1307,
      "▁pure": 1308,
      "▁upstairs": 1309,
      "▁ukrain": 1310,
      "##iner": 1311,
      "▁&amp;": 1312,
      "▁mary": 1313,
      "##___________": 1314,
      "▁parliament": 1315,
      "▁cross": 1316,
      "▁xml": 1317,
      "##low": 1318,
      "▁became": 1319,
      "υ": 1320,
      "▁western": 1321,
      "▁results": 1322,
      "▁luck": 1323,
      "▁77": 1324,
      "[": 1325,
      "##-3": 1326,
      "▁(c)": 1327,
      "▁things": 1328,
      "##--": 1329,
      "▁buck": 1330,
      "▁11/7": 1331,
      "▁rese": 1332,
      "▁oce": 1333,
      "▁reviews": 1334,
      "▁swimming": 1335,
      "▁current": 1336,
      "▁05:37": 1337,
      "g": 1338,
      "▁eu": 1339,
      "▁3.2": 1340,
      "▁weasley": 1341,
      "##ate": 1342,
      "##icago": 1343,
      "▁delivered": 1344,
      "##rition": 1345,
      "##ias": 1346,
      "##,950": 1347,
      "▁jwww": 1348,
      "▁y": 1349,
      "▁dep": 1350,
      "▁s": 1351,
      "##ala": 1352,
      "▁6/1": 1353,
      "##s": 1354,
      "▁working": 1355,
      "▁62": 1356,
      "▁exist": 1357,
      "▁anth": 1358,
      "##acters": 1359,
      "##ider": 1360,
      "▁cru": 1361,
      "##109": 1362,
      "▁degree": 1363,
      "▁played": 1364,
      "##ane": 1365,
      "▁2.5": 1366,
      "##aleck": 1367,
      "▁approval": 1368,
      "▁option": 1369,
      "▁cruc": 1370,
      "▁equip": 1371,
      "▁spr": 1372,
      "▁10:00": 1373,
      "▁normally": 1374,
      "##kin": 1375,
      "##tern": 1376,
      "▁weeks": 1377,
      "▁case": 1378,
      "▁belie": 1379,
      "▁coinc": 1380,
      "##dom": 1381,
      "▁happened": 1382,
      "▁72,000": 1383,
      "▁ld2": 1384,
      "▁valle": 1385,
      "##ile": 1386,
      "▁mexic": 1387,
      "▁compared": 1388,
      "##ad": 1389,
      "##67": 1390,
      "▁3.7": 1391,
      "▁plate": 1392,
      "▁gender": 1393,
      "##,008": 1394,
      "##09": 1395,
      "▁arrow": 1396,
      "▁par": 1397,
      "▁member": 1398,
      "▁elev": 1399,
      "▁6871082#": 1400,
      "##eeze": 1401,
      "##:30": 1402,
      "▁syn": 1403,
      "##ata": 1404,
      "▁replication": 1405,
      "##:01": 1406,
      "▁852": 1407,
      "▁888.916.718": 1408,
      "▁latest": 1409,
      "▁stick": 1410,
      "▁concent": 1411,
      "▁sh": 1412,
      "▁academic": 1413,
      "▁programm": 1414,
      "##3/2000": 1415,
      "##athy": 1416,
      "##ipp": 1417,
      "▁analy": 1418,
      "▁1609": 1419,
      "▁.....": 1420,
      "##ott": 1421,
      "▁pittsburgh": 1422,
      "▁exp": 1423,
      "€": 1424,
      "▁whom": 1425,
      "▁dishes": 1426,
      "▁madam": 1427,
      "##111": 1428,
      "▁town": 1429,
      "▁detailed": 1430,
      "▁israel": 1431,
      "##eing": 1432,
      "▁exce": 1433,
      "##hing": 1434,
      "▁peau": 1435,
      "▁64": 1436,
      "▁260": 1437,
      "▁confer": 1438,
      "▁5.3": 1439,
      "▁typ": 1440,
      "▁gl": 1441,
      "▁progress": 1442,
      "▁clin": 1443,
      "▁24.7": 1444,
      "▁usual": 1445,
      "▁1593": 1446,
      "##ward": 1447,
      "##claim": 1448,
      "▁water": 1449,
      "▁explain": 1450,
      "▁decade": 1451,
      "##.8": 1452,
      "▁washing": 1453,
      "▁g": 1454,
      "▁opt": 1455,
      "▁po": 1456,
      "▁wow": 1457,
      "▁history": 1458,
      "▁cell": 1459,
      "▁11": 1460,
      "▁whereas": 1461,
      "▁lovely": 1462,
      "▁amend": 1463,
      "##p": 1464,
      "ˈ": 1465,
      "▁chall": 1466,
      "##-": 1467,
      "##ences": 1468,
      "▁currency": 1469,
      "▁domin": 1470,
      "▁48": 1471,
      "▁consider": 1472,
      "▁northern": 1473,
      "##>": 1474,
      "##res": 1475,
      "▁join": 1476,
      "##leep": 1477,
      "##pre": 1478,
      "▁attrib": 1479,
      "▁spain": 1480,
      "▁2014": 1481,
      "##301": 1482,
      "况": 1483,
      "##uj": 1484,
      "▁tomato": 1485,
      "▁var": 1486,
      "▁explained": 1487,
      "▁liter": 1488,
      "##³": 1489,
      "▁charl": 1490,
      "▁looked": 1491,
      "▁łodz": 1492,
      "▁av": 1493,
      "▁energ": 1494,
      "▁create": 1495,
      "▁une": 1496,
      "##icious": 1497,
      "▁watch": 1498,
      "▁page": 1499,
      "▁quality": 1500,
      "▁disease": 1501,
      "▁maintain": 1502,
      "▁force": 1503,
      "▁cap": 1504,
      "▁620-294-": 1505,
      "▁163": 1506,
      "▁508": 1507,
      "▁ontario": 1508,
      "▁dut": 1509,
      "▁&amp": 1510,
      "▁345-343": 1511,
      "▁penn": 1512,
      "▁truck": 1513,
      "▁§": 1514,
      "▁sand": 1515,
      "▁originally": 1516,
      "▁thurs": 1517,
      "##ros": 1518,
      "▁aunt": 1519,
      "##enty": 1520,
      "##38": 1521,
      "▁ju": 1522,
      "##onn": 1523,
      "▁saved": 1524,
      "##up": 1525,
      "▁abb": 1526,
      "▁behavior": 1527,
      "▁throw": 1528,
      "▁sor": 1529,
      "▁proper": 1530,
      "##24": 1531,
      "▁inter": 1532,
      "▁transp": 1533,
      "▁81": 1534,
      "▁chem": 1535,
      "▁away": 1536,
      "##23": 1537,
      "▁boy": 1538,
      "▁little": 1539,
      "##ban": 1540,
      "▁ra": 1541,
      "▁associate": 1542,
      "▁11/28/2000": 1543,
      "p": 1544,
      "▁kind": 1545,
      "##ued": 1546,
      "▁orlando": 1547,
      "##log": 1548,
      "▁accurate": 1549,
      "▁court": 1550,
      "▁refuge": 1551,
      "▁beatles": 1552,
      "▁483": 1553,
      "▁went": 1554,
      "##lud": 1555,
      "▁supposed": 1556,
      "▁calc": 1557,
      "▁massive": 1558,
      "##ud": 1559,
      "▁writers": 1560,
      "##icy": 1561,
      "▁5/1": 1562,
      "▁train": 1563,
      "▁businesses": 1564,
      "▁hu": 1565,
      "▁chang": 1566,
      "▁1.": 1567,
      "▁individual": 1568,
      "##utes": 1569,
      "▁speed": 1570,
      "▁1800": 1571,
      "▁risk": 1572,
      "##urn": 1573,
      "▁finance": 1574,
      "▁counterpart": 1575,
      "##oney": 1576,
      "##iction": 1577,
      "▁fellow": 1578,
      "##95": 1579,
      "▁fairly": 1580,
      "▁anne": 1581,
      "##:57": 1582,
      "▁1992": 1583,
      "##460-3": 1584,
      "▁1780": 1585,
      "##ante": 1586,
      "▁tort": 1587,
      "▁challeng": 1588,
      "▁phil": 1589,
      "▁felt": 1590,
      "▁ł": 1591,
      "▁alex": 1592,
      "▁meat": 1593,
      "▁enjambment": 1594,
      "▁sound": 1595,
      "▁watching": 1596,
      "▁nose": 1597,
      "▁wikinews": 1598,
      "##usions": 1599,
      "▁twel": 1600,
      "##oc": 1601,
      "▁181": 1602,
      "▁experts": 1603,
      "▁billion": 1604,
      "▁stood": 1605,
      "▁humans": 1606,
      "▁during": 1607,
      "##€": 1608,
      "▁wiz": 1609,
      "▁newark": 1610,
      "▁vince": 1611,
      "##44": 1612,
      "▁exerc": 1613,
      "▁1585": 1614,
      "▁rab": 1615,
      "▁amaz": 1616,
      "##que": 1617,
      "▁orland": 1618,
      "##action": 1619,
      "▁yo": 1620,
      "▁ant": 1621,
      "▁loc": 1622,
      "▁saddam": 1623,
      "##ologist": 1624,
      "##akes": 1625,
      "##illing": 1626,
      "▁1989": 1627,
      "##tle": 1628,
      "_": 1629,
      "##ues": 1630,
      "▁emergency": 1631,
      "▁chagrin": 1632,
      "▁100,000": 1633,
      "##0.doc": 1634,
      "▁den": 1635,
      "▁********": 1636,
      "▁secure": 1637,
      "##h": 1638,
      "▁speak": 1639,
      "▁1833": 1640,
      "##:11": 1641,
      "▁1647": 1642,
      "▁agricult": 1643,
      "##.11": 1644,
      "▁achie": 1645,
      "▁engine": 1646,
      "▁finished": 1647,
      "▁mwet": 1648,
      "▁pict": 1649,
      "▁knows": 1650,
      "▁kat": 1651,
      "###6": 1652,
      "▁91": 1653,
      "▁attack": 1654,
      "▁private": 1655,
      "##ude": 1656,
      "##oma": 1657,
      "##414": 1658,
      "##pping": 1659,
      "▁toronto": 1660,
      "▁~": 1661,
      "▁palest": 1662,
      "▁eff": 1663,
      "▁move": 1664,
      "##:3": 1665,
      "▁washington": 1666,
      "▁tight": 1667,
      "▁at": 1668,
      "##ville": 1669,
      "▁jobs": 1670,
      "▁passion": 1671,
      "▁init": 1672,
      "▁emphas": 1673,
      "##ym": 1674,
      "ß": 1675,
      "▁happ": 1676,
      "##uced": 1677,
      "▁meeting": 1678,
      "▁polar": 1679,
      "▁din": 1680,
      "▁1943": 1681,
      "##01": 1682,
      "▁350": 1683,
      "{": 1684,
      "▁robert": 1685,
      "▁incor": 1686,
      "▁network": 1687,
      "▁funny": 1688,
      "▁perdues": 1689,
      "▁cor": 1690,
      "▁pac": 1691,
      "▁wearing": 1692,
      "▁!!!!!!!!!!!": 1693,
      "##.713.8": 1694,
      "▁country": 1695,
      "▁room": 1696,
      "▁:p": 1697,
      "▁nothing": 1698,
      "▁puzz": 1699,
      "▁dwww": 1700,
      "▁appro": 1701,
      "▁punch": 1702,
      "##resh": 1703,
      "▁union": 1704,
      "?": 1705,
      "▁medical": 1706,
      "##yl": 1707,
      "▁stream": 1708,
      "##beit": 1709,
      "▁lest": 1710,
      "▁10:56": 1711,
      "▁er": 1712,
      "##angu": 1713,
      "▁theod": 1714,
      "▁ahead": 1715,
      "▁reply": 1716,
      "▁effect": 1717,
      "▁arch": 1718,
      "$": 1719,
      "##utions": 1720,
      "º": 1721,
      "✉": 1722,
      "##ey": 1723,
      "▁neighborhood": 1724,
      "##65-3": 1725,
      "▁ne": 1726,
      "##aries": 1727,
      "▁jer": 1728,
      "##for": 1729,
      "▁gentle": 1730,
      "##gan": 1731,
      "##ɛ": 1732,
      "▁im": 1733,
      "▁cos": 1734,
      "##ها": 1735,
      "▁you": 1736,
      "▁serious": 1737,
      "▁11:32": 1738,
      "##5": 1739,
      "▁purpose": 1740,
      "▁help": 1741,
      "▁granted": 1742,
      "##ror": 1743,
      "▁someone": 1744,
      "▁trail": 1745,
      "▁stars": 1746,
      "▁alongside": 1747,
      "##sid": 1748,
      "▁ess": 1749,
      "##ular": 1750,
      "▁draw": 1751,
      "▁build": 1752,
      "##ically": 1753,
      "▁dat": 1754,
      "▁variety": 1755,
      "▁ext": 1756,
      "▁mon": 1757,
      "▁apple": 1758,
      "##uments": 1759,
      "##:20": 1760,
      "▁dw": 1761,
      "▁196": 1762,
      "##mem": 1763,
      "▁713/": 1764,
      "▁1830": 1765,
      "▁frag": 1766,
      "##ta": 1767,
      "▁wand": 1768,
      "##ary": 1769,
      "▁andaman": 1770,
      "▁69": 1771,
      "##79": 1772,
      "▁financ": 1773,
      "▁sri": 1774,
      "▁troops": 1775,
      "##ist": 1776,
      "▁huh": 1777,
      "▁sheet": 1778,
      "▁colleag": 1779,
      "▁grown": 1780,
      "▁boom": 1781,
      "▁wh": 1782,
      "▁burst": 1783,
      "##================================": 1784,
      "##ded": 1785,
      "▁orange": 1786,
      "##!!!!": 1787,
      "▁40,000": 1788,
      "##2-": 1789,
      "▁seeking": 1790,
      "▁accord": 1791,
      "▁counterfe": 1792,
      "##er": 1793,
      "▁ce": 1794,
      "▁alle": 1795,
      "▁anim": 1796,
      "##91": 1797,
      "▁religion": 1798,
      "##road": 1799,
      "##0th": 1800,
      "▁worms": 1801,
      "##night": 1802,
      "▁circumstances": 1803,
      "▁leave": 1804,
      "▁continues": 1805,
      "▁fans": 1806,
      "▁neck": 1807,
      "▁iso": 1808,
      "▁purchase": 1809,
      "▁paper": 1810,
      "▁remains": 1811,
      "▁pean": 1812,
      "奈": 1813,
      "▁wou": 1814,
      "▁1962": 1815,
      "##irt": 1816,
      "▁feature": 1817,
      "▁01/19/2001": 1818,
      "##12": 1819,
      "▁series": 1820,
      "▁projects": 1821,
      "▁establish": 1822,
      "▁settlement": 1823,
      "##oun": 1824,
      "▁department": 1825,
      "▁stayed": 1826,
      "##ights": 1827,
      "▁contain": 1828,
      "▁1699": 1829,
      "▁philadelphia": 1830,
      "##/01/2001": 1831,
      "▁revenue": 1832,
      "▁weight": 1833,
      "##uing": 1834,
      "▁11608": 1835,
      "▁family": 1836,
      "=": 1837,
      "▁fr": 1838,
      "▁attached": 1839,
      "▁1821": 1840,
      "##using": 1841,
      "▁fil": 1842,
      "▁treat": 1843,
      "▁fuel": 1844,
      "▁reach": 1845,
      "▁mad": 1846,
      "▁mod": 1847,
      "##@enron": 1848,
      "##by": 1849,
      "##.00": 1850,
      "▁forty": 1851,
      "▁abo": 1852,
      "##34": 1853,
      "▁window": 1854,
      "▁client": 1855,
      "▁shackleton@ect": 1856,
      "##--------------------------------------------": 1857,
      "##oa": 1858,
      "▁similar": 1859,
      "▁conven": 1860,
      "##ihow": 1861,
      "▁pants": 1862,
      "▁discount": 1863,
      "▁showed": 1864,
      "▁12/26/2000": 1865,
      "##bon": 1866,
      "▁animal": 1867,
      "▁greek": 1868,
      "▁container": 1869,
      "▁wish": 1870,
      "▁pron": 1871,
      "▁institutions": 1872,
      "▁hearing": 1873,
      "##her": 1874,
      "##.c": 1875,
      "▁‘’": 1876,
      "##/10": 1877,
      "##-642": 1878,
      "▁imper": 1879,
      "▁exception": 1880,
      "▁occurred": 1881,
      "▁sk": 1882,
      "▁glow": 1883,
      "▁treated": 1884,
      "▁activ": 1885,
      "▁otherwise": 1886,
      "▁magn": 1887,
      "##cil": 1888,
      "##03": 1889,
      "##ge": 1890,
      "▁equival": 1891,
      "▁excellent": 1892,
      "▁pick": 1893,
      "▁mr": 1894,
      "▁giv": 1895,
      "▁equal": 1896,
      "▁excell": 1897,
      "##is": 1898,
      "▁followed": 1899,
      "▁1608": 1900,
      "##alys": 1901,
      "▁falling": 1902,
      "▁changing": 1903,
      "▁circum": 1904,
      "▁polic": 1905,
      "##ner": 1906,
      "▁1987": 1907,
      "▁hel": 1908,
      "▁quite": 1909,
      "▁breast": 1910,
      "▁sometimes": 1911,
      "##-7": 1912,
      "##am": 1913,
      "##,500": 1914,
      "▁oak": 1915,
      "▁weak": 1916,
      "▁seven": 1917,
      "▁training": 1918,
      "▁sounds": 1919,
      "▁um": 1920,
      "##iwan": 1921,
      "▁1205": 1922,
      "▁underneath": 1923,
      "▁guarant": 1924,
      "##in": 1925,
      "▁1660": 1926,
      "▁he": 1927,
      "▁03:00": 1928,
      "##~*~*": 1929,
      "▁anywhere": 1930,
      "▁bug": 1931,
      "##reg": 1932,
      "▁cycle": 1933,
      "##.st": 1934,
      "##sex": 1935,
      "▁prosper": 1936,
      "##}*{": 1937,
      "##iated": 1938,
      "##vin": 1939,
      "▁nineteen": 1940,
      "▁4_2": 1941,
      "▁pulled": 1942,
      "##non": 1943,
      "▁incom": 1944,
      "##off": 1945,
      "▁mosquito": 1946,
      "▁6.8": 1947,
      "▁65": 1948,
      "##oint": 1949,
      "##/2001": 1950,
      "##ac": 1951,
      "▁nut": 1952,
      "▁1888": 1953,
      "▁minor": 1954,
      "▁gold": 1955,
      "##apers": 1956,
      "▁expertise": 1957,
      "▁assistance": 1958,
      "▁woman": 1959,
      "▁happen": 1960,
      "▁tag": 1961,
      "▁designed": 1962,
      "##ishing": 1963,
      "▁different": 1964,
      "##88": 1965,
      "▁mus": 1966,
      "▁brings": 1967,
      "▁oil": 1968,
      "▁glad": 1969,
      "▁universal": 1970,
      "▁additional": 1971,
      "▁simp": 1972,
      "▁special": 1973,
      "▁critic": 1974,
      "▁following": 1975,
      "▁veh": 1976,
      "▁pin": 1977,
      "▁almost": 1978,
      "##par": 1979,
      "▁hungry": 1980,
      "▁publish": 1981,
      "▁09:01": 1982,
      "▁5,000": 1983,
      "##ends": 1984,
      "▁nations": 1985,
      "▁3,500": 1986,
      "##most": 1987,
      "##leys": 1988,
      "▁01/26/2001": 1989,
      "▁4.6": 1990,
      "▁281-443-3744": 1991,
      "##zen": 1992,
      "▁=": 1993,
      "▁ass": 1994,
      "##ict": 1995,
      "▁vol": 1996,
      "▁en": 1997,
      "▁seventy": 1998,
      "▁sweet": 1999,
      "▁appearance": 2000,
      "▁tro": 2001,
      "▁glor": 2002,
      "##ote": 2003,
      "##樋": 2004,
      "▁b/c": 2005,
      "▁color": 2006,
      "▁mechan": 2007,
      "▁analyst": 2008,
      "▁son": 2009,
      "▁electric": 2010,
      "▁threat": 2011,
      "▁judg": 2012,
      "▁breat": 2013,
      "##82": 2014,
      "▁kinds": 2015,
      "##ged": 2016,
      "▁only": 2017,
      "▁dram": 2018,
      "▁fall": 2019,
      "##4": 2020,
      "##9": 2021,
      "▁for": 2022,
      "▁eastern": 2023,
      "▁))": 2024,
      "##/11/2004": 2025,
      "##15": 2026,
      "▁tried": 2027,
      "▁seconds": 2028,
      "▁exec": 2029,
      "▁able": 2030,
      "##sel": 2031,
      "##hin": 2032,
      "▁boys": 2033,
      "▁absolutely": 2034,
      "##lined": 2035,
      "##>===": 2036,
      "##ule": 2037,
      "▁implement": 2038,
      "##iest": 2039,
      "▁terrible": 2040,
      "▁surround": 2041,
      "##/2000": 2042,
      "▁sister": 2043,
      "##11": 2044,
      "▁conduct": 2045,
      "##aled": 2046,
      "##ects": 2047,
      "▁agriculture": 2048,
      "▁55": 2049,
      "▁33,000": 2050,
      "##enn": 2051,
      "▁!.": 2052,
      "▁fix": 2053,
      "▁3/4": 2054,
      "▁fa": 2055,
      "▁absol": 2056,
      "▁beg": 2057,
      "▁pit": 2058,
      "▁systems": 2059,
      "▁surprised": 2060,
      "▁bottom": 2061,
      "▁animals": 2062,
      "▁may": 2063,
      "▁partic": 2064,
      "▁cool": 2065,
      "▁chickens": 2066,
      "▁[": 2067,
      "ز": 2068,
      "##.2": 2069,
      "▁bump": 2070,
      "澹": 2071,
      "▁bul": 2072,
      "▁occas": 2073,
      "##ched": 2074,
      "▁fully": 2075,
      "▁procedure": 2076,
      "▁vot": 2077,
      "▁fear": 2078,
      "▁13011": 2079,
      "▁promise": 2080,
      "▁ding": 2081,
      "▁1580": 2082,
      "##ss": 2083,
      "▁total": 2084,
      "▁girl": 2085,
      "▁nearly": 2086,
      "▁et": 2087,
      "▁mode": 2088,
      "##.1": 2089,
      "▁newspaper": 2090,
      "▁brought": 2091,
      "##cl": 2092,
      "▁asking": 2093,
      "▁exact": 2094,
      "##rou": 2095,
      "▁'": 2096,
      "##3c": 2097,
      "▁cities": 2098,
      "##ag": 2099,
      "▁funct": 2100,
      "▁zoo": 2101,
      "▁loss": 2102,
      "▁blow": 2103,
      "▁largest": 2104,
      "▁renew": 2105,
      "▁raining": 2106,
      "##als": 2107,
      "##eare": 2108,
      "##going": 2109,
      "##form": 2110,
      "▁366": 2111,
      "▁sophie": 2112,
      "▁squir": 2113,
      "▁mhm": 2114,
      "▁become": 2115,
      "##<----": 2116,
      "▁double": 2117,
      "▁peters": 2118,
      "▁713-654-03": 2119,
      "▁-------------------------------------------------": 2120,
      "▁weekend": 2121,
      "▁899-": 2122,
      "▁uniform": 2123,
      "##nine": 2124,
      "▁tuesday": 2125,
      "▁cr": 2126,
      "▁partners": 2127,
      "▁over": 2128,
      "▁bench": 2129,
      "▁communic": 2130,
      "▁americ": 2131,
      "▁miss": 2132,
      "▁mal": 2133,
      "▁system": 2134,
      "▁indianapolis": 2135,
      "‘": 2136,
      "▁password": 2137,
      "##eak": 2138,
      "▁ball": 2139,
      "▁helping": 2140,
      "##edge": 2141,
      "##se": 2142,
      "##side": 2143,
      "▁460": 2144,
      "▁744": 2145,
      "▁plastic": 2146,
      "▁popular": 2147,
      "▁climb": 2148,
      "▁mud": 2149,
      "▁dolph": 2150,
      "##ou": 2151,
      "▁'s": 2152,
      "▁possible": 2153,
      "##iv": 2154,
      "▁teachers": 2155,
      "##48": 2156,
      "▁noticed": 2157,
      "▁patient": 2158,
      "▁2.15": 2159,
      "▁sport": 2160,
      "##light": 2161,
      "▁properly": 2162,
      "▁restrict": 2163,
      "##amed": 2164,
      "▁uns": 2165,
      "▁falluj": 2166,
      "##lo": 2167,
      "##θ": 2168,
      "▁bond": 2169,
      "▁three": 2170,
      "▁guess": 2171,
      "ɛ": 2172,
      "▁1957": 2173,
      "▁twenty-six": 2174,
      "▁nor": 2175,
      "▁disp": 2176,
      "▁dec": 2177,
      "▁flat": 2178,
      "▁stomach": 2179,
      "▁changed": 2180,
      "##uled": 2181,
      "▁staff": 2182,
      "##:40": 2183,
      "▁06": 2184,
      "▁sitting": 2185,
      "##25": 2186,
      "▁catch": 2187,
      "▁thro": 2188,
      "▁yes": 2189,
      "▁|--------+----------------": 2190,
      "▁selection": 2191,
      "▁ing": 2192,
      "▁238": 2193,
      "▁lab": 2194,
      "##greg": 2195,
      "##0": 2196,
      "▁iraq": 2197,
      "▁press": 2198,
      "▁besid": 2199,
      "▁out": 2200,
      "##ony": 2201,
      "▁types": 2202,
      "▁hundreds": 2203,
      "▁lay": 2204,
      "▁bowl": 2205,
      "▁outs": 2206,
      "▁doors": 2207,
      "▁broad": 2208,
      "▁infrastructure": 2209,
      "##atively": 2210,
      "##iday": 2211,
      "▁gulf": 2212,
      "▁numer": 2213,
      "▁bre": 2214,
      "▁gun": 2215,
      "##bles": 2216,
      "▁october": 2217,
      "▁heavy": 2218,
      "▁island": 2219,
      "▁jap": 2220,
      "▁levels": 2221,
      "##aa": 2222,
      "▁mosqu": 2223,
      "▁tiny": 2224,
      "▁sole": 2225,
      "▁9221": 2226,
      "▁pos": 2227,
      "##_^": 2228,
      "▁historical": 2229,
      "##uted": 2230,
      "##,": 2231,
      "▁want": 2232,
      "▁lower": 2233,
      "▁hang": 2234,
      "▁rome": 2235,
      "▁party": 2236,
      "▁defe": 2237,
      "▁highlight": 2238,
      "##asp": 2239,
      "▁70.85": 2240,
      "▁enough": 2241,
      "▁magaz": 2242,
      "▁sm": 2243,
      "▁s’": 2244,
      "▁published": 2245,
      "▁cub": 2246,
      "▁board": 2247,
      "▁young": 2248,
      "##ef": 2249,
      "▁meh-ris": 2250,
      "▁personal": 2251,
      "##/15": 2252,
      "▁apply": 2253,
      "##ower": 2254,
      "▁your": 2255,
      "▁gre": 2256,
      "##/0": 2257,
      "▁simple": 2258,
      "▁critics": 2259,
      "▁10/26/2000": 2260,
      "▁mentioned": 2261,
      "▁toes": 2262,
      "##iao": 2263,
      "▁pleased": 2264,
      "##inary": 2265,
      "▁st.": 2266,
      "▁ocho": 2267,
      "▁lee": 2268,
      "##ix": 2269,
      "▁territ": 2270,
      "##oam": 2271,
      "▁529999": 2272,
      "##ension": 2273,
      "▁d": 2274,
      "▁a": 2275,
      "▁50,000": 2276,
      "▁suprem": 2277,
      "▁involved": 2278,
      "▁cle": 2279,
      "▁u.s.": 2280,
      "##verage": 2281,
      "▁plants": 2282,
      "##ties": 2283,
      "▁ro": 2284,
      "▁regarding": 2285,
      "▁4.0": 2286,
      "▁ordered": 2287,
      "▁poss": 2288,
      "▁offered": 2289,
      "▁neigh": 2290,
      "##gether": 2291,
      "▁1605": 2292,
      "##zer": 2293,
      "▁formica": 2294,
      "▁324": 2295,
      "▁formal": 2296,
      "##ii": 2297,
      "▁decline": 2298,
      "##*": 2299,
      "▁bill": 2300,
      "▁1964": 2301,
      "##kes": 2302,
      "▁sta": 2303,
      "▁crying": 2304,
      "▁capt": 2305,
      "▁potato": 2306,
      "##ernobyl": 2307,
      "▁can": 2308,
      "▁interv": 2309,
      "▁clock": 2310,
      "▁speaker": 2311,
      "##xic": 2312,
      "##‘": 2313,
      "▁;": 2314,
      "▁dog": 2315,
      "▁law": 2316,
      "▁concer": 2317,
      "▁lists": 2318,
      "▁unif": 2319,
      "▁wa": 2320,
      "##iately": 2321,
      "▁da": 2322,
      "##wik": 2323,
      "▁achieve": 2324,
      "▁log": 2325,
      "##ooth": 2326,
      "▁wonderful": 2327,
      "▁mass": 2328,
      "▁last": 2329,
      "▁1623": 2330,
      "▁hot": 2331,
      "▁/": 2332,
      "▁-ect": 2333,
      "z": 2334,
      "▁memphis": 2335,
      "▁814.863": 2336,
      "▁pleas": 2337,
      "##osoph": 2338,
      "##arm": 2339,
      "##pri": 2340,
      "##ns": 2341,
      "▁follows": 2342,
      "▁comput": 2343,
      "▁713": 2344,
      "▁some": 2345,
      "▁communications": 2346,
      "▁naim": 2347,
      "##:46": 2348,
      "▁ear": 2349,
      "▁stan": 2350,
      "▁get": 2351,
      "▁route": 2352,
      "##esc": 2353,
      "▁table": 2354,
      "▁tenth": 2355,
      "▁2.6": 2356,
      "▁essential": 2357,
      "##ody": 2358,
      "▁familiar": 2359,
      "▁68": 2360,
      "▁burbank": 2361,
      "▁85": 2362,
      "▁slightly": 2363,
      "▁reliable": 2364,
      "##arr": 2365,
      "▁185": 2366,
      "▁pic": 2367,
      "▁cou": 2368,
      "▁run": 2369,
      "▁bar": 2370,
      "##mar": 2371,
      "▁around": 2372,
      "▁brief": 2373,
      "▁classes": 2374,
      "▁particular": 2375,
      "##ant": 2376,
      "▁against": 2377,
      "▁dism": 2378,
      "▁25": 2379,
      "▁de": 2380,
      "▁tar": 2381,
      "##stem": 2382,
      "▁data": 2383,
      "▁regional": 2384,
      "▁sp": 2385,
      "▁tele": 2386,
      "▁upd": 2387,
      "▁bedroom": 2388,
      "##ech": 2389,
      "##siana": 2390,
      "▁everybody": 2391,
      "▁altern": 2392,
      "▁idea": 2393,
      "▁cer": 2394,
      "▁suff": 2395,
      "▁104": 2396,
      "▁bugs": 2397,
      "##ology": 2398,
      "##ale": 2399,
      "##boo": 2400,
      "##gu": 2401,
      "▁experienced": 2402,
      "▁08/17/2000": 2403,
      "▁representative": 2404,
      "▁agre": 2405,
      "##-l": 2406,
      "##-01": 2407,
      "##icles": 2408,
      "▁indeed": 2409,
      "▁sue": 2410,
      "▁countries": 2411,
      "▁marriage": 2412,
      "▁sorry": 2413,
      "▁relations": 2414,
      "▁york": 2415,
      "▁record": 2416,
      "▁'m": 2417,
      "▁1835": 2418,
      "##dr": 2419,
      "▁fit": 2420,
      "▁deg": 2421,
      "[SEP]": 2422,
      "▁jam": 2423,
      "▁---=": 2424,
      "▁strategy": 2425,
      "##em": 2426,
      "▁where": 2427,
      "##bol": 2428,
      "▁sar": 2429,
      "▁deriv": 2430,
      "▁exhibit": 2431,
      "▁transport": 2432,
      "▁tur": 2433,
      "▁nandaro": 2434,
      "▁leadership": 2435,
      "##rib": 2436,
      "▁11:0": 2437,
      "##son": 2438,
      "▁cutting": 2439,
      "▁satan": 2440,
      "▁anymore": 2441,
      "##arter": 2442,
      "▁manner": 2443,
      "##atory": 2444,
      "▁were": 2445,
      "▁prim": 2446,
      "##υ": 2447,
      "##uch": 2448,
      "▁tul": 2449,
      "▁exam": 2450,
      "▁albeit": 2451,
      "##aint": 2452,
      "##ify": 2453,
      "▁02/13/2001": 2454,
      "##ee": 2455,
      "##unic": 2456,
      "##c": 2457,
      "##ren": 2458,
      "##grin": 2459,
      "▁hide": 2460,
      "▁dirt": 2461,
      "▁juice": 2462,
      "▁12:1": 2463,
      "▁provided": 2464,
      "▁1991": 2465,
      "▁advant": 2466,
      "▁stre": 2467,
      "▁everyone": 2468,
      "##ently": 2469,
      "▁il": 2470,
      "##if": 2471,
      "▁streets": 2472,
      "▁auth": 2473,
      "##ercial": 2474,
      "▁aspects": 2475,
      "##anie": 2476,
      "▁las": 2477,
      "##ales": 2478,
      "▁equipment": 2479,
      "▁machine": 2480,
      "▁opened": 2481,
      "▁07/14/2000": 2482,
      "##499": 2483,
      "▁then": 2484,
      "▁nav": 2485,
      "▁langu": 2486,
      "▁congr": 2487,
      "##r": 2488,
      "▁keep": 2489,
      "▁vs.": 2490,
      "▁or": 2491,
      "▁coron": 2492,
      "##resp": 2493,
      "▁sending": 2494,
      "##================": 2495,
      "▁mut": 2496,
      "▁assem": 2497,
      "▁!!!!!!": 2498,
      "▁end": 2499,
      "##4014": 2500,
      "▁deal": 2501,
      "▁experim": 2502,
      "—": 2503,
      "ف": 2504,
      "▁creative": 2505,
      "▁1600": 2506,
      "▁datab": 2507,
      "##ying": 2508,
      "▁tralee": 2509,
      "▁lope": 2510,
      "▁mart": 2511,
      "▁play": 2512,
      "▁friends": 2513,
      "▁prompt": 2514,
      "▁11:36": 2515,
      "▁position": 2516,
      "▁unfortunately": 2517,
      "▁ver": 2518,
      "##si": 2519,
      "▁claims": 2520,
      "▁restaur": 2521,
      "▁causes": 2522,
      "▁und": 2523,
      "▁japan": 2524,
      "##54-": 2525,
      "▁benef": 2526,
      "▁111": 2527,
      "▁voice": 2528,
      "▁solid": 2529,
      "▁smoke": 2530,
      "▁sou": 2531,
      "▁well": 2532,
      "##oo": 2533,
      "▁zawah": 2534,
      "▁measures": 2535,
      "▁1115": 2536,
      "##aq": 2537,
      "▁penal": 2538,
      "▁n'": 2539,
      "##[": 2540,
      "▁se": 2541,
      "▁11-20-": 2542,
      "▁awoh": 2543,
      "##odes": 2544,
      "▁450": 2545,
      "▁38,000": 2546,
      "▁services": 2547,
      "##van": 2548,
      "▁kept": 2549,
      "▁skittles": 2550,
      "▁dipl": 2551,
      "##izing": 2552,
      "▁lem": 2553,
      "▁glob": 2554,
      "▁apartment": 2555,
      "▁pleasant": 2556,
      "▁htt": 2557,
      "▁learn": 2558,
      "▁helps": 2559,
      "##eping": 2560,
      "▁mor": 2561,
      "▁jelly": 2562,
      "▁assume": 2563,
      "▁enj": 2564,
      "##.p": 2565,
      "##entions": 2566,
      "ص": 2567,
      "##2-6": 2568,
      "##abor": 2569,
      "▁grew": 2570,
      "##ool": 2571,
      "▁stay": 2572,
      "##iver": 2573,
      "▁death": 2574,
      "▁arri": 2575,
      "##outh": 2576,
      "▁pay": 2577,
      "▁news": 2578,
      "▁thus": 2579,
      "▁oneself": 2580,
      "▁1598": 2581,
      "▁awful": 2582,
      "▁mitch": 2583,
      "▁143": 2584,
      "▁1986": 2585,
      "▁direction": 2586,
      "▁20": 2587,
      "▁budget": 2588,
      "▁ar": 2589,
      "▁bat": 2590,
      "▁dry": 2591,
      "▁make": 2592,
      "▁wee": 2593,
      "▁freed": 2594,
      "▁plus": 2595,
      "▁all": 2596,
      "##85": 2597,
      "##eter": 2598,
      "▁depending": 2599,
      "##/he": 2600,
      "##ached": 2601,
      "##kana": 2602,
      "▁banana": 2603,
      "▁comp": 2604,
      "▁bri": 2605,
      "▁signific": 2606,
      "▁1971": 2607,
      "▁pow": 2608,
      "##.16": 2609,
      "##al.doc": 2610,
      "##819602175": 2611,
      "##ilities": 2612,
      "▁piec": 2613,
      "▁unknown": 2614,
      "▁115": 2615,
      "▁stores": 2616,
      "▁ena": 2617,
      "▁type": 2618,
      "▁affected": 2619,
      "▁trale": 2620,
      "▁again": 2621,
      "▁whale": 2622,
      "▁646-8420": 2623,
      "▁1039": 2624,
      "▁130": 2625,
      "▁646": 2626,
      "▁03/21/2001": 2627,
      "▁appear": 2628,
      "▁1,000": 2629,
      "▁aboard": 2630,
      "▁sust": 2631,
      "##:56": 2632,
      "▁anything": 2633,
      "▁federal": 2634,
      "▁joe": 2635,
      "▁eval": 2636,
      "##les": 2637,
      "▁1850": 2638,
      "##ance": 2639,
      "##rict": 2640,
      "##uring": 2641,
      "##av": 2642,
      "▁telev": 2643,
      "##-d": 2644,
      "▁rom": 2645,
      "▁718-780": 2646,
      "▁shakes": 2647,
      "▁official": 2648,
      "▁joined": 2649,
      "▁coun": 2650,
      "▁that": 2651,
      "##37": 2652,
      "▁beginning": 2653,
      "▁subject": 2654,
      "▁wolf": 2655,
      "▁director": 2656,
      "▁robot": 2657,
      "▁left": 2658,
      "▁973": 2659,
      "##s/": 2660,
      "▁thank": 2661,
      "##.6": 2662,
      "##/200": 2663,
      "▁tra": 2664,
      "▁settled": 2665,
      "▁spell": 2666,
      "▁199": 2667,
      "▁401": 2668,
      "▁whether": 2669,
      "▁rural": 2670,
      "▁mohammed": 2671,
      "▁1998": 2672,
      "▁management": 2673,
      "▁norm": 2674,
      "▁sel": 2675,
      "##six": 2676,
      "▁glass": 2677,
      "▁12": 2678,
      "##40": 2679,
      "▁describe": 2680,
      "▁centre": 2681,
      "▁desper": 2682,
      "▁chocol": 2683,
      "▁sweetie": 2684,
      "##|": 2685,
      "##cle": 2686,
      "##ame": 2687,
      "##en": 2688,
      "▁cod": 2689,
      "▁sample": 2690,
      "##nov": 2691,
      "▁vegas": 2692,
      "▁push": 2693,
      "▁low": 2694,
      "▁negative": 2695,
      "▁fare": 2696,
      "▁march": 2697,
      "μ": 2698,
      "▁ta": 2699,
      "##ght": 2700,
      "▁employ": 2701,
      "##man": 2702,
      "▁six": 2703,
      "▁investig": 2704,
      "▁along": 2705,
      "▁website": 2706,
      "▁150": 2707,
      "▁shelf": 2708,
      "▁crack": 2709,
      "##use": 2710,
      "##nesday": 2711,
      "##ger": 2712,
      "▁e-m": 2713,
      "##460-33": 2714,
      "▁labor": 2715,
      "▁spect": 2716,
      "▁1959": 2717,
      "▁include": 2718,
      "##9.3": 2719,
      "▁7": 2720,
      "▁military": 2721,
      "▁grass": 2722,
      "##ind": 2723,
      "▁answers": 2724,
      "##________________________________": 2725,
      "▁civ": 2726,
      "##conn": 2727,
      "▁evolution": 2728,
      "▁pretend": 2729,
      "▁dark": 2730,
      "##e@enron": 2731,
      "▁mexican": 2732,
      "1": 2733,
      "▁austral": 2734,
      "▁syri": 2735,
      "▁deb": 2736,
      "▁thomas": 2737,
      "▁connect": 2738,
      "##inging": 2739,
      "##uated": 2740,
      "▁diff": 2741,
      "▁claim": 2742,
      "▁fourth": 2743,
      "▁expect": 2744,
      "▁mont": 2745,
      "▁12.": 2746,
      "##********************************": 2747,
      "▁hus": 2748,
      "▁standards": 2749,
      "▁03:3": 2750,
      "##mon": 2751,
      "▁thirty": 2752,
      "▁09/16": 2753,
      "##ault": 2754,
      "▁features": 2755,
      "▁courses": 2756,
      "▁iraqi": 2757,
      "▁,?": 2758,
      "▁seems": 2759,
      "▁dursleys": 2760,
      "ł": 2761,
      "▁public": 2762,
      "▁update": 2763,
      "##gar": 2764,
      "▁quest": 2765,
      "▁non": 2766,
      "▁vac": 2767,
      "##pe": 2768,
      "▁'71": 2769,
      "▁names": 2770,
      "##ogether": 2771,
      "▁goes": 2772,
      "▁goo": 2773,
      "▁buildings": 2774,
      "▁production": 2775,
      "▁5.8": 2776,
      "▁adam": 2777,
      "▁benefits": 2778,
      "▁constit": 2779,
      "▁marie": 2780,
      "▁muslim": 2781,
      "▁real": 2782,
      "▁weap": 2783,
      "##ize": 2784,
      "▁transmission": 2785,
      "▁camera": 2786,
      "▁iron": 2787,
      "▁04/30/2001": 2788,
      "▁regist": 2789,
      "##ills": 2790,
      "▁4:30": 2791,
      "##10": 2792,
      "▁spring": 2793,
      "▁afghanistan": 2794,
      "##.1234": 2795,
      "##ampa": 2796,
      "##ways": 2797,
      "▁fat": 2798,
      "▁vog": 2799,
      "▁desire": 2800,
      "▁column": 2801,
      "▁includ": 2802,
      "▁ind": 2803,
      "##clud": 2804,
      "▁hire": 2805,
      "##ella": 2806,
      "▁0": 2807,
      "▁loan": 2808,
      "▁compet": 2809,
      "▁1616": 2810,
      "▁os": 2811,
      "##act": 2812,
      "▁freedom": 2813,
      "▁1179": 2814,
      "▁elements": 2815,
      "##§": 2816,
      "▁v.": 2817,
      "##eau": 2818,
      "▁forms": 2819,
      "##bank": 2820,
      "##agon": 2821,
      "▁follow": 2822,
      "▁doggie": 2823,
      "▁looks": 2824,
      "▁but": 2825,
      "▁xiii": 2826,
      "▁whoever": 2827,
      "##葉": 2828,
      "##tto": 2829,
      "▁sect": 2830,
      "▁less": 2831,
      "▁1691": 2832,
      "##-27": 2833,
      "▁interviews": 2834,
      "▁existing": 2835,
      "▁safety": 2836,
      "▁joke": 2837,
      "æ": 2838,
      "##five": 2839,
      "##apt": 2840,
      "▁dest": 2841,
      "▁esp": 2842,
      "口": 2843,
      "▁quant": 2844,
      "##lied": 2845,
      "▁fro": 2846,
      "▁okay": 2847,
      "▁depend": 2848,
      "▁necess": 2849,
      "##igator": 2850,
      "▁dri": 2851,
      "▁clothes": 2852,
      "▁difficult": 2853,
      "▁full": 2854,
      "##veland": 2855,
      "▁proc": 2856,
      "▁times": 2857,
      "▁sing": 2858,
      "▁du": 2859,
      "▁fashion": 2860,
      "▁ang": 2861,
      "▁chair": 2862,
      "▁bunch": 2863,
      "##umble": 2864,
      "▁steph": 2865,
      "▁happening": 2866,
      "##.3": 2867,
      "##/26/2001": 2868,
      "##/2": 2869,
      "▁community": 2870,
      "▁obviously": 2871,
      "##ape": 2872,
      "##)": 2873,
      "▁computer": 2874,
      "▁:(": 2875,
      "##ho": 2876,
      "▁’’": 2877,
      "▁sat": 2878,
      "▁somehow": 2879,
      "##xim": 2880,
      "▁opportun": 2881,
      "▁rub": 2882,
      "##ih": 2883,
      "▁item": 2884,
      "##alo": 2885,
      "▁love": 2886,
      "▁w3c": 2887,
      "▁dall": 2888,
      "▁suddenly": 2889,
      "▁month": 2890,
      "▁do": 2891,
      "▁respect": 2892,
      "▁studies": 2893,
      "##”": 2894,
      "▁amendment": 2895,
      "▁myself": 2896,
      "▁wind": 2897,
      "▁canc": 2898,
      "▁4.": 2899,
      "▁bee": 2900,
      "▁leaving": 2901,
      "##ummy": 2902,
      "▁came": 2903,
      "▁ed": 2904,
      "▁c": 2905,
      "▁oper": 2906,
      "▁begun": 2907,
      "▁wol": 2908,
      "▁sl": 2909,
      "##oes": 2910,
      "▁93": 2911,
      "▁scholars": 2912,
      "▁cowboy": 2913,
      "##vel": 2914,
      "▁bone": 2915,
      "##iers": 2916,
      "▁cases": 2917,
      "▁60": 2918,
      "▁compl": 2919,
      "##oted": 2920,
      "▁1929": 2921,
      "##able": 2922,
      "▁applied": 2923,
      "▁01:09": 2924,
      "##anim": 2925,
      "▁upon": 2926,
      "▁confidential": 2927,
      "##78": 2928,
      "##ung": 2929,
      "##ploy": 2930,
      "##igr": 2931,
      "▁cow": 2932,
      "▁03/28/2001": 2933,
      "##apolis": 2934,
      "▁169": 2935,
      "▁4:50": 2936,
      "##itation": 2937,
      "▁un": 2938,
      "▁self": 2939,
      "▁met": 2940,
      "▁point": 2941,
      "##100": 2942,
      "##edie": 2943,
      "##elled": 2944,
      "##cast": 2945,
      "##300": 2946,
      "##ky": 2947,
      "▁fast": 2948,
      "##iance": 2949,
      "##do": 2950,
      "▁uncle": 2951,
      "¢": 2952,
      "##ica": 2953,
      "▁stuck": 2954,
      "▁expand": 2955,
      "▁prepare": 2956,
      "▁basket": 2957,
      "▁rev": 2958,
      "▁lift": 2959,
      "##arts": 2960,
      "▁sources": 2961,
      "##况": 2962,
      "▁later": 2963,
      "▁organization": 2964,
      "和": 2965,
      "▁schools": 2966,
      "▁sarah": 2967,
      "##ara": 2968,
      "##ox": 2969,
      "▁exch": 2970,
      "▁max": 2971,
      "▁something": 2972,
      "▁spl": 2973,
      "▁parad": 2974,
      "▁rele": 2975,
      "##β": 2976,
      "▁legislation": 2977,
      "##ino": 2978,
      "▁thru": 2979,
      "▁legos": 2980,
      "##otte": 2981,
      "##__________": 2982,
      "##ull": 2983,
      "##ding": 2984,
      "▁batter": 2985,
      "▁)": 2986,
      "▁doct": 2987,
      "▁1:30": 2988,
      "##umn": 2989,
      "▁iod": 2990,
      "▁viet": 2991,
      "##y@ect": 2992,
      "▁karen": 2993,
      "▁trav": 2994,
      "▁cas": 2995,
      "▁no": 2996,
      "▁arrog": 2997,
      "▁cash": 2998,
      "▁contribution": 2999,
      "▁2003": 3000,
      "▁66": 3001,
      "▁ident": 3002,
      "▁800-5": 3003,
      "##erves": 3004,
      "▁improve": 3005,
      "▁scan": 3006,
      "##ε": 3007,
      "▁weekly": 3008,
      "▁fiction": 3009,
      "▁generally": 3010,
      "▁stupid": 3011,
      "▁hy": 3012,
      "▁identity": 3013,
      "▁etc.": 3014,
      "▁atlanta": 3015,
      "▁imposs": 3016,
      "##ole": 3017,
      "▁11/2": 3018,
      "▁sli": 3019,
      "▁shoe": 3020,
      "▁musharraf": 3021,
      "▁release": 3022,
      "▁comple": 3023,
      "▁x": 3024,
      "##cceed": 3025,
      "ʃ": 3026,
      "▁ann": 3027,
      "##red": 3028,
      "▁beyond": 3029,
      "▁murder": 3030,
      "▁{": 3031,
      "##as": 3032,
      "▁lost": 3033,
      "▁530": 3034,
      "▁name": 3035,
      "▁southern": 3036,
      "▁most": 3037,
      "▁commun": 3038,
      "##an": 3039,
      "▁friend": 3040,
      "▁coming": 3041,
      "##sequ": 3042,
      "##iot": 3043,
      "##aro": 3044,
      "▁hos": 3045,
      "##ume": 3046,
      "▁2.": 3047,
      "▁aircraft": 3048,
      "▁3": 3049,
      "▁grow": 3050,
      "▁pre": 3051,
      "▁box": 3052,
      "▁competition": 3053,
      "▁piz": 3054,
      "▁presents": 3055,
      "▁trouble": 3056,
      "▁|": 3057,
      "▁santorum": 3058,
      "##ois": 3059,
      "▁ate": 3060,
      "##ound": 3061,
      "▁04:17": 3062,
      "##uclear": 3063,
      "▁glove": 3064,
      "▁got": 3065,
      "▁letter": 3066,
      "▁1967": 3067,
      "▁foundation": 3068,
      "▁158": 3069,
      "##lies": 3070,
      "▁620-": 3071,
      "▁prec": 3072,
      "##uction": 3073,
      "##grad": 3074,
      "▁saying": 3075,
      "##ulate": 3076,
      "##erre": 3077,
      "▁oc": 3078,
      "▁wet": 3079,
      "▁o": 3080,
      "▁sugg": 3081,
      "##+": 3082,
      "½": 3083,
      "▁713-654-": 3084,
      "▁growing": 3085,
      "▁showing": 3086,
      "##ress": 3087,
      "静": 3088,
      "▁technical": 3089,
      "▁hal": 3090,
      "▁afric": 3091,
      "##case": 3092,
      "▁lea": 3093,
      "▁4-12": 3094,
      "▁land": 3095,
      "##asa": 3096,
      "▁fifteen": 3097,
      "▁perm": 3098,
      "▁republic": 3099,
      "▁spending": 3100,
      "▁dent": 3101,
      "▁fin": 3102,
      "▁herself": 3103,
      "▁activity": 3104,
      "▁like": 3105,
      "▁bigger": 3106,
      "▁15": 3107,
      "▁kitty": 3108,
      "▁considering": 3109,
      "▁terrorist": 3110,
      "▁wake": 3111,
      "▁137": 3112,
      "▁share": 3113,
      "##peare": 3114,
      "▁3889": 3115,
      "▁82": 3116,
      "▁zero": 3117,
      "津": 3118,
      "▁gorio": 3119,
      "##inking": 3120,
      "▁505-625": 3121,
      "▁departing": 3122,
      "▁33": 3123,
      "##riage": 3124,
      "▁host": 3125,
      "▁reflect": 3126,
      "▁beauty": 3127,
      "##urning": 3128,
      "▁auster": 3129,
      "▁sour": 3130,
      "▁shit": 3131,
      "▁canad": 3132,
      "##ope": 3133,
      "▁na": 3134,
      "##8-3": 3135,
      "▁(b)": 3136,
      "##airs": 3137,
      "▁+45": 3138,
      "▁hub": 3139,
      "▁find": 3140,
      "▁4:00": 3141,
      "▁reality": 3142,
      "▁concepts": 3143,
      "▁dinos": 3144,
      "▁border": 3145,
      "##icial": 3146,
      "##84": 3147,
      "▁alber": 3148,
      "▁momma": 3149,
      "##ughter": 3150,
      "▁speech": 3151,
      "▁315": 3152,
      "▁revolution": 3153,
      "▁police": 3154,
      "▁attend": 3155,
      "▁i": 3156,
      "▁islamic": 3157,
      "▁signed": 3158,
      "##ped": 3159,
      "▁alcalde": 3160,
      "#": 3161,
      "▁discip": 3162,
      "▁here": 3163,
      "▁clim": 3164,
      "▁matt": 3165,
      "▁99": 3166,
      "▁spend": 3167,
      "##esome": 3168,
      "▁co": 3169,
      "▁el": 3170,
      "##68": 3171,
      "▁transm": 3172,
      "▁approxim": 3173,
      "##word": 3174,
      "##west": 3175,
      "▁iranian": 3176,
      "##oured": 3177,
      "▁1504": 3178,
      "▁movie": 3179,
      "▁hur": 3180,
      "▁59": 3181,
      "▁fork": 3182,
      "▁won": 3183,
      "##------": 3184,
      "##.m.": 3185,
      "▁doctor": 3186,
      "▁iss": 3187,
      "▁magazine": 3188,
      "▁carol": 3189,
      "▁fact": 3190,
      "##e": 3191,
      "▁teach": 3192,
      "##head": 3193,
      "##velop": 3194,
      "##za": 3195,
      "▁successful": 3196,
      "▁te": 3197,
      "▁down": 3198,
      "##bar": 3199,
      "▁school": 3200,
      "▁web": 3201,
      "##eapolis": 3202,
      "##oy": 3203,
      "##ult": 3204,
      "▁above": 3205,
      "##==============": 3206,
      "▁mathemat": 3207,
      "▁1985": 3208,
      "▁theat": 3209,
      "▁recommend": 3210,
      "##bers": 3211,
      "▁bring": 3212,
      "▁wor": 3213,
      "##tc": 3214,
      "##antly": 3215,
      "▁apart": 3216,
      "▁1145": 3217,
      "▁46": 3218,
      "▁dere": 3219,
      "##uz": 3220,
      "▁nato": 3221,
      "▁fal": 3222,
      "▁search": 3223,
      "▁stat": 3224,
      "▁europe": 3225,
      "##omm": 3226,
      "▁dol": 3227,
      "##ibilities": 3228,
      "▁effective": 3229,
      "▁922": 3230,
      "##thing": 3231,
      "▁egypt": 3232,
      "##tegr": 3233,
      "▁ability": 3234,
      "▁insur": 3235,
      "##ives": 3236,
      "▁round": 3237,
      "▁eye": 3238,
      "▁1925": 3239,
      "▁smell": 3240,
      "▁=---": 3241,
      "##athers": 3242,
      "▁cath": 3243,
      "##cept": 3244,
      "▁intelligence": 3245,
      "▁obt": 3246,
      "##vember": 3247,
      "##mer": 3248,
      "α": 3249,
      "▁11/08/2000": 3250,
      "▁collect": 3251,
      "▁03": 3252,
      "▁cats": 3253,
      "▁ros": 3254,
      "##.2461": 3255,
      "▁687": 3256,
      "▁broken": 3257,
      "##.x": 3258,
      "▁van": 3259,
      "▁202.456": 3260,
      "▁represent": 3261,
      "▁squ": 3262,
      "▁medic": 3263,
      "▁discovered": 3264,
      "##ent": 3265,
      "##ode": 3266,
      "##awah": 3267,
      "▁unique": 3268,
      "##innati": 3269,
      "##ares": 3270,
      "##unk": 3271,
      "##@trans": 3272,
      "▁….": 3273,
      "▁guarantee": 3274,
      "##isc": 3275,
      "##gr": 3276,
      "▁introduced": 3277,
      "▁01/25/2001": 3278,
      "▁1951": 3279,
      "##ath": 3280,
      "▁trees": 3281,
      "▁bridge": 3282,
      "▁yard": 3283,
      "▁distort": 3284,
      "▁has": 3285,
      "▁takes": 3286,
      "▁bever": 3287,
      "▁neu": 3288,
      "a": 3289,
      "▁custom": 3290,
      "▁barn": 3291,
      "▁business": 3292,
      "▁club": 3293,
      "▁202.7": 3294,
      "▁1799": 3295,
      "▁be": 3296,
      "η": 3297,
      "▁bodies": 3298,
      "▁ric": 3299,
      "▁elect": 3300,
      "▁balloon": 3301,
      "##ith": 3302,
      "▁tank": 3303,
      "##uel": 3304,
      "▁1:00": 3305,
      "+": 3306,
      "▁107": 3307,
      "##ades": 3308,
      "▁---": 3309,
      "▁:-)": 3310,
      "##cross": 3311,
      "##ree": 3312,
      "▁dogg": 3313,
      "##sp": 3314,
      "▁title": 3315,
      "▁jo": 3316,
      "▁saudi": 3317,
      "▁713-654-0365": 3318,
      "##rier": 3319,
      "▁6871082": 3320,
      "▁1944": 3321,
      "▁boston": 3322,
      "##erson": 3323,
      "▁chat": 3324,
      "▁del": 3325,
      "▁cam": 3326,
      "##f": 3327,
      "▁plant": 3328,
      "▁liquid": 3329,
      "##ending": 3330,
      "##ored": 3331,
      "▁spear": 3332,
      "▁quino": 3333,
      "▁1.00": 3334,
      "▁ago": 3335,
      "▁!!!": 3336,
      "▁airport": 3337,
      "##ating": 3338,
      "▁mat": 3339,
      "▁appreciate": 3340,
      "##ript": 3341,
      "▁575": 3342,
      "▁wr": 3343,
      "▁mother": 3344,
      "##asing": 3345,
      "▁mom": 3346,
      "▁honest": 3347,
      "▁application": 3348,
      "▁dress": 3349,
      "##elling": 3350,
      "▁cro": 3351,
      "▁sit": 3352,
      "▁environment": 3353,
      "▁0590": 3354,
      "##ا": 3355,
      "##ι": 3356,
      "##gers": 3357,
      "▁diversity": 3358,
      "ʁ": 3359,
      "▁eating": 3360,
      "▁learning": 3361,
      "##____": 3362,
      "▁chocolate": 3363,
      "▁operations": 3364,
      "▁sus": 3365,
      "▁di": 3366,
      "▁february": 3367,
      "▁thinking": 3368,
      "▁scient": 3369,
      "▁had": 3370,
      "▁416-865-3": 3371,
      "▁sector": 3372,
      "##cell": 3373,
      "▁compreh": 3374,
      "▁chicken": 3375,
      "▁teaching": 3376,
      "##chester": 3377,
      "▁2:30": 3378,
      "▁hospital": 3379,
      "▁she": 3380,
      "##87": 3381,
      "▁09:": 3382,
      "▁instead": 3383,
      "▁when": 3384,
      "▁positions": 3385,
      "▁say": 3386,
      "##ob": 3387,
      "▁families": 3388,
      "##-0": 3389,
      "▁story": 3390,
      "▁invest": 3391,
      "▁first": 3392,
      "##emy": 3393,
      "▁beach": 3394,
      "▁top": 3395,
      "##orrow": 3396,
      "▁silly": 3397,
      "▁careful": 3398,
      "##eable": 3399,
      "▁worked": 3400,
      "▁copies": 3401,
      "▁emb": 3402,
      "▁enc": 3403,
      "▁cre": 3404,
      "##ins": 3405,
      "▁ded": 3406,
      "▁couch": 3407,
      "##27": 3408,
      "▁slight": 3409,
      "▁county": 3410,
      "▁ath": 3411,
      "▁wild": 3412,
      "▁medium": 3413,
      "▁experi": 3414,
      "▁windows": 3415,
      "▁sev": 3416,
      "##stances": 3417,
      "▁pe": 3418,
      "▁humaine": 3419,
      "▁197": 3420,
      "▁wondering": 3421,
      "▁july": 3422,
      "▁as": 3423,
      "▁span": 3424,
      "▁bn": 3425,
      "▁tool": 3426,
      "##-p": 3427,
      "▁disappoint": 3428,
      "▁pencil": 3429,
      "▁spin": 3430,
      "▁conscious": 3431,
      "▁neat": 3432,
      "▁d.": 3433,
      "▁milit": 3434,
      "##atures": 3435,
      "##bha": 3436,
      "▁lu": 3437,
      "##`": 3438,
      "▁195": 3439,
      "▁tit": 3440,
      "▁dav": 3441,
      "▁corp": 3442,
      "▁impact": 3443,
      "▁protect": 3444,
      "▁liked": 3445,
      "▁australia": 3446,
      "##@ect": 3447,
      "▁·": 3448,
      "▁drug": 3449,
      "##ada": 3450,
      "##otion": 3451,
      "▁cray": 3452,
      "##www": 3453,
      "▁dc": 3454,
      "##43": 3455,
      "▁aw": 3456,
      "²": 3457,
      "▁requ": 3458,
      "##az": 3459,
      "▁cincinnati": 3460,
      "▁price": 3461,
      "##---------------": 3462,
      "##es": 3463,
      "▁location": 3464,
      "▁phen": 3465,
      "▁carro": 3466,
      "##x": 3467,
      "▁adopted": 3468,
      "▁---------------------------------": 3469,
      "##ober": 3470,
      "##ization": 3471,
      "##ion": 3472,
      "##8_0": 3473,
      "▁knew": 3474,
      "##ises": 3475,
      "▁2006": 3476,
      "▁secur": 3477,
      "▁demon": 3478,
      "▁blackl": 3479,
      "▁w.": 3480,
      "##2000": 3481,
      "▁north": 3482,
      "▁belief": 3483,
      "▁1579": 3484,
      "##/03/2001": 3485,
      "▁demand": 3486,
      "##te": 3487,
      "##vant": 3488,
      "▁80,000": 3489,
      "ا": 3490,
      "##53-3119": 3491,
      "##:50": 3492,
      "▁begins": 3493,
      "▁dand": 3494,
      "▁parking": 3495,
      "▁12:30": 3496,
      "▁bea": 3497,
      "##iles": 3498,
      "▁sunday": 3499,
      "##isb": 3500,
      "▁task": 3501,
      "▁adding": 3502,
      "▁reading": 3503,
      "##.25": 3504,
      "▁1724": 3505,
      "▁42,000": 3506,
      "▁nick": 3507,
      "▁picked": 3508,
      "##oup": 3509,
      "▁post": 3510,
      "▁implementing": 3511,
      "▁i.": 3512,
      "##ays": 3513,
      "▁grandmother": 3514,
      "▁horsie": 3515,
      "▁liqu": 3516,
      "##ability": 3517,
      "▁developed": 3518,
      "▁glasses": 3519,
      "▁ale": 3520,
      "▁principle": 3521,
      "##aim": 3522,
      "##ited": 3523,
      "▁advert": 3524,
      "▁word": 3525,
      "▁345": 3526,
      "`": 3527,
      "▁reli": 3528,
      "▁investment": 3529,
      "▁obs": 3530,
      "##ough": 3531,
      "##-kedne": 3532,
      "▁need": 3533,
      "▁09/16/99": 3534,
      "▁seis": 3535,
      "▁probably": 3536,
      "▁candid": 3537,
      "##600": 3538,
      "##noon": 3539,
      "▁complete": 3540,
      "▁shakespeare": 3541,
      "##irts": 3542,
      "▁screw": 3543,
      "▁decl": 3544,
      "▁19": 3545,
      "##ty": 3546,
      "▁surpr": 3547,
      "##um": 3548,
      "▁dro": 3549,
      "##imum": 3550,
      "▁jack": 3551,
      "▁comm": 3552,
      "▁1902": 3553,
      "▁course": 3554,
      "##tsbur": 3555,
      "▁vogel": 3556,
      "▁567.77": 3557,
      "##ication": 3558,
      "##-12": 3559,
      "▁rack": 3560,
      "▁1849": 3561,
      "##^": 3562,
      "##ß": 3563,
      "▁pad": 3564,
      "▁med": 3565,
      "▁products": 3566,
      "▁lose": 3567,
      "▁jew": 3568,
      "##ons": 3569,
      "▁1779": 3570,
      "▁conf": 3571,
      "▁ens": 3572,
      "▁score": 3573,
      "▁2.9": 3574,
      "▁sense": 3575,
      "▁nice": 3576,
      "▁documents": 3577,
      "▁aesth": 3578,
      "▁cook": 3579,
      "▁shorts": 3580,
      "##roit": 3581,
      "##aine": 3582,
      "##illed": 3583,
      "▁google": 3584,
      "##d-": 3585,
      "##oll": 3586,
      "▁records": 3587,
      "▁3,": 3588,
      "##ried": 3589,
      "##lin": 3590,
      "▁630": 3591,
      "▁durs": 3592,
      "##/2004": 3593,
      "▁green": 3594,
      "▁excuse": 3595,
      "▁281": 3596,
      "▁1604": 3597,
      "▁related": 3598,
      "##app": 3599,
      "▁ash": 3600,
      "##inny": 3601,
      "▁airports": 3602,
      "▁player": 3603,
      "▁valley": 3604,
      "##dies": 3605,
      "▁night": 3606,
      "▁u": 3607,
      "▁dollars": 3608,
      "▁sens": 3609,
      "▁bulld": 3610,
      "▁soph": 3611,
      "▁crazy": 3612,
      "##:39": 3613,
      "##ann": 3614,
      "▁assist": 3615,
      "##η": 3616,
      "##orton": 3617,
      "▁places": 3618,
      "▁cour": 3619,
      "##712": 3620,
      "▁eng": 3621,
      "▁taliban": 3622,
      "▁mouse": 3623,
      "▁est": 3624,
      "▁promised": 3625,
      "▁william": 3626,
      "##acts": 3627,
      "▁tree": 3628,
      "##ories": 3629,
      "▁xii": 3630,
      "▁such": 3631,
      "▁pieces": 3632,
      "▁needs": 3633,
      "##eless": 3634,
      "##ective": 3635,
      "▁wast": 3636,
      "##eding": 3637,
      "▁propos": 3638,
      "##corn": 3639,
      "##int": 3640,
      "##·": 3641,
      "##rison": 3642,
      "##itted": 3643,
      "▁write": 3644,
      "##body": 3645,
      "▁10:25": 3646,
      "##oss": 3647,
      "##vern": 3648,
      "▁rap": 3649,
      "▁1560": 3650,
      "##wise": 3651,
      "##ck": 3652,
      "▁recru": 3653,
      "▁mar": 3654,
      "▁1832": 3655,
      "##he": 3656,
      "▁fingers": 3657,
      "▁ve": 3658,
      "▁1110": 3659,
      "▁shackl": 3660,
      "▁final": 3661,
      "##ening": 3662,
      "##ished": 3663,
      "##-3989": 3664,
      "▁kitten": 3665,
      "▁:": 3666,
      "##olly": 3667,
      "##ross": 3668,
      "▁struct": 3669,
      "##its": 3670,
      "▁03/02/2001": 3671,
      "▁prior": 3672,
      "##ione": 3673,
      "##elf": 3674,
      "▁foreign": 3675,
      "▁grounds": 3676,
      "▁34": 3677,
      "▁suggested": 3678,
      "##sters": 3679,
      "▁scene": 3680,
      "##sus": 3681,
      "▁playing": 3682,
      "##-c": 3683,
      "##ro": 3684,
      "▁negoti": 3685,
      "▁wine": 3686,
      "▁412": 3687,
      "##une": 3688,
      "▁require": 3689,
      "▁04:28": 3690,
      "▁buttons": 3691,
      "▁reported": 3692,
      "▁earlier": 3693,
      "▁physical": 3694,
      "##ece": 3695,
      "▁traveling": 3696,
      "θ": 3697,
      "▁lucky": 3698,
      "▁chines": 3699,
      "▁bath": 3700,
      "▁pl": 3701,
      "▁look": 3702,
      "▁foot": 3703,
      "▁1900": 3704,
      "##tr": 3705,
      "▁!!": 3706,
      "▁&": 3707,
      "▁pizza": 3708,
      "▁2:00": 3709,
      "▁cock": 3710,
      "##are": 3711,
      "##ash": 3712,
      "▁env": 3713,
      "##1/2001": 3714,
      "##illa": 3715,
      "##ively": 3716,
      "▁birds": 3717,
      "▁turns": 3718,
      "▁dining": 3719,
      "▁hurt": 3720,
      "▁hundred": 3721,
      "▁enemy": 3722,
      "##go": 3723,
      "##.htm": 3724,
      "▁unles": 3725,
      "▁s/he": 3726,
      "##king": 3727,
      "▁territory": 3728,
      "▁greet": 3729,
      "##ocr": 3730,
      "##30": 3731,
      "▁easier": 3732,
      "##ters": 3733,
      "##sy": 3734,
      "##iod": 3735,
      "▁ku": 3736,
      "▁recall": 3737,
      "##enix": 3738,
      "▁account": 3739,
      "▁les": 3740,
      "▁ven": 3741,
      "▁fill": 3742,
      "##ado": 3743,
      "▁contr": 3744,
      "▁300": 3745,
      "▁1801": 3746,
      "▁authority": 3747,
      ":": 3748,
      "▁nook": 3749,
      "▁governments": 3750,
      "##ification": 3751,
      "▁sho": 3752,
      "▁whole": 3753,
      "4": 3754,
      "##.ht": 3755,
      "##/30": 3756,
      "▁directly": 3757,
      "▁hit": 3758,
      "▁4.7": 3759,
      "▁tren": 3760,
      "##ub": 3761,
      "▁compan": 3762,
      "▁ye": 3763,
      "▁app": 3764,
      "##oler": 3765,
      "▁strike": 3766,
      "▁turis": 3767,
      "##ural": 3768,
      "▁columb": 3769,
      "▁tru": 3770,
      "▁ger": 3771,
      "##it": 3772,
      "▁elevator": 3773,
      "▁mos": 3774,
      "▁tract": 3775,
      "##,0": 3776,
      "▁22": 3777,
      "##pr": 3778,
      "##to": 3779,
      "▁01/1": 3780,
      "▁yog": 3781,
      "▁soil": 3782,
      "▁surface": 3783,
      "▁influ": 3784,
      "##ince": 3785,
      "▁suffering": 3786,
      "▁feed": 3787,
      "▁start": 3788,
      "▁[...]": 3789,
      "ح": 3790,
      "##hn": 3791,
      "##ute": 3792,
      "▁control": 3793,
      "▁consum": 3794,
      "▁found": 3795,
      "▁ep": 3796,
      "▁fir": 3797,
      "▁offer": 3798,
      "▁peop": 3799,
      "▁bag": 3800,
      "▁kitt": 3801,
      "▁due": 3802,
      "▁dem": 3803,
      "▁fresh": 3804,
      "▁hind": 3805,
      "▁remained": 3806,
      "▁`s": 3807,
      "##.718": 3808,
      "##orm": 3809,
      "▁forty-": 3810,
      "▁horse": 3811,
      "▁rel": 3812,
      "▁04": 3813,
      "▁justice": 3814,
      "##65": 3815,
      "▁ad": 3816,
      "##lac": 3817,
      "▁718": 3818,
      "▁customers": 3819,
      "##rant": 3820,
      "▁airpl": 3821,
      "▁curren": 3822,
      "▁importance": 3823,
      "▁smile": 3824,
      "▁adm": 3825,
      "▁silk": 3826,
      "##-8031": 3827,
      "▁gen": 3828,
      "▁texas": 3829,
      "##-50": 3830,
      "▁02/27/2001": 3831,
      "▁gisb": 3832,
      "##ah": 3833,
      "▁techn": 3834,
      "##.uk": 3835,
      "▁fifty": 3836,
      "▁bab": 3837,
      "▁comedie": 3838,
      "▁stillman": 3839,
      "▁river": 3840,
      "##rest": 3841,
      "▁1230": 3842,
      "▁stopping": 3843,
      "▁autom": 3844,
      "▁ped": 3845,
      "▁1970": 3846,
      "▁economies": 3847,
      "##ave": 3848,
      "▁next": 3849,
      "☎": 3850,
      "▁fine": 3851,
      "▁rot": 3852,
      "##eo": 3853,
      "▁con": 3854,
      "▁proceed": 3855,
      "▁handle": 3856,
      "▁charge": 3857,
      "##anced": 3858,
      "\\": 3859,
      "##ansas": 3860,
      "▁offers": 3861,
      "##;": 3862,
      "▁geor": 3863,
      "##ores": 3864,
      "▁africa": 3865,
      "##onse": 3866,
      "▁wall": 3867,
      "▁show": 3868,
      "▁nasa": 3869,
      "▁shot": 3870,
      "▁bassiana": 3871,
      "▁meth": 3872,
      "##inger": 3873,
      "▁aside": 3874,
      "▁percent": 3875,
      "##/10/2000": 3876,
      "▁paid": 3877,
      "▁till": 3878,
      "▁receive": 3879,
      "▁charles": 3880,
      "##port": 3881,
      "▁flights": 3882,
      "▁76": 3883,
      "▁form": 3884,
      "▁comment": 3885,
      "▁newsp": 3886,
      "▁seattle": 3887,
      "##dred": 3888,
      "▁860": 3889,
      "▁described": 3890,
      "▁ey": 3891,
      "##day": 3892,
      "##-991-90": 3893,
      "▁exactly": 3894,
      "▁come": 3895,
      "▁event": 3896,
      "##822": 3897,
      "▁stories": 3898,
      "▁cy": 3899,
      "▁frozen": 3900,
      "##y": 3901,
      "▁dans": 3902,
      "▁mm": 3903,
      "▁re": 3904,
      "##iss": 3905,
      "##zz": 3906,
      "▁lim": 3907,
      "▁gone": 3908,
      "▁cir": 3909,
      "##ause": 3910,
      "▁strain": 3911,
      "▁shower": 3912,
      "##ark": 3913,
      "##子": 3914,
      "##://": 3915,
      "▁alth": 3916,
      "▁income": 3917,
      "▁sufficient": 3918,
      "▁210": 3919,
      "##°": 3920,
      "▁luc": 3921,
      "▁entire": 3922,
      "##奈": 3923,
      "▁eleven": 3924,
      "▁300,000": 3925,
      "▁certific": 3926,
      "y": 3927,
      "▁pro": 3928,
      "▁set": 3929,
      "##ire": 3930,
      "▁1968": 3931,
      "▁after": 3932,
      "▁24,000": 3933,
      "▁0.00": 3934,
      "▁lesson": 3935,
      "##13.8": 3936,
      "▁fuck": 3937,
      "▁____________________________________________________________": 3938,
      "…": 3939,
      "▁sett": 3940,
      "▁audience": 3941,
      "##16.718": 3942,
      "▁1594": 3943,
      "##,9": 3944,
      "▁totally": 3945,
      "##tica": 3946,
      "▁himself": 3947,
      "##4/2001": 3948,
      "▁disney": 3949,
      "▁planned": 3950,
      "##elines": 3951,
      "▁1952": 3952,
      "▁coll": 3953,
      "▁telephone": 3954,
      "▁horn": 3955,
      "▁mark": 3956,
      "##phere": 3957,
      "##========": 3958,
      "▁recording": 3959,
      "▁1584": 3960,
      "▁ghost": 3961,
      "▁scheduled": 3962,
      "▁manag": 3963,
      "▁into": 3964,
      "##ages": 3965,
      "▁delivery": 3966,
      "▁witness": 3967,
      "▁it's": 3968,
      "▁states": 3969,
      "##uf": 3970,
      "##erous": 3971,
      "##ings": 3972,
      "▁coast": 3973,
      "▁perfect": 3974,
      "▁produc": 3975,
      "▁eyes": 3976,
      "▁atop": 3977,
      "##ual": 3978,
      "▁ninety": 3979,
      "##ber": 3980,
      "▁asked": 3981,
      "▁conference": 3982,
      "##art": 3983,
      "##kee": 3984,
      "ν": 3985,
      "##eenth": 3986,
      "▁remove": 3987,
      "[UNK]": 3988,
      "▁sold": 3989,
      "▁hosp": 3990,
      "▁180": 3991,
      "▁consc": 3992,
      "▁11:00": 3993,
      "##ivers": 3994,
      "▁airplane": 3995,
      "▁ign": 3996,
      "##ack": 3997,
      "▁8:30": 3998,
      "▁queries": 3999,
      "##soft": 4000,
      "▁voices": 4001,
      "▁ursula": 4002,
      "▁ask": 4003,
      "▁pink": 4004,
      "▁middle": 4005,
      "##ett": 4006,
      "##2-0": 4007,
      "▁seventh": 4008,
      "▁hold": 4009,
      "▁detail": 4010,
      "▁acknowled": 4011,
      "▁jews": 4012,
      "##łodz": 4013,
      "▁removed": 4014,
      "##pper": 4015,
      "▁haf": 4016,
      "##med": 4017,
      "##hia": 4018,
      "▁biological": 4019,
      "▁burn": 4020,
      "▁wal": 4021,
      "▁comes": 4022,
      "▁serv": 4023,
      "▁conn": 4024,
      "▁27": 4025,
      "##itely": 4026,
      "##iful": 4027,
      "▁cold": 4028,
      "##wn": 4029,
      "▁poll": 4030,
      "▁views": 4031,
      "##il": 4032,
      "▁prof": 4033,
      "▁former": 4034,
      "##rop": 4035,
      "▁emp": 4036,
      "##with": 4037,
      "▁policy": 4038,
      "##sey": 4039,
      "▁warming": 4040,
      "##œ": 4041,
      "▁jean": 4042,
      "▁vod": 4043,
      "##ze": 4044,
      "##_de": 4045,
      "##itch": 4046,
      "##sa": 4047,
      "##bby": 4048,
      "▁tim": 4049,
      "▁phys": 4050,
      "▁1,6": 4051,
      "##istic": 4052,
      "▁accomm": 4053,
      "##ases": 4054,
      "▁fish": 4055,
      "▁twa": 4056,
      "▁k": 4057,
      "▁110": 4058,
      "##raid": 4059,
      "▁1950": 4060,
      "##id": 4061,
      "##ug": 4062,
      "▁farm": 4063,
      "##ming": 4064,
      "##arent": 4065,
      "▁189": 4066,
      "▁gdp": 4067,
      "▁281-435-0295": 4068,
      "▁!!!!": 4069,
      "##ollow": 4070,
      "▁avoid": 4071,
      "▁have": 4072,
      "▁depends": 4073,
      "##…": 4074,
      "▁returning": 4075,
      "▁1592": 4076,
      "▁book": 4077,
      "▁affect": 4078,
      "▁3.1": 4079,
      "▁w": 4080,
      "▁impossible": 4081,
      "##,8": 4082,
      "▁’d": 4083,
      "##14": 4084,
      "##an@trans": 4085,
      "▁lou": 4086,
      "##uary": 4087,
      "##iness": 4088,
      "▁ag": 4089,
      "▁fighting": 4090,
      "▁bro": 4091,
      "▁prob": 4092,
      "▁path": 4093,
      "▁sched": 4094,
      "▁scared": 4095,
      "▁sweater": 4096,
      "##ento": 4097,
      "##ny": 4098,
      "▁through": 4099,
      "▁apar": 4100,
      "##??": 4101,
      "##ater": 4102,
      "▁ital": 4103,
      "▁compon": 4104,
      "▁season": 4105,
      "##hood": 4106,
      "##ork": 4107,
      "##come": 4108,
      "▁eighty": 4109,
      "▁report": 4110,
      "▁lick": 4111,
      "##ints": 4112,
      "▁sil": 4113,
      "▁ig": 4114,
      "▁conditions": 4115,
      "▁manufact": 4116,
      "▁east": 4117,
      "▁measure": 4118,
      "##29": 4119,
      "##itt": 4120,
      "▁surgery": 4121,
      "▁severe": 4122,
      "▁industry": 4123,
      "▁sw": 4124,
      "▁lot": 4125,
      "▁n": 4126,
      "^": 4127,
      "ς": 4128,
      "▁ring": 4129,
      "▁sally": 4130,
      "▁5": 4131,
      "▁934": 4132,
      "▁6:30": 4133,
      "▁priv": 4134,
      "▁ackn": 4135,
      "##-84": 4136,
      "▁crop": 4137,
      "▁notwithstanding": 4138,
      "##four": 4139,
      "##(": 4140,
      "▁838": 4141,
      "▁issue": 4142,
      "▁1.75": 4143,
      "##ulous": 4144,
      "<": 4145,
      "##1": 4146,
      "▁fee": 4147,
      "##rel": 4148,
      "▁pen": 4149,
      "▁forty-eight": 4150,
      "▁don": 4151,
      "o": 4152,
      "▁166": 4153,
      "##wet": 4154,
      "▁hurts": 4155,
      "▁product": 4156,
      "##________": 4157,
      "▁earliest": 4158,
      "▁others": 4159,
      "▁pack": 4160,
      "▁stir": 4161,
      "▁fright": 4162,
      "▁1222": 4163,
      "▁1300": 4164,
      "##ounded": 4165,
      "▁construct": 4166,
      "▁sc": 4167,
      "##.4": 4168,
      "▁branch": 4169,
      "▁national": 4170,
      "▁crime": 4171,
      "▁game": 4172,
      "▁01/2": 4173,
      "▁many": 4174,
      "##000": 4175,
      "▁longer": 4176,
      "##**********************************": 4177,
      "▁laden": 4178,
      "##:44": 4179,
      "##ml": 4180,
      "▁hors": 4181,
      "▁him": 4182,
      "▁wik": 4183,
      "▁paren": 4184,
      "▁1920": 4185,
      "▁217": 4186,
      "##friend": 4187,
      "▁bringing": 4188,
      "▁ref": 4189,
      "▁8:00": 4190,
      "##standing": 4191,
      "▁interview": 4192,
      "##cal": 4193,
      "##ister": 4194,
      "▁pa": 4195,
      "▁mike": 4196,
      "▁leigh": 4197,
      "▁770": 4198,
      "▁direct": 4199,
      "##dp": 4200,
      "▁pass": 4201,
      "▁bomb": 4202,
      "##ard": 4203,
      "##ij": 4204,
      "##i-": 4205,
      "▁lock": 4206,
      "##berry": 4207,
      "##ur": 4208,
      "▁check": 4209,
      "##_2": 4210,
      "▁03/09/2000": 4211,
      "▁35": 4212,
      "▁rude": 4213,
      "▁man": 4214,
      "▁theory": 4215,
      "▁800": 4216,
      "▁should": 4217,
      "▁1774": 4218,
      "▁ple": 4219,
      "▁dud": 4220,
      "##fr": 4221,
      "▁thoughts": 4222,
      "▁chicago": 4223,
      "▁richard": 4224,
      "u": 4225,
      "##22": 4226,
      "▁jump": 4227,
      "##per": 4228,
      "▁nin": 4229,
      "▁race": 4230,
      "▁cat": 4231,
      "▁b/": 4232,
      "▁gramm": 4233,
      "▁concern": 4234,
      "▁pret": 4235,
      "▁der": 4236,
      "▁film": 4237,
      "▁so": 4238,
      "▁comb": 4239,
      "##roy": 4240,
      "▁beau": 4241,
      "##ret": 4242,
      "##ants": 4243,
      "▁going": 4244,
      "▁b": 4245,
      "##yan": 4246,
      "▁dream": 4247,
      "##mas": 4248,
      "▁bel": 4249,
      "##.99": 4250,
      "▁!!!!!!!!!!": 4251,
      "▁peanut": 4252,
      "▁ski": 4253,
      "##18": 4254,
      "▁iii": 4255,
      "▁penc": 4256,
      "▁cooked": 4257,
      "##oud": 4258,
      "▁truly": 4259,
      "##att": 4260,
      "##ests": 4261,
      "▁bu": 4262,
      "##ense": 4263,
      "##45": 4264,
      "##:19": 4265,
      "##????????????????": 4266,
      "▁king": 4267,
      "▁millions": 4268,
      "▁thirty-": 4269,
      "▁legisl": 4270,
      "▁cocktail": 4271,
      "▁merely": 4272,
      "▁trial": 4273,
      "▁tot": 4274,
      "##0072": 4275,
      "▁indic": 4276,
      "▁two": 4277,
      "▁1928": 4278,
      "▁protected": 4279,
      "##ption": 4280,
      "##-10": 4281,
      "▁1820": 4282,
      "▁contents": 4283,
      "▁fares": 4284,
      "▁coo": 4285,
      "▁rapidly": 4286,
      "▁thursday": 4287,
      "▁dis": 4288,
      "##ect": 4289,
      "▁smart": 4290,
      "▁-----------------------------------------------------------------": 4291,
      "7": 4292,
      "▁dh": 4293,
      "##stein": 4294,
      "▁28,000": 4295,
      "▁toast": 4296,
      "▁gri": 4297,
      "▁way": 4298,
      "##031": 4299,
      "▁second": 4300,
      "▁mill": 4301,
      "▁sara": 4302,
      "##.61": 4303,
      "▁was": 4304,
      "▁poverty": 4305,
      "▁liberty": 4306,
      "▁elimin": 4307,
      "▁240": 4308,
      "▁listing": 4309,
      "▁restaurants": 4310,
      "##ang": 4311,
      "▁soft": 4312,
      "▁agent": 4313,
      "▁connection": 4314,
      "▁million": 4315,
      "▁adv": 4316,
      "##51": 4317,
      "▁uhh": 4318,
      "##gest": 4319,
      "▁alliance": 4320,
      "▁wi": 4321,
      "j": 4322,
      "▁clear": 4323,
      "▁needed": 4324,
      "##74": 4325,
      "▁operation": 4326,
      "▁evidence": 4327,
      "▁hor": 4328,
      "▁jih": 4329,
      "▁peace": 4330,
      "▁image": 4331,
      "▁ip": 4332,
      "▁career": 4333,
      "▁separate": 4334,
      "▁mommy": 4335,
      "##ł": 4336,
      "##ancing": 4337,
      "▁select": 4338,
      "▁glo": 4339,
      "▁mel": 4340,
      "##======": 4341,
      "▁yea": 4342,
      "##how": 4343,
      "▁though": 4344,
      "▁stup": 4345,
      "##α": 4346,
      "▁1-8": 4347,
      "▁vast": 4348,
      "▁defense": 4349,
      "##ing": 4350,
      "##iet": 4351,
      "▁walked": 4352,
      "▁giving": 4353,
      "▁fortun": 4354,
      "▁kay": 4355,
      "▁olymp": 4356,
      "▁✉": 4357,
      "##anc": 4358,
      "▁penny": 4359,
      "##ined": 4360,
      "▁known": 4361,
      "▁11/29/2000": 4362,
      "▁beside": 4363,
      "▁calls": 4364,
      "▁id": 4365,
      "ω": 4366,
      "##actions": 4367,
      "▁michelle": 4368,
      "▁required": 4369,
      "▁californ": 4370,
      "▁1940": 4371,
      "▁hands": 4372,
      "##ew": 4373,
      "▁”": 4374,
      "▁innovation": 4375,
      "▁gives": 4376,
      "▁eb": 4377,
      "##stip": 4378,
      "##ains": 4379,
      "▁florida": 4380,
      "##rup": 4381,
      "##ilt": 4382,
      "▁whilst": 4383,
      "▁art": 4384,
      "▁20:00": 4385,
      "##ppy": 4386,
      "▁tail": 4387,
      "▁☎": 4388,
      "▁implementation": 4389,
      "▁concerned": 4390,
      "##vey": 4391,
      "▁wan": 4392,
      "▁exper": 4393,
      "##μ": 4394,
      "##:17": 4395,
      "▁3,202": 4396,
      "##line": 4397,
      "▁boot": 4398,
      "##ident": 4399,
      "▁approach": 4400,
      "▁compar": 4401,
      "▁270": 4402,
      "▁pil": 4403,
      "▁1.4": 4404,
      "▁transl": 4405,
      "▁jul": 4406,
      "▁2,": 4407,
      "▁alread": 4408,
      "▁415": 4409,
      "##eb": 4410,
      "▁shi": 4411,
      "夏": 4412,
      "▁twelve": 4413,
      "▁phot": 4414,
      "▁tiger": 4415,
      "▁understanding": 4416,
      "▁relief": 4417,
      "▁24": 4418,
      "▁defined": 4419,
      "##reh": 4420,
      "##get": 4421,
      "▁17": 4422,
      "▁clearly": 4423,
      "▁łodzian": 4424,
      "▁origin": 4425,
      "##ere": 4426,
      "▁born": 4427,
      "▁1994": 4428,
      "##/10/2004": 4429,
      "▁patter": 4430,
      "##eds": 4431,
      "##here": 4432,
      "▁consequences": 4433,
      "▁5:30": 4434,
      "▁franc": 4435,
      "▁throughout": 4436,
      "##aska": 4437,
      "▁fold": 4438,
      "▁includes": 4439,
      "▁1890": 4440,
      "▁aband": 4441,
      "▁george": 4442,
      "▁pool": 4443,
      "##:03": 4444,
      "▁bon": 4445,
      "##chi": 4446,
      "▁pho": 4447,
      "▁forces": 4448,
      "▁_________________________________": 4449,
      "▁415.621.8317": 4450,
      "▁60,000": 4451,
      "▁talking": 4452,
      "##east": 4453,
      "▁let": 4454,
      "▁!": 4455,
      "##“": 4456,
      "▁row": 4457,
      "▁stom": 4458,
      "▁’m": 4459,
      "▁cars": 4460,
      "▁1988": 4461,
      "▁sleep": 4462,
      "▁-ect-kedne": 4463,
      "▁walking": 4464,
      "##life": 4465,
      "▁79": 4466,
      "▁average": 4467,
      "▁baltimore": 4468,
      "##-343": 4469,
      "▁range": 4470,
      "▁requested": 4471,
      "▁monkey": 4472,
      "▁928": 4473,
      "▁bott": 4474,
      "▁eventually": 4475,
      "▁light": 4476,
      "▁parties": 4477,
      "▁st": 4478,
      "▁work": 4479,
      "##ames": 4480,
      "▁mitchell": 4481,
      "▁nobody": 4482,
      "##dd": 4483,
      "▁negot": 4484,
      "##vo": 4485,
      "▁explore": 4486,
      "##ought": 4487,
      "▁flor": 4488,
      "▁big": 4489,
      "##icient": 4490,
      "▁1829": 4491,
      "▁call": 4492,
      "▁347": 4493,
      "##.s.": 4494,
      "▁docum": 4495,
      "▁rates": 4496,
      "##oin": 4497,
      "##end": 4498,
      "▁becom": 4499,
      "▁sciss": 4500,
      "##dden": 4501,
      "##ail": 4502,
      "▁northwest": 4503,
      "▁unkn": 4504,
      "▁unp": 4505,
      "▁webs": 4506,
      "▁05/03/2001": 4507,
      "##ration": 4508,
      "▁311": 4509,
      "▁ron": 4510,
      "##-46": 4511,
      "▁towards": 4512,
      "▁888.916.7184": 4513,
      "##/99": 4514,
      "##\\": 4515,
      "##ir": 4516,
      "▁golden": 4517,
      "▁illusions": 4518,
      "##verty": 4519,
      "*": 4520,
      "▁government": 4521,
      "▁died": 4522,
      "▁trans": 4523,
      "▁seventeen": 4524,
      "▁cover": 4525,
      "▁believes": 4526,
      "▁unt": 4527,
      "▁1997": 4528,
      "▁dg": 4529,
      "▁ab": 4530,
      "▁pi": 4531,
      "##bed": 4532,
      "▁sleeping": 4533,
      "##ken": 4534,
      "##uses": 4535,
      "##ip": 4536,
      "##ich": 4537,
      "##ʃ": 4538,
      "##ota": 4539,
      "▁har": 4540,
      "▁reports": 4541,
      "##i": 4542,
      "▁ears": 4543,
      "##/7": 4544,
      "▁econom": 4545,
      "##roll": 4546,
      "##igration": 4547,
      "##uma": 4548,
      "##oul": 4549,
      "##ees": 4550,
      "##ops": 4551,
      "▁kim": 4552,
      "##:07": 4553,
      "##—": 4554,
      "▁salon": 4555,
      "▁duck": 4556,
      "##:21": 4557,
      "▁ban": 4558,
      "▁heads": 4559,
      "▁fail": 4560,
      "##:35": 4561,
      "▁hiking": 4562,
      "▁kitch": 4563,
      "▁peoples": 4564,
      "▁clay": 4565,
      "##'s": 4566,
      "▁enh": 4567,
      "##====": 4568,
      "▁fe": 4569,
      "▁mainly": 4570,
      "▁thick": 4571,
      "▁taught": 4572,
      "▁than": 4573,
      "##ly": 4574,
      "##ible": 4575,
      "##nondel": 4576,
      "##fully": 4577,
      "▁twenty-four": 4578,
      "##dy": 4579,
      "▁imp": 4580,
      "▁hom": 4581,
      "@": 4582,
      "▁inj": 4583,
      "▁prep": 4584,
      "##eit": 4585,
      "▁arab": 4586,
      "▁breakfast": 4587,
      "▁mention": 4588,
      "▁hers": 4589,
      "▁diego": 4590,
      "▁ninety-nine": 4591,
      "▁£": 4592,
      "▁vs": 4593,
      "▁supreme": 4594,
      "▁guid": 4595,
      "▁mind": 4596,
      "▁company": 4597,
      "▁pakistani": 4598,
      "▁listen": 4599,
      "▁true": 4600,
      "##ational": 4601,
      "▁": 4602,
      "▁tend": 4603,
      "▁16": 4604,
      "▁ul": 4605,
      ".": 4606,
      "##elds": 4607,
      "▁deals": 4608,
      "▁clothing": 4609,
      "▁kid": 4610,
      "##{": 4611,
      "▁cliff": 4612,
      "▁floating": 4613,
      "▁sn": 4614,
      "▁1611": 4615,
      "▁tickle": 4616,
      "▁fre": 4617,
      "##oose": 4618,
      "▁202.456.2461": 4619,
      "▁hug": 4620,
      "##oulder": 4621,
      "▁posted": 4622,
      "##unch": 4623,
      "▁des": 4624,
      "##!!": 4625,
      "▁vict": 4626,
      "▁comfort": 4627,
      "▁further": 4628,
      "##ated": 4629,
      "▁cleveland": 4630,
      "▁wheel": 4631,
      "▁piv": 4632,
      "##vert": 4633,
      "▁comfortable": 4634,
      "##ily": 4635,
      "▁willing": 4636,
      "▁error": 4637,
      "##ace": 4638,
      "▁410": 4639,
      "▁sees": 4640,
      "▁oct": 4641,
      "▁thr": 4642,
      "##ves": 4643,
      "▁hat": 4644,
      "▁minute": 4645,
      "▁11/7/08": 4646,
      "##ject": 4647,
      "▁li": 4648,
      "▁acc": 4649,
      "▁began": 4650,
      "▁hotels": 4651,
      "▁regime": 4652,
      "▁spot": 4653,
      "##iban": 4654,
      "▁edu": 4655,
      "▁chap": 4656,
      "▁office": 4657,
      "##.g": 4658,
      "▁since": 4659,
      "##bye": 4660,
      "▁discussion": 4661,
      "##800": 4662,
      "▁bla": 4663,
      "▁previous": 4664,
      "▁demonstr": 4665,
      "##ol": 4666,
      "▁female": 4667,
      "▁recorder": 4668,
      "##ely": 4669,
      "▁54,000": 4670,
      "▁26": 4671,
      "ʻ": 4672,
      "▁!!!!!!!": 4673,
      "▁aid": 4674,
      "▁eat": 4675,
      "▁hour": 4676,
      "##50": 4677,
      "▁reform": 4678,
      "##ye": 4679,
      "##:55": 4680,
      "##ital": 4681,
      "▁832": 4682,
      "▁decision": 4683,
      "▁hon": 4684,
      "##lear": 4685,
      "▁useful": 4686,
      "##/15/2001": 4687,
      "##ster": 4688,
      "▁dancing": 4689,
      "▁picture": 4690,
      "▁sup": 4691,
      "▁honey": 4692,
      "##bre": 4693,
      "▁…": 4694,
      "##ieth": 4695,
      "▁awesome": 4696,
      "##ong": 4697,
      "##21": 4698,
      "▁responsible": 4699,
      "▁music": 4700,
      "▁presentation": 4701,
      "▁fixed": 4702,
      "##ios": 4703,
      "##imin": 4704,
      "▁comments": 4705,
      "▁minister": 4706,
      "▁youtube": 4707,
      "▁330": 4708,
      "n": 4709,
      "▁flying": 4710,
      "▁roll": 4711,
      "##sh": 4712,
      "▁ends": 4713,
      "##.15": 4714,
      "##0/2000": 4715,
      "▁constantly": 4716,
      "##ious": 4717,
      "▁earned": 4718,
      "##ec": 4719,
      "▁hard": 4720,
      "▁integr": 4721,
      "▁valid": 4722,
      "##:34": 4723,
      "▁qu": 4724,
      "##:14": 4725,
      "##allow": 4726,
      "▁220": 4727,
      "▁hall": 4728,
      "▁iu": 4729,
      "▁taxi": 4730,
      "▁peaceful": 4731,
      "▁che": 4732,
      "▁-2-": 4733,
      "##iving": 4734,
      "▁laur": 4735,
      "▁identified": 4736,
      "▁lic": 4737,
      "##/": 4738,
      "▁craw": 4739,
      "▁issued": 4740,
      "##/4": 4741,
      "ي": 4742,
      "▁expl": 4743,
      "▁tab": 4744,
      "▁colour": 4745,
      "##u": 4746,
      "▁even": 4747,
      "▁plan": 4748,
      "▁fred": 4749,
      "▁11/10/2000": 4750,
      "▁fifth": 4751,
      "▁exposure": 4752,
      "▁ready": 4753,
      "▁ty": 4754,
      "▁import": 4755,
      "▁toky": 4756,
      "##iling": 4757,
      "▁n't": 4758,
      "▁therefore": 4759,
      "##lf": 4760,
      "▁wednesday": 4761,
      "▁03/27/2001": 4762,
      "##teenth": 4763,
      "##rit": 4764,
      "▁role": 4765,
      "▁january": 4766,
      "##z": 4767,
      "▁315-460-33": 4768,
      "د": 4769,
      "##琴": 4770,
      "▁asp": 4771,
      "##ugh": 4772,
      "▁yout": 4773,
      "▁islands": 4774,
      "##ford": 4775,
      "▁bo": 4776,
      "▁07/1": 4777,
      "'": 4778,
      "▁owned": 4779,
      "##l": 4780,
      "##ibreat": 4781,
      "##sych": 4782,
      "▁0000108806": 4783,
      "##===": 4784,
      "##onom": 4785,
      "▁8043": 4786,
      "▁level": 4787,
      "▁98": 4788,
      "▁cogn": 4789,
      "##ida": 4790,
      "▁in": 4791,
      "▁1500": 4792,
      "▁household": 4793,
      "▁56": 4794,
      "##ators": 4795,
      "樋": 4796,
      "▁shake": 4797,
      "▁various": 4798,
      "▁nine": 4799,
      "##,000": 4800,
      "▁tampa": 4801,
      "##ors": 4802,
      "▁fant": 4803,
      "##ounts": 4804,
      "▁captain": 4805,
      "##osed": 4806,
      "▁quote": 4807,
      "▁before": 4808,
      "▁taiwan": 4809,
      "▁505": 4810,
      "▁november": 4811,
      "▁occup": 4812,
      "▁developing": 4813,
      "##ra": 4814,
      "▁drop": 4815,
      "##ʒ": 4816,
      "##idden": 4817,
      "▁expected": 4818,
      "▁professional": 4819,
      "##ank": 4820,
      "▁tu": 4821,
      "▁drive": 4822,
      "▁em": 4823,
      "▁meas": 4824,
      "▁unc": 4825,
      "▁sha": 4826,
      "▁slow": 4827,
      "▁frequ": 4828,
      "葉": 4829,
      "▁palestin": 4830,
      "▁mid-": 4831,
      "▁rush": 4832,
      "##inc": 4833,
      "▁trad": 4834,
      "##20": 4835,
      "##eight": 4836,
      "##got": 4837,
      "▁likes": 4838,
      "▁08:00": 4839,
      "▁height": 4840,
      "##721": 4841,
      "▁india": 4842,
      "▁liber": 4843,
      "▁jihad": 4844,
      "▁financial": 4845,
      "▁p.s.": 4846,
      "##ession": 4847,
      "▁1973": 4848,
      "▁boxes": 4849,
      "▁2,500": 4850,
      "▁waiting": 4851,
      "##aters": 4852,
      "▁daily": 4853,
      "##ates": 4854,
      "##oned": 4855,
      "##hold": 4856,
      "▁466": 4857,
      "▁statement": 4858,
      "▁refer": 4859,
      "##cent": 4860,
      "##iding": 4861,
      "▁713-8": 4862,
      "9": 4863,
      "▁pricing": 4864,
      "▁based": 4865,
      "▁health": 4866,
      "##ama": 4867,
      "▁archit": 4868,
      "▁copyright": 4869,
      "▁198": 4870,
      "▁mohamed": 4871,
      "▁growth": 4872,
      "▁agreement": 4873,
      "▁dressed": 4874,
      "▁pur": 4875,
      "▁accur": 4876,
      "##128": 4877,
      "▁sugar": 4878,
      "##ury": 4879,
      "▁ones": 4880,
      "▁values": 4881,
      "▁relatively": 4882,
      "▁blank": 4883,
      "##etic": 4884,
      "▁nmemdrft8-7-01": 4885,
      "▁this": 4886,
      "▁commercial": 4887,
      "##pa": 4888,
      "▁christ": 4889,
      "▁red": 4890,
      "▁whose": 4891,
      "##war": 4892,
      "▁tummy": 4893,
      "▁assum": 4894,
      "▁bound": 4895,
      "▁scar": 4896,
      "▁ken": 4897,
      "▁arrival": 4898,
      "##na": 4899,
      "▁addition": 4900,
      "##oms": 4901,
      "##b": 4902,
      "▁any": 4903,
      "##//": 4904,
      "▁december": 4905,
      "▁quinoa": 4906,
      "▁choo": 4907,
      "▁125": 4908,
      "▁opposite": 4909,
      "▁0.0": 4910,
      "▁images": 4911,
      "▁indo": 4912,
      "▁moh": 4913,
      "▁up": 4914,
      "##********": 4915,
      "▁38": 4916,
      "▁87": 4917,
      "▁quinn": 4918,
      "▁temperature": 4919,
      "##图": 4920,
      "▁ful": 4921,
      "▁fort": 4922,
      "▁earth": 4923,
      "▁monday": 4924,
      "▁bread": 4925,
      "▁atmos": 4926,
      "▁us": 4927,
      "▁mess": 4928,
      "▁peter": 4929,
      "▁thing": 4930,
      "▁baltim": 4931,
      "##ai": 4932,
      "▁key": 4933,
      "▁wo": 4934,
      "##ulated": 4935,
      "▁protest": 4936,
      "▁bears": 4937,
      "▁given": 4938,
      "▁band": 4939,
      "▁1603": 4940,
      "▁licens": 4941,
      "##1082": 4942,
      "▁every": 4943,
      "##et": 4944,
      "▁stairs": 4945,
      "▁01:39": 4946,
      "▁hm": 4947,
      "▁china": 4948,
      "##part": 4949,
      "▁large": 4950,
      "▁owners": 4951,
      "▁remind": 4952,
      "##ved": 4953,
      "▁british": 4954,
      "▁which": 4955,
      "##~*~*~*~*": 4956,
      "▁restaurant": 4957,
      "##/25/2001": 4958,
      "▁cathol": 4959,
      "▁sem": 4960,
      "▁perform": 4961,
      "##ia": 4962,
      "▁>>": 4963,
      "▁helpful": 4964,
      "▁attacks": 4965,
      "##ws": 4966,
      "##ground": 4967,
      "▁suicide": 4968,
      "▁ways": 4969,
      "▁tec": 4970,
      "▁100": 4971,
      "▁relationship": 4972,
      "##own": 4973,
      "##atch": 4974,
      "▁particularly": 4975,
      "[MASK]": 4976,
      "▁202.456.1": 4977,
      "##ushing": 4978,
      "##ax": 4979,
      "▁1,": 4980,
      "▁created": 4981,
      "▁shoulder": 4982,
      "▁together": 4983,
      "▁daughter": 4984,
      "▁points": 4985,
      "▁225": 4986,
      "▁better": 4987,
      "▁recip": 4988,
      "▁978": 4989,
      "##ums": 4990,
      "▁trump": 4991,
      "▁staying": 4992,
      "ʒ": 4993,
      "▁motion": 4994,
      "▁rich": 4995,
      "▁hous": 4996,
      "▁german": 4997,
      "▁presence": 4998,
      "##q": 4999,
      "▁es": 5000,
      "▁heat": 5001,
      "##atic": 5002,
      "▁failure": 5003,
      "##rael": 5004,
      "▁skills": 5005,
      "▁hoc": 5006,
      "▁dinner": 5007,
      "##:25": 5008,
      "▁lean": 5009,
      "▁message": 5010,
      "▁apprec": 5011,
      "▁also": 5012,
      "▁2020": 5013,
      "▁collected": 5014,
      "##iration": 5015,
      "▁713/853": 5016,
      "▁knowledge": 5017,
      "▁bir": 5018,
      "▁cards": 5019,
      "▁47,500": 5020,
      "##fri": 5021,
      "▁senator": 5022,
      "▁style": 5023,
      "##静": 5024,
      "▁button": 5025,
      "▁wig": 5026,
      "v": 5027,
      "##ito": 5028,
      "\"": 5029,
      "▁constitu": 5030,
      "▁vide": 5031,
      "▁boo": 5032,
      "##olution": 5033,
      "▁morning": 5034,
      "##ike": 5035,
      "▁stone": 5036,
      "▁steve": 5037,
      "▁determine": 5038,
      "##.com/": 5039,
      "▁each": 5040,
      "##eech": 5041,
      "##arian": 5042,
      "▁40": 5043,
      "▁cycl": 5044,
      "▁295870": 5045,
      "▁proced": 5046,
      "▁recogn": 5047,
      "▁space": 5048,
      "▁egyptian": 5049,
      "œ": 5050,
      "##ivity": 5051,
      "▁loud": 5052,
      "▁circ": 5053,
      "▁spoken": 5054,
      "▁min": 5055,
      "▁t": 5056,
      "▁e": 5057,
      "▁los": 5058,
      "▁rabbit": 5059,
      "▁reasons": 5060,
      "▁21": 5061,
      "▁secret": 5062,
      "▁break": 5063,
      "▁legs": 5064,
      "▁932": 5065,
      "▁08/15": 5066,
      "##ional": 5067,
      "▁gets": 5068,
      "▁wide": 5069,
      "▁journal": 5070,
      "▁1-800": 5071,
      "##iro": 5072,
      "▁sav": 5073,
      "##iously": 5074,
      "▁rule": 5075,
      "▁independent": 5076,
      "▁cia": 5077,
      "▁coff": 5078,
      "☏": 5079,
      "▁socks": 5080,
      "▁those": 5081,
      "##wood": 5082,
      "##mail": 5083,
      "▁road": 5084,
      "##ft8-7": 5085,
      "▁lack": 5086,
      "##erve": 5087,
      "##ical": 5088,
      "▁written": 5089,
      "▁elephant": 5090,
      "▁ireland": 5091,
      "▁yester": 5092,
      "▁stren": 5093,
      "▁develop": 5094,
      "##.7": 5095,
      "▁cake": 5096,
      "▁hun": 5097,
      "▁2009": 5098,
      "##enth": 5099,
      "##ight": 5100,
      "▁r": 5101,
      "▁inform": 5102,
      "▁environ": 5103,
      "▁certain": 5104,
      "▁conv": 5105,
      "##sc": 5106,
      "▁grant": 5107,
      "▁bra": 5108,
      "##ore": 5109,
      "▁coffee": 5110,
      "▁tong": 5111,
      "▁smaller": 5112,
      "##o": 5113,
      "▁prev": 5114,
      "▁america": 5115,
      "%": 5116,
      "▁11,000": 5117,
      "##re": 5118,
      "▁clean": 5119,
      "##ز": 5120,
      "▁far": 5121,
      "▁advis": 5122,
      "##ument": 5123,
      "▁2:25": 5124,
      "##zac": 5125,
      "##ruct": 5126,
      "▁sign": 5127,
      "▁climate": 5128,
      "##989": 5129,
      "▁sixty": 5130,
      "##iri": 5131,
      "##7": 5132,
      "##!": 5133,
      "▁desk": 5134,
      "▁effort": 5135,
      "▁arg": 5136,
      "▁lo": 5137,
      "▁accepted": 5138,
      "▁'ve": 5139,
      "##arch": 5140,
      "▁1738": 5141,
      "##co": 5142,
      "▁asia": 5143,
      "##ices": 5144,
      "▁ach": 5145,
      "##ancy": 5146,
      "##ə": 5147,
      "▁713-654-128": 5148,
      "##bs": 5149,
      "▁opin": 5150,
      "##rain": 5151,
      "##:05": 5152,
      "▁03/2": 5153,
      "▁plans": 5154,
      "▁loves": 5155,
      "▁agric": 5156,
      ")": 5157,
      "▁201": 5158,
      "##anta": 5159,
      "▁3,202.61": 5160,
      "▁2.00": 5161,
      "▁confident": 5162,
      "▁individ": 5163,
      "##hip": 5164,
      "▁95": 5165,
      "▁park": 5166,
      "##der": 5167,
      "▁lines": 5168,
      "▁aust": 5169,
      "##/2005": 5170,
      "##fin": 5171,
      "##back": 5172,
      "▁1878": 5173,
      "▁jan": 5174,
      "▁deliver": 5175,
      "▁priority": 5176,
      "▁ret": 5177,
      "▁tape": 5178,
      "▁spec": 5179,
      "▁dangerous": 5180,
      "▁rose": 5181,
      "▁dur": 5182,
      "▁remark": 5183,
      "▁starts": 5184,
      "▁minneapolis": 5185,
      "▁via": 5186,
      "▁killed": 5187,
      "▁!!!!!!!!!!!!!!!!!!!": 5188,
      "▁exc": 5189,
      "“": 5190,
      "▁tulsa": 5191,
      "▁square": 5192,
      "▁appropri": 5193,
      "▁estimated": 5194,
      "▁94": 5195,
      "▁describ": 5196,
      "▁1/4": 5197,
      "▁belong": 5198,
      "##lackl": 5199,
      "##raft": 5200,
      "##ils": 5201,
      "▁8:15": 5202,
      "▁impro": 5203,
      "##✉": 5204,
      "▁heav": 5205,
      "▁etc": 5206,
      "▁ho": 5207,
      "▁cooperation": 5208,
      "▁555": 5209,
      "##raf": 5210,
      "##iking": 5211,
      "▁adopt": 5212,
      "##ces": 5213,
      "▁doubt": 5214,
      "##ied": 5215,
      "▁11:30": 5216,
      "##house": 5217,
      "▁1-800-991-90": 5218,
      "▁tired": 5219,
      "▁thy": 5220,
      "▁>": 5221,
      "▁increasing": 5222,
      "▁jumped": 5223,
      "▁made": 5224,
      "▁said": 5225,
      "##aling": 5226,
      "▁1960": 5227,
      "##ov": 5228,
      "▁approved": 5229,
      "▁skin": 5230,
      "##55": 5231,
      "▁august": 5232,
      "▁dre": 5233,
      "▁pepper": 5234,
      "##/17/2000": 5235,
      "▁rep": 5236,
      "▁......": 5237,
      "▁especially": 5238,
      "##ably": 5239,
      "▁vir": 5240,
      "##what": 5241,
      "▁nmemdrft8-7": 5242,
      "▁making": 5243,
      "▁charlotte": 5244,
      "##----": 5245,
      "ø": 5246,
      "▁besides": 5247,
      "▁off": 5248,
      "##ern": 5249,
      "##ص": 5250,
      "▁^_^": 5251,
      "▁scientology": 5252,
      "▁corner": 5253,
      "▁expectations": 5254,
      "▁markets": 5255,
      "▁5.5": 5256,
      "▁breaking": 5257,
      "▁bom": 5258,
      "▁tough": 5259,
      "##93": 5260,
      "▁laws": 5261,
      "c": 5262,
      "##w": 5263,
      "##ment": 5264,
      "▁11.5": 5265,
      "##leg": 5266,
      "▁jewish": 5267,
      "▁mun": 5268,
      "##---": 5269,
      "▁medicine": 5270,
      "▁uses": 5271,
      "▁frame": 5272,
      "▁stretch": 5273,
      "▁balzac": 5274,
      "##ired": 5275,
      "##lying": 5276,
      "▁quick": 5277,
      "##ys": 5278,
      "##inner": 5279,
      "▁waters": 5280,
      "▁102": 5281,
      "▁hello": 5282,
      "▁30,000": 5283,
      "▁imagine": 5284,
      "##odz": 5285,
      "##ne": 5286,
      "▁07": 5287,
      "##eng": 5288,
      "##7/2001": 5289,
      "▁2500": 5290,
      "▁painting": 5291,
      "▁cooking": 5292,
      "##employ": 5293,
      "▁none": 5294,
      "▁enter": 5295,
      "▁loose": 5296,
      "▁fam": 5297,
      "▁(:": 5298,
      "▁bub": 5299,
      "▁divers": 5300,
      "##gress": 5301,
      "##ke": 5302,
      "##atter": 5303,
      "▁fair": 5304,
      "▁01/24/2001": 5305,
      "▁destroy": 5306,
      "▁1700": 5307,
      "▁earli": 5308,
      "▁inside": 5309,
      "▁studying": 5310,
      "▁1160": 5311,
      "▁11:45": 5312,
      "▁sky": 5313,
      "▁expressed": 5314,
      "▁tonight": 5315,
      "▁goals": 5316,
      "▁'0": 5317,
      "▁11:07": 5318,
      "▁code": 5319,
      "▁civil": 5320,
      "##-415-": 5321,
      "▁questions": 5322,
      "▁kn": 5323,
      "▁kore": 5324,
      "▁appropriate": 5325,
      "▁hope": 5326,
      "▁whil": 5327,
      "▁method": 5328,
      "##ham": 5329,
      "▁dr": 5330,
      "##itable": 5331,
      "##æ": 5332,
      "##ists": 5333,
      "▁areas": 5334,
      "▁e.": 5335,
      "▁foods": 5336,
      "▁led": 5337,
      "▁cred": 5338,
      "▁iv": 5339,
      "▁salad": 5340,
      "▁gal": 5341,
      "##ris": 5342,
      "▁encabalgamiento": 5343,
      "▁pour": 5344,
      "▁2011": 5345,
      "▁couple": 5346,
      "▁shop": 5347,
      "▁tig": 5348,
      "▁160": 5349,
      "▁af": 5350,
      "▁kill": 5351,
      "##ove": 5352,
      "▁2002": 5353,
      "▁—": 5354,
      "▁shr": 5355,
      "##ining": 5356,
      "##zy": 5357,
      "▁marbles": 5358,
      "▁prime": 5359,
      "▁15,000": 5360,
      "▁aff": 5361,
      "##velopment": 5362,
      "▁marked": 5363,
      "▁passed": 5364,
      "▁mo": 5365,
      "▁ensure": 5366,
      "▁alloc": 5367,
      "▁mc": 5368,
      "▁thirty-five": 5369,
      "▁tickets": 5370,
      "▁05/25/2001": 5371,
      "▁camp": 5372,
      "##-b": 5373,
      "▁friendly": 5374,
      "司": 5375,
      "▁banks": 5376,
      "##ev": 5377,
      "▁spok": 5378,
      "▁mov": 5379,
      "▁14": 5380,
      "##isf": 5381,
      "▁hist": 5382,
      "▁experience": 5383,
      "▁somebody": 5384,
      "▁cruise": 5385,
      "##our": 5386,
      "##tte": 5387,
      "▁u.": 5388,
      "▁analysis_0712": 5389,
      "▁minutes": 5390,
      "▁snow": 5391,
      "##y@enron_development": 5392,
      "▁pilot": 5393,
      "▁addiction": 5394,
      "▁population": 5395,
      "▁sudden": 5396,
      "##ened": 5397,
      "▁lar": 5398,
      "▁continued": 5399,
      "▁stead": 5400,
      "▁800.713.8600": 5401,
      "▁bad": 5402,
      "▁definition": 5403,
      "▁fool": 5404,
      "▁ou": 5405,
      "##口": 5406,
      "▁univers": 5407,
      "▁angeles": 5408,
      "▁roman": 5409,
      "▁1892": 5410,
      "▁says": 5411,
      "##880": 5412,
      "##ife": 5413,
      "##ff": 5414,
      "▁buy": 5415,
      "▁lights": 5416,
      "##ement": 5417,
      "▁tomorrow": 5418,
      "##.621": 5419,
      "▁blood": 5420,
      "▁1561": 5421,
      "▁pray": 5422,
      "##????": 5423,
      "▁intel": 5424,
      "##pt": 5425,
      "▁intern": 5426,
      "▁files": 5427,
      "▁screen": 5428,
      "##oug": 5429,
      "▁90": 5430,
      "▁42": 5431,
      "▁christian": 5432,
      "▁element": 5433,
      "▁mach": 5434,
      "##-99": 5435,
      "▁princip": 5436,
      "▁92": 5437,
      "▁often": 5438,
      "▁def": 5439,
      "▁easy": 5440,
      "##ver": 5441,
      "▁rock": 5442,
      "##7/2000": 5443,
      "▁gro": 5444,
      "▁methods": 5445,
      "▁1947": 5446,
      "▁damage": 5447,
      "▁transaction": 5448,
      "▁safe": 5449,
      "##irl": 5450,
      "▁1-800-991-9019": 5451,
      "▁query": 5452,
      "▁dig": 5453,
      "##ya": 5454,
      "▁1937": 5455,
      "▁reason": 5456,
      "▁vodka": 5457,
      "▁strict": 5458,
      "▁202.456.1111": 5459,
      "▁brother": 5460,
      "##ik": 5461,
      "▁bl": 5462,
      "##.html": 5463,
      "▁512": 5464,
      "▁425": 5465,
      "##ats": 5466,
      "▁garage": 5467,
      "▁bal": 5468,
      "▁life": 5469,
      "▁track": 5470,
      "##on@enron": 5471,
      "▁5/18": 5472,
      "##ures": 5473,
      "▁angry": 5474,
      "▁50": 5475,
      "▁stage": 5476,
      "▁flu": 5477,
      "▁mirror": 5478,
      "▁**": 5479,
      "##ab": 5480,
      "##isl": 5481,
      "▁correct": 5482,
      "▁micro": 5483,
      "##]": 5484,
      "##ness": 5485,
      "##op": 5486,
      "##acter": 5487,
      "▁mu": 5488,
      "▁filled": 5489,
      "▁sym": 5490,
      "♥": 5491,
      "▁named": 5492,
      "▁beauveria": 5493,
      "▁1777": 5494,
      "▁original": 5495,
      "▁pair": 5496,
      "##/17/99": 5497,
      "▁of": 5498,
      "▁250": 5499,
      "##ately": 5500,
      "▁wrap": 5501,
      "##oph": 5502,
      "▁ans": 5503,
      "▁gordon": 5504,
      "##apes": 5505,
      "▁.2": 5506,
      "##raw": 5507,
      "##ric": 5508,
      "▁tacoma": 5509,
      "▁dose": 5510,
      "##ite": 5511,
      "▁shared": 5512,
      "▁:d": 5513,
      "▁note": 5514,
      "▁thought": 5515,
      "▁everything": 5516,
      "▁amongst": 5517,
      "▁nana": 5518,
      "▁08:30": 5519,
      "##:": 5520,
      "▁andy": 5521,
      "³": 5522,
      "##46": 5523,
      "##enda": 5524,
      "##st": 5525,
      "##iting": 5526,
      "▁send": 5527,
      "##orio": 5528,
      "▁danny": 5529,
      "##ceed": 5530,
      "▁crimin": 5531,
      "▁cognitive": 5532,
      "##72": 5533,
      "▁nail": 5534,
      "##ics": 5535,
      "▁built": 5536,
      "##587": 5537,
      "▁mem": 5538,
      "##½": 5539,
      "▁remembered": 5540,
      "##ast": 5541,
      "▁opening": 5542,
      "▁canadian": 5543,
      "▁cous": 5544,
      "▁unh": 5545,
      "▁walk": 5546,
      "##iped": 5547,
      "▁wentz": 5548,
      "▁skitt": 5549,
      "##$": 5550,
      "##aves": 5551,
      "##0295": 5552,
      "▁1875": 5553,
      "##60": 5554,
      "▁wiggle": 5555,
      "▁huma": 5556,
      "▁single": 5557,
      "##ird": 5558,
      "##1-": 5559,
      "▁surr": 5560,
      "▁cert": 5561,
      "▁warm": 5562,
      "##emic": 5563,
      "▁feels": 5564,
      "##ʊ": 5565,
      "▁entertain": 5566,
      "▁proposal": 5567,
      "▁res": 5568,
      "▁child": 5569,
      "▁rh": 5570,
      "##ar": 5571,
      "▁learned": 5572,
      "▁415.782.7822": 5573,
      "▁ky": 5574,
      "▁furniture": 5575,
      "##mo": 5576,
      "▁catholic": 5577,
      "▁h-0": 5578,
      "▁dad": 5579,
      "▁tre": 5580,
      "▁01": 5581,
      "▁1914": 5582,
      "▁wil": 5583,
      "##cles": 5584,
      "d": 5585,
      "##enron": 5586,
      "▁decisions": 5587,
      "▁lowest": 5588,
      "▁talks": 5589,
      "##iveness": 5590,
      "▁http://": 5591,
      "▁vi": 5592,
      "▁rol": 5593,
      "▁manuf": 5594,
      "##usal": 5595,
      "▁425-415-": 5596,
      "▁subsc": 5597,
      "▁03/08/2000": 5598,
      "▁korea": 5599,
      "##5-0": 5600,
      "▁costs": 5601,
      "▁1958": 5602,
      "▁somewhere": 5603,
      "▁pushed": 5604,
      "▁6,000": 5605,
      "▁betw": 5606,
      "▁7.2": 5607,
      "##cuz": 5608,
      "▁serves": 5609,
      "##ondon": 5610,
      "▁sac": 5611,
      "▁wear": 5612,
      "##ft": 5613,
      "##3-37": 5614,
      "##teboo": 5615,
      "##used": 5616,
      "▁1/8": 5617,
      "▁thom": 5618,
      "▁lead": 5619,
      "▁uv": 5620,
      "▁groups": 5621,
      "##ʁ": 5622,
      "▁dust": 5623,
      "##age": 5624,
      "▁+": 5625,
      "##aking": 5626,
      "▁730": 5627,
      "▁married": 5628,
      "##round": 5629,
      "##ifying": 5630,
      "▁dim": 5631,
      "##nic": 5632,
      "▁aug": 5633,
      "▁friday": 5634,
      "▁anthrax": 5635,
      "##ality": 5636,
      "▁2": 5637,
      "▁1765": 5638,
      "##-00": 5639,
      "##46-3393": 5640,
      "##96": 5641,
      "▁extent": 5642,
      "▁--": 5643,
      "▁creation": 5644,
      "▁agree": 5645,
      "▁pr": 5646,
      "##夏": 5647,
      "▁ticket": 5648,
      "▁2022": 5649,
      "##wh": 5650,
      "▁once": 5651,
      "▁quarter": 5652,
      "▁1847": 5653,
      "##wor": 5654,
      "▁suggests": 5655,
      "▁sell": 5656,
      "##icle": 5657,
      "▁visual": 5658,
      "▁ft": 5659,
      "##aper": 5660,
      "▁drink": 5661,
      "▁sick": 5662,
      "▁subst": 5663,
      "##ars": 5664,
      "##ards": 5665,
      "▁947": 5666,
      "▁trust": 5667,
      "▁vie": 5668,
      "##19": 5669,
      "##ether": 5670,
      "##mission": 5671,
      "▁ba": 5672,
      "▁emerg": 5673,
      "▁;)": 5674,
      "▁rang": 5675,
      "▁mouth": 5676,
      "▁driver": 5677,
      "##h-ris": 5678,
      "▁ny": 5679,
      "##om": 5680,
      "▁..........": 5681,
      "▁part": 5682,
      "▁changes": 5683,
      "▁cla": 5684,
      "##lymp": 5685,
      "▁started": 5686,
      "▁sites": 5687,
      "##aced": 5688,
      "▁shad": 5689,
      "▁ultim": 5690,
      "▁literature": 5691,
      "▁contin": 5692,
      "##stop": 5693,
      "▁refused": 5694,
      "▁mis": 5695,
      "▁thin": 5696,
      "##lim": 5697,
      "##bie": 5698,
      "▁order": 5699,
      "▁president": 5700,
      "▁alternative": 5701,
      "▁aware": 5702,
      "▁language": 5703,
      "▁initial": 5704,
      "▁overall": 5705,
      "▁closely": 5706,
      "▁denver": 5707,
      "▁bother": 5708,
      "▁portion": 5709,
      "▁god": 5710,
      "▁trying": 5711,
      "▁twenty-two": 5712,
      "▁m": 5713,
      "▁dozen": 5714,
      "##-)": 5715,
      "##ows": 5716,
      "▁dish": 5717,
      "▁focus": 5718,
      "##wich": 5719,
      "##º": 5720,
      "▁wonder": 5721,
      "▁11/27/2000": 5722,
      "▁blue": 5723,
      "▁urban": 5724,
      "##uation": 5725,
      "▁link": 5726,
      "▁buying": 5727,
      "/": 5728,
      "▁03:48": 5729,
      "##ipe": 5730,
      "▁muscles": 5731,
      "##istan": 5732,
      "##202": 5733,
      "▁driving": 5734,
      "▁attorn": 5735,
      "▁1599": 5736,
      "▁carefully": 5737,
      "▁philosoph": 5738,
      "▁stopped": 5739,
      "}": 5740,
      "▁120": 5741,
      "##3-": 5742,
      "▁doughnut": 5743,
      "##rast": 5744,
      "▁believe": 5745,
      "▁execut": 5746,
      "▁fundamental": 5747,
      "▁black": 5748,
      "▁petersburg": 5749,
      "▁bank": 5750,
      "▁serve": 5751,
      "▁employment": 5752,
      "##د": 5753,
      "▁test": 5754,
      "▁baking": 5755,
      "##fa": 5756,
      "##eld": 5757,
      "▁occasion": 5758,
      "▁cont": 5759,
      "##kins": 5760,
      "▁popcorn": 5761,
      "▁josh": 5762,
      "##wau": 5763,
      "##aged": 5764,
      "##.10": 5765,
      "▁fly": 5766,
      "▁difference": 5767,
      "▁1505": 5768,
      "##istics": 5769,
      "▁pill": 5770,
      "清": 5771,
      "▁database": 5772,
      "ρ": 5773,
      "▁ants": 5774,
      "▁1840": 5775,
      "▁afternoon": 5776,
      "##aur": 5777,
      "▁sex": 5778,
      "▁same": 5779,
      "▁mail": 5780,
      "▁1.3": 5781,
      "##3": 5782,
      "##和": 5783,
      "##verse": 5784,
      "▁welcome": 5785,
      "▁ladder": 5786,
      "▁cultural": 5787,
      "##selves": 5788,
      "▁cheap": 5789,
      "▁twentieth": 5790,
      "▁question": 5791,
      "▁.": 5792,
      "▁manager": 5793,
      "▁what": 5794,
      "##ults": 5795,
      "▁mer": 5796,
      "▁31": 5797,
      "▁capac": 5798,
      "▁delhi": 5799,
      "▁6.1": 5800,
      "▁russia": 5801,
      "▁bas": 5802,
      "▁cris": 5803,
      "▁crisis": 5804,
      "▁fourteen": 5805,
      "▁763736": 5806,
      "##ry": 5807,
      "▁aut": 5808,
      "##over": 5809,
      "▁museum": 5810,
      "▁1709": 5811,
      "▁bern": 5812,
      "&": 5813,
      "▁96": 5814,
      "▁jour": 5815,
      "▁goat": 5816,
      "▁gener": 5817,
      "##ted": 5818,
      "##ph": 5819,
      "▁alleged": 5820,
      "▁moreau": 5821,
      "##face": 5822,
      "##/01": 5823,
      "▁bird": 5824,
      "▁allowed": 5825,
      "▁1993": 5826,
      "##umer": 5827,
      "0": 5828,
      "##.70": 5829,
      "▁281-518": 5830,
      "▁eighteen": 5831,
      "▁corresp": 5832,
      "##.123": 5833,
      "##ams": 5834,
      "▁1859": 5835,
      "▁quart": 5836,
      "▁39": 5837,
      "▁320": 5838,
      "▁neighb": 5839,
      "▁elected": 5840,
      "▁development": 5841,
      "▁01/12/2001": 5842,
      "▁neg": 5843,
      "▁boots": 5844,
      "##σ": 5845,
      "▁excel": 5846,
      "##.0": 5847,
      "▁collection": 5848,
      "##huh": 5849,
      "▁dey": 5850,
      "▁waste": 5851,
      "##igned": 5852,
      "##bi": 5853,
      "▁watched": 5854,
      "▁twenty": 5855,
      "▁203": 5856,
      "##ier": 5857,
      "▁brush": 5858,
      "▁carrying": 5859,
      "▁02": 5860,
      "##ut": 5861,
      "##☎": 5862,
      "##etime": 5863,
      "##42": 5864,
      "##ms": 5865,
      "▁potential": 5866,
      "##gets": 5867,
      "▁pm": 5868,
      "▁05/17/99": 5869,
      "▁veg": 5870,
      "图": 5871,
      "▁4,": 5872,
      "▁d'": 5873,
      "##gh": 5874,
      "##lic": 5875,
      "▁encour": 5876,
      "▁finish": 5877,
      "▁rice@enron": 5878,
      "▁pull": 5879,
      "##ring": 5880,
      "▁2.0": 5881,
      "##ele": 5882,
      "##eur": 5883,
      "##igning": 5884,
      "##-ris": 5885,
      "##akk": 5886,
      "##lus": 5887,
      "▁410-468-3": 5888,
      "##eness": 5889,
      "▁bought": 5890,
      "▁grand": 5891,
      "▁sight": 5892,
      "▁convention": 5893,
      "▁shock": 5894,
      "▁cop": 5895,
      "▁phr": 5896,
      "▁hand": 5897,
      "##eth": 5898,
      "##iff": 5899,
      "▁stops": 5900,
      "▁bec": 5901,
      "▁desert": 5902,
      "▁pric": 5903,
      "##ies": 5904,
      "▁allow": 5905,
      "##work": 5906,
      "##isions": 5907,
      "▁declar": 5908,
      "▁putting": 5909,
      "##self": 5910,
      "£": 5911,
      "##7.77": 5912,
      "▁twist": 5913,
      "▁ut": 5914,
      "▁mist": 5915,
      "▁society": 5916,
      "▁purp": 5917,
      "▁ended": 5918,
      "▁put": 5919,
      "▁rubber": 5920,
      "▁tied": 5921,
      "▁flash": 5922,
      "▁01:39:56": 5923,
      "▁12:12": 5924,
      "▁weapon": 5925,
      "▁insurance": 5926,
      "##load": 5927,
      "▁normal": 5928,
      "##clusion": 5929,
      "▁gard": 5930,
      "##4/2000": 5931,
      "▁jason": 5932,
      "##ɔ": 5933,
      "▁200": 5934,
      "▁45": 5935,
      "h": 5936,
      "▁jeff": 5937,
      "##iar": 5938,
      "##bing": 5939,
      "##73": 5940,
      "▁secretary": 5941,
      "##_0": 5942,
      "▁fan": 5943,
      "▁rece": 5944,
      "▁qa": 5945,
      "##/13/2001": 5946,
      "▁arr": 5947,
      "▁leader": 5948,
      "▁_________________________________________________": 5949,
      "▁113": 5950,
      "▁whe": 5951,
      "▁army": 5952,
      "##osh": 5953,
      "▁near": 5954,
      "##ands": 5955,
      "##20-": 5956,
      "##:37": 5957,
      "▁arriving": 5958,
      "3": 5959,
      "▁fav": 5960,
      "▁summ": 5961,
      "▁long": 5962,
      "▁amid": 5963,
      "▁limit": 5964,
      "▁hanging": 5965,
      "▁prop": 5966,
      "##ium": 5967,
      "▁11:16": 5968,
      "▁notwithstand": 5969,
      "##49": 5970,
      "▁own": 5971,
      "##izations": 5972,
      "▁sea": 5973,
      "▁prem": 5974,
      "##ue": 5975,
      "▁congress": 5976,
      "▁terms": 5977,
      "▁08/16": 5978,
      "▁sustain": 5979,
      "##ql": 5980,
      "##mark": 5981,
      "▁×": 5982,
      "▁hamster": 5983,
      "▁getting": 5984,
      "▁att": 5985,
      "▁suit": 5986,
      "▁maj": 5987,
      "▁thanks": 5988,
      "##-696": 5989,
      "▁seriously": 5990,
      "▁b.": 5991,
      "▁declaration": 5992,
      "##83": 5993,
      "##ential": 5994,
      "▁nope": 5995,
      "▁fy": 5996,
      "▁23": 5997,
      "▁j": 5998,
      "##iger": 5999,
      "▁wrong": 6000,
      "##ien": 6001,
      "▁1805": 6002,
      "▁policies": 6003,
      "##du": 6004,
      "▁super": 6005,
      "▁caused": 6006,
      "▁phoenix": 6007,
      "▁11/0": 6008,
      "▁ch": 6009,
      "▁user": 6010,
      "##ʻ": 6011,
      "▁fields": 6012,
      "▁action": 6013,
      "▁employees": 6014,
      "▁€": 6015,
      "##ear": 6016,
      "▁=)": 6017,
      "▁09": 6018,
      "▁tam": 6019,
      "▁japanese": 6020,
      "##ange": 6021,
      "##trans": 6022,
      "▁coal": 6023,
      "▁forgot": 6024,
      "▁debra": 6025,
      "▁padaleck": 6026,
      "▁day": 6027,
      "##amp": 6028,
      "▁back": 6029,
      "▁live": 6030,
      "##min": 6031,
      "▁protection": 6032,
      "##a": 6033,
      "##eric": 6034,
      "▁@": 6035,
      "▁anal": 6036,
      "▁decide": 6037,
      "##ie": 6038,
      "▁runs": 6039,
      "▁applic": 6040,
      "▁francisco": 6041,
      "▁heard": 6042,
      "▁spirit": 6043,
      "▁feeling": 6044,
      "▁constitution": 6045,
      "▁trick": 6046,
      "▁lun": 6047,
      "▁1,200": 6048,
      "▁04:03": 6049,
      "▁-----": 6050,
      "▁susp": 6051,
      "##ep": 6052,
      "##anda": 6053,
      "▁assoc": 6054,
      "##9933": 6055,
      "▁brown": 6056,
      "##bage": 6057,
      "▁bunny": 6058,
      "▁mweta": 6059,
      "##nel": 6060,
      "▁cut": 6061,
      "▁wars": 6062,
      "##±": 6063,
      "▁whatever": 6064,
      "▁majority": 6065,
      "▁chairs": 6066,
      "▁remember": 6067,
      "▁airlines": 6068,
      "▁elections": 6069,
      "▁alike": 6070,
      "▁influence": 6071,
      "▁right": 6072,
      "▁1614": 6073,
      "▁fl": 6074,
      "##:5": 6075,
      "▁sept": 6076,
      "##76": 6077,
      "##@": 6078,
      "▁miami": 6079,
      "▁727": 6080,
      "##@enron_development": 6081,
      "▁placed": 6082,
      "##ht": 6083,
      "▁rent": 6084,
      "▁approximately": 6085,
      "▁>--------------------------------": 6086,
      "##ven": 6087,
      "▁padalecki": 6088,
      "▁lunch": 6089,
      "##443-37": 6090,
      "▁explan": 6091,
      "▁flowers": 6092,
      "▁egg": 6093,
      "▁;-)": 6094,
      "▁2012": 6095,
      "▁enfor": 6096,
      "##ine": 6097,
      "▁might": 6098,
      "##ami": 6099,
      "▁established": 6100,
      "▁wash": 6101,
      "▁tools": 6102,
      "▁ok": 6103,
      "▁sle": 6104,
      "▁ideas": 6105,
      "▁prepar": 6106,
      "▁supp": 6107,
      "##s.": 6108,
      "▁produce": 6109,
      "▁sa": 6110,
      "##ocent": 6111,
      "▁e.g.": 6112,
      "▁concerning": 6113,
      "##uck": 6114,
      "▁incre": 6115,
      "▁whenever": 6116,
      "▁until": 6117,
      "▁(a)": 6118,
      "▁dirty": 6119,
      "▁attract": 6120,
      "▁:)": 6121,
      "▁younger": 6122,
      "▁vacation": 6123,
      "▁1880": 6124,
      "##ese": 6125,
      "##700": 6126,
      "▁+1": 6127,
      "▁languages": 6128,
      "##ering": 6129,
      "–": 6130,
      "##ction": 6131,
      "##5-": 6132,
      "▁xsd": 6133,
      "▁67": 6134,
      "##amental": 6135,
      "▁’ll": 6136,
      "##ables": 6137,
      "##ution": 6138,
      "##..": 6139,
      "##rol": 6140,
      "▁companies": 6141,
      "▁rights": 6142,
      "##ship": 6143,
      "▁neighbor": 6144,
      "▁miles": 6145,
      "▁1783": 6146,
      "##iciency": 6147,
      "##ld": 6148,
      "##bal": 6149,
      "▁arrest": 6150,
      "##rax": 6151,
      "▁issues": 6152,
      "##band": 6153,
      "##au": 6154,
      "▁research": 6155,
      "##xt": 6156,
      "▁315-": 6157,
      "▁time": 6158,
      "▁viol": 6159,
      "▁estimate": 6160,
      "##ts": 6161,
      "▁week": 6162,
      "▁nature": 6163,
      "▁local": 6164,
      "▁regular": 6165,
      "▁corn": 6166,
      "▁rice": 6167,
      "##tch": 6168,
      "▁jud": 6169,
      "▁master": 6170,
      "▁anc": 6171,
      "##lebr": 6172,
      "▁summer": 6173,
      "##ory": 6174,
      "▁manage": 6175,
      "▁bed": 6176,
      "##takana": 6177,
      "▁consequ": 6178,
      "##neath": 6179,
      "##8-7": 6180,
      "▁basically": 6181,
      "▁reb": 6182,
      "▁1912": 6183,
      "▁tun": 6184,
      "▁bite": 6185,
      "▁'re": 6186,
      "##be": 6187,
      "##.net": 6188,
      "▁camel": 6189,
      "▁from": 6190,
      "▁frequently": 6191,
      "##ids": 6192,
      "▁416-8": 6193,
      "▁10/31": 6194,
      "▁edit": 6195,
      "##294-": 6196,
      "▁santa": 6197,
      "▁evening": 6198,
      "▁.?": 6199,
      "▁flag": 6200,
      "▁kent": 6201,
      "▁col": 6202,
      "▁litt": 6203,
      "▁swww": 6204,
      "▁open": 6205,
      "▁p": 6206,
      "##-6": 6207,
      "##++": 6208,
      "▁230": 6209,
      "▁2007": 6210,
      "##远": 6211,
      "##all": 6212,
      "▁wether": 6213,
      "▁predict": 6214,
      "▁confirm": 6215,
      "▁paris": 6216,
      "▁373": 6217,
      "▁cage": 6218,
      "▁177": 6219,
      "##gypt": 6220,
      "##rec": 6221,
      "▁sometime": 6222,
      "▁entit": 6223,
      "▁sy": 6224,
      "▁h": 6225,
      "▁either": 6226,
      "▁content": 6227,
      "▁property": 6228,
      "▁+++++": 6229,
      "##j": 6230,
      "##eton@ect": 6231,
      "▁pericles": 6232,
      "##right": 6233,
      "##.d": 6234,
      "▁smith": 6235,
      "▁shin": 6236,
      "▁20,000": 6237,
      "▁bus": 6238,
      "▁?!": 6239,
      "##like": 6240,
      "▁transfer": 6241,
      "▁chaos": 6242,
      "▁good": 6243,
      "##ared": 6244,
      "▁dance": 6245,
      "▁cond": 6246,
      "▁190": 6247,
      "##----------------": 6248,
      "▁scen": 6249,
      "##urt": 6250,
      "▁tent": 6251,
      "▁structures": 6252,
      "##amb": 6253,
      "##ware": 6254,
      "▁1": 6255,
      "##jam": 6256,
      "▁offices": 6257,
      "##司": 6258,
      "▁legislative": 6259,
      "▁immediate": 6260,
      "##com": 6261,
      "▁415.782": 6262,
      "##ake": 6263,
      "##ozer": 6264,
      "##ison": 6265,
      "▁memory": 6266,
      "▁tall": 6267,
      "▁sales": 6268,
      "##ablish": 6269,
      "▁cl": 6270,
      "▁reference": 6271,
      "▁bob": 6272,
      "##d": 6273,
      "##other": 6274,
      "▁inf": 6275,
      "▁holt": 6276,
      "##×": 6277,
      "▁cromer": 6278,
      "##--------+----------------": 6279,
      "▁responsibility": 6280,
      "▁ii": 6281,
      "▁anoder": 6282,
      "##bit": 6283,
      "▁tw": 6284,
      "▁provides": 6285,
      "▁inh": 6286,
      "▁knowled": 6287,
      "▁teams": 6288,
      "▁menu": 6289,
      "▁hol": 6290,
      "▁kev": 6291,
      "▁core": 6292,
      "▁!!!?": 6293,
      "##!!!!!!!!": 6294,
      "##ri": 6295,
      "▁elsewhere": 6296,
      "▁read": 6297,
      "▁1977": 6298,
      "▁print": 6299,
      "▁period": 6300,
      "▁08:50": 6301,
      "▁accept": 6302,
      "▁shar": 6303,
      "▁樋口": 6304,
      "▁begin": 6305,
      "▁fax": 6306,
      "▁willi": 6307,
      "▁pip": 6308,
      "▁yourself": 6309,
      "▁worried": 6310,
      "▁perf": 6311,
      "##ount": 6312,
      "##out": 6313,
      "▁funds": 6314,
      "▁interested": 6315,
      "▁experimental": 6316,
      "▁swing": 6317,
      "▁1972": 6318,
      "##cy": 6319,
      "▁could": 6320,
      "▁http://www.": 6321,
      "▁04/2": 6322,
      "▁sever": 6323,
      "▁ble": 6324,
      "▁intellig": 6325,
      "▁california": 6326,
      "##lect": 6327,
      "▁narr": 6328,
      "##2": 6329,
      "##ally": 6330,
      "▁lots": 6331,
      "▁becuse": 6332,
      "▁except": 6333,
      "##acio": 6334,
      "▁incred": 6335,
      "▁cost": 6336,
      "▁1589": 6337,
      "▁gr": 6338,
      "▁power": 6339,
      "▁white": 6340,
      "##eling": 6341,
      "▁meals": 6342,
      "▁tower": 6343,
      "##oman": 6344,
      "▁continue": 6345,
      "▁sol": 6346,
      "##eis": 6347,
      "▁nap": 6348,
      "##rod": 6349,
      "##entially": 6350,
      "##ul": 6351,
      "▁ground": 6352,
      "##ism": 6353,
      "▁mot": 6354,
      "▁distingu": 6355,
      "▁thousands": 6356,
      "▁jun": 6357,
      "##af": 6358,
      "##ustom": 6359,
      "▁epis": 6360,
      "▁char": 6361,
      "▁fle": 6362,
      "▁schol": 6363,
      "▁ob": 6364,
      "##omet": 6365,
      "▁paying": 6366,
      "##....": 6367,
      "▁duty": 6368,
      "▁accident": 6369,
      "##enron.com": 6370,
      "##*{": 6371,
      "##esday": 6372,
      "▁agents": 6373,
      "##lines": 6374,
      "##room": 6375,
      "▁ord": 6376,
      "▁05908549": 6377,
      "▁perdu": 6378,
      "##oons": 6379,
      "##------------": 6380,
      "▁starting": 6381,
      "▁52": 6382,
      "▁go": 6383,
      "▁crit": 6384,
      "]": 6385,
      "##pped": 6386,
      "▁not": 6387,
      "##rog": 6388,
      "▁occ": 6389,
      "##,000,000": 6390,
      "▁1871": 6391,
      "▁pres": 6392,
      "▁dise": 6393,
      "▁municip": 6394,
      "▁door": 6395,
      "▁ac": 6396,
      "▁kar": 6397,
      "▁larger": 6398,
      "▁active": 6399,
      "▁greater": 6400,
      "▁never": 6401,
      "▁1969": 6402,
      "▁44": 6403,
      "▁ire": 6404,
      "▁toy": 6405,
      "##just": 6406,
      "▁canada": 6407,
      "▁03:58": 6408,
      "▁2017": 6409,
      "▁weather": 6410,
      "▁170": 6411,
      "▁moved": 6412,
      "▁living": 6413,
      "▁unable": 6414,
      "▁qaeda": 6415,
      "▁rate": 6416,
      "▁1974": 6417,
      "##:27": 6418,
      "▁mixed": 6419,
      "▁orig": 6420,
      "##elt": 6421,
      "▁helped": 6422,
      "▁pleasure": 6423,
      "▁bike": 6424,
      "▁century": 6425,
      "##ce": 6426,
      "##etch": 6427,
      "▁vietnam": 6428,
      "##aging": 6429,
      "▁bid": 6430,
      "▁shape": 6431,
      "▁soon": 6432,
      "##f.doc": 6433,
      "▁notes": 6434,
      "##eed": 6435,
      "▁subsequ": 6436,
      "▁basil": 6437,
      "▁called": 6438,
      "▁ir": 6439,
      "##5th": 6440,
      "▁service": 6441,
      "▁famil": 6442,
      "▁capital": 6443,
      "▁election": 6444,
      "▁lys": 6445,
      "▁crow": 6446,
      "▁1696": 6447,
      "##:24": 6448,
      "##uals": 6449,
      "##ency": 6450,
      "##rees": 6451,
      "▁harry": 6452,
      "##.77": 6453,
      "▁acad": 6454,
      "##ots": 6455,
      "▁const": 6456,
      "▁independ": 6457,
      "▁xv": 6458,
      "▁speaking": 6459,
      "▁avail": 6460,
      "▁conflict": 6461,
      "▁2015": 6462,
      "▁debate": 6463,
      "##iture": 6464,
      "▁coup": 6465,
      "▁invol": 6466,
      "▁281-443-37": 6467,
      "▁wolves": 6468,
      "▁tractor": 6469,
      "▁pub": 6470,
      "▁prod": 6471,
      "##illion": 6472,
      "##:51": 6473,
      "▁see": 6474,
      "##iled": 6475,
      "▁treatment": 6476,
      "##enge": 6477,
      "##ise": 6478,
      "▁adjust": 6479,
      "##onto": 6480,
      "##rick": 6481,
      "▁1220": 6482,
      "##ood": 6483,
      "±": 6484,
      "▁360": 6485,
      "▁gh": 6486,
      "▁anyone": 6487,
      "▁programme": 6488,
      "▁...": 6489,
      "▁f": 6490,
      "▁sam": 6491,
      "▁testing": 6492,
      "##algamiento": 6493,
      "▁days": 6494,
      "##ka": 6495,
      "##isco": 6496,
      "▁nash": 6497,
      "▁london": 6498,
      "▁architect": 6499,
      "▁..": 6500,
      "▁target": 6501,
      "##ell": 6502,
      "##:32": 6503,
      "▁16.3": 6504,
      "##山": 6505,
      "▁whereby": 6506,
      "##clock": 6507,
      "▁tourists": 6508,
      "▁feet": 6509,
      "▁1836": 6510,
      "##ield": 6511,
      "▁map": 6512,
      "▁‘": 6513,
      "##or": 6514,
      "▁minus": 6515,
      "##\"": 6516,
      "▁ham": 6517,
      "▁1843": 6518,
      "▁complet": 6519,
      "▁added": 6520,
      "##hib": 6521,
      "▁bang": 6522,
      "##df": 6523,
      "▁differ": 6524,
      "##ological": 6525,
      "##-59": 6526,
      "##0010": 6527,
      "##la": 6528,
      "▁2016": 6529,
      "▁jim": 6530,
      "▁estim": 6531,
      "▁amount": 6532,
      "##ram": 6533,
      "##/16/2001": 6534,
      "▁matter": 6535,
      "▁anybody": 6536,
      "▁they": 6537,
      "▁congrat": 6538,
      "##atically": 6539,
      "▁term": 6540,
      "▁russian": 6541,
      "▁media": 6542,
      "▁excited": 6543,
      "▁expert": 6544,
      "▁reprod": 6545,
      "8": 6546,
      "▁behalf": 6547,
      "▁version": 6548,
      "▁2005": 6549,
      "##icip": 6550,
      "▁979": 6551,
      "##inews": 6552,
      "▁odd": 6553,
      "▁care": 6554,
      "▁currently": 6555,
      "##/8/00": 6556,
      "▁immediately": 6557,
      "▁improvement": 6558,
      "▁romantic": 6559,
      "▁providing": 6560,
      "▁immed": 6561,
      "▁served": 6562,
      "▁head": 6563,
      "▁repe": 6564,
      "▁unfortun": 6565,
      "▁shell": 6566,
      "▁jord": 6567,
      "▁months": 6568,
      "##ea": 6569,
      "##77": 6570,
      "[PAD]": 6571,
      "▁use": 6572,
      "▁operators": 6573,
      "▁bit": 6574,
      "##9999": 6575,
      "▁side": 6576,
      "▁9:30": 6577,
      "▁threw": 6578,
      "▁supplies": 6579,
      "▁install": 6580,
      "▁54": 6581,
      "▁cheek": 6582,
      "▁ke": 6583,
      "▁nest": 6584,
      "▁certainly": 6585,
      "##por": 6586,
      "##ific": 6587,
      "##:0": 6588,
      "▁hill": 6589,
      "▁900": 6590,
      "▁20.doc": 6591,
      "▁air": 6592,
      "▁cons": 6593,
      "##:28": 6594,
      "▁claimed": 6595,
      "ه": 6596,
      "▁405": 6597,
      "##craft": 6598,
      "▁hav": 6599,
      "##oon": 6600,
      "▁12,000": 6601,
      "▁holding": 6602,
      "▁relax": 6603,
      "▁510": 6604,
      "▁versus": 6605,
      "▁pal": 6606,
      "##uce": 6607,
      "▁ga": 6608,
      "▁anti-": 6609,
      "▁repl": 6610,
      "▁opportunities": 6611,
      "##oot": 6612,
      "▁713/8": 6613,
      "▁maint": 6614,
      "▁...................": 6615,
      "▁response": 6616,
      "▁vers": 6617,
      "▁gu": 6618,
      "##asks": 6619,
      "##ρ": 6620,
      "##ecess": 6621,
      "▁ourselves": 6622,
      "##tering": 6623,
      "▁rules": 6624,
      "▁thir": 6625,
      ">": 6626,
      "▁goods": 6627,
      "▁straw": 6628,
      "▁cart": 6629,
      "▁cigarette": 6630,
      "▁digital": 6631,
      "▁participation": 6632,
      "▁disco": 6633,
      "▁review": 6634,
      "▁l'": 6635,
      "▁future": 6636,
      "▁displ": 6637,
      "▁edge": 6638,
      "▁instruct": 6639,
      "▁wedding": 6640,
      "▁status": 6641,
      "##oices": 6642,
      "▁cit": 6643,
      "##arily": 6644,
      "##qu": 6645,
      "▁asian": 6646,
      "▁713-6": 6647,
      "▁gi": 6648,
      "##32": 6649,
      "##lig": 6650,
      "##.5": 6651,
      "▁dollar": 6652,
      "##ch": 6653,
      "▁village": 6654,
      "▁advice": 6655,
      "##inct": 6656,
      "▁reserve": 6657,
      "▁specifically": 6658,
      "##uit": 6659,
      "▁teen": 6660,
      "▁lat": 6661,
      "▁customer": 6662,
      "▁oblig": 6663,
      "▁z": 6664,
      "▁failed": 6665,
      "▁somet": 6666,
      "##-780": 6667,
      "▁1877": 6668,
      "▁govern": 6669,
      "▁housing": 6670,
      "▁structure": 6671,
      "[CLS]": 6672,
      "▁plat": 6673,
      "▁yer": 6674,
      "▁pach": 6675,
      "▁lord": 6676,
      "▁definitely": 6677,
      "▁saturday": 6678,
      "▁8": 6679,
      "▁+++": 6680,
      "▁trash": 6681,
      "▁cuz": 6682,
      "▁183": 6683,
      "▁strateg": 6684,
      "▁6:00": 6685,
      "##98": 6686,
      "▁1980": 6687,
      "▁leading": 6688,
      "##/97": 6689,
      "▁53": 6690,
      "▁empty": 6691,
      "##och": 6692,
      "▁tour": 6693,
      "##on": 6694,
      "▁814014": 6695,
      "##ach": 6696,
      "▁beat": 6697,
      "▁beliefs": 6698,
      "▁straight": 6699,
      "▁pri": 6700,
      "▁shown": 6701,
      "▁prom": 6702,
      "▁generation": 6703,
      "▁to": 6704,
      "##arraf": 6705,
      "▁included": 6706,
      "▁how": 6707,
      "▁hund": 6708,
      "▁chapter": 6709,
      "##ibald": 6710,
      "▁713-853": 6711,
      "▁cloth": 6712,
      "▁cream": 6713,
      "##ask": 6714,
      "▁lip": 6715,
      "▁magic": 6716,
      "##and": 6717,
      "▁value": 6718,
      "▁mama": 6719,
      "▁pillow": 6720,
      "▁fantastic": 6721,
      "▁hen": 6722,
      "▁four": 6723,
      "##atives": 6724,
      "▁059085": 6725,
      "▁mount": 6726,
      "▁performance": 6727,
      "##ced": 6728,
      "▁situation": 6729,
      "▁england": 6730,
      "##:23": 6731,
      "▁su": 6732,
      "▁independence": 6733,
      "##rem": 6734,
      "▁kh": 6735,
      "##@enron_de": 6736,
      "▁tea": 6737,
      "▁anglo": 6738,
      "▁anyway": 6739,
      "##:58": 6740,
      "▁wel": 6741,
      "▁broke": 6742,
      "▁programs": 6743,
      "▁doing": 6744,
      "▁guy": 6745,
      "▁morality": 6746,
      "▁sandwich": 6747,
      "##og": 6748,
      "▁bac": 6749,
      "▁hou": 6750,
      "▁lives": 6751,
      "▁je": 6752,
      "▁ru": 6753,
      "▁across": 6754,
      "##gl": 6755,
      "▁enjoy": 6756,
      "▁contact": 6757,
      "##ers": 6758,
      "▁church": 6759,
      "##oe": 6760,
      "▁english": 6761,
      "▁naima": 6762,
      "▁one": 6763,
      "▁field": 6764,
      "##ipped": 6765,
      "▁graduate": 6766,
      "##oses": 6767,
      "▁uk": 6768,
      "▁photograph": 6769,
      "▁arrang": 6770,
      "▁alt.": 6771,
      "▁it": 6772,
      "▁geograph": 6773,
      "##ago": 6774,
      "##more": 6775,
      "▁size": 6776,
      "▁mix": 6777,
      "##ain": 6778,
      "▁430": 6779,
      "▁our": 6780,
      "▁ltte": 6781,
      "##ique": 6782,
      "▁result": 6783,
      "▁are": 6784,
      "▁appoint": 6785,
      "▁sir": 6786,
      "▁arm": 6787,
      "▁perfectly": 6788,
      "▁goal": 6789,
      "##ana": 6790,
      "▁chick": 6791,
      "▁11-20-2000": 6792,
      "▁credit": 6793,
      "▁domain": 6794,
      "▁ste": 6795,
      "▁montreal": 6796,
      "▁shoes": 6797,
      "##58": 6798,
      "▁1910": 6799,
      "##anger": 6800,
      "(": 6801,
      "▁entitled": 6802,
      "▁wilson": 6803,
      "##enced": 6804,
      "▁passing": 6805,
      "l": 6806,
      "##<": 6807,
      "##acy": 6808,
      "▁flow": 6809,
      "##eal": 6810,
      "▁-fin": 6811,
      "▁express": 6812,
      "▁10/20/2000": 6813,
      "##393": 6814,
      "▁bottles": 6815,
      "▁adults": 6816,
      "##ivia": 6817,
      "##ents": 6818,
      "▁75": 6819,
      "▁depart": 6820,
      "▁ancient": 6821,
      "b": 6822,
      "▁forced": 6823,
      "▁vice": 6824,
      "▁800-553-3119": 6825,
      "▁====================================================": 6826,
      "▁345-3436": 6827,
      "▁70": 6828,
      "##erg": 6829,
      "##ments": 6830,
      "##orum": 6831,
      "▁re-": 6832,
      "▁clos": 6833,
      "▁1790": 6834,
      "▁drag": 6835,
      "▁.......": 6836,
      "▁imm": 6837,
      "▁....": 6838,
      "▁using": 6839,
      "▁distrib": 6840,
      "##alam": 6841,
      "##ma": 6842,
      "##/00": 6843,
      "##gg": 6844,
      "##,7": 6845,
      "▁fem": 6846,
      "▁mir": 6847,
      "▁fing": 6848,
      "##phone": 6849,
      "▁arrived": 6850,
      "▁experiment": 6851,
      "▁hum": 6852,
      "▁termin": 6853,
      "▁zealand": 6854,
      "▁filter": 6855,
      "▁1932": 6856,
      "▁industrial": 6857,
      "##elly": 6858,
      "▁10:5": 6859,
      "▁gave": 6860,
      "##古": 6861,
      "##porary": 6862,
      "##mm": 6863,
      "##ek": 6864,
      "##olog": 6865,
      "▁floor": 6866,
      "▁held": 6867,
      "▁means": 6868,
      "▁ren": 6869,
      "▁answ": 6870,
      "▁seemed": 6871,
      "远": 6872,
      "▁7.3": 6873,
      "▁03/15/2001": 6874,
      "▁13": 6875,
      "▁facts": 6876,
      "##,600": 6877,
      "##ured": 6878,
      "▁face": 6879,
      "##fore": 6880,
      "▁transportation": 6881,
      "##029": 6882,
      "##ild": 6883,
      "▁pointed": 6884,
      "▁library": 6885,
      "▁fi": 6886,
      "##town": 6887,
      "▁tog": 6888,
      "▁assess": 6889,
      "▁council": 6890,
      "##bow": 6891,
      "▁whi": 6892,
      "▁separ": 6893,
      "▁ten": 6894,
      "▁beh": 6895,
      "##ses": 6896,
      "##♥": 6897,
      "##zai": 6898,
      "▁alone": 6899,
      "▁papers": 6900,
      "▁pocket": 6901,
      "##iders": 6902,
      "▁til": 6903,
      "▁unlike": 6904,
      "▁?": 6905,
      "▁close": 6906,
      "▁2004": 6907,
      "##lers": 6908,
      "▁resident": 6909,
      "▁behav": 6910,
      "##ene": 6911,
      "▁context": 6912,
      "##ic": 6913,
      "##yond": 6914,
      "▁challenges": 6915,
      "▁repair": 6916,
      "▁thinks": 6917,
      "▁modern": 6918,
      "▁front": 6919,
      "▁som": 6920,
      "▁balls": 6921,
      "▁coord": 6922,
      "##urday": 6923,
      "##enes": 6924,
      "▁ninth": 6925,
      "▁me": 6926,
      "▁1846": 6927,
      "▁6.2.1": 6928,
      "▁9": 6929,
      "##owled": 6930,
      "▁pie": 6931,
      "▁possess": 6932,
      "▁common": 6933,
      "▁tick": 6934,
      "▁visit": 6935,
      "▁10:46": 6936,
      "##im": 6937,
      "##osition": 6938,
      "▁afraid": 6939,
      "▁answer": 6940,
      "##inated": 6941,
      "▁social": 6942,
      "##astic": 6943,
      "▁vietn": 6944,
      "▁harmon": 6945,
      "##.8317": 6946,
      "▁understand": 6947,
      "▁rail": 6948,
      "▁lake": 6949,
      "▁val": 6950,
      "▁june": 6951,
      "##oice": 6952,
      "▁reasonable": 6953,
      "▁hoo": 6954,
      "##gle": 6955,
      "▁asleep": 6956,
      "▁international": 6957,
      "▁economy": 6958,
      "▁680": 6959,
      "山": 6960,
      "▁few": 6961,
      "▁butter": 6962,
      "▁bin": 6963,
      "▁cinc": 6964,
      "▁com": 6965,
      "▁plane": 6966,
      "▁warhol": 6967,
      "▁cheese": 6968,
      "▁potty": 6969,
      "▁ever": 6970,
      "▁%": 6971,
      "▁1990": 6972,
      "▁other": 6973,
      "▁take": 6974,
      "▁nt": 6975,
      "▁dear": 6976,
      "▁fore": 6977,
      "##rupt": 6978,
      "▁motor": 6979,
      "▁touch": 6980,
      "##**": 6981,
      "▁pig": 6982,
      "▁danger": 6983,
      "▁forty-one": 6984,
      "##6021": 6985,
      "▁workers": 6986,
      "▁human": 6987,
      "▁fif": 6988,
      "##orn": 6989,
      "▁seat": 6990,
      "▁port": 6991,
      "##~": 6992,
      "▁mh": 6993,
      "##iation": 6994,
      "▁disapp": 6995,
      "▁houses": 6996,
      "##ero": 6997,
      "##ulating": 6998,
      "##ond": 6999,
      "▁personally": 7000,
      "▁alt.animals": 7001,
      "▁.........": 7002,
      "▁metro": 7003,
      "▁gather": 7004,
      "6": 7005,
      "##ow": 7006,
      "▁missing": 7007,
      "▁notwith": 7008,
      "##:29": 7009,
      "▁winter": 7010,
      "▁713-793-": 7011,
      "▁pul": 7012,
      "##ti": 7013,
      "▁galois": 7014,
      "▁balance": 7015,
      "##ano": 7016,
      "▁turn": 7017,
      "w": 7018,
      "▁strongly": 7019,
      "▁825": 7020,
      "##81": 7021,
      "▁youn": 7022,
      "▁gross": 7023,
      "▁165": 7024,
      "▁nam": 7025,
      "##bert": 7026,
      "##ered": 7027,
      "▁nurs": 7028,
      "##ember": 7029,
      "##glo": 7030,
      "##ouble": 7031,
      "▁********************************": 7032,
      "▁inn": 7033,
      "▁calm": 7034,
      "▁milwau": 7035,
      "▁recommended": 7036,
      "▁visitors": 7037,
      "##iate": 7038,
      "##ones": 7039,
      "▁efforts": 7040,
      "▁launch": 7041,
      "▁nervous": 7042,
      "##ube": 7043,
      "##0-3": 7044,
      "##yr": 7045,
      "▁101": 7046,
      "▁000010": 7047,
      "##£": 7048,
      "▁nerv": 7049,
      "▁spider": 7050,
      "▁1984": 7051,
      "▁09/15": 7052,
      "##ert": 7053,
      "▁nand": 7054,
      "▁21,000": 7055,
      "##ston": 7056,
      "##ronic": 7057,
      "▁imag": 7058,
      "##435-": 7059,
      "▁johnson": 7060,
      "▁switch": 7061,
      "##ned": 7062,
      "▁ol": 7063,
      "▁completely": 7064,
      "▁73": 7065,
      "▁16.379": 7066,
      "##erv": 7067,
      "▁numbers": 7068,
      "▁actual": 7069,
      "▁multiple": 7070,
      "▁airfare": 7071,
      "▁63": 7072,
      "##mony": 7073,
      "▁rolling": 7074,
      "▁discover": 7075,
      "▁vill": 7076,
      "▁untill": 7077,
      "▁08/15/2000": 7078,
      "▁sin": 7079,
      "##ping": 7080,
      "##-20": 7081,
      "▁priced": 7082,
      "##animals": 7083,
      "##_": 7084,
      "▁house": 7085,
      "▁non-": 7086,
      "##le": 7087,
      "▁mag": 7088,
      "▁944": 7089,
      "##.831": 7090,
      "##est": 7091,
      "▁tax": 7092,
      "▁exhib": 7093,
      "##ral": 7094,
      "▁832.676": 7095,
      "▁sim": 7096,
      "▁classical": 7097,
      "##518": 7098,
      "##++++": 7099,
      "▁commission": 7100,
      "▁beer": 7101,
      "▁01810": 7102,
      "▁likely": 7103,
      "###": 7104,
      "▁finding": 7105,
      "##stick": 7106,
      "▁info": 7107,
      "▁within": 7108,
      "▁central": 7109,
      "##nondelibreat": 7110,
      "▁writer": 7111,
      "▁global": 7112,
      "▁correspond": 7113,
      "▁seen": 7114,
      "▁university": 7115,
      "##:42": 7116,
      "▁hey": 7117,
      "▁720": 7118,
      "▁comed": 7119,
      "▁prices": 7120,
      "##☏": 7121,
      "##sm": 7122,
      "▁per": 7123,
      "##ashion": 7124,
      "##aped": 7125,
      "##2/2001": 7126,
      "▁sun": 7127,
      "▁situ": 7128,
      "##rif": 7129,
      "##iced": 7130,
      "▁movies": 7131,
      "▁mic": 7132,
      "##5/2001": 7133,
      "##icycle": 7134,
      "▁interp": 7135,
      "~": 7136,
      "▁plays": 7137,
      "·": 7138,
      "##/11": 7139,
      "▁269": 7140,
      "##2.doc": 7141,
      "##ald": 7142,
      "▁’ve": 7143,
      "▁sides": 7144,
      "##mine": 7145,
      "▁mur": 7146,
      "▁emerging": 7147,
      "▁toward": 7148,
      "▁onto": 7149,
      "##ف": 7150,
      "▁daniel": 7151,
      "##ign": 7152,
      "##rin": 7153,
      "▁rather": 7154,
      "▁copy": 7155,
      "▁tenn": 7156,
      "▁corpor": 7157,
      "▁south": 7158,
      "▁stop": 7159,
      "▁citizens": 7160,
      "##aiss": 7161,
      "▁00": 7162,
      "##ø": 7163,
      "##eda": 7164,
      "##esh": 7165,
      "▁505-625-8031": 7166,
      "##v": 7167,
      "▁items": 7168,
      "▁file": 7169,
      "##ift": 7170,
      "##ester": 7171,
      "##und": 7172,
      "##utely": 7173,
      "##nd": 7174,
      "##61": 7175,
      "##gin": 7176,
      "▁narrow": 7177,
      "▁09:45": 7178,
      "▁processes": 7179,
      "▁43": 7180,
      "##epend": 7181,
      "▁adult": 7182,
      "▁silence": 7183,
      "q": 7184,
      "▁building": 7185,
      "▁class": 7186,
      "▁covered": 7187,
      "##ter": 7188,
      "##ose": 7189,
      "▁fift": 7190,
      "▁uhhuh": 7191,
      "▁energy": 7192,
      "▁opp": 7193,
      "▁early": 7194,
      "##rated": 7195,
      "▁there": 7196,
      "▁lived": 7197,
      "▁security": 7198,
      "▁respond": 7199,
      "▁keeping": 7200,
      "▁nic": 7201,
      "##810": 7202,
      "▁puts": 7203,
      "▁project": 7204,
      "##φ": 7205,
      "▁internet": 7206,
      "##-1": 7207,
      "▁resc": 7208,
      "##erved": 7209,
      "▁return": 7210,
      "▁words": 7211,
      "▁cupc": 7212,
      "▁michael": 7213,
      "▁ther": 7214,
      "▁affair": 7215,
      "▁possibly": 7216,
      "##1.": 7217,
      "▁market": 7218,
      "▁choose": 7219,
      "##ience": 7220,
      "▁campaign": 7221,
      "▁08/16/2000": 7222,
      "##-ked": 7223,
      "▁afghan": 7224,
      "##ous": 7225,
      "##ected": 7226,
      "▁ingredients": 7227,
      "##ender": 7228,
      "▁1966": 7229,
      "▁closed": 7230,
      "▁969": 7231,
      "▁iran": 7232,
      "##/1": 7233,
      "▁assemb": 7234,
      "▁know": 7235,
      "▁_____": 7236,
      "▁gent": 7237,
      "▁positive": 7238,
      "▁rad": 7239,
      "##rans": 7240,
      "▁major": 7241,
      "▁if": 7242,
      "▁28": 7243,
      "▁http": 7244,
      "##ح": 7245,
      "▁song": 7246,
      "##ure": 7247,
      "##estic": 7248,
      "”": 7249,
      "##pl": 7250,
      "##wa": 7251,
      "▁☏": 7252,
      "▁area": 7253,
      "▁answered": 7254,
      "▁hea": 7255,
      "▁stated": 7256,
      "▁fur": 7257,
      "▁professor": 7258,
      "▁late": 7259,
      "▁tradition": 7260,
      "##mber": 7261,
      "##ن": 7262,
      "▁purs": 7263,
      "σ": 7264,
      "▁hair": 7265,
      "▁flood": 7266,
      "▁29": 7267,
      "##­": 7268,
      "▁multip": 7269,
      "##ified": 7270,
      "▁discuss": 7271,
      "##isation": 7272,
      "▁years": 7273,
      "▁sql": 7274,
      "▁jose": 7275,
      "▁nat": 7276,
      "▁card": 7277,
      "▁creat": 7278,
      "▁1841": 7279,
      "##ayed": 7280,
      "▁daddy": 7281,
      "▁db": 7282,
      "▁infrast": 7283,
      "▁unless": 7284,
      "▁happens": 7285,
      "##ribe": 7286,
      "##ker": 7287,
      "▁q": 7288,
      "▁416-865-370": 7289,
      "▁happy": 7290,
      "▁conversation": 7291,
      "##.863": 7292,
      "##:15": 7293,
      "▁committee": 7294,
      "▁planet": 7295,
      "▁analysis": 7296,
      "▁12:3": 7297,
      "▁zawahiri": 7298,
      "##byl": 7299,
      "▁view": 7300,
      "▁instance": 7301,
      "▁save": 7302,
      "▁flavor": 7303,
      "▁chance": 7304,
      "’": 7305,
      "▁diplom": 7306,
      "##e.": 7307,
      "▁very": 7308,
      "▁1978": 7309,
      "▁concerns": 7310,
      "##ving": 7311,
      "##'": 7312,
      "▁initi": 7313,
      "▁dudley": 7314,
      "##ased": 7315,
      "▁dyn": 7316,
      "▁03/0": 7317,
      "▁eth": 7318,
      "▁2013": 7319,
      "▁unto": 7320,
      "°": 7321,
      "▁confl": 7322,
      "▁determined": 7323,
      "##od": 7324,
      "▁hop": 7325,
      "##era": 7326,
      "▁ansi-": 7327,
      "##6-8": 7328,
      "▁would": 7329,
      "▁women": 7330,
      "##is_0712": 7331,
      "▁flower": 7332,
      "▁bun": 7333,
      "▁afford": 7334,
      "▁wanted": 7335,
      "##ouse": 7336,
      "##:52": 7337,
      "▁process": 7338,
      "▁commissioner": 7339,
      "▁internal": 7340,
      "▁store": 7341,
      "##haps": 7342,
      "##is_0": 7343,
      "▁disc": 7344,
      "▁prove": 7345,
      "▁noted": 7346,
      "▁explor": 7347,
      "##ron": 7348,
      "▁plac": 7349,
      "▁senate": 7350,
      "▁ris": 7351,
      "▁cult": 7352,
      "▁home": 7353,
      "▁l": 7354,
      "▁kinda": 7355,
      "▁747": 7356,
      "##ling": 7357,
      "▁*": 7358,
      "▁blanket": 7359,
      "▁seating": 7360,
      "▁planning": 7361,
      "▁favour": 7362,
      "▁milwaukee": 7363,
      "▁author": 7364,
      "▁actually": 7365,
      "▁89": 7366,
      "▁percentage": 7367,
      "##drft8-7": 7368,
      "▁surprising": 7369,
      "##cc": 7370,
      "▁payment": 7371,
      "##0s": 7372,
      "▁bulb": 7373,
      "▁united": 7374,
      "##burg": 7375,
      "▁circle": 7376,
      "▁06/01/2001": 7377,
      "▁urs": 7378,
      "▁cute": 7379,
      "##80": 7380,
      "##teen": 7381,
      "##ternal": 7382,
      "##antic": 7383,
      "▁recently": 7384,
      "▁writing": 7385,
      "▁who": 7386,
      "▁numerous": 7387,
      "##ogn": 7388,
      "##ton": 7389,
      "▁really": 7390,
      "##71": 7391,
      "##da": 7392,
      "##ublic": 7393,
      "▁study": 7394,
      "▁1610": 7395,
      "▁29587": 7396,
      "▁upper": 7397,
      "▁+44": 7398,
      "▁practice": 7399,
      "▁1701": 7400,
      "▁line": 7401,
      "##ps": 7402,
      "▁members": 7403,
      "▁award": 7404,
      "▁ll": 7405,
      "##iddle": 7406,
      "▁dar": 7407,
      "▁trip": 7408,
      "▁72": 7409,
      "▁spac": 7410,
      "##.m": 7411,
      "##ran": 7412,
      "▁atl": 7413,
      "▁376": 7414,
      "▁focused": 7415,
      "▁number": 7416,
      "▁bow": 7417,
      "▁1588": 7418,
      "▁studied": 7419,
      "▁travel": 7420,
      "##'re": 7421,
      "##aman": 7422,
      "▁lies": 7423,
      "▁pages": 7424,
      "▁journ": 7425,
      "▁video": 7426,
      "##’t": 7427,
      "▁proble": 7428,
      "##sem": 7429,
      "##itive": 7430,
      "##c)": 7431,
      "▁oz": 7432,
      "▁taste": 7433,
      "▁usd": 7434,
      "▁electricity": 7435,
      "▁consumption": 7436,
      "▁-stip": 7437,
      "▁uhoh": 7438,
      "▁joint": 7439,
      "▁159": 7440,
      "▁oakland": 7441,
      "▁l2": 7442,
      "▁devil": 7443,
      "▁necessary": 7444,
      "▁easily": 7445,
      "##99": 7446,
      "▁done": 7447,
      "##oub": 7448,
      "▁grandm": 7449,
      "▁120,000": 7450,
      "##201": 7451,
      "▁contemporary": 7452,
      "▁surger": 7453,
      "▁11:35": 7454,
      "▁attempt": 7455,
      "##004": 7456,
      "▁bi": 7457,
      "▁increase": 7458,
      "▁spoon": 7459,
      "▁access": 7460,
      "▁lingu": 7461,
      "▁202.456.1414": 7462,
      "▁tal": 7463,
      "▁2050": 7464,
      "##veria": 7465,
      "▁sty": 7466,
      "##m": 7467,
      "▁terror": 7468,
      "▁shows": 7469,
      "▁sec": 7470,
      "▁07/17/2000": 7471,
      "▁2021": 7472,
      "▁facilities": 7473,
      "##ot": 7474,
      "▁kick": 7475,
      "▁weapons": 7476,
      "▁1754": 7477,
      "▁pretty": 7478,
      "▁paint": 7479,
      "▁ict": 7480,
      "▁748": 7481,
      "▁850": 7482,
      "▁job": 7483,
      "▁surrounded": 7484,
      "##a)": 7485,
      "▁61": 7486,
      "▁gul": 7487,
      "▁attended": 7488,
      "▁organ": 7489,
      "▁choice": 7490,
      "▁rain": 7491,
      "##lish": 7492,
      "▁festival": 7493,
      "▁histor": 7494,
      "##ided": 7495,
      "##66": 7496,
      "▁6.00": 7497,
      "▁particip": 7498,
      "▁2,000": 7499,
      "▁lawy": 7500,
      "▁num": 7501,
      "▁strength": 7502,
      "▁symp": 7503,
      "▁invited": 7504,
      "▁impress": 7505,
      "##ized": 7506,
      "▁enron": 7507,
      "##.n": 7508,
      "▁athens": 7509,
      "▁wait": 7510,
      "##-h": 7511,
      "##==============================================": 7512,
      "##oni": 7513,
      "##attle": 7514,
      "▁small": 7515,
      "▁saving": 7516,
      "##:16": 7517,
      "▁bur": 7518,
      "▁713-79": 7519,
      "▁1.1": 7520,
      "▁02/2": 7521,
      "##idence": 7522,
      "▁rug": 7523,
      "r": 7524,
      "▁knock": 7525,
      "▁among": 7526,
      "##ael": 7527,
      "▁short": 7528,
      "##.30": 7529,
      "▁supper": 7530,
      "##itions": 7531,
      "▁eas": 7532,
      "▁soc": 7533,
      "▁713-853-": 7534,
      "▁listening": 7535,
      "##33": 7536,
      "##ɑ": 7537,
      "##een": 7538,
      "▁object": 7539,
      "▁objects": 7540,
      "##-20-": 7541,
      "▁sixteen": 7542,
      "##one": 7543,
      "▁while": 7544,
      "▁2.3": 7545,
      "▁knife": 7546,
      "▁713.8": 7547,
      "▁afgh": 7548,
      "##tail": 7549,
      "##澹": 7550,
      "▁please": 7551,
      "▁italian": 7552,
      "##867": 7553,
      "▁1613": 7554,
      "▁joy": 7555,
      "▁281-435-": 7556,
      "##ation": 7557,
      "▁convers": 7558,
      "##ride": 7559,
      "##ache": 7560,
      "▁tables": 7561,
      "▁faith": 7562,
      "▁extra": 7563,
      "▁facebook": 7564,
      "▁fruit": 7565,
      "▁rescue": 7566,
      "▁worth": 7567,
      "▁legit": 7568,
      "▁migr": 7569,
      "##omen": 7570,
      "▁teh": 7571,
      "##den": 7572,
      "▁station": 7573,
      "▁weas": 7574,
      "##del": 7575,
      "##__": 7576,
      "▁74419": 7577,
      "▁food": 7578,
      "##icult": 7579,
      "▁piece": 7580,
      "▁175": 7581,
      "▁6.2": 7582,
      "##pts": 7583,
      "▁marsh": 7584,
      "▁pivottable": 7585,
      "▁properties": 7586,
      "t": 7587,
      "▁w/": 7588,
      "▁laugh": 7589,
      "##asons": 7590,
      "##iqu": 7591,
      "▁sort": 7592,
      "▁function": 7593,
      "▁evolutionary": 7594,
      "▁7:30": 7595,
      "▁_": 7596,
      "▁1635": 7597,
      "##89": 7598,
      "##490": 7599,
      "▁kids": 7600,
      "▁1/2": 7601,
      "▁ben": 7602,
      "▁star": 7603,
      "▁rout": 7604,
      "▁3.": 7605,
      "##osite": 7606,
      "##1696": 7607,
      "##miss": 7608,
      "▁amb": 7609,
      "##itter": 7610,
      "##idge": 7611,
      "##icide": 7612,
      "▁acqu": 7613,
      "▁759933": 7614,
      "▁horrible": 7615,
      "##ensive": 7616,
      "▁sen": 7617,
      "▁7484": 7618,
      "##aining": 7619,
      "##ap": 7620,
      "▁fight": 7621,
      "▁intr": 7622,
      "▁meant": 7623,
      "##my": 7624,
      "▁mexico": 7625,
      "▁12:42": 7626,
      "▁concept": 7627,
      "▁server": 7628,
      "▁rapid": 7629,
      "▁worse": 7630,
      "▁trade": 7631,
      "▁email": 7632,
      "##book": 7633,
      "▁para": 7634,
      "▁material": 7635,
      "▁.!": 7636,
      "▁9/11": 7637,
      "▁spread": 7638,
      "▁rental": 7639,
      "▁place": 7640,
      "▁resources": 7641,
      "▁events": 7642,
      "##rial": 7643,
      "▁dom": 7644,
      "▁3.5": 7645,
      "##****************": 7646,
      "▁half": 7647,
      "▁nuclear": 7648,
      "##ordon": 7649,
      "##/9": 7650,
      "##ial": 7651,
      "##cum": 7652,
      "▁ano": 7653,
      "##tra": 7654,
      "▁standing": 7655,
      "▁science": 7656,
      "▁under": 7657,
      "▁forth": 7658,
      "▁ast": 7659,
      "▁drove": 7660,
      "▁hole": 7661,
      "▁417": 7662,
      "▁suppose": 7663,
      "▁april": 7664,
      "##at": 7665,
      "##ously": 7666,
      "▁standard": 7667,
      "▁favorite": 7668,
      "▁leads": 7669,
      "▁dial": 7670,
      "##umb": 7671,
      "##874": 7672,
      "▁owner": 7673,
      "▁indust": 7674,
      "▁capacity": 7675,
      "▁reve": 7676,
      "▁tr": 7677,
      "▁regards": 7678,
      "▁ukraine": 7679,
      "▁stri": 7680,
      "▁ec": 7681,
      "##iring": 7682,
      "▁specific": 7683,
      "▁argument": 7684,
      "▁poor": 7685,
      "▁alt": 7686,
      "▁1822": 7687,
      "▁educ": 7688,
      "▁factor": 7689,
      "▁3,000": 7690,
      "▁div": 7691,
      "▁ge": 7692,
      "▁jokes": 7693,
      "##omer": 7694,
      "▁1689": 7695,
      "▁1200": 7696,
      "▁inv": 7697,
      "▁nante": 7698,
      "##al": 7699,
      "▁psych": 7700,
      "▁1975": 7701,
      "##vil": 7702,
      "##ager": 7703,
      "##ian": 7704,
      "##4-79": 7705,
      "##alf": 7706,
      "▁05/30/2001": 7707,
      "子": 7708,
      "▁bay": 7709,
      "▁no-": 7710,
      "▁important": 7711,
      "▁apr": 7712,
      "▁int": 7713,
      "▁83": 7714,
      "▁past": 7715,
      "▁cara": 7716,
      "▁fell": 7717,
      "▁(": 7718,
      "▁democracy": 7719,
      "##of": 7720,
      "▁command": 7721,
      "▁involve": 7722,
      "▁belg": 7723,
      "▁extended": 7724,
      "▁la": 7725,
      "▁looking": 7726,
      "##ility": 7727,
      "▁match": 7728,
      "##ort": 7729,
      "▁pol": 7730,
      "▁address": 7731,
      "▁hurry": 7732,
      "##ection": 7733,
      "##ised": 7734,
      "▁their": 7735,
      "▁perhaps": 7736,
      "▁neighbour": 7737,
      "▁1530": 7738,
      "▁703": 7739,
      "▁yet": 7740,
      "##kk": 7741,
      "▁an": 7742,
      "▁seek": 7743,
      "▁----": 7744,
      "▁swe": 7745,
      "▁sent": 7746,
      "▁10:45": 7747,
      "▁gall": 7748,
      "▁stopover": 7749,
      "▁1981": 7750,
      "ι": 7751,
      "▁3:00": 7752,
      "▁olivia": 7753,
      "##vely": 7754,
      "▁cab": 7755,
      "▁caught": 7756,
      "##aviatio": 7757,
      "▁5000": 7758,
      "-": 7759,
      "▁...............": 7760,
      "▁huge": 7761,
      "##ended": 7762,
      "▁indian": 7763,
      "▁succ": 7764,
      "##ome": 7765,
      "▁3-5": 7766,
      "▁rooms": 7767,
      "▁vet": 7768,
      "##8806": 7769,
      "##ission": 7770,
      "##ever": 7771,
      "##ther": 7772,
      "▁dkk": 7773,
      "▁problem": 7774,
      "##-9": 7775,
      "▁mid": 7776,
      "▁much": 7777,
      "▁1949": 7778,
      "##g": 7779,
      "▁becomes": 7780,
      "▁ele": 7781,
      "▁bright": 7782,
      "▁aud": 7783,
      "▁grammar": 7784,
      "##eral": 7785,
      "▁mountains": 7786,
      "▁parents": 7787,
      "▁released": 7788,
      "##akistan": 7789,
      "▁1831": 7790,
      "▁audit": 7791,
      "▁sink": 7792,
      "▁dallas": 7793,
      "▁players": 7794,
      "▁e-mail": 7795,
      "▁fus": 7796,
      "##aming": 7797,
      "▁senior": 7798,
      "▁lad": 7799,
      "▁cabin": 7800,
      "▁decent": 7801,
      "▁pittsbur": 7802,
      "▁surv": 7803,
      "▁mush": 7804,
      "▁blog": 7805,
      "▁.doc": 7806,
      "▁wro": 7807,
      "▁underst": 7808,
      "▁rec": 7809,
      "##kn": 7810,
      "##ي": 7811,
      "▁nab": 7812,
      "▁05": 7813,
      "▁cand": 7814,
      "▁50000": 7815,
      "▁jordan": 7816,
      "▁08": 7817,
      "▁saw": 7818,
      "##esth": 7819,
      "φ": 7820,
      "2": 7821,
      "▁pract": 7822,
      "▁’re": 7823,
      "##.com": 7824,
      "▁loo": 7825,
      "▁progr": 7826,
      "##urch": 7827,
      "##wide": 7828,
      "##unications": 7829,
      "▁v": 7830,
      "▁hamas": 7831,
      "▁committ": 7832,
      "##ase": 7833,
      "空": 7834,
      "##ν": 7835,
      "▁forg": 7836,
      "▁dan": 7837,
      "##eck": 7838,
      "##/8": 7839,
      "▁nation": 7840,
      "##ologies": 7841,
      "▁hopefully": 7842,
      "▁hours": 7843,
      "▁requirements": 7844,
      "##-m": 7845,
      "##mos": 7846,
      "▁510-642": 7847,
      "▁desc": 7848,
      "▁8.3": 7849,
      "▁bear": 7850,
      "##str": 7851,
      "##us": 7852,
      "▁mean": 7853,
      "▁laid": 7854,
      "▁support": 7855,
      "▁bray": 7856,
      "▁distance": 7857,
      "▁theatre": 7858,
      "##ush": 7859,
      "▁mine": 7860,
      "▁education": 7861,
      "▁innov": 7862,
      "▁poo": 7863,
      "▁80435": 7864,
      "▁else": 7865,
      "▁colors": 7866,
      "▁counter": 7867,
      "##-5": 7868,
      "▁collabor": 7869,
      "▁arms": 7870,
      "##ula": 7871,
      "▁admin": 7872,
      "##:45": 7873,
      "▁215": 7874,
      "##equ": 7875,
      "▁consist": 7876,
      "▁philadelp": 7877,
      "▁metal": 7878,
      "##ler": 7879,
      "▁parts": 7880,
      "▁impl": 7881,
      "▁provisions": 7882,
      "##ges": 7883,
      "▁folks": 7884,
      "▁activities": 7885,
      "▁euro": 7886,
      "▁greatest": 7887,
      "##imp": 7888,
      "ɔ": 7889,
      "▁silver": 7890,
      "k": 7891,
      "▁draft": 7892,
      "▁dir": 7893,
      "▁fig": 7894,
      "##ither": 7895,
      "▁47": 7896,
      "▁readers": 7897,
      "▁pere": 7898,
      "▁participants": 7899,
      "▁snake": 7900,
      "##rr": 7901,
      "▁returned": 7902,
      "▁win": 7903,
      "##ipt": 7904,
      "▁2000": 7905,
      "▁orders": 7906,
      "▁154": 7907,
      "▁wid": 7908,
      "▁finger": 7909,
      "##inting": 7910,
      "▁birth": 7911,
      "▁ryan": 7912,
      "▁leaves": 7913,
      "▁norton": 7914,
      "▁1307": 7915,
      "##ounced": 7916,
      "▁economic": 7917,
      "▁wood": 7918,
      "##449": 7919,
      "▁adequ": 7920,
      "▁樋": 7921,
      "##elp": 7922,
      "▁10,000": 7923,
      "▁415.621": 7924,
      "▁’s": 7925,
      "▁vogelaviatiola": 7926,
      "▁1245": 7927,
      "##no": 7928,
      "▁1983": 7929,
      "##空": 7930,
      "##ity": 7931,
      "▁my": 7932,
      "▁tear": 7933,
      "▁reached": 7934,
      "##/30/2001": 7935,
      "##cement": 7936,
      "##aff": 7937,
      "▁moment": 7938,
      "▁ow": 7939,
      "▁appointment": 7940,
      "##ril": 7941,
      "##-625": 7942,
      "▁tho": 7943,
      "▁fusca": 7944,
      "##air": 7945,
      "##fare": 7946,
      "▁subjects": 7947,
      "▁considerable": 7948,
      "▁offic": 7949,
      "▁species": 7950,
      "▁produced": 7951,
      "▁microsoft": 7952,
      "##ivid": 7953,
      "▁seats": 7954,
      "▁examples": 7955,
      "▁yep": 7956,
      "▁rob": 7957,
      "##edule": 7958,
      "##aken": 7959,
      "▁ya": 7960,
      "▁twenty-": 7961,
      "▁applications": 7962,
      "▁agreed": 7963,
      "##eland": 7964,
      "▁forward": 7965,
      "▁ooh": 7966,
      "##doc": 7967,
      "▁european": 7968,
      "▁hell": 7969,
      "▁officials": 7970,
      "▁change": 7971,
      "▁bare": 7972,
      "▁street": 7973,
      "##vi": 7974,
      "▁strange": 7975,
      "▁cur": 7976,
      "▁3:30": 7977,
      "▁cereal": 7978,
      "▁used": 7979,
      "▁associated": 7980,
      "▁listed": 7981,
      "##real": 7982,
      "▁1982": 7983,
      "##ink": 7984,
      "▁\"": 7985,
      "##-36": 7986,
      "▁'em": 7987,
      "▁inspired": 7988,
      "▁wilt": 7989,
      "▁structural": 7990,
      "▁connected": 7991,
      "▁stress": 7992,
      "▁schedule": 7993,
      "▁feel": 7994,
      "▁state": 7995,
      "▁citiz": 7996,
      "▁rib": 7997,
      "▁now": 7998,
      "▁sur": 7999,
      "##board": 8000,
      "▁ins": 8001,
      "##key": 8002,
      "▁thirteen": 8003,
      "▁mountain": 8004,
      "▁twent": 8005,
      "▁agenda": 8006,
      "##aster": 8007,
      "##eries": 8008,
      "▁traffic": 8009,
      "▁71": 8010,
      "▁10/2": 8011,
      "##-37": 8012,
      "▁129": 8013,
      "▁ram": 8014,
      "##rect": 8015,
      "##alk": 8016,
      "▁college": 8017,
      "▁51": 8018,
      "##gami": 8019,
      "▁639": 8020,
      "▁having": 8021,
      "##53-3": 8022,
      "▁rem": 8023,
      "▁202": 8024,
      "▁refr": 8025,
      "▁several": 8026,
      "▁eleph": 8027,
      "▁witch": 8028,
      "▁bell": 8029,
      "##ries": 8030,
      "##uth": 8031,
      "▁leaders": 8032,
      "▁repeated": 8033,
      "▁fund": 8034,
      "▁grab": 8035,
      "▁horses": 8036,
      "▁inch": 8037,
      "▁pas": 8038,
      "▁benefit": 8039,
      "▁lear": 8040,
      "▁1976": 8041,
      "▁lie": 8042,
      "▁pets": 8043,
      "▁games": 8044,
      "▁culture": 8045,
      "▁1.5": 8046,
      "##tejo": 8047,
      "▁ah": 8048,
      "▁conc": 8049,
      "##819": 8050,
      "▁arrive": 8051,
      "##on@ect": 8052,
      "▁today": 8053,
      "##.org": 8054,
      "##200": 8055,
      "##err": 8056,
      "▁2019": 8057,
      "▁milk": 8058,
      "▁frank": 8059,
      "##less": 8060,
      "▁outer": 8061,
      "▁meaning": 8062,
      "▁[...": 8063,
      "##unt": 8064,
      "▁ide": 8065,
      "▁<<": 8066,
      "▁2,300": 8067,
      "▁appeal": 8068,
      "▁colleagues": 8069,
      "▁source": 8070,
      "▁ca": 8071,
      "▁been": 8072,
      "▁program": 8073,
      "▁esc": 8074,
      "▁meal": 8075,
      "▁chann": 8076,
      "▁1945": 8077,
      "##--------------------------------": 8078,
      "▁the": 8079,
      "▁why": 8080,
      "▁base": 8081,
      "##erno": 8082,
      "##br": 8083,
      "▁powerful": 8084,
      "▁james": 8085,
      "▁eighth": 8086,
      "▁we": 8087,
      "##io": 8088,
      "▁article": 8089,
      "▁spoke": 8090,
      "▁below": 8091,
      "▁age": 8092,
      "▁announced": 8093,
      "##9/2001": 8094,
      "▁carried": 8095,
      "##idd": 8096,
      "##tw": 8097,
      "▁breath": 8098,
      "▁steps": 8099,
      "▁pock": 8100,
      "▁regard": 8101,
      "##ften": 8102,
      "▁prot": 8103,
      "##ette": 8104,
      "▁3724": 8105,
      "##ances": 8106,
      "▁rocks": 8107,
      "▁30": 8108,
      "▁high": 8109,
      "▁extrem": 8110,
      "##thern": 8111,
      "##gth": 8112,
      "▁fo": 8113,
      "▁stoy": 8114,
      "##new": 8115,
      "▁subm": 8116,
      "▁yeah": 8117,
      "▁theodorus": 8118,
      "!": 8119,
      "##tride": 8120,
      "▁op": 8121,
      "##ib": 8122,
      "##jo": 8123,
      "▁tou": 8124,
      "##.95": 8125,
      "▁italy": 8126,
      "##ecca": 8127,
      "▁899": 8128,
      "##uate": 8129,
      "▁counterparty": 8130,
      "▁drawing": 8131,
      "##rad": 8132,
      "▁forest": 8133,
      "▁n’t": 8134,
      "▁request": 8135,
      "##ig": 8136,
      "▁shopping": 8137,
      "##ste": 8138,
      "▁!!!!!": 8139,
      "▁being": 8140,
      "##ay": 8141,
      "▁le": 8142,
      "##li": 8143,
      "▁11:3": 8144,
      "▁conce": 8145,
      "▁september": 8146,
      "▁corporate": 8147,
      "##ua": 8148,
      "▁shirt": 8149,
      "▁==": 8150,
      "▁inqu": 8151,
      "##unte": 8152,
      "▁talk": 8153,
      "▁2001": 8154,
      "▁wak": 8155,
      "▁uh": 8156,
      "##ipping": 8157,
      "▁doll": 8158,
      "▁6400": 8159,
      "##ulation": 8160,
      "##tim": 8161,
      "##53": 8162,
      "▁teacher": 8163,
      "▁fest": 8164,
      "##ples": 8165,
      "▁directive": 8166,
      "##ten": 8167,
      "▁novel": 8168,
      "▁puzzle": 8169,
      "▁alright": 8170,
      "##ented": 8171,
      "▁ill": 8172,
      "▁pun": 8173,
      "▁somewhat": 8174,
      "##ention": 8175,
      "▁meet": 8176,
      "##ww": 8177,
      "▁instit": 8178,
      "▁420": 8179,
      "##一": 8180,
      "▁commons": 8181,
      "▁students": 8182,
      "▁accom": 8183,
      "##!?": 8184,
      "▁1.6": 8185,
      "##ting": 8186,
      "▁4.9": 8187,
      "▁stuff": 8188,
      "##ful": 8189,
      "##led": 8190,
      "▁successfully": 8191
    }
  }
}