{
  "version": "1.0",
  "truncation": null,
  "padding": null,
  "added_tokens": [
    {
      "id": 1239,
      "content": "[PAD]",
      "single_word": false,
      "lstrip": false,
      "rstrip": false,
      "normalized": false,
      "special": true
    },
    {
      "id": 3685,
      "content": "[SEP]",
      "single_word": false,
      "lstrip": false,
      "rstrip": false,
      "normalized": false,
      "special": true
    },
    {
      "id": 6636,
      "content": "[UNK]",
      "single_word": false,
      "lstrip": false,
      "rstrip": false,
      "normalized": false,
      "special": true
    },
    {
      "id": 7542,
      "content": "[CLS]",
      "single_word": false,
      "lstrip": false,
      "rstrip": false,
      "normalized": false,
      "special": true
    },
    {
      "id": 8051,
      "content": "[MASK]",
      "single_word": false,
      "lstrip": false,
      "rstrip": false,
      "normalized": false,
      "special": true
    }
  ],
  "normalizer": {
    "type": "Sequence",
    "normalizers": [
      {
        "type": "NFD"
      },
      {
        "type": "Lowercase"
      },
      {
        "type": "StripAccents"
      }
    ]
  },
  "pre_tokenizer": {
    "type": "Sequence",
    "pretokenizers": [
      {
        "type": "Metaspace",
        "replacement": "▁",
        "prepend_scheme": "always",
        "split": true
      }
    ]
  },
  "post_processor": {
    "type": "TemplateProcessing",
    "single": [
      {
        "SpecialToken": {
          "id": "[CLS]",
          "type_id": 0
        }
      },
      {
        "Sequence": {
          "id": "A",
          "type_id": 0
        }
      },
      {
        "SpecialToken": {
          "id": "[SEP]",
          "type_id": 0
        }
      }
    ],
    "pair": [
      {
        "SpecialToken": {
          "id": "[CLS]",
          "type_id": 0
        }
      },
      {
        "Sequence": {
          "id": "A",
          "type_id": 0
        }
      },
      {
        "SpecialToken": {
          "id": "[SEP]",
          "type_id": 0
        }
      },
      {
        "Sequence": {
          "id": "B",
          "type_id": 1
        }
      },
      {
        "SpecialToken": {
          "id": "[SEP]",
          "type_id": 1
        }
      }
    ],
    "special_tokens": {
      "[CLS]": {
        "id": "[CLS]",
        "ids": [
          7542
        ],
        "tokens": [
          "[CLS]"
        ]
      },
      "[SEP]": {
        "id": "[SEP]",
        "ids": [
          3685
        ],
        "tokens": [
          "[SEP]"
        ]
      }
    }
  },
  "decoder": {
    "type": "Metaspace",
    "replacement": "▁",
    "prepend_scheme": "always",
    "split": true
  },
  "model": {
    "type": "Unigram",
    "unk_id": 6636,
    "vocab": [
      [
        "▁creation",
        -9.686628161793465
      ],
      [
        "▁effective",
        -9.175270313222226
      ],
      [
        "650",
        -14.807816924349002
      ],
      [
        "▁stand",
        -11.833815694314197
      ],
      [
        "▁flu",
        -10.475169822569491
      ],
      [
        "if",
        -10.98301713511345
      ],
      [
        "▁balloon",
        -9.364163480317831
      ],
      [
        "▁oh",
        -6.27702176129235
      ],
      [
        "▁clear",
        -8.103908131152561
      ],
      [
        "▁attract",
        -9.573211839924856
      ],
      [
        "▁text",
        -9.04007653836441
      ],
      [
        "▁inter",
        -11.373820383720101
      ],
      [
        "▁camera",
        -9.50068615968036
      ],
      [
        "▁letter",
        -8.185892608681863
      ],
      [
        "▁suspect",
        -9.807120481738508
      ],
      [
        "ore",
        -12.117485135914382
      ],
      [
        "▁tension",
        -10.30710828960069
      ],
      [
        "▁1996",
        -11.896248210198106
      ],
      [
        "▁cause",
        -8.31037890252301
      ],
      [
        "▁pacific",
        -10.550545476634735
      ],
      [
        "▁guitar",
        -11.08425207516053
      ],
      [
        "▁ki",
        -10.855483800810154
      ],
      [
        "▁war",
        -7.685704703236816
      ],
      [
        "cut",
        -10.853807700159052
      ],
      [
        "▁flexibl",
        -11.087126812306446
      ],
      [
        "church",
        -11.183609687728792
      ],
      [
        "under",
        -10.713415379023514
      ],
      [
        "▁distortion",
        -10.87405037021977
      ],
      [
        "▁sixt",
        -10.805887792387184
      ],
      [
        "fire",
        -11.062236503976782
      ],
      [
        "▁execution",
        -10.421764628760954
      ],
      [
        "▁strat",
        -10.550940681287937
      ],
      [
        "▁female",
        -9.302902584175493
      ],
      [
        "▁expansi",
        -10.421382699177775
      ],
      [
        "ustache",
        -10.988071776042242
      ],
      [
        "▁datasheet",
        -10.782579545198551
      ],
      [
        "▁familiar",
        -9.914987500586836
      ],
      [
        "▁drop",
        -9.041306450664015
      ],
      [
        "▁remind",
        -9.38542537827361
      ],
      [
        "enne",
        -12.69757171824326
      ],
      [
        "▁escap",
        -11.043016627922443
      ],
      [
        "▁schedule",
        -8.783412823143813
      ],
      [
        "qu",
        -13.48441841391682
      ],
      [
        "▁theme",
        -9.91090242196421
      ],
      [
        "▁usual",
        -8.294175329753353
      ],
      [
        "▁upset",
        -10.627719220489935
      ],
      [
        "=============",
        -11.216882392454107
      ],
      [
        "-1.",
        -11.08405888417924
      ],
      [
        "▁commissioner",
        -9.897748857497746
      ],
      [
        "mond",
        -10.337641846197755
      ],
      [
        "▁possession",
        -10.36255485277689
      ],
      [
        "ountain",
        -10.972564648702694
      ],
      [
        "▁lemon",
        -10.307750190209529
      ],
      [
        "do",
        -9.846160357156574
      ],
      [
        "▁fift",
        -10.360459669577796
      ],
      [
        "▁current",
        -8.287638748643317
      ],
      [
        "=",
        -10.156319754959146
      ],
      [
        "▁did",
        -7.438242099005396
      ],
      [
        "▁philippine",
        -10.483878426524564
      ],
      [
        "▁elizabeth",
        -10.782230006871133
      ],
      [
        "▁gas",
        -8.680743132461147
      ],
      [
        "▁wil",
        -9.163200589105932
      ],
      [
        "▁h-02",
        -12.636821816479886
      ],
      [
        "▁alway",
        -7.494077491090278
      ],
      [
        "▁beside",
        -10.020238870103874
      ],
      [
        "▁database",
        -9.499174598162604
      ],
      [
        "oodle",
        -10.696915220001998
      ],
      [
        "▁play",
        -6.6231897240285145
      ],
      [
        "▁08:0",
        -12.552782992181447
      ],
      [
        "▁poem",
        -10.362579527783826
      ],
      [
        "▁associate",
        -9.22667695934851
      ],
      [
        "▁flat",
        -9.358512786118835
      ],
      [
        "▁le",
        -9.286523270875168
      ],
      [
        "▁shipp",
        -10.48497548923686
      ],
      [
        "sheet",
        -11.058017091042267
      ],
      [
        "α",
        -11.833785825395173
      ],
      [
        "▁us",
        -9.506253679050264
      ],
      [
        "▁dra",
        -11.397091660772798
      ],
      [
        "▁wiggle",
        -9.98728672386784
      ],
      [
        "un",
        -13.859809042619558
      ],
      [
        "▁satisfact",
        -10.555784743981635
      ],
      [
        "121",
        -13.863877334317044
      ],
      [
        "▁invest",
        -10.18659589743839
      ],
      [
        "▁propriet",
        -10.873139103030102
      ],
      [
        "▁survey",
        -10.369168625885816
      ],
      [
        "oit",
        -9.092533642132356
      ],
      [
        "▁arrest",
        -9.655336391081956
      ],
      [
        "ight",
        -12.834719490624838
      ],
      [
        "▁alt.animals.",
        -10.553587556405926
      ],
      [
        "mo",
        -11.05508503396024
      ],
      [
        "▁ceremon",
        -10.30713082928717
      ],
      [
        "eur",
        -12.843554417548672
      ],
      [
        "▁await",
        -10.78225767087819
      ],
      [
        "▁influence",
        -9.323427190509516
      ],
      [
        "▁gum",
        -10.631521985532578
      ],
      [
        "▁iu",
        -11.539925515610605
      ],
      [
        "ime",
        -13.080672935516295
      ],
      [
        "▁jai",
        -10.906945068098644
      ],
      [
        "▁award",
        -9.386453371563798
      ],
      [
        "giving",
        -9.174344864407594
      ],
      [
        "▁paper",
        -7.780929027314263
      ],
      [
        ".322",
        -13.137284014680992
      ],
      [
        "mercury",
        -10.782304776880846
      ],
      [
        "▁employ",
        -9.156157894048636
      ],
      [
        "▁complain",
        -10.301544449659234
      ],
      [
        "▁interface",
        -10.550545047619057
      ],
      [
        "▁m.",
        -10.11402507679002
      ],
      [
        "______________",
        -10.890899768835993
      ],
      [
        "corporate",
        -10.025404247900372
      ],
      [
        "▁harmon",
        -10.606856239634842
      ],
      [
        "▁moslem",
        -10.69889757726148
      ],
      [
        "静",
        -12.833785825435129
      ],
      [
        "3",
        -7.77716430566269
      ],
      [
        "oper",
        -10.518719302580918
      ],
      [
        "▁miracle",
        -10.62207516838858
      ],
      [
        "▁deficienc",
        -10.55405286985771
      ],
      [
        "forma",
        -12.83984713007082
      ],
      [
        "xe",
        -12.893327268062437
      ],
      [
        "▁medica",
        -9.547275415242911
      ],
      [
        "▁3",
        -10.461879651757403
      ],
      [
        "!!!!!!!!!!!",
        -12.790094382530567
      ],
      [
        "ise",
        -12.797657598535169
      ],
      [
        "▁mexican",
        -9.875946045922184
      ],
      [
        "▁lab",
        -9.870482063777704
      ],
      [
        "▁progress",
        -9.406538376805553
      ],
      [
        "▁measur",
        -10.633267776087362
      ],
      [
        "▁forum",
        -10.484998183881094
      ],
      [
        "▁moon",
        -9.271432626961925
      ],
      [
        "@enron",
        -9.947791281457736
      ],
      [
        "ization",
        -10.424694896522354
      ],
      [
        "akin",
        -12.199266592263612
      ],
      [
        "▁kill",
        -8.62201226921261
      ],
      [
        "▁[",
        -8.845600951931221
      ],
      [
        "▁expire",
        -10.523925976638623
      ],
      [
        "hallow",
        -11.103156054070269
      ],
      [
        "▁650",
        -13.191743379778188
      ],
      [
        "▁favour",
        -10.06941905346666
      ],
      [
        "!!!!!!!!!!!!!!!",
        -11.787504311478639
      ],
      [
        "▁passport",
        -10.55121168145962
      ],
      [
        "▁soot",
        -11.184598475233992
      ],
      [
        "▁kur",
        -10.55863407374745
      ],
      [
        "▁devil",
        -9.910655440263849
      ],
      [
        "▁charter",
        -10.790982905823954
      ],
      [
        "aria",
        -10.48685519521235
      ],
      [
        "▁lexic",
        -10.961740967565884
      ],
      [
        "▁chan",
        -10.81959680504434
      ],
      [
        "kin",
        -9.891673832123367
      ],
      [
        "▁comm",
        -12.579621450736289
      ],
      [
        "▁nin",
        -9.463018193581842
      ],
      [
        "force",
        -10.660635018840182
      ],
      [
        "▁strap",
        -10.365691454992827
      ],
      [
        "▁abbreviation",
        -11.084250208928754
      ],
      [
        "▁monday",
        -7.838112867563392
      ],
      [
        "▁customer",
        -8.370480523336175
      ],
      [
        "▁frontier",
        -10.783475190147874
      ],
      [
        "some",
        -9.085706270044334
      ],
      [
        "rought",
        -8.754890322702451
      ],
      [
        "▁communit",
        -8.505529887664174
      ],
      [
        "▁business",
        -7.811040491454853
      ],
      [
        "▁dry",
        -8.78308233564088
      ],
      [
        "li",
        -12.21078093944209
      ],
      [
        "line",
        -9.413211024688355
      ],
      [
        "69",
        -11.839517049892246
      ],
      [
        "▁emission",
        -10.421660995390901
      ],
      [
        "ho",
        -15.256809929066954
      ],
      [
        "435",
        -13.081662452102295
      ],
      [
        "▁investment",
        -9.807583011421379
      ],
      [
        "▁mistake",
        -9.40717504513859
      ],
      [
        "▁patient",
        -9.658679189255121
      ],
      [
        "rinn",
        -11.088642044172623
      ],
      [
        "ated",
        -9.376059212414237
      ],
      [
        "polis",
        -8.091745283479948
      ],
      [
        "489",
        -13.1509682508836
      ],
      [
        "▁acquir",
        -10.49880153504547
      ],
      [
        "on",
        -6.434801464072722
      ],
      [
        "▁indiana",
        -8.412608329940667
      ],
      [
        "▁mary",
        -9.61757382381813
      ],
      [
        "▁be",
        -6.994585827916629
      ],
      [
        "▁warwick",
        -10.782492476082169
      ],
      [
        "▁being",
        -10.394848699904077
      ],
      [
        "▁fun",
        -8.251125766709851
      ],
      [
        "▁cfl",
        -10.698965136702537
      ],
      [
        "▁injur",
        -9.600522748835703
      ],
      [
        "▁comprehensi",
        -10.156748730324423
      ],
      [
        "920",
        -12.849170236525222
      ],
      [
        "▁leisure",
        -11.084250451910332
      ],
      [
        "me",
        -8.491665941977896
      ],
      [
        "▁meeting",
        -8.375376176562247
      ],
      [
        "▁victim",
        -10.550545488279147
      ],
      [
        "berr",
        -10.776528224324036
      ],
      [
        "▁substanti",
        -10.766853574443418
      ],
      [
        "▁dial",
        -10.092636414009906
      ],
      [
        "▁nanc",
        -10.89335726713141
      ],
      [
        "▁rent",
        -9.50679364064101
      ],
      [
        "thailand",
        -10.599268146623348
      ],
      [
        "▁observ",
        -9.640698348827328
      ],
      [
        "▁vari",
        -8.854523724566267
      ],
      [
        "530",
        -12.305600989107392
      ],
      [
        "▁turis",
        -12.826046104154699
      ],
      [
        "×",
        -11.833785825435129
      ],
      [
        "▁simp",
        -10.89961413918464
      ],
      [
        "▁315-460-334",
        -13.136770579354717
      ],
      [
        "tery",
        -10.722350268244758
      ],
      [
        "▁experiment",
        -9.942244963103835
      ],
      [
        "▁minimum",
        -9.947854574504623
      ],
      [
        "el",
        -8.16373533480153
      ],
      [
        "▁item",
        -8.585331860135945
      ],
      [
        "▁equipment",
        -10.067816176732133
      ],
      [
        "age",
        -11.003488229021976
      ],
      [
        "▁yoursel",
        -9.209680784957502
      ],
      [
        "▁speci",
        -9.454967013155027
      ],
      [
        "tha",
        -7.447652869023347
      ],
      [
        "▁d.",
        -11.113447961635394
      ],
      [
        "▁superior",
        -10.55088028787786
      ],
      [
        "▁spend",
        -8.916611899490949
      ],
      [
        "111",
        -12.788292034875845
      ],
      [
        "▁guarantee",
        -9.549081416333092
      ],
      [
        "91",
        -11.944342016206537
      ],
      [
        "▁rep",
        -9.230917048612307
      ],
      [
        "me",
        -9.087113698318994
      ],
      [
        "nfant",
        -10.483870515745163
      ],
      [
        "▁formal",
        -9.554374422259787
      ],
      [
        "06",
        -12.319308541197813
      ],
      [
        "▁1.5",
        -10.928556940654719
      ],
      [
        "▁heavi",
        -10.25436782640519
      ],
      [
        "▁value",
        -8.191214021686617
      ],
      [
        "▁taylor",
        -10.873139244553116
      ],
      [
        "▁balance",
        -9.043273359413378
      ],
      [
        "▁320",
        -12.642809539566732
      ],
      [
        "▁finance",
        -9.502730503306154
      ],
      [
        "rubber",
        -10.02858146949763
      ],
      [
        "▁clar",
        -10.713316466102865
      ],
      [
        "▁terre",
        -10.747630374118458
      ],
      [
        "▁hungr",
        -9.421505513942542
      ],
      [
        "▁miram",
        -10.4217188290074
      ],
      [
        "surgery",
        -10.07362830190116
      ],
      [
        "▁pest",
        -11.093283554095702
      ],
      [
        "▁motive",
        -10.622001044666902
      ],
      [
        "▁northwest",
        -9.481563775086435
      ],
      [
        "▁distribut",
        -9.826778119136613
      ],
      [
        "▁explorer",
        -10.31426851876181
      ],
      [
        "▁transition",
        -10.307949856833767
      ],
      [
        "▁pag",
        -10.739453651775346
      ],
      [
        "▁22",
        -10.973191979732043
      ],
      [
        "▁muc",
        -6.863897134624942
      ],
      [
        "▁container",
        -9.610797222643319
      ],
      [
        "▁70",
        -10.827511708373173
      ],
      [
        "▁joint",
        -10.175624316707406
      ],
      [
        "170",
        -14.674369146106466
      ],
      [
        "▁it",
        -7.425108546980828
      ],
      [
        "▁courage",
        -10.973141359452216
      ],
      [
        "▁luther",
        -10.87329492147498
      ],
      [
        "▁cash",
        -9.303783853633366
      ],
      [
        "▁reli",
        -9.43267277403924
      ],
      [
        "16:",
        -14.198968335694197
      ],
      [
        "▁innocent",
        -10.550545143940855
      ],
      [
        "▁customiz",
        -11.10018268218619
      ],
      [
        "▁nap",
        -9.941582978660726
      ],
      [
        "▁liver",
        -10.951239035914238
      ],
      [
        "▁filter",
        -8.645072239826987
      ],
      [
        "▁institution",
        -9.337988817899397
      ],
      [
        "▁citizen",
        -10.413194021631194
      ],
      [
        "▁diar",
        -10.814708615417334
      ],
      [
        "▁passage",
        -10.487155251237887
      ],
      [
        "▁urs",
        -8.863958073948023
      ],
      [
        "▁aspect",
        -9.190640413785733
      ],
      [
        "▁ag",
        -10.388638485166753
      ],
      [
        "▁where",
        -8.802452388749018
      ],
      [
        "▁restor",
        -10.49518497248273
      ],
      [
        "▁62",
        -12.292935032403633
      ],
      [
        "▁invent",
        -10.202104857930625
      ],
      [
        "±",
        -14.136770579354717
      ],
      [
        "▁fare",
        -7.241329166207645
      ],
      [
        "▁loud",
        -9.389330838074713
      ],
      [
        "▁crossing",
        -10.266192068243237
      ],
      [
        "hap",
        -8.508777534934477
      ],
      [
        "▁black",
        -7.9647947672633705
      ],
      [
        "▁ya",
        -12.898998956236886
      ],
      [
        "▁me",
        -9.60604312305811
      ],
      [
        "▁house",
        -7.187298756520364
      ],
      [
        "▁texa",
        -8.624730545374206
      ],
      [
        "▁tool",
        -9.412557880915408
      ],
      [
        "▁jason",
        -10.06796867416301
      ],
      [
        "▁thou",
        -10.500572065356511
      ],
      [
        "▁born",
        -8.560719953382907
      ],
      [
        "713",
        -13.119237268663518
      ],
      [
        "▁wentz",
        -10.26231700508862
      ],
      [
        "lve",
        -15.294268364475522
      ],
      [
        "80",
        -10.68097320844364
      ],
      [
        "▁08:",
        -12.893960135802669
      ],
      [
        "▁stack",
        -10.97445518656735
      ],
      [
        "id",
        -10.679683010652338
      ],
      [
        "▁observation",
        -10.309097497528409
      ],
      [
        "parallel",
        -10.421379712373549
      ],
      [
        "▁uncertaint",
        -10.794735669431077
      ],
      [
        "▁reason",
        -8.030305837915575
      ],
      [
        "▁queries",
        -10.161286450779865
      ],
      [
        "▁138",
        -12.923627014658868
      ],
      [
        "▁visual",
        -9.986116922606026
      ],
      [
        "25/01",
        -14.134086391909378
      ],
      [
        "▁avail",
        -9.253036216915286
      ],
      [
        "▁505",
        -12.49680649931439
      ],
      [
        "ur",
        -10.506677442453604
      ],
      [
        "▁big",
        -6.967008261820933
      ],
      [
        "|",
        -9.70691813184516
      ],
      [
        "▁robe",
        -10.828161857964457
      ],
      [
        "▁kath",
        -10.55385754277279
      ],
      [
        "▁fore",
        -9.677585858184017
      ],
      [
        "gue",
        -10.497366488242804
      ],
      [
        "▁dispos",
        -11.175140067885284
      ],
      [
        "▁ran",
        -9.134253376648497
      ],
      [
        "▁broad",
        -9.234133434308518
      ],
      [
        "ng",
        -7.326946056636672
      ],
      [
        "lta",
        -8.416890343592092
      ],
      [
        "▁coco",
        -10.205369128003383
      ],
      [
        "▁sex",
        -9.713738762052877
      ],
      [
        "▁truck",
        -8.462301455477888
      ],
      [
        ".29",
        -14.076169668931785
      ],
      [
        "▁manager",
        -9.110328011213706
      ],
      [
        "97",
        -11.6033427020205
      ],
      [
        "▁weird",
        -10.421378754337294
      ],
      [
        "---=",
        -11.82789170959216
      ],
      [
        "42",
        -12.274953641953006
      ],
      [
        "▁tolerat",
        -10.976632258988321
      ],
      [
        "▁cycle",
        -9.747507064698562
      ],
      [
        "▁surrender",
        -10.782230160480658
      ],
      [
        "▁protest",
        -10.067630981717372
      ],
      [
        "▁their",
        -6.57756474461809
      ],
      [
        "▁dutch",
        -11.086037303387592
      ],
      [
        "elected",
        -10.040257057635074
      ],
      [
        "▁practic",
        -10.654632972383144
      ],
      [
        "▁george",
        -8.510863764464974
      ],
      [
        "▁egypt",
        -9.452108731379443
      ],
      [
        "▁hi",
        -8.170927441392577
      ],
      [
        "▁per",
        -10.524772088798718
      ],
      [
        "▁material",
        -9.027680630673654
      ],
      [
        "son@",
        -12.833766077176563
      ],
      [
        "▁sherr",
        -11.09023270887822
      ],
      [
        "sum",
        -12.188254551844796
      ],
      [
        "▁calm",
        -9.776039470962122
      ],
      [
        "ll",
        -11.633926568399433
      ],
      [
        "-004",
        -14.199300681685417
      ],
      [
        "▁memor",
        -9.143139882632598
      ],
      [
        "ifie",
        -10.122084064464829
      ],
      [
        "▁endanger",
        -10.782230120846496
      ],
      [
        "gur",
        -11.012294776216754
      ],
      [
        "▁th",
        -5.884171476561595
      ],
      [
        "▁96/",
        -13.462906433389355
      ],
      [
        "ise",
        -9.14130254849643
      ],
      [
        "▁eric",
        -11.089220440443952
      ],
      [
        "▁mm",
        -8.79408386791583
      ],
      [
        "▁arab",
        -9.097070900709443
      ],
      [
        "▁dal",
        -10.650001091976666
      ],
      [
        "▁8:3",
        -12.739873861330423
      ],
      [
        "▁under",
        -7.820617230569181
      ],
      [
        "sett",
        -10.703706332384812
      ],
      [
        "▁breath",
        -9.468799828326695
      ],
      [
        "▁daniel",
        -9.574206871297058
      ],
      [
        "cious",
        -10.899994821185008
      ],
      [
        "▁eu",
        -9.23560854367374
      ],
      [
        "▁act",
        -8.345860179927508
      ],
      [
        "ol",
        -8.888602258811844
      ],
      [
        "339",
        -11.238809738318702
      ],
      [
        "▁12/26/200",
        -12.666535639137336
      ],
      [
        "▁t",
        -11.219338199887599
      ],
      [
        "▁agree",
        -8.546831884439145
      ],
      [
        "▁11:2",
        -12.486466669457384
      ],
      [
        "▁epi",
        -10.768127818459682
      ],
      [
        "▁honey",
        -8.776484966437474
      ],
      [
        "bert",
        -10.714461390207582
      ],
      [
        "▁mean",
        -6.91240497839214
      ],
      [
        "▁another",
        -7.523546689134578
      ],
      [
        "▁disappointment",
        -11.085767647711728
      ],
      [
        "▁---",
        -13.066352447763771
      ],
      [
        "▁despair",
        -11.084250660253193
      ],
      [
        "▁clause",
        -10.634656630255527
      ],
      [
        "▁sussex",
        -10.973217328020851
      ],
      [
        "hundred",
        -12.469625072036136
      ],
      [
        "▁situat",
        -11.208460947332666
      ],
      [
        "▁trim",
        -11.10098607098778
      ],
      [
        "67.7",
        -12.636840797132226
      ],
      [
        "00:",
        -14.117195805228244
      ],
      [
        "▁gam",
        -10.54330296832061
      ],
      [
        "▁slice",
        -10.11130148491057
      ],
      [
        "▁metropoli",
        -11.087056827575786
      ],
      [
        "1:",
        -14.54247363883204
      ],
      [
        "war",
        -10.682546089654343
      ],
      [
        "fare",
        -10.228268295111562
      ],
      [
        "▁d",
        -10.280019826971161
      ],
      [
        "▁council",
        -8.969267946425328
      ],
      [
        "history",
        -8.608259189325832
      ],
      [
        "8,8",
        -13.136802463436526
      ],
      [
        "75",
        -11.071151051921953
      ],
      [
        "▁myceli",
        -10.621973699964737
      ],
      [
        "min",
        -9.957249813968366
      ],
      [
        "▁australia",
        -9.499174069013288
      ],
      [
        "▁colour",
        -10.161152038374151
      ],
      [
        "▁division",
        -9.87493666681598
      ],
      [
        "▁114",
        -13.672578331648022
      ],
      [
        "▁sir",
        -9.875637114542164
      ],
      [
        "▁recipe",
        -10.973193687198943
      ],
      [
        "came",
        -8.775453636545953
      ],
      [
        "q",
        -14.203397884361365
      ],
      [
        "▁bang",
        -9.911347741077165
      ],
      [
        "▁artwork",
        -10.157144001435805
      ],
      [
        "▁examination",
        -10.875061319686852
      ],
      [
        "ga",
        -10.834148832479924
      ],
      [
        "se",
        -10.116435411708398
      ],
      [
        "0",
        -10.782683652942984
      ],
      [
        "▁neat",
        -9.98675036149088
      ],
      [
        "¢",
        -12.833785825435129
      ],
      [
        "ern",
        -8.858052921036036
      ],
      [
        "▁pilgrim",
        -10.972783938234663
      ],
      [
        "ward",
        -11.834056055878488
      ],
      [
        "▁key",
        -8.484768462327857
      ],
      [
        "▁202.456.1",
        -12.340123241055274
      ],
      [
        "▁galler",
        -10.908805069222108
      ],
      [
        "▁geometr",
        -10.621973603536595
      ],
      [
        "uer",
        -12.854866086941115
      ],
      [
        "▁yes",
        -7.209091090792579
      ],
      [
        "pdf",
        -10.255628992738792
      ],
      [
        "▁super",
        -9.022770468576729
      ],
      [
        "1960",
        -11.315720686444235
      ],
      [
        "▁invasi",
        -10.973341193301934
      ],
      [
        "1:4",
        -14.232888692478266
      ],
      [
        "urler",
        -11.195041481570172
      ],
      [
        "03:4",
        -15.341353967809003
      ],
      [
        "▁jar",
        -10.262709601577356
      ],
      [
        "rick",
        -10.112124056875249
      ],
      [
        "dale",
        -10.750854186365569
      ],
      [
        "4.7",
        -12.150671484405978
      ],
      [
        "▁sap",
        -11.091313126680609
      ],
      [
        "▁applau",
        -10.973153990686935
      ],
      [
        "'",
        -4.065544318546911
      ],
      [
        "▁af",
        -10.504862344166291
      ],
      [
        "▁dividend",
        -10.3626366566194
      ],
      [
        "▁brad",
        -10.750187136980092
      ],
      [
        "along",
        -11.988352002306266
      ],
      [
        "ninety",
        -15.073850301185402
      ],
      [
        "▁farm",
        -9.36523735879291
      ],
      [
        "▁skittle",
        -9.840453616678788
      ],
      [
        "▁innovative",
        -10.873405067601121
      ],
      [
        "▁america",
        -8.542401033813977
      ],
      [
        "▁caution",
        -10.973143235969845
      ],
      [
        "=",
        -9.479384224177249
      ],
      [
        "▁qu",
        -9.977230063862477
      ],
      [
        "▁discourag",
        -10.973518002183923
      ],
      [
        "▁who",
        -6.506588786527325
      ],
      [
        "▁chi",
        -11.906643426785514
      ],
      [
        "▁scratch",
        -10.306999274906872
      ],
      [
        "▁capabilit",
        -10.36281390491807
      ],
      [
        "▁come",
        -6.540023860134716
      ],
      [
        "▁da",
        -13.348798848459841
      ],
      [
        "▁yog",
        -9.600705025202986
      ],
      [
        "▁mo",
        -11.730657660372195
      ],
      [
        "▁successful",
        -9.107243610514848
      ],
      [
        "3:2",
        -15.156802643993807
      ],
      [
        "▁smell",
        -9.042836147814644
      ],
      [
        "▁!!!!",
        -9.884799963893974
      ],
      [
        "mozilla",
        -10.973145272536598
      ],
      [
        "▁aunt",
        -9.554086079127023
      ],
      [
        "oth",
        -11.630005899227083
      ],
      [
        "14",
        -10.356076179222695
      ],
      [
        "plastic",
        -9.887731683576224
      ],
      [
        "esome",
        -9.553743835219098
      ],
      [
        "▁publish",
        -8.962630177023936
      ],
      [
        "▁elaborate",
        -10.973139097793489
      ],
      [
        "wart",
        -10.303383653084605
      ],
      [
        "▁850",
        -12.738656435075242
      ],
      [
        "▁toss",
        -10.924796825289027
      ],
      [
        "jo",
        -11.43397011805476
      ],
      [
        "193",
        -14.383867312686109
      ],
      [
        "▁03/2",
        -13.199689666990961
      ],
      [
        "▁over",
        -7.36005997528514
      ],
      [
        "▁jan",
        -9.91558855071249
      ],
      [
        "ppy",
        -10.999019044961623
      ],
      [
        "▁lobby",
        -10.782443130946803
      ],
      [
        "partisan",
        -11.084527724588156
      ],
      [
        "▁subscribe",
        -9.949218297883826
      ],
      [
        "▁tol",
        -7.6191012354012555
      ],
      [
        "ham",
        -9.872893983544602
      ],
      [
        "▁sto",
        -10.42753028408853
      ],
      [
        "▁loop",
        -10.975151019661386
      ],
      [
        "▁option",
        -8.629982394301976
      ],
      [
        "3.",
        -15.00305915633411
      ],
      [
        "ies",
        -6.204351518052511
      ],
      [
        "▁09:5",
        -13.197391014154237
      ],
      [
        "▁trump",
        -10.48376263861464
      ],
      [
        "i",
        -2.8124076435862975
      ],
      [
        "si",
        -11.213306943358026
      ],
      [
        "hear",
        -10.781204805371843
      ],
      [
        "▁fuck",
        -9.713850432597798
      ],
      [
        "alaba",
        -10.553160435148431
      ],
      [
        "▁syd",
        -11.002519776959863
      ],
      [
        "▁consist",
        -10.254514990933082
      ],
      [
        "ers",
        -7.757194599760564
      ],
      [
        "▁stop",
        -7.637317757912156
      ],
      [
        "▁recent",
        -8.211008927317451
      ],
      [
        "▁electronic",
        -10.362570601077216
      ],
      [
        "2.4",
        -14.159369740517949
      ],
      [
        "▁branch",
        -10.77560239826677
      ],
      [
        "277",
        -14.072443702107408
      ],
      [
        "045",
        -14.051548089164976
      ],
      [
        "▁um",
        -6.949180405598191
      ],
      [
        "▁compar",
        -9.805509476688375
      ],
      [
        "466",
        -11.80218577839811
      ],
      [
        "▁chor",
        -10.878942323700588
      ],
      [
        "•",
        -12.833785825435129
      ],
      [
        "œ",
        -12.833785825435118
      ],
      [
        "▁pe",
        -12.095837336446717
      ],
      [
        "ugh",
        -8.690765165144809
      ],
      [
        "▁flaw",
        -10.874902408772527
      ],
      [
        "night",
        -8.962873307213105
      ],
      [
        "ran",
        -9.828288344305337
      ],
      [
        "▁excuse",
        -9.910653110012877
      ],
      [
        "▁ol",
        -10.208122813479125
      ],
      [
        "▁60,",
        -14.127858255991534
      ],
      [
        "▁peter",
        -8.435930581279571
      ],
      [
        "▁few",
        -7.563886831166232
      ],
      [
        "ole",
        -10.141428424058452
      ],
      [
        "among",
        -11.648301351982028
      ],
      [
        "▁pepper",
        -9.947687829727784
      ],
      [
        "▁box",
        -8.281887991647345
      ],
      [
        "▁michael",
        -9.173094140490939
      ],
      [
        "922",
        -12.522603151732724
      ],
      [
        "▁preparation",
        -10.552126020686849
      ],
      [
        "▁acro",
        -10.689507265366785
      ],
      [
        "▁73",
        -12.691161218511665
      ],
      [
        "▁conclude",
        -10.098515798649592
      ],
      [
        "▁article",
        -8.83707676878501
      ],
      [
        "▁post",
        -8.213685321572171
      ],
      [
        "▁annual",
        -9.910654348908567
      ],
      [
        "▁350",
        -11.936835337524068
      ],
      [
        "▁outdoor",
        -10.782235386598543
      ],
      [
        "▁earn",
        -9.688818002807789
      ],
      [
        "▁complet",
        -10.267186840989108
      ],
      [
        "▁popular",
        -9.124669048485398
      ],
      [
        "▁du",
        -11.406419735949775
      ],
      [
        "▁punctu",
        -11.08425033107353
      ],
      [
        "taking",
        -8.046389070022471
      ],
      [
        "▁hav",
        -6.30794197091724
      ],
      [
        "▁radical",
        -10.622149098636298
      ],
      [
        "▁dish",
        -9.322580740242282
      ],
      [
        "▁cal",
        -10.258542711671321
      ],
      [
        "▁club",
        -9.743612191995702
      ],
      [
        "lan",
        -9.887229948535015
      ],
      [
        "~",
        -9.582223498820056
      ],
      [
        "▁chal",
        -10.96386350293234
      ],
      [
        "ca",
        -8.252335262780882
      ],
      [
        "▁queen",
        -10.62213592294907
      ],
      [
        "▁functional",
        -10.076453321198054
      ],
      [
        "▁market",
        -8.14674934717936
      ],
      [
        "nature",
        -9.094819485788191
      ],
      [
        "▁arm",
        -8.333072829416132
      ],
      [
        "▁tug",
        -10.874919515723162
      ],
      [
        "▁planet",
        -10.084986055885649
      ],
      [
        ",",
        -2.069537032793109
      ],
      [
        "▁fir",
        -11.005064603428156
      ],
      [
        "▁judgment",
        -10.111450781742505
      ],
      [
        "▁tide",
        -11.08528009435921
      ],
      [
        "▁dramatic",
        -10.36285685661835
      ],
      [
        "rio",
        -11.368284490750389
      ],
      [
        "nut",
        -10.65491105913275
      ],
      [
        "▁doubt",
        -9.47875937545279
      ],
      [
        "▁cub",
        -10.964025412535719
      ],
      [
        "▁conquer",
        -11.08425473699881
      ],
      [
        "▁harr",
        -8.007388779922819
      ],
      [
        "▁limit",
        -8.839152538489198
      ],
      [
        "▁educate",
        -10.421378912509311
      ],
      [
        "▁block",
        -9.107840845631657
      ],
      [
        "▁pillow",
        -9.475364856555213
      ],
      [
        "▁disturb",
        -10.782230017059518
      ],
      [
        "western",
        -11.114036067452457
      ],
      [
        "▁lou",
        -10.879283250846045
      ],
      [
        "▁tu",
        -9.872087682157735
      ],
      [
        "▁bathroom",
        -9.264134991111142
      ],
      [
        "▁racket",
        -10.622152089241034
      ],
      [
        "▁historical",
        -9.69079308828038
      ],
      [
        "▁combat",
        -10.795199292155914
      ],
      [
        "▁audit",
        -10.15676455097204
      ],
      [
        "▁6.2",
        -13.590997101789359
      ],
      [
        "▁refer",
        -9.381174092002295
      ],
      [
        "lett",
        -10.812087449117913
      ],
      [
        "▁mission",
        -9.762788012599191
      ],
      [
        "▁metro",
        -10.15682376435106
      ],
      [
        "oo",
        -10.573184319002312
      ],
      [
        "▁prefer",
        -10.036384042793918
      ],
      [
        "ins",
        -12.845286296256571
      ],
      [
        "▁grateful",
        -10.78223038885642
      ],
      [
        "▁quixot",
        -10.782230107113012
      ],
      [
        "▁state",
        -6.990105886890453
      ],
      [
        "▁reaction",
        -10.111881543821001
      ],
      [
        "nde",
        -12.81357135271133
      ],
      [
        "108",
        -12.52073979168762
      ],
      [
        "▁administrat",
        -10.066846773898057
      ],
      [
        "▁fake",
        -10.62221587017501
      ],
      [
        "▁brit",
        -9.258084636502666
      ],
      [
        "/03",
        -14.340996840119528
      ],
      [
        "▁begu",
        -10.157537854698676
      ],
      [
        "▁mess",
        -9.415370513152652
      ],
      [
        "▁turk",
        -9.810281459478569
      ],
      [
        "▁custom",
        -9.764463156047718
      ],
      [
        "▁economist",
        -10.883388304428134
      ],
      [
        "▁pilot",
        -9.600534027767921
      ],
      [
        "▁.2",
        -12.81858396896884
      ],
      [
        "0-2",
        -13.137095825369883
      ],
      [
        "▁accelerat",
        -10.973139151502155
      ],
      [
        "rry",
        -10.098921721006656
      ],
      [
        "▁tan",
        -10.219190522267398
      ],
      [
        "▁multiply",
        -10.973157840073297
      ],
      [
        "▁6/",
        -14.98646534972313
      ],
      [
        "▁ruf",
        -10.986384975618922
      ],
      [
        "▁fanc",
        -10.893751222368946
      ],
      [
        "▁worse",
        -9.500686305556307
      ],
      [
        "▁leg",
        -8.52740958223249
      ],
      [
        "▁instant",
        -10.204377402794236
      ],
      [
        "▁anti",
        -10.088555111136227
      ],
      [
        "▁establishment",
        -10.372533127952549
      ],
      [
        "▁depr",
        -11.11045423204277
      ],
      [
        "▁stock",
        -9.370213999849458
      ],
      [
        "▁summer",
        -8.615156397380883
      ],
      [
        "▁external",
        -10.254367829945295
      ],
      [
        "och",
        -12.918959700262555
      ],
      [
        "▁mommy",
        -6.733903923115041
      ],
      [
        "om",
        -12.821276219444897
      ],
      [
        "53",
        -12.92658705674416
      ],
      [
        "ine",
        -9.242556567069514
      ],
      [
        "▁sunni",
        -10.0695121952016
      ],
      [
        "▁stu",
        -10.956381838765317
      ],
      [
        "md",
        -11.141550706240368
      ],
      [
        "ular",
        -10.562250258082946
      ],
      [
        "▁stirrup",
        -10.973254376638161
      ],
      [
        "▁47",
        -12.395029450852922
      ],
      [
        "▁skirt",
        -10.550582358574758
      ],
      [
        "▁rebel",
        -10.910375777774538
      ],
      [
        "▁sel",
        -11.029299156113318
      ],
      [
        "▁bombing",
        -10.78735410695713
      ],
      [
        "▁distant",
        -10.973178848555026
      ],
      [
        "▁patent",
        -10.973476799566154
      ],
      [
        "lotte",
        -8.381745288109983
      ],
      [
        "▁hid",
        -9.837729331349369
      ],
      [
        "▁prefect",
        -11.084250968733793
      ],
      [
        "▁chick",
        -10.893145825371228
      ],
      [
        "▁832.676.",
        -13.136770579315861
      ],
      [
        "▁clinic",
        -10.370075657248501
      ],
      [
        "▁criteri",
        -10.550571235774022
      ],
      [
        "azi",
        -10.794398206654606
      ],
      [
        "ady",
        -7.638505959234532
      ],
      [
        "ac",
        -9.396153271130302
      ],
      [
        "ama",
        -9.852007125971165
      ],
      [
        "▁violent",
        -10.31271931337284
      ],
      [
        "ul",
        -9.086764229552152
      ],
      [
        "ya",
        -12.271013452895534
      ],
      [
        "▁deck",
        -10.895411577640054
      ],
      [
        "▁83",
        -15.322788547072957
      ],
      [
        "▁cris",
        -9.850505167213981
      ],
      [
        "▁+++++",
        -12.525574909630727
      ],
      [
        "▁bless",
        -10.565649587140063
      ],
      [
        "▁4.9",
        -12.967616918539463
      ],
      [
        "▁reporter",
        -10.732586237196795
      ],
      [
        "▁recogni",
        -10.181320860438607
      ],
      [
        "▁strong",
        -8.231082438299033
      ],
      [
        "r.",
        -10.13031318877856
      ],
      [
        "leans",
        -10.307879103370025
      ],
      [
        "▁sword",
        -10.881817892121564
      ],
      [
        "▁191",
        -11.896980550058402
      ],
      [
        "c",
        -6.053272481059235
      ],
      [
        "ut",
        -9.198612629286396
      ],
      [
        "▁trust",
        -8.998695749574857
      ],
      [
        "w",
        -7.09544860878979
      ],
      [
        "▁pure",
        -9.948496827320778
      ],
      [
        "870",
        -12.325971475335379
      ],
      [
        "▁decade",
        -9.155944193568827
      ],
      [
        "out",
        -7.858831281268996
      ],
      [
        "▁spot",
        -9.032777456236623
      ],
      [
        "eries",
        -9.215375674315126
      ],
      [
        "29",
        -11.000795650078881
      ],
      [
        "ik",
        -11.833857830146387
      ],
      [
        "▁10.9",
        -13.495515420240258
      ],
      [
        "matic",
        -11.833787411555353
      ],
      [
        "▁marine",
        -10.335232068725158
      ],
      [
        "go",
        -7.828250290974991
      ],
      [
        "ct",
        -9.519962088824977
      ],
      [
        "ica",
        -9.76356922231464
      ],
      [
        "titude",
        -10.784973387301536
      ],
      [
        "▁re",
        -10.964379486458848
      ],
      [
        "▁defeat",
        -10.254400078985947
      ],
      [
        "598",
        -13.839166517124491
      ],
      [
        "▁lamb",
        -10.70369575864839
      ],
      [
        "▁enter",
        -8.9423131211093
      ],
      [
        "▁representation",
        -10.311150562286752
      ],
      [
        "▁satan",
        -10.570689332598333
      ],
      [
        "▁bloom",
        -11.084306457168077
      ],
      [
        "▁examin",
        -10.40894579969902
      ],
      [
        "on",
        -10.927554331646155
      ],
      [
        "/15/",
        -14.27211249848015
      ],
      [
        "▁relation",
        -10.54962047390394
      ],
      [
        "▁negati",
        -9.986433313723357
      ],
      [
        "iv",
        -9.495519770133896
      ],
      [
        "▁groom",
        -10.975621635738317
      ],
      [
        "el",
        -11.736101132493474
      ],
      [
        "▁shal",
        -8.887905078232697
      ],
      [
        "y@enron",
        -13.171364865159829
      ],
      [
        "▁able",
        -8.105547329319004
      ],
      [
        "▁jaz",
        -11.085638888622478
      ],
      [
        "▁belief",
        -9.475365837398577
      ],
      [
        "▁prohibit",
        -10.782230050816535
      ],
      [
        "0.23",
        -13.696436300133026
      ],
      [
        "▁du",
        -10.43326749887466
      ],
      [
        "▁rabbit",
        -9.386570556717663
      ],
      [
        "535",
        -13.342043072083616
      ],
      [
        "▁vital",
        -10.362595632942071
      ],
      [
        "▁beer",
        -9.758706235684162
      ],
      [
        "▁tasting",
        -10.807199133888707
      ],
      [
        "▁perform",
        -9.172850393464854
      ],
      [
        "▁reflect",
        -9.121238189897191
      ],
      [
        "▁pony",
        -10.783132127397295
      ],
      [
        "▁strike",
        -9.840472291679719
      ],
      [
        "sel",
        -11.095865953535217
      ],
      [
        "▁assist",
        -9.661615380039985
      ],
      [
        "▁show",
        -5.970318070480243
      ],
      [
        "uku",
        -11.087162493303367
      ],
      [
        "▁outline",
        -11.094219830048704
      ],
      [
        "▁kay",
        -9.626087307179024
      ],
      [
        "▁3-5",
        -14.178510138455284
      ],
      [
        "▁sky",
        -8.93227990541852
      ],
      [
        "▁gu",
        -9.72993125812959
      ],
      [
        "▁columb",
        -9.416684963412077
      ],
      [
        "9.3",
        -14.113070844606726
      ],
      [
        "▁poke",
        -10.98297022273384
      ],
      [
        "ng",
        -9.27386279158636
      ],
      [
        "vin",
        -10.183296501869318
      ],
      [
        "iness",
        -9.799260107864466
      ],
      [
        "▁ex",
        -12.00901042808331
      ],
      [
        "▁spill",
        -10.25470935652357
      ],
      [
        "▁marvelous",
        -10.782230010211443
      ],
      [
        "▁161",
        -11.458814305941754
      ],
      [
        "▁proclaim",
        -10.698896673649921
      ],
      [
        "▁dan",
        -9.627519892607726
      ],
      [
        "▁negotiat",
        -10.20338342726102
      ],
      [
        "art",
        -9.95838834848572
      ],
      [
        "▁four",
        -8.19459969449109
      ],
      [
        "▁11/2",
        -13.63209223626771
      ],
      [
        "▁york",
        -7.6283234266857916
      ],
      [
        "dden",
        -9.68249576039289
      ],
      [
        "ip",
        -12.162909986344415
      ],
      [
        "464",
        -15.254803851314195
      ],
      [
        "▁ma",
        -10.677501707364895
      ],
      [
        "nmar",
        -10.934394582831917
      ],
      [
        "▁mud",
        -10.346370638343487
      ],
      [
        "me",
        -9.799251337819435
      ],
      [
        "ere",
        -10.431743240538172
      ],
      [
        "▁thirt",
        -11.589558869595727
      ],
      [
        "▁bike",
        -9.24552832228042
      ],
      [
        "##",
        -12.843222124950998
      ],
      [
        "▁gain",
        -9.324827222454653
      ],
      [
        "▁wai",
        -10.21652389059648
      ],
      [
        "▁peel",
        -10.792317086096173
      ],
      [
        "cent",
        -10.403977279952016
      ],
      [
        "noth",
        -10.31004682338945
      ],
      [
        "▁260",
        -13.873155210873321
      ],
      [
        "▁duck",
        -9.183404517814289
      ],
      [
        "▁cere",
        -9.60966486245737
      ],
      [
        "▁attorney",
        -10.06781585101849
      ],
      [
        "▁dolphin",
        -10.204367706832988
      ],
      [
        "und",
        -8.39445484854238
      ],
      [
        "▁3",
        -10.470862676844959
      ],
      [
        "▁decrease",
        -10.873139458904923
      ],
      [
        "▁manner",
        -9.630952417014953
      ],
      [
        "▁offend",
        -10.783645873545835
      ],
      [
        "▁famous",
        -9.548565740227971
      ],
      [
        "▁galo",
        -9.91347307408463
      ],
      [
        "▁mov",
        -8.249384841416283
      ],
      [
        "▁vomit",
        -10.782238152140465
      ],
      [
        "▁38",
        -10.59255167573649
      ],
      [
        "▁hate",
        -9.691702620320942
      ],
      [
        "▁odara",
        -10.698898615638793
      ],
      [
        "▁announce",
        -9.698459758573577
      ],
      [
        "▁chatham",
        -10.483940123195023
      ],
      [
        "888",
        -14.24360311578829
      ],
      [
        "bert",
        -10.242654352680248
      ],
      [
        "▁militant",
        -10.254368439340722
      ],
      [
        "▁iso",
        -10.295115650840907
      ],
      [
        "▁infrastructure",
        -10.026149173992488
      ],
      [
        "▁ethic",
        -10.790297215860974
      ],
      [
        "<",
        -7.273053706688606
      ],
      [
        "▁port",
        -9.120980125631112
      ],
      [
        "▁wor",
        -9.78966098675303
      ],
      [
        "▁blast",
        -11.089285679816431
      ],
      [
        "▁sure",
        -7.483704669419667
      ],
      [
        "▁troop",
        -9.910651316343309
      ],
      [
        "▁smoke",
        -9.553073734177929
      ],
      [
        "+++++",
        -13.238891581489804
      ],
      [
        "▁president",
        -7.71426759051692
      ],
      [
        "▁list",
        -6.630249201279371
      ],
      [
        "▁03:5",
        -12.716987644101392
      ],
      [
        "▁file",
        -7.984895254788771
      ],
      [
        "▁tit",
        -10.84985343623179
      ],
      [
        "0.2",
        -14.142701855339899
      ],
      [
        "45",
        -10.759058291086449
      ],
      [
        "▁richard",
        -9.245333399719067
      ],
      [
        "▁184",
        -11.262160856172255
      ],
      [
        "ian",
        -8.500126074296503
      ],
      [
        "▁circle",
        -9.094106789806663
      ],
      [
        "▁jud",
        -10.592944357146493
      ],
      [
        "▁teaspoon",
        -11.084250212308032
      ],
      [
        "▁blame",
        -10.307506697745485
      ],
      [
        "be",
        -8.12553018442378
      ],
      [
        "0.00",
        -12.093399042272234
      ],
      [
        "ls",
        -11.685671346963831
      ],
      [
        "▁laptop",
        -10.973202611702124
      ],
      [
        "4",
        -7.806431209066831
      ],
      [
        "☎",
        -11.833785825435129
      ],
      [
        "kinaw",
        -10.32442542031161
      ],
      [
        "oul",
        -7.370660610853056
      ],
      [
        "▁172",
        -13.091313329777119
      ],
      [
        "▁miss",
        -8.314155287834987
      ],
      [
        "▁sa",
        -8.787187002172942
      ],
      [
        "▁structural",
        -10.026409011536419
      ],
      [
        "▁wonderful",
        -9.106555518415144
      ],
      [
        "▁neighborhood",
        -10.15681187708521
      ],
      [
        "▁tru",
        -9.800951603678634
      ],
      [
        "▁guadeloupe",
        -10.782230006868874
      ],
      [
        "ner",
        -11.893441421125145
      ],
      [
        "05",
        -10.93822912567012
      ],
      [
        "▁glacier",
        -11.084250209879071
      ],
      [
        "▁garden",
        -9.058277219690025
      ],
      [
        "▁inventory",
        -11.084423859808576
      ],
      [
        "▁eva",
        -10.882704247567062
      ],
      [
        "▁description",
        -9.910656727339655
      ],
      [
        "stair",
        -9.381591166035527
      ],
      [
        "it",
        -12.427307726460162
      ],
      [
        "▁phone",
        -8.133027680288292
      ],
      [
        "▁rug",
        -9.812645642771315
      ],
      [
        "646-",
        -10.793300965609516
      ],
      [
        "▁out",
        -6.829099427277347
      ],
      [
        "fr",
        -13.637637297361698
      ],
      [
        "aba",
        -12.093723410435318
      ],
      [
        "▁reinforc",
        -10.995403637244081
      ],
      [
        "less",
        -8.254284613986645
      ],
      [
        "worth",
        -10.673331189216974
      ],
      [
        "▁advisor",
        -10.873727088855
      ],
      [
        "▁wed",
        -9.315546137527582
      ],
      [
        "when",
        -10.093911075754404
      ],
      [
        "▁replie",
        -11.085238885554599
      ],
      [
        "▁people",
        -6.380760520832734
      ],
      [
        "▁happen",
        -7.653848484191818
      ],
      [
        "▁her",
        -9.72695964450235
      ],
      [
        "▁standard",
        -9.27124808361263
      ],
      [
        "val",
        -11.348403420490468
      ],
      [
        "▁gar",
        -11.938717667428307
      ],
      [
        "rs",
        -10.527302468335112
      ],
      [
        "▁san",
        -6.274772730444487
      ],
      [
        "▁483",
        -12.86636667894101
      ],
      [
        "▁exhibit",
        -9.548564316089628
      ],
      [
        "▁anyway",
        -8.776648282742809
      ],
      [
        "▁thirty",
        -9.77724229198195
      ],
      [
        "▁stillman",
        -9.001052209822694
      ],
      [
        "nato",
        -9.889079097814616
      ],
      [
        "ir",
        -9.122160282993223
      ],
      [
        "▁carni",
        -10.623803604918919
      ],
      [
        "▁any",
        -8.34595490281162
      ],
      [
        "▁wizard",
        -10.067816128528214
      ],
      [
        "▁197",
        -9.694592538884919
      ],
      [
        "▁whe",
        -8.779464586792184
      ],
      [
        "571",
        -14.156374722740878
      ],
      [
        "▁510",
        -14.658388214483207
      ],
      [
        "▁nervous",
        -9.743612164677167
      ],
      [
        "▁banjo",
        -10.698956502375562
      ],
      [
        "72",
        -10.708839149700829
      ],
      [
        "▁prison",
        -10.966770503540726
      ],
      [
        "▁ca",
        -8.700389737759291
      ],
      [
        "▁thousand",
        -9.385420109859613
      ],
      [
        "▁venture",
        -10.307054513452616
      ],
      [
        "gel",
        -12.83421798656406
      ],
      [
        "▁al",
        -7.856982673714977
      ],
      [
        "4-6",
        -14.856897830413905
      ],
      [
        "clair",
        -10.596027052839524
      ],
      [
        "▁ram",
        -9.93450016978628
      ],
      [
        "▁tra",
        -13.058002959165613
      ],
      [
        "0",
        -9.597530363980798
      ],
      [
        "where",
        -11.75353131760598
      ],
      [
        "▁or",
        -9.547816572173035
      ],
      [
        "al",
        -9.879150985532643
      ],
      [
        "?",
        -3.1139181233845843
      ],
      [
        "▁obvious",
        -9.283294189408487
      ],
      [
        "▁principle",
        -9.655739769141405
      ],
      [
        "ison",
        -10.231946535048676
      ],
      [
        "▁150",
        -11.061562300554717
      ],
      [
        "▁op",
        -10.340318410867607
      ],
      [
        "world",
        -10.847732144510678
      ],
      [
        "ami",
        -11.171813005991753
      ],
      [
        "▁laure",
        -10.879866111901205
      ],
      [
        "ude",
        -11.343820274385248
      ],
      [
        "▁dick",
        -10.622675451820747
      ],
      [
        "▁depend",
        -9.051332825165185
      ],
      [
        "▁`",
        -11.280003543173743
      ],
      [
        "▁hous",
        -9.99846106190791
      ],
      [
        "ty",
        -8.090588672545262
      ],
      [
        "▁men",
        -8.196075136702632
      ],
      [
        "▁+1",
        -12.262684937133976
      ],
      [
        "▁2,2",
        -13.41439230409761
      ],
      [
        "land",
        -6.858891640333334
      ],
      [
        "▁diploma",
        -11.028863866871053
      ],
      [
        "▁cost",
        -7.890335100128528
      ],
      [
        "en",
        -9.930597159475044
      ],
      [
        "▁when",
        -6.4524013807117555
      ],
      [
        "津",
        -12.833785825435129
      ],
      [
        "▁chapter",
        -9.807190365250314
      ],
      [
        "▁alon",
        -8.708524258632071
      ],
      [
        "▁stage",
        -9.524200866182348
      ],
      [
        "▁declare",
        -10.110356486702454
      ],
      [
        "▁cia",
        -9.700543163894716
      ],
      [
        "hatta",
        -11.08536777662701
      ],
      [
        "▁con",
        -10.832625508225734
      ],
      [
        "▁form",
        -11.39195798495936
      ],
      [
        "▁remote",
        -10.62202741693656
      ],
      [
        "▁coinciden",
        -10.87570454632011
      ],
      [
        "▁incite",
        -10.699561365519338
      ],
      [
        "▁infection",
        -10.874337936445944
      ],
      [
        "▁medal",
        -10.874648199305858
      ],
      [
        "▁wit",
        -10.550867162349347
      ],
      [
        "▁19",
        -9.66263772563138
      ],
      [
        "▁rust",
        -10.703973041199202
      ],
      [
        "▁05908",
        -14.1378574751992
      ],
      [
        "▁monitor",
        -10.362555101481242
      ],
      [
        "20-2",
        -13.170838406954253
      ],
      [
        "▁08:2",
        -12.405270304354548
      ],
      [
        "41",
        -12.7255854599447
      ],
      [
        "▁linguistic",
        -9.98622477334386
      ],
      [
        "ino",
        -10.146744242787909
      ],
      [
        "▁rubb",
        -10.556193243532423
      ],
      [
        "affle",
        -10.921003389447513
      ],
      [
        "▁knowledge",
        -8.941297637598588
      ],
      [
        "▁apri",
        -8.450199450911366
      ],
      [
        "▁statue",
        -10.410122079053654
      ],
      [
        "▁sat",
        -8.862345412538494
      ],
      [
        "▁stamp",
        -11.20911858789488
      ],
      [
        "▁nice",
        -7.536357891801644
      ],
      [
        "▁allow",
        -8.804257228262099
      ],
      [
        "▁b",
        -10.167201760957562
      ],
      [
        "cy",
        -7.951677293448122
      ],
      [
        "▁sun",
        -8.195462141579643
      ],
      [
        "▁transmitt",
        -10.557547469064236
      ],
      [
        "2",
        -8.593598193072214
      ],
      [
        "▁aim",
        -9.478420372050632
      ],
      [
        "▁brother",
        -8.849407188241042
      ],
      [
        "▁outbreak",
        -11.209250210231989
      ],
      [
        "3/4",
        -12.32396428337602
      ],
      [
        "ampa",
        -9.076298603920982
      ],
      [
        "▁twin",
        -10.684036912295623
      ],
      [
        "▁27",
        -10.732058639073953
      ],
      [
        "▁4,",
        -13.548474608935889
      ],
      [
        "▁plast",
        -10.971902917848457
      ],
      [
        "acio",
        -11.783930075849659
      ],
      [
        "▁jerem",
        -10.782267194468432
      ],
      [
        "ahar",
        -10.805670949114756
      ],
      [
        "=---",
        -11.827184960077153
      ],
      [
        "▁struggle",
        -10.193871526927166
      ],
      [
        "2-3",
        -14.13762684307704
      ],
      [
        "▁fleet",
        -11.101417952336762
      ],
      [
        "▁pipe",
        -10.068091089159783
      ],
      [
        "▁tulsa",
        -10.026151011125464
      ],
      [
        "▁bug",
        -9.144577828000006
      ],
      [
        "▁belo",
        -9.67726183565998
      ],
      [
        "▁aka",
        -10.976140764046944
      ],
      [
        "age",
        -8.024843805579717
      ],
      [
        "▁necessar",
        -8.776369707705634
      ],
      [
        "25-",
        -13.398557885729504
      ],
      [
        "pal",
        -12.510807336189368
      ],
      [
        "35-",
        -12.600562428656751
      ],
      [
        "▁sauce",
        -10.421543581335143
      ],
      [
        "368",
        -12.773220836068141
      ],
      [
        "▁dedicat",
        -10.362883969625129
      ],
      [
        "kept",
        -8.713651240756871
      ],
      [
        "47",
        -11.295163113814404
      ],
      [
        "▁olympic",
        -10.550756489059975
      ],
      [
        "▁raci",
        -10.689328481926642
      ],
      [
        "▁virus",
        -10.726878509670541
      ],
      [
        "▁repair",
        -9.173341729264152
      ],
      [
        "1-9",
        -13.13368050726758
      ],
      [
        "▁thes",
        -7.428819531863237
      ],
      [
        "▁hero",
        -10.161949237256202
      ],
      [
        "▁51",
        -12.853110873290897
      ],
      [
        "▁vulnerab",
        -11.084200776775532
      ],
      [
        "▁medi",
        -10.704877650443954
      ],
      [
        "▁digital",
        -9.364983415570082
      ],
      [
        "▁argentin",
        -10.111294106890856
      ],
      [
        "▁demo",
        -11.048580346906451
      ],
      [
        "▁ago",
        -8.30489380358946
      ],
      [
        "▁94720-",
        -13.136776257797242
      ],
      [
        "urt",
        -10.148374348583047
      ],
      [
        "▁record",
        -8.22145530443655
      ],
      [
        "▁pizza",
        -9.058225023239046
      ],
      [
        "▁democra",
        -9.258365520984503
      ],
      [
        "▁exam",
        -10.362283817632438
      ],
      [
        "▁appropriate",
        -9.432296933988706
      ],
      [
        "▁129",
        -12.292761266971032
      ],
      [
        "▁canadian",
        -9.574205372869981
      ],
      [
        "▁identifie",
        -9.807147500482166
      ],
      [
        "▁pole",
        -10.328605793186027
      ],
      [
        "▁appeal",
        -9.840468049808036
      ],
      [
        "▁knock",
        -9.499175025023927
      ],
      [
        "▁drift",
        -10.973293215019027
      ],
      [
        "▁elder",
        -10.484244448914763
      ],
      [
        "eenth",
        -9.71809106585776
      ],
      [
        "r",
        -9.397823026701388
      ],
      [
        "▁escape",
        -9.61014340361331
      ],
      [
        "▁phillip",
        -10.782234522955564
      ],
      [
        "/30/",
        -14.116722555682111
      ],
      [
        "io",
        -9.117164473535738
      ],
      [
        "▁occupation",
        -10.254378057930651
      ],
      [
        "▁been",
        -9.488493653627522
      ],
      [
        "▁mother",
        -7.842860300539455
      ],
      [
        "▁development",
        -8.520634377464724
      ],
      [
        "n@enron",
        -11.729776130192164
      ],
      [
        "▁rac",
        -10.170870715099795
      ],
      [
        "▁entrepreneur",
        -10.78223000686885
      ],
      [
        "▁play+grou",
        -10.873821088501426
      ],
      [
        "▁pos",
        -9.862834444783372
      ],
      [
        "thes",
        -10.352235109980318
      ],
      [
        "▁random",
        -10.782424371423929
      ],
      [
        "▁length",
        -9.8072350112515
      ],
      [
        "▁resign",
        -10.973189026957632
      ],
      [
        "tangle",
        -11.08437780800704
      ],
      [
        "▁exceed",
        -10.69897964127641
      ],
      [
        "▁24",
        -9.636353922881263
      ],
      [
        "44",
        -11.598422574296846
      ],
      [
        "▁event",
        -8.288376792463676
      ],
      [
        "3/10/",
        -13.85866816322424
      ],
      [
        "09/20",
        -13.900643861991314
      ],
      [
        "▁ye",
        -13.20908364397883
      ],
      [
        "▁frost",
        -10.550584366797674
      ],
      [
        "▁interpretation",
        -10.623802134642816
      ],
      [
        "▁worker",
        -9.386994668389669
      ],
      [
        "▁invitation",
        -10.363814143225648
      ],
      [
        "▁ob",
        -9.94689202988137
      ],
      [
        "▁42,000",
        -12.74446322108097
      ],
      [
        "▁mature",
        -10.783461731956733
      ],
      [
        "▁relie",
        -9.943333547700991
      ],
      [
        "▁musician",
        -10.874777041976019
      ],
      [
        "▁sting",
        -10.444569521649687
      ],
      [
        "▁210",
        -12.593731700753738
      ],
      [
        "▁bow",
        -9.775432346926516
      ],
      [
        "▁tam",
        -10.519663649389418
      ],
      [
        "▁saint",
        -10.072281921829315
      ],
      [
        "bye",
        -10.207259023339528
      ],
      [
        "▁summar",
        -10.167849183697482
      ],
      [
        "▁fa",
        -10.052087057422664
      ],
      [
        "▁196",
        -10.37065919256603
      ],
      [
        "▁crime",
        -9.743685927051091
      ],
      [
        "wa",
        -14.382662615359283
      ],
      [
        "enth",
        -10.67703077055416
      ],
      [
        "▁fail",
        -9.208635457953807
      ],
      [
        "▁fifty",
        -10.236686281632451
      ],
      [
        "▁equit",
        -11.157451592742849
      ],
      [
        "▁romantic",
        -9.912593201872433
      ],
      [
        "▁>",
        -9.25200696802715
      ],
      [
        "▁seven",
        -8.978118629881944
      ],
      [
        "-----",
        -11.828237302032942
      ],
      [
        "▁gate",
        -10.077964484577555
      ],
      [
        "▁?!?",
        -13.647540773753786
      ],
      [
        "▁pudd",
        -10.993211504636179
      ],
      [
        "▁grow",
        -7.904220497928737
      ],
      [
        "▁web",
        -8.707674925952503
      ],
      [
        "838",
        -11.947564887353263
      ],
      [
        "▁micro",
        -9.427415796789694
      ],
      [
        "60",
        -10.949356537605155
      ],
      [
        "the",
        -5.642825194949209
      ],
      [
        "▁poor",
        -8.566966710548662
      ],
      [
        "▁introduce",
        -9.684496275864667
      ],
      [
        "▁submitt",
        -10.560915627134758
      ],
      [
        "ley",
        -8.723333522603777
      ],
      [
        "chene",
        -11.139740372622853
      ],
      [
        "▁not",
        -8.772272525484624
      ],
      [
        "8.9",
        -15.339592219009129
      ],
      [
        "▁self-",
        -10.423296876432977
      ],
      [
        "▁split",
        -10.111412663335075
      ],
      [
        "▁com",
        -9.726157529707933
      ],
      [
        "▁mill",
        -9.334516367393025
      ],
      [
        "z",
        -11.758838788587859
      ],
      [
        "page",
        -10.44255235687459
      ],
      [
        "▁context",
        -9.499181823347236
      ],
      [
        "▁shore",
        -10.216982745968023
      ],
      [
        "lump",
        -10.898721281335664
      ],
      [
        "sa",
        -10.695860057288726
      ],
      [
        "▁fluid",
        -10.622243741345308
      ],
      [
        "▁hand",
        -7.474497682445633
      ],
      [
        "▁dangerous",
        -9.226805459243224
      ],
      [
        "▁platform",
        -10.483878480825059
      ],
      [
        "ness",
        -7.692828043018081
      ],
      [
        "▁altho",
        -8.788071809821147
      ],
      [
        "▁chang",
        -9.195557309020312
      ],
      [
        "erdu",
        -13.540715440602636
      ],
      [
        "▁grand",
        -9.486132052799874
      ],
      [
        "il",
        -11.044022491264839
      ],
      [
        "onnais",
        -10.97335496332478
      ],
      [
        "▁multiple",
        -10.111295169131482
      ],
      [
        "▁officer",
        -9.671135448160328
      ],
      [
        "▁mam",
        -8.874823739281819
      ],
      [
        "▁river",
        -8.800124282412238
      ],
      [
        "916",
        -13.315553684963554
      ],
      [
        "▁bann",
        -11.09056152002874
      ],
      [
        "▁con",
        -8.444368400819524
      ],
      [
        "incin",
        -8.950775990607587
      ],
      [
        "@e",
        -12.090087232157854
      ],
      [
        "▁pound",
        -10.421939726114195
      ],
      [
        "▁tooth",
        -10.615617675630658
      ],
      [
        "▁chat",
        -10.389947570978356
      ],
      [
        "▁vs",
        -11.57526734692979
      ],
      [
        "▁knot",
        -10.699301809641248
      ],
      [
        "▁gloom",
        -10.873197649818103
      ],
      [
        "177",
        -13.361139344580991
      ],
      [
        "▁concern",
        -8.36930336745451
      ],
      [
        "4/200",
        -11.6968378555277
      ],
      [
        ".com",
        -8.322054983344787
      ],
      [
        "▁mar",
        -9.104443359614773
      ],
      [
        "▁mere",
        -9.752734691760187
      ],
      [
        "▁l2",
        -10.068040995809394
      ],
      [
        "▁submit",
        -10.774283065120187
      ],
      [
        "▁ticket",
        -8.575707893009891
      ],
      [
        "ll",
        -9.832496415041213
      ],
      [
        "ania",
        -10.390934314299248
      ],
      [
        "▁09:",
        -12.264147356493272
      ],
      [
        "▁sail",
        -10.186589821493465
      ],
      [
        "ic",
        -7.528556480818282
      ],
      [
        "▁explore",
        -10.1180799741859
      ],
      [
        "▁para",
        -10.100087377997593
      ],
      [
        "582",
        -13.102324567069676
      ],
      [
        "1:00",
        -11.411252376672222
      ],
      [
        "o",
        -2.821872209097938
      ],
      [
        "▁traditional",
        -10.127235216054286
      ],
      [
        "▁davis",
        -10.701208656344509
      ],
      [
        "p",
        -6.878096542051049
      ],
      [
        "▁barrel",
        -10.307236268637428
      ],
      [
        "nathan",
        -10.573789380699868
      ],
      [
        "▁hang",
        -9.029008399063528
      ],
      [
        "▁happening",
        -9.914543032080713
      ],
      [
        "aviatio",
        -12.833785826210246
      ],
      [
        "▁central",
        -9.151434451939577
      ],
      [
        "tractor",
        -9.901263564357983
      ],
      [
        "6,000",
        -12.2180269926182
      ],
      [
        "▁result",
        -8.012675865763608
      ],
      [
        "▁piece",
        -7.929776084190847
      ],
      [
        "▁’",
        -10.228851442284377
      ],
      [
        "▁ball",
        -7.999732829961001
      ],
      [
        "▁group",
        -7.486920746737258
      ],
      [
        "bbie",
        -10.491690998071192
      ],
      [
        "tel",
        -12.258190552242457
      ],
      [
        "▁eager",
        -10.621982425244068
      ],
      [
        "▁7.2",
        -11.34898867292298
      ],
      [
        "ava",
        -13.084340474635995
      ],
      [
        "yours",
        -13.83576927956286
      ],
      [
        "▁bank",
        -9.028098151087228
      ],
      [
        "د",
        -11.833785825435129
      ],
      [
        "▁1960",
        -11.084250244129834
      ],
      [
        "▁ru",
        -9.74511487636968
      ],
      [
        "▁write",
        -7.835614184940715
      ],
      [
        "▁movement",
        -9.305682674770164
      ],
      [
        "▁song",
        -8.94721580822647
      ],
      [
        "▁resort",
        -10.483882088019794
      ],
      [
        "▁merry",
        -10.69987685168506
      ],
      [
        "▁quartile",
        -10.068445531913998
      ],
      [
        "▁original",
        -8.679665516292978
      ],
      [
        "▁90",
        -10.827220631113347
      ],
      [
        "▁190",
        -11.796319890941165
      ],
      [
        "under",
        -10.790592078732978
      ],
      [
        "▁st",
        -9.101820277451566
      ],
      [
        "▁institutional",
        -10.89831676290965
      ],
      [
        "▁squirt",
        -10.362554929779831
      ],
      [
        "▁heat",
        -8.763110575261006
      ],
      [
        "**********",
        -11.222325853193087
      ],
      [
        "g.",
        -9.666834862862883
      ],
      [
        "▁statu",
        -9.66887589452464
      ],
      [
        "▁address",
        -8.57038704206899
      ],
      [
        "▁propos",
        -9.87193776122131
      ],
      [
        "2:30",
        -12.608712494538269
      ],
      [
        "xx",
        -14.147609184277663
      ],
      [
        "▁jess",
        -10.786509836177169
      ],
      [
        "▁stopover",
        -9.074125237959244
      ],
      [
        "*",
        -11.209250208901656
      ],
      [
        "▁constitute",
        -10.973175691918021
      ],
      [
        "n",
        -5.3056045276559605
      ],
      [
        "▁abundant",
        -11.087255735208817
      ],
      [
        "▁annoy",
        -10.362584225603934
      ],
      [
        "hanie",
        -10.78070244282878
      ],
      [
        "▁wheel",
        -9.245983458054887
      ],
      [
        "ve",
        -10.988946458107845
      ],
      [
        "▁collaboration",
        -10.698896673538517
      ],
      [
        "▁substance",
        -10.362708515154814
      ],
      [
        "wa",
        -12.083792402984447
      ],
      [
        "☏",
        -11.333785825435129
      ],
      [
        "▁v",
        -9.59243631711555
      ],
      [
        "▁raise",
        -9.307571758468216
      ],
      [
        "28",
        -11.333881110935947
      ],
      [
        "▁shell",
        -9.913134954789337
      ],
      [
        "185",
        -14.936288602100406
      ],
      [
        "▁hee",
        -10.86448750162325
      ],
      [
        "▁us",
        -6.549071983037802
      ],
      [
        "▁wrong",
        -8.585264421180998
      ],
      [
        "1.3",
        -11.69160675419613
      ],
      [
        "▁lips",
        -10.690172532982977
      ],
      [
        "gel",
        -10.8448556212772
      ],
      [
        "▁quiet",
        -9.322999391073672
      ],
      [
        "196",
        -13.559621706648937
      ],
      [
        "▁199",
        -8.832557886515346
      ],
      [
        "▁17,",
        -14.128355496279143
      ],
      [
        "▁holiday",
        -9.84045520745625
      ],
      [
        "▁zip",
        -11.207668530060356
      ],
      [
        "7.3",
        -12.709136079735888
      ],
      [
        "be",
        -7.33820054337601
      ],
      [
        "▁bulldo",
        -9.385435394454971
      ],
      [
        "▁frank",
        -9.548970594545004
      ],
      [
        "▁committee",
        -8.944095087685895
      ],
      [
        "▁be",
        -5.10546657731296
      ],
      [
        "▁nephew",
        -10.621973600657142
      ],
      [
        "▁hammer",
        -10.421395625710122
      ],
      [
        "▁region",
        -8.761943997739426
      ],
      [
        "▁11/0",
        -12.309214898187182
      ],
      [
        "▁papa",
        -10.973682672116851
      ],
      [
        "▁accompan",
        -10.78245403043924
      ],
      [
        "▁minne",
        -8.969421239318699
      ],
      [
        "▁rear",
        -10.79018916312382
      ],
      [
        "▁momm",
        -8.900877225897347
      ],
      [
        "▁position",
        -8.539686451992031
      ],
      [
        "▁academ",
        -10.483330649280639
      ],
      [
        "▁inde",
        -9.667730167186834
      ],
      [
        "▁cuba",
        -10.104603280832787
      ],
      [
        "▁rest",
        -8.3962735459037
      ],
      [
        "▁620-294-",
        -12.665389467361312
      ],
      [
        "▁per",
        -7.651239297079778
      ],
      [
        "▁81",
        -14.1327121906509
      ],
      [
        "internet",
        -8.73156106710295
      ],
      [
        "▁funeral",
        -10.362623540963945
      ],
      [
        "cc",
        -10.689679487776264
      ],
      [
        "▁team",
        -8.434061617845792
      ],
      [
        "▁26",
        -10.232134791583126
      ],
      [
        "▁happens",
        -9.756012780593961
      ],
      [
        "▁gentleman",
        -11.085593229846864
      ],
      [
        "[PAD]",
        0.0
      ],
      [
        "usa",
        -12.832706118609991
      ],
      [
        "▁mask",
        -10.307595552842113
      ],
      [
        "▁coron",
        -10.113023550767714
      ],
      [
        "▁correspond",
        -10.78212379728984
      ],
      [
        "▁bump",
        -9.774989649407399
      ],
      [
        "200",
        -8.756247508088082
      ],
      [
        "▁separate",
        -9.22944454469081
      ],
      [
        "▁uk",
        -9.796629383737784
      ],
      [
        "▁uneas",
        -10.782399240010704
      ],
      [
        "▁!!!!!!!!!!!!!",
        -12.91786016858164
      ],
      [
        "▁opinion",
        -9.264063588756596
      ],
      [
        "90",
        -10.494507468409507
      ],
      [
        "▁bronz",
        -10.873139455963921
      ],
      [
        "▁monarch",
        -10.873172656351379
      ],
      [
        "▁earl",
        -10.666811109602605
      ],
      [
        "haz",
        -10.752225867554266
      ],
      [
        "▁curl",
        -10.262438417185006
      ],
      [
        ".",
        -1.4798978484674539
      ],
      [
        "▁adequate",
        -10.208911520232537
      ],
      [
        "▁shel",
        -9.875802785374395
      ],
      [
        "▁focus",
        -8.730657250069413
      ],
      [
        "▁860",
        -13.310265226410369
      ],
      [
        "▁crap",
        -10.309727814396602
      ],
      [
        "▁trail",
        -9.8747619387429
      ],
      [
        "▁pla",
        -10.7760136390926
      ],
      [
        "▁request",
        -8.556743422124965
      ],
      [
        "▁beat",
        -9.544093295167178
      ],
      [
        "▁swim",
        -10.2033959054891
      ],
      [
        "▁socialist",
        -11.092707118366048
      ],
      [
        ":00",
        -9.712247828919521
      ],
      [
        "▁level",
        -8.279686546625193
      ],
      [
        "▁to",
        -8.619996718894242
      ],
      [
        "▁mason",
        -11.104575299628094
      ],
      [
        "******",
        -12.42827897919895
      ],
      [
        "▁han",
        -10.372876117014707
      ],
      [
        "▁10:1",
        -14.856075921306758
      ],
      [
        "▁bobo",
        -10.372715159627722
      ],
      [
        "ennes",
        -10.796096449398352
      ],
      [
        "▁drill",
        -10.484222999673712
      ],
      [
        "·",
        -9.904817571414563
      ],
      [
        "▁interaction",
        -10.70013892190831
      ],
      [
        "▁shirt",
        -8.800827186829315
      ],
      [
        "▁vanish",
        -10.78318355200131
      ],
      [
        "uck",
        -10.257283761250696
      ],
      [
        "microsoft",
        -9.226677554791918
      ],
      [
        "name",
        -10.486359765719365
      ],
      [
        "▁barr",
        -10.586072180794135
      ],
      [
        "▁tiger",
        -9.245198975223296
      ],
      [
        "▁road",
        -8.43327568167518
      ],
      [
        "▁713",
        -10.747469919244548
      ],
      [
        "48",
        -11.19025983370161
      ],
      [
        "▁finger",
        -8.585793179689816
      ],
      [
        "having",
        -8.160232498808702
      ],
      [
        "▁wing",
        -10.661632642247259
      ],
      [
        "▁lil",
        -10.266199182212814
      ],
      [
        "▁600",
        -11.992235792398532
      ],
      [
        "▁remain",
        -8.392583600567937
      ],
      [
        "5:5",
        -15.210297261145309
      ],
      [
        "▁regret",
        -10.156748692735986
      ],
      [
        "▁clan",
        -10.995075467148384
      ],
      [
        ":5",
        -14.280357869335672
      ],
      [
        "▁335",
        -13.289610428496676
      ],
      [
        "▁speculat",
        -11.056764251854908
      ],
      [
        "@",
        -8.811977016458613
      ],
      [
        "▁inform",
        -9.38394984849841
      ],
      [
        "pped",
        -9.37082436722205
      ],
      [
        "▁guilt",
        -10.111299589506155
      ],
      [
        "▁’",
        -8.643293563333359
      ],
      [
        "▁fo",
        -12.838710837665342
      ],
      [
        "▁high",
        -7.210419519361479
      ],
      [
        "ckl",
        -13.677387732759543
      ],
      [
        "▁gis",
        -10.57110895234702
      ],
      [
        "▁2.",
        -11.0544669463262
      ],
      [
        "▁crush",
        -10.621974054068026
      ],
      [
        "▁broke",
        -8.214928836177446
      ],
      [
        "▁spark",
        -10.975160593411358
      ],
      [
        "sie",
        -11.754802446786904
      ],
      [
        "▁apart",
        -9.774269006626648
      ],
      [
        "▁sho",
        -10.92627052268816
      ],
      [
        "▁parakeet",
        -10.550548088041714
      ],
      [
        "▁camp",
        -8.940700988802973
      ],
      [
        "▁goal",
        -9.100841859925154
      ],
      [
        "▁ha",
        -8.419259569641982
      ],
      [
        "---------",
        -11.421537248111758
      ],
      [
        "▁santa",
        -9.527575930950608
      ],
      [
        "▁question",
        -7.8723794383391255
      ],
      [
        "▁just",
        -5.912600459585355
      ],
      [
        "▁control",
        -8.241589411148528
      ],
      [
        "▁05:0",
        -13.188630233891782
      ],
      [
        "▁12:",
        -12.101167411589989
      ],
      [
        "92",
        -10.548452700926315
      ],
      [
        "▁admir",
        -10.254499118101068
      ],
      [
        "▁plann",
        -8.83373503072169
      ],
      [
        "▁p",
        -13.445667666071772
      ],
      [
        "▁chute",
        -10.973441359350653
      ],
      [
        "▁church",
        -8.76700001969672
      ],
      [
        "a",
        -8.241796670952791
      ],
      [
        "▁for",
        -9.35870124181767
      ],
      [
        "▁55",
        -11.364943101794239
      ],
      [
        "▁log",
        -10.08206878732548
      ],
      [
        "power",
        -11.184298997830908
      ],
      [
        "▁ig",
        -11.51413377136796
      ],
      [
        "▁hole",
        -8.921807110090482
      ],
      [
        "▁due",
        -8.46771461249692
      ],
      [
        "▁matter",
        -8.316198165826975
      ],
      [
        "800",
        -11.90740677986232
      ],
      [
        "▁mont",
        -11.406343531014489
      ],
      [
        "▁dodg",
        -11.126281907545867
      ],
      [
        "▁warning",
        -10.391558131966397
      ],
      [
        "▁cafe",
        -10.15700172848302
      ],
      [
        "ruse",
        -11.153345853613754
      ],
      [
        "alle",
        -12.346705581634012
      ],
      [
        "▁+45",
        -12.642880847425275
      ],
      [
        "▁herself",
        -10.235000470458203
      ],
      [
        "▁shut",
        -9.48209501305465
      ],
      [
        "▁ray",
        -9.867679673327514
      ],
      [
        "▁nick",
        -9.713367822552106
      ],
      [
        ".htm",
        -10.360523915528816
      ],
      [
        "than",
        -10.213510771916933
      ],
      [
        "science",
        -10.556809667448842
      ],
      [
        "▁scholar",
        -10.349349034379241
      ],
      [
        "▁network",
        -9.385474428738236
      ],
      [
        "co",
        -11.294682586699295
      ],
      [
        "▁bake",
        -10.92637896941837
      ],
      [
        "0.7",
        -14.545472279677153
      ],
      [
        "▁arrogant",
        -10.30863613314014
      ],
      [
        "27",
        -10.991960113745261
      ],
      [
        "▁pause",
        -10.364583024162837
      ],
      [
        "iling",
        -10.20389837161698
      ],
      [
        "▁scissor",
        -10.254371275121303
      ],
      [
        "▁assumption",
        -11.088055860482882
      ],
      [
        "saw",
        -10.188446220144538
      ],
      [
        "▁flow",
        -9.473499749118794
      ],
      [
        ".78",
        -14.474818416915438
      ],
      [
        "▁half",
        -8.464229717679352
      ],
      [
        "▁harvest",
        -10.484539704424769
      ],
      [
        "▁transformation",
        -10.552991782242126
      ],
      [
        "▁modifi",
        -10.87314303083782
      ],
      [
        "▁addict",
        -10.698817609272787
      ],
      [
        "▁owners",
        -10.375647256691646
      ],
      [
        "▁amend",
        -10.06807923964526
      ],
      [
        "▁pride",
        -10.254407626268549
      ],
      [
        "&",
        -9.650196930708162
      ],
      [
        "▁more",
        -6.036639033968968
      ],
      [
        "▁call",
        -6.627181724743064
      ],
      [
        "▁125",
        -12.781539555372705
      ],
      [
        "▁dc",
        -8.047450414660776
      ],
      [
        "▁background",
        -9.911567567866742
      ],
      [
        "▁jerk",
        -10.977220184926393
      ],
      [
        "▁mush",
        -9.840525444274324
      ],
      [
        "▁considerabl",
        -10.357727269014735
      ],
      [
        "▁shi",
        -9.90540996385658
      ],
      [
        "ado",
        -9.532167905729406
      ],
      [
        "▁170",
        -11.451663510935795
      ],
      [
        "680",
        -12.884090929504227
      ],
      [
        "▁auster",
        -9.36414949919897
      ],
      [
        "▁imagination",
        -10.551068692518175
      ],
      [
        "▁robbi",
        -11.128564904719159
      ],
      [
        "▁honor",
        -9.840467773912943
      ],
      [
        "tte",
        -9.419719184397202
      ],
      [
        "-40",
        -14.138646239169772
      ],
      [
        "yard",
        -10.624917448303096
      ],
      [
        "▁seattle",
        -8.538012627106802
      ],
      [
        "beauty",
        -9.452278222818128
      ],
      [
        "bi",
        -11.03152925061998
      ],
      [
        "▁impe",
        -11.111898630816517
      ],
      [
        "inst",
        -8.311210208200961
      ],
      [
        "▁million",
        -9.714007873929823
      ],
      [
        "▁mc",
        -9.628672447463806
      ],
      [
        "▁blou",
        -10.55376608689944
      ],
      [
        "▁lion",
        -9.630952028610238
      ],
      [
        "▁ride",
        -8.403267148048073
      ],
      [
        "▁vote",
        -8.678610694923584
      ],
      [
        "▁laundr",
        -10.42137876648194
      ],
      [
        "▁exaggerat",
        -11.084250214502688
      ],
      [
        "ps",
        -11.805325689791168
      ],
      [
        "▁ethnic",
        -10.362554876798786
      ],
      [
        "▁lipstick",
        -10.362555247228114
      ],
      [
        "zen",
        -11.834053334203755
      ],
      [
        "▁voice",
        -8.538168063413751
      ],
      [
        "▁alternative",
        -9.452148556009037
      ],
      [
        "▁other",
        -6.194378569061986
      ],
      [
        "▁propos",
        -11.833816316062954
      ],
      [
        "▁other",
        -10.00918580141893
      ],
      [
        "▁nazi",
        -11.08462085375221
      ],
      [
        "250",
        -13.491759104348041
      ],
      [
        "▁01:09",
        -13.13717434348705
      ],
      [
        "▁dress",
        -8.52815531764082
      ],
      [
        "▁04",
        -11.318655228848781
      ],
      [
        "6-",
        -13.67457463137944
      ],
      [
        "5",
        -11.2014486825648
      ],
      [
        "water",
        -11.060697177913504
      ],
      [
        "▁jesu",
        -10.622448360598924
      ],
      [
        "04",
        -11.055407844624849
      ],
      [
        "▁experimental",
        -10.117742280838666
      ],
      [
        "77.9",
        -13.13680984754577
      ],
      [
        "▁die",
        -7.781664094991876
      ],
      [
        "▁bitter",
        -10.878441379751276
      ],
      [
        "▁counterpart",
        -9.60052118286885
      ],
      [
        "hind",
        -10.593946018264361
      ],
      [
        "hood",
        -9.736592906049385
      ],
      [
        "s",
        -3.2339556402487695
      ],
      [
        "▁u",
        -13.94090580388319
      ],
      [
        "▁oath",
        -10.550564432933415
      ],
      [
        ".org",
        -10.873285497050528
      ],
      [
        "▁61",
        -11.866436017991855
      ],
      [
        "`",
        -11.928182729573079
      ],
      [
        "▁provide",
        -7.820179578203204
      ],
      [
        "▁achieve",
        -9.540696802696308
      ],
      [
        "▁partners",
        -10.501477241707075
      ],
      [
        "▁pat",
        -10.351614058474034
      ],
      [
        "ua",
        -9.500032956693179
      ],
      [
        "▁silent",
        -10.260183659851435
      ],
      [
        "▁supplie",
        -10.023452223488425
      ],
      [
        "▁fascinat",
        -10.621974874362007
      ],
      [
        "▁scar",
        -8.709008545709349
      ],
      [
        "▁interjection",
        -11.084250208948113
      ],
      [
        "▁mexic",
        -9.363540751094947
      ],
      [
        "988",
        -13.709422723261252
      ],
      [
        "▁stopp",
        -8.870291921383313
      ],
      [
        "6.8",
        -11.521944113403627
      ],
      [
        "▁doll",
        -9.383645871332288
      ],
      [
        "▁direction",
        -9.388006737768812
      ],
      [
        "▁programme",
        -8.883567770222658
      ],
      [
        "▁imprison",
        -10.698896674172563
      ],
      [
        "▁translat",
        -10.563970159340066
      ],
      [
        "▁provid",
        -9.551309693371383
      ],
      [
        "te",
        -10.853311653238517
      ],
      [
        "▁bio",
        -10.289524882144221
      ],
      [
        "▁production",
        -9.580345379370915
      ],
      [
        "▁mainstream",
        -11.08441079242143
      ],
      [
        "▁note",
        -8.543556749041922
      ],
      [
        "gmail",
        -11.08861362965058
      ],
      [
        "▁prevent",
        -9.28467835523149
      ],
      [
        "▁254",
        -14.829903551071721
      ],
      [
        "4gamer",
        -10.782230014594692
      ],
      [
        "▁paragraph",
        -10.78228039570954
      ],
      [
        "▁roman",
        -7.676396795391371
      ],
      [
        "???",
        -11.362839390116866
      ],
      [
        "▁teh",
        -10.887363028096274
      ],
      [
        "▁bu",
        -5.833886192108568
      ],
      [
        "▁woke",
        -10.307006825855852
      ],
      [
        "6",
        -11.333785825435129
      ],
      [
        "▁hell",
        -8.577527358787936
      ],
      [
        "ta",
        -9.012465213063102
      ],
      [
        "▁europe",
        -8.645316315144727
      ],
      [
        "▁combine",
        -10.068190400759956
      ],
      [
        "sti",
        -12.903858762386612
      ],
      [
        "▁les",
        -14.569714431125764
      ],
      [
        "dl",
        -12.080791118169415
      ],
      [
        "▁$",
        -8.88609295041069
      ],
      [
        "▁colleague",
        -9.91065059922311
      ],
      [
        "▁pollut",
        -10.399422489807524
      ],
      [
        "▁chef",
        -10.624313700391756
      ],
      [
        "▁mark",
        -8.52275300786831
      ],
      [
        "73",
        -12.572276549803446
      ],
      [
        "171",
        -13.819819207365455
      ],
      [
        "▁perfume",
        -11.084253629127037
      ],
      [
        "▁pri",
        -11.348572751093645
      ],
      [
        "▁8.",
        -12.090119778997188
      ],
      [
        "▁ignoran",
        -10.418740680810062
      ],
      [
        "▁browser",
        -10.362555224308817
      ],
      [
        "▁min",
        -12.218398821156086
      ],
      [
        ".00",
        -11.139862778496184
      ],
      [
        "▁francis",
        -11.087628223068057
      ],
      [
        "▁saddam",
        -10.111302390269547
      ],
      [
        "▁blend",
        -10.622137063250594
      ],
      [
        "▁offer",
        -8.200846703104524
      ],
      [
        "▁calculation",
        -10.788770170427583
      ],
      [
        "??????",
        -13.879667603916298
      ],
      [
        "▁boyfriend",
        -10.782347435993698
      ],
      [
        "▁robot",
        -9.711791175242558
      ],
      [
        "▁trial",
        -9.72154285944912
      ],
      [
        "▁destructi",
        -10.423836529495675
      ],
      [
        "836",
        -13.541867489895992
      ],
      [
        "▁telescope",
        -11.084250744466289
      ],
      [
        "▁window",
        -8.417129021806172
      ],
      [
        "▁nav",
        -9.748378611966965
      ],
      [
        "▁muggle",
        -10.362555068385877
      ],
      [
        "▁wi",
        -14.407127597437643
      ],
      [
        "▁pack",
        -8.983327830734977
      ],
      [
        "e",
        -4.602601403317653
      ],
      [
        "yo",
        -12.980137273398649
      ],
      [
        "izz",
        -10.36937894563932
      ],
      [
        "▁coast",
        -9.245211602458163
      ],
      [
        "▁volunteer",
        -10.25436769468425
      ],
      [
        "▁populate",
        -11.087754424458812
      ],
      [
        "▁paint",
        -9.140081216660242
      ],
      [
        "ius",
        -10.471658471223911
      ],
      [
        "▁prob",
        -11.152579614308333
      ],
      [
        "994",
        -12.619595990323592
      ],
      [
        "ut",
        -11.225827436522897
      ],
      [
        "standing",
        -10.281065856891491
      ],
      [
        "▁hill",
        -9.566889628728445
      ],
      [
        "▁debut",
        -10.973148977735374
      ],
      [
        "▁confident",
        -10.25421752301807
      ],
      [
        "anders",
        -10.902641924962655
      ],
      [
        "▁martin",
        -10.304268971996047
      ],
      [
        "spread",
        -11.058155554233212
      ],
      [
        "▁rapporteur",
        -10.421378358520037
      ],
      [
        "▁mari",
        -9.803169255131943
      ],
      [
        "ors",
        -9.483204885093222
      ],
      [
        "▁ya",
        -9.476042642476957
      ],
      [
        "▁suprem",
        -10.067815879882566
      ],
      [
        "ion",
        -11.21408476222782
      ],
      [
        "ught",
        -8.638387818111717
      ],
      [
        "▁climb",
        -9.208533246993113
      ],
      [
        "▁environment",
        -8.950734632897216
      ],
      [
        "▁produc",
        -10.75393408516091
      ],
      [
        "▁tag",
        -9.676440447499155
      ],
      [
        "▁suffer",
        -9.604025317426434
      ],
      [
        "▁legislature",
        -10.698920082361969
      ],
      [
        "▁an",
        -6.412493755207007
      ],
      [
        "nonym",
        -10.782994933948842
      ],
      [
        "ff",
        -9.298201613901163
      ],
      [
        "tu",
        -9.544246516971445
      ],
      [
        "▁apple",
        -9.208888715283639
      ],
      [
        "78",
        -11.485769806607408
      ],
      [
        "b",
        -7.49996175387515
      ],
      [
        "▁members",
        -8.754821145162007
      ],
      [
        "▁spring",
        -9.32533119850187
      ],
      [
        "------------",
        -10.630566914886277
      ],
      [
        "▁what",
        -10.550840086041333
      ],
      [
        "▁kiss",
        -9.809046638854664
      ],
      [
        "▁visibl",
        -10.522547126650704
      ],
      [
        "▁755",
        -13.738721046877316
      ],
      [
        "▁feb",
        -10.542348120409214
      ],
      [
        "▁pull",
        -8.34589253199323
      ],
      [
        "▁smart",
        -9.36476372616725
      ],
      [
        "▁pretend",
        -9.387367967308139
      ],
      [
        "icles",
        -9.436864811028613
      ],
      [
        "▁202.4",
        -14.138177894591795
      ],
      [
        "3-16",
        -14.13690576742756
      ],
      [
        "▁advert",
        -10.548019548208648
      ],
      [
        "le",
        -9.291517426822528
      ],
      [
        "▁#",
        -9.176891655473467
      ],
      [
        "130",
        -14.874720468683945
      ],
      [
        "▁new",
        -6.080088059296371
      ],
      [
        "2-66",
        -13.140576993165098
      ],
      [
        "▁na",
        -11.35745384028697
      ],
      [
        "▁fortunate",
        -11.08425078068719
      ],
      [
        "▁daily",
        -8.614827737263795
      ],
      [
        "▁weight",
        -9.578458903833841
      ],
      [
        "▁morning",
        -6.9817030623203244
      ],
      [
        "▁humanit",
        -10.394614646950474
      ],
      [
        "▁outcome",
        -10.156788904885325
      ],
      [
        "▁ag",
        -9.062038990771534
      ],
      [
        "▁21",
        -9.720348909308498
      ],
      [
        "▁coupon",
        -10.624072695211321
      ],
      [
        "▁col",
        -10.390603271193527
      ],
      [
        "▁take",
        -6.268031808232548
      ],
      [
        "▁60,00",
        -13.953467716680116
      ],
      [
        "▁former",
        -8.939106940686681
      ],
      [
        "▁cat",
        -8.124233478207891
      ],
      [
        "▁distinction",
        -10.550552807064125
      ],
      [
        "aat",
        -10.600805449444916
      ],
      [
        "▁wrestle",
        -10.834411082895507
      ],
      [
        "ad",
        -11.29363953844414
      ],
      [
        "▁adjustment",
        -10.874881139454818
      ],
      [
        ".9",
        -13.237707183940273
      ],
      [
        "▁713.",
        -15.356566335328928
      ],
      [
        "▁wee",
        -10.434030456801738
      ],
      [
        "▁six",
        -8.466198163007563
      ],
      [
        "▁718",
        -12.701402782583589
      ],
      [
        "irr",
        -12.829351814011266
      ],
      [
        "oxi",
        -10.751375792651329
      ],
      [
        "▁string",
        -9.492072391848916
      ],
      [
        "▁relevan",
        -9.665040727552835
      ],
      [
        "▁declar",
        -10.622410322076888
      ],
      [
        "▁gal",
        -10.146396318465884
      ],
      [
        "7,5",
        -14.1364371537383
      ],
      [
        "▁locate",
        -9.343357012015545
      ],
      [
        "----------------",
        -8.665339290745422
      ],
      [
        "▁prepare",
        -9.939418236022362
      ],
      [
        "▁thing",
        -6.598772447468989
      ],
      [
        "▁opponent",
        -11.084250209551612
      ],
      [
        "ar",
        -7.965964220060476
      ],
      [
        "▁va",
        -10.248269399121126
      ],
      [
        "8/200",
        -11.740197949817684
      ],
      [
        "6",
        -8.138127856803996
      ],
      [
        "▁www.",
        -10.484392257665858
      ],
      [
        "umn",
        -10.78416941849006
      ],
      [
        "▁non",
        -9.848705181157957
      ],
      [
        "▁return",
        -7.875419268427524
      ],
      [
        "man@e",
        -12.817118239485756
      ],
      [
        "altho",
        -11.74134684819306
      ],
      [
        "71",
        -11.608463974503287
      ],
      [
        "alem",
        -10.221329838795937
      ],
      [
        "▁da",
        -12.782111484042257
      ],
      [
        "▁horse",
        -8.022169605060878
      ],
      [
        "▁advertis",
        -10.027649214794119
      ],
      [
        "val",
        -10.083863660740564
      ],
      [
        "▁airline",
        -6.977882350243302
      ],
      [
        "▁hor",
        -11.464129427629091
      ],
      [
        "able",
        -6.974769928772036
      ],
      [
        "columbia",
        -10.283954831749819
      ],
      [
        "▁^",
        -11.511548002523558
      ],
      [
        "▁mal",
        -10.19982927564501
      ],
      [
        "▁ital",
        -9.875697668932332
      ],
      [
        "▁brave",
        -10.688570109387761
      ],
      [
        "online",
        -10.539107277207002
      ],
      [
        "▁discre",
        -11.209135483606701
      ],
      [
        "▁6.",
        -13.152792151780693
      ],
      [
        "▁signature",
        -10.69915137359685
      ],
      [
        "▁clair",
        -10.127815032552688
      ],
      [
        "-------------",
        -10.204800430093531
      ],
      [
        "▁50,",
        -14.133980551149135
      ],
      [
        "▁calendar",
        -10.550545061463945
      ],
      [
        "ous",
        -7.775197511361604
      ],
      [
        "▁kar",
        -9.242586225455518
      ],
      [
        "camo",
        -10.868434306164147
      ],
      [
        "▁exceptional",
        -10.732586149771393
      ],
      [
        "▁measure",
        -8.82170350278074
      ],
      [
        "▁300",
        -10.870247792781871
      ],
      [
        "▁raw",
        -10.7021158319524
      ],
      [
        "▁foot",
        -8.741893678836874
      ],
      [
        "▁jo",
        -12.671173606213896
      ],
      [
        "▁09:2",
        -12.432918097703684
      ],
      [
        "▁sport",
        -9.386736886292443
      ],
      [
        "st",
        -6.99241356099325
      ],
      [
        "ced",
        -12.752075754843505
      ],
      [
        "▁02",
        -12.852745059953296
      ],
      [
        "▁grabb",
        -10.433161696820882
      ],
      [
        "▁when",
        -7.174679026917308
      ],
      [
        "▁mat",
        -12.132585824890473
      ],
      [
        ".12",
        -13.14616394307191
      ],
      [
        "51",
        -13.168608066560092
      ],
      [
        "▁3",
        -8.585018104094015
      ],
      [
        "▁patron",
        -10.62333916648147
      ],
      [
        "▁dioxi",
        -10.87334463283443
      ],
      [
        "▁wake",
        -9.364265189348504
      ],
      [
        "▁leader",
        -9.219113247347735
      ],
      [
        "▁talent",
        -10.026276871861983
      ],
      [
        "▁plain",
        -10.254850169072167
      ],
      [
        "▁identi",
        -10.676848703557244
      ],
      [
        "▁technological",
        -10.421540082604126
      ],
      [
        "▁slipper",
        -10.63075144939365
      ],
      [
        "▁853-",
        -14.134241513096974
      ],
      [
        "▁alto",
        -10.212468321437356
      ],
      [
        "▁auto",
        -10.118081831398609
      ],
      [
        "upper",
        -10.178111168113647
      ],
      [
        "▁tickle",
        -9.922821781373251
      ],
      [
        "▁supply",
        -10.362554988192926
      ],
      [
        "▁silen",
        -10.199970308854196
      ],
      [
        "▁12",
        -8.71671642994368
      ],
      [
        "▁still",
        -7.114101251391491
      ],
      [
        "▁20,000",
        -11.186985930619977
      ],
      [
        "mission",
        -10.335747468684628
      ],
      [
        "spec",
        -10.66709707902466
      ],
      [
        "92",
        -12.130184995798192
      ],
      [
        "▁near",
        -8.493275322131005
      ],
      [
        "▁134",
        -14.919254389209476
      ],
      [
        "▁hit",
        -7.964894790564406
      ],
      [
        "▁mon",
        -12.772607019781637
      ],
      [
        "▁will",
        -9.27447549994331
      ],
      [
        "sylv",
        -10.622056240756777
      ],
      [
        "▁cap",
        -9.28969438673027
      ],
      [
        "▁occurr",
        -9.776968278096408
      ],
      [
        "▁volley",
        -10.699206666983699
      ],
      [
        "nuclear",
        -9.574205345637347
      ],
      [
        "▁pun",
        -11.09258415939765
      ],
      [
        "▁spit",
        -10.431954122103438
      ],
      [
        "▁net",
        -9.572443247893244
      ],
      [
        "▁dose",
        -10.236557412057024
      ],
      [
        "▁bangladesh",
        -10.867528499405825
      ],
      [
        "▁name",
        -6.98022701701271
      ],
      [
        "▁nonsens",
        -11.084266166044502
      ],
      [
        "▁415",
        -11.580934565539746
      ],
      [
        "▁gender",
        -9.840462036102746
      ],
      [
        "▁format",
        -9.215496976939292
      ],
      [
        "nife",
        -9.990148098623385
      ],
      [
        "▁2",
        -8.32382168064463
      ],
      [
        "ver",
        -11.941202826001042
      ],
      [
        "2,000",
        -10.977495125824818
      ],
      [
        "ne",
        -12.218300795250945
      ],
      [
        "▁tribe",
        -10.720551045264124
      ],
      [
        "713-",
        -15.20242320856917
      ],
      [
        "▁jur",
        -10.668505727065707
      ],
      [
        "’",
        -8.356425803803674
      ],
      [
        "▁mcdonald",
        -10.621973599154376
      ],
      [
        "▁regional",
        -9.177320772649427
      ],
      [
        "▁suffering",
        -10.020818118664122
      ],
      [
        "▁burrow",
        -10.873144984179078
      ],
      [
        "▁rough",
        -9.452438654493857
      ],
      [
        "▁copyright",
        -9.84121398410671
      ],
      [
        "▁opportunit",
        -8.900751721249037
      ],
      [
        "canada",
        -9.109636689333062
      ],
      [
        "▁c",
        -7.001118939860496
      ],
      [
        "▁construct",
        -10.419738533303297
      ],
      [
        "▁register",
        -9.947687800632444
      ],
      [
        "▁belong",
        -9.20884745279132
      ],
      [
        "▁ph",
        -9.553067609944796
      ],
      [
        "33",
        -11.518810232972715
      ],
      [
        "our",
        -8.449365008953341
      ],
      [
        "31",
        -11.692241147114805
      ],
      [
        "▁mood",
        -10.80088021996229
      ],
      [
        "▁has",
        -6.8581785637493855
      ],
      [
        "▁figure",
        -8.55674353959412
      ],
      [
        "993",
        -12.980437086431527
      ],
      [
        "▁appointe",
        -10.782278778278812
      ],
      [
        "ing",
        -9.928808428270834
      ],
      [
        "▁libert",
        -9.994241487661904
      ],
      [
        "2",
        -7.604928335597631
      ],
      [
        "▁they",
        -5.616133746390839
      ],
      [
        "▁recruit",
        -10.111294102487253
      ],
      [
        "▁",
        -0.7229493926812545
      ],
      [
        "head",
        -8.672593617448424
      ],
      [
        "▁ansi-",
        -10.112259386372154
      ],
      [
        "▁teen",
        -10.623483841898741
      ],
      [
        "▁blow",
        -8.85710762768358
      ],
      [
        "▁serve",
        -8.037806622712779
      ],
      [
        "worm",
        -10.583454550119928
      ],
      [
        "corp.",
        -11.1355175990626
      ],
      [
        "▁truth",
        -9.429978628376253
      ],
      [
        "▁curr",
        -10.980567041645251
      ],
      [
        "ache",
        -10.22818450987454
      ],
      [
        "▁impartial",
        -10.782263638098122
      ],
      [
        "n-",
        -10.352872497043455
      ],
      [
        "ta",
        -13.29540375652033
      ],
      [
        "emp",
        -11.876212475785815
      ],
      [
        "bu",
        -11.334854500489369
      ],
      [
        "p",
        -7.972623554296504
      ],
      [
        "▁malfo",
        -10.545441264749448
      ],
      [
        "▁release",
        -9.14754314877851
      ],
      [
        "▁exploit",
        -10.873139131052726
      ],
      [
        "▁securit",
        -10.355615732867374
      ],
      [
        "----",
        -10.450866178525061
      ],
      [
        "▁reject",
        -10.156748763796411
      ],
      [
        "ko",
        -10.171531401936111
      ],
      [
        "▁interfere",
        -11.08424644966685
      ],
      [
        "57",
        -11.891159420239505
      ],
      [
        "shoul",
        -9.890237644806533
      ],
      [
        "▁suitcase",
        -10.421422199439363
      ],
      [
        "▁am",
        -7.520988588867129
      ],
      [
        "▁madam",
        -9.475797580104885
      ],
      [
        "▁delay",
        -10.15689404276343
      ],
      [
        "▁225",
        -12.177426783633816
      ],
      [
        "▁meat",
        -9.122382270561744
      ],
      [
        "▁grid",
        -10.822710247840728
      ],
      [
        "▁threat",
        -9.362625527334512
      ],
      [
        "▁wind",
        -9.041806547572808
      ],
      [
        "nook",
        -10.166981447595251
      ],
      [
        "du",
        -14.4639147343424
      ],
      [
        "▁pete",
        -10.672562620191462
      ],
      [
        "▁whos",
        -9.510403012777237
      ],
      [
        "▁migrate",
        -11.084250420452125
      ],
      [
        "pression",
        -11.182970721705052
      ],
      [
        "▁inspir",
        -10.721101419095906
      ],
      [
        "▁whom",
        -9.933139747952435
      ],
      [
        "▁sort",
        -8.547738159313402
      ],
      [
        "▁frustrat",
        -10.421378398742569
      ],
      [
        "ord",
        -12.345884856600925
      ],
      [
        "▁express",
        -8.835651585477788
      ],
      [
        "▁bit",
        -7.810951364632925
      ],
      [
        "▁gem",
        -11.06840638476596
      ],
      [
        "4.",
        -14.018402976933865
      ],
      [
        "▁pho",
        -10.845826107710002
      ],
      [
        "▁mesoamerica",
        -11.20925020890223
      ],
      [
        "▁prize",
        -10.307292297819448
      ],
      [
        "▁explor",
        -10.348604033440857
      ],
      [
        "▁wou",
        -13.22928466250239
      ],
      [
        "▁--",
        -7.940506446943768
      ],
      [
        "▁invite",
        -9.897004579483346
      ],
      [
        "▁suggestion",
        -9.716268978266022
      ],
      [
        "tte",
        -13.86112417319225
      ],
      [
        "▁ti",
        -9.53440743253358
      ],
      [
        "▁dar",
        -9.768048943738794
      ],
      [
        "▁mum",
        -9.776753028765315
      ],
      [
        "▁tie",
        -8.675215726611224
      ],
      [
        "ai",
        -9.830308352176711
      ],
      [
        "▁she",
        -9.907792165235584
      ],
      [
        "▁ever",
        -7.842996872830545
      ],
      [
        "64-7",
        -13.572722259480486
      ],
      [
        "▁nov",
        -8.718694862912844
      ],
      [
        "▁tent",
        -9.361282260659612
      ],
      [
        "▁spare",
        -11.152028470264973
      ],
      [
        "▁copy",
        -8.863153176486648
      ],
      [
        "put",
        -11.185972012891579
      ],
      [
        "▁slim",
        -10.78225422358552
      ],
      [
        "▁mem",
        -8.7062040056316
      ],
      [
        "▁impact",
        -9.208514341806804
      ],
      [
        "othell",
        -11.145874770130309
      ],
      [
        "▁drag",
        -10.779711987182578
      ],
      [
        "ook",
        -11.182728768570309
      ],
      [
        "▁station",
        -8.70949508048799
      ],
      [
        "▁impos",
        -9.346409888018115
      ],
      [
        "▁fish",
        -8.202202760712487
      ],
      [
        "▁translate",
        -10.536655475536104
      ],
      [
        "▁303-",
        -13.13679800126948
      ],
      [
        "▁2.2",
        -11.833956366586506
      ],
      [
        "▁interpret",
        -10.203165096336052
      ],
      [
        "▁math",
        -10.720070540265677
      ],
      [
        "▁97",
        -13.586404668654044
      ],
      [
        "▁woul",
        -6.0900188466739795
      ],
      [
        "▁promise",
        -9.23864837652336
      ],
      [
        "▁petunia",
        -10.550545419437885
      ],
      [
        "uff",
        -10.197642175329221
      ],
      [
        "▁generate",
        -10.379413023038529
      ],
      [
        "▁wagon",
        -10.700438899651251
      ],
      [
        "who",
        -9.48318164603857
      ],
      [
        "▁better",
        -7.529875546611563
      ],
      [
        "▁defens",
        -9.457337766066344
      ],
      [
        "▁spoon",
        -9.912682772521066
      ],
      [
        "▁incorporate",
        -10.158228028629237
      ],
      [
        "▁uhh",
        -8.351133090417981
      ],
      [
        "our",
        -9.343558663439467
      ],
      [
        "▁past",
        -8.320484914580108
      ],
      [
        "@enron",
        -9.186026037313587
      ],
      [
        "▁th-",
        -10.367154402671856
      ],
      [
        "▁promis",
        -10.442918302980525
      ],
      [
        "▁cape",
        -10.735762615106887
      ],
      [
        "▁giant",
        -10.026289553657566
      ],
      [
        "▁diet",
        -10.604628456065848
      ],
      [
        "▁sake",
        -10.363180213463842
      ],
      [
        "15",
        -10.272007946672392
      ],
      [
        "▁xi",
        -13.037780232626258
      ],
      [
        "itis",
        -10.803939841273074
      ],
      [
        "▁rude",
        -9.524883059850467
      ],
      [
        "▁borgi",
        -11.086483350127166
      ],
      [
        "ect",
        -10.011284538849868
      ],
      [
        "▁panama",
        -10.973965364784757
      ],
      [
        "▁power",
        -8.058886506483084
      ],
      [
        "▁braver",
        -11.10181731081446
      ],
      [
        "▁shop",
        -8.62341942203333
      ],
      [
        "genda",
        -10.29826526687497
      ],
      [
        "21",
        -11.158998581851861
      ],
      [
        "marie",
        -10.45442107025238
      ],
      [
        "▁08",
        -11.701778809336423
      ],
      [
        "▁manufacturer",
        -10.560429993632692
      ],
      [
        "▁lick",
        -9.910980539941898
      ],
      [
        "▁sin",
        -10.268003290543394
      ],
      [
        "uf",
        -11.175036411485149
      ],
      [
        "az",
        -12.820537301554094
      ],
      [
        "▁core",
        -10.06661997618566
      ],
      [
        ".37",
        -13.779820701624004
      ],
      [
        "▁trot",
        -10.783143822318094
      ],
      [
        "2",
        -10.53881921003439
      ],
      [
        "▁unaware",
        -11.084274096767224
      ],
      [
        "▁uh",
        -7.30352553536834
      ],
      [
        "▁whol",
        -11.160104566133995
      ],
      [
        "▁operative",
        -10.974529270296333
      ],
      [
        "▁twentieth",
        -9.986234814712416
      ],
      [
        "▁convince",
        -10.156749054792275
      ],
      [
        "pur",
        -10.371434857013213
      ],
      [
        "▁complete",
        -8.3364468646837
      ],
      [
        "▁he",
        -9.296821485417924
      ],
      [
        "8389",
        -13.541293472806032
      ],
      [
        "▁square",
        -8.655344239507759
      ],
      [
        "▁official",
        -8.586600793156787
      ],
      [
        "▁concept",
        -9.185539586083772
      ],
      [
        "/26/200",
        -11.340770759941886
      ],
      [
        "▁statement",
        -9.270542989263411
      ],
      [
        "nte",
        -11.329980172230284
      ],
      [
        "wide",
        -10.086089268928692
      ],
      [
        "▁anger",
        -10.873207773910218
      ],
      [
        "▁fer",
        -10.308766693184364
      ],
      [
        "▁1-8",
        -14.246827685336342
      ],
      [
        "4-79",
        -13.475737153577201
      ],
      [
        "▁gulf",
        -9.683899644226974
      ],
      [
        "▁strengthen",
        -10.027454384403145
      ],
      [
        "▁terribl",
        -9.287129658559993
      ],
      [
        "▁candidate",
        -9.80712026710024
      ],
      [
        "▁vince",
        -9.74406637395424
      ],
      [
        "▁hers",
        -12.827484547626566
      ],
      [
        "▁sudden",
        -9.190705426951736
      ],
      [
        "▁tha",
        -4.70443976194243
      ],
      [
        "+",
        -10.373814954979329
      ],
      [
        "▁excite",
        -11.095924833038529
      ],
      [
        "▁sunn",
        -10.603610305596899
      ],
      [
        "▁professor",
        -9.452108731629185
      ],
      [
        "tw",
        -10.822631328216055
      ],
      [
        "▁anne",
        -10.42997148135011
      ],
      [
        "wer",
        -11.29929180413551
      ],
      [
        "▁asset",
        -10.112671690500227
      ],
      [
        "▁foundation",
        -9.784632926658542
      ],
      [
        "▁1,0",
        -14.581356728683348
      ],
      [
        "..",
        -11.613151332723893
      ],
      [
        "▁asymmetric",
        -11.20925020890187
      ],
      [
        "▁rena",
        -10.168842159187456
      ],
      [
        "ula",
        -8.707120394123102
      ],
      [
        "▁karl",
        -11.138561168755805
      ],
      [
        "▁2.",
        -12.031407598511361
      ],
      [
        "▁<",
        -9.428811894508193
      ],
      [
        "▁poop",
        -10.206310785270084
      ],
      [
        "ay",
        -11.161156096712118
      ],
      [
        "▁tube",
        -10.637353572919544
      ],
      [
        "whom",
        -13.147185253957923
      ],
      [
        "▁xsl",
        -10.123975032621118
      ],
      [
        "▁screen",
        -9.385420392795186
      ],
      [
        "▁hu",
        -7.962625385083751
      ],
      [
        "▁bon",
        -11.44154234529399
      ],
      [
        "▁launch",
        -9.208678384082257
      ],
      [
        "one",
        -8.958250372823368
      ],
      [
        "900",
        -12.6498026919909
      ],
      [
        "long",
        -10.628821879242995
      ],
      [
        "▁interact",
        -10.507899277201977
      ],
      [
        "ble",
        -13.325705585333473
      ],
      [
        "▁heel",
        -9.987631366461132
      ],
      [
        "420",
        -13.637063103502197
      ],
      [
        "▁c",
        -10.178172696842289
      ],
      [
        "415",
        -15.196552822100085
      ],
      [
        "▁bibl",
        -10.97530970146824
      ],
      [
        "▁environmental",
        -9.371191840705933
      ],
      [
        "/29/200",
        -13.527257651397823
      ],
      [
        "▁hog",
        -10.208087255347845
      ],
      [
        "▁1.0",
        -13.891586422040149
      ],
      [
        "▁withdraw",
        -10.483878382730937
      ],
      [
        "▁time",
        -6.077117051463342
      ],
      [
        "4-449",
        -13.136787201776144
      ],
      [
        "▁manifest",
        -11.084253117265948
      ],
      [
        "▁dumb",
        -10.621990525634207
      ],
      [
        "▁forecast",
        -11.084301800983066
      ],
      [
        "▁steel",
        -10.873163345550662
      ],
      [
        "▁rider",
        -11.041609719656446
      ],
      [
        "ware",
        -9.559928505583992
      ],
      [
        "av",
        -14.112756966059495
      ],
      [
        "what",
        -7.995404486710122
      ],
      [
        "****",
        -11.720199025079861
      ],
      [
        "▁wag",
        -10.820295173950202
      ],
      [
        "iya",
        -10.821643890987357
      ],
      [
        "▁strict",
        -10.111372253146186
      ],
      [
        "▁night",
        -7.35106048479533
      ],
      [
        "▁keep",
        -7.455030079453249
      ],
      [
        "===============",
        -10.485113607253005
      ],
      [
        "ever",
        -7.471192227509686
      ],
      [
        "▁enhance",
        -10.307037034714982
      ],
      [
        "▁methodolog",
        -11.174846688160018
      ],
      [
        "notebook",
        -10.715084824811822
      ],
      [
        "▁change",
        -7.435935713020897
      ],
      [
        "▁or",
        -12.861118914094718
      ],
      [
        "gui",
        -11.165989951246562
      ],
      [
        "▁direct",
        -8.406305212865606
      ],
      [
        "tor",
        -10.223750643728714
      ],
      [
        "▁expo",
        -11.835218306368208
      ],
      [
        "▁go",
        -11.944803889857337
      ],
      [
        "▁rifle",
        -10.973145156223907
      ],
      [
        "ize",
        -9.049255508895651
      ],
      [
        "hi",
        -9.92867715922544
      ],
      [
        "▁replace",
        -9.728311069313325
      ],
      [
        "ru",
        -12.088582286409684
      ],
      [
        "▁mosque",
        -9.840485650347322
      ],
      [
        "▁boy",
        -8.038393916805603
      ],
      [
        "▁glow",
        -10.069112704464079
      ],
      [
        "▁juic",
        -8.92950417007518
      ],
      [
        "▁281-51",
        -14.136807499320865
      ],
      [
        "▁press",
        -8.804496807644863
      ],
      [
        "▁participate",
        -10.289281120787095
      ],
      [
        "▁justice",
        -9.690381009134365
      ],
      [
        "mark",
        -10.356460852961318
      ],
      [
        "sh-",
        -10.904027180144672
      ],
      [
        "▁organization",
        -9.106141914490811
      ],
      [
        "sion",
        -10.424354767085728
      ],
      [
        "▁guardia",
        -10.617644765819305
      ],
      [
        "ina",
        -12.093453738177573
      ],
      [
        "▁convenience",
        -11.084250208899727
      ],
      [
        "▁exclusive",
        -11.084780089014547
      ],
      [
        "iji",
        -11.001225357799534
      ],
      [
        "▁package",
        -9.948561433355973
      ],
      [
        "744",
        -12.115352357480171
      ],
      [
        "800.",
        -12.777623006555508
      ],
      [
        "▁fee",
        -8.312038541128171
      ],
      [
        "▁fix",
        -8.828776728669421
      ],
      [
        "▁hamster",
        -9.87504856000107
      ],
      [
        "tenni",
        -10.213791992971373
      ],
      [
        "▁muslim",
        -9.910720331479082
      ],
      [
        "▁palm",
        -10.552353164152596
      ],
      [
        "============",
        -11.363268911856814
      ],
      [
        "707",
        -13.147084992139545
      ],
      [
        "▁beetle",
        -10.782711549037664
      ],
      [
        "ock",
        -9.983568149845128
      ],
      [
        "▁danny",
        -9.600606259402063
      ],
      [
        "al",
        -10.361669615324121
      ],
      [
        "▁tape",
        -8.890400140974819
      ],
      [
        "▁..",
        -12.692418167268963
      ],
      [
        "▁worth",
        -8.112003809419583
      ],
      [
        "▁281",
        -12.762219677796159
      ],
      [
        "▁fair",
        -8.475748996239382
      ],
      [
        "▁bett",
        -10.25937266338087
      ],
      [
        "furniture",
        -9.74361216608731
      ],
      [
        "n'",
        -9.381928970317361
      ],
      [
        "▁tree",
        -8.66131432277415
      ],
      [
        "▁exposure",
        -9.713309508997352
      ],
      [
        "▁keen",
        -10.717902996815905
      ],
      [
        "▁valid",
        -10.2048701132749
      ],
      [
        "enron",
        -11.020742050745039
      ],
      [
        "gie",
        -10.327548881973417
      ],
      [
        "▁them",
        -6.5891701592025065
      ],
      [
        "▁somethin",
        -7.378481269236484
      ],
      [
        "▁dragg",
        -10.484540829240409
      ],
      [
        "▁68",
        -13.449249827824032
      ],
      [
        "▁strawberr",
        -10.067823096283739
      ],
      [
        "▁john",
        -8.176340741555656
      ],
      [
        "▁communist",
        -10.425161423851383
      ],
      [
        "▁..........",
        -12.521706938213695
      ],
      [
        "▁correct",
        -8.848082190692676
      ],
      [
        "▁chatt",
        -10.687879013523041
      ],
      [
        "▁zo",
        -10.998873661242811
      ],
      [
        "▁pale",
        -10.399902773369876
      ],
      [
        "erome",
        -10.519516830348334
      ],
      [
        "▁sample",
        -9.523654875330958
      ],
      [
        "▁step",
        -8.51172678844682
      ],
      [
        "twe",
        -7.820873003653288
      ],
      [
        "6.1",
        -12.319184560544814
      ],
      [
        "74",
        -12.341348767969999
      ],
      [
        "mutation",
        -10.38405172703791
      ],
      [
        "4:5",
        -14.567715117453755
      ],
      [
        "their",
        -9.44630158060195
      ],
      [
        "▁60",
        -10.41310958566581
      ],
      [
        "▁arriv",
        -7.78026660603824
      ],
      [
        "▁185",
        -11.266486185287963
      ],
      [
        "▁contemporar",
        -10.111294101529586
      ],
      [
        "▁league",
        -10.362555504771489
      ],
      [
        "et",
        -8.926017628742862
      ],
      [
        "▁co",
        -11.92401880098436
      ],
      [
        "▁regulator",
        -10.698896678679944
      ],
      [
        "▁irre",
        -11.205714063362203
      ],
      [
        "ill",
        -9.453818242452193
      ],
      [
        "▁cupcake",
        -9.910680538299973
      ],
      [
        "s",
        -7.82004737457296
      ],
      [
        "▁vein",
        -11.084901657593466
      ],
      [
        "▁report",
        -7.7755583564881805
      ],
      [
        "▁kin",
        -10.643367201731566
      ],
      [
        "▁israeli",
        -9.769616864797403
      ],
      [
        "▁rom",
        -10.9520890947953
      ],
      [
        "▁severe",
        -9.932840280133071
      ],
      [
        "whil",
        -10.34134917773606
      ],
      [
        "▁poo",
        -9.991591175357835
      ],
      [
        "▁column",
        -9.807134298181104
      ],
      [
        "▁specifie",
        -10.782487260760941
      ],
      [
        "▁imperial",
        -11.084370335782012
      ],
      [
        "▁teach",
        -10.177180199698677
      ],
      [
        "▁un",
        -7.147378594331887
      ],
      [
        "▁with",
        -5.231709886709201
      ],
      [
        "▁card",
        -8.584562181125989
      ],
      [
        "e",
        -3.1746558395188575
      ],
      [
        "▁wear",
        -8.274042707586668
      ],
      [
        "almar",
        -11.056891936141435
      ],
      [
        "▁sore",
        -10.473954854232202
      ],
      [
        "▁agent",
        -9.364495825195519
      ],
      [
        "90",
        -11.918338620993051
      ],
      [
        "▁44",
        -11.794641251323515
      ],
      [
        "▁quer",
        -9.407206603608937
      ],
      [
        "fel",
        -10.8645964269638
      ],
      [
        "tic",
        -8.518107817443813
      ],
      [
        "▁develop",
        -8.37860232585212
      ],
      [
        "▁david",
        -9.208572012563035
      ],
      [
        "oc",
        -9.067274792690018
      ],
      [
        "▁works",
        -9.07721609789462
      ],
      [
        "hobh",
        -11.063609139467811
      ],
      [
        "▁laurie",
        -10.87314068080245
      ],
      [
        "▁li",
        -9.134548271373834
      ],
      [
        "▁pai",
        -9.136408446243367
      ],
      [
        "▁carrot",
        -10.254409270645382
      ],
      [
        "▁protection",
        -9.157104932572686
      ],
      [
        "▁de",
        -9.38426533896157
      ],
      [
        "▁standing",
        -9.366795432440306
      ],
      [
        "▁message",
        -8.65617995854252
      ],
      [
        "▁so",
        -12.84490938257262
      ],
      [
        "▁comedie",
        -11.004427179576052
      ],
      [
        "▁cho",
        -12.937881227017023
      ],
      [
        "▁son",
        -8.911271420587234
      ],
      [
        "▁cre",
        -9.75173742468125
      ],
      [
        "▁until",
        -8.319056567480274
      ],
      [
        "stein",
        -10.067423478235183
      ],
      [
        "▁glove",
        -9.91137051541009
      ],
      [
        "▁cara",
        -10.231239082555971
      ],
      [
        "8:",
        -13.917734500659602
      ],
      [
        "▁proceeding",
        -10.668841601076785
      ],
      [
        "▁recording",
        -10.279775259075944
      ],
      [
        "▁bicycle",
        -10.362554830367056
      ],
      [
        "82",
        -12.695234607868185
      ],
      [
        "▁???",
        -12.15424849418477
      ],
      [
        "▁shake",
        -10.009670256688409
      ],
      [
        "▁sigh",
        -10.967727821731627
      ],
      [
        "guy",
        -11.202896969010405
      ],
      [
        "986",
        -15.10698570143128
      ],
      [
        "▁ir",
        -10.682650768239162
      ],
      [
        "▁fine",
        -8.25907503132596
      ],
      [
        "iro",
        -10.572329844390783
      ],
      [
        "▁chief",
        -9.655331813129523
      ],
      [
        "▁exp",
        -12.831553775942021
      ],
      [
        "▁aero",
        -10.37329818613668
      ],
      [
        "▁follow",
        -8.161544618847138
      ],
      [
        "▁flood",
        -9.683970550376737
      ],
      [
        "ant",
        -8.609367653542582
      ],
      [
        "▁after",
        -9.748141363374536
      ],
      [
        "514",
        -14.796244535458387
      ],
      [
        "7/200",
        -11.393922540536886
      ],
      [
        "▁banana",
        -8.836660443754045
      ],
      [
        "▁complaint",
        -10.209325109402124
      ],
      [
        "▁open",
        -7.383038197145573
      ],
      [
        "▁consider",
        -8.115239313969617
      ],
      [
        "▁dilemma",
        -11.084250989652254
      ],
      [
        "side",
        -9.307825458137216
      ],
      [
        "▁7.",
        -12.563655679205032
      ],
      [
        "▁alley",
        -11.01265667633994
      ],
      [
        "▁315",
        -13.155477789292314
      ],
      [
        "▁upside",
        -10.257175337530626
      ],
      [
        "▁ha",
        -9.472018468067569
      ],
      [
        "▁pick",
        -8.114449099433024
      ],
      [
        "orland",
        -8.410516301592105
      ],
      [
        "▁quote",
        -9.39944893569014
      ],
      [
        "▁dollar",
        -8.217972870313835
      ],
      [
        "/01/200",
        -12.253837409322443
      ],
      [
        "▁octo",
        -9.074689322305517
      ],
      [
        ":13",
        -14.845154517806028
      ],
      [
        "▁cabinet",
        -10.62217434722017
      ],
      [
        "▁steal",
        -10.550665151925225
      ],
      [
        ".",
        -10.366278973944397
      ],
      [
        "▁hurri",
        -10.782253229947424
      ],
      [
        "▁salad",
        -9.576019927615526
      ],
      [
        "▁leav",
        -7.308120258946038
      ],
      [
        "▁miles",
        -9.56292699798351
      ],
      [
        "▁energy",
        -8.466997461311127
      ],
      [
        "▁here",
        -5.984861889906757
      ],
      [
        "ful",
        -7.756954765414779
      ],
      [
        "▁cave",
        -10.43148721028314
      ],
      [
        "▁?????",
        -14.162893315589255
      ],
      [
        "▁understanding",
        -9.408217047078852
      ],
      [
        "▁waiter",
        -10.57375522126128
      ],
      [
        "▁lot",
        -7.2549761084682745
      ],
      [
        "50",
        -10.090879082816056
      ],
      [
        "▁pronounce",
        -10.699390621285309
      ],
      [
        "▁electric",
        -9.155873102452997
      ],
      [
        "▁spray",
        -10.111301390907311
      ],
      [
        "3-3",
        -13.158791324548858
      ],
      [
        "▁guid",
        -10.197008478834679
      ],
      [
        "62",
        -12.786065695044037
      ],
      [
        "▁learn",
        -7.88042129122728
      ],
      [
        "com",
        -9.665541144741024
      ],
      [
        "▁discussion",
        -9.366364784671108
      ],
      [
        "▁portray",
        -11.084281985948444
      ],
      [
        "_",
        -8.915850555563162
      ],
      [
        "▁famil",
        -7.701694862887736
      ],
      [
        "tt",
        -12.075768069728678
      ],
      [
        "▁plan",
        -8.239561364058881
      ],
      [
        "▁technical",
        -9.343310187811191
      ],
      [
        "glass",
        -11.058906392238704
      ],
      [
        "776",
        -12.023279956286233
      ],
      [
        "▁193",
        -11.57227697613682
      ],
      [
        "▁unanimous",
        -11.209250213704077
      ],
      [
        "▁expectation",
        -9.914362365066339
      ],
      [
        "▁modification",
        -10.973151612579825
      ],
      [
        "▁thick",
        -10.156864605085618
      ],
      [
        "▁practice",
        -9.080451492834133
      ],
      [
        "▁sentiment",
        -11.084262694515118
      ],
      [
        "▁couple",
        -8.441766496319985
      ],
      [
        "▁classic",
        -10.365574844729636
      ],
      [
        "▁mouth",
        -8.666992190670058
      ],
      [
        "▁sunday",
        -8.012744980219118
      ],
      [
        "▁corporation",
        -10.254385348072606
      ],
      [
        "!!!!",
        -9.691707156797474
      ],
      [
        "/03/200",
        -12.14697268704212
      ],
      [
        "ition",
        -9.510655220135215
      ],
      [
        "▁spin",
        -9.942159197652446
      ],
      [
        "v",
        -10.803216070016004
      ],
      [
        "▁modu",
        -11.333804758297122
      ],
      [
        "▁benefit",
        -8.861786307462594
      ],
      [
        "▁(",
        -7.710081261439022
      ],
      [
        "▁r",
        -10.787481821924922
      ],
      [
        "▁london",
        -8.731668120950399
      ],
      [
        "▁version",
        -9.226680691283697
      ],
      [
        "▁laz",
        -10.809297421103478
      ],
      [
        "07",
        -11.866903340196739
      ],
      [
        "▁shit",
        -10.118101217398273
      ],
      [
        "▁care",
        -8.137177927518103
      ],
      [
        "606",
        -13.08386531655481
      ],
      [
        "▁librarian",
        -10.421757934997567
      ],
      [
        "▁search",
        -9.10585886283555
      ],
      [
        "cha",
        -12.098391471455836
      ],
      [
        "▁utilit",
        -10.48388314492855
      ],
      [
        "▁soap",
        -10.561927789888463
      ],
      [
        "▁librar",
        -9.885754834860293
      ],
      [
        "▁who",
        -9.77453779214179
      ],
      [
        "▁176",
        -13.441094984774194
      ],
      [
        "▁emphasize",
        -10.99564791334983
      ],
      [
        "ow",
        -13.920453066150825
      ],
      [
        "▁pric",
        -10.191303320883982
      ],
      [
        "▁kingdom",
        -10.421538404211905
      ],
      [
        "chernobyl",
        -10.11746914722092
      ],
      [
        "▁ban",
        -10.310248329712472
      ],
      [
        "▁individual",
        -8.914085054526353
      ],
      [
        "▁franco",
        -11.101711939672366
      ],
      [
        "▁retriev",
        -11.084251520517817
      ],
      [
        "▁sp",
        -9.448108329777904
      ],
      [
        "ect",
        -9.905673899473905
      ],
      [
        "▁pop",
        -9.193950031686068
      ],
      [
        "▁sump",
        -11.087172223921232
      ],
      [
        "▁person",
        -7.789927045074678
      ],
      [
        "363",
        -14.556768785455322
      ],
      [
        "▁politician",
        -10.622268263633131
      ],
      [
        "▁cabbage",
        -10.782230665011994
      ],
      [
        "▁shout",
        -10.307112749166887
      ],
      [
        "▁sill",
        -9.5320841753029
      ],
      [
        "▁cake",
        -9.157675138773254
      ],
      [
        "▁tur",
        -10.763841514016473
      ],
      [
        "parnass",
        -10.873144692489142
      ],
      [
        "▁mw",
        -9.581225861602999
      ],
      [
        "▁dispatch",
        -11.20925021443421
      ],
      [
        "▁rainbow",
        -10.973140154403183
      ],
      [
        "bes",
        -12.849014156149368
      ],
      [
        "ia",
        -11.939110865357861
      ],
      [
        "▁crown",
        -10.873161515309866
      ],
      [
        "▁michi",
        -10.363221774573756
      ],
      [
        "▁enable",
        -9.8407234785202
      ],
      [
        "▁roar",
        -9.775388475204176
      ],
      [
        "0/200",
        -13.144123309107323
      ],
      [
        "▁11:4",
        -12.172957016856621
      ],
      [
        "▁01:0",
        -13.214497832237065
      ],
      [
        "ax",
        -9.180098302678791
      ],
      [
        "▁vision",
        -10.484130588957454
      ],
      [
        "▁balzac",
        -8.510863758518745
      ],
      [
        "▁shoot",
        -9.655338940346903
      ],
      [
        "▁chest",
        -10.210835437385603
      ],
      [
        "▁amid",
        -11.533324385705857
      ],
      [
        "▁ad",
        -13.069983555914995
      ],
      [
        "▁enterprise",
        -10.873139102883327
      ],
      [
        "▁recommendation",
        -10.119099979821373
      ],
      [
        "▁inn",
        -10.585373812009351
      ],
      [
        "▁bert",
        -10.928570099223114
      ],
      [
        "▁plug",
        -10.734393576495323
      ],
      [
        "▁sophie",
        -9.385425573548483
      ],
      [
        "▁safe",
        -8.31599805670784
      ],
      [
        "▁underst",
        -10.262149468458354
      ],
      [
        "▁directive",
        -9.090896220717392
      ],
      [
        "▁get",
        -5.735858642197
      ],
      [
        "5:1",
        -12.952843723349197
      ],
      [
        "▁fool",
        -10.254582804415636
      ],
      [
        "▁mouss",
        -10.700183873829056
      ],
      [
        "▁sticker",
        -10.726131715967302
      ],
      [
        "▁force",
        -8.130488727267808
      ],
      [
        "▁primari",
        -10.64238478458082
      ],
      [
        "▁cure",
        -10.706116989977577
      ],
      [
        "wikipedia",
        -11.084252198310033
      ],
      [
        "▁pioneer",
        -10.69890043909964
      ],
      [
        "ons",
        -10.56595692661573
      ],
      [
        "▁organisation",
        -10.55059196033263
      ],
      [
        "656",
        -15.204647324905135
      ],
      [
        "-----------",
        -11.0313601562369
      ],
      [
        "v",
        -7.647845368744741
      ],
      [
        "_",
        -4.782693395996077
      ],
      [
        "▁glance",
        -10.67058118196576
      ],
      [
        "▁her",
        -6.8101601305380015
      ],
      [
        "▁illustrat",
        -11.042137117701484
      ],
      [
        "5",
        -7.525741223050757
      ],
      [
        "cin",
        -12.841946993867692
      ],
      [
        "▁mrs",
        -9.3615233859849
      ],
      [
        "▁venu",
        -10.923802549613292
      ],
      [
        "▁error",
        -9.452329238385047
      ],
      [
        "▁aid",
        -9.881370596940544
      ],
      [
        "▁ribbon",
        -10.421379287842848
      ],
      [
        "▁edward",
        -10.026649394389592
      ],
      [
        "▁magic",
        -9.155652442042342
      ],
      [
        "ysi",
        -12.834681834397351
      ],
      [
        "▁frog",
        -10.428547242701686
      ],
      [
        "▁applica",
        -10.42125836042819
      ],
      [
        "76",
        -11.504346634557045
      ],
      [
        "▁provider",
        -10.9568341609857
      ],
      [
        "▁brand",
        -10.261122783878198
      ],
      [
        "▁green",
        -8.134794264129845
      ],
      [
        "▁>>",
        -8.408942050936023
      ],
      [
        "▁fire",
        -8.425340420766844
      ],
      [
        "▁go",
        -5.188808092865338
      ],
      [
        "▁pocket",
        -8.741883838082094
      ],
      [
        "▁mobile",
        -10.491702122992727
      ],
      [
        "▁useful",
        -9.78515183736997
      ],
      [
        "▁regular",
        -9.058216524715608
      ],
      [
        "mu",
        -12.904897371489003
      ],
      [
        "1-",
        -13.883317469131779
      ],
      [
        "dominant",
        -11.02387044484599
      ],
      [
        ":00:5",
        -13.430406807019482
      ],
      [
        "hou",
        -10.891721015640893
      ],
      [
        "▁expected",
        -9.49318980185867
      ],
      [
        "▁130",
        -11.559624943780829
      ],
      [
        "▁aggressive",
        -10.782500001088744
      ],
      [
        "qui",
        -10.31687270070033
      ],
      [
        "▁politic",
        -10.302718565225753
      ],
      [
        "▁iron",
        -10.109303633017
      ],
      [
        "▁interesting",
        -8.931349890317577
      ],
      [
        "which",
        -9.26226454095064
      ],
      [
        "▁assum",
        -10.405099238509848
      ],
      [
        "▁cha",
        -11.250268752536995
      ],
      [
        "▁squash",
        -10.873140376564779
      ],
      [
        "324",
        -13.101879675234533
      ],
      [
        "▁farrier",
        -10.78226851222104
      ],
      [
        "▁lean",
        -10.116841868445025
      ],
      [
        "whos",
        -12.609213014906796
      ],
      [
        "▁facilitate",
        -10.554928151464454
      ],
      [
        "▁byr",
        -10.884583897135688
      ],
      [
        "▁minorit",
        -10.95271200726077
      ],
      [
        "doo",
        -11.146811228681674
      ],
      [
        "▁factor",
        -9.002841345987854
      ],
      [
        "igger",
        -10.28259929214996
      ],
      [
        "▁repeat",
        -10.047210587365228
      ],
      [
        "▁count",
        -8.297093422872244
      ],
      [
        "▁sequence",
        -10.78223306919667
      ],
      [
        "▁!",
        -6.755596490218561
      ],
      [
        "id",
        -11.523085669888701
      ],
      [
        "▁clock",
        -9.991985763781523
      ],
      [
        "own",
        -10.032124078086936
      ],
      [
        "▁hoo",
        -10.193322045195064
      ],
      [
        "▁incident",
        -10.483883583093013
      ],
      [
        "▁readers",
        -10.319732800748818
      ],
      [
        "▁connected",
        -10.254950085545678
      ],
      [
        "other",
        -12.279273453871172
      ],
      [
        "▁addition",
        -9.336121657493889
      ],
      [
        "▁bid",
        -9.962144390340566
      ],
      [
        "▁entitle",
        -10.120118806724754
      ],
      [
        "▁hack",
        -10.623199884324794
      ],
      [
        "▁frequent",
        -9.452108736760888
      ],
      [
        "rg",
        -11.834427539130624
      ],
      [
        "▁cross",
        -9.251971021589094
      ],
      [
        "▁intr",
        -10.486414012796647
      ],
      [
        "▁analys",
        -9.3251427630127
      ],
      [
        "▁reconcili",
        -10.697886438305716
      ],
      [
        "▁12:3",
        -12.209603630901496
      ],
      [
        "▁52",
        -13.489944193561966
      ],
      [
        "▁814",
        -13.626596620227597
      ],
      [
        "▁want",
        -5.736206502054337
      ],
      [
        "with",
        -7.833760072330717
      ],
      [
        "bbc",
        -10.700912641340947
      ],
      [
        "▁pickle",
        -11.107768104612832
      ],
      [
        "▁operation",
        -9.301029896347814
      ],
      [
        "▁intens",
        -10.697276582418839
      ],
      [
        "fence",
        -10.30956950608956
      ],
      [
        "▁client",
        -9.80712078592235
      ],
      [
        "▁scientist",
        -9.775696871487073
      ],
      [
        "▁2",
        -10.556276463566192
      ],
      [
        "ein",
        -15.518265406639653
      ],
      [
        "▁accomplish",
        -10.698179129624727
      ],
      [
        "ator",
        -10.215284400497236
      ],
      [
        "▁scream",
        -10.204367790041022
      ],
      [
        "▁thr",
        -8.152049216504123
      ],
      [
        "ase",
        -10.78973269745037
      ],
      [
        "ennes",
        -11.4152029478778
      ],
      [
        "▁limb",
        -10.310116894117117
      ],
      [
        "▁sixt",
        -9.245239739577888
      ],
      [
        "!!!!!",
        -11.993799257598976
      ],
      [
        "▁maca",
        -10.217989222855014
      ],
      [
        "▁style",
        -8.971282525436246
      ],
      [
        "▁up",
        -6.475747422416013
      ],
      [
        "▁farmer",
        -9.92141454344997
      ],
      [
        "presentation",
        -10.506606720923452
      ],
      [
        "ack",
        -12.928599211651854
      ],
      [
        "▁ze",
        -10.153064089028318
      ],
      [
        "▁mind",
        -8.149978379424951
      ],
      [
        "▁accommodation",
        -10.699123614194562
      ],
      [
        "trina",
        -10.782321193244947
      ],
      [
        "▁flourish",
        -11.084465176906907
      ],
      [
        "▁guide",
        -10.21224067162671
      ],
      [
        "▁orange",
        -8.969270651009642
      ],
      [
        "uter",
        -11.195607737965023
      ],
      [
        "hey",
        -14.08912143937207
      ],
      [
        "▁apartment",
        -9.364585252691992
      ],
      [
        "▁di",
        -9.299796853513921
      ],
      [
        "▁radio",
        -10.00022604922527
      ],
      [
        "▁prett",
        -7.875450660571712
      ],
      [
        "▁hung",
        -9.81963923021652
      ],
      [
        "▁strange",
        -10.023602840125696
      ],
      [
        "♥",
        -12.833785825435129
      ],
      [
        "one",
        -7.505439725207755
      ],
      [
        "▁sacrifice",
        -10.621973597260503
      ],
      [
        "▁scient",
        -9.601163815918593
      ],
      [
        "▁mouse",
        -9.655521115019415
      ],
      [
        "/28/200",
        -11.291498637063668
      ],
      [
        "▁ripp",
        -10.119107238841615
      ],
      [
        "other",
        -9.667747659629368
      ],
      [
        "▁noon",
        -8.408007409882366
      ],
      [
        "▁pig",
        -9.357296852367515
      ],
      [
        "▁processe",
        -10.372803554654698
      ],
      [
        "▁mini",
        -10.948851077698453
      ],
      [
        "van",
        -13.35349333437616
      ],
      [
        "shop",
        -10.846322538607643
      ],
      [
        "▁purchase",
        -9.36089517277291
      ],
      [
        "cal",
        -11.155704790119795
      ],
      [
        "▁score",
        -9.546884695285623
      ],
      [
        "▁ka",
        -9.287887647372248
      ],
      [
        "3.0",
        -14.167747683965413
      ],
      [
        "▁very",
        -6.286171042541993
      ],
      [
        "opher",
        -10.633137544442626
      ],
      [
        "ance",
        -7.8953933718812745
      ],
      [
        "▁our",
        -6.869452981489473
      ],
      [
        "▁public",
        -7.948143399472624
      ],
      [
        "▁require",
        -8.61052014233088
      ],
      [
        "ter",
        -10.432873965842234
      ],
      [
        "▁southwest",
        -10.487899462797216
      ],
      [
        "centurie",
        -10.30719217372048
      ],
      [
        "2:3",
        -14.199321364264762
      ],
      [
        "▁accept",
        -8.442552136605165
      ],
      [
        "▁provision",
        -9.40715923667676
      ],
      [
        "atta",
        -12.241038137187173
      ],
      [
        "▁yea",
        -6.460565176963068
      ],
      [
        "▁swede",
        -10.162469602252001
      ],
      [
        "countries",
        -8.323488568640954
      ],
      [
        "▁phrase",
        -10.25437030354695
      ],
      [
        "▁euro",
        -9.345873372603455
      ],
      [
        "▁cou",
        -10.858686679206002
      ],
      [
        "kat",
        -10.785619882956034
      ],
      [
        "up",
        -8.753341417653875
      ],
      [
        "amp",
        -10.90385813468465
      ],
      [
        "▁indicate",
        -9.811621935584888
      ],
      [
        "real",
        -8.863034912585011
      ],
      [
        "▁greg",
        -10.422809342019434
      ],
      [
        "▁bone",
        -9.337231429640692
      ],
      [
        "▁batt",
        -11.01421293842343
      ],
      [
        "▁07/1",
        -11.467963282922423
      ],
      [
        "range",
        -11.833816507855477
      ],
      [
        "5000",
        -13.766487213310354
      ],
      [
        "▁independen",
        -9.77064997430328
      ],
      [
        "▁water",
        -7.3433845228055326
      ],
      [
        "▁print",
        -9.079069130684047
      ],
      [
        "65",
        -11.062979589335491
      ],
      [
        "46-5",
        -15.42887903727835
      ],
      [
        "ola",
        -10.462445984776192
      ],
      [
        "▁theatre",
        -9.988406332191245
      ],
      [
        "002",
        -14.610042165457877
      ],
      [
        "▁seat",
        -8.684950637554326
      ],
      [
        "▁hm",
        -9.359473734038662
      ],
      [
        "▁sound",
        -8.231313584953632
      ],
      [
        "▁chose",
        -9.94977758220172
      ],
      [
        "▁fred",
        -9.650268999622549
      ],
      [
        "▁clip",
        -10.362842834167557
      ],
      [
        "every",
        -9.95518186826827
      ],
      [
        "▁sweep",
        -10.42137902309738
      ],
      [
        "▁rule",
        -8.462764751747278
      ],
      [
        "ow",
        -11.530249375954355
      ],
      [
        "45",
        -10.783123716427069
      ],
      [
        "llc",
        -10.786255599774195
      ],
      [
        "ett",
        -13.27741638829742
      ],
      [
        "▁liber",
        -10.951031623260318
      ],
      [
        "▁thanks",
        -7.795785576476783
      ],
      [
        "▁alleged",
        -10.156753319927555
      ],
      [
        "▁tab",
        -10.345234292705108
      ],
      [
        "▁scale",
        -9.84071725393196
      ],
      [
        "*****",
        -11.566808758753416
      ],
      [
        "▁cind",
        -10.422191692713632
      ],
      [
        "▁equivalen",
        -10.867578689185054
      ],
      [
        "pe",
        -13.042329633844206
      ],
      [
        "▁session",
        -9.774872792862244
      ],
      [
        "▁p",
        -9.90999624969824
      ],
      [
        "▁bernoulli",
        -10.483878358517403
      ],
      [
        "cia",
        -11.334118227712164
      ],
      [
        "3.6",
        -13.500323944744151
      ],
      [
        "elia",
        -10.710021214375008
      ],
      [
        "▁transparen",
        -10.48387894933041
      ],
      [
        "▁sue",
        -10.159466605995828
      ],
      [
        "▁push",
        -8.31596891674306
      ],
      [
        "▁han",
        -12.544716207967019
      ],
      [
        "▁vaccine",
        -10.483878362914211
      ],
      [
        "d",
        -4.011586997049182
      ],
      [
        "▁outside",
        -8.272985819524127
      ],
      [
        "▁hundred",
        -9.807120249259228
      ],
      [
        "▁nah",
        -10.91806674624446
      ],
      [
        "\\",
        -11.833785825435129
      ],
      [
        "▁supposed",
        -8.843077243777273
      ],
      [
        "c",
        -6.857402155246582
      ],
      [
        "bi",
        -8.910361586796144
      ],
      [
        "▁captain",
        -10.111337515146412
      ],
      [
        "▁moment",
        -8.557791436270698
      ],
      [
        "▁organi",
        -11.103072114284013
      ],
      [
        ",000",
        -9.142394926926277
      ],
      [
        "▁200,",
        -14.14712352768953
      ],
      [
        "583",
        -14.127899028574243
      ],
      [
        "time",
        -8.809829255372613
      ],
      [
        "▁bag",
        -8.436553402376084
      ],
      [
        "▁to",
        -11.047449325321436
      ],
      [
        "▁freez",
        -11.205369194707748
      ],
      [
        "▁tsar",
        -10.973347328799576
      ],
      [
        "▁fixed",
        -9.238515660521855
      ],
      [
        "▁718-780-0",
        -13.136770579315208
      ],
      [
        "▁back",
        -6.470692465027117
      ],
      [
        "▁realise",
        -10.663869402260746
      ],
      [
        "▁receiv",
        -9.091497159262875
      ],
      [
        "▁gray",
        -10.178894564130413
      ],
      [
        "▁homeopath",
        -10.698898800782441
      ],
      [
        "▁categori",
        -10.421379140151682
      ],
      [
        "!!!!!!!!!!!!",
        -12.840602699725888
      ],
      [
        "▁language",
        -7.949330217281645
      ],
      [
        "well",
        -10.278309650911378
      ],
      [
        "▁earthquake",
        -10.97313909778844
      ],
      [
        "▁continent",
        -8.468002396080681
      ],
      [
        "▁muscle",
        -9.627654443098654
      ],
      [
        "▁conversation",
        -9.05822472813522
      ],
      [
        "▁lifetime",
        -10.554194908489867
      ],
      [
        "▁charles",
        -10.073862865423585
      ],
      [
        "▁grave",
        -10.36994113547957
      ],
      [
        "▁extreme",
        -8.788134320524446
      ],
      [
        "▁store",
        -8.004346720590704
      ],
      [
        "▁sonnet",
        -10.484147950284674
      ],
      [
        "▁accident",
        -9.176438552225346
      ],
      [
        "▁filth",
        -11.085999536042905
      ],
      [
        "▁job",
        -7.892940234901602
      ],
      [
        "ked",
        -10.891497111084522
      ],
      [
        "▁counterfeit",
        -10.06781586773566
      ],
      [
        "someon",
        -11.278191597539163
      ],
      [
        "▁interven",
        -10.973030420149744
      ],
      [
        "net",
        -10.003132132500491
      ],
      [
        "▁za",
        -9.366009149676747
      ],
      [
        "▁ethnocentri",
        -11.084250208892616
      ],
      [
        "▁gil",
        -11.019719633217903
      ],
      [
        "ture",
        -9.636384541285167
      ],
      [
        "▁situation",
        -8.708630114144965
      ],
      [
        "837",
        -14.14819031276042
      ],
      [
        "▁sci",
        -11.107011038143355
      ],
      [
        "▁apologize",
        -11.084250221507148
      ],
      [
        "▁margin",
        -11.083096990368663
      ],
      [
        "▁cool",
        -9.01297969959896
      ],
      [
        "▁danc",
        -9.556703548929297
      ],
      [
        "▁procedure",
        -9.475364548367429
      ],
      [
        "▁com",
        -9.718636425590535
      ],
      [
        "▁striv",
        -10.877207190306837
      ],
      [
        "▁turist",
        -11.335733798982876
      ],
      [
        "▁bread",
        -9.014134261037015
      ],
      [
        "26/0",
        -14.093152072854174
      ],
      [
        "▁idea",
        -7.942200277438278
      ],
      [
        "▁portion",
        -10.02868303921926
      ],
      [
        "28",
        -10.97103305750776
      ],
      [
        "▁understand",
        -8.100536583936162
      ],
      [
        "arctic",
        -10.785328606408319
      ],
      [
        "▁complement",
        -11.084251502249018
      ],
      [
        "kins",
        -10.286135629982276
      ],
      [
        "217",
        -12.04535533788108
      ],
      [
        "moi",
        -11.88521742952827
      ],
      [
        "▁hiss",
        -10.7633881412522
      ],
      [
        "85",
        -12.218760611373042
      ],
      [
        "▁transform",
        -10.009537866612035
      ],
      [
        "nn",
        -12.65929978841836
      ],
      [
        "▁pee",
        -10.540801432132325
      ],
      [
        "▁clown",
        -10.421398154138611
      ],
      [
        "▁story",
        -8.444950928720758
      ],
      [
        "oma",
        -11.04177079433562
      ],
      [
        "▁disease",
        -9.807120640069353
      ],
      [
        "▁cage",
        -9.07680101485326
      ],
      [
        "/16",
        -14.567007781419004
      ],
      [
        "▁soon",
        -8.322823599925718
      ],
      [
        "▁motivation",
        -10.873139103038191
      ],
      [
        "449",
        -14.153072387370369
      ],
      [
        "▁christian",
        -9.548968311450828
      ],
      [
        "▁police",
        -8.804575288289929
      ],
      [
        "▁713-654-",
        -12.33894539934827
      ],
      [
        "▁acquis",
        -10.973147954828356
      ],
      [
        "'s",
        -9.29672248805738
      ],
      [
        "hobby",
        -11.133881692598022
      ],
      [
        "▁weed",
        -10.906302496339183
      ],
      [
        "▁+",
        -9.251141440656454
      ],
      [
        "▁system",
        -7.934558105987523
      ],
      [
        "▁14",
        -9.756769856757687
      ],
      [
        "▁95",
        -12.338386007555425
      ],
      [
        "th",
        -7.114558713916185
      ],
      [
        "▁spread",
        -9.69042270384654
      ],
      [
        "▁command",
        -9.737663735362014
      ],
      [
        "▁golf",
        -10.973682995264534
      ],
      [
        "▁nu",
        -10.421026734128361
      ],
      [
        "▁376",
        -14.053687754394755
      ],
      [
        "▁move",
        -7.884898788569941
      ],
      [
        "through",
        -10.025984896003525
      ],
      [
        "▁career",
        -9.257862110978383
      ],
      [
        "▁'",
        -7.870610159838654
      ],
      [
        "ll",
        -5.735079957665786
      ],
      [
        "▁track",
        -9.060113603510775
      ],
      [
        "▁explanation",
        -10.067815841448223
      ],
      [
        "1.8",
        -12.279299099288764
      ],
      [
        "pool",
        -10.86570847116308
      ],
      [
        "▁cab",
        -10.328268732752932
      ],
      [
        "▁hire",
        -10.011991560923857
      ],
      [
        "lin",
        -9.056969608611322
      ],
      [
        "▁basket",
        -9.947689586132517
      ],
      [
        "▁guess",
        -8.361273816921969
      ],
      [
        "▁5",
        -8.813230402229316
      ],
      [
        "arriage",
        -10.626365871589705
      ],
      [
        "▁cri",
        -10.262630812603001
      ],
      [
        "▁lime",
        -10.363357443698016
      ],
      [
        "▁entertain",
        -10.067874583479254
      ],
      [
        "▁asian",
        -10.12307226087226
      ],
      [
        "▁don",
        -9.48376761787565
      ],
      [
        "▁trouble",
        -8.835223530356842
      ],
      [
        "▁ferr",
        -10.106624938140355
      ],
      [
        "▁al",
        -9.593659622937922
      ],
      [
        "ap",
        -9.602738098524732
      ],
      [
        "emur",
        -11.086454378557322
      ],
      [
        "▁tra",
        -10.378197789761249
      ],
      [
        "▁dancer",
        -10.916711993011237
      ],
      [
        "▁profound",
        -11.08425045714576
      ],
      [
        "▁restrict",
        -10.876103267543755
      ],
      [
        "▁6/1",
        -13.680375511970919
      ],
      [
        "▁713/",
        -13.066201541249047
      ],
      [
        "▁shade",
        -10.309871582071008
      ],
      [
        "▁evaluation",
        -10.363863580829555
      ],
      [
        "6:2",
        -14.564072531268208
      ],
      [
        "enti",
        -12.154891043607538
      ],
      [
        "▁emergenc",
        -9.840475346217156
      ],
      [
        "▁stepp",
        -9.957951806662797
      ],
      [
        "alliance",
        -10.204880421187081
      ],
      [
        "man",
        -12.141727430762012
      ],
      [
        "▁11:1",
        -14.098589520058272
      ],
      [
        "▁!!!!!!",
        -11.049216165262706
      ],
      [
        "u",
        -5.730887179067297
      ],
      [
        "▁dirt",
        -8.665807402613714
      ],
      [
        "7",
        -8.30537830680219
      ],
      [
        "▁9",
        -10.07482853981363
      ],
      [
        "▁carry",
        -8.779016953830144
      ],
      [
        "▁fact",
        -7.942860533828772
      ],
      [
        "53-3",
        -13.165316267144014
      ],
      [
        "▁phil",
        -6.981496531733099
      ],
      [
        "▁trunk",
        -10.550560618749573
      ],
      [
        "▁smith",
        -9.78702819957555
      ],
      [
        "▁rare",
        -9.684382366829245
      ],
      [
        "▁study",
        -8.045934415874715
      ],
      [
        "888.",
        -12.636947950041675
      ],
      [
        "832",
        -13.254685146137689
      ],
      [
        "▁assistan",
        -9.424803992360246
      ],
      [
        "▁appearance",
        -9.84196641758258
      ],
      [
        "▁18:",
        -13.104846448394454
      ],
      [
        "/22/200",
        -13.13396136511428
      ],
      [
        "andi",
        -12.83477122878123
      ],
      [
        "▁large",
        -7.512810646090694
      ],
      [
        "di",
        -11.34509224672159
      ],
      [
        "▁comfort",
        -10.543344955258306
      ],
      [
        "▁though",
        -8.523832092657054
      ],
      [
        "68",
        -12.36399916790613
      ],
      [
        "40",
        -11.0339728716196
      ],
      [
        "▁elite",
        -10.550816276136345
      ],
      [
        "onia",
        -11.042556082880333
      ],
      [
        "▁acc",
        -10.4426701642256
      ],
      [
        "▁normal",
        -8.94424101414015
      ],
      [
        "▁goat",
        -9.936085439792237
      ],
      [
        "▁45",
        -11.407942744300975
      ],
      [
        "▁mirror",
        -10.026149294429484
      ],
      [
        "6.3",
        -14.15124683494006
      ],
      [
        "it",
        -9.190207159730747
      ],
      [
        "/15/200",
        -11.712414817150618
      ],
      [
        "▁second",
        -7.658456800814498
      ],
      [
        "澹",
        -12.833785825435129
      ],
      [
        "▁ring",
        -9.44746373291046
      ],
      [
        "eta",
        -9.45737719434384
      ],
      [
        "500",
        -11.860447827041963
      ],
      [
        "”",
        -6.541188097635501
      ],
      [
        "▁isda",
        -10.424876960385172
      ],
      [
        "▁merit",
        -10.782670180670198
      ],
      [
        "ily",
        -9.067209170638304
      ],
      [
        "▁improvement",
        -9.876087528827458
      ],
      [
        "ontario",
        -9.523571022552305
      ],
      [
        "▁extract",
        -10.254448478147212
      ],
      [
        "▁facult",
        -10.30700205514011
      ],
      [
        "▁seek",
        -9.085974236951703
      ],
      [
        "▁feel",
        -7.534497227242223
      ],
      [
        "rdon",
        -9.973277323331189
      ],
      [
        "bby",
        -9.93645208046426
      ],
      [
        "▁product",
        -8.237072258385432
      ],
      [
        "▁meaning",
        -9.363749474879175
      ],
      [
        "▁lack",
        -8.900955378247769
      ],
      [
        "▁one",
        -6.732453087573144
      ],
      [
        "▁republic",
        -9.947218646384702
      ],
      [
        "▁else",
        -7.480389237587039
      ],
      [
        "▁brazil",
        -10.307002838291973
      ],
      [
        "once",
        -8.598222648024645
      ],
      [
        ".80",
        -14.353379162439051
      ],
      [
        "▁nursie",
        -10.204370558394466
      ],
      [
        "▁len",
        -10.26429232771025
      ],
      [
        "▁fox",
        -10.363162515800607
      ],
      [
        "▁fil",
        -10.3999925728365
      ],
      [
        "auv",
        -11.334233271583926
      ],
      [
        "ific",
        -9.536454577706829
      ],
      [
        "▁senator",
        -9.627592736969135
      ],
      [
        "▁zoo",
        -9.9859155773095
      ],
      [
        "▁kerr",
        -10.461618094835055
      ],
      [
        "▁chas",
        -10.203977525535747
      ],
      [
        "▁mid",
        -9.501175946049624
      ],
      [
        "ight",
        -7.917709111600755
      ],
      [
        "▁quick",
        -8.308569840722752
      ],
      [
        "▁nose",
        -8.62830060992357
      ],
      [
        "▁713/853-",
        -13.136770601229292
      ],
      [
        "nd",
        -12.574555320074737
      ],
      [
        "6",
        -9.073734559914335
      ],
      [
        "re",
        -9.464589152516979
      ],
      [
        "▁eve",
        -10.429775631390832
      ],
      [
        "▁cut",
        -7.937202705727968
      ],
      [
        "▁blog",
        -10.206508010273451
      ],
      [
        "▁!?!",
        -14.014058543488009
      ],
      [
        "▁tongue",
        -10.254415956179898
      ],
      [
        "▁women",
        -8.40058484695157
      ],
      [
        "▁lanka",
        -10.11130469733655
      ],
      [
        "▁nandaro",
        -11.378131439771892
      ],
      [
        "iction",
        -10.204757985612193
      ],
      [
        "▁week",
        -7.37150173868148
      ],
      [
        "▁1030",
        -14.191480154345426
      ],
      [
        "▁cancer",
        -10.873230252226753
      ],
      [
        "▁love",
        -7.309301433863601
      ],
      [
        "ib",
        -9.936616115496456
      ],
      [
        "400",
        -11.158984950287465
      ],
      [
        "▁throat",
        -10.156748802465845
      ],
      [
        "oz",
        -13.096519113337358
      ],
      [
        "▁wh",
        -11.334780390968685
      ],
      [
        "▁bo",
        -11.551938346342478
      ],
      [
        "▁re",
        -7.760333686055139
      ],
      [
        "laine",
        -12.770702540334408
      ],
      [
        "▁process",
        -7.974647779615065
      ],
      [
        "▁by",
        -9.863838491433988
      ],
      [
        "▁pleasant",
        -9.683897362402389
      ],
      [
        "-518",
        -14.187807511083522
      ],
      [
        "to",
        -9.200376153881685
      ],
      [
        "▁hands",
        -8.602506352795217
      ],
      [
        "po",
        -13.790623849186549
      ],
      [
        "▁hussein",
        -10.782230467622774
      ],
      [
        "▁accurac",
        -11.209250214708716
      ],
      [
        "--------------",
        -9.780025658042359
      ],
      [
        "▁sha",
        -9.45205917671801
      ],
      [
        "▁deni",
        -9.919591447831635
      ],
      [
        "an",
        -8.574821207102737
      ],
      [
        "▁dust",
        -9.418672047758305
      ],
      [
        "▁tragic",
        -11.08424879358369
      ],
      [
        "▁double",
        -9.689996662841148
      ],
      [
        "▁fault",
        -10.552499413417374
      ],
      [
        "cho",
        -11.18965547867573
      ],
      [
        "▁soviet",
        -10.483878546174916
      ],
      [
        "▁local",
        -8.272617127562505
      ],
      [
        "tract",
        -10.862241335448443
      ],
      [
        "▁civilization",
        -10.62206643398177
      ],
      [
        "d",
        -7.957113490295205
      ],
      [
        "if",
        -9.854273665376308
      ],
      [
        "▁vic",
        -11.098593130168638
      ],
      [
        "▁bin",
        -9.6610324373028
      ],
      [
        "pan",
        -10.170747393120216
      ],
      [
        "▁respective",
        -10.702818064949337
      ],
      [
        "top",
        -10.278912271660428
      ],
      [
        "▁nw",
        -11.091508792606852
      ],
      [
        "▁louisian",
        -11.086608324410061
      ],
      [
        "▁sometime",
        -8.057362494565194
      ],
      [
        "▁heart",
        -8.733621495611612
      ],
      [
        "▁slide",
        -9.812433983068232
      ],
      [
        "rafa",
        -10.48489421567825
      ],
      [
        "▁eas",
        -8.417393767588418
      ],
      [
        "▁backward",
        -10.701961728181358
      ],
      [
        "▁deep",
        -8.913459350382237
      ],
      [
        "▁coup",
        -10.419316076705178
      ],
      [
        "▁drug",
        -9.499248248373597
      ],
      [
        "▁plane",
        -9.011929313047787
      ],
      [
        "▁sheep",
        -10.550565181399337
      ],
      [
        "hers",
        -14.748162080548969
      ],
      [
        "▁dentist",
        -10.483887671462217
      ],
      [
        "▁inherit",
        -11.084258142103687
      ],
      [
        "▁06:",
        -13.142659191789647
      ],
      [
        "▁declaration",
        -9.875474293340615
      ],
      [
        "▁unemploy",
        -10.15680767686933
      ],
      [
        "thele",
        -9.8521397948609
      ],
      [
        "/8/",
        -13.141982870234663
      ],
      [
        "roll",
        -10.28995736936308
      ],
      [
        "▁ambitious",
        -10.873146829491942
      ],
      [
        "▁mountain",
        -9.122329759882984
      ],
      [
        "q",
        -9.49243315756069
      ],
      [
        "▁bird",
        -8.378669166328248
      ],
      [
        "▁syrup",
        -10.873139742477605
      ],
      [
        "/16/",
        -14.183274814702695
      ],
      [
        "▁lunch",
        -8.566171830671895
      ],
      [
        "▁e.",
        -9.953706045496723
      ],
      [
        "▁traged",
        -10.15676875461363
      ],
      [
        "416",
        -15.207281602474175
      ],
      [
        "▁desir",
        -10.48546760983999
      ],
      [
        ":50",
        -14.10412921044257
      ],
      [
        "▁345-",
        -11.796213981224735
      ],
      [
        "hi",
        -9.42458128149114
      ],
      [
        "▁policy",
        -8.86901731134975
      ],
      [
        "▁destination",
        -10.02685041592717
      ],
      [
        "▁20",
        -10.360766484504879
      ],
      [
        "▁yo",
        -11.723823692269878
      ],
      [
        "▁vacu",
        -10.973253659171904
      ],
      [
        "▁garb",
        -10.626431977091142
      ],
      [
        "▁increasing",
        -9.452108736266501
      ],
      [
        "▁egg",
        -8.883346963751865
      ],
      [
        "▁innovation",
        -9.574319404820974
      ],
      [
        "ff",
        -11.980794772189306
      ],
      [
        "▁dropp",
        -9.366287293380005
      ],
      [
        "....",
        -10.495299798696006
      ],
      [
        "▁shiite",
        -10.156876261658965
      ],
      [
        "▁zealand",
        -9.80712488770073
      ],
      [
        "▁08/0",
        -12.957041608583905
      ],
      [
        "▁now",
        -6.042119585916172
      ],
      [
        "▁shovel",
        -11.086593187879595
      ],
      [
        "▁bee",
        -9.928187267565546
      ],
      [
        "275",
        -13.948612843905094
      ],
      [
        "▁late",
        -7.815785339604707
      ],
      [
        "奈",
        -12.833785825435129
      ],
      [
        "908",
        -13.989202893073529
      ],
      [
        "▁bat",
        -9.819321890693324
      ],
      [
        "1/",
        -13.869957499964794
      ],
      [
        "▁retail",
        -10.628973169490394
      ],
      [
        "had",
        -7.888036462142847
      ],
      [
        ",",
        -14.062328514601077
      ],
      [
        "▁atlant",
        -6.7109201785828185
      ],
      [
        "▁celebrit",
        -10.97313909796923
      ],
      [
        "▁perdu",
        -10.615085990278022
      ],
      [
        "▁minute",
        -7.811016186378632
      ],
      [
        "most",
        -8.003636098482094
      ],
      [
        "▁this",
        -10.553284573521324
      ],
      [
        "▁bo",
        -6.124535547122032
      ],
      [
        "▁gra",
        -12.238890135767296
      ],
      [
        "▁po",
        -9.736513970615437
      ],
      [
        "▁monet",
        -10.783135400373645
      ],
      [
        "▁20",
        -10.758623086612115
      ],
      [
        "▁punishment",
        -11.084538039865564
      ],
      [
        "▁p",
        -7.732720502124819
      ],
      [
        "▁drawing",
        -10.12176973869357
      ],
      [
        "gg",
        -9.295097871878303
      ],
      [
        "▁magazine",
        -9.840453554190466
      ],
      [
        "▁cor",
        -10.112123094158896
      ],
      [
        "▁horror",
        -10.421378402477004
      ],
      [
        "tyler",
        -11.054904945206218
      ],
      [
        "▁balle",
        -10.447609109042723
      ],
      [
        "al",
        -6.142243271179995
      ],
      [
        "▁handl",
        -10.323534643606212
      ],
      [
        "▁a",
        -7.553362449753703
      ],
      [
        "enc",
        -12.091943752111558
      ],
      [
        "uce",
        -10.583991819382387
      ],
      [
        "▁425-",
        -14.137749306873555
      ],
      [
        "▁15",
        -8.984665687247121
      ],
      [
        "▁compensation",
        -11.084250316031385
      ],
      [
        "▁wide",
        -8.75679691041255
      ],
      [
        "h",
        -4.251603060837544
      ],
      [
        "▁profile",
        -10.698898574135605
      ],
      [
        "▁du",
        -9.594023106383746
      ],
      [
        "▁behavior",
        -9.385420105774497
      ],
      [
        "880",
        -15.446409968184138
      ],
      [
        "831",
        -13.883646719328421
      ],
      [
        "ound",
        -10.239940844336504
      ],
      [
        "▁civi",
        -10.550113569547793
      ],
      [
        "▁3,20",
        -14.285822218088652
      ],
      [
        "/",
        -8.281301372141634
      ],
      [
        "▁explain",
        -8.51086377530072
      ],
      [
        "▁challenge",
        -9.233768861981016
      ],
      [
        "▁creature",
        -10.873491934802917
      ],
      [
        "▁race",
        -10.117283403032364
      ],
      [
        "▁hotel",
        -8.409040478551866
      ],
      [
        "▁1338",
        -13.184186855170022
      ],
      [
        "▁multi",
        -10.622184962361453
      ],
      [
        "▁166",
        -11.901068853582828
      ],
      [
        "▁shopp",
        -9.559939624826331
      ],
      [
        "▁kevin",
        -10.621982221740753
      ],
      [
        "more",
        -6.852969888899753
      ],
      [
        "▁02:4",
        -13.193705971514168
      ],
      [
        "▁tast",
        -10.773322848167894
      ],
      [
        "▁fever",
        -10.436682111850317
      ],
      [
        "▁mandat",
        -10.26206743608291
      ],
      [
        "▁characteristic",
        -10.783908519818201
      ],
      [
        "▁throw",
        -8.451380294034394
      ],
      [
        "y",
        -5.310532547169547
      ],
      [
        "▁189",
        -11.151032782477609
      ],
      [
        "空",
        -12.833785825435129
      ],
      [
        "▁115",
        -13.452826453989033
      ],
      [
        "▁exception",
        -10.184496663607545
      ],
      [
        "▁syn",
        -10.794093712609337
      ],
      [
        "ro",
        -8.288514316799883
      ],
      [
        "▁kind",
        -7.1335061063185785
      ],
      [
        "▁breakfast",
        -8.595024930460319
      ],
      [
        "▁on",
        -6.050779729216608
      ],
      [
        "▁arrow",
        -9.910708445006218
      ],
      [
        "▁assembl",
        -9.986149225074179
      ],
      [
        "mmy",
        -11.137154007142037
      ],
      [
        "▁melanie",
        -10.873139982195664
      ],
      [
        "▁bla",
        -10.66547882595629
      ],
      [
        "▁consent",
        -10.786497342468856
      ],
      [
        ")",
        -4.6644456325462995
      ],
      [
        "▁defin",
        -9.697165477846394
      ],
      [
        "▁mat",
        -10.859128195647186
      ],
      [
        "com",
        -13.080497432130679
      ],
      [
        "▁bigge",
        -8.91612420578351
      ],
      [
        "▁bottom",
        -9.073841554591539
      ],
      [
        "mus",
        -10.347836578336533
      ],
      [
        "▁x",
        -10.277760178101254
      ],
      [
        "▁65",
        -11.678712553193163
      ],
      [
        "w",
        -10.535206273216964
      ],
      [
        "▁75",
        -10.786024161906024
      ],
      [
        "▁confess",
        -10.9731438250026
      ],
      [
        "▁72",
        -12.150830509100189
      ],
      [
        "▁monaster",
        -11.090454011677629
      ],
      [
        "▁713-793-",
        -13.136770769999325
      ],
      [
        "kk",
        -10.129784113247265
      ],
      [
        "▁06:1",
        -13.632271856717782
      ],
      [
        "▁novelist",
        -10.70096777392445
      ],
      [
        "▁download",
        -10.42199723261336
      ],
      [
        "▁w.",
        -10.273830386683649
      ],
      [
        "▁have",
        -5.401484073416955
      ],
      [
        "▁reputation",
        -10.550918149433562
      ],
      [
        "5.0",
        -14.634618052259842
      ],
      [
        "▁evolv",
        -9.874936370379228
      ],
      [
        "▁order",
        -7.689555316556323
      ],
      [
        "▁steps",
        -9.47062441429753
      ],
      [
        "▁penny",
        -9.93820351441487
      ],
      [
        "sumption",
        -9.90974152525665
      ],
      [
        "▁afterward",
        -10.111357485578354
      ],
      [
        "▁distribute",
        -10.175820584114378
      ],
      [
        "string",
        -11.063495038409272
      ],
      [
        "▁dispute",
        -10.627012346271421
      ],
      [
        "▁moistur",
        -10.698939151902037
      ],
      [
        "▁casta",
        -11.83379842846121
      ],
      [
        "▁russia",
        -9.359103812867705
      ],
      [
        "▁decide",
        -9.369211464259935
      ],
      [
        "▁par",
        -10.44755595322071
      ],
      [
        "▁killing",
        -10.080638348429739
      ],
      [
        "▁employee",
        -9.45261656198875
      ],
      [
        "▁argue",
        -9.735920345149957
      ],
      [
        "▁albania",
        -10.362642799032344
      ],
      [
        "x",
        -10.142917686087703
      ],
      [
        "▁elevator",
        -9.807138041771763
      ],
      [
        "▁twirl",
        -11.085729714778335
      ],
      [
        "▁even",
        -6.782816792514361
      ],
      [
        "▁designate",
        -11.154347884831648
      ],
      [
        "▁pu",
        -10.644626408145367
      ],
      [
        "▁statistic",
        -10.307018090689445
      ],
      [
        "▁shy",
        -10.62989802750641
      ],
      [
        "▁9.",
        -14.140127953573414
      ],
      [
        "e",
        -7.9839449649842855
      ],
      [
        "▁m",
        -7.522966319395591
      ],
      [
        "▁phoe",
        -8.185462971483632
      ],
      [
        "!!!!!!",
        -10.851202100899231
      ],
      [
        "itie",
        -9.804402092164615
      ],
      [
        "wi",
        -9.55300905205746
      ],
      [
        "▁cricket",
        -11.084250839927735
      ],
      [
        ".........",
        -12.588671540398494
      ],
      [
        "▁got",
        -6.471185232180018
      ],
      [
        "▁crash",
        -9.98615963372275
      ],
      [
        "▁receive",
        -8.509869303689785
      ],
      [
        "==========",
        -12.002215571696562
      ],
      [
        "▁/",
        -8.874696097338479
      ],
      [
        "▁spore",
        -10.874514914584548
      ],
      [
        "▁noble",
        -10.260988627251932
      ],
      [
        "leur",
        -11.834203543590597
      ],
      [
        "▁ge",
        -10.184432201086087
      ],
      [
        "▁cleric",
        -10.973176579381743
      ],
      [
        "€",
        -10.750452492101797
      ],
      [
        "▁picnic",
        -10.873139364071855
      ],
      [
        "ish",
        -8.23995531956783
      ],
      [
        "▁teacher",
        -8.915643045252391
      ],
      [
        "▁tile",
        -10.87746874288479
      ],
      [
        "▁knight",
        -10.20558794290887
      ],
      [
        "72",
        -11.567392815125885
      ],
      [
        "mart",
        -10.440612187667245
      ],
      [
        "▁inevitabl",
        -10.550545110781142
      ],
      [
        "▁79",
        -13.348276525599442
      ],
      [
        "▁bald",
        -10.854832258179222
      ],
      [
        "▁223",
        -13.579519920084982
      ],
      [
        "be",
        -11.653583948774578
      ],
      [
        "▁oppose",
        -9.94768774642835
      ],
      [
        "================",
        -9.93165574775562
      ],
      [
        "bul",
        -10.454202704673872
      ],
      [
        "▁sustain",
        -9.744585281804113
      ],
      [
        "▁permanent",
        -10.254368743501209
      ],
      [
        "▁christ",
        -8.896456994603366
      ],
      [
        "▁whee",
        -10.779511923805421
      ],
      [
        "naiss",
        -11.833792202418863
      ],
      [
        "▁plot",
        -10.12400728497877
      ],
      [
        "the",
        -12.834112981039421
      ],
      [
        "▁board",
        -8.796111760294771
      ],
      [
        "craft",
        -8.465931625215791
      ],
      [
        "▁harmonis",
        -10.376695013296981
      ],
      [
        "▁some",
        -6.34788844119156
      ],
      [
        "woul",
        -8.996040675627025
      ],
      [
        "▁adaptation",
        -10.975389580895667
      ],
      [
        "eta",
        -11.965038771244686
      ],
      [
        "▁giraffe",
        -10.483878358856831
      ],
      [
        "▁early",
        -7.791537078799112
      ],
      [
        "▁saudi",
        -10.067857671466427
      ],
      [
        "▁answer",
        -8.28682518310099
      ],
      [
        "yond",
        -9.857797998928058
      ],
      [
        "ur",
        -11.393468614066895
      ],
      [
        "▁how",
        -5.890519111671627
      ],
      [
        "▁dad",
        -8.244906562408847
      ],
      [
        "▁polaroid",
        -10.307010748358898
      ],
      [
        "nt",
        -9.483159295592271
      ],
      [
        "▁dignit",
        -10.854460898547245
      ],
      [
        "▁&",
        -9.827902169549398
      ],
      [
        "▁tali",
        -9.713487927642188
      ],
      [
        "857",
        -13.994782264866089
      ],
      [
        "▁flew",
        -10.698948896580314
      ],
      [
        "▁disaster",
        -9.49917536486175
      ],
      [
        "▁with",
        -10.577457793838306
      ],
      [
        "▁ga",
        -8.032894666866108
      ],
      [
        "284",
        -14.231690287536491
      ],
      [
        "▁replac",
        -10.58485481284127
      ],
      [
        "ctic",
        -10.556789120480966
      ],
      [
        "▁pew",
        -10.784802113231583
      ],
      [
        "was",
        -8.237389634384783
      ],
      [
        "tan",
        -9.9321623395054
      ],
      [
        "▁tall",
        -9.475657944293513
      ],
      [
        "▁remember",
        -7.5918894277223075
      ],
      [
        "▁plant",
        -8.564721984931827
      ],
      [
        "▁bi",
        -9.593222906502632
      ],
      [
        "▁culture",
        -8.686925573889859
      ],
      [
        "4-3",
        -14.1382637006748
      ],
      [
        "▁heaven",
        -10.362557677018103
      ],
      [
        "▁++++",
        -13.72110732452765
      ],
      [
        "▁founder",
        -10.395458056712206
      ],
      [
        "over",
        -9.637137994016882
      ],
      [
        "▁jose",
        -8.862090376119262
      ],
      [
        "▁joe",
        -9.827669453329218
      ],
      [
        "▁dong",
        -11.004985380303683
      ],
      [
        "roo",
        -10.296227763664408
      ],
      [
        "▁casual",
        -10.770752255974218
      ],
      [
        "▁stoo",
        -9.17895662160593
      ],
      [
        "▁vega",
        -8.245125516575804
      ],
      [
        "igh",
        -11.333586498143701
      ],
      [
        "▁similar",
        -8.955186088950896
      ],
      [
        "ca",
        -10.50055351711131
      ],
      [
        "▁top",
        -8.030367224448653
      ],
      [
        "▁opera",
        -10.58552354899021
      ],
      [
        "▁01",
        -11.7780887338857
      ],
      [
        "▁2/",
        -14.396171217010771
      ],
      [
        "▁burger",
        -10.698897093764923
      ],
      [
        "whe",
        -11.844895786839611
      ],
      [
        "▁guard",
        -9.502258525533543
      ],
      [
        "as",
        -11.683377276244991
      ],
      [
        "▁excel",
        -10.025933362849285
      ],
      [
        "▁optional",
        -10.921046402742245
      ],
      [
        "▁soldier",
        -9.574259415485042
      ],
      [
        "▁damn",
        -10.362591329913021
      ],
      [
        "▁scan",
        -10.555954591156478
      ],
      [
        "▁\"",
        -8.78674515612092
      ],
      [
        "driver",
        -10.847412001356034
      ],
      [
        "ozen",
        -9.947276922196286
      ],
      [
        "▁react",
        -10.807208965608863
      ],
      [
        "▁antique",
        -11.088736979469513
      ],
      [
        "▁buy",
        -7.860766118257595
      ],
      [
        "▁map",
        -9.449652112771531
      ],
      [
        "9",
        -8.142959650847832
      ],
      [
        "acion",
        -11.365745765385471
      ],
      [
        "▁civil",
        -9.523755739504066
      ],
      [
        "▁steam",
        -10.42095619549449
      ],
      [
        "▁counsel",
        -10.306999286176705
      ],
      [
        "▁93",
        -12.90496554153962
      ],
      [
        "patriot",
        -11.085866536934981
      ],
      [
        "ough",
        -8.427482906163831
      ],
      [
        "riff",
        -10.781314299648201
      ],
      [
        "▁888",
        -15.102084738941226
      ],
      [
        "306",
        -13.625205201532449
      ],
      [
        "▁curat",
        -11.085247760210613
      ],
      [
        "▁q",
        -9.146647422431784
      ],
      [
        "▁less",
        -8.101930377749888
      ],
      [
        "▁doctor",
        -8.475619130825356
      ],
      [
        "▁ruin",
        -9.948368777946149
      ],
      [
        "▁mon",
        -10.347175181341228
      ],
      [
        "▁jame",
        -9.589597741223777
      ],
      [
        "b",
        -5.33099299341527
      ],
      [
        "▁yellow",
        -8.614741321517261
      ],
      [
        "▁kid",
        -8.09327007034939
      ],
      [
        "▁reduc",
        -10.000404195475797
      ],
      [
        "▁159",
        -10.4362682075332
      ],
      [
        "ag",
        -12.393280713458322
      ],
      [
        "▁2:30",
        -11.734134949673814
      ],
      [
        "▁special",
        -8.427783989984796
      ],
      [
        "▁hig",
        -10.422960124931194
      ],
      [
        "▁empt",
        -9.68728891344188
      ],
      [
        "cion",
        -13.357598950459646
      ],
      [
        "big",
        -10.67440684812673
      ],
      [
        "___________",
        -10.848298036816363
      ],
      [
        "ion",
        -6.924539519216957
      ],
      [
        "▁tower",
        -10.074424294905043
      ],
      [
        "▁se",
        -12.504892474119078
      ],
      [
        "▁funnel",
        -10.78527659658753
      ],
      [
        "▁age",
        -8.441708585247868
      ],
      [
        "▁routine",
        -10.254367740714734
      ],
      [
        "▁tire",
        -8.731793385837726
      ],
      [
        "▁plent",
        -9.604882645858028
      ],
      [
        "▁100,000",
        -11.2585502119677
      ],
      [
        "▁palace",
        -10.307009475809988
      ],
      [
        "▁presen",
        -9.751245714027014
      ],
      [
        "/08/",
        -13.300465877902397
      ],
      [
        "al.",
        -10.696464705405322
      ],
      [
        "▁accent",
        -11.083663831747039
      ],
      [
        "▁eggs",
        -8.93237515233059
      ],
      [
        "▁33",
        -11.540855205242465
      ],
      [
        "ح",
        -12.833785825435129
      ],
      [
        "▁administration",
        -9.13928665952518
      ],
      [
        "▁substantial",
        -9.780538497751099
      ],
      [
        "▁where",
        -6.23540645533923
      ],
      [
        "▁alert",
        -10.624353218131592
      ],
      [
        "oral",
        -10.763098550143075
      ],
      [
        "▁andrew",
        -10.422066450914535
      ],
      [
        "▁pant",
        -9.262115238180751
      ],
      [
        "00",
        -9.74406713487027
      ],
      [
        "696",
        -12.743389716032901
      ],
      [
        "wau",
        -8.069574009509946
      ],
      [
        "apor",
        -10.546410734559219
      ],
      [
        "▁mel",
        -10.281417984293869
      ],
      [
        "▁lay",
        -8.69536663533814
      ],
      [
        "▁distract",
        -10.806672564793173
      ],
      [
        "▁competition",
        -9.655338706608731
      ],
      [
        "z",
        -7.849942215189802
      ],
      [
        "▁5",
        -11.486037404032146
      ],
      [
        "▁own",
        -7.355152662122665
      ],
      [
        "▁conscious",
        -9.77696837891372
      ],
      [
        "▁120",
        -10.933966636273304
      ],
      [
        "▁lie",
        -9.050131991599887
      ],
      [
        "▁460",
        -13.64990769420053
      ],
      [
        "▁sp",
        -12.671007000253537
      ],
      [
        "▁ga",
        -12.271472656463636
      ],
      [
        "shal",
        -11.894227517962463
      ],
      [
        "▁mechanic",
        -10.111294119072687
      ],
      [
        "▁rank",
        -9.897470499584426
      ],
      [
        "2007",
        -10.590895164732352
      ],
      [
        "right",
        -8.178679926087064
      ],
      [
        "▁period",
        -8.361212000972992
      ],
      [
        "▁member",
        -8.346273353133489
      ],
      [
        "sis",
        -12.693411606486883
      ],
      [
        "▁comp",
        -10.606307807147637
      ],
      [
        "▁year",
        -6.436918537020915
      ],
      [
        "▁pressure",
        -9.627669301113205
      ],
      [
        "713-853-3",
        -14.690688722965639
      ],
      [
        "▁export",
        -9.499238822260022
      ],
      [
        "▁11/",
        -12.525804538246266
      ],
      [
        "▁.",
        -6.116290613496916
      ],
      [
        "▁span",
        -10.06123711532471
      ],
      [
        "▁union",
        -9.01903541359458
      ],
      [
        "▁nas",
        -9.950716072037084
      ],
      [
        "▁pair",
        -9.527720273167025
      ],
      [
        "▁needles",
        -11.180646624741314
      ],
      [
        "▁fe",
        -8.96497516705648
      ],
      [
        "her",
        -7.76771503543099
      ],
      [
        ".6",
        -12.64527802129072
      ],
      [
        "t",
        -5.232622221240422
      ],
      [
        "▁elect",
        -10.063962431714776
      ],
      [
        "tuck",
        -9.337494254085813
      ],
      [
        "▁run",
        -8.15687094691907
      ],
      [
        "fill",
        -11.066778043188158
      ],
      [
        "2.",
        -15.381518620275795
      ],
      [
        "its",
        -10.743570623640187
      ],
      [
        "▁spirit",
        -9.743608631066458
      ],
      [
        "▁decline",
        -9.627884936721669
      ],
      [
        "▁whole",
        -7.92670684856751
      ],
      [
        "▁diver",
        -11.020714256186352
      ],
      [
        "▁than",
        -7.291350501791544
      ],
      [
        "▁fear",
        -9.12317845442543
      ],
      [
        "▁legislati",
        -9.39223777323842
      ],
      [
        "fore",
        -8.751763233800682
      ],
      [
        "nia",
        -9.75108352246728
      ],
      [
        "▁flie",
        -9.807853956987563
      ],
      [
        "▁marx",
        -10.485231116177626
      ],
      [
        "▁rec",
        -9.803308011844216
      ],
      [
        "▁approval",
        -10.111856077959793
      ],
      [
        "se",
        -10.75939678579618
      ],
      [
        "▁trib",
        -11.031021474593175
      ],
      [
        "▁reservation",
        -10.421378360632154
      ],
      [
        "▁consequent",
        -10.873139098249045
      ],
      [
        "▁medit",
        -11.05603420754454
      ],
      [
        "▁attain",
        -10.873550511772436
      ],
      [
        "▁appointment",
        -9.743612168039979
      ],
      [
        "▁scheme",
        -10.621975799622549
      ],
      [
        "▁refus",
        -9.81821068947286
      ],
      [
        "▁le",
        -10.86344947938667
[...]
