{
  "version": "1.0",
  "truncation": null,
  "padding": null,
  "added_tokens": [
    {
      "id": 5389,
      "content": "[PAD]",
      "single_word": false,
      "lstrip": false,
      "rstrip": false,
      "normalized": false,
      "special": true
    },
    {
      "id": 6178,
      "content": "[UNK]",
      "single_word": false,
      "lstrip": false,
      "rstrip": false,
      "normalized": false,
      "special": true
    },
    {
      "id": 6620,
      "content": "[SEP]",
      "single_word": false,
      "lstrip": false,
      "rstrip": false,
      "normalized": false,
      "special": true
    },
    {
      "id": 10733,
      "content": "[CLS]",
      "single_word": false,
      "lstrip": false,
      "rstrip": false,
      "normalized": false,
      "special": true
    },
    {
      "id": 13293,
      "content": "[MASK]",
      "single_word": false,
      "lstrip": false,
      "rstrip": false,
      "normalized": false,
      "special": true
    }
  ],
  "normalizer": {
    "type": "Sequence",
    "normalizers": [
      {
        "type": "NFD"
      },
      {
        "type": "Lowercase"
      },
      {
        "type": "StripAccents"
      }
    ]
  },
  "pre_tokenizer": {
    "type": "Sequence",
    "pretokenizers": [
      {
        "type": "Metaspace",
        "replacement": "▁",
        "prepend_scheme": "always",
        "split": true
      }
    ]
  },
  "post_processor": {
    "type": "TemplateProcessing",
    "single": [
      {
        "SpecialToken": {
          "id": "[CLS]",
          "type_id": 0
        }
      },
      {
        "Sequence": {
          "id": "A",
          "type_id": 0
        }
      },
      {
        "SpecialToken": {
          "id": "[SEP]",
          "type_id": 0
        }
      }
    ],
    "pair": [
      {
        "SpecialToken": {
          "id": "[CLS]",
          "type_id": 0
        }
      },
      {
        "Sequence": {
          "id": "A",
          "type_id": 0
        }
      },
      {
        "SpecialToken": {
          "id": "[SEP]",
          "type_id": 0
        }
      },
      {
        "Sequence": {
          "id": "B",
          "type_id": 1
        }
      },
      {
        "SpecialToken": {
          "id": "[SEP]",
          "type_id": 1
        }
      }
    ],
    "special_tokens": {
      "[CLS]": {
        "id": "[CLS]",
        "ids": [
          10733
        ],
        "tokens": [
          "[CLS]"
        ]
      },
      "[SEP]": {
        "id": "[SEP]",
        "ids": [
          6620
        ],
        "tokens": [
          "[SEP]"
        ]
      }
    }
  },
  "decoder": {
    "type": "Metaspace",
    "replacement": "▁",
    "prepend_scheme": "always",
    "split": true
  },
  "model": {
    "type": "WordPiece",
    "unk_token": "[UNK]",
    "continuing_subword_prefix": "##",
    "max_input_chars_per_word": 100,
    "vocab": {
      "##}": 0,
      "▁imple": 1,
      "▁417": 2,
      "▁pri": 3,
      "▁wakes": 4,
      "▁winking": 5,
      "##4th": 6,
      "▁structural": 7,
      "##oculars": 8,
      "▁shape": 9,
      "▁charitable": 10,
      "▁calc": 11,
      "##food": 12,
      "▁bland": 13,
      "▁inequ": 14,
      "##icked": 15,
      "▁meals": 16,
      "▁doctors": 17,
      "▁nov.": 18,
      "##ais": 19,
      "▁strang": 20,
      "▁129": 21,
      "▁relax": 22,
      "▁cartoons": 23,
      "▁preferences": 24,
      "##-20": 25,
      "##hh": 26,
      "##ract": 27,
      "##itage": 28,
      "▁claus": 29,
      "##erce": 30,
      "##-37": 31,
      "▁names": 32,
      "▁1/8": 33,
      "▁headed": 34,
      "▁sniff": 35,
      "▁apost": 36,
      "##oup": 37,
      "▁loose": 38,
      "##ston": 39,
      "##3": 40,
      "▁math": 41,
      "##asing": 42,
      "▁abstract": 43,
      "##irt": 44,
      "▁stuck": 45,
      "▁mich": 46,
      "▁against": 47,
      "##ww": 48,
      "▁becomes": 49,
      "▁theodorus": 50,
      "▁pivotchart": 51,
      "##ilit": 52,
      "▁great": 53,
      "▁least": 54,
      "▁unusual": 55,
      "##ged": 56,
      "▁discount": 57,
      "▁fee": 58,
      "##d-#693": 59,
      "##rich": 60,
      "##shore": 61,
      "##ouch": 62,
      "▁players": 63,
      "▁privileged": 64,
      "▁describing": 65,
      "▁relates": 66,
      "▁specified": 67,
      "▁quilis": 68,
      "##attering": 69,
      "▁karl": 70,
      "##orio": 71,
      "##enous": 72,
      "▁ros": 73,
      "▁expansion": 74,
      "▁loud": 75,
      "▁1608": 76,
      "▁shiite": 77,
      "▁thorough": 78,
      "▁tigers": 79,
      "▁spices": 80,
      "▁23": 81,
      "▁young": 82,
      "▁overc": 83,
      "##urd": 84,
      "##”": 85,
      "▁corn": 86,
      "##acc": 87,
      "▁plane": 88,
      "▁defeated": 89,
      "▁orleans": 90,
      "##r.": 91,
      "▁had": 92,
      "▁susp": 93,
      "▁ko": 94,
      "▁neo": 95,
      "▁greeting": 96,
      "▁leaders": 97,
      "▁seiz": 98,
      "▁ruth": 99,
      "▁overse": 100,
      "▁empty": 101,
      "▁wounds": 102,
      "▁dislike": 103,
      "▁guid": 104,
      "##orne": 105,
      "▁uniform": 106,
      "##ades": 107,
      "▁clinics": 108,
      "▁apprec": 109,
      "##rel": 110,
      "▁borgin": 111,
      "▁ag": 112,
      "▁ebs": 113,
      "▁responsibility": 114,
      "▁borne": 115,
      "▁secur": 116,
      "▁veh": 117,
      "▁orland": 118,
      "▁squeeze": 119,
      "▁influenced": 120,
      "▁modified": 121,
      "▁chicken": 122,
      "▁letting": 123,
      "▁indiana": 124,
      "▁paul": 125,
      "▁format": 126,
      "##esley": 127,
      "▁handful": 128,
      "▁nov": 129,
      "▁cloud": 130,
      "▁last": 131,
      "▁visit": 132,
      "▁shut": 133,
      "##ugal": 134,
      "##4": 135,
      "▁ua": 136,
      "▁michigan": 137,
      "▁inspector": 138,
      "##tering": 139,
      "▁presents": 140,
      "##ought": 141,
      "▁incredible": 142,
      "##/30": 143,
      "▁mosquitoes": 144,
      "▁mike": 145,
      "##lio": 146,
      "##ρ": 147,
      "▁500": 148,
      "▁blast": 149,
      "##zema": 150,
      "▁fusion": 151,
      "##warts": 152,
      "▁she": 153,
      "##ili": 154,
      "▁rape": 155,
      "##ur": 156,
      "▁origin": 157,
      "##ti": 158,
      "▁johann": 159,
      "##ression": 160,
      "▁confirmed": 161,
      "##ware": 162,
      "▁completely": 163,
      "▁conventional": 164,
      "▁yacht": 165,
      "▁again": 166,
      "▁told": 167,
      "▁papers": 168,
      "##ires": 169,
      "▁oc": 170,
      "▁struck": 171,
      "▁haven": 172,
      "▁founders": 173,
      "##urs": 174,
      "▁hi": 175,
      "##oose": 176,
      "▁****": 177,
      "##wide": 178,
      "▁dis": 179,
      "▁seesaw": 180,
      "▁analysis_0712": 181,
      "▁charged": 182,
      "▁curly": 183,
      "▁substantive": 184,
      "▁safet": 185,
      "▁complicated": 186,
      "##grin": 187,
      "▁1160": 188,
      "▁padaleck": 189,
      "▁weekly": 190,
      "▁containers": 191,
      "##ao": 192,
      "##amo": 193,
      "▁claw": 194,
      "▁believes": 195,
      "▁stip": 196,
      "▁taiwan": 197,
      "##uable": 198,
      "▁wander": 199,
      "##ound": 200,
      "▁pit": 201,
      "▁hmm": 202,
      "##ensions": 203,
      "▁icing": 204,
      "▁continued": 205,
      "▁insert": 206,
      "▁nobody": 207,
      "▁varied": 208,
      "##rian": 209,
      "▁demonstration": 210,
      "▁manner": 211,
      "r": 212,
      "▁whil": 213,
      "▁substance": 214,
      "▁bell": 215,
      "▁pup": 216,
      "##nam": 217,
      "▁substantially": 218,
      "▁official": 219,
      "▁involved": 220,
      "▁regional": 221,
      "▁microsoft": 222,
      "▁1500": 223,
      "▁wilt": 224,
      "▁file": 225,
      "##8th": 226,
      "▁driving": 227,
      "▁refresh": 228,
      "▁chall": 229,
      "##38": 230,
      "▁0000108806": 231,
      "▁tipp": 232,
      "▁pillars": 233,
      "▁chill": 234,
      "▁garden": 235,
      "▁not": 236,
      "▁nicer": 237,
      "▁5.8": 238,
      "##standing": 239,
      "##σ": 240,
      "▁quaffle": 241,
      "##rol": 242,
      "##903": 243,
      "##igible": 244,
      "▁withdraw": 245,
      "▁lin": 246,
      "▁sunk": 247,
      "▁laugh": 248,
      "▁straw": 249,
      "▁launching": 250,
      "▁)": 251,
      "▁159": 252,
      "##.b": 253,
      "▁interrupted": 254,
      "▁sul": 255,
      "▁them": 256,
      "▁ex": 257,
      "▁dishes": 258,
      "▁struct": 259,
      "▁pock": 260,
      "▁innocent": 261,
      "▁.!": 262,
      "▁designated": 263,
      "▁coordinator": 264,
      "▁auck": 265,
      "▁farm": 266,
      "▁interpret": 267,
      "▁rug": 268,
      "w": 269,
      "▁subsequently": 270,
      "▁lip": 271,
      "▁fallen": 272,
      "▁idiot": 273,
      "##han": 274,
      "▁wondering": 275,
      "▁oldest": 276,
      "▁dedicated": 277,
      "▁kabul": 278,
      "▁gas": 279,
      "▁fung": 280,
      "▁dough": 281,
      "▁aim": 282,
      "▁lion": 283,
      "▁chat": 284,
      "▁taxes": 285,
      "##abor": 286,
      "▁debate": 287,
      "##oral": 288,
      "▁rabbit": 289,
      "▁bringing": 290,
      "▁examine": 291,
      "▁hasid": 292,
      "▁batteries": 293,
      "▁1964": 294,
      "▁organ": 295,
      "▁story": 296,
      "▁temple": 297,
      "##------->": 298,
      "▁fa": 299,
      "▁345-343": 300,
      "▁overnight": 301,
      "▁into": 302,
      "##iles": 303,
      "▁wh": 304,
      "▁case": 305,
      "▁hundred": 306,
      "▁broken": 307,
      "##ained": 308,
      "##per": 309,
      "▁calend": 310,
      "##eval": 311,
      "##±": 312,
      "▁630": 313,
      "▁11:07": 314,
      "▁regularly": 315,
      "##ribly": 316,
      "▁essie": 317,
      "▁majority": 318,
      "▁nostr": 319,
      "▁legend": 320,
      "▁=": 321,
      "▁donald": 322,
      "▁cosplay": 323,
      "▁accomplish": 324,
      "▁scenes": 325,
      "▁11:00": 326,
      "▁agricultural": 327,
      "▁lear": 328,
      "▁mariner": 329,
      "▁foreign": 330,
      "▁coupled": 331,
      "▁nerv": 332,
      "▁intr": 333,
      "▁activ": 334,
      "▁emerg": 335,
      "▁state": 336,
      "▁know": 337,
      "▁writing": 338,
      "▁flex": 339,
      "▁tons": 340,
      "##1082": 341,
      "▁proc": 342,
      "▁66": 343,
      "▁750,000": 344,
      "▁hatfill": 345,
      "▁nasty": 346,
      "##..": 347,
      "▁listing": 348,
      "▁substances": 349,
      "▁psychology": 350,
      "##edie": 351,
      "▁ba": 352,
      "##mail.com": 353,
      "▁achievements": 354,
      "▁drugs": 355,
      "▁elastic": 356,
      "▁sh": 357,
      "▁worst": 358,
      "▁oily": 359,
      "▁estimates": 360,
      "##ife": 361,
      "▁arises": 362,
      "▁forget": 363,
      "##teen": 364,
      "▁soccer": 365,
      "▁84": 366,
      "##uten": 367,
      "▁muggle": 368,
      "▁arbitr": 369,
      "▁municipalities": 370,
      "▁arvn": 371,
      "▁chocol": 372,
      "▁halls": 373,
      "##yond": 374,
      "▁fifth": 375,
      "▁encoun": 376,
      "##inners": 377,
      "▁ugh": 378,
      "▁engineer": 379,
      "▁kr": 380,
      "▁joke": 381,
      "▁facilit": 382,
      "▁first": 383,
      "▁203": 384,
      "▁commercial": 385,
      "▁pom": 386,
      "▁journals": 387,
      "▁kh": 388,
      "▁genetically": 389,
      "♥": 390,
      "▁estate": 391,
      "▁blows": 392,
      "▁sav": 393,
      "▁iq": 394,
      "▁mechan": 395,
      "##onom": 396,
      "▁responsibilities": 397,
      "▁professors": 398,
      "▁festival": 399,
      "▁terrell": 400,
      "▁buyer": 401,
      "▁sleepy": 402,
      "▁negligence": 403,
      "▁tho": 404,
      "##exp": 405,
      "▁braz": 406,
      "▁bathroom": 407,
      "▁camel": 408,
      "▁aggress": 409,
      "▁property": 410,
      "▁pockets": 411,
      "▁kyle": 412,
      "##63": 413,
      "▁p&l": 414,
      "▁clear": 415,
      "▁pledged": 416,
      "▁electronic": 417,
      "▁instinct": 418,
      "##ats": 419,
      "▁inning": 420,
      "▁distant": 421,
      "▁letters": 422,
      "▁institution": 423,
      "##ounds": 424,
      "##isions": 425,
      "##ys": 426,
      "▁1848": 427,
      "##able": 428,
      "▁bta": 429,
      "▁tre": 430,
      "▁all": 431,
      "▁09/15": 432,
      "▁800-5": 433,
      "▁pediat": 434,
      "▁nerve": 435,
      "▁ev": 436,
      "##fire": 437,
      "▁innov": 438,
      "▁1585": 439,
      "▁memory": 440,
      "▁twww": 441,
      "##alvo": 442,
      "▁role": 443,
      "▁beer": 444,
      "##????": 445,
      "▁january": 446,
      "##-l": 447,
      "▁?????": 448,
      "▁talks": 449,
      "▁grumbles": 450,
      "▁tah": 451,
      "▁response": 452,
      "##isons": 453,
      "▁detect": 454,
      "▁random": 455,
      "##uma": 456,
      "##ple": 457,
      "▁relent": 458,
      "▁doug": 459,
      "▁flowing": 460,
      "▁arrogance": 461,
      "##lus": 462,
      "▁forgotten": 463,
      "▁amazing": 464,
      "▁spoke": 465,
      "▁bible": 466,
      "▁am": 467,
      "##cel": 468,
      "▁colom": 469,
      "##illo": 470,
      "▁equity": 471,
      "▁become": 472,
      "▁aged": 473,
      "▁believed": 474,
      "▁1991": 475,
      "▁interventions": 476,
      "▁standing": 477,
      "▁airline": 478,
      "##aged": 479,
      "##ists": 480,
      "▁59": 481,
      "▁raw": 482,
      "▁1600": 483,
      "##iov": 484,
      "##cher": 485,
      "▁income": 486,
      "▁arrest": 487,
      "▁0.0": 488,
      "▁1.4": 489,
      "▁cred": 490,
      "▁jama": 491,
      "▁likewise": 492,
      "▁affection": 493,
      "▁soot": 494,
      "▁histories": 495,
      "▁mish": 496,
      "▁foc": 497,
      "▁washing": 498,
      "##8196021": 499,
      "▁foreigners": 500,
      "▁anger": 501,
      "▁olympics": 502,
      "▁bul": 503,
      "▁surpr": 504,
      "##five": 505,
      "##unh": 506,
      "##-2": 507,
      "##mp": 508,
      "▁rum": 509,
      "▁coastal": 510,
      "▁dere": 511,
      "▁invented": 512,
      "▁influ": 513,
      "▁grams": 514,
      "▁stinging": 515,
      "##/2000": 516,
      "▁lottery": 517,
      "▁hass": 518,
      "▁federation": 519,
      "▁lands": 520,
      "▁recording": 521,
      "##awed": 522,
      "▁roberts": 523,
      "▁participation": 524,
      "▁restrictions": 525,
      "▁mes": 526,
      "##iance": 527,
      "▁airl": 528,
      "▁queries": 529,
      "▁;": 530,
      "▁reserved": 531,
      "##zzy": 532,
      "▁sheet": 533,
      "▁cowboy": 534,
      "▁fernand": 535,
      "▁indians": 536,
      "▁compete": 537,
      "▁referring": 538,
      "▁mandatory": 539,
      "##:05": 540,
      "▁chapters": 541,
      "ο": 542,
      "▁1947": 543,
      "▁8:15": 544,
      "▁possessed": 545,
      "##琴": 546,
      "##-fl": 547,
      "▁flour": 548,
      "▁seas": 549,
      "▁granger": 550,
      "▁customizing": 551,
      "##anga": 552,
      "▁boards": 553,
      "▁rhinoceros": 554,
      "▁specialized": 555,
      "▁forum": 556,
      "▁pharm": 557,
      "##eare": 558,
      "##eeting": 559,
      "##ning": 560,
      "##ention": 561,
      "##ca": 562,
      "▁magn": 563,
      "▁apparently": 564,
      "##met": 565,
      "▁access": 566,
      "##agh": 567,
      "▁addicted": 568,
      "▁committ": 569,
      "▁wound": 570,
      "▁tomato": 571,
      "▁sky": 572,
      "▁destroy": 573,
      "##fully": 574,
      "▁plen": 575,
      "▁1179": 576,
      "▁harmonisation": 577,
      "##sylv": 578,
      "##erick": 579,
      "▁patterns": 580,
      "▁gil": 581,
      "▁n’t": 582,
      "▁del": 583,
      "▁color": 584,
      "##ernobyl": 585,
      "▁runner": 586,
      "▁unst": 587,
      "▁lying": 588,
      "▁congregation": 589,
      "▁wizard": 590,
      "▁enter": 591,
      "##ison": 592,
      "▁electoral": 593,
      "▁booking": 594,
      "▁delay": 595,
      "▁california": 596,
      "##asa": 597,
      "##imm": 598,
      "##oulders": 599,
      "▁customers": 600,
      "▁suspect": 601,
      "▁1-800-991-90": 602,
      "##????????????????": 603,
      "▁415.621.8317": 604,
      "##[": 605,
      "▁tasted": 606,
      "##uku": 607,
      "▁ways": 608,
      "▁140": 609,
      "▁pairs": 610,
      "▁hem": 611,
      "▁court": 612,
      "▁compulsive": 613,
      "▁third": 614,
      "▁rept": 615,
      "▁talent": 616,
      "▁1847": 617,
      "▁taco": 618,
      "##agen": 619,
      "##ologies": 620,
      "▁alf": 621,
      "▁collects": 622,
      "▁peaceful": 623,
      "▁diane": 624,
      "▁liby": 625,
      "▁wear": 626,
      "▁recreat": 627,
      "##stances": 628,
      "▁thirty-": 629,
      "▁figure": 630,
      "▁chim": 631,
      "▁sweater": 632,
      "##ilty": 633,
      "##alling": 634,
      "▁special": 635,
      "▁hann": 636,
      "##selves": 637,
      "▁greatly": 638,
      "##iversary": 639,
      "▁moves": 640,
      "▁7:30": 641,
      "##bro": 642,
      "▁labrador": 643,
      "▁birdie": 644,
      "▁silic": 645,
      "▁winter": 646,
      "▁b.": 647,
      "##pan": 648,
      "▁pas": 649,
      "▁disruptive": 650,
      "▁scrib": 651,
      "▁adam": 652,
      "▁wonderful": 653,
      "▁matt": 654,
      "▁150,000": 655,
      "▁agencies": 656,
      "##ilton": 657,
      "▁urban": 658,
      "▁doll": 659,
      "▁some": 660,
      "▁licenses": 661,
      "▁takes": 662,
      "##1": 663,
      "▁nook": 664,
      "▁newer": 665,
      "▁reportedly": 666,
      "##akes": 667,
      "▁royal": 668,
      "▁phen": 669,
      "▁ware": 670,
      "▁fasc": 671,
      "▁nicobar": 672,
      "▁transit": 673,
      "▁leash": 674,
      "静": 675,
      "▁whereas": 676,
      "▁draw": 677,
      "▁scratching": 678,
      "▁pony": 679,
      "##cy": 680,
      "▁rush": 681,
      "▁regime": 682,
      "##urbar": 683,
      "▁60,000": 684,
      "▁ld2": 685,
      "▁shackleton": 686,
      "▁blame": 687,
      "##urning": 688,
      "##.10": 689,
      "##athy": 690,
      "▁heaven": 691,
      "▁islands": 692,
      "▁ans": 693,
      "▁jumped": 694,
      "▁blur": 695,
      "##aku": 696,
      "▁sincerely": 697,
      "##tail": 698,
      "▁kitt": 699,
      "▁update": 700,
      "##arity": 701,
      "▁202.456.1111": 702,
      "▁freezing": 703,
      "##iar": 704,
      "▁appreciate": 705,
      "▁shin": 706,
      "▁proponents": 707,
      "▁cookies": 708,
      "▁750": 709,
      "▁adult": 710,
      "##uces": 711,
      "▁percell,": 712,
      "▁nephew": 713,
      "▁asymmetrical": 714,
      "▁europe": 715,
      "▁arrival": 716,
      "▁lengthy": 717,
      "▁plague": 718,
      "##load": 719,
      "▁166": 720,
      "##esota": 721,
      "▁facility": 722,
      "▁mist": 723,
      "▁roared": 724,
      "▁winner": 725,
      "▁banana": 726,
      "▁boulev": 727,
      "▁data": 728,
      "##etime": 729,
      "##ollah": 730,
      "▁legs": 731,
      "▁clam": 732,
      "▁massachusetts": 733,
      "▁prev": 734,
      "▁changes": 735,
      "##values": 736,
      "▁doc": 737,
      "▁2020": 738,
      "▁professionals": 739,
      "▁aesth": 740,
      "##idable": 741,
      "▁personal": 742,
      "▁threatened": 743,
      "▁its": 744,
      "##ision": 745,
      "##oices": 746,
      "##sequ": 747,
      "▁bites": 748,
      "##itude": 749,
      "▁race": 750,
      "▁fdi": 751,
      "▁interpretation": 752,
      "▁coff": 753,
      "##cut": 754,
      "##del": 755,
      "▁nature": 756,
      "▁discret": 757,
      "▁could": 758,
      "▁delicious": 759,
      "##ired": 760,
      "▁virt": 761,
      "▁tol": 762,
      "##oulder": 763,
      "▁tem": 764,
      "▁outside": 765,
      "▁baseball": 766,
      "▁session": 767,
      "▁five": 768,
      "▁asy": 769,
      "▁structures": 770,
      "▁meter": 771,
      "▁cuis": 772,
      "▁wives": 773,
      "▁military": 774,
      "▁sadr": 775,
      "▁combination": 776,
      "▁dam": 777,
      "▁415.782.7822": 778,
      "▁chant": 779,
      "##-class": 780,
      "▁increasing": 781,
      "ε": 782,
      "##vn": 783,
      "▁rolling": 784,
      "▁capture": 785,
      "##ulk": 786,
      "▁build": 787,
      "▁posted": 788,
      "▁bes": 789,
      "▁beliefs": 790,
      "▁guardia": 791,
      "##ge": 792,
      "▁aug": 793,
      "▁dancing": 794,
      "##igrew": 795,
      "▁modify": 796,
      "▁art": 797,
      "##ens": 798,
      "##emort": 799,
      "##teous": 800,
      "▁italy": 801,
      "▁vib": 802,
      "##ss": 803,
      "▁notions": 804,
      "▁proposals": 805,
      "▁ink": 806,
      "▁yorkshire": 807,
      "▁liberty": 808,
      "▁ripped": 809,
      "▁hiking": 810,
      "▁handle": 811,
      "▁hurting": 812,
      "▁deem": 813,
      "▁1,6": 814,
      "▁rounds": 815,
      "▁solved": 816,
      "▁showed": 817,
      "▁auch": 818,
      "▁comfortable": 819,
      "▁astronauts": 820,
      "##rect": 821,
      "▁defining": 822,
      "##my": 823,
      "▁otherwise": 824,
      "▁ps": 825,
      "▁badge": 826,
      "▁gel": 827,
      "▁diverse": 828,
      "▁locust": 829,
      "▁chomsky": 830,
      "▁roly": 831,
      "▁addition": 832,
      "▁positions": 833,
      "▁interjection": 834,
      "▁penc": 835,
      "##-g": 836,
      "##hop": 837,
      "▁hano": 838,
      "▁permission": 839,
      "▁methodology": 840,
      "▁interested": 841,
      "▁isl": 842,
      "▁obstacle": 843,
      "▁deter": 844,
      "▁needed": 845,
      "▁determine": 846,
      "▁cro": 847,
      "▁ladder": 848,
      "##ook": 849,
      "##50": 850,
      "▁uncover": 851,
      "▁breaking": 852,
      "▁1939": 853,
      "##静": 854,
      "▁sym": 855,
      "##-kedne": 856,
      "##ffin": 857,
      "▁poems": 858,
      "▁duty": 859,
      "▁gym": 860,
      "▁pilgr": 861,
      "▁supp": 862,
      "▁charlie": 863,
      "▁43": 864,
      "▁invitation": 865,
      "▁pyram": 866,
      "▁reve": 867,
      "##adv": 868,
      "▁compact": 869,
      "▁invested": 870,
      "▁shrimp": 871,
      "▁squirrels": 872,
      "▁willingness": 873,
      "▁stad": 874,
      "▁snail": 875,
      "▁scholarship": 876,
      "▁---=": 877,
      "##294-": 878,
      "##ength": 879,
      "▁1994": 880,
      "▁powder": 881,
      "##iling": 882,
      "▁surge": 883,
      "##mus": 884,
      "##vember": 885,
      "▁seld": 886,
      "##itt": 887,
      "▁supper": 888,
      "##ula": 889,
      "▁individ": 890,
      "▁separation": 891,
      "▁analy": 892,
      "▁suspicious": 893,
      "##eth": 894,
      "▁creating": 895,
      "▁identifying": 896,
      "##theless": 897,
      "▁☏": 898,
      "▁commands": 899,
      "##ane": 900,
      "▁gall": 901,
      "▁anytime": 902,
      "▁label": 903,
      "##onic": 904,
      "▁toky": 905,
      "▁cia": 906,
      "▁fuel": 907,
      "▁invoice": 908,
      "##isal": 909,
      "▁marl": 910,
      "▁stopover": 911,
      "▁nearest": 912,
      "▁inclined": 913,
      "▁01/2": 914,
      "▁spikes": 915,
      "▁11.5": 916,
      "▁belongs": 917,
      "##aps": 918,
      "▁twenty": 919,
      "##aut": 920,
      "▁knowled": 921,
      "##ح": 922,
      "▁tech": 923,
      "▁swirl": 924,
      "▁emer": 925,
      "##less": 926,
      "▁lower": 927,
      "##ough": 928,
      "▁crack": 929,
      "▁concerns": 930,
      "▁marlow": 931,
      "▁ideation": 932,
      "▁deduct": 933,
      "▁past": 934,
      "▁delic": 935,
      "▁fact": 936,
      "▁bunk": 937,
      "▁elect": 938,
      "▁robe": 939,
      "▁civilian": 940,
      "▁inviting": 941,
      "▁alley": 942,
      "▁dollie": 943,
      "▁bachel": 944,
      "▁sept.": 945,
      "▁comedy": 946,
      "▁fre": 947,
      "##tact": 948,
      "▁respects": 949,
      "▁metal": 950,
      "▁appropriate": 951,
      "▁lease": 952,
      "▁http://www.4gamer.net/news/image/2005.09/20050919032951_": 953,
      "▁cave": 954,
      "▁nonstop": 955,
      "▁mid": 956,
      "▁pharmaceutical": 957,
      "▁probability": 958,
      "▁moo": 959,
      "▁lyr": 960,
      "▁ridiculous": 961,
      "▁andrillae": 962,
      "▁prison": 963,
      "▁afford": 964,
      "##ala": 965,
      "▁innovative": 966,
      "▁equival": 967,
      "▁partnership": 968,
      "▁unanim": 969,
      "##imir": 970,
      "▁subd": 971,
      "##@s": 972,
      "▁soliloqu": 973,
      "▁mess": 974,
      "▁coll": 975,
      "▁wikimedia": 976,
      "▁12.": 977,
      "▁shame": 978,
      "▁ceiling": 979,
      "▁argentina": 980,
      "▁diandra": 981,
      "▁classic": 982,
      "▁asyl": 983,
      "▁reactions": 984,
      "##tery": 985,
      "▁agra": 986,
      "▁beyond": 987,
      "▁parake": 988,
      "##ection": 989,
      "▁sql": 990,
      "▁chuck": 991,
      "▁courses": 992,
      "##/99": 993,
      "▁raising": 994,
      "▁friendsh": 995,
      "▁cri": 996,
      "▁talk": 997,
      "▁reapp": 998,
      "▁attractive": 999,
      "▁tac": 1000,
      "##-1.doc": 1001,
      "##ople": 1002,
      "▁attentive": 1003,
      "##ily": 1004,
      "##lane": 1005,
      "##ault": 1006,
      "▁command": 1007,
      "##ato": 1008,
      "▁wrong": 1009,
      "▁discover": 1010,
      "▁match": 1011,
      "▁say": 1012,
      "▁securities": 1013,
      "▁unfortunately": 1014,
      "▁holders": 1015,
      "##rolled": 1016,
      "▁invest": 1017,
      "▁stor": 1018,
      "##67": 1019,
      "##izer": 1020,
      "▁6/1": 1021,
      "##9/2000": 1022,
      "▁dinos": 1023,
      "##2,000": 1024,
      "##oub": 1025,
      "ʊ": 1026,
      "▁spots": 1027,
      "▁6.2": 1028,
      "##gary": 1029,
      "##ball": 1030,
      "##53": 1031,
      "##walk": 1032,
      "▁confl": 1033,
      "▁1699": 1034,
      "▁airport": 1035,
      "▁comments": 1036,
      "##news/image/2005.09": 1037,
      "▁mystery": 1038,
      "##tax": 1039,
      "▁magicians": 1040,
      "▁questioning": 1041,
      "▁stoo": 1042,
      "##0/2000": 1043,
      "▁bath+": 1044,
      "##umb": 1045,
      "▁inches": 1046,
      "▁glance": 1047,
      "##iently": 1048,
      "▁activities": 1049,
      "▁moslem": 1050,
      "▁highest": 1051,
      "▁monkey": 1052,
      "▁vegetables": 1053,
      "▁encouraging": 1054,
      "▁jury": 1055,
      "▁motionless": 1056,
      "##³": 1057,
      "▁roar": 1058,
      "##'": 1059,
      "▁puzzle": 1060,
      "▁everything": 1061,
      "▁mcc": 1062,
      "▁oppose": 1063,
      "▁nons": 1064,
      "##ongss": 1065,
      "##z": 1066,
      "▁170": 1067,
      "##way": 1068,
      "▁anticip": 1069,
      "▁probably": 1070,
      "##ag": 1071,
      "▁sa": 1072,
      "▁subsid": 1073,
      "▁ken": 1074,
      "▁a": 1075,
      "##hn": 1076,
      "▁value": 1077,
      "▁plural": 1078,
      "▁just": 1079,
      "▁flats": 1080,
      "▁hose": 1081,
      "##3098": 1082,
      "▁fol": 1083,
      "##ecess": 1084,
      "▁rather": 1085,
      "▁block": 1086,
      "▁reliable": 1087,
      "▁&": 1088,
      "▁must": 1089,
      "##master": 1090,
      "▁doughnuts": 1091,
      "##gie": 1092,
      "▁persons": 1093,
      "▁thrones": 1094,
      "▁chatting": 1095,
      "▁thron": 1096,
      "▁rope": 1097,
      "▁lords": 1098,
      "▁empan": 1099,
      "▁lwww": 1100,
      "▁oh": 1101,
      "▁_______": 1102,
      "▁involvement": 1103,
      "▁balzac": 1104,
      "▁entities": 1105,
      "##inc": 1106,
      "▁controls": 1107,
      "▁display": 1108,
      "##unch": 1109,
      "##ores": 1110,
      "▁artificial": 1111,
      "##oll": 1112,
      "▁toes": 1113,
      "▁mets": 1114,
      "▁transformative": 1115,
      "▁prevail": 1116,
      "▁scamm": 1117,
      "▁ecc": 1118,
      "▁twelf": 1119,
      "##ide": 1120,
      "▁ever": 1121,
      "##raz": 1122,
      "▁pc": 1123,
      "▁daily": 1124,
      "▁behavior": 1125,
      "▁collection": 1126,
      "▁jeans": 1127,
      "▁preach": 1128,
      "▁anyways": 1129,
      "▁bus": 1130,
      "▁korean": 1131,
      "##orial": 1132,
      "▁constructed": 1133,
      "▁detective": 1134,
      "▁q": 1135,
      "▁orig": 1136,
      "▁provide": 1137,
      "▁def": 1138,
      "▁outer": 1139,
      "▁stations": 1140,
      "##cle": 1141,
      "▁obsession": 1142,
      "▁1978": 1143,
      "▁rab": 1144,
      "▁cloth": 1145,
      "▁grandpa": 1146,
      "▁ansi-92": 1147,
      "##:30": 1148,
      "##ocular": 1149,
      "▁hair": 1150,
      "▁glow": 1151,
      "▁158": 1152,
      "▁colleges": 1153,
      "▁civilization": 1154,
      "▁forb": 1155,
      "▁excellent": 1156,
      "##asks": 1157,
      "▁isolated": 1158,
      "##cases": 1159,
      "▁rhinoc": 1160,
      "▁shibu": 1161,
      "▁11:35": 1162,
      "▁documents": 1163,
      "##ahu": 1164,
      "▁procrast": 1165,
      "##wick": 1166,
      "##view": 1167,
      "▁discretion": 1168,
      "##.com/wikihow": 1169,
      "##y": 1170,
      "▁gras": 1171,
      "▁okay": 1172,
      "▁creat": 1173,
      "▁decl": 1174,
      "▁video": 1175,
      "##aries": 1176,
      "▁moust": 1177,
      "▁worlds": 1178,
      "▁reim": 1179,
      "▁aquar": 1180,
      "▁refugees": 1181,
      "▁pear": 1182,
      "▁hut": 1183,
      "▁distinct": 1184,
      "▁respected": 1185,
      "▁shells": 1186,
      "▁lapt": 1187,
      "▁dock": 1188,
      "▁craft": 1189,
      "▁debr": 1190,
      "▁seller": 1191,
      "▁ethics": 1192,
      "▁tresp": 1193,
      "▁?": 1194,
      "▁profit": 1195,
      "##iott": 1196,
      "▁down": 1197,
      "▁move": 1198,
      "▁picnic": 1199,
      "##bert": 1200,
      "▁hospitals": 1201,
      "##unction": 1202,
      "▁50000": 1203,
      "▁18,000": 1204,
      "▁bobo": 1205,
      "▁notion": 1206,
      "##iah": 1207,
      "▁strong": 1208,
      "▁fascinating": 1209,
      "##ism": 1210,
      "▁connected": 1211,
      "▁tails": 1212,
      "▁entering": 1213,
      "▁homeopath": 1214,
      "▁dear": 1215,
      "▁swift": 1216,
      "▁18": 1217,
      "▁britt": 1218,
      "▁once": 1219,
      "▁dare": 1220,
      "##ass": 1221,
      "▁finds": 1222,
      "##soever": 1223,
      "▁evaluate": 1224,
      "▁woud": 1225,
      "##els": 1226,
      "▁airpl": 1227,
      "▁ten": 1228,
      "▁mobile": 1229,
      "▁snow": 1230,
      "▁democrats": 1231,
      "▁billions": 1232,
      "▁sperm": 1233,
      "▁meiring": 1234,
      "▁vlad": 1235,
      "▁realized": 1236,
      "▁fat": 1237,
      "##unct": 1238,
      "▁practices": 1239,
      "▁immed": 1240,
      "▁376": 1241,
      "▁contrary": 1242,
      "▁appreciation": 1243,
      "##abeth": 1244,
      "▁feedback": 1245,
      "▁sand": 1246,
      "##cles": 1247,
      "▁sk": 1248,
      "▁17": 1249,
      "▁guacamole": 1250,
      "▁basically": 1251,
      "▁stun": 1252,
      "▁31": 1253,
      "▁unsure": 1254,
      "▁ecosystem": 1255,
      "▁wil": 1256,
      "▁campaign": 1257,
      "▁kil": 1258,
      "▁sweat": 1259,
      "▁diction": 1260,
      "▁coincidence": 1261,
      "##ifications": 1262,
      "▁comed": 1263,
      "▁12": 1264,
      "▁ren": 1265,
      "▁harmonica": 1266,
      "▁shaw": 1267,
      "▁populated": 1268,
      "##worm": 1269,
      "▁drawn": 1270,
      "▁answers": 1271,
      "##**********************************": 1272,
      "▁rud": 1273,
      "▁sunlight": 1274,
      "▁veteran": 1275,
      "▁tick": 1276,
      "▁stirrup": 1277,
      "▁01/24/2001": 1278,
      "▁savage": 1279,
      "▁regist": 1280,
      "▁scholars": 1281,
      "##vere": 1282,
      "##$$": 1283,
      "▁perro": 1284,
      "▁swiss": 1285,
      "▁practice": 1286,
      "▁albeit": 1287,
      "▁sectors": 1288,
      "##hab": 1289,
      "▁waving": 1290,
      "▁mecca": 1291,
      "▁penny": 1292,
      "##ower": 1293,
      "▁loc": 1294,
      "##ipping": 1295,
      "##krap": 1296,
      "▁bin": 1297,
      "▁heav": 1298,
      "▁city": 1299,
      "▁medical": 1300,
      "▁disrupt": 1301,
      "##ima": 1302,
      "##esa": 1303,
      "▁ultr": 1304,
      "▁popeye": 1305,
      "▁lam": 1306,
      "▁curved": 1307,
      "▁maria": 1308,
      "##ecraft": 1309,
      "▁accustomed": 1310,
      "▁quickly": 1311,
      "▁frontiers": 1312,
      "▁glue": 1313,
      "▁yellowstone": 1314,
      "▁doctrine": 1315,
      "▁nandaro": 1316,
      "##esh": 1317,
      "▁sor": 1318,
      "▁exile": 1319,
      "▁firms": 1320,
      "▁wires": 1321,
      "▁labrad": 1322,
      "▁manhattan": 1323,
      "##-th": 1324,
      "##oo": 1325,
      "▁vol": 1326,
      "▁bears": 1327,
      "▁alberta": 1328,
      "##mos": 1329,
      "▁wentz": 1330,
      "▁what": 1331,
      "##ight": 1332,
      "▁ignorance": 1333,
      "▁aircraft": 1334,
      "▁har": 1335,
      "▁'m": 1336,
      "▁1579": 1337,
      "▁divers": 1338,
      "##leen": 1339,
      "▁ancest": 1340,
      "▁farrier": 1341,
      "▁spacecraft": 1342,
      "▁lob": 1343,
      "▁beck": 1344,
      "▁athe": 1345,
      "##air@enron.com": 1346,
      "##obia": 1347,
      "▁watering": 1348,
      "▁401": 1349,
      "▁leader": 1350,
      "0": 1351,
      "▁broadcast": 1352,
      "▁ip": 1353,
      "##mes": 1354,
      "▁indigenous": 1355,
      "▁dar": 1356,
      "▁chal": 1357,
      "##quis": 1358,
      "▁imprison": 1359,
      "##field": 1360,
      "▁dreamed": 1361,
      "▁medal": 1362,
      "##ingu": 1363,
      "▁esc": 1364,
      "▁decent": 1365,
      "▁sar": 1366,
      "##ciation": 1367,
      "▁institutional": 1368,
      "▁gardens": 1369,
      "##byl": 1370,
      "▁completion": 1371,
      "▁cleaner": 1372,
      "▁aspir": 1373,
      "▁counties": 1374,
      "▁h": 1375,
      "##owed": 1376,
      "▁entrance": 1377,
      "▁thawed": 1378,
      "▁commonplace": 1379,
      "##pite": 1380,
      "▁blackl": 1381,
      "##lined": 1382,
      "▁urler": 1383,
      "▁lost": 1384,
      "▁camping": 1385,
      "##iated": 1386,
      "▁diaper": 1387,
      "▁keeping": 1388,
      "▁required": 1389,
      "##7/2000": 1390,
      "##xt": 1391,
      "▁unto": 1392,
      "▁ideally": 1393,
      "▁’’": 1394,
      "▁entrep": 1395,
      "▁failure": 1396,
      "▁sleeve": 1397,
      "▁circus": 1398,
      "▁flaubert": 1399,
      "▁grand": 1400,
      "▁huma": 1401,
      "▁brilliant": 1402,
      "▁picks": 1403,
      "##anmar": 1404,
      "▁yellow": 1405,
      "▁balloons": 1406,
      "▁kings": 1407,
      "▁inter": 1408,
      "▁wit": 1409,
      "▁desk": 1410,
      "▁responses": 1411,
      "##nets": 1412,
      "##ating": 1413,
      "▁characteristics": 1414,
      "▁ie": 1415,
      "8": 1416,
      "▁loyal": 1417,
      "##oint": 1418,
      "▁tens": 1419,
      "##§": 1420,
      "▁manufacturing": 1421,
      "▁crayon": 1422,
      "▁relation": 1423,
      "▁institute": 1424,
      "##ved": 1425,
      "##d-": 1426,
      "▁leban": 1427,
      "▁congressional": 1428,
      "▁totally": 1429,
      "▁a.": 1430,
      "▁notebook.url": 1431,
      "▁democr": 1432,
      "▁painful": 1433,
      "##irical": 1434,
      "▁prosp": 1435,
      "▁.xsl": 1436,
      "▁nav": 1437,
      "▁altogether": 1438,
      "▁py": 1439,
      "▁final": 1440,
      "▁negoti": 1441,
      "▁fall": 1442,
      "▁199": 1443,
      "▁trained": 1444,
      "##46-3393": 1445,
      "##¢": 1446,
      "▁nwww": 1447,
      "▁t": 1448,
      "▁famil": 1449,
      "##wet": 1450,
      "▁allocated": 1451,
      "▁hok": 1452,
      "▁family": 1453,
      "▁religious": 1454,
      "▁838": 1455,
      "##mat": 1456,
      "▁marg": 1457,
      "▁successor": 1458,
      "▁somm": 1459,
      "##ι": 1460,
      "##-col": 1461,
      "▁went": 1462,
      "##ola": 1463,
      "▁mous": 1464,
      "▁racial": 1465,
      "##16": 1466,
      "##ido": 1467,
      "ح": 1468,
      "##oty": 1469,
      "2": 1470,
      "▁umbrella": 1471,
      "▁methods": 1472,
      "▁lenn": 1473,
      "”": 1474,
      "▁pyr": 1475,
      "▁hopeless": 1476,
      "▁organizations": 1477,
      "▁entree": 1478,
      "▁program": 1479,
      "▁although": 1480,
      "##}*{": 1481,
      "##icity": 1482,
      "▁amendments": 1483,
      "▁blowing": 1484,
      "▁succeed": 1485,
      "▁cer": 1486,
      "▁281-435-0295": 1487,
      "▁accommod": 1488,
      "##rim": 1489,
      "▁hunh": 1490,
      "▁frederick": 1491,
      "##corn": 1492,
      "▁dies": 1493,
      "▁irish": 1494,
      "▁arctic": 1495,
      "▁lord": 1496,
      "▁santorum": 1497,
      "##yon": 1498,
      "##ck": 1499,
      "▁tickets": 1500,
      "▁semantics": 1501,
      "▁warmth": 1502,
      "▁substit": 1503,
      "##var": 1504,
      "▁certainty": 1505,
      "▁48": 1506,
      "##澹": 1507,
      "##erc": 1508,
      "▁assured": 1509,
      "▁brooms": 1510,
      "##zza": 1511,
      "▁stub": 1512,
      "▁pdt": 1513,
      "▁coc": 1514,
      "▁itself": 1515,
      "##beth": 1516,
      "▁pivot": 1517,
      "##arded": 1518,
      "▁oval": 1519,
      "▁major": 1520,
      "##rett": 1521,
      "##ink": 1522,
      "▁slightly": 1523,
      "▁civ": 1524,
      "##illion": 1525,
      "▁secret": 1526,
      "▁marble": 1527,
      "▁attendance": 1528,
      "▁newark": 1529,
      "▁thirty-five": 1530,
      "▁to": 1531,
      "##yl": 1532,
      "▁puts": 1533,
      "▁weak": 1534,
      "▁closest": 1535,
      "▁rib": 1536,
      "▁observe": 1537,
      "▁jet": 1538,
      "▁play+ground": 1539,
      "▁real": 1540,
      "▁gdp": 1541,
      "##司": 1542,
      "▁sd": 1543,
      "▁weekday": 1544,
      "##/16": 1545,
      "▁east": 1546,
      "▁broader": 1547,
      "▁philly": 1548,
      "▁10th": 1549,
      "##0365": 1550,
      "##enner": 1551,
      "▁shore": 1552,
      "▁prosperity": 1553,
      "▁il": 1554,
      "▁unaware": 1555,
      "▁remed": 1556,
      "##aso": 1557,
      "▁jelly": 1558,
      "##ott": 1559,
      "▁cheese": 1560,
      "▁independence": 1561,
      "##ggies": 1562,
      "##pir": 1563,
      "▁blackline": 1564,
      "▁bean": 1565,
      "▁exact": 1566,
      "▁thy": 1567,
      "##8-7": 1568,
      "▁reduced": 1569,
      "▁tower": 1570,
      "##ren": 1571,
      "▁honda": 1572,
      "##imes": 1573,
      "▁estimated": 1574,
      "▁realists": 1575,
      "##ellar": 1576,
      "##keys": 1577,
      "##53-3119": 1578,
      "奈": 1579,
      "##one": 1580,
      "▁twirl": 1581,
      "##ace": 1582,
      "▁expense": 1583,
      "▁knee": 1584,
      "▁can": 1585,
      "##,00": 1586,
      "##rast": 1587,
      "▁whereby": 1588,
      "▁childhood": 1589,
      "▁doing": 1590,
      "▁warning": 1591,
      "##ational": 1592,
      "▁voters": 1593,
      "##als": 1594,
      "▁strain": 1595,
      "▁neigh": 1596,
      "▁asc": 1597,
      "##fu": 1598,
      "▁saucepan": 1599,
      "▁malfoy": 1600,
      "▁ronn": 1601,
      "▁r.": 1602,
      "▁popped": 1603,
      "##gill": 1604,
      "▁ze": 1605,
      "##issance": 1606,
      "▁recorder": 1607,
      "▁bowls": 1608,
      "▁dilemm": 1609,
      "▁collaborative": 1610,
      "▁pie": 1611,
      "▁treat": 1612,
      "▁prominent": 1613,
      "▁language": 1614,
      "▁quebec": 1615,
      "▁football": 1616,
      "▁priv": 1617,
      "▁despite": 1618,
      "η": 1619,
      "##==============": 1620,
      "##ocrats": 1621,
      "##.net": 1622,
      "▁brook": 1623,
      "▁183": 1624,
      "▁died": 1625,
      "▁celebrations": 1626,
      "▁dealer": 1627,
      "▁paralymp": 1628,
      "▁281-443-37": 1629,
      "▁---": 1630,
      "▁winds": 1631,
      "▁exploring": 1632,
      "▁chand": 1633,
      "▁www.": 1634,
      "▁oil": 1635,
      "##和": 1636,
      "##远": 1637,
      "▁socialist": 1638,
      "##xon": 1639,
      "▁1892": 1640,
      "▁scissors": 1641,
      "▁three": 1642,
      "##ication": 1643,
      "▁recruiting": 1644,
      "▁faces": 1645,
      "▁interconn": 1646,
      "▁damned": 1647,
      "▁shirts": 1648,
      "▁poverty": 1649,
      "▁belonged": 1650,
      "▁islam": 1651,
      "▁pray": 1652,
      "##kn": 1653,
      "▁choms": 1654,
      "[": 1655,
      "▁axis": 1656,
      "▁ship": 1657,
      "▁cabin": 1658,
      "▁rights": 1659,
      "▁wal": 1660,
      "▁rider": 1661,
      "▁corresponding": 1662,
      "▁homosexuality": 1663,
      "▁danger": 1664,
      "▁viv": 1665,
      "##feld": 1666,
      "▁suggests": 1667,
      "▁editor": 1668,
      "▁sun": 1669,
      "▁warwick": 1670,
      "<": 1671,
      "##gregation": 1672,
      "▁monopoly": 1673,
      "▁argues": 1674,
      "▁inevitably": 1675,
      "▁horn": 1676,
      "##.70": 1677,
      "▁s’": 1678,
      "▁concluded": 1679,
      "▁landed": 1680,
      "##ections": 1681,
      "##ounts": 1682,
      "▁horror": 1683,
      "▁1/2": 1684,
      "▁fig": 1685,
      "▁jons": 1686,
      "▁divor": 1687,
      "▁poly": 1688,
      "▁milky": 1689,
      "##clusions": 1690,
      "##enue": 1691,
      "##c.": 1692,
      "##ics": 1693,
      "▁perling": 1694,
      "▁chas": 1695,
      "▁mind": 1696,
      "##gth": 1697,
      "▁nutrition": 1698,
      "##tica": 1699,
      "▁proceeded": 1700,
      "##ph": 1701,
      "▁glen": 1702,
      "▁6.00": 1703,
      "▁yesterday": 1704,
      "▁recognized": 1705,
      "▁competitive": 1706,
      "▁mr.": 1707,
      "▁murder": 1708,
      "▁kane": 1709,
      "▁departure": 1710,
      "▁chamber": 1711,
      "▁licensor": 1712,
      "##!!!": 1713,
      "##co": 1714,
      "▁notebook": 1715,
      "▁reduce": 1716,
      "▁posts": 1717,
      "▁tex": 1718,
      "▁uma": 1719,
      "##pes": 1720,
      "▁oakland": 1721,
      "▁partner": 1722,
      "▁fisheries": 1723,
      "▁miller": 1724,
      "▁people": 1725,
      "▁cleaning": 1726,
      "▁confir": 1727,
      "▁nmem": 1728,
      "▁perfectly": 1729,
      "▁wether": 1730,
      "▁amm": 1731,
      "▁cere": 1732,
      "▁hospital": 1733,
      "##otes": 1734,
      "▁pat": 1735,
      "##roe": 1736,
      "▁patter": 1737,
      "▁happened": 1738,
      "▁hew": 1739,
      "▁series": 1740,
      "▁hitler": 1741,
      "▁midas": 1742,
      "▁remark": 1743,
      "▁800-553-3119": 1744,
      "▁samples": 1745,
      "▁tummy": 1746,
      "##eable": 1747,
      "▁sunglasses": 1748,
      "▁priority": 1749,
      "▁deg": 1750,
      "##aid": 1751,
      "▁blood": 1752,
      "##oke": 1753,
      "▁smoke": 1754,
      "▁3.7": 1755,
      "##atic": 1756,
      "▁introduce": 1757,
      "##ansen": 1758,
      "▁ourselves": 1759,
      "▁faithful": 1760,
      "▁farms": 1761,
      "▁sensitive": 1762,
      "▁cult": 1763,
      "▁economics": 1764,
      "▁roman": 1765,
      "##ences": 1766,
      "▁fail": 1767,
      "▁sophie": 1768,
      "▁shots": 1769,
      "▁financing": 1770,
      "▁concer": 1771,
      "▁pigs": 1772,
      "##iots": 1773,
      "▁thr": 1774,
      "▁relationships": 1775,
      "▁hard": 1776,
      "##arias": 1777,
      "▁joshua": 1778,
      "▁carnival": 1779,
      "▁cruelty": 1780,
      "▁battles": 1781,
      "▁restriction": 1782,
      "▁proof": 1783,
      "##91": 1784,
      "▁thirty": 1785,
      "##*{": 1786,
      "▁landing": 1787,
      "▁represents": 1788,
      "##ister": 1789,
      "##.00": 1790,
      "▁near": 1791,
      "▁captured": 1792,
      "▁abund": 1793,
      "##aking": 1794,
      "▁mr": 1795,
      "▁ol": 1796,
      "▁steadily": 1797,
      "▁preference": 1798,
      "▁1918": 1799,
      "ه": 1800,
      "▁dash": 1801,
      "▁diplomacy": 1802,
      "▁shopping": 1803,
      "##inated": 1804,
      "##aches": 1805,
      "▁groan": 1806,
      "▁forth": 1807,
      "##}*{===<----": 1808,
      "▁12:1": 1809,
      "▁current": 1810,
      "##iasm": 1811,
      "▁groups": 1812,
      "▁categ": 1813,
      "##anny": 1814,
      "▁buildings": 1815,
      "▁quinn": 1816,
      "##amiliar": 1817,
      "\\": 1818,
      "▁inv": 1819,
      "▁ask": 1820,
      "▁mitchell": 1821,
      "▁rig": 1822,
      "##cil": 1823,
      "▁russell": 1824,
      "▁dan": 1825,
      "▁upright": 1826,
      "▁spore": 1827,
      "##icit": 1828,
      "▁originally": 1829,
      "▁carvings": 1830,
      "▁fount": 1831,
      "▁delta": 1832,
      "▁aud": 1833,
      "▁hay": 1834,
      "▁server": 1835,
      "▁annual": 1836,
      "▁objective": 1837,
      "##lim": 1838,
      "▁3724": 1839,
      "##nik": 1840,
      "##liness": 1841,
      "▁jacob": 1842,
      "##l": 1843,
      "##ance": 1844,
      "▁stu": 1845,
      "▁sit": 1846,
      "▁magazine": 1847,
      "##fly": 1848,
      "▁occur": 1849,
      "##-415-": 1850,
      "▁claims": 1851,
      "▁cliff": 1852,
      "▁1738": 1853,
      "##9": 1854,
      "##esses": 1855,
      "▁management": 1856,
      "▁bent": 1857,
      "▁lego": 1858,
      "▁utilities": 1859,
      "##inoc": 1860,
      "▁patrick": 1861,
      "▁at": 1862,
      "▁endeavor": 1863,
      "▁identified": 1864,
      "▁necessarily": 1865,
      "▁antibiot": 1866,
      "##-1": 1867,
      "▁signed": 1868,
      "▁neighbours": 1869,
      "▁kend": 1870,
      "▁greet": 1871,
      "▁damasc": 1872,
      "▁chop": 1873,
      "▁spa": 1874,
      "琴": 1875,
      "▁vietn": 1876,
      "##ologists": 1877,
      "##ize": 1878,
      "▁click": 1879,
      "##wiki": 1880,
      "▁core": 1881,
      "##ern": 1882,
      "▁frequ": 1883,
      "##uced": 1884,
      "##hi": 1885,
      "##iffer": 1886,
      "▁temples": 1887,
      "▁dict": 1888,
      "▁acts": 1889,
      "▁daisy": 1890,
      "▁goriot": 1891,
      "▁equip": 1892,
      "▁myst": 1893,
      "▁complic": 1894,
      "##.cl": 1895,
      "▁prep": 1896,
      "▁outlets": 1897,
      "▁detroit": 1898,
      "▁dip": 1899,
      "▁(": 1900,
      "▁univer": 1901,
      "##ective": 1902,
      "▁09/15/99": 1903,
      "▁hills": 1904,
      "▁critical": 1905,
      "▁half": 1906,
      "▁89": 1907,
      "▁database": 1908,
      "▁few": 1909,
      "##otten": 1910,
      "##ither": 1911,
      "▁failures": 1912,
      "▁martyrs": 1913,
      "▁supermark": 1914,
      "▁exceptionally": 1915,
      "▁appoint": 1916,
      "##:1": 1917,
      "▁anybody": 1918,
      "▁tags": 1919,
      "▁enjoyable": 1920,
      "▁mans": 1921,
      "▁horse": 1922,
      "▁commented": 1923,
      "▁presence": 1924,
      "▁shobhajatra": 1925,
      "▁v": 1926,
      "▁upside": 1927,
      "▁visits": 1928,
      "▁formed": 1929,
      "▁mutation": 1930,
      "##ext": 1931,
      "▁saddle": 1932,
      "▁derivatives": 1933,
      "▁stepping": 1934,
      "▁foam": 1935,
      "▁solution": 1936,
      "##ae": 1937,
      "##ler": 1938,
      "▁forms": 1939,
      "▁fed": 1940,
      "##________________": 1941,
      "▁composed": 1942,
      "▁tanks": 1943,
      "▁predators": 1944,
      "▁360": 1945,
      "▁reinfor": 1946,
      "##des": 1947,
      "▁patty": 1948,
      "▁shower": 1949,
      "##ince": 1950,
      "##head": 1951,
      "▁dresser": 1952,
      "▁grow": 1953,
      "##erve": 1954,
      "##front": 1955,
      "▁201": 1956,
      "▁soo": 1957,
      "▁fatal": 1958,
      "▁tripped": 1959,
      "▁exce": 1960,
      "▁dragon": 1961,
      "##ish": 1962,
      "##ounced": 1963,
      "▁insects": 1964,
      "▁safer": 1965,
      "▁patch": 1966,
      "▁hover": 1967,
      "##ipped": 1968,
      "##rey": 1969,
      "##orough": 1970,
      "▁versus": 1971,
      "##oin": 1972,
      "▁jac": 1973,
      "▁hack": 1974,
      "▁provinc": 1975,
      "▁adver": 1976,
      "##emor": 1977,
      "##amb": 1978,
      "▁ii": 1979,
      "▁denied": 1980,
      "▁requirement": 1981,
      "##anged": 1982,
      "▁cert": 1983,
      "##vals": 1984,
      "▁tehran": 1985,
      "▁geared": 1986,
      "▁dazzling": 1987,
      "▁strait": 1988,
      "▁==----": 1989,
      "▁718-780": 1990,
      "▁comic": 1991,
      "▁fac": 1992,
      "##acent": 1993,
      "▁treatments": 1994,
      "▁fitness": 1995,
      "▁disease": 1996,
      "▁doggie": 1997,
      "##il": 1998,
      "##ville": 1999,
      "▁suppose": 2000,
      "▁==": 2001,
      "##>": 2002,
      "▁fitting": 2003,
      "##aste": 2004,
      "▁bridges": 2005,
      "##hand": 2006,
      "▁encabalgamiento": 2007,
      "▁cell": 2008,
      "▁expanding": 2009,
      "▁nar": 2010,
      "▁commit": 2011,
      "▁03/21/2001": 2012,
      "▁companies": 2013,
      "▁frightened": 2014,
      "▁experiment": 2015,
      "▁explore": 2016,
      "▁laura": 2017,
      "##ager": 2018,
      "##ain": 2019,
      "▁panel": 2020,
      "▁living": 2021,
      "▁backpack": 2022,
      "▁shadow": 2023,
      "▁1580": 2024,
      "▁knights": 2025,
      "(": 2026,
      "##mem": 2027,
      "▁łodzian": 2028,
      "▁hats": 2029,
      "▁jar": 2030,
      "▁pets": 2031,
      "##itably": 2032,
      "▁ty": 2033,
      "##where": 2034,
      "▁ingredients": 2035,
      "##asser": 2036,
      "▁party": 2037,
      "▁album": 2038,
      "▁advertising": 2039,
      "##beque": 2040,
      "##velop": 2041,
      "▁yogurt": 2042,
      "▁foundation": 2043,
      "▁unhapp": 2044,
      "▁sufaat": 2045,
      "▁confirming": 2046,
      "▁held": 2047,
      "▁behin": 2048,
      "▁enj": 2049,
      "▁campbell": 2050,
      "##tegr": 2051,
      "##2-6": 2052,
      "▁suck": 2053,
      "▁indones": 2054,
      "▁gotted": 2055,
      "▁shackleton@ect": 2056,
      "▁patient": 2057,
      "▁quality": 2058,
      "##uits": 2059,
      "▁harsh": 2060,
      "▁orders": 2061,
      "▁inquiry": 2062,
      "▁connectionstring": 2063,
      "##era": 2064,
      "▁nj": 2065,
      "##lie": 2066,
      "▁tribal": 2067,
      "▁prompt": 2068,
      "▁contacts": 2069,
      "▁evening": 2070,
      "▁dow": 2071,
      "▁record": 2072,
      "##inned": 2073,
      "▁accustom": 2074,
      "▁ignoring": 2075,
      "▁conscious": 2076,
      "▁administrative": 2077,
      "##:48": 2078,
      "##60": 2079,
      "▁divide": 2080,
      "▁directors": 2081,
      "▁feature": 2082,
      "##aces": 2083,
      "▁univers": 2084,
      "▁deliberate": 2085,
      "▁manufacturers": 2086,
      "##ural": 2087,
      "▁punch": 2088,
      "▁noses": 2089,
      "##ɔ": 2090,
      "▁possibly": 2091,
      "▁limited": 2092,
      "▁solicit": 2093,
      "▁san": 2094,
      "▁fle": 2095,
      "▁sauv": 2096,
      "▁balances": 2097,
      "▁incomes": 2098,
      "▁blueberry": 2099,
      "▁u": 2100,
      "▁call": 2101,
      "▁flu": 2102,
      "▁2002": 2103,
      "▁neolog": 2104,
      "▁dignit": 2105,
      "▁bumble": 2106,
      "▁span": 2107,
      "▁false": 2108,
      "▁asap": 2109,
      "▁hol": 2110,
      "▁describ": 2111,
      "▁cozy": 2112,
      "##om": 2113,
      "▁orientation": 2114,
      "▁chinese": 2115,
      "▁criminals": 2116,
      "▁sake": 2117,
      "##idding": 2118,
      "##inez": 2119,
      "▁832.676": 2120,
      "##84": 2121,
      "▁imperial": 2122,
      "▁bludgers": 2123,
      "▁consum": 2124,
      "▁drawer": 2125,
      "▁eb": 2126,
      "##roit": 2127,
      "##ging": 2128,
      "▁whist": 2129,
      "▁obtained": 2130,
      "▁recon": 2131,
      "@": 2132,
      "▁peace": 2133,
      "▁conduct": 2134,
      "▁.?": 2135,
      "▁myth": 2136,
      "▁1960s": 2137,
      "##ensity": 2138,
      "##hole": 2139,
      "▁functions": 2140,
      "▁cooked": 2141,
      "▁gene": 2142,
      "##vern": 2143,
      "▁nest": 2144,
      "▁sure": 2145,
      "##verty": 2146,
      "▁jonathan": 2147,
      "▁civilized": 2148,
      "▁cocktail": 2149,
      "▁ehow": 2150,
      "▁future": 2151,
      "##pled": 2152,
      "##ignon": 2153,
      "##iday": 2154,
      "▁860": 2155,
      "▁lymph": 2156,
      "▁favorite": 2157,
      "▁gloves": 2158,
      "▁gon": 2159,
      "▁dum": 2160,
      "##nes": 2161,
      "▁agreements": 2162,
      "▁lift": 2163,
      "▁sixteen": 2164,
      "▁stability": 2165,
      "▁resp": 2166,
      "▁scarf": 2167,
      "##²": 2168,
      "▁45": 2169,
      "▁repairs": 2170,
      "##osis": 2171,
      "▁anthony": 2172,
      "▁unconscious": 2173,
      "▁40": 2174,
      "▁gels": 2175,
      "▁comple": 2176,
      "▁armored": 2177,
      "##ased": 2178,
      "▁whilst": 2179,
      "##================": 2180,
      "▁flavor": 2181,
      "▁wait": 2182,
      "▁creates": 2183,
      "▁numer": 2184,
      "▁strictly": 2185,
      "##810": 2186,
      "▁deaths": 2187,
      "##ably": 2188,
      "▁gimp": 2189,
      "ɔ": 2190,
      "▁alone": 2191,
      "▁mixture": 2192,
      "▁cinnamon": 2193,
      "▁dine": 2194,
      "▁cincinnati": 2195,
      "▁abroad": 2196,
      "▁poured": 2197,
      "▁prevented": 2198,
      "##as": 2199,
      "▁basil": 2200,
      "▁underst": 2201,
      "##oly": 2202,
      "##ara": 2203,
      "▁depth": 2204,
      "##essed": 2205,
      "##asy": 2206,
      "▁324": 2207,
      "▁inquir": 2208,
      "▁specification": 2209,
      "▁ian": 2210,
      "▁depths": 2211,
      "▁cries": 2212,
      "▁excessive": 2213,
      "▁differ": 2214,
      "▁technologies": 2215,
      "##adays": 2216,
      "▁tremendous": 2217,
      "▁4_28_00.doc": 2218,
      "▁rear": 2219,
      "▁spores": 2220,
      "▁cows": 2221,
      "▁chose": 2222,
      "▁dudley": 2223,
      "▁chocolates": 2224,
      "##inform": 2225,
      "▁madam": 2226,
      "▁arth": 2227,
      "##own": 2228,
      "▁became": 2229,
      "▁dripping": 2230,
      "▁1981": 2231,
      "##gy": 2232,
      "▁enrongss.xls": 2233,
      "▁beings": 2234,
      "▁follows": 2235,
      "▁tippy": 2236,
      "▁bathtub": 2237,
      "▁sovereign": 2238,
      "▁listed": 2239,
      "▁whoo": 2240,
      "##ous": 2241,
      "##ames": 2242,
      "▁23rd": 2243,
      "▁functioning": 2244,
      "▁proved": 2245,
      "▁poles": 2246,
      "##ila": 2247,
      "##ugh": 2248,
      "▁ee": 2249,
      "▁lest": 2250,
      "##ces": 2251,
      "▁dry": 2252,
      "▁ambulance": 2253,
      "▁saw": 2254,
      "▁944": 2255,
      "▁recipe": 2256,
      "▁defin": 2257,
      "▁mi": 2258,
      "▁mohamed": 2259,
      "▁dil": 2260,
      "▁commodity": 2261,
      "▁transl": 2262,
      "▁derived": 2263,
      "▁consciousness": 2264,
      "▁flat": 2265,
      "##%": 2266,
      "▁instance": 2267,
      "▁corporation": 2268,
      "▁hosts": 2269,
      "▁kus": 2270,
      "##mare": 2271,
      "##o-": 2272,
      "▁decided": 2273,
      "▁please": 2274,
      "▁company": 2275,
      "▁years": 2276,
      "▁shuttle": 2277,
      "▁different": 2278,
      "▁11:3": 2279,
      "▁mechanics": 2280,
      "▁international": 2281,
      "▁integrity": 2282,
      "▁profession": 2283,
      "▁stra": 2284,
      "▁115": 2285,
      "▁wins": 2286,
      "##utical": 2287,
      "▁shahar": 2288,
      "##land": 2289,
      "▁be": 2290,
      "▁outcom": 2291,
      "▁category": 2292,
      "##-d": 2293,
      "##ue": 2294,
      "##enues": 2295,
      "▁pyjamas": 2296,
      "▁memorable": 2297,
      "▁imposing": 2298,
      "▁bedroom": 2299,
      "▁important": 2300,
      "▁pushes": 2301,
      "##rate": 2302,
      "▁bye": 2303,
      "▁cottage": 2304,
      "▁keeps": 2305,
      "▁companion": 2306,
      "##news/": 2307,
      "▁agree": 2308,
      "▁contributions": 2309,
      "##ullah": 2310,
      "▁parade": 2311,
      "##ether": 2312,
      "▁terrible": 2313,
      "▁awoh": 2314,
      "▁quartile": 2315,
      "##alo": 2316,
      "▁recovery": 2317,
      "▁looking": 2318,
      "▁ent": 2319,
      "▁sites": 2320,
      "##for": 2321,
      "##rible": 2322,
      "##子": 2323,
      "▁pad": 2324,
      "▁borg": 2325,
      "##ations": 2326,
      "▁rece": 2327,
      "▁iod": 2328,
      "▁lawy": 2329,
      "##--": 2330,
      "##rans": 2331,
      "▁insurgents": 2332,
      "▁indianapolis": 2333,
      "▁indicates": 2334,
      "▁oreg": 2335,
      "▁wednesday": 2336,
      "▁think": 2337,
      "▁cigarette": 2338,
      "▁meantime": 2339,
      "▁demanding": 2340,
      "▁prec": 2341,
      "▁hurry": 2342,
      "▁words": 2343,
      "▁theod": 2344,
      "▁debra": 2345,
      "##itch": 2346,
      "▁dissatisf": 2347,
      "▁outs": 2348,
      "▁guard": 2349,
      "▁bleeding": 2350,
      "▁drug": 2351,
      "▁correspond": 2352,
      "▁et": 2353,
      "▁hub": 2354,
      "▁good": 2355,
      "##orp": 2356,
      "▁vigor": 2357,
      "##cht": 2358,
      "##===": 2359,
      "▁pursue": 2360,
      "▁gis": 2361,
      "▁purple": 2362,
      "▁coord": 2363,
      "▁enormous": 2364,
      "▁knocked": 2365,
      "▁touched": 2366,
      "##ο": 2367,
      "▁powerful": 2368,
      "##kes": 2369,
      "▁nut": 2370,
      "▁centuries": 2371,
      "▁sir": 2372,
      "况": 2373,
      "▁nashville": 2374,
      "▁purpose": 2375,
      "▁mcg": 2376,
      "##ker": 2377,
      "▁documented": 2378,
      "▁sent": 2379,
      "▁socc": 2380,
      "▁prepare": 2381,
      "##if": 2382,
      "##uj": 2383,
      "▁subtle": 2384,
      "▁discovery": 2385,
      "##asse": 2386,
      "▁shook": 2387,
      "##---": 2388,
      "▁lovely": 2389,
      "##world": 2390,
      "▁....................": 2391,
      "##ihow": 2392,
      "▁chew": 2393,
      "##ession": 2394,
      "▁using": 2395,
      "▁industry": 2396,
      "▁administ": 2397,
      "▁laden": 2398,
      "▁281-435-": 2399,
      "▁paused": 2400,
      "▁poor": 2401,
      "▁large": 2402,
      "▁scen": 2403,
      "▁comprom": 2404,
      "▁muse": 2405,
      "▁implementation": 2406,
      "##ery": 2407,
      "▁--": 2408,
      "▁wid": 2409,
      "▁plants": 2410,
      "##5th": 2411,
      "▁significance": 2412,
      "▁repeating": 2413,
      "▁riverside": 2414,
      "▁providers": 2415,
      "##ʒ": 2416,
      "▁streets": 2417,
      "▁distinguished": 2418,
      "▁rod": 2419,
      "▁************************************************": 2420,
      "▁itinerary": 2421,
      "▁jih": 2422,
      "▁grants": 2423,
      "▁contex": 2424,
      "▁ext": 2425,
      "##ura": 2426,
      "▁romeo": 2427,
      "▁nights": 2428,
      "##issipp": 2429,
      "▁52": 2430,
      "▁tool": 2431,
      "▁beaches": 2432,
      "▁amid": 2433,
      "▁plaint": 2434,
      "▁bun": 2435,
      "##ders": 2436,
      "澹": 2437,
      "▁hect": 2438,
      "▁goats": 2439,
      "▁child": 2440,
      "▁doubt": 2441,
      "▁kids": 2442,
      "▁minute": 2443,
      "##cc": 2444,
      "▁give": 2445,
      "▁citiz": 2446,
      "##acle": 2447,
      "▁iranian": 2448,
      "▁trot": 2449,
      "##itama": 2450,
      "▁os": 2451,
      "▁roll": 2452,
      "▁arrog": 2453,
      "##oot": 2454,
      "▁saying": 2455,
      "▁median": 2456,
      "▁forgot": 2457,
      "▁evolutionary": 2458,
      "▁overs": 2459,
      "▁longest": 2460,
      "##.jpg": 2461,
      "##g": 2462,
      "##ined": 2463,
      "▁instruct": 2464,
      "▁mand": 2465,
      "##lymp": 2466,
      "▁6,000": 2467,
      "##ieved": 2468,
      "▁prag": 2469,
      "▁den": 2470,
      "▁rule": 2471,
      "##奈": 2472,
      "▁marx": 2473,
      "▁landings": 2474,
      "▁bce": 2475,
      "▁abuse": 2476,
      "▁liv": 2477,
      "▁nabe": 2478,
      "▁forwarding": 2479,
      "▁postp": 2480,
      "▁knowing": 2481,
      "▁03:58": 2482,
      "▁opposite": 2483,
      "▁abb": 2484,
      "▁premise": 2485,
      "▁romance": 2486,
      "▁cant": 2487,
      "▁account": 2488,
      "▁kevin": 2489,
      "##see": 2490,
      "▁works": 2491,
      "▁motives": 2492,
      "▁ple": 2493,
      "▁sides": 2494,
      "▁surveillance": 2495,
      "▁tab": 2496,
      "▁”": 2497,
      "▁context": 2498,
      "##anks": 2499,
      "▁disin": 2500,
      "▁mutual": 2501,
      "▁shakes": 2502,
      "▁recorded": 2503,
      "##sty": 2504,
      "▁datash": 2505,
      "▁aster": 2506,
      "▁individually": 2507,
      "▁mornings": 2508,
      "▁known": 2509,
      "▁sponsored": 2510,
      "▁gab": 2511,
      "▁titanic": 2512,
      "▁arrows": 2513,
      "▁alban": 2514,
      "▁tob": 2515,
      "▁questionna": 2516,
      "##reh": 2517,
      "▁valentine": 2518,
      "▁couch": 2519,
      "##ko": 2520,
      "▁carr": 2521,
      "##age": 2522,
      "▁beach": 2523,
      "##iced": 2524,
      "##cp": 2525,
      "▁wallet": 2526,
      "##employ": 2527,
      "##amed": 2528,
      "##oping": 2529,
      "▁counted": 2530,
      "▁olivia": 2531,
      "▁ordering": 2532,
      "▁adequ": 2533,
      "▁phenomenon": 2534,
      "▁google": 2535,
      "▁stap": 2536,
      "▁changing": 2537,
      "▁retired": 2538,
      "##ho": 2539,
      "▁jack": 2540,
      "▁jo": 2541,
      "▁agricult": 2542,
      "▁fi": 2543,
      "▁dick": 2544,
      "▁attitude": 2545,
      "##iscal": 2546,
      "▁dialog": 2547,
      "##itated": 2548,
      "##ians": 2549,
      "##mber": 2550,
      "##-00": 2551,
      "▁bruce": 2552,
      "▁finished": 2553,
      "##onsider": 2554,
      "▁dead": 2555,
      "▁receiving": 2556,
      "▁uncom": 2557,
      "▁1821": 2558,
      "▁kevalam": 2559,
      "##elly": 2560,
      "▁com": 2561,
      "▁ye": 2562,
      "▁unlim": 2563,
      "▁wishes": 2564,
      "##ources": 2565,
      "##ost": 2566,
      "▁fred": 2567,
      "▁recognize": 2568,
      "##ز": 2569,
      "▁remainder": 2570,
      "▁anal": 2571,
      "▁deserve": 2572,
      "▁dissemination": 2573,
      "▁doctor": 2574,
      "▁montreal": 2575,
      "▁sequence": 2576,
      "▁!!!": 2577,
      "##iley": 2578,
      "▁dave": 2579,
      "▁iguazu": 2580,
      "▁latest": 2581,
      "▁8:30": 2582,
      "▁bake": 2583,
      "##nut": 2584,
      "▁tr": 2585,
      "▁reputation": 2586,
      "▁covering": 2587,
      "▁tore": 2588,
      "##vis": 2589,
      "##gam": 2590,
      "##in": 2591,
      "##23": 2592,
      "##6th": 2593,
      "▁elaborate": 2594,
      "▁incorrect": 2595,
      "▁improvements": 2596,
      "##nd": 2597,
      "▁redlined": 2598,
      "##ips": 2599,
      "##itis": 2600,
      "▁couples": 2601,
      "▁prevent": 2602,
      "▁realist": 2603,
      "##mental": 2604,
      "##.99": 2605,
      "▁continue": 2606,
      "▁datab": 2607,
      "▁caul": 2608,
      "▁paper": 2609,
      "c": 2610,
      "##ament": 2611,
      "▁inspection": 2612,
      "▁success": 2613,
      "##43": 2614,
      "##iquette": 2615,
      "▁·": 2616,
      "##saoui": 2617,
      "▁missiles": 2618,
      "▁ave": 2619,
      "▁expertise": 2620,
      "▁zawah": 2621,
      "▁philipp": 2622,
      "▁previously": 2623,
      "▁filthy": 2624,
      "##:18": 2625,
      "▁smiling": 2626,
      "▁columbia": 2627,
      "▁effectively": 2628,
      "▁11,000": 2629,
      "▁writ": 2630,
      "##aining": 2631,
      "▁gently": 2632,
      "##dred": 2633,
      "##icip": 2634,
      "▁carefully": 2635,
      "##iddle": 2636,
      "▁elephant": 2637,
      "▁intern": 2638,
      "▁fungi": 2639,
      "▁arrive": 2640,
      "▁basketball": 2641,
      "##jah": 2642,
      "▁dro": 2643,
      "##bye": 2644,
      "▁complim": 2645,
      "▁lay": 2646,
      "▁statute": 2647,
      "▁min": 2648,
      "▁epistemic": 2649,
      "▁subjects": 2650,
      "▁airports": 2651,
      "▁lik": 2652,
      "##ifies": 2653,
      "##phis": 2654,
      "▁resem": 2655,
      "▁prote": 2656,
      "▁slavery": 2657,
      "▁player": 2658,
      "▁returned": 2659,
      "▁goode": 2660,
      "##onymous": 2661,
      "##bl": 2662,
      "▁technology": 2663,
      "##aham": 2664,
      "##ones": 2665,
      "▁pools": 2666,
      "##roc": 2667,
      "▁floren": 2668,
      "▁elsewhere": 2669,
      "▁ss": 2670,
      "▁forward": 2671,
      "▁runs": 2672,
      "▁anymore": 2673,
      "▁commonly": 2674,
      "▁heck": 2675,
      "▁intelligence": 2676,
      "▁trip": 2677,
      "##inews": 2678,
      "▁successfully": 2679,
      "##itals": 2680,
      "▁evidently": 2681,
      "##ember": 2682,
      "▁batter": 2683,
      "▁padalecki": 2684,
      "##aly": 2685,
      "##ial": 2686,
      "▁installing": 2687,
      "▁suggesting": 2688,
      "▁focuses": 2689,
      "▁deliver": 2690,
      "##fl": 2691,
      "▁unless": 2692,
      "##rest": 2693,
      "▁security": 2694,
      "▁shoo": 2695,
      "▁28,000": 2696,
      "▁squares": 2697,
      "▁§": 2698,
      "##aired": 2699,
      "▁breed": 2700,
      "▁xml": 2701,
      "▁529999": 2702,
      "▁acupunct": 2703,
      "##ential": 2704,
      "▁airplanes": 2705,
      "▁bob": 2706,
      "▁713-6": 2707,
      "##ads": 2708,
      "##lad": 2709,
      "▁initiated": 2710,
      "▁eleven": 2711,
      "▁principles": 2712,
      "▁legacy": 2713,
      "##cr": 2714,
      "▁sponge": 2715,
      "##ieve": 2716,
      "▁truth": 2717,
      "▁pacific": 2718,
      "▁straps": 2719,
      "▁private": 2720,
      "▁05:37": 2721,
      "▁wholes": 2722,
      "▁…": 2723,
      "▁hosting": 2724,
      "##wart": 2725,
      "▁conf": 2726,
      "▁highly": 2727,
      "▁cindy": 2728,
      "▁northeast": 2729,
      "##instein": 2730,
      "##ls": 2731,
      "▁fishie": 2732,
      "▁groceries": 2733,
      "▁fortier": 2734,
      "▁index": 2735,
      "▁2009": 2736,
      "▁retract": 2737,
      "▁ne": 2738,
      "▁taxi": 2739,
      "▁responsible": 2740,
      "▁cle": 2741,
      "▁mama": 2742,
      "##antic": 2743,
      "▁merchant": 2744,
      "▁kwww": 2745,
      "▁lifting": 2746,
      "▁displac": 2747,
      "▁listened": 2748,
      "▁clos": 2749,
      "▁measures": 2750,
      "▁determination": 2751,
      "▁:?": 2752,
      "▁um": 2753,
      "##over": 2754,
      "▁swallow": 2755,
      "▁austral": 2756,
      "▁caring": 2757,
      "▁t-": 2758,
      "▁honore": 2759,
      "##ulations": 2760,
      "##ف": 2761,
      "▁om": 2762,
      "▁penal": 2763,
      "▁>----------------------------------------------------------------------------|": 2764,
      "▁cam": 2765,
      "##ct": 2766,
      "##achel": 2767,
      "▁lumin": 2768,
      "▁lufthansa": 2769,
      "▁clothes": 2770,
      "##hr": 2771,
      "##zilla": 2772,
      "▁wtc": 2773,
      "▁dey": 2774,
      "▁pag": 2775,
      "▁morocco": 2776,
      "▁transc": 2777,
      "▁ulterior": 2778,
      "▁neu": 2779,
      "▁precious": 2780,
      "▁descriptions": 2781,
      "▁set": 2782,
      "▁reason": 2783,
      "▁directive": 2784,
      "▁remain": 2785,
      "##uct": 2786,
      "##ache": 2787,
      "▁course": 2788,
      "▁lar": 2789,
      "##atra": 2790,
      "▁name": 2791,
      "▁800.713.8600": 2792,
      "▁syntactic": 2793,
      "▁recc": 2794,
      "##17": 2795,
      "##urse": 2796,
      "##ade": 2797,
      "##bound": 2798,
      "▁meow": 2799,
      "▁bernoulli": 2800,
      "6": 2801,
      "##pp": 2802,
      "▁jew": 2803,
      "▁broadway": 2804,
      "▁un": 2805,
      "▁alar": 2806,
      "##al": 2807,
      "▁...": 2808,
      "▁uss": 2809,
      "▁killed": 2810,
      "▁governing": 2811,
      "▁ninety": 2812,
      "▁conclude": 2813,
      "##search": 2814,
      "##achers": 2815,
      "▁fixed": 2816,
      "##iest": 2817,
      "▁enables": 2818,
      "▁replied": 2819,
      "##.ell": 2820,
      "▁restruct": 2821,
      "▁charming": 2822,
      "##ild": 2823,
      "▁quino": 2824,
      "▁fran": 2825,
      "▁’re": 2826,
      "##490": 2827,
      "▁holds": 2828,
      "▁taipe": 2829,
      "▁purch": 2830,
      "▁thumb": 2831,
      "▁supernat": 2832,
      "▁hus": 2833,
      "▁putting": 2834,
      "##illy": 2835,
      "▁professionalism": 2836,
      "▁come": 2837,
      "▁driven": 2838,
      "▁classified": 2839,
      "▁linked": 2840,
      "▁beau": 2841,
      "▁gradually": 2842,
      "▁press": 2843,
      "▁fold": 2844,
      "▁banks": 2845,
      "##icemail": 2846,
      "▁have": 2847,
      "▁scholar": 2848,
      "▁enemy": 2849,
      "##elson": 2850,
      "▁closing": 2851,
      "##elled": 2852,
      "▁pir": 2853,
      "▁boring": 2854,
      "▁chea": 2855,
      "##orm": 2856,
      "##iguous": 2857,
      "▁perf": 2858,
      "▁supplement": 2859,
      "##ults": 2860,
      "##.0": 2861,
      "▁jay": 2862,
      "##rom": 2863,
      "▁readers": 2864,
      "▁.x": 2865,
      "▁receive": 2866,
      "##eap": 2867,
      "▁rice": 2868,
      "▁how": 2869,
      "▁loi": 2870,
      "▁streams": 2871,
      "▁brig": 2872,
      "▁o'": 2873,
      "▁bel": 2874,
      "▁authentic": 2875,
      "▁relat": 2876,
      "##uses": 2877,
      "##8806": 2878,
      "▁furniture": 2879,
      "##ivity": 2880,
      "▁abo": 2881,
      "▁network": 2882,
      "##:00": 2883,
      "▁anch": 2884,
      "▁wife": 2885,
      "▁contain": 2886,
      "▁adequate": 2887,
      "▁packages": 2888,
      "‘": 2889,
      "▁multiple": 2890,
      "▁ties": 2891,
      "▁quiet": 2892,
      "▁pull": 2893,
      "▁identical": 2894,
      "▁trib": 2895,
      "##argement": 2896,
      "▁ritual": 2897,
      "▁judy": 2898,
      "▁uniqu": 2899,
      "▁twentieth": 2900,
      "▁virtual": 2901,
      "▁wag": 2902,
      "▁inherent": 2903,
      "▁removal": 2904,
      "##hastings.com": 2905,
      "▁santa": 2906,
      "▁i.e.": 2907,
      "▁cock": 2908,
      "▁perdues": 2909,
      "▁pled": 2910,
      "▁reminder": 2911,
      "▁tolerate": 2912,
      "▁playing": 2913,
      "▁indian": 2914,
      "▁treaty": 2915,
      "##enced": 2916,
      "▁eyebrow": 2917,
      "##ologue": 2918,
      "▁couns": 2919,
      "▁11/7": 2920,
      "▁800": 2921,
      "▁jfk": 2922,
      "▁moment": 2923,
      "▁iodised": 2924,
      "▁res": 2925,
      "▁poll": 2926,
      "##cross": 2927,
      "▁educational": 2928,
      "▁filter": 2929,
      "▁jump": 2930,
      "##:37": 2931,
      "▁verd": 2932,
      "▁rapporteur": 2933,
      "##woman": 2934,
      "##ustom": 2935,
      "▁`": 2936,
      "▁fans": 2937,
      "▁cre": 2938,
      "▁consist": 2939,
      "▁inn": 2940,
      "▁criminal": 2941,
      "▁dign": 2942,
      "▁1754": 2943,
      "▁gentlemen": 2944,
      "▁institutions": 2945,
      "▁dang": 2946,
      "▁enact": 2947,
      "▁ears": 2948,
      "▁5:30": 2949,
      "▁arizona": 2950,
      "▁1635": 2951,
      "##bell": 2952,
      "▁patri": 2953,
      "▁dress": 2954,
      "▁dart": 2955,
      "▁indication": 2956,
      "▁!!!!!!!!!!!!!!!": 2957,
      "▁beware": 2958,
      "▁islamabad": 2959,
      "▁dessert": 2960,
      "▁94": 2961,
      "##stem": 2962,
      "##rft": 2963,
      "▁concentration": 2964,
      "▁fert": 2965,
      "##ito": 2966,
      "▁obtain": 2967,
      "▁sorts": 2968,
      "##-time": 2969,
      "##!": 2970,
      "▁stem": 2971,
      "▁ignor": 2972,
      "▁dim": 2973,
      "▁abbrev": 2974,
      "▁replac": 2975,
      "▁monastery": 2976,
      "▁1970s": 2977,
      "▁replaced": 2978,
      "##achusetts": 2979,
      "½": 2980,
      "▁often": 2981,
      "▁42": 2982,
      "▁dism": 2983,
      "##jj": 2984,
      "##iw": 2985,
      "▁sacrifice": 2986,
      "▁pert": 2987,
      "▁greatest": 2988,
      "▁banglades": 2989,
      "▁mel": 2990,
      "##aceutical": 2991,
      "▁proper": 2992,
      "▁settlement": 2993,
      "▁contrad": 2994,
      "▁ontario": 2995,
      "##gged": 2996,
      "##fa": 2997,
      "##bel": 2998,
      "▁shoulder": 2999,
      "▁armies": 3000,
      "▁mode": 3001,
      "▁warn": 3002,
      "##anan": 3003,
      "##itively": 3004,
      "▁quart": 3005,
      "▁occ": 3006,
      "▁instruments": 3007,
      "▁cats": 3008,
      "##anas": 3009,
      "▁centres": 3010,
      "▁statement": 3011,
      "▁flew": 3012,
      "##inging": 3013,
      "▁laur": 3014,
      "##80": 3015,
      "▁viewers": 3016,
      "##omet": 3017,
      "▁urg": 3018,
      "▁loves": 3019,
      "▁affect": 3020,
      "##uman": 3021,
      "▁tin": 3022,
      "▁fashioned": 3023,
      "▁attack": 3024,
      "▁contents": 3025,
      "##keep": 3026,
      "▁chase": 3027,
      "▁ou": 3028,
      "▁historical": 3029,
      "▁conviction": 3030,
      "▁fake": 3031,
      "▁references": 3032,
      "▁relevant": 3033,
      "▁servant": 3034,
      "▁claim": 3035,
      "▁----": 3036,
      "▁1590": 3037,
      "ß": 3038,
      "▁raf": 3039,
      "▁leverage": 3040,
      "▁renee": 3041,
      "##ored": 3042,
      "▁rifle": 3043,
      "▁magnificent": 3044,
      "▁so-called": 3045,
      "▁identification": 3046,
      "##/8": 3047,
      "▁ran": 3048,
      "##with": 3049,
      "##glasses": 3050,
      "▁epist": 3051,
      "▁scene": 3052,
      "▁informacion": 3053,
      "▁dg": 3054,
      "▁tur": 3055,
      "▁crying": 3056,
      "▁his": 3057,
      "▁exclud": 3058,
      "▁vold": 3059,
      "▁22nd": 3060,
      "▁jeep": 3061,
      "▁hamburg": 3062,
      "▁pop": 3063,
      "##are": 3064,
      "▁bos": 3065,
      "▁prohib": 3066,
      "##ice": 3067,
      "▁hat": 3068,
      "▁managers": 3069,
      "▁crisp": 3070,
      "##product": 3071,
      "##lig": 3072,
      "▁1783": 3073,
      "▁syrup": 3074,
      "▁separate": 3075,
      "▁tenth": 3076,
      "▁mummy": 3077,
      "▁amending": 3078,
      "▁register": 3079,
      "▁insc": 3080,
      "▁specim": 3081,
      "▁bones": 3082,
      "▁650": 3083,
      "▁spectac": 3084,
      "▁sunn": 3085,
      "▁1709": 3086,
      "▁0590": 3087,
      "▁09:01": 3088,
      "▁css": 3089,
      "▁tou": 3090,
      "▁myster": 3091,
      "▁505-625-8031": 3092,
      "▁dimension": 3093,
      "▁gre": 3094,
      "▁suprem": 3095,
      "▁ad": 3096,
      "▁greetings": 3097,
      "▁observation": 3098,
      "▁neighbour": 3099,
      "▁oxygen": 3100,
      "ə": 3101,
      "▁bandaid": 3102,
      "##,008": 3103,
      "▁door": 3104,
      "▁org": 3105,
      "▁moderate": 3106,
      "##aked": 3107,
      "▁shed": 3108,
      "▁cyclone": 3109,
      "▁moussaoui": 3110,
      "▁mum": 3111,
      "##olog": 3112,
      "▁stephen": 3113,
      "▁infected": 3114,
      "▁tasty": 3115,
      "▁necessity": 3116,
      "▁ended": 3117,
      "▁stole": 3118,
      "▁holy": 3119,
      "▁july": 3120,
      "▁swap": 3121,
      "▁laure": 3122,
      "##bond": 3123,
      "##iy": 3124,
      "▁homeopathy": 3125,
      "▁beater": 3126,
      "##ozer": 3127,
      "##teenth": 3128,
      "▁applic": 3129,
      "▁philip": 3130,
      "##ib": 3131,
      "▁absolute": 3132,
      "▁crab": 3133,
      "▁gallery": 3134,
      "▁entered": 3135,
      "▁various": 3136,
      "▁holly": 3137,
      "▁vo": 3138,
      "##34": 3139,
      "▁acqu": 3140,
      "▁meh-ris": 3141,
      "##enga": 3142,
      "▁466": 3143,
      "##:42": 3144,
      "▁unesco": 3145,
      "##eld": 3146,
      "▁engaging": 3147,
      "▁liquidweb": 3148,
      "▁thirsty": 3149,
      "▁nt": 3150,
      "▁marvel": 3151,
      "▁cogn": 3152,
      "▁proced": 3153,
      "▁futures": 3154,
      "▁declined": 3155,
      "##ows": 3156,
      "▁strategic": 3157,
      "##edule": 3158,
      "▁planet": 3159,
      "▁ensuring": 3160,
      "▁francis": 3161,
      "▁merry": 3162,
      "▁inland": 3163,
      "▁mir": 3164,
      "▁kidney": 3165,
      "▁copying": 3166,
      "▁bodies": 3167,
      "▁pac": 3168,
      "▁neural": 3169,
      "▁a&e": 3170,
      "▁hierarch": 3171,
      "##bol": 3172,
      "▁swed": 3173,
      "▁summar": 3174,
      "▁piled": 3175,
      "▁accompl": 3176,
      "▁lawn": 3177,
      "▁hist": 3178,
      "▁crews": 3179,
      "▁supplies": 3180,
      "▁156": 3181,
      "▁brushing": 3182,
      "▁seconds": 3183,
      "▁hyatt": 3184,
      "▁bronze": 3185,
      "▁plenty": 3186,
      "▁bucket": 3187,
      "▁personally": 3188,
      "▁understanding": 3189,
      "▁ai": 3190,
      "▁outright": 3191,
      "##ingle": 3192,
      "▁journey": 3193,
      "▁doubts": 3194,
      "▁aggregate": 3195,
      "▁expanded": 3196,
      "▁policymakers": 3197,
      "##www": 3198,
      "##fet": 3199,
      "▁nap": 3200,
      "##reck": 3201,
      "▁electrical": 3202,
      "##edeen": 3203,
      "▁yahoo!": 3204,
      "▁smells": 3205,
      "▁uvb": 3206,
      "##dron": 3207,
      "▁tal": 3208,
      "▁publicly": 3209,
      "▁searching": 3210,
      "▁scenery": 3211,
      "▁candid": 3212,
      "▁volume": 3213,
      "▁pre-": 3214,
      "▁becuse": 3215,
      "##sticks": 3216,
      "▁surface": 3217,
      "▁communist": 3218,
      "▁auto": 3219,
      "##☎": 3220,
      "##.st": 3221,
      "▁grad": 3222,
      "▁jewish": 3223,
      "▁temp": 3224,
      "##mi": 3225,
      "▁au": 3226,
      "##ift": 3227,
      "##ales": 3228,
      "##owned": 3229,
      "##90": 3230,
      "▁shipped": 3231,
      "▁curs": 3232,
      "▁evil": 3233,
      "▁florida": 3234,
      "##char": 3235,
      "▁fill": 3236,
      "▁jose": 3237,
      "▁solving": 3238,
      "▁alloc": 3239,
      "▁sheriff": 3240,
      "##udes": 3241,
      "##elines": 3242,
      "▁committed": 3243,
      "▁homes": 3244,
      "##arency": 3245,
      "##ou": 3246,
      "▁1584": 3247,
      "▁weapons": 3248,
      "▁leahy": 3249,
      "▁safely": 3250,
      "▁ninth": 3251,
      "▁lone": 3252,
      "▁forest": 3253,
      "##etts": 3254,
      "▁erasmus": 3255,
      "##bled": 3256,
      "##asion": 3257,
      "▁ignored": 3258,
      "▁busy": 3259,
      "##-9": 3260,
      "▁nationwide": 3261,
      "▁happily": 3262,
      "▁shelter": 3263,
      "##engers": 3264,
      "▁added": 3265,
      "▁1.": 3266,
      "▁delete": 3267,
      "##uclear": 3268,
      "▁25": 3269,
      "▁courtney": 3270,
      "▁tonight": 3271,
      "##beat": 3272,
      "▁enterpr": 3273,
      "▁gladly": 3274,
      "##-s": 3275,
      "▁pancakes": 3276,
      "▁shipping": 3277,
      "##ums": 3278,
      "▁immigrants": 3279,
      "▁milwau": 3280,
      "▁require": 3281,
      "▁brand": 3282,
      "▁costly": 3283,
      "▁degenerate": 3284,
      "▁.2": 3285,
      "▁belly": 3286,
      "##omic": 3287,
      "▁inch": 3288,
      "▁oak": 3289,
      "▁based": 3290,
      "▁alcalde": 3291,
      "▁hand": 3292,
      "▁bub": 3293,
      "▁asks": 3294,
      "▁g.": 3295,
      "▁osama": 3296,
      "▁mentioned": 3297,
      "##ub": 3298,
      "▁glam": 3299,
      "##riers": 3300,
      "▁grammar": 3301,
      "##iger": 3302,
      "▁cow": 3303,
      "▁11608": 3304,
      "▁jaff": 3305,
      "▁6400": 3306,
      "▁everywhere": 3307,
      "▁evaluator": 3308,
      "▁1973": 3309,
      "▁affil": 3310,
      "▁kim": 3311,
      "▁martin": 3312,
      "##ident": 3313,
      "▁unles": 3314,
      "▁boeing": 3315,
      "▁scope": 3316,
      "##ellation": 3317,
      "▁disappeared": 3318,
      "##pack": 3319,
      "▁socially": 3320,
      "▁himself": 3321,
      "▁sen": 3322,
      "▁lemon": 3323,
      "##49": 3324,
      "▁preval": 3325,
      "▁conflict": 3326,
      "▁sometimes": 3327,
      "▁vict": 3328,
      "##dge": 3329,
      "▁dys": 3330,
      "▁firstly": 3331,
      "▁breast": 3332,
      "##maid": 3333,
      "##@a": 3334,
      "▁licensing": 3335,
      "▁romantic": 3336,
      "##ˈ": 3337,
      "▁ray": 3338,
      "▁vintage": 3339,
      "▁sudden": 3340,
      "▁treatment": 3341,
      "▁11/27/2000": 3342,
      "▁philadelphia": 3343,
      "##inger": 3344,
      "▁dong": 3345,
      "▁ras": 3346,
      "▁dul": 3347,
      "##-sh": 3348,
      "##ership": 3349,
      "▁largely": 3350,
      "##oton": 3351,
      "▁sequ": 3352,
      "▁69": 3353,
      "▁headband": 3354,
      "▁cover": 3355,
      "▁doggy": 3356,
      "▁ansi-": 3357,
      "##gress": 3358,
      "▁beating": 3359,
      "##space": 3360,
      "▁alarm": 3361,
      "▁enabling": 3362,
      "▁arm": 3363,
      "▁281": 3364,
      "▁rect": 3365,
      "##rum": 3366,
      "##enron.com": 3367,
      "▁unbeliev": 3368,
      "▁grip": 3369,
      "▁toys": 3370,
      "▁conn": 3371,
      "▁locations": 3372,
      "▁scientific": 3373,
      "▁johnson": 3374,
      "##odes": 3375,
      "▁1900": 3376,
      "▁body": 3377,
      "▁sanct": 3378,
      "▁less": 3379,
      "▁basic": 3380,
      "▁pitter": 3381,
      "▁everyone": 3382,
      "##big.html": 3383,
      "▁represent": 3384,
      "▁baking": 3385,
      "▁copy": 3386,
      "▁observed": 3387,
      "▁volunteer": 3388,
      "▁ahab": 3389,
      "▁categor": 3390,
      "▁nurs": 3391,
      "▁squir": 3392,
      "##-b": 3393,
      "▁cooking": 3394,
      "▁olmec": 3395,
      "##ic": 3396,
      "▁rainbow": 3397,
      "▁prompted": 3398,
      "▁prints": 3399,
      "▁leaning": 3400,
      "##utan": 3401,
      "▁medic": 3402,
      "▁saddam": 3403,
      "▁boil": 3404,
      "▁araf": 3405,
      "▁scientists": 3406,
      "▁decor": 3407,
      "▁obt": 3408,
      "##oween": 3409,
      "##qu": 3410,
      "▁smelled": 3411,
      "##ocent": 3412,
      "▁fil": 3413,
      "##peare": 3414,
      "##ght": 3415,
      "##on": 3416,
      "▁>>": 3417,
      "▁percentiles": 3418,
      "▁convince": 3419,
      "▁husband": 3420,
      "▁sum": 3421,
      "##opular": 3422,
      "▁frust": 3423,
      "▁unhunh": 3424,
      "▁dries": 3425,
      "##worms": 3426,
      "▁solas": 3427,
      "▁mater": 3428,
      "▁kandahar": 3429,
      "##f.doc": 3430,
      "##oped": 3431,
      "##.un": 3432,
      "##ord": 3433,
      "▁overcome": 3434,
      "▁peek": 3435,
      "▁pages": 3436,
      "▁novelist": 3437,
      "▁jerome": 3438,
      "▁fighting": 3439,
      "▁825": 3440,
      "▁tunnel": 3441,
      "▁vogelaviatio": 3442,
      "▁bothered": 3443,
      "▁childcare": 3444,
      "##ami": 3445,
      "##ich": 3446,
      "▁1989": 3447,
      "▁pinot": 3448,
      "▁langu": 3449,
      "▁fifteenth": 3450,
      "▁exit": 3451,
      "远": 3452,
      "▁mullah": 3453,
      "▁communities": 3454,
      "▁nervous": 3455,
      "▁products": 3456,
      "##ificent": 3457,
      "▁1613": 3458,
      "▁1801": 3459,
      "▁russian": 3460,
      "##esco": 3461,
      "##oid": 3462,
      "▁invasion": 3463,
      "▁shortly": 3464,
      "▁+++++": 3465,
      "▁100": 3466,
      "▁colour": 3467,
      "▁monit": 3468,
      "##osed": 3469,
      "▁unload": 3470,
      "##.831": 3471,
      "▁preferred": 3472,
      "▁ages": 3473,
      "▁jord": 3474,
      "▁buggy": 3475,
      "▁toxic": 3476,
      "##onsum": 3477,
      "▁2015": 3478,
      "##:21": 3479,
      "##inating": 3480,
      "▁slippers": 3481,
      "▁grown": 3482,
      "▁melting": 3483,
      "##inded": 3484,
      "▁becom": 3485,
      "▁julien": 3486,
      "▁202.7": 3487,
      "##460-33": 3488,
      "▁rhonda": 3489,
      "▁852": 3490,
      "▁make": 3491,
      "▁35": 3492,
      "##ak": 3493,
      "▁1": 3494,
      "▁catch": 3495,
      "▁lantern": 3496,
      "▁abandoned": 3497,
      "▁vary": 3498,
      "▁deep": 3499,
      "▁abdul": 3500,
      "▁angle": 3501,
      "##body": 3502,
      "▁stopovers": 3503,
      "▁equal": 3504,
      "▁hu": 3505,
      "##itting": 3506,
      "▁supers": 3507,
      "##oman": 3508,
      "▁department": 3509,
      "▁advice": 3510,
      "▁dominated": 3511,
      "##ability": 3512,
      "▁stom": 3513,
      "▁phant": 3514,
      "▁vill": 3515,
      "▁restored": 3516,
      "##zales": 3517,
      "##irl": 3518,
      "##ppers": 3519,
      "##90s": 3520,
      "▁teachers": 3521,
      "h": 3522,
      "▁offers": 3523,
      "▁killing": 3524,
      "▁yup": 3525,
      "▁charge": 3526,
      "▁awful": 3527,
      "▁unlik": 3528,
      "▁drops": 3529,
      "▁lose": 3530,
      "5": 3531,
      "▁888.916.7184": 3532,
      "▁policy": 3533,
      "▁pl": 3534,
      "▁id": 3535,
      "##空": 3536,
      "##.clair@enron.com": 3537,
      "▁cruel": 3538,
      "▁fuj": 3539,
      "▁620-294-": 3540,
      "▁1833": 3541,
      "▁adj": 3542,
      "▁fluff": 3543,
      "▁processor": 3544,
      "▁disney": 3545,
      "##ons": 3546,
      "▁consideration": 3547,
      "▁accomm": 3548,
      "▁knives": 3549,
      "▁milan": 3550,
      "▁maker": 3551,
      "▁wasted": 3552,
      "##ced": 3553,
      "▁1871": 3554,
      "▁reconciliation": 3555,
      "▁him": 3556,
      "▁ap": 3557,
      "▁amster": 3558,
      "▁youngest": 3559,
      "▁stoy": 3560,
      "▁send": 3561,
      "##415-": 3562,
      "▁stat": 3563,
      "##ield": 3564,
      "##++++": 3565,
      "▁change": 3566,
      "▁subur": 3567,
      "▁turns": 3568,
      "▁measured": 3569,
      "▁ekrapels@esaibos.com": 3570,
      "##inson": 3571,
      "##bor": 3572,
      "▁wild": 3573,
      "▁keep": 3574,
      "▁ahmed": 3575,
      "▁colin": 3576,
      "▁pap": 3577,
      "▁afternoon": 3578,
      "▁railway": 3579,
      "▁necess": 3580,
      "▁bloody": 3581,
      "##pton": 3582,
      "▁sleeping": 3583,
      "▁revenues": 3584,
      "▁adjusted": 3585,
      "▁cand": 3586,
      "▁occasionally": 3587,
      "▁neoclassical": 3588,
      "▁typically": 3589,
      "▁victims": 3590,
      "##miah": 3591,
      "▁tokyo": 3592,
      "▁leisure": 3593,
      "▁3,": 3594,
      "##ette": 3595,
      "▁businessmen": 3596,
      "▁n't": 3597,
      "▁religion": 3598,
      "▁members": 3599,
      "▁shift": 3600,
      "▁dating": 3601,
      "▁warm": 3602,
      "##irm": 3603,
      "▁inhabit": 3604,
      "▁fairy": 3605,
      "▁nim": 3606,
      "▁bry": 3607,
      "▁martyr": 3608,
      "▁referend": 3609,
      "▁business": 3610,
      "▁sri": 3611,
      "##med": 3612,
      "▁sympt": 3613,
      "▁representatives": 3614,
      "▁desire": 3615,
      "▁finals": 3616,
      "##zer": 3617,
      "##-642": 3618,
      "▁vs": 3619,
      "▁yourselves": 3620,
      "##ix": 3621,
      "▁mailto:": 3622,
      "▁nand": 3623,
      "##-to": 3624,
      "##zac": 3625,
      "▁closer": 3626,
      "##ading": 3627,
      "▁designs": 3628,
      "##go": 3629,
      "▁towed": 3630,
      "##cept": 3631,
      "▁exam": 3632,
      "##.consum": 3633,
      "▁10": 3634,
      "▁seem": 3635,
      "##itement": 3636,
      "▁mood": 3637,
      "##index": 3638,
      "##ther": 3639,
      "##wind": 3640,
      "▁1610": 3641,
      "▁debris": 3642,
      "▁xiii": 3643,
      "▁symbols": 3644,
      "##ements": 3645,
      "##aware": 3646,
      "##der": 3647,
      "##ijing": 3648,
      "▁boo": 3649,
      "▁brian": 3650,
      "##oni": 3651,
      "▁output": 3652,
      "▁bi": 3653,
      "▁coconut": 3654,
      "##ution": 3655,
      "▁davis": 3656,
      "▁western": 3657,
      "▁war": 3658,
      "##ʁ": 3659,
      "##lies": 3660,
      "##bur": 3661,
      "▁sel": 3662,
      "##here": 3663,
      "▁encouraged": 3664,
      "▁austria": 3665,
      "▁explanation": 3666,
      "▁capable": 3667,
      "▁pimple": 3668,
      "▁hund": 3669,
      "▁rarely": 3670,
      "▁heater": 3671,
      "▁beginning": 3672,
      "▁gm": 3673,
      "▁tickles": 3674,
      "▁americas": 3675,
      "##rod": 3676,
      "##icial": 3677,
      "▁shad": 3678,
      "▁renew": 3679,
      "▁dinosaurs": 3680,
      "▁’s": 3681,
      "▁3,202": 3682,
      "▁hav": 3683,
      "##.5": 3684,
      "▁cooper": 3685,
      "▁1925": 3686,
      "##80s": 3687,
      "▁pledge": 3688,
      "▁outdo": 3689,
      "##.2": 3690,
      "##acer": 3691,
      "▁sensor": 3692,
      "▁flowers": 3693,
      "▁mhm": 3694,
      "▁northern": 3695,
      "▁sant": 3696,
      "##435-": 3697,
      "▁programming": 3698,
      "▁grandmother": 3699,
      "▁ve": 3700,
      "##vor": 3701,
      "▁trading": 3702,
      "▁because": 3703,
      "▁starving": 3704,
      "##vance": 3705,
      "▁annex": 3706,
      "▁segment": 3707,
      "##illa": 3708,
      "▁fourth": 3709,
      "▁reef": 3710,
      "##ه": 3711,
      "▁hey": 3712,
      "▁persian": 3713,
      "▁1.1": 3714,
      "▁sal": 3715,
      "▁pg&e": 3716,
      "▁ver": 3717,
      "▁transform": 3718,
      "##gre": 3719,
      "▁arrogant": 3720,
      "##4/2001": 3721,
      "▁temperature": 3722,
      "##ya": 3723,
      "▁enjoy": 3724,
      "##ints": 3725,
      "▁appreciated": 3726,
      "▁revol": 3727,
      "▁interim": 3728,
      "▁consortium": 3729,
      "▁took": 3730,
      "##ers": 3731,
      "##y@ect": 3732,
      "▁useless": 3733,
      "▁dsl": 3734,
      "▁chagrin": 3735,
      "▁judged": 3736,
      "▁cross": 3737,
      "▁badly": 3738,
      "▁101": 3739,
      "▁david": 3740,
      "▁ruin": 3741,
      "▁co": 3742,
      "▁considers": 3743,
      "▁08/16/2000": 3744,
      "▁diff": 3745,
      "▁08:50": 3746,
      "▁jungle": 3747,
      "▁dolph": 3748,
      "▁barger": 3749,
      "##ended": 3750,
      "▁during": 3751,
      "▁northwest": 3752,
      "▁tested": 3753,
      "▁disappointment": 3754,
      "▁locking": 3755,
      "▁engage": 3756,
      "▁electron": 3757,
      "▁scrub": 3758,
      "##bby": 3759,
      "▁dest": 3760,
      "▁hum": 3761,
      "▁monks": 3762,
      "##ze": 3763,
      "▁tsar": 3764,
      "▁particip": 3765,
      "▁ch": 3766,
      "▁gives": 3767,
      "▁throwing": 3768,
      "▁threw": 3769,
      "##ttes": 3770,
      "##az": 3771,
      "▁corps": 3772,
      "▁presently": 3773,
      "▁wings": 3774,
      "▁pork": 3775,
      "▁flexible": 3776,
      "▁curves": 3777,
      "##i-": 3778,
      "▁shuffling": 3779,
      "##att": 3780,
      "##fr": 3781,
      "▁sp": 3782,
      "▁bout": 3783,
      "##ops": 3784,
      "▁directly": 3785,
      "##enn": 3786,
      "▁purely": 3787,
      "▁fan": 3788,
      "▁however": 3789,
      "##p": 3790,
      "▁components": 3791,
      "▁chap": 3792,
      "▁legos": 3793,
      "##.863": 3794,
      "ʃ": 3795,
      "▁encour": 3796,
      "▁depend": 3797,
      "▁edu": 3798,
      "▁fam": 3799,
      "▁compar": 3800,
      "▁gorio": 3801,
      "▁eas": 3802,
      "▁1560": 3803,
      "▁preventing": 3804,
      "▁fab": 3805,
      "▁ju": 3806,
      "▁6.8": 3807,
      "##xim": 3808,
      "▁average": 3809,
      "▁qu": 3810,
      "▁kleen": 3811,
      "##ignment": 3812,
      "▁timothy": 3813,
      "▁lent": 3814,
      "▁specific": 3815,
      "##bar": 3816,
      "▁lights": 3817,
      "▁cin": 3818,
      "▁acceler": 3819,
      "▁comparable": 3820,
      "##cot": 3821,
      "▁sue": 3822,
      "▁folder": 3823,
      "▁gigantic": 3824,
      "##atia": 3825,
      "▁right": 3826,
      "##roll": 3827,
      "▁headline": 3828,
      "##orn": 3829,
      "▁oregon": 3830,
      "##ilt": 3831,
      "▁taylor": 3832,
      "▁1996": 3833,
      "▁machine": 3834,
      "▁engineering": 3835,
      "##una": 3836,
      "▁yaz": 3837,
      "▁cigare": 3838,
      "▁suited": 3839,
      "▁bw": 3840,
      "▁1977": 3841,
      "▁welf": 3842,
      "##web": 3843,
      "##af": 3844,
      "##oos": 3845,
      "▁on": 3846,
      "##----------": 3847,
      "▁kilomet": 3848,
      "##time": 3849,
      "▁glor": 3850,
      "▁salty": 3851,
      "▁hunt": 3852,
      "▁ox": 3853,
      "##/10": 3854,
      "▁tips": 3855,
      "▁laser": 3856,
      "##7/2001": 3857,
      "▁stored": 3858,
      "▁represented": 3859,
      "▁bp": 3860,
      "##algamiento": 3861,
      "▁edges": 3862,
      "▁lets": 3863,
      "##erry": 3864,
      "▁calif": 3865,
      "▁japanese": 3866,
      "▁administr": 3867,
      "▁agel": 3868,
      "▁suggestion": 3869,
      "▁legislation": 3870,
      "▁emphasize": 3871,
      "▁814": 3872,
      "▁belief": 3873,
      "##izabeth": 3874,
      "▁disability": 3875,
      "▁notice": 3876,
      "▁iron": 3877,
      "▁grid": 3878,
      "▁motivation": 3879,
      "▁04:37": 3880,
      "##ainted": 3881,
      "▁nu": 3882,
      "▁chin": 3883,
      "▁naming": 3884,
      "▁shale": 3885,
      "▁30th": 3886,
      "▁qx": 3887,
      "▁canad": 3888,
      "▁careful": 3889,
      "▁spect": 3890,
      "▁gulf": 3891,
      "##ars": 3892,
      "▁route": 3893,
      "##υ": 3894,
      "▁era": 3895,
      "▁mob": 3896,
      "▁.....": 3897,
      "▁cradle": 3898,
      "▁oy": 3899,
      "▁smack": 3900,
      "##ughter": 3901,
      "▁wednesdays": 3902,
      "##essions": 3903,
      "▁stella": 3904,
      "##itty": 3905,
      "##bat": 3906,
      "▁attempting": 3907,
      "▁coup": 3908,
      "▁chalabi": 3909,
      "▁crosses": 3910,
      "▁inspired": 3911,
      "▁said": 3912,
      "▁interceptor": 3913,
      "▁employment": 3914,
      "▁ang": 3915,
      "▁arrang": 3916,
      "▁neg": 3917,
      "##ip": 3918,
      "▁experience": 3919,
      "▁cutting": 3920,
      "▁immediate": 3921,
      "▁54": 3922,
      "▁supporter": 3923,
      "▁translating": 3924,
      "▁domain": 3925,
      "##fe": 3926,
      "▁2.00": 3927,
      "▁friendly": 3928,
      "##,7": 3929,
      "##ory": 3930,
      "▁messaging": 3931,
      "##accept": 3932,
      "▁vegan": 3933,
      "▁monde": 3934,
      "▁clut": 3935,
      "▁ab": 3936,
      "##@enron": 3937,
      "▁computers": 3938,
      "▁banner": 3939,
      "##ber": 3940,
      "##omm": 3941,
      "▁engels": 3942,
      "▁teacher": 3943,
      "##olly": 3944,
      "▁fift": 3945,
      "▁kpa": 3946,
      "▁damascus": 3947,
      "▁monitoring": 3948,
      "▁roy": 3949,
      "▁periods": 3950,
      "▁smok": 3951,
      "▁pachomius": 3952,
      "##ann": 3953,
      "▁behaviors": 3954,
      "▁newly": 3955,
      "##rie": 3956,
      "##-": 3957,
      "▁in": 3958,
      "▁pleased": 3959,
      "▁steak": 3960,
      "▁713-793-": 3961,
      "▁brass": 3962,
      "▁lexical": 3963,
      "▁hino": 3964,
      "▁shrew": 3965,
      "▁cheney": 3966,
      "▁cannon": 3967,
      "▁permanent": 3968,
      "▁pee": 3969,
      "▁fever": 3970,
      "▁trafficking": 3971,
      "▁away": 3972,
      "▁shaped": 3973,
      "▁i.": 3974,
      "▁sli": 3975,
      "▁expectancy": 3976,
      "##5-02.doc": 3977,
      "μ": 3978,
      "##.95": 3979,
      "▁jal": 3980,
      "##ensen": 3981,
      "▁muq": 3982,
      "▁vote": 3983,
      "##ersonal": 3984,
      "▁confidence": 3985,
      "▁tuck": 3986,
      "##im": 3987,
      "##while": 3988,
      "▁xii": 3989,
      "▁hopes": 3990,
      "▁kurtz": 3991,
      "▁code": 3992,
      "▁oops": 3993,
      "▁metropolitan": 3994,
      "▁refused": 3995,
      "▁crap": 3996,
      "▁memoir": 3997,
      "▁margin": 3998,
      "##ting": 3999,
      "▁princip": 4000,
      "▁targets": 4001,
      "▁protocol": 4002,
      "▁relevance": 4003,
      "▁345-99": 4004,
      "##ished": 4005,
      "##iable": 4006,
      "##igration": 4007,
      "▁societ": 4008,
      "▁deeper": 4009,
      "▁quite": 4010,
      "▁establish": 4011,
      "▁revers": 4012,
      "##*": 4013,
      "▁fare": 4014,
      "▁dut": 4015,
      "▁!!!!": 4016,
      "▁retrie": 4017,
      "▁flor": 4018,
      "▁lys": 4019,
      "▁image": 4020,
      "▁fishing": 4021,
      "▁refund": 4022,
      "▁ouij": 4023,
      "▁cooperation": 4024,
      "##ographic": 4025,
      "▁pe": 4026,
      "##dering": 4027,
      "▁econom": 4028,
      "##keeping": 4029,
      "▁posture": 4030,
      "▁spoken": 4031,
      "▁funeral": 4032,
      "▁ironically": 4033,
      "▁continents": 4034,
      "▁relations": 4035,
      "▁stephanie": 4036,
      "▁dunn": 4037,
      "▁congratulations": 4038,
      "▁rah": 4039,
      "▁surely": 4040,
      "▁applications": 4041,
      "▁slide": 4042,
      "▁points": 4043,
      "▁'ve": 4044,
      "##93": 4045,
      "▁web": 4046,
      "▁mitig": 4047,
      "▁adorn": 4048,
      "▁flea": 4049,
      "▁meeting": 4050,
      "▁slipped": 4051,
      "▁petunia": 4052,
      "▁petsmart": 4053,
      "▁phr": 4054,
      "▁lawyer": 4055,
      "▁hydrogen": 4056,
      "##fur": 4057,
      "▁34": 4058,
      "▁bec": 4059,
      "▁values": 4060,
      "▁locked": 4061,
      "▁bits": 4062,
      "##use": 4063,
      "▁tet": 4064,
      "▁stared": 4065,
      "▁1602": 4066,
      "##pin": 4067,
      "##itivity": 4068,
      "##ggy": 4069,
      "▁moist": 4070,
      "▁er": 4071,
      "▁environment": 4072,
      "▁chapter": 4073,
      "▁imp": 4074,
      "##icts": 4075,
      "▁imposs": 4076,
      "▁br": 4077,
      "##dden": 4078,
      "##under": 4079,
      "##ster": 4080,
      "##di": 4081,
      "▁10:34": 4082,
      "##0's": 4083,
      "▁announcement": 4084,
      "##ency": 4085,
      "##olf": 4086,
      "▁03": 4087,
      "##erable": 4088,
      "▁alan": 4089,
      "▁iu": 4090,
      "▁adverts": 4091,
      "▁dent": 4092,
      "▁brains": 4093,
      "▁3.2": 4094,
      "▁cups": 4095,
      "▁morm": 4096,
      "▁undermine": 4097,
      "▁26": 4098,
      "##yr": 4099,
      "▁conservative": 4100,
      "▁regulations": 4101,
      "▁flop": 4102,
      "##-8": 4103,
      "▁warming": 4104,
      "▁reception": 4105,
      "##ff": 4106,
      "▁extraord": 4107,
      "##2": 4108,
      "▁miracle": 4109,
      "▁located": 4110,
      "▁mweta": 4111,
      "▁rescue": 4112,
      "▁ms": 4113,
      "▁accidents": 4114,
      "##ipedia": 4115,
      "##eler": 4116,
      "▁example": 4117,
      "▁16.379": 4118,
      "▁flows": 4119,
      "▁festiv": 4120,
      "▁edwards": 4121,
      "▁nose": 4122,
      "##alog": 4123,
      "▁sing": 4124,
      "▁compaq": 4125,
      "▁gracious": 4126,
      "▁factory": 4127,
      "▁enjoys": 4128,
      "▁trades": 4129,
      "▁opposition": 4130,
      "▁fro": 4131,
      "##obile": 4132,
      "▁rack": 4133,
      "▁stealing": 4134,
      "▁survive": 4135,
      "▁compat": 4136,
      "▁reintrod": 4137,
      "▁waved": 4138,
      "▁powers": 4139,
      "##net": 4140,
      "y": 4141,
      "▁temper": 4142,
      "▁oven": 4143,
      "▁irrit": 4144,
      "▁collaboration": 4145,
      "▁let": 4146,
      "▁sloven": 4147,
      "▁massive": 4148,
      "##iety": 4149,
      "▁fault": 4150,
      "▁bondad": 4151,
      "▁bog": 4152,
      "▁177": 4153,
      "▁soy": 4154,
      "##athan": 4155,
      "##ail": 4156,
      "##ith": 4157,
      "##lessness": 4158,
      "▁instructed": 4159,
      "▁rejected": 4160,
      "##pent": 4161,
      "▁nurse": 4162,
      "▁exist": 4163,
      "▁occasion": 4164,
      "▁presidency": 4165,
      "##339": 4166,
      "▁mines": 4167,
      "##ind": 4168,
      "▁packet": 4169,
      "▁chiba": 4170,
      "▁co-": 4171,
      "##spot.com/": 4172,
      "▁environ": 4173,
      "▁women": 4174,
      "▁13011": 4175,
      "##ering": 4176,
      "▁enlargement": 4177,
      "##dulo": 4178,
      "▁600": 4179,
      "▁perdu": 4180,
      "▁opportunity": 4181,
      "▁p.": 4182,
      "▁anim": 4183,
      "▁act": 4184,
      "▁concerning": 4185,
      "▁incentive": 4186,
      "▁pret": 4187,
      "▁[": 4188,
      "▁crayons": 4189,
      "##********************************": 4190,
      "▁moore": 4191,
      "▁shinjuku": 4192,
      "▁song": 4193,
      "▁willing": 4194,
      "▁xslt": 4195,
      "▁iso": 4196,
      "##ess": 4197,
      "▁diego": 4198,
      "▁fuck": 4199,
      "▁height": 4200,
      "▁dri": 4201,
      "##ric": 4202,
      "▁categories": 4203,
      "▁713-654-1281": 4204,
      "▁fract": 4205,
      "▁de": 4206,
      "##30": 4207,
      "▁listen": 4208,
      "▁reint": 4209,
      "▁operational": 4210,
      "##s.pdf": 4211,
      "▁movements": 4212,
      "▁noida": 4213,
      "▁gir": 4214,
      "▁raccoon": 4215,
      "##ld": 4216,
      "▁rul": 4217,
      "##lines": 4218,
      "▁ern": 4219,
      "▁illust": 4220,
      "▁tournament": 4221,
      "▁epc": 4222,
      "▁human": 4223,
      "▁entertainment": 4224,
      "▁earl": 4225,
      "▁screen": 4226,
      "##θ": 4227,
      "ʒ": 4228,
      "▁times": 4229,
      "▁unim": 4230,
      "▁212": 4231,
      "▁fut": 4232,
      "▁gaza": 4233,
      "##bha-": 4234,
      "▁5/18": 4235,
      "▁1974": 4236,
      "▁actually": 4237,
      "##osoph": 4238,
      "▁infant": 4239,
      "▁immunity": 4240,
      "##fight": 4241,
      "▁mart": 4242,
      "▁built": 4243,
      "▁olymp": 4244,
      "▁joh": 4245,
      "▁distribution": 4246,
      "##uers": 4247,
      "##trans": 4248,
      "##jan": 4249,
      "▁j": 4250,
      "##ways": 4251,
      "▁creek": 4252,
      "▁offered": 4253,
      "##king": 4254,
      "##600": 4255,
      "▁belgium": 4256,
      "▁surprise": 4257,
      "▁stadium": 4258,
      "##elpaso": 4259,
      "##urch": 4260,
      "▁drinks": 4261,
      "▁webs": 4262,
      "▁harmonised": 4263,
      "▁replacement": 4264,
      "▁oz": 4265,
      "▁argent": 4266,
      "▁preferably": 4267,
      "x": 4268,
      "▁spl": 4269,
      "▁gala": 4270,
      "##ans": 4271,
      "▁;)": 4272,
      "▁warmer": 4273,
      "▁helpful": 4274,
      "▁cocoa": 4275,
      "▁inside": 4276,
      "##he": 4277,
      "##po": 4278,
      "▁3889": 4279,
      "▁realization": 4280,
      "▁senses": 4281,
      "▁2.2": 4282,
      "▁vess": 4283,
      "##gle": 4284,
      "▁87": 4285,
      "▁rocky": 4286,
      "▁raised": 4287,
      "##.1": 4288,
      "▁carl": 4289,
      "▁hospitality": 4290,
      "▁01:0": 4291,
      "▁hesit": 4292,
      "▁sensible": 4293,
      "▁consequences": 4294,
      "▁tele": 4295,
      "=": 4296,
      "▁centers": 4297,
      "▁worthwhile": 4298,
      "▁mitch": 4299,
      "▁laughter": 4300,
      "▁insulting": 4301,
      "▁testing": 4302,
      "▁voting": 4303,
      "▁shia": 4304,
      "▁stone": 4305,
      "▁communications": 4306,
      "▁dehy": 4307,
      "▁don": 4308,
      "▁03/02/2001": 4309,
      "▁spokesman": 4310,
      "▁prospects": 4311,
      "▁father": 4312,
      "▁trale": 4313,
      "▁mic": 4314,
      "▁mos": 4315,
      "▁elementary": 4316,
      "▁cuz": 4317,
      "▁max": 4318,
      "##1-9": 4319,
      "▁migrated": 4320,
      "4": 4321,
      "##ounded": 4322,
      "▁lex": 4323,
      "▁inexp": 4324,
      "▁whatever": 4325,
      "▁particularly": 4326,
      "▁malays": 4327,
      "▁si": 4328,
      "▁commission": 4329,
      "##urday": 4330,
      "▁gifts": 4331,
      "▁anderson": 4332,
      "##`": 4333,
      "##onnay": 4334,
      "▁audience": 4335,
      "##encing": 4336,
      "▁behaviour": 4337,
      "##:29": 4338,
      "▁ret": 4339,
      "▁al.": 4340,
      "##cohol": 4341,
      "##hou": 4342,
      "▁disag": 4343,
      "▁fifty": 4344,
      "▁initially": 4345,
      "▁boot": 4346,
      "▁anyone": 4347,
      "▁wolf": 4348,
      "##古": 4349,
      "▁yummy": 4350,
      "▁rules": 4351,
      "▁mothers": 4352,
      "##ime": 4353,
      "▁direct": 4354,
      "▁pi": 4355,
      "▁tourism": 4356,
      "##matic": 4357,
      "▁facebook": 4358,
      "▁if": 4359,
      "▁interesting": 4360,
      "##lish": 4361,
      "▁e": 4362,
      "##-468-3": 4363,
      "##online": 4364,
      "▁assoc": 4365,
      "▁paula": 4366,
      "▁simon": 4367,
      "▁greater": 4368,
      "▁sheep": 4369,
      "##.p": 4370,
      "▁bn": 4371,
      "▁artillery": 4372,
      "▁photographic": 4373,
      "▁extrem": 4374,
      "▁peacefully": 4375,
      "▁television": 4376,
      "▁bond": 4377,
      "##46": 4378,
      "▁byron": 4379,
      "▁noon": 4380,
      "▁youtube": 4381,
      "▁chased": 4382,
      "▁mountain": 4383,
      "▁tracking": 4384,
      "▁automatically": 4385,
      "▁so-c": 4386,
      "##so": 4387,
      "▁luck": 4388,
      "▁use": 4389,
      "▁1504": 4390,
      "▁caucas": 4391,
      "##uffy": 4392,
      "##.ht": 4393,
      "##===<----": 4394,
      "##raid": 4395,
      "▁uneasy": 4396,
      "▁posting": 4397,
      "▁employee": 4398,
      "▁structured": 4399,
      "▁divine": 4400,
      "▁9": 4401,
      "▁defended": 4402,
      "##xture": 4403,
      "##eros": 4404,
      "▁pur": 4405,
      "▁shoe": 4406,
      "##read": 4407,
      "▁whenever": 4408,
      "##-625": 4409,
      "##/chernobyl/": 4410,
      "##sd": 4411,
      "▁wig": 4412,
      "▁111": 4413,
      "▁manusc": 4414,
      "▁!!!?": 4415,
      "##ft": 4416,
      "▁poiss": 4417,
      "▁mathematical": 4418,
      "##ath": 4419,
      "▁african": 4420,
      "▁hebrew": 4421,
      "▁lat": 4422,
      "▁happen": 4423,
      "▁|--------+----------------------->": 4424,
      "▁hourly": 4425,
      "▁prefer": 4426,
      "##mo": 4427,
      "▁quantity": 4428,
      "▁holoca": 4429,
      "▁traditionally": 4430,
      "##inf": 4431,
      "▁ld2d-#693": 4432,
      "▁guardian": 4433,
      "▁fair": 4434,
      "▁universities": 4435,
      "▁twenty-": 4436,
      "▁olympic": 4437,
      "▁pean": 4438,
      "▁arrivals": 4439,
      "▁turistica": 4440,
      "▁possess": 4441,
      "▁elev": 4442,
      "▁blanc": 4443,
      "▁upr": 4444,
      "▁ho": 4445,
      "▁straight": 4446,
      "▁worthy": 4447,
      "▁persistent": 4448,
      "▁bulb": 4449,
      "▁method": 4450,
      "▁defend": 4451,
      "##umed": 4452,
      "g": 4453,
      "▁continent": 4454,
      "##aring": 4455,
      "##phere": 4456,
      "▁developments": 4457,
      "▁polit": 4458,
      "##aka": 4459,
      "▁paulo": 4460,
      "▁cells": 4461,
      "▁very": 4462,
      "▁far": 4463,
      "##izations": 4464,
      "▁,": 4465,
      "##enna": 4466,
      "▁508": 4467,
      "▁level": 4468,
      "▁principal": 4469,
      "▁exploration": 4470,
      "##workers": 4471,
      "▁failing": 4472,
      "▁board": 4473,
      "▁pencil": 4474,
      "##ama": 4475,
      "▁consent": 4476,
      "▁reveal": 4477,
      "▁age": 4478,
      "▁hier": 4479,
      "##itual": 4480,
      "▁introd": 4481,
      "##sters": 4482,
      "▁explaining": 4483,
      "▁dissemin": 4484,
      "▁like": 4485,
      "▁than": 4486,
      "▁sufficient": 4487,
      "▁shout": 4488,
      "##onomy": 4489,
      "▁tractor": 4490,
      "##ansas": 4491,
      "▁email": 4492,
      "▁judg": 4493,
      "▁eager": 4494,
      "▁bunn": 4495,
      "▁poke": 4496,
      "▁none": 4497,
      "▁trac": 4498,
      "▁1965": 4499,
      "▁amazed": 4500,
      "▁acquis": 4501,
      "▁knew": 4502,
      "##aling": 4503,
      "▁seats": 4504,
      "▁proposing": 4505,
      "▁percentile": 4506,
      "▁imper": 4507,
      "▁311": 4508,
      "▁[...": 4509,
      "▁waiver": 4510,
      "▁simultaneously": 4511,
      "▁paths": 4512,
      "▁finishing": 4513,
      "▁breasts": 4514,
      "▁promise": 4515,
      "##utory": 4516,
      "▁concent": 4517,
      "▁instructor": 4518,
      "▁twisted": 4519,
      "##ryn": 4520,
      "▁salt": 4521,
      "▁trying": 4522,
      "##ened": 4523,
      "▁300": 4524,
      "▁obsf": 4525,
      "▁compel": 4526,
      "▁circles": 4527,
      "##angu": 4528,
      "▁demanded": 4529,
      "▁republicans": 4530,
      "▁w": 4531,
      "▁wind": 4532,
      "▁ursula": 4533,
      "▁latter": 4534,
      "##☏": 4535,
      "▁presum": 4536,
      "▁discovered": 4537,
      "▁pocketbook": 4538,
      "##iori": 4539,
      "▁cryst": 4540,
      "▁vag": 4541,
      "▁recip": 4542,
      "▁arrives": 4543,
      "##ma": 4544,
      "▁professional": 4545,
      "▁philosoph": 4546,
      "##ioch": 4547,
      "▁lacking": 4548,
      "▁berry": 4549,
      "▁particle": 4550,
      "▁beloved": 4551,
      "▁net": 4552,
      "▁mwet": 4553,
      "▁compass": 4554,
      "▁transported": 4555,
      "▁loo": 4556,
      "▁suspicion": 4557,
      "▁illegal": 4558,
      "▁gov": 4559,
      "##arents": 4560,
      "##--------------------------------": 4561,
      "▁bee": 4562,
      "##389": 4563,
      "▁1596": 4564,
      "##@compaq.com": 4565,
      "▁publications": 4566,
      "▁welfare": 4567,
      "▁lot": 4568,
      "▁embr": 4569,
      "▁barcl": 4570,
      "##cceed": 4571,
      "▁stupid": 4572,
      "▁execution": 4573,
      "##dog": 4574,
      "▁pass": 4575,
      "▁twelfth": 4576,
      "▁trigger": 4577,
      "▁experimental": 4578,
      "▁abol": 4579,
      "##.61": 4580,
      "▁-final.doc": 4581,
      "▁discussions": 4582,
      "▁printing": 4583,
      "▁efficiency": 4584,
      "▁tennis": 4585,
      "▁qual": 4586,
      "##-c": 4587,
      "▁83": 4588,
      "▁smith": 4589,
      "▁resist": 4590,
      "▁barbeque": 4591,
      "▁nowhere": 4592,
      "▁stayed": 4593,
      "▁cd": 4594,
      "▁silence": 4595,
      "▁dogg": 4596,
      "▁alber": 4597,
      "▁ensure": 4598,
      "##h-ris": 4599,
      "▁outr": 4600,
      "▁appetite": 4601,
      "▁tabennese": 4602,
      "▁manners": 4603,
      "##top": 4604,
      "▁1.25": 4605,
      "▁through": 4606,
      "##201": 4607,
      "▁naughty": 4608,
      "##ds": 4609,
      "▁culturally": 4610,
      "▁flooding": 4611,
      "▁clar": 4612,
      "##_de": 4613,
      "▁birthday": 4614,
      "##ends": 4615,
      "▁condem": 4616,
      "▁symptoms": 4617,
      "▁spear": 4618,
      "▁usi": 4619,
      "▁bare": 4620,
      "▁investments": 4621,
      "▁recre": 4622,
      "▁spacetime": 4623,
      "▁1940": 4624,
      "##gian": 4625,
      "▁repl": 4626,
      "▁inhab": 4627,
      "▁includ": 4628,
      "##enty": 4629,
      "▁hotels": 4630,
      "▁entity": 4631,
      "▁hamas": 4632,
      "▁beans": 4633,
      "##.c": 4634,
      "▁filed": 4635,
      "▁engine": 4636,
      "▁vodka": 4637,
      "▁!!!!!!!!!!": 4638,
      "▁899": 4639,
      "##ights": 4640,
      "##yard": 4641,
      "##stip": 4642,
      "▁hy": 4643,
      "▁carry": 4644,
      "##ø": 4645,
      "▁lips": 4646,
      "▁forwarded": 4647,
      "▁huit": 4648,
      "▁sixty": 4649,
      "##-3": 4650,
      "##abul": 4651,
      "▁profits": 4652,
      "▁skill": 4653,
      "▁oriented": 4654,
      "▁candles": 4655,
      "▁produc": 4656,
      "▁08/03": 4657,
      "##ooking": 4658,
      "▁feel": 4659,
      "▁mor": 4660,
      "▁3/8/00": 4661,
      "##amp": 4662,
      "##4/2000": 4663,
      "##ici": 4664,
      "▁teasp": 4665,
      "▁banknot": 4666,
      "##igning": 4667,
      "▁boundaries": 4668,
      "##pts": 4669,
      "▁jen": 4670,
      "▁techn": 4671,
      "▁opposed": 4672,
      "▁shanna": 4673,
      "##edience": 4674,
      "▁reward": 4675,
      "▁building": 4676,
      "▁6:00": 4677,
      "##bir": 4678,
      "▁fence": 4679,
      "##icop": 4680,
      "▁joyce": 4681,
      "▁debut": 4682,
      "▁skills": 4683,
      "##uggle": 4684,
      "▁rag": 4685,
      "▁pew": 4686,
      "▁drinking": 4687,
      "▁background": 4688,
      "##aq": 4689,
      "▁sweep": 4690,
      "##ares": 4691,
      "▁army": 4692,
      "##sing": 4693,
      "▁playstation": 4694,
      "▁digital": 4695,
      "▁202.456.2461": 4696,
      "▁newspapers": 4697,
      "▁utility": 4698,
      "##org": 4699,
      "▁llc": 4700,
      "▁conquer": 4701,
      "▁bock": 4702,
      "##arian": 4703,
      "▁strip": 4704,
      "▁90s": 4705,
      "▁diss": 4706,
      "##♥": 4707,
      "##ets": 4708,
      "▁taste": 4709,
      "##ects": 4710,
      "##den": 4711,
      "▁occurs": 4712,
      "▁resulted": 4713,
      "▁cathy": 4714,
      "▁dryer": 4715,
      "##­": 4716,
      "▁crossed": 4717,
      "##ansa": 4718,
      "▁weakness": 4719,
      "▁period": 4720,
      "▁boats": 4721,
      "▁alab": 4722,
      "▁remaining": 4723,
      "▁pyramid": 4724,
      "▁rise": 4725,
      "▁up": 4726,
      "▁premium": 4727,
      "▁chronic": 4728,
      "▁he": 4729,
      "▁autom": 4730,
      "##.8317": 4731,
      "▁impression": 4732,
      "▁enr": 4733,
      "▁tablet": 4734,
      "▁drafting": 4735,
      "##.d": 4736,
      "▁toe": 4737,
      "▁local": 4738,
      "▁starbucks": 4739,
      "▁curb": 4740,
      "▁vendors": 4741,
      "##:/": 4742,
      "▁w.": 4743,
      "##02": 4744,
      "▁girlfriend": 4745,
      "▁seattle": 4746,
      "▁helmet": 4747,
      "##-m": 4748,
      "##e": 4749,
      "▁gregg": 4750,
      "▁karen": 4751,
      "##ive": 4752,
      "▁senate": 4753,
      "▁facing": 4754,
      "▁organic": 4755,
      "▁details": 4756,
      "##ement": 4757,
      "##ertain": 4758,
      "▁ansi": 4759,
      "▁victor": 4760,
      "▁seized": 4761,
      "▁2003": 4762,
      "▁nuts": 4763,
      "▁28": 4764,
      "▁boys": 4765,
      "##abilities": 4766,
      "▁coffee": 4767,
      "##mmet": 4768,
      "▁zawahiri": 4769,
      "##xce": 4770,
      "▁publish": 4771,
      "▁2017": 4772,
      "ص": 4773,
      "▁courage": 4774,
      "▁ministry": 4775,
      "▁heart": 4776,
      "▁minor": 4777,
      "▁04/2": 4778,
      "▁qualified": 4779,
      "▁defines": 4780,
      "▁hussein": 4781,
      "▁09/16/99": 4782,
      "##acious": 4783,
      "▁operating": 4784,
      "▁puzz": 4785,
      "▁temperatures": 4786,
      "▁explanations": 4787,
      "▁191": 4788,
      "▁occasions": 4789,
      "▁bom": 4790,
      "▁drunk": 4791,
      "▁awww": 4792,
      "▁other": 4793,
      "▁pick": 4794,
      "▁tenn": 4795,
      "##onent": 4796,
      "▁1997": 4797,
      "▁aa": 4798,
      "▁depart": 4799,
      "▁associ": 4800,
      "▁error": 4801,
      "▁noble": 4802,
      "▁sway": 4803,
      "▁horrible": 4804,
      "▁lingu": 4805,
      "▁paralympic": 4806,
      "##ict": 4807,
      "##otte": 4808,
      "▁arrange": 4809,
      "##ps": 4810,
      "▁track": 4811,
      "▁versions": 4812,
      "▁departs": 4813,
      "▁devoted": 4814,
      "▁topic": 4815,
      "▁vacc": 4816,
      "▁1960": 4817,
      "▁difference": 4818,
      "##fill": 4819,
      "##kward": 4820,
      "##lac": 4821,
      "▁transwestern": 4822,
      "▁prud": 4823,
      "谿": 4824,
      "##wait": 4825,
      "▁accept": 4826,
      "▁genes": 4827,
      "##nic": 4828,
      "##44": 4829,
      "▁seis": 4830,
      "▁scored": 4831,
      "▁formula": 4832,
      "▁rare": 4833,
      "▁marbles": 4834,
      "▁factor": 4835,
      "▁burning": 4836,
      "▁fyi": 4837,
      "▁traveled": 4838,
      "▁intensity": 4839,
      "▁mature": 4840,
      "##bo": 4841,
      "▁read": 4842,
      "▁dropped": 4843,
      "▁william": 4844,
      "☎": 4845,
      "▁cit": 4846,
      "▁http://www.4gamer.net/news/image/2005.09/2005091": 4847,
      "▁te": 4848,
      "▁auntie": 4849,
      "▁713-853-": 4850,
      "▁resident": 4851,
      "▁gave": 4852,
      "##tical": 4853,
      "▁woke": 4854,
      "##b)": 4855,
      "▁india": 4856,
      "▁contact": 4857,
      "▁---------------------------------": 4858,
      "▁hiss": 4859,
      "▁newfound": 4860,
      "▁pride": 4861,
      "##brew": 4862,
      "▁complaining": 4863,
      "▁supported": 4864,
      "▁attempted": 4865,
      "##lain": 4866,
      "▁cameras": 4867,
      "▁saud": 4868,
      "##ocked": 4869,
      "▁disagre": 4870,
      "##page": 4871,
      "▁hugo": 4872,
      "▁catholic": 4873,
      "▁tricks": 4874,
      "▁preserving": 4875,
      "##oning": 4876,
      "▁1-800": 4877,
      "▁office": 4878,
      ";": 4879,
      "##na": 4880,
      "▁leaf": 4881,
      "▁outdoors": 4882,
      "▁yog": 4883,
      "##.676": 4884,
      "▁blount": 4885,
      "▁dna": 4886,
      "##je": 4887,
      "##dham": 4888,
      "▁shrug": 4889,
      "▁controversial": 4890,
      "▁bug": 4891,
      "▁27": 4892,
      "##pa": 4893,
      "▁pay": 4894,
      "▁product": 4895,
      "▁ambit": 4896,
      "▁cra": 4897,
      "▁ukraine": 4898,
      "▁483": 4899,
      "葉": 4900,
      "▁madrid": 4901,
      "▁100,000": 4902,
      "▁wax": 4903,
      "##ilize": 4904,
      "▁stages": 4905,
      "▁performance": 4906,
      "##emen": 4907,
      "▁sci": 4908,
      "##uge": 4909,
      "##ois": 4910,
      "▁strive": 4911,
      "##ishing": 4912,
      "▁instit": 4913,
      "▁participant": 4914,
      "▁dynam": 4915,
      "▁29": 4916,
      "▁climbed": 4917,
      "▁53": 4918,
      "▁hotline": 4919,
      "▁dallas": 4920,
      "##ee": 4921,
      "▁morph": 4922,
      "▁rub": 4923,
      "##pi": 4924,
      "##!!": 4925,
      "▁scheme": 4926,
      "##points": 4927,
      "▁ast": 4928,
      "▁traveler": 4929,
      "##uation": 4930,
      "▁considerable": 4931,
      "▁abst": 4932,
      "▁privacy": 4933,
      "##res": 4934,
      "▁incorpor": 4935,
      "▁1954": 4936,
      "▁montalvo": 4937,
      "▁ethn": 4938,
      "▁lime": 4939,
      "▁dignity": 4940,
      "##d2": 4941,
      "▁leave": 4942,
      "##bondad": 4943,
      "▁gifu": 4944,
      "▁accepting": 4945,
      "##-t": 4946,
      "##can": 4947,
      "##800": 4948,
      "▁epic": 4949,
      "##anim": 4950,
      "##ua": 4951,
      "▁aggressive": 4952,
      "▁polic": 4953,
      "##ro": 4954,
      "▁archit": 4955,
      "▁disappointed": 4956,
      "▁dr": 4957,
      "▁officers": 4958,
      "▁01/26/2001": 4959,
      "▁headquarters": 4960,
      "▁crude": 4961,
      "##uously": 4962,
      "▁april": 4963,
      "▁uhh": 4964,
      "▁couple": 4965,
      "▁overth": 4966,
      "▁kennedy": 4967,
      "▁×": 4968,
      "##ely": 4969,
      "##:25": 4970,
      "▁wong": 4971,
      "▁(:": 4972,
      "▁smart": 4973,
      "▁instr": 4974,
      "▁wants": 4975,
      "▁happ": 4976,
      "▁laws": 4977,
      "▁thursdays": 4978,
      "▁old": 4979,
      "##ahe": 4980,
      "▁steve": 4981,
      "##oler": 4982,
      "▁ground": 4983,
      "##endous": 4984,
      "##iner": 4985,
      "##jal": 4986,
      "▁imprisoned": 4987,
      "##rier": 4988,
      "▁med": 4989,
      "##819": 4990,
      "##beit": 4991,
      "▁isfahan": 4992,
      "▁-----------------------------------------------------------------------": 4993,
      "▁space": 4994,
      "▁portions": 4995,
      "•": 4996,
      "##ites": 4997,
      "##een": 4998,
      "▁visible": 4999,
      "##other": 5000,
      "▁_____": 5001,
      "▁secure": 5002,
      "▁solve": 5003,
      "▁[...]": 5004,
      "▁profess": 5005,
      "▁paperwork": 5006,
      "▁circular": 5007,
      "▁sv": 5008,
      "▁merely": 5009,
      "▁unlikely": 5010,
      "▁expl": 5011,
      "▁yields": 5012,
      "▁04:28": 5013,
      "▁luna": 5014,
      "▁interrog": 5015,
      "▁damn": 5016,
      "▁hated": 5017,
      "▁histor": 5018,
      "##:51": 5019,
      "▁heights": 5020,
      "▁2.0": 5021,
      "▁env": 5022,
      "##ws": 5023,
      "▁musicians": 5024,
      "▁3": 5025,
      "▁coin": 5026,
      "▁employees": 5027,
      "▁integration": 5028,
      "▁airplane": 5029,
      "▁preparing": 5030,
      "▁arkansas": 5031,
      "▁passport": 5032,
      "##:27": 5033,
      "▁establishment": 5034,
      "▁stamp": 5035,
      "##ness": 5036,
      "▁exper": 5037,
      "▁mediterranean": 5038,
      "▁cut": 5039,
      "▁global": 5040,
      "##ortium": 5041,
      "▁films": 5042,
      "▁shr": 5043,
      "▁superf": 5044,
      "▁spac": 5045,
      "▁sched": 5046,
      "▁transp": 5047,
      "▁lu": 5048,
      "▁hoping": 5049,
      "##atch": 5050,
      "▁input": 5051,
      "▁av": 5052,
      "##ically": 5053,
      "▁ackn": 5054,
      "##@n": 5055,
      "▁altern": 5056,
      "##ieth": 5057,
      "7": 5058,
      "▁love": 5059,
      "##iologist": 5060,
      "##134": 5061,
      "##ygen": 5062,
      "▁bless": 5063,
      "▁justice": 5064,
      "##acters": 5065,
      "▁footage": 5066,
      "##k": 5067,
      "▁bro": 5068,
      "▁adh": 5069,
      "▁reaff": 5070,
      "▁passion": 5071,
      "▁202.45": 5072,
      "##quest": 5073,
      "##idd": 5074,
      "▁pho": 5075,
      "##url": 5076,
      "##ference": 5077,
      "▁renewed": 5078,
      "▁should": 5079,
      "▁03/2": 5080,
      "▁correspondence": 5081,
      "▁38": 5082,
      "##illery": 5083,
      "▁spine": 5084,
      "▁agre": 5085,
      "▁scrap": 5086,
      "▁sorry": 5087,
      "▁gloria": 5088,
      "▁jimmy": 5089,
      "▁107": 5090,
      "##oodle": 5091,
      "##church": 5092,
      "▁negotiated": 5093,
      "▁screws": 5094,
      "▁owes": 5095,
      "▁friendship": 5096,
      "▁styrofoam": 5097,
      "▁oblig": 5098,
      "▁01:14": 5099,
      "▁pipeline": 5100,
      "▁beak": 5101,
      "▁appeared": 5102,
      "##chief": 5103,
      "▁pope": 5104,
      "▁mistaken": 5105,
      "▁keral": 5106,
      "##-house": 5107,
      "##encer": 5108,
      "▁legally": 5109,
      "##lik": 5110,
      "##****************": 5111,
      "▁tip": 5112,
      "▁charles": 5113,
      "▁brutal": 5114,
      "▁circumstances": 5115,
      "##li": 5116,
      "▁residential": 5117,
      "▁bother": 5118,
      "▁hurts": 5119,
      "##mann": 5120,
      "▁connections": 5121,
      "▁reimbur": 5122,
      "▁justification": 5123,
      "▁ele": 5124,
      "▁labour": 5125,
      "##isb": 5126,
      "▁rain": 5127,
      "▁emperor": 5128,
      "▁3:00": 5129,
      "▁recommended": 5130,
      "▁under": 5131,
      "##ocol": 5132,
      "##naissance": 5133,
      "▁24": 5134,
      "▁jove": 5135,
      "▁lap": 5136,
      "▁02/27/2001": 5137,
      "▁woods": 5138,
      "##len": 5139,
      "▁plate": 5140,
      "▁scrape": 5141,
      "▁feeding": 5142,
      "##vi": 5143,
      "▁kat": 5144,
      "▁adults": 5145,
      "▁versa": 5146,
      "▁pitch": 5147,
      "▁revis": 5148,
      "▁slic": 5149,
      "▁trop": 5150,
      "▁fing": 5151,
      "▁guerrillas": 5152,
      "▁does": 5153,
      "▁21,000": 5154,
      "▁mason": 5155,
      "n": 5156,
      "▁injury": 5157,
      "▁dav": 5158,
      "##2/2001": 5159,
      "▁will": 5160,
      "▁igu": 5161,
      "▁selected": 5162,
      "▁1986": 5163,
      "▁{": 5164,
      "▁policing": 5165,
      "▁stress": 5166,
      "▁syri": 5167,
      "▁carne": 5168,
      "##unition": 5169,
      "▁disappear": 5170,
      "▁dickens": 5171,
      "▁reduces": 5172,
      "▁grain": 5173,
      "▁15th": 5174,
      "▁earthworms": 5175,
      "▁hardest": 5176,
      "##lect": 5177,
      "##-a": 5178,
      "▁expect": 5179,
      "▁gathering": 5180,
      "##agi": 5181,
      "▁fell": 5182,
      "▁improved": 5183,
      "##:07": 5184,
      "▁lawyers": 5185,
      "▁initial": 5186,
      "▁supernatural": 5187,
      "▁remember": 5188,
      "▁protected": 5189,
      "##ful": 5190,
      "▁limous": 5191,
      "##-by": 5192,
      "▁hur": 5193,
      "##15": 5194,
      "▁eval": 5195,
      "##isms": 5196,
      "▁sacred": 5197,
      "##al.doc": 5198,
      "▁spiritual": 5199,
      "##...@gmail.com": 5200,
      "▁revision": 5201,
      "▁left": 5202,
      "▁resil": 5203,
      "▁promotion": 5204,
      "▁habitat": 5205,
      "▁informative": 5206,
      "##occo": 5207,
      "##'t": 5208,
      "▁ac": 5209,
      "▁hibern": 5210,
      "▁mushroom": 5211,
      "▁consequently": 5212,
      "▁ste": 5213,
      "▁area": 5214,
      "##-8031": 5215,
      "##-01": 5216,
      "▁variation": 5217,
      "##bun": 5218,
      "▁vent": 5219,
      "▁everyday": 5220,
      "▁obama": 5221,
      "▁morning": 5222,
      "##12": 5223,
      "▁microw": 5224,
      "▁crust": 5225,
      "▁transactions": 5226,
      "##ocks": 5227,
      "##hire": 5228,
      "▁happier": 5229,
      "▁conducted": 5230,
      "▁following": 5231,
      "▁eastern": 5232,
      "▁delhi": 5233,
      "##ender": 5234,
      "▁scrut": 5235,
      "▁reaching": 5236,
      "▁watch": 5237,
      "▁05/01/2001": 5238,
      "▁sla": 5239,
      "##ated": 5240,
      "▁http": 5241,
      "▁journ": 5242,
      "▁before": 5243,
      "##~": 5244,
      "▁barn": 5245,
      "▁remarks": 5246,
      "▁pending": 5247,
      "▁07/14/2000": 5248,
      "▁1.3": 5249,
      "▁faculty": 5250,
      "▁squirt": 5251,
      "##ye": 5252,
      "▁paste": 5253,
      "▁lb": 5254,
      "▁feather": 5255,
      "▁tik": 5256,
      "▁generous": 5257,
      "##book": 5258,
      "##asts": 5259,
      "▁wildlife": 5260,
      "▁fish": 5261,
      "##ountry": 5262,
      "##fer": 5263,
      "▁naked": 5264,
      "▁flirt": 5265,
      "##berts": 5266,
      "##igs": 5267,
      "▁vogelaviatiola": 5268,
      "▁prototy": 5269,
      "▁ketchup": 5270,
      "▁nas": 5271,
      "▁payments": 5272,
      "▁muslims": 5273,
      "▁ins": 5274,
      "▁touch": 5275,
      "▁murderer": 5276,
      "]": 5277,
      "▁assessing": 5278,
      "##pg": 5279,
      "▁twelve": 5280,
      "▁10:5": 5281,
      "▁looks": 5282,
      "▁pair": 5283,
      "▁sup": 5284,
      "▁evaluation": 5285,
      "▁cord": 5286,
      "▁higu": 5287,
      "▁symbol": 5288,
      "▁researchers": 5289,
      "##lands": 5290,
      "▁entrepreneurial": 5291,
      "▁rescued": 5292,
      "▁pricing": 5293,
      "▁learned": 5294,
      "▁here": 5295,
      "▁seated": 5296,
      "▁june": 5297,
      "▁adaptation": 5298,
      "##ibility": 5299,
      "##-5": 5300,
      "▁struggle": 5301,
      "▁575": 5302,
      "▁bitter": 5303,
      "▁intention": 5304,
      "▁nik": 5305,
      "▁ł": 5306,
      "▁taper": 5307,
      "##hear": 5308,
      "▁yi": 5309,
      "##****": 5310,
      "▁knowledgeable": 5311,
      "▁columbus": 5312,
      "▁focusing": 5313,
      "##.gov": 5314,
      "▁top": 5315,
      "##cum": 5316,
      "▁pow": 5317,
      "▁718": 5318,
      "▁relief": 5319,
      "$": 5320,
      "##ued": 5321,
      "▁197": 5322,
      "▁start": 5323,
      "▁support": 5324,
      "▁sweetie": 5325,
      "▁expressed": 5326,
      "##2951_": 5327,
      "▁supposedly": 5328,
      "##-991-90": 5329,
      "▁submitted": 5330,
      "##ale": 5331,
      "##sheet": 5332,
      "##ues": 5333,
      "##pe": 5334,
      "▁fest": 5335,
      "▁scheduled": 5336,
      "▁requires": 5337,
      "▁etc.": 5338,
      "▁census": 5339,
      "##killed": 5340,
      "▁coach": 5341,
      "▁continues": 5342,
      "▁honesty": 5343,
      "▁partic": 5344,
      "▁contacted": 5345,
      "▁crime": 5346,
      "##liers": 5347,
      "▁allow": 5348,
      "▁mayonna": 5349,
      "##ner": 5350,
      "▁emissions": 5351,
      "▁fry": 5352,
      "▁barrel": 5353,
      "▁bold": 5354,
      "▁gag": 5355,
      "▁interests": 5356,
      "▁suspic": 5357,
      "##equ": 5358,
      "v": 5359,
      "▁houses": 5360,
      "▁phoebe": 5361,
      "##c": 5362,
      "▁cart": 5363,
      "▁searches": 5364,
      "▁elk": 5365,
      "##zed": 5366,
      "▁713-646-3393": 5367,
      "##.85": 5368,
      "##more": 5369,
      "▁alternatives": 5370,
      "▁dennis": 5371,
      "▁pile": 5372,
      "##iences": 5373,
      "##rs": 5374,
      "▁researching": 5375,
      "▁toast": 5376,
      "▁uses": 5377,
      "▁&amp": 5378,
      "▁fighter": 5379,
      "##par": 5380,
      "##ahar": 5381,
      "##eries": 5382,
      "##gamer": 5383,
      "▁expon": 5384,
      "▁190": 5385,
      "##town": 5386,
      "▁staying": 5387,
      "▁zeus": 5388,
      "[PAD]": 5389,
      "▁eczema": 5390,
      "▁shep": 5391,
      "▁arab": 5392,
      "▁yelling": 5393,
      "▁buenos": 5394,
      "##ization": 5395,
      "▁rides": 5396,
      "▁opening": 5397,
      "▁rome": 5398,
      "▁continuing": 5399,
      "▁sput": 5400,
      "▁lisa": 5401,
      "▁08/16": 5402,
      "▁available": 5403,
      "▁robot": 5404,
      "▁aw": 5405,
      "▁hitting": 5406,
      "##apsed": 5407,
      "▁ancient": 5408,
      "▁ano": 5409,
      "▁dutch": 5410,
      "##谿": 5411,
      "▁75": 5412,
      "▁photographs": 5413,
      "▁horsie": 5414,
      "▁pon": 5415,
      "▁citizens": 5416,
      "##illing": 5417,
      "▁congratulate": 5418,
      "▁hod": 5419,
      "▁510-642": 5420,
      "▁dale": 5421,
      "▁carrot": 5422,
      "▁wif": 5423,
      "▁programs": 5424,
      "▁travelers": 5425,
      "##shire": 5426,
      "▁volunteers": 5427,
      "▁wiz": 5428,
      "▁enrich": 5429,
      "##icide": 5430,
      "▁tells": 5431,
      "▁fears": 5432,
      "▁francisco": 5433,
      "▁survived": 5434,
      "▁mute": 5435,
      "##chant": 5436,
      "▁flau": 5437,
      "▁reviews": 5438,
      "▁stories": 5439,
      "▁opinion": 5440,
      "▁dirt": 5441,
      "##bage": 5442,
      "▁together": 5443,
      "##orie": 5444,
      "▁soften": 5445,
      "▁spiral": 5446,
      "##bing": 5447,
      "▁principle": 5448,
      "##.1234": 5449,
      "▁antique": 5450,
      "▁glitter": 5451,
      "▁splend": 5452,
      "▁syria": 5453,
      "▁upd": 5454,
      "▁relying": 5455,
      "▁absent": 5456,
      "▁establishments": 5457,
      "▁integr": 5458,
      "##the": 5459,
      "▁financially": 5460,
      "##ev": 5461,
      "▁club": 5462,
      "▁n-": 5463,
      "▁goose": 5464,
      "##iri": 5465,
      "▁soldiers": 5466,
      "##:15": 5467,
      "▁405": 5468,
      "##entary": 5469,
      "##uing": 5470,
      "##lel": 5471,
      "▁distingu": 5472,
      "▁20th": 5473,
      "▁64": 5474,
      "▁susan": 5475,
      "##iguing": 5476,
      "▁kn": 5477,
      "▁see": 5478,
      "▁london": 5479,
      "樋": 5480,
      "▁animation": 5481,
      "▁carib": 5482,
      "▁vulnerable": 5483,
      "▁appliances": 5484,
      "▁grind": 5485,
      "▁picking": 5486,
      "▁conj": 5487,
      "▁faint": 5488,
      "##isco": 5489,
      "▁look": 5490,
      "▁never": 5491,
      "▁funds": 5492,
      "##amus": 5493,
      "▁interven": 5494,
      "##zz": 5495,
      "▁bm": 5496,
      "##71": 5497,
      "▁thousand": 5498,
      "▁_________________________________": 5499,
      "##ada": 5500,
      "▁erase": 5501,
      "▁kitch": 5502,
      "##ending": 5503,
      "▁wilder": 5504,
      "▁groom": 5505,
      "▁5:00": 5506,
      "##aria": 5507,
      "▁10:00": 5508,
      "▁1972": 5509,
      "▁jugg": 5510,
      "##aneously": 5511,
      "▁lazy": 5512,
      "▁wildcard": 5513,
      "▁consequ": 5514,
      "▁cinc": 5515,
      "▁usa": 5516,
      "▁beast": 5517,
      "▁breeding": 5518,
      "▁spreadsheet": 5519,
      "▁stup": 5520,
      "▁13": 5521,
      "▁argued": 5522,
      "##viat": 5523,
      "▁che": 5524,
      "▁pin": 5525,
      "##i": 5526,
      "▁broad": 5527,
      "▁considered": 5528,
      "▁fragile": 5529,
      "▁potential": 5530,
      "##ult": 5531,
      "▁governments": 5532,
      "##109": 5533,
      "##erina": 5534,
      "▁trad": 5535,
      "##=1": 5536,
      "▁circuit": 5537,
      "▁hermione": 5538,
      "▁days": 5539,
      "##en.": 5540,
      "##igr": 5541,
      "▁gand": 5542,
      "##being": 5543,
      "▁dining": 5544,
      "▁traged": 5545,
      "▁absol": 5546,
      "▁as": 5547,
      "▁contr": 5548,
      "▁onions": 5549,
      "▁palestine": 5550,
      "▁pointed": 5551,
      "▁tracks": 5552,
      "▁end": 5553,
      "##bles": 5554,
      "##_1": 5555,
      "▁92": 5556,
      "▁stronger": 5557,
      "▁actions": 5558,
      "▁respectfully": 5559,
      "&": 5560,
      "▁impossible": 5561,
      "▁filters": 5562,
      "▁deny": 5563,
      "▁percentage": 5564,
      "##bow": 5565,
      "##kong": 5566,
      "##ploy": 5567,
      "▁harmony": 5568,
      "▁canadian": 5569,
      "▁l'enf": 5570,
      "▁dorm": 5571,
      "##uring": 5572,
      "▁acceptable": 5573,
      "▁1966": 5574,
      "##d": 5575,
      "▁jill": 5576,
      "▁aust": 5577,
      "▁august": 5578,
      "▁hed": 5579,
      "▁em": 5580,
      "##atom": 5581,
      "##oration": 5582,
      "▁weap": 5583,
      "▁ic": 5584,
      "▁sneak": 5585,
      "▁ruy": 5586,
      "##yahoo": 5587,
      "▁explained": 5588,
      "▁invol": 5589,
      "▁ado": 5590,
      "▁obst": 5591,
      "##ark": 5592,
      "▁locomotive": 5593,
      "▁trucks": 5594,
      "▁enov": 5595,
      "▁satanism": 5596,
      "▁impartial": 5597,
      "▁eligible": 5598,
      "##ay": 5599,
      "##uent": 5600,
      "▁train": 5601,
      "▁knowledg": 5602,
      "▁exciting": 5603,
      "##rition": 5604,
      "##ago": 5605,
      "▁347": 5606,
      "▁dc": 5607,
      "▁indeed": 5608,
      "▁immediately": 5609,
      "##ensible": 5610,
      "▁potentially": 5611,
      "▁corp.": 5612,
      "##cill": 5613,
      "##@p": 5614,
      "##ship": 5615,
      "▁applying": 5616,
      "▁pian": 5617,
      "##osing": 5618,
      "▁behav": 5619,
      "▁walker": 5620,
      "▁opera": 5621,
      "▁needles": 5622,
      "▁loans": 5623,
      "▁go": 5624,
      "▁stated": 5625,
      "##eenth": 5626,
      "##power": 5627,
      "▁chip": 5628,
      "▁goodness": 5629,
      "▁dame": 5630,
      "##ech": 5631,
      "▁laundry": 5632,
      "▁poster": 5633,
      "##hold": 5634,
      "▁-----------------------------------------------------------------": 5635,
      "▁gates": 5636,
      "##ors": 5637,
      "##ify": 5638,
      "▁bath+room": 5639,
      "##ption": 5640,
      "?": 5641,
      "▁hide": 5642,
      "▁spells": 5643,
      "▁rel": 5644,
      "▁safe": 5645,
      "##weight": 5646,
      "##ively": 5647,
      "▁mother": 5648,
      "##iro": 5649,
      "▁81": 5650,
      "▁forecast": 5651,
      "##cliff": 5652,
      "▁surrounded": 5653,
      "▁attach": 5654,
      "▁kent": 5655,
      "▁neighbors": 5656,
      "▁count": 5657,
      "▁satisfy": 5658,
      "▁ronald": 5659,
      "▁mt": 5660,
      "▁conserv": 5661,
      "##mine": 5662,
      "##/13/2001": 5663,
      "##aurs": 5664,
      "##:0": 5665,
      "▁correct": 5666,
      "##rella": 5667,
      "##ised": 5668,
      "▁hon": 5669,
      "▁traff": 5670,
      "▁kitten": 5671,
      "▁03/27/2001": 5672,
      "▁customs": 5673,
      "▁print": 5674,
      "▁delight": 5675,
      "▁**": 5676,
      "▁promising": 5677,
      "##ha": 5678,
      "▁possibility": 5679,
      "▁lor": 5680,
      "▁potato": 5681,
      "##-23": 5682,
      "▁kum": 5683,
      "▁reforms": 5684,
      "▁scream": 5685,
      "▁kwok": 5686,
      "▁alignment": 5687,
      "▁encourage": 5688,
      "▁tasting": 5689,
      "▁tana": 5690,
      "…": 5691,
      "▁spir": 5692,
      "▁breach": 5693,
      "▁actual": 5694,
      "▁1999": 5695,
      "▁casual": 5696,
      "▁taj": 5697,
      "▁called": 5698,
      "▁asking": 5699,
      "▁departures": 5700,
      "▁33": 5701,
      "▁inex": 5702,
      "▁related": 5703,
      "▁terms": 5704,
      "##vers": 5705,
      "▁unf": 5706,
      "▁several": 5707,
      "▁chairman": 5708,
      "▁town": 5709,
      "▁taught": 5710,
      "▁pupp": 5711,
      "▁cases": 5712,
      "▁hockey": 5713,
      "▁casc": 5714,
      "▁paint": 5715,
      "##uel": 5716,
      "▁journal": 5717,
      "##thy": 5718,
      "##erald": 5719,
      "▁compound": 5720,
      "▁mathemat": 5721,
      "▁bump": 5722,
      "▁spaces": 5723,
      "##alph": 5724,
      "▁jersey": 5725,
      "▁sword": 5726,
      "▁8:00": 5727,
      "##year": 5728,
      "▁1987": 5729,
      "##aster": 5730,
      "▁terry": 5731,
      "▁tri": 5732,
      "##r": 5733,
      "▁branch": 5734,
      "##eland": 5735,
      "▁donkey": 5736,
      "▁1926": 5737,
      "##ante": 5738,
      "▁perfection": 5739,
      "▁common": 5740,
      "▁cass": 5741,
      "##istor": 5742,
      "▁accuracy": 5743,
      "##oved": 5744,
      "▁responded": 5745,
      "▁china": 5746,
      "▁dl": 5747,
      "▁5th": 5748,
      "▁ce": 5749,
      "▁proportion": 5750,
      "##jamas": 5751,
      "##.co": 5752,
      "##61": 5753,
      "##oking": 5754,
      "##enders": 5755,
      "▁impl": 5756,
      "▁extensible": 5757,
      "▁title": 5758,
      "##inary": 5759,
      "▁stops": 5760,
      "▁games": 5761,
      "##“": 5762,
      "▁outf": 5763,
      "##olit": 5764,
      "▁renaissance": 5765,
      "▁remarkably": 5766,
      "##itter": 5767,
      "▁thereby": 5768,
      "▁vcu": 5769,
      "▁spider": 5770,
      "##arch": 5771,
      "▁marking": 5772,
      "▁burden": 5773,
      "▁places": 5774,
      "▁cas": 5775,
      "▁169": 5776,
      "▁kiss": 5777,
      "▁ak": 5778,
      "##unk": 5779,
      "##ne": 5780,
      "##omend": 5781,
      "##ings.com": 5782,
      "▁difficult": 5783,
      "▁additional": 5784,
      "▁legit": 5785,
      "##.3": 5786,
      "▁incentives": 5787,
      "##lest": 5788,
      "▁dollars": 5789,
      "▁crowds": 5790,
      "▁y": 5791,
      "▁obl": 5792,
      "##nedy": 5793,
      "▁fired": 5794,
      "▁emily": 5795,
      "▁negotiation": 5796,
      "▁doctr": 5797,
      "▁hagrid": 5798,
      "▁negotiating": 5799,
      "▁recover": 5800,
      "▁sov": 5801,
      "▁330": 5802,
      "▁bon": 5803,
      "##oupe": 5804,
      "▁vivid": 5805,
      "▁carroll": 5806,
      "▁wire": 5807,
      "▁addresses": 5808,
      "##:40": 5809,
      "▁applicable": 5810,
      "▁nandakke": 5811,
      "##bee": 5812,
      "##assing": 5813,
      "▁brothers": 5814,
      "▁sugar": 5815,
      "##wa": 5816,
      "▁wrestle": 5817,
      "▁earthqu": 5818,
      "▁summer": 5819,
      "▁evolving": 5820,
      "▁radi": 5821,
      "##les": 5822,
      "##0s": 5823,
      "##ughters": 5824,
      "##cal": 5825,
      "▁transferred": 5826,
      "▁free": 5827,
      "##iped": 5828,
      "▁behind": 5829,
      "##nondelibreat": 5830,
      "▁something": 5831,
      "▁ris": 5832,
      "l": 5833,
      "▁ay": 5834,
      "▁06/01/2001": 5835,
      "##acles": 5836,
      "▁arguments": 5837,
      "##acam": 5838,
      "▁fellows": 5839,
      "▁flav": 5840,
      "##boy": 5841,
      "▁advis": 5842,
      "▁highlighted": 5843,
      "▁headaches": 5844,
      "▁snuffy": 5845,
      "▁buddhist": 5846,
      "▁cartoon": 5847,
      "▁sick": 5848,
      "▁belie": 5849,
      "▁kath": 5850,
      "▁:)": 5851,
      "▁spong": 5852,
      "##emies": 5853,
      "▁sharing": 5854,
      "▁樋口": 5855,
      "▁national": 5856,
      "▁mal": 5857,
      "##am": 5858,
      "▁ordered": 5859,
      "▁damage": 5860,
      "##ug": 5861,
      "▁08": 5862,
      "▁forster@enron": 5863,
      "▁optional": 5864,
      "▁blow": 5865,
      "▁endang": 5866,
      "##iterranean": 5867,
      "▁courts": 5868,
      "▁characters": 5869,
      "##sm": 5870,
      "▁generate": 5871,
      "##oil": 5872,
      "▁porch": 5873,
      "##ror": 5874,
      "▁850": 5875,
      "▁picked": 5876,
      "▁room": 5877,
      "▁fishes": 5878,
      "##ot.com/": 5879,
      "##ackl": 5880,
      "##igned": 5881,
      "##onents": 5882,
      "▁steal": 5883,
      "##quart": 5884,
      "▁jean": 5885,
      "▁sab": 5886,
      "▁senior": 5887,
      "▁thought": 5888,
      "▁worked": 5889,
      "▁cleaned": 5890,
      "▁licensed": 5891,
      "▁fundament": 5892,
      "▁mosc": 5893,
      "▁ticket": 5894,
      "##rants": 5895,
      "▁swung": 5896,
      "##kana": 5897,
      "▁regulated": 5898,
      "▁blind": 5899,
      "##01": 5900,
      "▁witness": 5901,
      "-": 5902,
      "##aza": 5903,
      "▁dismissed": 5904,
      "▁brad": 5905,
      "##isely": 5906,
      "##room": 5907,
      "##epend": 5908,
      "▁single": 5909,
      "▁vehicle": 5910,
      "▁1928": 5911,
      "▁a1": 5912,
      "##ologically": 5913,
      "▁415.621": 5914,
      "##ches": 5915,
      "▁reference": 5916,
      "##ange": 5917,
      "##unks": 5918,
      "▁armed": 5919,
      "##dp": 5920,
      "▁minerals": 5921,
      "▁popular": 5922,
      "##clus": 5923,
      "▁dots": 5924,
      "▁merit": 5925,
      "▁girl": 5926,
      "▁manipulating": 5927,
      "▁assert": 5928,
      "+": 5929,
      "▁bookstore": 5930,
      "▁monday": 5931,
      "▁famous": 5932,
      "##.916.718": 5933,
      "▁swedish": 5934,
      "▁chips": 5935,
      "▁registration": 5936,
      "▁prot": 5937,
      "▁anc": 5938,
      "▁plug": 5939,
      "▁control": 5940,
      "▁educated": 5941,
      "▁ach": 5942,
      "##8/2001": 5943,
      "▁accur": 5944,
      "▁discomfort": 5945,
      "▁lur": 5946,
      "▁libya": 5947,
      "▁646-8420": 5948,
      "##lah": 5949,
      "▁oper": 5950,
      "▁interior": 5951,
      "##u": 5952,
      "▁29587": 5953,
      "▁anton": 5954,
      "##/7": 5955,
      "##formed": 5956,
      "##ided": 5957,
      "▁gu": 5958,
      "▁kaoshikii": 5959,
      "▁enh": 5960,
      "▁wrapped": 5961,
      "▁fri": 5962,
      "▁|": 5963,
      "▁conflicts": 5964,
      "▁spanking": 5965,
      "##oameric": 5966,
      "*": 5967,
      "##5-": 5968,
      "▁booth": 5969,
      "##terior": 5970,
      "▁sexual": 5971,
      "##iat": 5972,
      "▁wilkins": 5973,
      "▁operation": 5974,
      "##========": 5975,
      "▁wealthy": 5976,
      "▁equivalent": 5977,
      "##ammed": 5978,
      "▁conven": 5979,
      "▁dall": 5980,
      "▁patron": 5981,
      "##ru": 5982,
      "▁helicopter": 5983,
      "##irs": 5984,
      "##dy": 5985,
      "▁owned": 5986,
      "▁********": 5987,
      "▁junk": 5988,
      "▁tires": 5989,
      "▁pic": 5990,
      "##utes": 5991,
      "–": 5992,
      "▁harp": 5993,
      "##orth": 5994,
      "▁worsh": 5995,
      "▁shakespearean": 5996,
      "▁memor": 5997,
      "▁phillip": 5998,
      "▁eleg": 5999,
      "▁torch": 6000,
      "▁mosque": 6001,
      "▁adding": 6002,
      "▁ferc": 6003,
      "▁solar": 6004,
      "##eller": 6005,
      "##orno": 6006,
      "▁fisher": 6007,
      "▁mexican": 6008,
      "##iously": 6009,
      "▁episode": 6010,
      "▁ripe": 6011,
      "▁that": 6012,
      "▁numerous": 6013,
      "##68": 6014,
      "##ing": 6015,
      "##eak": 6016,
      "▁cab": 6017,
      "▁fit": 6018,
      "▁strength": 6019,
      "##ico": 6020,
      "▁.3": 6021,
      "▁girls": 6022,
      "▁snowboard": 6023,
      "▁teen": 6024,
      "▁gl": 6025,
      "▁lack": 6026,
      "▁amidst": 6027,
      "##me": 6028,
      "▁som": 6029,
      "##bridge": 6030,
      "▁nyl": 6031,
      "▁joined": 6032,
      "▁massage": 6033,
      "##@": 6034,
      "▁frost": 6035,
      "▁flights": 6036,
      "##oth": 6037,
      "▁hardness": 6038,
      "##ear": 6039,
      "▁commun": 6040,
      "▁ambitious": 6041,
      "▁ari": 6042,
      "##earing": 6043,
      "▁sanders": 6044,
      "▁put": 6045,
      "▁–": 6046,
      "▁1724": 6047,
      "▁proclaim": 6048,
      "▁disco": 6049,
      "▁quinoa": 6050,
      "²": 6051,
      "▁gw": 6052,
      "##.edu/": 6053,
      "##onc": 6054,
      "▁initiative": 6055,
      "▁page": 6056,
      "##resp": 6057,
      "▁inher": 6058,
      "▁1245": 6059,
      "##vid": 6060,
      "▁sou": 6061,
      "▁scores": 6062,
      "▁silkies": 6063,
      "▁gonzales": 6064,
      "▁814014": 6065,
      "▁gotten": 6066,
      "▁80435": 6067,
      "##cing": 6068,
      "##2-": 6069,
      "▁blanche": 6070,
      "##gig": 6071,
      "▁harv": 6072,
      "▁torrance": 6073,
      "▁bwi": 6074,
      "▁newsgroup": 6075,
      "▁publishing": 6076,
      "##unte": 6077,
      "##lace": 6078,
      "▁advantages": 6079,
      "▁destiny": 6080,
      "▁quarter": 6081,
      "▁powell": 6082,
      "山": 6083,
      "▁marcel": 6084,
      "▁proceedings": 6085,
      "▁floyd": 6086,
      "▁prel": 6087,
      "▁linguistic": 6088,
      "▁spark": 6089,
      "▁refugee": 6090,
      "▁thoughts": 6091,
      "▁fled": 6092,
      "▁null": 6093,
      "▁arts": 6094,
      "##opoly": 6095,
      "▁bearded": 6096,
      "▁invite": 6097,
      "▁adapt": 6098,
      "▁bees": 6099,
      "▁patrons": 6100,
      "▁conclusion": 6101,
      "▁fir": 6102,
      "▁place": 6103,
      "▁3,202.61": 6104,
      "▁democrat": 6105,
      "##big": 6106,
      "▁£": 6107,
      "▁jwww": 6108,
      "##inity": 6109,
      "▁outcomes": 6110,
      "▁artists": 6111,
      "▁lugg": 6112,
      "▁hardly": 6113,
      "##uum": 6114,
      "##-780": 6115,
      "▁licens": 6116,
      "##is_0712": 6117,
      "▁pounds": 6118,
      "▁non": 6119,
      "▁pollution": 6120,
      "▁bioch": 6121,
      "▁site": 6122,
      "▁six": 6123,
      "▁overt": 6124,
      "▁weeds": 6125,
      "▁cir": 6126,
      "▁attem": 6127,
      "▁owls": 6128,
      "▁tighten": 6129,
      "▁tensions": 6130,
      "▁backwards": 6131,
      "q": 6132,
      "▁thanks": 6133,
      "▁truly": 6134,
      "▁mathematic": 6135,
      "▁theropod": 6136,
      "##leon": 6137,
      "▁hesitate": 6138,
      "▁agreed": 6139,
      "▁978": 6140,
      "▁geomet": 6141,
      "▁airlines": 6142,
      "▁exceed": 6143,
      "▁broadcasting": 6144,
      "##teboo": 6145,
      "▁05": 6146,
      "##ategy": 6147,
      "##/1": 6148,
      "▁graphic": 6149,
      "▁aladar": 6150,
      "▁932": 6151,
      "▁claws": 6152,
      "▁reasoned": 6153,
      "##β": 6154,
      "▁defence": 6155,
      "##ittal": 6156,
      "##rence": 6157,
      "▁natural": 6158,
      "œ": 6159,
      "▁calm": 6160,
      "▁viewed": 6161,
      "▁fungus": 6162,
      "▁hearing": 6163,
      "▁celebrated": 6164,
      "▁vie": 6165,
      "▁sac": 6166,
      "▁88": 6167,
      "▁society": 6168,
      "▁mexico": 6169,
      "▁parts": 6170,
      "##enses": 6171,
      "▁foo": 6172,
      "▁custom": 6173,
      "##eurs": 6174,
      "▁dealt": 6175,
      "▁ind": 6176,
      "▁leonardo": 6177,
      "[UNK]": 6178,
      "##51": 6179,
      "▁ladies": 6180,
      "▁extension": 6181,
      "▁thames": 6182,
      "▁constantly": 6183,
      "##ashed": 6184,
      "##ream": 6185,
      "##ructive": 6186,
      "▁55": 6187,
      "▁currently": 6188,
      "▁tail": 6189,
      "▁entire": 6190,
      "##play": 6191,
      "▁christopher": 6192,
      "▁waited": 6193,
      "##ore": 6194,
      "##ribe": 6195,
      "▁wed": 6196,
      "▁30,000": 6197,
      "▁upon": 6198,
      "▁inventory": 6199,
      "##rid": 6200,
      "▁atroph": 6201,
      "▁bang": 6202,
      "▁produces": 6203,
      "▁sale": 6204,
      "▁cross-sectional": 6205,
      "▁04:17": 6206,
      "▁sain": 6207,
      "▁gramm": 6208,
      "▁ruled": 6209,
      "▁sounds": 6210,
      "▁event": 6211,
      "▁warfare": 6212,
      "##word": 6213,
      "▁tap": 6214,
      "▁feathers": 6215,
      "▁tooth": 6216,
      "▁receipt": 6217,
      "▁1616": 6218,
      "▁campaigns": 6219,
      "▁defense": 6220,
      "##ks": 6221,
      "▁snap": 6222,
      "▁gift": 6223,
      "▁indefin": 6224,
      "▁students": 6225,
      "▁sett": 6226,
      "▁judge": 6227,
      "▁included": 6228,
      "▁77": 6229,
      "▁das": 6230,
      "▁pronunciation": 6231,
      "▁remarkable": 6232,
      "##onto": 6233,
      "▁paniotis": 6234,
      "##ondon": 6235,
      "▁aut": 6236,
      "▁cu": 6237,
      "##unications": 6238,
      "▁vulner": 6239,
      "##avian": 6240,
      "▁compassion": 6241,
      "▁painted": 6242,
      "##ng": 6243,
      "▁musician": 6244,
      "▁uniquely": 6245,
      "ł": 6246,
      "▁e-m": 6247,
      "##ruct": 6248,
      "▁funct": 6249,
      "▁ahead": 6250,
      "▁reporting": 6251,
      "▁102": 6252,
      "▁directives": 6253,
      "▁grape": 6254,
      "▁d": 6255,
      "▁running": 6256,
      "▁1689": 6257,
      "▁mud": 6258,
      "▁indef": 6259,
      "##.doc": 6260,
      "##aa": 6261,
      "▁organizing": 6262,
      "##/d": 6263,
      "##cast": 6264,
      "▁snitch": 6265,
      "▁bagh": 6266,
      "▁fountain": 6267,
      "##isan": 6268,
      "▁tut": 6269,
      "##bers": 6270,
      "▁roles": 6271,
      "▁lag": 6272,
      "▁brenner": 6273,
      "▁scanning": 6274,
      "##ll": 6275,
      "##xy": 6276,
      "▁effective": 6277,
      "##0072": 6278,
      "##ector": 6279,
      "▁undergraduate": 6280,
      "▁unhappy": 6281,
      "▁greg": 6282,
      "▁drying": 6283,
      "##ε": 6284,
      "▁cris": 6285,
      "▁diver": 6286,
      "▁ger": 6287,
      "▁prov": 6288,
      "▁consequence": 6289,
      "▁empirical": 6290,
      "##herd": 6291,
      "▁….": 6292,
      "▁lott": 6293,
      "▁adequately": 6294,
      "▁1902": 6295,
      "▁understands": 6296,
      "▁proceeds": 6297,
      "▁baath": 6298,
      "▁vegetarian": 6299,
      "▁female": 6300,
      "▁46": 6301,
      "▁dy": 6302,
      "▁253": 6303,
      "▁levels": 6304,
      "▁deer": 6305,
      "▁lightning": 6306,
      "▁range": 6307,
      "##act": 6308,
      "▁chief": 6309,
      "▁skitt": 6310,
      "▁creature": 6311,
      "▁ft.": 6312,
      "▁labor": 6313,
      "##fore": 6314,
      "▁moisture": 6315,
      "▁broker": 6316,
      "##ibly": 6317,
      "▁permits": 6318,
      "▁productivity": 6319,
      "▁peanuts": 6320,
      "##ination": 6321,
      "▁throu": 6322,
      "##0295": 6323,
      "##况": 6324,
      "##akk": 6325,
      "▁chair": 6326,
      "▁constituency": 6327,
      "▁bit": 6328,
      "▁buy": 6329,
      "▁pict": 6330,
      "▁meth": 6331,
      "▁risk": 6332,
      "##ury": 6333,
      "##odox": 6334,
      "▁tunisia": 6335,
      "▁nope": 6336,
      "▁☎": 6337,
      "▁": 6338,
      "▁beneath": 6339,
      "▁demonstrates": 6340,
      "▁corner": 6341,
      "▁bull": 6342,
      "▁....": 6343,
      "▁compli": 6344,
      "##boats": 6345,
      "ɛ": 6346,
      "##like": 6347,
      "##uf": 6348,
      "##gl": 6349,
      "▁compensate": 6350,
      "▁saved": 6351,
      "▁fluid": 6352,
      "▁---------------------------------------------------------------------------": 6353,
      "▁acquisition": 6354,
      "▁securing": 6355,
      "▁646-84": 6356,
      "##bling": 6357,
      "▁colon": 6358,
      "##b": 6359,
      "##is_0": 6360,
      "▁choices": 6361,
      "▁sic": 6362,
      "##etically": 6363,
      "▁lind": 6364,
      "▁ess": 6365,
      "▁knight": 6366,
      "##vas": 6367,
      "▁forever": 6368,
      "##~*~*~*~*": 6369,
      "▁biod": 6370,
      "▁nancy": 6371,
      "##verance": 6372,
      "##err": 6373,
      "▁conditional": 6374,
      "▁prob": 6375,
      "▁1829": 6376,
      "▁sees": 6377,
      "##-nine": 6378,
      "▁travis": 6379,
      "▁wherever": 6380,
      "##ce": 6381,
      "ʻ": 6382,
      "▁baltimore": 6383,
      "▁th": 6384,
      "▁playwright": 6385,
      "▁overwh": 6386,
      "##ly": 6387,
      "##water": 6388,
      "▁popcorn": 6389,
      "##books": 6390,
      "▁corners": 6391,
      "##igh": 6392,
      "▁nasa": 6393,
      "▁mil": 6394,
      "▁attorn": 6395,
      "▁boyfriend": 6396,
      "▁mainly": 6397,
      "▁conspir": 6398,
      "▁technique": 6399,
      "##.782": 6400,
      "▁repe": 6401,
      "▁esther": 6402,
      "▁term": 6403,
      "▁extent": 6404,
      "▁colonel": 6405,
      "▁christoph": 6406,
      "▁annoying": 6407,
      "▁curtain": 6408,
      "▁propose": 6409,
      "▁62": 6410,
      "▁phone": 6411,
      "▁musharraf": 6412,
      "▁symph": 6413,
      "▁^_^": 6414,
      "▁virtually": 6415,
      "▁saitama": 6416,
      "▁vanished": 6417,
      "▁certificate": 6418,
      "▁exception": 6419,
      "▁interviews": 6420,
      "▁rec": 6421,
      "▁phys": 6422,
      "▁starts": 6423,
      "▁multiply": 6424,
      "▁1998": 6425,
      "▁it's": 6426,
      "▁p.m.": 6427,
      "▁sm": 6428,
      "▁disclaim": 6429,
      "▁fal": 6430,
      "▁mccartney": 6431,
      "▁electric": 6432,
      "##born": 6433,
      "▁screwdriver": 6434,
      "▁approximately": 6435,
      "▁asserted": 6436,
      "##.com/": 6437,
      "▁713-654-": 6438,
      "▁punct": 6439,
      "▁youth": 6440,
      "##olyn": 6441,
      "▁.........": 6442,
      "##:03": 6443,
      "▁covid": 6444,
      "▁school": 6445,
      "▁restaurant": 6446,
      "▁chocolate": 6447,
      "▁bleachers": 6448,
      "▁1592": 6449,
      "##rane": 6450,
      "▁calculations": 6451,
      "▁scam": 6452,
      "##0th": 6453,
      "▁44,000": 6454,
      "▁bay": 6455,
      "▁bite": 6456,
      "▁compreh": 6457,
      "▁stood": 6458,
      "▁trump": 6459,
      "##usc": 6460,
      "▁candidates": 6461,
      "▁manufactured": 6462,
      "▁briefly": 6463,
      "▁renata": 6464,
      "▁prey": 6465,
      "▁tatt": 6466,
      "▁bill": 6467,
      "▁transmitted": 6468,
      "▁120,000": 6469,
      "▁join": 6470,
      "▁sleeves": 6471,
      "##eness": 6472,
      "▁cos": 6473,
      "▁mare": 6474,
      "▁8": 6475,
      "##-r": 6476,
      "▁hugh": 6477,
      "α": 6478,
      "▁oct.": 6479,
      "▁devised": 6480,
      "▁shovel": 6481,
      "▁designed": 6482,
      "##a.": 6483,
      "▁1957": 6484,
      "##icy": 6485,
      "▁lean": 6486,
      "##ates": 6487,
      "▁processing": 6488,
      "▁colonial": 6489,
      "##ayed": 6490,
      "##itudes": 6491,
      "▁damp": 6492,
      "▁beverage": 6493,
      "##ulated": 6494,
      "##.6": 6495,
      "▁2nd": 6496,
      "▁1307": 6497,
      "▁ordinary": 6498,
      "##1/2001": 6499,
      "▁undergrad": 6500,
      "▁sciss": 6501,
      "##rupt": 6502,
      "##20s": 6503,
      "▁suspected": 6504,
      "##lause": 6505,
      "##ri": 6506,
      "▁destruction": 6507,
      "##htub": 6508,
      "▁eco": 6509,
      "▁designer": 6510,
      "▁montejo": 6511,
      "▁power": 6512,
      "▁hel": 6513,
      "##burg": 6514,
      "▁vietnamese": 6515,
      "▁note": 6516,
      "▁rot": 6517,
      "##********": 6518,
      "##mate": 6519,
      "▁gravity": 6520,
      "▁imported": 6521,
      "##after": 6522,
      "▁being": 6523,
      "▁availability": 6524,
      "▁freely": 6525,
      "##iary": 6526,
      "##itions": 6527,
      "##/4": 6528,
      "##85": 6529,
      "▁transfer": 6530,
      "▁transaction": 6531,
      "##essive": 6532,
      "▁**********": 6533,
      "##au": 6534,
      "##uate": 6535,
      "##eff": 6536,
      "▁ornament": 6537,
      "▁lyn": 6538,
      "▁engineers": 6539,
      "▁jeff": 6540,
      "▁managing": 6541,
      "▁they": 6542,
      "▁articles": 6543,
      "▁buttered": 6544,
      "▁dust": 6545,
      "▁1993": 6546,
      "##aff": 6547,
      "##image/2005.09": 6548,
      "▁diana": 6549,
      "##oma": 6550,
      "▁mujah": 6551,
      "▁christianity": 6552,
      "▁elder": 6553,
      "▁academic": 6554,
      "▁eyes": 6555,
      "▁volley": 6556,
      "##-of": 6557,
      "▁mer": 6558,
      "##apore": 6559,
      "▁carney": 6560,
      "▁remembered": 6561,
      "▁cay": 6562,
      "▁deed": 6563,
      "▁pakistan": 6564,
      "▁unique": 6565,
      "▁figures": 6566,
      "##low": 6567,
      "▁813": 6568,
      "▁motive": 6569,
      "▁concert": 6570,
      "▁mask": 6571,
      "##se": 6572,
      "▁2050": 6573,
      "▁mayko": 6574,
      "▁constitute": 6575,
      "▁eight": 6576,
      "▁hind": 6577,
      "▁muscles": 6578,
      "▁2004": 6579,
      "▁nante": 6580,
      "▁columns": 6581,
      "▁engagement": 6582,
      "▁tools": 6583,
      "▁intervention": 6584,
      "▁worker": 6585,
      "▁quant": 6586,
      "▁frisco": 6587,
      "▁6.1": 6588,
      "▁anth": 6589,
      "▁vlog": 6590,
      "▁telephones": 6591,
      "▁tire": 6592,
      "▁fourteenth": 6593,
      "▁four": 6594,
      "▁att": 6595,
      "▁elizabeth": 6596,
      "##ird": 6597,
      "▁ending": 6598,
      "▁lif": 6599,
      "##ommend": 6600,
      "▁drift": 6601,
      "▁rachel": 6602,
      "▁appearance": 6603,
      "▁kar": 6604,
      "▁aims": 6605,
      "▁angel": 6606,
      "▁80": 6607,
      "▁governor": 6608,
      "▁ansi-89": 6609,
      "▁cooker": 6610,
      "##apping": 6611,
      "▁bird": 6612,
      "##aped": 6613,
      "▁widely": 6614,
      "▁flower": 6615,
      "▁!!": 6616,
      "▁divisions": 6617,
      "▁attracting": 6618,
      "##ains": 6619,
      "[SEP]": 6620,
      "▁bright": 6621,
      "▁fore": 6622,
      "▁sox": 6623,
      "▁themes": 6624,
      "▁banking": 6625,
      "▁reviewed": 6626,
      "▁missed": 6627,
      "▁library": 6628,
      "▁hr": 6629,
      "▁1937": 6630,
      "▁enfor": 6631,
      "▁caught": 6632,
      "##22,000": 6633,
      "##.pdf": 6634,
      "▁grizz": 6635,
      "▁gloom": 6636,
      "▁france": 6637,
      "▁41": 6638,
      "##miss": 6639,
      "▁cried": 6640,
      "▁electricity": 6641,
      "▁slip": 6642,
      "▁continuation": 6643,
      "▁dursleys": 6644,
      "##abi": 6645,
      "##-cage": 6646,
      "##comp": 6647,
      "▁mant": 6648,
      "▁lennon": 6649,
      "##ules": 6650,
      "▁caf": 6651,
      "##hood": 6652,
      "▁mis": 6653,
      "▁header": 6654,
      "▁elimin": 6655,
      "▁leg": 6656,
      "▁----==": 6657,
      "▁11:36": 6658,
      "▁va": 6659,
      "▁mat": 6660,
      "##lyn": 6661,
      "##abled": 6662,
      "▁sustainable": 6663,
      "▁aqu": 6664,
      "▁cans": 6665,
      "▁irrele": 6666,
      "▁posters": 6667,
      "▁serpent": 6668,
      "##hast": 6669,
      "▁prim": 6670,
      "##mir": 6671,
      "▁musical": 6672,
      "##ton": 6673,
      "##priced": 6674,
      "▁museums": 6675,
      "▁en": 6676,
      "▁manif": 6677,
      "▁heavy": 6678,
      "▁laptop": 6679,
      "▁jokes": 6680,
      "▁nail": 6681,
      "▁pach": 6682,
      "▁establishing": 6683,
      "▁khins": 6684,
      "▁blown": 6685,
      "##onia": 6686,
      "▁brooklyn": 6687,
      "##eys": 6688,
      "▁resour": 6689,
      "▁mac": 6690,
      "▁impress": 6691,
      "▁house": 6692,
      "▁1910": 6693,
      "▁compensation": 6694,
      "▁mo": 6695,
      "##tsbur": 6696,
      "▁photographers": 6697,
      "##87": 6698,
      "▁influential": 6699,
      "▁vietnam": 6700,
      "▁ammunition": 6701,
      "##ulpt": 6702,
      "▁touching": 6703,
      "▁ole": 6704,
      "##ine": 6705,
      "##cab": 6706,
      "▁ob": 6707,
      "▁import": 6708,
      "▁drive": 6709,
      "▁1877": 6710,
      "▁terminal": 6711,
      "▁44": 6712,
      "##ardy": 6713,
      "▁staircase": 6714,
      "▁constant": 6715,
      "▁british": 6716,
      "##inski": 6717,
      "##eeze": 6718,
      "▁teh": 6719,
      "##using": 6720,
      "▁charity": 6721,
      "▁bench": 6722,
      "##ter": 6723,
      "##ia": 6724,
      "▁terrorists": 6725,
      "▁strings": 6726,
      "##elf": 6727,
      "▁prospect": 6728,
      "▁kitchen": 6729,
      "▁conditioning": 6730,
      "▁296": 6731,
      "##-up": 6732,
      "▁hen": 6733,
      "▁ich": 6734,
      "▁across": 6735,
      "▁strange": 6736,
      "▁edit": 6737,
      "▁remains": 6738,
      "▁silent": 6739,
      "▁flaw": 6740,
      "##station": 6741,
      "▁llms": 6742,
      "##zo": 6743,
      "##rain": 6744,
      "▁making": 6745,
      "▁infrastructure": 6746,
      "##oto": 6747,
      "▁zurbaran": 6748,
      "▁11:45": 6749,
      "▁rivers": 6750,
      "▁sweeping": 6751,
      "▁clair": 6752,
      "▁03/28/2001": 6753,
      "▁twitter": 6754,
      "▁phill": 6755,
      "##very": 6756,
      "▁zip": 6757,
      "▁locomot": 6758,
      "▁wagon": 6759,
      "▁rough": 6760,
      "▁619": 6761,
      "##ateful": 6762,
      "▁opened": 6763,
      "##~*~*": 6764,
      "▁downtown": 6765,
      "▁earth": 6766,
      "▁fin": 6767,
      "▁unknown": 6768,
      "▁orchest": 6769,
      "▁y-": 6770,
      "▁alph": 6771,
      "▁integrated": 6772,
      "##rd": 6773,
      "▁crew": 6774,
      "▁entry": 6775,
      "▁pleasant": 6776,
      "##arts": 6777,
      "▁controlling": 6778,
      "▁ont": 6779,
      "▁memphis": 6780,
      "▁figured": 6781,
      "##ky": 6782,
      "▁w3c": 6783,
      "▁aband": 6784,
      "▁used": 6785,
      "▁jam": 6786,
      "▁license": 6787,
      "▁spiderman": 6788,
      "▁veto": 6789,
      "▁aer": 6790,
      "▁limitations": 6791,
      "▁examples": 6792,
      "▁insight": 6793,
      "▁gut": 6794,
      "##plete": 6795,
      "##.co.uk": 6796,
      "▁unconsc": 6797,
      "##math": 6798,
      "##anta": 6799,
      "▁purchased": 6800,
      "▁optim": 6801,
      "##bha": 6802,
      "▁desper": 6803,
      "▁contexts": 6804,
      "##iring": 6805,
      "▁advent": 6806,
      "▁potatoes": 6807,
      "▁disorders": 6808,
      "▁distances": 6809,
      "▁ped": 6810,
      "▁guards": 6811,
      "▁shinza": 6812,
      "▁zo": 6813,
      "▁tofu": 6814,
      "▁30": 6815,
      "▁dubai": 6816,
      "▁cuba": 6817,
      "▁science": 6818,
      "▁auster": 6819,
      "▁obser": 6820,
      "##orrow": 6821,
      "##rant": 6822,
      "##er": 6823,
      "▁hoc": 6824,
      "▁financ": 6825,
      "▁travel": 6826,
      "▁wel": 6827,
      "▁counterfeiting": 6828,
      "▁hostile": 6829,
      "▁laughs": 6830,
      "▁created": 6831,
      "▁alligator": 6832,
      "ز": 6833,
      "##abel": 6834,
      "▁fame": 6835,
      "▁unfamiliar": 6836,
      "▁acknowledge": 6837,
      "▁darin": 6838,
      "▁discl": 6839,
      "▁calling": 6840,
      "▁select": 6841,
      "▁530": 6842,
      "▁pail": 6843,
      "▁throughout": 6844,
      "▁nic": 6845,
      "▁lon": 6846,
      "##fahan": 6847,
      "▁pudding": 6848,
      "▁neatly": 6849,
      "▁chantilly": 6850,
      "▁run": 6851,
      "▁her": 6852,
      "##fts": 6853,
      "▁stick": 6854,
      "##ras": 6855,
      "▁***": 6856,
      "▁dung": 6857,
      "▁switched": 6858,
      "##ual": 6859,
      "▁sink": 6860,
      "▁document": 6861,
      "▁eh": 6862,
      "▁baker": 6863,
      "▁exchanged": 6864,
      "▁m80": 6865,
      "▁subs": 6866,
      "▁plastic": 6867,
      "▁decrease": 6868,
      "▁advert": 6869,
      "##apt": 6870,
      "▁upi": 6871,
      "##ior": 6872,
      "▁migrants": 6873,
      "▁aboard": 6874,
      "▁gentleman": 6875,
      "▁life": 6876,
      "▁enterprise": 6877,
      "##nal": 6878,
      "▁origins": 6879,
      "▁referred": 6880,
      "▁verse": 6881,
      "▁abbreviation": 6882,
      "##redes": 6883,
      "▁procedures": 6884,
      "▁worse": 6885,
      "▁nonsense": 6886,
      "▁squashed": 6887,
      "▁sister": 6888,
      "##note": 6889,
      "▁10/20/2000": 6890,
      "▁ding": 6891,
      "▁backward": 6892,
      "▁khan@transredes": 6893,
      "▁shine": 6894,
      "▁slides": 6895,
      "##ims": 6896,
      "▁socotra": 6897,
      "▁unclear": 6898,
      "##22": 6899,
      "##:23": 6900,
      "##v": 6901,
      "▁provides": 6902,
      "▁spos": 6903,
      "▁coron": 6904,
      "▁pud": 6905,
      "▁http://www.4gamer.net/news/image/2005.09": 6906,
      "▁nether": 6907,
      "▁internet": 6908,
      "▁answer": 6909,
      "##8_0": 6910,
      "##rax": 6911,
      "##leg": 6912,
      "▁with": 6913,
      "▁surrender": 6914,
      "▁offer": 6915,
      "▁biden": 6916,
      "▁staff": 6917,
      "▁describes": 6918,
      "##.d.": 6919,
      "▁hole": 6920,
      "▁12:12": 6921,
      "▁compared": 6922,
      "##ottie": 6923,
      "▁benefit": 6924,
      "▁checking": 6925,
      "##cling": 6926,
      "▁uk": 6927,
      "▁funded": 6928,
      "▁katrina": 6929,
      "##29": 6930,
      "▁pu": 6931,
      "▁grilled": 6932,
      "▁independ": 6933,
      "▁979": 6934,
      "▁wanted": 6935,
      "▁obs": 6936,
      "▁infinite": 6937,
      "##six": 6938,
      "▁ought": 6939,
      "##ull": 6940,
      "##ymp": 6941,
      "▁trailer": 6942,
      "▁landscape": 6943,
      "▁thom": 6944,
      "▁susanna": 6945,
      "▁planted": 6946,
      "##31": 6947,
      "▁flakes": 6948,
      "▁plot": 6949,
      "##iss": 6950,
      "▁202.456.1414": 6951,
      "##ansion": 6952,
      "##ped": 6953,
      "▁dentist": 6954,
      "##ited": 6955,
      "##uster": 6956,
      "##/31": 6957,
      "▁whale": 6958,
      "▁shi": 6959,
      "▁ginny": 6960,
      "▁42,000": 6961,
      "▁det": 6962,
      "▁drove": 6963,
      "▁hate": 6964,
      "##kaido": 6965,
      "▁matter": 6966,
      "▁bou": 6967,
      "▁habits": 6968,
      "▁l.": 6969,
      "##iana": 6970,
      "▁bucks": 6971,
      "▁dire": 6972,
      "▁50": 6973,
      "▁continental": 6974,
      "▁motel": 6975,
      "j": 6976,
      "▁sandwiches": 6977,
      "▁so": 6978,
      "▁hards": 6979,
      "▁equals": 6980,
      "▁reasons": 6981,
      "▁post": 6982,
      "##coon": 6983,
      "▁investigation": 6984,
      "▁cat": 6985,
      "▁afraid": 6986,
      "▁slave": 6987,
      "▁tug": 6988,
      "▁conform": 6989,
      "▁bulldozer": 6990,
      "##57": 6991,
      "##stock": 6992,
      "▁sunday": 6993,
      "##ible": 6994,
      "▁terre": 6995,
      "▁fresh": 6996,
      "▁subst": 6997,
      "▁strategy": 6998,
      "▁head": 6999,
      "▁guadeloupe": 7000,
      "▁descended": 7001,
      "▁try": 7002,
      "▁pasta": 7003,
      "▁injust": 7004,
      "▁reserv": 7005,
      "▁embedded": 7006,
      "##grade": 7007,
      "▁fashion": 7008,
      "▁10:30": 7009,
      "▁gwww": 7010,
      "▁declaration": 7011,
      "▁mann": 7012,
      "▁hostess": 7013,
      "▁wellington": 7014,
      "▁impro": 7015,
      "##mon": 7016,
      "▁tru": 7017,
      "▁autof": 7018,
      "##ching": 7019,
      "▁agent": 7020,
      "▁colleagues": 7021,
      "##ested": 7022,
      "##agger": 7023,
      "▁savings": 7024,
      "##ias": 7025,
      "##bi": 7026,
      "▁rental": 7027,
      "▁implicated": 7028,
      "##verted": 7029,
      "##os.com": 7030,
      "##ationally": 7031,
      "##ippers": 7032,
      "##huh": 7033,
      "##ners": 7034,
      "▁subjected": 7035,
      "▁$": 7036,
      "##beijing": 7037,
      "▁tam": 7038,
      "▁declar": 7039,
      "▁define": 7040,
      "▁1799": 7041,
      "▁bib": 7042,
      "##people": 7043,
      "▁curry": 7044,
      "▁dollar": 7045,
      "##chester": 7046,
      "##-12": 7047,
      "▁reaches": 7048,
      "▁rathbun": 7049,
      "##worth": 7050,
      "▁group": 7051,
      "▁charl": 7052,
      "▁terrorism": 7053,
      "▁ngu": 7054,
      "##+----------------": 7055,
      "▁ruby": 7056,
      "ø": 7057,
      "▁ath": 7058,
      "▁1609": 7059,
      "▁incre": 7060,
      "▁hym": 7061,
      "▁turnpike": 7062,
      "▁front": 7063,
      "▁civet": 7064,
      "▁fruity": 7065,
      "##lib": 7066,
      "▁mosqu": 7067,
      "▁strateg": 7068,
      "▁rapidly": 7069,
      "▁signals": 7070,
      "▁08/15/2000": 7071,
      "▁window": 7072,
      "▁why": 7073,
      "▁assem": 7074,
      "▁ali": 7075,
      "▁councill": 7076,
      "##iew": 7077,
      "▁jenn": 7078,
      "##enerate": 7079,
      "##arm": 7080,
      "▁legislature": 7081,
      "##uous": 7082,
      "##ications": 7083,
      "▁rains": 7084,
      "▁donated": 7085,
      "▁models": 7086,
      "▁renting": 7087,
      "▁logical": 7088,
      "▁re-e": 7089,
      "▁neoc": 7090,
      "##entive": 7091,
      "▁one": 7092,
      "▁415.782": 7093,
      "##work": 7094,
      "▁toll": 7095,
      "▁masterpi": 7096,
      "▁missing": 7097,
      "▁programm": 7098,
      "▁2.": 7099,
      "##lev": 7100,
      "▁america": 7101,
      "##ius": 7102,
      "▁provider": 7103,
      "▁intoler": 7104,
      "▁paragraph": 7105,
      "▁row": 7106,
      "▁sidd": 7107,
      "▁radiation": 7108,
      "▁training": 7109,
      "▁brings": 7110,
      "▁initiatives": 7111,
      "▁online": 7112,
      "▁admissions": 7113,
      "##owled": 7114,
      "▁1583": 7115,
      "▁veget": 7116,
      "▁whistle": 7117,
      "▁deliberately": 7118,
      "▁muscle": 7119,
      "▁ict": 7120,
      "##04": 7121,
      "▁jerry": 7122,
      "▁suite": 7123,
      "▁accountant": 7124,
      "##osexual": 7125,
      "▁extr": 7126,
      "▁passing": 7127,
      "▁notch": 7128,
      "##:38": 7129,
      "▁ark": 7130,
      "##en": 7131,
      "▁oatmeal": 7132,
      "▁hook": 7133,
      "▁militant": 7134,
      "##doc": 7135,
      "▁predatory": 7136,
      "▁detailed": 7137,
      "▁unnecessary": 7138,
      "##how": 7139,
      "▁alth": 7140,
      "##460-3": 7141,
      "##-w": 7142,
      "▁blah": 7143,
      "▁obligations": 7144,
      "▁florence": 7145,
      "▁l": 7146,
      "▁astride": 7147,
      "▁metals": 7148,
      "▁privile": 7149,
      "▁news": 7150,
      "##la": 7151,
      "▁swept": 7152,
      "##48": 7153,
      "##juku": 7154,
      "▁golden": 7155,
      "##asters": 7156,
      "▁garbage": 7157,
      "▁proceeding": 7158,
      "▁900": 7159,
      "▁kidding": 7160,
      "##j": 7161,
      "▁motorcycle": 7162,
      "▁ji": 7163,
      "▁1589": 7164,
      "▁original": 7165,
      "▁indicated": 7166,
      "##etics": 7167,
      "▁rath": 7168,
      "▁btw": 7169,
      "##otion": 7170,
      "##mines": 7171,
      "▁insurgency": 7172,
      "▁zeal": 7173,
      "##8/2000": 7174,
      "##ana": 7175,
      "▁total": 7176,
      "▁trademark": 7177,
      "▁buses": 7178,
      "##!!!!": 7179,
      "▁eating": 7180,
      "▁written": 7181,
      "▁billion": 7182,
      "▁pennsylv": 7183,
      "▁ocean": 7184,
      "▁ted": 7185,
      "##w": 7186,
      "▁meat": 7187,
      "▁exposure": 7188,
      "▁writers": 7189,
      "▁bumpa": 7190,
      "▁respectively": 7191,
      "▁rising": 7192,
      "▁1878": 7193,
      "##iron": 7194,
      "▁burned": 7195,
      "▁reserve": 7196,
      "▁sang": 7197,
      "▁intake": 7198,
      "▁americ": 7199,
      "##iel": 7200,
      "▁yuck": 7201,
      "▁archive": 7202,
      "▁richmond": 7203,
      "▁triv": 7204,
      "▁associate": 7205,
      "▁tall": 7206,
      "##gled": 7207,
      "▁amounts": 7208,
      "▁jenna": 7209,
      "##esty": 7210,
      "▁oklahoma": 7211,
      "▁illness": 7212,
      "▁chalmers": 7213,
      "##amar": 7214,
      "▁andy": 7215,
      "##resh": 7216,
      "▁1890": 7217,
      "##yan": 7218,
      "▁unple": 7219,
      "▁manual": 7220,
      "▁provision": 7221,
      "▁battle": 7222,
      "€": 7223,
      "▁sam": 7224,
      "▁mailto": 7225,
      "▁weas": 7226,
      "##301": 7227,
      "▁aka": 7228,
      "▁timer": 7229,
      "▁tant": 7230,
      "▁radio": 7231,
      "▁04:": 7232,
      "▁1959": 7233,
      "▁corporations": 7234,
      "▁males": 7235,
      "##inny": 7236,
      "▁albania": 7237,
      "▁sonnets": 7238,
      "▁glob": 7239,
      "##.go": 7240,
      "##self": 7241,
      "▁leopold": 7242,
      "▁crane": 7243,
      "▁moscow": 7244,
      "▁beaver": 7245,
      "▁1800": 7246,
      "##anes": 7247,
      "▁woman": 7248,
      "▁struggling": 7249,
      "##sole": 7250,
      "▁hanging": 7251,
      "▁waive": 7252,
      "▁vision": 7253,
      "▁ske": 7254,
      "##jam": 7255,
      "▁tacoma": 7256,
      "▁belt": 7257,
      "▁thous": 7258,
      "▁becoming": 7259,
      "▁qaeda": 7260,
      "▁hor": 7261,
      "▁9:30": 7262,
      "##iterrane": 7263,
      "▁envelopes": 7264,
      "▁scale": 7265,
      "##gn": 7266,
      "##izes": 7267,
      "▁tried": 7268,
      "▁dial": 7269,
      "▁airbnb": 7270,
      "▁bri": 7271,
      "▁separating": 7272,
      "##]": 7273,
      "##822": 7274,
      "▁evans": 7275,
      "##74": 7276,
      "▁assets": 7277,
      "▁tragedies": 7278,
      "▁sting": 7279,
      "##ree": 7280,
      "▁st.": 7281,
      "▁maris": 7282,
      "▁reads": 7283,
      "▁idle": 7284,
      "##enz": 7285,
      "▁approxim": 7286,
      "▁removed": 7287,
      "##evs": 7288,
      "▁hilar": 7289,
      "▁175": 7290,
      "▁pushing": 7291,
      "##aper": 7292,
      "▁theatrical": 7293,
      "▁arri": 7294,
      "▁sixteenth": 7295,
      "##64": 7296,
      "▁2019": 7297,
      "▁die": 7298,
      "##ento": 7299,
      "▁rs": 7300,
      "▁))": 7301,
      "▁warned": 7302,
      "▁participating": 7303,
      "▁ralph": 7304,
      "▁hambal": 7305,
      "ι": 7306,
      "▁ski": 7307,
      "▁!": 7308,
      "▁geometry": 7309,
      "##edter": 7310,
      "▁keen": 7311,
      "▁parallel": 7312,
      "▁stay": 7313,
      "##:19": 7314,
      "▁maybe": 7315,
      "##7/99": 7316,
      "##.2461": 7317,
      "##urance": 7318,
      "▁proceed": 7319,
      "▁1888": 7320,
      "▁peanut": 7321,
      "##nost": 7322,
      "▁explorer": 7323,
      "▁pennsylvania": 7324,
      "▁07/17/2000": 7325,
      "▁345": 7326,
      "▁armen": 7327,
      "▁expectation": 7328,
      "▁increased": 7329,
      "▁orbit": 7330,
      "▁pocket": 7331,
      "##ants": 7332,
      "▁fate": 7333,
      "##9933": 7334,
      "##oven": 7335,
      "▁solely": 7336,
      "▁ours": 7337,
      "▁rene": 7338,
      "▁retain": 7339,
      "▁well-": 7340,
      "##gom": 7341,
      "##rors": 7342,
      "▁possession": 7343,
      "##asp": 7344,
      "▁food": 7345,
      "##iveness": 7346,
      "##jects": 7347,
      "▁dud": 7348,
      "▁addressed": 7349,
      "▁signal": 7350,
      "##image": 7351,
      "æ": 7352,
      "##kk": 7353,
      "▁ports": 7354,
      "▁asset": 7355,
      "##istic": 7356,
      "▁tract": 7357,
      "▁ign": 7358,
      "▁capability": 7359,
      "▁beetle": 7360,
      "▁dates": 7361,
      "▁ear": 7362,
      "##por": 7363,
      "▁corpor": 7364,
      "▁yo": 7365,
      "##ried": 7366,
      "▁63": 7367,
      "##ret": 7368,
      "▁owe": 7369,
      "▁hall": 7370,
      "▁study": 7371,
      "▁brown": 7372,
      "##atively": 7373,
      "▁sec": 7374,
      "▁inhabitants": 7375,
      "▁alphab": 7376,
      "▁mining": 7377,
      "▁encl": 7378,
      "▁guaranty": 7379,
      "▁objections": 7380,
      "▁seal": 7381,
      "▁mosquito": 7382,
      "##riage": 7383,
      "▁comb": 7384,
      "▁clean": 7385,
      "▁litter": 7386,
      "▁mathematics": 7387,
      "▁drag": 7388,
      "▁transmission": 7389,
      "▁bert": 7390,
      "▁tren": 7391,
      "▁isabel": 7392,
      "▁accent": 7393,
      "▁oct": 7394,
      "▁awards": 7395,
      "▁bring": 7396,
      "▁dr.": 7397,
      "##1-90": 7398,
      "##flies": 7399,
      "##izers": 7400,
      "▁unfortunate": 7401,
      "▁iraq": 7402,
      "▁luf": 7403,
      "##.45": 7404,
      "▁photos": 7405,
      "▁eastman": 7406,
      "▁1647": 7407,
      "▁enron.xls": 7408,
      "▁err": 7409,
      "▁fund": 7410,
      "##ona": 7411,
      "▁maint": 7412,
      "▁frontier": 7413,
      "▁peroxide": 7414,
      "▁attracted": 7415,
      "▁cabins": 7416,
      "▁enemies": 7417,
      "▁esp": 7418,
      "▁sarah": 7419,
      "▁general": 7420,
      "▁dose": 7421,
      "##000": 7422,
      "##:32": 7423,
      "▁687": 7424,
      "##eric": 7425,
      "▁reservation": 7426,
      "▁unif": 7427,
      "▁halloween": 7428,
      "▁perfume": 7429,
      "▁mont": 7430,
      "##eting": 7431,
      "▁millennium": 7432,
      "##el": 7433,
      "▁150": 7434,
      "##tride": 7435,
      "##ien": 7436,
      "▁performed": 7437,
      "▁worried": 7438,
      "▁federal": 7439,
      "▁paine": 7440,
      "##ut": 7441,
      "▁ryan": 7442,
      "▁nicholas": 7443,
      "▁colle": 7444,
      "▁besides": 7445,
      "▁dand": 7446,
      "▁browser": 7447,
      "##ots": 7448,
      "##ally": 7449,
      "▁concepts": 7450,
      "▁comment": 7451,
      "▁breakthrough": 7452,
      "##abling": 7453,
      "▁marri": 7454,
      "##mail": 7455,
      "▁ozone": 7456,
      "▁gob": 7457,
      "▁challeng": 7458,
      "▁line": 7459,
      "▁debbie": 7460,
      "▁soap": 7461,
      "▁rogers": 7462,
      "▁hp": 7463,
      "▁heel": 7464,
      "▁diseases": 7465,
      "##‘": 7466,
      "▁conferences": 7467,
      "▁financed": 7468,
      "▁undertaken": 7469,
      "▁existed": 7470,
      "▁mostly": 7471,
      "##eny": 7472,
      "▁profitable": 7473,
      "▁e.g": 7474,
      "▁relativ": 7475,
      "▁apologize": 7476,
      "▁wood": 7477,
      "▁diapers": 7478,
      "▁gib": 7479,
      "▁re": 7480,
      "▁along": 7481,
      "▁raining": 7482,
      "▁kinds": 7483,
      "##587": 7484,
      "▁1841": 7485,
      "▁scare": 7486,
      "▁furthermore": 7487,
      "▁yazid": 7488,
      "▁kenneth": 7489,
      "▁happy": 7490,
      "▁pim": 7491,
      "##ampa": 7492,
      "▁mim": 7493,
      "▁polar": 7494,
      "▁kenya": 7495,
      "▁wikinews": 7496,
      "▁fridays": 7497,
      "▁neat": 7498,
      "##rell": 7499,
      "▁trash": 7500,
      "▁ferry": 7501,
      "▁clin": 7502,
      "##entions": 7503,
      "##just": 7504,
      "▁crick": 7505,
      "▁visitor": 7506,
      "▁jordan": 7507,
      "##449": 7508,
      "▁bar": 7509,
      "▁1205": 7510,
      "▁welcoming": 7511,
      "▁communication": 7512,
      "##3/2000": 7513,
      "▁refin": 7514,
      "▁189": 7515,
      "▁spit": 7516,
      "▁importantly": 7517,
      "##atter": 7518,
      "▁events": 7519,
      "##mark": 7520,
      "##pike": 7521,
      "▁merc": 7522,
      "▁cous": 7523,
      "▁roads": 7524,
      "▁kand": 7525,
      "▁transportation": 7526,
      "▁thinks": 7527,
      "▁risks": 7528,
      "▁yaw": 7529,
      "▁climbing": 7530,
      "▁extensive": 7531,
      "▁holding": 7532,
      "▁roof": 7533,
      "▁telev": 7534,
      "##/15/2001": 7535,
      "▁apply": 7536,
      "▁~": 7537,
      "▁ecodesign": 7538,
      "▁essential": 7539,
      "▁ll": 7540,
      "##mers": 7541,
      "▁occupation": 7542,
      "▁specialists": 7543,
      "##ant": 7544,
      "##kman": 7545,
      "▁regarded": 7546,
      "▁swim": 7547,
      "▁trav": 7548,
      "▁antiqu": 7549,
      "##73": 7550,
      "▁discip": 7551,
      "##-com": 7552,
      "▁ton": 7553,
      "##isy": 7554,
      "▁rags": 7555,
      "▁par": 7556,
      "▁shoulders": 7557,
      "▁peas": 7558,
      "##card": 7559,
      "▁murph": 7560,
      "▁loved": 7561,
      "▁dominant": 7562,
      "▁diving": 7563,
      "▁dwww": 7564,
      "▁mouth": 7565,
      "▁those": 7566,
      "##7.77": 7567,
      "▁505-625": 7568,
      "##ida": 7569,
      "▁appro": 7570,
      "##aire": 7571,
      "▁adv": 7572,
      "▁mon": 7573,
      "▁recently": 7574,
      "▁screw": 7575,
      "▁numb": 7576,
      "▁discour": 7577,
      "▁fridge": 7578,
      "▁today": 7579,
      "▁sitara": 7580,
      "▁chan": 7581,
      "▁get": 7582,
      "▁producer": 7583,
      "▁parakeet": 7584,
      "##atherine": 7585,
      "▁2.15": 7586,
      "▁loll": 7587,
      "##.m": 7588,
      "▁equality": 7589,
      "▁http://www.4gamer.net/news/image/2005.09/2005": 7590,
      "▁euro": 7591,
      "▁hagr": 7592,
      "▁receptionist": 7593,
      "▁riding": 7594,
      "▁difficulty": 7595,
      "##@trans": 7596,
      "▁jurisdiction": 7597,
      "##stick": 7598,
      "▁02": 7599,
      "▁unaccept": 7600,
      "▁leonard": 7601,
      "▁influence": 7602,
      "▁yourself": 7603,
      "▁practicing": 7604,
      "▁involving": 7605,
      "▁user": 7606,
      "##acked": 7607,
      "▁cool": 7608,
      "▁11:0": 7609,
      "##bs": 7610,
      "▁mile": 7611,
      "##==============================================": 7612,
      "##300": 7613,
      "▁fiction": 7614,
      "▁prest": 7615,
      "▁eleventh": 7616,
      "▁shade": 7617,
      "▁inform": 7618,
      "▁naim": 7619,
      "▁lipsticks": 7620,
      "##.org": 7621,
      "▁collateral": 7622,
      "##text": 7623,
      "▁government": 7624,
      "##rael": 7625,
      "##mas": 7626,
      "▁subscrib": 7627,
      "▁arthur": 7628,
      "##.fr": 7629,
      "▁rat": 7630,
      "夏": 7631,
      "##h": 7632,
      "▁secondary": 7633,
      "##96": 7634,
      "▁==============================================================================": 7635,
      "▁explic": 7636,
      "▁melt": 7637,
      "##----": 7638,
      "▁from": 7639,
      "▁challenges": 7640,
      "▁standards": 7641,
      "##aker": 7642,
      "▁legisl": 7643,
      "▁tag": 7644,
      "##oui": 7645,
      "▁approach": 7646,
      "▁itch": 7647,
      "▁these": 7648,
      "▁crappy": 7649,
      "▁jana": 7650,
      "▁tit": 7651,
      "▁1774": 7652,
      "▁thwart": 7653,
      "▁answering": 7654,
      "▁genius": 7655,
      "▁intel": 7656,
      "##ollow": 7657,
      "▁hunting": 7658,
      "▁ny": 7659,
      "##going": 7660,
      "▁compuls": 7661,
      "▁bow": 7662,
      "##new": 7663,
      "##su": 7664,
      "▁hedwig": 7665,
      "▁eras": 7666,
      "##english": 7667,
      "▁jerusal": 7668,
      "##ione": 7669,
      "▁cracked": 7670,
      "▁resulting": 7671,
      "▁nation": 7672,
      "##nels": 7673,
      "▁recommend": 7674,
      "▁inc.": 7675,
      "##ouble": 7676,
      "##091": 7677,
      "▁tiny": 7678,
      "▁newton": 7679,
      "▁sweet": 7680,
      "▁tribe": 7681,
      "##ool": 7682,
      "##ox": 7683,
      "##ios": 7684,
      "##75": 7685,
      "▁unprecedented": 7686,
      "##roid": 7687,
      "▁tahoe": 7688,
      "▁iss": 7689,
      "▁120": 7690,
      "##ices": 7691,
      "##le": 7692,
      "▁theater": 7693,
      "##uled": 7694,
      "##.77": 7695,
      "▁mississippi": 7696,
      "▁perceptions": 7697,
      "▁intend": 7698,
      "▁thing": 7699,
      "▁decide": 7700,
      "▁bak": 7701,
      "##odz": 7702,
      "##11": 7703,
      "##pl": 7704,
      "▁928": 7705,
      "▁nevertheless": 7706,
      "▁haz": 7707,
      "##man": 7708,
      "▁°": 7709,
      "▁bases": 7710,
      "##.4": 7711,
      "▁civic": 7712,
      "▁bone": 7713,
      "▁feels": 7714,
      "▁plun": 7715,
      "▁mild": 7716,
      "▁rep": 7717,
      "▁purse": 7718,
      "▁pervez": 7719,
      "▁mrs.": 7720,
      "▁intentions": 7721,
      "▁agric": 7722,
      "##ania": 7723,
      "##vant": 7724,
      "▁’d": 7725,
      "▁tables": 7726,
      "▁shackl": 7727,
      "▁emerged": 7728,
      "▁representing": 7729,
      "##ie": 7730,
      "▁already": 7731,
      "▁rocks": 7732,
      "▁01": 7733,
      "▁statements": 7734,
      "##irect": 7735,
      "##ibu": 7736,
      "▁preparation": 7737,
      "▁basis": 7738,
      "▁exists": 7739,
      "▁gay": 7740,
      "▁modification": 7741,
      "##ican": 7742,
      "▁plaintiffs": 7743,
      "▁uhoh": 7744,
      "§": 7745,
      "▁crowd": 7746,
      "▁/": 7747,
      "▁71": 7748,
      "▁craw": 7749,
      "▁month": 7750,
      "▁medium": 7751,
      "##enance": 7752,
      "▁businesses": 7753,
      "▁best": 7754,
      "▁team": 7755,
      "▁environmental": 7756,
      "▁speed": 7757,
      "##iful": 7758,
      "▁malf": 7759,
      "##ole": 7760,
      "##aming": 7761,
      "##lud": 7762,
      "▁heroes": 7763,
      "▁conversation": 7764,
      "▁est": 7765,
      "▁kreml": 7766,
      "▁technical": 7767,
      "▁quix": 7768,
      "▁generations": 7769,
      "▁but": 7770,
      "▁anything": 7771,
      "▁hee": 7772,
      "##bucks": 7773,
      "▁interview": 7774,
      "▁281-443-3744": 7775,
      "▁opens": 7776,
      "▁territory": 7777,
      "▁grat": 7778,
      "▁aro": 7779,
      "▁814.863": 7780,
      "##burn": 7781,
      "▁world": 7782,
      "▁significant": 7783,
      "##819602175": 7784,
      "▁troubled": 7785,
      "##ki": 7786,
      "▁microsc": 7787,
      "▁jes": 7788,
      "▁alt": 7789,
      "▁triumph": 7790,
      "##ux": 7791,
      "▁officially": 7792,
      "▁supply": 7793,
      "▁tasks": 7794,
      "##astery": 7795,
      "▁grande": 7796,
      "▁virus": 7797,
      "▁contracts": 7798,
      "##stream": 7799,
      "▁pastor": 7800,
      "▁assure": 7801,
      "##nine": 7802,
      "▁neighbor": 7803,
      "▁agenda": 7804,
      "▁spoon": 7805,
      "▁1780": 7806,
      "##ropri": 7807,
      "▁someplace": 7808,
      "▁1920": 7809,
      "▁framed": 7810,
      "▁robes": 7811,
      "▁budd": 7812,
      "▁caused": 7813,
      "▁vide": 7814,
      "▁09:": 7815,
      "##ele": 7816,
      "▁......": 7817,
      "▁loudly": 7818,
      "▁giov": 7819,
      "▁economic": 7820,
      "▁baghdad": 7821,
      "▁o'clock": 7822,
      "▁unity": 7823,
      "▁contem": 7824,
      "▁1562": 7825,
      "▁chang": 7826,
      "▁az": 7827,
      "▁2018": 7828,
      "▁precise": 7829,
      "▁1790": 7830,
      "▁tot": 7831,
      "##xtures": 7832,
      "▁tell": 7833,
      "▁modem": 7834,
      "▁decree": 7835,
      "▁ruling": 7836,
      "▁chlor": 7837,
      "##ather": 7838,
      "▁visitors": 7839,
      "▁1850": 7840,
      "##on@ect": 7841,
      "##@enron.com": 7842,
      "▁98": 7843,
      "▁disorder": 7844,
      "##atched": 7845,
      "▁brit": 7846,
      "▁distrib": 7847,
      "▁buttons": 7848,
      "▁’": 7849,
      "▁coordinate": 7850,
      "▁death": 7851,
      "▁tv": 7852,
      "▁monetary": 7853,
      "▁thirteen": 7854,
      "▁economists": 7855,
      "▁ruins": 7856,
      "▁pizza": 7857,
      "▁sauce": 7858,
      "##asses": 7859,
      "▁accurately": 7860,
      "▁sore": 7861,
      "##itative": 7862,
      "##.7": 7863,
      "▁congest": 7864,
      "▁speaks": 7865,
      "##rovers": 7866,
      "##rup": 7867,
      "##issions": 7868,
      "▁turb": 7869,
      "▁rebels": 7870,
      "▁suitable": 7871,
      "▁kept": 7872,
      "▁slice": 7873,
      "▁bwww": 7874,
      "▁hull": 7875,
      "##licts": 7876,
      "▁congress": 7877,
      "▁are": 7878,
      "▁---->===}*{===<----": 7879,
      "▁among": 7880,
      "▁launch": 7881,
      "▁skip": 7882,
      "##wich": 7883,
      "▁universe": 7884,
      "▁magic": 7885,
      "▁indo": 7886,
      "▁lessons": 7887,
      "##obar": 7888,
      "▁big": 7889,
      "▁latin": 7890,
      "##active": 7891,
      "▁1951": 7892,
      "▁racing": 7893,
      "##isf": 7894,
      "▁estim": 7895,
      "##ense": 7896,
      "▁skiing": 7897,
      "##isc": 7898,
      "##uch": 7899,
      "##lessly": 7900,
      "▁follow": 7901,
      "▁developer": 7902,
      "▁pentagon": 7903,
      "▁shove": 7904,
      "▁book": 7905,
      "##ick": 7906,
      "▁03:20": 7907,
      "▁mailings": 7908,
      "▁atl": 7909,
      "▁kansas": 7910,
      "▁autonomy": 7911,
      "▁blo": 7912,
      "▁november": 7913,
      "##ving": 7914,
      "▁poison": 7915,
      "▁maintains": 7916,
      "##_": 7917,
      "##roduct": 7918,
      "▁trauma": 7919,
      "▁rabbits": 7920,
      "▁overchar": 7921,
      "▁applause": 7922,
      "▁immers": 7923,
      "▁wreck": 7924,
      "##acarias": 7925,
      "▁lots": 7926,
      "▁stillman": 7927,
      "▁amuse": 7928,
      "▁translates": 7929,
      "##ney": 7930,
      "✉": 7931,
      "▁displayed": 7932,
      "▁lobster": 7933,
      "▁posada": 7934,
      "##图": 7935,
      "▁linguistics": 7936,
      "▁covers": 7937,
      "▁fleeing": 7938,
      "##/0": 7939,
      "▁advisers": 7940,
      "▁neal": 7941,
      "▁full": 7942,
      "##airah": 7943,
      "▁julie": 7944,
      "▁families": 7945,
      "▁emerging": 7946,
      "▁railways": 7947,
      "▁concerned": 7948,
      "▁2000": 7949,
      "▁ensures": 7950,
      "▁merida": 7951,
      "##sed": 7952,
      "▁harvesting": 7953,
      "▁composition": 7954,
      "▁scar": 7955,
      "▁demands": 7956,
      "##ape": 7957,
      "▁cond": 7958,
      "▁do": 7959,
      "▁^": 7960,
      "▁bald": 7961,
      "▁evely": 7962,
      "##4-79": 7963,
      "▁zealand": 7964,
      "▁tx": 7965,
      "▁mcdonald": 7966,
      "▁lis": 7967,
      "▁pett": 7968,
      "▁freight": 7969,
      "▁jeffrey": 7970,
      "▁lou": 7971,
      "▁cheapest": 7972,
      "▁pel": 7973,
      "▁communicated": 7974,
      "▁collecting": 7975,
      "##order": 7976,
      "▁vogelaviatiolap": 7977,
      "▁donna": 7978,
      "▁guild": 7979,
      "▁formica": 7980,
      "▁no-": 7981,
      "▁organized": 7982,
      "▁spons": 7983,
      "##ji": 7984,
      "▁paints": 7985,
      "▁assort": 7986,
      "##ede": 7987,
      "▁anx": 7988,
      "▁dist": 7989,
      "▁cou": 7990,
      "▁wounded": 7991,
      "▁usual": 7992,
      "▁1969": 7993,
      "##oli": 7994,
      "▁-----------------": 7995,
      "▁monkeys": 7996,
      "##ograph": 7997,
      "▁'": 7998,
      "▁eug": 7999,
      "▁cook": 8000,
      "▁minimum": 8001,
      "▁2011": 8002,
      "▁received": 8003,
      "▁insult": 8004,
      "▁inapp": 8005,
      "▁pest": 8006,
      "▁relating": 8007,
      "▁iqr": 8008,
      "▁jun": 8009,
      "▁noone": 8010,
      "▁likes": 8011,
      "▁_________________________________________________": 8012,
      "▁proble": 8013,
      "##口": 8014,
      "▁================================================": 8015,
      "▁pointing": 8016,
      "##ack": 8017,
      "▁gone": 8018,
      "▁graph": 8019,
      "▁robinson": 8020,
      "▁punishment": 8021,
      "▁underground": 8022,
      "▁unrelated": 8023,
      "▁solemn": 8024,
      "▁molec": 8025,
      "##itely": 8026,
      "▁root": 8027,
      "▁pierre": 8028,
      "##upunct": 8029,
      "▁cy": 8030,
      "▁perce": 8031,
      "▁complained": 8032,
      "##icated": 8033,
      "##insula": 8034,
      "▁rated": 8035,
      "##veland": 8036,
      "▁objects": 8037,
      "▁1880": 8038,
      "##£": 8039,
      "▁spare": 8040,
      "▁knot": 8041,
      "▁libraries": 8042,
      "▁cage": 8043,
      "▁alleged": 8044,
      "▁b": 8045,
      "▁stare": 8046,
      "▁s.": 8047,
      "##aments": 8048,
      "▁explos": 8049,
      "##ell": 8050,
      "##boo": 8051,
      "▁hong": 8052,
      "▁live": 8053,
      "▁justified": 8054,
      "▁asp": 8055,
      "▁coins": 8056,
      "▁aunt": 8057,
      "##erves": 8058,
      "##urious": 8059,
      "▁council": 8060,
      "▁pachom": 8061,
      "▁switzerland": 8062,
      "▁housing": 8063,
      "▁bugs": 8064,
      "▁gap": 8065,
      "##9/2001": 8066,
      "▁compet": 8067,
      "##**": 8068,
      "▁wheat": 8069,
      "▁no": 8070,
      "▁washington": 8071,
      "##ar": 8072,
      "▁ed": 8073,
      "▁ignore": 8074,
      "▁cabbage": 8075,
      "▁2:30": 8076,
      "##elds": 8077,
      "▁mouse": 8078,
      "▁hundreds": 8079,
      "▁350": 8080,
      "▁actor": 8081,
      "▁robbie": 8082,
      "▁generation": 8083,
      "▁acceptance": 8084,
      "▁montana": 8085,
      "▁circulation": 8086,
      "##lemm": 8087,
      "▁sensing": 8088,
      "▁bid": 8089,
      "▁2500": 8090,
      "▁gained": 8091,
      "▁complete": 8092,
      "▁cromer": 8093,
      "##gin": 8094,
      "▁industrial": 8095,
      "▁edison": 8096,
      "▁offic": 8097,
      "##amon": 8098,
      "▁cheaper": 8099,
      "▁seventy": 8100,
      "▁demonstrate": 8101,
      "▁eggs": 8102,
      "##soft": 8103,
      "▁02/2": 8104,
      "▁sympath": 8105,
      "##nondel": 8106,
      "▁counterfe": 8107,
      "▁helicopters": 8108,
      "▁http://www": 8109,
      "▁bankrupt": 8110,
      "▁pioneer": 8111,
      "▁it": 8112,
      "##inator": 8113,
      "▁1779": 8114,
      "▁authors": 8115,
      "##inter": 8116,
      "▁quest": 8117,
      "##ifying": 8118,
      "##boro": 8119,
      "▁sid": 8120,
      "##shed": 8121,
      "▁camp": 8122,
      "▁operator": 8123,
      "▁legitimacy": 8124,
      "▁palace": 8125,
      "▁pill": 8126,
      "▁rom": 8127,
      "▁pere": 8128,
      "▁stardust": 8129,
      "▁drink": 8130,
      "▁tar": 8131,
      "▁portland": 8132,
      "▁toaster": 8133,
      "▁beep": 8134,
      "##ris": 8135,
      "▁came": 8136,
      "##-looking": 8137,
      "▁vogel": 8138,
      "▁heading": 8139,
      "##organ": 8140,
      "▁decre": 8141,
      "##force": 8142,
      "▁reflected": 8143,
      "##ader": 8144,
      "▁referee": 8145,
      "▁col": 8146,
      "▁finding": 8147,
      "▁prem": 8148,
      "▁silk": 8149,
      "▁pencils": 8150,
      "▁persec": 8151,
      "▁short": 8152,
      "▁presidents": 8153,
      "▁climate": 8154,
      "▁pressed": 8155,
      "▁date": 8156,
      "▁favor": 8157,
      "##sel": 8158,
      "▁goat": 8159,
      "▁lasts": 8160,
      "▁well": 8161,
      "▁stairs": 8162,
      "▁04": 8163,
      "▁238": 8164,
      "▁buckets": 8165,
      "▁neither": 8166,
      "▁sampl": 8167,
      "##rap": 8168,
      "▁venezuela": 8169,
      "▁deficit": 8170,
      "▁47": 8171,
      "##orescent": 8172,
      "▁headquart": 8173,
      "▁;-)": 8174,
      "▁flying": 8175,
      "▁measure": 8176,
      "##ibilities": 8177,
      "▁mount": 8178,
      "▁scott": 8179,
      "▁neighbourhood": 8180,
      "▁determined": 8181,
      "##pat": 8182,
      "▁feared": 8183,
      "▁toile": 8184,
      "▁tid": 8185,
      "##wyn": 8186,
      "▁programme": 8187,
      "▁bern": 8188,
      "▁desert": 8189,
      "##at": 8190,
      "▁49": 8191,
      "##ams": 8192,
      "##uc": 8193,
      "▁iraqi": 8194,
      "▁1944": 8195,
      "▁revealed": 8196,
      "▁le": 8197,
      "▁teams": 8198,
      "▁shock": 8199,
      "▁pra": 8200,
      "##-and": 8201,
      "▁elite": 8202,
      "▁subscribe": 8203,
      "▁sandra": 8204,
      "▁pen": 8205,
      "▁explain": 8206,
      "▁found": 8207,
      "▁distort": 8208,
      "▁hyper": 8209,
      "▁mad": 8210,
      "▁dental": 8211,
      "▁turn": 8212,
      "▁digging": 8213,
      "▁easy": 8214,
      "▁fruit": 8215,
      "▁waves": 8216,
      "##thing": 8217,
      "##unciation": 8218,
      "▁treatise": 8219,
      "▁augment": 8220,
      "▁glad": 8221,
      "##ually": 8222,
      "▁graduate": 8223,
      "▁established": 8224,
      "▁meg": 8225,
      "▁described": 8226,
      "▁corpus": 8227,
      "##rog": 8228,
      "▁spilled": 8229,
      "▁nick": 8230,
      "▁discourse": 8231,
      "▁outcome": 8232,
      "▁indul": 8233,
      "##op": 8234,
      "▁having": 8235,
      "▁soc": 8236,
      "▁residents": 8237,
      "▁gar": 8238,
      "##/30/2001": 8239,
      "▁pil": 8240,
      "▁puppet": 8241,
      "▁beef": 8242,
      "▁recognised": 8243,
      "▁franc": 8244,
      "▁storms": 8245,
      "▁negot": 8246,
      "##fin": 8247,
      "##acks": 8248,
      "▁bunch": 8249,
      "▁filling": 8250,
      "##enes": 8251,
      "##imedia": 8252,
      "3": 8253,
      "▁http://www.b": 8254,
      "▁pattern": 8255,
      "▁estimate": 8256,
      "##athers": 8257,
      "▁length": 8258,
      "▁blanket": 8259,
      "▁behalf": 8260,
      "##ah": 8261,
      "▁const": 8262,
      "▁thin": 8263,
      "##isible": 8264,
      "##ibiot": 8265,
      "##ached": 8266,
      "▁definitions": 8267,
      "▁jap": 8268,
      "▁emb": 8269,
      "##enth": 8270,
      "▁netherlands": 8271,
      "▁incompet": 8272,
      "▁position": 8273,
      "▁issues": 8274,
      "▁extending": 8275,
      "▁bru": 8276,
      "▁country": 8277,
      "▁knowledge": 8278,
      "▁breakfast": 8279,
      "##gers": 8280,
      "▁reluct": 8281,
      "▁joining": 8282,
      "##laimed": 8283,
      "▁interference": 8284,
      "▁1604": 8285,
      "##8-3": 8286,
      "▁enjambment": 8287,
      "▁offensive": 8288,
      "▁environments": 8289,
      "▁illeg": 8290,
      "▁whol": 8291,
      "▁independent": 8292,
      "▁spending": 8293,
      "▁1.5": 8294,
      "##icate": 8295,
      "▁gets": 8296,
      "##umin": 8297,
      "▁stepped": 8298,
      "##.": 8299,
      "▁appet": 8300,
      "▁treated": 8301,
      "▁visiting": 8302,
      "▁eol": 8303,
      "▁humor": 8304,
      "▁shared": 8305,
      "▁cler": 8306,
      "▁jingle": 8307,
      "▁mid-1": 8308,
      "▁soil": 8309,
      "▁tomorrow": 8310,
      "##eem": 8311,
      "▁genu": 8312,
      "▁alabama": 8313,
      "##ado": 8314,
      "▁collections": 8315,
      "▁men": 8316,
      "▁freed": 8317,
      "▁errors": 8318,
      "##urt": 8319,
      "▁spagh": 8320,
      "▁2013": 8321,
      "▁sto": 8322,
      "##port": 8323,
      "▁quartiles": 8324,
      "▁deadline": 8325,
      "▁cross-section": 8326,
      "▁kittens": 8327,
      "▁hea": 8328,
      "▁passed": 8329,
      "▁formal": 8330,
      "##tip": 8331,
      "▁therapy": 8332,
      "▁cargill": 8333,
      "▁allowance": 8334,
      "##pal": 8335,
      "▁israeli": 8336,
      "▁wiped": 8337,
      "▁confer": 8338,
      "##iver": 8339,
      "##:11": 8340,
      "▁sculpt": 8341,
      "##ipple": 8342,
      "▁plut": 8343,
      "##.x": 8344,
      "##isted": 8345,
      "▁attain": 8346,
      "▁describe": 8347,
      "▁calls": 8348,
      "##iff": 8349,
      "▁walking": 8350,
      "▁george": 8351,
      "##raf": 8352,
      "▁squee": 8353,
      "▁humanities": 8354,
      "▁!!!!!!!!!!!!!!!!!!!": 8355,
      "▁sections": 8356,
      "▁shakespeare": 8357,
      "▁da": 8358,
      "##onna": 8359,
      "##14": 8360,
      "▁fortune": 8361,
      "##aleck": 8362,
      "e": 8363,
      "▁sect": 8364,
      "##mm": 8365,
      "▁michelle": 8366,
      "▁borrow": 8367,
      "▁vers": 8368,
      "▁laid": 8369,
      "▁tro": 8370,
      "▁troub": 8371,
      "▁settled": 8372,
      "▁kathy": 8373,
      "▁knows": 8374,
      "▁pakistani": 8375,
      "▁alongside": 8376,
      "▁>----------------------------------------------------------------------------": 8377,
      "##acht": 8378,
      "▁card": 8379,
      "▁indig": 8380,
      "##s.": 8381,
      "▁:(": 8382,
      "##.html": 8383,
      "▁dor": 8384,
      "▁http://www.mike": 8385,
      "▁insist": 8386,
      "▁hear": 8387,
      "▁lust": 8388,
      "▁coat": 8389,
      "▁suffer": 8390,
      "▁herm": 8391,
      "▁red": 8392,
      "ا": 8393,
      "▁bars": 8394,
      "##iately": 8395,
      "▁survey": 8396,
      "▁ceo": 8397,
      "▁modulo": 8398,
      "▁back": 8399,
      "▁projected": 8400,
      "▁adopted": 8401,
      "▁boing": 8402,
      "▁cost-e": 8403,
      "▁theories": 8404,
      "▁nierman": 8405,
      "▁1200": 8406,
      "▁blinked": 8407,
      "▁tour": 8408,
      "▁ro": 8409,
      "▁tw": 8410,
      "▁sticks": 8411,
      "##elling": 8412,
      "▁forg": 8413,
      "▁hogwarts": 8414,
      "##/s": 8415,
      "▁kidna": 8416,
      "▁-------------------------------------------------": 8417,
      "▁signoff": 8418,
      "▁whit": 8419,
      "▁n": 8420,
      "▁return": 8421,
      "▁key": 8422,
      "▁manager": 8423,
      "▁married": 8424,
      "▁763736": 8425,
      "##gmail.com": 8426,
      "##izing": 8427,
      "▁bubble": 8428,
      "##light": 8429,
      "▁momma": 8430,
      "▁studying": 8431,
      "##rete": 8432,
      "▁biz": 8433,
      "▁compl": 8434,
      "▁beauveria": 8435,
      "▁gaining": 8436,
      "▁incor": 8437,
      "▁treating": 8438,
      "▁dual": 8439,
      "▁que": 8440,
      "▁sydney": 8441,
      "##gets": 8442,
      "▁db": 8443,
      "▁tries": 8444,
      "▁bengal": 8445,
      "▁matching": 8446,
      "▁fortun": 8447,
      "▁credit": 8448,
      "##...": 8449,
      "▁creation": 8450,
      "▁overwhelming": 8451,
      "▁organisation": 8452,
      "▁repeatedly": 8453,
      "▁outstanding": 8454,
      "##36": 8455,
      "▁viable": 8456,
      "##.15": 8457,
      "##ome": 8458,
      "▁asleep": 8459,
      "▁presc": 8460,
      "▁fist": 8461,
      "▁fbi": 8462,
      "▁1-8": 8463,
      "▁artworks": 8464,
      "▁progress": 8465,
      "▁economy": 8466,
      "##/15": 8467,
      "³": 8468,
      "▁comparing": 8469,
      "▁ruf": 8470,
      "▁etc": 8471,
      "##7": 8472,
      "▁interp": 8473,
      "▁query": 8474,
      "▁own": 8475,
      "▁argument": 8476,
      "▁day": 8477,
      "▁princess": 8478,
      "##utz": 8479,
      "▁forty-one": 8480,
      "▁vi": 8481,
      "##aco": 8482,
      "##otic": 8483,
      "▁potty": 8484,
      "▁main": 8485,
      "▁underlying": 8486,
      "▁1952": 8487,
      "▁reluctant": 8488,
      "▁capital": 8489,
      "▁almost": 8490,
      "##die": 8491,
      "▁amy": 8492,
      "▁700": 8493,
      "▁inferior": 8494,
      "▁twin": 8495,
      "▁onion": 8496,
      "▁adjustments": 8497,
      "▁scramb": 8498,
      "##ɑ": 8499,
      "▁sf": 8500,
      "▁05/30/2001": 8501,
      "p": 8502,
      "θ": 8503,
      "▁impeachment": 8504,
      "##istan": 8505,
      "▁ramp": 8506,
      "##osure": 8507,
      "▁xbox": 8508,
      "▁01:58": 8509,
      "▁melanie": 8510,
      "▁10,000": 8511,
      "▁mommy": 8512,
      "▁gambling": 8513,
      "▁drew": 8514,
      "▁(a)": 8515,
      "##s": 8516,
      "▁approved": 8517,
      "▁community": 8518,
      "▁emotion": 8519,
      "▁invisible": 8520,
      "▁mezza": 8521,
      "▁resistance": 8522,
      "▁humane": 8523,
      "▁sole": 8524,
      "##isations": 8525,
      "▁http://www.4gamer": 8526,
      "▁caboose": 8527,
      "##inal": 8528,
      "▁ar": 8529,
      "▁restrict": 8530,
      "▁colored": 8531,
      "▁dog": 8532,
      "##unity": 8533,
      "##tain": 8534,
      "▁ball": 8535,
      "▁yep": 8536,
      "▁communic": 8537,
      "▁realize": 8538,
      "▁muffin": 8539,
      "▁anti-": 8540,
      "##89": 8541,
      "▁styrof": 8542,
      "▁european": 8543,
      "▁overalls": 8544,
      "▁collins": 8545,
      "▁lover": 8546,
      "▁facilities": 8547,
      "▁12:42": 8548,
      "▁htt": 8549,
      "##143": 8550,
      "▁stays": 8551,
      "▁carbon": 8552,
      "▁hyd": 8553,
      "▁1830": 8554,
      "▁celebration": 8555,
      "▁push": 8556,
      "▁grasp": 8557,
      "##uz": 8558,
      "▁miles": 8559,
      "▁11/08/2000": 8560,
      "▁15,000": 8561,
      "▁pajamas": 8562,
      "▁guest": 8563,
      "▁cough": 8564,
      "▁destinations": 8565,
      "▁practically": 8566,
      "▁devast": 8567,
      "▁priest": 8568,
      "▁promotional": 8569,
      "##cond": 8570,
      "▁’m": 8571,
      "##.621": 8572,
      "▁alert": 8573,
      "▁hun": 8574,
      "##ival": 8575,
      "▁message": 8576,
      "##ften": 8577,
      "##otional": 8578,
      "▁s-": 8579,
      "##pped": 8580,
      "▁toronto": 8581,
      "##ote": 8582,
      "▁=---": 8583,
      "▁6.2.1": 8584,
      "##867": 8585,
      "▁soldier": 8586,
      "▁centre": 8587,
      "▁gaps": 8588,
      "##sem": 8589,
      "▁grant": 8590,
      "##oph": 8591,
      "▁decis": 8592,
      "▁kang": 8593,
      "▁wo": 8594,
      "▁successful": 8595,
      "##off": 8596,
      "▁performances": 8597,
      "▁i": 8598,
      "▁quixote": 8599,
      "▁compens": 8600,
      "##gage": 8601,
      "▁targeted": 8602,
      "▁spill": 8603,
      "▁ge": 8604,
      "▁10:45": 8605,
      "▁source": 8606,
      "##0": 8607,
      "##alth": 8608,
      "##version": 8609,
      "▁crib": 8610,
      "##aze": 8611,
      "▁suspended": 8612,
      "▁initi": 8613,
      "##arf": 8614,
      "▁sled": 8615,
      "▁fulf": 8616,
      "▁abbas": 8617,
      "▁approval": 8618,
      "▁transport": 8619,
      "▁angeles": 8620,
      "▁narrative": 8621,
      "▁yidd": 8622,
      "▁su": 8623,
      "▁camps": 8624,
      "▁l2": 8625,
      "▁participate": 8626,
      "▁nab": 8627,
      "▁hidden": 8628,
      "▁specials": 8629,
      "▁protests": 8630,
      "▁1859": 8631,
      "▁kleenex": 8632,
      "▁constit": 8633,
      "▁resting": 8634,
      "▁edward": 8635,
      "▁misunder": 8636,
      "##ottable": 8637,
      "▁empt": 8638,
      "▁prestigious": 8639,
      "▁plat": 8640,
      "▁74419": 8641,
      "▁padd": 8642,
      "▁barely": 8643,
      "##uary": 8644,
      "▁cruise": 8645,
      "▁fy": 8646,
      "▁semi-": 8647,
      "▁chosen": 8648,
      "▁charter": 8649,
      "##erged": 8650,
      "▁rational": 8651,
      "##-9004": 8652,
      "▁dur": 8653,
      "▁joy": 8654,
      "▁assemble": 8655,
      "▁gn": 8656,
      "▁grandma": 8657,
      "▁xsd": 8658,
      "##ulous": 8659,
      "▁escaped": 8660,
      "▁marshmallow": 8661,
      "▁ig": 8662,
      "▁eups": 8663,
      "▁service": 8664,
      "▁peau": 8665,
      "##val": 8666,
      "##8_00.doc": 8667,
      "##asons": 8668,
      "##uries": 8669,
      "▁manh": 8670,
      "##ave": 8671,
      "▁21st": 8672,
      "##neath": 8673,
      "▁attacked": 8674,
      "▁yoko": 8675,
      "▁ribbon": 8676,
      "▁satisf": 8677,
      "▁chris": 8678,
      "▁bottles": 8679,
      "##ipe": 8680,
      "##hill": 8681,
      "▁convergence": 8682,
      "▁barclays": 8683,
      "▁ksm": 8684,
      "##imin": 8685,
      "##oted": 8686,
      "▁vit": 8687,
      "▁grateful": 8688,
[...]
