{
  "version": "1.0",
  "truncation": null,
  "padding": null,
  "added_tokens": [
    {
      "id": 1058,
      "content": "[MASK]",
      "single_word": false,
      "lstrip": false,
      "rstrip": false,
      "normalized": false,
      "special": true
    },
    {
      "id": 1399,
      "content": "[PAD]",
      "single_word": false,
      "lstrip": false,
      "rstrip": false,
      "normalized": false,
      "special": true
    },
    {
      "id": 2145,
      "content": "[UNK]",
      "single_word": false,
      "lstrip": false,
      "rstrip": false,
      "normalized": false,
      "special": true
    },
    {
      "id": 2558,
      "content": "[SEP]",
      "single_word": false,
      "lstrip": false,
      "rstrip": false,
      "normalized": false,
      "special": true
    },
    {
      "id": 2579,
      "content": "[CLS]",
      "single_word": false,
      "lstrip": false,
      "rstrip": false,
      "normalized": false,
      "special": true
    }
  ],
  "normalizer": {
    "type": "Sequence",
    "normalizers": [
      {
        "type": "NFD"
      },
      {
        "type": "Lowercase"
      },
      {
        "type": "StripAccents"
      }
    ]
  },
  "pre_tokenizer": {
    "type": "Sequence",
    "pretokenizers": [
      {
        "type": "Metaspace",
        "replacement": "▁",
        "prepend_scheme": "always",
        "split": true
      }
    ]
  },
  "post_processor": {
    "type": "TemplateProcessing",
    "single": [
      {
        "SpecialToken": {
          "id": "[CLS]",
          "type_id": 0
        }
      },
      {
        "Sequence": {
          "id": "A",
          "type_id": 0
        }
      },
      {
        "SpecialToken": {
          "id": "[SEP]",
          "type_id": 0
        }
      }
    ],
    "pair": [
      {
        "SpecialToken": {
          "id": "[CLS]",
          "type_id": 0
        }
      },
      {
        "Sequence": {
          "id": "A",
          "type_id": 0
        }
      },
      {
        "SpecialToken": {
          "id": "[SEP]",
          "type_id": 0
        }
      },
      {
        "Sequence": {
          "id": "B",
          "type_id": 1
        }
      },
      {
        "SpecialToken": {
          "id": "[SEP]",
          "type_id": 1
        }
      }
    ],
    "special_tokens": {
      "[CLS]": {
        "id": "[CLS]",
        "ids": [
          2579
        ],
        "tokens": [
          "[CLS]"
        ]
      },
      "[SEP]": {
        "id": "[SEP]",
        "ids": [
          2558
        ],
        "tokens": [
          "[SEP]"
        ]
      }
    }
  },
  "decoder": {
    "type": "Metaspace",
    "replacement": "▁",
    "prepend_scheme": "always",
    "split": true
  },
  "model": {
    "type": "BPE",
    "dropout": null,
    "unk_token": "[UNK]",
    "continuing_subword_prefix": null,
    "end_of_word_suffix": null,
    "fuse_unk": false,
    "byte_fallback": false,
    "ignore_merges": false,
    "vocab": {
      "▁03": 0,
      "apolis": 1,
      "▁417": 2,
      "▁black": 3,
      "▁pri": 4,
      "42": 5,
      ":05": 6,
      "▁3.2": 7,
      "h-r": 8,
      "-625": 9,
      "▁26": 10,
      "/7": 11,
      "▁col": 12,
      "a": 13,
      "een": 14,
      "▁+44": 15,
      "▁129": 16,
      "▁short": 17,
      "ivid": 18,
      "▁example": 19,
      "icle": 20,
      "▁16.379": 21,
      "▁date": 22,
      "▁favor": 23,
      ".831": 24,
      "▁1/8": 25,
      "▁well": 26,
      "▁nose": 27,
      "▁whoever": 28,
      "uh": 29,
      "▁04": 30,
      ":34": 31,
      "oc": 32,
      "▁20:00": 33,
      "▁sing": 34,
      "▁neither": 35,
      "▁238": 36,
      "isco": 37,
      "viat": 38,
      "389": 39,
      "▁respons": 40,
      "▁47": 41,
      "ous": 42,
      "▁fro": 43,
      "ف": 44,
      "/h": 45,
      "ston": 46,
      "▁713/853": 47,
      ":16": 48,
      "-49": 49,
      "▁against": 50,
      "▁mich": 51,
      "our": 52,
      "▁great": 53,
      "y": 54,
      "▁least": 55,
      "▁let": 56,
      "▁seventeen": 57,
      "867": 58,
      "ially": 59,
      "▁49": 60,
      "!!!": 61,
      "▁1944": 62,
      "▁177": 63,
      "uge": 64,
      "ear": 65,
      "▁le": 66,
      "ination": 67,
      "-44": 68,
      "▁1608": 69,
      "▁exist": 70,
      "▁137": 71,
      "▁23": 72,
      "▁dozen": 73,
      "▁pen": 74,
      "▁young": 75,
      "ers": 76,
      "▁found": 77,
      "pp": 78,
      "les": 79,
      "▁mad": 80,
      "▁turn": 81,
      "▁hours": 82,
      "▁environ": 83,
      "▁easy": 84,
      "▁women": 85,
      "▁had": 86,
      "-518": 87,
      "▁13011": 88,
      "anta": 89,
      "▁little": 90,
      "ked": 91,
      "▁600": 92,
      "▁perdu": 93,
      "▁anim": 94,
      "▁act": 95,
      "▁pret": 96,
      "▁[": 97,
      "mission": 98,
      "ract": 99,
      "▁xslt": 100,
      "▁diego": 101,
      "/10": 102,
      "▁ag": 103,
      "iate": 104,
      "non": 105,
      "ization": 106,
      "▁dri": 107,
      "▁295870": 108,
      "▁finally": 109,
      "▁secur": 110,
      "▁having": 111,
      "▁orland": 112,
      "▁soc": 113,
      "▁pack": 114,
      "▁713-654-1281": 115,
      "/0": 116,
      "▁chicken": 117,
      "ead": 118,
      "▁de": 119,
      "ince": 120,
      "▁748": 121,
      "▁paul": 122,
      "▁franc": 123,
      "/2000": 124,
      "▁listen": 125,
      ":11": 126,
      "ly": 127,
      "3": 128,
      "▁last": 129,
      "▁sho": 130,
      "▁visit": 131,
      "-8": 132,
      ".30": 133,
      "ru": 134,
      "oot": 135,
      "▁rul": 136,
      "▁1115": 137,
      "▁04:03": 138,
      "88": 139,
      "▁const": 140,
      "▁human": 141,
      "▁lab": 142,
      "▁500": 143,
      "▁jap": 144,
      "▁yea": 145,
      "▁bush": 146,
      "ʒ": 147,
      "▁times": 148,
      "ps": 149,
      "▁position": 150,
      "▁212": 151,
      "pt": 152,
      "▁fut": 153,
      "▁she": 154,
      "▁country": 155,
      "▁1970": 156,
      "'s": 157,
      "▁actually": 158,
      "▁origin": 159,
      "age": 160,
      "▁1974": 161,
      "********************************": 162,
      "▁5/18": 163,
      "▁breakfast": 164,
      "▁cont": 165,
      "imes": 166,
      "26": 167,
      "▁800.713.86": 168,
      "▁again": 169,
      "▁told": 170,
      "▁oc": 171,
      "ign": 172,
      "iron": 173,
      "▁1604": 174,
      "▁squ": 175,
      "▁orlando": 176,
      "▁j": 177,
      "▁hi": 178,
      "ia": 179,
      "ause": 180,
      "▁****": 181,
      "▁dis": 182,
      "▁1.5": 183,
      "▁373": 184,
      "ays": 185,
      "▁gets": 186,
      "ection": 187,
      "▁analysis_0712": 188,
      "▁bal": 189,
      "ca": 190,
      "822": 191,
      "▁1160": 192,
      "erc": 193,
      "-59": 194,
      "aq": 195,
      "▁9221": 196,
      "x": 197,
      "▁tomorrow": 198,
      "60": 199,
      "▁;)": 200,
      "▁pit": 201,
      "▁men": 202,
      "atter": 203,
      "▁inside": 204,
      "▁2013": 205,
      "▁3889": 206,
      "▁sto": 207,
      "ained": 208,
      "▁nobody": 209,
      "85": 210,
      "▁hea": 211,
      "▁87": 212,
      "▁*": 213,
      "/31": 214,
      "▁11/10/2000": 215,
      "r": 216,
      "▁01:0": 217,
      "▁whil": 218,
      "▁268": 219,
      "/99": 220,
      "=": 221,
      "▁1500": 222,
      "▁official": 223,
      "ants": 224,
      "▁wilt": 225,
      "▁file": 226,
      "▁0000108806": 227,
      "ww": 228,
      "/16": 229,
      "▁george": 230,
      "▁not": 231,
      "ie": 232,
      "▁tim": 233,
      "ew": 234,
      "▁communications": 235,
      "vel": 236,
      "▁5.8": 237,
      "▁don": 238,
      "▁03/02/2001": 239,
      "▁shakespeare": 240,
      "▁da": 241,
      "▁.doc": 242,
      "ue": 243,
      "▁father": 244,
      "▁trale": 245,
      "▁mic": 246,
      "▁cuz": 247,
      "▁somet": 248,
      "▁guy": 249,
      "4": 250,
      "e": 251,
      "ings": 252,
      "/2004": 253,
      "▁whatever": 254,
      "▁)": 255,
      "▁159": 256,
      "▁commission": 257,
      "▁alongside": 258,
      ":5": 259,
      "▁:(": 260,
      "▁them": 261,
      "▁ex": 262,
      "▁hear": 263,
      "▁ret": 264,
      "▁al.": 265,
      "▁struct": 266,
      "▁pock": 267,
      "48": 268,
      "ential": 269,
      "46-3393": 270,
      "▁red": 271,
      "▁fifty": 272,
      "w": 273,
      "▁anyone": 274,
      "▁chick": 275,
      "ا": 276,
      "ge": 277,
      "▁direct": 278,
      "▁416-865-3": 279,
      "eck": 280,
      "▁pi": 281,
      "▁gas": 282,
      "▁750,000": 283,
      "▁wor": 284,
      "46": 285,
      "if": 286,
      "▁if": 287,
      "▁e": 288,
      "iet": 289,
      "▁lunch": 290,
      "▁back": 291,
      "▁1964": 292,
      "ess": 293,
      "▁organ": 294,
      "▁story": 295,
      "form": 296,
      "34": 297,
      "▁fa": 298,
      "▁each": 299,
      "ron": 300,
      "▁bn": 301,
      "ise": 302,
      "land": 303,
      "um": 304,
      "ways": 305,
      "▁into": 306,
      "▁5.5": 307,
      "▁wh": 308,
      "▁ro": 309,
      "▁spec": 310,
      "▁tw": 311,
      "▁case": 312,
      "▁hundred": 313,
      "▁beautiful": 314,
      "▁noon": 315,
      "▁630": 316,
      "2/2001": 317,
      "▁11:07": 318,
      "▁use": 319,
      "▁1504": 320,
      "▁=": 321,
      "ight": 322,
      "ich": 323,
      "▁11:00": 324,
      "▁lear": 325,
      "▁n": 326,
      "▁return": 327,
      "▁key": 328,
      "81": 329,
      ":51": 330,
      "/11/2004": 331,
      "▁763736": 332,
      "▁9": 333,
      ":58": 334,
      "▁activ": 335,
      "wh": 336,
      "m": 337,
      "ually": 338,
      "▁state": 339,
      "▁pur": 340,
      "▁know": 341,
      "▁whenever": 342,
      "ately": 343,
      "▁01/12/2001": 344,
      "▁throw": 345,
      "▁proc": 346,
      "/13/2001": 347,
      "▁66": 348,
      "▁111": 349,
      "▁months": 350,
      "air": 351,
      "▁nat": 352,
      "▁1291": 353,
      "ular": 354,
      "▁2.975": 355,
      "▁lat": 356,
      "▁micro": 357,
      ".00": 358,
      "▁suff": 359,
      "▁happen": 360,
      "uma": 361,
      "▁sh": 362,
      "▁84": 363,
      "031": 364,
      "▁ago": 365,
      ":": 366,
      "▁fair": 367,
      "▁twenty-": 368,
      "▁1-8": 369,
      ".5": 370,
      "st": 371,
      "▁dkk": 372,
      "▁economy": 373,
      "³": 374,
      "outh": 375,
      "raph": 376,
      "▁method": 377,
      "▁first": 378,
      "g": 379,
      "41": 380,
      "▁h-0": 381,
      "▁own": 382,
      "▁understand": 383,
      "▁day": 384,
      "▁polit": 385,
      "▁vi": 386,
      "/10/2000": 387,
      "449": 388,
      "♥": 389,
      "▁kh": 390,
      "▁forty-one": 391,
      "▁very": 392,
      "inner": 393,
      "}": 394,
      "▁1691": 395,
      "▁far": 396,
      "▁main": 397,
      "▁,": 398,
      "▁benef": 399,
      "▁1952": 400,
      "▁508": 401,
      ".85": 402,
      "▁almost": 403,
      "▁level": 404,
      "ablish": 405,
      "▁ninety-n": 406,
      "▁board": 407,
      "▁700": 408,
      "▁tho": 409,
      "▁zer": 410,
      "▁age": 411,
      "▁like": 412,
      "23": 413,
      "▁than": 414,
      "▁05/30/2001": 415,
      "p": 416,
      "202": 417,
      "iddle": 418,
      "θ": 419,
      "▁property": 420,
      "▁clear": 421,
      "▁sitting": 422,
      "2000": 423,
      "▁01:58": 424,
      "▁email": 425,
      "▁72,000": 426,
      "▁10,000": 427,
      "gh": 428,
      "▁07:24": 429,
      "▁stre": 430,
      "▁none": 431,
      "▁mommy": 432,
      "▁1965": 433,
      "▁doo": 434,
      "-468-3": 435,
      "▁1848": 436,
      "▁govern": 437,
      "▁community": 438,
      "zac": 439,
      "▁knew": 440,
      "▁all": 441,
      "▁09/15": 442,
      "▁800-5": 443,
      "ech": 444,
      "▁311": 445,
      "▁[...": 446,
      "▁ev": 447,
      "▁1585": 448,
      "▁ar": 449,
      "go": 450,
      "/11": 451,
      "▁dog": 452,
      "▁salt": 453,
      "▁trying": 454,
      "▁300": 455,
      "▁ball": 456,
      "lo": 457,
      "▁5": 458,
      "art": 459,
      "▁?????": 460,
      "▁now": 461,
      "▁european": 462,
      "port": 463,
      "▁w": 464,
      "▁wind": 465,
      "▁1039": 466,
      "▁181": 467,
      "▁htt": 468,
      "▁12:42": 469,
      "▁12/2": 470,
      "▁05/03/2001": 471,
      "alys": 472,
      "wau": 473,
      "▁ma": 474,
      "▁1830": 475,
      "der": 476,
      "▁am": 477,
      "▁air": 478,
      "▁push": 479,
      "▁become": 480,
      "▁11/08/2000": 481,
      "▁15,000": 482,
      "▁bear": 483,
      "▁1991": 484,
      "▁’m": 485,
      "▁'em": 486,
      "ical": 487,
      "▁pot": 488,
      "▁hun": 489,
      "raw": 490,
      "▁airline": 491,
      "ater": 492,
      "▁59": 493,
      "▁1600": 494,
      "▁1596": 495,
      "▁toronto": 496,
      "▁1.4": 497,
      "▁0.0": 498,
      "▁cred": 499,
      "▁refer": 500,
      "lect": 501,
      "▁lot": 502,
      "ams": 503,
      "▁6.2.1": 504,
      "700": 505,
      "▁10:56": 506,
      "▁wo": 507,
      "ace": 508,
      "/8/00": 509,
      "▁foc": 510,
      "▁washing": 511,
      "▁pass": 512,
      "▁i": 513,
      "ively": 514,
      "angu": 515,
      "/00": 516,
      "▁ge": 517,
      "▁seven": 518,
      "two": 519,
      "▁10:45": 520,
      "▁surpr": 521,
      "▁bul": 522,
      "hing": 523,
      "▁dere": 524,
      "por": 525,
      "ured": 526,
      "gg": 527,
      "ral": 528,
      "▁p": 529,
      "▁’ll": 530,
      "019": 531,
      "▁83": 532,
      "▁transport": 533,
      "▁angeles": 534,
      "▁won": 535,
      "▁su": 536,
      "3.6": 537,
      "▁alber": 538,
      "round": 539,
      "▁dogg": 540,
      "98": 541,
      "▁apr": 542,
      "ians": 543,
      "ors": 544,
      "▁through": 545,
      "▁1859": 546,
      "▁1.25": 547,
      "▁airl": 548,
      "1-9": 549,
      "▁or": 550,
      "▁;": 551,
      "un": 552,
      "▁mus": 553,
      "uce": 554,
      "20": 555,
      "▁birthday": 556,
      "▁11/28/2000": 557,
      "▁74419": 558,
      "▁israel": 559,
      "ates": 560,
      "ust": 561,
      "ush": 562,
      "▁working": 563,
      "▁1940": 564,
      "/4": 565,
      "▁repl": 566,
      "ped": 567,
      "▁extrem": 568,
      "ο": 569,
      "ang": 570,
      "▁includ": 571,
      "▁this": 572,
      "▁1947": 573,
      ":40": 574,
      "at": 575,
      "ach": 576,
      "▁dur": 577,
      "▁8:15": 578,
      "ies": 579,
      "itch": 580,
      "ick": 581,
      "5,000": 582,
      "▁899": 583,
      "▁service": 584,
      "▁peau": 585,
      "===": 586,
      "er": 587,
      "▁access": 588,
      "▁sixty": 589,
      "▁committ": 590,
      "raft": 591,
      "▁08/03": 592,
      "▁litt": 593,
      "▁feel": 594,
      "▁mor": 595,
      "en": 596,
      "▁3/8/00": 597,
      "▁1179": 598,
      "▁195": 599,
      "▁200,000": 600,
      "rol": 601,
      "▁n’t": 602,
      "▁del": 603,
      "▁techn": 604,
      "▁eng": 605,
      "▁165": 606,
      "▁1-800-991-9": 607,
      "▁color": 608,
      "ell": 609,
      "▁ass": 610,
      "ature": 611,
      "▁6:00": 612,
      "end": 613,
      "six": 614,
      "▁california": 615,
      "▁10/23/2000": 616,
      "▁humaine": 617,
      "ives": 618,
      "▁geor": 619,
      "-780": 620,
      "pe": 621,
      "▁early": 622,
      "▁415.621.8317": 623,
      "▁03:3": 624,
      "ment": 625,
      "▁140": 626,
      "▁ways": 627,
      "9/2001": 628,
      "au": 629,
      "▁everybody": 630,
      "▁court": 631,
      "▁104": 632,
      "▁third": 633,
      "▁friends": 634,
      "▁1847": 635,
      "▁202.456.2461": 636,
      "ising": 637,
      "▁wear": 638,
      "▁ann": 639,
      "▁thirty-": 640,
      "▁countries": 641,
      "▁f": 642,
      "ti": 643,
      "orm": 644,
      "rem": 645,
      "▁special": 646,
      "cil": 647,
      "▁twenty-six": 648,
      "50": 649,
      "▁7:30": 650,
      "▁:": 651,
      "▁bo": 652,
      "▁sound": 653,
      "▁period": 654,
      "lik": 655,
      "68": 656,
      "▁up": 657,
      "ably": 658,
      "ial": 659,
      "▁he": 660,
      "▁pos": 661,
      "▁write": 662,
      "▁2100": 663,
      "▁expensive": 664,
      "▁adam": 665,
      "ne": 666,
      "cum": 667,
      "▁150,000": 668,
      "▁6871082#": 669,
      "▁interv": 670,
      "▁requ": 671,
      "▁local": 672,
      "▁doll": 673,
      "ley": 674,
      "▁some": 675,
      "ore": 676,
      "▁2030": 677,
      "urs": 678,
      "▁takes": 679,
      "▁compan": 680,
      "▁1200": 681,
      "▁comp": 682,
      "oug": 683,
      "ي": 684,
      "▁dem": 685,
      ",7": 686,
      "▁113": 687,
      "ind": 688,
      "▁seattle": 689,
      "1/2001": 690,
      "ka": 691,
      ".77": 692,
      "静": 693,
      "▁whereas": 694,
      "×": 695,
      "ans": 696,
      "▁draw": 697,
      "velopment": 698,
      "د": 699,
      "idence": 700,
      ".1234": 701,
      "▁60,000": 702,
      "▁wants": 703,
      "▁01:39": 704,
      "▁1822": 705,
      "▁vis": 706,
      "▁ans": 707,
      "▁2003": 708,
      "▁kid": 709,
      "ib": 710,
      "aph": 711,
      "▁28": 712,
      "▁kitt": 713,
      "▁202.456.1111": 714,
      "ents": 715,
      "us": 716,
      "thers": 717,
      "▁dep": 718,
      "▁750": 719,
      "9/2000": 720,
      "▁europe": 721,
      "▁2017": 722,
      "ec": 723,
      "▁ta": 724,
      "▁166": 725,
      "ص": 726,
      "▁‘’": 727,
      "▁goes": 728,
      "▁04/2": 729,
      "▁data": 730,
      "▁09/16/99": 731,
      "ere": 732,
      "▁win": 733,
      "▁prev": 734,
      "▁serv": 735,
      "▁wr": 736,
      "▁2020": 737,
      "▁191": 738,
      "▁class": 739,
      "ances": 740,
      "▁1962": 741,
      "▁its": 742,
      "own": 743,
      "▁other": 744,
      "▁pick": 745,
      "ect": 746,
      "▁til": 747,
      "out": 748,
      "▁1997": 749,
      "▁12/26/2000": 750,
      "eak": 751,
      "▁rob": 752,
      "▁depart": 753,
      "▁moving": 754,
      "▁ya": 755,
      "▁me": 756,
      "tt": 757,
      "ries": 758,
      "ont": 759,
      "▁long": 760,
      "-6": 761,
      "▁president": 762,
      "▁sever": 763,
      "▁disc": 764,
      "▁could": 765,
      "▁mom": 766,
      "▁ir": 767,
      "▁did": 768,
      "sus": 769,
      "'re": 770,
      "▁five": 771,
      "▁outside": 772,
      "▁12:30": 773,
      "▁tem": 774,
      "▁usually": 775,
      "co": 776,
      "enty": 777,
      "rael": 778,
      "▁military": 779,
      "▁1960": 780,
      "清": 781,
      "▁415.782.7822": 782,
      "ail": 783,
      "ε": 784,
      "aw": 785,
      "ama": 786,
      "atic": 787,
      "tc": 788,
      "????": 789,
      "▁build": 790,
      "谿": 791,
      "ify": 792,
      "▁ey": 793,
      "▁1575": 794,
      "........": 795,
      "15": 796,
      "▁accept": 797,
      "dd": 798,
      "▁started": 799,
      "▁aug": 800,
      "▁125": 801,
      "amm": 802,
      "▁you": 803,
      "▁000010": 804,
      "cle": 805,
      "▁:-)": 806,
      "▁equ": 807,
      "ls": 808,
      "▁2,300": 809,
      "▁art": 810,
      "eare": 811,
      "ma": 812,
      "▁read": 813,
      "~*": 814,
      "▁hurt": 815,
      "☎": 816,
      "aren": 817,
      "arch": 818,
      "▁cit": 819,
      "▁te": 820,
      "ime": 821,
      "▁both": 822,
      "ards": 823,
      "▁af": 824,
      "▁gave": 825,
      "xce": 826,
      "▁713-853-": 827,
      "ellow": 828,
      "435": 829,
      "▁india": 830,
      "▁says": 831,
      "ational": 832,
      "-00": 833,
      "▁---------------------------------": 834,
      "▁1,6": 835,
      "▁due": 836,
      "ional": 837,
      "▁!?": 838,
      "~": 839,
      ".0": 840,
      "▁too": 841,
      "▁mem": 842,
      "b": 843,
      "▁03/15/2001": 844,
      "▁addition": 845,
      "ible": 846,
      "▁eighteen": 847,
      "37": 848,
      "▁interested": 849,
      "▁1-800": 850,
      "▁office": 851,
      ";": 852,
      "ton": 853,
      "▁harry": 854,
      "▁street": 855,
      "craft": 856,
      "▁charlotte": 857,
      "▁deter": 858,
      "▁needed": 859,
      "▁_": 860,
      "▁1660": 861,
      "1082": 862,
      "▁enough": 863,
      "-20-": 864,
      "▁close": 865,
      "cept": 866,
      "▁27": 867,
      "▁713-654-0365": 868,
      "▁pay": 869,
      "▁product": 870,
      "▁my": 871,
      "▁ph": 872,
      "▁57": 873,
      "ay": 874,
      "hia": 875,
      "▁483": 876,
      "ists": 877,
      "▁1939": 878,
      "cuz": 879,
      "葉": 880,
      "▁]": 881,
      "▁docum": 882,
      "▁100,000": 883,
      "▁when": 884,
      "@enron_development": 885,
      "ough": 886,
      "ub": 887,
      "▁incl": 888,
      "▁08/17/2000": 889,
      "▁1995": 890,
      "▁2:25": 891,
      "▁1145": 892,
      "▁shall": 893,
      "▁supp": 894,
      "▁number": 895,
      "oth": 896,
      "▁cha": 897,
      "▁29": 898,
      "▁43": 899,
      "▁53": 900,
      "▁1100": 901,
      "▁dallas": 902,
      "ape": 903,
      "ver": 904,
      ",8": 905,
      "▁96": 906,
      "2-6": 907,
      "▁round": 908,
      "109": 909,
      ".8317": 910,
      "▁walk": 911,
      "▁1994": 912,
      "gan": 913,
      "▁show": 914,
      "ˈ": 915,
      "▁sim": 916,
      "▁1954": 917,
      "====": 918,
      "4-79": 919,
      "▁leave": 920,
      "▁agreement": 921,
      "▁has": 922,
      "f": 923,
      "ments": 924,
      "five": 925,
      "▁1.00": 926,
      "▁energy": 927,
      "▁yester": 928,
      "▁lake": 929,
      "▁3,000": 930,
      "▁polic": 931,
      "▁10:25": 932,
      "esday": 933,
      "ive": 934,
      "▁dr": 935,
      "▁01/26/2001": 936,
      "▁concern": 937,
      "▁01/2": 938,
      "▁11.5": 939,
      "▁bott": 940,
      "▁uhh": 941,
      "▁twenty": 942,
      ":13": 943,
      "▁!!!!!!": 944,
      "****": 945,
      "▁april": 946,
      "▁couple": 947,
      "ld": 948,
      "▁crit": 949,
      "▁friend": 950,
      "▁small": 951,
      "▁was": 952,
      "▁fe": 953,
      "▁happ": 954,
      "▁1700": 955,
      "▁past": 956,
      "ult": 957,
      "▁fact": 958,
      "▁old": 959,
      "▁elect": 960,
      "ondon": 961,
      "▁energ": 962,
      "▁sept": 963,
      "▁ground": 964,
      "az": 965,
      "▁fre": 966,
      "▁68": 967,
      "▁nonstop": 968,
      "▁med": 969,
      "▁mid": 970,
      "▁260": 971,
      "are": 972,
      "one": 973,
      "ouble": 974,
      "▁arriving": 975,
      "▁space": 976,
      "iction": 977,
      "ory": 978,
      "•": 979,
      "▁_____": 980,
      "▁4.7": 981,
      "▁ban": 982,
      "▁profess": 983,
      "▁fr": 984,
      "▁82": 985,
      "▁wan": 986,
      "ys": 987,
      "orn": 988,
      "▁mess": 989,
      "▁0": 990,
      "55": 991,
      "▁.": 992,
      "▁coll": 993,
      "▁expl": 994,
      "▁04:28": 995,
      "/03/2001": 996,
      "▁12.": 997,
      "iful": 998,
      "iss": 999,
      "▁detail": 1000,
      "ison": 1001,
      "tsbur": 1002,
      "ences": 1003,
      "▁2.0": 1004,
      "▁env": 1005,
      "▁beyond": 1006,
      "▁tom": 1007,
      "▁3": 1008,
      ",000,000,000": 1009,
      "/8": 1010,
      "▁anoder": 1011,
      "▁08/0": 1012,
      "omen": 1013,
      "------": 1014,
      "dr": 1015,
      "▁still": 1016,
      "▁talk": 1017,
      "▁green": 1018,
      "-46": 1019,
      "▁410-468-3": 1020,
      "ient": 1021,
      "▁exper": 1022,
      "▁cut": 1023,
      "▁global": 1024,
      "ined": 1025,
      "aff": 1026,
      "t": 1027,
      "▁wrong": 1028,
      "▁say": 1029,
      "▁sched": 1030,
      "astic": 1031,
      "thing": 1032,
      "▁invest": 1033,
      "▁av": 1034,
      "▁forty-": 1035,
      "▁6/1": 1036,
      "-ked": 1037,
      "==": 1038,
      "▁below": 1039,
      "ʊ": 1040,
      "▁6.2": 1041,
      "ast": 1042,
      "74": 1043,
      "£": 1044,
      "7": 1045,
      "▁love": 1046,
      "res": 1047,
      "▁1699": 1048,
      "ok": 1049,
      "ass": 1050,
      "▁airport": 1051,
      "#": 1052,
      "ɑ": 1053,
      "▁720": 1054,
      "▁bro": 1055,
      "▁202.456.1": 1056,
      "▁202.45": 1057,
      "[MASK]": 1058,
      "▁pho": 1059,
      "ond": 1060,
      "σ": 1061,
      "se": 1062,
      "▁should": 1063,
      "▁03/2": 1064,
      "▁38": 1065,
      "▁agre": 1066,
      "son": 1067,
      "▁sorry": 1068,
      "▁twenty-four": 1069,
      "▁iii": 1070,
      "▁107": 1071,
      "▁tuesday": 1072,
      "▁5,000": 1073,
      "/9": 1074,
      "anc": 1075,
      ":07": 1076,
      "▁1,": 1077,
      "▁vegas": 1078,
      "ror": 1079,
      "▁everything": 1080,
      "▁wish": 1081,
      "▁towards": 1082,
      "to": 1083,
      "iz": 1084,
      "▁01:14": 1085,
      "ist": 1086,
      "36": 1087,
      "▁8.3": 1088,
      "▁especially": 1089,
      "▁170": 1090,
      "300": 1091,
      "09": 1092,
      "▁alright": 1093,
      "ding": 1094,
      "▁1,200": 1095,
      "▁probably": 1096,
      "▁198": 1097,
      "▁sa": 1098,
      "▁cup": 1099,
      "▁a": 1100,
      "▁value": 1101,
      "ide": 1102,
      "▁416-8": 1103,
      "’t": 1104,
      "▁just": 1105,
      "▁rather": 1106,
      "▁&": 1107,
      "-n": 1108,
      "▁ele": 1109,
      "▁mm": 1110,
      "▁must": 1111,
      "9.3": 1112,
      "tride": 1113,
      "ation": 1114,
      "iously": 1115,
      "▁us": 1116,
      "▁under": 1117,
      "▁3:00": 1118,
      "▁24": 1119,
      "▁oh": 1120,
      "▁hot": 1121,
      "▁202.456": 1122,
      "▁02/27/2001": 1123,
      "%": 1124,
      "▁balzac": 1125,
      "sc": 1126,
      "▁k": 1127,
      "up": 1128,
      "59": 1129,
      "▁sex": 1130,
      "▁theirs": 1131,
      ":27": 1132,
      "▁political": 1133,
      "ending": 1134,
      "ted": 1135,
      "▁seventh": 1136,
      "▁fing": 1137,
      "▁tec": 1138,
      "▁does": 1139,
      "▁bea": 1140,
      ":01": 1141,
      "▁21,000": 1142,
      "n": 1143,
      "▁effort": 1144,
      "▁ever": 1145,
      "▁03:00": 1146,
      "▁app": 1147,
      "▁will": 1148,
      "▁daily": 1149,
      "▁person": 1150,
      "▁fl": 1151,
      "▁281-518": 1152,
      "▁1986": 1153,
      "▁bed": 1154,
      "▁bus": 1155,
      "819602175": 1156,
      "▁analys": 1157,
      "▁>": 1158,
      "▁boston": 1159,
      "▁1971": 1160,
      "ock": 1161,
      "▁1985": 1162,
      "▁1955": 1163,
      "▁q": 1164,
      "▁expect": 1165,
      "▁fell": 1166,
      "▁orig": 1167,
      "▁son": 1168,
      "3-": 1169,
      "ied": 1170,
      "▁def": 1171,
      "▁provide": 1172,
      "▁remember": 1173,
      "▁99": 1174,
      "/2005": 1175,
      "four": 1176,
      "▁93": 1177,
      "13.86": 1178,
      "▁taking": 1179,
      "▁hur": 1180,
      "▁80,000": 1181,
      "▁shop": 1182,
      "▁fifteen": 1183,
      "orrow": 1184,
      ".com": 1185,
      "ea": 1186,
      "▁doct": 1187,
      "▁1978": 1188,
      "▁1943": 1189,
      "oun": 1190,
      "▁cloth": 1191,
      "▁left": 1192,
      "▁succ": 1193,
      "est": 1194,
      "78": 1195,
      "key": 1196,
      "▁hair": 1197,
      "▁ac": 1198,
      "▁158": 1199,
      "▁excellent": 1200,
      "bs": 1201,
      "ention": 1202,
      "▁area": 1203,
      "ph": 1204,
      "▁ste": 1205,
      "▁11:35": 1206,
      "enn": 1207,
      "▁okay": 1208,
      "ou": 1209,
      "▁morning": 1210,
      "▁view": 1211,
      "▁creat": 1212,
      "▁nineteen": 1213,
      "499": 1214,
      "9933": 1215,
      "▁ident": 1216,
      "▁for": 1217,
      "oon": 1218,
      "li": 1219,
      "▁270": 1220,
      "▁1220": 1221,
      "▁following": 1222,
      "▁1820": 1223,
      "▁im": 1224,
      "▁watch": 1225,
      "ins": 1226,
      "▁whose": 1227,
      "▁555": 1228,
      "ults": 1229,
      "▁lad": 1230,
      "aim": 1231,
      "und": 1232,
      "▁dom": 1233,
      "▁05/01/2001": 1234,
      "▁?": 1235,
      "▁http": 1236,
      "icago": 1237,
      "ural": 1238,
      "▁down": 1239,
      "▁before": 1240,
      "▁since": 1241,
      "irt": 1242,
      "▁move": 1243,
      "attle": 1244,
      "olis": 1245,
      "▁1530": 1246,
      "▁sc": 1247,
      "▁val": 1248,
      "744": 1249,
      "@enron": 1250,
      "▁50000": 1251,
      "▁18,000": 1252,
      "▁07/14/2000": 1253,
      "opment": 1254,
      "▁mass": 1255,
      "▁1.3": 1256,
      "ision": 1257,
      "▁strong": 1258,
      "▁opt": 1259,
      "▁pa": 1260,
      "-r": 1261,
      "app": 1262,
      "▁russ": 1263,
      "▁18": 1264,
      "▁once": 1265,
      "be": 1266,
      "▁fish": 1267,
      "▁s/h": 1268,
      "▁woud": 1269,
      "eng": 1270,
      "▁saturday": 1271,
      "als": 1272,
      "▁ten": 1273,
      "▁16.3": 1274,
      "▁begin": 1275,
      "▁281-435": 1276,
      "▁uh": 1277,
      ":52": 1278,
      "▁ins": 1279,
      "▁touch": 1280,
      "ole": 1281,
      "▁1968": 1282,
      "]": 1283,
      "7/2001": 1284,
      "miss": 1285,
      "▁twelve": 1286,
      "18": 1287,
      "▁10:5": 1288,
      "ter": 1289,
      "lus": 1290,
      "▁looks": 1291,
      "▁376": 1292,
      ":45": 1293,
      "▁7.3": 1294,
      "▁sand": 1295,
      "▁is": 1296,
      "▁sk": 1297,
      "▁17": 1298,
      "▁196": 1299,
      "▁baltim": 1300,
      "▁31": 1301,
      "acy": 1302,
      "▁00": 1303,
      "▁looked": 1304,
      "▁wil": 1305,
      "▁pricing": 1306,
      "▁process": 1307,
      "▁here": 1308,
      "▁56": 1309,
      "▁june": 1310,
      "▁9/11": 1311,
      "▁12": 1312,
      "ilities": 1313,
      "▁ren": 1314,
      "lf": 1315,
      "▁575": 1316,
      "▁beh": 1317,
      "▁72": 1318,
      "▁les": 1319,
      "▁out": 1320,
      "▁60": 1321,
      "▁tick": 1322,
      "▁ha": 1323,
      "++": 1324,
      "▁01/24/2001": 1325,
      "00": 1326,
      "▁+1": 1327,
      "▁test": 1328,
      "▁albeit": 1329,
      "▁top": 1330,
      "▁parents": 1331,
      "enix": 1332,
      "▁718": 1333,
      "$": 1334,
      "ence": 1335,
      "▁197": 1336,
      "▁10/31": 1337,
      "▁loc": 1338,
      "▁start": 1339,
      "▁support": 1340,
      "ansas": 1341,
      "▁city": 1342,
      "gy": 1343,
      "in": 1344,
      "et": 1345,
      "▁september": 1346,
      "stop": 1347,
      "ik": 1348,
      ":1": 1349,
      "▁888.916.718": 1350,
      "ve": 1351,
      "ange": 1352,
      "▁sor": 1353,
      "▁37": 1354,
      "ark": 1355,
      "▁755": 1356,
      "▁taken": 1357,
      "▁partic": 1358,
      "▁sour": 1359,
      "▁whi": 1360,
      "gether": 1361,
      "▁what": 1362,
      "▁allow": 1363,
      "57": 1364,
      "▁alberta": 1365,
      "▁action": 1366,
      "istan": 1367,
      "▁har": 1368,
      "▁'m": 1369,
      "▁bac": 1370,
      "▁1579": 1371,
      "▁aircraft": 1372,
      "▁excell": 1373,
      "▁espec": 1374,
      "▁untill": 1375,
      "▁step": 1376,
      "▁250": 1377,
      "v": 1378,
      "3-3": 1379,
      "▁1980": 1380,
      "▁401": 1381,
      "▁2014": 1382,
      "ommend": 1383,
      ":21": 1384,
      "▁713-646-3393": 1385,
      "0": 1386,
      "▁1787": 1387,
      "_^": 1388,
      "▁21": 1389,
      "{": 1390,
      "▁&amp": 1391,
      "doc": 1392,
      "ators": 1393,
      ".7": 1394,
      "▁04/16/2001": 1395,
      "▁190": 1396,
      "▁sar": 1397,
      "ping": 1398,
      "[PAD]": 1399,
      "_0": 1400,
      "ude": 1401,
      "65": 1402,
      "▁ter": 1403,
      "▁seemed": 1404,
      "▁problem": 1405,
      "▁h": 1406,
      "9": 1407,
      "▁else": 1408,
      "....": 1409,
      ".9": 1410,
      "ht": 1411,
      "▁143": 1412,
      "▁08/16": 1413,
      "▁available": 1414,
      "▁lost": 1415,
      "▁aw": 1416,
      "xt": 1417,
      "▁million": 1418,
      "▁ano": 1419,
      "▁also": 1420,
      "▁7": 1421,
      "********": 1422,
      "▁75": 1423,
      "att": 1424,
      "▁unto": 1425,
      "▁200": 1426,
      "▁japan": 1427,
      "▁while": 1428,
      "▁’’": 1429,
      "▁sur": 1430,
      "▁whe": 1431,
      "▁grand": 1432,
      "▁huma": 1433,
      "71": 1434,
      "▁510-642": 1435,
      "▁yellow": 1436,
      "▁inter": 1437,
      "/08": 1438,
      "▁regard": 1439,
      "ade": 1440,
      "8": 1441,
      "eet": 1442,
      "-3989": 1443,
      "▁francisco": 1444,
      ",950": 1445,
      "▁z": 1446,
      "65-3": 1447,
      "▁2012": 1448,
      "over": 1449,
      "▁democr": 1450,
      "▁together": 1451,
      "ement": 1452,
      "velop": 1453,
      "4014": 1454,
      "▁better": 1455,
      "uss": 1456,
      "▁fall": 1457,
      "▁huh": 1458,
      "▁199": 1459,
      "ines": 1460,
      "e@enron": 1461,
      "▁nwww": 1462,
      "▁t": 1463,
      "▁project": 1464,
      "49": 1465,
      "▁collect": 1466,
      "▁family": 1467,
      "14": 1468,
      "▁838": 1469,
      "▁1932": 1470,
      "▁health": 1471,
      "▁went": 1472,
      "▁405": 1473,
      "▁fort": 1474,
      "ح": 1475,
      "▁\"": 1476,
      "2": 1477,
      "”": 1478,
      "▁1835": 1479,
      "▁64": 1480,
      "ke": 1481,
      "▁kn": 1482,
      "▁see": 1483,
      "▁although": 1484,
      "mem": 1485,
      "樋": 1486,
      "▁london": 1487,
      "gress": 1488,
      "▁1982": 1489,
      "▁no-6": 1490,
      "way": 1491,
      "▁cer": 1492,
      "▁281-435-0295": 1493,
      "35": 1494,
      "▁develop": 1495,
      "▁look": 1496,
      "▁form": 1497,
      "▁never": 1498,
      "oo": 1499,
      "eld": 1500,
      "▁only": 1501,
      "fe": 1502,
      ":03": 1503,
      "▁11": 1504,
      "▁thousand": 1505,
      "ks": 1506,
      "▁_________________________________": 1507,
      "▁1777": 1508,
      "▁512": 1509,
      "jects": 1510,
      "ached": 1511,
      "▁48": 1512,
      "▁5:00": 1513,
      "▁10:00": 1514,
      "▁1972": 1515,
      "peare": 1516,
      "▁itself": 1517,
      "fi": 1518,
      "▁beside": 1519,
      "sid": 1520,
      "▁major": 1521,
      "ill": 1522,
      "▁inc": 1523,
      "▁civ": 1524,
      "-9004": 1525,
      "____": 1526,
      "▁02/13/2001": 1527,
      "▁13": 1528,
      "▁newark": 1529,
      "ant": 1530,
      "▁to": 1531,
      "▁thirty-five": 1532,
      "ration": 1533,
      "▁10/2": 1534,
      "▁che": 1535,
      "8-7": 1536,
      ":18": 1537,
      "▁real": 1538,
      "▁save": 1539,
      "▁trad": 1540,
      "▁days": 1541,
      "▁east": 1542,
      "umb": 1543,
      ".15": 1544,
      "▁except": 1545,
      "▁play": 1546,
      "司": 1547,
      "▁as": 1548,
      ":02": 1549,
      "▁%": 1550,
      "▁yes": 1551,
      "▁philadelp": 1552,
      "▁end": 1553,
      "▁year": 1554,
      "▁06": 1555,
      "▁92": 1556,
      "▁effect": 1557,
      "93": 1558,
      "/2001": 1559,
      "874": 1560,
      "&": 1561,
      "¢": 1562,
      "▁thy": 1563,
      "enth": 1564,
      "▁met": 1565,
      "tim": 1566,
      "bur": 1567,
      "▁amongst": 1568,
      "▁york": 1569,
      "图": 1570,
      "▁hop": 1571,
      "ef": 1572,
      "­": 1573,
      "▁1966": 1574,
      "奈": 1575,
      "eed": 1576,
      "8196021": 1577,
      "▁aust": 1578,
      "▁180": 1579,
      "▁august": 1580,
      "io": 1581,
      "▁em": 1582,
      "67": 1583,
      "▁can": 1584,
      "able": 1585,
      "es": 1586,
      "ap": 1587,
      "oup": 1588,
      "▁means": 1589,
      "▁fight": 1590,
      "▁arg": 1591,
      "/30/2001": 1592,
      "▁whereby": 1593,
      "▁invol": 1594,
      "▁doing": 1595,
      "▁discuss": 1596,
      "▁avail": 1597,
      "▁may": 1598,
      "▁2010": 1599,
      ":50": 1600,
      "================================": 1601,
      "elt": 1602,
      "cab": 1603,
      "▁train": 1604,
      "83": 1605,
      "▁4:50": 1606,
      "▁347": 1607,
      "▁dc": 1608,
      "▁ones": 1609,
      "79": 1610,
      "▁14": 1611,
      "ild": 1612,
      "▁sn": 1613,
      "▁treat": 1614,
      "all": 1615,
      "▁language": 1616,
      "▁1623": 1617,
      "▁go": 1618,
      "▁thank": 1619,
      "▁despite": 1620,
      "▁priv": 1621,
      "η": 1622,
      "▁1:00": 1623,
      "ith": 1624,
      "▁'d": 1625,
      "??": 1626,
      "▁-----------------------------------------------------------------": 1627,
      "▁183": 1628,
      "?": 1629,
      "ertain": 1630,
      "▁iv": 1631,
      "ix": 1632,
      "▁05/25/2001": 1633,
      "▁---": 1634,
      "▁rel": 1635,
      "▁ben": 1636,
      "▁oil": 1637,
      "▁off": 1638,
      "▁north": 1639,
      "▁b/": 1640,
      "-3": 1641,
      "▁1892": 1642,
      "▁hors": 1643,
      "▁teach": 1644,
      "▁mother": 1645,
      "▁19": 1646,
      "▁81": 1647,
      "▁three": 1648,
      "▁appear": 1649,
      "▁jan": 1650,
      "got": 1651,
      "ress": 1652,
      "▁atlanta": 1653,
      "▁count": 1654,
      "6-8": 1655,
      "ony": 1656,
      "ong": 1657,
      "▁hon": 1658,
      "[": 1659,
      "-4": 1660,
      "▁03/27/2001": 1661,
      "▁ship": 1662,
      "▁rights": 1663,
      "▁white": 1664,
      "▁**": 1665,
      "__________": 1666,
      "oman": 1667,
      "▁713-853-1696": 1668,
      "ester": 1669,
      "▁6871082": 1670,
      "▁educ": 1671,
      "▁sun": 1672,
      "<": 1673,
      "▁employ": 1674,
      "as": 1675,
      "…": 1676,
      "▁high": 1677,
      "ject": 1678,
      "▁blue": 1679,
      "og": 1680,
      "▁1999": 1681,
      "-20": 1682,
      "itt": 1683,
      "▁called": 1684,
      "▁s’": 1685,
      "▁1/2": 1686,
      "▁33": 1687,
      "▁10:34": 1688,
      "▁ens": 1689,
      "▁sil": 1690,
      "▁fig": 1691,
      "▁bl": 1692,
      "▁accord": 1693,
      "▁egg": 1694,
      "▁several": 1695,
      "▁town": 1696,
      "urday": 1697,
      "▁mind": 1698,
      "▁e.": 1699,
      "▁via": 1700,
      "▁3:30": 1701,
      "get": 1702,
      "▁toward": 1703,
      "▁6.00": 1704,
      "========": 1705,
      "89": 1706,
      "▁though": 1707,
      "▁8:00": 1708,
      "▁703": 1709,
      "▁yesterday": 1710,
      "70": 1711,
      "▁1987": 1712,
      "like": 1713,
      ",008": 1714,
      "▁tri": 1715,
      "by": 1716,
      "ash": 1717,
      "▁1926": 1718,
      "red": 1719,
      "▁till": 1720,
      "haps": 1721,
      "▁south": 1722,
      "▁common": 1723,
      "▁tex": 1724,
      "itting": 1725,
      "▁china": 1726,
      "▁'s": 1727,
      "▁oakland": 1728,
      "stem": 1729,
      "▁people": 1730,
      "▁1696": 1731,
      "wn": 1732,
      "30": 1733,
      "▁wether": 1734,
      "▁birth": 1735,
      "▁pat": 1736,
      "▁rese": 1737,
      "▁happened": 1738,
      "▁1230": 1739,
      "▁800-553-3119": 1740,
      "▁1836": 1741,
      "ever": 1742,
      "oney": 1743,
      ".782": 1744,
      "▁places": 1745,
      "▁3.7": 1746,
      "inc": 1747,
      "▁169": 1748,
      "38": 1749,
      "▁ourselves": 1750,
      "rist": 1751,
      "▁pet": 1752,
      "▁difficult": 1753,
      "ency": 1754,
      "▁cult": 1755,
      "▁dollars": 1756,
      "▁430": 1757,
      "▁y": 1758,
      "▁roman": 1759,
      "▁comedie": 1760,
      "▁fail": 1761,
      "▁station": 1762,
      "▁dese": 1763,
      "▁thr": 1764,
      "▁hard": 1765,
      "▁pub": 1766,
      "▁cheap": 1767,
      "▁texas": 1768,
      "▁aside": 1769,
      "▁330": 1770,
      "łod": 1771,
      "▁thirty": 1772,
      "ged": 1773,
      "ar": 1774,
      "▁near": 1775,
      "▁earli": 1776,
      "▁wa": 1777,
      "ab": 1778,
      "▁mr": 1779,
      ":55": 1780,
      "▁ol": 1781,
      "▁1918": 1782,
      "134": 1783,
      "▁minutes": 1784,
      "ه": 1785,
      "fast": 1786,
      "▁makes": 1787,
      "▁1598": 1788,
      "!!!!!!!!": 1789,
      "▁summer": 1790,
      "0010": 1791,
      "▁http://": 1792,
      "▁curren": 1793,
      "▁eighty": 1794,
      "▁forth": 1795,
      "▁free": 1796,
      "▁behind": 1797,
      "▁12:1": 1798,
      "▁current": 1799,
      "▁something": 1800,
      "l": 1801,
      "unic": 1802,
      "▁06/01/2001": 1803,
      "▁flight": 1804,
      "▁twenty-two": 1805,
      "▁ris": 1806,
      "▁eff": 1807,
      "▁quinn": 1808,
      "\\": 1809,
      "▁whether": 1810,
      "▁???": 1811,
      "▁certain": 1812,
      "▁belie": 1813,
      "▁inv": 1814,
      "uck": 1815,
      "▁eat": 1816,
      "▁ask": 1817,
      "▁information": 1818,
      "▁:)": 1819,
      "▁longer": 1820,
      "ster": 1821,
      "-460-3": 1822,
      "▁national": 1823,
      "▁315-460-3": 1824,
      "ork": 1825,
      "▁und": 1826,
      "▁1945": 1827,
      "▁dan": 1828,
      "@ect": 1829,
      "▁08": 1830,
      "▁delta": 1831,
      "ot": 1832,
      "ider": 1833,
      "▁report": 1834,
      "▁1776": 1835,
      "▁+45": 1836,
      "▁above": 1837,
      "ah": 1838,
      "ag": 1839,
      "ery": 1840,
      "▁3724": 1841,
      "▁bag": 1842,
      "▁bab": 1843,
      "▁tor": 1844,
      "▁2006": 1845,
      "▁sit": 1846,
      "▁1843": 1847,
      "▁850": 1848,
      "▁present": 1849,
      "▁room": 1850,
      "ared": 1851,
      "▁californ": 1852,
      "-)": 1853,
      "▁1738": 1854,
      "▁lead": 1855,
      ":0": 1856,
      "▁at": 1857,
      "▁thought": 1858,
      "▁4": 1859,
      "ics": 1860,
      "is_0": 1861,
      "▁pr": 1862,
      "idd": 1863,
      "▁1958": 1864,
      "ortun": 1865,
      "▁mod": 1866,
      "ross": 1867,
      "▁most": 1868,
      "琴": 1869,
      "ther": 1870,
      "▁create": 1871,
      "24": 1872,
      ":56": 1873,
      "ful": 1874,
      "-": 1875,
      "ital": 1876,
      "▁init": 1877,
      "par": 1878,
      "▁besid": 1879,
      "▁1928": 1880,
      "ep": 1881,
      "▁without": 1882,
      "teen": 1883,
      "▁str": 1884,
      "90": 1885,
      "ood": 1886,
      "▁415.621": 1887,
      "▁pain": 1888,
      "▁210": 1889,
      "▁ready": 1890,
      "7/99": 1891,
      "▁imag": 1892,
      "111": 1893,
      ":23": 1894,
      "▁girl": 1895,
      "▁sle": 1896,
      "+": 1897,
      "iness": 1898,
      "▁monday": 1899,
      "▁(": 1900,
      "▁09/15/99": 1901,
      "▁2016": 1902,
      "▁open": 1903,
      "27": 1904,
      "▁giv": 1905,
      "▁prot": 1906,
      "▁abe": 1907,
      "//": 1908,
      "▁half": 1909,
      "▁07": 1910,
      "lish": 1911,
      "▁control": 1912,
      "▁beaut": 1913,
      "▁few": 1914,
      "▁89": 1915,
      "▁ach": 1916,
      ":46": 1917,
      "aur": 1918,
      "▁possible": 1919,
      "▁646-8420": 1920,
      "onom": 1921,
      "▁oper": 1922,
      "▁29587": 1923,
      "▁anybody": 1924,
      "21": 1925,
      "op": 1926,
      "▁b/c": 1927,
      ".70": 1928,
      "▁horse": 1929,
      "▁gu": 1930,
      "▁v": 1931,
      "▁mean": 1932,
      "????????????????": 1933,
      "▁fri": 1934,
      "▁|": 1935,
      "▁pric": 1936,
      "▁hope": 1937,
      "*": 1938,
      "▁prom": 1939,
      "·": 1940,
      "▁po": 1941,
      "-415-": 1942,
      "▁cr": 1943,
      "s.": 1944,
      "▁hotel": 1945,
      "ale": 1946,
      "▁dall": 1947,
      "▁360": 1948,
      "uch": 1949,
      "▁going": 1950,
      "▁680": 1951,
      "▁10:46": 1952,
      "▁plus": 1953,
      "▁many": 1954,
      ".4": 1955,
      "▁link": 1956,
      "▁grow": 1957,
      "–": 1958,
      "▁08/03/2000": 1959,
      "aper": 1960,
      "▁201": 1961,
      "13": 1962,
      "▁1849": 1963,
      "▁exce": 1964,
      "▁1300": 1965,
      "fer": 1966,
      "▁7.2": 1967,
      "▁versus": 1968,
      "▁the": 1969,
      "▁lim": 1970,
      "▁that": 1971,
      "ν": 1972,
      "adelp": 1973,
      "▁2.3": 1974,
      ".718": 1975,
      "ina": 1976,
      "▁ii": 1977,
      "▁num": 1978,
      "▁result": 1979,
      "▁numerous": 1980,
      "▁bad": 1981,
      "▁dad": 1982,
      "▁.3": 1983,
      "olution": 1984,
      "▁girls": 1985,
      "004": 1986,
      "▁began": 1987,
      "ipp": 1988,
      "ain": 1989,
      "▁cons": 1990,
      "▁718-780": 1991,
      ",000,000": 1992,
      "▁gl": 1993,
      "▁fac": 1994,
      "~*~*": 1995,
      "▁amidst": 1996,
      "re": 1997,
      ":48": 1998,
      ".3": 1999,
      "▁doggie": 2000,
      "▁hands": 2001,
      "veland": 2002,
      "▁flights": 2003,
      "ra": 2004,
      "▁commun": 2005,
      "▁put": 2006,
      "iqu": 2007,
      "▁50,000": 2008,
      "▁1724": 2009,
      "osite": 2010,
      "▁38,000": 2011,
      "²": 2012,
      "▁–": 2013,
      "▁05/17/99": 2014,
      "▁2021": 2015,
      "▁problems": 2016,
      "uel": 2017,
      "▁03/21/2001": 2018,
      "▁would": 2019,
      "▁page": 2020,
      "▁61": 2021,
      "▁1245": 2022,
      "16": 2023,
      "▁laura": 2024,
      "am": 2025,
      "▁80435": 2026,
      "▁814014": 2027,
      "oy": 2028,
      "ier": 2029,
      "▁1984": 2030,
      "▁living": 2031,
      "▁deb": 2032,
      "ould": 2033,
      "▁norm": 2034,
      "▁1580": 2035,
      "61": 2036,
      "▁202": 2037,
      "▁505": 2038,
      "山": 2039,
      "▁middle": 2040,
      "(": 2041,
      "osed": 2042,
      "ason": 2043,
      "▁47,500": 2044,
      "▁ty": 2045,
      "ri": 2046,
      "▁getting": 2047,
      ",500": 2048,
      "▁party": 2049,
      "▁620-": 2050,
      "1696": 2051,
      "96": 2052,
      "▁behin": 2053,
      "ific": 2054,
      "▁fir": 2055,
      "▁place": 2056,
      "▁3,202.61": 2057,
      "▁enj": 2058,
      "▁‘": 2059,
      "▁£": 2060,
      "▁jwww": 2061,
      "▁225": 2062,
      "where": 2063,
      "▁fix": 2064,
      ".25": 2065,
      "uct": 2066,
      "▁01/25/2001": 2067,
      "▁prop": 2068,
      "igh": 2069,
      "ended": 2070,
      "▁non": 2071,
      "▁quality": 2072,
      "▁six": 2073,
      "▁site": 2074,
      "▁cir": 2075,
      "▁attem": 2076,
      "▁and": 2077,
      "▁per": 2078,
      "▁36": 2079,
      "▁03/0": 2080,
      "7/2000": 2081,
      "q": 2082,
      "▁stand": 2083,
      "▁thanks": 2084,
      "▁evening": 2085,
      "elf": 2086,
      "2,000": 2087,
      "ious": 2088,
      "▁record": 2089,
      "▁978": 2090,
      "▁airlines": 2091,
      "!!!!": 2092,
      "▁05": 2093,
      "▁leaving": 2094,
      "▁97": 2095,
      "▁univers": 2096,
      "▁’ve": 2097,
      "800": 2098,
      "▁there": 2099,
      "▁including": 2100,
      "▁work": 2101,
      "ct": 2102,
      "▁932": 2103,
      "ul": 2104,
      "▁pittsburgh": 2105,
      "▁forty": 2106,
      "39": 2107,
      "▁san": 2108,
      "▁3/4": 2109,
      "/16/2001": 2110,
      "▁natural": 2111,
      "œ": 2112,
      "▁earliest": 2113,
      "▁unlike": 2114,
      "▁u": 2115,
      "▁call": 2116,
      "▁`s": 2117,
      "▁2002": 2118,
      "▁somebody": 2119,
      "▁832": 2120,
      "▁development": 2121,
      "▁by": 2122,
      "ves": 2123,
      "▁88": 2124,
      "▁pittsbur": 2125,
      "els": 2126,
      "ility": 2127,
      "▁society": 2128,
      "ome": 2129,
      "▁hol": 2130,
      "▁second": 2131,
      "▁custom": 2132,
      "▁until": 2133,
      "▁269": 2134,
      "▁achie": 2135,
      "▁sea": 2136,
      "uff": 2137,
      "▁word": 2138,
      "▁832.676": 2139,
      "▁way": 2140,
      "▁ind": 2141,
      "▁5000": 2142,
      "▁'0": 2143,
      "bers": 2144,
      "[UNK]": 2145,
      "▁piec": 2146,
      "▁4,": 2147,
      ":24": 2148,
      "@": 2149,
      "ing": 2150,
      "▁peace": 2151,
      "▁55": 2152,
      "77": 2153,
      "▁.?": 2154,
      "▁learn": 2155,
      "▁over": 2156,
      "03": 2157,
      "▁entire": 2158,
      "▁420": 2159,
      "▁express": 2160,
      "▁30,000": 2161,
      "▁wed": 2162,
      "▁5.3": 2163,
      "▁upon": 2164,
      "▁sure": 2165,
      "▁fourteen": 2166,
      "▁12:3": 2167,
      "▁04:17": 2168,
      "▁future": 2169,
      "▁button": 2170,
      "ek": 2171,
      "ave": 2172,
      "▁3.5": 2173,
      "▁lives": 2174,
      "ʁ": 2175,
      "▁860": 2176,
      "tw": 2177,
      "▁11:30": 2178,
      "/17/2000": 2179,
      "▁event": 2180,
      "▁366": 2181,
      "▁gon": 2182,
      "▁s": 2183,
      "ased": 2184,
      "▁sixteen": 2185,
      "▁1616": 2186,
      "▁281-44": 2187,
      "▁resp": 2188,
      "▁bath": 2189,
      "▁45": 2190,
      "▁sat": 2191,
      "im": 2192,
      "▁sett": 2193,
      "▁77": 2194,
      "▁713-654-128": 2195,
      "ir": 2196,
      "▁40": 2197,
      "▁3,500": 2198,
      "▁comple": 2199,
      "used": 2200,
      "▁whilst": 2201,
      "ric": 2202,
      "▁bre": 2203,
      "▁question": 2204,
      "▁wait": 2205,
      "▁1561": 2206,
      "eral": 2207,
      "utions": 2208,
      "▁numer": 2209,
      "int": 2210,
      "ope": 2211,
      "▁3.8": 2212,
      "▁percent": 2213,
      "ount": 2214,
      "▁kind": 2215,
      "▁yer": 2216,
      "ł": 2217,
      "ɔ": 2218,
      "ering": 2219,
      "▁alone": 2220,
      "▁ahead": 2221,
      "▁cleveland": 2222,
      "▁102": 2223,
      "iii": 2224,
      "▁d": 2225,
      "▁1689": 2226,
      "▁65": 2227,
      "/17/99": 2228,
      "ro": 2229,
      "▁324": 2230,
      "uc": 2231,
      "ated": 2232,
      "▁differ": 2233,
      "▁40,000": 2234,
      "less": 2235,
      "183": 2236,
      "712": 2237,
      "▁ride": 2238,
      "/": 2239,
      "▁1594": 2240,
      "ected": 2241,
      "▁check": 2242,
      "▁further": 2243,
      "▁ep": 2244,
      "▁meh-risk": 2245,
      "anger": 2246,
      "▁1981": 2247,
      "▁ham": 2248,
      "ow": 2249,
      "82": 2250,
      "▁ger": 2251,
      "▁prov": 2252,
      "**": 2253,
      "▁others": 2254,
      "▁713-8": 2255,
      "▁1902": 2256,
      "ogether": 2257,
      "▁really": 2258,
      "▁manag": 2259,
      "▁ke": 2260,
      "99": 2261,
      "huh": 2262,
      "▁46": 2263,
      "▁clim": 2264,
      "▁always": 2265,
      "▁253": 2266,
      "alk": 2267,
      "hin": 2268,
      "▁646": 2269,
      "▁lest": 2270,
      "▁ser": 2271,
      "▁pm": 2272,
      "▁saw": 2273,
      "▁944": 2274,
      "▁70.85": 2275,
      "ogel": 2276,
      ",1": 2277,
      "▁defin": 2278,
      "▁mi": 2279,
      "▁guess": 2280,
      "ited": 2281,
      "▁throu": 2282,
      "ning": 2283,
      "▁chair": 2284,
      "▁154": 2285,
      "▁reg": 2286,
      "▁bit": 2287,
      "▁78": 2288,
      "▁buy": 2289,
      "▁pict": 2290,
      "▁meth": 2291,
      "other": 2292,
      "▁please": 2293,
      "▁pers": 2294,
      "▁company": 2295,
      "▁years": 2296,
      "▁might": 2297,
      "▁different": 2298,
      "▁11:3": 2299,
      "▁international": 2300,
      "80": 2301,
      "▁": 2302,
      "▁beneath": 2303,
      "8-3": 2304,
      "▁....": 2305,
      "▁deal": 2306,
      "▁115": 2307,
      "ɛ": 2308,
      "▁110": 2309,
      "▁320": 2310,
      "▁thinking": 2311,
      "▁be": 2312,
      "-23": 2313,
      "10": 2314,
      "▁====================================================": 2315,
      "▁dark": 2316,
      "za": 2317,
      "▁box": 2318,
      "▁park": 2319,
      "▁646-84": 2320,
      "▁abs": 2321,
      "▁night": 2322,
      ":14": 2323,
      "▁important": 2324,
      "587": 2325,
      "erv": 2326,
      "itions": 2327,
      "alf": 2328,
      "▁1,000": 2329,
      "▁about": 2330,
      "▁market": 2331,
      "▁prob": 2332,
      "ake": 2333,
      "▁1829": 2334,
      "-2": 2335,
      "ʻ": 2336,
      "enc": 2337,
      "▁th": 2338,
      "▁baltimore": 2339,
      "119": 2340,
      "▁awoh": 2341,
      "ure": 2342,
      "▁looking": 2343,
      "▁51": 2344,
      "ert": 2345,
      "▁ent": 2346,
      ":28": 2347,
      "an": 2348,
      "ami": 2349,
      "ures": 2350,
      "▁1599": 2351,
      "▁mil": 2352,
      "▁4.9": 2353,
      "▁================================": 2354,
      "▁2005": 2355,
      "▁ok": 2356,
      ".2461": 2357,
      "▁€": 2358,
      "/26": 2359,
      "▁history": 2360,
      "▁1912": 2361,
      "act": 2362,
      "▁game": 2363,
      "▁rece": 2364,
      "▁afric": 2365,
      "津": 2366,
      "ism": 2367,
      "eric": 2368,
      "/26/2000": 2369,
      "▁62": 2370,
      "▁phone": 2371,
      "▁indianapolis": 2372,
      "▁displ": 2373,
      "▁415": 2374,
      "▁op": 2375,
      "▁wednesday": 2376,
      "-79": 2377,
      "▁think": 2378,
      "▁na": 2379,
      "is_0712": 2380,
      "ort": 2381,
      "▁rec": 2382,
      "▁conc": 2383,
      "▁1998": 2384,
      "▁sol": 2385,
      "▁it's": 2386,
      "▁sm": 2387,
      "ase": 2388,
      "▁been": 2389,
      ":29": 2390,
      "▁type": 2391,
      "▁paren": 2392,
      "▁words": 2393,
      "▁outs": 2394,
      "▁713-654-": 2395,
      "▁1992": 2396,
      "▁school": 2397,
      "▁restaurant": 2398,
      "its": 2399,
      "iety": 2400,
      "▁1588": 2401,
      "▁et": 2402,
      "▁good": 2403,
      "▁1592": 2404,
      "yond": 2405,
      "▁turned": 2406,
      "gle": 2407,
      "▁44,000": 2408,
      "ρ": 2409,
      "ree": 2410,
      "cond": 2411,
      "▁-ect": 2412,
      "▁fun": 2413,
      "/1": 2414,
      "iver": 2415,
      "cent": 2416,
      "▁thir": 2417,
      "况": 2418,
      "▁bill": 2419,
      "▁help": 2420,
      "de": 2421,
      "▁1110": 2422,
      "200": 2423,
      "▁sent": 2424,
      "▁120,000": 2425,
      "aster": 2426,
      "▁8": 2427,
      "▁<<": 2428,
      "α": 2429,
      "unications": 2430,
      "▁2,": 2431,
      "▁every": 2432,
      "o": 2433,
      "▁idea": 2434,
      "▁table": 2435,
      "▁1957": 2436,
      "▁milk": 2437,
      ",": 2438,
      "ought": 2439,
      "▁using": 2440,
      "▁inf": 2441,
      "▁administ": 2442,
      "ω": 2443,
      "▁poor": 2444,
      "▁large": 2445,
      ",000": 2446,
      "▁seen": 2447,
      "ploy": 2448,
      "ward": 2449,
      ":35": 2450,
      "▁1307": 2451,
      "▁--": 2452,
      "▁piece": 2453,
      "▁09:45": 2454,
      "▁1846": 2455,
      "ost": 2456,
      "▁1875": 2457,
      "▁11:32": 2458,
      "asing": 2459,
      "▁power": 2460,
      "ght": 2461,
      "▁ext": 2462,
      "▁being": 2463,
      "ros": 2464,
      "▁las": 2465,
      "▁needs": 2466,
      "▁52": 2467,
      "461": 2468,
      "▁amid": 2469,
      "med": 2470,
      ".75": 2471,
      "▁.......": 2472,
      "▁milwaukee": 2473,
      "澹": 2474,
      "▁child": 2475,
      "15-": 2476,
      "▁rem": 2477,
      "▁kids": 2478,
      "▁minute": 2479,
      "▁give": 2480,
      ">": 2481,
      "880": 2482,
      "▁saying": 2483,
      "▁-": 2484,
      "eth": 2485,
      "▁they": 2486,
      "φ": 2487,
      "▁6,000": 2488,
      "▁later": 2489,
      "aking": 2490,
      "▁den": 2491,
      "▁1993": 2492,
      "12": 2493,
      "▁03:58": 2494,
      "▁face": 2495,
      "▁opposite": 2496,
      "rop": 2497,
      "▁eyes": 2498,
      "▁2.5": 2499,
      "33": 2500,
      "ove": 2501,
      "±": 2502,
      "口": 2503,
      "▁'71": 2504,
      "▁!!!!!!!!!!!": 2505,
      "▁account": 2506,
      "amed": 2507,
      "▁mer": 2508,
      "▁works": 2509,
      "ii": 2510,
      "▁2,500": 2511,
      "▁ple": 2512,
      "ho": 2513,
      "▁”": 2514,
      "▁shakes": 2515,
      "▁813": 2516,
      "▁minus": 2517,
      "▁2050": 2518,
      "▁known": 2519,
      "▁eight": 2520,
      "▁2004": 2521,
      "▁lic": 2522,
      "▁whole": 2523,
      "▁boat": 2524,
      "ather": 2525,
      "▁pan": 2526,
      "ally": 2527,
      "▁6.1": 2528,
      "ackl": 2529,
      "ual": 2530,
      "▁tra": 2531,
      "▁att": 2532,
      "▁four": 2533,
      "▁łod": 2534,
      "▁1949": 2535,
      "▁beach": 2536,
      "urn": 2537,
      "▁united": 2538,
      "omm": 2539,
      "ese": 2540,
      "▁angel": 2541,
      "▁80": 2542,
      "▁heard": 2543,
      "rans": 2544,
      "▁notwith": 2545,
      ".45": 2546,
      "▁meh-r": 2547,
      "▁bird": 2548,
      "ose": 2549,
      "▁!!": 2550,
      "oose": 2551,
      "sh": 2552,
      "▁jo": 2553,
      "▁fi": 2554,
      "▁sad": 2555,
      "▁infl": 2556,
      "du": 2557,
      "[SEP]": 2558,
      "▁hour": 2559,
      "▁4:00": 2560,
      "28": 2561,
      "▁fore": 2562,
      "▁address": 2563,
      "▁dead": 2564,
      "▁your": 2565,
      "▁1821": 2566,
      "://": 2567,
      "▁1937": 2568,
      "▁com": 2569,
      "▁ye": 2570,
      "▁floor": 2571,
      "amp": 2572,
      "ens": 2573,
      "rench": 2574,
      "▁41": 2575,
      "-9": 2576,
      "▁anal": 2577,
      "22,000": 2578,
      "[CLS]": 2579,
      "ney": 2580,
      "ions": 2581,
      "▁doctor": 2582,
      "▁!!!": 2583,
      "▁10/26/2000": 2584,
      "▁books": 2585,
      "▁450": 2586,
      "▁super": 2587,
      "▁8:30": 2588,
      "’": 2589,
      "sel": 2590,
      "▁tr": 2591,
      "▁pretty": 2592,
      "▁same": 2593,
      "________________________________": 2594,
      "ars": 2595,
      "▁letter": 2596,
      "ut": 2597,
      ".8": 2598,
      "▁leg": 2599,
      "el": 2600,
      "▁11:36": 2601,
      "utes": 2602,
      "▁130": 2603,
      "▁paper": 2604,
      "ability": 2605,
      "▁answ": 2606,
      "c": 2607,
      "icult": 2608,
      "▁success": 2609,
      "▁exec": 2610,
      ".123": 2611,
      "noon": 2612,
      "▁·": 2613,
      "▁myself": 2614,
      "393": 2615,
      "▁mu": 2616,
      "▁@": 2617,
      "▁2.9": 2618,
      "▁?!": 2619,
      ".1": 2620,
      "▁bet": 2621,
      "▁en": 2622,
      "▁acc": 2623,
      "▁713/": 2624,
      "ss": 2625,
      "▁11,000": 2626,
      "-84": 2627,
      "▁thurs": 2628,
      "ither": 2629,
      "ember": 2630,
      "▁amount": 2631,
      "一": 2632,
      "▁intern": 2633,
      "▁house": 2634,
      "▁1910": 2635,
      "▁sw": 2636,
      "▁arrive": 2637,
      "▁restaur": 2638,
      "na": 2639,
      "▁cost": 2640,
      "▁mo": 2641,
      "com": 2642,
      "si": 2643,
      "▁lay": 2644,
      "▁min": 2645,
      "▁cur": 2646,
      "▁road": 2647,
      "ken": 2648,
      "ame": 2649,
      "▁lik": 2650,
      "▁self": 2651,
      "▁ob": 2652,
      "▁import": 2653,
      "▁1877": 2654,
      "▁attention": 2655,
      "▁drive": 2656,
      "▁44": 2657,
      "most": 2658,
      "▁01810": 2659,
      "▁spr": 2660,
      "▁opp": 2661,
      "ently": 2662,
      "▁forward": 2663,
      "side": 2664,
      "▁trip": 2665,
      "▁teh": 2666,
      "ects": 2667,
      "▁es": 2668,
      "▁iran": 2669,
      "▁70": 2670,
      "oice": 2671,
      "▁sch": 2672,
      "akes": 2673,
      "▁deliver": 2674,
      "▁unless": 2675,
      "▁security": 2676,
      "▁296": 2677,
      "ern": 2678,
      "▁28,000": 2679,
      "▁stud": 2680,
      "▁1593": 2681,
      "▁stop": 2682,
      "▁'ll": 2683,
      "ck": 2684,
      "子": 2685,
      "oh": 2686,
      "▁..": 2687,
      ":17": 2688,
      "▁across": 2689,
      "▁11-20-": 2690,
      "▁529999": 2691,
      "▁230": 2692,
      "ud": 2693,
      "▁new": 2694,
      "▁6": 2695,
      "▁713-6": 2696,
      "1": 2697,
      "▁making": 2698,
      "▁eleven": 2699,
      "▁<": 2700,
      "▁11/7/08": 2701,
      "▁01/19/2001": 2702,
      ",600": 2703,
      "4/2001": 2704,
      "▁11:45": 2705,
      "ative": 2706,
      "/26/2001": 2707,
      "▁ec": 2708,
      "▁onto": 2709,
      "▁counter": 2710,
      "▁03/28/2001": 2711,
      "ator": 2712,
      "▁chicago": 2713,
      "▁05:37": 2714,
      "▁repres": 2715,
      "▁03:48": 2716,
      "▁…": 2717,
      "ister": 2718,
      "▁619": 2719,
      "gami": 2720,
      "25": 2721,
      "▁conf": 2722,
      "▁highly": 2723,
      "▁345-3436": 2724,
      "▁2007": 2725,
      "-343": 2726,
      "▁rock": 2727,
      "▁earth": 2728,
      "▁downtown": 2729,
      "▁fin": 2730,
      "92": 2731,
      ",6": 2732,
      "▁job": 2733,
      "ner": 2734,
      "▁2009": 2735,
      "ced": 2736,
      "▁ne": 2737,
      "▁cle": 2738,
      "▁boy": 2739,
      "▁used": 2740,
      "▁nine": 2741,
      "ank": 2742,
      "ds": 2743,
      "▁port": 2744,
      "ool": 2745,
      "erg": 2746,
      "▁clos": 2747,
      "em": 2748,
      "▁um": 2749,
      ".621": 2750,
      "aining": 2751,
      "▁3-5": 2752,
      "▁atop": 2753,
      "▁20,000": 2754,
      "▁zero": 2755,
      "▁yeah": 2756,
      "vern": 2757,
      "▁light": 2758,
      "▁30": 2759,
      "▁need": 2760,
      "pl": 2761,
      "▁char": 2762,
      "ica": 2763,
      "ze": 2764,
      "ided": 2765,
      "!?": 2766,
      "▁man": 2767,
      "▁any": 2768,
      "▁cam": 2769,
      "▁financ": 2770,
      "▁travel": 2771,
      "▁comput": 2772,
      "▁miami": 2773,
      "fully": 2774,
      "▁services": 2775,
      "▁veg": 2776,
      "▁dey": 2777,
      "▁whom": 2778,
      "▁wi": 2779,
      "ز": 2780,
      "53-3": 2781,
      "▁713": 2782,
      "▁w/": 2783,
      "▁soon": 2784,
      "▁set": 2785,
      "▁reason": 2786,
      "▁530": 2787,
      "▁800.713.8600": 2788,
      "▁m": 2789,
      "▁course": 2790,
      "▁lar": 2791,
      "alth": 2792,
      "▁name": 2793,
      "▁throughout": 2794,
      "▁apar": 2795,
      ".95": 2796,
      "▁ninety-nine": 2797,
      "▁st": 2798,
      "▁1505": 2799,
      "k": 2800,
      "▁run": 2801,
      "▁her": 2802,
      "is": 2803,
      "/13": 2804,
      ".doc": 2805,
      "6": 2806,
      "▁interest": 2807,
      "▁request": 2808,
      "iny": 2809,
      "iding": 2810,
      "▁un": 2811,
      "▁we": 2812,
      "▁***": 2813,
      "▁...": 2814,
      "hn": 2815,
      "▁university": 2816,
      "▁progr": 2817,
      "▁fo": 2818,
      "▁ninety": 2819,
      "▁09": 2820,
      "▁205": 2821,
      "aro": 2822,
      ".": 2823,
      "▁********************************": 2824,
      "▁auth": 2825,
      "▁church": 2826,
      "▁’re": 2827,
      "▁315": 2828,
      "tain": 2829,
      "ump": 2830,
      "▁08:30": 2831,
      "▁aboard": 2832,
      "▁particular": 2833,
      "▁life": 2834,
      "▁:d": 2835,
      "▁come": 2836,
      "▁within": 2837,
      "▁our": 2838,
      "otte": 2839,
      "▁press": 2840,
      "oll": 2841,
      "▁have": 2842,
      "▁exc": 2843,
      "▁hold": 2844,
      "▁finish": 2845,
      "bit": 2846,
      "ren": 2847,
      "▁mov": 2848,
      "▁10/20/2000": 2849,
      "▁perf": 2850,
      "ote": 2851,
      "▁aff": 2852,
      "▁934": 2853,
      "201": 2854,
      "▁week": 2855,
      "▁member": 2856,
      "ogn": 2857,
      "/15": 2858,
      "book": 2859,
      "????????": 2860,
      "▁gener": 2861,
      ":15": 2862,
      "91": 2863,
      "▁how": 2864,
      "▁internet": 2865,
      "▁o'": 2866,
      "▁bel": 2867,
      "▁with": 2868,
      "ac": 2869,
      "▁staff": 2870,
      "▁abo": 2871,
      "▁sty": 2872,
      "ised": 2873,
      "la": 2874,
      "▁12:12": 2875,
      "!!": 2876,
      "▁wife": 2877,
      "▁el": 2878,
      "ely": 2879,
      "‘": 2880,
      "fore": 2881,
      "-3393": 2882,
      "al": 2883,
      "▁pull": 2884,
      "▁01:09": 2885,
      "▁pu": 2886,
      "▁979": 2887,
      "▁wanted": 2888,
      "▁obs": 2889,
      "▁+": 2890,
      "▁speak": 2891,
      "▁west": 2892,
      ".2": 2893,
      "▁54,000": 2894,
      "▁je": 2895,
      "▁perdues": 2896,
      "ven": 2897,
      "▁ought": 2898,
      "▁playing": 2899,
      "▁indian": 2900,
      "▁who": 2901,
      "old": 2902,
      "▁1765": 2903,
      "isc": 2904,
      "▁800": 2905,
      "▁11/7": 2906,
      "resh": 2907,
      "▁moment": 2908,
      "▁break": 2909,
      "▁phoenix": 2910,
      "▁res": 2911,
      "▁32": 2912,
      "ains": 2913,
      "ire": 2914,
      "uz": 2915,
      "▁sha": 2916,
      "▁jump": 2917,
      "▁202.456.1414": 2918,
      "ن": 2919,
      "▁`": 2920,
      "▁cre": 2921,
      "▁1754": 2922,
      "ur": 2923,
      "44": 2924,
      "▁cal": 2925,
      ":20": 2926,
      "▁enron": 2927,
      "omet": 2928,
      "▁42,000": 2929,
      "▁det": 2930,
      "▁flo": 2931,
      "▁order": 2932,
      "hip": 2933,
      "▁5:30": 2934,
      "ried": 2935,
      "▁1635": 2936,
      "▁matter": 2937,
      "▁425": 2938,
      "▁pract": 2939,
      "▁''": 2940,
      "▁163": 2941,
      "▁#": 2942,
      "▁dress": 2943,
      "▁who's": 2944,
      "▁50": 2945,
      "▁747": 2946,
      "▁345-343": 2947,
      "▁continental": 2948,
      "j": 2949,
      "▁so": 2950,
      "▁94": 2951,
      "----------------": 2952,
      "uary": 2953,
      "▁post": 2954,
      "▁cat": 2955,
      "▁find": 2956,
      "▁345-9945": 2957,
      "clock": 2958,
      "▁funny": 2959,
      "51": 2960,
      "ollow": 2961,
      "▁sunday": 2962,
      "ic": 2963,
      "▁talking": 2964,
      "ium": 2965,
      "▁cap": 2966,
      "▁20": 2967,
      "½": 2968,
      "▁often": 2969,
      "▁head": 2970,
      "ught": 2971,
      "▁42": 2972,
      "▁try": 2973,
      "▁care": 2974,
      "iation": 2975,
      "▁11/29/2000": 2976,
      "▁proper": 2977,
      "▁des": 2978,
      "-5": 2979,
      "▁1990": 2980,
      "▁time": 2981,
      "▁10:30": 2982,
      "ule": 2983,
      "br": 2984,
      "▁impro": 2985,
      "_": 2986,
      "▁814.86": 2987,
      "ize": 2988,
      "6021": 2989,
      "7.77": 2990,
      "bo": 2991,
      "▁eye": 2992,
      "/200": 2993,
      "▁1929": 2994,
      "▁occ": 2995,
      "ny": 2996,
      "▁1605": 2997,
      "空": 2998,
      "▁laur": 2999,
      "row": 3000,
      "▁$": 3001,
      "▁attack": 3002,
      "▁1799": 3003,
      "iff": 3004,
      "▁ou": 3005,
      "ble": 3006,
      "▁sleep": 3007,
      "work": 3008,
      "▁part": 3009,
      "il": 3010,
      "▁1000": 3011,
      "▁haf": 3012,
      "urch": 3013,
      "▁claim": 3014,
      "▁group": 3015,
      "▁charl": 3016,
      "▁betw": 3017,
      "▁1590": 3018,
      "22": 3019,
      "ß": 3020,
      "▁----": 3021,
      "rod": 3022,
      "--------": 3023,
      "ases": 3024,
      "ø": 3025,
      "▁410": 3026,
      "▁1609": 3027,
      "▁incre": 3028,
      "illion": 3029,
      "▁themselves": 3030,
      "▁3.": 3031,
      "`s": 3032,
      "▁yet": 3033,
      "▁front": 3034,
      "▁fares": 3035,
      "▁639": 3036,
      ",5": 3037,
      ":44": 3038,
      "-0295": 3039,
      "▁tur": 3040,
      "▁his": 3041,
      "▁08/15/2000": 3042,
      "ak": 3043,
      "od": 3044,
      "▁comes": 3045,
      "▁why": 3046,
      "ior": 3047,
      "▁1914": 3048,
      "▁pop": 3049,
      "ustom": 3050,
      "ories": 3051,
      "oph": 3052,
      "▁hat": 3053,
      "gel": 3054,
      "▁09/16": 3055,
      "aken": 3056,
      "▁american": 3057,
      ":37": 3058,
      "▁1783": 3059,
      "▁one": 3060,
      "▁415.782": 3061,
      "▁922": 3062,
      "53": 3063,
      "ate": 3064,
      "▁2.": 3065,
      "sp": 3066,
      "++++": 3067,
      "▁hell": 3068,
      "▁mummy": 3069,
      "▁america": 3070,
      "ms": 3071,
      "▁programm": 3072,
      "▁mar": 3073,
      "▁item": 3074,
      "ary": 3075,
      "▁650": 3076,
      "▁issue": 3077,
      "▁1709": 3078,
      "▁cent": 3079,
      "▁0590": 3080,
      "▁09:01": 3081,
      "▁07/1": 3082,
      "▁tou": 3083,
      "-696": 3084,
      "▁1583": 3085,
      "▁notwithstand": 3086,
      "ations": 3087,
      "ands": 3088,
      "▁505-625-8031": 3089,
      "ered": 3090,
      ":3": 3091,
      "▁rol": 3092,
      "▁gre": 3093,
      "▁tu": 3094,
      "▁review": 3095,
      "▁ad": 3096,
      "day": 3097,
      "ə": 3098,
      "▁were": 3099,
      "8/2000": 3100,
      "▁pal": 3101,
      "▁desc": 3102,
      "▁point": 3103,
      "▁notwithstanding": 3104,
      "▁510": 3105,
      "--": 3106,
      "▁door": 3107,
      "▁tast": 3108,
      ":00": 3109,
      "unch": 3110,
      "▁milit": 3111,
      "▁alth": 3112,
      "cl": 3113,
      "▁l": 3114,
      "▁astride": 3115,
      "▁news": 3116,
      "ite": 3117,
      "ana": 3118,
      "▁slow": 3119,
      "d": 3120,
      "▁july": 3121,
      "▁sub": 3122,
      "▁children": 3123,
      "▁1831": 3124,
      "▁900": 3125,
      "****************": 3126,
      "▁applic": 3127,
      "▁mine": 3128,
      "▁aft": 3129,
      "▁1589": 3130,
      "ically": 3131,
      "ha": 3132,
      "▁240": 3133,
      "▁713-853-3098": 3134,
      "▁sort": 3135,
      "▁466": 3136,
      "ating": 3137,
      "usions": 3138,
      "▁guys": 3139,
      "▁15": 3140,
      "ecess": 3141,
      "▁nt": 3142,
      "▁billion": 3143,
      "▁eating": 3144,
      "itive": 3145,
      "▁done": 3146,
      "▁herself": 3147,
      "3-3744": 3148,
      ")": 3149,
      "ality": 3150,
      "ol": 3151,
      "ula": 3152,
      "▁meet": 3153,
      "▁fur": 3154,
      "▁1976": 3155,
      "▁prof": 3156,
      ",00": 3157,
      "▁christ": 3158,
      "▁1878": 3159,
      "ull": 3160,
      "▁americ": 3161,
      "▁hist": 3162,
      "min": 3163,
      "▁ah": 3164,
      "ces": 3165,
      "▁156": 3166,
      "▁xv": 3167,
      "ology": 3168,
      "4/2000": 3169,
      "▁95": 3170,
      "▁1890": 3171,
      "▁instead": 3172,
      "▁system": 3173,
      "line": 3174,
      "▁'re": 3175,
      "€": 3176,
      "▁peop": 3177,
      "▁sam": 3178,
      "▁11/2": 3179,
      "^": 3180,
      "▁01:39:56": 3181,
      "▁ai": 3182,
      "ug": 3183,
      "-8031": 3184,
      "▁1950": 3185,
      "rew": 3186,
      "▁04:": 3187,
      "▁1959": 3188,
      "▁4:30": 3189,
      "▁din": 3190,
      "ament": 3191,
      "▁glob": 3192,
      "▁design": 3193,
      "▁1800": 3194,
      "\"": 3195,
      "▁woman": 3196,
      "eap": 3197,
      "▁scient": 3198,
      "▁une": 3199,
      "▁daddy": 3200,
      "▁thous": 3201,
      "▁becuse": 3202,
      "iday": 3203,
      "▁forty-eight": 3204,
      "▁hor": 3205,
      "▁9:30": 3206,
      "▁cor": 3207,
      "▁1564": 3208,
      "▁hou": 3209,
      "ones": 3210,
      "▁tried": 3211,
      "▁cold": 3212,
      "..": 3213,
      "▁s/he": 3214,
      "▁st.": 3215,
      "11": 3216,
      "ether": 3217,
      "▁law": 3218,
      "▁fill": 3219,
      "▁175": 3220,
      "av": 3221,
      "ity": 3222,
      "▁arri": 3223,
      "▁trans": 3224,
      "pped": 3225,
      "▁1983": 3226,
      "▁2019": 3227,
      "ad": 3228,
      "▁die": 3229,
      "▁land": 3230,
      "▁11/0": 3231,
      ":32": 3232,
      "ι": 3233,
      "/01/2001": 3234,
      "ger": 3235,
      "▁!": 3236,
      "▁stay": 3237,
      "▁typ": 3238,
      "▁maybe": 3239,
      "▁1584": 3240,
      "▁nice": 3241,
      "▁1888": 3242,
      "/15/2001": 3243,
      "so": 3244,
      "▁two": 3245,
      "▁given": 3246,
      "ved": 3247,
      "▁07/17/2000": 3248,
      "▁345": 3249,
      "▁poss": 3250,
      ",9": 3251,
      "▁1.6": 3252,
      "▁1:30": 3253,
      "▁author": 3254,
      "▁either": 3255,
      "vil": 3256,
      ".6": 3257,
      "8549": 3258,
      "▁c": 3259,
      "▁cause": 3260,
      "▁ours": 3261,
      "▁g": 3262,
      "▁300,000": 3263,
      "▁&amp;": 3264,
      "▁star": 3265,
      "`": 3266,
      "▁1611": 3267,
      "▁baby": 3268,
      "▁sign": 3269,
      "▁1.": 3270,
      "isk": 3271,
      "▁25": 3272,
      "▁67": 3273,
      "▁food": 3274,
      "read": 3275,
      "▁fly": 3276,
      "▁mag": 3277,
      "▁160": 3278,
      "301": 3279,
      "▁phot": 3280,
      "▁milwau": 3281,
      "æ": 3282,
      "▁require": 3283,
      "▁.2": 3284,
      "0-3": 3285,
      "9999": 3286,
      "ued": 3287,
      "▁oak": 3288,
      "▁ear": 3289,
      "▁based": 3290,
      "0072": 3291,
      "▁hand": 3292,
      "▁yo": 3293,
      "ons": 3294,
      "▁63": 3295,
      "▁jud": 3296,
      "▁list": 3297,
      "xic": 3298,
      "edie": 3299,
      "ities": 3300,
      "“": 3301,
      "▁study": 3302,
      "▁11608": 3303,
      "▁6400": 3304,
      "▁sec": 3305,
      "▁7484": 3306,
      ".916.718": 3307,
      "▁1973": 3308,
      "▁76": 3309,
      "right": 3310,
      "▁unles": 3311,
      "ife": 3312,
      "▁clean": 3313,
      "▁22": 3314,
      "pr": 3315,
      "▁08:00": 3316,
      "▁coming": 3317,
      "reat": 3318,
      "▁transmission": 3319,
      "town": 3320,
      "▁himself": 3321,
      "▁price": 3322,
      "▁33,000": 3323,
      "▁sen": 3324,
      "▁asked": 3325,
      "▁oct": 3326,
      "▁sometimes": 3327,
      "▁bring": 3328,
      "8/2001": 3329,
      "▁2,000": 3330,
      "aps": 3331,
      "▁iraq": 3332,
      "2/2000": 3333,
      "▁11/27/2000": 3334,
      "▁philadelphia": 3335,
      "ience": 3336,
      "▁1647": 3337,
      "ink": 3338,
      "▁567.77": 3339,
      "810": 3340,
      "eau": 3341,
      "▁fund": 3342,
      "▁69": 3343,
      "▁cover": 3344,
      "▁2022": 3345,
      ":19": 3346,
      "▁1868": 3347,
      "▁mark": 3348,
      "-50": 3349,
      "stand": 3350,
      "▁687": 3351,
      "▁esp": 3352,
      "▁general": 3353,
      "▁dose": 3354,
      "▁another": 3355,
      "▁58": 3356,
      "it": 3357,
      "▁281": 3358,
      "▁1975": 3359,
      "▁mont": 3360,
      "66": 3361,
      "▁150": 3362,
      "ness": 3363,
      "ex": 3364,
      "▁phil": 3365,
      "▁comm": 3366,
      "▁dinner": 3367,
      "▁research": 3368,
      "▁meas": 3369,
      "ml": 3370,
      "▁truck": 3371,
      "▁colle": 3372,
      "▁conn": 3373,
      "75": 3374,
      "▁besides": 3375,
      "▁220": 3376,
      "▁after": 3377,
      "on": 3378,
      "▁1900": 3379,
      "▁body": 3380,
      "▁http://www.": 3381,
      "▁less": 3382,
      "▁perhaps": 3383,
      "▁everyone": 3384,
      "ς": 3385,
      "▁represent": 3386,
      "sl": 3387,
      "▁copy": 3388,
      "▁around": 3389,
      "▁more": 3390,
      "19": 3391,
      "▁got": 3392,
      "▁line": 3393,
      "iter": 3394,
      "▁sev": 3395,
      "ily": 3396,
      "low": 3397,
      "onto": 3398,
      "°": 3399,
      "rect": 3400,
      "ets": 3401,
      "▁nothing": 3402,
      "▁ill": 3403,
      "▁713-654-03": 3404,
      "ict": 3405,
      "ard": 3406,
      "▁>>": 3407,
      "▁fil": 3408,
      "-991-9": 3409,
      "▁kill": 3410,
      ".676": 3411,
      "▁re": 3412,
      "▁along": 3413,
      "te": 3414,
      "▁1841": 3415,
      "ott": 3416,
      "▁tralee": 3417,
      "▁pro": 3418,
      "▁happy": 3419,
      "▁4.0": 3420,
      "▁825": 3421,
      "selves": 3422,
      "ch": 3423,
      "▁11:16": 3424,
      "▁field": 3425,
      "▁3/9": 3426,
      "▁mot": 3427,
      "▁sugg": 3428,
      "▁1989": 3429,
      "▁langu": 3430,
      "▁bar": 3431,
      "▁1205": 3432,
      "远": 3433,
      "72": 3434,
      "uth": 3435,
      "▁1613": 3436,
      "▁1801": 3437,
      "▁189": 3438,
      "▁exp": 3439,
      "umer": 3440,
      "▁xsl": 3441,
      "neath": 3442,
      "▁100": 3443,
      "and": 3444,
      "▁transportation": 3445,
      "ving": 3446,
      "inn": 3447,
      "76": 3448,
      "▁where": 3449,
      "ruct": 3450,
      "4-": 3451,
      "▁lea": 3452,
      "▁~": 3453,
      "uation": 3454,
      "▁2015": 3455,
      "▁ll": 3456,
      "-1": 3457,
      "mp": 3458,
      "▁cl": 3459,
      "▁91": 3460,
      "mm": 3461,
      "▁202.7": 3462,
      "▁unt": 3463,
      "kee": 3464,
      "▁la": 3465,
      "▁make": 3466,
      "40": 3467,
      "▁852": 3468,
      "▁35": 3469,
      "▁worth": 3470,
      "ago": 3471,
      "▁houston": 3472,
      "▁1": 3473,
      "▁take": 3474,
      "iv": 3475,
      "▁americans": 3476,
      "ats": 3477,
      "le": 3478,
      "▁par": 3479,
      "▁r": 3480,
      "▁hu": 3481,
      "▁24,000": 3482,
      "▁400": 3483,
      "▁french": 3484,
      "▁of": 3485,
      "▁cop": 3486,
      "▁los": 3487,
      "ty": 3488,
      "▁dwww": 3489,
      "▁mouth": 3490,
      "ish": 3491,
      "▁those": 3492,
      "▁505-625": 3493,
      "▁appro": 3494,
      "▁adv": 3495,
      "▁mon": 3496,
      "20-": 3497,
      "▁today": 3498,
      "▁5.6": 3499,
      "h": 3500,
      "▁bir": 3501,
      "▁ra": 3502,
      "▁85": 3503,
      "▁1988": 3504,
      "▁get": 3505,
      "▁09:14": 3506,
      "▁louis": 3507,
      "epend": 3508,
      "ber": 3509,
      "▁2.15": 3510,
      "================": 3511,
      "5": 3512,
      "eight": 3513,
      "84": 3514,
      "▁888.916.7184": 3515,
      "▁policy": 3516,
      "▁pl": 3517,
      "▁euro": 3518,
      "32": 3519,
      "▁id": 3520,
      "▁john": 3521,
      "▁620-294-": 3522,
      "▁1833": 3523,
      "_de": 3524,
      "▁02": 3525,
      "β": 3526,
      "▁03/08/2000": 3527,
      "ulation": 3528,
      "▁much": 3529,
      "▁conv": 3530,
      "dy": 3531,
      "▁next": 3532,
      "0/2000": 3533,
      "▁yourself": 3534,
      "ine": 3535,
      "▁1871": 3536,
      "▁late": 3537,
      "clud": 3538,
      "▁11:0": 3539,
      "ob": 3540,
      "________": 3541,
      "▁him": 3542,
      "▁1832": 3543,
      "jwww": 3544,
      "▁ap": 3545,
      "▁727": 3546,
      "▁03/09/2000": 3547,
      "▁stoy": 3548,
      "▁send": 3549,
      "▁stat": 3550,
      "▁states": 3551,
      "▁inform": 3552,
      "▁!!!!!!!": 3553,
      "led": 3554,
      "▁change": 3555,
      "▁indust": 3556,
      "▁government": 3557,
      "-98": 3558,
      "ack": 3559,
      ".11": 3560,
      "夏": 3561,
      "8806": 3562,
      "for": 3563,
      "▁respect": 3564,
      "▁keep": 3565,
      ".16": 3566,
      "▁afternoon": 3567,
      "kk": 3568,
      "▁---------------------------------------------------------------------": 3569,
      "▁necess": 3570,
      "▁from": 3571,
      "▁39": 3572,
      "▁??": 3573,
      "▁fine": 3574,
      "▁du": 3575,
      "▁believe": 3576,
      "▁these": 3577,
      "▁1805": 3578,
      "▁2.7": 3579,
      "▁1774": 3580,
      "▁int": 3581,
      "▁beg": 3582,
      "ee": 3583,
      "▁24.7": 3584,
      "▁3,": 3585,
      "▁able": 3586,
      "▁n't": 3587,
      "819": 3588,
      "▁members": 3589,
      "▁gr": 3590,
      "▁bow": 3591,
      "▁public": 3592,
      "▁lo": 3593,
      "16.718": 3594,
      "▁car": 3595,
      "/10/2004": 3596,
      "▁social": 3597,
      "3/2000": 3598,
      "body": 3599,
      "▁recommend": 3600,
      "▁island": 3601,
      "iting": 3602,
      "▁fire": 3603,
      "▁business": 3604,
      "58": 3605,
      "ition": 3606,
      "▁2:00": 3607,
      "▁ref": 3608,
      "ution": 3609,
      "▁store": 3610,
      "ified": 3611,
      "/2": 3612,
      "▁picture": 3613,
      "ride": 3614,
      "!": 3615,
      "u": 3616,
      "▁iss": 3617,
      "▁suggest": 3618,
      "nd": 3619,
      "▁questions": 3620,
      "▁vs": 3621,
      "▁120": 3622,
      "▁yourselves": 3623,
      "or": 3624,
      "-642": 3625,
      "room": 3626,
      "▁nand": 3627,
      "▁god": 3628,
      "▁hit": 3629,
      "s": 3630,
      "▁attached": 3631,
      "▁exam": 3632,
      "ned": 3633,
      "ting": 3634,
      "▁such": 3635,
      ".99": 3636,
      "▁di": 3637,
      "▁seem": 3638,
      "▁10": 3639,
      "▁4.6": 3640,
      "ta": 3641,
      "▁thing": 3642,
      "▁albe": 3643,
      ".7822": 3644,
      "ip": 3645,
      "▁coun": 3646,
      "▁maj": 3647,
      "▁928": 3648,
      "ensive": 3649,
      "/01": 3650,
      "▁prod": 3651,
      "▁1610": 3652,
      "▁744": 3653,
      "▁xiii": 3654,
      ".10": 3655,
      "ues": 3656,
      "▁cour": 3657,
      "▁english": 3658,
      "31": 3659,
      "29": 3660,
      "▁rep": 3661,
      "▁1819": 3662,
      "rou": 3663,
      "▁0.00": 3664,
      "ian": 3665,
      "▁05908549": 3666,
      "▁bi": 3667,
      "▁1-800-991-9019": 3668,
      ":39": 3669,
      "▁’d": 3670,
      "ired": 3671,
      "▁wou": 3672,
      "▁already": 3673,
      "▁713-853-3989": 3674,
      "per": 3675,
      "▁war": 3676,
      "▁01": 3677,
      "▁01/1": 3678,
      "989": 3679,
      "-7": 3680,
      "iat": 3681,
      "ed": 3682,
      "▁inst": 3683,
      "▁feet": 3684,
      "▁illusions": 3685,
      "▁12,000": 3686,
      "▁uhoh": 3687,
      "ook": 3688,
      "§": 3689,
      "υ": 3690,
      "olog": 3691,
      "▁hund": 3692,
      "▁/": 3693,
      "▁n'": 3694,
      "▁71": 3695,
      "ath": 3696,
      "▁month": 3697,
      "▁best": 3698,
      "▁’s": 3699,
      "▁team": 3700,
      "▁—": 3701,
      "▁quick": 3702,
      "▁hav": 3703,
      "▁3,202": 3704,
      "▁1925": 3705,
      "45": 3706,
      "▁11-20-2000": 3707,
      "▁est": 3708,
      "th": 3709,
      "▁even": 3710,
      "ivers": 3711,
      "▁1896": 3712,
      "▁dat": 3713,
      "▁ve": 3714,
      "▁but": 3715,
      "▁anything": 3716,
      "▁because": 3717,
      "▁yours": 3718,
      "▁281-443-3744": 3719,
      "ig": 3720,
      "▁705": 3721,
      "iod": 3722,
      "om": 3723,
      "▁plan": 3724,
      "▁hey": 3725,
      "▁world": 3726,
      "▁home": 3727,
      "▁sal": 3728,
      "▁1.1": 3729,
      "▁x": 3730,
      "▁pre": 3731,
      "▁an": 3732,
      "▁ver": 3733,
      "ound": 3734,
      "▁side": 3735,
      "________________": 3736,
      "▁their": 3737,
      "▁march": 3738,
      "▁888": 3739,
      "▁enjoy": 3740,
      "▁seems": 3741,
      "▁apart": 3742,
      "'": 3743,
      "▁plac": 3744,
      "lic": 3745,
      "▁took": 3746,
      "/30": 3747,
      "cross": 3748,
      "☏": 3749,
      "▁1780": 3750,
      "atch": 3751,
      "▁summ": 3752,
      "▁1920": 3753,
      "▁947": 3754,
      "▁sl": 3755,
      "▁101": 3756,
      "__": 3757,
      "▁vide": 3758,
      "vers": 3759,
      "▁09:": 3760,
      ":38": 3761,
      "▁co": 3762,
      "/25/2001": 3763,
      "▁08/15": 3764,
      "▁08/16/2000": 3765,
      "▁......": 3766,
      "▁diff": 3767,
      "▁08:50": 3768,
      "▁412": 3769,
      "...": 3770,
      "▁economic": 3771,
      "▁o'clock": 3772,
      "▁713-853": 3773,
      "▁1562": 3774,
      "▁during": 3775,
      "▁chang": 3776,
      "-99": 3777,
      "ling": 3778,
      "ent": 3779,
      "▁2018": 3780,
      "▁dest": 3781,
      "▁hum": 3782,
      "▁1790": 3783,
      "▁tot": 3784,
      "▁particip": 3785,
      "▁ch": 3786,
      "▁tell": 3787,
      "airs": 3788,
      "▁pres": 3789,
      "ograph": 3790,
      "▁felt": 3791,
      "ple": 3792,
      "iew": 3793,
      "ides": 3794,
      "z": 3795,
      "/97": 3796,
      "▁vs.": 3797,
      "▁then": 3798,
      "mer": 3799,
      "294-": 3800,
      "ices": 3801,
      "▁1850": 3802,
      ":42": 3803,
      "▁d'": 3804,
      "▁98": 3805,
      "▁miss": 3806,
      "▁animals": 3807,
      "▁sp": 3808,
      "▁dec": 3809,
      "▁770": 3810,
      "ident": 3811,
      "▁’": 3812,
      "▁pol": 3813,
      "man": 3814,
      "ry": 3815,
      "▁however": 3816,
      "▁eu": 3817,
      "id": 3818,
      "ission": 3819,
      "▁death": 3820,
      "▁16": 3821,
      "▁thirteen": 3822,
      "▁trillion": 3823,
      ":57": 3824,
      "os": 3825,
      "▁weeks": 3826,
      "▁“": 3827,
      "▁uhhuh": 3828,
      "ʃ": 3829,
      "▁fam": 3830,
      "▁eas": 3831,
      "▁1560": 3832,
      "▁460": 3833,
      "▁6.8": 3834,
      "▁ju": 3835,
      "古": 3836,
      "with": 3837,
      "▁qu": 3838,
      "▁2001": 3839,
      "▁bas": 3840,
      "-27": 3841,
      "▁730": 3842,
      "▁1.75": 3843,
      "▁specific": 3844,
      "ele": 3845,
      "▁kept": 3846,
      "▁money": 3847,
      "▁are": 3848,
      "▁wonder": 3849,
      "▁among": 3850,
      "000": 3851,
      "▁5/1": 3852,
      ".713.86": 3853,
      "▁gen": 3854,
      "▁rele": 3855,
      "▁hers": 3856,
      "ummy": 3857,
      "▁right": 3858,
      "ion": 3859,
      "ce": 3860,
      "▁1603": 3861,
      "my": 3862,
      "▁217": 3863,
      "▁759933": 3864,
      "▁1996": 3865,
      "▁big": 3866,
      "▁fav": 3867,
      "▁low": 3868,
      "head": 3869,
      "zer": 3870,
      "▁1977": 3871,
      "▁1951": 3872,
      "----": 3873,
      "--------------------------------": 3874,
      "▁on": 3875,
      "▁glass": 3876,
      "i": 3877,
      "▁follow": 3878,
      "use": 3879,
      "ived": 3880,
      "▁rev": 3881,
      "▁book": 3882,
      "▁343": 3883,
      "▁03:20": 3884,
      "▁o": 3885,
      "▁atl": 3886,
      "▁kansas": 3887,
      "ters": 3888,
      "ower": 3889,
      "|": 3890,
      "ret": 3891,
      "ice": 3892,
      "ord": 3893,
      "▁73": 3894,
      "▁04/30/2001": 3895,
      "self": 3896,
      "▁calif": 3897,
      "uding": 3898,
      "▁al": 3899,
      ",0": 3900,
      ":30": 3901,
      "▁nor": 3902,
      "ts": 3903,
      "▁814": 3904,
      "✉": 3905,
      "ften": 3906,
      "ury": 3907,
      "▁made": 3908,
      "▁90": 3909,
      "▁1614": 3910,
      "▁stuff": 3911,
      "▁things": 3912,
      "▁04:37": 3913,
      "▁tax": 3914,
      "▁between": 3915,
      "▁thru": 3916,
      "▁full": 3917,
      "▁sy": 3918,
      "▁canad": 3919,
      "▁.....": 3920,
      "▁alread": 3921,
      "rib": 3922,
      "▁ur": 3923,
      "▁2000": 3924,
      "128": 3925,
      "▁consider": 3926,
      "▁969": 3927,
      "和": 3928,
      "ute": 3929,
      "▁admin": 3930,
      "▁con": 3931,
      "▁rich": 3932,
      "▁thursday": 3933,
      "▁said": 3934,
      "-0": 3935,
      "▁1/4": 3936,
      "▁ang": 3937,
      "elp": 3938,
      "▁2.6": 3939,
      "3098": 3940,
      "▁cond": 3941,
      "▁do": 3942,
      "▁experience": 3943,
      "▁54": 3944,
      "▁2008": 3945,
      "▁^": 3946,
      "@enron_de": 3947,
      "▁2.00": 3948,
      "ff": 3949,
      "▁situ": 3950,
      "▁lou": 3951,
      "▁cheapest": 3952,
      "▁ab": 3953,
      "▁713/8": 3954,
      "ocr": 3955,
      "ages": 3956,
      "▁underneath": 3957,
      "oke": 3958,
      "no": 3959,
      "▁dist": 3960,
      "▁cou": 3961,
      "▁fift": 3962,
      "▁1969": 3963,
      "▁1222": 3964,
      "▁water": 3965,
      ".61": 3966,
      "47": 3967,
      "53-3119": 3968,
      "▁'": 3969,
      "▁cook": 3970,
      "▁2011": 3971,
      "▁received": 3972,
      "▁713-793-": 3973,
      "▁in": 3974,
      "▁jun": 3975,
      "17": 3976,
      "▁noone": 3977,
      "▁_________________________________________________": 3978,
      "▁proble": 3979,
      "▁================================================": 3980,
      "▁gone": 3981,
      "▁away": 3982,
      "ll": 3983,
      "339": 3984,
      "▁1840": 3985,
      "μ": 3986,
      "▁ca": 3987,
      "▁6:30": 3988,
      "ense": 3989,
      "▁which": 3990,
      "ized": 3991,
      "▁1967": 3992,
      "490": 3993,
      "414": 3994,
      "▁1880": 3995,
      "▁according": 3996,
      "▁code": 3997,
      "ows": 3998,
      "▁youn": 3999,
      ":25": 4000,
      "▁perform": 4001,
      "▁b": 4002,
      "nesday": 4003,
      "▁1701": 4004,
      "ming": 4005,
      "-10": 4006,
      "▁oneself": 4007,
      "▁add": 4008,
      "▁live": 4009,
      "▁79": 4010,
      "ft": 4011,
      "▁345-99": 4012,
      "▁713-79": 4013,
      "▁denver": 4014,
      "▁var": 4015,
      "▁quite": 4016,
      "▁establish": 4017,
      "▁fare": 4018,
      "3736": 4019,
      "▁compet": 4020,
      "▁!!!!": 4021,
      "ints": 4022,
      "▁bu": 4023,
      "irl": 4024,
      "43": 4025,
      "zen": 4026,
      "▁no": 4027,
      "▁washington": 4028,
      "▁ed": 4029,
      "ance": 4030,
      "▁2:30": 4031,
      "▁350": 4032,
      "▁pe": 4033,
      "87": 4034,
      "5/2001": 4035,
      "▁econom": 4036,
      "▁3.1": 4037,
      "▁ide": 4038,
      "▁born": 4039,
      "▁315-460-33": 4040,
      "▁2500": 4041,
      "295": 4042,
      "▁li": 4043,
      "▁bur": 4044,
      "/03": 4045,
      "▁rest": 4046,
      ".86": 4047,
      "▁offic": 4048,
      "enron": 4049,
      "ile": 4050,
      "▁seventy": 4051,
      "▁'ve": 4052,
      "▁02/2": 4053,
      "721": 4054,
      "▁web": 4055,
      "—": 4056,
      "▁friday": 4057,
      "▁http://www": 4058,
      "▁ant": 4059,
      "▁meeting": 4060,
      "▁twel": 4061,
      "▁it": 4062,
      "▁207": 4063,
      "▁1779": 4064,
      "pite": 4065,
      "▁34": 4066,
      "▁someone": 4067,
      "▁quest": 4068,
      "▁bec": 4069,
      "cc": 4070,
      "▁185": 4071,
      "▁416-865-370": 4072,
      "▁camp": 4073,
      "º": 4074,
      "▁contin": 4075,
      "▁1602": 4076,
      "www": 4077,
      "▁se": 4078,
      "▁er": 4079,
      "▁environment": 4080,
      "ental": 4081,
      "▁imp": 4082,
      "▁7:00": 4083,
      "ane": 4084,
      "qu": 4085,
      "ames": 4086,
      "▁drink": 4087,
      "▁want": 4088,
      "▁br": 4089,
      "▁2": 4090,
      "▁came": 4091,
      "54-": 4092,
      "gr": 4093,
      "-435": 4094,
      "▁425-415-": 4095
    },
    "merges": [
      [
        "▁ind",
        "ust"
      ],
      [
        "▁econom",
        "y"
      ],
      [
        "2",
        "2"
      ],
      [
        "h",
        "n"
      ],
      [
        "13",
        ".86"
      ],
      [
        "i",
        "al"
      ],
      [
        "▁washing",
        "ton"
      ],
      [
        "▁cr",
        "it"
      ],
      [
        "7",
        "8"
      ],
      [
        "-",
        "435"
      ],
      [
        "▁_________________________________",
        "________________"
      ],
      [
        "▁beg",
        "in"
      ],
      [
        "for",
        "m"
      ],
      [
        "no",
        "on"
      ],
      [
        "▁a",
        "f"
      ],
      [
        "ic",
        "ult"
      ],
      [
        "▁glob",
        "al"
      ],
      [
        "▁11",
        "/2"
      ],
      [
        "▁pict",
        "ure"
      ],
      [
        "▁ch",
        "ange"
      ],
      [
        "▁",
        "est"
      ],
      [
        "e",
        "au"
      ],
      [
        "▁gr",
        "ound"
      ],
      [
        "i",
        "ff"
      ],
      [
        "▁fut",
        "ure"
      ],
      [
        "▁fift",
        "een"
      ],
      [
        "k",
        "en"
      ],
      [
        "/200",
        "4"
      ],
      [
        "▁09",
        ":01"
      ],
      [
        "▁con",
        "st"
      ],
      [
        "▁no",
        "thing"
      ],
      [
        "▁child",
        "ren"
      ],
      [
        "▁p",
        "ar"
      ],
      [
        "▁9",
        "44"
      ],
      [
        "u",
        "l"
      ],
      [
        "▁enj",
        "oy"
      ],
      [
        "▁b",
        "/"
      ],
      [
        "▁f",
        "ing"
      ],
      [
        "▁s",
        "ix"
      ],
      [
        "▁l",
        "itt"
      ],
      [
        "▁ap",
        "art"
      ],
      [
        "▁7",
        "7"
      ],
      [
        "▁s",
        "uch"
      ],
      [
        "▁08/03",
        "/2000"
      ],
      [
        "▁41",
        "2"
      ],
      [
        "▁e",
        "p"
      ],
      [
        "▁stud",
        "y"
      ],
      [
        "▁[",
        "..."
      ],
      [
        "▁kid",
        "s"
      ],
      [
        "im",
        "e"
      ],
      [
        "▁4",
        ":00"
      ],
      [
        "▁1.",
        "6"
      ],
      [
        "t",
        "er"
      ],
      [
        "▁ninety-n",
        "ine"
      ],
      [
        "▁160",
        "3"
      ],
      [
        "▁vis",
        "it"
      ],
      [
        "▁12",
        ":1"
      ],
      [
        "▁d",
        "en"
      ],
      [
        "▁repres",
        "ent"
      ],
      [
        "▁7",
        "3"
      ],
      [
        "▁the",
        "ir"
      ],
      [
        "▁sp",
        "ec"
      ],
      [
        "▁6",
        "20-"
      ],
      [
        "▁un",
        "t"
      ],
      [
        "▁it",
        "'s"
      ],
      [
        "▁ear",
        "ly"
      ],
      [
        "▁da",
        "ily"
      ],
      [
        "▁07",
        "/1"
      ],
      [
        "▁se",
        "ver"
      ],
      [
        "▁f",
        "ull"
      ],
      [
        "▁w",
        "ife"
      ],
      [
        "▁7",
        "00"
      ],
      [
        "▁com",
        "es"
      ],
      [
        "▁8",
        ":00"
      ],
      [
        "▁160",
        "8"
      ],
      [
        "▁09/16",
        "/99"
      ],
      [
        "▁s",
        "ho"
      ],
      [
        "▁univers",
        "ity"
      ],
      [
        "▁for",
        "ward"
      ],
      [
        "▁7",
        "8"
      ],
      [
        ":5",
        "7"
      ],
      [
        ",000,000",
        ",000"
      ],
      [
        "▁as",
        "ide"
      ],
      [
        "on",
        "t"
      ],
      [
        "▁l",
        "ess"
      ],
      [
        "▁a",
        "h"
      ],
      [
        "▁159",
        "4"
      ],
      [
        "?",
        "?"
      ],
      [
        "▁at",
        "op"
      ],
      [
        "▁p",
        "ock"
      ],
      [
        "▁geor",
        "ge"
      ],
      [
        "▁b",
        "ook"
      ],
      [
        "▁3",
        "20"
      ],
      [
        "al",
        "ys"
      ],
      [
        "i",
        "t"
      ],
      [
        "▁or",
        "gan"
      ],
      [
        "▁c",
        "ol"
      ],
      [
        "▁n",
        "e"
      ],
      [
        "▁200",
        ",000"
      ],
      [
        "us",
        "s"
      ],
      [
        "▁ele",
        "ven"
      ],
      [
        "▁st",
        "."
      ],
      [
        "it",
        "s"
      ],
      [
        "▁s",
        "ave"
      ],
      [
        "or",
        "m"
      ],
      [
        "▁where",
        "as"
      ],
      [
        "▁",
        "!"
      ],
      [
        "3",
        "7"
      ],
      [
        "-",
        "4"
      ],
      [
        "x",
        "ic"
      ],
      [
        "l",
        "e"
      ],
      [
        "▁38",
        "89"
      ],
      [
        "▁nine",
        "teen"
      ],
      [
        ":",
        "13"
      ],
      [
        "o",
        "st"
      ],
      [
        "▁be",
        "en"
      ],
      [
        "▁47",
        ",500"
      ],
      [
        "▁st",
        "art"
      ],
      [
        "▁2",
        "0"
      ],
      [
        "▁l",
        "ow"
      ],
      [
        "▁9",
        "28"
      ],
      [
        "▁t",
        "able"
      ],
      [
        "▁sa",
        "ve"
      ],
      [
        "u",
        "ch"
      ],
      [
        "▁4",
        "6"
      ],
      [
        "▁",
        "|"
      ],
      [
        "▁x",
        "sl"
      ],
      [
        "▁exp",
        "er"
      ],
      [
        "▁s",
        "ent"
      ],
      [
        "▁num",
        "ber"
      ],
      [
        "▁2",
        "9"
      ],
      [
        "▁y",
        "ou"
      ],
      [
        "▁look",
        "s"
      ],
      [
        "s",
        "on"
      ],
      [
        "3",
        "3"
      ],
      [
        "▁d",
        "inner"
      ],
      [
        "oc",
        "k"
      ],
      [
        "▁str",
        "ong"
      ],
      [
        "▁01",
        ":0"
      ],
      [
        "▁h",
        "uma"
      ],
      [
        "▁a",
        "uth"
      ],
      [
        "omm",
        "end"
      ],
      [
        "▁br",
        "ing"
      ],
      [
        "▁play",
        "ing"
      ],
      [
        "▁m",
        "r"
      ],
      [
        "u",
        "el"
      ],
      [
        "3",
        "00"
      ],
      [
        "▁en",
        "ough"
      ],
      [
        "▁jun",
        "e"
      ],
      [
        "▁sa",
        "w"
      ],
      [
        "▁?",
        "????"
      ],
      [
        "▁pr",
        "ice"
      ],
      [
        "▁ey",
        "es"
      ],
      [
        "▁prof",
        "ess"
      ],
      [
        "10",
        "82"
      ],
      [
        "7",
        "/2001"
      ],
      [
        "▁th",
        "row"
      ],
      [
        "3",
        "8"
      ],
      [
        "▁p",
        "ol"
      ],
      [
        "▁h",
        "ard"
      ],
      [
        "▁20",
        "1"
      ],
      [
        "▁h",
        "e"
      ],
      [
        "4",
        "7"
      ],
      [
        "▁e",
        "ast"
      ],
      [
        "▁120",
        ",000"
      ],
      [
        "▁ch",
        "air"
      ],
      [
        "▁a",
        "ble"
      ],
      [
        "fi",
        "ve"
      ],
      [
        "at",
        "or"
      ],
      [
        "▁g",
        "reat"
      ],
      [
        "▁su",
        "cc"
      ],
      [
        "▁d",
        "kk"
      ],
      [
        "▁oc",
        "t"
      ],
      [
        "▁2",
        ".6"
      ],
      [
        "-4",
        "15-"
      ],
      [
        "▁tw",
        "el"
      ],
      [
        "▁21",
        "2"
      ],
      [
        "▁2",
        ".5"
      ],
      [
        "op",
        "ment"
      ],
      [
        "▁ha",
        "ve"
      ],
      [
        "▁ex",
        "p"
      ],
      [
        "▁i",
        "f"
      ],
      [
        "▁5",
        "2"
      ],
      [
        "▁158",
        "5"
      ],
      [
        "9",
        "9"
      ],
      [
        "▁7",
        "47"
      ],
      [
        "▁",
        "================================"
      ],
      [
        "▁bo",
        "dy"
      ],
      [
        "▁20",
        ",000"
      ],
      [
        "ec",
        "ts"
      ],
      [
        "uc",
        "k"
      ],
      [
        "4",
        "3"
      ],
      [
        "▁c",
        "red"
      ],
      [
        "n",
        "a"
      ],
      [
        "▁val",
        "ue"
      ],
      [
        "▁713",
        "-6"
      ],
      [
        "▁s",
        "ide"
      ],
      [
        "▁us",
        "ed"
      ],
      [
        "▁t",
        "e"
      ],
      [
        "▁av",
        "ail"
      ],
      [
        "j",
        "www"
      ],
      [
        "v",
        "e"
      ],
      [
        "0",
        "0"
      ],
      [
        "ire",
        "d"
      ],
      [
        "4",
        "8"
      ],
      [
        "i",
        "ll"
      ],
      [
        "a",
        "q"
      ],
      [
        "▁18",
        "43"
      ],
      [
        "▁",
        "on"
      ],
      [
        "▁19",
        "44"
      ],
      [
        "▁345-343",
        "6"
      ],
      [
        "▁c",
        "our"
      ],
      [
        "ond",
        "on"
      ],
      [
        "▁b",
        "ill"
      ],
      [
        "0",
        "9"
      ],
      [
        "▁inter",
        "est"
      ],
      [
        "▁j",
        "an"
      ],
      [
        "▁wi",
        "th"
      ],
      [
        "▁whe",
        "ther"
      ],
      [
        "▁e",
        "qu"
      ],
      [
        "▁9",
        "0"
      ],
      [
        "**",
        "**"
      ],
      [
        "7",
        "/99"
      ],
      [
        "▁bel",
        "ow"
      ],
      [
        ":",
        "24"
      ],
      [
        "▁",
        "q"
      ],
      [
        "▁3",
        "45"
      ],
      [
        "▁10",
        ":34"
      ],
      [
        "▁183",
        "3"
      ],
      [
        "1",
        "1"
      ],
      [
        "▁9",
        "9"
      ],
      [
        "▁plac",
        "es"
      ],
      [
        "▁w",
        "i"
      ],
      [
        "▁cheap",
        "est"
      ],
      [
        "▁four",
        "teen"
      ],
      [
        "▁16",
        "89"
      ],
      [
        "d",
        "r"
      ],
      [
        "▁dad",
        "dy"
      ],
      [
        "▁el",
        "se"
      ],
      [
        "▁st",
        "ate"
      ],
      [
        "▁t",
        "ogether"
      ],
      [
        "g",
        "r"
      ],
      [
        "ii",
        "i"
      ],
      [
        "▁sch",
        "ed"
      ],
      [
        "▁sev",
        "enth"
      ],
      [
        ":5",
        "1"
      ],
      [
        "▁al",
        "be"
      ],
      [
        "▁le",
        "ft"
      ],
      [
        "▁22",
        "5"
      ],
      [
        "▁fl",
        "o"
      ],
      [
        "▁m",
        "ed"
      ],
      [
        "▁s/h",
        "e"
      ],
      [
        "▁80",
        "435"
      ],
      [
        "▁f",
        "all"
      ],
      [
        "▁3",
        "0"
      ],
      [
        "▁",
        "“"
      ],
      [
        "▁f",
        "ollow"
      ],
      [
        "ft",
        "en"
      ],
      [
        "at",
        "s"
      ],
      [
        "▁20",
        "21"
      ],
      [
        "****",
        "****"
      ],
      [
        "▁f",
        "ro"
      ],
      [
        "▁intern",
        "et"
      ],
      [
        "▁the",
        "y"
      ],
      [
        "▁h",
        "ere"
      ],
      [
        "▁",
        "********************************"
      ],
      [
        "▁3",
        "9"
      ],
      [
        "em",
        "ber"
      ],
      [
        "▁right",
        "s"
      ],
      [
        "n",
        "ing"
      ],
      [
        "o",
        "k"
      ],
      [
        "if",
        "y"
      ],
      [
        "▁comp",
        "ut"
      ],
      [
        "u",
        "r"
      ],
      [
        "i",
        "ans"
      ],
      [
        "re",
        "ct"
      ],
      [
        "▁g",
        "irl"
      ],
      [
        "▁r",
        "oman"
      ],
      [
        "vel",
        "and"
      ],
      [
        "v",
        "iat"
      ],
      [
        "▁05",
        "/25/2001"
      ],
      [
        "il",
        "l"
      ],
      [
        "▁16.3",
        "79"
      ],
      [
        "d",
        "d"
      ],
      [
        "ust",
        "om"
      ],
      [
        "s",
        "us"
      ],
      [
        "um",
        "b"
      ],
      [
        "43",
        "5"
      ],
      [
        "▁177",
        "7"
      ],
      [
        "▁'",
        "ll"
      ],
      [
        "▁v",
        "iew"
      ],
      [
        "▁thous",
        "and"
      ],
      [
        "▁18",
        "80"
      ],
      [
        "▁t",
        "er"
      ],
      [
        "▁comp",
        "an"
      ],
      [
        "ou",
        "g"
      ],
      [
        "er",
        "n"
      ],
      [
        "-99",
        "1-9"
      ],
      [
        "▁wh",
        "y"
      ],
      [
        "ant",
        "a"
      ],
      [
        ",",
        "6"
      ],
      [
        "▁re",
        "ad"
      ],
      [
        "▁05",
        "/30/2001"
      ],
      [
        "▁4",
        "10"
      ],
      [
        "▁8",
        ".3"
      ],
      [
        "a",
        "ur"
      ],
      [
        "▁3",
        ".5"
      ],
      [
        "▁f",
        "e"
      ],
      [
        "▁de",
        "ad"
      ],
      [
        "▁l",
        "ate"
      ],
      [
        "▁of",
        "f"
      ],
      [
        "▁s",
        "h"
      ],
      [
        "▁sugg",
        "est"
      ],
      [
        "▁2",
        ","
      ],
      [
        "▁succ",
        "ess"
      ],
      [
        "▁wa",
        "it"
      ],
      [
        "▁partic",
        "ip"
      ],
      [
        "in",
        "a"
      ],
      [
        "u",
        "d"
      ],
      [
        "▁con",
        "t"
      ],
      [
        "pl",
        "oy"
      ],
      [
        "▁11",
        "15"
      ],
      [
        "▁in",
        "cl"
      ],
      [
        "85",
        "49"
      ],
      [
        "▁econom",
        "ic"
      ],
      [
        "r",
        "e"
      ],
      [
        "▁19",
        "28"
      ],
      [
        "en",
        "n"
      ],
      [
        "u",
        "c"
      ],
      [
        ":",
        "40"
      ],
      [
        "▁200",
        "2"
      ],
      [
        "▁k",
        "ill"
      ],
      [
        "▁mark",
        "et"
      ],
      [
        "▁want",
        "s"
      ],
      [
        "▁th",
        "o"
      ],
      [
        "▁ke",
        "pt"
      ],
      [
        "▁s",
        "u"
      ],
      [
        "▁alth",
        "ough"
      ],
      [
        "▁e",
        "m"
      ],
      [
        "▁f",
        "are"
      ],
      [
        "▁re",
        "m"
      ],
      [
        "▁at",
        "t"
      ],
      [
        "▁loc",
        "al"
      ],
      [
        "▁t",
        "ri"
      ],
      [
        "iet",
        "y"
      ],
      [
        "▁ta",
        "x"
      ],
      [
        "g",
        "ed"
      ],
      [
        "▁th",
        "an"
      ],
      [
        "▁sun",
        "day"
      ],
      [
        "b",
        "y"
      ],
      [
        "▁d",
        "em"
      ],
      [
        "99",
        "33"
      ],
      [
        "▁per",
        "haps"
      ],
      [
        "e",
        "n"
      ],
      [
        "▁2",
        ":25"
      ],
      [
        "▁lar",
        "ge"
      ],
      [
        "▁345",
        "-99"
      ],
      [
        "▁.",
        "."
      ],
      [
        ":",
        "50"
      ],
      [
        "▁09",
        "/15"
      ],
      [
        "▁for",
        "th"
      ],
      [
        "ou",
        "th"
      ],
      [
        "u",
        "ation"
      ],
      [
        "-",
        "49"
      ],
      [
        "u",
        "ed"
      ],
      [
        "▁44",
        ",000"
      ],
      [
        "00",
        "10"
      ],
      [
        "▁03",
        "/0"
      ],
      [
        "u",
        "b"
      ],
      [
        "▁m",
        "ummy"
      ],
      [
        "k",
        "s"
      ],
      [
        "▁ever",
        "y"
      ],
      [
        "!!!!",
        "!!!!"
      ],
      [
        "▁08",
        ":50"
      ],
      [
        "▁1.",
        "4"
      ],
      [
        "oo",
        "se"
      ],
      [
        ",5",
        "00"
      ],
      [
        "▁eas",
        "y"
      ],
      [
        "▁al",
        "most"
      ],
      [
        "▁19",
        "45"
      ],
      [
        "est",
        "er"
      ],
      [
        "▁the",
        "re"
      ],
      [
        "▁315",
        "-460-3"
      ],
      [
        "▁646-84",
        "20"
      ],
      [
        "▁3",
        ".8"
      ],
      [
        "▁09",
        ":"
      ],
      [
        "▁al",
        "."
      ],
      [
        "i",
        "re"
      ],
      [
        "as",
        "ed"
      ],
      [
        "▁eff",
        "ect"
      ],
      [
        "▁3",
        "/4"
      ],
      [
        "▁les",
        "t"
      ],
      [
        "▁un",
        "der"
      ],
      [
        "▁04",
        ":03"
      ],
      [
        "▁",
        "jwww"
      ],
      [
        "▁158",
        "3"
      ],
      [
        "ww",
        "w"
      ],
      [
        "▁15",
        ",000"
      ],
      [
        "▁pri",
        "v"
      ],
      [
        "▁ec",
        "onom"
      ],
      [
        "▁lo",
        "st"
      ],
      [
        "i",
        "ght"
      ],
      [
        ":3",
        "9"
      ],
      [
        "s",
        "l"
      ],
      [
        "▁19",
        "14"
      ],
      [
        "▁americ",
        "an"
      ],
      [
        "ent",
        "h"
      ],
      [
        "iv",
        "ed"
      ],
      [
        "▁19",
        "0"
      ],
      [
        "it",
        "ies"
      ],
      [
        "▁158",
        "8"
      ],
      [
        "▁s",
        "il"
      ],
      [
        "o",
        "t"
      ],
      [
        "▁o",
        "f"
      ],
      [
        "▁bac",
        "k"
      ],
      [
        "▁d",
        "ad"
      ],
      [
        "▁cop",
        "y"
      ],
      [
        "▁w",
        "ays"
      ],
      [
        "▁19",
        "9"
      ],
      [
        "ing",
        "s"
      ],
      [
        "▁01",
        "/1"
      ],
      [
        "▁6",
        ":30"
      ],
      [
        "▁st",
        "r"
      ],
      [
        "▁03/0",
        "2/2001"
      ],
      [
        "in",
        "g"
      ],
      [
        ":",
        "23"
      ],
      [
        "▁alber",
        "ta"
      ],
      [
        "f",
        "t"
      ],
      [
        "▁3",
        ","
      ],
      [
        "▁196",
        "2"
      ],
      [
        ",00",
        "8"
      ],
      [
        ".",
        "99"
      ],
      [
        "8",
        "10"
      ],
      [
        "▁h",
        "uh"
      ],
      [
        "▁160",
        "2"
      ],
      [
        "▁sor",
        "ry"
      ],
      [
        "▁indian",
        "apolis"
      ],
      [
        "▁p",
        "et"
      ],
      [
        "▁f",
        "ri"
      ],
      [
        "▁7",
        "2"
      ],
      [
        "▁6",
        ".00"
      ],
      [
        "▁whe",
        "re"
      ],
      [
        "▁man",
        "ag"
      ],
      [
        "▁http://www",
        "."
      ],
      [
        "p",
        "ite"
      ],
      [
        "▁ha",
        "lf"
      ],
      [
        "▁sh",
        "akes"
      ],
      [
        "▁go",
        "d"
      ],
      [
        "▁31",
        "5"
      ],
      [
        "▁08",
        "/03"
      ],
      [
        "ent",
        "ly"
      ],
      [
        ".",
        "30"
      ],
      [
        ".831",
        "7"
      ],
      [
        "a",
        "l"
      ],
      [
        "▁4",
        "4"
      ],
      [
        "▁fam",
        "ily"
      ],
      [
        "c",
        "ross"
      ],
      [
        "▁al",
        "l"
      ],
      [
        "▁whil",
        "st"
      ],
      [
        "▁li",
        "ke"
      ],
      [
        "i",
        "gh"
      ],
      [
        "▁e",
        "ight"
      ],
      [
        "▁",
        "l"
      ],
      [
        "▁l",
        "at"
      ],
      [
        "▁",
        "end"
      ],
      [
        "ar",
        "s"
      ],
      [
        "▁airl",
        "ine"
      ],
      [
        "▁'",
        "re"
      ],
      [
        "▁-",
        "ect"
      ],
      [
        "▁",
        "–"
      ],
      [
        "8",
        "67"
      ],
      [
        "▁20",
        ":00"
      ],
      [
        "▁922",
        "1"
      ],
      [
        "▁ph",
        "il"
      ],
      [
        "▁26",
        "0"
      ],
      [
        "▁fe",
        "el"
      ],
      [
        ":5",
        "2"
      ],
      [
        "i",
        "et"
      ],
      [
        "▁18",
        "29"
      ],
      [
        "▁uh",
        "oh"
      ],
      [
        "▁d",
        "est"
      ],
      [
        "▁y",
        "oun"
      ],
      [
        "▁26",
        "9"
      ],
      [
        "▁g",
        "o"
      ],
      [
        "an",
        "c"
      ],
      [
        "▁10",
        "/31"
      ],
      [
        "▁down",
        "town"
      ],
      [
        "▁01",
        ":58"
      ],
      [
        "ist",
        "s"
      ],
      [
        ".9",
        "16.718"
      ],
      [
        "▁11",
        "60"
      ],
      [
        "▁sh",
        "o"
      ],
      [
        "▁&amp",
        ";"
      ],
      [
        "▁o",
        "h"
      ],
      [
        "▁0",
        "6"
      ],
      [
        "3",
        "2"
      ],
      [
        "▁10",
        ":30"
      ],
      [
        "or",
        "k"
      ],
      [
        "▁h",
        "op"
      ],
      [
        "ab",
        "ly"
      ],
      [
        "▁in",
        "st"
      ],
      [
        "▁ser",
        "v"
      ],
      [
        "▁des",
        "ign"
      ],
      [
        "▁ir",
        "an"
      ],
      [
        "▁g",
        "l"
      ],
      [
        "▁rec",
        "ommend"
      ],
      [
        "▁st",
        "ation"
      ],
      [
        "ri",
        "b"
      ],
      [
        "le",
        "y"
      ],
      [
        "▁ch",
        "icago"
      ],
      [
        "▁",
        "ident"
      ],
      [
        "▁ex",
        "ec"
      ],
      [
        ".",
        "."
      ],
      [
        "▁seem",
        "s"
      ],
      [
        "s",
        "id"
      ],
      [
        "▁o",
        "u"
      ],
      [
        "▁ar",
        "g"
      ],
      [
        "ac",
        "k"
      ],
      [
        "p",
        "e"
      ],
      [
        "n",
        "e"
      ],
      [
        "▁p",
        "u"
      ],
      [
        "▁198",
        "0"
      ],
      [
        "um",
        "a"
      ],
      [
        "▁p",
        "ark"
      ],
      [
        "▁y",
        "ellow"
      ],
      [
        "▁4",
        "25"
      ],
      [
        "▁somet",
        "hing"
      ],
      [
        "▁sept",
        "ember"
      ],
      [
        "▁dogg",
        "ie"
      ],
      [
        "k",
        "k"
      ],
      [
        "▁198",
        "9"
      ],
      [
        "ce",
        "pt"
      ],
      [
        "▁t",
        "op"
      ],
      [
        "▁mar",
        "ch"
      ],
      [
        "2",
        "0"
      ],
      [
        "▁app",
        "ro"
      ],
      [
        ":",
        "3"
      ],
      [
        "▁05",
        ":37"
      ],
      [
        "a",
        "ch"
      ],
      [
        "▁http",
        "://"
      ],
      [
        "re",
        "e"
      ],
      [
        "▁s",
        "p"
      ],
      [
        "▁n",
        "ational"
      ],
      [
        "ol",
        "ution"
      ],
      [
        "▁col",
        "l"
      ],
      [
        "il",
        "d"
      ],
      [
        ":",
        "00"
      ],
      [
        "2",
        "9"
      ],
      [
        "4",
        "2"
      ],
      [
        "m",
        "p"
      ],
      [
        "'",
        "re"
      ],
      [
        "▁17",
        "65"
      ],
      [
        "t",
        "t"
      ],
      [
        "▁6",
        "80"
      ],
      [
        "▁charl",
        "otte"
      ],
      [
        "▁en",
        "erg"
      ],
      [
        "▁proble",
        "m"
      ],
      [
        "▁die",
        "go"
      ],
      [
        "▁01",
        "/2"
      ],
      [
        "▁",
        "ver"
      ],
      [
        "▁co",
        "st"
      ],
      [
        "▁mo",
        "st"
      ],
      [
        "▁th",
        "at"
      ],
      [
        ":1",
        "5"
      ],
      [
        "ro",
        "om"
      ],
      [
        "▁18",
        "41"
      ],
      [
        "▁be",
        "side"
      ],
      [
        "▁36",
        "6"
      ],
      [
        "▁’",
        "’"
      ],
      [
        "w",
        "h"
      ],
      [
        "▁197",
        "1"
      ],
      [
        "▁se",
        "en"
      ],
      [
        "ot",
        "e"
      ],
      [
        "▁opp",
        "osite"
      ],
      [
        "a",
        "im"
      ],
      [
        "▁16",
        "60"
      ],
      [
        "▁unt",
        "ill"
      ],
      [
        "▁l",
        "ea"
      ],
      [
        "▁gr",
        "ow"
      ],
      [
        "▁co",
        "de"
      ],
      [
        "▁ab",
        "ove"
      ],
      [
        "▁li",
        "fe"
      ],
      [
        "▁!!!",
        "!!!"
      ],
      [
        "▁su",
        "n"
      ],
      [
        "▁345-99",
        "45"
      ],
      [
        "▁",
        "el"
      ],
      [
        ".8",
        "5"
      ],
      [
        "ect",
        "ed"
      ],
      [
        "and",
        "s"
      ],
      [
        "▁th",
        "r"
      ],
      [
        "▁4",
        ".0"
      ],
      [
        "▁y",
        "er"
      ],
      [
        "▁wr",
        "ong"
      ],
      [
        "▁19",
        "59"
      ],
      [
        "▁7",
        "48"
      ],
      [
        "ic",
        "a"
      ],
      [
        "is",
        "ing"
      ],
      [
        "▁a",
        "round"
      ],
      [
        "▁s",
        "ame"
      ],
      [
        "▁rep",
        "res"
      ],
      [
        "▁3",
        "50"
      ],
      [
        "▁8",
        "88"
      ],
      [
        "▁",
        "**"
      ],
      [
        "....",
        "...."
      ],
      [
        "1",
        "6"
      ],
      [
        "▁o",
        "il"
      ],
      [
        "al",
        "th"
      ],
      [
        "▁pa",
        "ul"
      ],
      [
        "▁est",
        "ablish"
      ],
      [
        "6",
        "-8"
      ],
      [
        "▁f",
        "ood"
      ],
      [
        "▁a",
        "m"
      ],
      [
        "e",
        "@enron"
      ],
      [
        "▁s",
        "w"
      ],
      [
        "▁se",
        "pt"
      ],
      [
        "l",
        "i"
      ],
      [
        "▁l",
        "ink"
      ],
      [
        "▁w",
        "ant"
      ],
      [
        "▁s",
        "ound"
      ],
      [
        "▁cons",
        "ider"
      ],
      [
        "i",
        "a"
      ],
      [
        "▁5",
        "/1"
      ],
      [
        "▁h",
        "alf"
      ],
      [
        "il",
        "ities"
      ],
      [
        "f",
        "our"
      ],
      [
        "▁01/2",
        "4/2001"
      ],
      [
        "in",
        "e"
      ],
      [
        "10",
        "9"
      ],
      [
        "▁fi",
        "ve"
      ],
      [
        "▁n",
        "o"
      ],
      [
        "▁14",
        "0"
      ],
      [
        "c",
        "l"
      ],
      [
        "87",
        "4"
      ],
      [
        "▁ch",
        "e"
      ],
      [
        "▁",
        "#"
      ],
      [
        "▁con",
        "f"
      ],
      [
        "▁h",
        "i"
      ],
      [
        "▁del",
        "iver"
      ],
      [
        "▁per",
        "iod"
      ],
      [
        "▁cer",
        "tain"
      ],
      [
        "l",
        "o"
      ],
      [
        "ak",
        "ing"
      ],
      [
        "▁",
        "in"
      ],
      [
        "▁ha",
        "pp"
      ],
      [
        "▁b",
        "n"
      ],
      [
        "8196021",
        "75"
      ],
      [
        "ac",
        "t"
      ],
      [
        "▁beaut",
        "iful"
      ],
      [
        "▁as",
        "tride"
      ],
      [
        "▁b",
        "ur"
      ],
      [
        "oo",
        "l"
      ],
      [
        "▁p",
        "ub"
      ],
      [
        "▁d",
        "on"
      ],
      [
        "rou",
        "nd"
      ],
      [
        "▁11",
        "1"
      ],
      [
        "▁",
        "y"
      ],
      [
        "▁t",
        "ot"
      ],
      [
        "▁",
        "4"
      ],
      [
        "a",
        "r"
      ],
      [
        "▁n",
        "t"
      ],
      [
        "▁29",
        "587"
      ],
      [
        "▁2",
        ":30"
      ],
      [
        "4",
        "99"
      ],
      [
        "30",
        "1"
      ],
      [
        "▁as",
        "s"
      ],
      [
        "▁gl",
        "ass"
      ],
      [
        "el",
        "e"
      ],
      [
        "7",
        "44"
      ],
      [
        "▁‘",
        "’"
      ],
      [
        "▁b",
        "ow"
      ],
      [
        "▁b",
        "ag"
      ],
      [
        "▁res",
        "ult"
      ],
      [
        "▁nor",
        "th"
      ],
      [
        "um",
        "my"
      ],
      [
        "▁f",
        "ac"
      ],
      [
        "▁al",
        "ways"
      ],
      [
        "▁bre",
        "ak"
      ],
      [
        "▁s",
        "qu"
      ],
      [
        "▁s",
        "or"
      ],
      [
        "9",
        "3"
      ],
      [
        "▁10",
        ":45"
      ],
      [
        "▁pro",
        "c"
      ],
      [
        "t",
        "y"
      ],
      [
        "ur",
        "day"
      ],
      [
        "▁19",
        "40"
      ],
      [
        "46",
        "1"
      ],
      [
        "▁sp",
        "eak"
      ],
      [
        "▁11",
        ":45"
      ],
      [
        "▁21",
        "0"
      ],
      [
        "et",
        "h"
      ],
      [
        "it",
        "ch"
      ],
      [
        "▁07/1",
        "4/2000"
      ],
      [
        "a",
        "d"
      ],
      [
        "▁do",
        "ct"
      ],
      [
        "▁th",
        "ink"
      ],
      [
        "▁bo",
        "at"
      ],
      [
        "er",
        "c"
      ],
      [
        "▁5",
        "0"
      ],
      [
        "9",
        "8"
      ],
      [
        "▁<",
        "<"
      ],
      [
        "e",
        "r"
      ],
      [
        "▁a",
        "pr"
      ],
      [
        "a",
        "c"
      ],
      [
        "▁work",
        "s"
      ],
      [
        "▁12",
        ":42"
      ],
      [
        "▁h",
        "is"
      ],
      [
        "ul",
        "ation"
      ],
      [
        "▁5",
        "9"
      ],
      [
        "▁d",
        "es"
      ],
      [
        "▁for",
        "m"
      ],
      [
        "▁",
        "d"
      ],
      [
        "▁s",
        "to"
      ],
      [
        "▁m",
        "illion"
      ],
      [
        "▁e",
        "."
      ],
      [
        "▁do",
        "ing"
      ],
      [
        "▁c",
        "ame"
      ],
      [
        "▁2.9",
        "75"
      ],
      [
        "vel",
        "opment"
      ],
      [
        "▁l",
        "ab"
      ],
      [
        "▁g",
        "r"
      ],
      [
        "▁o",
        "p"
      ],
      [
        "▁abo",
        "ard"
      ],
      [
        ":1",
        "7"
      ],
      [
        "▁w",
        "h"
      ],
      [
        "en",
        "c"
      ],
      [
        "▁fav",
        "or"
      ],
      [
        "****************",
        "****************"
      ],
      [
        "▁17",
        "79"
      ],
      [
        "▁19",
        "50"
      ],
      [
        "▁00",
        "0010"
      ],
      [
        "37",
        "36"
      ],
      [
        "ack",
        "l"
      ],
      [
        "▁i",
        "s"
      ],
      [
        "o",
        "ke"
      ],
      [
        "▁ex",
        "ist"
      ],
      [
        "▁70",
        "5"
      ],
      [
        "▁re",
        "al"
      ],
      [
        "▁3",
        "7"
      ],
      [
        "▁non",
        "stop"
      ],
      [
        "▁de",
        "al"
      ],
      [
        ":",
        "//"
      ],
      [
        "▁some",
        "thing"
      ],
      [
        "▁5",
        ".6"
      ],
      [
        "er",
        "ed"
      ],
      [
        "▁belie",
        "ve"
      ],
      [
        "▁5",
        ".5"
      ],
      [
        "▁4",
        ":50"
      ],
      [
        "▁acc",
        "ount"
      ],
      [
        "ent",
        "ion"
      ],
      [
        "▁fa",
        "res"
      ],
      [
        "▁k",
        "n"
      ],
      [
        "▁m",
        "em"
      ],
      [
        "▁h",
        "un"
      ],
      [
        "/200",
        "1"
      ],
      [
        "ast",
        "er"
      ],
      [
        "▁seven",
        "teen"
      ],
      [
        "▁9",
        ":30"
      ],
      [
        "▁31",
        "1"
      ],
      [
        "▁75",
        "5"
      ],
      [
        "????????",
        "????????"
      ],
      [
        "▁",
        "€"
      ],
      [
        "e",
        "c"
      ],
      [
        "▁fe",
        "et"
      ],
      [
        "▁6",
        ".1"
      ],
      [
        "a",
        "b"
      ],
      [
        "▁do",
        "g"
      ],
      [
        "▁b",
        "ut"
      ],
      [
        "▁ach",
        "ie"
      ],
      [
        "▁7",
        "44"
      ],
      [
        "▁pro",
        "f"
      ],
      [
        "▁20",
        "20"
      ],
      [
        "▁c",
        "om"
      ],
      [
        "▁201",
        "6"
      ],
      [
        "▁1.",
        "5"
      ],
      [
        "▁3",
        "3"
      ],
      [
        ":1",
        "8"
      ],
      [
        "▁b",
        "o"
      ],
      [
        "▁25",
        "3"
      ],
      [
        "▁h",
        "old"
      ],
      [
        "▁",
        "b"
      ],
      [
        "▁3",
        "00"
      ],
      [
        "▁500",
        "00"
      ],
      [
        "▁f",
        "i"
      ],
      [
        "▁l",
        "ater"
      ],
      [
        "m",
        "s"
      ],
      [
        "▁pr",
        "om"
      ],
      [
        "▁25",
        "00"
      ],
      [
        "▁",
        "re"
      ],
      [
        "u",
        "th"
      ],
      [
        "▁b",
        "an"
      ],
      [
        "▁1",
        "-8"
      ],
      [
        "▁3",
        "8"
      ],
      [
        "▁3",
        ":30"
      ],
      [
        "▁re",
        "l"
      ],
      [
        "or",
        "y"
      ],
      [
        "r",
        "i"
      ],
      [
        "▁l",
        "ou"
      ],
      [
        "▁54",
        ",000"
      ],
      [
        "▁748",
        "4"
      ],
      [
        "▁twenty-",
        "six"
      ],
      [
        "▁p",
        "ick"
      ],
      [
        "ap",
        "olis"
      ],
      [
        "▁09",
        "/16"
      ],
      [
        "▁notwithstand",
        "ing"
      ],
      [
        "p",
        "eare"
      ],
      [
        "▁californ",
        "ia"
      ],
      [
        "▁b",
        "l"
      ],
      [
        "▁20",
        "22"
      ],
      [
        "▁go",
        "ing"
      ],
      [
        "▁m",
        "ine"
      ],
      [
        "▁y",
        "es"
      ],
      [
        "e",
        "ed"
      ],
      [
        "46",
        "-3393"
      ],
      [
        "▁su",
        "ch"
      ],
      [
        "ac",
        "y"
      ],
      [
        "id",
        "ing"
      ],
      [
        ".",
        "0"
      ],
      [
        "▁09",
        ":45"
      ],
      [
        "▁se",
        "em"
      ],
      [
        "▁str",
        "uct"
      ],
      [
        "6",
        "6"
      ],
      [
        "▁1-800",
        "-991-9"
      ],
      [
        "▁h",
        "ol"
      ],
      [
        "ow",
        "s"
      ],
      [
        "▁f",
        "o"
      ],
      [
        "▁m",
        "ad"
      ],
      [
        "▁pos",
        "t"
      ],
      [
        "▁mo",
        "t"
      ],
      [
        "▁angel",
        "es"
      ],
      [
        "e",
        "f"
      ],
      [
        "▁mil",
        "wau"
      ],
      [
        "▁c",
        "ustom"
      ],
      [
        "o",
        "h"
      ],
      [
        "▁s",
        "and"
      ],
      [
        "i",
        "z"
      ],
      [
        "_",
        "de"
      ],
      [
        "is",
        "e"
      ],
      [
        "▁char",
        "l"
      ],
      [
        "7",
        "4"
      ],
      [
        "r",
        "o"
      ],
      [
        "at",
        "ch"
      ],
      [
        "▁4",
        "5"
      ],
      [
        "▁23",
        "8"
      ],
      [
        "▁200",
        "0"
      ],
      [
        "▁per",
        "du"
      ],
      [
        "▁s",
        "/h"
      ],
      [
        "▁includ",
        "ing"
      ],
      [
        "▁300",
        ",000"
      ],
      [
        "▁cle",
        "ar"
      ],
      [
        "▁exper",
        "ience"
      ],
      [
        "-",
        "1"
      ],
      [
        "▁200",
        "9"
      ],
      [
        "▁",
        "~"
      ],
      [
        "▁en",
        "ron"
      ],
      [
        "▁me",
        "as"
      ],
      [
        "▁a",
        "pp"
      ],
      [
        "o",
        "u"
      ],
      [
        "on",
        "om"
      ],
      [
        "▁8",
        "5"
      ],
      [
        "▁six",
        "teen"
      ],
      [
        ".7",
        "822"
      ],
      [
        "ic",
        "le"
      ],
      [
        "▁ar",
        "ri"
      ],
      [
        "▁am",
        "id"
      ],
      [
        "▁m",
        "m"
      ],
      [
        "▁env",
        "iron"
      ],
      [
        "▁co",
        "un"
      ],
      [
        "▁per",
        "form"
      ],
      [
        "▁wi",
        "l"
      ],
      [
        "▁to",
        "day"
      ],
      [
        "9",
        "/2001"
      ],
      [
        "▁comm",
        "un"
      ],
      [
        "▁6",
        "46"
      ],
      [
        "ent",
        "s"
      ],
      [
        "al",
        "ity"
      ],
      [
        "▁thir",
        "d"
      ],
      [
        "▁wor",
        "ld"
      ],
      [
        "ain",
        "ing"
      ],
      [
        "▁wh",
        "ite"
      ],
      [
        "▁den",
        "ver"
      ],
      [
        "▁e",
        "ver"
      ],
      [
        "▁3",
        "/8/00"
      ],
      [
        "▁f",
        "un"
      ],
      [
        "/9",
        "7"
      ],
      [
        "▁s",
        "itting"
      ],
      [
        "▁6",
        "30"
      ],
      [
        "▁156",
        "4"
      ],
      [
        "▁wh",
        "om"
      ],
      [
        "u",
        "mer"
      ],
      [
        "▁ha",
        "ir"
      ],
      [
        "▁ro",
        "om"
      ],
      [
        "▁prob",
        "ably"
      ],
      [
        "▁m",
        "ake"
      ],
      [
        "ic",
        "e"
      ],
      [
        "▁p",
        "e"
      ],
      [
        "▁m",
        "er"
      ],
      [
        "▁conc",
        "ern"
      ],
      [
        "▁inst",
        "ead"
      ],
      [
        "le",
        "ct"
      ],
      [
        "am",
        "es"
      ],
      [
        "▁com",
        "ing"
      ],
      [
        "▁",
        "out"
      ],
      [
        "▁th",
        "en"
      ],
      [
        "▁giv",
        "en"
      ],
      [
        "▁o",
        "cc"
      ],
      [
        "--------",
        "--------"
      ],
      [
        "▁197",
        "6"
      ],
      [
        "▁b",
        "el"
      ],
      [
        "▁ins",
        "ide"
      ],
      [
        "▁dat",
        "a"
      ],
      [
        "-",
        "27"
      ],
      [
        "▁pro",
        "ble"
      ],
      [
        "▁d",
        "oo"
      ],
      [
        "it",
        "ed"
      ],
      [
        "▁!",
        "!!"
      ],
      [
        "▁0",
        ".0"
      ],
      [
        "▁twenty-",
        "four"
      ],
      [
        "oo",
        "d"
      ],
      [
        "▁f",
        "ail"
      ],
      [
        ",",
        "000"
      ],
      [
        "ut",
        "e"
      ],
      [
        "ne",
        "ath"
      ],
      [
        "▁02",
        "/13/2001"
      ],
      [
        "▁un",
        "to"
      ],
      [
        "▁w",
        "/"
      ],
      [
        "▁1",
        ":00"
      ],
      [
        "on",
        "e"
      ],
      [
        "st",
        "er"
      ],
      [
        "▁",
        "v"
      ],
      [
        "▁d",
        "www"
      ],
      [
        "ur",
        "n"
      ],
      [
        "▁11",
        ":3"
      ],
      [
        "▁03",
        ":58"
      ],
      [
        "▁19",
        "18"
      ],
      [
        "/1",
        "7/99"
      ],
      [
        "▁08",
        "/0"
      ],
      [
        "▁r",
        "ed"
      ],
      [
        "i",
        "e"
      ],
      [
        "▁w",
        "ork"
      ],
      [
        "if",
        "e"
      ],
      [
        "▁min",
        "us"
      ],
      [
        "▁7",
        "0"
      ],
      [
        "▁70",
        "3"
      ],
      [
        "ist",
        "an"
      ],
      [
        "▁look",
        "ed"
      ],
      [
        "▁:",
        "("
      ],
      [
        "▁196",
        "9"
      ],
      [
        "▁160",
        "9"
      ],
      [
        "▁11",
        ":00"
      ],
      [
        "▁h",
        "as"
      ],
      [
        "▁7",
        "9"
      ],
      [
        "8",
        "5"
      ],
      [
        "c",
        "ed"
      ],
      [
        "▁pos",
        "ition"
      ],
      [
        "▁wh",
        "e"
      ],
      [
        "u",
        "m"
      ],
      [
        "@",
        "enron"
      ],
      [
        "ut",
        "ions"
      ],
      [
        "d",
        "er"
      ],
      [
        "▁17",
        "5"
      ],
      [
        "▁di",
        "ff"
      ],
      [
        "▁m",
        "ight"
      ],
      [
        "▁202.45",
        "6"
      ],
      [
        "▁e",
        "at"
      ],
      [
        "▁spec",
        "ial"
      ],
      [
        "▁count",
        "ries"
      ],
      [
        "▁turn",
        "ed"
      ],
      [
        ",",
        "5"
      ],
      [
        "▁19",
        "43"
      ],
      [
        "▁",
        "ou"
      ],
      [
        "▁",
        ":"
      ],
      [
        "▁on",
        "ly"
      ],
      [
        "y",
        "ond"
      ],
      [
        "▁26",
        "8"
      ],
      [
        "▁p",
        "ass"
      ],
      [
        ":",
        "46"
      ],
      [
        "▁de",
        "y"
      ],
      [
        "▁be",
        "low"
      ],
      [
        "▁1",
        "6"
      ],
      [
        "~",
        "*"
      ],
      [
        "▁03",
        "/2"
      ],
      [
        "▁le",
        "ad"
      ],
      [
        "▁avail",
        "able"
      ],
      [
        "b",
        "e"
      ],
      [
        "3",
        "0"
      ],
      [
        "h",
        "ia"
      ],
      [
        "▁sh",
        "ort"
      ],
      [
        "▁twel",
        "ve"
      ],
      [
        "▁wi",
        "ll"
      ],
      [
        "▁",
        "a"
      ],
      [
        "▁199",
        "7"
      ],
      [
        "l",
        "f"
      ],
      [
        "ad",
        "elp"
      ],
      [
        ":",
        "30"
      ],
      [
        "r",
        "ans"
      ],
      [
        "▁d",
        "id"
      ],
      [
        "▁milit",
        "ary"
      ],
      [
        "▁tu",
        "esday"
      ],
      [
        "▁b",
        "r"
      ],
      [
        "3",
        "9"
      ],
      [
        ":",
        "48"
      ],
      [
        "▁pl",
        "ace"
      ],
      [
        "▁per",
        "cent"
      ],
      [
        "/30",
        "/2001"
      ],
      [
        "i",
        "um"
      ],
      [
        "in",
        "n"
      ],
      [
        "▁rev",
        "iew"
      ],
      [
        "▁yea",
        "h"
      ],
      [
        "▁8",
        "7"
      ],
      [
        "▁su",
        "b"
      ],
      [
        "▁01",
        "810"
      ],
      [
        "=",
        "="
      ],
      [
        "ect",
        "ion"
      ],
      [
        "n",
        "o"
      ],
      [
        "▁other",
        "s"
      ],
      [
        "▁199",
        "3"
      ],
      [
        "▁in",
        "c"
      ],
      [
        "e",
        "en"
      ],
      [
        "om",
        "en"
      ],
      [
        "▁ch",
        "eck"
      ],
      [
        "▁re",
        "d"
      ],
      [
        "ou",
        "t"
      ],
      [
        "▁among",
        "st"
      ],
      [
        "t",
        "a"
      ],
      [
        "▁jap",
        "an"
      ],
      [
        "at",
        "ed"
      ],
      [
        "▁wh",
        "ere"
      ],
      [
        "2",
        "00"
      ],
      [
        "4",
        "14"
      ],
      [
        "▁wh",
        "ile"
      ],
      [
        "▁8",
        "3"
      ],
      [
        "▁an",
        "alys"
      ],
      [
        "▁a",
        "l"
      ],
      [
        "▁them",
        "selves"
      ],
      [
        "4",
        "0"
      ],
      [
        "▁199",
        "8"
      ],
      [
        "3",
        ".6"
      ],
      [
        "▁dur",
        "ing"
      ],
      [
        "▁7",
        "13"
      ],
      [
        "▁it",
        "s"
      ],
      [
        "2",
        "8"
      ],
      [
        "id",
        "e"
      ],
      [
        "▁g",
        "en"
      ],
      [
        "39",
        "3"
      ],
      [
        "▁quest",
        "ion"
      ],
      [
        ".1",
        "23"
      ],
      [
        "o",
        "p"
      ],
      [
        "▁bl",
        "ue"
      ],
      [
        "----",
        "----"
      ],
      [
        "▁aug",
        "ust"
      ],
      [
        "▁ve",
        "g"
      ],
      [
        "4",
        "9"
      ],
      [
        "▁",
        "”"
      ],
      [
        "▁t",
        "rans"
      ],
      [
        "▁ge",
        "or"
      ],
      [
        "▁50",
        "5"
      ],
      [
        "v",
        "ed"
      ],
      [
        "▁m",
        "on"
      ],
      [
        "-",
        "ked"
      ],
      [
        "▁be",
        "sid"
      ],
      [
        "▁p",
        "aper"
      ],
      [
        "▁unles",
        "s"
      ],
      [
        "▁des",
        "pite"
      ],
      [
        "▁st",
        "ore"
      ],
      [
        "re",
        "t"
      ],
      [
        "▁1.",
        "1"
      ],
      [
        "▁189",
        "6"
      ],
      [
        "▁16",
        "6"
      ],
      [
        "▁d",
        "in"
      ],
      [
        "▁gu",
        "ys"
      ],
      [
        "▁150",
        "4"
      ],
      [
        "▁18",
        "88"
      ],
      [
        "▁f",
        "ather"
      ],
      [
        "▁w",
        "ill"
      ],
      [
        "▁",
        "@"
      ],
      [
        "▁80",
        ",000"
      ],
      [
        "ag",
        "es"
      ],
      [
        "wh",
        "ere"
      ],
      [
        "▁o",
        "wn"
      ],
      [
        "▁can",
        "ad"
      ],
      [
        "▁in",
        "f"
      ],
      [
        "m",
        "iss"
      ],
      [
        "▁p",
        "ay"
      ],
      [
        "▁s",
        "n"
      ],
      [
        "▁b",
        "ed"
      ],
      [
        "▁k",
        "ansas"
      ],
      [
        "3-3",
        "744"
      ],
      [
        "▁s",
        "ur"
      ],
      [
        "▁l",
        "ine"
      ],
      [
        "▁de",
        "re"
      ],
      [
        "▁15",
        "9"
      ],
      [
        "0",
        "19"
      ],
      [
        "c",
        "ab"
      ],
      [
        "▁w",
        "or"
      ],
      [
        "▁",
        "g"
      ],
      [
        "▁he",
        "r"
      ],
      [
        "▁inter",
        "v"
      ],
      [
        "r",
        "aph"
      ],
      [
        "o",
        "w"
      ],
      [
        "▁w",
        "omen"
      ],
      [
        "▁3",
        ".1"
      ],
      [
        "▁exp",
        "ress"
      ],
      [
        "▁10",
        ":5"
      ],
      [
        "are",
        "n"
      ],
      [
        "▁f",
        "ree"
      ],
      [
        "8",
        "7"
      ],
      [
        "▁l",
        "ad"
      ],
      [
        "▁2",
        "30"
      ],
      [
        "13",
        "4"
      ],
      [
        "a",
        "ve"
      ],
      [
        "▁hund",
        "red"
      ],
      [
        "ar",
        "y"
      ],
      [
        "e",
        "p"
      ],
      [
        "al",
        "k"
      ],
      [
        "▁me",
        "h-r"
      ],
      [
        "j",
        "ects"
      ],
      [
        "▁12:1",
        "2"
      ],
      [
        "▁17",
        "7"
      ],
      [
        "▁intern",
        "ational"
      ],
      [
        "▁713",
        "-8"
      ],
      [
        "▁com",
        "e"
      ],
      [
        "ol",
        "is"
      ],
      [
        "▁4",
        "1"
      ],
      [
        "bo",
        "dy"
      ],
      [
        "ł",
        "od"
      ],
      [
        "▁serv",
        "ices"
      ],
      [
        "8",
        "3"
      ],
      [
        "▁st",
        "ud"
      ],
      [
        ",",
        "7"
      ],
      [
        "-3",
        "43"
      ],
      [
        "▁m",
        "ess"
      ],
      [
        "▁h",
        "u"
      ],
      [
        "▁ag",
        "re"
      ],
      [
        "▁tho",
        "se"
      ],
      [
        "▁1,",
        "200"
      ],
      [
        "▁go",
        "vern"
      ],
      [
        "et",
        "s"
      ],
      [
        "▁ex",
        "c"
      ],
      [
        "st",
        "op"
      ],
      [
        "in",
        "t"
      ],
      [
        "▁an",
        "al"
      ],
      [
        "▁t",
        "h"
      ],
      [
        "▁pe",
        "ace"
      ],
      [
        "ur",
        "ch"
      ],
      [
        "▁+",
        "1"
      ],
      [
        "▁8",
        "1"
      ],
      [
        "▁11",
        "10"
      ],
      [
        "▁trans",
        "mission"
      ],
      [
        "▁lea",
        "ve"
      ],
      [
        "▁des",
        "c"
      ],
      [
        "▁al",
        "th"
      ],
      [
        "▁159",
        "6"
      ],
      [
        "_",
        "_"
      ],
      [
        "r",
        "ide"
      ],
      [
        "????",
        "????"
      ],
      [
        "▁pr",
        "op"
      ],
      [
        "▁e",
        "ither"
      ],
      [
        "▁0",
        "5"
      ],
      [
        "▁pres",
        "ident"
      ],
      [
        "▁soc",
        "iety"
      ],
      [
        "========",
        "========"
      ],
      [
        "▁t",
        "ra"
      ],
      [
        "▁t",
        "u"
      ],
      [
        "ar",
        "d"
      ],
      [
        "▁m",
        "us"
      ],
      [
        "▁f",
        "ig"
      ],
      [
        "▁18",
        "49"
      ],
      [
        "??",
        "??"
      ],
      [
        "▁con",
        "s"
      ],
      [
        "▁_",
        "____"
      ],
      [
        "▁tri",
        "p"
      ],
      [
        "▁f",
        "air"
      ],
      [
        "-",
        "6"
      ],
      [
        "as",
        "on"
      ],
      [
        "▁high",
        "ly"
      ],
      [
        "▁amid",
        "st"
      ],
      [
        "ic",
        "es"
      ],
      [
        "e",
        "w"
      ],
      [
        "▁pl",
        "an"
      ],
      [
        ":",
        "44"
      ],
      [
        "2",
        "/2001"
      ],
      [
        "▁to",
        "o"
      ],
      [
        "i",
        "st"
      ],
      [
        "▁bel",
        "ie"
      ],
      [
        "▁m",
        "atter"
      ],
      [
        "▁throu",
        "gh"
      ],
      [
        "att",
        "le"
      ],
      [
        "▁dep",
        "art"
      ],
      [
        "▁20",
        "5"
      ],
      [
        "▁fin",
        "ally"
      ],
      [
        "▁w",
        "ere"
      ],
      [
        "▁h",
        "elp"
      ],
      [
        "▁76",
        "3736"
      ],
      [
        "▁1160",
        "8"
      ],
      [
        "▁sl",
        "ow"
      ],
      [
        "▁",
        "z"
      ],
      [
        "▁",
        "one"
      ],
      [
        "i",
        "de"
      ],
      [
        "▁flo",
        "or"
      ],
      [
        "▁s",
        "o"
      ],
      [
        "▁ey",
        "e"
      ],
      [
        "▁6",
        "4"
      ],
      [
        "▁16",
        ".3"
      ],
      [
        "al",
        "l"
      ],
      [
        "▁5",
        ":30"
      ],
      [
        "u",
        "es"
      ],
      [
        "▁s",
        "an"
      ],
      [
        "▁bo",
        "th"
      ],
      [
        "▁bu",
        "ild"
      ],
      [
        "▁rece",
        "ived"
      ],
      [
        "is",
        "k"
      ],
      [
        "m",
        "an"
      ],
      [
        "▁20",
        "50"
      ],
      [
        "▁qu",
        "ick"
      ],
      [
        "f",
        "e"
      ],
      [
        "ach",
        "ed"
      ],
      [
        "▁16",
        "10"
      ],
      [
        "▁16",
        "96"
      ],
      [
        "▁c",
        "ur"
      ],
      [
        "▁3",
        "30"
      ],
      [
        "▁s",
        "l"
      ],
      [
        "▁contin",
        "ental"
      ],
      [
        "ke",
        "y"
      ],
      [
        "ul",
        "ts"
      ],
      [
        "▁e",
        "v"
      ],
      [
        "▁re",
        "v"
      ],
      [
        "▁s",
        "ince"
      ],
      [
        "▁un",
        "ited"
      ],
      [
        "▁10/2",
        "3/2000"
      ],
      [
        "▁",
        "j"
      ],
      [
        "▁forty-",
        "one"
      ],
      [
        "▁is",
        "s"
      ],
      [
        "▁b",
        "ack"
      ],
      [
        "s",
        "e"
      ],
      [
        "▁u",
        "n"
      ],
      [
        "▁b",
        "ab"
      ],
      [
        "id",
        "ay"
      ],
      [
        "▁new",
        "s"
      ],
      [
        "▁9",
        "6"
      ],
      [
        "53",
        "-3"
      ],
      [
        "▁diff",
        "er"
      ],
      [
        "▁v",
        "i"
      ],
      [
        "▁j",
        "ap"
      ],
      [
        "▁part",
        "ic"
      ],
      [
        "▁ar",
        "t"
      ],
      [
        "/",
        "4"
      ],
      [
        "ens",
        "ive"
      ],
      [
        "v",
        "il"
      ],
      [
        "8",
        "1"
      ],
      [
        "1",
        "5"
      ],
      [
        "ea",
        "p"
      ],
      [
        "▁lea",
        "ving"
      ],
      [
        "il",
        "ity"
      ],
      [
        "▁her",
        "self"
      ],
      [
        "z",
        "a"
      ],
      [
        "▁",
        "le"
      ],
      [
        "i",
        "od"
      ],
      [
        "▁",
        "ro"
      ],
      [
        "▁10/2",
        "0/2000"
      ],
      [
        "▁ke",
        "y"
      ],
      [
        "o",
        "s"
      ],
      [
        "▁o",
        "n"
      ],
      [
        "▁o",
        "ur"
      ],
      [
        "▁t",
        "own"
      ],
      [
        "▁p",
        "ur"
      ],
      [
        "▁d",
        "et"
      ],
      [
        "r",
        "u"
      ],
      [
        "ic",
        "k"
      ],
      [
        ":",
        "28"
      ],
      [
        "▁seem",
        "ed"
      ],
      [
        ",",
        "1"
      ],
      [
        "▁f",
        "ly"
      ],
      [
        "▁10",
        "4"
      ],
      [
        "16",
        "96"
      ],
      [
        "▁**",
        "*"
      ],
      [
        "▁",
        ".2"
      ],
      [
        "v",
        "en"
      ],
      [
        "▁one",
        "s"
      ],
      [
        "▁k",
        "h"
      ],
      [
        "▁9",
        "34"
      ],
      [
        "▁fl",
        "ight"
      ],
      [
        "▁a",
        "d"
      ],
      [
        "▁11:0",
        "7"
      ],
      [
        "ig",
        "ht"
      ],
      [
        "▁3",
        "."
      ],
      [
        "▁o",
        "ak"
      ],
      [
        "▁imp",
        "ro"
      ],
      [
        "▁w",
        "oman"
      ],
      [
        "▁",
        "e"
      ],
      [
        "▁m",
        "ar"
      ],
      [
        "▁800.713.86",
        "00"
      ],
      [
        "▁the",
        "n"
      ],
      [
        "▁v",
        "is"
      ],
      [
        "ri",
        "st"
      ],
      [
        "i",
        "n"
      ],
      [
        "▁w",
        "ay"
      ],
      [
        "ure",
        "d"
      ],
      [
        "----------------",
        "----------------"
      ],
      [
        "ic",
        "ago"
      ],
      [
        "en",
        "s"
      ],
      [
        "▁s",
        "ch"
      ],
      [
        "▁b",
        "en"
      ],
      [
        "-",
        "10"
      ],
      [
        "a",
        "m"
      ],
      [
        "▁04",
        ":17"
      ],
      [
        "▁acc",
        "ord"
      ],
      [
        "▁u",
        "nd"
      ],
      [
        "▁go",
        "es"
      ],
      [
        "▁c",
        "o"
      ],
      [
        "▁18",
        "5"
      ],
      [
        "▁n",
        "ame"
      ],
      [
        "t",
        "e"
      ],
      [
        "▁f",
        "il"
      ],
      [
        "▁zer",
        "o"
      ],
      [
        "▁48",
        "3"
      ],
      [
        "▁s",
        "im"
      ],
      [
        "ri",
        "es"
      ],
      [
        "▁p",
        "i"
      ],
      [
        "u",
        "al"
      ],
      [
        "▁a",
        "b"
      ],
      [
        "▁4",
        "2"
      ],
      [
        "e",
        "s"
      ],
      [
        "p",
        "ed"
      ],
      [
        "▁",
        "1"
      ],
      [
        "▁a",
        "re"
      ],
      [
        "▁199",
        "2"
      ],
      [
        "it",
        "ion"
      ],
      [
        "ou",
        "gh"
      ],
      [
        "▁hou",
        "ston"
      ],
      [
        "▁713-853",
        "-3989"
      ],
      [
        "u",
        "ff"
      ],
      [
        ":",
        "0"
      ],
      [
        "▁81",
        "4014"
      ],
      [
        "▁y",
        "et"
      ],
      [
        "▁10",
        "/2"
      ],
      [
        "▁p",
        "art"
      ],
      [
        "u",
        "ce"
      ],
      [
        "▁8",
        "2"
      ],
      [
        "/13",
        "/2001"
      ],
      [
        "▁20",
        "7"
      ],
      [
        "▁m",
        "aking"
      ],
      [
        "▁o",
        "ut"
      ],
      [
        "e",
        "m"
      ],
      [
        "om",
        "m"
      ],
      [
        "i",
        "ous"
      ],
      [
        "▁ano",
        "der"
      ],
      [
        "k",
        "a"
      ],
      [
        "▁",
        "it"
      ],
      [
        "i",
        "i"
      ],
      [
        "▁",
        "er"
      ],
      [
        "▁50",
        ",000"
      ],
      [
        "▁p",
        "o"
      ],
      [
        "▁04",
        "/30/2001"
      ],
      [
        "▁x",
        "iii"
      ],
      [
        "▁an",
        "y"
      ],
      [
        "olog",
        "y"
      ],
      [
        "▁196",
        "7"
      ],
      [
        "▁p",
        "an"
      ],
      [
        "!",
        "?"
      ],
      [
        "29",
        "4-"
      ],
      [
        "▁m",
        "id"
      ],
      [
        "oun",
        "d"
      ],
      [
        "▁wh",
        "i"
      ],
      [
        "▁auth",
        "or"
      ],
      [
        "▁8",
        "38"
      ],
      [
        "-",
        "20"
      ],
      [
        "-7",
        "80"
      ],
      [
        "▁o",
        "l"
      ],
      [
        "0",
        "-3"
      ],
      [
        "▁c",
        "old"
      ],
      [
        "▁...",
        "...."
      ],
      [
        "▁281",
        "-435"
      ],
      [
        "ic",
        "t"
      ],
      [
        "at",
        "ely"
      ],
      [
        "▁re",
        "g"
      ],
      [
        "29",
        "5"
      ],
      [
        "819",
        "6021"
      ],
      [
        "▁s",
        "at"
      ],
      [
        "▁60",
        ",000"
      ],
      [
        "▁wor",
        "th"
      ],
      [
        "i",
        "o"
      ],
      [
        "▁d",
        "a"
      ],
      [
        "▁201",
        "5"
      ],
      [
        "▁tr",
        "illion"
      ],
      [
        "1",
        "7"
      ],
      [
        "▁say",
        "ing"
      ],
      [
        "880",
        "6"
      ],
      [
        "▁g",
        "er"
      ],
      [
        "un",
        "d"
      ],
      [
        "iver",
        "s"
      ],
      [
        "▁713-654-03",
        "65"
      ],
      [
        "▁196",
        "8"
      ],
      [
        "▁11",
        "79"
      ],
      [
        "▁d",
        "ress"
      ],
      [
        "▁7",
        ":30"
      ],
      [
        "▁qu",
        "est"
      ],
      [
        "▁t",
        "ick"
      ],
      [
        "r",
        "os"
      ],
      [
        "▁vi",
        "a"
      ],
      [
        "▁t",
        "w"
      ],
      [
        "▁en",
        "s"
      ],
      [
        "▁744",
        "19"
      ],
      [
        "▁12",
        "5"
      ],
      [
        "▁n",
        "or"
      ],
      [
        "▁phil",
        "adelp"
      ],
      [
        "▁mon",
        "th"
      ],
      [
        "ro",
        "ss"
      ],
      [
        "▁",
        "’"
      ],
      [
        "ac",
        "e"
      ],
      [
        "c",
        "le"
      ],
      [
        "▁an",
        "d"
      ],
      [
        "▁maj",
        "or"
      ],
      [
        "ion",
        "al"
      ],
      [
        "▁wh",
        "o"
      ],
      [
        "▁2",
        "4"
      ],
      [
        "1",
        "3"
      ],
      [
        "▁7",
        "18"
      ],
      [
        "p",
        "h"
      ],
      [
        "▁prod",
        "uct"
      ],
      [
        "▁uhh",
        "uh"
      ],
      [
        "`",
        "s"
      ],
      [
        "o",
        "se"
      ],
      [
        "▁ma",
        "j"
      ],
      [
        "▁you",
        "r"
      ],
      [
        "▁888",
        ".916.718"
      ],
      [
        "1",
        "8"
      ],
      [
        "▁t",
        "om"
      ],
      [
        "8",
        "2"
      ],
      [
        "em",
        "ent"
      ],
      [
        "▁whi",
        "ch"
      ],
      [
        "▁ab",
        "e"
      ],
      [
        "▁",
        "'"
      ],
      [
        "▁24",
        ",000"
      ],
      [
        "6",
        "5"
      ],
      [
        "g",
        "el"
      ],
      [
        "▁0",
        "1"
      ],
      [
        "▁m",
        "in"
      ],
      [
        "▁eu",
        "ro"
      ],
      [
        "7",
        "/2000"
      ],
      [
        ":5",
        "8"
      ],
      [
        "▁eff",
        "ort"
      ],
      [
        "▁earli",
        "est"
      ],
      [
        "at",
        "ion"
      ],
      [
        "▁f",
        "act"
      ],
      [
        "▁m",
        "y"
      ],
      [
        "at",
        "ter"
      ],
      [
        "m",
        "ent"
      ],
      [
        "▁ne",
        "ed"
      ],
      [
        "▁happ",
        "en"
      ],
      [
        "▁s",
        "c"
      ],
      [
        "▁8",
        "99"
      ],
      [
        "▁all",
        "ow"
      ],
      [
        "e",
        "ight"
      ],
      [
        "4-",
        "79"
      ],
      [
        "us",
        "ions"
      ],
      [
        "▁poss",
        "ible"
      ],
      [
        "r",
        "act"
      ],
      [
        "b",
        "o"
      ],
      [
        "▁ang",
        "el"
      ],
      [
        "▁03/2",
        "8/2001"
      ],
      [
        "▁a",
        "v"
      ],
      [
        "▁h",
        "or"
      ],
      [
        "********",
        "********"
      ],
      [
        "▁con",
        "n"
      ],
      [
        "▁o",
        "ver"
      ],
      [
        "▁415.782",
        ".7822"
      ],
      [
        "▁de",
        "velop"
      ],
      [
        "▁ret",
        "urn"
      ],
      [
        "________________",
        "________________"
      ],
      [
        "▁y",
        "a"
      ],
      [
        "en",
        "se"
      ],
      [
        "ug",
        "ht"
      ],
      [
        "▁qu",
        "ality"
      ],
      [
        "▁t",
        "ill"
      ],
      [
        "▁",
        "&"
      ],
      [
        "▁in",
        "ter"
      ],
      [
        "9",
        "0"
      ],
      [
        ",6",
        "00"
      ],
      [
        "▁te",
        "h"
      ],
      [
        "▁13",
        "7"
      ],
      [
        "▁17",
        "38"
      ],
      [
        "▁tr",
        "ad"
      ],
      [
        "el",
        "f"
      ],
      [
        "p",
        "ort"
      ],
      [
        "▁y",
        "ear"
      ],
      [
        "▁190",
        "2"
      ],
      [
        "og",
        "ether"
      ],
      [
        "▁9",
        "4"
      ],
      [
        "▁16",
        "91"
      ],
      [
        "l",
        "s"
      ],
      [
        "▁f",
        "oc"
      ],
      [
        "▁in",
        "clud"
      ],
      [
        "▁08/15",
        "/2000"
      ],
      [
        "m",
        "ed"
      ],
      [
        "▁one",
        "self"
      ],
      [
        "▁air",
        "l"
      ],
      [
        "▁f",
        "ound"
      ],
      [
        "▁be",
        "ing"
      ],
      [
        "▁n",
        "um"
      ],
      [
        "▁cl",
        "aim"
      ],
      [
        "▁b",
        "illion"
      ],
      [
        "/2",
        "6"
      ],
      [
        "____",
        "____"
      ],
      [
        "▁410",
        "-468-3"
      ],
      [
        "▁st",
        "ar"
      ],
      [
        "▁espec",
        "ially"
      ],
      [
        "▁l",
        "ot"
      ],
      [
        "▁us",
        "ually"
      ],
      [
        "▁sha",
        "ll"
      ],
      [
        "d",
        "y"
      ],
      [
        "▁al",
        "read"
      ],
      [
        "▁go",
        "t"
      ],
      [
        "▁156",
        "1"
      ],
      [
        "g",
        "y"
      ],
      [
        "▁m",
        "ind"
      ],
      [
        "▁197",
        "5"
      ],
      [
        "a",
        "pp"
      ],
      [
        "/10",
        "/2004"
      ],
      [
        "▁sc",
        "ient"
      ],
      [
        "z",
        "e"
      ],
      [
        "▁in",
        "to"
      ],
      [
        "▁n",
        "and"
      ],
      [
        "▁su",
        "gg"
      ],
      [
        "▁orland",
        "o"
      ],
      [
        "▁hur",
        "t"
      ],
      [
        "▁is",
        "land"
      ],
      [
        "▁be",
        "tw"
      ],
      [
        "▁c",
        "r"
      ],
      [
        "▁be",
        "g"
      ],
      [
        "▁se",
        "attle"
      ],
      [
        "▁no",
        "ne"
      ],
      [
        "ver",
        "n"
      ],
      [
        "▁2",
        ".0"
      ],
      [
        "▁e",
        "lect"
      ],
      [
        "t",
        "ride"
      ],
      [
        "▁e",
        "le"
      ],
      [
        "▁re",
        "le"
      ],
      [
        ":1",
        "9"
      ],
      [
        "g",
        "ami"
      ],
      [
        "l",
        "and"
      ],
      [
        "▁kn",
        "ew"
      ],
      [
        "▁15",
        "00"
      ],
      [
        "▁1",
        "000"
      ],
      [
        "ab",
        "ility"
      ],
      [
        "▁1-8",
        "00"
      ],
      [
        "▁25",
        "0"
      ],
      [
        "▁ro",
        "ck"
      ],
      [
        "▁summ",
        "er"
      ],
      [
        "▁15",
        "8"
      ],
      [
        "o",
        "n"
      ],
      [
        "▁fr",
        "iday"
      ],
      [
        "end",
        "ing"
      ],
      [
        "▁201",
        "7"
      ],
      [
        "▁h",
        "um"
      ],
      [
        "▁g",
        "on"
      ],
      [
        "r",
        "uct"
      ],
      [
        "▁281",
        "-44"
      ],
      [
        "▁g",
        "iv"
      ],
      [
        "▁u",
        "r"
      ],
      [
        "ren",
        "ch"
      ],
      [
        "-8",
        "031"
      ],
      [
        "▁f",
        "ill"
      ],
      [
        "▁",
        "es"
      ],
      [
        "▁j",
        "www"
      ],
      [
        "▁d",
        "oll"
      ],
      [
        "▁a",
        "ug"
      ],
      [
        "▁l",
        "ar"
      ],
      [
        "▁17",
        "99"
      ],
      [
        "▁know",
        "n"
      ],
      [
        "am",
        "a"
      ],
      [
        "▁app",
        "ear"
      ],
      [
        "▁w",
        "o"
      ],
      [
        "▁jo",
        "b"
      ],
      [
        "▁shakes",
        "peare"
      ],
      [
        "▁c",
        "ent"
      ],
      [
        "▁sp",
        "ace"
      ],
      [
        "-",
        "79"
      ],
      [
        "▁’",
        "ve"
      ],
      [
        "▁qu",
        "inn"
      ],
      [
        "ation",
        "al"
      ],
      [
        "▁11",
        "/7"
      ],
      [
        "▁04",
        ":37"
      ],
      [
        ".7",
        "5"
      ],
      [
        "▁commun",
        "ity"
      ],
      [
        "▁unt",
        "il"
      ],
      [
        "▁w",
        "an"
      ],
      [
        "▁r",
        "ight"
      ],
      [
        "▁f",
        "or"
      ],
      [
        "▁in",
        "s"
      ],
      [
        "▁201",
        "3"
      ],
      [
        "▁24",
        ".7"
      ],
      [
        "▁11:3",
        "6"
      ],
      [
        "▁o",
        "r"
      ],
      [
        "▁h",
        "and"
      ],
      [
        "se",
        "l"
      ],
      [
        "▁a",
        "ct"
      ],
      [
        "▁d",
        "one"
      ],
      [
        "▁v",
        "ide"
      ],
      [
        "▁p",
        "r"
      ],
      [
        "▁y",
        "ork"
      ],
      [
        "▁888.916.718",
        "4"
      ],
      [
        "▁exc",
        "ell"
      ],
      [
        "r",
        "or"
      ],
      [
        "ast",
        "ic"
      ],
      [
        "▁b",
        "ad"
      ],
      [
        "▁e",
        "gg"
      ],
      [
        "6",
        "7"
      ],
      [
        "▁year",
        "s"
      ],
      [
        "idd",
        "le"
      ],
      [
        "▁ninety",
        "-n"
      ],
      [
        "ious",
        "ly"
      ],
      [
        "▁18",
        "1"
      ],
      [
        "z",
        "er"
      ],
      [
        "▁1",
        "5"
      ],
      [
        "▁713-853-",
        "1696"
      ],
      [
        "▁requ",
        "est"
      ],
      [
        "▁act",
        "ion"
      ],
      [
        "▁o'",
        "clock"
      ],
      [
        "▁aft",
        "er"
      ],
      [
        "▁i",
        "v"
      ],
      [
        "▁d",
        "om"
      ],
      [
        "▁coun",
        "ter"
      ],
      [
        "▁h",
        "igh"
      ],
      [
        "3",
        "-"
      ],
      [
        "▁5",
        "30"
      ],
      [
        "▁min",
        "utes"
      ],
      [
        "▁n",
        "ight"
      ],
      [
        "▁r",
        "ul"
      ],
      [
        "ou",
        "p"
      ],
      [
        "▁w",
        "atch"
      ],
      [
        "▁ch",
        "rist"
      ],
      [
        "n",
        "esday"
      ],
      [
        "▁bal",
        "zac"
      ],
      [
        "▁18",
        ",000"
      ],
      [
        "▁11",
        "5"
      ],
      [
        "c",
        "raft"
      ],
      [
        "▁:",
        "d"
      ],
      [
        "▁pos",
        "s"
      ],
      [
        "▁",
        "us"
      ],
      [
        "▁un",
        "ivers"
      ],
      [
        "▁&",
        "amp"
      ],
      [
        "▁m",
        "et"
      ],
      [
        "▁f",
        "av"
      ],
      [
        "▁ag",
        "e"
      ],
      [
        "▁'",
        "71"
      ],
      [
        "p",
        "p"
      ],
      [
        "f",
        "i"
      ],
      [
        "▁a",
        "g"
      ],
      [
        "▁9",
        "79"
      ],
      [
        "▁aw",
        "oh"
      ],
      [
        "▁un",
        "d"
      ],
      [
        "k",
        "e"
      ],
      [
        ":3",
        "4"
      ],
      [
        "a",
        "k"
      ],
      [
        "▁rec",
        "ord"
      ],
      [
        "▁doll",
        "ars"
      ],
      [
        "▁0",
        "2"
      ],
      [
        "▁d",
        "all"
      ],
      [
        "▁se",
        "ven"
      ],
      [
        "▁t",
        "ec"
      ],
      [
        "h",
        "in"
      ],
      [
        "▁56",
        "7.77"
      ],
      [
        "ir",
        "on"
      ],
      [
        "▁bl",
        "ack"
      ],
      [
        "+",
        "+"
      ],
      [
        "4",
        "/2001"
      ],
      [
        "▁ear",
        "th"
      ],
      [
        "▁",
        "6"
      ],
      [
        "▁month",
        "s"
      ],
      [
        "▁5/1",
        "8"
      ],
      [
        "▁",
        "k"
      ],
      [
        "u",
        "re"
      ],
      [
        "▁be",
        "fore"
      ],
      [
        "4",
        "-"
      ],
      [
        "▁b",
        "est"
      ],
      [
        "▁wor",
        "ds"
      ],
      [
        "9",
        "89"
      ],
      [
        "s",
        "i"
      ],
      [
        "iss",
        "ion"
      ],
      [
        "▁proper",
        "ty"
      ],
      [
        "▁in",
        "side"
      ],
      [
        "▁pi",
        "ec"
      ],
      [
        "i",
        "ent"
      ],
      [
        "▁chick",
        "en"
      ],
      [
        "▁4",
        "20"
      ],
      [
        "o",
        "o"
      ],
      [
        "a",
        "mp"
      ],
      [
        "▁ad",
        "d"
      ],
      [
        "▁th",
        "ir"
      ],
      [
        "▁resp",
        "ons"
      ],
      [
        "▁b",
        "it"
      ],
      [
        "▁s",
        "ort"
      ],
      [
        "tw",
        "o"
      ],
      [
        "▁bet",
        "ter"
      ],
      [
        "▁ch",
        "ina"
      ],
      [
        "i",
        "c"
      ],
      [
        "/26",
        "/2001"
      ],
      [
        "▁fir",
        "st"
      ],
      [
        "▁o",
        "b"
      ],
      [
        "▁st",
        "at"
      ],
      [
        "▁20",
        "2"
      ],
      [
        "▁so",
        "c"
      ],
      [
        "er",
        "al"
      ],
      [
        "▁pers",
        "on"
      ],
      [
        "▁st",
        "y"
      ],
      [
        "▁cl",
        "ass"
      ],
      [
        "▁",
        "x"
      ],
      [
        "▁d",
        "ie"
      ],
      [
        "ful",
        "ly"
      ],
      [
        "ul",
        "l"
      ],
      [
        "▁130",
        "7"
      ],
      [
        "▁sh",
        "ow"
      ],
      [
        "ie",
        "w"
      ],
      [
        "▁try",
        "ing"
      ],
      [
        "▁d",
        "e"
      ],
      [
        "ic",
        "ally"
      ],
      [
        "▁18",
        "21"
      ],
      [
        "/1",
        "6"
      ],
      [
        "▁55",
        "5"
      ],
      [
        "▁he",
        "ad"
      ],
      [
        "▁197",
        "7"
      ],
      [
        "▁201",
        "1"
      ],
      [
        "▁y",
        "ester"
      ],
      [
        "▁16",
        "5"
      ],
      [
        "a",
        "ff"
      ],
      [
        "▁2,",
        "300"
      ],
      [
        "▁800-5",
        "53-3119"
      ],
      [
        "▁alread",
        "y"
      ],
      [
        "▁'",
        "0"
      ],
      [
        "▁.",
        "?"
      ],
      [
        "▁tra",
        "vel"
      ],
      [
        "ul",
        "ar"
      ],
      [
        "▁n",
        "on"
      ],
      [
        "i",
        "ed"
      ],
      [
        "is",
        "h"
      ],
      [
        "▁m",
        "ich"
      ],
      [
        "/200",
        "5"
      ],
      [
        "▁t",
        "reat"
      ],
      [
        "▁",
        "'s"
      ],
      [
        "▁197",
        "3"
      ],
      [
        "re",
        "w"
      ],
      [
        "▁",
        "*"
      ],
      [
        "▁r",
        "es"
      ],
      [
        "▁05",
        "/17/99"
      ],
      [
        "▁c",
        "h"
      ],
      [
        "▁s",
        "en"
      ],
      [
        "▁xsl",
        "t"
      ],
      [
        "i",
        "ally"
      ],
      [
        "s",
        "t"
      ],
      [
        "▁m",
        "ic"
      ],
      [
        "▁12",
        ",000"
      ],
      [
        "▁800",
        "-5"
      ],
      [
        "▁156",
        "2"
      ],
      [
        "▁may",
        "be"
      ],
      [
        "▁ext",
        "rem"
      ],
      [
        "▁197",
        "8"
      ],
      [
        "i",
        "f"
      ],
      [
        "1",
        "2"
      ],
      [
        "▁hou",
        "se"
      ],
      [
        "▁cour",
        "t"
      ],
      [
        "▁c",
        "ount"
      ],
      [
        "▁through",
        "out"
      ],
      [
        "▁100",
        ",000"
      ],
      [
        "▁your",
        "selves"
      ],
      [
        "▁19",
        "25"
      ],
      [
        "6",
        "1"
      ],
      [
        ".7",
        "7"
      ],
      [
        "▁",
        "?"
      ],
      [
        "c",
        "es"
      ],
      [
        "ro",
        "p"
      ],
      [
        "▁u",
        "h"
      ],
      [
        "▁g",
        "ot"
      ],
      [
        "▁start",
        "ed"
      ],
      [
        "an",
        "d"
      ],
      [
        "▁agre",
        "ement"
      ],
      [
        "om",
        "an"
      ],
      [
        "op",
        "e"
      ],
      [
        "a",
        "ir"
      ],
      [
        "t",
        "i"
      ],
      [
        "▁se",
        "v"
      ],
      [
        "▁ke",
        "ep"
      ],
      [
        "▁’",
        "s"
      ],
      [
        "▁bec",
        "use"
      ],
      [
        "▁cal",
        "if"
      ],
      [
        ".",
        "6"
      ],
      [
        "▁",
        "ir"
      ],
      [
        "e",
        "l"
      ],
      [
        "▁pr",
        "ic"
      ],
      [
        "▁04",
        "/16/2001"
      ],
      [
        "▁y",
        "e"
      ],
      [
        "30",
        "98"
      ],
      [
        "▁198",
        "4"
      ],
      [
        "▁tr",
        "ain"
      ],
      [
        "▁p",
        "h"
      ],
      [
        "▁d",
        "ere"
      ],
      [
        "▁1",
        "7"
      ],
      [
        "▁16",
        "23"
      ],
      [
        "▁01",
        ":14"
      ],
      [
        "▁cre",
        "ate"
      ],
      [
        "▁euro",
        "pe"
      ],
      [
        "▁m",
        "a"
      ],
      [
        "id",
        "ent"
      ],
      [
        "▁al",
        "right"
      ],
      [
        "▁",
        "is"
      ],
      [
        "o",
        "ver"
      ],
      [
        "▁",
        ".3"
      ],
      [
        "▁’",
        "m"
      ],
      [
        "2",
        "4"
      ],
      [
        "1",
        "19"
      ],
      [
        "▁40",
        "5"
      ],
      [
        "________",
        "________"
      ],
      [
        "▁su",
        "pp"
      ],
      [
        "p",
        "or"
      ],
      [
        "el",
        "p"
      ],
      [
        "▁",
        "t"
      ],
      [
        "▁6",
        ".2"
      ],
      [
        "▁b",
        "ul"
      ],
      [
        "d",
        "u"
      ],
      [
        "▁secur",
        "ity"
      ],
      [
        "40",
        "14"
      ],
      [
        "▁st",
        "re"
      ],
      [
        "t",
        "o"
      ],
      [
        "oc",
        "r"
      ],
      [
        "▁1",
        "3"
      ],
      [
        "▁us",
        "ing"
      ],
      [
        "▁inv",
        "est"
      ],
      [
        "▁+",
        "45"
      ],
      [
        "▁10:5",
        "6"
      ],
      [
        ",9",
        "50"
      ],
      [
        "▁c",
        "ha"
      ],
      [
        "-",
        "5"
      ],
      [
        "/03",
        "/2001"
      ],
      [
        "▁1",
        "00"
      ],
      [
        "▁mic",
        "ro"
      ],
      [
        "▁199",
        "0"
      ],
      [
        "▁w",
        "r"
      ],
      [
        "▁d",
        "ri"
      ],
      [
        "▁4",
        "9"
      ],
      [
        "▁1",
        "8"
      ],
      [
        "7",
        "6"
      ],
      [
        "▁lou",
        "is"
      ],
      [
        "▁20",
        "30"
      ],
      [
        "▁8",
        "14"
      ],
      [
        "▁w",
        "as"
      ],
      [
        "▁199",
        "9"
      ],
      [
        "8",
        "22"
      ],
      [
        "o",
        "gel"
      ],
      [
        "▁11",
        "3"
      ],
      [
        "▁ch",
        "ick"
      ],
      [
        "au",
        "se"
      ],
      [
        "▁8",
        "0"
      ],
      [
        "▁p",
        "ack"
      ],
      [
        "-",
        "50"
      ],
      [
        "▁c",
        "ase"
      ],
      [
        "▁",
        "łod"
      ],
      [
        "▁11",
        "00"
      ],
      [
        "▁n",
        "ow"
      ],
      [
        "▁8",
        "9"
      ],
      [
        "▁3,202",
        ".61"
      ],
      [
        "ke",
        "e"
      ],
      [
        "at",
        "es"
      ],
      [
        "▁d",
        "ec"
      ],
      [
        "▁th",
        "y"
      ],
      [
        "▁ne",
        "w"
      ],
      [
        "▁h",
        "ist"
      ],
      [
        "c",
        "k"
      ],
      [
        "▁diff",
        "icult"
      ],
      [
        "11",
        "1"
      ],
      [
        "ec",
        "ess"
      ],
      [
        "▁ou",
        "ts"
      ],
      [
        "it",
        "al"
      ],
      [
        "l",
        "ow"
      ],
      [
        "▁415",
        ".782"
      ],
      [
        "▁off",
        "ice"
      ],
      [
        "▁re",
        "st"
      ],
      [
        "if",
        "ic"
      ],
      [
        "▁4",
        ".6"
      ],
      [
        "▁510",
        "-642"
      ],
      [
        "▁l",
        "unch"
      ],
      [
        "▁w",
        "ent"
      ],
      [
        "▁p",
        "ort"
      ],
      [
        "▁7",
        "30"
      ],
      [
        "▁bab",
        "y"
      ],
      [
        "▁bu",
        "y"
      ],
      [
        "▁con",
        "d"
      ],
      [
        "▁6",
        "1"
      ],
      [
        "▁anal",
        "ys"
      ],
      [
        "i",
        "ly"
      ],
      [
        "oo",
        "k"
      ],
      [
        "▁d",
        "'"
      ],
      [
        "▁w",
        "ell"
      ],
      [
        "▁",
        "id"
      ],
      [
        "▁202.456",
        ".2461"
      ],
      [
        "▁h",
        "ur"
      ],
      [
        "▁con",
        "c"
      ],
      [
        "e",
        "ver"
      ],
      [
        "▁calif",
        "orn"
      ],
      [
        "▁3",
        "76"
      ],
      [
        "p",
        "s"
      ],
      [
        "00",
        "0"
      ],
      [
        "▁comm",
        "on"
      ],
      [
        "▁713-8",
        "53"
      ],
      [
        "▁se",
        "cond"
      ],
      [
        "g",
        "ress"
      ],
      [
        "am",
        "e"
      ],
      [
        "▁gen",
        "er"
      ],
      [
        "ir",
        "l"
      ],
      [
        "▁somet",
        "imes"
      ],
      [
        "ur",
        "s"
      ],
      [
        "▁incl",
        "uding"
      ],
      [
        "▁me",
        "an"
      ],
      [
        "▁pre",
        "v"
      ],
      [
        "▁j",
        "ust"
      ],
      [
        "▁im",
        "port"
      ],
      [
        "re",
        "s"
      ],
      [
        "▁37",
        "24"
      ],
      [
        "▁h",
        "ow"
      ],
      [
        "e",
        "ther"
      ],
      [
        "-",
        "23"
      ],
      [
        "▁",
        "ll"
      ],
      [
        "▁03/0",
        "9/2000"
      ],
      [
        "▁ed",
        "uc"
      ],
      [
        "▁!",
        "!"
      ],
      [
        "▁t",
        "ur"
      ],
      [
        "s",
        "ix"
      ],
      [
        "▁16",
        "3"
      ],
      [
        "▁d",
        "ay"
      ],
      [
        "20",
        "1"
      ],
      [
        "▁n",
        "ecess"
      ],
      [
        "▁w",
        "ed"
      ],
      [
        "▁16",
        "00"
      ],
      [
        "/",
        "1"
      ],
      [
        "ec",
        "k"
      ],
      [
        "▁comm",
        "itt"
      ],
      [
        "z",
        "ac"
      ],
      [
        "▁r",
        "uss"
      ],
      [
        "o",
        "r"
      ],
      [
        "▁201",
        "2"
      ],
      [
        "es",
        "e"
      ],
      [
        "▁p",
        "en"
      ],
      [
        "▁195",
        "4"
      ],
      [
        "or",
        "t"
      ],
      [
        "▁to",
        "gether"
      ],
      [
        "▁wor",
        "k"
      ],
      [
        "a",
        "in"
      ],
      [
        ".",
        "10"
      ],
      [
        "▁1",
        "1"
      ],
      [
        "er",
        "y"
      ],
      [
        "d",
        "ing"
      ],
      [
        ":0",
        "1"
      ],
      [
        "▁def",
        "in"
      ],
      [
        "ert",
        "ain"
      ],
      [
        "8",
        "0"
      ],
      [
        "a",
        "y"
      ],
      [
        "▁f",
        "ace"
      ],
      [
        "▁let",
        "ter"
      ],
      [
        "▁pro",
        "per"
      ],
      [
        "ath",
        "er"
      ],
      [
        "▁n",
        "orm"
      ],
      [
        "▁ab",
        "o"
      ],
      [
        "/0",
        "1"
      ],
      [
        "________",
        "__"
      ],
      [
        "u",
        "ct"
      ],
      [
        "8",
        "9"
      ],
      [
        "▁10",
        "1"
      ],
      [
        "▁8",
        "13"
      ],
      [
        "▁hor",
        "se"
      ],
      [
        "▁l",
        "et"
      ],
      [
        "in",
        "ts"
      ],
      [
        "▁anim",
        "als"
      ],
      [
        "▁th",
        "urs"
      ],
      [
        "t",
        "im"
      ],
      [
        "▁17",
        "0"
      ],
      [
        "▁1",
        ",000"
      ],
      [
        "▁",
        "ans"
      ],
      [
        "▁b/",
        "c"
      ],
      [
        "o",
        "d"
      ],
      [
        "um",
        "p"
      ],
      [
        "▁t",
        "akes"
      ],
      [
        ".",
        "com"
      ],
      [
        ",",
        "0"
      ],
      [
        "▁03/2",
        "1/2001"
      ],
      [
        "▁5",
        "4"
      ],
      [
        "▁08",
        ":30"
      ],
      [
        "▁o",
        "pt"
      ],
      [
        "o",
        "c"
      ],
      [
        "ant",
        "s"
      ],
      [
        "▁act",
        "iv"
      ],
      [
        "l",
        "l"
      ],
      [
        "▁10",
        ",000"
      ],
      [
        "▁2",
        ".00"
      ],
      [
        "▁202.456.1",
        "111"
      ],
      [
        "▁================================================",
        "===="
      ],
      [
        "▁180",
        "5"
      ],
      [
        ",",
        "9"
      ],
      [
        "▁11",
        ",000"
      ],
      [
        "▁p",
        "os"
      ],
      [
        "g",
        "g"
      ],
      [
        "▁b",
        "us"
      ],
      [
        "iz",
        "ation"
      ],
      [
        "▁f",
        "rench"
      ],
      [
        "iz",
        "ed"
      ],
      [
        "▁proble",
        "ms"
      ],
      [
        "▁betw",
        "een"
      ],
      [
        "▁pro",
        "d"
      ],
      [
        "▁4",
        ","
      ],
      [
        "▁713-654-",
        "128"
      ],
      [
        "▁03/2",
        "7/2001"
      ],
      [
        "▁!!!",
        "!!!!!!!!"
      ],
      [
        "unic",
        "ations"
      ],
      [
        "in",
        "s"
      ],
      [
        "▁wh",
        "en"
      ],
      [
        "▁k",
        "itt"
      ],
      [
        "▁laur",
        "a"
      ],
      [
        "▁12",
        ":3"
      ],
      [
        "▁u",
        "p"
      ],
      [
        "as",
        "ing"
      ],
      [
        "-",
        "7"
      ],
      [
        "▁gu",
        "ess"
      ],
      [
        "m",
        "em"
      ],
      [
        "▁c",
        "ook"
      ],
      [
        "▁sp",
        "r"
      ],
      [
        "▁3",
        "/9"
      ],
      [
        "▁f",
        "ur"
      ],
      [
        "▁ph",
        "one"
      ],
      [
        "en",
        "ty"
      ],
      [
        "▁bo",
        "y"
      ],
      [
        "u",
        "g"
      ],
      [
        "▁l",
        "ondon"
      ],
      [
        "▁comp",
        "et"
      ],
      [
        "▁15",
        "99"
      ],
      [
        "65",
        "-3"
      ],
      [
        "▁16",
        "47"
      ],
      [
        "h",
        "a"
      ],
      [
        "en",
        "d"
      ],
      [
        "ra",
        "ft"
      ],
      [
        "-",
        "3"
      ],
      [
        "▁416-8",
        "65-3"
      ],
      [
        "▁di",
        "rect"
      ],
      [
        "▁t",
        "o"
      ],
      [
        "o",
        "b"
      ],
      [
        "▁e",
        "x"
      ],
      [
        "▁sle",
        "ep"
      ],
      [
        "cl",
        "ock"
      ],
      [
        "▁15",
        "30"
      ],
      [
        "-",
        "00"
      ],
      [
        "c",
        "ond"
      ],
      [
        "▁import",
        "ant"
      ],
      [
        "▁m",
        "om"
      ],
      [
        "al",
        "e"
      ],
      [
        "▁j",
        "u"
      ],
      [
        "▁s",
        "ome"
      ],
      [
        "-",
        "8"
      ],
      [
        "▁?",
        "!"
      ],
      [
        "el",
        "s"
      ],
      [
        "oug",
        "ht"
      ],
      [
        "▁pro",
        "b"
      ],
      [
        "▁stre",
        "et"
      ],
      [
        "▁ch",
        "ang"
      ],
      [
        "▁who",
        "se"
      ],
      [
        "r",
        "ow"
      ],
      [
        "e",
        "d"
      ],
      [
        "▁man",
        "y"
      ],
      [
        "▁arri",
        "ve"
      ],
      [
        "▁af",
        "ric"
      ],
      [
        "▁d",
        "ue"
      ],
      [
        "▁b",
        "al"
      ],
      [
        "▁e",
        "ff"
      ],
      [
        "▁franc",
        "isco"
      ],
      [
        "f",
        "f"
      ],
      [
        "▁youn",
        "g"
      ],
      [
        "▁our",
        "s"
      ],
      [
        "▁l",
        "ic"
      ],
      [
        "ec",
        "t"
      ],
      [
        "▁re",
        "ce"
      ],
      [
        "▁",
        "like"
      ],
      [
        "an",
        "a"
      ],
      [
        "▁fi",
        "le"
      ],
      [
        "a",
        "re"
      ],
      [
        "itt",
        "ing"
      ],
      [
        "▁s",
        "ad"
      ],
      [
        "▁3",
        "60"
      ],
      [
        "▁183",
        "6"
      ],
      [
        "▁ii",
        "i"
      ],
      [
        "▁forty",
        "-"
      ],
      [
        "i",
        "p"
      ],
      [
        "air",
        "s"
      ],
      [
        "▁713",
        "/"
      ],
      [
        "▁peop",
        "le"
      ],
      [
        "▁197",
        "2"
      ],
      [
        "▁04:",
        "28"
      ],
      [
        ".",
        "4"
      ],
      [
        "!!",
        "!!"
      ],
      [
        "▁le",
        "g"
      ],
      [
        "▁behin",
        "d"
      ],
      [
        "h",
        "ing"
      ],
      [
        "▁d",
        "raw"
      ],
      [
        "sel",
        "f"
      ],
      [
        "▁12",
        "/26/2000"
      ],
      [
        "ag",
        "e"
      ],
      [
        "▁iss",
        "ue"
      ],
      [
        "iv",
        "ely"
      ],
      [
        "▁mon",
        "t"
      ],
      [
        "es",
        "day"
      ],
      [
        "▁s",
        "m"
      ],
      [
        "m",
        "m"
      ],
      [
        "▁t",
        "old"
      ],
      [
        "▁e",
        "ar"
      ],
      [
        "▁200",
        "4"
      ],
      [
        "▁f",
        "ut"
      ],
      [
        "▁",
        "ant"
      ],
      [
        "▁li",
        "ve"
      ],
      [
        "▁l",
        "a"
      ],
      [
        "it",
        "y"
      ],
      [
        "▁meth",
        "od"
      ],
      [
        "▁11",
        "/0"
      ],
      [
        "▁exam",
        "ple"
      ],
      [
        "t",
        "c"
      ],
      [
        "u",
        "z"
      ],
      [
        "▁m",
        "e"
      ],
      [
        "-9",
        "004"
      ],
      [
        "▁b",
        "ar"
      ],
      [
        "▁s",
        "omet"
      ],
      [
        "▁prov",
        "ide"
      ],
      [
        "▁wil",
        "t"
      ],
      [
        "▁814",
        ".86"
      ],
      [
        "▁40",
        "1"
      ],
      [
        "▁g",
        "re"
      ],
      [
        "▁ref",
        "er"
      ],
      [
        "▁b",
        "ir"
      ],
      [
        "▁w",
        "il"
      ],
      [
        "▁",
        "les"
      ],
      [
        "9",
        "/2000"
      ],
      [
        "▁c",
        "or"
      ],
      [
        "▁tr",
        "uck"
      ],
      [
        "▁w",
        "ater"
      ],
      [
        "▁",
        "ide"
      ],
      [
        "▁11",
        "-20-"
      ],
      [
        "▁p",
        "ast"
      ],
      [
        "▁l",
        "ear"
      ],
      [
        "ang",
        "er"
      ],
      [
        "▁f",
        "orm"
      ],
      [
        "20",
        "2"
      ],
      [
        "18",
        "3"
      ],
      [
        "▁s",
        "it"
      ],
      [
        "▁h",
        "im"
      ],
      [
        "▁re",
        "t"
      ],
      [
        "▁no",
        "se"
      ],
      [
        "/2",
        "000"
      ],
      [
        "/",
        "31"
      ],
      [
        "▁e",
        "t"
      ],
      [
        "i",
        "ence"
      ],
      [
        "▁s",
        "er"
      ],
      [
        "▁",
        "ke"
      ],
      [
        "▁c",
        "amp"
      ],
      [
        "c",
        "uz"
      ],
      [
        "▁3",
        "43"
      ],
      [
        "▁f",
        "l"
      ],
      [
        "▁24",
        "0"
      ],
      [
        "▁40",
        ",000"
      ],
      [
        "ar",
        "k"
      ],
      [
        "▁under",
        "neath"
      ],
      [
        "▁11/7",
        "/08"
      ],
      [
        "▁arri",
        "ving"
      ],
      [
        "g",
        "le"
      ],
      [
        "▁thir",
        "ty"
      ],
      [
        "16",
        ".718"
      ],
      [
        "▁08",
        "/16"
      ],
      [
        "▁4",
        "50"
      ],
      [
        "t",
        "ed"
      ],
      [
        "▁meh-r",
        "isk"
      ],
      [
        "▁tri",
        "ed"
      ],
      [
        "▁1",
        "2"
      ],
      [
        "▁6",
        ":00"
      ],
      [
        "0",
        "/2000"
      ],
      [
        ":",
        "29"
      ],
      [
        "▁v",
        "s"
      ],
      [
        "▁n",
        "at"
      ],
      [
        "▁po",
        "int"
      ],
      [
        "▁ag",
        "o"
      ],
      [
        "s",
        "h"
      ],
      [
        "an",
        "g"
      ],
      [
        "b",
        "ook"
      ],
      [
        "▁baltim",
        "ore"
      ],
      [
        "3",
        "-3"
      ],
      [
        "▁t",
        "im"
      ],
      [
        "ab",
        "le"
      ],
      [
        "v",
        "el"
      ],
      [
        "▁17",
        "24"
      ],
      [
        "▁33",
        ",000"
      ],
      [
        "▁8",
        "50"
      ],
      [
        "▁se",
        "e"
      ],
      [
        "▁17",
        "87"
      ],
      [
        "▁d",
        "i"
      ],
      [
        "u",
        "le"
      ],
      [
        "▁'",
        "ve"
      ],
      [
        "▁0",
        "9"
      ],
      [
        "▁",
        ">"
      ],
      [
        "==",
        "="
      ],
      [
        "▁tr",
        "y"
      ],
      [
        "at",
        "ure"
      ],
      [
        "1",
        "28"
      ],
      [
        "▁",
        ";"
      ],
      [
        "▁no",
        "on"
      ],
      [
        "ow",
        "er"
      ],
      [
        "ell",
        "ow"
      ],
      [
        "▁our",
        "selves"
      ],
      [
        "d",
        "e"
      ],
      [
        "▁fift",
        "y"
      ],
      [
        "▁fun",
        "d"
      ],
      [
        "g",
        "e"
      ],
      [
        "is",
        "s"
      ],
      [
        "▁al",
        "ber"
      ],
      [
        "▁05",
        "/01/2001"
      ],
      [
        "▁pro",
        "v"
      ],
      [
        "▁thr",
        "u"
      ],
      [
        "ou",
        "n"
      ],
      [
        "▁sal",
        "t"
      ],
      [
        "▁am",
        "ong"
      ],
      [
        "▁713-853-",
        "3098"
      ],
      [
        "▁37",
        "3"
      ],
      [
        "▁5",
        "75"
      ],
      [
        "▁18",
        "20"
      ],
      [
        "▁trale",
        "e"
      ],
      [
        "..",
        ".."
      ],
      [
        "▁g",
        "et"
      ],
      [
        "▁litt",
        "le"
      ],
      [
        "er",
        "v"
      ],
      [
        "▁160",
        "4"
      ],
      [
        "▁m",
        "ass"
      ],
      [
        "▁9",
        "1"
      ],
      [
        "a",
        "v"
      ],
      [
        "▁li",
        "ving"
      ],
      [
        "▁co",
        "ver"
      ],
      [
        "▁h",
        "at"
      ],
      [
        "ol",
        "og"
      ],
      [
        "▁id",
        "ea"
      ],
      [
        "u",
        "e"
      ],
      [
        "▁min",
        "ute"
      ],
      [
        "i",
        "or"
      ],
      [
        "i",
        "qu"
      ],
      [
        "▁30",
        ",000"
      ],
      [
        "▁po",
        "st"
      ],
      [
        "▁32",
        "4"
      ],
      [
        "▁ill",
        "usions"
      ],
      [
        "▁6",
        "6"
      ],
      [
        "▁u",
        "s"
      ],
      [
        "▁piec",
        "e"
      ],
      [
        "ot",
        "te"
      ],
      [
        "▁su",
        "per"
      ],
      [
        "▁sa",
        "id"
      ],
      [
        "▁196",
        "0"
      ],
      [
        "a",
        "u"
      ],
      [
        "▁att",
        "ack"
      ],
      [
        "re",
        "n"
      ],
      [
        "l",
        "d"
      ],
      [
        "▁18",
        "22"
      ],
      [
        "▁10",
        ":00"
      ],
      [
        "▁d",
        "is"
      ],
      [
        "▁dr",
        "ink"
      ],
      [
        "▁st",
        "ep"
      ],
      [
        "os",
        "ite"
      ],
      [
        "as",
        "e"
      ],
      [
        "▁p",
        "age"
      ],
      [
        "▁",
        "u"
      ],
      [
        "ea",
        "re"
      ],
      [
        "▁189",
        "2"
      ],
      [
        "▁p",
        "res"
      ],
      [
        "▁u",
        "m"
      ],
      [
        "▁do",
        "or"
      ],
      [
        "ul",
        "a"
      ],
      [
        "ic",
        "s"
      ],
      [
        "▁ty",
        "p"
      ],
      [
        "id",
        "ence"
      ],
      [
        "t",
        "h"
      ],
      [
        "▁cl",
        "im"
      ],
      [
        "▁mu",
        "st"
      ],
      [
        "▁1.",
        "3"
      ],
      [
        "st",
        "and"
      ],
      [
        "▁add",
        "ress"
      ],
      [
        "1",
        "0"
      ],
      [
        "j",
        "ect"
      ],
      [
        "▁th",
        "ought"
      ],
      [
        "▁cont",
        "in"
      ],
      [
        "▁hum",
        "an"
      ],
      [
        "▁americ",
        "a"
      ],
      [
        "▁a",
        "head"
      ],
      [
        "▁1.",
        "00"
      ],
      [
        "▁t",
        "r"
      ],
      [
        "▁th",
        "ing"
      ],
      [
        "▁kn",
        "ow"
      ],
      [
        "g",
        "er"
      ],
      [
        "h",
        "ip"
      ],
      [
        "1",
        "9"
      ],
      [
        "▁18",
        "71"
      ],
      [
        "▁it",
        "em"
      ],
      [
        "▁em",
        "ploy"
      ],
      [
        "▁11:3",
        "5"
      ],
      [
        "3",
        "4"
      ],
      [
        "▁bus",
        "iness"
      ],
      [
        "▁dis",
        "pl"
      ],
      [
        "▁com",
        "p"
      ],
      [
        "ar",
        "t"
      ],
      [
        "▁h",
        "ell"
      ],
      [
        "▁p",
        "m"
      ],
      [
        "▁e",
        "y"
      ],
      [
        "l",
        "ed"
      ],
      [
        "ap",
        "e"
      ],
      [
        "▁soc",
        "ial"
      ],
      [
        "▁del",
        "ta"
      ],
      [
        "▁be",
        "neath"
      ],
      [
        "on",
        "s"
      ],
      [
        "▁friend",
        "s"
      ],
      [
        "▁07",
        ":24"
      ],
      [
        "i",
        "s"
      ],
      [
        "▁sy",
        "stem"
      ],
      [
        "▁b",
        "y"
      ],
      [
        "▁was",
        "hing"
      ],
      [
        "▁180",
        "1"
      ],
      [
        "▁p",
        "aren"
      ],
      [
        "5",
        "4-"
      ],
      [
        "▁oak",
        "land"
      ],
      [
        "w",
        "ard"
      ],
      [
        "▁y",
        "o"
      ],
      [
        "▁4",
        "7"
      ],
      [
        ".6",
        "76"
      ],
      [
        "▁s",
        "on"
      ],
      [
        "▁12",
        "20"
      ],
      [
        "▁htt",
        "p"
      ],
      [
        "▁10",
        "/26/2000"
      ],
      [
        "▁t",
        "ell"
      ],
      [
        "▁c",
        "ity"
      ],
      [
        "▁the",
        "m"
      ],
      [
        "5",
        "5"
      ],
      [
        "▁195",
        "5"
      ],
      [
        "▁m",
        "ay"
      ],
      [
        "▁a",
        "ff"
      ],
      [
        "▁l",
        "oc"
      ],
      [
        "4",
        "4"
      ],
      [
        "▁m",
        "outh"
      ],
      [
        "i",
        "m"
      ],
      [
        "▁191",
        "2"
      ],
      [
        "▁ro",
        "ad"
      ],
      [
        "▁in",
        "d"
      ],
      [
        "▁even",
        "ing"
      ],
      [
        "▁e",
        "ach"
      ],
      [
        "▁besid",
        "es"
      ],
      [
        "▁4",
        "3"
      ],
      [
        "▁su",
        "re"
      ],
      [
        "▁get",
        "s"
      ],
      [
        "▁twenty-",
        "two"
      ],
      [
        "▁d",
        "isc"
      ],
      [
        "▁hot",
        "el"
      ],
      [
        "▁159",
        "2"
      ],
      [
        "▁4",
        "00"
      ],
      [
        "-8",
        "4"
      ],
      [
        "▁03/0",
        "8/2000"
      ],
      [
        "▁ne",
        "xt"
      ],
      [
        "▁de",
        "ath"
      ],
      [
        "▁4",
        "8"
      ],
      [
        "▁18",
        "78"
      ],
      [
        "▁12",
        "22"
      ],
      [
        "▁c",
        "ap"
      ],
      [
        "▁dall",
        "as"
      ],
      [
        "▁d",
        "ays"
      ],
      [
        "▁gu",
        "y"
      ],
      [
        "▁",
        "5"
      ],
      [
        "▁6",
        "39"
      ],
      [
        "▁18",
        "9"
      ],
      [
        "er",
        "ing"
      ],
      [
        "▁8",
        "00"
      ],
      [
        "▁11",
        ":0"
      ],
      [
        "p",
        "l"
      ],
      [
        "▁paren",
        "ts"
      ],
      [
        "-",
        "2"
      ],
      [
        "▁st",
        "e"
      ],
      [
        "▁c",
        "reat"
      ],
      [
        "▁as",
        "k"
      ],
      [
        "▁8",
        ":30"
      ],
      [
        "▁8",
        "8"
      ],
      [
        "▁f",
        "r"
      ],
      [
        "am",
        "i"
      ],
      [
        "▁505-625",
        "-8031"
      ],
      [
        "▁ask",
        "ed"
      ],
      [
        "▁2",
        ",500"
      ],
      [
        "ap",
        "er"
      ],
      [
        "▁'",
        "s"
      ],
      [
        "b",
        "s"
      ],
      [
        "ac",
        "h"
      ],
      [
        "▁1",
        "."
      ],
      [
        "e",
        "ment"
      ],
      [
        "▁75",
        "9933"
      ],
      [
        "▁huma",
        "ine"
      ],
      [
        "an",
        "e"
      ],
      [
        "▁16",
        "99"
      ],
      [
        "▁mo",
        "d"
      ],
      [
        "▁a",
        "ir"
      ],
      [
        "▁19",
        "1"
      ],
      [
        "▁425",
        "-415-"
      ],
      [
        "▁sur",
        "pr"
      ],
      [
        "t",
        "own"
      ],
      [
        "▁esp",
        "ec"
      ],
      [
        "l",
        "ik"
      ],
      [
        "e",
        "ct"
      ],
      [
        "/1",
        "5"
      ],
      [
        "inn",
        "er"
      ],
      [
        "er",
        "g"
      ],
      [
        "/1",
        "0/2000"
      ],
      [
        "▁'",
        "m"
      ],
      [
        "s",
        "p"
      ],
      [
        "▁9",
        "/11"
      ],
      [
        "▁along",
        "side"
      ],
      [
        "d",
        "ay"
      ],
      [
        "▁he",
        "y"
      ],
      [
        "o",
        "ve"
      ],
      [
        "a",
        "g"
      ],
      [
        "▁b",
        "ea"
      ],
      [
        "▁energ",
        "y"
      ],
      [
        "▁15",
        "0"
      ],
      [
        "/2",
        "00"
      ],
      [
        "▁a",
        "t"
      ],
      [
        "▁r",
        "ich"
      ],
      [
        "▁03",
        "/15/2001"
      ],
      [
        "▁h",
        "-0"
      ],
      [
        "-",
        ")"
      ],
      [
        "▁2",
        ":00"
      ],
      [
        "▁9",
        "32"
      ],
      [
        "▁f",
        "ell"
      ],
      [
        "▁j",
        "e"
      ],
      [
        "▁bus",
        "h"
      ],
      [
        "▁nat",
        "ural"
      ],
      [
        "▁b",
        "re"
      ],
      [
        "en",
        "g"
      ],
      [
        "▁fe",
        "w"
      ],
      [
        "▁713",
        "-79"
      ],
      [
        "▁u",
        "se"
      ],
      [
        "▁le",
        "vel"
      ],
      [
        "▁numer",
        "ous"
      ],
      [
        "▁l",
        "e"
      ],
      [
        "▁li",
        "ves"
      ],
      [
        "▁",
        "/"
      ],
      [
        "▁tec",
        "hn"
      ],
      [
        "▁resp",
        "ect"
      ],
      [
        "▁12",
        "45"
      ],
      [
        "▁177",
        "4"
      ],
      [
        "o",
        "th"
      ],
      [
        "▁think",
        "ing"
      ],
      [
        "▁comp",
        "le"
      ],
      [
        "▁att",
        "ached"
      ],
      [
        "▁mem",
        "bers"
      ],
      [
        "▁tou",
        "ch"
      ],
      [
        "▁10",
        "39"
      ],
      [
        "▁hear",
        "d"
      ],
      [
        "▁fi",
        "eld"
      ],
      [
        "▁201",
        "0"
      ],
      [
        "▁p",
        "ower"
      ],
      [
        "▁per",
        "f"
      ],
      [
        "▁c",
        "ould"
      ],
      [
        "▁c",
        "on"
      ],
      [
        "▁c",
        "iv"
      ],
      [
        "▁201",
        "9"
      ],
      [
        "▁th",
        "rou"
      ],
      [
        "▁12",
        "0"
      ],
      [
        "_",
        "^"
      ],
      [
        "▁ver",
        "y"
      ],
      [
        "'",
        "s"
      ],
      [
        "▁",
        "p"
      ],
      [
        "▁apar",
        "t"
      ],
      [
        "8",
        "00"
      ],
      [
        "▁s",
        "k"
      ],
      [
        "▁re",
        "ally"
      ],
      [
        "▁12",
        "9"
      ],
      [
        "r",
        "ation"
      ],
      [
        "▁eat",
        "ing"
      ],
      [
        "r",
        "ed"
      ],
      [
        "8",
        "8"
      ],
      [
        "▁832",
        ".676"
      ],
      [
        ".",
        "5"
      ],
      [
        "*",
        "*"
      ],
      [
        "ro",
        "l"
      ],
      [
        "es",
        "t"
      ],
      [
        "▁de",
        "f"
      ],
      [
        "▁r",
        "a"
      ],
      [
        "f",
        "ast"
      ],
      [
        "▁we",
        "b"
      ],
      [
        "2",
        "/2000"
      ],
      [
        "▁17",
        "00"
      ],
      [
        "▁2",
        "6"
      ],
      [
        "▁k",
        "ind"
      ],
      [
        "▁3",
        ",500"
      ],
      [
        "▁call",
        "ed"
      ],
      [
        "▁tom",
        "orrow"
      ],
      [
        "6",
        "0"
      ],
      [
        ",",
        "00"
      ],
      [
        "▁the",
        "se"
      ],
      [
        "-",
        "99"
      ],
      [
        "▁p",
        "ush"
      ],
      [
        "/8",
        "/00"
      ],
      [
        "/2",
        "5/2001"
      ],
      [
        "u",
        "st"
      ],
      [
        "▁be",
        "ach"
      ],
      [
        "-",
        "n"
      ],
      [
        ",",
        "8"
      ],
      [
        "▁17",
        "83"
      ],
      [
        "5",
        "7"
      ],
      [
        "3",
        "89"
      ],
      [
        "▁750",
        ",000"
      ],
      [
        "▁b",
        "et"
      ],
      [
        "c",
        "a"
      ],
      [
        "▁quest",
        "ions"
      ],
      [
        "▁s",
        "am"
      ],
      [
        "a",
        "z"
      ],
      [
        "▁a",
        "ll"
      ],
      [
        "▁ju",
        "ly"
      ],
      [
        "▁s",
        "al"
      ],
      [
        "u",
        "de"
      ],
      [
        "▁al",
        "one"
      ],
      [
        "▁we",
        "ek"
      ],
      [
        "▁202",
[...]
