{
  "version": "1.0",
  "truncation": null,
  "padding": null,
  "added_tokens": [
    {
      "id": 2721,
      "content": "[PAD]",
      "single_word": false,
      "lstrip": false,
      "rstrip": false,
      "normalized": false,
      "special": true
    },
    {
      "id": 3080,
      "content": "[UNK]",
      "single_word": false,
      "lstrip": false,
      "rstrip": false,
      "normalized": false,
      "special": true
    },
    {
      "id": 3298,
      "content": "[SEP]",
      "single_word": false,
      "lstrip": false,
      "rstrip": false,
      "normalized": false,
      "special": true
    },
    {
      "id": 5378,
      "content": "[CLS]",
      "single_word": false,
      "lstrip": false,
      "rstrip": false,
      "normalized": false,
      "special": true
    },
    {
      "id": 6666,
      "content": "[MASK]",
      "single_word": false,
      "lstrip": false,
      "rstrip": false,
      "normalized": false,
      "special": true
    }
  ],
  "normalizer": {
    "type": "Sequence",
    "normalizers": [
      {
        "type": "NFD"
      },
      {
        "type": "Lowercase"
      },
      {
        "type": "StripAccents"
      }
    ]
  },
  "pre_tokenizer": {
    "type": "Sequence",
    "pretokenizers": [
      {
        "type": "Metaspace",
        "replacement": "▁",
        "prepend_scheme": "always",
        "split": true
      }
    ]
  },
  "post_processor": {
    "type": "TemplateProcessing",
    "single": [
      {
        "SpecialToken": {
          "id": "[CLS]",
          "type_id": 0
        }
      },
      {
        "Sequence": {
          "id": "A",
          "type_id": 0
        }
      },
      {
        "SpecialToken": {
          "id": "[SEP]",
          "type_id": 0
        }
      }
    ],
    "pair": [
      {
        "SpecialToken": {
          "id": "[CLS]",
          "type_id": 0
        }
      },
      {
        "Sequence": {
          "id": "A",
          "type_id": 0
        }
      },
      {
        "SpecialToken": {
          "id": "[SEP]",
          "type_id": 0
        }
      },
      {
        "Sequence": {
          "id": "B",
          "type_id": 1
        }
      },
      {
        "SpecialToken": {
          "id": "[SEP]",
          "type_id": 1
        }
      }
    ],
    "special_tokens": {
      "[CLS]": {
        "id": "[CLS]",
        "ids": [
          5378
        ],
        "tokens": [
          "[CLS]"
        ]
      },
      "[SEP]": {
        "id": "[SEP]",
        "ids": [
          3298
        ],
        "tokens": [
          "[SEP]"
        ]
      }
    }
  },
  "decoder": {
    "type": "Metaspace",
    "replacement": "▁",
    "prepend_scheme": "always",
    "split": true
  },
  "model": {
    "type": "BPE",
    "dropout": null,
    "unk_token": "[UNK]",
    "continuing_subword_prefix": null,
    "end_of_word_suffix": null,
    "fuse_unk": false,
    "byte_fallback": false,
    "ignore_merges": false,
    "vocab": {
      "apolis": 0,
      "▁imple": 1,
      "▁417": 2,
      "▁pri": 3,
      "42": 4,
      "sem": 5,
      "▁structural": 6,
      "▁shape": 7,
      "▁calc": 8,
      "▁meals": 9,
      "▁129": 10,
      "▁relax": 11,
      "ler": 12,
      "▁names": 13,
      "▁1/8": 14,
      "ieth": 15,
      "oc": 16,
      "isco": 17,
      "▁loose": 18,
      "▁math": 19,
      "▁stuck": 20,
      "-49": 21,
      "▁mich": 22,
      "▁against": 23,
      "▁becomes": 24,
      "▁theodorus": 25,
      "▁great": 26,
      "▁least": 27,
      "ece": 28,
      "▁discount": 29,
      "▁fee": 30,
      "▁players": 31,
      "!!!": 32,
      "▁ros": 33,
      "▁1608": 34,
      "▁loud": 35,
      "encies": 36,
      "▁23": 37,
      "ective": 38,
      "▁young": 39,
      "▁corn": 40,
      "pp": 41,
      "elle": 42,
      "▁plane": 43,
      "------------": 44,
      "▁had": 45,
      "▁susp": 46,
      "anta": 47,
      "▁leaders": 48,
      "▁empty": 49,
      "▁guid": 50,
      "▁uniform": 51,
      "ract": 52,
      "▁apprec": 53,
      "▁ag": 54,
      "ization": 55,
      "▁responsibility": 56,
      "▁secur": 57,
      "▁veh": 58,
      "▁orland": 59,
      "▁chicken": 60,
      "ince": 61,
      "▁paul": 62,
      "▁format": 63,
      ":11": 64,
      "ly": 65,
      "▁last": 66,
      "▁visit": 67,
      "▁shut": 68,
      "ru": 69,
      "▁presents": 70,
      "▁mike": 71,
      "▁500": 72,
      "ps": 73,
      "▁she": 74,
      "▁origin": 75,
      "▁completely": 76,
      "▁again": 77,
      "▁told": 78,
      "▁oc": 79,
      "▁papers": 80,
      "▁hi": 81,
      "▁****": 82,
      "▁dis": 83,
      "▁analysis_0712": 84,
      "▁charged": 85,
      "ns": 86,
      "▁safet": 87,
      "▁1160": 88,
      "▁padaleck": 89,
      "▁weekly": 90,
      "▁believes": 91,
      "▁stip": 92,
      "▁taiwan": 93,
      "▁pit": 94,
      "atter": 95,
      "▁continued": 96,
      "ained": 97,
      "▁nobody": 98,
      "▁manner": 99,
      "r": 100,
      "ager": 101,
      "▁whil": 102,
      "/99": 103,
      "▁bell": 104,
      "▁official": 105,
      "▁involved": 106,
      "▁regional": 107,
      "▁microsoft": 108,
      "▁1500": 109,
      "▁wilt": 110,
      "▁file": 111,
      "▁driving": 112,
      "▁chall": 113,
      "▁0000108806": 114,
      "/16": 115,
      "▁garden": 116,
      "▁not": 117,
      "vel": 118,
      "▁5.8": 119,
      "ue": 120,
      "/2004": 121,
      "5th": 122,
      "▁laugh": 123,
      "▁straw": 124,
      "▁)": 125,
      "▁159": 126,
      "dred": 127,
      "band": 128,
      "▁them": 129,
      "▁ex": 130,
      "▁dishes": 131,
      "▁struct": 132,
      "▁pock": 133,
      "anced": 134,
      "▁.!": 135,
      "▁farm": 136,
      "▁rug": 137,
      "w": 138,
      "ript": 139,
      "▁lip": 140,
      "ge": 141,
      "▁wondering": 142,
      "▁gas": 143,
      "▁750,000": 144,
      "▁dough": 145,
      "▁aim": 146,
      "▁lion": 147,
      "▁chat": 148,
      "▁debate": 149,
      "▁rabbit": 150,
      "▁bringing": 151,
      "▁1964": 152,
      "ess": 153,
      "▁organ": 154,
      "▁story": 155,
      "form": 156,
      "▁fa": 157,
      "▁345-343": 158,
      "ise": 159,
      "ways": 160,
      "um": 161,
      "ax": 162,
      "▁into": 163,
      "▁wh": 164,
      "▁case": 165,
      "▁hundred": 166,
      "▁broken": 167,
      "▁630": 168,
      "▁11:07": 169,
      "▁majority": 170,
      "ey": 171,
      "▁=": 172,
      "▁scenes": 173,
      "▁11:00": 174,
      "▁lear": 175,
      "81": 176,
      "▁foreign": 177,
      "urt": 178,
      "▁nerv": 179,
      "▁intr": 180,
      "▁activ": 181,
      "wh": 182,
      "▁emerg": 183,
      "▁state": 184,
      "▁know": 185,
      "▁writing": 186,
      "▁flex": 187,
      "ately": 188,
      "ihow": 189,
      "▁proc": 190,
      "▁66": 191,
      "▁listing": 192,
      "▁psychology": 193,
      "▁ba": 194,
      "gin": 195,
      "uma": 196,
      "▁sh": 197,
      "ih": 198,
      "▁worst": 199,
      "▁forget": 200,
      "▁84": 201,
      "▁chocol": 202,
      "xim": 203,
      ".5": 204,
      "▁fifth": 205,
      "▁joke": 206,
      "ounts": 207,
      "▁first": 208,
      "▁commercial": 209,
      "sd": 210,
      "▁kh": 211,
      "♥": 212,
      "▁sav": 213,
      "▁mechan": 214,
      "▁festival": 215,
      "▁sleepy": 216,
      "▁tho": 217,
      "▁braz": 218,
      "▁bathroom": 219,
      "▁camel": 220,
      "▁property": 221,
      "▁pockets": 222,
      "▁clear": 223,
      "ervation": 224,
      "▁letters": 225,
      "ett": 226,
      "▁1848": 227,
      "zac": 228,
      "▁tre": 229,
      "▁all": 230,
      "▁09/15": 231,
      "▁800-5": 232,
      "▁ev": 233,
      "▁innov": 234,
      "▁1585": 235,
      "▁memory": 236,
      "▁role": 237,
      "pping": 238,
      "lo": 239,
      "▁beer": 240,
      "▁january": 241,
      "▁?????": 242,
      "▁talks": 243,
      "▁response": 244,
      "port": 245,
      "▁amazing": 246,
      "▁spoke": 247,
      "▁am": 248,
      "▁become": 249,
      "▁believed": 250,
      "▁1991": 251,
      "▁standing": 252,
      "ene": 253,
      "▁airline": 254,
      "▁59": 255,
      "▁1600": 256,
      "▁income": 257,
      "▁arrest": 258,
      "▁0.0": 259,
      "▁1.4": 260,
      "▁cred": 261,
      "fr": 262,
      "ace": 263,
      "▁foc": 264,
      "▁washing": 265,
      "uel": 266,
      "▁bul": 267,
      "▁surpr": 268,
      "▁dere": 269,
      "ured": 270,
      "▁influ": 271,
      "019": 272,
      "▁recording": 273,
      "▁participation": 274,
      "ops": 275,
      "▁airl": 276,
      "▁queries": 277,
      "▁;": 278,
      "ronic": 279,
      "▁sheet": 280,
      "uce": 281,
      "▁cowboy": 282,
      "ο": 283,
      "ang": 284,
      "idge": 285,
      "▁1947": 286,
      "▁8:15": 287,
      "at": 288,
      "ach": 289,
      "▁apparently": 290,
      "▁magn": 291,
      "▁access": 292,
      "▁committ": 293,
      "▁tomato": 294,
      "▁sky": 295,
      "▁destroy": 296,
      "▁1179": 297,
      "en": 298,
      "rol": 299,
      "▁n’t": 300,
      "▁del": 301,
      "▁color": 302,
      "ell": 303,
      "ature": 304,
      "▁enter": 305,
      "▁california": 306,
      "ives": 307,
      "▁customers": 308,
      "▁415.621.8317": 309,
      "ment": 310,
      "▁ways": 311,
      "▁140": 312,
      "9/2001": 313,
      "au": 314,
      "▁court": 315,
      "▁third": 316,
      "▁1847": 317,
      "▁peaceful": 318,
      "▁wear": 319,
      "▁thirty-": 320,
      "▁figure": 321,
      "▁sweater": 322,
      "ender": 323,
      "ball": 324,
      "▁special": 325,
      "cil": 326,
      "▁7:30": 327,
      "▁winter": 328,
      "ial": 329,
      "▁b.": 330,
      "▁pas": 331,
      "▁adam": 332,
      "ne": 333,
      "▁wonderful": 334,
      "▁150,000": 335,
      "▁matt": 336,
      "▁urban": 337,
      "▁doll": 338,
      "▁some": 339,
      "▁takes": 340,
      "▁nook": 341,
      "▁royal": 342,
      "ind": 343,
      "▁phen": 344,
      "静": 345,
      "▁whereas": 346,
      "▁draw": 347,
      "▁rush": 348,
      "▁regime": 349,
      "▁60,000": 350,
      "▁ld2": 351,
      "▁islands": 352,
      "▁ans": 353,
      "▁jumped": 354,
      "▁kitt": 355,
      "▁update": 356,
      "▁202.456.1111": 357,
      "▁appreciate": 358,
      "▁shin": 359,
      "▁cookies": 360,
      "▁750": 361,
      "▁adult": 362,
      "▁percell,": 363,
      "▁europe": 364,
      "▁arrival": 365,
      "▁166": 366,
      "d2": 367,
      "▁mist": 368,
      "▁banana": 369,
      "▁data": 370,
      "ere": 371,
      "▁legs": 372,
      "▁prev": 373,
      "▁changes": 374,
      "▁2020": 375,
      "▁aesth": 376,
      "▁personal": 377,
      "ask": 378,
      "▁its": 379,
      "▁race": 380,
      "eak": 381,
      "tt": 382,
      "ries": 383,
      "-6": 384,
      "▁coff": 385,
      "▁nature": 386,
      "▁could": 387,
      "sus": 388,
      "▁delicious": 389,
      "▁virt": 390,
      "▁tem": 391,
      "▁outside": 392,
      "co": 393,
      "▁five": 394,
      "▁session": 395,
      "▁baseball": 396,
      "▁structures": 397,
      "come": 398,
      "▁military": 399,
      "▁dam": 400,
      "▁415.782.7822": 401,
      "▁increasing": 402,
      "ε": 403,
      "▁rolling": 404,
      "tc": 405,
      "▁build": 406,
      "▁posted": 407,
      "dd": 408,
      "▁beliefs": 409,
      "▁aug": 410,
      "of": 411,
      "cle": 412,
      "▁dancing": 413,
      "▁art": 414,
      "ario": 415,
      "~*": 416,
      "roit": 417,
      "▁italy": 418,
      "arch": 419,
      "ime": 420,
      "ards": 421,
      "xce": 422,
      "▁liberty": 423,
      "ellow": 424,
      "vin": 425,
      "▁hiking": 426,
      "ril": 427,
      "▁handle": 428,
      "gn": 429,
      "▁1,6": 430,
      "asks": 431,
      "▁showed": 432,
      "yal": 433,
      "▁comfortable": 434,
      "▁otherwise": 435,
      "▁addition": 436,
      "▁positions": 437,
      "▁penc": 438,
      "▁interested": 439,
      "▁isl": 440,
      "ishing": 441,
      "▁deter": 442,
      "▁needed": 443,
      "▁determine": 444,
      "▁cro": 445,
      "alle": 446,
      "▁ladder": 447,
      "ay": 448,
      "▁breaking": 449,
      "ists": 450,
      "▁1939": 451,
      "▁sym": 452,
      "eech": 453,
      "ough": 454,
      "▁incl": 455,
      "▁duty": 456,
      "▁gym": 457,
      "▁supp": 458,
      "▁43": 459,
      "▁charlie": 460,
      "dam": 461,
      "▁reve": 462,
      "ver": 463,
      "▁---=": 464,
      "ayed": 465,
      "▁1994": 466,
      "gue": 467,
      "▁supper": 468,
      "▁individ": 469,
      "4-79": 470,
      "▁analy": 471,
      "wik": 472,
      "▁creating": 473,
      "▁☏": 474,
      "owled": 475,
      "▁gall": 476,
      "uit": 477,
      "▁toky": 478,
      "▁cia": 479,
      "▁fuel": 480,
      "ive": 481,
      "▁stopover": 482,
      "▁01/2": 483,
      "▁11.5": 484,
      "▁twenty": 485,
      "▁knowled": 486,
      "gers": 487,
      "▁lower": 488,
      "oured": 489,
      "▁crack": 490,
      "▁concerns": 491,
      "▁past": 492,
      "▁fact": 493,
      "▁elect": 494,
      "▁dollie": 495,
      "▁fre": 496,
      "▁metal": 497,
      "▁appropriate": 498,
      "▁nonstop": 499,
      "▁mid": 500,
      "▁andrillae": 501,
      "ory": 502,
      "▁afford": 503,
      "▁equival": 504,
      "ys": 505,
      "▁mess": 506,
      "55": 507,
      "▁coll": 508,
      "▁12.": 509,
      "▁beyond": 510,
      "▁sql": 511,
      "omen": 512,
      "▁courses": 513,
      "▁talk": 514,
      "-46": 515,
      "▁tac": 516,
      "ient": 517,
      "▁command": 518,
      "aff": 519,
      "▁wrong": 520,
      "▁discover": 521,
      "▁match": 522,
      "▁say": 523,
      "astic": 524,
      "▁unfortunately": 525,
      "▁invest": 526,
      "▁6/1": 527,
      "▁dinos": 528,
      "ʊ": 529,
      "edule": 530,
      "▁6.2": 531,
      "res": 532,
      "▁1699": 533,
      "▁confl": 534,
      "▁airport": 535,
      "▁comments": 536,
      ".org": 537,
      "ond": 538,
      "▁activities": 539,
      "▁highest": 540,
      "▁monkey": 541,
      "raid": 542,
      "▁everything": 543,
      "▁puzzle": 544,
      "iz": 545,
      "▁170": 546,
      "300": 547,
      "▁probably": 548,
      "▁sa": 549,
      "▁ken": 550,
      "▁a": 551,
      "▁value": 552,
      "ide": 553,
      "▁just": 554,
      "▁fol": 555,
      "▁rather": 556,
      "▁block": 557,
      "▁&": 558,
      "▁reliable": 559,
      "▁must": 560,
      "ation": 561,
      "▁oh": 562,
      "▁_______": 563,
      "ux": 564,
      "orum": 565,
      "▁balzac": 566,
      "iration": 567,
      "▁controls": 568,
      "▁display": 569,
      "▁toes": 570,
      ":27": 571,
      "▁ever": 572,
      "▁daily": 573,
      "▁behavior": 574,
      "▁collection": 575,
      "▁bus": 576,
      "▁q": 577,
      "▁orig": 578,
      "▁provide": 579,
      "eless": 580,
      "▁def": 581,
      "13.86": 582,
      "four": 583,
      "▁outer": 584,
      ".com": 585,
      "ea": 586,
      "▁1978": 587,
      "▁rab": 588,
      "▁cloth": 589,
      "78": 590,
      "▁hair": 591,
      "▁158": 592,
      "▁glow": 593,
      "▁excellent": 594,
      "bs": 595,
      "▁11:35": 596,
      "▁documents": 597,
      "▁okay": 598,
      "▁creat": 599,
      "▁decl": 600,
      "▁video": 601,
      "ults": 602,
      "▁?": 603,
      "icago": 604,
      "▁down": 605,
      "▁move": 606,
      "▁50000": 607,
      "▁18,000": 608,
      "▁strong": 609,
      "▁connected": 610,
      "leep": 611,
      "▁dear": 612,
      "▁18": 613,
      "▁once": 614,
      "▁woud": 615,
      "▁airpl": 616,
      "als": 617,
      "▁ten": 618,
      "▁snow": 619,
      "▁281-435": 620,
      "on@enron": 621,
      "▁realized": 622,
      "▁fat": 623,
      "ter": 624,
      "aries": 625,
      "▁immed": 626,
      "▁376": 627,
      "▁sand": 628,
      "▁sk": 629,
      "▁17": 630,
      "▁basically": 631,
      "▁31": 632,
      "▁wil": 633,
      "▁campaign": 634,
      "ilities": 635,
      "▁12": 636,
      "▁comed": 637,
      "▁ren": 638,
      "▁answers": 639,
      "ceed": 640,
      "▁tick": 641,
      "▁01/24/2001": 642,
      "++": 643,
      "00": 644,
      "▁regist": 645,
      "▁scholars": 646,
      "▁practice": 647,
      "▁albeit": 648,
      "▁penny": 649,
      "▁loc": 650,
      "▁bin": 651,
      "▁heav": 652,
      "▁city": 653,
      "gy": 654,
      "▁medical": 655,
      "▁quickly": 656,
      "fet": 657,
      "▁nandaro": 658,
      "ange": 659,
      "▁sor": 660,
      "▁vol": 661,
      "▁alberta": 662,
      "▁bears": 663,
      "▁what": 664,
      "▁wentz": 665,
      "▁aircraft": 666,
      "▁har": 667,
      "▁'m": 668,
      "▁1579": 669,
      "▁divers": 670,
      "▁401": 671,
      "------->": 672,
      "▁leader": 673,
      "ommend": 674,
      "0": 675,
      "▁ip": 676,
      "▁dar": 677,
      "▁esc": 678,
      "▁decent": 679,
      "ument": 680,
      "▁sar": 681,
      "ping": 682,
      "_0": 683,
      "pa": 684,
      "▁h": 685,
      "iel": 686,
      "▁blackl": 687,
      "▁lost": 688,
      "▁keeping": 689,
      "▁required": 690,
      "pre": 691,
      "▁unto": 692,
      "att": 693,
      "▁’’": 694,
      "▁failure": 695,
      "▁grand": 696,
      "▁huma": 697,
      "▁yellow": 698,
      "▁inter": 699,
      "ye": 700,
      "load": 701,
      "▁desk": 702,
      "▁wit": 703,
      "ade": 704,
      "8": 705,
      ",950": 706,
      "▁totally": 707,
      "▁a.": 708,
      "▁notebook.url": 709,
      "▁democr": 710,
      "▁.xsl": 711,
      "▁nav": 712,
      "▁final": 713,
      "▁199": 714,
      "▁fall": 715,
      "▁negoti": 716,
      "▁trained": 717,
      "▁nwww": 718,
      "▁t": 719,
      "▁famil": 720,
      "▁family": 721,
      "▁religious": 722,
      "14": 723,
      "▁838": 724,
      "▁went": 725,
      "apers": 726,
      "an@t": 727,
      "ح": 728,
      "2": 729,
      "▁methods": 730,
      "”": 731,
      "▁program": 732,
      "▁although": 733,
      "mem": 734,
      "not": 735,
      "▁amendments": 736,
      "▁cer": 737,
      "▁281-435-0295": 738,
      "▁succeed": 739,
      "▁accommod": 740,
      "<----": 741,
      "▁lord": 742,
      "▁santorum": 743,
      "▁tickets": 744,
      "esome": 745,
      "ises": 746,
      "▁48": 747,
      "peare": 748,
      "▁itself": 749,
      "fi": 750,
      "▁coc": 751,
      "iri": 752,
      "▁major": 753,
      "sid": 754,
      "vo": 755,
      "▁slightly": 756,
      "▁civ": 757,
      "▁secret": 758,
      "▁newark": 759,
      "▁thirty-five": 760,
      "▁to": 761,
      "▁puts": 762,
      "▁weak": 763,
      "▁rib": 764,
      "8-7": 765,
      "▁real": 766,
      "▁gdp": 767,
      "illed": 768,
      "tegr": 769,
      "▁east": 770,
      ":02": 771,
      "1.": 772,
      "▁il": 773,
      "▁jelly": 774,
      "▁cheese": 775,
      "▁independence": 776,
      "▁blackline": 777,
      "▁exact": 778,
      "▁thy": 779,
      "▁tower": 780,
      "▁estimated": 781,
      "eed": 782,
      "奈": 783,
      "▁can": 784,
      "▁whereby": 785,
      "▁doing": 786,
      "enue": 787,
      "▁strain": 788,
      "▁neigh": 789,
      "erson": 790,
      "bre": 791,
      "83": 792,
      "▁recorder": 793,
      "▁pie": 794,
      "ild": 795,
      "▁treat": 796,
      "▁language": 797,
      "▁priv": 798,
      "▁despite": 799,
      "η": 800,
      "??": 801,
      "▁183": 802,
      "▁died": 803,
      "▁---": 804,
      "clus": 805,
      "▁oil": 806,
      "▁1892": 807,
      "++++++++": 808,
      "▁three": 809,
      "▁interconn": 810,
      "▁faces": 811,
      "▁poverty": 812,
      "▁islam": 813,
      "▁pray": 814,
      "[": 815,
      "▁ship": 816,
      "▁cabin": 817,
      "▁rights": 818,
      "▁wal": 819,
      "▁danger": 820,
      "▁suggests": 821,
      "▁sun": 822,
      "<": 823,
      "as": 824,
      "▁horn": 825,
      "ject": 826,
      "▁s’": 827,
      "-20": 828,
      "▁1/2": 829,
      "y@enron_development": 830,
      "▁fig": 831,
      "0s": 832,
      "▁mind": 833,
      "▁nutrition": 834,
      "▁6.00": 835,
      "▁yesterday": 836,
      "▁mr.": 837,
      "▁murder": 838,
      "by": 839,
      "ampa": 840,
      "ento": 841,
      "▁tex": 842,
      "▁uma": 843,
      "itting": 844,
      "▁oakland": 845,
      "▁people": 846,
      "▁cleaning": 847,
      "▁confir": 848,
      "▁nmem": 849,
      "▁perfectly": 850,
      "▁wether": 851,
      "▁cere": 852,
      "▁hospital": 853,
      "▁pat": 854,
      "▁patter": 855,
      "▁happened": 856,
      "▁series": 857,
      "▁remark": 858,
      "▁800-553-3119": 859,
      "▁tummy": 860,
      ".782": 861,
      "anim": 862,
      "▁deg": 863,
      "▁priority": 864,
      "▁blood": 865,
      "▁smoke": 866,
      "▁3.7": 867,
      "38": 868,
      "▁ourselves": 869,
      "▁cult": 870,
      "▁roman": 871,
      "▁fail": 872,
      "▁sophie": 873,
      "▁concer": 874,
      "▁thr": 875,
      "▁hard": 876,
      "▁thirty": 877,
      "▁near": 878,
      ":55": 879,
      "▁mr": 880,
      "▁ol": 881,
      "▁1918": 882,
      "ه": 883,
      "▁shopping": 884,
      "ano": 885,
      "▁forth": 886,
      "▁12:1": 887,
      "▁current": 888,
      "▁groups": 889,
      "▁categ": 890,
      "▁buildings": 891,
      "▁quinn": 892,
      ".m": 893,
      "\\": 894,
      "▁inv": 895,
      "-460-3": 896,
      "▁ask": 897,
      "▁mitchell": 898,
      "ork": 899,
      "▁dan": 900,
      "▁originally": 901,
      "▁delta": 902,
      "ot": 903,
      "▁aud": 904,
      "▁server": 905,
      "▁3724": 906,
      "ipping": 907,
      "▁sit": 908,
      "▁magazine": 909,
      "▁occur": 910,
      "-)": 911,
      "▁claims": 912,
      "▁cliff": 913,
      "▁1738": 914,
      "▁management": 915,
      ":0": 916,
      "▁at": 917,
      "▁identified": 918,
      "▁necessarily": 919,
      "▁signed": 920,
      "▁greet": 921,
      "琴": 922,
      "▁vietn": 923,
      "ther": 924,
      "izing": 925,
      "▁click": 926,
      "par": 927,
      "▁core": 928,
      "▁frequ": 929,
      "▁acts": 930,
      "▁goriot": 931,
      "7/99": 932,
      "▁equip": 933,
      "▁complic": 934,
      "▁prep": 935,
      ".g": 936,
      "asc": 937,
      "▁detroit": 938,
      "▁(": 939,
      "▁09/15/99": 940,
      "▁critical": 941,
      "▁half": 942,
      "▁89": 943,
      "▁database": 944,
      "▁few": 945,
      ":46": 946,
      "▁anybody": 947,
      "21": 948,
      "op": 949,
      "▁appoint": 950,
      "▁horse": 951,
      "▁presence": 952,
      "▁v": 953,
      "▁upside": 954,
      "????????????????": 955,
      "▁formed": 956,
      "▁solution": 957,
      "-415-": 958,
      "▁forms": 959,
      "▁fed": 960,
      "ale": 961,
      "iger": 962,
      "▁360": 963,
      "▁shower": 964,
      "▁grow": 965,
      "▁201": 966,
      "▁exce": 967,
      "▁dragon": 968,
      "fer": 969,
      "▁versus": 970,
      "estic": 971,
      ".718": 972,
      "▁ii": 973,
      "3c": 974,
      "▁cert": 975,
      "olution": 976,
      "004": 977,
      "▁==----": 978,
      "▁718-780": 979,
      "▁fac": 980,
      "▁disease": 981,
      "▁doggie": 982,
      ".3": 983,
      "▁suppose": 984,
      "▁==": 985,
      "▁encabalgamiento": 986,
      "▁cell": 987,
      "iqu": 988,
      "osite": 989,
      "▁nar": 990,
      "▁commit": 991,
      "▁03/21/2001": 992,
      "▁companies": 993,
      "▁experiment": 994,
      "▁explore": 995,
      "▁laura": 996,
      "oy": 997,
      "▁living": 998,
      "▁1580": 999,
      "▁shadow": 1000,
      "(": 1001,
      "▁łodzian": 1002,
      "▁pets": 1003,
      "▁ty": 1004,
      "ri": 1005,
      ",500": 1006,
      "eline": 1007,
      "▁party": 1008,
      "▁ingredients": 1009,
      "**********************************": 1010,
      "set": 1011,
      "96": 1012,
      "▁foundation": 1013,
      "▁held": 1014,
      "ific": 1015,
      "▁behin": 1016,
      "▁enj": 1017,
      "where": 1018,
      "uct": 1019,
      "▁suck": 1020,
      "_28": 1021,
      "▁shackleton@ect": 1022,
      "▁patient": 1023,
      "▁quality": 1024,
      "▁orders": 1025,
      "---------------": 1026,
      "2,000": 1027,
      "▁prompt": 1028,
      "▁evening": 1029,
      "elf": 1030,
      "▁record": 1031,
      "▁conscious": 1032,
      "pper": 1033,
      "!!!!": 1034,
      "▁97": 1035,
      "ashion": 1036,
      "▁feature": 1037,
      "▁univers": 1038,
      "800": 1039,
      "rial": 1040,
      "▁punch": 1041,
      "y@ect": 1042,
      "▁possibly": 1043,
      "▁limited": 1044,
      "ategy": 1045,
      "▁san": 1046,
      "▁fle": 1047,
      "/16/2001": 1048,
      "▁u": 1049,
      "▁call": 1050,
      "▁flu": 1051,
      "▁2002": 1052,
      "▁span": 1053,
      "ility": 1054,
      "▁hol": 1055,
      "▁describ": 1056,
      "iated": 1057,
      "gam": 1058,
      "ibility": 1059,
      "▁chinese": 1060,
      "▁832.676": 1061,
      "ded": 1062,
      "▁consum": 1063,
      "bers": 1064,
      "▁eb": 1065,
      "▁recon": 1066,
      "@": 1067,
      "▁peace": 1068,
      "77": 1069,
      "▁.?": 1070,
      "▁conduct": 1071,
      "03": 1072,
      "▁cooked": 1073,
      "▁nest": 1074,
      "▁sure": 1075,
      "▁cocktail": 1076,
      "▁future": 1077,
      "▁860": 1078,
      "tw": 1079,
      "▁favorite": 1080,
      "▁gon": 1081,
      "tch": 1082,
      "▁sixteen": 1083,
      "▁lift": 1084,
      "▁resp": 1085,
      "▁45": 1086,
      "ibilities": 1087,
      "▁40": 1088,
      "▁comple": 1089,
      "▁whilst": 1090,
      "verse": 1091,
      "ric": 1092,
      "▁flavor": 1093,
      "▁wait": 1094,
      "▁numer": 1095,
      "izes": 1096,
      "ɔ": 1097,
      "▁alone": 1098,
      "▁cincinnati": 1099,
      "▁basil": 1100,
      "▁underst": 1101,
      "ino": 1102,
      "▁324": 1103,
      "▁differ": 1104,
      "183": 1105,
      "▁technologies": 1106,
      "▁4_28_00.doc": 1107,
      "wich": 1108,
      "▁dudley": 1109,
      "▁madam": 1110,
      "anger": 1111,
      ".m.": 1112,
      "▁became": 1113,
      "▁1981": 1114,
      "ow": 1115,
      "▁follows": 1116,
      "aid": 1117,
      "▁listed": 1118,
      "▁whoo": 1119,
      "▁lest": 1120,
      "▁dry": 1121,
      "▁saw": 1122,
      "▁944": 1123,
      ",1": 1124,
      "▁defin": 1125,
      "▁mi": 1126,
      "▁mohamed": 1127,
      "▁transl": 1128,
      "▁flat": 1129,
      "▁instance": 1130,
      "▁decided": 1131,
      "▁please": 1132,
      "▁company": 1133,
      "▁years": 1134,
      "▁different": 1135,
      "▁11:3": 1136,
      "etime": 1137,
      "▁international": 1138,
      "8-3": 1139,
      "▁stra": 1140,
      "▁115": 1141,
      "▁be": 1142,
      "-23": 1143,
      "▁category": 1144,
      "▁bedroom": 1145,
      "▁important": 1146,
      "▁bye": 1147,
      "alf": 1148,
      "acter": 1149,
      "ake": 1150,
      "▁agree": 1151,
      "ky": 1152,
      "light": 1153,
      "▁terrible": 1154,
      "enc": 1155,
      "▁awoh": 1156,
      "▁looking": 1157,
      "ert": 1158,
      "▁ent": 1159,
      "▁sites": 1160,
      "▁pad": 1161,
      "act": 1162,
      "▁rece": 1163,
      "▁iod": 1164,
      "▁lawy": 1165,
      "pts": 1166,
      "▁indianapolis": 1167,
      "eda": 1168,
      "▁wednesday": 1169,
      "ension": 1170,
      "▁think": 1171,
      "▁cigarette": 1172,
      "ites": 1173,
      "▁prec": 1174,
      "ened": 1175,
      "▁hurry": 1176,
      "▁words": 1177,
      "▁theod": 1178,
      "▁debra": 1179,
      "resp": 1180,
      "▁outs": 1181,
      "▁guard": 1182,
      "▁drug": 1183,
      "▁correspond": 1184,
      "▁et": 1185,
      "▁hub": 1186,
      "▁good": 1187,
      "gle": 1188,
      "▁purple": 1189,
      "▁coord": 1190,
      "▁powerful": 1191,
      "▁nut": 1192,
      "况": 1193,
      "▁sir": 1194,
      "▁nashville": 1195,
      "▁purpose": 1196,
      "▁sent": 1197,
      "icles": 1198,
      "▁prepare": 1199,
      "▁lovely": 1200,
      "▁....................": 1201,
      "▁using": 1202,
      "▁industry": 1203,
      "▁administ": 1204,
      "▁laden": 1205,
      "▁poor": 1206,
      "▁large": 1207,
      "ughter": 1208,
      "▁scen": 1209,
      "▁muse": 1210,
      "▁implementation": 1211,
      "▁--": 1212,
      "▁wid": 1213,
      "▁plants": 1214,
      "her": 1215,
      "▁streets": 1216,
      "▁************************************************": 1217,
      "▁jih": 1218,
      "▁ext": 1219,
      "▁52": 1220,
      "▁tool": 1221,
      "▁amid": 1222,
      "med": 1223,
      "▁bun": 1224,
      "澹": 1225,
      "▁child": 1226,
      "▁kids": 1227,
      "▁citiz": 1228,
      "▁minute": 1229,
      "▁doubt": 1230,
      "▁give": 1231,
      "▁iranian": 1232,
      "▁os": 1233,
      "▁roll": 1234,
      "▁arrog": 1235,
      "880": 1236,
      "▁saying": 1237,
      "▁forgot": 1238,
      "▁evolutionary": 1239,
      "▁instruct": 1240,
      "▁mand": 1241,
      "▁6,000": 1242,
      "aking": 1243,
      "▁den": 1244,
      "▁rule": 1245,
      "▁nabe": 1246,
      "12": 1247,
      "▁knowing": 1248,
      "▁03:58": 1249,
      "▁opposite": 1250,
      "▁abb": 1251,
      "33": 1252,
      "▁account": 1253,
      "erous": 1254,
      "▁works": 1255,
      "ii": 1256,
      "▁ple": 1257,
      "▁sides": 1258,
      "▁tab": 1259,
      "▁”": 1260,
      "▁context": 1261,
      "ivity": 1262,
      "▁shakes": 1263,
      "oul": 1264,
      "▁known": 1265,
      "▁couch": 1266,
      "▁beach": 1267,
      "▁łod": 1268,
      "ese": 1269,
      "oons": 1270,
      "▁olivia": 1271,
      "▁adequ": 1272,
      "stip": 1273,
      ".45": 1274,
      "▁google": 1275,
      "▁changing": 1276,
      "sh": 1277,
      "▁jo": 1278,
      "oub": 1279,
      "▁fi": 1280,
      "▁jack": 1281,
      "▁agricult": 1282,
      "28": 1283,
      "▁finished": 1284,
      "▁dead": 1285,
      "▁receiving": 1286,
      "▁1821": 1287,
      "▁kevalam": 1288,
      "://": 1289,
      "▁com": 1290,
      "▁ye": 1291,
      "▁fred": 1292,
      "rench": 1293,
      "▁anal": 1294,
      "▁doctor": 1295,
      "▁montreal": 1296,
      "▁!!!": 1297,
      "uf": 1298,
      "ses": 1299,
      "▁latest": 1300,
      "▁8:30": 1301,
      "▁tr": 1302,
      "▁redlined": 1303,
      ".8": 1304,
      "el": 1305,
      "▁prevent": 1306,
      "utes": 1307,
      "▁continue": 1308,
      "▁datab": 1309,
      "▁paper": 1310,
      "ability": 1311,
      "c": 1312,
      "rict": 1313,
      "▁success": 1314,
      ".123": 1315,
      "}*{===<----": 1316,
      "▁·": 1317,
      "393": 1318,
      "▁expertise": 1319,
      "▁zawah": 1320,
      "▁11,000": 1321,
      "▁writ": 1322,
      "ona": 1323,
      "inct": 1324,
      "▁carefully": 1325,
      "▁elephant": 1326,
      "▁intern": 1327,
      "▁arrive": 1328,
      "com": 1329,
      "▁dro": 1330,
      "▁lay": 1331,
      "▁min": 1332,
      "▁subjects": 1333,
      "▁lik": 1334,
      "▁airports": 1335,
      "▁player": 1336,
      "▁returned": 1337,
      "ibly": 1338,
      "▁technology": 1339,
      "ij": 1340,
      "▁elsewhere": 1341,
      "▁forward": 1342,
      "▁runs": 1343,
      "▁anymore": 1344,
      "▁intelligence": 1345,
      "▁trip": 1346,
      "▁successfully": 1347,
      "bing": 1348,
      "▁batter": 1349,
      "▁padalecki": 1350,
      "oice": 1351,
      "akes": 1352,
      "▁deliver": 1353,
      "▁unless": 1354,
      "▁security": 1355,
      "ern": 1356,
      "▁28,000": 1357,
      "▁§": 1358,
      "5-02.doc": 1359,
      "iped": 1360,
      "▁xml": 1361,
      "▁529999": 1362,
      "ud": 1363,
      "▁bob": 1364,
      "▁713-6": 1365,
      "▁eleven": 1366,
      ",600": 1367,
      "4/2001": 1368,
      "bol": 1369,
      "/26/2001": 1370,
      "oss": 1371,
      "▁truth": 1372,
      "▁private": 1373,
      "▁05:37": 1374,
      "▁…": 1375,
      "gami": 1376,
      "▁conf": 1377,
      "▁highly": 1378,
      "oa": 1379,
      "agon": 1380,
      "ner": 1381,
      "▁2009": 1382,
      "▁ne": 1383,
      "▁taxi": 1384,
      "▁responsible": 1385,
      "▁cle": 1386,
      "▁mama": 1387,
      "ds": 1388,
      "▁clos": 1389,
      "▁measures": 1390,
      "▁:?": 1391,
      "▁um": 1392,
      "zai": 1393,
      "aining": 1394,
      "aiss": 1395,
      "▁austral": 1396,
      "pl": 1397,
      "!?": 1398,
      "ann": 1399,
      "arent": 1400,
      "▁>----------------------------------------------------------------------------|": 1401,
      "▁om": 1402,
      "▁penal": 1403,
      "▁cam": 1404,
      "▁clothes": 1405,
      "▁dey": 1406,
      "uction": 1407,
      "essee": 1408,
      "▁neu": 1409,
      "▁set": 1410,
      "▁reason": 1411,
      "▁directive": 1412,
      "▁remain": 1413,
      "▁800.713.8600": 1414,
      "▁course": 1415,
      "▁lar": 1416,
      "▁name": 1417,
      "is": 1418,
      "/13": 1419,
      "6": 1420,
      "▁jew": 1421,
      "▁un": 1422,
      "▁...": 1423,
      "▁killed": 1424,
      "~*~*~*~*": 1425,
      "icip": 1426,
      "▁ninety": 1427,
      "athy": 1428,
      "▁fixed": 1429,
      "viatio": 1430,
      "etch": 1431,
      "▁quino": 1432,
      "▁’re": 1433,
      "▁purch": 1434,
      "▁hus": 1435,
      "▁putting": 1436,
      "▁come": 1437,
      "▁beau": 1438,
      "otte": 1439,
      "▁press": 1440,
      "▁fold": 1441,
      "▁banks": 1442,
      "oll": 1443,
      "▁have": 1444,
      "▁enemy": 1445,
      "▁pir": 1446,
      "pri": 1447,
      "▁perf": 1448,
      "▁.x": 1449,
      "ogn": 1450,
      "▁readers": 1451,
      "▁receive": 1452,
      ":15": 1453,
      "▁rice": 1454,
      "rees": 1455,
      "▁how": 1456,
      "▁o'": 1457,
      "▁bel": 1458,
      "▁furniture": 1459,
      "▁abo": 1460,
      "▁network": 1461,
      "▁wife": 1462,
      "▁contain": 1463,
      "‘": 1464,
      "▁multiple": 1465,
      "▁quiet": 1466,
      "eter": 1467,
      "▁pull": 1468,
      "▁twentieth": 1469,
      "mos": 1470,
      "▁santa": 1471,
      "▁i.e.": 1472,
      "▁perdues": 1473,
      "▁cock": 1474,
      "▁playing": 1475,
      "▁indian": 1476,
      "old": 1477,
      "▁11/7": 1478,
      "▁800": 1479,
      "▁moment": 1480,
      "▁res": 1481,
      "ains": 1482,
      "▁poll": 1483,
      "▁filter": 1484,
      "▁jump": 1485,
      "▁`": 1486,
      "▁fans": 1487,
      "▁cre": 1488,
      "▁consist": 1489,
      "▁inn": 1490,
      "▁1754": 1491,
      "ur": 1492,
      "▁institutions": 1493,
      "▁ears": 1494,
      "▁5:30": 1495,
      "▁1635": 1496,
      "▁dress": 1497,
      "▁!!!!!!!!!!!!!!!": 1498,
      "inter": 1499,
      "▁94": 1500,
      "clock": 1501,
      "▁ignor": 1502,
      "▁dim": 1503,
      "▁replaced": 1504,
      "½": 1505,
      "▁often": 1506,
      "▁42": 1507,
      "▁dism": 1508,
      "▁greatest": 1509,
      "▁mel": 1510,
      "iest": 1511,
      "▁proper": 1512,
      "▁settlement": 1513,
      "▁ontario": 1514,
      "▁shoulder": 1515,
      "ize": 1516,
      "▁mode": 1517,
      "▁quart": 1518,
      "/200": 1519,
      "▁occ": 1520,
      "▁cats": 1521,
      "▁statement": 1522,
      "▁laur": 1523,
      "▁loves": 1524,
      "▁affect": 1525,
      "▁attack": 1526,
      "▁contents": 1527,
      "iff": 1528,
      "▁ou": 1529,
      "▁historical": 1530,
      "cles": 1531,
      "▁relevant": 1532,
      "urch": 1533,
      "▁claim": 1534,
      "▁----": 1535,
      "▁1590": 1536,
      "rod": 1537,
      "ß": 1538,
      "--------": 1539,
      "▁ran": 1540,
      "`s": 1541,
      ":44": 1542,
      "▁informacion": 1543,
      "-0295": 1544,
      "▁tur": 1545,
      "▁his": 1546,
      "▁dg": 1547,
      "▁scene": 1548,
      "off": 1549,
      "▁crying": 1550,
      "gl": 1551,
      "▁pop": 1552,
      "ories": 1553,
      "▁bos": 1554,
      "▁hat": 1555,
      "▁1783": 1556,
      "▁separate": 1557,
      "53": 1558,
      "▁tenth": 1559,
      "▁mummy": 1560,
      "▁bones": 1561,
      "▁650": 1562,
      "▁sunn": 1563,
      "▁1709": 1564,
      "▁0590": 1565,
      "▁09:01": 1566,
      "ients": 1567,
      "▁tou": 1568,
      "ations": 1569,
      "ste": 1570,
      "▁505-625-8031": 1571,
      "▁gre": 1572,
      "▁suprem": 1573,
      "▁ad": 1574,
      "▁neighbour": 1575,
      "ə": 1576,
      "▁door": 1577,
      "unch": 1578,
      "arian": 1579,
      "ottable": 1580,
      "▁mum": 1581,
      "▁ended": 1582,
      "▁july": 1583,
      "****************": 1584,
      "▁applic": 1585,
      "▁entered": 1586,
      "ically": 1587,
      "▁various": 1588,
      "▁acqu": 1589,
      "▁466": 1590,
      "usions": 1591,
      "ecess": 1592,
      "▁nt": 1593,
      "▁cogn": 1594,
      "▁proced": 1595,
      "ol": 1596,
      "ula": 1597,
      "▁planet": 1598,
      "▁mir": 1599,
      ",00": 1600,
      "▁bodies": 1601,
      "▁pac": 1602,
      "▁swed": 1603,
      "▁accompl": 1604,
      "▁hist": 1605,
      "▁156": 1606,
      "▁supplies": 1607,
      "▁seconds": 1608,
      "▁plenty": 1609,
      "▁personally": 1610,
      "▁understanding": 1611,
      "▁ai": 1612,
      "-8031": 1613,
      "▁nap": 1614,
      "emy": 1615,
      "▁tal": 1616,
      "▁publicly": 1617,
      "eap": 1618,
      "▁candid": 1619,
      "ements": 1620,
      "▁becuse": 1621,
      "▁surface": 1622,
      "▁grad": 1623,
      "▁jewish": 1624,
      "▁florida": 1625,
      "▁fill": 1626,
      "b)": 1627,
      "▁jose": 1628,
      "av": 1629,
      "ad": 1630,
      "▁alloc": 1631,
      "▁1584": 1632,
      "/15/2001": 1633,
      "▁weapons": 1634,
      "▁ninth": 1635,
      "▁forest": 1636,
      "vil": 1637,
      "▁busy": 1638,
      "ero": 1639,
      "inking": 1640,
      "▁added": 1641,
      "▁1.": 1642,
      "▁25": 1643,
      "▁tonight": 1644,
      "vert": 1645,
      "how": 1646,
      "ati": 1647,
      "▁milwau": 1648,
      "▁require": 1649,
      "▁.2": 1650,
      "▁belly": 1651,
      "more": 1652,
      "▁inch": 1653,
      "▁oak": 1654,
      "▁based": 1655,
      "0072": 1656,
      "▁alcalde": 1657,
      "▁hand": 1658,
      "▁bub": 1659,
      "▁mentioned": 1660,
      "▁grammar": 1661,
      "▁cow": 1662,
      "▁11608": 1663,
      "▁6400": 1664,
      "▁everywhere": 1665,
      "ota": 1666,
      "▁1973": 1667,
      "▁kim": 1668,
      "▁unles": 1669,
      "town": 1670,
      "▁himself": 1671,
      "▁sen": 1672,
      "▁conflict": 1673,
      "▁sometimes": 1674,
      "▁vict": 1675,
      "▁breast": 1676,
      "▁romantic": 1677,
      "▁sudden": 1678,
      "▁treatment": 1679,
      "▁11/27/2000": 1680,
      "▁philadelphia": 1681,
      "▁69": 1682,
      "▁cover": 1683,
      ":19": 1684,
      "ushing": 1685,
      "-50": 1686,
      "▁ansi-": 1687,
      "it": 1688,
      "▁arm": 1689,
      "▁281": 1690,
      "▁toys": 1691,
      "ml": 1692,
      "▁conn": 1693,
      "▁scientific": 1694,
      "▁johnson": 1695,
      "on": 1696,
      "▁1900": 1697,
      "▁body": 1698,
      "▁less": 1699,
      "▁basic": 1700,
      "▁everyone": 1701,
      "▁represent": 1702,
      "▁baking": 1703,
      "▁copy": 1704,
      "▁observed": 1705,
      "▁nurs": 1706,
      "▁squir": 1707,
      "▁cooking": 1708,
      "19": 1709,
      "imum": 1710,
      "▁medic": 1711,
      "▁saddam": 1712,
      "ily": 1713,
      "rect": 1714,
      "▁obt": 1715,
      "ict": 1716,
      "irts": 1717,
      "▁>>": 1718,
      "▁fil": 1719,
      "▁husband": 1720,
      "▁mater": 1721,
      "aming": 1722,
      "▁pages": 1723,
      "▁825": 1724,
      "▁fighting": 1725,
      "▁vogelaviatio": 1726,
      "iring": 1727,
      "▁1989": 1728,
      "▁langu": 1729,
      "远": 1730,
      "clusion": 1731,
      "▁1613": 1732,
      "▁products": 1733,
      "▁1801": 1734,
      "▁nervous": 1735,
      "▁russian": 1736,
      "▁+++++": 1737,
      "▁100": 1738,
      "ologies": 1739,
      "▁colour": 1740,
      "inn": 1741,
      "▁jord": 1742,
      "ruct": 1743,
      "uation": 1744,
      "▁2015": 1745,
      "▁grown": 1746,
      "▁becom": 1747,
      "▁202.7": 1748,
      "▁852": 1749,
      "▁make": 1750,
      "▁35": 1751,
      "▁1": 1752,
      "▁catch": 1753,
      "▁deep": 1754,
      "▁equal": 1755,
      "▁hu": 1756,
      "▁department": 1757,
      "▁advice": 1758,
      "▁stom": 1759,
      "▁vill": 1760,
      "rel": 1761,
      "20-": 1762,
      "iner": 1763,
      "▁teachers": 1764,
      "h": 1765,
      "▁offers": 1766,
      "▁killing": 1767,
      "▁charge": 1768,
      "▁awful": 1769,
      "ber": 1770,
      "▁lose": 1771,
      "stick": 1772,
      "5": 1773,
      "84": 1774,
      "▁888.916.7184": 1775,
      "▁policy": 1776,
      "▁pl": 1777,
      "▁id": 1778,
      "▁620-294-": 1779,
      "▁1833": 1780,
      "▁disney": 1781,
      "▁accomm": 1782,
      "ine": 1783,
      "▁1871": 1784,
      "________": 1785,
      "▁him": 1786,
      "▁ap": 1787,
      "▁stoy": 1788,
      "▁send": 1789,
      "back": 1790,
      "▁stat": 1791,
      "aced": 1792,
      "led": 1793,
      "▁change": 1794,
      "-98": 1795,
      "▁turns": 1796,
      "for": 1797,
      "▁wild": 1798,
      "▁keep": 1799,
      "▁afternoon": 1800,
      "▁necess": 1801,
      "▁sleeping": 1802,
      "▁cand": 1803,
      "king": 1804,
      "▁tokyo": 1805,
      "▁3,": 1806,
      "▁n't": 1807,
      "▁religion": 1808,
      "▁members": 1809,
      "▁warm": 1810,
      "aint": 1811,
      "gu": 1812,
      "/10/2004": 1813,
      "inny": 1814,
      "iting": 1815,
      "▁business": 1816,
      "▁sri": 1817,
      "▁desire": 1818,
      "ride": 1819,
      "6021": 1820,
      "▁vs": 1821,
      "▁yourselves": 1822,
      "-642": 1823,
      "▁nand": 1824,
      "or": 1825,
      "▁closer": 1826,
      "▁exam": 1827,
      "ting": 1828,
      "▁10": 1829,
      "▁seem": 1830,
      "oin": 1831,
      "ta": 1832,
      "▁albe": 1833,
      "/01": 1834,
      "▁1610": 1835,
      "▁xiii": 1836,
      "▁boo": 1837,
      "ian": 1838,
      "▁bi": 1839,
      "▁western": 1840,
      "▁war": 1841,
      "▁sel": 1842,
      "ed": 1843,
      "val": 1844,
      "▁hund": 1845,
      "▁beginning": 1846,
      "orton": 1847,
      "road": 1848,
      "▁’s": 1849,
      "▁3,202": 1850,
      "▁shad": 1851,
      "▁renew": 1852,
      "▁hav": 1853,
      "▁cooper": 1854,
      "▁1925": 1855,
      "▁flowers": 1856,
      "▁mhm": 1857,
      "▁northern": 1858,
      "▁sant": 1859,
      "▁grandmother": 1860,
      "▁ve": 1861,
      "▁because": 1862,
      "▁trading": 1863,
      "...@": 1864,
      "▁fourth": 1865,
      "▁hey": 1866,
      "▁1.1": 1867,
      "▁sal": 1868,
      "_00.doc": 1869,
      "▁ver": 1870,
      "▁transform": 1871,
      "▁temperature": 1872,
      "▁enjoy": 1873,
      "nic": 1874,
      "▁took": 1875,
      "/30": 1876,
      "f.doc": 1877,
      "▁chagrin": 1878,
      "▁cross": 1879,
      "▁101": 1880,
      "▁david": 1881,
      "eis": 1882,
      "▁co": 1883,
      "▁08/16/2000": 1884,
      "▁diff": 1885,
      "▁08:50": 1886,
      "▁dolph": 1887,
      "▁during": 1888,
      "▁northwest": 1889,
      "ling": 1890,
      "▁dest": 1891,
      "▁hum": 1892,
      "▁particip": 1893,
      "▁ch": 1894,
      "▁gives": 1895,
      "▁threw": 1896,
      "ograph": 1897,
      "aman": 1898,
      "294-": 1899,
      "▁sp": 1900,
      "▁directly": 1901,
      "▁fan": 1902,
      "▁however": 1903,
      "ission": 1904,
      "employ": 1905,
      "▁components": 1906,
      "os": 1907,
      "▁chap": 1908,
      "▁legos": 1909,
      "ʃ": 1910,
      "▁encour": 1911,
      "▁edu": 1912,
      "▁depend": 1913,
      "▁fam": 1914,
      "▁compar": 1915,
      "-h": 1916,
      "▁gorio": 1917,
      "▁eas": 1918,
      "▁1560": 1919,
      "▁6.8": 1920,
      "▁ju": 1921,
      "▁fab": 1922,
      "▁average": 1923,
      "▁qu": 1924,
      "-27": 1925,
      "▁specific": 1926,
      "▁lights": 1927,
      "inting": 1928,
      "▁sue": 1929,
      "ummy": 1930,
      "▁right": 1931,
      "ce": 1932,
      "eness": 1933,
      "my": 1934,
      "▁1996": 1935,
      "▁machine": 1936,
      "head": 1937,
      "▁cigare": 1938,
      "▁1977": 1939,
      "▁on": 1940,
      "▁glor": 1941,
      "use": 1942,
      "rier": 1943,
      "ice": 1944,
      "▁calif": 1945,
      "hib": 1946,
      "▁japanese": 1947,
      ":30": 1948,
      "▁administr": 1949,
      "▁legislation": 1950,
      "▁814": 1951,
      "▁belief": 1952,
      "ften": 1953,
      "▁notice": 1954,
      "▁iron": 1955,
      "▁04:37": 1956,
      "phis": 1957,
      "▁canad": 1958,
      "▁.....": 1959,
      "▁careful": 1960,
      "▁gulf": 1961,
      "▁spect": 1962,
      "▁route": 1963,
      "▁mob": 1964,
      "128": 1965,
      "▁stella": 1966,
      "amental": 1967,
      "▁coup": 1968,
      "▁inspired": 1969,
      "▁said": 1970,
      "▁employment": 1971,
      "▁ang": 1972,
      "▁arrang": 1973,
      "bruary": 1974,
      "3098": 1975,
      "▁neg": 1976,
      "▁54": 1977,
      "▁experience": 1978,
      "▁cutting": 1979,
      "▁immediate": 1980,
      "▁domain": 1981,
      "▁2.00": 1982,
      "▁friendly": 1983,
      "ff": 1984,
      "▁ab": 1985,
      "▁teacher": 1986,
      "▁fift": 1987,
      "ounced": 1988,
      "▁smok": 1989,
      "▁713-793-": 1990,
      "▁in": 1991,
      "▁pleased": 1992,
      "ums": 1993,
      "▁away": 1994,
      "▁i.": 1995,
      "▁sli": 1996,
      "μ": 1997,
      "▁vote": 1998,
      "490": 1999,
      "▁code": 2000,
      "ows": 2001,
      "▁refused": 2002,
      "nesday": 2003,
      "ette": 2004,
      "▁princip": 2005,
      "arraf": 2006,
      "ft": 2007,
      "▁345-99": 2008,
      "▁quite": 2009,
      "▁establish": 2010,
      "▁fare": 2011,
      "lackl": 2012,
      "▁dut": 2013,
      "▁!!!!": 2014,
      "43": 2015,
      "▁flor": 2016,
      "▁lys": 2017,
      "▁image": 2018,
      "aging": 2019,
      "▁cooperation": 2020,
      "▁pe": 2021,
      "▁econom": 2022,
      "▁spoken": 2023,
      "▁relations": 2024,
      "▁applications": 2025,
      "ented": 2026,
      "ile": 2027,
      "▁slide": 2028,
      "▁points": 2029,
      "▁'ve": 2030,
      "▁web": 2031,
      "01": 2032,
      "▁meeting": 2033,
      "▁phr": 2034,
      "pite": 2035,
      "▁34": 2036,
      "▁bec": 2037,
      "cc": 2038,
      "▁values": 2039,
      "nondelibreat": 2040,
      "▁1602": 2041,
      "▁er": 2042,
      "▁environment": 2043,
      "▁chapter": 2044,
      "▁imp": 2045,
      "▁imposs": 2046,
      "▁br": 2047,
      "▁10:34": 2048,
      "-435": 2049,
      "▁03": 2050,
      "▁iu": 2051,
      "▁dent": 2052,
      "▁3.2": 2053,
      "h-r": 2054,
      "▁26": 2055,
      "/7": 2056,
      "▁warming": 2057,
      "een": 2058,
      "utely": 2059,
      "▁located": 2060,
      "▁mweta": 2061,
      "▁rescue": 2062,
      "▁example": 2063,
      "▁16.379": 2064,
      ".831": 2065,
      "▁nose": 2066,
      "▁sing": 2067,
      "▁fro": 2068,
      "▁rack": 2069,
      "y": 2070,
      "ots": 2071,
      "▁temper": 2072,
      "▁let": 2073,
      "867": 2074,
      "▁massive": 2075,
      "uge": 2076,
      "▁177": 2077,
      "ear": 2078,
      "▁exist": 2079,
      "▁occasion": 2080,
      "rax": 2081,
      "ers": 2082,
      "icycle": 2083,
      "les": 2084,
      "aine": 2085,
      "dies": 2086,
      "▁environ": 2087,
      "▁women": 2088,
      "-518": 2089,
      "▁13011": 2090,
      "▁600": 2091,
      "▁perdu": 2092,
      "▁opportunity": 2093,
      "▁anim": 2094,
      "▁act": 2095,
      "▁concerning": 2096,
      "▁pret": 2097,
      "▁[": 2098,
      "▁song": 2099,
      "▁willing": 2100,
      "▁xslt": 2101,
      "▁iso": 2102,
      "▁diego": 2103,
      "▁fuck": 2104,
      "non": 2105,
      "▁height": 2106,
      "▁dri": 2107,
      "fort": 2108,
      "▁713-654-1281": 2109,
      "/0": 2110,
      "▁de": 2111,
      "▁listen": 2112,
      "-8": 2113,
      "oot": 2114,
      "▁rul": 2115,
      "▁human": 2116,
      "▁screen": 2117,
      "ʒ": 2118,
      "▁times": 2119,
      "orders": 2120,
      "▁212": 2121,
      "▁fut": 2122,
      "▁5/18": 2123,
      "'s": 2124,
      "▁actually": 2125,
      "▁1974": 2126,
      "▁800.713.86": 2127,
      "▁mart": 2128,
      "▁built": 2129,
      "▁olymp": 2130,
      "iron": 2131,
      "▁j": 2132,
      "ause": 2133,
      "▁offered": 2134,
      "▁surprise": 2135,
      "▁drinks": 2136,
      "▁webs": 2137,
      "erc": 2138,
      "▁oz": 2139,
      "▁argent": 2140,
      "x": 2141,
      "▁spl": 2142,
      "▁;)": 2143,
      "▁helpful": 2144,
      "c)": 2145,
      "▁inside": 2146,
      "▁3889": 2147,
      "▁2.2": 2148,
      "▁87": 2149,
      "▁raised": 2150,
      "▁01:0": 2151,
      "▁consequences": 2152,
      "▁tele": 2153,
      "=": 2154,
      "ants": 2155,
      "i-": 2156,
      "▁mitch": 2157,
      "▁testing": 2158,
      "▁stone": 2159,
      "▁communications": 2160,
      "▁don": 2161,
      "▁03/02/2001": 2162,
      "rep": 2163,
      "▁father": 2164,
      "▁trale": 2165,
      "▁mic": 2166,
      "▁mos": 2167,
      "▁cuz": 2168,
      "▁max": 2169,
      "4": 2170,
      "▁whatever": 2171,
      "▁particularly": 2172,
      "iced": 2173,
      "▁commission": 2174,
      "▁audience": 2175,
      "▁ret": 2176,
      "▁al.": 2177,
      "ential": 2178,
      "46-3393": 2179,
      "▁fifty": 2180,
      "▁anyone": 2181,
      "▁boot": 2182,
      "▁wolf": 2183,
      "▁rules": 2184,
      "▁direct": 2185,
      "▁pi": 2186,
      "▁facebook": 2187,
      "46": 2188,
      "▁if": 2189,
      "▁interesting": 2190,
      "▁e": 2191,
      "iet": 2192,
      "▁assoc": 2193,
      "time": 2194,
      "▁greater": 2195,
      "▁bn": 2196,
      "land": 2197,
      "▁extrem": 2198,
      "verage": 2199,
      "▁television": 2200,
      "▁bond": 2201,
      "▁noon": 2202,
      "▁youtube": 2203,
      "▁mountain": 2204,
      "▁luck": 2205,
      "▁use": 2206,
      "▁1504": 2207,
      "wide": 2208,
      "▁9": 2209,
      "▁pur": 2210,
      "▁shoe": 2211,
      "▁whenever": 2212,
      "/13/2001": 2213,
      "▁wig": 2214,
      "▁111": 2215,
      "k.url": 2216,
      "enda": 2217,
      "▁!!!?": 2218,
      "oint": 2219,
      "▁african": 2220,
      "▁lat": 2221,
      ".00": 2222,
      "▁happen": 2223,
      "▁|--------+----------------------->": 2224,
      "▁prefer": 2225,
      "ished": 2226,
      "▁ld2d-#693": 2227,
      "031": 2228,
      "▁fair": 2229,
      "▁twenty-": 2230,
      "▁pean": 2231,
      "▁turistica": 2232,
      "▁possess": 2233,
      "▁elev": 2234,
      "outh": 2235,
      "▁ho": 2236,
      "▁straight": 2237,
      "▁bulb": 2238,
      "▁method": 2239,
      "g": 2240,
      "--------+----------------": 2241,
      "▁polit": 2242,
      "▁very": 2243,
      "▁far": 2244,
      "▁,": 2245,
      "▁508": 2246,
      ".85": 2247,
      "▁level": 2248,
      "▁ninety-n": 2249,
      "▁board": 2250,
      "▁pencil": 2251,
      "here": 2252,
      "rit": 2253,
      "▁age": 2254,
      "▁zer": 2255,
      "▁introd": 2256,
      "▁like": 2257,
      "23": 2258,
      "▁than": 2259,
      "202": 2260,
      "▁sufficient": 2261,
      "▁tractor": 2262,
      "▁email": 2263,
      "▁judg": 2264,
      "▁none": 2265,
      "▁1965": 2266,
      "eal": 2267,
      "-468-3": 2268,
      "▁knew": 2269,
      "▁seats": 2270,
      "▁imper": 2271,
      "▁311": 2272,
      "▁[...": 2273,
      "2-0": 2274,
      "▁promise": 2275,
      "▁concent": 2276,
      "▁salt": 2277,
      "▁trying": 2278,
      "▁300": 2279,
      "art": 2280,
      "▁w": 2281,
      "▁wind": 2282,
      "▁ursula": 2283,
      "nel": 2284,
      "wau": 2285,
      "▁discovered": 2286,
      "▁recip": 2287,
      "▁arrives": 2288,
      "▁professional": 2289,
      "▁philosoph": 2290,
      "▁net": 2291,
      "▁mwet": 2292,
      "eding": 2293,
      "▁loo": 2294,
      "-m": 2295,
      "▁bee": 2296,
      "▁1596": 2297,
      "▁lot": 2298,
      "▁stupid": 2299,
      "▁pass": 2300,
      "ively": 2301,
      "arily": 2302,
      "/00": 2303,
      "▁experimental": 2304,
      "▁-final.doc": 2305,
      "hing": 2306,
      "▁efficiency": 2307,
      "▁tennis": 2308,
      "▁qual": 2309,
      "ral": 2310,
      "▁83": 2311,
      "▁smith": 2312,
      "▁stayed": 2313,
      "ables": 2314,
      "▁dogg": 2315,
      "▁alber": 2316,
      "▁ensure": 2317,
      "▁silence": 2318,
      "98": 2319,
      "▁1.25": 2320,
      "▁through": 2321,
      "1-9": 2322,
      "▁birthday": 2323,
      "20": 2324,
      "▁spear": 2325,
      "▁bare": 2326,
      "ust": 2327,
      "▁1940": 2328,
      "▁repl": 2329,
      "▁includ": 2330,
      ":40": 2331,
      "▁hotels": 2332,
      "▁hamas": 2333,
      "▁engine": 2334,
      "5,000": 2335,
      "▁!!!!!!!!!!": 2336,
      "▁vodka": 2337,
      "▁899": 2338,
      "etary": 2339,
      "▁hy": 2340,
      "▁carry": 2341,
      "▁huit": 2342,
      "▁sixty": 2343,
      "raft": 2344,
      "▁produc": 2345,
      "▁08/03": 2346,
      "▁feel": 2347,
      "▁mor": 2348,
      "▁3/8/00": 2349,
      "cing": 2350,
      "ored": 2351,
      "▁jen": 2352,
      "▁techn": 2353,
      "▁building": 2354,
      "▁6:00": 2355,
      "pe": 2356,
      "case": 2357,
      "▁skills": 2358,
      "▁drinking": 2359,
      "▁background": 2360,
      "bby": 2361,
      "▁army": 2362,
      "▁202.456.2461": 2363,
      "▁digital": 2364,
      "asp": 2365,
      "▁diss": 2366,
      "ti": 2367,
      "orm": 2368,
      "rem": 2369,
      "▁taste": 2370,
      "▁period": 2371,
      "▁rise": 2372,
      "▁up": 2373,
      "ably": 2374,
      "elds": 2375,
      "▁he": 2376,
      "▁autom": 2377,
      "▁local": 2378,
      "umn": 2379,
      "ley": 2380,
      "oug": 2381,
      "▁w.": 2382,
      "▁seattle": 2383,
      ".77": 2384,
      "acters": 2385,
      "itted": 2386,
      "velopment": 2387,
      "we": 2388,
      "idence": 2389,
      "▁karen": 2390,
      "▁senate": 2391,
      "▁details": 2392,
      "▁2003": 2393,
      "aph": 2394,
      "▁28": 2395,
      "▁boys": 2396,
      "ents": 2397,
      "thers": 2398,
      "▁coffee": 2399,
      "uing": 2400,
      "▁zawahiri": 2401,
      "9/2000": 2402,
      "▁publish": 2403,
      "▁2017": 2404,
      "ec": 2405,
      "ص": 2406,
      "▁heart": 2407,
      "▁minor": 2408,
      "▁04/2": 2409,
      "▁09/16/99": 2410,
      "▁puzz": 2411,
      "-#6": 2412,
      "▁191": 2413,
      "▁bom": 2414,
      "▁other": 2415,
      "▁pick": 2416,
      "▁tenn": 2417,
      "out": 2418,
      "▁1997": 2419,
      "▁depart": 2420,
      "ont": 2421,
      "▁error": 2422,
      "▁horrible": 2423,
      "▁lingu": 2424,
      "'re": 2425,
      "___________": 2426,
      "rael": 2427,
      "▁track": 2428,
      "▁1960": 2429,
      "▁difference": 2430,
      "????": 2431,
      "谿": 2432,
      "▁accept": 2433,
      "▁seis": 2434,
      "▁rare": 2435,
      "▁marbles": 2436,
      "wor": 2437,
      "▁factor": 2438,
      "ls": 2439,
      "eare": 2440,
      "ma": 2441,
      "▁dropped": 2442,
      "▁read": 2443,
      "ube": 2444,
      "☎": 2445,
      "aren": 2446,
      "▁cit": 2447,
      "▁william": 2448,
      "▁te": 2449,
      "▁713-853-": 2450,
      "▁resident": 2451,
      "▁gave": 2452,
      "435": 2453,
      "▁india": 2454,
      "-00": 2455,
      "▁contact": 2456,
      "▁---------------------------------": 2457,
      "al.doc": 2458,
      ".0": 2459,
      "▁saud": 2460,
      "ible": 2461,
      "▁catholic": 2462,
      "▁1-800": 2463,
      "▁office": 2464,
      ";": 2465,
      "ton": 2466,
      "craft": 2467,
      "▁yog": 2468,
      "ume": 2469,
      "▁bug": 2470,
      "cept": 2471,
      "▁27": 2472,
      "▁pay": 2473,
      "▁product": 2474,
      "▁cra": 2475,
      "▁483": 2476,
      "葉": 2477,
      "▁ukraine": 2478,
      "cuz": 2479,
      "▁100,000": 2480,
      "@enron_development": 2481,
      "▁performance": 2482,
      "itude": 2483,
      "▁instit": 2484,
      "oth": 2485,
      "▁29": 2486,
      "▁53": 2487,
      "▁dallas": 2488,
      ",8": 2489,
      "2-6": 2490,
      "▁rub": 2491,
      ".8317": 2492,
      "gan": 2493,
      "▁ast": 2494,
      "▁considerable": 2495,
      "▁incorpor": 2496,
      "▁1954": 2497,
      "▁leave": 2498,
      "ments": 2499,
      "oices": 2500,
      "ordon": 2501,
      "▁polic": 2502,
      "▁archit": 2503,
      "esday": 2504,
      "▁dr": 2505,
      "drft8-7": 2506,
      "▁01/26/2001": 2507,
      "▁april": 2508,
      "▁uhh": 2509,
      "▁couple": 2510,
      "▁×": 2511,
      "ribe": 2512,
      "nov": 2513,
      "▁(:": 2514,
      "▁smart": 2515,
      "▁wants": 2516,
      "▁happ": 2517,
      "ondon": 2518,
      "▁laws": 2519,
      "▁old": 2520,
      "▁steve": 2521,
      "▁ground": 2522,
      "icide": 2523,
      "▁med": 2524,
      "are": 2525,
      "▁-----------------------------------------------------------------------": 2526,
      "▁space": 2527,
      "•": 2528,
      "▁_____": 2529,
      "▁secure": 2530,
      "▁[...]": 2531,
      "▁profess": 2532,
      "▁merely": 2533,
      "▁expl": 2534,
      "asa": 2535,
      "▁04:28": 2536,
      "iful": 2537,
      "iss": 2538,
      "▁histor": 2539,
      "tsbur": 2540,
      "ences": 2541,
      "▁2.0": 2542,
      "▁env": 2543,
      "▁3": 2544,
      ",000,000,000": 2545,
      "▁employees": 2546,
      "▁airplane": 2547,
      "sters": 2548,
      "▁exper": 2549,
      "▁cut": 2550,
      "▁global": 2551,
      "▁shr": 2552,
      "▁spac": 2553,
      "▁sched": 2554,
      "▁transp": 2555,
      "thing": 2556,
      "stein": 2557,
      "▁lu": 2558,
      "▁av": 2559,
      "-ked": 2560,
      "==": 2561,
      "▁ackn": 2562,
      "▁altern": 2563,
      "7": 2564,
      "▁love": 2565,
      "ok": 2566,
      "▁justice": 2567,
      "▁bro": 2568,
      "▁passion": 2569,
      "▁202.45": 2570,
      "icing": 2571,
      "▁pho": 2572,
      "se": 2573,
      "▁should": 2574,
      "▁03/2": 2575,
      "lebr": 2576,
      "▁38": 2577,
      "▁agre": 2578,
      "▁sorry": 2579,
      "▁107": 2580,
      "▁oblig": 2581,
      "lin": 2582,
      "▁01:14": 2583,
      "▁appeared": 2584,
      "36": 2585,
      "ding": 2586,
      "▁tip": 2587,
      "▁charles": 2588,
      "▁circumstances": 2589,
      "▁bother": 2590,
      "arts": 2591,
      "▁hurts": 2592,
      "’t": 2593,
      "▁ele": 2594,
      "irs": 2595,
      "▁rain": 2596,
      "▁3:00": 2597,
      "▁recommended": 2598,
      "▁under": 2599,
      "▁24": 2600,
      "▁02/27/2001": 2601,
      "▁plate": 2602,
      "uate": 2603,
      "▁kat": 2604,
      "▁adults": 2605,
      "▁fing": 2606,
      "▁does": 2607,
      "▁21,000": 2608,
      "n": 2609,
      "▁injury": 2610,
      "▁dav": 2611,
      "ples": 2612,
      "imp": 2613,
      "▁will": 2614,
      "▁{": 2615,
      "▁1986": 2616,
      "▁stress": 2617,
      "▁syri": 2618,
      "819602175": 2619,
      "phone": 2620,
      "▁expect": 2621,
      "▁fell": 2622,
      "▁initial": 2623,
      "▁remember": 2624,
      "fin": 2625,
      "▁protected": 2626,
      "▁hur": 2627,
      "uj": 2628,
      "▁eval": 2629,
      "▁left": 2630,
      "▁ac": 2631,
      "▁ste": 2632,
      "▁area": 2633,
      "▁vent": 2634,
      "▁everyday": 2635,
      "ou": 2636,
      "▁morning": 2637,
      "wise": 2638,
      "oon": 2639,
      "atures": 2640,
      "▁following": 2641,
      "▁eastern": 2642,
      "▁delhi": 2643,
      "▁watch": 2644,
      "ins": 2645,
      "aim": 2646,
      "und": 2647,
      "▁05/01/2001": 2648,
      "▁http": 2649,
      "▁journ": 2650,
      "▁before": 2651,
      "irt": 2652,
      "attle": 2653,
      "olis": 2654,
      "▁barn": 2655,
      "▁07/14/2000": 2656,
      "▁1.3": 2657,
      "asons": 2658,
      "▁fish": 2659,
      "▁vogelaviatiola": 2660,
      "ov": 2661,
      "▁ins": 2662,
      "▁touch": 2663,
      "]": 2664,
      "7/2001": 2665,
      "▁twelve": 2666,
      "cast": 2667,
      "▁10:5": 2668,
      "▁looks": 2669,
      "orus": 2670,
      "▁pair": 2671,
      "▁sup": 2672,
      "▁symbol": 2673,
      "▁researchers": 2674,
      "????????????????????????????????": 2675,
      "▁pricing": 2676,
      "▁learned": 2677,
      "▁here": 2678,
      "▁june": 2679,
      "▁575": 2680,
      "▁columbus": 2681,
      "▁top": 2682,
      "enix": 2683,
      "▁pow": 2684,
      "▁718": 2685,
      "▁relief": 2686,
      "$": 2687,
      "▁197": 2688,
      "inging": 2689,
      "▁start": 2690,
      "▁support": 2691,
      "▁sweetie": 2692,
      "▁expressed": 2693,
      ":1": 2694,
      "et": 2695,
      "stop": 2696,
      "▁fest": 2697,
      "▁scheduled": 2698,
      "▁etc.": 2699,
      "▁coach": 2700,
      "▁continues": 2701,
      "tte": 2702,
      "▁partic": 2703,
      "▁crime": 2704,
      "▁allow": 2705,
      "▁interests": 2706,
      "e.": 2707,
      "v": 2708,
      "iar": 2709,
      "▁houses": 2710,
      "▁cart": 2711,
      ":21": 2712,
      "▁713-646-3393": 2713,
      "_^": 2714,
      "▁toast": 2715,
      "▁&amp": 2716,
      "▁uses": 2717,
      "doc": 2718,
      "▁190": 2719,
      "▁staying": 2720,
      "[PAD]": 2721,
      "mon": 2722,
      "▁arab": 2723,
      "65": 2724,
      "▁opening": 2725,
      "▁rome": 2726,
      "▁08/16": 2727,
      "▁available": 2728,
      "▁robot": 2729,
      "▁aw": 2730,
      "akistan": 2731,
      "▁ancient": 2732,
      "▁ano": 2733,
      "▁75": 2734,
      "▁horsie": 2735,
      "▁citizens": 2736,
      "▁510-642": 2737,
      "▁programs": 2738,
      "▁wiz": 2739,
      "▁tells": 2740,
      "-3989": 2741,
      "▁francisco": 2742,
      "inews": 2743,
      "▁reviews": 2744,
      "▁stories": 2745,
      "65-3": 2746,
      "▁opinion": 2747,
      "▁dirt": 2748,
      "▁together": 2749,
      "ement": 2750,
      "▁principle": 2751,
      "▁syria": 2752,
      "▁upd": 2753,
      "▁integr": 2754,
      "▁club": 2755,
      "▁soldiers": 2756,
      "▁405": 2757,
      "▁distingu": 2758,
      "▁64": 2759,
      "roy": 2760,
      "▁susan": 2761,
      "▁kn": 2762,
      "▁see": 2763,
      "▁london": 2764,
      "樋": 2765,
      "▁look": 2766,
      "▁never": 2767,
      "▁funds": 2768,
      "jects": 2769,
      "▁thousand": 2770,
      "▁_________________________________": 2771,
      "▁kitch": 2772,
      "▁5:00": 2773,
      "▁10:00": 2774,
      "▁1972": 2775,
      "▁consequ": 2776,
      "▁cinc": 2777,
      "▁13": 2778,
      "▁stup": 2779,
      "ant": 2780,
      "ils": 2781,
      "ration": 2782,
      "▁che": 2783,
      "▁pin": 2784,
      "▁broad": 2785,
      "▁considered": 2786,
      "▁potential": 2787,
      "▁governments": 2788,
      "▁trad": 2789,
      "▁days": 2790,
      "▁dining": 2791,
      "▁traged": 2792,
      "▁absol": 2793,
      "▁as": 2794,
      "▁contr": 2795,
      "▁pointed": 2796,
      "▁end": 2797,
      "▁92": 2798,
      "bles": 2799,
      "93": 2800,
      "▁actions": 2801,
      "&": 2802,
      "▁impossible": 2803,
      "▁percentage": 2804,
      "enth": 2805,
      "▁canadian": 2806,
      "bur": 2807,
      "oler": 2808,
      "erve": 2809,
      "▁1966": 2810,
      "ema": 2811,
      "▁aust": 2812,
      "-w": 2813,
      "▁august": 2814,
      "▁em": 2815,
      "▁weap": 2816,
      "es": 2817,
      "▁explained": 2818,
      "▁invol": 2819,
      "================================": 2820,
      "elt": 2821,
      "▁train": 2822,
      "▁347": 2823,
      "▁dc": 2824,
      "v.": 2825,
      "▁indeed": 2826,
      "▁immediately": 2827,
      "▁behav": 2828,
      "▁go": 2829,
      "▁stated": 2830,
      "ith": 2831,
      "ulous": 2832,
      "▁-----------------------------------------------------------------": 2833,
      "#6": 2834,
      "?": 2835,
      "ix": 2836,
      "▁hide": 2837,
      "▁rel": 2838,
      "▁safe": 2839,
      "▁mother": 2840,
      "▁81": 2841,
      "▁surrounded": 2842,
      "▁attach": 2843,
      "▁kent": 2844,
      "▁count": 2845,
      "▁correct": 2846,
      "▁hon": 2847,
      "▁traff": 2848,
      "▁kitten": 2849,
      "▁03/27/2001": 2850,
      "▁print": 2851,
      "▁**": 2852,
      "oman": 2853,
      "ares": 2854,
      "▁potato": 2855,
      "…": 2856,
      "▁spir": 2857,
      "ugg": 2858,
      "▁actual": 2859,
      "▁1999": 2860,
      "▁called": 2861,
      "▁asking": 2862,
      "▁33": 2863,
      "▁related": 2864,
      "▁terms": 2865,
      "▁unf": 2866,
      "▁several": 2867,
      "▁town": 2868,
      "▁taught": 2869,
      "▁cases": 2870,
      "▁paint": 2871,
      "ipped": 2872,
      "▁journal": 2873,
      "get": 2874,
      "▁mathemat": 2875,
      "▁bump": 2876,
      "▁8:00": 2877,
      "▁1987": 2878,
      "▁tri": 2879,
      "▁branch": 2880,
      "▁1926": 2881,
      "▁donkey": 2882,
      "haps": 2883,
      "▁common": 2884,
      "▁china": 2885,
      "▁ce": 2886,
      "wn": 2887,
      "30": 2888,
      "▁impl": 2889,
      "▁title": 2890,
      "▁stops": 2891,
      "▁games": 2892,
      "apes": 2893,
      "▁spider": 2894,
      "▁places": 2895,
      "gypt": 2896,
      "▁169": 2897,
      "▁cas": 2898,
      "▁kiss": 2899,
      "rist": 2900,
      "▁difficult": 2901,
      "▁additional": 2902,
      "▁legit": 2903,
      "▁dollars": 2904,
      "▁y": 2905,
      "▁recover": 2906,
      "▁330": 2907,
      "▁bon": 2908,
      "ext": 2909,
      "▁nandakke": 2910,
      "▁sugar": 2911,
      "fast": 2912,
      "▁summer": 2913,
      "!!!!!!!!": 2914,
      "0010": 2915,
      "▁free": 2916,
      "▁behind": 2917,
      "unic": 2918,
      "▁something": 2919,
      "▁ris": 2920,
      "l": 2921,
      "▁06/01/2001": 2922,
      "▁flav": 2923,
      "▁advis": 2924,
      "▁sick": 2925,
      "▁belie": 2926,
      "▁:)": 2927,
      "▁樋口": 2928,
      "▁national": 2929,
      "▁mal": 2930,
      "▁ordered": 2931,
      "▁damage": 2932,
      "@ect": 2933,
      "▁08": 2934,
      "▁forster@enron": 2935,
      "ider": 2936,
      "▁blow": 2937,
      "ah": 2938,
      "▁characters": 2939,
      "▁850": 2940,
      "▁picked": 2941,
      "▁room": 2942,
      "▁jean": 2943,
      "-01": 2944,
      "▁senior": 2945,
      "▁thought": 2946,
      "▁worked": 2947,
      "▁ticket": 2948,
      "▁blind": 2949,
      "▁witness": 2950,
      "ful": 2951,
      "-": 2952,
      "▁single": 2953,
      "▁1928": 2954,
      "▁415.621": 2955,
      "▁reference": 2956,
      "oes": 2957,
      "111": 2958,
      "▁popular": 2959,
      ":23": 2960,
      "▁girl": 2961,
      "+": 2962,
      "▁monday": 2963,
      "▁famous": 2964,
      "▁prot": 2965,
      "▁anc": 2966,
      "lish": 2967,
      "▁control": 2968,
      "▁ach": 2969,
      "iture": 2970,
      "▁accur": 2971,
      "▁646-8420": 2972,
      "▁oper": 2973,
      "▁29587": 2974,
      "▁gu": 2975,
      "▁enh": 2976,
      "▁fri": 2977,
      "▁|": 2978,
      "*": 2979,
      "▁sexual": 2980,
      "▁operation": 2981,
      "▁conven": 2982,
      "▁dall": 2983,
      "▁owned": 2984,
      "▁********": 2985,
      "▁pic": 2986,
      "–": 2987,
      "aper": 2988,
      "erry": 2989,
      "night": 2990,
      "▁mosque": 2991,
      "▁adding": 2992,
      "▁mexican": 2993,
      "▁that": 2994,
      "adelp": 2995,
      "eared": 2996,
      "▁numerous": 2997,
      "ram": 2998,
      "▁cab": 2999,
      "▁strength": 3000,
      "▁fit": 3001,
      "▁.3": 3002,
      "▁girls": 3003,
      "▁teen": 3004,
      "▁gl": 3005,
      "▁lack": 3006,
      "~*~*": 3007,
      "▁amidst": 3008,
      "▁som": 3009,
      "▁joined": 3010,
      "veland": 3011,
      "▁flights": 3012,
      "ra": 3013,
      "▁commun": 3014,
      "▁sanders": 3015,
      "▁put": 3016,
      "▁–": 3017,
      "▁1724": 3018,
      "▁disco": 3019,
      "▁quinoa": 3020,
      "²": 3021,
      "standing": 3022,
      "▁initiative": 3023,
      "▁page": 3024,
      "▁1245": 3025,
      "16": 3026,
      "▁sou": 3027,
      "▁80435": 3028,
      "ocol": 3029,
      "▁814014": 3030,
      "ier": 3031,
      "▁harv": 3032,
      "61": 3033,
      "▁quarter": 3034,
      "山": 3035,
      "▁thoughts": 3036,
      "▁conclusion": 3037,
      "▁fir": 3038,
      "▁place": 3039,
      "▁3,202.61": 3040,
      "▁£": 3041,
      "▁jwww": 3042,
      ".25": 3043,
      "igh": 3044,
      "▁licens": 3045,
      "▁non": 3046,
      "▁pollution": 3047,
      "▁site": 3048,
      "▁six": 3049,
      "▁cir": 3050,
      "▁attem": 3051,
      "d-#6": 3052,
      "q": 3053,
      "▁thanks": 3054,
      "▁truly": 3055,
      "▁agreed": 3056,
      ".n": 3057,
      "▁978": 3058,
      "▁airlines": 3059,
      "▁05": 3060,
      "aked": 3061,
      "▁932": 3062,
      "ct": 3063,
      "39": 3064,
      "▁natural": 3065,
      "œ": 3066,
      "▁calm": 3067,
      "▁hearing": 3068,
      "ran": 3069,
      "uted": 3070,
      "▁vie": 3071,
      "▁sac": 3072,
      "▁88": 3073,
      "▁society": 3074,
      "▁mexico": 3075,
      "▁parts": 3076,
      "▁custom": 3077,
      "veria": 3078,
      "▁ind": 3079,
      "[UNK]": 3080,
      "war": 3081,
      "▁constantly": 3082,
      "▁55": 3083,
      "▁currently": 3084,
      "▁tail": 3085,
      "▁entire": 3086,
      "▁waited": 3087,
      "▁30,000": 3088,
      "▁wed": 3089,
      "▁upon": 3090,
      "▁bang": 3091,
      "oring": 3092,
      "▁04:17": 3093,
      "▁gramm": 3094,
      "▁sounds": 3095,
      "▁event": 3096,
      "he": 3097,
      "ased": 3098,
      "▁1616": 3099,
      "▁281-44": 3100,
      "▁defense": 3101,
      "im": 3102,
      "▁students": 3103,
      "▁sett": 3104,
      "▁judge": 3105,
      "▁included": 3106,
      "▁77": 3107,
      "eral": 3108,
      "▁aut": 3109,
      "ł": 3110,
      "▁e-m": 3111,
      "▁funct": 3112,
      "▁ahead": 3113,
      "▁102": 3114,
      "▁d": 3115,
      "▁running": 3116,
      "▁1689": 3117,
      "▁mud": 3118,
      "raz": 3119,
      "▁snitch": 3120,
      "/17/99": 3121,
      "▁brenner": 3122,
      "▁effective": 3123,
      "verty": 3124,
      "▁cris": 3125,
      "ilt": 3126,
      "▁ger": 3127,
      "▁prov": 3128,
      "▁….": 3129,
      "▁1902": 3130,
      "▁46": 3131,
      "▁female": 3132,
      "huh": 3133,
      "-c": 3134,
      "▁253": 3135,
      "alk": 3136,
      "▁levels": 3137,
      "▁range": 3138,
      "ogel": 3139,
      "▁chief": 3140,
      "▁skitt": 3141,
      "▁labor": 3142,
      "acion": 3143,
      "▁throu": 3144,
      "ning": 3145,
      "▁chair": 3146,
      "eds": 3147,
      "▁constituency": 3148,
      "▁bit": 3149,
      "▁buy": 3150,
      "▁pict": 3151,
      "▁meth": 3152,
      "▁risk": 3153,
      "▁nope": 3154,
      "▁☎": 3155,
      "▁": 3156,
      "▁beneath": 3157,
      "▁corner": 3158,
      "▁....": 3159,
      "ɛ": 3160,
      "==============": 3161,
      "▁saved": 3162,
      "10": 3163,
      "▁---------------------------------------------------------------------------": 3164,
      "za": 3165,
      "▁646-84": 3166,
      "▁colon": 3167,
      "erv": 3168,
      "▁ess": 3169,
      "▁forever": 3170,
      "▁prob": 3171,
      "▁1829": 3172,
      "▁sees": 3173,
      "-2": 3174,
      "inary": 3175,
      "ʻ": 3176,
      "igned": 3177,
      "▁baltimore": 3178,
      "▁th": 3179,
      "▁popcorn": 3180,
      "an": 3181,
      "ami": 3182,
      "ures": 3183,
      "▁nasa": 3184,
      "▁mil": 3185,
      "▁attorn": 3186,
      "▁mainly": 3187,
      "▁repe": 3188,
      "▁term": 3189,
      "▁extent": 3190,
      "eric": 3191,
      "rif": 3192,
      "/26/2000": 3193,
      "▁62": 3194,
      "▁phone": 3195,
      "▁musharraf": 3196,
      "▁^_^": 3197,
      "-79": 3198,
      "ias": 3199,
      "ois": 3200,
      "▁exception": 3201,
      "▁interviews": 3202,
      "ort": 3203,
      "▁rec": 3204,
      "▁phys": 3205,
      "▁starts": 3206,
      ":29": 3207,
      "▁1998": 3208,
      "▁it's": 3209,
      "cement": 3210,
      "▁sm": 3211,
      "▁fal": 3212,
      "▁electric": 3213,
      "ifies": 3214,
      "▁approximately": 3215,
      "▁713-654-": 3216,
      "▁.........": 3217,
      "▁school": 3218,
      "▁restaurant": 3219,
      "iety": 3220,
      "▁chocolate": 3221,
      "▁1592": 3222,
      "▁44,000": 3223,
      "▁bay": 3224,
      "▁bite": 3225,
      "▁compreh": 3226,
      "cond": 3227,
      "▁stood": 3228,
      "▁trump": 3229,
      "/1": 3230,
      "▁bill": 3231,
      "ird": 3232,
      "▁120,000": 3233,
      "▁join": 3234,
      "aster": 3235,
      "igration": 3236,
      "▁cos": 3237,
      "rition": 3238,
      "▁8": 3239,
      "α": 3240,
      "▁designed": 3241,
      "▁1957": 3242,
      "▁lean": 3243,
      "▁1307": 3244,
      "▁sciss": 3245,
      "asing": 3246,
      "▁montejo": 3247,
      "▁power": 3248,
      "▁hel": 3249,
      "ght": 3250,
      "▁note": 3251,
      "▁rot": 3252,
      "▁being": 3253,
      "▁transfer": 3254,
      "▁transaction": 3255,
      "▁**********": 3256,
      "esth": 3257,
      "▁jeff": 3258,
      "▁they": 3259,
      "erre": 3260,
      "▁dust": 3261,
      "▁1993": 3262,
      "▁academic": 3263,
      "▁eyes": 3264,
      "ove": 3265,
      "▁mer": 3266,
      "▁remembered": 3267,
      "▁pakistan": 3268,
      "▁unique": 3269,
      "▁813": 3270,
      "▁2050": 3271,
      "▁eight": 3272,
      "▁2004": 3273,
      "▁hind": 3274,
      "▁muscles": 3275,
      "▁nante": 3276,
      "▁tools": 3277,
      "▁quant": 3278,
      "▁6.1": 3279,
      "▁anth": 3280,
      "▁vlog": 3281,
      "▁four": 3282,
      "▁att": 3283,
      "urn": 3284,
      "======": 3285,
      "da": 3286,
      "▁appearance": 3287,
      "▁kar": 3288,
      "▁angel": 3289,
      "▁80": 3290,
      "▁governor": 3291,
      "▁bird": 3292,
      "ging": 3293,
      "▁!!": 3294,
      "▁widely": 3295,
      "▁flower": 3296,
      "du": 3297,
      "[SEP]": 3298,
      "▁bright": 3299,
      "▁fore": 3300,
      "▁missed": 3301,
      "▁library": 3302,
      "▁1937": 3303,
      "▁enfor": 3304,
      "▁caught": 3305,
      "omer": 3306,
      "▁41": 3307,
      "-9": 3308,
      "▁france": 3309,
      "22,000": 3310,
      "bert": 3311,
      "▁electricity": 3312,
      "▁dursleys": 3313,
      "bel": 3314,
      "▁mis": 3315,
      "▁elimin": 3316,
      "ut": 3317,
      "▁leg": 3318,
      "▁----==": 3319,
      "▁11:36": 3320,
      "▁mat": 3321,
      "rupt": 3322,
      "icult": 3323,
      "▁prim": 3324,
      "▁en": 3325,
      "▁heavy": 3326,
      "▁jokes": 3327,
      "▁nail": 3328,
      "▁khins": 3329,
      "ither": 3330,
      "▁pach": 3331,
      "▁resour": 3332,
      "▁mac": 3333,
      "▁impress": 3334,
      "▁house": 3335,
      "▁1910": 3336,
      "part": 3337,
      "▁mo": 3338,
      "si": 3339,
      "▁vietnam": 3340,
      "roll": 3341,
      "ame": 3342,
      "-b": 3343,
      "▁ob": 3344,
      "▁import": 3345,
      "▁drive": 3346,
      "▁1877": 3347,
      "▁44": 3348,
      "most": 3349,
      "▁british": 3350,
      "▁teh": 3351,
      "ects": 3352,
      "▁bench": 3353,
      "itten": 3354,
      "▁kitchen": 3355,
      "▁296": 3356,
      "▁hen": 3357,
      "▁across": 3358,
      "▁strange": 3359,
      "▁edit": 3360,
      "▁remains": 3361,
      "onse": 3362,
      "▁making": 3363,
      "▁infrastructure": 3364,
      "▁11:45": 3365,
      "▁03/28/2001": 3366,
      "ator": 3367,
      "▁rough": 3368,
      "ister": 3369,
      "▁619": 3370,
      "▁opened": 3371,
      "sych": 3372,
      "▁downtown": 3373,
      "-343": 3374,
      "▁earth": 3375,
      "▁fin": 3376,
      "▁unknown": 3377,
      "▁pleasant": 3378,
      "▁ont": 3379,
      "▁memphis": 3380,
      "▁w3c": 3381,
      "▁aband": 3382,
      "▁used": 3383,
      "▁jam": 3384,
      "▁license": 3385,
      "▁aer": 3386,
      "▁examples": 3387,
      "▁purchased": 3388,
      "▁desper": 3389,
      "em": 3390,
      "▁ped": 3391,
      "aged": 3392,
      "▁30": 3393,
      "▁science": 3394,
      "rast": 3395,
      "▁auster": 3396,
      "▁hoc": 3397,
      "▁financ": 3398,
      "▁travel": 3399,
      "▁wel": 3400,
      "▁created": 3401,
      "▁alligator": 3402,
      "ز": 3403,
      "53-3": 3404,
      "uses": 3405,
      "▁calling": 3406,
      "▁select": 3407,
      "▁530": 3408,
      "▁throughout": 3409,
      "▁nic": 3410,
      "under": 3411,
      "▁run": 3412,
      "▁her": 3413,
      "▁stick": 3414,
      "▁***": 3415,
      "eton@ect": 3416,
      "▁sink": 3417,
      "▁document": 3418,
      "yan": 3419,
      "▁plastic": 3420,
      "▁advert": 3421,
      "▁aboard": 3422,
      "▁life": 3423,
      "▁worse": 3424,
      "▁sister": 3425,
      "▁10/20/2000": 3426,
      "2-": 3427,
      "▁ding": 3428,
      "▁khan@transredes": 3429,
      "book": 3430,
      "▁provides": 3431,
      "/15": 3432,
      "▁spos": 3433,
      "▁coron": 3434,
      "91": 3435,
      "▁internet": 3436,
      "▁answer": 3437,
      "▁with": 3438,
      "▁offer": 3439,
      "▁staff": 3440,
      "▁hole": 3441,
      "la": 3442,
      "▁12:12": 3443,
      "▁compared": 3444,
      "ely": 3445,
      "▁benefit": 3446,
      "oma": 3447,
      "▁uk": 3448,
      "tered": 3449,
      "▁pu": 3450,
      "▁independ": 3451,
      "▁979": 3452,
      "▁wanted": 3453,
      "▁obs": 3454,
      "▁ought": 3455,
      "▁thom": 3456,
      "uz": 3457,
      "▁202.456.1414": 3458,
      "▁whale": 3459,
      "▁shi": 3460,
      "▁42,000": 3461,
      "▁det": 3462,
      "▁drove": 3463,
      "▁hate": 3464,
      "▁matter": 3465,
      "▁50": 3466,
      "▁continental": 3467,
      "j": 3468,
      "▁so": 3469,
      "▁reasons": 3470,
      "▁post": 3471,
      "▁cat": 3472,
      "▁afraid": 3473,
      "a)": 3474,
      "▁bulldozer": 3475,
      "▁sunday": 3476,
      "ic": 3477,
      "ium": 3478,
      "▁fresh": 3479,
      "▁subst": 3480,
      "▁strategy": 3481,
      "▁head": 3482,
      "▁try": 3483,
      "iation": 3484,
      "▁fashion": 3485,
      "▁10:30": 3486,
      "▁declaration": 3487,
      "▁impro": 3488,
      "▁tru": 3489,
      "▁agent": 3490,
      "▁colleagues": 3491,
      ".htm": 3492,
      "▁rental": 3493,
      "row": 3494,
      "▁$": 3495,
      "▁tam": 3496,
      "▁declar": 3497,
      "▁1799": 3498,
      "work": 3499,
      "iers": 3500,
      "▁dollar": 3501,
      "▁group": 3502,
      "▁charl": 3503,
      "22": 3504,
      "ø": 3505,
      "▁ath": 3506,
      "ounded": 3507,
      "▁1609": 3508,
      "▁incre": 3509,
      "▁front": 3510,
      "▁mosqu": 3511,
      "▁strateg": 3512,
      "▁rapidly": 3513,
      "▁08/15/2000": 3514,
      "▁window": 3515,
      "▁why": 3516,
      "▁assem": 3517,
      "ustom": 3518,
      "oph": 3519,
      "▁models": 3520,
      "▁one": 3521,
      "▁415.782": 3522,
      "▁2.": 3523,
      "sp": 3524,
      "▁programm": 3525,
      "▁missing": 3526,
      "▁america": 3527,
      "▁row": 3528,
      "▁training": 3529,
      "▁brings": 3530,
      "▁online": 3531,
      ">===": 3532,
      "▁1583": 3533,
      "▁veget": 3534,
      ":3": 3535,
      "▁ict": 3536,
      "▁passing": 3537,
      "@t": 3538,
      "▁detailed": 3539,
      "▁alth": 3540,
      "tip": 3541,
      "cl": 3542,
      "▁l": 3543,
      "▁astride": 3544,
      "▁news": 3545,
      "▁golden": 3546,
      "▁900": 3547,
      "▁1589": 3548,
      "▁original": 3549,
      "▁zeal": 3550,
      "mar": 3551,
      "▁total": 3552,
      "-l": 3553,
      "▁eating": 3554,
      "▁written": 3555,
      "▁billion": 3556,
      "itive": 3557,
      "▁ocean": 3558,
      "▁ted": 3559,
      "▁meat": 3560,
      "3-3744": 3561,
      "▁exposure": 3562,
      "▁writers": 3563,
      "▁1878": 3564,
      "kana": 3565,
      "▁reserve": 3566,
      "rest": 3567,
      "▁americ": 3568,
      "▁associate": 3569,
      "▁tall": 3570,
      "▁amounts": 3571,
      "ces": 3572,
      "ology": 3573,
      "4/2000": 3574,
      "▁1890": 3575,
      "▁andy": 3576,
      "€": 3577,
      "▁battle": 3578,
      "board": 3579,
      "▁sam": 3580,
      "▁weas": 3581,
      "ug": 3582,
      "▁04:": 3583,
      "▁1959": 3584,
      "bie": 3585,
      "▁glob": 3586,
      "iwan": 3587,
      "▁1800": 3588,
      "▁woman": 3589,
      "mas": 3590,
      "▁4_28": 3591,
      "▁hanging": 3592,
      "▁tacoma": 3593,
      "▁thous": 3594,
      "iday": 3595,
      "▁qaeda": 3596,
      "▁hor": 3597,
      "▁9:30": 3598,
      "rible": 3599,
      "gets": 3600,
      "ones": 3601,
      "▁scale": 3602,
      "▁tried": 3603,
      "▁dial": 3604,
      "▁bri": 3605,
      "..": 3606,
      "▁st.": 3607,
      "11": 3608,
      "▁maris": 3609,
      "▁approxim": 3610,
      "▁removed": 3611,
      "ether": 3612,
      "ulating": 3613,
      "▁175": 3614,
      "▁arri": 3615,
      "pped": 3616,
      "▁2019": 3617,
      "▁die": 3618,
      ".uk": 3619,
      "▁rs": 3620,
      "▁))": 3621,
      ":32": 3622,
      "ι": 3623,
      "/01/2001": 3624,
      "action": 3625,
      "▁ski": 3626,
      "ger": 3627,
      "▁!": 3628,
      "▁stay": 3629,
      "reg": 3630,
      "▁maybe": 3631,
      "▁proceed": 3632,
      "▁1888": 3633,
      "▁peanut": 3634,
      "so": 3635,
      "pan": 3636,
      "ved": 3637,
      "▁07/17/2000": 3638,
      "▁345": 3639,
      "▁increased": 3640,
      "▁pocket": 3641,
      "▁ours": 3642,
      "enron.com": 3643,
      "isk": 3644,
      "▁dud": 3645,
      "▁food": 3646,
      "read": 3647,
      "itter": 3648,
      "301": 3649,
      "æ": 3650,
      "tering": 3651,
      "0-3": 3652,
      "▁ign": 3653,
      "9999": 3654,
      "▁tract": 3655,
      "▁ear": 3656,
      "▁corpor": 3657,
      "▁yo": 3658,
      "berry": 3659,
      "▁63": 3660,
      "▁hall": 3661,
      "edie": 3662,
      "▁study": 3663,
      "▁brown": 3664,
      "une": 3665,
      "▁sec": 3666,
      "▁mosquito": 3667,
      "right": 3668,
      "▁comb": 3669,
      "ife": 3670,
      "▁clean": 3671,
      "innati": 3672,
      "▁drag": 3673,
      "▁transmission": 3674,
      "reat": 3675,
      "▁mathematics": 3676,
      "▁tren": 3677,
      "lig": 3678,
      "▁oct": 3679,
      "▁bring": 3680,
      "▁dr.": 3681,
      "▁iraq": 3682,
      "▁1647": 3683,
      "▁err": 3684,
      "apt": 3685,
      "810": 3686,
      "eau": 3687,
      "▁fund": 3688,
      "▁maint": 3689,
      "▁esp": 3690,
      "▁sarah": 3691,
      "▁general": 3692,
      "▁dose": 3693,
      "▁687": 3694,
      "▁unif": 3695,
      "chester": 3696,
      "▁mont": 3697,
      "▁150": 3698,
      "ness": 3699,
      "▁worried": 3700,
      "▁federal": 3701,
      "▁ryan": 3702,
      "▁colle": 3703,
      "▁besides": 3704,
      "▁dand": 3705,
      "▁concepts": 3706,
      "▁comment": 3707,
      "▁challeng": 3708,
      "▁line": 3709,
      "onto": 3710,
      "▁mostly": 3711,
      "▁e.g": 3712,
      "▁wood": 3713,
      "▁re": 3714,
      "▁along": 3715,
      "▁raining": 3716,
      "▁1841": 3717,
      "▁kinds": 3718,
      "▁happy": 3719,
      "▁polar": 3720,
      "▁wikinews": 3721,
      "selves": 3722,
      "▁neat": 3723,
      "▁trash": 3724,
      "▁clin": 3725,
      "ione": 3726,
      "▁jordan": 3727,
      "▁bar": 3728,
      "▁1205": 3729,
      "72": 3730,
      "▁communication": 3731,
      "ville": 3732,
      "▁189": 3733,
      "hol": 3734,
      "▁events": 3735,
      "▁cous": 3736,
      "▁transportation": 3737,
      "▁thinks": 3738,
      "▁holding": 3739,
      "▁~": 3740,
      "▁telev": 3741,
      "▁apply": 3742,
      "ification": 3743,
      "▁essential": 3744,
      "▁ll": 3745,
      "▁swim": 3746,
      "▁trav": 3747,
      "40": 3748,
      "▁discip": 3749,
      "▁ton": 3750,
      "iv": 3751,
      "ats": 3752,
      "le": 3753,
      "▁par": 3754,
      "ty": 3755,
      "▁loved": 3756,
      "▁dwww": 3757,
      "▁mouth": 3758,
      "▁those": 3759,
      "▁505-625": 3760,
      "igr": 3761,
      "▁appro": 3762,
      "▁adv": 3763,
      "▁mon": 3764,
      "▁recently": 3765,
      "▁screw": 3766,
      "▁today": 3767,
      "epend": 3768,
      "▁get": 3769,
      "▁2.15": 3770,
      "eight": 3771,
      "▁euro": 3772,
      "▁riding": 3773,
      "▁02": 3774,
      "0/2000": 3775,
      "▁yourself": 3776,
      "▁influence": 3777,
      "▁user": 3778,
      "▁cool": 3779,
      "▁11:0": 3780,
      "▁mile": 3781,
      "▁fiction": 3782,
      "▁inform": 3783,
      "▁naim": 3784,
      "▁government": 3785,
      "ack": 3786,
      "▁rat": 3787,
      "夏": 3788,
      "▁==============================================================================": 3789,
      "emic": 3790,
      "glo": 3791,
      "▁from": 3792,
      "▁challenges": 3793,
      "▁standards": 3794,
      "▁legisl": 3795,
      "▁tag": 3796,
      "▁approach": 3797,
      "anda": 3798,
      "▁these": 3799,
      "▁tit": 3800,
      "ato": 3801,
      "▁1774": 3802,
      "ee": 3803,
      "d-#693": 3804,
      "▁intel": 3805,
      "▁ny": 3806,
      "▁bow": 3807,
      "uela": 3808,
      "▁nation": 3809,
      "3/2000": 3810,
      "▁recommend": 3811,
      "58": 3812,
      "wards": 3813,
      "▁tiny": 3814,
      "ified": 3815,
      "▁sweet": 3816,
      "/2": 3817,
      "▁iss": 3818,
      "nd": 3819,
      "▁120": 3820,
      "▁thing": 3821,
      "▁decide": 3822,
      ".7822": 3823,
      "ip": 3824,
      "▁928": 3825,
      "ensive": 3826,
      "ald": 3827,
      "▁bone": 3828,
      "▁feels": 3829,
      "▁rep": 3830,
      "▁agric": 3831,
      ":39": 3832,
      "▁’d": 3833,
      "▁tables": 3834,
      "▁shackl": 3835,
      "▁already": 3836,
      "▁rocks": 3837,
      "▁01": 3838,
      "▁statements": 3839,
      "▁basis": 3840,
      "▁uhoh": 3841,
      "§": 3842,
      "▁/": 3843,
      "▁crowd": 3844,
      "▁71": 3845,
      "▁craw": 3846,
      "▁month": 3847,
      "▁medium": 3848,
      "▁businesses": 3849,
      "▁best": 3850,
      "▁team": 3851,
      "yn": 3852,
      "▁environmental": 3853,
      "▁speed": 3854,
      "45": 3855,
      "▁conversation": 3856,
      "▁est": 3857,
      "▁technical": 3858,
      "yl": 3859,
      "▁but": 3860,
      "▁anything": 3861,
      "▁interview": 3862,
      "▁281-443-3744": 3863,
      "ig": 3864,
      "▁territory": 3865,
      "▁world": 3866,
      "▁significant": 3867,
      "▁alt": 3868,
      "▁contracts": 3869,
      "lic": 3870,
      "▁neighbor": 3871,
      "cross": 3872,
      "▁agenda": 3873,
      "▁1780": 3874,
      "▁spoon": 3875,
      "▁1920": 3876,
      "▁caused": 3877,
      "▁vide": 3878,
      "ua": 3879,
      "vers": 3880,
      "▁09:": 3881,
      "▁......": 3882,
      "▁economic": 3883,
      "▁o'clock": 3884,
      "▁1562": 3885,
      "▁contem": 3886,
      "▁chang": 3887,
      "-99": 3888,
      "ael": 3889,
      "ously": 3890,
      "▁2018": 3891,
      "▁1790": 3892,
      "▁tot": 3893,
      "▁tell": 3894,
      "ple": 3895,
      "mer": 3896,
      "▁visitors": 3897,
      "▁1850": 3898,
      ":42": 3899,
      "▁98": 3900,
      "ici": 3901,
      "▁brit": 3902,
      "▁’": 3903,
      "▁distrib": 3904,
      "man": 3905,
      "▁buttons": 3906,
      "izations": 3907,
      "▁death": 3908,
      "▁tv": 3909,
      "▁thirteen": 3910,
      ":57": 3911,
      "▁pizza": 3912,
      "akk": 3913,
      "with": 3914,
      "ele": 3915,
      "▁kept": 3916,
      "▁congress": 3917,
      "▁are": 3918,
      "▁---->===}*{===<----": 3919,
      "▁among": 3920,
      "000": 3921,
      "▁launch": 3922,
      "▁magic": 3923,
      "▁indo": 3924,
      "▁big": 3925,
      "zer": 3926,
      "▁1951": 3927,
      "▁estim": 3928,
      "▁follow": 3929,
      "ived": 3930,
      "dp": 3931,
      "▁book": 3932,
      "▁03:20": 3933,
      "bow": 3934,
      "▁atl": 3935,
      "▁kansas": 3936,
      "ters": 3937,
      "▁november": 3938,
      ".p": 3939,
      "▁lots": 3940,
      "▁stillman": 3941,
      ",0": 3942,
      "✉": 3943,
      "esc": 3944,
      "men": 3945,
      "▁full": 3946,
      "▁families": 3947,
      "▁emerging": 3948,
      "▁concerned": 3949,
      "▁2000": 3950,
      "aleck": 3951,
      "rick": 3952,
      "▁scar": 3953,
      "▁cond": 3954,
      "▁do": 3955,
      "▁^": 3956,
      "▁zealand": 3957,
      "▁lou": 3958,
      "▁cheapest": 3959,
      "ages": 3960,
      "▁vogelaviatiolap": 3961,
      "oke": 3962,
      "▁formica": 3963,
      "gre": 3964,
      "▁dist": 3965,
      "▁cou": 3966,
      "▁usual": 3967,
      "▁1969": 3968,
      ".61": 3969,
      "▁-----------------": 3970,
      "mine": 3971,
      "▁'": 3972,
      "▁cook": 3973,
      "▁2011": 3974,
      "ring": 3975,
      "▁received": 3976,
      "▁minimum": 3977,
      "▁jun": 3978,
      "▁noone": 3979,
      "▁likes": 3980,
      "▁_________________________________________________": 3981,
      "▁proble": 3982,
      "▁================================================": 3983,
      "▁gone": 3984,
      "339": 3985,
      "▁root": 3986,
      "▁cy": 3987,
      "414": 3988,
      "▁1880": 3989,
      "▁objects": 3990,
      ":25": 3991,
      "▁cage": 3992,
      "▁alleged": 3993,
      "▁b": 3994,
      "ming": 3995,
      "-10": 3996,
      "▁live": 3997,
      "▁asp": 3998,
      "▁aunt": 3999,
      "▁council": 4000,
      "▁pachom": 4001,
      "▁housing": 4002,
      "▁bugs": 4003,
      "3736": 4004,
      "▁compet": 4005,
      "ints": 4006,
      "▁no": 4007,
      "▁washington": 4008,
      "▁ed": 4009,
      "▁2:30": 4010,
      "▁350": 4011,
      "▁mouse": 4012,
      "▁hundreds": 4013,
      "5/2001": 4014,
      "▁generation": 4015,
      "edge": 4016,
      "▁2500": 4017,
      "▁bid": 4018,
      "▁complete": 4019,
      "▁cromer": 4020,
      "▁industrial": 4021,
      ".86": 4022,
      "▁offic": 4023,
      "▁seventy": 4024,
      "rr": 4025,
      "▁eggs": 4026,
      "▁02/2": 4027,
      "721": 4028,
      "▁counterfe": 4029,
      "▁http://www": 4030,
      "wet": 4031,
      "▁it": 4032,
      "▁1779": 4033,
      "▁quest": 4034,
      "▁camp": 4035,
      "www": 4036,
      "▁pill": 4037,
      "▁rom": 4038,
      "▁pere": 4039,
      "qu": 4040,
      "▁drink": 4041,
      "▁tar": 4042,
      "▁came": 4043,
      "gr": 4044,
      "▁vogel": 4045,
      ":05": 4046,
      "orio": 4047,
      "soft": 4048,
      "▁col": 4049,
      "▁finding": 4050,
      "▁prem": 4051,
      "▁silk": 4052,
      "▁short": 4053,
      "ivid": 4054,
      "▁climate": 4055,
      "icle": 4056,
      "▁date": 4057,
      "▁favor": 4058,
      "▁goat": 4059,
      "▁well": 4060,
      ":34": 4061,
      "▁04": 4062,
      "▁238": 4063,
      "▁stairs": 4064,
      "▁neither": 4065,
      "▁47": 4066,
      "▁;-)": 4067,
      "▁flying": 4068,
      "/h": 4069,
      "ston": 4070,
      "▁measure": 4071,
      "▁mount": 4072,
      "▁scott": 4073,
      "▁determined": 4074,
      "our": 4075,
      "ashed": 4076,
      "▁programme": 4077,
      "▁bern": 4078,
      "bal": 4079,
      "▁desert": 4080,
      "▁49": 4081,
      "▁iraqi": 4082,
      "▁1944": 4083,
      "▁le": 4084,
      "ination": 4085,
      "▁teams": 4086,
      "idden": 4087,
      "-44": 4088,
      "▁shock": 4089,
      "▁pen": 4090,
      "▁explain": 4091,
      "▁found": 4092,
      "zy": 4093,
      "▁distort": 4094,
      "inated": 4095,
      "▁mad": 4096,
      "▁turn": 4097,
      "▁easy": 4098,
      "▁fruit": 4099,
      "ked": 4100,
      "▁glad": 4101,
      "▁graduate": 4102,
      "▁established": 4103,
      "▁described": 4104,
      "mission": 4105,
      "▁nick": 4106,
      "▁having": 4107,
      "▁soc": 4108,
      "▁gar": 4109,
      "ead": 4110,
      "▁pil": 4111,
      "▁franc": 4112,
      "/2000": 4113,
      "▁negot": 4114,
      "▁bunch": 4115,
      "3": 4116,
      ".30": 4117,
      "▁estimate": 4118,
      "▁length": 4119,
      "▁blanket": 4120,
      "▁behalf": 4121,
      "▁const": 4122,
      "▁thin": 4123,
      "ouse": 4124,
      "▁jap": 4125,
      "uring": 4126,
      "▁emb": 4127,
      "▁position": 4128,
      "▁issues": 4129,
      "▁country": 4130,
      "▁knowledge": 4131,
      "▁breakfast": 4132,
      "imes": 4133,
      "ugh": 4134,
      "ign": 4135,
      "▁1604": 4136,
      "▁enjambment": 4137,
      "▁independent": 4138,
      "▁1.5": 4139,
      "▁spending": 4140,
      "ays": 4141,
      "▁gets": 4142,
      "822": 4143,
      "▁treated": 4144,
      "▁shared": 4145,
      "▁soil": 4146,
      "▁tomorrow": 4147,
      "60": 4148,
      "▁men": 4149,
      "▁freed": 4150,
      "eries": 4151,
      "▁2013": 4152,
      "▁sto": 4153,
      "85": 4154,
      "▁hea": 4155,
      "▁passed": 4156,
      "▁formal": 4157,
      "lear": 4158,
      "▁israeli": 4159,
      "▁confer": 4160,
      "ww": 4161,
      "▁calls": 4162,
      "▁walking": 4163,
      "▁describe": 4164,
      "▁george": 4165,
      "ales": 4166,
      "ie": 4167,
      "▁!!!!!!!!!!!!!!!!!!!": 4168,
      "▁shakespeare": 4169,
      "▁da": 4170,
      "ecca": 4171,
      "ternal": 4172,
      "e": 4173,
      "▁sect": 4174,
      "▁michelle": 4175,
      "▁vers": 4176,
      "▁laid": 4177,
      "▁tro": 4178,
      "▁settled": 4179,
      "▁knows": 4180,
      "▁pakistani": 4181,
      "▁alongside": 4182,
      "▁>----------------------------------------------------------------------------": 4183,
      "▁card": 4184,
      "▁:(": 4185,
      "lying": 4186,
      "▁hear": 4187,
      "arrass": 4188,
      "48": 4189,
      "▁coat": 4190,
      "▁suffer": 4191,
      "▁red": 4192,
      "ا": 4193,
      "ublic": 4194,
      "▁modulo": 4195,
      "if": 4196,
      "icy": 4197,
      "▁back": 4198,
      "▁adopted": 4199,
      "34": 4200,
      "▁1200": 4201,
      "ron": 4202,
      "aviatio": 4203,
      "▁tour": 4204,
      "▁ro": 4205,
      "▁tw": 4206,
      "lae": 4207,
      "▁forg": 4208,
      "▁-------------------------------------------------": 4209,
      "▁n": 4210,
      "▁return": 4211,
      "▁key": 4212,
      "▁manager": 4213,
      "/11/2004": 4214,
      "▁married": 4215,
      "▁763736": 4216,
      ":58": 4217,
      "ually": 4218,
      "▁momma": 4219,
      "▁studying": 4220,
      "uated": 4221,
      "erved": 4222,
      "▁beauveria": 4223,
      "▁compl": 4224,
      "▁incor": 4225,
      "chi": 4226,
      "ular": 4227,
      "▁db": 4228,
      "▁fortun": 4229,
      "▁credit": 4230,
      "▁creation": 4231,
      "aled": 4232,
      "▁asleep": 4233,
      "ground": 4234,
      "▁fbi": 4235,
      "ober": 4236,
      "▁1-8": 4237,
      "▁progress": 4238,
      "▁economy": 4239,
      "³": 4240,
      "▁etc": 4241,
      "▁interp": 4242,
      "▁query": 4243,
      "raph": 4244,
      "41": 4245,
      "iques": 4246,
      "▁own": 4247,
      "▁argument": 4248,
      "▁day": 4249,
      "449": 4250,
      "▁vi": 4251,
      "▁forty-one": 4252,
      "▁potty": 4253,
      "▁main": 4254,
      "▁1952": 4255,
      "▁capital": 4256,
      "▁almost": 4257,
      "ablish": 4258,
      "tail": 4259,
      "▁700": 4260,
      "▁05/30/2001": 4261,
      "p": 4262,
      "entions": 4263,
      "iddle": 4264,
      "θ": 4265,
      "2000": 4266,
      "▁01:58": 4267,
      "▁10,000": 4268,
      "▁mommy": 4269,
      "bage": 4270,
      "▁(a)": 4271,
      "▁drew": 4272,
      "▁approved": 4273,
      "▁community": 4274,
      "-f": 4275,
      "▁sole": 4276,
      "sy": 4277,
      "▁ar": 4278,
      "▁restrict": 4279,
      "▁dog": 4280,
      "▁ball": 4281,
      "▁yep": 4282,
      "▁communic": 4283,
      "▁realize": 4284,
      "▁anti-": 4285,
      "▁european": 4286,
      "alys": 4287,
      "▁facilities": 4288,
      "▁12:42": 4289,
      "▁htt": 4290,
      "▁1830": 4291,
      "▁push": 4292,
      "▁miles": 4293,
      "▁11/08/2000": 4294,
      "▁15,000": 4295,
      "▁’m": 4296,
      "ical": 4297,
      "▁hun": 4298,
      "▁message": 4299,
      "ater": 4300,
      "▁toronto": 4301,
      "▁=---": 4302,
      "▁6.2.1": 4303,
      "ams": 4304,
      "▁centre": 4305,
      "▁grant": 4306,
      "▁wo": 4307,
      "▁successful": 4308,
      "/8/00": 4309,
      "▁i": 4310,
      "angu": 4311,
      "oe": 4312,
      "▁ge": 4313,
      "▁10:45": 4314,
      "▁source": 4315,
      "ya": 4316,
      "por": 4317,
      "stances": 4318,
      "▁initi": 4319,
      "gg": 4320,
      "▁approval": 4321,
      "▁transport": 4322,
      "▁angeles": 4323,
      "▁su": 4324,
      "3.6": 4325,
      "▁l2": 4326,
      "round": 4327,
      "▁nab": 4328,
      "▁toget": 4329,
      "▁hidden": 4330,
      "ians": 4331,
      "▁1859": 4332,
      "▁constit": 4333,
      "un": 4334,
      "ford": 4335,
      "▁empt": 4336,
      "▁plat": 4337,
      "▁74419": 4338,
      "erno": 4339,
      "/4": 4340,
      "▁cruise": 4341,
      "▁fy": 4342,
      "▁dur": 4343,
      "▁joy": 4344,
      "ies": 4345,
      "ick": 4346,
      "▁xsd": 4347,
      "▁ig": 4348,
      "▁service": 4349,
      "▁peau": 4350,
      "nut": 4351,
      "===": 4352,
      "er": 4353,
      "▁satisf": 4354,
      "▁chris": 4355,
      "▁bottles": 4356,
      "bi": 4357,
      "▁165": 4358,
      "▁threat": 4359,
      "▁leaves": 4360,
      "six": 4361,
      "▁humaine": 4362,
      "▁extremely": 4363,
      "▁contribution": 4364,
      "▁03:3": 4365,
      "▁presentation": 4366,
      "▁frozen": 4367,
      "▁italian": 4368,
      "▁delivery": 4369,
      "▁weapon": 4370,
      "▁investig": 4371,
      "▁individual": 4372,
      "▁moral": 4373,
      "▁countries": 4374,
      "▁advanced": 4375,
      "▁symp": 4376,
      "▁-2-f.doc": 4377,
      "▁storm": 4378,
      "▁tun": 4379,
      "▁media": 4380,
      "▁bo": 4381,
      "▁sound": 4382,
      "lik": 4383,
      "68": 4384,
      "▁recent": 4385,
      "cum": 4386,
      "▁egypt": 4387,
      "▁6871082#": 4388,
      "▁interv": 4389,
      "aska": 4390,
      "ore": 4391,
      "▁2030": 4392,
      "urs": 4393,
      "eenth": 4394,
      "ي": 4395,
      "▁dem": 4396,
      "▁113": 4397,
      "▁westchester": 4398,
      "ka": 4399,
      "د": 4400,
      ".1234": 4401,
      "▁01:39": 4402,
      "▁avo": 4403,
      "▁wik": 4404,
      "▁version": 4405,
      "▁kid": 4406,
      "ib": 4407,
      "▁dep": 4408,
      "▁congrat": 4409,
      "▁transm": 4410,
      "▁climb": 4411,
      "@enron.com": 4412,
      "▁ta": 4413,
      "▁‘’": 4414,
      "▁mention": 4415,
      "▁predict": 4416,
      "▁committee": 4417,
      "▁confirm": 4418,
      "▁cheek": 4419,
      "▁assume": 4420,
      "▁surr": 4421,
      "▁decline": 4422,
      "▁class": 4423,
      "ances": 4424,
      "▁returning": 4425,
      "▁u.": 4426,
      "▁rob": 4427,
      "ware": 4428,
      "▁moving": 4429,
      "▁long": 4430,
      "▁questar": 4431,
      "▁...............": 4432,
      "▁mom": 4433,
      "▁ir": 4434,
      "▁did": 4435,
      "▁usually": 4436,
      "iro": 4437,
      "▁wake": 4438,
      "ker": 4439,
      "▁|--------+----------------": 4440,
      "清": 4441,
      "aw": 4442,
      "▁broke": 4443,
      "▁chaos": 4444,
      "ify": 4445,
      "15": 4446,
      "entially": 4447,
      "▁:-)": 4448,
      "▁cray": 4449,
      "▁pul": 4450,
      "ercial": 4451,
      "▁waters": 4452,
      "▁century": 4453,
      "▁exchange": 4454,
      "lers": 4455,
      "▁blank": 4456,
      "ante": 4457,
      "▁enjoyed": 4458,
      "▁says": 4459,
      "ational": 4460,
      "▁rap": 4461,
      "▁peoples": 4462,
      "uced": 4463,
      "ional": 4464,
      "ode": 4465,
      ".ur": 4466,
      "▁carol": 4467,
      "▁too": 4468,
      "▁mem": 4469,
      "b": 4470,
      "▁gro": 4471,
      "atives": 4472,
      "▁anti": 4473,
      "37": 4474,
      "▁greek": 4475,
      "▁absolutely": 4476,
      "▁harry": 4477,
      "▁pig": 4478,
      "▁1660": 4479,
      "ched": 4480,
      "▁enough": 4481,
      "-20-": 4482,
      "▁l'": 4483,
      "▁close": 4484,
      "▁tea": 4485,
      "▁713-654-0365": 4486,
      "▁57": 4487,
      "▁intellig": 4488,
      "hia": 4489,
      "▁docum": 4490,
      "ength": 4491,
      "▁frag": 4492,
      "ub": 4493,
      "▁unfortun": 4494,
      "▁2:25": 4495,
      "▁shall": 4496,
      "▁boots": 4497,
      "▁hungry": 4498,
      "▁number": 4499,
      "ozer": 4500,
      ".html": 4501,
      "▁director": 4502,
      "▁seating": 4503,
      "▁round": 4504,
      "▁walk": 4505,
      "▁show": 4506,
      "▁languages": 4507,
      "ˈ": 4508,
      "▁sim": 4509,
      "▁agreement": 4510,
      "▁willi": 4511,
      "▁granted": 4512,
      "▁mill": 4513,
      "▁has": 4514,
      "▁played": 4515,
      "▁yester": 4516,
      "▁1.00": 4517,
      "▁wiggle": 4518,
      "▁huge": 4519,
      "▁concern": 4520,
      "▁definition": 4521,
      "▁purs": 4522,
      "▁folks": 4523,
      "▁bott": 4524,
      "▁efficient": 4525,
      "▁animal": 4526,
      "▁tight": 4527,
      "▁sust": 4528,
      "▁wrote": 4529,
      "▁falluj": 4530,
      "▁small": 4531,
      "▁was": 4532,
      "▁1700": 4533,
      "▁burn": 4534,
      "ult": 4535,
      "▁silly": 4536,
      "▁info": 4537,
      "▁sept": 4538,
      "▁..........": 4539,
      "▁applied": 4540,
      "▁decision": 4541,
      "▁260": 4542,
      "▁ther": 4543,
      "one": 4544,
      "▁mun": 4545,
      "▁results": 4546,
      "▁arriving": 4547,
      "iction": 4548,
      "▁4.7": 4549,
      "▁ban": 4550,
      "--------------------------------------------": 4551,
      "▁pepper": 4552,
      "▁para13": 4553,
      "-------": 4554,
      "▁serve": 4555,
      "/03/2001": 4556,
      "▁recogn": 4557,
      "ison": 4558,
      "▁invited": 4559,
      "▁:p": 4560,
      "▁alex": 4561,
      "eeze": 4562,
      "▁tom": 4563,
      "▁+++": 4564,
      "▁flag": 4565,
      "▁falling": 4566,
      "ancy": 4567,
      "▁seriously": 4568,
      "ined": 4569,
      "▁properties": 4570,
      "ault": 4571,
      "▁noted": 4572,
      "lined": 4573,
      "▁analysis": 4574,
      "ien": 4575,
      "▁forty-": 4576,
      "▁load": 4577,
      "ast": 4578,
      "▁butter": 4579,
      "▁grass": 4580,
      "ass": 4581,
      "#": 4582,
      "▁720": 4583,
      "▁suffering": 4584,
      ".st": 4585,
      "▁libr": 4586,
      "▁simple": 4587,
      "▁neighborhood": 4588,
      "▁twenty-four": 4589,
      "▁happening": 4590,
      "▁5,000": 4591,
      "▁draft": 4592,
      "anc": 4593,
      "▁1,": 4594,
      "▁vegas": 4595,
      "▁wish": 4596,
      "▁towards": 4597,
      "to": 4598,
      "ym": 4599,
      "ist": 4600,
      "▁especially": 4601,
      "▁8.3": 4602,
      "▁1,200": 4603,
      "▁198": 4604,
      "łodz": 4605,
      "▁cup": 4606,
      "▁republic": 4607,
      "▁parad": 4608,
      "▁416-8": 4609,
      "ws": 4610,
      "▁slight": 4611,
      "▁acad": 4612,
      "-n": 4613,
      "▁reached": 4614,
      "▁mm": 4615,
      "9.3": 4616,
      "▁?!?": 4617,
      "▁singing": 4618,
      "▁202.456": 4619,
      "59": 4620,
      "▁sex": 4621,
      "▁theirs": 4622,
      "▁seventh": 4623,
      "▁marie": 4624,
      "▁accepted": 4625,
      "▁bed": 4626,
      "house": 4627,
      "riage": 4628,
      "▁boston": 4629,
      "▁>": 4630,
      "ception": 4631,
      "▁1971": 4632,
      "▁innovation": 4633,
      "ied": 4634,
      "▁93": 4635,
      "ten": 4636,
      "▁taking": 4637,
      "orrow": 4638,
      "▁1943": 4639,
      "▁doct": 4640,
      "▁palestin": 4641,
      "▁leadership": 4642,
      "▁succ": 4643,
      "est": 4644,
      "igning": 4645,
      "▁planned": 4646,
      "oud": 4647,
      "lac": 4648,
      "ention": 4649,
      "ph": 4650,
      "▁cereal": 4651,
      "enn": 4652,
      "ulty": 4653,
      "▁view": 4654,
      "▁brain": 4655,
      "499": 4656,
      "9933": 4657,
      "▁string": 4658,
      "▁for": 4659,
      "▁im": 4660,
      "▁whose": 4661,
      "▁ships": 4662,
      "▁lad": 4663,
      "▁neighb": 4664,
      "▁replication": 4665,
      "▁wall": 4666,
      "▁sc": 4667,
      "744": 4668,
      "opment": 4669,
      "▁karzai": 4670,
      "▁county": 4671,
      "▁******************************************************************": 4672,
      "▁pa": 4673,
      "▁gentle": 4674,
      "▁path": 4675,
      "▁enjamb": 4676,
      "▁russ": 4677,
      "▁beauty": 4678,
      "be": 4679,
      "ioned": 4680,
      "▁s/h": 4681,
      "▁ect": 4682,
      "eng": 4683,
      "▁commons": 4684,
      "▁saturday": 4685,
      "▁16.3": 4686,
      "▁begin": 4687,
      "▁text": 4688,
      "ها": 4689,
      ":52": 4690,
      "ole": 4691,
      "▁tong": 4692,
      "miss": 4693,
      "18": 4694,
      "▁specifically": 4695,
      "▁universal": 4696,
      "▁style": 4697,
      "lus": 4698,
      "▁shoes": 4699,
      ":45": 4700,
      "▁7.3": 4701,
      "▁stopping": 4702,
      "▁goals": 4703,
      "▁is": 4704,
      "▁pract": 4705,
      "▁00": 4706,
      "▁baltim": 4707,
      "acy": 4708,
      "▁looked": 4709,
      "▁non-": 4710,
      "▁officials": 4711,
      "▁56": 4712,
      "▁flood": 4713,
      "▁9/11": 4714,
      "igu": 4715,
      "▁beh": 4716,
      "▁les": 4717,
      "▁workers": 4718,
      "ends": 4719,
      "▁parents": 4720,
      "▁chines": 4721,
      "urning": 4722,
      "icial": 4723,
      "▁10/31": 4724,
      "ence": 4725,
      "in": 4726,
      "▁september": 4727,
      "▁amend": 4728,
      "▁showing": 4729,
      "ik": 4730,
      "▁lanka": 4731,
      "▁888.916.718": 4732,
      "▁jason": 4733,
      "ve": 4734,
      "▁consult": 4735,
      "ark": 4736,
      "▁taken": 4737,
      "▁analyst": 4738,
      "▁sour": 4739,
      "▁whi": 4740,
      "gether": 4741,
      "istan": 4742,
      "▁div": 4743,
      "rical": 4744,
      "unk": 4745,
      "▁wak": 4746,
      "▁excell": 4747,
      "▁espec": 4748,
      "▁250": 4749,
      "▁infrast": 4750,
      "3-3": 4751,
      "▁artwork": 4752,
      "▁1980": 4753,
      "ado": 4754,
      "▁2014": 4755,
      "▁21": 4756,
      "{": 4757,
      "▁rubber": 4758,
      "▁expected": 4759,
      "ators": 4760,
      "on@ect": 4761,
      "▁impact": 4762,
      "ivia": 4763,
      "▁04/16/2001": 4764,
      "▁map": 4765,
      "▁ter": 4766,
      "▁concept": 4767,
      "9": 4768,
      "▁export": 4769,
      "....": 4770,
      "ht": 4771,
      "▁jour": 4772,
      "▁volunte": 4773,
      "▁clay": 4774,
      "xt": 4775,
      "▁million": 4776,
      "▁7": 4777,
      "********": 4778,
      "▁japan": 4779,
      "▁airfare": 4780,
      "▁while": 4781,
      "▁audit": 4782,
      "▁knife": 4783,
      "71": 4784,
      "▁depends": 4785,
      "▁unp": 4786,
      "▁representative": 4787,
      "▁inh": 4788,
      "▁turning": 4789,
      "▁hous": 4790,
      "eet": 4791,
      "▁islamic": 4792,
      "▁smooth": 4793,
      "over": 4794,
      "▁users": 4795,
      "velop": 4796,
      "leys": 4797,
      "ppy": 4798,
      "bha-": 4799,
      "▁piv": 4800,
      "uss": 4801,
      "▁huh": 4802,
      "ines": 4803,
      "▁project": 4804,
      "▁-fin": 4805,
      "▁convers": 4806,
      "▁serves": 4807,
      "▁movies": 4808,
      "thern": 4809,
      "▁gal": 4810,
      "▁computer": 4811,
      "▁paris": 4812,
      "ulations": 4813,
      "▁millions": 4814,
      "▁counterpart": 4815,
      "▁certific": 4816,
      "▁nmemdrft8-7-01": 4817,
      "▁demon": 4818,
      "▁develop": 4819,
      "oo": 4820,
      "ransredes": 4821,
      "eld": 4822,
      "▁ooh": 4823,
      "▁situation": 4824,
      "fe": 4825,
      "fa": 4826,
      "ks": 4827,
      "▁definitely": 4828,
      "▁1777": 4829,
      "▁512": 4830,
      "▁cla": 4831,
      "▁dream": 4832,
      "▁bank": 4833,
      "ill": 4834,
      "▁democracy": 4835,
      "▁cream": 4836,
      "▁inc": 4837,
      "-9004": 4838,
      "____": 4839,
      "▁02/13/2001": 4840,
      "▁penn": 4841,
      "▁prepared": 4842,
      "▁juice": 4843,
      "▁shobha-": 4844,
      ":18": 4845,
      "▁save": 4846,
      "▁mirror": 4847,
      "umb": 4848,
      ".15": 4849,
      "▁except": 4850,
      "司": 4851,
      "▁vet": 4852,
      "▁%": 4853,
      "▁ka": 4854,
      "▁yes": 4855,
      "▁year": 4856,
      "▁effect": 4857,
      "ooth": 4858,
      "/2001": 4859,
      "874": 4860,
      "¢": 4861,
      "▁complet": 4862,
      "▁basket": 4863,
      "▁pros": 4864,
      "tim": 4865,
      "▁hop": 4866,
      "▁amongst": 4867,
      "▁begins": 4868,
      "▁photograph": 4869,
      "▁ga": 4870,
      "able": 4871,
      "▁uns": 4872,
      "ap": 4873,
      "oup": 4874,
      "▁means": 4875,
      "▁arg": 4876,
      "▁executive": 4877,
      "▁balance": 4878,
      "▁discuss": 4879,
      "▁2010": 4880,
      "cab": 4881,
      "▁witch": 4882,
      "▁named": 4883,
      "▁14": 4884,
      "▁sn": 4885,
      "▁daniel": 4886,
      "cal": 4887,
      "▁boxes": 4888,
      "▁1:00": 4889,
      "▁'d": 4890,
      "*{": 4891,
      "ertain": 4892,
      "▁iv": 4893,
      "▁yoga": 4894,
      "▁north": 4895,
      "-3": 4896,
      "▁lun": 4897,
      "▁teach": 4898,
      "got": 4899,
      "▁atlanta": 4900,
      "6-8": 4901,
      "ony": 4902,
      "itation": 4903,
      "▁achieve": 4904,
      "▁border": 4905,
      "▁revenue": 4906,
      "▁6871082": 4907,
      "▁educ": 4908,
      "▁ate": 4909,
      "▁direction": 4910,
      "▁christian": 4911,
      "▁high": 4912,
      "▁provided": 4913,
      "exp": 4914,
      "▁accord": 4915,
      "▁efforts": 4916,
      "▁via": 4917,
      "▁3:30": 4918,
      "▁toward": 4919,
      "enced": 4920,
      "▁though": 4921,
      "89": 4922,
      "▁703": 4923,
      "70": 4924,
      "▁van": 4925,
      "like": 4926,
      "▁moder": 4927,
      "▁provisions": 4928,
      "ash": 4929,
      "▁elected": 4930,
      "▁perm": 4931,
      "▁till": 4932,
      "▁mult": 4933,
      "▁objectives": 4934,
      "▁remo": 4935,
      "▁experienced": 4936,
      "antic": 4937,
      "▁plant": 4938,
      "▁nash": 4939,
      "▁1230": 4940,
      "ever": 4941,
      "▁intended": 4942,
      "▁seeking": 4943,
      "oney": 4944,
      "inc": 4945,
      "▁pet": 4946,
      "▁exch": 4947,
      "unt": 4948,
      "▁comedie": 4949,
      "▁station": 4950,
      "▁dese": 4951,
      "▁texas": 4952,
      "▁pub": 4953,
      "▁cheap": 4954,
      "▁painting": 4955,
      "▁internal": 4956,
      "ged": 4957,
      "ar": 4958,
      "▁force": 4959,
      "▁earli": 4960,
      "ab": 4961,
      "134": 4962,
      "▁minutes": 4963,
      "▁1598": 4964,
      "▁http://": 4965,
      "▁curren": 4966,
      "▁attract": 4967,
      "▁flight": 4968,
      "▁stage": 4969,
      "▁eff": 4970,
      "▁bomb": 4971,
      "▁skittles": 4972,
      "▁certain": 4973,
      "▁longer": 4974,
      "▁eat": 4975,
      "▁biological": 4976,
      "▁information": 4977,
      "ster": 4978,
      "▁hang": 4979,
      "▁meal": 4980,
      "▁focused": 4981,
      "▁spent": 4982,
      "▁report": 4983,
      "iao": 4984,
      "▁lesson": 4985,
      "▁1776": 4986,
      "▁above": 4987,
      "▁reli": 4988,
      "▁thro": 4989,
      "▁split": 4990,
      "▁bab": 4991,
      "▁2006": 4992,
      "iders": 4993,
      "aped": 4994,
      "▁californ": 4995,
      "aling": 4996,
      "▁demand": 4997,
      "▁lead": 4998,
      "erves": 4999,
      "▁bulld": 5000,
      "▁heads": 5001,
      "▁4": 5002,
      "ics": 5003,
      "is_0": 5004,
      "▁pr": 5005,
      "▁geograph": 5006,
      "▁filled": 5007,
      "▁consumption": 5008,
      "▁most": 5009,
      "▁wilson": 5010,
      "▁create": 5011,
      "byl": 5012,
      "24": 5013,
      "▁init": 5014,
      "ep": 5015,
      "▁regards": 5016,
      "ood": 5017,
      "▁grandm": 5018,
      "▁ready": 5019,
      "▁imag": 5020,
      "▁police": 5021,
      "▁larger": 5022,
      "▁sle": 5023,
      "▁2016": 5024,
      "//": 5025,
      "▁inj": 5026,
      "▁beaut": 5027,
      "▁multip": 5028,
      "▁presented": 5029,
      "aur": 5030,
      "▁stan": 5031,
      "▁b/c": 5032,
      "▁rice@enron": 5033,
      "▁stri": 5034,
      "▁domin": 5035,
      "▁surgery": 5036,
      "ners": 5037,
      "▁po": 5038,
      "▁-----": 5039,
      "▁acknowled": 5040,
      "▁items": 5041,
      "▁gri": 5042,
      "s.": 5043,
      "▁occup": 5044,
      "▁target": 5045,
      "▁remove": 5046,
      "▁680": 5047,
      "▁10:46": 5048,
      "▁many": 5049,
      ".4": 5050,
      "▁08/03/2000": 5051,
      "▁surround": 5052,
      "▁rank": 5053,
      "lymp": 5054,
      "vely": 5055,
      "▁1300": 5056,
      "▁*****": 5057,
      "▁7.2": 5058,
      "eable": 5059,
      "▁the": 5060,
      "ν": 5061,
      "ina": 5062,
      "▁bad": 5063,
      "▁dad": 5064,
      "▁pink": 5065,
      "▁burst": 5066,
      "otion": 5067,
      "alam": 5068,
      "west": 5069,
      ":48": 5070,
      "▁alt.": 5071,
      "▁steps": 5072,
      "face": 5073,
      "▁standard": 5074,
      "▁38,000": 5075,
      "▁proposal": 5076,
      "▁problems": 5077,
      "▁2021": 5078,
      "▁05/17/99": 5079,
      "▁anne": 5080,
      "▁would": 5081,
      "am": 5082,
      "▁honest": 5083,
      "▁coal": 5084,
      "eland": 5085,
      "ould": 5086,
      "▁college": 5087,
      "▁505": 5088,
      "▁middle": 5089,
      "▁47,500": 5090,
      "▁coast": 5091,
      "reh": 5092,
      "▁620-": 5093,
      "1696": 5094,
      "▁amaz": 5095,
      "▁gross": 5096,
      "▁reprod": 5097,
      "grad": 5098,
      "▁‘": 5099,
      "▁225": 5100,
      "7th": 5101,
      "▁fix": 5102,
      "▁literary": 5103,
      "▁01/25/2001": 5104,
      "▁prop": 5105,
      "▁leigh": 5106,
      "ades": 5107,
      "ended": 5108,
      "▁tig": 5109,
      "▁twist": 5110,
      "▁hire": 5111,
      "▁03/0": 5112,
      "bed": 5113,
      "▁noteboo": 5114,
      "▁stand": 5115,
      "ction": 5116,
      "▁gun": 5117,
      "▁appeal": 5118,
      "▁consc": 5119,
      "▁customer": 5120,
      "▁finger": 5121,
      "▁leaving": 5122,
      "▁’ve": 5123,
      "▁there": 5124,
      "▁including": 5125,
      "iveness": 5126,
      "▁materials": 5127,
      "lies": 5128,
      "ban": 5129,
      "▁`s": 5130,
      "▁somebody": 5131,
      "▁development": 5132,
      "▁dev": 5133,
      "ansen": 5134,
      "ome": 5135,
      "▁second": 5136,
      "▁telephone": 5137,
      "▁until": 5138,
      "▁word": 5139,
      "▁4,": 5140,
      "▁piec": 5141,
      "▁holt": 5142,
      "▁followed": 5143,
      "▁over": 5144,
      "▁ukrain": 5145,
      "▁fourteen": 5146,
      "ave": 5147,
      "▁changed": 5148,
      "▁drop": 5149,
      "▁366": 5150,
      "▁smell": 5151,
      "▁robin": 5152,
      "▁nato": 5153,
      "▁avoid": 5154,
      "▁3,500": 5155,
      "▁younger": 5156,
      "▁cute": 5157,
      "used": 5158,
      "▁municip": 5159,
      "▁bre": 5160,
      "▁channel": 5161,
      "utions": 5162,
      "ope": 5163,
      "▁percent": 5164,
      "▁watching": 5165,
      "▁ultim": 5166,
      "▁kind": 5167,
      "▁yer": 5168,
      "▁glove": 5169,
      "▁advance": 5170,
      "▁cleveland": 5171,
      "▁65": 5172,
      "ro": 5173,
      "▁helping": 5174,
      "▁copies": 5175,
      "▁para": 5176,
      "▁reality": 5177,
      "▁40,000": 5178,
      "less": 5179,
      "▁cig": 5180,
      "712": 5181,
      "▁gaz": 5182,
      "▁angry": 5183,
      "ucing": 5184,
      "▁further": 5185,
      "ected": 5186,
      "▁check": 5187,
      "▁population": 5188,
      "▁ep": 5189,
      "▁meh-risk": 5190,
      "▁traffic": 5191,
      "usion": 5192,
      "▁feed": 5193,
      "▁ham": 5194,
      "▁hog": 5195,
      "82": 5196,
      "anch": 5197,
      "real": 5198,
      "▁culture": 5199,
      "wa": 5200,
      "ogether": 5201,
      "99": 5202,
      "▁shoot": 5203,
      "▁ke": 5204,
      "▁planning": 5205,
      "▁clim": 5206,
      "▁critic": 5207,
      "▁bottle": 5208,
      "▁ser": 5209,
      "▁70.85": 5210,
      "▁assist": 5211,
      "▁pushed": 5212,
      "▁advantage": 5213,
      "▁unkn": 5214,
      "▁chance": 5215,
      "▁domestic": 5216,
      "▁areas": 5217,
      "▁subm": 5218,
      "▁154": 5219,
      "rog": 5220,
      "▁78": 5221,
      "▁stands": 5222,
      "▁identity": 5223,
      "▁ena": 5224,
      "▁thinking": 5225,
      "▁mix": 5226,
      "▁forced": 5227,
      "que": 5228,
      "▁dark": 5229,
      "▁box": 5230,
      "▁night": 5231,
      ":14": 5232,
      "ests": 5233,
      "▁leads": 5234,
      "▁1,000": 5235,
      "▁about": 5236,
      "▁market": 5237,
      "▁coinc": 5238,
      "▁qa": 5239,
      "▁lowest": 5240,
      "▁stir": 5241,
      "dulo": 5242,
      "▁packed": 5243,
      "▁soup": 5244,
      "ure": 5245,
      "▁51": 5246,
      "▁dre": 5247,
      "▁nearly": 5248,
      "▁guidelines": 5249,
      "▁4.9": 5250,
      "▁================================": 5251,
      ".2461": 5252,
      "▁ok": 5253,
      "▁€": 5254,
      "/26": 5255,
      "▁1912": 5256,
      "▁failed": 5257,
      "▁afric": 5258,
      "▁trick": 5259,
      "order": 5260,
      "▁trial": 5261,
      "▁displ": 5262,
      "▁415": 5263,
      "▁op": 5264,
      "▁morality": 5265,
      "is_0712": 5266,
      "▁conc": 5267,
      "▁sol": 5268,
      "uclear": 5269,
      "▁...................": 5270,
      "▁king": 5271,
      "▁type": 5272,
      "▁paren": 5273,
      "ft8-7": 5274,
      "▁maintain": 5275,
      "its": 5276,
      "▁palestinian": 5277,
      "▁location": 5278,
      "▁enc": 5279,
      "▁turned": 5280,
      "ree": 5281,
      "▁-ect": 5282,
      "▁fun": 5283,
      "▁production": 5284,
      "iver": 5285,
      "cent": 5286,
      "▁thir": 5287,
      "▁help": 5288,
      "▁sixth": 5289,
      "▁wine": 5290,
      "▁<<": 5291,
      "unications": 5292,
      "▁every": 5293,
      "▁education": 5294,
      "▁table": 5295,
      "▁milk": 5296,
      ",": 5297,
      "ought": 5298,
      "▁inf": 5299,
      ",000": 5300,
      "▁jer": 5301,
      ":35": 5302,
      "▁fundamental": 5303,
      "gest": 5304,
      "▁piece": 5305,
      "▁09:45": 5306,
      "▁1846": 5307,
      "ost": 5308,
      "▁captain": 5309,
      "▁luc": 5310,
      "▁democratic": 5311,
      "▁lope": 5312,
      "▁fear": 5313,
      "▁turis": 5314,
      "▁contrib": 5315,
      "▁las": 5316,
      "461": 5317,
      ".75": 5318,
      "▁.......": 5319,
      "▁milwaukee": 5320,
      "▁atmosphere": 5321,
      "15-": 5322,
      "▁rem": 5323,
      "▁marriage": 5324,
      "▁michael": 5325,
      "▁-": 5326,
      "eth": 5327,
      "φ": 5328,
      "▁eth": 5329,
      "orial": 5330,
      "ella": 5331,
      "▁container": 5332,
      "▁completed": 5333,
      "▁owner": 5334,
      "ada": 5335,
      "▁paral": 5336,
      "▁africa": 5337,
      "rop": 5338,
      "▁2.5": 5339,
      "±": 5340,
      "▁'71": 5341,
      "▁!!!!!!!!!!!": 5342,
      "ipe": 5343,
      "amed": 5344,
      "▁chairs": 5345,
      "ho": 5346,
      "▁trail": 5347,
      "▁participants": 5348,
      "iately": 5349,
      "▁collabor": 5350,
      "▁lic": 5351,
      "▁apple": 5352,
      "▁whole": 5353,
      "▁boat": 5354,
      "▁lopez": 5355,
      "ally": 5356,
      "olly": 5357,
      "▁giving": 5358,
      "▁beatles": 5359,
      "▁upstairs": 5360,
      "▁1949": 5361,
      "▁united": 5362,
      "▁!.": 5363,
      "▁leading": 5364,
      "▁gold": 5365,
      "▁notwith": 5366,
      "▁alliance": 5367,
      "▁meh-r": 5368,
      "ose": 5369,
      "▁weight": 5370,
      "▁lucky": 5371,
      "▁hour": 5372,
      "▁4:00": 5373,
      "▁address": 5374,
      "▁closed": 5375,
      "▁union": 5376,
      "▁floor": 5377,
      "[CLS]": 5378,
      "ney": 5379,
      "ions": 5380,
      "’": 5381,
      "▁wash": 5382,
      "sel": 5383,
      "▁pretty": 5384,
      "________________________________": 5385,
      "▁policies": 5386,
      "ars": 5387,
      "▁letter": 5388,
      "▁valid": 5389,
      "▁software": 5390,
      "▁tear": 5391,
      "err": 5392,
      "▁exec": 5393,
      "▁reading": 5394,
      "ida": 5395,
      "noon": 5396,
      "▁existing": 5397,
      "▁procedure": 5398,
      "▁2.9": 5399,
      "▁mu": 5400,
      "▁@": 5401,
      ".1": 5402,
      "▁placed": 5403,
      "+----------------": 5404,
      "-84": 5405,
      "ember": 5406,
      "▁amount": 5407,
      "▁ice": 5408,
      "▁loss": 5409,
      "▁wave": 5410,
      "▁hal": 5411,
      "▁german": 5412,
      "ql": 5413,
      "▁systems": 5414,
      "▁canc": 5415,
      "▁requested": 5416,
      "s/": 5417,
      "▁agency": 5418,
      "usal": 5419,
      "▁demonstr": 5420,
      "▁01810": 5421,
      "▁solid": 5422,
      "antly": 5423,
      "side": 5424,
      "▁epis": 5425,
      "iot": 5426,
      "▁es": 5427,
      "▁70": 5428,
      "5-0": 5429,
      "▁egyptian": 5430,
      "corn": 5431,
      "ris": 5432,
      "▁-ect-kedne": 5433,
      "▁uv": 5434,
      "▁stop": 5435,
      "▁'ll": 5436,
      "ck": 5437,
      "子": 5438,
      "▁11-20-": 5439,
      "▁230": 5440,
      "1": 5441,
      "▁apartment": 5442,
      "ala": 5443,
      "▁metro": 5444,
      "▁<": 5445,
      "▁jobs": 5446,
      "▁tiger": 5447,
      "ative": 5448,
      "▁counter": 5449,
      "▁ec": 5450,
      "▁onto": 5451,
      "▁unit": 5452,
      "▁elevator": 5453,
      "▁pron": 5454,
      "▁03:48": 5455,
      "25": 5456,
      "▁wast": 5457,
      "▁345-3436": 5458,
      "▁2007": 5459,
      "▁rock": 5460,
      "▁earned": 5461,
      "▁usd": 5462,
      "▁job": 5463,
      "ced": 5464,
      "▁bra": 5465,
      "▁deriv": 5466,
      "▁carro": 5467,
      "▁unh": 5468,
      "ank": 5469,
      "ox": 5470,
      "erg": 5471,
      ".621": 5472,
      "▁sector": 5473,
      "▁counterparty": 5474,
      "-s": 5475,
      "▁parliament": 5476,
      "▁costs": 5477,
      "▁zero": 5478,
      "▁yeah": 5479,
      "▁light": 5480,
      "▁char": 5481,
      "ica": 5482,
      "ided": 5483,
      "▁any": 5484,
      "▁status": 5485,
      "▁comput": 5486,
      "▁clock": 5487,
      "▁boom": 5488,
      "▁released": 5489,
      "▁veg": 5490,
      "▁whom": 5491,
      "elled": 5492,
      "▁wi": 5493,
      "▁713": 5494,
      "▁soon": 5495,
      "▁certainly": 5496,
      "▁confidential": 5497,
      "▁apar": 5498,
      "▁ninety-nine": 5499,
      "▁andaman": 5500,
      ".doc": 5501,
      "▁agents": 5502,
      "iny": 5503,
      "▁we": 5504,
      "hn": 5505,
      "▁progr": 5506,
      "▁twent": 5507,
      "▁foods": 5508,
      "▁hamm": 5509,
      "aro": 5510,
      "▁********************************": 5511,
      "▁growing": 5512,
      "▁church": 5513,
      "▁soph": 5514,
      "▁08:30": 5515,
      "▁repeated": 5516,
      "▁gray": 5517,
      "▁particular": 5518,
      "▁trails": 5519,
      "▁satan": 5520,
      "▁worms": 5521,
      "▁article": 5522,
      "▁----------------------------------------------------------------------": 5523,
      "▁lines": 5524,
      "▁our": 5525,
      "ights": 5526,
      "▁pictures": 5527,
      "▁shops": 5528,
      "▁hold": 5529,
      "bit": 5530,
      "ren": 5531,
      "▁mov": 5532,
      "▁reasonable": 5533,
      "▁newspaper": 5534,
      "????????": 5535,
      "▁vot": 5536,
      "▁shown": 5537,
      "}*{": 5538,
      "▁sty": 5539,
      "ised": 5540,
      "elling": 5541,
      "▁el": 5542,
      "▁cycle": 5543,
      "-3393": 5544,
      "▁01:09": 5545,
      "▁celebr": 5546,
      "▁revolution": 5547,
      "▁mei": 5548,
      "▁speak": 5549,
      ".2": 5550,
      "▁54,000": 5551,
      "▁petersburg": 5552,
      "ven": 5553,
      "illa": 5554,
      "▁who": 5555,
      "resh": 5556,
      "isc": 5557,
      "▁accom": 5558,
      "▁break": 5559,
      "▁32": 5560,
      "ire": 5561,
      "ن": 5562,
      "▁election": 5563,
      "▁thick": 5564,
      "▁wro": 5565,
      "44": 5566,
      ":20": 5567,
      "▁normal": 5568,
      "▁pants": 5569,
      "▁p.s.": 5570,
      "▁order": 5571,
      "▁burbank": 5572,
      "▁''": 5573,
      "▁#": 5574,
      "osure": 5575,
      "▁who's": 5576,
      "▁substant": 5577,
      "----------------": 5578,
      "bye": 5579,
      "▁find": 5580,
      "arter": 5581,
      "▁345-9945": 5582,
      "▁funny": 5583,
      "▁necessary": 5584,
      "51": 5585,
      "▁discussed": 5586,
      "▁talking": 5587,
      "▁20": 5588,
      "onn": 5589,
      "▁care": 5590,
      "▁11/29/2000": 5591,
      "▁1990": 5592,
      "▁ful": 5593,
      "▁time": 5594,
      "ule": 5595,
      "br": 5596,
      "▁814.86": 5597,
      "▁hoo": 5598,
      "===<----": 5599,
      "▁danny": 5600,
      "▁ireland": 5601,
      "▁babies": 5602,
      "▁disappoint": 5603,
      "▁harmon": 5604,
      "▁1000": 5605,
      "▁center": 5606,
      "▁brother": 5607,
      "▁lie": 5608,
      "▁anthrax": 5609,
      "▁cast": 5610,
      "▁410": 5611,
      "▁attended": 5612,
      "▁poet": 5613,
      "▁639": 5614,
      ",5": 5615,
      "▁writer": 5616,
      "ak": 5617,
      "od": 5618,
      "▁1914": 5619,
      "ior": 5620,
      "aa": 5621,
      "▁tickle": 5622,
      "▁josh": 5623,
      "aken": 5624,
      "▁american": 5625,
      "▁earlier": 5626,
      "▁compon": 5627,
      "▁male": 5628,
      "ate": 5629,
      "▁crazy": 5630,
      "▁hell": 5631,
      "▁opin": 5632,
      "ms": 5633,
      "ary": 5634,
      "▁issue": 5635,
      "▁purp": 5636,
      "▁kore": 5637,
      "▁arrived": 5638,
      "▁carried": 5639,
      "-696": 5640,
      "▁dans": 5641,
      "▁ghost": 5642,
      "▁rol": 5643,
      "▁legal": 5644,
      "▁tu": 5645,
      "▁review": 5646,
      "day": 5647,
      "▁point": 5648,
      "▁notwithstanding": 5649,
      "▁510": 5650,
      ":00": 5651,
      "▁kitty": 5652,
      "▁milit": 5653,
      "▁stretch": 5654,
      "ite": 5655,
      "▁slow": 5656,
      "d": 5657,
      "▁children": 5658,
      "▁hill": 5659,
      "▁1831": 5660,
      "▁sport": 5661,
      "▁mine": 5662,
      "ha": 5663,
      "▁713-853-3098": 5664,
      "▁sort": 5665,
      "▁15": 5666,
      "▁ow": 5667,
      "▁improvement": 5668,
      "istics": 5669,
      "▁igts": 5670,
      "ality": 5671,
      "▁experts": 5672,
      "▁meet": 5673,
      "▁clothing": 5674,
      "▁visited": 5675,
      "▁features": 5676,
      "▁1976": 5677,
      "▁christ": 5678,
      "▁obv": 5679,
      "▁familiar": 5680,
      "icious": 5681,
      "ull": 5682,
      "▁surprising": 5683,
      "▁kam": 5684,
      "▁95": 5685,
      "▁rate": 5686,
      "▁'re": 5687,
      "acle": 5688,
      "▁11/2": 5689,
      "▁stopped": 5690,
      "▁01:39:56": 5691,
      "^": 5692,
      "▁4:30": 5693,
      "▁design": 5694,
      "▁dig": 5695,
      "\"": 5696,
      "▁scient": 5697,
      "▁variety": 5698,
      "▁circum": 5699,
      "▁classes": 5700,
      "grin": 5701,
      "▁cor": 5702,
      "▁1564": 5703,
      "▁entitled": 5704,
      "▁hou": 5705,
      "▁cold": 5706,
      "▁plans": 5707,
      "▁s/he": 5708,
      "▁views": 5709,
      "▁trans": 5710,
      "ulate": 5711,
      "▁11/0": 5712,
      "▁korea": 5713,
      "animals": 5714,
      "liament": 5715,
      "▁implement": 5716,
      "▁tampa": 5717,
      "▁typ": 5718,
      "▁material": 5719,
      "▁nice": 5720,
      "▁khan@t": 5721,
      "dden": 5722,
      "▁affected": 5723,
      ",9": 5724,
      "▁author": 5725,
      "oted": 5726,
      "▁1:30": 5727,
      "den": 5728,
      "tr": 5729,
      "▁master": 5730,
      "rain": 5731,
      "▁respond": 5732,
      "▁star": 5733,
      "`": 5734,
      "▁baby": 5735,
      "▁booked": 5736,
      "▁fly": 5737,
      "▁mag": 5738,
      "▁160": 5739,
      "▁likely": 5740,
      "▁minister": 5741,
      "▁spirit": 5742,
      "▁list": 5743,
      "▁valle": 5744,
      "siana": 5745,
      "“": 5746,
      "▁repair": 5747,
      "▁portion": 5748,
      "▁76": 5749,
      "▁anyway": 5750,
      "▁fellow": 5751,
      "▁defined": 5752,
      "▁08:00": 5753,
      "▁coming": 5754,
      "▁district": 5755,
      "▁tank": 5756,
      "▁33,000": 5757,
      "▁learning": 5758,
      "8/2001": 5759,
      "▁loan": 5760,
      "rated": 5761,
      "2/2000": 5762,
      "▁produced": 5763,
      "ience": 5764,
      "▁567.77": 5765,
      "ink": 5766,
      "▁theat": 5767,
      "▁1868": 5768,
      "▁gard": 5769,
      "stand": 5770,
      "▁58": 5771,
      "ying": 5772,
      "▁phil": 5773,
      "▁dinner": 5774,
      "▁refr": 5775,
      "▁truck": 5776,
      "▁stead": 5777,
      "75": 5778,
      "▁after": 5779,
      "▁rac": 5780,
      "▁perhaps": 5781,
      "▁remind": 5782,
      "▁frequently": 5783,
      "▁around": 5784,
      "▁e-mail": 5785,
      "▁sending": 5786,
      "▁more": 5787,
      "▁experim": 5788,
      "▁yout": 5789,
      "▁sev": 5790,
      "low": 5791,
      "▁bottom": 5792,
      "▁nothing": 5793,
      "ets": 5794,
      "cell": 5795,
      "ibreat": 5796,
      "▁signific": 5797,
      "▁noticed": 5798,
      "▁carrying": 5799,
      "▁overall": 5800,
      "▁hes": 5801,
      "▁introduced": 5802,
      "▁tralee": 5803,
      "▁pro": 5804,
      "oid": 5805,
      "▁4.0": 5806,
      "▁germany": 5807,
      "▁scre": 5808,
      "▁increase": 5809,
      "▁3/9": 5810,
      "▁mot": 5811,
      "▁cities": 5812,
      "etic": 5813,
      "iciency": 5814,
      "uth": 5815,
      "▁exp": 5816,
      "umer": 5817,
      "▁xsl": 5818,
      "and": 5819,
      "▁notes": 5820,
      "▁shark": 5821,
      "▁square": 5822,
      "ving": 5823,
      "4-": 5824,
      "▁explor": 5825,
      "▁20.doc": 5826,
      "-1": 5827,
      "mp": 5828,
      "▁cl": 5829,
      "▁91": 5830,
      "mm": 5831,
      "isl": 5832,
      "▁unt": 5833,
      "kee": 5834,
      "▁la": 5835,
      "▁worth": 5836,
      "ago": 5837,
      "▁manufact": 5838,
      "▁take": 5839,
      "▁double": 5840,
      "▁separ": 5841,
      "▁łodz": 5842,
      "▁wol": 5843,
      "▁24,000": 5844,
      "▁involve": 5845,
      "▁baba": 5846,
      "▁french": 5847,
      "ike": 5848,
      "----------": 5849,
      "ish": 5850,
      "oned": 5851,
      "▁apparent": 5852,
      "▁5.6": 5853,
      "▁09:14": 5854,
      "▁lies": 5855,
      "_de": 5856,
      "β": 5857,
      "▁03/08/2000": 5858,
      "ulation": 5859,
      "▁much": 5860,
      "▁next": 5861,
      "▁crop": 5862,
      "▁late": 5863,
      "clud": 5864,
      "▁studied": 5865,
      "jwww": 5866,
      "▁1832": 5867,
      "▁727": 5868,
      "▁senator": 5869,
      "▁capac": 5870,
      "▁03/09/2000": 5871,
      "▁mixed": 5872,
      "▁settle": 5873,
      "▁dinosaur": 5874,
      "teenth": 5875,
      ".11": 5876,
      "8806": 5877,
      "▁smile": 5878,
      ".16": 5879,
      "▁---------------------------------------------------------------------": 5880,
      "▁entit": 5881,
      "▁silver": 5882,
      "▁int": 5883,
      "▁wolves": 5884,
      "iban": 5885,
      "▁tourists": 5886,
      "▁mayor": 5887,
      "819": 5888,
      "▁gr": 5889,
      "▁prepar": 5890,
      "▁public": 5891,
      "16.718": 5892,
      "▁expert": 5893,
      "▁evolution": 5894,
      "-kedne": 5895,
      "▁car": 5896,
      "▁odd": 5897,
      "▁social": 5898,
      "body": 5899,
      "▁island": 5900,
      "ition": 5901,
      "▁-2-": 5902,
      "▁restaurants": 5903,
      "▁shows": 5904,
      "▁picture": 5905,
      "▁doub": 5906,
      "!": 5907,
      "u": 5908,
      "▁suggest": 5909,
      "ung": 5910,
      "▁bat": 5911,
      "▁rapid": 5912,
      "room": 5913,
      "▁god": 5914,
      "s": 5915,
      "▁such": 5916,
      "▁unc": 5917,
      ".99": 5918,
      "▁di": 5919,
      "▁4.6": 5920,
      "▁size": 5921,
      "▁emph": 5922,
      "▁coun": 5923,
      "▁maj": 5924,
      "ocent": 5925,
      "rad": 5926,
      "tto": 5927,
      ".10": 5928,
      "iving": 5929,
      "▁cour": 5930,
      "▁english": 5931,
      "31": 5932,
      "do": 5933,
      "▁intellect": 5934,
      "rou": 5935,
      "▁processes": 5936,
      "▁05908549": 5937,
      "▁1-800-991-9019": 5938,
      "▁bound": 5939,
      "▁james": 5940,
      "▁walked": 5941,
      "▁wou": 5942,
      "▁surv": 5943,
      "bits": 5944,
      "ees": 5945,
      "▁01/1": 5946,
      "989": 5947,
      "▁clearly": 5948,
      "▁inst": 5949,
      "▁illusions": 5950,
      "▁arr": 5951,
      "▁dyn": 5952,
      "▁shorts": 5953,
      "▁entirely": 5954,
      "th": 5955,
      "ivers": 5956,
      "ges": 5957,
      "▁1896": 5958,
      "ening": 5959,
      "bon": 5960,
      "▁dat": 5961,
      "▁vast": 5962,
      "▁paseo": 5963,
      "▁historic": 5964,
      "▁magaz": 5965,
      "wood": 5966,
      "▁705": 5967,
      "iod": 5968,
      "om": 5969,
      "▁home": 5970,
      "▁protect": 5971,
      "str": 5972,
      "ound": 5973,
      "▁their": 5974,
      "▁limit": 5975,
      "▁afgh": 5976,
      "▁-stip": 5977,
      "▁doors": 5978,
      "'": 5979,
      "▁plac": 5980,
      "ounds": 5981,
      "atch": 5982,
      "▁947": 5983,
      "lied": 5984,
      ":38": 5985,
      "/25/2001": 5986,
      "▁08/15": 5987,
      "ito": 5988,
      "▁412": 5989,
      "▁crimin": 5990,
      "igator": 5991,
      "▁713-853": 5992,
      "▁choo": 5993,
      "▁shot": 5994,
      "▁pres": 5995,
      "▁stomach": 5996,
      "iew": 5997,
      "z": 5998,
      "▁vs.": 5999,
      "▁then": 6000,
      "▁model": 6001,
      "▁wikihow": 6002,
      "▁dec": 6003,
      "boo": 6004,
      "uries": 6005,
      "iance": 6006,
      "▁mech": 6007,
      "id": 6008,
      "▁trillion": 6009,
      "▁structure": 6010,
      "eping": 6011,
      "▁task": 6012,
      "▁“": 6013,
      "▁uhhuh": 6014,
      "▁colleag": 6015,
      "▁leon": 6016,
      "▁spread": 6017,
      "ication": 6018,
      "▁comparison": 6019,
      "▁2001": 6020,
      "▁1.75": 6021,
      "log": 6022,
      "ai": 6023,
      "▁household": 6024,
      "▁gent": 6025,
      "▁purchase": 6026,
      ".com/": 6027,
      "▁files": 6028,
      "ion": 6029,
      "▁forces": 6030,
      "▁low": 6031,
      "▁759933": 6032,
      "▁fav": 6033,
      "▁cub": 6034,
      "▁glass": 6035,
      "sequ": 6036,
      "▁password": 6037,
      "▁upper": 6038,
      "▁assum": 6039,
      "▁rev": 6040,
      "ower": 6041,
      "▁insur": 6042,
      "ret": 6043,
      "ord": 6044,
      "▁attacks": 6045,
      "uding": 6046,
      "▁nor": 6047,
      "ts": 6048,
      "ury": 6049,
      "▁made": 6050,
      "▁budget": 6051,
      "▁moon": 6052,
      "▁things": 6053,
      "▁tax": 6054,
      "▁thru": 6055,
      "▁sy": 6056,
      "rib": 6057,
      "▁poo": 6058,
      "uled": 6059,
      "▁consider": 6060,
      "▁stars": 6061,
      ".d": 6062,
      "▁969": 6063,
      "和": 6064,
      "▁aspect": 6065,
      "▁orange": 6066,
      "▁con": 6067,
      "▁thursday": 6068,
      "-0": 6069,
      "▁1/4": 6070,
      "▁encab": 6071,
      "▁application": 6072,
      "▁sales": 6073,
      "▁rid": 6074,
      "▁paying": 6075,
      "▁situ": 6076,
      "ata": 6077,
      "▁713/8": 6078,
      "cy": 6079,
      "▁naima": 6080,
      "53-3119": 6081,
      "ev": 6082,
      "algami": 6083,
      "17": 6084,
      "▁switch": 6085,
      "▁voice": 6086,
      "▁,?": 6087,
      "▁spok": 6088,
      "▁closely": 6089,
      "▁warhol": 6090,
      "▁authorities": 6091,
      "vember": 6092,
      "isation": 6093,
      "▁dangerous": 6094,
      "▁ca": 6095,
      "ense": 6096,
      "▁which": 6097,
      "ized": 6098,
      "▁disapp": 6099,
      "friend": 6100,
      "▁oneself": 6101,
      "▁79": 6102,
      "▁713-79": 6103,
      "▁dh": 6104,
      "▁bu": 6105,
      "zen": 6106,
      "irl": 6107,
      "▁offices": 6108,
      "▁kay": 6109,
      "ance": 6110,
      "eing": 6111,
      "ache": 6112,
      "▁humans": 6113,
      "▁ide": 6114,
      "▁afghan": 6115,
      "▁hos": 6116,
      "hi": 6117,
      "▁causes": 6118,
      "▁li": 6119,
      "▁dish": 6120,
      "▁awesome": 6121,
      "enron": 6122,
      "▁wee": 6123,
      "▁spray": 6124,
      "—": 6125,
      "▁arrow": 6126,
      "▁foot": 6127,
      "▁twel": 6128,
      "▁brush": 6129,
      "▁185": 6130,
      "▁insurance": 6131,
      "▁kev": 6132,
      "▁resc": 6133,
      "º": 6134,
      "▁se": 6135,
      "▁micro": 6136,
      "▁]": 6137,
      "ane": 6138,
      "==============================================": 6139,
      "54-": 6140,
      "▁newsp": 6141,
      "▁want": 6142,
      "▁2": 6143,
      "▁partners": 6144,
      "/08": 6145,
      "▁evol": 6146,
      "▁jews": 6147,
      "▁425-415-": 6148,
      "▁black": 6149,
      "-625": 6150,
      "▁coo": 6151,
      "anie": 6152,
      "a": 6153,
      "▁happens": 6154,
      "▁+44": 6155,
      "▁orient": 6156,
      "▁saving": 6157,
      "▁whoever": 6158,
      "uh": 6159,
      "▁20:00": 6160,
      "▁athens": 6161,
      "▁affair": 6162,
      "▁hom": 6163,
      "▁respons": 6164,
      "viat": 6165,
      "389": 6166,
      "ous": 6167,
      "▁chann": 6168,
      "ف": 6169,
      "▁hamster": 6170,
      "▁713/853": 6171,
      ":16": 6172,
      "▁od": 6173,
      "▁colors": 6174,
      "▁talked": 6175,
      "▁seventeen": 6176,
      "▁hm": 6177,
      "ially": 6178,
      "org": 6179,
      "▁menu": 6180,
      "▁137": 6181,
      "▁dozen": 6182,
      "▁rail": 6183,
      "▁appropri": 6184,
      "▁floating": 6185,
      "▁hours": 6186,
      "▁confident": 6187,
      "▁little": 6188,
      "eling": 6189,
      "arant": 6190,
      "/10": 6191,
      "iate": 6192,
      "▁finally": 6193,
      "▁295870": 6194,
      "▁nandarou": 6195,
      "▁pack": 6196,
      "▁748": 6197,
      "▁occurred": 6198,
      "▁sho": 6199,
      "▁wealth": 6200,
      "▁1115": 6201,
      "▁04:03": 6202,
      "▁descri": 6203,
      "▁elements": 6204,
      "88": 6205,
      "▁lab": 6206,
      "▁paid": 6207,
      "ructure": 6208,
      "▁parties": 6209,
      "▁yea": 6210,
      "▁bush": 6211,
      "▁score": 6212,
      "▁highlight": 6213,
      "▁rang": 6214,
      "pt": 6215,
      "▁1970": 6216,
      "ining": 6217,
      "********************************": 6218,
      "age": 6219,
      "▁cont": 6220,
      "26": 6221,
      "▁classical": 6222,
      "▁ring": 6223,
      "▁squ": 6224,
      "▁orlando": 6225,
      "▁ber": 6226,
      "ia": 6227,
      "▁4-12": 6228,
      "▁373": 6229,
      "yr": 6230,
      "▁nmemdrft8-7": 6231,
      "ection": 6232,
      "▁bal": 6233,
      "ca": 6234,
      "enner": 6235,
      "-59": 6236,
      "aq": 6237,
      "▁9221": 6238,
      "▁generally": 6239,
      "▁evidence": 6240,
      "▁spend": 6241,
      "▁jihad": 6242,
      "bank": 6243,
      "▁*": 6244,
      "mail": 6245,
      "/31": 6246,
      "▁11/10/2000": 6247,
      "▁viol": 6248,
      ".s": 6249,
      "▁268": 6250,
      "dom": 6251,
      "▁advant": 6252,
      "▁tim": 6253,
      "ew": 6254,
      "▁eventually": 6255,
      "▁.doc": 6256,
      "▁southern": 6257,
      "▁sta": 6258,
      "▁somet": 6259,
      "▁guy": 6260,
      "ings": 6261,
      "▁appears": 6262,
      ":5": 6263,
      "▁extra": 6264,
      "▁salad": 6265,
      ".ht": 6266,
      "▁images": 6267,
      "▁chick": 6268,
      "▁defe": 6269,
      "▁reported": 6270,
      "▁mrs": 6271,
      "▁snake": 6272,
      "ological": 6273,
      "▁alternative": 6274,
      "▁416-865-3": 6275,
      "eck": 6276,
      "▁belg": 6277,
      "▁wor": 6278,
      "▁comfort": 6279,
      ".x": 6280,
      "▁simply": 6281,
      "▁lunch": 6282,
      "▁each": 6283,
      "▁true": 6284,
      "▁beautiful": 6285,
      "stairs": 6286,
      "▁5.5": 6287,
      "▁spec": 6288,
      "▁translation": 6289,
      "2/2001": 6290,
      "▁vallee": 6291,
      "ight": 6292,
      "ich": 6293,
      "▁raise": 6294,
      ":51": 6295,
      "▁novel": 6296,
      "▁ants": 6297,
      "hood": 6298,
      "m": 6299,
      "▁01/12/2001": 6300,
      "▁throw": 6301,
      "tle": 6302,
      "▁months": 6303,
      "air": 6304,
      "▁v.": 6305,
      "▁professor": 6306,
      "▁nat": 6307,
      "▁weasley": 6308,
      "▁1291": 6309,
      "▁cry": 6310,
      "▁2.975": 6311,
      "▁suff": 6312,
      "▁ago": 6313,
      ":": 6314,
      "east": 6315,
      "st": 6316,
      "▁dkk": 6317,
      "▁relig": 6318,
      "af": 6319,
      "▁departing": 6320,
      "▁h-0": 6321,
      "▁eleph": 6322,
      "▁scientology": 6323,
      "▁understand": 6324,
      "isions": 6325,
      "/10/2000": 6326,
      "▁effects": 6327,
      "▁expectations": 6328,
      "}": 6329,
      "inner": 6330,
      "▁assemb": 6331,
      "▁1691": 6332,
      "▁spot": 6333,
      "▁obviously": 6334,
      "▁benef": 6335,
      "lines": 6336,
      "▁breath": 6337,
      "▁reports": 6338,
      "▁shelf": 6339,
      "▁moved": 6340,
      "▁previous": 6341,
      "new": 6342,
      "▁sitting": 6343,
      "ption": 6344,
      "▁architect": 6345,
      "▁ment": 6346,
      "▁72,000": 6347,
      "gh": 6348,
      "▁studies": 6349,
      "▁stre": 6350,
      "▁07:24": 6351,
      "▁doo": 6352,
      "▁cycl": 6353,
      "▁contemporary": 6354,
      "▁govern": 6355,
      "▁psych": 6356,
      "ech": 6357,
      "go": 6358,
      "/11": 6359,
      "▁liter": 6360,
      "▁subsc": 6361,
      "▁5": 6362,
      "▁now": 6363,
      "▁surger": 6364,
      "▁excited": 6365,
      "▁1039": 6366,
      "▁181": 6367,
      "▁05/03/2001": 6368,
      "▁12/2": 6369,
      "▁ma": 6370,
      "ores": 6371,
      "▁instructions": 6372,
      "der": 6373,
      "▁air": 6374,
      "▁bear": 6375,
      "▁'em": 6376,
      "▁pot": 6377,
      "raw": 6378,
      "▁jim": 6379,
      "▁december": 6380,
      "▁refer": 6381,
      "lect": 6382,
      "▁sold": 6383,
      "700": 6384,
      "▁10:56": 6385,
      "two": 6386,
      "▁seven": 6387,
      "▁object": 6388,
      "▁cath": 6389,
      "▁p": 6390,
      "▁’ll": 6391,
      "▁occas": 6392,
      "▁won": 6393,
      "▁swimming": 6394,
      "▁sens": 6395,
      "▁twa": 6396,
      "▁columb": 6397,
      "▁apr": 6398,
      "ors": 6399,
      "▁grew": 6400,
      "▁or": 6401,
      "▁mus": 6402,
      "▁11/28/2000": 6403,
      "▁israel": 6404,
      "▁growth": 6405,
      "ates": 6406,
      "▁tort": 6407,
      "▁cognitive": 6408,
      "ush": 6409,
      "▁working": 6410,
      "▁mut": 6411,
      "ped": 6412,
      "▁this": 6413,
      "▁reb": 6414,
      "itch": 6415,
      "▁resources": 6416,
      "ikh": 6417,
      "▁litt": 6418,
      "▁tough": 6419,
      "▁pivottable": 6420,
      "▁195": 6421,
      "▁200,000": 6422,
      "▁meant": 6423,
      "▁eng": 6424,
      "▁1-800-991-9": 6425,
      "▁fingers": 6426,
      "▁norton": 6427,
      "▁unable": 6428,
      "▁ass": 6429,
      "asy": 6430,
      "▁manage": 6431,
      "▁fully": 6432,
      "end": 6433,
      "▁10/23/2000": 6434,
      "-780": 6435,
      "▁geor": 6436,
      "▁early": 6437,
      "▁moh": 6438,
      "▁assess": 6439,
      "▁everybody": 6440,
      "▁neck": 6441,
      "sex": 6442,
      "▁104": 6443,
      "▁gul": 6444,
      "era": 6445,
      "tica": 6446,
      "▁friends": 6447,
      "ising": 6448,
      "▁ann": 6449,
      "▁durs": 6450,
      "▁f": 6451,
      "uts": 6452,
      "▁easily": 6453,
      "▁bla": 6454,
      "mark": 6455,
      "▁ingred": 6456,
      "▁twenty-six": 6457,
      "50": 6458,
      "▁:": 6459,
      "sm": 6460,
      "▁pos": 6461,
      "▁expensive": 6462,
      "▁write": 6463,
      "▁2100": 6464,
      "▁requ": 6465,
      "▁microphone": 6466,
      "▁congr": 6467,
      "▁syn": 6468,
      "▁compan": 6469,
      "▁comp": 6470,
      "ival": 6471,
      ",7": 6472,
      "1/2001": 6473,
      "▁palacio": 6474,
      "▁river": 6475,
      "▁dele": 6476,
      "×": 6477,
      "ans": 6478,
      "▁contract": 6479,
      "▁1822": 6480,
      "▁vis": 6481,
      "▁frame": 6482,
      "▁sunni": 6483,
      "▁termin": 6484,
      "us": 6485,
      "▁peter": 6486,
      "▁cash": 6487,
      "▁incom": 6488,
      "▁goes": 6489,
      "▁win": 6490,
      "arr": 6491,
      "▁bever": 6492,
      "▁narr": 6493,
      "▁serv": 6494,
      "▁wr": 6495,
      "▁alcal": 6496,
      "▁attempt": 6497,
      "▁1962": 6498,
      "oam": 6499,
      "▁interconnect": 6500,
      "own": 6501,
      "ect": 6502,
      "▁strike": 6503,
      "▁til": 6504,
      "▁12/26/2000": 6505,
      "▁02-05-02.doc": 6506,
      "▁produce": 6507,
      "▁ya": 6508,
      "▁me": 6509,
      "▁president": 6510,
      "▁shar": 6511,
      "▁sever": 6512,
      "▁disc": 6513,
      "▁12:30": 6514,
      "▁connecting": 6515,
      "enty": 6516,
      "▁creative": 6517,
      "▁stream": 6518,
      "ail": 6519,
      "ama": 6520,
      "atic": 6521,
      "▁listening": 6522,
      "pet": 6523,
      "▁ey": 6524,
      "▁1575": 6525,
      "........": 6526,
      "▁000010": 6527,
      "▁started": 6528,
      "▁125": 6529,
      "▁physical": 6530,
      "amm": 6531,
      "▁you": 6532,
      "▁sometime": 6533,
      "▁explan": 6534,
      "▁2,300": 6535,
      "▁equ": 6536,
      "▁shit": 6537,
      "▁scary": 6538,
      "▁hurt": 6539,
      "▁cars": 6540,
      "▁both": 6541,
      "▁af": 6542,
      "▁wearing": 6543,
      "rison": 6544,
      "▁due": 6545,
      "▁substantial": 6546,
      "ips": 6547,
      "▁welcome": 6548,
      "▁!?": 6549,
      "~": 6550,
      "▁excuse": 6551,
      "▁protest": 6552,
      "▁03/15/2001": 6553,
      "takana": 6554,
      "▁eighteen": 6555,
      "▁valley": 6556,
      "▁character": 6557,
      "▁street": 6558,
      "▁mh": 6559,
      "▁charlotte": 6560,
      "▁vod": 6561,
      "▁_": 6562,
      "▁sight": 6563,
      "1082": 6564,
      "▁delivered": 6565,
      "▁respect": 6566,
      "▁my": 6567,
      "▁ph": 6568,
      "▁subject": 6569,
      "▁when": 6570,
      "▁08/17/2000": 6571,
      "▁christmas": 6572,
      "▁1995": 6573,
      "▁soft": 6574,
      "▁1145": 6575,
      "algamiento": 6576,
      "▁extended": 6577,
      "▁cha": 6578,
      "▁1100": 6579,
      "▁dram": 6580,
      "ape": 6581,
      "▁96": 6582,
      "109": 6583,
      "allow": 6584,
      "▁violence": 6585,
      "====": 6586,
      "▁ash": 6587,
      "▁prime": 6588,
      "▁deals": 6589,
      "▁normally": 6590,
      "▁sources": 6591,
      "f": 6592,
      "▁energy": 6593,
      "five": 6594,
      "arm": 6595,
      "oms": 6596,
      "▁lake": 6597,
      "ires": 6598,
      "▁3,000": 6599,
      "▁interact": 6600,
      "▁10:25": 6601,
      "▁cod": 6602,
      ":13": 6603,
      "▁circle": 6604,
      "▁!!!!!!": 6605,
      "▁mexic": 6606,
      "****": 6607,
      "ld": 6608,
      "cceed": 6609,
      "▁pieces": 6610,
      "▁crit": 6611,
      "▁friend": 6612,
      "▁swe": 6613,
      "▁fe": 6614,
      "▁energ": 6615,
      "▁cruc": 6616,
      "az": 6617,
      "▁eighth": 6618,
      "▁chemical": 6619,
      "▁68": 6620,
      "▁mur": 6621,
      "oses": 6622,
      "0.doc": 6623,
      "ouble": 6624,
      "▁website": 6625,
      "just": 6626,
      "▁shell": 6627,
      "▁fr": 6628,
      "▁driver": 6629,
      "▁82": 6630,
      "▁wan": 6631,
      "orn": 6632,
      "▁0": 6633,
      "▁.": 6634,
      "▁lick": 6635,
      "eb": 6636,
      "▁detail": 6637,
      "iles": 6638,
      "▁poetry": 6639,
      "iw": 6640,
      "▁hosp": 6641,
      "/8": 6642,
      "▁anoder": 6643,
      "▁08/0": 6644,
      "▁uncle": 6645,
      "------": 6646,
      "gth": 6647,
      "dr": 6648,
      "▁still": 6649,
      "▁410-468-3": 6650,
      "▁green": 6651,
      "▁u.s.": 6652,
      "▁migr": 6653,
      "t": 6654,
      "▁student": 6655,
      "▁individuals": 6656,
      "▁below": 6657,
      "74": 6658,
      "£": 6659,
      "isb": 6660,
      "▁suggested": 6661,
      "ɑ": 6662,
      "▁collected": 6663,
      "▁202.456.1": 6664,
      "▁award": 6665,
      "[MASK]": 6666,
      "σ": 6667,
      "▁safety": 6668,
      "▁nandakk": 6669,
      "▁legislative": 6670,
      "▁candidate": 6671,
      "son": 6672,
      "▁constitution": 6673,
      "▁iii": 6674,
      "▁tuesday": 6675,
      "▁primary": 6676,
      "/9": 6677,
      ":07": 6678,
      "ror": 6679,
      "▁reform": 6680,
      "▁tul": 6681,
      "09": 6682,
      "▁alright": 6683,
      "▁authority": 6684,
      "tride": 6685,
      "iously": 6686,
      "▁us": 6687,
      "▁column": 6688,
      "▁bridge": 6689,
      "▁somewhat": 6690,
      "▁hot": 6691,
      "%": 6692,
      "sc": 6693,
      "▁secretary": 6694,
      "▁k": 6695,
      "up": 6696,
      "boy": 6697,
      "▁adopt": 6698,
      "▁political": 6699,
      "ending": 6700,
      "ted": 6701,
      "▁tec": 6702,
      "▁bea": 6703,
      ":01": 6704,
      "▁effort": 6705,
      "▁03:00": 6706,
      "▁app": 6707,
      "▁4.": 6708,
      "▁(b)": 6709,
      "▁person": 6710,
      "▁fl": 6711,
      "▁281-518": 6712,
      "▁alike": 6713,
      "▁analys": 6714,
      "ock": 6715,
      "▁1985": 6716,
      "▁1955": 6717,
      "▁son": 6718,
      "3-": 6719,
      "▁99": 6720,
      "/2005": 6721,
      "▁moreau": 6722,
      "▁80,000": 6723,
      "▁shop": 6724,
      "▁fifteen": 6725,
      "oun": 6726,
      "key": 6727,
      "▁gisb": 6728,
      "itable": 6729,
      "zing": 6730,
      "▁remained": 6731,
      "▁protection": 6732,
      "▁nineteen": 6733,
      "acio": 6734,
      "▁simp": 6735,
      "▁ident": 6736,
      "▁liquid": 6737,
      "▁piz": 6738,
      "▁suicide": 6739,
      "li": 6740,
      "▁270": 6741,
      "▁1220": 6742,
      "▁1820": 6743,
      "▁fairly": 6744,
      "▁555": 6745,
      "▁dom": 6746,
      "▁literature": 6747,
      "ural": 6748,
      "▁since": 6749,
      "▁degrees": 6750,
      "▁1530": 6751,
      "▁releases": 6752,
      "ingu": 6753,
      "▁val": 6754,
      "@enron": 6755,
      "▁mass": 6756,
      "▁joint": 6757,
      "ision": 6758,
      "▁opt": 6759,
      "-r": 6760,
      "▁bunny": 6761,
      "app": 6762,
      "▁ital": 6763,
      "▁faith": 6764,
      "▁economies": 6765,
      "▁worry": 6766,
      "▁waste": 6767,
      "▁collective": 6768,
      "▁cards": 6769,
      "▁uh": 6770,
      "▁expand": 6771,
      "▁visual": 6772,
      "ship": 6773,
      "▁rude": 6774,
      "▁1968": 6775,
      "▁corresp": 6776,
      "▁196": 6777,
      "▁process": 6778,
      "lf": 6779,
      "▁72": 6780,
      "▁windows": 6781,
      "▁out": 6782,
      "▁enforcement": 6783,
      "▁lem": 6784,
      "gill": 6785,
      "▁60": 6786,
      "▁ha": 6787,
      "▁+1": 6788,
      "▁test": 6789,
      "▁reply": 6790,
      "▁mountains": 6791,
      "▁fields": 6792,
      "▁tow": 6793,
      "▁share": 6794,
      "▁claimed": 6795,
      "▁kinda": 6796,
      "▁served": 6797,
      "▁mach": 6798,
      "ansas": 6799,
      "tra": 6800,
      "▁socks": 6801,
      "jo": 6802,
      "awah": 6803,
      "▁pool": 6804,
      "▁bread": 6805,
      "▁37": 6806,
      "▁755": 6807,
      "57": 6808,
      "▁action": 6809,
      "▁function": 6810,
      "▁somehow": 6811,
      "tern": 6812,
      "▁bac": 6813,
      "▁frank": 6814,
      "▁untill": 6815,
      "▁step": 6816,
      "▁mathem": 6817,
      "▁largest": 6818,
      "▁1787": 6819,
      "▁circ": 6820,
      "▁ire": 6821,
      "▁mission": 6822,
      "ologist": 6823,
      ".7": 6824,
      "▁corp": 6825,
      "▁chem": 6826,
      "▁spell": 6827,
      "ude": 6828,
      "▁seemed": 6829,
      "▁problem": 6830,
      "enge": 6831,
      "▁else": 6832,
      ".9": 6833,
      "▁finance": 6834,
      "▁143": 6835,
      "▁telling": 6836,
      "▁brows": 6837,
      "▁nations": 6838,
      "▁selection": 6839,
      "▁also": 6840,
      "▁dressed": 6841,
      "▁200": 6842,
      "▁sur": 6843,
      "▁whe": 6844,
      "▁joe": 6845,
      "▁mistake": 6846,
      "▁regard": 6847,
      "▁alive": 6848,
      "▁subsequ": 6849,
      "▁z": 6850,
      "▁>--------------------------------": 6851,
      "▁2012": 6852,
      "4014": 6853,
      "▁better": 6854,
      "▁regions": 6855,
      "let": 6856,
      "▁elections": 6857,
      "▁glasses": 6858,
      "e@enron": 6859,
      "49": 6860,
      "2.doc": 6861,
      "▁collect": 6862,
      "ransred": 6863,
      "▁seeing": 6864,
      "▁1932": 6865,
      "▁health": 6866,
      "▁option": 6867,
      "▁fort": 6868,
      "▁\"": 6869,
      "▁1835": 6870,
      "▁refuge": 6871,
      "ke": 6872,
      "▁ups": 6873,
      "gress": 6874,
      "▁1982": 6875,
      "▁no-6": 6876,
      "way": 6877,
      "▁constitu": 6878,
      "▁lank": 6879,
      "35": 6880,
      "▁flow": 6881,
      "▁form": 6882,
      "claim": 6883,
      "▁only": 6884,
      ":03": 6885,
      "▁11": 6886,
      "ached": 6887,
      "▁mid-": 6888,
      "▁guerre": 6889,
      "▁payment": 6890,
      "▁vernon": 6891,
      "▁degree": 6892,
      "▁beside": 6893,
      "▁10/2": 6894,
      "▁cake": 6895,
      "▁heat": 6896,
      "▁(c)": 6897,
      "▁priced": 6898,
      "---": 6899,
      "ateg": 6900,
      "▁play": 6901,
      "conn": 6902,
      "▁philadelp": 6903,
      "▁challenge": 6904,
      "▁hopefully": 6905,
      "▁06": 6906,
      "▁duck": 6907,
      "▁install": 6908,
      "▁emphas": 6909,
      "ief": 6910,
      "▁met": 6911,
      "图": 6912,
      "▁sus": 6913,
      "▁york": 6914,
      "ef": 6915,
      "­": 6916,
      "▁daughter": 6917,
      "8196021": 6918,
      "▁180": 6919,
      "io": 6920,
      "67": 6921,
      "▁percell": 6922,
      "▁execut": 6923,
      "▁trees": 6924,
      "rup": 6925,
      "▁crow": 6926,
      "▁section": 6927,
      "/30/2001": 6928,
      "▁fight": 6929,
      "gar": 6930,
      "▁pip": 6931,
      "▁tourist": 6932,
      "▁p.s": 6933,
      "▁avail": 6934,
      "▁may": 6935,
      ":50": 6936,
      "▁former": 6937,
      "▁village": 6938,
      "▁4:50": 6939,
      "▁ones": 6940,
      "79": 6941,
      "all": 6942,
      "equ": 6943,
      "▁1623": 6944,
      "▁thank": 6945,
      "▁tape": 6946,
      "isf": 6947,
      "▁distance": 6948,
      "▁lighting": 6949,
      "▁05/25/2001": 6950,
      "▁=)": 6951,
      "▁ben": 6952,
      "▁iodine": 6953,
      "▁off": 6954,
      "▁b/": 6955,
      "▁hors": 6956,
      "▁19": 6957,
      "▁appear": 6958,
      "▁jan": 6959,
      "ress": 6960,
      "▁spanish": 6961,
      "ong": 6962,
      "▁investment": 6963,
      "mony": 6964,
      "-4": 6965,
      "▁connect": 6966,
      "▁white": 6967,
      "__________": 6968,
      "▁713-853-1696": 6969,
      "ester": 6970,
      "▁informed": 6971,
      "▁ram": 6972,
      "▁employ": 6973,
      "▁blue": 6974,
      "og": 6975,
      "▁vince": 6976,
      "itt": 6977,
      "otted": 6978,
      "ammed": 6979,
      "▁ens": 6980,
      "▁sil": 6981,
      "▁bl": 6982,
      "nondelibreaten": 6983,
      "▁dipl": 6984,
      "▁egg": 6985,
      "▁e.": 6986,
      "urday": 6987,
      "▁helps": 6988,
      "========": 6989,
      "▁c.": 6990,
      ",008": 6991,
      "red": 6992,
      "▁south": 6993,
      "och": 6994,
      "▁'s": 6995,
      "stem": 6996,
      "▁1696": 6997,
      "▁birth": 6998,
      "▁rese": 6999,
      "▁sell": 7000,
      "▁speaking": 7001,
      "▁1836": 7002,
      "▁projects": 7003,
      "▁freedom": 7004,
      "▁theatre": 7005,
      "ency": 7006,
      "▁430": 7007,
      "▁aside": 7008,
      "łod": 7009,
      "unte": 7010,
      "▁wa": 7011,
      "▁makes": 7012,
      "▁steph": 7013,
      "▁pour": 7014,
      "▁eighty": 7015,
      "▁expression": 7016,
      "▁mental": 7017,
      "▁twenty-two": 7018,
      "▁amb": 7019,
      "▁emergency": 7020,
      "▁whether": 7021,
      "▁???": 7022,
      "▁ends": 7023,
      "uck": 7024,
      "▁315-460-3": 7025,
      "▁1945": 7026,
      "▁und": 7027,
      "kin": 7028,
      "▁+45": 7029,
      "▁cc": 7030,
      "ag": 7031,
      "ery": 7032,
      "▁bag": 7033,
      "▁useful": 7034,
      "▁tor": 7035,
      "▁1843": 7036,
      "▁schedule": 7037,
      "▁---->===": 7038,
      "ilar": 7039,
      "▁present": 7040,
      "ared": 7041,
      "▁樋": 7042,
      "▁competition": 7043,
      "▁asian": 7044,
      "▁opportun": 7045,
      "▁towns": 7046,
      "bar": 7047,
      "▁drawing": 7048,
      "▁diplom": 7049,
      "▁ltte": 7050,
      "uments": 7051,
      "idd": 7052,
      "▁1958": 7053,
      "ortun": 7054,
      "▁mod": 7055,
      "ross": 7056,
      "▁regarding": 7057,
      ":56": 7058,
      "ital": 7059,
      "ibald": 7060,
      "▁besid": 7061,
      "▁without": 7062,
      "teen": 7063,
      "▁str": 7064,
      "90": 7065,
      "▁wow": 7066,
      "▁pain": 7067,
      "▁210": 7068,
      "▁vice": 7069,
      "▁feeling": 7070,
      "osh": 7071,
      "▁published": 7072,
      "iness": 7073,
      "▁open": 7074,
      "27": 7075,
      "▁giv": 7076,
      "▁abe": 7077,
      "▁07": 7078,
      "▁motion": 7079,
      "teboo": 7080,
      "▁possible": 7081,
      "▁lived": 7082,
      "▁sally": 7083,
      "rant": 7084,
      "onom": 7085,
      "▁spring": 7086,
      "▁decade": 7087,
      "▁pun": 7088,
      "enes": 7089,
      ".70": 7090,
      "sa": 7091,
      "▁aware": 7092,
      "▁mean": 7093,
      "eo": 7094,
      "▁pric": 7095,
      "▁hope": 7096,
      "▁prom": 7097,
      "·": 7098,
      "▁cr": 7099,
      "▁attend": 7100,
      "▁hotel": 7101,
      "▁bigger": 7102,
      "uch": 7103,
      "▁going": 7104,
      "▁plus": 7105,
      "▁link": 7106,
      "▁turkey": 7107,
      "▁rooms": 7108,
      "13": 7109,
      "▁1849": 7110,
      "▁severe": 7111,
      "▁a.m.": 7112,
      "▁differences": 7113,
      "▁tied": 7114,
      "▁log": 7115,
      "osition": 7116,
      "▁lim": 7117,
      "▁2.3": 7118,
      "▁num": 7119,
      "▁result": 7120,
      "▁lol": 7121,
      "▁began": 7122,
      "word": 7123,
      "ipp": 7124,
      "ain": 7125,
      "▁cons": 7126,
      ",000,000": 7127,
      "▁movie": 7128,
      "▁fif": 7129,
      "re": 7130,
      "▁peters": 7131,
      "▁hands": 7132,
      "▁incred": 7133,
      "aves": 7134,
      "▁50,000": 7135,
      "▁prove": 7136,
      "▁construction": 7137,
      "▁61": 7138,
      "▁speech": 7139,
      "▁1984": 7140,
      "▁deb": 7141,
      "▁norm": 7142,
      "▁202": 7143,
      "▁experi": 7144,
      "osed": 7145,
      "▁voices": 7146,
      "ason": 7147,
      "▁thomas": 7148,
      "▁getting": 7149,
      "what": 7150,
      "▁pressure": 7151,
      "▁allowed": 7152,
      "▁requirements": 7153,
      "alo": 7154,
      "▁e.g.": 7155,
      "▁and": 7156,
      "▁per": 7157,
      "▁36": 7158,
      "7/2000": 7159,
      "ious": 7160,
      "▁prices": 7161,
      "▁supposed": 7162,
      "▁vir": 7163,
      "▁shake": 7164,
      "▁attrib": 7165,
      "▁conver": 7166,
      "▁work": 7167,
      "ul": 7168,
      "▁pittsburgh": 7169,
      "▁forty": 7170,
      "▁walls": 7171,
      "▁3/4": 7172,
      "▁scan": 7173,
      "▁honey": 7174,
      "▁earliest": 7175,
      "▁unlike": 7176,
      "▁832": 7177,
      "▁determin": 7178,
      "▁by": 7179,
      "ves": 7180,
      "▁dando": 7181,
      "▁republican": 7182,
      "▁pittsbur": 7183,
      "els": 7184,
      "▁tulsa": 7185,
      "▁269": 7186,
      "▁achie": 7187,
      "▁sea": 7188,
      "▁conditions": 7189,
      "uff": 7190,
      "▁way": 7191,
      "-d": 7192,
      "▁5000": 7193,
      "▁'0": 7194,
      "ernobyl": 7195,
      ":24": 7196,
      "ing": 7197,
      "mo": 7198,
      "▁exhib": 7199,
      "▁learn": 7200,
      "▁minn": 7201,
      "▁pump": 7202,
      "▁dirty": 7203,
      "▁420": 7204,
      "▁express": 7205,
      "▁manuf": 7206,
      "▁kick": 7207,
      "▁5.3": 7208,
      "▁fus": 7209,
      "▁pretend": 7210,
      "▁12:3": 7211,
      "▁button": 7212,
      "ek": 7213,
      "▁3.5": 7214,
      "▁lives": 7215,
      "ʁ": 7216,
      "▁11:30": 7217,
      "/17/2000": 7218,
      "▁puppy": 7219,
      "▁princ": 7220,
      "▁marked": 7221,
      "▁s": 7222,
      "▁dogs": 7223,
      "▁february": 7224,
      "▁bath": 7225,
      "▁adm": 7226,
      "▁sat": 7227,
      "▁facts": 7228,
      "▁713-654-128": 7229,
      "ir": 7230,
      "▁suddenly": 7231,
      "▁question": 7232,
      "▁1561": 7233,
      "▁ciao": 7234,
      "int": 7235,
      "▁3.8": 7236,
      "ount": 7237,
      "ering": 7238,
      "iii": 7239,
      "▁bought": 7240,
      "▁hung": 7241,
      "vant": 7242,
      "▁exerc": 7243,
      "using": 7244,
      "uc": 7245,
      "ated": 7246,
      "▁signs": 7247,
      "▁ru": 7248,
      "kins": 7249,
      "▁ride": 7250,
      "/": 7251,
      "▁mush": 7252,
      "▁1594": 7253,
      "▁shirt": 7254,
      "▁hello": 7255,
      "▁diversity": 7256,
      "▁england": 7257,
      "▁weekend": 7258,
      "▁liqu": 7259,
      "**": 7260,
      "▁others": 7261,
      "▁713-8": 7262,
      "▁manag": 7263,
      "▁really": 7264,
      "▁afghanistan": 7265,
      "▁always": 7266,
      "hin": 7267,
      "▁646": 7268,
      "▁perman": 7269,
      "▁ing": 7270,
      "▁pm": 7271,
      "▁ideas": 7272,
      "▁brief": 7273,
      "▁connection": 7274,
      "▁guess": 7275,
      "ited": 7276,
      "▁rates": 7277,
      "▁tel": 7278,
      "▁strongly": 7279,
      "iber": 7280,
      "▁reg": 7281,
      "▁ul": 7282,
      "other": 7283,
      "▁fork": 7284,
      "▁pers": 7285,
      "▁✉": 7286,
      "▁might": 7287,
      "80": 7288,
      "▁deal": 7289,
      "▁crisis": 7290,
      "▁110": 7291,
      "▁320": 7292,
      "▁edge": 7293,
      "▁regulation": 7294,
      "▁====================================================": 7295,
      "▁park": 7296,
      "▁abs": 7297,
      "▁tree": 7298,
      "587": 7299,
      "▁equipment": 7300,
      "itions": 7301,
      "▁noise": 7302,
      "▁saudi": 7303,
      "▁grounds": 7304,
      "atively": 7305,
      "▁includes": 7306,
      "▁owners": 7307,
      "▁somewhere": 7308,
      "fl": 7309,
      "119": 7310,
      "▁conference": 7311,
      "▁season": 7312,
      ":28": 7313,
      "▁1599": 7314,
      "▁cultural": 7315,
      "▁history": 7316,
      "▁2005": 7317,
      "mber": 7318,
      "▁game": 7319,
      "津": 7320,
      "▁starting": 7321,
      "ism": 7322,
      "▁!!!!!": 7323,
      "▁accident": 7324,
      "▁sandwich": 7325,
      "▁ric": 7326,
      "▁minneapolis": 7327,
      "▁na": 7328,
      "▁museum": 7329,
      "▁construct": 7330,
      "ase": 7331,
      "▁been": 7332,
      "bha": 7333,
      "▁robert": 7334,
      "▁1992": 7335,
      "▁1588": 7336,
      "yond": 7337,
      "ρ": 7338,
      "▁supreme": 7339,
      "de": 7340,
      "▁regular": 7341,
      "phere": 7342,
      "▁1110": 7343,
      "200": 7344,
      "▁stren": 7345,
      "▁gh": 7346,
      "▁2,": 7347,
      "o": 7348,
      "▁idea": 7349,
      "▁disaster": 7350,
      "ω": 7351,
      "▁seen": 7352,
      "ploy": 7353,
      "ara": 7354,
      "ward": 7355,
      "▁exhibit": 7356,
      "▁narrow": 7357,
      "▁tradition": 7358,
      "▁1875": 7359,
      "▁trouble": 7360,
      "▁11:32": 7361,
      "ties": 7362,
      "▁pilot": 7363,
      "▁inqu": 7364,
      "▁zoo": 7365,
      ".net": 7366,
      "ros": 7367,
      "▁needs": 7368,
      "oulder": 7369,
      "▁vacation": 7370,
      "▁asia": 7371,
      "▁discussion": 7372,
      ">": 7373,
      "▁implementing": 7374,
      "▁financial": 7375,
      "▁later": 7376,
      "▁muslim": 7377,
      "▁speaker": 7378,
      "▁gordon": 7379,
      "▁accurate": 7380,
      "▁recru": 7381,
      "▁face": 7382,
      "▁mc": 7383,
      "sey": 7384,
      "▁rad": 7385,
      "口": 7386,
      "▁strict": 7387,
      "▁exactly": 7388,
      "▁2,500": 7389,
      "▁wand": 7390,
      "▁bud": 7391,
      "▁suit": 7392,
      "▁minus": 7393,
      "▁bassiana": 7394,
      "▁salon": 7395,
      "oni": 7396,
      "ather": 7397,
      "▁pan": 7398,
      "ackl": 7399,
      "ual": 7400,
      "▁tra": 7401,
      "▁der": 7402,
      "▁cru": 7403,
      "▁sports": 7404,
      "omm": 7405,
      "▁types": 7406,
      "▁records": 7407,
      "▁higher": 7408,
      "uals": 7409,
      "▁heard": 7410,
      "▁ded": 7411,
      "rans": 7412,
      "▁reject": 7413,
      "oose": 7414,
      "del": 7415,
      "▁sad": 7416,
      "▁infl": 7417,
      "▁andril": 7418,
      "▁your": 7419,
      "▁agriculture": 7420,
      "▁fantastic": 7421,
      "amp": 7422,
      "ens": 7423,
      "▁rout": 7424,
      "▁proud": 7425,
      "▁10/26/2000": 7426,
      "▁books": 7427,
      "▁super": 7428,
      "▁450": 7429,
      "abor": 7430,
      "▁same": 7431,
      "atically": 7432,
      "▁trust": 7433,
      "▁led": 7434,
      "▁j.doc": 7435,
      "▁ord": 7436,
      "going": 7437,
      "▁130": 7438,
      "▁answ": 7439,
      "▁seek": 7440,
      "▁blog": 7441,
      "▁myself": 7442,
      "▁scared": 7443,
      "▁wide": 7444,
      "▁?!": 7445,
      "▁wars": 7446,
      "▁bet": 7447,
      "▁acc": 7448,
      "▁713/": 7449,
      "ss": 7450,
      "▁thurs": 7451,
      "一": 7452,
      "umble": 7453,
      "▁sw": 7454,
      "▁restaur": 7455,
      "na": 7456,
      "▁thousands": 7457,
      "▁cost": 7458,
      "▁dol": 7459,
      "▁cur": 7460,
      "▁therefore": 7461,
      "▁road": 7462,
      "ken": 7463,
      "▁rent": 7464,
      "▁___________": 7465,
      "▁self": 7466,
      "▁attention": 7467,
      "▁beat": 7468,
      "▁spr": 7469,
      "▁opp": 7470,
      "inger": 7471,
      "▁swing": 7472,
      "ently": 7473,
      "tejo": 7474,
      "▁organization": 7475,
      "▁similar": 7476,
      "▁iran": 7477,
      "▁fem": 7478,
      "▁sch": 7479,
      "▁stud": 7480,
      "▁1593": 7481,
      "▁..": 7482,
      "▁fool": 7483,
      "oh": 7484,
      ":17": 7485,
      "▁pillow": 7486,
      "amb": 7487,
      "▁new": 7488,
      "▁6": 7489,
      "▁ocho": 7490,
      "▁associated": 7491,
      "▁excel": 7492,
      "▁focus": 7493,
      "▁11/7/08": 7494,
      "▁wet": 7495,
      "▁01/19/2001": 7496,
      "▁skin": 7497,
      "▁chicago": 7498,
      "▁goal": 7499,
      "▁mary": 7500,
      "▁repres": 7501,
      "▁exercise": 7502,
      "▁theory": 7503,
      "itely": 7504,
      "0th": 7505,
      "▁corporate": 7506,
      "▁stipulation": 7507,
      "92": 7508,
      "▁escape": 7509,
      ",6": 7510,
      "▁pleasure": 7511,
      "▁matters": 7512,
      "▁boy": 7513,
      "▁nine": 7514,
      "▁ron": 7515,
      "▁port": 7516,
      "▁nam": 7517,
      "ool": 7518,
      "▁stock": 7519,
      "▁3-5": 7520,
      "▁atop": 7521,
      "k.ur": 7522,
      "▁20,000": 7523,
      "vern": 7524,
      "▁movement": 7525,
      "▁need": 7526,
      "ze": 7527,
      "▁thus": 7528,
      "▁man": 7529,
      "▁miami": 7530,
      "fully": 7531,
      "▁services": 7532,
      "▁w/": 7533,
      "▁arms": 7534,
      "▁m": 7535,
      "alth": 7536,
      ".95": 7537,
      "▁st": 7538,
      "▁1505": 7539,
      "k": 7540,
      "▁interest": 7541,
      "▁request": 7542,
      "▁content": 7543,
      "iding": 7544,
      "▁properly": 7545,
      "▁chickens": 7546,
      "▁band": 7547,
      "▁university": 7548,
      "▁fo": 7549,
      "▁host": 7550,
      "▁09": 7551,
      "▁205": 7552,
      "▁experiences": 7553,
      ".": 7554,
      "▁auth": 7555,
      "▁camera": 7556,
      "ham": 7557,
      "▁315": 7558,
      "tain": 7559,
      "hold": 7560,
      "▁aid": 7561,
      "ump": 7562,
      "▁carolina": 7563,
      "▁sem": 7564,
      "▁:d": 7565,
      "▁within": 7566,
      "▁anywhere": 7567,
      "▁exc": 7568,
      "▁finish": 7569,
      "▁choice": 7570,
      "▁wrap": 7571,
      "▁tennessee": 7572,
      "ote": 7573,
      "▁aff": 7574,
      "▁sense": 7575,
      "▁options": 7576,
      "▁934": 7577,
      "201": 7578,
      "▁week": 7579,
      "▁member": 7580,
      "▁birds": 7581,
      "ifying": 7582,
      "▁gener": 7583,
      "uk": 7584,
      "▁condition": 7585,
      "ac": 7586,
      "▁plays": 7587,
      "▁belong": 7588,
      "!!": 7589,
      "fore": 7590,
      "al": 7591,
      "vey": 7592,
      "▁activity": 7593,
      "kes": 7594,
      "▁+": 7595,
      "▁west": 7596,
      "▁je": 7597,
      "▁re-": 7598,
      "▁1765": 7599,
      "▁nana": 7600,
      "▁goo": 7601,
      "▁garage": 7602,
      "▁phoenix": 7603,
      "▁sha": 7604,
      "▁revised": 7605,
      "▁fast": 7606,
      "ancing": 7607,
      "▁cal": 7608,
      "▁enron": 7609,
      "omet": 7610,
      "▁easier": 7611,
      "istic": 7612,
      "▁flo": 7613,
      "hip": 7614,
      "ried": 7615,
      "▁425": 7616,
      "▁163": 7617,
      "▁747": 7618,
      "▁bowl": 7619,
      "uary": 7620,
      "▁lee": 7621,
      "▁pericles": 7622,
      "▁decisions": 7623,
      "eur": 7624,
      "ollow": 7625,
      "▁cap": 7626,
      "ught": 7627,
      "▁ven": 7628,
      "▁pleas": 7629,
      "▁khinss": 7630,
      "▁developing": 7631,
      "▁des": 7632,
      "-5": 7633,
      "▁conclud": 7634,
      "_": 7635,
      "▁copyright": 7636,
      "▁dw": 7637,
      "-12": 7638,
      "7.77": 7639,
      "bo": 7640,
      "▁eye": 7641,
      "▁1929": 7642,
      "ny": 7643,
      "▁brought": 7644,
      "▁1605": 7645,
      "▁release": 7646,
      "▁terror": 7647,
      "zz": 7648,
      "▁fax": 7649,
      "ession": 7650,
      "空": 7651,
      "▁sleep": 7652,
      "ble": 7653,
      "▁nin": 7654,
      "▁part": 7655,
      "il": 7656,
      "illing": 7657,
      "▁haf": 7658,
      "▁betw": 7659,
      "▁falls": 7660,
      "▁-%": 7661,
      "ases": 7662,
      "▁firm": 7663,
      "▁ability": 7664,
      "illion": 7665,
      "▁adop": 7666,
      "▁themselves": 7667,
      "▁3.": 7668,
      "▁yet": 7669,
      "▁fares": 7670,
      "iking": 7671,
      "▁dise": 7672,
      "▁comes": 7673,
      "▁buck": 7674,
      "▁lists": 7675,
      "gel": 7676,
      "ills": 7677,
      "▁twice": 7678,
      "▁09/16": 7679,
      "▁surprised": 7680,
      ":37": 7681,
      "▁quote": 7682,
      "▁922": 7683,
      "++++": 7684,
      "▁mar": 7685,
      "▁item": 7686,
      "actions": 7687,
      "▁nuclear": 7688,
      "▁furn": 7689,
      "▁cent": 7690,
      "▁imm": 7691,
      "▁07/1": 7692,
      "▁knock": 7693,
      "▁notwithstand": 7694,
      "ands": 7695,
      "ered": 7696,
      "raf": 7697,
      "imin": 7698,
      "▁traveling": 7699,
      "▁search": 7700,
      "▁were": 7701,
      "▁pal": 7702,
      "8/2000": 7703,
      "▁desc": 7704,
      "▁spain": 7705,
      "greg": 7706,
      "--": 7707,
      "▁tast": 7708,
      "▁prosper": 7709,
      "▁02-0": 7710,
      "▁relationship": 7711,
      "▁gender": 7712,
      "icient": 7713,
      "ana": 7714,
      "▁sub": 7715,
      "▁goods": 7716,
      "▁bask": 7717,
      "▁aft": 7718,
      "▁russia": 7719,
      "▁240": 7720,
      "ating": 7721,
      "▁entertain": 7722,
      "▁guys": 7723,
      "▁done": 7724,
      "▁herself": 7725,
      "jam": 7726,
      ")": 7727,
      "▁devil": 7728,
      "▁lock": 7729,
      "▁fur": 7730,
      "▁waiting": 7731,
      "osoph": 7732,
      "▁prof": 7733,
      "▁pred": 7734,
      "▁atmos": 7735,
      "athers": 7736,
      "▁film": 7737,
      "▁alle": 7738,
      "min": 7739,
      "▁ah": 7740,
      "▁xv": 7741,
      "▁rose": 7742,
      "▁instead": 7743,
      "▁jul": 7744,
      "▁system": 7745,
      "line": 7746,
      "▁ky": 7747,
      "▁peop": 7748,
      "▁horses": 7749,
      "▁modern": 7750,
      "▁1950": 7751,
      "rew": 7752,
      "▁din": 7753,
      "ament": 7754,
      "▁prior": 7755,
      "▁une": 7756,
      "▁ku": 7757,
      "▁daddy": 7758,
      "▁opportunities": 7759,
      "▁forty-eight": 7760,
      "▁doughnut": 7761,
      "▁schools": 7762,
      "▁mail": 7763,
      "▁scr": 7764,
      "▁adjust": 7765,
      "▁flies": 7766,
      "▁law": 7767,
      "▁troops": 7768,
      "▁sara": 7769,
      "ity": 7770,
      "acts": 7771,
      "▁complex": 7772,
      "▁1983": 7773,
      "▁tend": 7774,
      "▁addiction": 7775,
      "▁land": 7776,
      "▁flash": 7777,
      "▁glo": 7778,
      "▁two": 7779,
      "▁tie": 7780,
      "▁given": 7781,
      "▁poss": 7782,
      "▁1.6": 7783,
      "porary": 7784,
      "▁either": 7785,
      ".6": 7786,
      "8549": 7787,
      "▁c": 7788,
      "▁cause": 7789,
      "▁g": 7790,
      "▁300,000": 7791,
      "▁&amp;": 7792,
      "▁1611": 7793,
      "▁sign": 7794,
      "▁67": 7795,
      "▁phot": 7796,
      "ius": 7797,
      "ued": 7798,
      "▁yard": 7799,
      "▁____________________________________________________________": 7800,
      "▁commissioner": 7801,
      "▁spin": 7802,
      "ons": 7803,
      "▁jud": 7804,
      "▁numbers": 7805,
      "xic": 7806,
      "▁ut": 7807,
      "odes": 7808,
      "ities": 7809,
      "▁propos": 7810,
      "▁7484": 7811,
      ".916.718": 7812,
      "▁unemploy": 7813,
      "▁22": 7814,
      "pr": 7815,
      "▁price": 7816,
      "-p": 7817,
      "▁asked": 7818,
      "▁career": 7819,
      "▁2,000": 7820,
      "aps": 7821,
      "▁developed": 7822,
      "▁2022": 7823,
      "▁mark": 7824,
      "▁weather": 7825,
      "▁palest": 7826,
      "▁cupc": 7827,
      "▁include": 7828,
      "▁another": 7829,
      "▁active": 7830,
      "▁1975": 7831,
      "▁ballet": 7832,
      "66": 7833,
      "ex": 7834,
      "▁research": 7835,
      "▁comm": 7836,
      "▁meas": 7837,
      "▁region": 7838,
      "▁canada": 7839,
      "ulated": 7840,
      "▁meaning": 7841,
      "▁220": 7842,
      "▁http://www.": 7843,
      "ift": 7844,
      "▁appointment": 7845,
      "ς": 7846,
      "sl": 7847,
      "▁serving": 7848,
      "▁choose": 7849,
      "iling": 7850,
      "ield": 7851,
      "▁got": 7852,
      "iter": 7853,
      "▁ill": 7854,
      "°": 7855,
      "▁713-654-03": 7856,
      "ard": 7857,
      "▁hug": 7858,
      "-991-9": 7859,
      "▁kill": 7860,
      ".676": 7861,
      "gely": 7862,
      "te": 7863,
      "ott": 7864,
      "▁imagine": 7865,
      "▁campa": 7866,
      "ch": 7867,
      "▁11:16": 7868,
      "▁field": 7869,
      "▁balloon": 7870,
      "▁sugg": 7871,
      "▁covered": 7872,
      "▁wheel": 7873,
      "neath": 7874,
      "▁civil": 7875,
      "▁relatively": 7876,
      "▁liber": 7877,
      "76": 7878,
      "▁where": 7879,
      "▁rh": 7880,
      "▁lea": 7881,
      "▁pure": 7882,
      "▁sin": 7883,
      "▁terrorist": 7884,
      "▁promised": 7885,
      "▁cens": 7886,
      "▁forster": 7887,
      "▁fusca": 7888,
      "▁healthy": 7889,
      "▁americans": 7890,
      "▁houston": 7891,
      "▁territ": 7892,
      "▁begun": 7893,
      "▁richard": 7894,
      "▁r": 7895,
      "▁importance": 7896,
      "▁400": 7897,
      "ilit": 7898,
      "▁of": 7899,
      "▁cop": 7900,
      "▁los": 7901,
      "▁operators": 7902,
      "rec": 7903,
      "▁recall": 7904,
      "▁sample": 7905,
      "▁galois": 7906,
      "▁bir": 7907,
      "▁ra": 7908,
      "▁louis": 7909,
      "▁85": 7910,
      "▁1988": 7911,
      "▁oce": 7912,
      "▁ale": 7913,
      "================": 7914,
      "32": 7915,
      "▁amendment": 7916,
      "▁assistance": 7917,
      "▁john": 7918,
      "▁perfect": 7919,
      "▁conv": 7920,
      "dy": 7921,
      "▁swww": 7922,
      "▁setting": 7923,
      "ob": 7924,
      "▁base": 7925,
      "▁states": 7926,
      "▁!!!!!!!": 7927,
      "▁indust": 7928,
      "▁bray": 7929,
      "▁older": 7930,
      "▁central": 7931,
      "kk": 7932,
      "▁motor": 7933,
      "▁39": 7934,
      "▁??": 7935,
      "▁fine": 7936,
      "▁du": 7937,
      "▁believe": 7938,
      "▁1805": 7939,
      "fare": 7940,
      "▁2.7": 7941,
      "▁announced": 7942,
      "▁beg": 7943,
      "▁24.7": 7944,
      "▁able": 7945,
      "▁lo": 7946,
      "▁currency": 7947,
      "▁fire": 7948,
      "▁ft": 7949,
      "▁urs": 7950,
      "▁2:00": 7951,
      "▁ref": 7952,
      "ution": 7953,
      "▁store": 7954,
      "▁questions": 7955,
      "▁hit": 7956,
      "▁attached": 7957,
      "ned": 7958,
      "▁sustain": 7959,
      "life": 7960,
      "▁slowly": 7961,
      "▁viet": 7962,
      "▁prod": 7963,
      "▁wedding": 7964,
      "▁744": 7965,
      "ues": 7966,
      "▁negative": 7967,
      "▁watched": 7968,
      "▁favour": 7969,
      "29": 7970,
      "▁1819": 7971,
      "bc": 7972,
      "leg": 7973,
      "▁0.00": 7974,
      "▁throat": 7975,
      "▁tired": 7976,
      "▁tent": 7977,
      "ired": 7978,
      "▁medicine": 7979,
      "▁713-853-3989": 7980,
      "per": 7981,
      "▁fright": 7982,
      "▁cathol": 7983,
      "atory": 7984,
      "-7": 7985,
      "iat": 7986,
      "▁teaching": 7987,
      "▁feet": 7988,
      "▁considering": 7989,
      "▁12,000": 7990,
      "▁smaller": 7991,
      "ook": 7992,
      "eapolis": 7993,
      "υ": 7994,
      "olog": 7995,
      "▁n'": 7996,
      "ath": 7997,
      "▁improve": 7998,
      "▁—": 7999,
      "▁quick": 8000,
      "▁absor": 8001,
      "▁11-20-2000": 8002,
      "▁even": 8003,
      "elly": 8004,
      "▁yours": 8005,
      "▁toy": 8006,
      "▁reflect": 8007,
      "▁depending": 8008,
      "▁operations": 8009,
      "▁plan": 8010,
      "▁x": 8011,
      "▁pre": 8012,
      "▁an": 8013,
      "▁bike": 8014,
      "▁visa": 8015,
      "▁side": 8016,
      "________________": 8017,
      "▁march": 8018,
      "▁apart": 8019,
      "▁888": 8020,
      "▁seems": 8021,
      "▁pulled": 8022,
      "▁answered": 8023,
      "▁insp": 8024,
      "▁october": 8025,
      "▁dance": 8026,
      "☏": 8027,
      "▁lady": 8028,
      "▁summ": 8029,
      "▁sl": 8030,
      "__": 8031,
      "▁breat": 8032,
      "▁teeth": 8033,
      "df": 8034,
      "...": 8035,
      "▁trade": 8036,
      "▁providing": 8037,
      "ent": 8038,
      "▁arch": 8039,
      "airs": 8040,
      ".c": 8041,
      "▁felt": 8042,
      "ides": 8043,
      "▁disp": 8044,
      "/97": 8045,
      "ices": 8046,
      "▁d'": 8047,
      "▁taliban": 8048,
      "ids": 8049,
      "▁miss": 8050,
      "▁animals": 8051,
      "▁anglo": 8052,
      "▁770": 8053,
      "ident": 8054,
      "▁pol": 8055,
      "ry": 8056,
      "▁16": 8057,
      "▁eu": 8058,
      "▁weeks": 8059,
      "▁grab": 8060,
      "esh": 8061,
      "iere": 8062,
      "▁460": 8063,
      "古": 8064,
      "▁conce": 8065,
      "▁bas": 8066,
      "▁730": 8067,
      "▁benefits": 8068,
      "▁money": 8069,
      "▁wonder": 8070,
      "kn": 8071,
      "▁5/1": 8072,
      ".713.86": 8073,
      "ique": 8074,
      "▁gen": 8075,
      "▁rele": 8076,
      "▁element": 8077,
      "▁hers": 8078,
      "▁1603": 8079,
      "▁217": 8080,
      "----": 8081,
      "--------------------------------": 8082,
      "i": 8083,
      "▁343": 8084,
      "▁o": 8085,
      "▁client": 8086,
      "▁schol": 8087,
      "|": 8088,
      "▁73": 8089,
      "nondel": 8090,
      "▁04/30/2001": 8091,
      "self": 8092,
      "▁rural": 8093,
      "▁al": 8094,
      "▁mohammed": 8095,
      "▁decades": 8096,
      "▁species": 8097,
      "elines": 8098,
      "▁90": 8099,
      "▁1614": 8100,
      "▁stuff": 8101,
      "▁between": 8102,
      "burg": 8103,
      "▁capacity": 8104,
      "▁alread": 8105,
      "cel": 8106,
      "▁ur": 8107,
      "▁liked": 8108,
      "▁music": 8109,
      "▁buying": 8110,
      "ute": 8111,
      "▁admin": 8112,
      "▁indic": 8113,
      "▁rich": 8114,
      "▁dir": 8115,
      "elp": 8116,
      "▁2.6": 8117,
      "▁2008": 8118,
      "@enron_de": 8119,
      "▁issued": 8120,
      "▁balls": 8121,
      "▁proposed": 8122,
      "▁marsh": 8123,
      "ipt": 8124,
      "ocr": 8125,
      "▁underneath": 8126,
      "aters": 8127,
      "▁gather": 8128,
      "no": 8129,
      "▁1222": 8130,
      "▁water": 8131,
      "47": 8132,
      "▁aspects": 8133,
      "▁guarant": 8134,
      "▁emp": 8135,
      "▁convention": 8136,
      "ll": 8137,
      "▁1840": 8138,
      "▁helped": 8139,
      "▁gi": 8140,
      "▁cara": 8141,
      "▁6:30": 8142,
      "▁alt.animals": 8143,
      "▁1967": 8144,
      "▁critics": 8145,
      "▁according": 8146,
      "▁youn": 8147,
      "▁perform": 8148,
      "▁vac": 8149,
      "▁1701": 8150,
      "▁administration": 8151,
      "▁add": 8152,
      "ios": 8153,
      "▁henry": 8154,
      "▁denver": 8155,
      "▁var": 8156,
      "▁reach": 8157,
      "lim": 8158,
      "▁fant": 8159,
      "▁parking": 8160,
      "87": 8161,
      "▁3.1": 8162,
      "▁born": 8163,
      "▁315-460-33": 8164,
      "295": 8165,
      "▁bur": 8166,
      "▁markets": 8167,
      "/03": 8168,
      "▁rest": 8169,
      "▁ble": 8170,
      "ellig": 8171,
      "fri": 8172,
      "▁australia": 8173,
      "▁stores": 8174,
      "▁friday": 8175,
      "▁ant": 8176,
      "▁positive": 8177,
      "▁guarantee": 8178,
      "▁207": 8179,
      "iled": 8180,
      "▁capt": 8181,
      "▁someone": 8182,
      "▁416-865-370": 8183,
      "▁contin": 8184,
      "▁serious": 8185,
      "▁d.": 8186,
      "▁7:00": 8187,
      "ental": 8188,
      "ames": 8189,
      "▁seat": 8190,
      "▁!!!!!!!!!!!!!": 8191
    },
    "merges": [
      [
        "▁econom",
        "y"
      ],
      [
        "▁_________________________________",
        "________________"
      ],
      [
        "-",
        "435"
      ],
      [
        "▁ob",
        "v"
      ],
      [
        "ic",
        "ult"
      ],
      [
        "es",
        "c"
      ],
      [
        "▁ch",
        "ange"
      ],
      [
        "▁gr",
        "ound"
      ],
      [
        "i",
        "ff"
      ],
      [
        "▁fift",
        "een"
      ],
      [
        "▁di",
        "vers"
      ],
      [
        "▁pret",
        "end"
      ],
      [
        "u",
        "l"
      ],
      [
        "▁ro",
        "ot"
      ],
      [
        "▁7",
        "7"
      ],
      [
        "ee",
        "ze"
      ],
      [
        "ac",
        "le"
      ],
      [
        "▁41",
        "2"
      ],
      [
        "▁stud",
        "y"
      ],
      [
        "▁[",
        "..."
      ],
      [
        "anc",
        "y"
      ],
      [
        "▁4",
        ":00"
      ],
      [
        "▁vis",
        "it"
      ],
      [
        "▁breat",
        "h"
      ],
      [
        "ott",
        "ed"
      ],
      [
        "i",
        "ar"
      ],
      [
        "vil",
        "le"
      ],
      [
        "▁research",
        "ers"
      ],
      [
        "▁.",
        "!"
      ],
      [
        "▁spok",
        "en"
      ],
      [
        "▁it",
        "'s"
      ],
      [
        "▁da",
        "ily"
      ],
      [
        "▁se",
        "ver"
      ],
      [
        "▁w",
        "ife"
      ],
      [
        "▁h",
        "om"
      ],
      [
        "▁=",
        ")"
      ],
      [
        ":5",
        "7"
      ],
      [
        "▁phys",
        "ical"
      ],
      [
        "▁le",
        "an"
      ],
      [
        "▁l",
        "ess"
      ],
      [
        "▁159",
        "4"
      ],
      [
        "▁p",
        "ock"
      ],
      [
        "amp",
        "a"
      ],
      [
        "▁>--------------------------------",
        "--------------------------------------------"
      ],
      [
        "it",
        "s"
      ],
      [
        "uct",
        "ion"
      ],
      [
        "▁where",
        "as"
      ],
      [
        "-",
        "4"
      ],
      [
        "j",
        "am"
      ],
      [
        "▁łod",
        "z"
      ],
      [
        "▁ur",
        "ban"
      ],
      [
        "▁contin",
        "ued"
      ],
      [
        ":",
        "13"
      ],
      [
        "▁be",
        "en"
      ],
      [
        "▁st",
        "art"
      ],
      [
        "▁2",
        "0"
      ],
      [
        "▁prom",
        "ise"
      ],
      [
        "▁assem",
        "b"
      ],
      [
        "▁exp",
        "er"
      ],
      [
        "▁t",
        "ampa"
      ],
      [
        "▁num",
        "ber"
      ],
      [
        "▁ro",
        "t"
      ],
      [
        "▁fir",
        "m"
      ],
      [
        "▁look",
        "s"
      ],
      [
        "▁enfor",
        "cement"
      ],
      [
        "3",
        "3"
      ],
      [
        "▁appro",
        "ach"
      ],
      [
        "▁pl",
        "ant"
      ],
      [
        "▁br",
        "ing"
      ],
      [
        "▁prof",
        "ess"
      ],
      [
        "10",
        "82"
      ],
      [
        "7",
        "/2001"
      ],
      [
        "▁th",
        "row"
      ],
      [
        "▁p",
        "ol"
      ],
      [
        "▁20",
        "1"
      ],
      [
        "▁see",
        "ing"
      ],
      [
        "4",
        "7"
      ],
      [
        "▁e",
        "ast"
      ],
      [
        "▁120",
        ",000"
      ],
      [
        "▁a",
        "ble"
      ],
      [
        "▁st",
        "orm"
      ],
      [
        "▁oc",
        "t"
      ],
      [
        "op",
        "ment"
      ],
      [
        "-4",
        "15-"
      ],
      [
        "▁2",
        ".5"
      ],
      [
        "▁b",
        "ank"
      ],
      [
        "▁i",
        "f"
      ],
      [
        "ec",
        "ts"
      ],
      [
        "n",
        "a"
      ],
      [
        "p",
        "a"
      ],
      [
        "▁val",
        "ue"
      ],
      [
        "▁as",
        "h"
      ],
      [
        "▁s",
        "ide"
      ],
      [
        "▁kill",
        "ing"
      ],
      [
        "▁sw",
        "ing"
      ],
      [
        "▁nandaro",
        "u"
      ],
      [
        "▁m",
        "c"
      ],
      [
        "ire",
        "d"
      ],
      [
        "▁whe",
        "el"
      ],
      [
        "ond",
        "on"
      ],
      [
        "▁b",
        "ill"
      ],
      [
        "0",
        "9"
      ],
      [
        "▁wi",
        "th"
      ],
      [
        "▁bel",
        "ow"
      ],
      [
        "▁every",
        "day"
      ],
      [
        "▁9",
        "9"
      ],
      [
        "▁fr",
        "ank"
      ],
      [
        "▁cheap",
        "est"
      ],
      [
        "▁st",
        "ate"
      ],
      [
        "pl",
        "es"
      ],
      [
        "▁str",
        "ange"
      ],
      [
        "▁sa",
        "ving"
      ],
      [
        ":5",
        "1"
      ],
      [
        "▁al",
        "be"
      ],
      [
        "▁l",
        "l"
      ],
      [
        "▁fl",
        "o"
      ],
      [
        "▁s/h",
        "e"
      ],
      [
        "ft",
        "8-7"
      ],
      [
        "▁3",
        "0"
      ],
      [
        "▁consider",
        "able"
      ],
      [
        "▁drink",
        "s"
      ],
      [
        "on",
        "@ect"
      ],
      [
        "ft",
        "en"
      ],
      [
        "at",
        "s"
      ],
      [
        "▁f",
        "ro"
      ],
      [
        "en",
        "ue"
      ],
      [
        "▁intern",
        "et"
      ],
      [
        "▁",
        "********************************"
      ],
      [
        "▁h",
        "ere"
      ],
      [
        "em",
        "ber"
      ],
      [
        "n",
        "ing"
      ],
      [
        "p",
        "ing"
      ],
      [
        "▁comp",
        "ut"
      ],
      [
        "▁p",
        "our"
      ],
      [
        "▁cond",
        "ition"
      ],
      [
        "il",
        "l"
      ],
      [
        "▁16.3",
        "79"
      ],
      [
        "ust",
        "om"
      ],
      [
        "▁pock",
        "ets"
      ],
      [
        "▁lad",
        "der"
      ],
      [
        "▁park",
        "ing"
      ],
      [
        "▁ele",
        "ph"
      ],
      [
        "er",
        "n"
      ],
      [
        "ant",
        "a"
      ],
      [
        "o",
        "x"
      ],
      [
        "▁re",
        "ad"
      ],
      [
        "▁assoc",
        "iated"
      ],
      [
        "▁3",
        ".5"
      ],
      [
        "▁f",
        "e"
      ],
      [
        "▁of",
        "f"
      ],
      [
        ".ht",
        "ml"
      ],
      [
        "▁con",
        "t"
      ],
      [
        "▁ext",
        "ent"
      ],
      [
        "▁la",
        "ugh"
      ],
      [
        "r",
        "e"
      ],
      [
        "▁ens",
        "ure"
      ],
      [
        "▁v",
        "et"
      ],
      [
        "▁s",
        "u"
      ],
      [
        "ous",
        "ly"
      ],
      [
        "▁alth",
        "ough"
      ],
      [
        "▁e",
        "m"
      ],
      [
        "▁th",
        "an"
      ],
      [
        "▁t",
        "ough"
      ],
      [
        "▁kore",
        "a"
      ],
      [
        "as",
        "c"
      ],
      [
        "▁lar",
        "ge"
      ],
      [
        "▁relations",
        "hip"
      ],
      [
        "ea",
        "st"
      ],
      [
        "▁for",
        "th"
      ],
      [
        "▁j",
        "im"
      ],
      [
        "-",
        "49"
      ],
      [
        "▁sh",
        "oulder"
      ],
      [
        "▁44",
        ",000"
      ],
      [
        "u",
        "b"
      ],
      [
        "k",
        "s"
      ],
      [
        "▁l",
        "ength"
      ],
      [
        "▁08",
        ":50"
      ],
      [
        "oo",
        "se"
      ],
      [
        "▁19",
        "45"
      ],
      [
        "▁enjamb",
        "ment"
      ],
      [
        "▁the",
        "re"
      ],
      [
        "▁315",
        "-460-3"
      ],
      [
        "▁646-84",
        "20"
      ],
      [
        "▁al",
        "."
      ],
      [
        "▁fact",
        "or"
      ],
      [
        "▁cup",
        "c"
      ],
      [
        "▁04",
        ":03"
      ],
      [
        "▁158",
        "3"
      ],
      [
        "▁15",
        ",000"
      ],
      [
        "▁pri",
        "v"
      ],
      [
        "▁ec",
        "onom"
      ],
      [
        "▁americ",
        "an"
      ],
      [
        "▁sim",
        "ple"
      ],
      [
        "▁pre",
        "c"
      ],
      [
        "iv",
        "ed"
      ],
      [
        "▁ed",
        "ge"
      ],
      [
        "▁pos",
        "itive"
      ],
      [
        "o",
        "t"
      ],
      [
        "▁l",
        "uck"
      ],
      [
        "er",
        "o"
      ],
      [
        "▁03/0",
        "2/2001"
      ],
      [
        "▁d",
        "ad"
      ],
      [
        "▁01",
        "/1"
      ],
      [
        "ing",
        "s"
      ],
      [
        "▁st",
        "r"
      ],
      [
        "▁r",
        "ace"
      ],
      [
        "▁flow",
        "ers"
      ],
      [
        "▁surpr",
        "ising"
      ],
      [
        "▁6",
        ".00"
      ],
      [
        "▁p",
        "air"
      ],
      [
        "▁whe",
        "re"
      ],
      [
        "▁canad",
        "a"
      ],
      [
        "p",
        "ite"
      ],
      [
        "▁conc",
        "er"
      ],
      [
        "▁cou",
        "ch"
      ],
      [
        "▁ha",
        "lf"
      ],
      [
        ".",
        "ur"
      ],
      [
        "a",
        "l"
      ],
      [
        "▁din",
        "ing"
      ],
      [
        "▁fam",
        "ily"
      ],
      [
        "c",
        "ross"
      ],
      [
        "▁whil",
        "st"
      ],
      [
        "i",
        "gh"
      ],
      [
        "y",
        "m"
      ],
      [
        "itt",
        "ed"
      ],
      [
        "cl",
        "es"
      ],
      [
        "▁ass",
        "ess"
      ],
      [
        "▁c",
        "ra"
      ],
      [
        "▁wh",
        "ale"
      ],
      [
        "▁26",
        "0"
      ],
      [
        "ion",
        "ed"
      ],
      [
        "▁ton",
        "ight"
      ],
      [
        "an",
        "c"
      ],
      [
        "▁tr",
        "ue"
      ],
      [
        "▁down",
        "town"
      ],
      [
        "▁grandm",
        "other"
      ],
      [
        "ar",
        "m"
      ],
      [
        ".9",
        "16.718"
      ],
      [
        "ra",
        "x"
      ],
      [
        "ad",
        "o"
      ],
      [
        "▁br",
        "it"
      ],
      [
        "▁y",
        "ard"
      ],
      [
        "▁o",
        "h"
      ],
      [
        "anc",
        "ing"
      ],
      [
        "▁play",
        "er"
      ],
      [
        "▁newsp",
        "aper"
      ],
      [
        "▁scient",
        "ology"
      ],
      [
        "ab",
        "ly"
      ],
      [
        "▁ser",
        "v"
      ],
      [
        "▁g",
        "l"
      ],
      [
        "▁activ",
        "ity"
      ],
      [
        "ri",
        "b"
      ],
      [
        "▁air",
        "fare"
      ],
      [
        ".",
        "."
      ],
      [
        "▁li",
        "ber"
      ],
      [
        "▁cl",
        "osed"
      ],
      [
        "s",
        "id"
      ],
      [
        "▁p",
        "u"
      ],
      [
        "▁n",
        "eck"
      ],
      [
        "▁every",
        "where"
      ],
      [
        "▁ren",
        "t"
      ],
      [
        "▁p",
        "ic"
      ],
      [
        "▁sept",
        "ember"
      ],
      [
        "▁dogg",
        "ie"
      ],
      [
        ":",
        "00"
      ],
      [
        "2",
        "9"
      ],
      [
        "▁6",
        "80"
      ],
      [
        "▁lad",
        "en"
      ],
      [
        "▁17",
        "65"
      ],
      [
        "▁co",
        "st"
      ],
      [
        "}*{",
        "===<----"
      ],
      [
        "▁th",
        "at"
      ],
      [
        ":1",
        "5"
      ],
      [
        "▁be",
        "side"
      ],
      [
        "▁02-0",
        "5-02.doc"
      ],
      [
        "▁opp",
        "osite"
      ],
      [
        "▁lab",
        "or"
      ],
      [
        "▁lead",
        "er"
      ],
      [
        "▁l",
        "ea"
      ],
      [
        "▁ab",
        "ove"
      ],
      [
        "▁co",
        "de"
      ],
      [
        "▁visit",
        "ors"
      ],
      [
        "ate",
        "gy"
      ],
      [
        "▁ident",
        "ified"
      ],
      [
        "▁v",
        "alle"
      ],
      [
        "▁wr",
        "ong"
      ],
      [
        "▁hang",
        "ing"
      ],
      [
        "▁walk",
        "ing"
      ],
      [
        "▁19",
        "59"
      ],
      [
        "it",
        "o"
      ],
      [
        "▁a",
        "round"
      ],
      [
        "▁proper",
        "ly"
      ],
      [
        "▁cont",
        "ain"
      ],
      [
        "▁d",
        "raft"
      ],
      [
        "▁der",
        "iv"
      ],
      [
        "end",
        "er"
      ],
      [
        "▁obs",
        "erved"
      ],
      [
        "▁f",
        "ood"
      ],
      [
        "▁r",
        "an"
      ],
      [
        "▁se",
        "pt"
      ],
      [
        "▁l",
        "ink"
      ],
      [
        "▁incor",
        "por"
      ],
      [
        "▁w",
        "ant"
      ],
      [
        "es",
        "ome"
      ],
      [
        "i",
        "a"
      ],
      [
        "▁h",
        "alf"
      ],
      [
        "▁s",
        "ect"
      ],
      [
        "▁fi",
        "ve"
      ],
      [
        "▁extrem",
        "ely"
      ],
      [
        "p",
        "ri"
      ],
      [
        "▁so",
        "il"
      ],
      [
        "▁enj",
        "amb"
      ],
      [
        "▁con",
        "f"
      ],
      [
        "▁curren",
        "cy"
      ],
      [
        "8196021",
        "75"
      ],
      [
        "▁f",
        "ashion"
      ],
      [
        "er",
        "r"
      ],
      [
        "▁p",
        "ub"
      ],
      [
        "▁",
        "y"
      ],
      [
        "▁t",
        "ot"
      ],
      [
        "ra",
        "id"
      ],
      [
        "▁",
        "4"
      ],
      [
        "▁29",
        "587"
      ],
      [
        "▁sp",
        "ider"
      ],
      [
        "4",
        "99"
      ],
      [
        "▁stre",
        "ets"
      ],
      [
        "▁rock",
        "s"
      ],
      [
        "7",
        "44"
      ],
      [
        "▁che",
        "ek"
      ],
      [
        "▁br",
        "ings"
      ],
      [
        "▁res",
        "ult"
      ],
      [
        "▁press",
        "ure"
      ],
      [
        "▁will",
        "i"
      ],
      [
        "▁pl",
        "astic"
      ],
      [
        "▁cont",
        "ents"
      ],
      [
        "▁s",
        "qu"
      ],
      [
        "itt",
        "en"
      ],
      [
        "▁win",
        "ter"
      ],
      [
        "▁sh",
        "irt"
      ],
      [
        "▁east",
        "ern"
      ],
      [
        "▁improve",
        "ment"
      ],
      [
        "▁sp",
        "eak"
      ],
      [
        "it",
        "ch"
      ],
      [
        "▁07/1",
        "4/2000"
      ],
      [
        "▁5",
        "0"
      ],
      [
        "9",
        "8"
      ],
      [
        "▁add",
        "ed"
      ],
      [
        "at",
        "o"
      ],
      [
        "▁work",
        "s"
      ],
      [
        "▁int",
        "ended"
      ],
      [
        "▁2.9",
        "75"
      ],
      [
        "▁l",
        "ab"
      ],
      [
        "▁abo",
        "ard"
      ],
      [
        ":1",
        "7"
      ],
      [
        "v",
        "o"
      ],
      [
        "▁pop",
        "corn"
      ],
      [
        "ar",
        "ies"
      ],
      [
        "▁am",
        "end"
      ],
      [
        "▁resp",
        "onse"
      ],
      [
        "▁camp",
        "a"
      ],
      [
        "▁any",
        "where"
      ],
      [
        "▁ex",
        "ist"
      ],
      [
        "▁c",
        "oc"
      ],
      [
        "id",
        "a"
      ],
      [
        "o",
        "f"
      ],
      [
        "▁non",
        "stop"
      ],
      [
        "▁un",
        "p"
      ],
      [
        "▁de",
        "al"
      ],
      [
        "er",
        "ed"
      ],
      [
        "▁5",
        ".5"
      ],
      [
        "ent",
        "ion"
      ],
      [
        "▁fa",
        "res"
      ],
      [
        "▁k",
        "n"
      ],
      [
        "/",
        "200"
      ],
      [
        "▁tra",
        "ff"
      ],
      [
        "a",
        "b"
      ],
      [
        "▁pro",
        "f"
      ],
      [
        "▁20",
        "20"
      ],
      [
        "▁c",
        "om"
      ],
      [
        "id",
        "ers"
      ],
      [
        "▁er",
        "r"
      ],
      [
        "▁do",
        "ors"
      ],
      [
        "▁p",
        "oll"
      ],
      [
        "u",
        "th"
      ],
      [
        "▁1",
        "-8"
      ],
      [
        "▁3",
        "8"
      ],
      [
        "▁re",
        "l"
      ],
      [
        "▁sh",
        "ell"
      ],
      [
        "▁fig",
        "ure"
      ],
      [
        "or",
        "y"
      ],
      [
        "▁legisl",
        "ation"
      ],
      [
        "▁b",
        "l"
      ],
      [
        "▁20",
        "22"
      ],
      [
        "▁item",
        "s"
      ],
      [
        "46",
        "-3393"
      ],
      [
        "▁propos",
        "al"
      ],
      [
        "▁iod",
        "ine"
      ],
      [
        "▁ac",
        "ad"
      ],
      [
        "id",
        "ing"
      ],
      [
        "▁09",
        ":45"
      ],
      [
        "6",
        "6"
      ],
      [
        "▁h",
        "ol"
      ],
      [
        "5",
        "-0"
      ],
      [
        "ow",
        "s"
      ],
      [
        "▁r",
        "at"
      ],
      [
        "▁mo",
        "t"
      ],
      [
        "▁bo",
        "b"
      ],
      [
        "i",
        "z"
      ],
      [
        "▁fro",
        "zen"
      ],
      [
        "▁qu",
        "ant"
      ],
      [
        "▁archit",
        "ect"
      ],
      [
        "▁vac",
        "ation"
      ],
      [
        "▁af",
        "gh"
      ],
      [
        "at",
        "ch"
      ],
      [
        "▁t",
        "enn"
      ],
      [
        "▁!!!!!!!!!!!",
        "!!"
      ],
      [
        "▁perfect",
        "ly"
      ],
      [
        "▁p",
        "ip"
      ],
      [
        "um",
        "e"
      ],
      [
        "▁exper",
        "ience"
      ],
      [
        "-",
        "1"
      ],
      [
        "▁the",
        "ory"
      ],
      [
        "o",
        "u"
      ],
      [
        "▁8",
        "5"
      ],
      [
        "▁bus",
        "y"
      ],
      [
        "▁co",
        "un"
      ],
      [
        "▁dud",
        "ley"
      ],
      [
        "▁to",
        "day"
      ],
      [
        "y",
        "al"
      ],
      [
        "al",
        "ity"
      ],
      [
        "▁p",
        "ill"
      ],
      [
        "▁pil",
        "ot"
      ],
      [
        "ed",
        "s"
      ],
      [
        "▁tick",
        "ets"
      ],
      [
        "▁wor",
        "ld"
      ],
      [
        "▁claim",
        "s"
      ],
      [
        "▁s",
        "itting"
      ],
      [
        "▁wh",
        "om"
      ],
      [
        "▁cl",
        "ock"
      ],
      [
        "▁ha",
        "ir"
      ],
      [
        "▁",
        "anc"
      ],
      [
        "▁m",
        "ake"
      ],
      [
        "▁p",
        "e"
      ],
      [
        "▁cha",
        "grin"
      ],
      [
        "▁m",
        "er"
      ],
      [
        "▁conc",
        "ern"
      ],
      [
        "▁f",
        "old"
      ],
      [
        "▁inst",
        "ead"
      ],
      [
        "▁d",
        "ise"
      ],
      [
        "▁p",
        "sych"
      ],
      [
        "▁main",
[...]
