{
  "version": "1.0",
  "truncation": null,
  "padding": null,
  "added_tokens": [
    {
      "id": 3284,
      "content": "[PAD]",
      "single_word": false,
      "lstrip": false,
      "rstrip": false,
      "normalized": false,
      "special": true
    },
    {
      "id": 3843,
      "content": "[MASK]",
      "single_word": false,
      "lstrip": false,
      "rstrip": false,
      "normalized": false,
      "special": true
    },
    {
      "id": 3931,
      "content": "[UNK]",
      "single_word": false,
      "lstrip": false,
      "rstrip": false,
      "normalized": false,
      "special": true
    },
    {
      "id": 6456,
      "content": "[CLS]",
      "single_word": false,
      "lstrip": false,
      "rstrip": false,
      "normalized": false,
      "special": true
    },
    {
      "id": 6662,
      "content": "[SEP]",
      "single_word": false,
      "lstrip": false,
      "rstrip": false,
      "normalized": false,
      "special": true
    }
  ],
  "normalizer": {
    "type": "Sequence",
    "normalizers": [
      {
        "type": "NFD"
      },
      {
        "type": "Lowercase"
      },
      {
        "type": "StripAccents"
      }
    ]
  },
  "pre_tokenizer": {
    "type": "Sequence",
    "pretokenizers": [
      {
        "type": "Metaspace",
        "replacement": "▁",
        "prepend_scheme": "always",
        "split": true
      }
    ]
  },
  "post_processor": {
    "type": "TemplateProcessing",
    "single": [
      {
        "SpecialToken": {
          "id": "[CLS]",
          "type_id": 0
        }
      },
      {
        "Sequence": {
          "id": "A",
          "type_id": 0
        }
      },
      {
        "SpecialToken": {
          "id": "[SEP]",
          "type_id": 0
        }
      }
    ],
    "pair": [
      {
        "SpecialToken": {
          "id": "[CLS]",
          "type_id": 0
        }
      },
      {
        "Sequence": {
          "id": "A",
          "type_id": 0
        }
      },
      {
        "SpecialToken": {
          "id": "[SEP]",
          "type_id": 0
        }
      },
      {
        "Sequence": {
          "id": "B",
          "type_id": 1
        }
      },
      {
        "SpecialToken": {
          "id": "[SEP]",
          "type_id": 1
        }
      }
    ],
    "special_tokens": {
      "[CLS]": {
        "id": "[CLS]",
        "ids": [
          6456
        ],
        "tokens": [
          "[CLS]"
        ]
      },
      "[SEP]": {
        "id": "[SEP]",
        "ids": [
          6662
        ],
        "tokens": [
          "[SEP]"
        ]
      }
    }
  },
  "decoder": {
    "type": "Metaspace",
    "replacement": "▁",
    "prepend_scheme": "always",
    "split": true
  },
  "model": {
    "type": "WordPiece",
    "unk_token": "[UNK]",
    "continuing_subword_prefix": "##",
    "max_input_chars_per_word": 100,
    "vocab": {
      "▁rude": 0,
      "##津": 1,
      "##96": 2,
      "##to": 3,
      "▁chat": 4,
      "▁12/2": 5,
      "##ulate": 6,
      "▁interv": 7,
      "▁there": 8,
      "▁date": 9,
      "▁circum": 10,
      "##my": 11,
      "▁ec": 12,
      "##0s": 13,
      "▁involved": 14,
      "▁ha": 15,
      "▁must": 16,
      "##________": 17,
      "▁proble": 18,
      "▁boots": 19,
      "▁tells": 20,
      "▁form": 21,
      "▁biological": 22,
      "##-5": 23,
      "▁1589": 24,
      "##inger": 25,
      "##ament": 26,
      "▁1,200": 27,
      "▁2030": 28,
      "##resp": 29,
      "▁areas": 30,
      "▁thomas": 31,
      "▁redlined": 32,
      "##son": 33,
      "▁resources": 34,
      "▁recommended": 35,
      "▁q": 36,
      "▁paint": 37,
      "##53": 38,
      "▁pun": 39,
      "▁wanted": 40,
      "▁establish": 41,
      "▁appears": 42,
      "##encies": 43,
      "▁guidelines": 44,
      "▁1562": 45,
      "▁created": 46,
      "▁bathroom": 47,
      "▁4.6": 48,
      "▁lest": 49,
      "##ways": 50,
      "▁1609": 51,
      "▁wedding": 52,
      "##ects": 53,
      "▁wait": 54,
      "##/7": 55,
      "▁old": 56,
      "##/10/2000": 57,
      "▁buy": 58,
      "▁map": 59,
      "▁watch": 60,
      "▁well": 61,
      "▁iran": 62,
      "▁employees": 63,
      "▁suff": 64,
      "▁replication": 65,
      "▁squ": 66,
      "##-p": 67,
      "▁y": 68,
      "▁daily": 69,
      "▁bench": 70,
      "##ز": 71,
      "##ful": 72,
      "▁hm": 73,
      "##han": 74,
      "▁spend": 75,
      "▁u": 76,
      "▁charlie": 77,
      "##utes": 78,
      "▁counterpart": 79,
      "▁central": 80,
      "▁!!!?": 81,
      "▁gives": 82,
      "▁fig": 83,
      "▁wonderful": 84,
      "##ص": 85,
      "▁indian": 86,
      "▁once": 87,
      "▁1635": 88,
      "▁hard": 89,
      "▁2017": 90,
      "##nesday": 91,
      "▁mar": 92,
      "##read": 93,
      "▁oblig": 94,
      "##actions": 95,
      "▁felt": 96,
      "▁afghan": 97,
      "▁finance": 98,
      "▁ra": 99,
      "##aleck": 100,
      "▁driver": 101,
      "▁donkey": 102,
      "▁fail": 103,
      "▁will": 104,
      "▁amendment": 105,
      "▁sir": 106,
      "##图": 107,
      "▁golden": 108,
      "▁with": 109,
      "▁const": 110,
      "▁commission": 111,
      "▁first": 112,
      "▁forward": 113,
      "▁trees": 114,
      "##.10": 115,
      "▁mid-": 116,
      "▁2018": 117,
      "##84": 118,
      "##1.": 119,
      "##-99": 120,
      "▁papers": 121,
      "##enron.com": 122,
      "▁management": 123,
      "##teen": 124,
      "▁33,000": 125,
      "▁coinc": 126,
      "##un": 127,
      "▁conduct": 128,
      "▁...................": 129,
      "##ioned": 130,
      "▁indic": 131,
      "##itude": 132,
      "▁ever": 133,
      "##oice": 134,
      "##arr": 135,
      "##ished": 136,
      "▁888.916.718": 137,
      "▁reserve": 138,
      "▁boy": 139,
      "▁☏": 140,
      "▁sometimes": 141,
      "##se": 142,
      "▁info": 143,
      "▁01:14": 144,
      "##alo": 145,
      "##ead": 146,
      "##osoph": 147,
      "▁nut": 148,
      "##rench": 149,
      "▁said": 150,
      "▁demon": 151,
      "▁inn": 152,
      "▁mat": 153,
      "##claim": 154,
      "▁shi": 155,
      "▁oil": 156,
      "▁control": 157,
      "▁tacoma": 158,
      "▁bec": 159,
      "▁jobs": 160,
      "▁support": 161,
      "☏": 162,
      "##org": 163,
      "##jects": 164,
      "▁fully": 165,
      "▁reality": 166,
      "▁3,202.61": 167,
      "▁enjoyed": 168,
      "▁alleged": 169,
      "▁44,000": 170,
      "##takana": 171,
      "▁05/01/2001": 172,
      "▁known": 173,
      "▁********************************": 174,
      "▁funds": 175,
      "##vant": 176,
      "▁egypt": 177,
      "▁pur": 178,
      "##±": 179,
      "##vo": 180,
      "##,00": 181,
      "##ke": 182,
      "▁useful": 183,
      "##atively": 184,
      "▁approxim": 185,
      "▁obv": 186,
      "##ality": 187,
      "##ider": 188,
      "▁prot": 189,
      "▁draw": 190,
      "▁20.doc": 191,
      "##igr": 192,
      "▁lean": 193,
      "▁party": 194,
      "▁blood": 195,
      "▁1594": 196,
      "▁equip": 197,
      "▁748": 198,
      "##macion": 199,
      "▁thom": 200,
      "▁campaign": 201,
      "▁scan": 202,
      "▁ice": 203,
      "##yan": 204,
      "▁programs": 205,
      "▁phone": 206,
      "▁dud": 207,
      "▁soft": 208,
      "▁rough": 209,
      "▁server": 210,
      "##ad": 211,
      "”": 212,
      "##eak": 213,
      "▁bon": 214,
      "▁bigger": 215,
      "▁gent": 216,
      "##ual": 217,
      "##ards": 218,
      "▁starting": 219,
      "▁egyptian": 220,
      "▁window": 221,
      "▁04:37": 222,
      "▁song": 223,
      "##izing": 224,
      "##ill": 225,
      "▁impress": 226,
      "▁mm": 227,
      "▁rap": 228,
      "▁become": 229,
      "▁enh": 230,
      "##df": 231,
      "▁developing": 232,
      "▁kim": 233,
      "▁sim": 234,
      "▁lion": 235,
      "▁wolves": 236,
      "▁s/h": 237,
      "▁prob": 238,
      "▁airline": 239,
      "▁associated": 240,
      "▁strength": 241,
      "▁1952": 242,
      "▁sources": 243,
      "▁3/8/00": 244,
      "##risk": 245,
      "▁painting": 246,
      "▁does": 247,
      "▁11/0": 248,
      "▁analy": 249,
      "▁814014": 250,
      "▁ask": 251,
      "▁schedule": 252,
      "▁unkn": 253,
      "##ong": 254,
      "##omen": 255,
      "▁kiss": 256,
      "▁read": 257,
      "▁mc": 258,
      "▁clothes": 259,
      "##ito": 260,
      "##eter": 261,
      "▁bri": 262,
      "▁-----": 263,
      "▁bulldozer": 264,
      "▁ob": 265,
      "##led": 266,
      "##-m": 267,
      "▁hospital": 268,
      "▁transp": 269,
      "▁w.": 270,
      "##iss": 271,
      "▁1950": 272,
      "▁mud": 273,
      "▁8:00": 274,
      "▁baking": 275,
      "▁delhi": 276,
      "▁hun": 277,
      "##ti": 278,
      "▁forever": 279,
      "▁reached": 280,
      "##oth": 281,
      "▁received": 282,
      "▁80435": 283,
      "▁1833": 284,
      "▁delta": 285,
      "##ato": 286,
      "▁dut": 287,
      "▁cycl": 288,
      "▁surrounded": 289,
      "▁amounts": 290,
      "▁contem": 291,
      "▁alth": 292,
      "##dies": 293,
      "▁hous": 294,
      "##ckleton@ect": 295,
      "▁ocho": 296,
      "▁rank": 297,
      "▁n": 298,
      "▁stopping": 299,
      "▁cap": 300,
      "##ilt": 301,
      "##8-7": 302,
      "▁1100": 303,
      "▁highest": 304,
      "▁'ll": 305,
      "▁dr": 306,
      "▁meth": 307,
      "▁call": 308,
      "##ploy": 309,
      "▁spect": 310,
      "##l": 311,
      "▁[...]": 312,
      "▁using": 313,
      "##aps": 314,
      "##ored": 315,
      "##ld": 316,
      "▁beneath": 317,
      "##icult": 318,
      "##book": 319,
      "▁farm": 320,
      "▁concerns": 321,
      "▁529999": 322,
      "▁fantastic": 323,
      "##hing": 324,
      "▁communic": 325,
      "▁credit": 326,
      "▁methods": 327,
      "##ason": 328,
      "▁212": 329,
      "##31": 330,
      "▁points": 331,
      "▁breat": 332,
      "▁96": 333,
      "##aa": 334,
      "▁senior": 335,
      "▁stren": 336,
      "▁legos": 337,
      "▁americans": 338,
      "ς": 339,
      "▁apparent": 340,
      "▁scar": 341,
      "##pper": 342,
      "##ep": 343,
      "▁sav": 344,
      "▁922": 345,
      "▁potato": 346,
      "▁tort": 347,
      "##ism": 348,
      "▁eighteen": 349,
      "▁confer": 350,
      "##ook": 351,
      "▁ill": 352,
      "##ancing": 353,
      "##bar": 354,
      "▁adults": 355,
      "##ave": 356,
      "##amp": 357,
      "▁03:48": 358,
      "▁animals": 359,
      "##443-3": 360,
      "▁e.": 361,
      "▁bird": 362,
      "##time": 363,
      "▁agency": 364,
      "▁showing": 365,
      "▁09:45": 366,
      "▁cia": 367,
      "▁pilot": 368,
      "▁11/7": 369,
      "##lied": 370,
      "▁sleepy": 371,
      "▁excel": 372,
      "▁giv": 373,
      "▁alternative": 374,
      "##other": 375,
      "▁charged": 376,
      "##²": 377,
      "##ger": 378,
      "▁l2": 379,
      "##ace": 380,
      "▁1947": 381,
      "##1-9": 382,
      "##omm": 383,
      "▁37": 384,
      "▁plenty": 385,
      "##grad": 386,
      "▁unit": 387,
      "▁alt.": 388,
      "▁16.379": 389,
      "▁mess": 390,
      "##be": 391,
      "▁bay": 392,
      "▁milit": 393,
      "▁pret": 394,
      "##rou": 395,
      "▁comment": 396,
      "##/15": 397,
      "▁youn": 398,
      "▁chairs": 399,
      "▁resc": 400,
      "▁co": 401,
      "▁across": 402,
      "▁137": 403,
      "##cum": 404,
      "##antic": 405,
      "▁tenth": 406,
      "▁pere": 407,
      "▁powerful": 408,
      "▁asleep": 409,
      "▁2.9": 410,
      "▁ded": 411,
      "▁sle": 412,
      "▁twist": 413,
      "▁315": 414,
      "▁die": 415,
      "▁yellow": 416,
      "##boy": 417,
      "▁ce": 418,
      "▁neighbor": 419,
      "##clud": 420,
      "▁thir": 421,
      "▁ger": 422,
      "夏": 423,
      "##onse": 424,
      "##ator": 425,
      "##red": 426,
      "##ized": 427,
      "▁son": 428,
      "▁mill": 429,
      "##ject": 430,
      "##e": 431,
      "##7/2001": 432,
      "▁marie": 433,
      "##urt": 434,
      "##ing": 435,
      "▁project": 436,
      "▁exposure": 437,
      "▁ninety-nine": 438,
      "##17": 439,
      "▁schools": 440,
      "▁steve": 441,
      "##aining": 442,
      "▁ey": 443,
      "##xce": 444,
      "▁syri": 445,
      "##ε": 446,
      "▁dolph": 447,
      "▁here": 448,
      "##outh": 449,
      "▁any": 450,
      "▁fixed": 451,
      "##fe": 452,
      "▁bus": 453,
      "##oup": 454,
      "##lin": 455,
      "##ught": 456,
      "▁+++": 457,
      "▁boston": 458,
      "▁threw": 459,
      "▁wrong": 460,
      "▁minutes": 461,
      "▁wish": 462,
      "▁currently": 463,
      "▁markets": 464,
      "▁transportation": 465,
      "##....": 466,
      "##tc": 467,
      "▁scre": 468,
      "##ive": 469,
      "▁tower": 470,
      "▁fy": 471,
      "▁mir": 472,
      "▁facebook": 473,
      "▁las": 474,
      "##67": 475,
      "▁dragon": 476,
      "▁prof": 477,
      "##antly": 478,
      "▁‘’": 479,
      "▁2.975": 480,
      "▁initi": 481,
      "##____": 482,
      "▁tul": 483,
      "##on@ect": 484,
      "▁formed": 485,
      "▁69": 486,
      "▁susan": 487,
      "▁fr": 488,
      "▁simply": 489,
      "##odz": 490,
      "▁aim": 491,
      "▁master": 492,
      "▁load": 493,
      "##raid": 494,
      "▁311": 495,
      "▁dirt": 496,
      "▁grown": 497,
      "##ody": 498,
      "▁345-343": 499,
      "▁he": 500,
      "▁substantial": 501,
      "##ucing": 502,
      "##at": 503,
      "▁governor": 504,
      "▁speech": 505,
      "##-w": 506,
      "▁loss": 507,
      "▁xii": 508,
      "##ared": 509,
      "▁01/19/2001": 510,
      "▁condition": 511,
      "##isions": 512,
      "##iw": 513,
      "▁goods": 514,
      "##26": 515,
      "▁relevant": 516,
      "▁kitchen": 517,
      "▁captain": 518,
      "▁ach": 519,
      ".": 520,
      "▁os": 521,
      "▁political": 522,
      "▁satisf": 523,
      "##,950": 524,
      "▁687": 525,
      "▁18": 526,
      "▁oneself": 527,
      "z": 528,
      "##,500": 529,
      "▁1584": 530,
      "▁bu": 531,
      "▁dest": 532,
      "▁legs": 533,
      "▁british": 534,
      "##子": 535,
      "▁single": 536,
      "▁orange": 537,
      "▁innov": 538,
      "▁seen": 539,
      "▁root": 540,
      "▁concern": 541,
      "▁6": 542,
      "}": 543,
      "▁perdu": 544,
      "▁20,000": 545,
      "##east": 546,
      "▁mult": 547,
      "▁encab": 548,
      "##eared": 549,
      "▁fifty": 550,
      "▁numbers": 551,
      "##ical": 552,
      "▁376": 553,
      "▁floor": 554,
      "##/2000": 555,
      "▁indo": 556,
      "▁800.713.8600": 557,
      "▁technologies": 558,
      "▁mostly": 559,
      "▁zoo": 560,
      "##oons": 561,
      "空": 562,
      "##o": 563,
      "▁713-646-3393": 564,
      "##xim": 565,
      "▁01/12/2001": 566,
      "▁appropri": 567,
      "##m": 568,
      "▁greek": 569,
      "▁instit": 570,
      "##iot": 571,
      "▁somehow": 572,
      "▁h": 573,
      "##1-90": 574,
      "▁505": 575,
      "▁416-865-3": 576,
      "▁hors": 577,
      "▁177": 578,
      "##aff": 579,
      "▁bud": 580,
      "▁orient": 581,
      "▁sophie": 582,
      "▁dey": 583,
      "##ove": 584,
      "##apes": 585,
      "▁pip": 586,
      "▁been": 587,
      "▁gross": 588,
      "▁ga": 589,
      "▁danger": 590,
      "▁wiggle": 591,
      "▁269": 592,
      "##-b": 593,
      "▁ther": 594,
      "##ination": 595,
      "▁impossible": 596,
      "##us": 597,
      "▁1871": 598,
      "##oug": 599,
      "##port": 600,
      "▁today": 601,
      "##‘": 602,
      "▁lady": 603,
      "▁subsequ": 604,
      "▁entirely": 605,
      "##ar": 606,
      "▁innovation": 607,
      "▁1835": 608,
      "▁tra": 609,
      "▁amazing": 610,
      "▁cloth": 611,
      "▁tog": 612,
      "▁sector": 613,
      "▁107": 614,
      ",": 615,
      "##44": 616,
      "##<": 617,
      "▁municip": 618,
      "▁course": 619,
      "▁private": 620,
      "##-12": 621,
      "▁stuff": 622,
      "▁watched": 623,
      "##ount": 624,
      "▁deal": 625,
      "▁alread": 626,
      "▁hundreds": 627,
      "##ni": 628,
      "▁recording": 629,
      "▁cruise": 630,
      "▁explore": 631,
      "▁print": 632,
      "▁ens": 633,
      "▁h-": 634,
      "▁giving": 635,
      "▁11/7/08": 636,
      "▁often": 637,
      "##raf": 638,
      "▁09/15": 639,
      "##:30": 640,
      "▁side": 641,
      "▁band": 642,
      "##arts": 643,
      "▁health": 644,
      "▁magic": 645,
      "##tern": 646,
      "▁pill": 647,
      "▁____________________________________________________________": 648,
      "##ulations": 649,
      "▁proc": 650,
      "▁enemy": 651,
      "▁la": 652,
      "▁345": 653,
      "##err": 654,
      "▁already": 655,
      "##all": 656,
      "▁creat": 657,
      "▁engine": 658,
      "▁dangerous": 659,
      "▁colour": 660,
      "##ened": 661,
      "清": 662,
      "▁fund": 663,
      "##xt": 664,
      "##ires": 665,
      "▁15": 666,
      "▁coat": 667,
      "▁mo": 668,
      "▁trick": 669,
      "##ecess": 670,
      "##ist": 671,
      "▁assoc": 672,
      "▁”": 673,
      "▁taxi": 674,
      "▁1890": 675,
      "##.1234": 676,
      "▁snake": 677,
      "▁fre": 678,
      "▁fold": 679,
      "▁increase": 680,
      "▁cro": 681,
      "▁doll": 682,
      "##oses": 683,
      "▁investig": 684,
      "▁immed": 685,
      "▁0000108806": 686,
      "▁concent": 687,
      "▁un": 688,
      "##ys": 689,
      "▁traveling": 690,
      "▁posted": 691,
      "▁jer": 692,
      "##2-0": 693,
      "▁dol": 694,
      "φ": 695,
      "▁sk": 696,
      "▁dress": 697,
      "▁uses": 698,
      "▁juice": 699,
      "u": 700,
      "▁7484": 701,
      "▁termin": 702,
      "##ang": 703,
      "▁henry": 704,
      "▁econom": 705,
      "▁twice": 706,
      "##nov": 707,
      "##bon": 708,
      "▁disappoint": 709,
      "##.uk": 710,
      "##ances": 711,
      "▁orig": 712,
      "▁restaur": 713,
      "▁professional": 714,
      "▁element": 715,
      "▁comments": 716,
      "▁2021": 717,
      "▁.3": 718,
      "▁425-415-": 719,
      "▁1830": 720,
      "##orial": 721,
      "▁500": 722,
      "▁temper": 723,
      "##.00": 724,
      "##zing": 725,
      "▁count": 726,
      "##;": 727,
      "▁muscles": 728,
      "▁ships": 729,
      "▁832.676": 730,
      "▁dep": 731,
      "▁conv": 732,
      "##iciency": 733,
      "▁1610": 734,
      "▁email": 735,
      "▁bub": 736,
      "▁potential": 737,
      "▁twenty-two": 738,
      "▁pleas": 739,
      "▁seventy": 740,
      "▁appeal": 741,
      "##ould": 742,
      "##enes": 743,
      "▁booked": 744,
      "##bi": 745,
      "▁neither": 746,
      "▁03/27/2001": 747,
      "▁vod": 748,
      "▁math": 749,
      "▁track": 750,
      "##ota": 751,
      "▁real": 752,
      "##bur": 753,
      "##ption": 754,
      "##5-": 755,
      "▁want": 756,
      "##eight": 757,
      "▁00": 758,
      "▁scient": 759,
      "##ice": 760,
      "▁command": 761,
      "▁blanket": 762,
      "▁02/13/2001": 763,
      "▁war": 764,
      "▁let": 765,
      "##ow": 766,
      "▁rock": 767,
      "▁ur": 768,
      "▁4:50": 769,
      "▁silver": 770,
      "&": 771,
      "▁behav": 772,
      "▁secur": 773,
      "##sex": 774,
      "▁sub": 775,
      "▁worked": 776,
      "▁646": 777,
      "▁machine": 778,
      "##iation": 779,
      "▁detail": 780,
      "▁129": 781,
      "▁laden": 782,
      "##880": 783,
      "##verse": 784,
      "▁;)": 785,
      "##atives": 786,
      "##34": 787,
      "▁you": 788,
      "▁magazine": 789,
      "▁activities": 790,
      "▁=": 791,
      "▁illusions": 792,
      "▁remains": 793,
      "p": 794,
      "▁dri": 795,
      "▁after": 796,
      "▁world": 797,
      "##³": 798,
      "##92": 799,
      "▁217": 800,
      "▁rule": 801,
      "▁changed": 802,
      "##ple": 803,
      "▁star": 804,
      "##veland": 805,
      "##bert": 806,
      "▁product": 807,
      "▁valid": 808,
      "##atic": 809,
      "▁presence": 810,
      "▁(a)": 811,
      "▁instance": 812,
      "▁eu": 813,
      "▁edu": 814,
      "▁select": 815,
      "▁high": 816,
      "▁prop": 817,
      "▁passing": 818,
      "▁big": 819,
      "##alle": 820,
      "▁awesome": 821,
      "▁expect": 822,
      "▁advice": 823,
      "▁approach": 824,
      "##☎": 825,
      "▁found": 826,
      "▁million": 827,
      "▁themselves": 828,
      "▁1989": 829,
      "▁1975": 830,
      "▁rates": 831,
      "▁islands": 832,
      "▁|": 833,
      "▁rom": 834,
      "##łod": 835,
      "▁ago": 836,
      "▁produc": 837,
      "▁enfor": 838,
      "▁sufficient": 839,
      "▁clean": 840,
      "▁accord": 841,
      "▁ninety-n": 842,
      "▁click": 843,
      "▁chall": 844,
      "ł": 845,
      "▁water": 846,
      "##·": 847,
      "▁screen": 848,
      "▁vide": 849,
      "▁discount": 850,
      "##ster": 851,
      "▁scary": 852,
      "▁within": 853,
      "▁fi": 854,
      "▁delivery": 855,
      "▁201": 856,
      "▁cla": 857,
      "▁163": 858,
      "##br": 859,
      "▁poo": 860,
      "##ifies": 861,
      "▁spring": 862,
      "▁466": 863,
      "▁09/15/99": 864,
      "▁spin": 865,
      "▁dose": 866,
      "▁mer": 867,
      "▁blank": 868,
      "▁constantly": 869,
      "##27": 870,
      "▁journ": 871,
      "##ivers": 872,
      "##.htm": 873,
      "▁loc": 874,
      "ο": 875,
      "##ars": 876,
      "▁com": 877,
      "▁components": 878,
      "▁south": 879,
      "▁rapidly": 880,
      "▁brows": 881,
      "##ulous": 882,
      "▁pas": 883,
      "▁til": 884,
      "▁gone": 885,
      "▁countries": 886,
      "▁sty": 887,
      "##ken": 888,
      "##-01": 889,
      "##maine": 890,
      "▁purple": 891,
      "▁continental": 892,
      "▁adm": 893,
      "▁whose": 894,
      "▁89": 895,
      "▁gym": 896,
      "▁=---": 897,
      "##&": 898,
      "▁receiving": 899,
      "ε": 900,
      "##4-79": 901,
      "▁gri": 902,
      "▁tiger": 903,
      "##3-3": 904,
      "▁glass": 905,
      "▁97": 906,
      "##œ": 907,
      "▁studies": 908,
      "▁minimum": 909,
      "▁literature": 910,
      "▁dance": 911,
      "▁legisl": 912,
      "▁planning": 913,
      "##ra": 914,
      "▁houses": 915,
      "▁197": 916,
      "▁ready": 917,
      "▁vol": 918,
      "▁got": 919,
      "##ining": 920,
      "▁nearly": 921,
      "▁08/0": 922,
      "##oices": 923,
      "▁who's": 924,
      "▁ev": 925,
      "▁waited": 926,
      "▁saddam": 927,
      "▁eng": 928,
      "▁weak": 929,
      "##****": 930,
      "▁chief": 931,
      "▁pro": 932,
      "##let": 933,
      "▁request": 934,
      "▁quino": 935,
      "▁fa": 936,
      "▁weasley": 937,
      "##ius": 938,
      "##ree": 939,
      "##ece": 940,
      "▁unable": 941,
      "▁woman": 942,
      "▁achie": 943,
      "##ce": 944,
      "▁tem": 945,
      "▁unf": 946,
      "##el": 947,
      "▁completed": 948,
      "▁1910": 949,
      "##here": 950,
      "▁281-518": 951,
      "▁medic": 952,
      "▁wondering": 953,
      "▁killed": 954,
      "▁argent": 955,
      "##01": 956,
      "##rif": 957,
      "▁failure": 958,
      "##mm": 959,
      "▁beauty": 960,
      "▁hang": 961,
      "##,000": 962,
      "▁`": 963,
      "5": 964,
      "▁dancing": 965,
      "▁past": 966,
      "▁shar": 967,
      "▁perman": 968,
      "▁lick": 969,
      "##uries": 970,
      "▁disney": 971,
      "▁35": 972,
      "▁1145": 973,
      "▁flo": 974,
      "▁important": 975,
      "▁ang": 976,
      "▁symbol": 977,
      "▁ancient": 978,
      "##ceed": 979,
      "▁wake": 980,
      "▁nat": 981,
      "▁13011": 982,
      "▁spec": 983,
      "▁staff": 984,
      "▁generally": 985,
      "▁bulb": 986,
      "##ises": 987,
      "▁01:09": 988,
      "##远": 989,
      "▁refer": 990,
      "▁atmos": 991,
      "▁whatever": 992,
      "##ieth": 993,
      "##aim": 994,
      "##ging": 995,
      "▁swed": 996,
      "▁_________________________________": 997,
      "▁doing": 998,
      "▁arms": 999,
      "▁lip": 1000,
      "##lear": 1001,
      "▁takes": 1002,
      "▁alive": 1003,
      "▁oct": 1004,
      "▁rid": 1005,
      "▁place": 1006,
      "▁cathol": 1007,
      "▁07": 1008,
      "▁upper": 1009,
      "##aster": 1010,
      "▁4.9": 1011,
      "##ea": 1012,
      "▁billion": 1013,
      "##wet": 1014,
      "##ives": 1015,
      "▁scientific": 1016,
      "##bers": 1017,
      "▁04:28": 1018,
      "##what": 1019,
      "▁television": 1020,
      "▁firm": 1021,
      "##30": 1022,
      "##-46": 1023,
      "▁teeth": 1024,
      "▁wh": 1025,
      "▁afric": 1026,
      "▁08/16": 1027,
      "▁johnson": 1028,
      "##867": 1029,
      "##ß": 1030,
      "▁telephone": 1031,
      "▁assemb": 1032,
      "▁cats": 1033,
      "##ny": 1034,
      "##lebr": 1035,
      "##07": 1036,
      "▁shut": 1037,
      "▁discussion": 1038,
      "▁pockets": 1039,
      "##ident": 1040,
      "##icide": 1041,
      "▁models": 1042,
      "▁asking": 1043,
      "##--": 1044,
      "▁cookies": 1045,
      "▁ca": 1046,
      "▁regular": 1047,
      "▁hide": 1048,
      "##-642": 1049,
      "▁spirit": 1050,
      "##arraf": 1051,
      "▁pron": 1052,
      "##pts": 1053,
      "▁som": 1054,
      "山": 1055,
      "▁345-9945": 1056,
      "▁solution": 1057,
      "##ipping": 1058,
      "▁mexic": 1059,
      "▁sta": 1060,
      "▁0.00": 1061,
      "##ios": 1062,
      "▁test": 1063,
      "▁under": 1064,
      "##ening": 1065,
      "▁dram": 1066,
      "##eton@ect": 1067,
      "▁theat": 1068,
      "##ot": 1069,
      "▁implementing": 1070,
      "▁rob": 1071,
      "▁quant": 1072,
      "▁rental": 1073,
      "▁plate": 1074,
      "▁windows": 1075,
      "▁clothing": 1076,
      "▁holt": 1077,
      "##dy": 1078,
      "▁files": 1079,
      "▁281-435-0295": 1080,
      "%": 1081,
      "▁01": 1082,
      "▁female": 1083,
      "▁archit": 1084,
      "##47": 1085,
      "▁n'": 1086,
      "##-3": 1087,
      "▁defin": 1088,
      "▁me": 1089,
      "▁id": 1090,
      "▁alloc": 1091,
      "▁scene": 1092,
      "##ales": 1093,
      "##3/2000": 1094,
      "##ro": 1095,
      "▁ding": 1096,
      "▁waters": 1097,
      "##raph": 1098,
      "▁4_2": 1099,
      "▁twent": 1100,
      "▁leon": 1101,
      "▁detroit": 1102,
      "▁russ": 1103,
      "▁relatively": 1104,
      "▁programme": 1105,
      "▁indianapolis": 1106,
      "▁ny": 1107,
      "▁particular": 1108,
      "▁dh": 1109,
      "▁wide": 1110,
      "▁reported": 1111,
      "▁stop": 1112,
      "▁missed": 1113,
      "▁extra": 1114,
      "▁suggest": 1115,
      "##stem": 1116,
      "##iel": 1117,
      "▁uhhuh": 1118,
      "▁8:15": 1119,
      "▁expression": 1120,
      "▁southern": 1121,
      "▁such": 1122,
      "▁sweater": 1123,
      "▁lives": 1124,
      "▁mother": 1125,
      "▁itself": 1126,
      "▁still": 1127,
      "▁bear": 1128,
      "##ife": 1129,
      "▁var": 1130,
      "##ateg": 1131,
      "▁concepts": 1132,
      "▁alt": 1133,
      "▁yourself": 1134,
      "##is_0712": 1135,
      "▁104": 1136,
      "▁parliament": 1137,
      "▁ł": 1138,
      "##aging": 1139,
      "##rog": 1140,
      "▁besides": 1141,
      "▁vote": 1142,
      "▁shopping": 1143,
      "▁meeting": 1144,
      "##46-3393": 1145,
      "▁suicide": 1146,
      "▁unh": 1147,
      "##ey": 1148,
      "▁charl": 1149,
      "▁youtube": 1150,
      "▁eval": 1151,
      "##uation": 1152,
      "▁lots": 1153,
      "▁from": 1154,
      "▁jews": 1155,
      "▁words": 1156,
      "▁seat": 1157,
      "▁remembered": 1158,
      "▁gorio": 1159,
      "##:49": 1160,
      "##81": 1161,
      "▁bill": 1162,
      "▁fir": 1163,
      "▁eleven": 1164,
      "▁thanks": 1165,
      "▁1967": 1166,
      "##:21": 1167,
      "▁coup": 1168,
      "▁400": 1169,
      "▁photograph": 1170,
      "##-s": 1171,
      "##ions": 1172,
      "▁provide": 1173,
      "▁burn": 1174,
      "▁cinc": 1175,
      "▁1205": 1176,
      "▁democracy": 1177,
      "▁funct": 1178,
      "##lae": 1179,
      "▁10:34": 1180,
      "▁pa": 1181,
      "##rem": 1182,
      "▁160": 1183,
      "▁feel": 1184,
      "▁feet": 1185,
      "▁generation": 1186,
      "▁sy": 1187,
      "##/10": 1188,
      "##greg": 1189,
      "▁1614": 1190,
      "▁alcal": 1191,
      "##algamiento": 1192,
      "▁cooking": 1193,
      "▁location": 1194,
      "##ocr": 1195,
      "▁fur": 1196,
      "▁dism": 1197,
      "▁nab": 1198,
      "##erc": 1199,
      "▁therefore": 1200,
      "▁mod": 1201,
      "##ober": 1202,
      "##ied": 1203,
      "▁pittsburgh": 1204,
      "##zer": 1205,
      "▁angel": 1206,
      "✉": 1207,
      "##ned": 1208,
      "▁get": 1209,
      "ʒ": 1210,
      "▁hole": 1211,
      "▁‘": 1212,
      "▁store": 1213,
      "▁anywhere": 1214,
      "▁_________________________________________________": 1215,
      "##x": 1216,
      "▁flavor": 1217,
      "▁yer": 1218,
      "▁incorpor": 1219,
      "▁method": 1220,
      "▁warhol": 1221,
      "##ww": 1222,
      "▁dogs": 1223,
      "##ida": 1224,
      "▁93": 1225,
      "##夏": 1226,
      "▁circ": 1227,
      "▁cream": 1228,
      "▁pir": 1229,
      "▁s": 1230,
      "▁pay": 1231,
      "##:16": 1232,
      "##sm": 1233,
      "▁domestic": 1234,
      "▁dry": 1235,
      "##:17": 1236,
      "##ril": 1237,
      "▁search": 1238,
      "##ct": 1239,
      "▁washing": 1240,
      "##tain": 1241,
      "##ich": 1242,
      "▁rese": 1243,
      "▁720": 1244,
      "ω": 1245,
      "▁lower": 1246,
      "##........": 1247,
      "▁released": 1248,
      "##ashion": 1249,
      "##ummy": 1250,
      "##11": 1251,
      "▁connected": 1252,
      "##ers": 1253,
      "▁1822": 1254,
      "▁weapon": 1255,
      "##ə": 1256,
      "▁nation": 1257,
      "奈": 1258,
      "▁jul": 1259,
      "▁dem": 1260,
      "▁5/1": 1261,
      "▁tiny": 1262,
      "▁jud": 1263,
      "##ously": 1264,
      "▁20": 1265,
      "▁1.6": 1266,
      "▁card": 1267,
      "▁10:25": 1268,
      "▁explan": 1269,
      "##tica": 1270,
      "▁ro": 1271,
      "▁1754": 1272,
      "▁familiar": 1273,
      "##d2": 1274,
      "▁minus": 1275,
      "##mon": 1276,
      "▁emerging": 1277,
      "▁narr": 1278,
      "▁xv": 1279,
      "##.5": 1280,
      "##elp": 1281,
      "▁wel": 1282,
      "▁pros": 1283,
      "▁talking": 1284,
      "▁575": 1285,
      "##uh": 1286,
      "▁remain": 1287,
      "▁makes": 1288,
      "▁sole": 1289,
      "▁multip": 1290,
      "▁1832": 1291,
      "##:58": 1292,
      "▁mathem": 1293,
      "1": 1294,
      "##ck": 1295,
      "▁isl": 1296,
      "▁walls": 1297,
      "▁trading": 1298,
      "##uts": 1299,
      "##ince": 1300,
      "▁launch": 1301,
      "##202": 1302,
      "##af": 1303,
      "▁appearance": 1304,
      "▁hav": 1305,
      "▁chann": 1306,
      "▁forth": 1307,
      "▁ability": 1308,
      "▁uncle": 1309,
      "▁collected": 1310,
      "##aph": 1311,
      "##ry": 1312,
      "▁nail": 1313,
      "▁speaking": 1314,
      "▁summer": 1315,
      "▁apartment": 1316,
      "▁desc": 1317,
      "▁exact": 1318,
      "▁carried": 1319,
      "##/01": 1320,
      "▁grew": 1321,
      "##utions": 1322,
      "▁healthy": 1323,
      "▁commercial": 1324,
      "##orrow": 1325,
      "##ton": 1326,
      "▁74419": 1327,
      "##aking": 1328,
      "▁ten": 1329,
      "▁sue": 1330,
      "▁elimin": 1331,
      "▁capt": 1332,
      "▁chem": 1333,
      "##/11/2004": 1334,
      "##.9": 1335,
      "▁03/08/2000": 1336,
      "##ators": 1337,
      "##stick": 1338,
      "▁propos": 1339,
      "▁swe": 1340,
      "▁infor": 1341,
      "▁uma": 1342,
      "▁disease": 1343,
      "▁6/1": 1344,
      "▁nmemdrft8-7-01": 1345,
      "▁ants": 1346,
      "▁bedroom": 1347,
      "▁formica": 1348,
      "▁hos": 1349,
      "▁cor": 1350,
      "▁see": 1351,
      "▁neighborhood": 1352,
      "▁ben": 1353,
      "▁overall": 1354,
      "▁awoh": 1355,
      "▁visa": 1356,
      "▁10/26/2000": 1357,
      "▁.2": 1358,
      "▁ai": 1359,
      "▁container": 1360,
      "▁pri": 1361,
      "▁option": 1362,
      "▁industrial": 1363,
      "▁response": 1364,
      "▁located": 1365,
      "##munic": 1366,
      "##osed": 1367,
      "##744": 1368,
      "▁bom": 1369,
      "##s.": 1370,
      "▁compreh": 1371,
      "▁loves": 1372,
      "▁2.6": 1373,
      "▁6400": 1374,
      "▁teaching": 1375,
      "##-79": 1376,
      "▁dad": 1377,
      "▁ide": 1378,
      "▁spent": 1379,
      "▁public": 1380,
      "##山": 1381,
      "▁focus": 1382,
      "▁underneath": 1383,
      "▁associate": 1384,
      "▁eff": 1385,
      "##183": 1386,
      "▁639": 1387,
      "##83": 1388,
      "▁reasons": 1389,
      "▁seek": 1390,
      "e": 1391,
      "▁63": 1392,
      "▁towns": 1393,
      "▁190": 1394,
      "##/97": 1395,
      "##lying": 1396,
      "▁luck": 1397,
      "▁1875": 1398,
      "▁dining": 1399,
      "##ib": 1400,
      "▁trouble": 1401,
      "▁section": 1402,
      "▁exce": 1403,
      "▁jordan": 1404,
      "▁934": 1405,
      "▁secretary": 1406,
      "▁510-642": 1407,
      "##eping": 1408,
      "▁^_^": 1409,
      "▁frag": 1410,
      "▁temperature": 1411,
      "▁atl": 1412,
      "▁revised": 1413,
      "##her": 1414,
      "▁alcalde": 1415,
      "▁collabor": 1416,
      "▁properties": 1417,
      "▁343": 1418,
      "▁government": 1419,
      "##ansen": 1420,
      "▁military": 1421,
      "▁adv": 1422,
      "▁corp": 1423,
      "▁while": 1424,
      "▁505-625": 1425,
      "▁her": 1426,
      "##-8": 1427,
      "##iron": 1428,
      "##/2004": 1429,
      "­": 1430,
      "▁ones": 1431,
      "##doc": 1432,
      "##lines": 1433,
      "▁ship": 1434,
      "▁metro": 1435,
      "▁thick": 1436,
      "▁approval": 1437,
      "▁committ": 1438,
      "▁...............": 1439,
      "▁care": 1440,
      "▁hit": 1441,
      "▁applic": 1442,
      "▁6:00": 1443,
      "图": 1444,
      "▁cases": 1445,
      "▁wee": 1446,
      "##+": 1447,
      "▁bike": 1448,
      "▁insp": 1449,
      "▁p.s.": 1450,
      "▁camera": 1451,
      "▁organ": 1452,
      "▁cereal": 1453,
      "▁conn": 1454,
      "ɔ": 1455,
      "▁n't": 1456,
      "▁300": 1457,
      "▁1993": 1458,
      "▁item": 1459,
      "##esome": 1460,
      "##ont": 1461,
      "+": 1462,
      "▁ena": 1463,
      "▁repres": 1464,
      "##,000,000,000": 1465,
      "▁chemical": 1466,
      "▁magn": 1467,
      "▁reject": 1468,
      "▁sus": 1469,
      "▁h-0": 1470,
      "##%": 1471,
      "▁subject": 1472,
      "▁laugh": 1473,
      "▁sup": 1474,
      "▁estim": 1475,
      "▁fighting": 1476,
      "▁ge": 1477,
      "▁colleag": 1478,
      "▁killing": 1479,
      "##isl": 1480,
      "##3736": 1481,
      "##ertain": 1482,
      "▁oper": 1483,
      "##ammed": 1484,
      "▁em": 1485,
      "##!!!!": 1486,
      "##ff": 1487,
      "▁possess": 1488,
      "▁twa": 1489,
      "##54-": 1490,
      "▁groups": 1491,
      "▁1787": 1492,
      "##itt": 1493,
      "x": 1494,
      "▁friend": 1495,
      "##ker": 1496,
      "▁thinking": 1497,
      "▁student": 1498,
      "##cl": 1499,
      "▁living": 1500,
      "▁andaman": 1501,
      "▁recorder": 1502,
      "##:07": 1503,
      "▁tough": 1504,
      "##fully": 1505,
      "##ately": 1506,
      "▁those": 1507,
      "##ube": 1508,
      "##atch": 1509,
      "▁sett": 1510,
      "##kes": 1511,
      "▁rac": 1512,
      "##ampa": 1513,
      "▁frequ": 1514,
      "▁łodz": 1515,
      "##asa": 1516,
      "##kana": 1517,
      "▁**": 1518,
      "▁bell": 1519,
      "##mp": 1520,
      "▁twenty-four": 1521,
      "▁states": 1522,
      "##ass": 1523,
      "▁mummy": 1524,
      "▁====================================================": 1525,
      "▁longer": 1526,
      "▁oak": 1527,
      "##arter": 1528,
      "j": 1529,
      "▁risk": 1530,
      "▁ac": 1531,
      "##'s": 1532,
      "▁colors": 1533,
      "▁81": 1534,
      "▁2003": 1535,
      "▁jewish": 1536,
      "▁princip": 1537,
      "▁prepared": 1538,
      "▁lighting": 1539,
      "▁rol": 1540,
      "##ize": 1541,
      "▁foods": 1542,
      "▁famous": 1543,
      "##ec": 1544,
      "▁working": 1545,
      "▁chines": 1546,
      "▁judge": 1547,
      "▁fac": 1548,
      "▁kay": 1549,
      "▁bulld": 1550,
      "▁guarantee": 1551,
      "▁st": 1552,
      "▁operation": 1553,
      "##-kedne": 1554,
      "##ym": 1555,
      "##eau": 1556,
      "##ome": 1557,
      "▁646-84": 1558,
      "▁election": 1559,
      "▁counterparty": 1560,
      "▁401": 1561,
      "##and": 1562,
      "▁trip": 1563,
      "##/17/2000": 1564,
      "##id": 1565,
      "##6021": 1566,
      "▁testing": 1567,
      "▁kinds": 1568,
      "##ν": 1569,
      "▁fl": 1570,
      "▁chocolate": 1571,
      "##www": 1572,
      "▁player": 1573,
      "▁everywhere": 1574,
      "##erves": 1575,
      "▁claim": 1576,
      "▁init": 1577,
      "▁treated": 1578,
      "##ward": 1579,
      "##.7": 1580,
      "##4": 1581,
      "▁arch": 1582,
      "▁ep": 1583,
      "▁milwaukee": 1584,
      "▁material": 1585,
      "▁sport": 1586,
      "##imin": 1587,
      "▁horses": 1588,
      "▁928": 1589,
      "##ago": 1590,
      "▁till": 1591,
      "▁recru": 1592,
      "##-50": 1593,
      "▁better": 1594,
      "##/8/00": 1595,
      "▁mathematics": 1596,
      "##2/2000": 1597,
      "▁dans": 1598,
      "▁protection": 1599,
      "▁right": 1600,
      "▁sh": 1601,
      "▁sust": 1602,
      "▁hamas": 1603,
      "#": 1604,
      "▁hum": 1605,
      "##ashed": 1606,
      "▁loved": 1607,
      "##ris": 1608,
      "▁pakistan": 1609,
      "##ipe": 1610,
      "▁stretch": 1611,
      "▁peanut": 1612,
      "▁pages": 1613,
      "▁finding": 1614,
      "▁boom": 1615,
      "##ither": 1616,
      "##istan": 1617,
      "▁settle": 1618,
      "##70": 1619,
      "▁complet": 1620,
      "▁deb": 1621,
      "▁leave": 1622,
      "▁fire": 1623,
      "▁expectations": 1624,
      "▁phen": 1625,
      "##i": 1626,
      "▁fight": 1627,
      "▁mistake": 1628,
      "▁boot": 1629,
      "##uz": 1630,
      "▁title": 1631,
      "▁environment": 1632,
      "▁resour": 1633,
      "▁bottle": 1634,
      "▁rare": 1635,
      "▁tables": 1636,
      "##09": 1637,
      "##:05": 1638,
      "▁offer": 1639,
      "##v": 1640,
      "##-10": 1641,
      "▁ballet": 1642,
      "##era": 1643,
      "▁birds": 1644,
      "▁fal": 1645,
      "▁matt": 1646,
      "▁drove": 1647,
      "▁'": 1648,
      "##5th": 1649,
      "▁self": 1650,
      "▁destroy": 1651,
      "▁regional": 1652,
      "##unt": 1653,
      "▁smooth": 1654,
      "##/2001": 1655,
      "▁astride": 1656,
      "##ase": 1657,
      "▁repl": 1658,
      "▁dust": 1659,
      "▁definitely": 1660,
      "▁black": 1661,
      "▁sol": 1662,
      "▁off": 1663,
      "##~*~*": 1664,
      "▁ban": 1665,
      "##ines": 1666,
      "▁ag": 1667,
      "▁keeping": 1668,
      "▁hours": 1669,
      "##ograph": 1670,
      "▁sky": 1671,
      "▁dark": 1672,
      "##tegr": 1673,
      "▁austral": 1674,
      "▁deriv": 1675,
      "▁target": 1676,
      "▁600": 1677,
      "▁celebr": 1678,
      "▁2004": 1679,
      "▁need": 1680,
      "▁vi": 1681,
      "▁other": 1682,
      "▁covered": 1683,
      "▁mixed": 1684,
      "▁phr": 1685,
      "▁blog": 1686,
      "▁imm": 1687,
      "▁cab": 1688,
      "▁36": 1689,
      "▁thus": 1690,
      "▁scen": 1691,
      "▁requ": 1692,
      "##.html": 1693,
      "##~*~*~*~*": 1694,
      "▁older": 1695,
      "▁1836": 1696,
      "▁fear": 1697,
      "▁connecting": 1698,
      "▁too": 1699,
      "▁instructions": 1700,
      "▁max": 1701,
      "##fare": 1702,
      "▁spos": 1703,
      "##85": 1704,
      "▁✉": 1705,
      "▁7:30": 1706,
      "▁21,000": 1707,
      "▁accurate": 1708,
      "▁05/25/2001": 1709,
      "▁buildings": 1710,
      "##ight": 1711,
      "▁americ": 1712,
      "▁slow": 1713,
      "▁decline": 1714,
      "##ings": 1715,
      "▁1848": 1716,
      "▁meh-risk": 1717,
      "▁rain": 1718,
      "##/26/2001": 1719,
      "##fl": 1720,
      "▁10/20/2000": 1721,
      "▁string": 1722,
      "▁statement": 1723,
      "##32": 1724,
      "##-h": 1725,
      "##48": 1726,
      "▁smoke": 1727,
      "##ev": 1728,
      "▁bob": 1729,
      "▁hate": 1730,
      "##anta": 1731,
      "▁~": 1732,
      "▁case": 1733,
      "▁alliance": 1734,
      "##wise": 1735,
      "▁round": 1736,
      "▁2:25": 1737,
      "▁language": 1738,
      "▁products": 1739,
      "▁super": 1740,
      "琴": 1741,
      "##ets": 1742,
      "##edule": 1743,
      "▁european": 1744,
      "▁gold": 1745,
      "▁total": 1746,
      "▁fares": 1747,
      "##rison": 1748,
      "▁intr": 1749,
      "▁tip": 1750,
      "▁invest": 1751,
      "▁tun": 1752,
      "▁dollar": 1753,
      "▁then": 1754,
      "##葉": 1755,
      "▁incred": 1756,
      "##cc": 1757,
      "▁assistance": 1758,
      "▁1616": 1759,
      "▁played": 1760,
      "▁1951": 1761,
      "▁lem": 1762,
      "▁passed": 1763,
      "##ob": 1764,
      "##dam": 1765,
      "▁shared": 1766,
      "##eeze": 1767,
      "##ots": 1768,
      "▁foot": 1769,
      "▁jam": 1770,
      "▁drag": 1771,
      "##otted": 1772,
      "##0072": 1773,
      "▁pool": 1774,
      "▁considerable": 1775,
      "▁pizza": 1776,
      "▁pleasant": 1777,
      "▁tor": 1778,
      "##osure": 1779,
      "?": 1780,
      "▁emergency": 1781,
      "▁07/14/2000": 1782,
      "##ughter": 1783,
      "▁written": 1784,
      "▁wearing": 1785,
      "▁burst": 1786,
      "▁american": 1787,
      "▁i": 1788,
      "##ح": 1789,
      "▁lear": 1790,
      "##ief": 1791,
      "▁variety": 1792,
      "▁equal": 1793,
      "##uge": 1794,
      "_": 1795,
      "▁kar": 1796,
      "▁cock": 1797,
      "▁dish": 1798,
      "▁flat": 1799,
      "▁young": 1800,
      "▁boo": 1801,
      "▁cand": 1802,
      "##ude": 1803,
      "##cel": 1804,
      "▁tam": 1805,
      "▁session": 1806,
      "##ig": 1807,
      "▁conditions": 1808,
      "▁11,000": 1809,
      "▁rack": 1810,
      "##cy": 1811,
      "▁o'": 1812,
      "##200": 1813,
      "▁hund": 1814,
      "▁frozen": 1815,
      "▁every": 1816,
      "▁ano": 1817,
      "▁718-780-": 1818,
      "##enda": 1819,
      "▁whether": 1820,
      "▁pac": 1821,
      "▁abs": 1822,
      "▁cry": 1823,
      "▁1504": 1824,
      "▁christian": 1825,
      "▁gro": 1826,
      "▁merely": 1827,
      "##irl": 1828,
      "▁conference": 1829,
      "▁since": 1830,
      "##415-": 1831,
      "▁otherwise": 1832,
      "##i-": 1833,
      "▁adult": 1834,
      "▁weekend": 1835,
      "▁ladder": 1836,
      "##ology": 1837,
      "##igu": 1838,
      "▁positions": 1839,
      "▁week": 1840,
      "▁44": 1841,
      "▁perm": 1842,
      "ι": 1843,
      "\"": 1844,
      "##ata": 1845,
      "##oes": 1846,
      "▁sixteen": 1847,
      "▁supreme": 1848,
      "▁ham": 1849,
      "##iao": 1850,
      "▁point": 1851,
      "##.ht": 1852,
      "▁m": 1853,
      "##head": 1854,
      "▁england": 1855,
      "##8806": 1856,
      "▁drug": 1857,
      "▁1505": 1858,
      "▁wednesday": 1859,
      "##/4": 1860,
      "▁nonstop": 1861,
      "▁administration": 1862,
      "▁3.5": 1863,
      "##he": 1864,
      "▁show": 1865,
      "ɑ": 1866,
      "##.718": 1867,
      "▁thought": 1868,
      "▁sheet": 1869,
      "##alf": 1870,
      "▁ig": 1871,
      "▁ve": 1872,
      "▁01/25/2001": 1873,
      "▁financ": 1874,
      "▁power": 1875,
      "##ا": 1876,
      "##????????": 1877,
      "▁mode": 1878,
      "▁1600": 1879,
      "##60": 1880,
      "▁82": 1881,
      "▁fee": 1882,
      "▁mouse": 1883,
      "##do": 1884,
      "##ays": 1885,
      "▁belly": 1886,
      "##ew": 1887,
      "▁depends": 1888,
      "##or": 1889,
      "##roy": 1890,
      "▁zawahiri": 1891,
      "▁clay": 1892,
      "▁beauveria": 1893,
      "▁worst": 1894,
      "▁ears": 1895,
      "▁stood": 1896,
      "##iri": 1897,
      "▁memory": 1898,
      "##.1": 1899,
      "▁communications": 1900,
      "##ften": 1901,
      "静": 1902,
      "▁lank": 1903,
      "##enc": 1904,
      "##enue": 1905,
      "▁opt": 1906,
      "##ale": 1907,
      "##oke": 1908,
      "▁’re": 1909,
      "##la": 1910,
      "##aiss": 1911,
      "▁book": 1912,
      "▁ver": 1913,
      "##93": 1914,
      "##°": 1915,
      "▁bin": 1916,
      "##iring": 1917,
      "##ute": 1918,
      "▁ordered": 1919,
      "▁03:3": 1920,
      "##oa": 1921,
      "@": 1922,
      "▁necess": 1923,
      "▁sac": 1924,
      "▁territory": 1925,
      "▁anyway": 1926,
      "##θ": 1927,
      "▁voices": 1928,
      "▁202.456": 1929,
      "▁tig": 1930,
      "▁dom": 1931,
      "▁pure": 1932,
      "▁stores": 1933,
      "▁slide": 1934,
      "▁1984": 1935,
      "▁children": 1936,
      "▁sp": 1937,
      "▁conclud": 1938,
      "▁considering": 1939,
      "▁switch": 1940,
      "▁experts": 1941,
      "ʁ": 1942,
      "▁aware": 1943,
      "▁calm": 1944,
      "##usal": 1945,
      "##.2461": 1946,
      "▁11-20-2000": 1947,
      "▁afraid": 1948,
      "▁iranian": 1949,
      "▁urs": 1950,
      "▁dere": 1951,
      "##.8317": 1952,
      "▁888": 1953,
      "▁dead": 1954,
      "▁tickle": 1955,
      "▁grow": 1956,
      "▁bought": 1957,
      "▁him": 1958,
      "##icing": 1959,
      "▁skitt": 1960,
      "▁harry": 1961,
      "▁978": 1962,
      "▁month": 1963,
      "##ability": 1964,
      "##********": 1965,
      "▁.....": 1966,
      "##esday": 1967,
      "▁applied": 1968,
      "▁1965": 1969,
      "▁least": 1970,
      "▁greet": 1971,
      "▁pin": 1972,
      "▁main": 1973,
      "n": 1974,
      "##ention": 1975,
      "▁ped": 1976,
      "##osite": 1977,
      "▁personal": 1978,
      "▁hub": 1979,
      "##teboo": 1980,
      "▁189": 1981,
      "▁!!!": 1982,
      "▁bra": 1983,
      "##esh": 1984,
      "##apt": 1985,
      "▁none": 1986,
      "▁ele": 1987,
      "▁twenty": 1988,
      "▁hidden": 1989,
      "▁iss": 1990,
      "##idence": 1991,
      "▁baltim": 1992,
      "▁traged": 1993,
      "▁begun": 1994,
      "▁mirror": 1995,
      "##h-": 1996,
      "##attle": 1997,
      "▁sometime": 1998,
      "▁gather": 1999,
      "▁was": 2000,
      "▁director": 2001,
      "▁fork": 2002,
      "▁505-625-8031": 2003,
      "▁cer": 2004,
      "##aled": 2005,
      "▁forget": 2006,
      "##olly": 2007,
      "##umb": 2008,
      "▁1980": 2009,
      "▁democratic": 2010,
      "##gress": 2011,
      "▁moment": 2012,
      "▁application": 2013,
      "##ca": 2014,
      "▁'ve": 2015,
      "##ross": 2016,
      "▁learning": 2017,
      "##ht": 2018,
      "▁tong": 2019,
      "▁1995": 2020,
      "▁pair": 2021,
      "▁185": 2022,
      "▁cash": 2023,
      "▁smaller": 2024,
      "▁v.": 2025,
      "##yn": 2026,
      "##les": 2027,
      "▁turned": 2028,
      "▁11608": 2029,
      "▁starts": 2030,
      "▁uk": 2031,
      "▁pillow": 2032,
      "▁sept": 2033,
      "▁specifically": 2034,
      "▁knife": 2035,
      "▁420": 2036,
      "##rial": 2037,
      "##s": 2038,
      "##erre": 2039,
      "##ope": 2040,
      "▁quick": 2041,
      "▁heard": 2042,
      "▁10/31": 2043,
      "▁aer": 2044,
      "▁infrast": 2045,
      "▁u.": 2046,
      "▁w3c": 2047,
      "##anger": 2048,
      "▁ticket": 2049,
      "▁alberta": 2050,
      "▁moon": 2051,
      "##erve": 2052,
      "▁on": 2053,
      "▁]": 2054,
      "▁cars": 2055,
      "▁michelle": 2056,
      "▁forty": 2057,
      "▁contract": 2058,
      "▁2005": 2059,
      "##t": 2060,
      "▁frame": 2061,
      "▁wrap": 2062,
      "ص": 2063,
      "##veria": 2064,
      "##@enron.com": 2065,
      "▁incom": 2066,
      "▁totally": 2067,
      "##ulating": 2068,
      "h": 2069,
      "▁emerg": 2070,
      "▁1994": 2071,
      "▁by": 2072,
      "▁cross": 2073,
      "▁honey": 2074,
      "▁mis": 2075,
      "▁’ve": 2076,
      "▁mexican": 2077,
      "▁fool": 2078,
      "▁whom": 2079,
      "##eng": 2080,
      "▁tv": 2081,
      "▁flood": 2082,
      "##unch": 2083,
      "▁2:00": 2084,
      "▁millions": 2085,
      "▁later": 2086,
      "▁worse": 2087,
      "▁syn": 2088,
      "##anc": 2089,
      "##round": 2090,
      "▁port": 2091,
      "▁time": 2092,
      "##st": 2093,
      "▁debate": 2094,
      "▁columb": 2095,
      "▁pr": 2096,
      "##33": 2097,
      "##/9": 2098,
      "▁carefully": 2099,
      "▁america": 2100,
      "▁anth": 2101,
      "▁balance": 2102,
      "▁1954": 2103,
      "▁controls": 2104,
      "▁shop": 2105,
      "##sequ": 2106,
      "##nd": 2107,
      "▁recip": 2108,
      "##-7": 2109,
      "▁ad": 2110,
      "▁ash": 2111,
      "##__": 2112,
      "▁cens": 2113,
      "▁20:00": 2114,
      "▁staying": 2115,
      "▁depart": 2116,
      "▁50000": 2117,
      "##×": 2118,
      "▁parents": 2119,
      "##ici": 2120,
      "▁surv": 2121,
      "▁1991": 2122,
      "▁pittsbur": 2123,
      "▁before": 2124,
      "▁joined": 2125,
      "▁whi": 2126,
      "##igning": 2127,
      "▁last": 2128,
      "▁unless": 2129,
      "▁ski": 2130,
      "##031": 2131,
      "▁standing": 2132,
      "##ag": 2133,
      "##pe": 2134,
      "▁1929": 2135,
      "▁wear": 2136,
      "▁tokyo": 2137,
      "…": 2138,
      "##ollow": 2139,
      "▁175": 2140,
      "▁period": 2141,
      "▁ear": 2142,
      "▁priv": 2143,
      "##ud": 2144,
      "▁poll": 2145,
      "▁mor": 2146,
      "▁related": 2147,
      "##ino": 2148,
      "▁1847": 2149,
      "▁7:00": 2150,
      "##iban": 2151,
      "##ering": 2152,
      "##ids": 2153,
      "▁code": 2154,
      "▁ap": 2155,
      "▁quinoa": 2156,
      "▁progress": 2157,
      "▁free": 2158,
      "▁basic": 2159,
      "▁ph": 2160,
      "▁78": 2161,
      "▁club": 2162,
      "▁younger": 2163,
      "▁ka": 2164,
      "▁65": 2165,
      "##light": 2166,
      "▁ninth": 2167,
      "##eck": 2168,
      "▁experim": 2169,
      "##agon": 2170,
      "▁japan": 2171,
      "▁stead": 2172,
      "▁law": 2173,
      "▁sleep": 2174,
      "▁unfortunately": 2175,
      "##119": 2176,
      "▁distort": 2177,
      "▁arab": 2178,
      "▁divers": 2179,
      "##ake": 2180,
      "▁glad": 2181,
      "##istic": 2182,
      "##val": 2183,
      "##ball": 2184,
      "##etic": 2185,
      "▁rights": 2186,
      "##ilities": 2187,
      "▁needed": 2188,
      "▁watching": 2189,
      "▁accepted": 2190,
      "▁drinking": 2191,
      "▁16": 2192,
      "▁14": 2193,
      "▁sc": 2194,
      "##yal": 2195,
      "##,7": 2196,
      "▁kn": 2197,
      "##zac": 2198,
      "▁candid": 2199,
      "▁hill": 2200,
      "##e@enron": 2201,
      "▁eas": 2202,
      "–": 2203,
      "▁yog": 2204,
      "▁bottles": 2205,
      "▁lesson": 2206,
      "▁sight": 2207,
      "▁migr": 2208,
      "▁korea": 2209,
      "▁nose": 2210,
      "▁significant": 2211,
      "▁tail": 2212,
      "▁b/c": 2213,
      "##ault": 2214,
      "▁ansi-": 2215,
      "▁fields": 2216,
      "##5,000": 2217,
      "▁02": 2218,
      "##iety": 2219,
      "▁nam": 2220,
      "▁tac": 2221,
      "▁1880": 2222,
      "##uff": 2223,
      "▁italian": 2224,
      "▁corn": 2225,
      "▁rab": 2226,
      "##518": 2227,
      "##y": 2228,
      "▁comfortable": 2229,
      "▁regime": 2230,
      "▁addiction": 2231,
      "▁mand": 2232,
      "##isc": 2233,
      "▁bag": 2234,
      "▁mater": 2235,
      "▁373": 2236,
      "▁jew": 2237,
      "▁eb": 2238,
      "▁breakfast": 2239,
      "▁regions": 2240,
      "▁agree": 2241,
      "▁in": 2242,
      "▁1955": 2243,
      "▁stayed": 2244,
      "▁likely": 2245,
      "▁sunni": 2246,
      "##况": 2247,
      "▁j": 2248,
      "##um": 2249,
      "▁number": 2250,
      "▁wilt": 2251,
      "▁meas": 2252,
      "▁add": 2253,
      "##ram": 2254,
      "▁highlight": 2255,
      "▁returned": 2256,
      "▁hands": 2257,
      "##act": 2258,
      "▁order": 2259,
      "▁documents": 2260,
      "▁break": 2261,
      "##pri": 2262,
      "▁nin": 2263,
      "▁toward": 2264,
      "▁lawy": 2265,
      "##|": 2266,
      "##ected": 2267,
      "▁about": 2268,
      "▁californ": 2269,
      "▁’": 2270,
      "##are": 2271,
      "▁usual": 2272,
      "▁update": 2273,
      "▁04:17": 2274,
      "▁ir": 2275,
      "##ases": 2276,
      "▁p": 2277,
      "▁5.6": 2278,
      "▁pract": 2279,
      "▁08/15": 2280,
      "▁814.863": 2281,
      "▁trav": 2282,
      "▁bound": 2283,
      "▁poor": 2284,
      "##ο": 2285,
      "▁lu": 2286,
      "##ded": 2287,
      "##ite": 2288,
      "▁veg": 2289,
      "##:37": 2290,
      "##chester": 2291,
      "▁cond": 2292,
      "##ł": 2293,
      "##icy": 2294,
      "##vil": 2295,
      "##lig": 2296,
      "##not": 2297,
      "▁depend": 2298,
      "▁special": 2299,
      "▁---------------------------------": 2300,
      "▁trained": 2301,
      "▁nav": 2302,
      "▁daniel": 2303,
      "▁75": 2304,
      "##izations": 2305,
      "▁atop": 2306,
      "##ather": 2307,
      "##ilit": 2308,
      "▁gisb": 2309,
      "▁united": 2310,
      "##eech": 2311,
      "▁http://www": 2312,
      "##004": 2313,
      "▁unles": 2314,
      "▁swimming": 2315,
      "##ium": 2316,
      "▁11.5": 2317,
      "▁explain": 2318,
      "▁exception": 2319,
      "▁flex": 2320,
      "▁safe": 2321,
      "▁202": 2322,
      "$": 2323,
      "##ips": 2324,
      "▁critical": 2325,
      "##ι": 2326,
      "##393": 2327,
      "##employ": 2328,
      "▁normally": 2329,
      "##up": 2330,
      "▁called": 2331,
      "▁chicken": 2332,
      "▁1.1": 2333,
      "▁independent": 2334,
      "▁s’": 2335,
      "▁opportunity": 2336,
      "▁standards": 2337,
      "##000": 2338,
      "▁ours": 2339,
      "▁12,000": 2340,
      "▁1300": 2341,
      "▁indeed": 2342,
      "▁helping": 2343,
      "▁options": 2344,
      "ا": 2345,
      "▁penal": 2346,
      "▁1820": 2347,
      "▁wants": 2348,
      "▁pig": 2349,
      "▁readers": 2350,
      "▁av": 2351,
      "##pp": 2352,
      "▁wol": 2353,
      "▁o": 2354,
      "▁format": 2355,
      "▁disp": 2356,
      "▁face": 2357,
      "##nut": 2358,
      "▁:-)": 2359,
      "##4-": 2360,
      "▁knowing": 2361,
      "▁joint": 2362,
      "▁job": 2363,
      "##.99": 2364,
      "▁whereas": 2365,
      "##ic": 2366,
      "▁going": 2367,
      "##ven": 2368,
      "##ough": 2369,
      "##am": 2370,
      "▁brought": 2371,
      "▁continued": 2372,
      "▁11:00": 2373,
      "▁oz": 2374,
      "▁wand": 2375,
      "▁anyone": 2376,
      "▁facilities": 2377,
      "▁limited": 2378,
      "▁average": 2379,
      "▁ab": 2380,
      "▁mov": 2381,
      "##ald": 2382,
      "##ision": 2383,
      "##alam": 2384,
      "▁48": 2385,
      "▁kill": 2386,
      "▁cit": 2387,
      "▁tit": 2388,
      "##ze": 2389,
      "▁everybody": 2390,
      "##more": 2391,
      "▁russia": 2392,
      "▁hire": 2393,
      "##-1": 2394,
      "▁export": 2395,
      "▁restaurant": 2396,
      "▁money": 2397,
      "▁jwww": 2398,
      "▁constitu": 2399,
      "▁1974": 2400,
      "▁family": 2401,
      "▁01:58": 2402,
      "##iz": 2403,
      "▁representative": 2404,
      "▁lat": 2405,
      "▁nature": 2406,
      "▁during": 2407,
      "##清": 2408,
      "▁doct": 2409,
      "##.831": 2410,
      "▁68": 2411,
      "▁beginning": 2412,
      "▁intellig": 2413,
      "▁10:00": 2414,
      "##--------": 2415,
      "##.7822": 2416,
      "▁stre": 2417,
      "▁apprec": 2418,
      "▁california": 2419,
      "▁kitch": 2420,
      "▁cage": 2421,
      "▁receive": 2422,
      "##:3": 2423,
      "▁dam": 2424,
      "▁bunny": 2425,
      "▁meh-": 2426,
      "▁april": 2427,
      "##ational": 2428,
      "▁funny": 2429,
      "##stop": 2430,
      "▁imp": 2431,
      "▁sure": 2432,
      "▁83": 2433,
      "▁ow": 2434,
      "▁4": 2435,
      "▁audit": 2436,
      "##part": 2437,
      "▁imper": 2438,
      "▁respons": 2439,
      "▁charlotte": 2440,
      "▁aff": 2441,
      "##:39": 2442,
      "▁crimin": 2443,
      "▁reach": 2444,
      "▁425": 2445,
      "▁award": 2446,
      "▁puzzle": 2447,
      "▁acc": 2448,
      "▁brings": 2449,
      "▁hom": 2450,
      "▁motor": 2451,
      "▁image": 2452,
      "##olog": 2453,
      "▁1590": 2454,
      "▁pointed": 2455,
      "▁03/28/2001": 2456,
      "▁congr": 2457,
      "▁choo": 2458,
      "|": 2459,
      "▁size": 2460,
      "▁11:0": 2461,
      "▁assum": 2462,
      "▁minn": 2463,
      "##with": 2464,
      "##teenth": 2465,
      "▁london": 2466,
      "▁cr": 2467,
      "##eal": 2468,
      "##miss": 2469,
      "▁upd": 2470,
      "▁arrive": 2471,
      "##8_0": 2472,
      "▁ackn": 2473,
      "▁eleph": 2474,
      "▁advanced": 2475,
      "▁bul": 2476,
      "▁contin": 2477,
      "▁army": 2478,
      "▁door": 2479,
      "▁expand": 2480,
      "##vely": 2481,
      "▁baby": 2482,
      "▁host": 2483,
      "▁nar": 2484,
      "##9": 2485,
      "▁lie": 2486,
      "▁bassiana": 2487,
      "▁teh": 2488,
      "▁cleveland": 2489,
      "▁ku": 2490,
      "##ney": 2491,
      "##eur": 2492,
      "##eth": 2493,
      "▁bid": 2494,
      "▁25": 2495,
      "##ased": 2496,
      "▁….": 2497,
      "▁airport": 2498,
      "▁1500": 2499,
      "▁52": 2500,
      "▁@": 2501,
      "▁threat": 2502,
      "▁87": 2503,
      "▁1,": 2504,
      "▁nice": 2505,
      "b": 2506,
      "##`": 2507,
      "▁abo": 2508,
      "▁glow": 2509,
      "▁1307": 2510,
      "▁1115": 2511,
      "▁figure": 2512,
      "▁but": 2513,
      "▁afternoon": 2514,
      "▁85": 2515,
      "##ernobyl": 2516,
      "▁+45": 2517,
      "▁2050": 2518,
      "▁handle": 2519,
      "▁proceed": 2520,
      "##4014": 2521,
      "▁peaceful": 2522,
      "▁denver": 2523,
      "▁53": 2524,
      "▁&amp;": 2525,
      "##amm": 2526,
      "▁elev": 2527,
      "▁conver": 2528,
      "▁shower": 2529,
      "▁attached": 2530,
      "▁legal": 2531,
      "▁person": 2532,
      "##8-3": 2533,
      "##em": 2534,
      "▁1689": 2535,
      "##vern": 2536,
      "▁and": 2537,
      "##oss": 2538,
      "##ole": 2539,
      "▁410-468-3": 2540,
      "##ine": 2541,
      "▁phot": 2542,
      "▁vice": 2543,
      "▁neg": 2544,
      "▁’ll": 2545,
      "▁feeling": 2546,
      "▁uhh": 2547,
      "##so": 2548,
      "▁drinks": 2549,
      "▁terrorist": 2550,
      "▁weeks": 2551,
      "▁11/29/2000": 2552,
      "▁investment": 2553,
      "▁flies": 2554,
      "▁path": 2555,
      "##ada": 2556,
      "▁follows": 2557,
      "▁twel": 2558,
      "³": 2559,
      "▁sorry": 2560,
      "▁guard": 2561,
      "▁bowl": 2562,
      "▁pet": 2563,
      "▁described": 2564,
      "▁260": 2565,
      "##ript": 2566,
      "▁whe": 2567,
      "##ils": 2568,
      "▁buck": 2569,
      "▁ciao": 2570,
      "▁leads": 2571,
      "▁1988": 2572,
      "▁looks": 2573,
      "▁speed": 2574,
      "##west": 2575,
      "▁hundred": 2576,
      "▁shake": 2577,
      "▁shirt": 2578,
      "▁trust": 2579,
      "##rans": 2580,
      "▁inh": 2581,
      "▁numerous": 2582,
      "▁skin": 2583,
      "▁password": 2584,
      "▁mohammed": 2585,
      "##ounds": 2586,
      "▁profess": 2587,
      "▁penc": 2588,
      "▁hotel": 2589,
      "##ection": 2590,
      "##gth": 2591,
      "▁hur": 2592,
      "##du": 2593,
      "▁friends": 2594,
      "##ister": 2595,
      "##ples": 2596,
      "##ological": 2597,
      "##ap": 2598,
      "▁angry": 2599,
      "▁pick": 2600,
      "▁warming": 2601,
      "▁edge": 2602,
      "▁relax": 2603,
      "▁text": 2604,
      "▁sm": 2605,
      "▁spok": 2606,
      "▁elevator": 2607,
      "##four": 2608,
      "##55": 2609,
      "▁theatre": 2610,
      "▁5,000": 2611,
      "##mdrft": 2612,
      "▁dursleys": 2613,
      "▁despite": 2614,
      "▁electricity": 2615,
      "▁danny": 2616,
      "▁wak": 2617,
      "##/0": 2618,
      "▁bla": 2619,
      "▁>>": 2620,
      "▁easily": 2621,
      "▁usually": 2622,
      "##ston": 2623,
      "##wor": 2624,
      "▁simple": 2625,
      "##rupt": 2626,
      "▁’s": 2627,
      "##icious": 2628,
      "##ills": 2629,
      "▁fortun": 2630,
      "▁1575": 2631,
      "##α": 2632,
      "▁interp": 2633,
      "▁poetry": 2634,
      "▁72": 2635,
      "▁estimated": 2636,
      "▁mr": 2637,
      "▁occ": 2638,
      "##435-": 2639,
      "▁neu": 2640,
      "▁dg": 2641,
      "##ouble": 2642,
      "▁own": 2643,
      "##ert": 2644,
      "▁council": 2645,
      "▁nobody": 2646,
      "▁clearly": 2647,
      "▁terror": 2648,
      "##ained": 2649,
      "▁vodka": 2650,
      "▁clin": 2651,
      "▁ann": 2652,
      "▁1997": 2653,
      "▁patient": 2654,
      "##gin": 2655,
      "▁experimental": 2656,
      "##ipped": 2657,
      "▁recon": 2658,
      "##ush": 2659,
      "##*{===": 2660,
      "▁stress": 2661,
      "▁dise": 2662,
      "▁museum": 2663,
      "▁obviously": 2664,
      "▁values": 2665,
      "▁procedure": 2666,
      "▁histor": 2667,
      "##irts": 2668,
      "▁stomach": 2669,
      "▁include": 2670,
      "##!!": 2671,
      "▁toronto": 2672,
      "▁cell": 2673,
      "▁b.": 2674,
      "▁marriage": 2675,
      "##76": 2676,
      "▁2,000": 2677,
      "##ort": 2678,
      "▁bye": 2679,
      "▁22": 2680,
      "▁future": 2681,
      "##of": 2682,
      "▁major": 2683,
      "▁supper": 2684,
      "▁which": 2685,
      "▁416-8": 2686,
      "##89": 2687,
      "▁24.7": 2688,
      "▁neighb": 2689,
      "▁excited": 2690,
      "▁heart": 2691,
      "##61": 2692,
      "##mar": 2693,
      "▁rocks": 2694,
      "▁psychology": 2695,
      "▁burbank": 2696,
      "##y@ect": 2697,
      "▁49": 2698,
      "▁riding": 2699,
      "▁dr.": 2700,
      "##ous": 2701,
      "▁415.782": 2702,
      "▁correct": 2703,
      "##.c": 2704,
      "▁sand": 2705,
      "▁grab": 2706,
      "▁_": 2707,
      "▁told": 2708,
      "##jo": 2709,
      "▁calling": 2710,
      "▁everyone": 2711,
      "##ommend": 2712,
      "▁peop": 2713,
      "▁always": 2714,
      "▁getting": 2715,
      "▁nt": 2716,
      "▁713-853-3989": 2717,
      "▁fourth": 2718,
      "▁stone": 2719,
      "▁sen": 2720,
      "▁flav": 2721,
      "▁strike": 2722,
      "▁squir": 2723,
      "▁im": 2724,
      "▁doughnut": 2725,
      "▁everything": 2726,
      "▁6,000": 2727,
      "▁bun": 2728,
      "▁comes": 2729,
      "▁tim": 2730,
      "▁cha": 2731,
      "▁1840": 2732,
      "▁reve": 2733,
      "▁alt.animals": 2734,
      "▁inch": 2735,
      "▁thous": 2736,
      "▁may": 2737,
      "▁!!!!!!!": 2738,
      "##======": 2739,
      "▁growing": 2740,
      "▁teach": 2741,
      "▁th": 2742,
      "▁talk": 2743,
      "▁pop": 2744,
      "▁boat": 2745,
      "▁jen": 2746,
      "▁1604": 2747,
      "▁our": 2748,
      "##.st": 2749,
      "▁hor": 2750,
      "##---": 2751,
      "▁particip": 2752,
      "▁vs.": 2753,
      "▁than": 2754,
      "##,5": 2755,
      "##iqu": 2756,
      "▁pull": 2757,
      "▁unc": 2758,
      "##like": 2759,
      "##inner": 2760,
      "▁moreau": 2761,
      "▁louis": 2762,
      "##rad": 2763,
      "▁listening": 2764,
      "▁property": 2765,
      "▁uv": 2766,
      "##-3393": 2767,
      "##ange": 2768,
      "3": 2769,
      "##iday": 2770,
      "▁accept": 2771,
      "▁connect": 2772,
      "▁becom": 2773,
      "▁end": 2774,
      "▁huge": 2775,
      "▁move": 2776,
      "##/30": 2777,
      "##819": 2778,
      "##eing": 2779,
      "##.61": 2780,
      "##le": 2781,
      "▁---=": 2782,
      "##ure": 2783,
      "▁des": 2784,
      "##9.3": 2785,
      "##apolis": 2786,
      "▁married": 2787,
      "##_de": 2788,
      "##akes": 2789,
      "▁....": 2790,
      "▁cig": 2791,
      "`": 2792,
      "▁official": 2793,
      "▁1982": 2794,
      "##ians": 2795,
      "▁rece": 2796,
      "▁483": 2797,
      "▁mhm": 2798,
      "▁1949": 2799,
      "▁expert": 2800,
      "▁jump": 2801,
      "##atory": 2802,
      "▁passion": 2803,
      "▁sin": 2804,
      "##uments": 2805,
      "▁knows": 2806,
      "##ager": 2807,
      "##ock": 2808,
      "##22,000": 2809,
      "▁gun": 2810,
      "▁elephant": 2811,
      "##0/2000": 2812,
      "▁leg": 2813,
      "▁did": 2814,
      "##------": 2815,
      "▁albeit": 2816,
      "▁cray": 2817,
      "津": 2818,
      "▁civil": 2819,
      "##otte": 2820,
      "▁pretend": 2821,
      "##byl": 2822,
      "##ined": 2823,
      "##angu": 2824,
      "▁cleaning": 2825,
      "▁k": 2826,
      "▁friendly": 2827,
      "▁universal": 2828,
      "##ayed": 2829,
      "▁late": 2830,
      "▁sou": 2831,
      "▁2010": 2832,
      "▁uns": 2833,
      "##ub": 2834,
      "▁craw": 2835,
      "▁senate": 2836,
      "##ched": 2837,
      "##ipp": 2838,
      "▁3:30": 2839,
      "##iance": 2840,
      "▁surround": 2841,
      "▁says": 2842,
      "##onom": 2843,
      "▁helped": 2844,
      "▁festival": 2845,
      "##att": 2846,
      "▁congrat": 2847,
      "▁2019": 2848,
      "▁prec": 2849,
      "##ottable": 2850,
      "▁stand": 2851,
      "▁×": 2852,
      "▁900": 2853,
      "▁large": 2854,
      "▁der": 2855,
      "▁english": 2856,
      "▁cake": 2857,
      "▁leaves": 2858,
      "▁decisions": 2859,
      "##liament": 2860,
      "##av": 2861,
      "▁she": 2862,
      "▁viet": 2863,
      "▁car": 2864,
      "▁prove": 2865,
      "▁opp": 2866,
      "##-59": 2867,
      "▁202.456.1414": 2868,
      "▁selection": 2869,
      "▁montreal": 2870,
      "▁although": 2871,
      "▁suggests": 2872,
      "▁spoon": 2873,
      "▁non-": 2874,
      "▁1647": 2875,
      "▁friday": 2876,
      "▁de": 2877,
      "##stances": 2878,
      "▁ontario": 2879,
      "▁1878": 2880,
      "▁notwithstanding": 2881,
      "▁hi": 2882,
      "▁weekly": 2883,
      "▁colle": 2884,
      "▁fresh": 2885,
      "▁improvement": 2886,
      "▁circumstances": 2887,
      "##room": 2888,
      "▁jelly": 2889,
      "▁served": 2890,
      "##gan": 2891,
      "t": 2892,
      "##ached": 2893,
      "##oler": 2894,
      "▁183": 2895,
      "▁nap": 2896,
      "▁reference": 2897,
      "▁minneapolis": 2898,
      "葉": 2899,
      "▁1990": 2900,
      "##gg": 2901,
      "▁hou": 2902,
      "##five": 2903,
      "▁placed": 2904,
      "▁remark": 2905,
      "▁rate": 2906,
      "▁1805": 2907,
      "▁nmemdrft": 2908,
      "##18": 2909,
      "▁1902": 2910,
      "##ade": 2911,
      "##dred": 2912,
      "##elt": 2913,
      "▁security": 2914,
      "▁1.4": 2915,
      "▁certainly": 2916,
      "▁int": 2917,
      "▁pit": 2918,
      "▁system": 2919,
      "▁pen": 2920,
      "▁hour": 2921,
      "▁afghanistan": 2922,
      "▁even": 2923,
      "▁51": 2924,
      "▁ninety": 2925,
      "▁fri": 2926,
      "##*": 2927,
      "▁construction": 2928,
      "▁video": 2929,
      "##§": 2930,
      "▁st.": 2931,
      "▁hold": 2932,
      "▁true": 2933,
      "▁bare": 2934,
      "▁key": 2935,
      "▁playing": 2936,
      "▁cir": 2937,
      "▁thin": 2938,
      "##$": 2939,
      "▁kept": 2940,
      "▁1977": 2941,
      "▁coal": 2942,
      "▁tulsa": 2943,
      "▁u.s.": 2944,
      "▁doub": 2945,
      "▁folks": 2946,
      "▁safet": 2947,
      "##02": 2948,
      "▁evolutionary": 2949,
      "▁apple": 2950,
      "▁stopped": 2951,
      "▁charge": 2952,
      "▁bush": 2953,
      "▁1968": 2954,
      "##ect": 2955,
      "▁syria": 2956,
      "▁cos": 2957,
      "▁spoke": 2958,
      "▁mind": 2959,
      "▁climate": 2960,
      "▁convention": 2961,
      "▁mid": 2962,
      "▁consequ": 2963,
      "▁281-": 2964,
      "▁prev": 2965,
      "▁german": 2966,
      "▁brown": 2967,
      "▁fingers": 2968,
      "▁article": 2969,
      "▁718": 2970,
      "▁fiction": 2971,
      "##board": 2972,
      "▁onto": 2973,
      "▁chap": 2974,
      "▁channel": 2975,
      "##łodz": 2976,
      "▁ath": 2977,
      "##ried": 2978,
      "▁regulation": 2979,
      "##ime": 2980,
      "▁·": 2981,
      "##estic": 2982,
      "##ho": 2983,
      "##gh": 2984,
      "▁8": 2985,
      "▁orders": 2986,
      "▁713-853-1696": 2987,
      "▁queries": 2988,
      "##enron": 2989,
      "▁ven": 2990,
      "▁ought": 2991,
      "▁amid": 2992,
      "##ink": 2993,
      "▁bat": 2994,
      "▁sugg": 2995,
      "▁cod": 2996,
      "▁development": 2997,
      "##iting": 2998,
      "▁liked": 2999,
      "##men": 3000,
      "▁1978": 3001,
      "▁2500": 3002,
      "▁effects": 3003,
      "▁ultim": 3004,
      "▁asked": 3005,
      "##3098": 3006,
      "d": 3007,
      "▁spell": 3008,
      "▁800-553-3119": 3009,
      "▁mus": 3010,
      "▁vir": 3011,
      "▁good": 3012,
      "▁counter": 3013,
      "##day": 3014,
      "▁tro": 3015,
      "▁15,000": 3016,
      "▁-----------------------------------------------------------------": 3017,
      "##===": 3018,
      "▁soil": 3019,
      "▁writ": 3020,
      "##most": 3021,
      "▁rome": 3022,
      "▁crop": 3023,
      "▁considered": 3024,
      "▁pictures": 3025,
      "▁defense": 3026,
      "▁changes": 3027,
      "▁canc": 3028,
      "##ner": 3029,
      "▁2020": 3030,
      "##د": 3031,
      "▁shark": 3032,
      "##arily": 3033,
      "##uated": 3034,
      "▁50,000": 3035,
      "##78": 3036,
      "▁stock": 3037,
      "▁102": 3038,
      "▁laura": 3039,
      "▁hopefully": 3040,
      "▁commons": 3041,
      "##out": 3042,
      "##dden": 3043,
      "▁5000": 3044,
      "▁network": 3045,
      "▁amidst": 3046,
      "##da": 3047,
      "##φ": 3048,
      "▁tr": 3049,
      "▁slowly": 3050,
      "▁liquid": 3051,
      "▁10,000": 3052,
      "0": 3053,
      "▁e-mail": 3054,
      "°": 3055,
      "▁1583": 3056,
      "▁http://www.": 3057,
      "▁11:30": 3058,
      "##σ": 3059,
      "##ivia": 3060,
      "##gl": 3061,
      "▁huit": 3062,
      "##.77": 3063,
      "##een": 3064,
      "▁we": 3065,
      "’": 3066,
      "▁momma": 3067,
      "▁sort": 3068,
      "##☏": 3069,
      "##ban": 3070,
      "▁surger": 3071,
      "▁cooper": 3072,
      "##aman": 3073,
      "▁sat": 3074,
      "▁-stip": 3075,
      "▁7.2": 3076,
      "##ury": 3077,
      "▁create": 3078,
      "▁shit": 3079,
      "##rect": 3080,
      "▁ou": 3081,
      "▁xml": 3082,
      "▁jason": 3083,
      "▁713-654-1281": 3084,
      "##ql": 3085,
      "▁nwww": 3086,
      "▁no-6": 3087,
      "▁sell": 3088,
      "▁es": 3089,
      "▁unknown": 3090,
      "##edge": 3091,
      "##@enron_development": 3092,
      "▁sweet": 3093,
      "▁fem": 3094,
      "##ug": 3095,
      "##1-": 3096,
      "▁pericles": 3097,
      "▁ok": 3098,
      "▁bears": 3099,
      "▁principle": 3100,
      "▁levels": 3101,
      "##ival": 3102,
      "▁internet": 3103,
      "##sel": 3104,
      "▁feature": 3105,
      "##osition": 3106,
      "▁295870": 3107,
      "▁miss": 3108,
      "▁social": 3109,
      "▁features": 3110,
      "##ma": 3111,
      "▁benefits": 3112,
      "##ning": 3113,
      "##phere": 3114,
      "▁hey": 3115,
      "▁governments": 3116,
      "▁gramm": 3117,
      "##bank": 3118,
      "##iness": 3119,
      "▁dando": 3120,
      "▁hiking": 3121,
      "▁16.3": 3122,
      "▁quiet": 3123,
      "##721": 3124,
      "▁liter": 3125,
      "▁novel": 3126,
      "▁caught": 3127,
      "▁go": 3128,
      "▁'m": 3129,
      "▁proud": 3130,
      "▁discover": 3131,
      "##16.718": 3132,
      "▁list": 3133,
      "▁newspaper": 3134,
      "##ension": 3135,
      "▁leader": 3136,
      "▁families": 3137,
      "l": 3138,
      "##inated": 3139,
      "##7/2000": 3140,
      "▁win": 3141,
      "▁front": 3142,
      "▁pressure": 3143,
      "▁flower": 3144,
      "##50": 3145,
      "▁contribution": 3146,
      "▁india": 3147,
      "▁factor": 3148,
      "▁situ": 3149,
      "▁ident": 3150,
      "▁based": 3151,
      "▁adjust": 3152,
      "▁extended": 3153,
      "▁fusca": 3154,
      "##ted": 3155,
      "##ares": 3156,
      "▁regist": 3157,
      "##ishing": 3158,
      "##:42": 3159,
      "▁stom": 3160,
      "▁filled": 3161,
      "▁doggie": 3162,
      "▁appropriate": 3163,
      "▁plays": 3164,
      "▁shorts": 3165,
      "▁415.621": 3166,
      "##ular": 3167,
      "▁piec": 3168,
      "##itive": 3169,
      "▁becomes": 3170,
      "▁meat": 3171,
      "▁claims": 3172,
      "▁colon": 3173,
      "▁:p": 3174,
      "▁silk": 3175,
      "▁rolling": 3176,
      "▁structure": 3177,
      "▁muse": 3178,
      "▁loose": 3179,
      "▁ken": 3180,
      "▁arrang": 3181,
      "▁abb": 3182,
      "▁cat": 3183,
      "▁moder": 3184,
      "▁toast": 3185,
      "▁ends": 3186,
      "▁fat": 3187,
      "▁143": 3188,
      "▁alone": 3189,
      "▁emphas": 3190,
      "▁basil": 3191,
      "▁130": 3192,
      "▁1,000": 3193,
      "▁2.": 3194,
      "##aq": 3195,
      "▁petersburg": 3196,
      "▁1846": 3197,
      "▁took": 3198,
      "▁26": 3199,
      "▁...": 3200,
      "▁letters": 3201,
      "##oo": 3202,
      "▁70": 3203,
      "▁bi": 3204,
      "▁anthrax": 3205,
      "##uses": 3206,
      "▁visited": 3207,
      "##rated": 3208,
      "▁address": 3209,
      "▁done": 3210,
      "##ans": 3211,
      "▁12:30": 3212,
      "##min": 3213,
      "▁harv": 3214,
      "▁hea": 3215,
      "▁newark": 3216,
      "▁decade": 3217,
      "##where": 3218,
      "▁li": 3219,
      "▁vernon": 3220,
      "▁report": 3221,
      "▁1200": 3222,
      "##,0": 3223,
      "▁p.s": 3224,
      "##burg": 3225,
      "▁predict": 3226,
      "##rest": 3227,
      "##65-3": 3228,
      "▁sciss": 3229,
      "##back": 3230,
      "##ume": 3231,
      "▁court": 3232,
      "▁somebody": 3233,
      "▁goat": 3234,
      "▁sudden": 3235,
      "##ckl": 3236,
      "▁january": 3237,
      "▁ict": 3238,
      "▁provisions": 3239,
      "▁cow": 3240,
      "##:45": 3241,
      "##ively": 3242,
      "▁county": 3243,
      "##eap": 3244,
      "##ably": 3245,
      "▁alle": 3246,
      "▁each": 3247,
      "##ror": 3248,
      "▁wor": 3249,
      "▁conflict": 3250,
      "▁euro": 3251,
      "▁attended": 3252,
      "▁1821": 3253,
      "▁home": 3254,
      "▁fam": 3255,
      "▁october": 3256,
      "ß": 3257,
      "##ab": 3258,
      "##5/2001": 3259,
      "##ugg": 3260,
      "##ork": 3261,
      "##inging": 3262,
      "▁corporate": 3263,
      "▁peters": 3264,
      "▁amb": 3265,
      "▁writing": 3266,
      "▁1780": 3267,
      "▁jo": 3268,
      "▁shad": 3269,
      "▁modern": 3270,
      "▁1920": 3271,
      "▁complex": 3272,
      "##omer": 3273,
      "▁flights": 3274,
      "▁death": 3275,
      "▁04": 3276,
      "##@ect": 3277,
      "##ellow": 3278,
      "##porary": 3279,
      "▁cart": 3280,
      "▁surgery": 3281,
      "▁spending": 3282,
      "▁website": 3283,
      "[PAD]": 3284,
      "##oun": 3285,
      "##/15/2001": 3286,
      "▁619": 3287,
      "##ign": 3288,
      "##able": 3289,
      "##tail": 3290,
      "▁attack": 3291,
      "##ually": 3292,
      "▁great": 3293,
      "▁long": 3294,
      "##wau": 3295,
      "##self": 3296,
      "##-23": 3297,
      "▁goals": 3298,
      "▁philadelphia": 3299,
      "▁formal": 3300,
      "▁exper": 3301,
      "▁2100": 3302,
      "▁lee": 3303,
      "▁luc": 3304,
      "▁'s": 3305,
      "##********************************": 3306,
      "▁collective": 3307,
      "▁surprising": 3308,
      "##ick": 3309,
      "▁theory": 3310,
      "##lined": 3311,
      "▁depending": 3312,
      "▁re": 3313,
      "▁cous": 3314,
      "##8/2001": 3315,
      "▁december": 3316,
      "▁telev": 3317,
      "##ounts": 3318,
      "▁removed": 3319,
      "▁mal": 3320,
      "##eb": 3321,
      "##animals": 3322,
      "▁wig": 3323,
      "▁rent": 3324,
      "▁glove": 3325,
      "▁eighty": 3326,
      "▁into": 3327,
      "▁l": 3328,
      "##301": 3329,
      "▁750,000": 3330,
      "▁china": 3331,
      "▁1831": 3332,
      "▁shackleton@ect": 3333,
      "##ounced": 3334,
      "▁most": 3335,
      "##erous": 3336,
      "▁church": 3337,
      "▁mech": 3338,
      "▁signs": 3339,
      "▁ate": 3340,
      "▁accom": 3341,
      "▁khan": 3342,
      "##ts": 3343,
      "▁surface": 3344,
      "▁cook": 3345,
      "▁refr": 3346,
      "▁claimed": 3347,
      "▁jean": 3348,
      "▁shoulder": 3349,
      "##orio": 3350,
      "##raft": 3351,
      "##ina": 3352,
      "##trans": 3353,
      "▁approximately": 3354,
      "▁naim": 3355,
      "▁rules": 3356,
      "▁wilson": 3357,
      "▁paper": 3358,
      "▁steph": 3359,
      "▁dis": 3360,
      "▁them": 3361,
      "▁these": 3362,
      "▁v": 3363,
      "##-": 3364,
      "樋": 3365,
      "##ract": 3366,
      "▁discuss": 3367,
      "▁falls": 3368,
      "▁australia": 3369,
      "▁1801": 3370,
      "##ala": 3371,
      "▁ensure": 3372,
      "▁deg": 3373,
      "##ization": 3374,
      "▁ft": 3375,
      "##io": 3376,
      "▁purchase": 3377,
      "▁http": 3378,
      "▁pot": 3379,
      "▁coach": 3380,
      "▁cost": 3381,
      "##-f": 3382,
      "##ided": 3383,
      "▁send": 3384,
      "▁realized": 3385,
      "▁faith": 3386,
      "▁careful": 3387,
      "▁efficiency": 3388,
      "▁below": 3389,
      "▁virt": 3390,
      "▁beside": 3391,
      "▁rescue": 3392,
      "▁appear": 3393,
      "▁sit": 3394,
      "▁religious": 3395,
      "▁july": 3396,
      "▁inst": 3397,
      "▁-ect": 3398,
      "▁4:30": 3399,
      "##eless": 3400,
      "##53-3119": 3401,
      "▁knew": 3402,
      "##**********************************": 3403,
      "▁stupid": 3404,
      "▁2013": 3405,
      "▁fle": 3406,
      "##ative": 3407,
      "▁officials": 3408,
      "##0010": 3409,
      "▁return": 3410,
      "▁ltte": 3411,
      "##rep": 3412,
      "▁a.": 3413,
      "▁par": 3414,
      "▁piece": 3415,
      "▁yesterday": 3416,
      "▁concerning": 3417,
      "▁ingredients": 3418,
      "▁pow": 3419,
      "##elle": 3420,
      "##p": 3421,
      "##fri": 3422,
      "▁stands": 3423,
      "▁simp": 3424,
      "##uss": 3425,
      "▁quite": 3426,
      "▁office": 3427,
      "##y@enron_development": 3428,
      "##================================": 3429,
      "ه": 3430,
      "▁_______": 3431,
      "▁notes": 3432,
      "##vey": 3433,
      "▁fab": 3434,
      "▁distingu": 3435,
      "▁positive": 3436,
      "▁45": 3437,
      "▁?!": 3438,
      "▁alber": 3439,
      "▁import": 3440,
      "▁escape": 3441,
      "##idden": 3442,
      "##aken": 3443,
      "▁fuck": 3444,
      "##esth": 3445,
      "▁interesting": 3446,
      "▁community": 3447,
      "▁860": 3448,
      "▁columbus": 3449,
      "##ird": 3450,
      "▁having": 3451,
      "y": 3452,
      "▁probably": 3453,
      "▁eye": 3454,
      "▁814": 3455,
      "▁financial": 3456,
      "##wa": 3457,
      "▁all": 3458,
      "##~*": 3459,
      "##ribe": 3460,
      "▁story": 3461,
      "▁-----------------": 3462,
      "##/13": 3463,
      "▁environ": 3464,
      "▁ram": 3465,
      "€": 3466,
      "▁structures": 3467,
      "##eral": 3468,
      "##lect": 3469,
      "##2-": 3470,
      "##orum": 3471,
      "▁800": 3472,
      "▁income": 3473,
      "##========": 3474,
      "##-625": 3475,
      "▁180": 3476,
      "▁where": 3477,
      "▁never": 3478,
      "##esc": 3479,
      "▁himself": 3480,
      "▁dinner": 3481,
      "##ها": 3482,
      "▁seriously": 3483,
      "##0295": 3484,
      "▁land": 3485,
      "▁1603": 3486,
      "▁inspired": 3487,
      "▁fin": 3488,
      "##isco": 3489,
      "##½": 3490,
      "▁crack": 3491,
      "▁wether": 3492,
      "▁5.5": 3493,
      "▁failed": 3494,
      "▁island": 3495,
      "##eable": 3496,
      "▁cra": 3497,
      "▁writers": 3498,
      "##/00": 3499,
      "▁an": 3500,
      "▁balls": 3501,
      "##.net": 3502,
      "▁goes": 3503,
      "▁sees": 3504,
      "▁cycle": 3505,
      "▁david": 3506,
      "▁3.7": 3507,
      "▁agriculture": 3508,
      "▁willing": 3509,
      "▁raise": 3510,
      "▁white": 3511,
      "##ired": 3512,
      "##ien": 3513,
      "##-84": 3514,
      "▁suprem": 3515,
      "##空": 3516,
      "##yl": 3517,
      "##roit": 3518,
      "▁34": 3519,
      "##谿": 3520,
      "▁hand": 3521,
      "▁2009": 3522,
      "▁develop": 3523,
      "▁measure": 3524,
      "▁1-800-991-9019": 3525,
      "▁sea": 3526,
      "▁throw": 3527,
      "▁when": 3528,
      "##q": 3529,
      "♥": 3530,
      "▁plat": 3531,
      "▁bar": 3532,
      "▁713-853-3098": 3533,
      "▁serves": 3534,
      "▁offic": 3535,
      "▁airlines": 3536,
      "º": 3537,
      "▁neigh": 3538,
      "▁peace": 3539,
      "▁litt": 3540,
      "##use": 3541,
      "##1082": 3542,
      "▁mart": 3543,
      "▁cas": 3544,
      "β": 3545,
      "▁negative": 3546,
      "▁?!?": 3547,
      "▁vict": 3548,
      "▁trans": 3549,
      "##.m": 3550,
      "▁crisis": 3551,
      "▁one": 3552,
      "▁bed": 3553,
      "##ped": 3554,
      "##ois": 3555,
      "▁chocol": 3556,
      "▁suck": 3557,
      "▁fol": 3558,
      "##.15": 3559,
      "##46": 3560,
      "]": 3561,
      "▁drink": 3562,
      "▁530": 3563,
      "▁untill": 3564,
      "▁through": 3565,
      "▁heat": 3566,
      "▁manufact": 3567,
      "▁bos": 3568,
      "▁very": 3569,
      "##-27": 3570,
      "▁hu": 3571,
      "▁ar": 3572,
      "▁disapp": 3573,
      "▁hurt": 3574,
      "##riage": 3575,
      "▁specific": 3576,
      "▁cou": 3577,
      "▁revolution": 3578,
      "▁aboard": 3579,
      "##tride": 3580,
      "▁tight": 3581,
      "##134": 3582,
      "▁4-12": 3583,
      "▁sur": 3584,
      "▁trash": 3585,
      "▁--": 3586,
      "▁damage": 3587,
      "▁mur": 3588,
      "▁soon": 3589,
      "▁aesth": 3590,
      "▁decades": 3591,
      "##ently": 3592,
      "##ges": 3593,
      "▁campa": 3594,
      "▁2015": 3595,
      "▁dogg": 3596,
      "▁tampa": 3597,
      "司": 3598,
      "##stein": 3599,
      "▁arr": 3600,
      "##de": 3601,
      "▁hind": 3602,
      "▁necessarily": 3603,
      "▁neat": 3604,
      "▁document": 3605,
      "##ile": 3606,
      "##utely": 3607,
      "▁rub": 3608,
      "##和": 3609,
      "▁give": 3610,
      "##ests": 3611,
      "▁curren": 3612,
      "▁angeles": 3613,
      "##ores": 3614,
      "▁mist": 3615,
      "▁snitch": 3616,
      "▁elect": 3617,
      "##:/": 3618,
      "##iver": 3619,
      "##ity": 3620,
      "▁particularly": 3621,
      "▁incor": 3622,
      "▁horn": 3623,
      "▁sleeping": 3624,
      "▁published": 3625,
      "▁dre": 3626,
      "▁floating": 3627,
      "##ron": 3628,
      "▁reasonable": 3629,
      "▁pakistani": 3630,
      "##ull": 3631,
      "##7/99": 3632,
      "▁state": 3633,
      "##ere": 3634,
      "▁frank": 3635,
      "▁wik": 3636,
      "▁cris": 3637,
      "▁current": 3638,
      "##ux": 3639,
      "▁boxes": 3640,
      "▁equ": 3641,
      "▁caused": 3642,
      "##ool": 3643,
      "##oms": 3644,
      "▁examples": 3645,
      "▁democr": 3646,
      "▁review": 3647,
      "▁requirements": 3648,
      "▁stoy": 3649,
      "##uck": 3650,
      "▁mweta": 3651,
      "##bal": 3652,
      "##oe": 3653,
      "▁symp": 3654,
      "▁granted": 3655,
      "▁wr": 3656,
      "##201": 3657,
      "▁constit": 3658,
      "▁12:12": 3659,
      "▁exactly": 3660,
      "▁climb": 3661,
      "▁1932": 3662,
      "▁replaced": 3663,
      "▁poverty": 3664,
      "▁cheap": 3665,
      "##verage": 3666,
      "▁design": 3667,
      "▁closely": 3668,
      "▁bottom": 3669,
      "▁for": 3670,
      "▁yea": 3671,
      "##ion": 3672,
      "▁lunch": 3673,
      "▁.!": 3674,
      "▁04/16/2001": 3675,
      "##ying": 3676,
      "▁1918": 3677,
      "▁fut": 3678,
      "▁ter": 3679,
      "▁how": 3680,
      "▁forgot": 3681,
      "▁mot": 3682,
      "▁translation": 3683,
      "▁liber": 3684,
      "##6": 3685,
      "▁accident": 3686,
      "▁substant": 3687,
      "##ending": 3688,
      "▁events": 3689,
      "##vert": 3690,
      "▁825": 3691,
      "▁price": 3692,
      "▁log": 3693,
      "▁skittles": 3694,
      "▁pour": 3695,
      "##ify": 3696,
      "▁institutions": 3697,
      "▁elsewhere": 3698,
      "▁mexico": 3699,
      "▁1779": 3700,
      "##====": 3701,
      "▁surr": 3702,
      "##ses": 3703,
      "▁120,000": 3704,
      "##itting": 3705,
      "▁arrives": 3706,
      "▁bump": 3707,
      "##:": 3708,
      "▁kitt": 3709,
      "##illed": 3710,
      "▁vast": 3711,
      "▁bir": 3712,
      "▁dyn": 3713,
      "▁tear": 3714,
      "##57": 3715,
      "▁fall": 3716,
      "▁il": 3717,
      "▁data": 3718,
      "##/16": 3719,
      "▁murder": 3720,
      "▁used": 3721,
      "##91": 3722,
      "▁islamic": 3723,
      "##5-0": 3724,
      "##8196021": 3725,
      "##'re": 3726,
      "▁1585": 3727,
      "▁besid": 3728,
      "▁decide": 3729,
      "ˈ": 3730,
      "##iers": 3731,
      "##!?": 3732,
      "##rael": 3733,
      "##b)": 3734,
      "▁mouth": 3735,
      "▁users": 3736,
      "▁western": 3737,
      "▁light": 3738,
      "##8/2000": 3739,
      "##f": 3740,
      "##ford": 3741,
      "▁informed": 3742,
      "▁:(": 3743,
      "▁desper": 3744,
      "▁{": 3745,
      "▁430": 3746,
      "▁chickens": 3747,
      "##ood": 3748,
      "▁walking": 3749,
      "▁james": 3750,
      "▁47,500": 3751,
      "▁betw": 3752,
      "▁sor": 3753,
      "##==": 3754,
      "▁out": 3755,
      "▁lowest": 3756,
      "▁accur": 3757,
      "##ting": 3758,
      "▁arriving": 3759,
      "##ric": 3760,
      "##ground": 3761,
      "##aves": 3762,
      "##13": 3763,
      "▁ya": 3764,
      "##2": 3765,
      "▁6:30": 3766,
      "##73": 3767,
      "##ache": 3768,
      "▁september": 3769,
      "▁wrote": 3770,
      "▁1-800": 3771,
      "▁conclusion": 3772,
      "##.": 3773,
      "##:57": 3774,
      "▁field": 3775,
      "▁pack": 3776,
      "##ls": 3777,
      "##<----": 3778,
      "▁commissioner": 3779,
      "##life": 3780,
      "▁120": 3781,
      "##ibreat": 3782,
      "▁reply": 3783,
      "##over": 3784,
      "##xic": 3785,
      "##ikh": 3786,
      "##reh": 3787,
      "▁block": 3788,
      "▁four": 3789,
      "▁barn": 3790,
      "▁cigare": 3791,
      "▁dinosaur": 3792,
      "▁grant": 3793,
      "▁set": 3794,
      "▁perhaps": 3795,
      "##lf": 3796,
      "##wh": 3797,
      "##uclear": 3798,
      "▁coast": 3799,
      "##epend": 3800,
      "▁747": 3801,
      "##ving": 3802,
      "▁commit": 3803,
      "▁vie": 3804,
      "##ath": 3805,
      "##ength": 3806,
      "▁meet": 3807,
      "▁declar": 3808,
      "▁team": 3809,
      "##ologies": 3810,
      "##/08": 3811,
      "▁mention": 3812,
      "▁norm": 3813,
      "▁1985": 3814,
      "▁signed": 3815,
      "▁doubt": 3816,
      "##rr": 3817,
      "▁spir": 3818,
      "▁417": 3819,
      "##king": 3820,
      "▁leigh": 3821,
      "▁research": 3822,
      "▁refuge": 3823,
      "▁up": 3824,
      "##24": 3825,
      "▁attrib": 3826,
      "▁twelve": 3827,
      "##.s": 3828,
      "▁lun": 3829,
      "▁xsd": 3830,
      "▁11/10/2000": 3831,
      "▁intern": 3832,
      "▁critics": 3833,
      "▁desk": 3834,
      "▁38": 3835,
      "▁1945": 3836,
      "##(": 3837,
      "▁phil": 3838,
      "##ocol": 3839,
      "▁definition": 3840,
      "▁mountains": 3841,
      "▁worms": 3842,
      "[MASK]": 3843,
      "▁char": 3844,
      "▁crit": 3845,
      "▁citizens": 3846,
      "▁1964": 3847,
      "##iques": 3848,
      "▁importance": 3849,
      "▁gas": 3850,
      "▁vs": 3851,
      "▁publish": 3852,
      "▁being": 3853,
      "▁thurs": 3854,
      "▁name": 3855,
      "▁813": 3856,
      "▁experienced": 3857,
      "##way": 3858,
      "▁led": 3859,
      "▁science": 3860,
      "##inking": 3861,
      "##38": 3862,
      "##oll": 3863,
      "▁72,000": 3864,
      "▁sal": 3865,
      "##ience": 3866,
      "▁length": 3867,
      "▁day": 3868,
      "##ione": 3869,
      "▁manuf": 3870,
      "▁bunch": 3871,
      "##od": 3872,
      "▁planet": 3873,
      "▁1-800-991-90": 3874,
      "▁lack": 3875,
      "▁per": 3876,
      "▁tre": 3877,
      "▁…": 3878,
      "▁fift": 3879,
      "##fa": 3880,
      "▁doctor": 3881,
      "▁vet": 3882,
      "##erno": 3883,
      "##tra": 3884,
      "▁domain": 3885,
      "▁member": 3886,
      "▁01810": 3887,
      "▁che": 3888,
      "▁morality": 3889,
      "▁soph": 3890,
      "▁1972": 3891,
      "▁s/he": 3892,
      "▁713-793-": 3893,
      "##itch": 3894,
      "##boo": 3895,
      "▁nook": 3896,
      "▁origin": 3897,
      "##gill": 3898,
      "▁cincinnati": 3899,
      "##29": 3900,
      "▁lar": 3901,
      "##ushing": 3902,
      "▁ourselves": 3903,
      "▁tot": 3904,
      "##ul": 3905,
      "##ors": 3906,
      "▁hamm": 3907,
      "##pan": 3908,
      "▁babies": 3909,
      "▁recall": 3910,
      "▁grandmother": 3911,
      "▁experiment": 3912,
      "▁french": 3913,
      "▁mom": 3914,
      "##ρ": 3915,
      "▁economy": 3916,
      "▁ho": 3917,
      "▁basis": 3918,
      "a": 3919,
      "##ula": 3920,
      "▁beatles": 3921,
      "▁welcome": 3922,
      "▁cont": 3923,
      "▁fing": 3924,
      "##an": 3925,
      "▁1992": 3926,
      "▁kid": 3927,
      "▁subst": 3928,
      "▁prosper": 3929,
      "▁[": 3930,
      "[UNK]": 3931,
      "▁achieve": 3932,
      "▁yester": 3933,
      "▁hungry": 3934,
      "▁able": 3935,
      "▁partners": 3936,
      "▁29587": 3937,
      "▁anti-": 3938,
      "▁urban": 3939,
      "▁harmon": 3940,
      "▁hog": 3941,
      "▁might": 3942,
      "▁w/": 3943,
      "▁059085": 3944,
      "▁/": 3945,
      "▁singing": 3946,
      "▁scr": 3947,
      "##md": 3948,
      "▁coll": 3949,
      "##atter": 3950,
      "▁authorities": 3951,
      "##sd": 3952,
      "▁saw": 3953,
      "▁straw": 3954,
      "▁israel": 3955,
      "▁......": 3956,
      "▁vogel": 3957,
      "▁romantic": 3958,
      "▁liqu": 3959,
      "▁rul": 3960,
      "▁pleased": 3961,
      "▁elections": 3962,
      "▁04/2": 3963,
      "##berry": 3964,
      "##ky": 3965,
      "▁charles": 3966,
      "▁bn": 3967,
      "▁bur": 3968,
      "▁twenty-six": 3969,
      "##mission": 3970,
      "▁peau": 3971,
      "▁1966": 3972,
      "▁08/15/2000": 3973,
      "▁rapid": 3974,
      "##uate": 3975,
      "▁1.5": 3976,
      "▁'re": 3977,
      "▁pict": 3978,
      "▁12:42": 3979,
      "▁completely": 3980,
      "¢": 3981,
      "▁met": 3982,
      "▁[...": 3983,
      "▁soc": 3984,
      "▁theod": 3985,
      "▁manage": 3986,
      "▁norton": 3987,
      "▁57": 3988,
      "▁canad": 3989,
      "▁transfer": 3990,
      "##ber": 3991,
      "▁square": 3992,
      "▁movement": 3993,
      "▁top": 3994,
      "▁cocktail": 3995,
      "▁strict": 3996,
      "##59": 3997,
      "▁direct": 3998,
      "▁170": 3999,
      "##ه": 4000,
      "▁possible": 4001,
      "##ment": 4002,
      "▁713/": 4003,
      "▁115": 4004,
      "▁'em": 4005,
      "▁“": 4006,
      "▁.doc": 4007,
      "##ash": 4008,
      "▁al": 4009,
      "▁cam": 4010,
      "▁construct": 4011,
      "▁1691": 4012,
      "▁gdp": 4013,
      "▁allow": 4014,
      "▁ment": 4015,
      "##ay": 4016,
      "##奈": 4017,
      "##ists": 4018,
      "▁29": 4019,
      "▁affected": 4020,
      "▁counterfe": 4021,
      "▁fly": 4022,
      "▁1999": 4023,
      "▁conscious": 4024,
      "▁nuclear": 4025,
      "古": 4026,
      "▁seats": 4027,
      "▁jokes": 4028,
      "##æ": 4029,
      "▁according": 4030,
      "##810": 4031,
      "▁1790": 4032,
      "œ": 4033,
      "▁games": 4034,
      "▁named": 4035,
      "##c": 4036,
      "▁what": 4037,
      "▁stories": 4038,
      "##low": 4039,
      "▁yout": 4040,
      "<": 4041,
      "▁sounds": 4042,
      "##ns": 4043,
      "▁10/23/2000": 4044,
      "##ivity": 4045,
      "##:1": 4046,
      "##一": 4047,
      "▁ret": 4048,
      "▁images": 4049,
      "▁12.": 4050,
      "▁josh": 4051,
      "##icial": 4052,
      "▁source": 4053,
      "▁toys": 4054,
      "▁1738": 4055,
      "▁paying": 4056,
      "▁shakes": 4057,
      "▁developed": 4058,
      "▁seeing": 4059,
      "▁belie": 4060,
      "▁adopt": 4061,
      "▁prices": 4062,
      "▁46": 4063,
      "▁comedie": 4064,
      "▁no": 4065,
      "▁202.7": 4066,
      "▁fbi": 4067,
      "▁wife": 4068,
      "▁talked": 4069,
      "▁streets": 4070,
      "▁01/2": 4071,
      "##erson": 4072,
      "▁apply": 4073,
      "▁11-20-": 4074,
      "▁earth": 4075,
      "##uction": 4076,
      "▁answers": 4077,
      "##:32": 4078,
      "▁twentieth": 4079,
      "▁amendments": 4080,
      "▁38,000": 4081,
      "▁================================================": 4082,
      "▁31": 4083,
      "##oul": 4084,
      "▁twenty-": 4085,
      "▁naima": 4086,
      "##rier": 4087,
      "##ij": 4088,
      "▁c": 4089,
      "▁l'": 4090,
      "▁defined": 4091,
      "##ml": 4092,
      "▁tab": 4093,
      "##craft": 4094,
      "▁cur": 4095,
      "▁rose": 4096,
      "▁.x": 4097,
      "▁bad": 4098,
      "##erry": 4099,
      "▁furniture": 4100,
      "##icago": 4101,
      "▁complete": 4102,
      "▁amongst": 4103,
      "▁percentage": 4104,
      "##ozer": 4105,
      "##90": 4106,
      "##pite": 4107,
      "▁947": 4108,
      "ʃ": 4109,
      "▁thousand": 4110,
      "▁polic": 4111,
      "▁seemed": 4112,
      "▁widely": 4113,
      "##712": 4114,
      "▁anglo": 4115,
      "‘": 4116,
      "▁pricing": 4117,
      "▁revenue": 4118,
      "▁1928": 4119,
      "##ye": 4120,
      "▁executive": 4121,
      "▁op": 4122,
      "▁arrog": 4123,
      "##leep": 4124,
      "▁vlog": 4125,
      "##ically": 4126,
      "▁something": 4127,
      "▁his": 4128,
      "▁hot": 4129,
      "##oulder": 4130,
      "##ode": 4131,
      "##unte": 4132,
      "▁actually": 4133,
      "##-n": 4134,
      "▁chinese": 4135,
      "▁cool": 4136,
      "▁blow": 4137,
      "▁occas": 4138,
      "##,": 4139,
      "▁1623": 4140,
      "▁opportun": 4141,
      "##isation": 4142,
      "##ext": 4143,
      "##go": 4144,
      "##ith": 4145,
      "▁feels": 4146,
      "▁approved": 4147,
      "▁08:30": 4148,
      "▁negoti": 4149,
      "▁nothing": 4150,
      "▁leading": 4151,
      "▁far": 4152,
      "▁calls": 4153,
      "▁thoughts": 4154,
      "▁40": 4155,
      "##?": 4156,
      "▁directive": 4157,
      "▁ingred": 4158,
      "▁pie": 4159,
      "▁mass": 4160,
      "▁253": 4161,
      "▁heads": 4162,
      "▁1940": 4163,
      "##ride": 4164,
      "##ero": 4165,
      "##3c": 4166,
      "##ued": 4167,
      "▁forster": 4168,
      "▁integr": 4169,
      "##just": 4170,
      "▁patter": 4171,
      "##right": 4172,
      "##gue": 4173,
      "▁authority": 4174,
      "▁helpful": 4175,
      "##)": 4176,
      "▁yeah": 4177,
      "▁enough": 4178,
      "##osh": 4179,
      "▁ital": 4180,
      "▁64": 4181,
      "##ant": 4182,
      "▁help": 4183,
      "▁describe": 4184,
      "▁would": 4185,
      "▁hop": 4186,
      "▁belg": 4187,
      "▁helps": 4188,
      "▁federal": 4189,
      "▁opin": 4190,
      "▁wow": 4191,
      "▁global": 4192,
      "▁worried": 4193,
      "▁713/8": 4194,
      "▁1971": 4195,
      "##490": 4196,
      "æ": 4197,
      "▁08:50": 4198,
      "##eries": 4199,
      "▁business": 4200,
      "'": 4201,
      "▁prod": 4202,
      "▁rep": 4203,
      "##ments": 4204,
      "##igator": 4205,
      "▁driving": 4206,
      "##s/": 4207,
      "▁dar": 4208,
      "▁28": 4209,
      "▁plan": 4210,
      "##tle": 4211,
      "▁live": 4212,
      "▁august": 4213,
      "▁content": 4214,
      "▁became": 4215,
      "▁aside": 4216,
      "▁perf": 4217,
      "▁hung": 4218,
      "▁flag": 4219,
      "##neath": 4220,
      "▁thro": 4221,
      "▁dear": 4222,
      "▁2014": 4223,
      "▁300,000": 4224,
      "▁scott": 4225,
      "##aters": 4226,
      "▁ron": 4227,
      "▁diss": 4228,
      "▁sens": 4229,
      "##:02": 4230,
      "▁_____": 4231,
      "▁architect": 4232,
      "##ie": 4233,
      "▁activ": 4234,
      "##hood": 4235,
      "▁learned": 4236,
      "▁vietn": 4237,
      "##ping": 4238,
      "▁finger": 4239,
      "▁202.45": 4240,
      "##@enron": 4241,
      "▁apar": 4242,
      "▁so": 4243,
      "▁vince": 4244,
      "##rel": 4245,
      "##less": 4246,
      "##ox": 4247,
      "▁creative": 4248,
      "▁ale": 4249,
      "▁march": 4250,
      "##in": 4251,
      "▁measures": 4252,
      "▁distrib": 4253,
      "##ell": 4254,
      "▁1530": 4255,
      "▁explained": 4256,
      "▁10/2": 4257,
      "▁viol": 4258,
      "##enn": 4259,
      "▁vis": 4260,
      "▁08/17/2000": 4261,
      "▁fair": 4262,
      "▁!.": 4263,
      "▁favour": 4264,
      "▁tract": 4265,
      "▁cooperation": 4266,
      "##樋": 4267,
      "##:11": 4268,
      "##kin": 4269,
      "##80-": 4270,
      "##inc": 4271,
      "##icient": 4272,
      "▁1709": 4273,
      "▁5.8": 4274,
      "▁season": 4275,
      "##icles": 4276,
      "▁former": 4277,
      "▁wild": 4278,
      "▁influ": 4279,
      "##7.77": 4280,
      "##zai": 4281,
      "▁active": 4282,
      "▁explor": 4283,
      "▁versus": 4284,
      "▁1602": 4285,
      "▁iraq": 4286,
      "▁mike": 4287,
      "##£": 4288,
      "▁dent": 4289,
      "▁.......": 4290,
      "▁applications": 4291,
      "##uj": 4292,
      "▁hal": 4293,
      "▁;": 4294,
      "▁are": 4295,
      "▁anc": 4296,
      "##_2": 4297,
      "▁agre": 4298,
      "##ii": 4299,
      "▁if": 4300,
      "▁esp": 4301,
      "▁kent": 4302,
      "▁oc": 4303,
      "##-l": 4304,
      "▁sched": 4305,
      "##ured": 4306,
      "▁hello": 4307,
      "##fet": 4308,
      "##-696": 4309,
      "▁tomato": 4310,
      "▁9:30": 4311,
      "▁majority": 4312,
      "▁realize": 4313,
      "##oni": 4314,
      "▁seeking": 4315,
      "▁154": 4316,
      "▁730": 4317,
      "▁mwet": 4318,
      "##acts": 4319,
      "▁promise": 4320,
      "▁successfully": 4321,
      "▁general": 4322,
      "##ious": 4323,
      "r": 4324,
      "##clock": 4325,
      "##og": 4326,
      "▁accomm": 4327,
      "▁items": 4328,
      "▁1776": 4329,
      "##:35": 4330,
      "##.676": 4331,
      "▁transl": 4332,
      "##.95": 4333,
      "▁airports": 4334,
      "▁serving": 4335,
      "▁appointment": 4336,
      "##gers": 4337,
      "##unic": 4338,
      "▁role": 4339,
      "##lo": 4340,
      "▁broad": 4341,
      "▁shakespeare": 4342,
      "▁tele": 4343,
      "▁lope": 4344,
      "##________________________________": 4345,
      "▁kitty": 4346,
      "##ved": 4347,
      "▁until": 4348,
      "▁ground": 4349,
      "▁inv": 4350,
      "▁450": 4351,
      "##ral": 4352,
      "##ge": 4353,
      "▁amount": 4354,
      "▁distance": 4355,
      "▁possibly": 4356,
      "▁1774": 4357,
      "##700": 4358,
      "▁consequences": 4359,
      "##cceed": 4360,
      "##ains": 4361,
      "##onto": 4362,
      "▁collection": 4363,
      "▁mine": 4364,
      "##real": 4365,
      "▁rout": 4366,
      "▁centre": 4367,
      "##co": 4368,
      "##ounded": 4369,
      "▁di": 4370,
      "▁stated": 4371,
      "##8-7-01": 4372,
      "▁range": 4373,
      "▁1943": 4374,
      "##is": 4375,
      "▁unique": 4376,
      "▁outside": 4377,
      "▁interview": 4378,
      "##ery": 4379,
      "▁1800": 4380,
      "▁2,500": 4381,
      "▁govern": 4382,
      "▁buttons": 4383,
      "▁br": 4384,
      "▁their": 4385,
      "▁salad": 4386,
      "▁khin": 4387,
      "▁post": 4388,
      "▁glor": 4389,
      "▁dishes": 4390,
      "▁agricult": 4391,
      "##en": 4392,
      "▁people": 4393,
      "##66": 4394,
      "▁3": 4395,
      "##ologist": 4396,
      "##-415-": 4397,
      "▁space": 4398,
      "##-c": 4399,
      "▁ii": 4400,
      "▁dozen": 4401,
      "##etary": 4402,
      "▁crow": 4403,
      "▁spr": 4404,
      "▁islam": 4405,
      "▁miles": 4406,
      "v": 4407,
      "▁vietnam": 4408,
      "##umble": 4409,
      "##uing": 4410,
      "▁pu": 4411,
      "▁anything": 4412,
      "##…": 4413,
      "▁declaration": 4414,
      "▁:?": 4415,
      "▁1220": 4416,
      "▁epis": 4417,
      "##ia": 4418,
      "▁84": 4419,
      "▁fare": 4420,
      "▁..": 4421,
      "▁202.456.2461": 4422,
      "▁regarding": 4423,
      "▁avo": 4424,
      "##ern": 4425,
      "▁micro": 4426,
      "▁shoes": 4427,
      "▁rooms": 4428,
      "▁dev": 4429,
      "▁monkey": 4430,
      "υ": 4431,
      "▁teen": 4432,
      "###": 4433,
      "##ank": 4434,
      "##gar": 4435,
      "▁coo": 4436,
      "▁smith": 4437,
      "▁implement": 4438,
      "▁bever": 4439,
      "▁1230": 4440,
      "▁wonder": 4441,
      "▁ran": 4442,
      "##iar": 4443,
      "▁independ": 4444,
      "▁businesses": 4445,
      "▁basket": 4446,
      "▁corner": 4447,
      "##2,000": 4448,
      "##9933": 4449,
      "▁quality": 4450,
      "▁throu": 4451,
      "▁details": 4452,
      "##:5": 4453,
      "##par": 4454,
      "##ane": 4455,
      "▁administ": 4456,
      "##fer": 4457,
      "##os": 4458,
      "▁effective": 4459,
      "▁acts": 4460,
      "##9/2001": 4461,
      "▁desert": 4462,
      "▁saved": 4463,
      "##ark": 4464,
      "▁744": 4465,
      "##emy": 4466,
      "▁teams": 4467,
      "▁start": 4468,
      "▁built": 4469,
      "▁lord": 4470,
      "##...": 4471,
      "▁loud": 4472,
      "▁score": 4473,
      "▁pivottable": 4474,
      "##­": 4475,
      "▁err": 4476,
      "▁toy": 4477,
      "▁ky": 4478,
      "▁rang": 4479,
      "##face": 4480,
      "##leys": 4481,
      "▁milk": 4482,
      "##ance": 4483,
      "##ah": 4484,
      "▁finished": 4485,
      "##00": 4486,
      "▁250": 4487,
      "▁-ect-kedne": 4488,
      "##ress": 4489,
      "##mos": 4490,
      "▁houston": 4491,
      "▁senator": 4492,
      "##ona": 4493,
      "##wik": 4494,
      "▁appeared": 4495,
      "##soft": 4496,
      "##cast": 4497,
      "▁..........": 4498,
      "##man": 4499,
      "##ham": 4500,
      "▁cub": 4501,
      "▁easy": 4502,
      "##古": 4503,
      "▁women": 4504,
      "▁lift": 4505,
      "▁acknowled": 4506,
      "▁01/26/2001": 4507,
      "##used": 4508,
      "▁ess": 4509,
      "▁falluj": 4510,
      "▁texas": 4511,
      "▁analysis_0712": 4512,
      "▁nick": 4513,
      "##cil": 4514,
      "▁restaurants": 4515,
      "##etch": 4516,
      "▁copy": 4517,
      "##orton": 4518,
      "##iration": 4519,
      "▁樋口": 4520,
      "▁deliver": 4521,
      "##9/2000": 4522,
      "▁insurance": 4523,
      "▁adam": 4524,
      "▁1976": 4525,
      "##ship": 4526,
      "د": 4527,
      "##ear": 4528,
      "▁5/18": 4529,
      "▁picture": 4530,
      "▁shr": 4531,
      "##ructure": 4532,
      "▁surprised": 4533,
      "▁interests": 4534,
      "▁movies": 4535,
      "▁feed": 4536,
      "##il": 4537,
      "▁750": 4538,
      "##oman": 4539,
      "▁stars": 4540,
      "▁justice": 4541,
      "##ft": 4542,
      "▁village": 4543,
      "##usion": 4544,
      "##word": 4545,
      "▁pock": 4546,
      "▁203": 4547,
      "▁rather": 4548,
      "▁degree": 4549,
      "▁beautiful": 4550,
      "▁sil": 4551,
      "▁confir": 4552,
      "▁next": 4553,
      "▁releases": 4554,
      "▁truth": 4555,
      "▁body": 4556,
      "▁message": 4557,
      "##itted": 4558,
      "##bruary": 4559,
      "▁making": 4560,
      "▁belong": 4561,
      "##elled": 4562,
      "▁button": 4563,
      "▁mu": 4564,
      "▁faces": 4565,
      "▁employ": 4566,
      "▁stopover": 4567,
      "▁1/4": 4568,
      "##ve": 4569,
      "▁increasing": 4570,
      "▁3-5": 4571,
      "▁ukrain": 4572,
      "##8": 4573,
      "##eric": 4574,
      "▁discovered": 4575,
      "▁packed": 4576,
      "▁away": 4577,
      "▁54,000": 4578,
      "▁elected": 4579,
      "▁decision": 4580,
      "##old": 4581,
      "▁jun": 4582,
      "##.4": 4583,
      "##ction": 4584,
      "##ru": 4585,
      "##ss": 4586,
      "▁cop": 4587,
      "▁typ": 4588,
      "▁09:14": 4589,
      "▁enjamb": 4590,
      "▁except": 4591,
      "▁trying": 4592,
      "▁descri": 4593,
      "▁tent": 4594,
      "▁comfort": 4595,
      "▁entitled": 4596,
      "##.863": 4597,
      "▁display": 4598,
      "▁libr": 4599,
      "▁1660": 4600,
      "##:44": 4601,
      "▁bern": 4602,
      "▁salt": 4603,
      "##75": 4604,
      "##rew": 4605,
      "▁nope": 4606,
      "▁exerc": 4607,
      "▁spain": 4608,
      "▁1944": 4609,
      "▁stud": 4610,
      "▁med": 4611,
      "▁please": 4612,
      "▁mission": 4613,
      "##ument": 4614,
      "##.com": 4615,
      "▁proposal": 4616,
      "▁status": 4617,
      "▁pets": 4618,
      "▁infl": 4619,
      "▁down": 4620,
      "▁problems": 4621,
      "▁832": 4622,
      "▁foreign": 4623,
      "▁action": 4624,
      "▁men": 4625,
      "▁days": 4626,
      "▁father": 4627,
      "▁negot": 4628,
      "##air": 4629,
      "##mine": 4630,
      "##hib": 4631,
      "▁thursday": 4632,
      "▁1593": 4633,
      "▁adding": 4634,
      "▁gentle": 4635,
      "▁fish": 4636,
      "##ok": 4637,
      "▁guys": 4638,
      "▁33": 4639,
      "▁hope": 4640,
      "▁smok": 4641,
      "▁enforcement": 4642,
      "▁happening": 4643,
      "▁determined": 4644,
      "▁bac": 4645,
      "▁think": 4646,
      "##idd": 4647,
      "▁mommy": 4648,
      "▁raised": 4649,
      "##21": 4650,
      "##fort": 4651,
      "▁greater": 4652,
      "▁tralee": 4653,
      "##enge": 4654,
      "##iwan": 4655,
      "##al.doc": 4656,
      "▁vot": 4657,
      "▁ll": 4658,
      "▁hosp": 4659,
      "▁mountain": 4660,
      "▁4.0": 4661,
      "▁closed": 4662,
      "##ict": 4663,
      "▁rat": 4664,
      "▁aft": 4665,
      "▁electric": 4666,
      "▁belief": 4667,
      "##j": 4668,
      "##ally": 4669,
      "##iles": 4670,
      "▁zealand": 4671,
      "▁near": 4672,
      "▁broken": 4673,
      "##using": 4674,
      "▁trad": 4675,
      "▁f": 4676,
      "▁paul": 4677,
      "##rible": 4678,
      "##ogn": 4679,
      "▁11": 4680,
      "##enced": 4681,
      "▁exercise": 4682,
      "▁wolf": 4683,
      "##bie": 4684,
      "▁taken": 4685,
      "##oted": 4686,
      "▁researchers": 4687,
      "▁earliest": 4688,
      "▁style": 4689,
      "##ution": 4690,
      "▁150": 4691,
      "##:38": 4692,
      "##unk": 4693,
      "▁11:16": 4694,
      "##te": 4695,
      "##ones": 4696,
      "ν": 4697,
      "##elds": 4698,
      "##e.": 4699,
      "▁workers": 4700,
      "▁94": 4701,
      "▁advance": 4702,
      "##ements": 4703,
      "▁behalf": 4704,
      "▁phys": 4705,
      "▁consc": 4706,
      "▁1611": 4707,
      "▁whale": 4708,
      "▁hair": 4709,
      "▁1:30": 4710,
      "##fr": 4711,
      "▁somewhere": 4712,
      "▁—": 4713,
      "▁158": 4714,
      "##25": 4715,
      "##3": 4716,
      "▁swim": 4717,
      "▁baseball": 4718,
      "▁newsp": 4719,
      "▁strateg": 4720,
      "##hip": 4721,
      "▁capac": 4722,
      "▁taste": 4723,
      "##ano": 4724,
      "▁vogelaviatio": 4725,
      "▁represent": 4726,
      "##amb": 4727,
      "▁brother": 4728,
      "▁iraqi": 4729,
      "▁hy": 4730,
      "##/26": 4731,
      "▁marbles": 4732,
      "▁falling": 4733,
      "##tip": 4734,
      "▁gr": 4735,
      "▁54": 4736,
      "▁arrival": 4737,
      "▁confl": 4738,
      "▁laid": 4739,
      "##yr": 4740,
      "▁airfare": 4741,
      "##{": 4742,
      "▁oh": 4743,
      "▁peter": 4744,
      "▁enron": 4745,
      "▁thru": 4746,
      "▁intelligence": 4747,
      "##♥": 4748,
      "▁tick": 4749,
      "▁write": 4750,
      "▁alex": 4751,
      "▁forest": 4752,
      "▁gal": 4753,
      "▁shall": 4754,
      "▁jose": 4755,
      "▁opportunities": 4756,
      "▁agenda": 4757,
      "##alth": 4758,
      "##orn": 4759,
      "##cent": 4760,
      "▁cause": 4761,
      "##--------------------------------------------": 4762,
      "▁musharraf": 4763,
      "##ific": 4764,
      "##al": 4765,
      "▁service": 4766,
      "▁six": 4767,
      "▁03/21/2001": 4768,
      "##ten": 4769,
      "##ural": 4770,
      "▁accommod": 4771,
      "##odes": 4772,
      "##ands": 4773,
      "½": 4774,
      "▁se": 4775,
      "▁character": 4776,
      "##ن": 4777,
      "##12": 4778,
      "▁225": 4779,
      "▁serv": 4780,
      "▁analys": 4781,
      "▁sports": 4782,
      "###6": 4783,
      "##-8031": 4784,
      "##ore": 4785,
      "▁cast": 4786,
      "##mony": 4787,
      "▁gh": 4788,
      "##gle": 4789,
      "▁essential": 4790,
      "▁activity": 4791,
      "▁implementation": 4792,
      "##w": 4793,
      "##ield": 4794,
      "▁1981": 4795,
      "▁consum": 4796,
      "▁solid": 4797,
      "##’t": 4798,
      "▁169": 4799,
      "▁evolution": 4800,
      "##sc": 4801,
      "▁b/": 4802,
      "▁num": 4803,
      "▁sql": 4804,
      "▁pm": 4805,
      "##f.doc": 4806,
      "▁pepper": 4807,
      "▁fellow": 4808,
      "▁goal": 4809,
      "##amental": 4810,
      "▁certific": 4811,
      "▁od": 4812,
      "##arant": 4813,
      "▁sex": 4814,
      "▁hearing": 4815,
      "▁1291": 4816,
      "##ins": 4817,
      "▁thy": 4818,
      "▁exist": 4819,
      "##rical": 4820,
      "▁hat": 4821,
      "▁spear": 4822,
      "▁cre": 4823,
      "##ever": 4824,
      "##ced": 4825,
      "▁adopted": 4826,
      "▁whoever": 4827,
      "▁rel": 4828,
      "▁copies": 4829,
      "##wn": 4830,
      "##aro": 4831,
      "##iddle": 4832,
      "##itely": 4833,
      "▁term": 4834,
      "##pre": 4835,
      "▁240": 4836,
      "▁agents": 4837,
      "▁pulled": 4838,
      "/": 4839,
      "▁chance": 4840,
      "##sh": 4841,
      "▁09/16": 4842,
      "▁nme": 4843,
      "▁silly": 4844,
      "▁observed": 4845,
      "▁treatment": 4846,
      "##128": 4847,
      "▁though": 4848,
      "▁included": 4849,
      "▁6.8": 4850,
      "##ed": 4851,
      "▁occasion": 4852,
      "▁account": 4853,
      "▁324": 4854,
      "▁marked": 4855,
      "▁weapons": 4856,
      "▁gets": 4857,
      "▁2.0": 4858,
      "▁penn": 4859,
      "▁cruc": 4860,
      "##iful": 4861,
      "##fin": 4862,
      "▁socks": 4863,
      "##roll": 4864,
      "##iest": 4865,
      "▁foundation": 4866,
      "▁dro": 4867,
      "▁cath": 4868,
      "▁exp": 4869,
      "▁stick": 4870,
      "▁eight": 4871,
      "▁treat": 4872,
      "▁anymore": 4873,
      "▁showed": 4874,
      "ʊ": 4875,
      "▁production": 4876,
      "##ower": 4877,
      "##mark": 4878,
      "▁comm": 4879,
      "##ack": 4880,
      "▁introduced": 4881,
      "##cle": 4882,
      "▁hurts": 4883,
      "▁truck": 4884,
      "▁stage": 4885,
      "▁smell": 4886,
      "▁stay": 4887,
      "▁worry": 4888,
      "##haps": 4889,
      "▁thirteen": 4890,
      "##ows": 4891,
      "##:0": 4892,
      "##siana": 4893,
      "##!": 4894,
      "##dd": 4895,
      "▁birth": 4896,
      "▁125": 4897,
      "▁web": 4898,
      "▁relig": 4899,
      "##gypt": 4900,
      "▁fast": 4901,
      "▁offers": 4902,
      "▁settlement": 4903,
      "▁larger": 4904,
      "▁ru": 4905,
      "▁dwww": 4906,
      "▁contain": 4907,
      "▁seventeen": 4908,
      "▁puts": 4909,
      "▁corpor": 4910,
      "##viat": 4911,
      "▁run": 4912,
      "▁plant": 4913,
      "▁bread": 4914,
      "▁arrest": 4915,
      "▁raining": 4916,
      "▁occur": 4917,
      "##cuz": 4918,
      "▁this": 4919,
      "▁refused": 4920,
      "##mas": 4921,
      "##------------": 4922,
      "▁speaker": 4923,
      "▁bott": 4924,
      "▁pach": 4925,
      "##ind": 4926,
      "▁really": 4927,
      "##.g": 4928,
      "▁peoples": 4929,
      "▁05/30/2001": 4930,
      "▁liberty": 4931,
      "▁pric": 4932,
      "▁3:00": 4933,
      "▁provided": 4934,
      "▁israeli": 4935,
      "▁pho": 4936,
      "▁11:35": 4937,
      "##bage": 4938,
      "ح": 4939,
      "▁same": 4940,
      "▁steps": 4941,
      "▁uh": 4942,
      "##:28": 4943,
      "##aper": 4944,
      "▁graduate": 4945,
      "▁query": 4946,
      "▁connection": 4947,
      "▁wan": 4948,
      "▁agent": 4949,
      "▁few": 4950,
      "▁ble": 4951,
      "“": 4952,
      "▁aust": 4953,
      "##ka": 4954,
      "▁strong": 4955,
      "##asing": 4956,
      "▁41": 4957,
      "▁understand": 4958,
      "▁yard": 4959,
      "##100": 4960,
      "##ibald": 4961,
      "▁unfortun": 4962,
      "▁neighbour": 4963,
      "▁judg": 4964,
      "##ons": 4965,
      "▁town": 4966,
      "▁online": 4967,
      "##ware": 4968,
      "▁1969": 4969,
      "##ek": 4970,
      "##ifying": 4971,
      "▁1564": 4972,
      "▁basically": 4973,
      "▁shoe": 4974,
      "▁lies": 4975,
      "▁expensive": 4976,
      "▁01:39": 4977,
      "▁pul": 4978,
      "▁legislative": 4979,
      "▁2": 4980,
      "▁#": 4981,
      "##opment": 4982,
      "##389": 4983,
      "▁spanish": 4984,
      "▁79": 4985,
      "▁mh": 4986,
      "▁sending": 4987,
      "##iously": 4988,
      "▁okay": 4989,
      "▁third": 4990,
      "##ior": 4991,
      "▁anim": 4992,
      "▁wars": 4993,
      "▁230": 4994,
      "##apers": 4995,
      "▁tummy": 4996,
      "▁plane": 4997,
      "▁life": 4998,
      "▁je": 4999,
      "▁doors": 5000,
      "▁god": 5001,
      "##iner": 5002,
      "口": 5003,
      "▁apr": 5004,
      "##airs": 5005,
      "##ence": 5006,
      "▁comple": 5007,
      "▁stra": 5008,
      "▁renew": 5009,
      "▁bodies": 5010,
      "▁shows": 5011,
      "▁rail": 5012,
      "▁rise": 5013,
      "▁opened": 5014,
      "▁atlanta": 5015,
      "▁policy": 5016,
      "##sych": 5017,
      "▁1222": 5018,
      "▁sitting": 5019,
      "##ants": 5020,
      "▁7.3": 5021,
      "▁walked": 5022,
      "##bo": 5023,
      "▁???": 5024,
      "▁priority": 5025,
      "▁sent": 5026,
      "▁encour": 5027,
      "##rol": 5028,
      "##er": 5029,
      "##elling": 5030,
      "##:00": 5031,
      "▁energ": 5032,
      "##ories": 5033,
      "▁necessary": 5034,
      "子": 5035,
      "##.75": 5036,
      "▁cheek": 5037,
      "▁univers": 5038,
      "##/11": 5039,
      "##ides": 5040,
      "##yond": 5041,
      "▁satan": 5042,
      "▁storm": 5043,
      "▁unto": 5044,
      "q": 5045,
      "▁elements": 5046,
      "▁company": 5047,
      "▁benef": 5048,
      "▁def": 5049,
      "▁year": 5050,
      "▁dur": 5051,
      "▁coffee": 5052,
      "##reat": 5053,
      "▁route": 5054,
      "##://": 5055,
      "▁interact": 5056,
      "▁oce": 5057,
      "##1696": 5058,
      "▁sad": 5059,
      "▁restrict": 5060,
      "▁strain": 5061,
      "▁sever": 5062,
      "##ences": 5063,
      "▁,?": 5064,
      "▁returning": 5065,
      "▁beach": 5066,
      "##82": 5067,
      "▁tri": 5068,
      "▁rib": 5069,
      "▁news": 5070,
      "##si": 5071,
      "##th": 5072,
      "▁contact": 5073,
      "▁tal": 5074,
      "▁i.": 5075,
      "▁div": 5076,
      "▁pil": 5077,
      "▁color": 5078,
      "▁t": 5079,
      "▁join": 5080,
      "2": 5081,
      "▁bone": 5082,
      "▁11:07": 5083,
      "▁iu": 5084,
      "▁lucky": 5085,
      "▁allowed": 5086,
      "▁choose": 5087,
      "##_0": 5088,
      "##==============================================": 5089,
      "▁ukraine": 5090,
      "▁1000": 5091,
      "▁111": 5092,
      "##ɔ": 5093,
      "▁offered": 5094,
      "##oose": 5095,
      "▁08/03": 5096,
      "▁rush": 5097,
      "##53-3": 5098,
      "▁esc": 5099,
      "▁held": 5100,
      "##.6": 5101,
      "##if": 5102,
      "▁hen": 5103,
      "##acters": 5104,
      "▁northwest": 5105,
      "▁noise": 5106,
      "##ʁ": 5107,
      "▁tradition": 5108,
      "▁horrible": 5109,
      "▁downtown": 5110,
      "▁emp": 5111,
      "▁ext": 5112,
      "##ema": 5113,
      "▁1592": 5114,
      "▁3889": 5115,
      "▁lose": 5116,
      "▁release": 5117,
      "▁1700": 5118,
      "▁en": 5119,
      "▁spac": 5120,
      "▁07/17/2000": 5121,
      "▁tourists": 5122,
      "▁91": 5123,
      "▁purp": 5124,
      "##atically": 5125,
      "▁4.": 5126,
      "▁empty": 5127,
      "▁conc": 5128,
      "▁gar": 5129,
      "##ens": 5130,
      "▁forces": 5131,
      "##ta": 5132,
      "▁prom": 5133,
      "▁cupc": 5134,
      "##ration": 5135,
      "##ially": 5136,
      "▁difficult": 5137,
      "▁bones": 5138,
      "##ʒ": 5139,
      "##hold": 5140,
      "▁arrived": 5141,
      "▁hurry": 5142,
      "##iet": 5143,
      "▁middle": 5144,
      "▁susp": 5145,
      "▁713-654-": 5146,
      "##iling": 5147,
      "▁wid": 5148,
      "▁independence": 5149,
      "▁rural": 5150,
      "##[": 5151,
      "##ensive": 5152,
      "▁sri": 5153,
      "▁punch": 5154,
      "▁attem": 5155,
      "▁mush": 5156,
      "▁30": 5157,
      "▁three": 5158,
      "▁full": 5159,
      "▁infrastructure": 5160,
      "▁pants": 5161,
      "##-780-": 5162,
      "##ard": 5163,
      "▁together": 5164,
      "▁final": 5165,
      "▁meals": 5166,
      "▁spl": 5167,
      "##ias": 5168,
      "▁impl": 5169,
      "▁spread": 5170,
      "▁gall": 5171,
      "▁author": 5172,
      "▁answered": 5173,
      "▁03/0": 5174,
      "▁palest": 5175,
      "##iding": 5176,
      "##under": 5177,
      "▁culture": 5178,
      "▁02/27/2001": 5179,
      "远": 5180,
      "▁station": 5181,
      "##eline": 5182,
      "▁argument": 5183,
      "▁find": 5184,
      "▁honest": 5185,
      "▁systems": 5186,
      "▁waste": 5187,
      "▁aud": 5188,
      "##ate": 5189,
      "▁mum": 5190,
      "▁bit": 5191,
      "▁miami": 5192,
      "##aries": 5193,
      "▁281-435-": 5194,
      "▁brit": 5195,
      "▁1970": 5196,
      "▁852": 5197,
      "▁statements": 5198,
      "▁-%": 5199,
      "▁devil": 5200,
      "▁yet": 5201,
      "▁tried": 5202,
      "▁&": 5203,
      "##/10/2004": 5204,
      "##ents": 5205,
      "##oin": 5206,
      "##/03": 5207,
      "▁offices": 5208,
      "##eling": 5209,
      "##ese": 5210,
      "▁site": 5211,
      "▁put": 5212,
      "▁assume": 5213,
      "▁normal": 5214,
      "▁client": 5215,
      "##587": 5216,
      "▁compon": 5217,
      "##lic": 5218,
      "▁comput": 5219,
      "▁imple": 5220,
      "▁popcorn": 5221,
      "▁different": 5222,
      "##cond": 5223,
      "▁department": 5224,
      "▁pe": 5225,
      "##eda": 5226,
      "▁opposite": 5227,
      "▁emph": 5228,
      "▁mile": 5229,
      "##ustom": 5230,
      "##!!!!!!!!": 5231,
      "▁2022": 5232,
      "▁drop": 5233,
      "▁medical": 5234,
      "▁350": 5235,
      "##algami": 5236,
      "▁medicine": 5237,
      "▁daughter": 5238,
      "▁turis": 5239,
      "▁causes": 5240,
      "▁rev": 5241,
      "▁2.3": 5242,
      "##ats": 5243,
      "##ame": 5244,
      "§": 5245,
      "▁weas": 5246,
      "▁fill": 5247,
      "##.85": 5248,
      "▁writer": 5249,
      "▁270": 5250,
      "▁copyright": 5251,
      "##noon": 5252,
      "##ients": 5253,
      "▁tax": 5254,
      "▁directly": 5255,
      "##illa": 5256,
      "▁ip": 5257,
      "▁800-5": 5258,
      "▁question": 5259,
      "▁veh": 5260,
      "▁race": 5261,
      "▁ric": 5262,
      "▁4.7": 5263,
      "▁garden": 5264,
      "▁ireland": 5265,
      "▁looking": 5266,
      "▁hoo": 5267,
      "▁happy": 5268,
      "▁1799": 5269,
      "##del": 5270,
      "▁beliefs": 5271,
      "##eenth": 5272,
      "##acle": 5273,
      "▁ign": 5274,
      "##anced": 5275,
      "▁putting": 5276,
      "▁cover": 5277,
      "▁muslim": 5278,
      "##2.doc": 5279,
      "##tto": 5280,
      "▁uhoh": 5281,
      "▁strongly": 5282,
      "▁1.3": 5283,
      "▁severe": 5284,
      "▁compared": 5285,
      "▁lopez": 5286,
      "▁140": 5287,
      "##ison": 5288,
      "▁costs": 5289,
      ">": 5290,
      "▁reg": 5291,
      "▁fifteen": 5292,
      "##standing": 5293,
      "▁seating": 5294,
      "▁ord": 5295,
      "▁decl": 5296,
      "▁mic": 5297,
      "▁366": 5298,
      "▁anal": 5299,
      "▁inf": 5300,
      "▁!!": 5301,
      "▁direction": 5302,
      "▁witness": 5303,
      "##ess": 5304,
      "▁agreed": 5305,
      "▁meant": 5306,
      "▁height": 5307,
      "##uce": 5308,
      "##enty": 5309,
      "##band": 5310,
      "▁db": 5311,
      "▁force": 5312,
      "▁prepar": 5313,
      "▁zero": 5314,
      "▁back": 5315,
      "▁=)": 5316,
      "▁whil": 5317,
      "▁268": 5318,
      "▁bright": 5319,
      "▁100,000": 5320,
      "##iveness": 5321,
      "▁quote": 5322,
      "▁moving": 5323,
      "▁bow": 5324,
      "##,600": 5325,
      "##orders": 5326,
      "▁łodzian": 5327,
      "▁information": 5328,
      "##ester": 5329,
      "##ansas": 5330,
      "##ees": 5331,
      "##ely": 5332,
      "##ibility": 5333,
      "•": 5334,
      "▁desire": 5335,
      "##ered": 5336,
      "▁between": 5337,
      "▁cuz": 5338,
      "▁lay": 5339,
      "##sem": 5340,
      "▁mr.": 5341,
      "##ol": 5342,
      "##:20": 5343,
      "##que": 5344,
      "▁including": 5345,
      "##ut": 5346,
      "##ented": 5347,
      "▁cogn": 5348,
      "##:29": 5349,
      "▁tourist": 5350,
      "^": 5351,
      "▁thirty-": 5352,
      "##g": 5353,
      "##ory": 5354,
      "##iders": 5355,
      "▁ye": 5356,
      "▁also": 5357,
      "##uth": 5358,
      "##iped": 5359,
      "▁camp": 5360,
      "▁type": 5361,
      "▁happens": 5362,
      "▁require": 5363,
      "▁francisco": 5364,
      "▁415.621.8317": 5365,
      "▁fright": 5366,
      "▁humaine": 5367,
      "▁crazy": 5368,
      "▁laws": 5369,
      "##bye": 5370,
      "▁da": 5371,
      "▁deals": 5372,
      "▁swww": 5373,
      "##rop": 5374,
      "▁ju": 5375,
      "▁bas": 5376,
      "▁30,000": 5377,
      "▁puppy": 5378,
      "▁follow": 5379,
      "▁licens": 5380,
      "##ret": 5381,
      "##ancy": 5382,
      "##-0": 5383,
      "▁coun": 5384,
      "▁housing": 5385,
      "##end": 5386,
      "##79": 5387,
      "▁sustain": 5388,
      "▁microphone": 5389,
      "##uring": 5390,
      "##ique": 5391,
      "##aska": 5392,
      "▁3,": 5393,
      "▁bridge": 5394,
      "##oon": 5395,
      "##war": 5396,
      "9": 5397,
      "##υ": 5398,
      "▁strategy": 5399,
      "##.713.8": 5400,
      "▁expertise": 5401,
      "##,9": 5402,
      "▁372": 5403,
      "▁owned": 5404,
      "##ues": 5405,
      "▁ris": 5406,
      "##ited": 5407,
      "▁soldiers": 5408,
      "##ified": 5409,
      "##.m.": 5410,
      "▁remind": 5411,
      "▁noticed": 5412,
      "▁04:03": 5413,
      "▁205": 5414,
      "▁either": 5415,
      "##als": 5416,
      "▁complic": 5417,
      "▁reading": 5418,
      "▁immediately": 5419,
      "▁moral": 5420,
      "▁san": 5421,
      "▁nato": 5422,
      "▁concept": 5423,
      "▁audience": 5424,
      "##42": 5425,
      "##77": 5426,
      "▁richard": 5427,
      "▁joe": 5428,
      "▁asia": 5429,
      "▁egg": 5430,
      "▁wo": 5431,
      "▁listing": 5432,
      "▁66": 5433,
      "▁rice": 5434,
      "▁sick": 5435,
      "▁150,000": 5436,
      "▁fun": 5437,
      "▁runs": 5438,
      "▁second": 5439,
      "▁properly": 5440,
      "▁fav": 5441,
      "##d": 5442,
      "▁services": 5443,
      "▁pink": 5444,
      "▁emb": 5445,
      "##:14": 5446,
      "~": 5447,
      "▁plac": 5448,
      "▁displ": 5449,
      "▁proper": 5450,
      "▁646-8420": 5451,
      "##op": 5452,
      "##ha": 5453,
      "▁border": 5454,
      "##ility": 5455,
      "##ops": 5456,
      "##ip": 5457,
      "▁prep": 5458,
      "##__________": 5459,
      "##entions": 5460,
      "▁toge": 5461,
      "▁visit": 5462,
      "▁suddenly": 5463,
      "▁galois": 5464,
      "▁23": 5465,
      "▁tree": 5466,
      "##’": 5467,
      "##ac": 5468,
      "▁trump": 5469,
      "▁06": 5470,
      "▁catholic": 5471,
      "##ak": 5472,
      "▁1701": 5473,
      "▁produced": 5474,
      "##03": 5475,
      "##.d": 5476,
      "▁affect": 5477,
      "▁invol": 5478,
      "##----------------": 5479,
      "##–": 5480,
      "▁bee": 5481,
      "##ged": 5482,
      "▁anybody": 5483,
      "▁mun": 5484,
      "▁separ": 5485,
      "▁believes": 5486,
      "▁qu": 5487,
      "▁manner": 5488,
      "▁cute": 5489,
      "▁involve": 5490,
      "##ily": 5491,
      "▁robert": 5492,
      "▁meaning": 5493,
      "##me": 5494,
      "##izes": 5495,
      "##ordon": 5496,
      "▁713-654-03": 5497,
      "▁philadelp": 5498,
      "▁899": 5499,
      "##-------": 5500,
      "▁alongside": 5501,
      "▁recover": 5502,
      "▁,": 5503,
      "▁november": 5504,
      "▁languages": 5505,
      "▁arrow": 5506,
      "##oc": 5507,
      "##pping": 5508,
      "▁08:2": 5509,
      "▁university": 5510,
      "▁inter": 5511,
      "▁polit": 5512,
      "▁shape": 5513,
      "▁1/2": 5514,
      "▁breath": 5515,
      "▁deter": 5516,
      "##,000,000": 5517,
      "##clusion": 5518,
      "▁padaleck": 5519,
      "▁note": 5520,
      "▁techn": 5521,
      "▁effort": 5522,
      "▁clos": 5523,
      "##/8": 5524,
      "##inting": 5525,
      "▁police": 5526,
      "▁+1": 5527,
      "▁rad": 5528,
      "▁the": 5529,
      "##mica": 5530,
      "▁eggs": 5531,
      "▁sw": 5532,
      "▁200": 5533,
      "▁sales": 5534,
      "▁afford": 5535,
      "##ule": 5536,
      "▁love": 5537,
      "▁behind": 5538,
      "▁coc": 5539,
      "##ames": 5540,
      "▁pretty": 5541,
      "##461": 5542,
      "▁carol": 5543,
      "▁>": 5544,
      "▁pre": 5545,
      "▁thank": 5546,
      "▁32": 5547,
      "##/30/2001": 5548,
      "▁believe": 5549,
      "▁technology": 5550,
      "##-d": 5551,
      "##otion": 5552,
      "▁dial": 5553,
      "▁kick": 5554,
      "##tch": 5555,
      "▁347": 5556,
      "▁htt": 5557,
      "▁wit": 5558,
      "▁local": 5559,
      "▁tu": 5560,
      "▁make": 5561,
      "—": 5562,
      "▁non": 5563,
      "▁12:3": 5564,
      "▁heav": 5565,
      "##a": 5566,
      "##on": 5567,
      "▁10:45": 5568,
      "▁collect": 5569,
      "▁robot": 5570,
      "▁transport": 5571,
      "▁!!!!!!!!!!": 5572,
      "▁pushed": 5573,
      "▁york": 5574,
      "▁vent": 5575,
      "▁domin": 5576,
      "▁challeng": 5577,
      "▁bond": 5578,
      "▁res": 5579,
      "▁visual": 5580,
      "##ama": 5581,
      "▁fell": 5582,
      "▁hell": 5583,
      "▁seems": 5584,
      "▁quickly": 5585,
      "▁3,202": 5586,
      "##mo": 5587,
      "##ked": 5588,
      "##/16/2001": 5589,
      "##-9004": 5590,
      "##ee": 5591,
      "##ingu": 5592,
      "▁equipment": 5593,
      "##ivid": 5594,
      "##bed": 5595,
      "w": 5596,
      "▁half": 5597,
      "##eare": 5598,
      "▁eyes": 5599,
      "▁consist": 5600,
      "##hol": 5601,
      "##tim": 5602,
      "▁str": 5603,
      "▁separate": 5604,
      "▁continues": 5605,
      "▁b": 5606,
      "##hn": 5607,
      "▁couch": 5608,
      "##url": 5609,
      "▁27": 5610,
      "▁5.3": 5611,
      ";": 5612,
      "##87": 5613,
      "!": 5614,
      "▁happ": 5615,
      "▁tag": 5616,
      "▁gray": 5617,
      "▁wall": 5618,
      "##ategy": 5619,
      "▁salon": 5620,
      "##.782": 5621,
      "▁frequently": 5622,
      "##ional": 5623,
      "##rit": 5624,
      "▁47": 5625,
      "▁obs": 5626,
      "▁terrible": 5627,
      "##rft": 5628,
      "##wide": 5629,
      "##ord": 5630,
      "##sey": 5631,
      "##huh": 5632,
      "##-9": 5633,
      "▁william": 5634,
      "▁joke": 5635,
      "▁gen": 5636,
      "##sus": 5637,
      "##nondelibreat": 5638,
      "##ef": 5639,
      "##++++": 5640,
      "▁reform": 5641,
      "▁press": 5642,
      "##ential": 5643,
      "##irt": 5644,
      "##.123": 5645,
      "##pt": 5646,
      "▁committee": 5647,
      "▁philosoph": 5648,
      "##:23": 5649,
      "▁dim": 5650,
      "▁08:00": 5651,
      "##ries": 5652,
      "▁traffic": 5653,
      "▁shock": 5654,
      "▁check": 5655,
      "▁includes": 5656,
      "▁produce": 5657,
      "▁sant": 5658,
      "##u": 5659,
      "##.8": 5660,
      "▁sites": 5661,
      "##usions": 5662,
      "▁repeated": 5663,
      "▁growth": 5664,
      "▁fed": 5665,
      "##stand": 5666,
      "▁kind": 5667,
      "##gu": 5668,
      "▁bro": 5669,
      "▁944": 5670,
      "##rant": 5671,
      "##ier": 5672,
      "▁fro": 5673,
      "▁trade": 5674,
      "▁attend": 5675,
      "▁wiz": 5676,
      "▁running": 5677,
      "▁樋": 5678,
      "##iger": 5679,
      "▁415.782.7822": 5680,
      "▁excell": 5681,
      "▁toes": 5682,
      "▁walk": 5683,
      "▁tenn": 5684,
      "▁autom": 5685,
      "▁mechan": 5686,
      "▁continue": 5687,
      "▁relations": 5688,
      "▁announced": 5689,
      "▁trial": 5690,
      "▁operations": 5691,
      "##ω": 5692,
      "▁tank": 5693,
      "▁nations": 5694,
      "▁seven": 5695,
      "▁minister": 5696,
      "▁blind": 5697,
      "▁555": 5698,
      "▁(": 5699,
      "▁et": 5700,
      "▁column": 5701,
      "▁enter": 5702,
      "▁analyst": 5703,
      "▁ed": 5704,
      "##equ": 5705,
      "▁surprise": 5706,
      "▁is": 5707,
      "▁713-79": 5708,
      "▁types": 5709,
      "▁transaction": 5710,
      "##orus": 5711,
      "▁piv": 5712,
      "##stip": 5713,
      "▁pat": 5714,
      "▁demonstr": 5715,
      "▁matter": 5716,
      "▁immediate": 5717,
      "▁correspond": 5718,
      "▁various": 5719,
      "▁:": 5720,
      "##rict": 5721,
      "▁09:01": 5722,
      "▁360": 5723,
      "▁christmas": 5724,
      "▁dollars": 5725,
      "▁03/09/2000": 5726,
      "▁mitchell": 5727,
      "▁1843": 5728,
      "▁1939": 5729,
      "▁mont": 5730,
      "▁personally": 5731,
      "▁c.": 5732,
      "▁iso": 5733,
      "▁cooked": 5734,
      "▁valley": 5735,
      "▁haf": 5736,
      "▁jour": 5737,
      "▁speak": 5738,
      "##athers": 5739,
      "▁participation": 5740,
      "▁1.25": 5741,
      "▁mayor": 5742,
      "▁model": 5743,
      "▁presented": 5744,
      "##ogether": 5745,
      "▁04/30/2001": 5746,
      "▁further": 5747,
      "▁vers": 5748,
      "##ervation": 5749,
      "▁brush": 5750,
      "▁poet": 5751,
      "▁lists": 5752,
      "▁$": 5753,
      "##ihow": 5754,
      "▁gaz": 5755,
      "##>===": 5756,
      "##lymp": 5757,
      "▁circle": 5758,
      "##erg": 5759,
      "##resh": 5760,
      "##uct": 5761,
      "▁base": 5762,
      "▁daddy": 5763,
      "▁http://": 5764,
      "▁rem": 5765,
      "▁vegas": 5766,
      "▁trail": 5767,
      "▁comed": 5768,
      "▁<<": 5769,
      "▁gi": 5770,
      "▁practice": 5771,
      "##13.8": 5772,
      "##ties": 5773,
      "##den": 5774,
      "▁-------------------------------------------------": 5775,
      "▁draft": 5776,
      "##iew": 5777,
      "##ocent": 5778,
      "##mail": 5779,
      "##ver": 5780,
      "▁rot": 5781,
      "▁straight": 5782,
      "▁historical": 5783,
      "g": 5784,
      "▁provides": 5785,
      "▁10:56": 5786,
      "▁individuals": 5787,
      "▁close": 5788,
      "▁ta": 5789,
      "##300": 5790,
      "▁620-": 5791,
      "▁imag": 5792,
      "▁281-443-3": 5793,
      "▁whereby": 5794,
      "▁£": 5795,
      "##ables": 5796,
      "▁means": 5797,
      "▁fit": 5798,
      "▁fifth": 5799,
      "##/h": 5800,
      "##ih": 5801,
      "▁labor": 5802,
      "▁e-m": 5803,
      "##:50": 5804,
      "▁limit": 5805,
      "▁its": 5806,
      "##stairs": 5807,
      "##14": 5808,
      "##aling": 5809,
      "##ronic": 5810,
      "▁cru": 5811,
      "▁1958": 5812,
      "▁huh": 5813,
      "##ph": 5814,
      "##ose": 5815,
      "▁orland": 5816,
      "##iving": 5817,
      "▁energy": 5818,
      "▁saturday": 5819,
      "##action": 5820,
      "##eo": 5821,
      "▁datab": 5822,
      "£": 5823,
      "▁ryan": 5824,
      "▁1859": 5825,
      "##ix": 5826,
      "▁compar": 5827,
      "▁yours": 5828,
      "▁tec": 5829,
      "▁bea": 5830,
      "▁113": 5831,
      "▁resident": 5832,
      "##inct": 5833,
      "▁lot": 5834,
      "##/": 5835,
      "▁prompt": 5836,
      "##ring": 5837,
      "▁2,": 5838,
      "▁af": 5839,
      "▁r": 5840,
      "▁cards": 5841,
      "▁mad": 5842,
      "##non": 5843,
      "▁315-460-33": 5844,
      "##fore": 5845,
      "##.11": 5846,
      "▁turning": 5847,
      "##urn": 5848,
      "##est": 5849,
      "▁tell": 5850,
      "▁flight": 5851,
      "##ies": 5852,
      "▁app": 5853,
      "▁aircraft": 5854,
      "▁pos": 5855,
      "##...@": 5856,
      "▁156": 5857,
      "▁noted": 5858,
      "▁players": 5859,
      "▁cheese": 5860,
      "▁touch": 5861,
      "▁42,000": 5862,
      "▁3/9": 5863,
      "▁horse": 5864,
      "▁03:20": 5865,
      "##294-": 5866,
      "▁1900": 5867,
      "▁constitution": 5868,
      "▁inc": 5869,
      "##glo": 5870,
      "##acy": 5871,
      "▁required": 5872,
      "▁remo": 5873,
      "##ary": 5874,
      "▁picked": 5875,
      "▁11:3": 5876,
      "▁sam": 5877,
      "▁be": 5878,
      "##iff": 5879,
      "▁john": 5880,
      "##=": 5881,
      "▁marsh": 5882,
      "##cross": 5883,
      "##7": 5884,
      "▁months": 5885,
      "▁it's": 5886,
      "▁thing": 5887,
      "##ly": 5888,
      "▁more": 5889,
      "4": 5890,
      "▁amaz": 5891,
      "##h": 5892,
      "▁olivia": 5893,
      "##ɑ": 5894,
      "##sp": 5895,
      "##app": 5896,
      "▁morning": 5897,
      "▁garage": 5898,
      "▁mil": 5899,
      "##:46": 5900,
      "##corn": 5901,
      "▁.?": 5902,
      "▁aunt": 5903,
      "▁1962": 5904,
      "▁earli": 5905,
      "▁01:39:56": 5906,
      "▁!!!!!!!!!!!!!!!!!!!": 5907,
      "##lim": 5908,
      "▁object": 5909,
      "##inn": 5910,
      "▁disc": 5911,
      "##eit": 5912,
      "▁08": 5913,
      "##order": 5914,
      "▁prem": 5915,
      "##================": 5916,
      "▁99": 5917,
      "▁partic": 5918,
      "##ental": 5919,
      "▁situation": 5920,
      "▁mathemat": 5921,
      "▁gul": 5922,
      "##.621": 5923,
      "▁exch": 5924,
      "▁2:30": 5925,
      "▁center": 5926,
      "▁val": 5927,
      "▁-": 5928,
      "▁act": 5929,
      "▁838": 5930,
      "▁capital": 5931,
      "▁departing": 5932,
      "##ived": 5933,
      "▁regard": 5934,
      "▁afgh": 5935,
      "▁baltimore": 5936,
      "##town": 5937,
      "▁3.2": 5938,
      "▁''": 5939,
      "▁word": 5940,
      "▁contrib": 5941,
      "i": 5942,
      "▁auth": 5943,
      "▁les": 5944,
      "##igned": 5945,
      "##isf": 5946,
      "##aced": 5947,
      "▁box": 5948,
      "▁grand": 5949,
      "▁class": 5950,
      "▁chair": 5951,
      "▁1696": 5952,
      "▁glasses": 5953,
      "▁some": 5954,
      "##ast": 5955,
      "##tr": 5956,
      "##η": 5957,
      "▁issue": 5958,
      "##uela": 5959,
      "▁fact": 5960,
      "▁instruct": 5961,
      "和": 5962,
      "##oned": 5963,
      "##gets": 5964,
      "▁101": 5965,
      "s": 5966,
      "▁01/24/2001": 5967,
      "##leg": 5968,
      "▁filter": 5969,
      "##16": 5970,
      "▁ing": 5971,
      "▁left": 5972,
      "▁om": 5973,
      "▁enj": 5974,
      "##22": 5975,
      "▁imposs": 5976,
      "▁street": 5977,
      "澹": 5978,
      "▁05908549": 5979,
      "##/25/2001": 5980,
      "▁quest": 5981,
      "▁challenges": 5982,
      "▁scholars": 5983,
      "▁159": 5984,
      "▁1608": 5985,
      "▁315-": 5986,
      "▁pass": 5987,
      "▁jord": 5988,
      "▁additional": 5989,
      "##,008": 5990,
      "##ario": 5991,
      "▁narrow": 5992,
      "▁dir": 5993,
      "▁regards": 5994,
      "▁members": 5995,
      "##oy": 5996,
      "▁changing": 5997,
      "▁re-": 5998,
      "▁1724": 5999,
      "▁los": 6000,
      "▁bang": 6001,
      "▁165": 6002,
      "##ws": 6003,
      "##kk": 6004,
      "##dp": 6005,
      "▁influence": 6006,
      "▁affair": 6007,
      "▁african": 6008,
      "##na": 6009,
      "##ibly": 6010,
      "▁rec": 6011,
      "▁2007": 6012,
      "▁wast": 6013,
      "▁shops": 6014,
      "▁uniform": 6015,
      "▁|--------+----------------": 6016,
      "##pl": 6017,
      "##etime": 6018,
      "##rax": 6019,
      "##“": 6020,
      "##off": 6021,
      "##--------+----------------": 6022,
      "▁have": 6023,
      "▁59": 6024,
      "▁espec": 6025,
      "▁edit": 6026,
      "▁drive": 6027,
      "▁ont": 6028,
      "▁210": 6029,
      "▁consider": 6030,
      "▁views": 6031,
      "##pped": 6032,
      "##one": 6033,
      "##illion": 6034,
      "▁capacity": 6035,
      "6": 6036,
      "##chi": 6037,
      "##allow": 6038,
      "▁alligator": 6039,
      "▁g": 6040,
      "▁abe": 6041,
      "▁tex": 6042,
      "▁eastern": 6043,
      "▁713.8": 6044,
      "▁encabalgamiento": 6045,
      "▁sweetie": 6046,
      "▁skills": 6047,
      "▁turns": 6048,
      "▁confident": 6049,
      "▁humans": 6050,
      "▁979": 6051,
      "▁promised": 6052,
      "▁dist": 6053,
      "▁international": 6054,
      "▁fant": 6055,
      "▁281-443-3744": 6056,
      "▁animal": 6057,
      "##ition": 6058,
      "▁spot": 6059,
      "##:03": 6060,
      "##oam": 6061,
      "▁bath": 6062,
      "▁eat": 6063,
      "##oid": 6064,
      "##ature": 6065,
      "▁breaking": 6066,
      "##int": 6067,
      "▁pieces": 6068,
      "▁problem": 6069,
      "##99": 6070,
      "##kn": 6071,
      "▁soup": 6072,
      "▁several": 6073,
      "▁sense": 6074,
      "##rain": 6075,
      "##ms": 6076,
      "▁new": 6077,
      "▁express": 6078,
      "##ient": 6079,
      "▁busy": 6080,
      "▁disco": 6081,
      "▁dall": 6082,
      "##es": 6083,
      "▁2,300": 6084,
      "▁etc.": 6085,
      "▁east": 6086,
      "▁nashville": 6087,
      "▁spoken": 6088,
      "▁seconds": 6089,
      "▁famil": 6090,
      "##k": 6091,
      "▁jih": 6092,
      "▁3.": 6093,
      "▁tru": 6094,
      "▁cheapest": 6095,
      "▁pers": 6096,
      "▁1996": 6097,
      "▁succeed": 6098,
      "##sa": 6099,
      "##umn": 6100,
      "±": 6101,
      "##??": 6102,
      "##ana": 6103,
      "▁appro": 6104,
      "▁install": 6105,
      "▁713-654-128": 6106,
      "##athy": 6107,
      "▁century": 6108,
      "##reg": 6109,
      "▁forty-eight": 6110,
      "▁bugs": 6111,
      "▁potty": 6112,
      "▁penny": 6113,
      "▁09:2": 6114,
      "▁o'clock": 6115,
      "▁bl": 6116,
      "▁conven": 6117,
      "##atures": 6118,
      "▁example": 6119,
      "▁license": 6120,
      "##ach": 6121,
      "▁added": 6122,
      "▁)": 6123,
      "▁05:37": 6124,
      "▁gender": 6125,
      "##r": 6126,
      "▁academic": 6127,
      "▁leadership": 6128,
      "▁iodine": 6129,
      "▁sem": 6130,
      "▁herself": 6131,
      "▁small": 6132,
      "▁to": 6133,
      "▁weather": 6134,
      "##ele": 6135,
      "##cell": 6136,
      "##cept": 6137,
      "▁decided": 6138,
      "▁just": 6139,
      "##/01/2001": 6140,
      "▁computer": 6141,
      "▁whenever": 6142,
      "▁dinos": 6143,
      "▁d.": 6144,
      "▁cultural": 6145,
      "##ital": 6146,
      "▁contemporary": 6147,
      "▁airplane": 6148,
      "##0": 6149,
      "▁internal": 6150,
      "##gami": 6151,
      "▁appoint": 6152,
      "##{===": 6153,
      "c": 6154,
      "▁santa": 6155,
      "▁usd": 6156,
      "##illing": 6157,
      "▁teacher": 6158,
      "▁successful": 6159,
      "##kee": 6160,
      "▁2.00": 6161,
      "▁canada": 6162,
      "▁tho": 6163,
      "▁requested": 6164,
      "▁wal": 6165,
      "▁11/27/2000": 6166,
      "▁school": 6167,
      "##✉": 6168,
      "▁ant": 6169,
      "▁idea": 6170,
      "▁tonight": 6171,
      "▁1868": 6172,
      "▁exam": 6173,
      "▁behavior": 6174,
      "▁learn": 6175,
      "##ou": 6176,
      "▁tend": 6177,
      "ز": 6178,
      "▁191": 6179,
      "▁task": 6180,
      "▁consumption": 6181,
      "▁beer": 6182,
      "##iod": 6183,
      "##ics": 6184,
      "▁core": 6185,
      "##ves": 6186,
      "▁sound": 6187,
      "▁10:5": 6188,
      "▁red": 6189,
      "##.doc": 6190,
      "▁athens": 6191,
      "▁trillion": 6192,
      "▁z": 6193,
      "▁keep": 6194,
      "▁carry": 6195,
      "μ": 6196,
      "▁==": 6197,
      "▁hes": 6198,
      "##ust": 6199,
      "▁advantage": 6200,
      "▁broke": 6201,
      "▁happen": 6202,
      "##司": 6203,
      "▁ple": 6204,
      "##uc": 6205,
      "▁avail": 6206,
      "##0th": 6207,
      "▁position": 6208,
      "▁secret": 6209,
      "▁microsoft": 6210,
      "▁male": 6211,
      "▁ursula": 6212,
      "▁subsc": 6213,
      "▁700": 6214,
      "▁pocket": 6215,
      "▁little": 6216,
      "▁as": 6217,
      "▁\"": 6218,
      "▁lake": 6219,
      "##iat": 6220,
      "▁jeff": 6221,
      "##eld": 6222,
      "▁numer": 6223,
      "▁dat": 6224,
      "▁entertain": 6225,
      "▁guarant": 6226,
      "▁13": 6227,
      "▁silence": 6228,
      "##460-3": 6229,
      "▁impact": 6230,
      "▁objects": 6231,
      "▁238": 6232,
      "▁11:36": 6233,
      "▁outs": 6234,
      "▁planned": 6235,
      "▁know": 6236,
      "##ding": 6237,
      "▁execut": 6238,
      "##28": 6239,
      "##emic": 6240,
      "##ik": 6241,
      "##rist": 6242,
      "##b": 6243,
      "▁florida": 6244,
      "▁carolina": 6245,
      "▁fuel": 6246,
      "▁hug": 6247,
      "▁wine": 6248,
      "▁e.g": 6249,
      "##822": 6250,
      "▁!!!!!": 6251,
      "▁times": 6252,
      "▁fred": 6253,
      "▁tow": 6254,
      "▁hear": 6255,
      "▁nandaro": 6256,
      "##eds": 6257,
      "▁etc": 6258,
      "##log": 6259,
      "▁fourteen": 6260,
      "▁prevent": 6261,
      "▁alright": 6262,
      "▁occurred": 6263,
      "▁saying": 6264,
      "▁6871082#": 6265,
      "▁mama": 6266,
      "▁moved": 6267,
      "▁10": 6268,
      "▁x": 6269,
      "▁originally": 6270,
      "▁joy": 6271,
      "##ercial": 6272,
      "▁lad": 6273,
      "▁col": 6274,
      "ʻ": 6275,
      "▁1245": 6276,
      "▁now": 6277,
      "▁could": 6278,
      "##-991-90": 6279,
      "▁mosquito": 6280,
      "##-20-": 6281,
      "▁best": 6282,
      "▁shell": 6283,
      "▁waiting": 6284,
      "##oph": 6285,
      "▁***": 6286,
      "▁reflect": 6287,
      "▁60,000": 6288,
      "##elly": 6289,
      "▁mainly": 6290,
      "▁shown": 6291,
      "##**": 6292,
      "▁2016": 6293,
      "▁iron": 6294,
      "##ades": 6295,
      "##nondel": 6296,
      "▁+44": 6297,
      "▁********": 6298,
      "▁house": 6299,
      "▁hist": 6300,
      "##—": 6301,
      "▁ne": 6302,
      "##ipt": 6303,
      "##ech": 6304,
      "##^": 6305,
      "▁sally": 6306,
      "▁61": 6307,
      "▁ton": 6308,
      "▁–": 6309,
      "▁tar": 6310,
      "##ints": 6311,
      "▁405": 6312,
      "▁hers": 6313,
      "▁56": 6314,
      "▁'d": 6315,
      "▁winter": 6316,
      "▁scientology": 6317,
      "▁secure": 6318,
      "▁1.75": 6319,
      "##uel": 6320,
      "▁anne": 6321,
      "▁kinda": 6322,
      "##new": 6323,
      "##499": 6324,
      "▁whilst": 6325,
      "▁1841": 6326,
      "▁responsibility": 6327,
      "▁unp": 6328,
      "##lers": 6329,
      "▁things": 6330,
      "▁exhib": 6331,
      "▁cult": 6332,
      "▁09/16/99": 6333,
      "▁actual": 6334,
      "▁grandm": 6335,
      "▁experiences": 6336,
      "▁1560": 6337,
      "▁taiwan": 6338,
      "##_^": 6339,
      "▁extrem": 6340,
      "##€": 6341,
      "▁increased": 6342,
      "▁comb": 6343,
      "▁repe": 6344,
      "▁1579": 6345,
      "##str": 6346,
      "▁200,000": 6347,
      "##iced": 6348,
      "▁adequ": 6349,
      "▁dressed": 6350,
      "▁attach": 6351,
      "▁.........": 6352,
      "##'": 6353,
      "▁mohamed": 6354,
      "▁den": 6355,
      "▁bringing": 6356,
      "▁less": 6357,
      "▁file": 6358,
      "▁pad": 6359,
      "▁study": 6360,
      "▁quarter": 6361,
      "▁at": 6362,
      "▁05/03/2001": 6363,
      "▁lys": 6364,
      "▁forced": 6365,
      "##wich": 6366,
      "▁legislation": 6367,
      "▁begins": 6368,
      "▁game": 6369,
      "▁416-865-370": 6370,
      "##selves": 6371,
      "##:34": 6372,
      "▁759933": 6373,
      "##80": 6374,
      "##cab": 6375,
      "▁cliff": 6376,
      "##ax": 6377,
      "▁protected": 6378,
      "▁aw": 6379,
      "▁come": 6380,
      ":": 6381,
      "▁sister": 6382,
      "▁deep": 6383,
      "▁arri": 6384,
      "▁w": 6385,
      "▁throughout": 6386,
      "▁09": 6387,
      "▁fairly": 6388,
      "##琴": 6389,
      "▁boys": 6390,
      "▁2.15": 6391,
      "▁!!!!": 6392,
      "▁why": 6393,
      "▁finally": 6394,
      "▁library": 6395,
      "##aming": 6396,
      "##\"": 6397,
      "##ult": 6398,
      "▁compet": 6399,
      "▁upstairs": 6400,
      "##om": 6401,
      "##form": 6402,
      "▁diego": 6403,
      "##????": 6404,
      "o": 6405,
      "##:51": 6406,
      "▁fore": 6407,
      "▁06/01/2001": 6408,
      "##mer": 6409,
      "▁subjects": 6410,
      "▁occup": 6411,
      "▁stops": 6412,
      "▁robin": 6413,
      "##asp": 6414,
      "##/17/99": 6415,
      "▁1-8": 6416,
      "▁%": 6417,
      "▁human": 6418,
      "▁.": 6419,
      "▁cl": 6420,
      "▁george": 6421,
      "##71": 6422,
      "##isb": 6423,
      "▁should": 6424,
      "▁tren": 6425,
      "##bow": 6426,
      "##abor": 6427,
      "▁worth": 6428,
      "##ondon": 6429,
      "▁reviews": 6430,
      "▁double": 6431,
      "▁convers": 6432,
      "▁100": 6433,
      "▁2012": 6434,
      "▁suit": 6435,
      "▁vogelaviatiola": 6436,
      "▁2.5": 6437,
      "▁ride": 6438,
      "##ights": 6439,
      "##ilar": 6440,
      "▁tom": 6441,
      "▁weight": 6442,
      "##20-": 6443,
      "##ablish": 6444,
      "▁contents": 6445,
      "▁it": 6446,
      "▁issues": 6447,
      "▁becuse": 6448,
      "##iter": 6449,
      "▁rice@enron": 6450,
      "##got": 6451,
      "▁pump": 6452,
      "▁orlando": 6453,
      "▁cent": 6454,
      "##eet": 6455,
      "[CLS]": 6456,
      "##und": 6457,
      "▁eating": 6458,
      "▁stuck": 6459,
      "▁sl": 6460,
      "▁sar": 6461,
      "▁swing": 6462,
      "##.org": 6463,
      "▁brief": 6464,
      "▁70.85": 6465,
      "▁88": 6466,
      "▁arg": 6467,
      "▁mitch": 6468,
      "▁mark": 6469,
      "▁classes": 6470,
      "▁sel": 6471,
      "##gre": 6472,
      "▁that": 6473,
      "▁saud": 6474,
      "▁dropped": 6475,
      "▁presentation": 6476,
      "##.2": 6477,
      "▁among": 6478,
      "##night": 6479,
      "▁neck": 6480,
      "▁traff": 6481,
      "##:18": 6482,
      "▁country": 6483,
      "▁0": 6484,
      "▁thirty-five": 6485,
      "▁conf": 6486,
      "▁cons": 6487,
      "▁minor": 6488,
      "▁answer": 6489,
      "▁comp": 6490,
      "▁anti": 6491,
      "▁****": 6492,
      "▁communication": 6493,
      "▁1960": 6494,
      "▁conversation": 6495,
      "▁courses": 6496,
      "##bit": 6497,
      "▁sink": 6498,
      "▁attacks": 6499,
      "▁head": 6500,
      "▁citiz": 6501,
      "▁prefer": 6502,
      "▁lab": 6503,
      "##ends": 6504,
      "##ures": 6505,
      "▁rs": 6506,
      "##tt": 6507,
      "##ised": 6508,
      "▁phoenix": 6509,
      "▁2.7": 6510,
      "##ai": 6511,
      "▁prim": 6512,
      "▁reliable": 6513,
      "##口": 6514,
      "▁fort": 6515,
      "▁eighth": 6516,
      "▁movie": 6517,
      "▁une": 6518,
      "▁room": 6519,
      "##aked": 6520,
      "▁ways": 6521,
      "²": 6522,
      "▁stir": 6523,
      "##/99": 6524,
      "▁against": 6525,
      "▁19": 6526,
      "▁dough": 6527,
      "▁projects": 6528,
      "▁reprod": 6529,
      "▁76": 6530,
      "▁incl": 6531,
      "▁680": 6532,
      "##cal": 6533,
      "▁journal": 6534,
      "▁05/17/99": 6535,
      "▁diff": 6536,
      "▁03/02/2001": 6537,
      "▁parts": 6538,
      "▁evidence": 6539,
      "▁fo": 6540,
      "▁river": 6541,
      "▁03/15/2001": 6542,
      "▁use": 6543,
      "▁remove": 6544,
      "▁surpr": 6545,
      "▁reason": 6546,
      "##viatio": 6547,
      "▁pub": 6548,
      "▁stri": 6549,
      "▁ty": 6550,
      "▁around": 6551,
      "▁food": 6552,
      "▁enjoy": 6553,
      "▁fif": 6554,
      "▁stairs": 6555,
      "▁artwork": 6556,
      "##ua": 6557,
      "▁lock": 6558,
      "▁1983": 6559,
      "##bre": 6560,
      "▁page": 6561,
      "▁rele": 6562,
      "▁companies": 6563,
      "▁society": 6564,
      "▁park": 6565,
      "▁batter": 6566,
      "▁differ": 6567,
      "▁nervous": 6568,
      "▁taught": 6569,
      "▁others": 6570,
      "▁transmission": 6571,
      "##.0": 6572,
      "▁portion": 6573,
      "##ift": 6574,
      "▁quart": 6575,
      "▁union": 6576,
      "▁1914": 6577,
      "##:15": 6578,
      "##]": 6579,
      "##-)": 6580,
      "##___________": 6581,
      "▁tall": 6582,
      "▁earned": 6583,
      "▁girl": 6584,
      "##anie": 6585,
      "▁works": 6586,
      "##ros": 6587,
      "▁jim": 6588,
      "▁christ": 6589,
      "▁mac": 6590,
      "▁duty": 6591,
      "##itions": 6592,
      "▁207": 6593,
      "##tw": 6594,
      "▁manag": 6595,
      "##111": 6596,
      "▁listed": 6597,
      "▁magaz": 6598,
      "▁crying": 6599,
      "▁80": 6600,
      "▁geor": 6601,
      "##rup": 6602,
      "▁owner": 6603,
      "▁thousands": 6604,
      "▁similar": 6605,
      "##+----------------": 6606,
      "▁assem": 6607,
      "▁say": 6608,
      "▁415": 6609,
      "##et": 6610,
      "σ": 6611,
      "▁acqu": 6612,
      "▁899-": 6613,
      "▁pl": 6614,
      "##lies": 6615,
      "▁drawing": 6616,
      "##ya": 6617,
      "▁opening": 6618,
      "▁cara": 6619,
      "▁knowled": 6620,
      "▁grounds": 6621,
      "▁signific": 6622,
      "▁birthday": 6623,
      "##ica": 6624,
      "▁willi": 6625,
      "##º": 6626,
      "▁followed": 6627,
      "▁wealth": 6628,
      "▁night": 6629,
      "▁8:30": 6630,
      "##cement": 6631,
      "▁row": 6632,
      "▁sugar": 6633,
      "▁concer": 6634,
      "▁remained": 6635,
      "▁dand": 6636,
      "##asons": 6637,
      "▁designed": 6638,
      "▁pal": 6639,
      "▁religion": 6640,
      "▁psych": 6641,
      "##ami": 6642,
      "▁1:00": 6643,
      "▁priced": 6644,
      "▁incre": 6645,
      "##ʊ": 6646,
      "##iled": 6647,
      "##z": 6648,
      "▁yep": 6649,
      "##exp": 6650,
      "▁ful": 6651,
      "▁3/4": 6652,
      "▁vog": 6653,
      "▁scared": 6654,
      "##come": 6655,
      "##nel": 6656,
      "▁nante": 6657,
      "▁a": 6658,
      "▁needs": 6659,
      "##d-": 6660,
      "##ape": 6661,
      "[SEP]": 6662,
      "##alk": 6663,
      "▁wi": 6664,
      "##414": 6665,
      "▁were": 6666,
      "▁713-6": 6667,
      "▁leaving": 6668,
      "▁concerned": 6669,
      "▁missing": 6670,
      "▁932": 6671,
      "*": 6672,
      "▁efficient": 6673,
      "▁due": 6674,
      "▁nasa": 6675,
      "##oh": 6676,
      "▁+": 6677,
      "##is_0": 6678,
      "▁1877": 6679,
      "##800": 6680,
      "▁michael": 6681,
      "▁bal": 6682,
      "##tering": 6683,
      "##________________": 6684,
      "##gr": 6685,
      "▁balloon": 6686,
      "▁conce": 6687,
      "##ission": 6688,
      "▁mob": 6689,
      "▁bray": 6690,
      "##ks": 6691,
      "▁24": 6692,
      "▁wa": 6693,
      "▁excellent": 6694,
      "##}*{===": 6695,
      "▁du": 6696,
      "▁inside": 6697,
      "▁user": 6698,
      "▁identified": 6699,
      "##ch": 6700,
      "##4/2001": 6701,
      "▁1892": 6702,
      "▁supp": 6703,
      "##edie": 6704,
      "▁scheduled": 6705,
      "##sl": 6706,
      "##:19": 6707,
      "▁many": 6708,
      "##och": 6709,
      "▁bel": 6710,
      "▁yes": 6711,
      "##-343": 6712,
      "ə": 6713,
      "▁listen": 6714,
      "##cion": 6715,
      "##anim": 6716,
      "▁coming": 6717,
      "▁kat": 6718,
      "▁link": 6719,
      "▁gl": 6720,
      "▁dav": 6721,
      "▁else": 6722,
      "▁12:1": 6723,
      "##bol": 6724,
      "##anch": 6725,
      "▁stan": 6726,
      "▁history": 6727,
      "▁qual": 6728,
      "▁paral": 6729,
      "▁seventh": 6730,
      "▁knowledge": 6731,
      "▁noon": 6732,
      "##rod": 6733,
      "##ternal": 6734,
      "##819602175": 6735,
      "▁rug": 6736,
      "##as": 6737,
      "##eland": 6738,
      "##eapolis": 6739,
      "▁03:00": 6740,
      "▁function": 6741,
      "▁tur": 6742,
      "▁troops": 6743,
      "##ification": 6744,
      "▁um": 6745,
      "▁popular": 6746,
      "##igh": 6747,
      "##63": 6748,
      "▁beat": 6749,
      "▁following": 6750,
      "##ond": 6751,
      "▁seem": 6752,
      "▁ma": 6753,
      "▁xsl": 6754,
      "▁extent": 6755,
      "▁camel": 6756,
      "▁not": 6757,
      "##side": 6758,
      "##aint": 6759,
      "▁upon": 6760,
      "▁processes": 6761,
      "▁geograph": 6762,
      "##beit": 6763,
      "▁ba": 6764,
      "##ati": 6765,
      "▁ah": 6766,
      "▁zeal": 6767,
      "▁cognitive": 6768,
      "▁board": 6769,
      "▁fus": 6770,
      "▁dra": 6771,
      "▁sch": 6772,
      "▁nurs": 6773,
      "▁tired": 6774,
      "ρ": 6775,
      "##olution": 6776,
      "▁payment": 6777,
      "##med": 6778,
      "▁vill": 6779,
      "▁poss": 6780,
      "##ide": 6781,
      "##98": 6782,
      "▁lol": 6783,
      "##awah": 6784,
      "▁myself": 6785,
      "▁220": 6786,
      "▁po": 6787,
      "▁wentz": 6788,
      "##owled": 6789,
      "▁8.3": 6790,
      "▁way": 6791,
      "##0-3": 6792,
      "##-468-3": 6793,
      "▁evol": 6794,
      "▁prov": 6795,
      "##erv": 6796,
      "▁gordon": 6797,
      "▁perdues": 6798,
      "▁puzz": 6799,
      "▁dig": 6800,
      "▁highly": 6801,
      "▁hoc": 6802,
      "▁ended": 6803,
      "▁1957": 6804,
      "▁lines": 6805,
      "▁gon": 6806,
      "▁expl": 6807,
      "##ville": 6808,
      "▁years": 6809,
      "▁fan": 6810,
      "##ether": 6811,
      "##.16": 6812,
      "▁thirty": 6813,
      "▁€": 6814,
      "▁cred": 6815,
      "▁witch": 6816,
      "▁4,": 6817,
      "##0.doc": 6818,
      "▁grammar": 6819,
      "▁commun": 6820,
      "▁paren": 6821,
      "▁gulf": 6822,
      "▁physical": 6823,
      "##we": 6824,
      "##amed": 6825,
      "▁organization": 6826,
      "##verty": 6827,
      "▁hamster": 6828,
      "▁mach": 6829,
      "▁con": 6830,
      "##20": 6831,
      "▁sing": 6832,
      "▁grad": 6833,
      "▁smile": 6834,
      "▁recently": 6835,
      "▁awful": 6836,
      "##ump": 6837,
      "▁heavy": 6838,
      "##sid": 6839,
      "▁age": 6840,
      "▁started": 6841,
      "##2/2001": 6842,
      "▁tool": 6843,
      "▁pi": 6844,
      "##lus": 6845,
      "##”": 6846,
      "▁imagine": 6847,
      "▁qaeda": 6848,
      "▁another": 6849,
      "▁1.": 6850,
      "▁lead": 6851,
      "▁sexual": 6852,
      "▁van": 6853,
      "▁issued": 6854,
      "▁fans": 6855,
      "##com": 6856,
      "▁10:46": 6857,
      "##ective": 6858,
      "▁7": 6859,
      "##2-6": 6860,
      "##ي": 6861,
      "▁suffer": 6862,
      "▁stup": 6863,
      "▁breast": 6864,
      "##anda": 6865,
      "##urday": 6866,
      "=": 6867,
      "▁1819": 6868,
      "▁above": 6869,
      "▁match": 6870,
      "##thern": 6871,
      "▁sec": 6872,
      "▁attention": 6873,
      "##:01": 6874,
      "▁el": 6875,
      "▁727": 6876,
      "▁thinks": 6877,
      "▁gu": 6878,
      "▁mosqu": 6879,
      "##oma": 6880,
      "▁chang": 6881,
      "▁west": 6882,
      "##ming": 6883,
      "▁music": 6884,
      "##vin": 6885,
      "##ado": 6886,
      "##????????????????": 6887,
      "▁sun": 6888,
      "##akistan": 6889,
      "▁3724": 6890,
      "▁cere": 6891,
      "▁doo": 6892,
      "##els": 6893,
      "▁entire": 6894,
      "▁chapter": 6895,
      "▁purch": 6896,
      "##eding": 6897,
      "##hin": 6898,
      "▁ball": 6899,
      "▁invited": 6900,
      "##arm": 6901,
      "▁exchange": 6902,
      "▁ser": 6903,
      "▁child": 6904,
      "▁taking": 6905,
      "▁career": 6906,
      "▁12": 6907,
      "▁1/8": 6908,
      "▁1596": 6909,
      "##874": 6910,
      "▁281": 6911,
      "▁dw": 6912,
      "▁saving": 6913,
      "▁safety": 6914,
      "▁legit": 6915,
      "▁seattle": 6916,
      "▁1783": 6917,
      "▁3.8": 6918,
      "##tejo": 6919,
      "▁1599": 6920,
      "▁looked": 6921,
      "▁>--------------------------------": 6922,
      "▁inj": 6923,
      "##¢": 6924,
      "▁butter": 6925,
      "▁flu": 6926,
      "▁look": 6927,
      "▁webs": 6928,
      "▁rh": 6929,
      "▁ocean": 6930,
      "▁nic": 6931,
      "##ue": 6932,
      "##ound": 6933,
      "▁moh": 6934,
      "▁structural": 6935,
      "▁places": 6936,
      "▁available": 6937,
      "▁began": 6938,
      "▁two": 6939,
      "▁1.00": 6940,
      "##ʃ": 6941,
      "▁ent": 6942,
      "▁respect": 6943,
      "▁lim": 6944,
      "##a)": 6945,
      "▁cutting": 6946,
      "##ley": 6947,
      "▁household": 6948,
      "##43": 6949,
      "▁unt": 6950,
      "▁employment": 6951,
      "▁ghost": 6952,
      "▁aug": 6953,
      "▁original": 6954,
      "▁08/16/2000": 6955,
      "▁district": 6956,
      "##ˈ": 6957,
      "▁level": 6958,
      "▁5:00": 6959,
      "▁ke": 6960,
      "▁veget": 6961,
      "▁))": 6962,
      "▁again": 6963,
      "▁discip": 6964,
      "▁questions": 6965,
      "▁para": 6966,
      "▁shin": 6967,
      "▁181": 6968,
      "▁bask": 6969,
      "##.916.718": 6970,
      "▁effect": 6971,
      "##-ked": 6972,
      "##tered": 6973,
      "##88": 6974,
      "▁line": 6975,
      "▁disaster": 6976,
      "##600": 6977,
      "▁apparently": 6978,
      "▁713-8": 6979,
      "▁mon": 6980,
      "▁publicly": 6981,
      "▁low": 6982,
      "##oot": 6983,
      "##ums": 6984,
      "▁inform": 6985,
      "##ness": 6986,
      "▁pencil": 6987,
      "##>": 6988,
      "▁clim": 6989,
      "▁bomb": 6990,
      "##aren": 6991,
      "▁madam": 6992,
      "##iking": 6993,
      "▁mich": 6994,
      "▁spider": 6995,
      "▁eventually": 6996,
      "▁te": 6997,
      "##erved": 6998,
      "##arch": 6999,
      "▁advant": 7000,
      "▁succ": 7001,
      "##ish": 7002,
      "▁of": 7003,
      "▁net": 7004,
      "▁================================": 7005,
      "##wood": 7006,
      "##iro": 7007,
      "##58": 7008,
      "▁11/2": 7009,
      "▁sli": 7010,
      "▁lost": 7011,
      "▁chick": 7012,
      "▁strange": 7013,
      "▁yo": 7014,
      "▁kev": 7015,
      "▁iod": 7016,
      "##ising": 7017,
      "▁tour": 7018,
      "▁1973": 7019,
      "▁6.00": 7020,
      "▁alike": 7021,
      "▁dele": 7022,
      "##grin": 7023,
      "▁proced": 7024,
      "##icycle": 7025,
      "▁mem": 7026,
      "▁common": 7027,
      "▁plus": 7028,
      "▁expected": 7029,
      "▁650": 7030,
      "##oney": 7031,
      "▁vac": 7032,
      "##imum": 7033,
      "▁build": 7034,
      "▁fashion": 7035,
      "▁02/2": 7036,
      "▁group": 7037,
      "▁*": 7038,
      "▁att": 7039,
      "▁sha": 7040,
      "▁bother": 7041,
      "▁estimate": 7042,
      "▁goo": 7043,
      "▁italy": 7044,
      "##cles": 7045,
      "▁05": 7046,
      "▁background": 7047,
      "##ling": 7048,
      "▁santorum": 7049,
      "▁§": 7050,
      "▁flowers": 7051,
      "▁39": 7052,
      "▁567.77": 7053,
      "▁-fin": 7054,
      "▁sarah": 7055,
      "▁russian": 7056,
      "▁view": 7057,
      "▁toky": 7058,
      "##ds": 7059,
      "▁remember": 7060,
      "##fast": 7061,
      "▁providing": 7062,
      "▁forty-one": 7063,
      "▁terms": 7064,
      "▁shelf": 7065,
      "▁1986": 7066,
      "##ency": 7067,
      "▁ste": 7068,
      "▁unif": 7069,
      "▁beau": 7070,
      "▁del": 7071,
      "▁forty-": 7072,
      "##/26/2000": 7073,
      "##41": 7074,
      "▁(c)": 7075,
      "▁410": 7076,
      "▁my": 7077,
      "▁d": 7078,
      "▁indust": 7079,
      "▁ast": 7080,
      "▁prior": 7081,
      "▁3,000": 7082,
      "##iction": 7083,
      "▁aut": 7084,
      "▁expressed": 7085,
      "▁westchester": 7086,
      "##vel": 7087,
      "##36": 7088,
      "▁education": 7089,
      "##six": 7090,
      "▁your": 7091,
      "##iated": 7092,
      "##c)": 7093,
      "▁enc": 7094,
      "##1": 7095,
      "▁345-99": 7096,
      "▁flash": 7097,
      "▁^": 7098,
      "▁320": 7099,
      "##ication": 7100,
      "▁det": 7101,
      "▁critic": 7102,
      "##aped": 7103,
      "▁palestinian": 7104,
      "▁fest": 7105,
      "##4/2000": 7106,
      "▁hall": 7107,
      "▁ideas": 7108,
      "▁proposed": 7109,
      "{": 7110,
      "▁early": 7111,
      "▁gener": 7112,
      "##innati": 7113,
      "##ps": 7114,
      "▁furn": 7115,
      "▁serve": 7116,
      "##row": 7117,
      "##_": 7118,
      "▁higher": 7119,
      "▁change": 7120,
      "▁earlier": 7121,
      "▁industry": 7122,
      "▁husband": 7123,
      "▁pred": 7124,
      "▁’’": 7125,
      "▁wind": 7126,
      "▁’m": 7127,
      "▁92": 7128,
      "▁jan": 7129,
      "▁'71": 7130,
      "▁sandwich": 7131,
      "▁196": 7132,
      "▁art": 7133,
      "▁theodorus": 7134,
      "##\\": 7135,
      "▁1699": 7136,
      "▁republic": 7137,
      "##der": 7138,
      "##asks": 7139,
      "▁airl": 7140,
      "▁chicago": 7141,
      "▁share": 7142,
      "▁202.456.1": 7143,
      "▁fundamental": 7144,
      "##astic": 7145,
      "▁ind": 7146,
      "▁chagrin": 7147,
      "▁horsie": 7148,
      "##li": 7149,
      "▁air": 7150,
      "▁sym": 7151,
      "▁58": 7152,
      "k": 7153,
      "▁came": 7154,
      "▁’d": 7155,
      "▁1926": 7156,
      "▁event": 7157,
      "▁roman": 7158,
      "▁intel": 7159,
      "▁holding": 7160,
      "▁trale": 7161,
      "##eed": 7162,
      "▁tractor": 7163,
      "▁girls": 7164,
      "##:2": 7165,
      "##jam": 7166,
      "▁pres": 7167,
      "▁☎": 7168,
      "▁cert": 7169,
      "##ended": 7170,
      "▁cle": 7171,
      "##-20": 7172,
      "▁42": 7173,
      "▁notwithstand": 7174,
      "▁happened": 7175,
      "##ities": 7176,
      "▁access": 7177,
      "▁forms": 7178,
      "▁france": 7179,
      "##51": 7180,
      "##65": 7181,
      "##ater": 7182,
      "▁1,6": 7183,
      "▁because": 7184,
      "##akk": 7185,
      "▁aid": 7186,
      "▁lik": 7187,
      "##by": 7188,
      "▁!?": 7189,
      "▁students": 7190,
      "▁species": 7191,
      "▁(:": 7192,
      "▁empt": 7193,
      "##339": 7194,
      "▁sunday": 7195,
      "▁bite": 7196,
      "▁lovely": 7197,
      "▁advis": 7198,
      "▁latest": 7199,
      "##itten": 7200,
      "▁77": 7201,
      "▁characters": 7202,
      "##45": 7203,
      "##ortun": 7204,
      "##49": 7205,
      "▁confidential": 7206,
      "一": 7207,
      "▁412": 7208,
      "▁supposed": 7209,
      "##acter": 7210,
      "▁dec": 7211,
      "▁1937": 7212,
      "▁202.456.1111": 7213,
      "##9999": 7214,
      "▁bet": 7215,
      "▁records": 7216,
      "##re": 7217,
      "▁sour": 7218,
      "▁shoot": 7219,
      "##zen": 7220,
      "▁fil": 7221,
      "##olis": 7222,
      "▁setting": 7223,
      "##74": 7224,
      "▁ref": 7225,
      "▁can": 7226,
      "▁demand": 7227,
      "▁8043": 7228,
      "▁choice": 7229,
      "▁believed": 7230,
      "##itter": 7231,
      "##ulated": 7232,
      "▁plants": 7233,
      "▁iii": 7234,
      "##adelp": 7235,
      "▁market": 7236,
      "##umer": 7237,
      "▁airpl": 7238,
      "##iv": 7239,
      "▁1613": 7240,
      "▁2002": 7241,
      "▁1896": 7242,
      "▁sixth": 7243,
      "▁protest": 7244,
      "##@trans": 7245,
      "▁parking": 7246,
      "▁guid": 7247,
      "▁11:45": 7248,
      "##its": 7249,
      "▁instead": 7250,
      "▁plastic": 7251,
      "▁categ": 7252,
      "##.70": 7253,
      "##elf": 7254,
      "▁55": 7255,
      "▁ld2": 7256,
      "▁without": 7257,
      "α": 7258,
      "▁entit": 7259,
      "▁along": 7260,
      "##ial": 7261,
      "##vers": 7262,
      "##23": 7263,
      "▁wheel": 7264,
      "▁01/1": 7265,
      "▁determine": 7266,
      "##ters": 7267,
      "▁king": 7268,
      "##ung": 7269,
      "##/31": 7270,
      "##}": 7271,
      "##per": 7272,
      "##sters": 7273,
      "▁pic": 7274,
      "▁01:0": 7275,
      "▁0.0": 7276,
      "▁performance": 7277,
      "##----------": 7278,
      "▁1849": 7279,
      "##urs": 7280,
      "▁carro": 7281,
      "##oint": 7282,
      "▁weap": 7283,
      "▁stat": 7284,
      "▁princ": 7285,
      "##ght": 7286,
      "▁07:24": 7287,
      "▁17": 7288,
      "##house": 7289,
      "##.x": 7290,
      "8": 7291,
      "▁olymp": 7292,
      "▁interested": 7293,
      "##velop": 7294,
      "▁sect": 7295,
      "▁nand": 7296,
      "▁slightly": 7297,
      "##entially": 7298,
      "##body": 7299,
      "▁000010": 7300,
      "▁coron": 7301,
      "##6-8": 7302,
      "##orm": 7303,
      "▁cup": 7304,
      "▁given": 7305,
      "▁environmental": 7306,
      "▁delicious": 7307,
      "▁parties": 7308,
      "##itable": 7309,
      "##-6": 7310,
      "▁cc": 7311,
      "▁kore": 7312,
      "▁turn": 7313,
      "##iate": 7314,
      "▁value": 7315,
      "▁620-294-": 7316,
      "##iately": 7317,
      "▁fax": 7318,
      "##ulty": 7319,
      "▁february": 7320,
      "▁parad": 7321,
      "##za": 7322,
      "▁man": 7323,
      "▁carrying": 7324,
      "##ain": 7325,
      "▁books": 7326,
      "▁43": 7327,
      "##wards": 7328,
      "##tsbur": 7329,
      "▁much": 7330,
      "▁franc": 7331,
      "▁ins": 7332,
      "##/200": 7333,
      "▁chris": 7334,
      "▁previous": 7335,
      "▁rest": 7336,
      "##ette": 7337,
      "##:48": 7338,
      "▁atmosphere": 7339,
      "##ense": 7340,
      "▁jap": 7341,
      "▁outer": 7342,
      "▁padalecki": 7343,
      "▁road": 7344,
      "▁mentioned": 7345,
      "▁95": 7346,
      "▁nineteen": 7347,
      "▁adop": 7348,
      "▁dream": 7349,
      "▁had": 7350,
      "▁1": 7351,
      "ن": 7352,
      "▁theirs": 7353,
      "▁process": 7354,
      "▁hol": 7355,
      "▁somewhat": 7356,
      "ف": 7357,
      "▁freedom": 7358,
      "▁competition": 7359,
      "##eness": 7360,
      "##:24": 7361,
      "▁al.": 7362,
      "▁north": 7363,
      "▁sixty": 7364,
      "##line": 7365,
      "▁ect": 7366,
      "▁has": 7367,
      "▁woud": 7368,
      "▁6.2.1": 7369,
      "##ʻ": 7370,
      "▁`s": 7371,
      "▁rubber": 7372,
      "▁technical": 7373,
      "▁programm": 7374,
      "▁nor": 7375,
      "##zy": 7376,
      "▁metal": 7377,
      "▁dipl": 7378,
      "##kins": 7379,
      "##rec": 7380,
      "▁diplom": 7381,
      "##urch": 7382,
      "▁clear": 7383,
      "##ated": 7384,
      "▁ass": 7385,
      "##ote": 7386,
      "ي": 7387,
      "▁suggested": 7388,
      "▁ex": 7389,
      "▁dollie": 7390,
      "▁population": 7391,
      "▁wash": 7392,
      "##ri": 7393,
      "▁corresp": 7394,
      "▁lou": 7395,
      "▁e.g.": 7396,
      "▁yourselves": 7397,
      "▁713-853": 7398,
      "▁sara": 7399,
      "▁settled": 7400,
      "##----": 7401,
      "▁713-853-": 7402,
      "▁civ": 7403,
      "##:13": 7404,
      "▁administr": 7405,
      "▁10:30": 7406,
      "▁03": 7407,
      "▁pray": 7408,
      "▁acad": 7409,
      "▁serious": 7410,
      "##work": 7411,
      "▁insur": 7412,
      "θ": 7413,
      "▁dallas": 7414,
      "▁duck": 7415,
      "##rees": 7416,
      "▁512": 7417,
      "▁creation": 7418,
      "▁creating": 7419,
      "▁ol": 7420,
      "##109": 7421,
      "▁ul": 7422,
      "▁addition": 7423,
      "▁460": 7424,
      "▁went": 7425,
      "▁mut": 7426,
      "##alys": 7427,
      "##uch": 7428,
      "▁hanging": 7429,
      "▁obt": 7430,
      "▁713": 7431,
      "##k.": 7432,
      "##inary": 7433,
      "▁admin": 7434,
      "▁glob": 7435,
      "▁tou": 7436,
      "▁bug": 7437,
      "▁agreement": 7438,
      "▁din": 7439,
      "##ices": 7440,
      "▁finish": 7441,
      "▁198": 7442,
      "▁tea": 7443,
      "▁<": 7444,
      "▁try": 7445,
      "▁1588": 7446,
      "▁wood": 7447,
      "▁operators": 7448,
      "▁dan": 7449,
      "##ther": 7450,
      "▁recommend": 7451,
      ")": 7452,
      "▁03/2": 7453,
      "▁exec": 7454,
      "▁fix": 7455,
      "##im": 7456,
      "##qu": 7457,
      "##bha": 7458,
      "▁schol": 7459,
      "▁minute": 7460,
      "▁impro": 7461,
      "##thing": 7462,
      "##arian": 7463,
      "▁ros": 7464,
      "▁natural": 7465,
      "##road": 7466,
      "▁begin": 7467,
      "▁tast": 7468,
      "##ost": 7469,
      "##istics": 7470,
      "▁pleasure": 7471,
      "##~": 7472,
      "##ael": 7473,
      "##449": 7474,
      "-": 7475,
      "##++": 7476,
      "▁na": 7477,
      "▁plans": 7478,
      "##uk": 7479,
      "\\": 7480,
      "▁closer": 7481,
      "##own": 7482,
      "▁apart": 7483,
      "▁save": 7484,
      "##dom": 7485,
      "▁71": 7486,
      "▁customers": 7487,
      "##rition": 7488,
      "▁notice": 7489,
      "##uals": 7490,
      "##our": 7491,
      "##urning": 7492,
      "▁only": 7493,
      "▁improve": 7494,
      "▁milwau": 7495,
      "##une": 7496,
      "##imes": 7497,
      "▁behin": 7498,
      "▁ahead": 7499,
      "▁cold": 7500,
      "##going": 7501,
      "▁n’t": 7502,
      "##key": 7503,
      "▁sho": 7504,
      "▁scale": 7505,
      "▁850": 7506,
      "▁03:58": 7507,
      "▁individual": 7508,
      "▁sides": 7509,
      "▁---": 7510,
      "##phone": 7511,
      "##ail": 7512,
      "▁ren": 7513,
      "▁jihad": 7514,
      "▁510": 7515,
      "▁1580": 7516,
      "##,8": 7517,
      "##:55": 7518,
      "▁attract": 7519,
      "▁guy": 7520,
      "##3-": 7521,
      "▁like": 7522,
      "##.com/": 7523,
      "▁inqu": 7524,
      "▁palestin": 7525,
      "▁summ": 7526,
      "▁1850": 7527,
      "##oud": 7528,
      "▁glo": 7529,
      "▁ooh": 7530,
      "▁73": 7531,
      "▁president": 7532,
      "▁800.713.8": 7533,
      "▁series": 7534,
      "▁meal": 7535,
      "▁?": 7536,
      "▁talks": 7537,
      "▁won": 7538,
      "▁initial": 7539,
      "▁wro": 7540,
      "▁67": 7541,
      "▁died": 7542,
      "▁record": 7543,
      "▁zawah": 7544,
      "▁1110": 7545,
      "##ste": 7546,
      "▁mi": 7547,
      "▁names": 7548,
      "▁training": 7549,
      "##:56": 7550,
      "▁3,500": 7551,
      "▁amend": 7552,
      "▁resp": 7553,
      "▁loan": 7554,
      "▁karen": 7555,
      "##---------------": 7556,
      "##ran": 7557,
      "▁recent": 7558,
      "▁warm": 7559,
      "##ire": 7560,
      "##aged": 7561,
      "▁manager": 7562,
      "▁japanese": 7563,
      "▁1987": 7564,
      "▁facts": 7565,
      "##onn": 7566,
      "▁travel": 7567,
      "▁arm": 7568,
      "▁tape": 7569,
      "▁media": 7570,
      "▁lo": 7571,
      "##ø": 7572,
      "##igration": 7573,
      "谿": 7574,
      "▁crime": 7575,
      "▁1912": 7576,
      "▁visitors": 7577,
      "▁1179": 7578,
      "▁table": 7579,
      "▁fruit": 7580,
      "▁standard": 7581,
      "▁opinion": 7582,
      "##68": 7583,
      "▁roll": 7584,
      "##ty": 7585,
      "▁1925": 7586,
      "##case": 7587,
      "▁describ": 7588,
      "##μ": 7589,
      "##ene": 7590,
      "▁participants": 7591,
      "▁loo": 7592,
      "▁june": 7593,
      "▁auster": 7594,
      "▁tie": 7595,
      "▁gard": 7596,
      "▁paid": 7597,
      "▁mag": 7598,
      "▁existing": 7599,
      "##ibilities": 7600,
      "▁durs": 7601,
      "▁1765": 7602,
      "▁kitten": 7603,
      "▁respond": 7604,
      "▁am": 7605,
      "▁menu": 7606,
      "▁630": 7607,
      "▁someone": 7608,
      "▁----": 7609,
      "##imp": 7610,
      "▁presents": 7611,
      "▁sold": 7612,
      "##oring": 7613,
      "▁efforts": 7614,
      "##no": 7615,
      "##art": 7616,
      "▁mix": 7617,
      "▁dog": 7618,
      "▁saudi": 7619,
      "▁snow": 7620,
      "##uary": 7621,
      "▁thr": 7622,
      "▁beyond": 7623,
      "##40": 7624,
      "▁1888": 7625,
      "##aviatio": 7626,
      "▁medium": 7627,
      "▁cabin": 7628,
      "▁le": 7629,
      "▁1959": 7630,
      "▁gave": 7631,
      "▁(b)": 7632,
      "▁qa": 7633,
      "▁chaos": 7634,
      "▁span": 7635,
      "▁screw": 7636,
      "▁763736": 7637,
      "▁aband": 7638,
      "##ooth": 7639,
      "##澹": 7640,
      "▁dirty": 7641,
      "##/1": 7642,
      "▁wave": 7643,
      "##pet": 7644,
      "▁balzac": 7645,
      "##iny": 7646,
      "##.45": 7647,
      "▁calc": 7648,
      "##/03/2001": 7649,
      "##.30": 7650,
      "##hi": 7651,
      "##ent": 7652,
      "▁hon": 7653,
      "##:40": 7654,
      "▁part": 7655,
      "▁prepare": 7656,
      "▁memphis": 7657,
      "▁2006": 7658,
      "##.3": 7659,
      "▁345-3436": 7660,
      "▁exhibit": 7661,
      "##39": 7662,
      "##icip": 7663,
      "▁ans": 7664,
      "##****************": 7665,
      "▁coord": 7666,
      "▁beg": 7667,
      "▁subm": 7668,
      "▁canadian": 7669,
      "▁currency": 7670,
      "▁flow": 7671,
      "ɛ": 7672,
      "##ites": 7673,
      "▁9221": 7674,
      "##ex": 7675,
      "##ought": 7676,
      "▁truly": 7677,
      "▁favor": 7678,
      "m": 7679,
      "▁database": 7680,
      "▁6.1": 7681,
      "▁lic": 7682,
      "▁mail": 7683,
      "▁don": 7684,
      "▁wil": 7685,
      "##ession": 7686,
      "▁sa": 7687,
      "##por": 7688,
      "▁beh": 7689,
      "##ask": 7690,
      "▁actions": 7691,
      "▁percent": 7692,
      "▁5": 7693,
      "▁bo": 7694,
      "▁sn": 7695,
      "##oub": 7696,
      "▁sign": 7697,
      "▁quinn": 7698,
      "▁individ": 7699,
      "##ellig": 7700,
      "▁ring": 7701,
      "##460-33": 7702,
      "▁sev": 7703,
      "▁est": 7704,
      "▁2001": 7705,
      "▁60": 7706,
      "▁beaut": 7707,
      "▁90": 7708,
      "##β": 7709,
      "▁lingu": 7710,
      "▁towards": 7711,
      "▁banana": 7712,
      "▁assess": 7713,
      "##uding": 7714,
      "▁largest": 7715,
      "▁or": 7716,
      "##peare": 7717,
      "▁er": 7718,
      "▁college": 7719,
      "▁catch": 7720,
      "##ne": 7721,
      "▁confirm": 7722,
      "▁40,000": 7723,
      "▁easier": 7724,
      "▁professor": 7725,
      "▁___________": 7726,
      "▁713-654-0365": 7727,
      "▁purs": 7728,
      "▁mos": 7729,
      "▁result": 7730,
      "▁advert": 7731,
      "▁enjambment": 7732,
      "▁coff": 7733,
      "##ages": 7734,
      "##for": 7735,
      "▁11/08/2000": 7736,
      "▁": 7737,
      "▁cities": 7738,
      "▁min": 7739,
      "▁mrs": 7740,
      "##989": 7741,
      "##15": 7742,
      "▁hotels": 7743,
      "▁do": 7744,
      "##ugh": 7745,
      "▁turkey": 7746,
      "▁policies": 7747,
      "▁smart": 7748,
      "▁discussed": 7749,
      "##ulation": 7750,
      "##idge": 7751,
      "▁whole": 7752,
      "##.25": 7753,
      "##029": 7754,
      "▁ire": 7755,
      "▁cromer": 7756,
      "##:52": 7757,
      "▁experi": 7758,
      "▁1829": 7759,
      "▁969": 7760,
      "▁5:30": 7761,
      "▁12/26/2000": 7762,
      "▁dese": 7763,
      "##..": 7764,
      "##iture": 7765,
      "▁iv": 7766,
      "▁tickets": 7767,
      "▁us": 7768,
      "##rast": 7769,
      "▁tools": 7770,
      "##rib": 7771,
      "×": 7772,
      "##asy": 7773,
      "▁703": 7774,
      "▁!!!!!!": 7775,
      "▁drew": 7776,
      "▁bab": 7777,
      "##age": 7778,
      "▁docum": 7779,
      "▁success": 7780,
      "▁perfect": 7781,
      "▁28,000": 7782,
      "##ation": 7783,
      "▁nana": 7784,
      "##rick": 7785,
      "##ible": 7786,
      "▁cigarette": 7787,
      "ø": 7788,
      "▁play": 7789,
      "▁google": 7790,
      "▁:)": 7791,
      "##.n": 7792,
      "▁nest": 7793,
      "▁wikinews": 7794,
      "▁made": 7795,
      "▁owners": 7796,
      "##19": 7797,
      "▁area": 7798,
      "▁11:32": 7799,
      "▁rabbit": 7800,
      "▁maint": 7801,
      "▁agric": 7802,
      "▁reports": 7803,
      "▁mary": 7804,
      "▁asian": 7805,
      "▁sample": 7806,
      "▁error": 7807,
      "##tte": 7808,
      "▁wet": 7809,
      "##itation": 7810,
      "▁2008": 7811,
      "##10": 7812,
      "##ates": 7813,
      "▁und": 7814,
      "▁step": 7815,
      "▁21": 7816,
      "▁exc": 7817,
      "▁unlike": 7818,
      "##/2": 7819,
      "##ouse": 7820,
      "▁1561": 7821,
      "▁3.1": 7822,
      "▁altern": 7823,
      "##ɛ": 7824,
      "▁telling": 7825,
      "##get": 7826,
      "##ruct": 7827,
      "##静": 7828,
      "▁166": 7829,
      "▁flying": 7830,
      "▁fe": 7831,
      "##ppy": 7832,
      "▁gre": 7833,
      "▁version": 7834,
      "▁colleagues": 7835,
      "##n": 7836,
      "▁educ": 7837,
      "·": 7838,
      "##elines": 7839,
      "##uted": 7840,
      "[": 7841,
      "▁aspects": 7842,
      "▁decent": 7843,
      "▁debra": 7844,
      "▁analysis": 7845,
      "▁stream": 7846,
      "▁economic": 7847,
      "##==============": 7848,
      "##ll": 7849,
      "##land": 7850,
      "##ces": 7851,
      "▁98": 7852,
      "##ian": 7853,
      "(": 7854,
      "##5": 7855,
      "##clus": 7856,
      "▁studied": 7857,
      "▁cowboy": 7858,
      "##ir": 7859,
      "▁established": 7860,
      "▁five": 7861,
      "##ause": 7862,
      "##nic": 7863,
      "##-3989": 7864,
      "##enix": 7865,
      "▁110": 7866,
      "▁region": 7867,
      "▁knock": 7868,
      "▁flor": 7869,
      "▁city": 7870,
      "▁monday": 7871,
      "▁sto": 7872,
      "▁via": 7873,
      "▁europe": 7874,
      "▁no-": 7875,
      "▁intended": 7876,
      "▁excuse": 7877,
      "▁foc": 7878,
      "▁push": 7879,
      "##phis": 7880,
      "##ella": 7881,
      "##vember": 7882,
      "▁identity": 7883,
      "▁suffering": 7884,
      "▁maj": 7885,
      "▁ups": 7886,
      "##ble": 7887,
      "##ild": 7888,
      "▁tw": 7889,
      "▁take": 7890,
      "▁jack": 7891,
      "7": 7892,
      "▁program": 7893,
      "▁film": 7894,
      "▁tomorrow": 7895,
      "▁195": 7896,
      "▁odd": 7897,
      "##how": 7898,
      "▁brain": 7899,
      "##:25": 7900,
      "##2000": 7901,
      "▁introd": 7902,
      "##bs": 7903,
      "▁favorite": 7904,
      "▁asp": 7905,
      "▁attempt": 7906,
      "▁maintain": 7907,
      "▁rich": 7908,
      "▁anoder": 7909,
      "▁letter": 7910,
      "☎": 7911,
      "▁northern": 7912,
      "▁cal": 7913,
      "▁08/03/2000": 7914,
      "##sy": 7915,
      "▁6871082": 7916,
      "▁they": 7917,
      "##ς": 7918,
      "##ations": 7919,
      "##hia": 7920,
      "▁results": 7921,
      "▁mount": 7922,
      "▁over": 7923,
      "▁lea": 7924,
      "▁underst": 7925,
      "▁1998": 7926,
      "▁;-)": 7927,
      "##ren": 7928,
      "##ter": 7929,
      "▁custom": 7930,
      "▁absor": 7931,
      "▁296": 7932,
      "##ams": 7933,
      "▁ber": 7934,
      "##lish": 7935,
      "##az": 7936,
      "▁territ": 7937,
      "▁1160": 7938,
      "▁!": 7939,
      "▁xslt": 7940,
      "##/13/2001": 7941,
      "▁770": 7942,
      "▁notwith": 7943,
      "▁bre": 7944,
      "▁cy": 7945,
      "▁713/853": 7946,
      "▁polar": 7947,
      "##zz": 7948,
      "▁reli": 7949,
      "▁struct": 7950,
      "▁germany": 7951,
      "η": 7952,
      "▁ut": 7953,
      "##inny": 7954,
      "##ike": 7955,
      "▁07/1": 7956,
      "f": 7957,
      "##•": 7958,
      "▁defe": 7959,
      "▁leaders": 7960,
      "▁---------------------------------------------------------------------": 7961,
      "▁contr": 7962,
      "##1/2001": 7963,
      "▁somet": 7964,
      "▁+++++": 7965,
      "##two": 7966,
      "▁env": 7967,
      "▁digital": 7968,
      "##raw": 7969,
      "▁330": 7970,
      "▁congress": 7971,
      "▁greatest": 7972,
      "▁forg": 7973,
      "##pa": 7974,
      "▁bring": 7975,
      "▁unemploy": 7976,
      "##ler": 7977,
      "##asc": 7978,
      "▁delivered": 7979,
      "##thers": 7980,
      "▁compl": 7981,
      "##velopment": 7982,
      "▁both": 7983,
      "##/2005": 7984,
      "▁customer": 7985,
      "▁understanding": 7986,
      "▁appreciate": 7987,
      "##ating": 7988,
      "##arent": 7989,
      "▁transform": 7990,
      "##ecca": 7991,
      "▁kansas": 7992,
      "▁short": 7993,
      "▁suppose": 7994,
      "▁green": 7995,
      "▁dc": 7996,
      "##inews": 7997,
      "▁relief": 7998,
      "▁wou": 7999,
      "▁taliban": 8000,
      "##ise": 8001,
      "##ender": 8002,
      "▁responsible": 8003,
      "▁multiple": 8004,
      "▁blue": 8005,
      "▁prime": 8006,
      "▁economies": 8007,
      "▁stillman": 8008,
      "▁determin": 8009,
      "▁especially": 8010,
      "▁assist": 8011,
      "▁repair": 8012,
      "▁consult": 8013,
      "▁tied": 8014,
      "▁transm": 8015,
      "▁africa": 8016,
      "▁50": 8017,
      "▁hel": 8018,
      "▁absolutely": 8019,
      "▁2011": 8020,
      "▁includ": 8021,
      "▁1598": 8022,
      "▁absol": 8023,
      "▁-2-": 8024,
      "▁nash": 8025,
      "▁open": 8026,
      "▁!!!!!!!!!!!": 8027,
      "▁voice": 8028,
      "##!!!": 8029,
      "▁pan": 8030,
      "▁building": 8031,
      "▁nine": 8032,
      "##ember": 8033,
      "▁grass": 8034,
      "▁equival": 8035,
      "▁calif": 8036,
      "▁nerv": 8037,
      "##res": 8038,
      "▁80,000": 8039,
      "▁perform": 8040,
      "##ur": 8041,
      "▁2000": 8042,
      "▁buying": 8043,
      "▁couple": 8044,
      "##@enron_de": 8045,
      "##oured": 8046,
      "▁vacation": 8047,
      "▁relationship": 8048,
      "▁budget": 8049,
      "##pr": 8050,
      "##gy": 8051,
      "▁508": 8052,
      "▁mel": 8053,
      "##bing": 8054,
      "▁har": 8055,
      "▁purpose": 8056,
      "▁motion": 8057,
      "▁stip": 8058,
      "▁royal": 8059,
      "▁mean": 8060,
      "##37": 8061,
      "▁9": 8062,
      "▁199": 8063,
      "▁clock": 8064,
      "▁ch": 8065,
      "##lik": 8066,
      "▁wed": 8067,
      "▁guess": 8068,
      "▁24,000": 8069,
      "##uled": 8070,
      "▁dudley": 8071,
      "▁massive": 8072,
      "▁su": 8073,
      "▁national": 8074,
      "▁6.2": 8075,
      "##ara": 8076,
      "##ann": 8077,
      "▁18,000": 8078,
      "▁kids": 8079,
      "▁progr": 8080,
      "##ners": 8081,
      "▁valle": 8082,
      "▁who": 8083,
      "▁1605": 8084,
      "▁fine": 8085,
      "▁train": 8086,
      "▁4:00": 8087,
      "▁almost": 8088,
      "▁classical": 8089,
      "▁hus": 8090,
      "▁paris": 8091,
      "▁slight": 8092,
      "▁888.916.7184": 8093,
      "▁interest": 8094,
      "▁pol": 8095,
      "▁differences": 8096,
      "▁11/28/2000": 8097,
      "▁:d": 8098,
      "况": 8099,
      "##ett": 8100,
      "▁pain": 8101,
      "##ception": 8102,
      "▁teachers": 8103,
      "##load": 8104,
      "##uf": 8105,
      "##au": 8106,
      "▁&amp": 8107,
      "▁d'": 8108,
      "▁protect": 8109,
      "▁??": 8110,
      "▁lights": 8111,
      "▁e": 8112,
      "##bles": 8113,
      "▁studying": 8114,
      "▁recogn": 8115,
      "▁62": 8116,
      "##friend": 8117,
      "▁avoid": 8118,
      "▁experience": 8119,
      "##ott": 8120,
      "##ف": 8121,
      "▁battle": 8122,
      "▁tuesday": 8123,
      "▁pean": 8124,
      "▁9/11": 8125,
      "##ony": 8126,
      "##ov": 8127,
      "▁attorn": 8128,
      "##ults": 8129,
      "▁oakland": 8130,
      "▁certain": 8131,
      "##bby": 8132,
      "▁perfectly": 8133,
      "▁diversity": 8134,
      "##conn": 8135,
      "##omet": 8136,
      "▁context": 8137,
      "▁langu": 8138,
      "▁difference": 8139,
      "##aw": 8140,
      "▁reb": 8141,
      "##@": 8142,
      "##ento": 8143,
      "▁however": 8144,
      "▁noone": 8145,
      "▁?????": 8146,
      "▁compan": 8147,
      "▁work": 8148,
      "▁kh": 8149,
      "▁interviews": 8150,
      "▁cour": 8151,
      "▁1777": 8152,
      "▁extremely": 8153,
      "##it": 8154,
      "▁present": 8155,
      "##icle": 8156,
      "##ante": 8157,
      "##aur": 8158,
      "##enth": 8159,
      "▁shot": 8160,
      "##--------------------------------": 8161,
      "▁dkk": 8162,
      "▁0590": 8163,
      "▁laur": 8164,
      "▁washington": 8165,
      "##ement": 8166,
      "##uit": 8167,
      "▁eth": 8168,
      "▁answ": 8169,
      "##.p": 8170,
      "▁benefit": 8171,
      "▁intellect": 8172,
      "▁xiii": 8173,
      "▁bank": 8174,
      "▁evening": 8175,
      "##uced": 8176,
      "##ublic": 8177,
      "▁cut": 8178,
      "##gest": 8179,
      "▁likes": 8180,
      "##72": 8181,
      "▁entered": 8182,
      "▁supplies": 8183,
      "▁maybe": 8184,
      "▁piz": 8185,
      "▁born": 8186,
      "▁lived": 8187,
      "▁1039": 8188,
      "▁freed": 8189,
      "##mber": 8190,
      "▁branch": 8191
    }
  }
}