{
  "version": "1.0",
  "truncation": null,
  "padding": null,
  "added_tokens": [
    {
      "id": 538,
      "content": "[CLS]",
      "single_word": false,
      "lstrip": false,
      "rstrip": false,
      "normalized": false,
      "special": true
    },
    {
      "id": 959,
      "content": "[SEP]",
      "single_word": false,
      "lstrip": false,
      "rstrip": false,
      "normalized": false,
      "special": true
    },
    {
      "id": 2305,
      "content": "[PAD]",
      "single_word": false,
      "lstrip": false,
      "rstrip": false,
      "normalized": false,
      "special": true
    },
    {
      "id": 3485,
      "content": "[MASK]",
      "single_word": false,
      "lstrip": false,
      "rstrip": false,
      "normalized": false,
      "special": true
    },
    {
      "id": 3675,
      "content": "[UNK]",
      "single_word": false,
      "lstrip": false,
      "rstrip": false,
      "normalized": false,
      "special": true
    }
  ],
  "normalizer": {
    "type": "Sequence",
    "normalizers": [
      {
        "type": "NFD"
      },
      {
        "type": "Lowercase"
      },
      {
        "type": "StripAccents"
      }
    ]
  },
  "pre_tokenizer": {
    "type": "Sequence",
    "pretokenizers": [
      {
        "type": "Metaspace",
        "replacement": "▁",
        "prepend_scheme": "always",
        "split": true
      }
    ]
  },
  "post_processor": {
    "type": "TemplateProcessing",
    "single": [
      {
        "SpecialToken": {
          "id": "[CLS]",
          "type_id": 0
        }
      },
      {
        "Sequence": {
          "id": "A",
          "type_id": 0
        }
      },
      {
        "SpecialToken": {
          "id": "[SEP]",
          "type_id": 0
        }
      }
    ],
    "pair": [
      {
        "SpecialToken": {
          "id": "[CLS]",
          "type_id": 0
        }
      },
      {
        "Sequence": {
          "id": "A",
          "type_id": 0
        }
      },
      {
        "SpecialToken": {
          "id": "[SEP]",
          "type_id": 0
        }
      },
      {
        "Sequence": {
          "id": "B",
          "type_id": 1
        }
      },
      {
        "SpecialToken": {
          "id": "[SEP]",
          "type_id": 1
        }
      }
    ],
    "special_tokens": {
      "[CLS]": {
        "id": "[CLS]",
        "ids": [
          538
        ],
        "tokens": [
          "[CLS]"
        ]
      },
      "[SEP]": {
        "id": "[SEP]",
        "ids": [
          959
        ],
        "tokens": [
          "[SEP]"
        ]
      }
    }
  },
  "decoder": {
    "type": "Metaspace",
    "replacement": "▁",
    "prepend_scheme": "always",
    "split": true
  },
  "model": {
    "type": "WordPiece",
    "unk_token": "[UNK]",
    "continuing_subword_prefix": "##",
    "max_input_chars_per_word": 100,
    "vocab": {
      "▁pr": 0,
      "▁40": 1,
      "##33": 2,
      "##/9": 3,
      "▁700": 4,
      "##津": 5,
      "##?": 6,
      "##96": 7,
      "▁little": 8,
      "▁america": 9,
      "▁1954": 10,
      "▁as": 11,
      "##to": 12,
      "▁shop": 13,
      "##nd": 14,
      "▁\"": 15,
      "##-7": 16,
      "▁lake": 17,
      "▁ad": 18,
      "##__": 19,
      "▁12/2": 20,
      "▁mass": 21,
      "▁253": 22,
      "▁1940": 23,
      "▁20:00": 24,
      "▁interv": 25,
      "▁there": 26,
      "##ero": 27,
      "##eld": 28,
      "▁date": 29,
      "##ued": 30,
      "▁depart": 31,
      "##my": 32,
      "▁dat": 33,
      "▁50000": 34,
      "##right": 35,
      "▁ec": 36,
      "##×": 37,
      "▁parents": 38,
      "▁ha": 39,
      "▁must": 40,
      "▁13": 41,
      "##________": 42,
      "▁proble": 43,
      "##460-3": 44,
      "▁form": 45,
      "##-5": 46,
      "▁1991": 47,
      "▁238": 48,
      "▁11:36": 49,
      "▁outs": 50,
      "▁1589": 51,
      "##wi": 52,
      "##)": 53,
      "▁know": 54,
      "##28": 55,
      "##ik": 56,
      "▁pittsbur": 57,
      "▁before": 58,
      "##ament": 59,
      "##rist": 60,
      "▁1,200": 61,
      "##b": 62,
      "▁2030": 63,
      "▁yeah": 64,
      "▁whi": 65,
      "▁enough": 66,
      "▁last": 67,
      "▁unless": 68,
      "##031": 69,
      "▁64": 70,
      "##822": 71,
      "##ant": 72,
      "##ag": 73,
      "▁help": 74,
      "▁q": 75,
      "##pe": 76,
      "▁1929": 77,
      "▁wear": 78,
      "▁times": 79,
      "##53": 80,
      "▁wanted": 81,
      "▁would": 82,
      "…": 83,
      "▁hop": 84,
      "##ollow": 85,
      "▁establish": 86,
      "▁175": 87,
      "▁hear": 88,
      "▁global": 89,
      "▁period": 90,
      "▁1562": 91,
      "▁713/8": 92,
      "▁fourteen": 93,
      "▁4.6": 94,
      "##ways": 95,
      "▁1971": 96,
      "æ": 97,
      "▁ear": 98,
      "▁alright": 99,
      "▁1609": 100,
      "##ects": 101,
      "▁wait": 102,
      "##/7": 103,
      "▁08:50": 104,
      "##490": 105,
      "▁priv": 106,
      "▁saying": 107,
      "##ud": 108,
      "▁mor": 109,
      "▁business": 110,
      "'": 111,
      "▁6871082#": 112,
      "▁old": 113,
      "▁rep": 114,
      "▁prod": 115,
      "##ments": 116,
      "▁1847": 117,
      "##/10/2000": 118,
      "▁buy": 119,
      "▁10": 120,
      "▁watch": 121,
      "▁well": 122,
      "▁7:00": 123,
      "▁iran": 124,
      "▁x": 125,
      "##ering": 126,
      "▁suff": 127,
      "▁28": 128,
      "▁plan": 129,
      "▁squ": 130,
      "▁live": 131,
      "▁august": 132,
      "▁y": 133,
      "▁ap": 134,
      "▁aside": 135,
      "▁perf": 136,
      "▁daily": 137,
      "##neath": 138,
      "▁lad": 139,
      "▁col": 140,
      "ʻ": 141,
      "▁1245": 142,
      "▁2014": 143,
      "▁300,000": 144,
      "##ز": 145,
      "▁now": 146,
      "▁free": 147,
      "##ful": 148,
      "▁could": 149,
      "▁ph": 150,
      "▁78": 151,
      "##-991-90": 152,
      "##:02": 153,
      "##-20-": 154,
      "##ie": 155,
      "▁best": 156,
      "▁u": 157,
      "▁activ": 158,
      "##oph": 159,
      "▁***": 160,
      "##utes": 161,
      "##ping": 162,
      "▁202.45": 163,
      "▁60,000": 164,
      "▁65": 165,
      "##@enron": 166,
      "##eck": 167,
      "▁apar": 168,
      "▁so": 169,
      "##**": 170,
      "▁fig": 171,
      "##less": 172,
      "▁2016": 173,
      "##ص": 174,
      "▁indian": 175,
      "▁law": 176,
      "▁sleep": 177,
      "▁once": 178,
      "##in": 179,
      "▁hard": 180,
      "▁2017": 181,
      "##nesday": 182,
      "##ell": 183,
      "##119": 184,
      "▁1635": 185,
      "##ake": 186,
      "▁1530": 187,
      "▁+44": 188,
      "▁10/2": 189,
      "▁mar": 190,
      "▁house": 191,
      "▁vis": 192,
      "▁hist": 193,
      "▁08/17/2000": 194,
      "▁rights": 195,
      "##—": 196,
      "##read": 197,
      "▁fair": 198,
      "##ilities": 199,
      "▁ne": 200,
      "▁felt": 201,
      "##ech": 202,
      "##^": 203,
      "▁ra": 204,
      "▁16": 205,
      "▁61": 206,
      "##樋": 207,
      "▁14": 208,
      "##:11": 209,
      "▁–": 210,
      "▁sc": 211,
      "▁1709": 212,
      "##inc": 213,
      "##ints": 214,
      "▁5.8": 215,
      "##,7": 216,
      "▁kn": 217,
      "▁will": 218,
      "▁astr": 219,
      "▁405": 220,
      "##zac": 221,
      "▁hers": 222,
      "▁56": 223,
      "▁'d": 224,
      "##图": 225,
      "▁eas": 226,
      "▁with": 227,
      "▁1.75": 228,
      "▁const": 229,
      "▁commission": 230,
      "–": 231,
      "▁first": 232,
      "##uel": 233,
      "##7.77": 234,
      "▁forward": 235,
      "##.10": 236,
      "▁2018": 237,
      "##84": 238,
      "##499": 239,
      "##-99": 240,
      "▁versus": 241,
      "▁whilst": 242,
      "▁1841": 243,
      "▁nose": 244,
      "##teen": 245,
      "##13.86": 246,
      "▁1602": 247,
      "▁33,000": 248,
      "▁things": 249,
      "▁b/c": 250,
      "▁cult": 251,
      "##un": 252,
      "▁09/16/99": 253,
      "▁iraq": 254,
      "##5,000": 255,
      "▁1560": 256,
      "▁ever": 257,
      "##oice": 258,
      "▁02": 259,
      "##£": 260,
      "▁.......": 261,
      "▁888.916.718": 262,
      "##iety": 263,
      "▁1880": 264,
      "##uff": 265,
      "▁boy": 266,
      "▁;": 267,
      "▁extrem": 268,
      "▁are": 269,
      "##€": 270,
      "##518": 271,
      "▁sometimes": 272,
      "##y": 273,
      "##se": 274,
      "▁1579": 275,
      "▁agre": 276,
      "##isc": 277,
      "##ii": 278,
      "▁bag": 279,
      "▁if": 280,
      "▁200,000": 281,
      "▁01:14": 282,
      "▁373": 283,
      "##ead": 284,
      "▁esp": 285,
      "▁breakfast": 286,
      "▁oc": 287,
      "##rench": 288,
      "▁in": 289,
      "##ured": 290,
      "##-696": 291,
      "▁1955": 292,
      "▁said": 293,
      "▁9:30": 294,
      "##'": 295,
      "▁den": 296,
      "▁j": 297,
      "##um": 298,
      "▁number": 299,
      "▁bec": 300,
      "▁control": 301,
      "##况": 302,
      "▁oil": 303,
      "▁less": 304,
      "▁file": 305,
      "▁wilt": 306,
      "▁study": 307,
      "▁support": 308,
      "▁730": 309,
      "▁154": 310,
      "☏": 311,
      "▁at": 312,
      "▁05/03/2001": 313,
      "▁meas": 314,
      "▁add": 315,
      "▁3,202.61": 316,
      "▁general": 317,
      "##ious": 318,
      "r": 319,
      "##clock": 320,
      "▁44,000": 321,
      "##og": 322,
      "▁hands": 323,
      "##act": 324,
      "▁1776": 325,
      "##:35": 326,
      "▁order": 327,
      "##.676": 328,
      "▁05/01/2001": 329,
      "▁known": 330,
      "▁game": 331,
      "##.95": 332,
      "▁********************************": 333,
      "▁break": 334,
      "##unic": 335,
      "##selves": 336,
      "▁416-865-370": 337,
      "▁pur": 338,
      "##±": 339,
      "▁toward": 340,
      "##:34": 341,
      "▁759933": 342,
      "##80": 343,
      "##,00": 344,
      "##|": 345,
      "##ected": 346,
      "▁shakespeare": 347,
      "##ke": 348,
      "##________________________________": 349,
      "▁about": 350,
      "▁’": 351,
      "##ved": 352,
      "▁until": 353,
      "##are": 354,
      "▁ground": 355,
      "▁inv": 356,
      "▁450": 357,
      "▁04:17": 358,
      "▁ir": 359,
      "▁aw": 360,
      "▁come": 361,
      ":": 362,
      "##ral": 363,
      "##ality": 364,
      "##ider": 365,
      "▁prot": 366,
      "##ge": 367,
      "##ases": 368,
      "▁amount": 369,
      "▁p": 370,
      "▁draw": 371,
      "▁5.6": 372,
      "▁pract": 373,
      "▁arri": 374,
      "▁party": 375,
      "▁w": 376,
      "▁throughout": 377,
      "▁08/15": 378,
      "▁poor": 379,
      "##ο": 380,
      "▁09": 381,
      "▁1774": 382,
      "##700": 383,
      "##琴": 384,
      "▁1594": 385,
      "##ite": 386,
      "▁veg": 387,
      "##:37": 388,
      "▁2.15": 389,
      "▁748": 390,
      "▁cond": 391,
      "##ains": 392,
      "##onto": 393,
      "▁!!!!": 394,
      "▁why": 395,
      "▁finally": 396,
      "##\"": 397,
      "##ł": 398,
      "##ult": 399,
      "▁phone": 400,
      "▁mine": 401,
      "##vil": 402,
      "▁special": 403,
      "##ad": 404,
      "▁---------------------------------": 405,
      "▁aust": 406,
      "##om": 407,
      "”": 408,
      "##form": 409,
      "▁di": 410,
      "##eak": 411,
      "##co": 412,
      "▁75": 413,
      "▁diego": 414,
      "▁atop": 415,
      "##????": 416,
      "##ather": 417,
      "##ual": 418,
      "▁1943": 419,
      "o": 420,
      "▁united": 421,
      "##ards": 422,
      "##:51": 423,
      "##004": 424,
      "▁04:37": 425,
      "▁unles": 426,
      "▁http://www": 427,
      "▁fore": 428,
      "##ium": 429,
      "##is": 430,
      "▁06/01/2001": 431,
      "▁outside": 432,
      "##ill": 433,
      "##ery": 434,
      "▁1800": 435,
      "▁11.5": 436,
      "▁2,500": 437,
      "▁govern": 438,
      "▁mm": 439,
      "▁br": 440,
      "▁become": 441,
      "▁their": 442,
      "▁202": 443,
      "$": 444,
      "▁post": 445,
      "##/17/99": 446,
      "##ι": 447,
      "##en": 448,
      "▁people": 449,
      "##393": 450,
      "▁1-8": 451,
      "##66": 452,
      "▁%": 453,
      "▁human": 454,
      "▁3": 455,
      "##up": 456,
      "▁.": 457,
      "##-415-": 458,
      "▁space": 459,
      "▁cl": 460,
      "##71": 461,
      "▁george": 462,
      "▁ii": 463,
      "▁called": 464,
      "▁dozen": 465,
      "▁chicken": 466,
      "▁1.1": 467,
      "▁sim": 468,
      "▁s’": 469,
      "▁spr": 470,
      "▁should": 471,
      "v": 472,
      "##000": 473,
      "▁ours": 474,
      "▁12,000": 475,
      "▁1300": 476,
      "▁worth": 477,
      "##ondon": 478,
      "▁prob": 479,
      "▁airline": 480,
      "▁anything": 481,
      "##…": 482,
      "##86": 483,
      "▁1220": 484,
      "▁100": 485,
      "▁1952": 486,
      "▁2012": 487,
      "▁3/8/00": 488,
      "ا": 489,
      "##ia": 490,
      "▁1820": 491,
      "▁does": 492,
      "▁84": 493,
      "▁wants": 494,
      "▁fare": 495,
      "▁..": 496,
      "▁202.456.2461": 497,
      "▁11/0": 498,
      "▁2.5": 499,
      "▁ride": 500,
      "▁av": 501,
      "##pp": 502,
      "▁o": 503,
      "##ern": 504,
      "▁face": 505,
      "▁tom": 506,
      "▁814014": 507,
      "▁ask": 508,
      "▁:-)": 509,
      "▁micro": 510,
      "##4-": 511,
      "##20-": 512,
      "##ong": 513,
      "##ablish": 514,
      "υ": 515,
      "▁job": 516,
      "##.99": 517,
      "▁it": 518,
      "###": 519,
      "##omen": 520,
      "##ank": 521,
      "▁becuse": 522,
      "##iter": 523,
      "▁whereas": 524,
      "##ic": 525,
      "▁going": 526,
      "##ven": 527,
      "##ough": 528,
      "##am": 529,
      "▁read": 530,
      "##got": 531,
      "▁orlando": 532,
      "▁cent": 533,
      "##eet": 534,
      "▁1230": 535,
      "▁wonder": 536,
      "▁11:00": 537,
      "[CLS]": 538,
      "##und": 539,
      "▁anyone": 540,
      "▁eating": 541,
      "▁ob": 542,
      "##2,000": 543,
      "##9933": 544,
      "▁quality": 545,
      "▁ab": 546,
      "▁mov": 547,
      "▁throu": 548,
      "##led": 549,
      "##ision": 550,
      "▁sl": 551,
      "▁48": 552,
      "##:5": 553,
      "▁kill": 554,
      "▁cit": 555,
      "▁sar": 556,
      "##iss": 557,
      "▁everybody": 558,
      "##par": 559,
      "##ze": 560,
      "##ane": 561,
      "▁1950": 562,
      "▁8:00": 563,
      "##os": 564,
      "##fer": 565,
      "▁70.85": 566,
      "▁88": 567,
      "##9/2001": 568,
      "▁arg": 569,
      "▁mark": 570,
      "▁restaurant": 571,
      "##ark": 572,
      "▁money": 573,
      "▁744": 574,
      "▁hun": 575,
      "▁jwww": 576,
      "##ti": 577,
      "▁1974": 578,
      "▁family": 579,
      "▁01:58": 580,
      "##iz": 581,
      "▁start": 582,
      "▁that": 583,
      "▁lat": 584,
      "##oth": 585,
      "▁received": 586,
      "▁80435": 587,
      "##...": 588,
      "##.2": 589,
      "▁during": 590,
      "▁among": 591,
      "▁1833": 592,
      "##清": 593,
      "▁delta": 594,
      "##:18": 595,
      "▁doct": 596,
      "▁country": 597,
      "##.831": 598,
      "▁0": 599,
      "##­": 600,
      "▁68": 601,
      "▁thirty-five": 602,
      "▁10:00": 603,
      "▁alth": 604,
      "▁conf": 605,
      "##--------": 606,
      "##.7822": 607,
      "▁stre": 608,
      "▁cons": 609,
      "▁milk": 610,
      "▁comp": 611,
      "##:3": 612,
      "##ance": 613,
      "▁1960": 614,
      "▁albe": 615,
      "##bit": 616,
      "▁n": 617,
      "##ah": 618,
      "▁250": 619,
      "▁cap": 620,
      "##00": 621,
      "##ress": 622,
      "▁april": 623,
      "▁1100": 624,
      "▁'ll": 625,
      "##ational": 626,
      "▁funny": 627,
      "▁dr": 628,
      "▁head": 629,
      "▁houston": 630,
      "##stop": 631,
      "▁call": 632,
      "##uma": 633,
      "▁imp": 634,
      "▁sure": 635,
      "▁lab": 636,
      "##ploy": 637,
      "##ures": 638,
      "##l": 639,
      "▁83": 640,
      "##tt": 641,
      "##ised": 642,
      "▁phoenix": 643,
      "▁2.7": 644,
      "▁using": 645,
      "▁4": 646,
      "##aps": 647,
      "▁beneath": 648,
      "##ld": 649,
      "##icult": 650,
      "##book": 651,
      "##man": 652,
      "##口": 653,
      "▁scient": 654,
      "##古": 655,
      "▁easy": 656,
      "▁fort": 657,
      "▁women": 658,
      "▁529999": 659,
      "##hing": 660,
      "▁respons": 661,
      "▁charlotte": 662,
      "▁01/26/2001": 663,
      "▁aff": 664,
      "##used": 665,
      "##:39": 666,
      "##ason": 667,
      "▁texas": 668,
      "▁425": 669,
      "▁une": 670,
      "▁'0": 671,
      "▁acc": 672,
      "▁room": 673,
      "##cil": 674,
      "²": 675,
      "##olog": 676,
      "▁212": 677,
      "##/99": 678,
      "▁1590": 679,
      "▁copy": 680,
      "▁against": 681,
      "▁19": 682,
      "##:27": 683,
      "▁03/28/2001": 684,
      "|": 685,
      "##31": 686,
      "▁11:0": 687,
      "▁76": 688,
      "▁96": 689,
      "▁cr": 690,
      "▁incl": 691,
      "▁americans": 692,
      "▁680": 693,
      "##9/2000": 694,
      "ς": 695,
      "▁adam": 696,
      "▁arrive": 697,
      "▁1976": 698,
      "▁05/17/99": 699,
      "د": 700,
      "##ear": 701,
      "##ep": 702,
      "▁contin": 703,
      "▁diff": 704,
      "▁picture": 705,
      "▁03/02/2001": 706,
      "▁door": 707,
      "▁5/18": 708,
      "▁bul": 709,
      "▁922": 710,
      "##ism": 711,
      "▁eighteen": 712,
      "▁baby": 713,
      "##il": 714,
      "##ook": 715,
      "##9": 716,
      "▁fo": 717,
      "▁750": 718,
      "▁use": 719,
      "##oman": 720,
      "▁03/15/2001": 721,
      "▁cleveland": 722,
      "##ney": 723,
      "##ave": 724,
      "▁teh": 725,
      "##amp": 726,
      "##.713.86": 727,
      "##ft": 728,
      "▁03:48": 729,
      "##eth": 730,
      "##443-3": 731,
      "▁surpr": 732,
      "▁animals": 733,
      "▁25": 734,
      "▁reason": 735,
      "##ased": 736,
      "▁rather": 737,
      "▁pub": 738,
      "▁airport": 739,
      "▁1500": 740,
      "▁beautiful": 741,
      "▁bird": 742,
      "▁sil": 743,
      "▁ty": 744,
      "▁52": 745,
      "▁around": 746,
      "▁food": 747,
      "▁enjoy": 748,
      "▁@": 749,
      "▁87": 750,
      "▁next": 751,
      "▁1,": 752,
      "▁09:45": 753,
      "▁nice": 754,
      "b": 755,
      "##`": 756,
      "▁1983": 757,
      "▁body": 758,
      "▁page": 759,
      "▁abo": 760,
      "▁rele": 761,
      "▁making": 762,
      "▁11/7": 763,
      "▁button": 764,
      "▁mu": 765,
      "▁1307": 766,
      "▁giv": 767,
      "▁society": 768,
      "▁employ": 769,
      "▁1/4": 770,
      "▁park": 771,
      "▁1115": 772,
      "▁but": 773,
      "▁differ": 774,
      "##ve": 775,
      "▁afternoon": 776,
      "▁3-5": 777,
      "▁others": 778,
      "##²": 779,
      "##ger": 780,
      "▁85": 781,
      "##8": 782,
      "##.0": 783,
      "▁+45": 784,
      "##eric": 785,
      "▁2050": 786,
      "##4014": 787,
      "##ace": 788,
      "▁1947": 789,
      "▁denver": 790,
      "▁away": 791,
      "##omm": 792,
      "##1-9": 793,
      "▁53": 794,
      "▁1914": 795,
      "▁54,000": 796,
      "▁&amp;": 797,
      "##:15": 798,
      "##]": 799,
      "##amm": 800,
      "##-)": 801,
      "▁37": 802,
      "##old": 803,
      "▁girl": 804,
      "▁jun": 805,
      "##.4": 806,
      "▁16.379": 807,
      "▁mess": 808,
      "##ru": 809,
      "##be": 810,
      "##ss": 811,
      "▁pret": 812,
      "▁milit": 813,
      "▁cop": 814,
      "##rou": 815,
      "##ros": 816,
      "▁works": 817,
      "##/15": 818,
      "▁attached": 819,
      "▁09:14": 820,
      "▁christ": 821,
      "▁typ": 822,
      "▁person": 823,
      "▁except": 824,
      "▁trying": 825,
      "##8-3": 826,
      "##itions": 827,
      "▁207": 828,
      "##em": 829,
      "##tw": 830,
      "▁manag": 831,
      "▁1689": 832,
      "##111": 833,
      "▁youn": 834,
      "##vern": 835,
      "▁and": 836,
      "▁410-468-3": 837,
      "##ole": 838,
      "▁80": 839,
      "▁1660": 840,
      "##ine": 841,
      "##:44": 842,
      "▁co": 843,
      "▁across": 844,
      "▁137": 845,
      "▁geor": 846,
      "▁phot": 847,
      "▁salt": 848,
      "##cum": 849,
      "##75": 850,
      "##rew": 851,
      "▁say": 852,
      "▁’ll": 853,
      "▁415": 854,
      "##et": 855,
      "▁1944": 856,
      "▁stud": 857,
      "▁uhh": 858,
      "▁med": 859,
      "σ": 860,
      "▁please": 861,
      "##so": 862,
      "▁899-": 863,
      "▁pl": 864,
      "▁weeks": 865,
      "▁11/29/2000": 866,
      "##.com": 867,
      "▁2.9": 868,
      "▁sle": 869,
      "▁down": 870,
      "▁birthday": 871,
      "▁twel": 872,
      "³": 873,
      "▁315": 874,
      "▁832": 875,
      "##ica": 876,
      "▁sorry": 877,
      "▁pet": 878,
      "▁problems": 879,
      "##º": 880,
      "▁die": 881,
      "▁260": 882,
      "▁whe": 883,
      "▁men": 884,
      "▁days": 885,
      "▁yellow": 886,
      "▁father": 887,
      "##air": 888,
      "##clud": 889,
      "▁night": 890,
      "▁thir": 891,
      "▁8:30": 892,
      "▁1988": 893,
      "▁looks": 894,
      "▁thursday": 895,
      "▁1593": 896,
      "夏": 897,
      "▁814.86": 898,
      "##ator": 899,
      "##red": 900,
      "▁hundred": 901,
      "##ized": 902,
      "##rans": 903,
      "▁son": 904,
      "##ject": 905,
      "▁numerous": 906,
      "##e": 907,
      "▁fish": 908,
      "##ok": 909,
      "▁guys": 910,
      "▁33": 911,
      "▁hope": 912,
      "##7/2001": 913,
      "##ing": 914,
      "▁pal": 915,
      "▁profess": 916,
      "▁project": 917,
      "▁ninety-nine": 918,
      "##17": 919,
      "##ami": 920,
      "▁1:00": 921,
      "▁bac": 922,
      "▁incre": 923,
      "##ection": 924,
      "▁hotel": 925,
      "##ʊ": 926,
      "▁think": 927,
      "##aining": 928,
      "▁ey": 929,
      "##idd": 930,
      "##xce": 931,
      "##ε": 932,
      "##z": 933,
      "▁mommy": 934,
      "▁hur": 935,
      "##21": 936,
      "▁here": 937,
      "##outh": 938,
      "▁tralee": 939,
      "▁3/4": 940,
      "##du": 941,
      "▁friends": 942,
      "▁any": 943,
      "##ister": 944,
      "##fe": 945,
      "▁bus": 946,
      "##oup": 947,
      "##ught": 948,
      "##ap": 949,
      "▁boston": 950,
      "▁pick": 951,
      "▁wrong": 952,
      "▁ll": 953,
      "▁a": 954,
      "▁needs": 955,
      "▁minutes": 956,
      "▁wish": 957,
      "##ape": 958,
      "[SEP]": 959,
      "▁4.0": 960,
      "##alk": 961,
      "▁sm": 962,
      "▁transportation": 963,
      "▁wi": 964,
      "##ict": 965,
      "##....": 966,
      "##414": 967,
      "▁were": 968,
      "▁713-6": 969,
      "##tc": 970,
      "##four": 971,
      "▁leaving": 972,
      "##55": 973,
      "##,950": 974,
      "▁5,000": 975,
      "▁aft": 976,
      "▁932": 977,
      "*": 978,
      "▁despite": 979,
      "▁due": 980,
      "##oh": 981,
      "▁+": 982,
      "##j": 983,
      "##ally": 984,
      "##/0": 985,
      "##ive": 986,
      "▁>>": 987,
      "▁1877": 988,
      "▁usually": 989,
      "##ston": 990,
      "▁near": 991,
      "▁’s": 992,
      "▁trad": 993,
      "▁f": 994,
      "▁paul": 995,
      "##800": 996,
      "▁las": 997,
      "##67": 998,
      "▁1575": 999,
      "##α": 1000,
      "##ogn": 1001,
      "▁bal": 1002,
      "▁prof": 1003,
      "▁11": 1004,
      "##________________": 1005,
      "##gr": 1006,
      "▁72": 1007,
      "▁mr": 1008,
      "##ission": 1009,
      "▁occ": 1010,
      "##435-": 1011,
      "▁‘’": 1012,
      "▁taken": 1013,
      "##ks": 1014,
      "▁2.975": 1015,
      "▁24": 1016,
      "##ouble": 1017,
      "▁own": 1018,
      "▁wa": 1019,
      "##ert": 1020,
      "##____": 1021,
      "▁earliest": 1022,
      "▁excellent": 1023,
      "▁nobody": 1024,
      "##ution": 1025,
      "▁150": 1026,
      "▁du": 1027,
      "▁inside": 1028,
      "▁69": 1029,
      "##:38": 1030,
      "##ained": 1031,
      "▁fr": 1032,
      "##ch": 1033,
      "▁ann": 1034,
      "▁1997": 1035,
      "##4/2001": 1036,
      "▁1892": 1037,
      "▁supp": 1038,
      "▁11:16": 1039,
      "##edie": 1040,
      "##te": 1041,
      "##sl": 1042,
      "##:19": 1043,
      "▁many": 1044,
      "##ones": 1045,
      "▁311": 1046,
      "▁bel": 1047,
      "▁yes": 1048,
      "##ush": 1049,
      "##-343": 1050,
      "ν": 1051,
      "ə": 1052,
      "▁94": 1053,
      "▁listen": 1054,
      "▁coming": 1055,
      "▁345-343": 1056,
      "▁he": 1057,
      "▁link": 1058,
      "▁gl": 1059,
      "▁else": 1060,
      "▁12:1": 1061,
      "##at": 1062,
      "▁1611": 1063,
      "▁hair": 1064,
      "##!!": 1065,
      "▁toronto": 1066,
      "▁xii": 1067,
      "▁1:30": 1068,
      "##ared": 1069,
      "▁history": 1070,
      "▁—": 1071,
      "##76": 1072,
      "▁158": 1073,
      "▁01/19/2001": 1074,
      "##25": 1075,
      "▁2,000": 1076,
      "##ort": 1077,
      "▁22": 1078,
      "##3": 1079,
      "▁future": 1080,
      "▁noon": 1081,
      "▁major": 1082,
      "##26": 1083,
      "▁ach": 1084,
      ".": 1085,
      "##rod": 1086,
      "▁which": 1087,
      "▁416-8": 1088,
      "##hip": 1089,
      "##89": 1090,
      "▁24.7": 1091,
      "##819602175": 1092,
      "▁political": 1093,
      "##as": 1094,
      "##61": 1095,
      "▁represent": 1096,
      "▁03:00": 1097,
      "▁tur": 1098,
      "▁49": 1099,
      "##/26": 1100,
      "##ous": 1101,
      "▁415.782": 1102,
      "▁um": 1103,
      "▁18": 1104,
      "##igh": 1105,
      "z": 1106,
      "▁oneself": 1107,
      "##,500": 1108,
      "▁687": 1109,
      "▁1584": 1110,
      "▁bu": 1111,
      "▁dest": 1112,
      "▁gr": 1113,
      "##子": 1114,
      "▁54": 1115,
      "▁following": 1116,
      "▁_": 1117,
      "▁sand": 1118,
      "▁told": 1119,
      "▁seen": 1120,
      "▁6": 1121,
      "##ond": 1122,
      "▁seem": 1123,
      "▁ma": 1124,
      "}": 1125,
      "▁xsl": 1126,
      "▁concern": 1127,
      "▁everyone": 1128,
      "▁20,000": 1129,
      "##ommend": 1130,
      "##{": 1131,
      "▁peop": 1132,
      "▁oh": 1133,
      "▁always": 1134,
      "▁getting": 1135,
      "▁nt": 1136,
      "▁fifty": 1137,
      "▁713-853-3989": 1138,
      "▁not": 1139,
      "▁sen": 1140,
      "##ical": 1141,
      "▁enron": 1142,
      "▁im": 1143,
      "▁376": 1144,
      "▁everything": 1145,
      "▁thru": 1146,
      "##♥": 1147,
      "▁6,000": 1148,
      "▁tick": 1149,
      "##side": 1150,
      "▁floor": 1151,
      "▁write": 1152,
      "▁upon": 1153,
      "##/2000": 1154,
      "▁800.713.8600": 1155,
      "▁shall": 1156,
      "▁comes": 1157,
      "##o": 1158,
      "▁713-646-3393": 1159,
      "空": 1160,
      "▁ah": 1161,
      "▁01/12/2001": 1162,
      "▁board": 1163,
      "▁tim": 1164,
      "▁cha": 1165,
      "##m": 1166,
      "▁sch": 1167,
      "##alth": 1168,
      "##orn": 1169,
      "##cent": 1170,
      "ρ": 1171,
      "##olution": 1172,
      "▁1840": 1173,
      "▁cause": 1174,
      "##med": 1175,
      "##ific": 1176,
      "▁thous": 1177,
      "▁may": 1178,
      "▁!!!!!!!": 1179,
      "▁h": 1180,
      "▁poss": 1181,
      "##al": 1182,
      "##1-90": 1183,
      "▁teach": 1184,
      "▁service": 1185,
      "▁505": 1186,
      "##ide": 1187,
      "▁416-865-3": 1188,
      "▁six": 1189,
      "▁th": 1190,
      "▁talk": 1191,
      "▁pop": 1192,
      "##98": 1193,
      "▁03/21/2001": 1194,
      "▁myself": 1195,
      "▁1604": 1196,
      "▁our": 1197,
      "▁220": 1198,
      "▁hors": 1199,
      "##ural": 1200,
      "▁hor": 1201,
      "▁po": 1202,
      "▁177": 1203,
      "½": 1204,
      "##aff": 1205,
      "▁se": 1206,
      "▁8.3": 1207,
      "▁particip": 1208,
      "▁vs.": 1209,
      "▁way": 1210,
      "##0-3": 1211,
      "▁dey": 1212,
      "##ن": 1213,
      "▁prov": 1214,
      "##12": 1215,
      "▁than": 1216,
      "##,5": 1217,
      "▁225": 1218,
      "##iqu": 1219,
      "##ove": 1220,
      "##erv": 1221,
      "▁pull": 1222,
      "##like": 1223,
      "▁serv": 1224,
      "##inner": 1225,
      "▁louis": 1226,
      "##}": 1227,
      "▁been": 1228,
      "##-8031": 1229,
      "##ore": 1230,
      "▁highly": 1231,
      "▁1957": 1232,
      "▁269": 1233,
      "▁property": 1234,
      "▁gon": 1235,
      "▁expl": 1236,
      "▁years": 1237,
      "##-3393": 1238,
      "##ange": 1239,
      "##ination": 1240,
      "##ether": 1241,
      "3": 1242,
      "##.16": 1243,
      "##iday": 1244,
      "▁accept": 1245,
      "▁thirty": 1246,
      "##gle": 1247,
      "##us": 1248,
      "▁1871": 1249,
      "##oug": 1250,
      "▁end": 1251,
      "##w": 1252,
      "##port": 1253,
      "▁today": 1254,
      "▁move": 1255,
      "##‘": 1256,
      "##/30": 1257,
      "##819": 1258,
      "▁1981": 1259,
      "▁4,": 1260,
      "▁cred": 1261,
      "##’t": 1262,
      "▁169": 1263,
      "##ar": 1264,
      "##le": 1265,
      "##.61": 1266,
      "▁1835": 1267,
      "▁tra": 1268,
      "##ure": 1269,
      "▁commun": 1270,
      "##sc": 1271,
      "▁paren": 1272,
      "▁b/": 1273,
      "▁cloth": 1274,
      "▁num": 1275,
      "▁des": 1276,
      "##9.3": 1277,
      "##apolis": 1278,
      "▁pm": 1279,
      "##amed": 1280,
      "▁107": 1281,
      ",": 1282,
      "##44": 1283,
      "##<": 1284,
      "##_de": 1285,
      "▁course": 1286,
      "##akes": 1287,
      "▁stuff": 1288,
      "▁con": 1289,
      "▁....": 1290,
      "##20": 1291,
      "`": 1292,
      "▁official": 1293,
      "▁1982": 1294,
      "##ount": 1295,
      "▁deal": 1296,
      "##ians": 1297,
      "▁alread": 1298,
      "▁rece": 1299,
      "▁sing": 1300,
      "▁483": 1301,
      "▁1949": 1302,
      "▁ens": 1303,
      "##ump": 1304,
      "▁1291": 1305,
      "##sid": 1306,
      "##ins": 1307,
      "▁11/7/08": 1308,
      "▁age": 1309,
      "▁often": 1310,
      "▁started": 1311,
      "##2/2001": 1312,
      "▁thy": 1313,
      "▁exist": 1314,
      "▁pi": 1315,
      "▁hat": 1316,
      "##lus": 1317,
      "##”": 1318,
      "▁cre": 1319,
      "▁09/15": 1320,
      "##ever": 1321,
      "##ced": 1322,
      "##:30": 1323,
      "▁whoever": 1324,
      "##ock": 1325,
      "▁rel": 1326,
      "▁side": 1327,
      "▁another": 1328,
      "##22,000": 1329,
      "▁1.": 1330,
      "▁lead": 1331,
      "▁health": 1332,
      "##com": 1333,
      "##wn": 1334,
      "▁10:46": 1335,
      "##iddle": 1336,
      "▁7": 1337,
      "##2-6": 1338,
      "##ي": 1339,
      "▁240": 1340,
      "/": 1341,
      "▁09/16": 1342,
      "##sh": 1343,
      "▁leg": 1344,
      "##0/2000": 1345,
      "▁proc": 1346,
      "##urday": 1347,
      "##128": 1348,
      "=": 1349,
      "▁did": 1350,
      "▁1819": 1351,
      "▁la": 1352,
      "▁though": 1353,
      "▁above": 1354,
      "▁345": 1355,
      "▁6.8": 1356,
      "##ed": 1357,
      "▁sec": 1358,
      "##:01": 1359,
      "▁el": 1360,
      "##thstanding": 1361,
      "##------": 1362,
      "▁attention": 1363,
      "▁albeit": 1364,
      "▁already": 1365,
      "##all": 1366,
      "▁creat": 1367,
      "▁727": 1368,
      "▁account": 1369,
      "▁324": 1370,
      "▁gu": 1371,
      "津": 1372,
      "▁gets": 1373,
      "▁2.0": 1374,
      "▁chang": 1375,
      "清": 1376,
      "▁fund": 1377,
      "##xt": 1378,
      "▁15": 1379,
      "▁mo": 1380,
      "▁west": 1381,
      "##ming": 1382,
      "##otte": 1383,
      "##ist": 1384,
      "##ecess": 1385,
      "##ined": 1386,
      "##iful": 1387,
      "▁”": 1388,
      "##angu": 1389,
      "▁sun": 1390,
      "▁1890": 1391,
      "##.1234": 1392,
      "▁k": 1393,
      "▁fre": 1394,
      "▁late": 1395,
      "▁exp": 1396,
      "▁eight": 1397,
      "▁treat": 1398,
      "▁3724": 1399,
      "▁2010": 1400,
      "▁doo": 1401,
      "##ub": 1402,
      "##els": 1403,
      "ʊ": 1404,
      "▁doll": 1405,
      "▁entire": 1406,
      "##ower": 1407,
      "##ipp": 1408,
      "▁0000108806": 1409,
      "▁comm": 1410,
      "▁3:30": 1411,
      "▁un": 1412,
      "##hin": 1413,
      "##ack": 1414,
      "▁ball": 1415,
      "##cle": 1416,
      "##ys": 1417,
      "▁says": 1418,
      "▁truck": 1419,
      "##onom": 1420,
      "▁ser": 1421,
      "▁child": 1422,
      "▁taking": 1423,
      "##att": 1424,
      "▁12": 1425,
      "▁2019": 1426,
      "▁stay": 1427,
      "▁1/8": 1428,
      "▁1596": 1429,
      "φ": 1430,
      "##874": 1431,
      "▁281": 1432,
      "▁stand": 1433,
      "▁thirteen": 1434,
      "##haps": 1435,
      "##ows": 1436,
      "##:0": 1437,
      "▁900": 1438,
      "##!": 1439,
      "▁large": 1440,
      "##dd": 1441,
      "▁sk": 1442,
      "▁english": 1443,
      "▁dress": 1444,
      "▁birth": 1445,
      "▁125": 1446,
      "u": 1447,
      "▁7484": 1448,
      "▁web": 1449,
      "▁seattle": 1450,
      "▁1783": 1451,
      "##av": 1452,
      "##ang": 1453,
      "▁3.8": 1454,
      "▁she": 1455,
      "▁econom": 1456,
      "▁1599": 1457,
      "▁looked": 1458,
      "▁car": 1459,
      "##¢": 1460,
      "▁dwww": 1461,
      "▁opp": 1462,
      "▁seventeen": 1463,
      "##-59": 1464,
      "▁look": 1465,
      "##ances": 1466,
      "▁202.456.1414": 1467,
      "▁run": 1468,
      "▁orig": 1469,
      "▁restaur": 1470,
      "##ue": 1471,
      "▁although": 1472,
      "##ound": 1473,
      "##cuz": 1474,
      "▁this": 1475,
      "▁1647": 1476,
      "▁2021": 1477,
      "▁friday": 1478,
      "▁.3": 1479,
      "▁de": 1480,
      "▁425-415-": 1481,
      "▁1830": 1482,
      "▁places": 1483,
      "▁available": 1484,
      "▁two": 1485,
      "▁1.00": 1486,
      "##ʃ": 1487,
      "▁ent": 1488,
      "▁hi": 1489,
      "▁bott": 1490,
      "▁notwithstanding": 1491,
      "▁1878": 1492,
      "##ind": 1493,
      "▁really": 1494,
      "▁colle": 1495,
      "▁lim": 1496,
      "▁500": 1497,
      "##.00": 1498,
      "##ley": 1499,
      "▁count": 1500,
      "##;": 1501,
      "▁05/30/2001": 1502,
      "▁pric": 1503,
      "▁832.676": 1504,
      "▁dep": 1505,
      "##43": 1506,
      "▁3:00": 1507,
      "▁unt": 1508,
      "▁1610": 1509,
      "▁email": 1510,
      "▁conv": 1511,
      "▁pho": 1512,
      "##room": 1513,
      "▁11:35": 1514,
      "▁twenty-two": 1515,
      "ح": 1516,
      "▁same": 1517,
      "▁seventy": 1518,
      "##ould": 1519,
      "##fi": 1520,
      "▁aug": 1521,
      "##gan": 1522,
      "t": 1523,
      "▁neither": 1524,
      "▁uh": 1525,
      "▁08/16/2000": 1526,
      "##:28": 1527,
      "##aper": 1528,
      "##ached": 1529,
      "▁03/27/2001": 1530,
      "▁183": 1531,
      "##ˈ": 1532,
      "▁level": 1533,
      "▁wan": 1534,
      "▁5:00": 1535,
      "▁few": 1536,
      "▁ke": 1537,
      "▁real": 1538,
      "葉": 1539,
      "##bur": 1540,
      "▁again": 1541,
      "##5-": 1542,
      "▁want": 1543,
      "##eight": 1544,
      "▁00": 1545,
      "##ice": 1546,
      "“": 1547,
      "▁1990": 1548,
      "##gg": 1549,
      "▁strong": 1550,
      "▁02/13/2001": 1551,
      "▁hou": 1552,
      "▁war": 1553,
      "▁understand": 1554,
      "▁questions": 1555,
      "▁41": 1556,
      "##five": 1557,
      "▁let": 1558,
      "##ow": 1559,
      "▁rock": 1560,
      "##100": 1561,
      "▁ur": 1562,
      "▁181": 1563,
      "▁4:50": 1564,
      "▁1805": 1565,
      "##.916.718": 1566,
      "&": 1567,
      "▁effect": 1568,
      "##18": 1569,
      "▁1902": 1570,
      "##ade": 1571,
      "##88": 1572,
      "▁secur": 1573,
      "▁line": 1574,
      "##ons": 1575,
      "▁sub": 1576,
      "##elt": 1577,
      "▁security": 1578,
      "▁713-8": 1579,
      "▁1.4": 1580,
      "▁646": 1581,
      "##iation": 1582,
      "▁int": 1583,
      "▁detail": 1584,
      "▁town": 1585,
      "▁pit": 1586,
      "▁system": 1587,
      "▁129": 1588,
      "▁mon": 1589,
      "▁pen": 1590,
      "##880": 1591,
      "▁hour": 1592,
      "▁1969": 1593,
      "▁low": 1594,
      "##ek": 1595,
      "##oot": 1596,
      "▁even": 1597,
      "▁51": 1598,
      "▁ninety": 1599,
      "▁1564": 1600,
      "▁fri": 1601,
      "##*": 1602,
      "##34": 1603,
      "▁you": 1604,
      "▁expensive": 1605,
      "▁01:39": 1606,
      "▁inform": 1607,
      "##ness": 1608,
      "##§": 1609,
      "▁st.": 1610,
      "▁2": 1611,
      "▁#": 1612,
      "##>": 1613,
      "▁hold": 1614,
      "▁=": 1615,
      "##opment": 1616,
      "▁clim": 1617,
      "##aren": 1618,
      "##389": 1619,
      "▁key": 1620,
      "▁79": 1621,
      "▁playing": 1622,
      "##iously": 1623,
      "p": 1624,
      "▁okay": 1625,
      "▁dri": 1626,
      "##ior": 1627,
      "▁after": 1628,
      "##$": 1629,
      "▁anim": 1630,
      "▁cir": 1631,
      "▁230": 1632,
      "▁third": 1633,
      "▁world": 1634,
      "▁1977": 1635,
      "▁te": 1636,
      "##³": 1637,
      "▁life": 1638,
      "▁217": 1639,
      "▁je": 1640,
      "##92": 1641,
      "##arch": 1642,
      "▁================================": 1643,
      "##ish": 1644,
      "▁of": 1645,
      "▁succ": 1646,
      "##ple": 1647,
      "▁god": 1648,
      "▁star": 1649,
      "##veland": 1650,
      "##58": 1651,
      "▁bush": 1652,
      "▁product": 1653,
      "▁11/2": 1654,
      "##atic": 1655,
      "▁1968": 1656,
      "##ect": 1657,
      "▁lost": 1658,
      "▁chick": 1659,
      "▁eu": 1660,
      "口": 1661,
      "▁yo": 1662,
      "▁apr": 1663,
      "##airs": 1664,
      "##ising": 1665,
      "▁mind": 1666,
      "▁high": 1667,
      "▁1973": 1668,
      "▁6.00": 1669,
      "▁prop": 1670,
      "▁mid": 1671,
      "▁big": 1672,
      "##ence": 1673,
      "▁mem": 1674,
      "▁comple": 1675,
      "▁plus": 1676,
      "▁common": 1677,
      "▁281-": 1678,
      "▁650": 1679,
      "##oney": 1680,
      "▁prev": 1681,
      "▁expect": 1682,
      "##☎": 1683,
      "▁found": 1684,
      "▁million": 1685,
      "▁build": 1686,
      "▁themselves": 1687,
      "▁1989": 1688,
      "▁1975": 1689,
      "▁718": 1690,
      "▁02/2": 1691,
      "▁|": 1692,
      "▁group": 1693,
      "▁onto": 1694,
      "▁*": 1695,
      "▁atlanta": 1696,
      "▁ago": 1697,
      "▁att": 1698,
      "▁1222": 1699,
      "▁sha": 1700,
      "##ants": 1701,
      "▁7.3": 1702,
      "▁clean": 1703,
      "▁ninety-n": 1704,
      "▁accord": 1705,
      "##bo": 1706,
      "▁???": 1707,
      "▁sent": 1708,
      "▁05": 1709,
      "ł": 1710,
      "##ried": 1711,
      "##ling": 1712,
      "##rol": 1713,
      "▁water": 1714,
      "##ime": 1715,
      "##·": 1716,
      "▁·": 1717,
      "##er": 1718,
      "##ho": 1719,
      "##gh": 1720,
      "▁39": 1721,
      "▁567.77": 1722,
      "▁vide": 1723,
      "##:00": 1724,
      "▁8": 1725,
      "▁energ": 1726,
      "##ster": 1727,
      "子": 1728,
      "##ories": 1729,
      "##.75": 1730,
      "▁view": 1731,
      "▁within": 1732,
      "▁univers": 1733,
      "▁fi": 1734,
      "##ds": 1735,
      "▁713-853-1696": 1736,
      "##/11": 1737,
      "##enron": 1738,
      "▁ought": 1739,
      "##ides": 1740,
      "▁remember": 1741,
      "##yond": 1742,
      "##fast": 1743,
      "▁amid": 1744,
      "▁201": 1745,
      "▁unto": 1746,
      "q": 1747,
      "##ink": 1748,
      "##br": 1749,
      "▁sugg": 1750,
      "▁163": 1751,
      "▁forty-one": 1752,
      "▁company": 1753,
      "▁def": 1754,
      "▁1986": 1755,
      "##ency": 1756,
      "▁ste": 1757,
      "▁466": 1758,
      "▁year": 1759,
      "▁dur": 1760,
      "▁09/15/99": 1761,
      "##iting": 1762,
      "▁development": 1763,
      "▁dose": 1764,
      "▁1978": 1765,
      "▁mer": 1766,
      "##reat": 1767,
      "▁del": 1768,
      "▁2500": 1769,
      "▁forty-": 1770,
      "##://": 1771,
      "##/26/2000": 1772,
      "##41": 1773,
      "##1696": 1774,
      "▁sad": 1775,
      "##27": 1776,
      "▁asked": 1777,
      "##3098": 1778,
      "d": 1779,
      "▁410": 1780,
      "▁my": 1781,
      "▁d": 1782,
      "▁sever": 1783,
      "##ences": 1784,
      "▁indust": 1785,
      "▁beach": 1786,
      "##82": 1787,
      "▁tri": 1788,
      "##ivers": 1789,
      "▁800-553-3119": 1790,
      "▁mus": 1791,
      "▁good": 1792,
      "▁loc": 1793,
      "▁counter": 1794,
      "▁3,000": 1795,
      "##day": 1796,
      "▁news": 1797,
      "▁-----------------------------------------------------------------": 1798,
      "▁15,000": 1799,
      "##th": 1800,
      "ο": 1801,
      "##ars": 1802,
      "▁com": 1803,
      "##iction": 1804,
      "▁color": 1805,
      "▁t": 1806,
      "##vel": 1807,
      "##most": 1808,
      "▁south": 1809,
      "2": 1810,
      "▁11:07": 1811,
      "##36": 1812,
      "▁til": 1813,
      "##six": 1814,
      "##ner": 1815,
      "▁gone": 1816,
      "▁countries": 1817,
      "▁your": 1818,
      "▁2020": 1819,
      "##د": 1820,
      "▁perhaps": 1821,
      "▁sty": 1822,
      "##ken": 1823,
      "▁continental": 1824,
      "##1": 1825,
      "▁345-99": 1826,
      "▁whose": 1827,
      "▁89": 1828,
      "▁320": 1829,
      "##_0": 1830,
      "▁50,000": 1831,
      "▁1000": 1832,
      "▁det": 1833,
      "##ɔ": 1834,
      "##78": 1835,
      "▁111": 1836,
      "##4/2000": 1837,
      "##&": 1838,
      "##oose": 1839,
      "▁08/03": 1840,
      "{": 1841,
      "ε": 1842,
      "##4-79": 1843,
      "▁early": 1844,
      "##anding": 1845,
      "▁gener": 1846,
      "▁102": 1847,
      "▁laura": 1848,
      "##row": 1849,
      "##3-3": 1850,
      "##_": 1851,
      "##53-3": 1852,
      "▁glass": 1853,
      "▁change": 1854,
      "##.6": 1855,
      "##if": 1856,
      "▁97": 1857,
      "##œ": 1858,
      "##ʁ": 1859,
      "##out": 1860,
      "▁5000": 1861,
      "▁amidst": 1862,
      "▁downtown": 1863,
      "##φ": 1864,
      "▁tr": 1865,
      "##ra": 1866,
      "▁’’": 1867,
      "▁ext": 1868,
      "▁wind": 1869,
      "▁197": 1870,
      "▁’m": 1871,
      "▁92": 1872,
      "▁10,000": 1873,
      "▁ready": 1874,
      "0": 1875,
      "▁1592": 1876,
      "°": 1877,
      "▁got": 1878,
      "▁11:30": 1879,
      "▁08/0": 1880,
      "▁http://www.": 1881,
      "##σ": 1882,
      "▁3889": 1883,
      "▁who's": 1884,
      "▁jan": 1885,
      "▁1583": 1886,
      "##-468-3": 1887,
      "▁'71": 1888,
      "##.77": 1889,
      "▁ev": 1890,
      "##een": 1891,
      "▁we": 1892,
      "’": 1893,
      "▁1700": 1894,
      "▁en": 1895,
      "▁eng": 1896,
      "▁196": 1897,
      "##☏": 1898,
      "▁sort": 1899,
      "▁07/17/2000": 1900,
      "▁art": 1901,
      "▁91": 1902,
      "##\\": 1903,
      "▁1699": 1904,
      "##****": 1905,
      "▁conc": 1906,
      "##thst": 1907,
      "▁sat": 1908,
      "##der": 1909,
      "##ens": 1910,
      "##,6": 1911,
      "▁airl": 1912,
      "▁chicago": 1913,
      "##ta": 1914,
      "▁7.2": 1915,
      "▁pro": 1916,
      "##ury": 1917,
      "▁prom": 1918,
      "▁202.456.1": 1919,
      "##rect": 1920,
      "##ration": 1921,
      "▁ou": 1922,
      "▁request": 1923,
      "▁ind": 1924,
      "▁713-654-1281": 1925,
      "##li": 1926,
      "▁fa": 1927,
      "##ially": 1928,
      "▁nwww": 1929,
      "▁difficult": 1930,
      "▁air": 1931,
      "##-780": 1932,
      "##ree": 1933,
      "##ʒ": 1934,
      "▁no-6": 1935,
      "▁es": 1936,
      "##asing": 1937,
      "▁58": 1938,
      "k": 1939,
      "▁came": 1940,
      "▁’d": 1941,
      "▁1926": 1942,
      "▁woman": 1943,
      "▁event": 1944,
      "▁roman": 1945,
      "##iet": 1946,
      "##ce": 1947,
      "▁713-654-": 1948,
      "##@enron_development": 1949,
      "▁tem": 1950,
      "▁middle": 1951,
      "##el": 1952,
      "▁1910": 1953,
      "##ug": 1954,
      "▁281-518": 1955,
      "##1-": 1956,
      "▁ok": 1957,
      "▁trale": 1958,
      "##sel": 1959,
      "##[": 1960,
      "##ensive": 1961,
      "##mm": 1962,
      "▁295870": 1963,
      "##,000": 1964,
      "▁`": 1965,
      "5": 1966,
      "▁miss": 1967,
      "▁past": 1968,
      "▁social": 1969,
      "▁35": 1970,
      "##ma": 1971,
      "▁pres": 1972,
      "▁1145": 1973,
      "##ning": 1974,
      "▁flo": 1975,
      "▁30": 1976,
      "▁three": 1977,
      "▁full": 1978,
      "##ended": 1979,
      "▁important": 1980,
      "▁cle": 1981,
      "▁hey": 1982,
      "▁ang": 1983,
      "##-20": 1984,
      "▁nat": 1985,
      "▁13011": 1986,
      "##iness": 1987,
      "▁spec": 1988,
      "▁staff": 1989,
      "▁42": 1990,
      "▁happened": 1991,
      "##ities": 1992,
      "▁access": 1993,
      "▁16.3": 1994,
      "##ard": 1995,
      "▁together": 1996,
      "▁01:09": 1997,
      "##远": 1998,
      "##721": 1999,
      "▁refer": 2000,
      "▁whatever": 2001,
      "##51": 2002,
      "##65": 2003,
      "##aim": 2004,
      "##ater": 2005,
      "▁1,6": 2006,
      "▁because": 2007,
      "▁go": 2008,
      "▁_________________________________": 2009,
      "▁'m": 2010,
      "▁doing": 2011,
      "▁lik": 2012,
      "▁takes": 2013,
      "##16.718": 2014,
      "##by": 2015,
      "▁!?": 2016,
      "▁list": 2017,
      "▁author": 2018,
      "▁place": 2019,
      "##339": 2020,
      "▁sunday": 2021,
      "l": 2022,
      "▁03/0": 2023,
      "##7/2000": 2024,
      "▁win": 2025,
      "▁07": 2026,
      "▁front": 2027,
      "##aster": 2028,
      "▁4.9": 2029,
      "##iding": 2030,
      "##50": 2031,
      "##ea": 2032,
      "▁billion": 2033,
      "▁77": 2034,
      "▁india": 2035,
      "▁02/27/2001": 2036,
      "远": 2037,
      "▁ident": 2038,
      "##ives": 2039,
      "##45": 2040,
      "##ortun": 2041,
      "##49": 2042,
      "▁based": 2043,
      "一": 2044,
      "##bers": 2045,
      "▁04:28": 2046,
      "▁412": 2047,
      "▁find": 2048,
      "##ted": 2049,
      "▁dec": 2050,
      "▁1937": 2051,
      "▁202.456.1111": 2052,
      "##ate": 2053,
      "##30": 2054,
      "▁bit": 2055,
      "##9999": 2056,
      "▁bet": 2057,
      "▁miami": 2058,
      "##re": 2059,
      "##-46": 2060,
      "▁281-435-": 2061,
      "##:42": 2062,
      "▁sour": 2063,
      "▁wh": 2064,
      "▁08/16": 2065,
      "##zen": 2066,
      "▁fil": 2067,
      "##olis": 2068,
      "▁1970": 2069,
      "▁doggie": 2070,
      "##ß": 2071,
      "##74": 2072,
      "▁852": 2073,
      "▁ref": 2074,
      "▁can": 2075,
      "▁415.621": 2076,
      "▁yet": 2077,
      "##ular": 2078,
      "▁tried": 2079,
      "▁8043": 2080,
      "▁&": 2081,
      "▁piec": 2082,
      "##itive": 2083,
      "##/10/2004": 2084,
      "##ents": 2085,
      "##/03": 2086,
      "##ny": 2087,
      "##ese": 2088,
      "▁iii": 2089,
      "▁put": 2090,
      "##adelp": 2091,
      "▁market": 2092,
      "##iv": 2093,
      "▁1613": 2094,
      "▁2002": 2095,
      "##587": 2096,
      "▁1896": 2097,
      "##lic": 2098,
      "##ident": 2099,
      "▁comput": 2100,
      "##--": 2101,
      "▁cat": 2102,
      "▁different": 2103,
      "▁11:45": 2104,
      "▁143": 2105,
      "##its": 2106,
      "##cond": 2107,
      "▁alone": 2108,
      "▁ca": 2109,
      "▁instead": 2110,
      "▁130": 2111,
      "▁1,000": 2112,
      "##-642": 2113,
      "▁pe": 2114,
      "▁opposite": 2115,
      "▁2.": 2116,
      "山": 2117,
      "▁345-9945": 2118,
      "##aq": 2119,
      "##ustom": 2120,
      "##!!!!!!!!": 2121,
      "▁2022": 2122,
      "##.70": 2123,
      "▁350": 2124,
      "▁0.00": 2125,
      "▁1846": 2126,
      "▁took": 2127,
      "▁rev": 2128,
      "▁26": 2129,
      "▁2.3": 2130,
      "▁test": 2131,
      "##ats": 2132,
      "##ame": 2133,
      "##elf": 2134,
      "▁under": 2135,
      "§": 2136,
      "▁...": 2137,
      "##.85": 2138,
      "▁fill": 2139,
      "##oo": 2140,
      "▁55": 2141,
      "##ot": 2142,
      "▁70": 2143,
      "▁rob": 2144,
      "▁without": 2145,
      "α": 2146,
      "▁270": 2147,
      "▁bi": 2148,
      "▁along": 2149,
      "##noon": 2150,
      "▁tax": 2151,
      "▁address": 2152,
      "▁done": 2153,
      "##ans": 2154,
      "##ial": 2155,
      "##dy": 2156,
      "▁12:30": 2157,
      "##vers": 2158,
      "##min": 2159,
      "##23": 2160,
      "▁800-5": 2161,
      "▁01/1": 2162,
      "▁question": 2163,
      "▁281-435-0295": 2164,
      "%": 2165,
      "▁hea": 2166,
      "▁newark": 2167,
      "▁01": 2168,
      "##ters": 2169,
      "##where": 2170,
      "▁li": 2171,
      "##47": 2172,
      "▁n'": 2173,
      "##per": 2174,
      "##/31": 2175,
      "▁report": 2176,
      "▁1200": 2177,
      "##-3": 2178,
      "▁01:0": 2179,
      "##,0": 2180,
      "▁me": 2181,
      "▁0.0": 2182,
      "▁defin": 2183,
      "▁4.7": 2184,
      "▁1849": 2185,
      "##urs": 2186,
      "▁id": 2187,
      "##65-3": 2188,
      "▁looking": 2189,
      "##3/2000": 2190,
      "▁court": 2191,
      "##ro": 2192,
      "▁happy": 2193,
      "▁stat": 2194,
      "▁somebody": 2195,
      "##raph": 2196,
      "▁1799": 2197,
      "##ght": 2198,
      "▁07:24": 2199,
      "▁17": 2200,
      "▁russ": 2201,
      "▁cover": 2202,
      "8": 2203,
      "##:45": 2204,
      "##velop": 2205,
      "▁indianapolis": 2206,
      "##ively": 2207,
      "▁uhoh": 2208,
      "##eap": 2209,
      "##ably": 2210,
      "▁particular": 2211,
      "▁each": 2212,
      "##ror": 2213,
      "▁wor": 2214,
      "▁stop": 2215,
      "▁1.3": 2216,
      "▁euro": 2217,
      "##body": 2218,
      "▁1821": 2219,
      "▁home": 2220,
      "▁suggest": 2221,
      "▁000010": 2222,
      "##stem": 2223,
      "▁fam": 2224,
      "▁uhhuh": 2225,
      "##ab": 2226,
      "##6-8": 2227,
      "▁8:15": 2228,
      "ß": 2229,
      "##5/2001": 2230,
      "##orm": 2231,
      "▁such": 2232,
      "▁cup": 2233,
      "▁given": 2234,
      "##.86": 2235,
      "##ork": 2236,
      "▁140": 2237,
      "▁mother": 2238,
      "▁itself": 2239,
      "##-6": 2240,
      "##ison": 2241,
      "▁turn": 2242,
      ">": 2243,
      "▁still": 2244,
      "▁bear": 2245,
      "▁reg": 2246,
      "##ife": 2247,
      "▁fifteen": 2248,
      "▁var": 2249,
      "▁620-294-": 2250,
      "##iate": 2251,
      "▁1780": 2252,
      "▁value": 2253,
      "▁jo": 2254,
      "▁yourself": 2255,
      "▁104": 2256,
      "▁1920": 2257,
      "▁366": 2258,
      "▁mic": 2259,
      "▁man": 2260,
      "##za": 2261,
      "##ain": 2262,
      "▁!!": 2263,
      "▁inf": 2264,
      "▁43": 2265,
      "▁anal": 2266,
      "▁books": 2267,
      "##ess": 2268,
      "##tsbur": 2269,
      "▁flights": 2270,
      "▁death": 2271,
      "▁much": 2272,
      "▁04": 2273,
      "##uce": 2274,
      "▁franc": 2275,
      "▁besides": 2276,
      "▁ins": 2277,
      "##enty": 2278,
      "##@ect": 2279,
      "##/200": 2280,
      "##ellow": 2281,
      "##365": 2282,
      "▁meeting": 2283,
      "##46-3393": 2284,
      "▁rest": 2285,
      "▁charl": 2286,
      "##:48": 2287,
      "##uation": 2288,
      "▁zero": 2289,
      "▁back": 2290,
      "##ense": 2291,
      "▁jap": 2292,
      "▁from": 2293,
      "▁words": 2294,
      "▁whil": 2295,
      "▁268": 2296,
      "##81": 2297,
      "▁100,000": 2298,
      "▁road": 2299,
      "▁bill": 2300,
      "▁fir": 2301,
      "▁moving": 2302,
      "▁eleven": 2303,
      "▁bow": 2304,
      "[PAD]": 2305,
      "##oun": 2306,
      "▁95": 2307,
      "▁thanks": 2308,
      "##,600": 2309,
      "##/15/2001": 2310,
      "▁619": 2311,
      "▁nineteen": 2312,
      "▁information": 2313,
      "##ester": 2314,
      "▁1967": 2315,
      "##ign": 2316,
      "##ansas": 2317,
      "##able": 2318,
      "▁had": 2319,
      "▁1": 2320,
      "ن": 2321,
      "▁attack": 2322,
      "##ely": 2323,
      "▁theirs": 2324,
      "##:21": 2325,
      "•": 2326,
      "▁process": 2327,
      "▁hol": 2328,
      "##ually": 2329,
      "##ered": 2330,
      "ف": 2331,
      "▁between": 2332,
      "▁400": 2333,
      "▁cuz": 2334,
      "▁great": 2335,
      "▁long": 2336,
      "##wau": 2337,
      "▁lay": 2338,
      "##ions": 2339,
      "▁provide": 2340,
      "##self": 2341,
      "##ol": 2342,
      "##:20": 2343,
      "##-23": 2344,
      "▁1205": 2345,
      "▁philadelphia": 2346,
      "##:24": 2347,
      "▁al.": 2348,
      "▁exper": 2349,
      "▁including": 2350,
      "▁north": 2351,
      "##ut": 2352,
      "▁sixty": 2353,
      "##line": 2354,
      "▁2100": 2355,
      "▁has": 2356,
      "▁10:34": 2357,
      "##:29": 2358,
      "▁woud": 2359,
      "▁6.2.1": 2360,
      "##ʻ": 2361,
      "▁`s": 2362,
      "^": 2363,
      "▁pa": 2364,
      "##rem": 2365,
      "▁160": 2366,
      "▁feel": 2367,
      "▁feet": 2368,
      "▁nor": 2369,
      "▁thirty-": 2370,
      "▁'s": 2371,
      "▁sy": 2372,
      "##********************************": 2373,
      "##/10": 2374,
      "##g": 2375,
      "##ory": 2376,
      "▁1614": 2377,
      "##ick": 2378,
      "##urch": 2379,
      "▁clear": 2380,
      "##ated": 2381,
      "▁ass": 2382,
      "▁ye": 2383,
      "▁also": 2384,
      "##uth": 2385,
      "##ote": 2386,
      "▁re": 2387,
      "▁camp": 2388,
      "▁type": 2389,
      "##ocr": 2390,
      "▁require": 2391,
      "##8/2001": 2392,
      "▁fur": 2393,
      "▁francisco": 2394,
      "ي": 2395,
      "▁415.621.8317": 2396,
      "▁ex": 2397,
      "▁humaine": 2398,
      "##erc": 2399,
      "▁mod": 2400,
      "##ied": 2401,
      "▁pittsburgh": 2402,
      "▁da": 2403,
      "##ri": 2404,
      "▁angel": 2405,
      "▁lou": 2406,
      "▁yourselves": 2407,
      "▁713-853": 2408,
      "##rop": 2409,
      "✉": 2410,
      "##ned": 2411,
      "▁eighty": 2412,
      "▁ju": 2413,
      "▁bas": 2414,
      "▁get": 2415,
      "##----": 2416,
      "ʒ": 2417,
      "▁713-853-": 2418,
      "▁into": 2419,
      "▁‘": 2420,
      "▁civ": 2421,
      "▁l": 2422,
      "##301": 2423,
      "##:13": 2424,
      "▁750,000": 2425,
      "▁10:30": 2426,
      "▁store": 2427,
      "▁china": 2428,
      "▁03": 2429,
      "▁1831": 2430,
      "▁30,000": 2431,
      "##work": 2432,
      "▁follow": 2433,
      "##x": 2434,
      "θ": 2435,
      "▁yer": 2436,
      "▁dallas": 2437,
      "▁most": 2438,
      "##erous": 2439,
      "▁512": 2440,
      "##ww": 2441,
      "##ret": 2442,
      "##-0": 2443,
      "▁coun": 2444,
      "##109": 2445,
      "▁ol": 2446,
      "▁93": 2447,
      "##end": 2448,
      "##ts": 2449,
      "##79": 2450,
      "▁cook": 2451,
      "##夏": 2452,
      "▁addition": 2453,
      "▁460": 2454,
      "▁s": 2455,
      "▁pay": 2456,
      "##:16": 2457,
      "▁3,": 2458,
      "▁went": 2459,
      "##raft": 2460,
      "##:17": 2461,
      "##ina": 2462,
      "##oon": 2463,
      "##uch": 2464,
      "##ct": 2465,
      "9": 2466,
      "##υ": 2467,
      "▁washing": 2468,
      "##tain": 2469,
      "##ich": 2470,
      "▁713": 2471,
      "▁rese": 2472,
      "▁720": 2473,
      "ω": 2474,
      "##........": 2475,
      "##,9": 2476,
      "##ummy": 2477,
      "▁admin": 2478,
      "▁glob": 2479,
      "##ues": 2480,
      "##11": 2481,
      "##710": 2482,
      "▁tou": 2483,
      "##ited": 2484,
      "▁paper": 2485,
      "##ers": 2486,
      "▁1822": 2487,
      "▁din": 2488,
      "▁agreement": 2489,
      "▁dis": 2490,
      "##ices": 2491,
      "▁them": 2492,
      "▁finish": 2493,
      "▁these": 2494,
      "▁198": 2495,
      "▁v": 2496,
      "▁<": 2497,
      "##ə": 2498,
      "▁try": 2499,
      "##ified": 2500,
      "▁1588": 2501,
      "##-": 2502,
      "樋": 2503,
      "▁04:03": 2504,
      "奈": 2505,
      "▁205": 2506,
      "▁either": 2507,
      "##ract": 2508,
      "▁discuss": 2509,
      "▁dan": 2510,
      "##als": 2511,
      "##ther": 2512,
      "▁dem": 2513,
      "▁1801": 2514,
      "▁recommend": 2515,
      "▁5/1": 2516,
      "▁san": 2517,
      ")": 2518,
      "▁03/2": 2519,
      "##ization": 2520,
      "▁jud": 2521,
      "▁lest": 2522,
      "▁fix": 2523,
      "▁20": 2524,
      "##io": 2525,
      "▁1.6": 2526,
      "▁10:25": 2527,
      "▁http": 2528,
      "##42": 2529,
      "##im": 2530,
      "##qu": 2531,
      "▁pot": 2532,
      "##77": 2533,
      "▁cost": 2534,
      "▁ro": 2535,
      "▁1754": 2536,
      "##ided": 2537,
      "▁minute": 2538,
      "##thing": 2539,
      "▁send": 2540,
      "▁minus": 2541,
      "▁impro": 2542,
      "▁egg": 2543,
      "▁wo": 2544,
      "▁natural": 2545,
      "▁begin": 2546,
      "▁below": 2547,
      "▁66": 2548,
      "▁tast": 2549,
      "▁beside": 2550,
      "##ost": 2551,
      "▁150,000": 2552,
      "▁fun": 2553,
      "▁sit": 2554,
      "▁appear": 2555,
      "▁xv": 2556,
      "##.5": 2557,
      "▁second": 2558,
      "▁july": 2559,
      "▁fav": 2560,
      "##d": 2561,
      "▁inst": 2562,
      "▁services": 2563,
      "##~": 2564,
      "##:14": 2565,
      "~": 2566,
      "##elp": 2567,
      "▁plac": 2568,
      "▁proper": 2569,
      "▁646-8420": 2570,
      "##op": 2571,
      "##ha": 2572,
      "▁4:30": 2573,
      "##ility": 2574,
      "##449": 2575,
      "##ip": 2576,
      "-": 2577,
      "▁talking": 2578,
      "##53-3119": 2579,
      "▁575": 2580,
      "##__________": 2581,
      "##uh": 2582,
      "##++": 2583,
      "▁knew": 2584,
      "▁makes": 2585,
      "▁na": 2586,
      "▁visit": 2587,
      "▁1832": 2588,
      "\\": 2589,
      "##own": 2590,
      "▁2013": 2591,
      "##:58": 2592,
      "▁save": 2593,
      "▁apart": 2594,
      "▁23": 2595,
      "##ative": 2596,
      "1": 2597,
      "##ck": 2598,
      "##0010": 2599,
      "▁71": 2600,
      "##’": 2601,
      "▁return": 2602,
      "##ac": 2603,
      "▁par": 2604,
      "##ince": 2605,
      "▁06": 2606,
      "##ak": 2607,
      "▁piece": 2608,
      "▁1701": 2609,
      "##202": 2610,
      "▁yesterday": 2611,
      "##our": 2612,
      "▁only": 2613,
      "▁hav": 2614,
      "▁milwau": 2615,
      "##p": 2616,
      "##imes": 2617,
      "▁behin": 2618,
      "▁forth": 2619,
      "▁ahead": 2620,
      "##uss": 2621,
      "▁quite": 2622,
      "▁cold": 2623,
      "▁office": 2624,
      "▁invol": 2625,
      "##aph": 2626,
      "##----------------": 2627,
      "##–": 2628,
      "##ry": 2629,
      "▁summer": 2630,
      "▁n’t": 2631,
      "##ged": 2632,
      "▁desc": 2633,
      "▁anybody": 2634,
      "ه": 2635,
      "##================================": 2636,
      "##key": 2637,
      "▁sho": 2638,
      "##/01": 2639,
      "▁letter": 2640,
      "▁850": 2641,
      "##utions": 2642,
      "▁qu": 2643,
      "##orrow": 2644,
      "▁03:58": 2645,
      "##ton": 2646,
      "▁74419": 2647,
      "##aking": 2648,
      "▁ten": 2649,
      "▁45": 2650,
      "▁?!": 2651,
      "##ily": 2652,
      "▁alber": 2653,
      "▁---": 2654,
      "##/11/2004": 2655,
      "▁import": 2656,
      "##.9": 2657,
      "##ail": 2658,
      "▁ren": 2659,
      "▁03/08/2000": 2660,
      "##ators": 2661,
      "▁510": 2662,
      "▁1580": 2663,
      "##aken": 2664,
      "##,8": 2665,
      "##:55": 2666,
      "▁860": 2667,
      "▁community": 2668,
      "##3-": 2669,
      "▁having": 2670,
      "▁guy": 2671,
      "▁6/1": 2672,
      "y": 2673,
      "▁probably": 2674,
      "▁eye": 2675,
      "▁cor": 2676,
      "▁see": 2677,
      "▁814": 2678,
      "▁like": 2679,
      "▁philadelp": 2680,
      "▁899": 2681,
      "▁ben": 2682,
      "▁all": 2683,
      "##~*": 2684,
      "▁alongside": 2685,
      "▁story": 2686,
      "▁summ": 2687,
      "▁1850": 2688,
      "##/13": 2689,
      "▁,": 2690,
      "▁awoh": 2691,
      "##oc": 2692,
      "▁university": 2693,
      "▁inter": 2694,
      "▁environ": 2695,
      "▁73": 2696,
      "▁polit": 2697,
      "€": 2698,
      "▁president": 2699,
      "▁1/2": 2700,
      "▁10/26/2000": 2701,
      "▁.2": 2702,
      "##eral": 2703,
      "▁ai": 2704,
      "##lect": 2705,
      "▁deter": 2706,
      "##,000,000": 2707,
      "▁?": 2708,
      "▁won": 2709,
      "▁800": 2710,
      "▁techn": 2711,
      "▁pri": 2712,
      "▁effort": 2713,
      "##========": 2714,
      "##/8": 2715,
      "##-625": 2716,
      "▁180": 2717,
      "▁67": 2718,
      "▁where": 2719,
      "▁never": 2720,
      "▁+1": 2721,
      "▁the": 2722,
      "##osed": 2723,
      "##744": 2724,
      "▁himself": 2725,
      "▁record": 2726,
      "▁sw": 2727,
      "▁dinner": 2728,
      "##s.": 2729,
      "▁200": 2730,
      "▁1110": 2731,
      "##0295": 2732,
      "▁mi": 2733,
      "##ule": 2734,
      "▁2.6": 2735,
      "▁love": 2736,
      "▁land": 2737,
      "▁1603": 2738,
      "▁behind": 2739,
      "##:56": 2740,
      "▁6400": 2741,
      "##-79": 2742,
      "##ames": 2743,
      "▁dad": 2744,
      "▁3,500": 2745,
      "▁fin": 2746,
      "▁resp": 2747,
      "▁pretty": 2748,
      "▁public": 2749,
      "##461": 2750,
      "##山": 2751,
      "##isco": 2752,
      "▁pre": 2753,
      "▁>": 2754,
      "##½": 2755,
      "▁underneath": 2756,
      "▁thank": 2757,
      "▁32": 2758,
      "##ire": 2759,
      "##/30/2001": 2760,
      "▁eff": 2761,
      "▁believe": 2762,
      "##183": 2763,
      "▁639": 2764,
      "▁1987": 2765,
      "▁wether": 2766,
      "▁5.5": 2767,
      "▁347": 2768,
      "##83": 2769,
      "▁travel": 2770,
      "e": 2771,
      "▁htt": 2772,
      "▁63": 2773,
      "▁190": 2774,
      "▁island": 2775,
      "##/97": 2776,
      "▁lo": 2777,
      "▁local": 2778,
      "##ø": 2779,
      "▁tu": 2780,
      "▁make": 2781,
      "▁1875": 2782,
      "谿": 2783,
      "▁1912": 2784,
      "##/00": 2785,
      "▁1179": 2786,
      "▁an": 2787,
      "▁table": 2788,
      "—": 2789,
      "##ib": 2790,
      "▁non": 2791,
      "▁12:3": 2792,
      "▁exce": 2793,
      "▁934": 2794,
      "▁goes": 2795,
      "##a": 2796,
      "##68": 2797,
      "▁510-642": 2798,
      "##on": 2799,
      "##ty": 2800,
      "▁10:45": 2801,
      "▁1925": 2802,
      "▁collect": 2803,
      "▁transport": 2804,
      "▁atl": 2805,
      "##3.6": 2806,
      "##μ": 2807,
      "▁3.7": 2808,
      "▁york": 2809,
      "▁june": 2810,
      "▁res": 2811,
      "▁government": 2812,
      "▁343": 2813,
      "▁military": 2814,
      "▁adv": 2815,
      "▁white": 2816,
      "##ama": 2817,
      "##ired": 2818,
      "▁fell": 2819,
      "▁while": 2820,
      "▁hell": 2821,
      "▁505-625": 2822,
      "##-84": 2823,
      "▁seems": 2824,
      "▁her": 2825,
      "▁mag": 2826,
      "##空": 2827,
      "▁3,202": 2828,
      "##-8": 2829,
      "##iron": 2830,
      "▁1765": 2831,
      "##/2004": 2832,
      "­": 2833,
      "▁ones": 2834,
      "▁34": 2835,
      "##/16/2001": 2836,
      "▁hand": 2837,
      "▁am": 2838,
      "##谿": 2839,
      "##doc": 2840,
      "##-9004": 2841,
      "▁2009": 2842,
      "▁someone": 2843,
      "##ee": 2844,
      "▁develop": 2845,
      "▁630": 2846,
      "▁09:": 2847,
      "▁1-800-991-9019": 2848,
      "##ivid": 2849,
      "w": 2850,
      "##no": 2851,
      "##art": 2852,
      "▁sea": 2853,
      "▁half": 2854,
      "▁dog": 2855,
      "▁throw": 2856,
      "▁when": 2857,
      "##q": 2858,
      "▁committ": 2859,
      "##eare": 2860,
      "♥": 2861,
      "▁care": 2862,
      "▁hit": 2863,
      "▁6:00": 2864,
      "▁eyes": 2865,
      "▁bar": 2866,
      "▁applic": 2867,
      "图": 2868,
      "▁713-853-3098": 2869,
      "##tim": 2870,
      "##uary": 2871,
      "▁str": 2872,
      "▁beyond": 2873,
      "##40": 2874,
      "▁thr": 2875,
      "▁offic": 2876,
      "▁1888": 2877,
      "▁airlines": 2878,
      "º": 2879,
      "##+": 2880,
      "▁litt": 2881,
      "▁peace": 2882,
      "▁organ": 2883,
      "##use": 2884,
      "##1082": 2885,
      "▁b": 2886,
      "β": 2887,
      "##hn": 2888,
      "▁le": 2889,
      "▁1959": 2890,
      "▁conn": 2891,
      "▁gave": 2892,
      "ɔ": 2893,
      "▁trans": 2894,
      "▁n't": 2895,
      "▁300": 2896,
      "▁27": 2897,
      "▁1993": 2898,
      "▁5.3": 2899,
      "▁item": 2900,
      "▁one": 2901,
      "##ont": 2902,
      "+": 2903,
      ";": 2904,
      "##87": 2905,
      "▁763736": 2906,
      "##,000,000,000": 2907,
      "##澹": 2908,
      "!": 2909,
      "▁happ": 2910,
      "▁bed": 2911,
      "▁repres": 2912,
      "##ped": 2913,
      "##/1": 2914,
      "▁h-0": 2915,
      "##%": 2916,
      "##.782": 2917,
      "▁ge": 2918,
      "##.15": 2919,
      "##46": 2920,
      "##ional": 2921,
      "]": 2922,
      "▁drink": 2923,
      "▁balzac": 2924,
      "▁530": 2925,
      "##iny": 2926,
      "▁47": 2927,
      "▁untill": 2928,
      "▁obs": 2929,
      "▁through": 2930,
      "##ord": 2931,
      "##.45": 2932,
      "##3736": 2933,
      "▁very": 2934,
      "##-27": 2935,
      "##huh": 2936,
      "##ertain": 2937,
      "▁ar": 2938,
      "##-9": 2939,
      "##.30": 2940,
      "##/03/2001": 2941,
      "▁hurt": 2942,
      "▁mich": 2943,
      "▁oper": 2944,
      "▁gen": 2945,
      "##sus": 2946,
      "##ent": 2947,
      "##ef": 2948,
      "▁cou": 2949,
      "▁aboard": 2950,
      "▁specific": 2951,
      "▁em": 2952,
      "##++++": 2953,
      "##:40": 2954,
      "##ff": 2955,
      "▁part": 2956,
      "##!!!!": 2957,
      "▁press": 2958,
      "##ential": 2959,
      "##irt": 2960,
      "##134": 2961,
      "##.123": 2962,
      "##54-": 2963,
      "▁2006": 2964,
      "##.3": 2965,
      "▁345-3436": 2966,
      "##ka": 2967,
      "##pt": 2968,
      "##39": 2969,
      "▁ans": 2970,
      "##****************": 2971,
      "▁sur": 2972,
      "▁beg": 2973,
      "##itt": 2974,
      "##:23": 2975,
      "▁1787": 2976,
      "x": 2977,
      "▁friend": 2978,
      "▁soon": 2979,
      "▁--": 2980,
      "▁thinking": 2981,
      "##ently": 2982,
      "##cl": 2983,
      "##ries": 2984,
      "▁08:00": 2985,
      "▁2015": 2986,
      "▁living": 2987,
      "▁dogg": 2988,
      "##:07": 2989,
      "##fully": 2990,
      "司": 2991,
      "ɛ": 2992,
      "▁check": 2993,
      "##de": 2994,
      "##ately": 2995,
      "▁those": 2996,
      "##atch": 2997,
      "##ile": 2998,
      "##u": 2999,
      "##.8": 3000,
      "▁sett": 3001,
      "▁9221": 3002,
      "##ex": 3003,
      "##和": 3004,
      "▁give": 3005,
      "▁curren": 3006,
      "##ought": 3007,
      "##stand": 3008,
      "▁kind": 3009,
      "▁favor": 3010,
      "▁elect": 3011,
      "▁bro": 3012,
      "▁**": 3013,
      "m": 3014,
      "▁944": 3015,
      "##ier": 3016,
      "##:/": 3017,
      "▁6.1": 3018,
      "▁fro": 3019,
      "##iver": 3020,
      "##ity": 3021,
      "##mp": 3022,
      "▁lic": 3023,
      "▁twenty-four": 3024,
      "▁states": 3025,
      "##ass": 3026,
      "▁415.782.7822": 3027,
      "##ron": 3028,
      "▁mummy": 3029,
      "▁wil": 3030,
      "▁don": 3031,
      "##ull": 3032,
      "▁excell": 3033,
      "▁longer": 3034,
      "▁oak": 3035,
      "##7/99": 3036,
      "▁sa": 3037,
      "▁walk": 3038,
      "▁state": 3039,
      "##por": 3040,
      "▁beh": 3041,
      "##ere": 3042,
      "▁percent": 3043,
      "j": 3044,
      "▁5": 3045,
      "##ω": 3046,
      "##'s": 3047,
      "▁ac": 3048,
      "▁seven": 3049,
      "▁81": 3050,
      "▁bo": 3051,
      "▁2003": 3052,
      "▁current": 3053,
      "▁555": 3054,
      "▁sn": 3055,
      "▁(": 3056,
      "▁et": 3057,
      "▁718-780": 3058,
      "▁sign": 3059,
      "##ize": 3060,
      "▁quinn": 3061,
      "▁ed": 3062,
      "##ec": 3063,
      "▁is": 3064,
      "▁working": 3065,
      "▁713-79": 3066,
      "##460-33": 3067,
      "▁fac": 3068,
      "▁est": 3069,
      "▁2001": 3070,
      "▁sev": 3071,
      "▁st": 3072,
      "▁60": 3073,
      "▁beaut": 3074,
      "▁equ": 3075,
      "▁90": 3076,
      "##ool": 3077,
      "##eau": 3078,
      "▁pat": 3079,
      "##ome": 3080,
      "##β": 3081,
      "▁democr": 3082,
      "▁review": 3083,
      "▁646-84": 3084,
      "▁matter": 3085,
      "▁stoy": 3086,
      "##uck": 3087,
      "▁401": 3088,
      "##and": 3089,
      "▁trip": 3090,
      "##/17/2000": 3091,
      "▁:": 3092,
      "##id": 3093,
      "▁towards": 3094,
      "▁wr": 3095,
      "▁09:01": 3096,
      "##ν": 3097,
      "▁fl": 3098,
      "▁360": 3099,
      "##6021": 3100,
      "##www": 3101,
      "##uding": 3102,
      "##201": 3103,
      "▁or": 3104,
      "▁dollars": 3105,
      "▁03/09/2000": 3106,
      "▁claim": 3107,
      "##peare": 3108,
      "▁1939": 3109,
      "▁1843": 3110,
      "▁init": 3111,
      "▁er": 3112,
      "##ward": 3113,
      "##.7": 3114,
      "##4": 3115,
      "##ne": 3116,
      "▁12:12": 3117,
      "▁mont": 3118,
      "▁milwaukee": 3119,
      "▁40,000": 3120,
      "▁1932": 3121,
      "▁713-654-0365": 3122,
      "▁cheap": 3123,
      "▁design": 3124,
      "▁928": 3125,
      "▁haf": 3126,
      "▁result": 3127,
      "##ago": 3128,
      "▁till": 3129,
      "▁for": 3130,
      "##-50": 3131,
      "▁yea": 3132,
      "▁better": 3133,
      "##ion": 3134,
      "##ages": 3135,
      "▁speak": 3136,
      "##/8/00": 3137,
      "##2/2000": 3138,
      "▁lunch": 3139,
      "▁right": 3140,
      "▁04/16/2001": 3141,
      "▁11/08/2000": 3142,
      "▁1.25": 3143,
      "▁": 3144,
      "▁sh": 3145,
      "▁min": 3146,
      "##989": 3147,
      "##15": 3148,
      "#": 3149,
      "▁do": 3150,
      "##ogether": 3151,
      "▁hum": 3152,
      "▁04/30/2001": 3153,
      "▁1918": 3154,
      "▁further": 3155,
      "##ris": 3156,
      "▁fut": 3157,
      "▁$": 3158,
      "▁ter": 3159,
      "▁how": 3160,
      "▁mot": 3161,
      "##6": 3162,
      "##ending": 3163,
      "##ither": 3164,
      "##erg": 3165,
      "▁825": 3166,
      "##uct": 3167,
      "##istan": 3168,
      "##70": 3169,
      "▁daddy": 3170,
      "▁http://": 3171,
      "▁price": 3172,
      "##ulation": 3173,
      "▁deb": 3174,
      "▁rem": 3175,
      "▁vegas": 3176,
      "▁leave": 3177,
      "▁<<": 3178,
      "▁whole": 3179,
      "##.25": 3180,
      "##029": 3181,
      "##ify": 3182,
      "▁fire": 3183,
      "##:52": 3184,
      "▁1829": 3185,
      "##iew": 3186,
      "▁1779": 3187,
      "▁969": 3188,
      "##ver": 3189,
      "##i": 3190,
      "##====": 3191,
      "▁fight": 3192,
      "▁5:30": 3193,
      "▁dese": 3194,
      "▁12/26/2000": 3195,
      "##uz": 3196,
      "g": 3197,
      "▁iv": 3198,
      "▁120,000": 3199,
      "##..": 3200,
      "▁10:56": 3201,
      "##itting": 3202,
      "▁us": 3203,
      "▁environment": 3204,
      "##rib": 3205,
      "##:": 3206,
      "▁close": 3207,
      "▁kitt": 3208,
      "▁ta": 3209,
      "##300": 3210,
      "×": 3211,
      "▁620-": 3212,
      "##09": 3213,
      "▁703": 3214,
      "▁whereby": 3215,
      "▁!!!!!!": 3216,
      "▁£": 3217,
      "▁281-443-3": 3218,
      "▁bab": 3219,
      "▁bir": 3220,
      "##:05": 3221,
      "##v": 3222,
      "##age": 3223,
      "##57": 3224,
      "##-10": 3225,
      "▁fall": 3226,
      "▁means": 3227,
      "▁success": 3228,
      "▁docum": 3229,
      "▁data": 3230,
      "▁28,000": 3231,
      "##ation": 3232,
      "##:50": 3233,
      "▁'": 3234,
      "##/16": 3235,
      "▁huma": 3236,
      "##ible": 3237,
      "ø": 3238,
      "▁play": 3239,
      "▁its": 3240,
      "▁:)": 3241,
      "▁used": 3242,
      "##91": 3243,
      "##14": 3244,
      "▁made": 3245,
      "##/2001": 3246,
      "##ase": 3247,
      "##19": 3248,
      "▁repl": 3249,
      "▁astride": 3250,
      "##0365": 3251,
      "##8196021": 3252,
      "▁area": 3253,
      "##'re": 3254,
      "▁1958": 3255,
      "▁1585": 3256,
      "▁besid": 3257,
      "▁11:32": 3258,
      "▁huh": 3259,
      "ˈ": 3260,
      "##ph": 3261,
      "▁black": 3262,
      "##rael": 3263,
      "##ose": 3264,
      "▁orland": 3265,
      "▁sol": 3266,
      "▁off": 3267,
      "##~*~*": 3268,
      "▁mouth": 3269,
      "▁ban": 3270,
      "▁energy": 3271,
      "##ines": 3272,
      "▁saturday": 3273,
      "▁ag": 3274,
      "▁light": 3275,
      "##8/2000": 3276,
      "▁2008": 3277,
      "##f": 3278,
      "£": 3279,
      "▁hours": 3280,
      "▁:(": 3281,
      "##10": 3282,
      "##ates": 3283,
      "▁1859": 3284,
      "##ix": 3285,
      "▁und": 3286,
      "▁step": 3287,
      "▁430": 3288,
      "▁21": 3289,
      "▁exc": 3290,
      "##ood": 3291,
      "▁unlike": 3292,
      "##/2": 3293,
      "##gether": 3294,
      "##ograph": 3295,
      "▁1561": 3296,
      "▁dark": 3297,
      "▁3.1": 3298,
      "▁47,500": 3299,
      "▁yours": 3300,
      "▁tec": 3301,
      "▁bea": 3302,
      "▁600": 3303,
      "▁2004": 3304,
      "▁need": 3305,
      "▁betw": 3306,
      "▁vi": 3307,
      "▁113": 3308,
      "##==": 3309,
      "▁sor": 3310,
      "▁out": 3311,
      "▁other": 3312,
      "##ɛ": 3313,
      "▁lot": 3314,
      "##ting": 3315,
      "▁arriving": 3316,
      "##/": 3317,
      "##ric": 3318,
      "##get": 3319,
      "▁800.713.86": 3320,
      "##ruct": 3321,
      "▁2,": 3322,
      "▁af": 3323,
      "▁r": 3324,
      "##13": 3325,
      "▁36": 3326,
      "##静": 3327,
      "▁166": 3328,
      "▁ya": 3329,
      "▁315-460-33": 3330,
      "##fore": 3331,
      "▁requ": 3332,
      "##2": 3333,
      "▁fe": 3334,
      "▁6:30": 3335,
      "##73": 3336,
      "▁gre": 3337,
      "##.11": 3338,
      "▁september": 3339,
      "▁1-800": 3340,
      "##n": 3341,
      "·": 3342,
      "▁educ": 3343,
      "▁1836": 3344,
      "##.": 3345,
      "##:57": 3346,
      "##urn": 3347,
      "[": 3348,
      "##est": 3349,
      "▁field": 3350,
      "▁pack": 3351,
      "##ls": 3352,
      "▁tell": 3353,
      "▁flight": 3354,
      "##ies": 3355,
      "▁app": 3356,
      "▁economic": 3357,
      "▁too": 3358,
      "##ll": 3359,
      "##land": 3360,
      "▁120": 3361,
      "##ces": 3362,
      "▁aircraft": 3363,
      "▁pos": 3364,
      "##ian": 3365,
      "##over": 3366,
      "(": 3367,
      "##5": 3368,
      "▁156": 3369,
      "▁7:30": 3370,
      "##85": 3371,
      "##xic": 3372,
      "▁21,000": 3373,
      "▁05/25/2001": 3374,
      "▁four": 3375,
      "##ight": 3376,
      "▁americ": 3377,
      "##ings": 3378,
      "▁touch": 3379,
      "▁42,000": 3380,
      "▁1848": 3381,
      "▁set": 3382,
      "▁horse": 3383,
      "##lf": 3384,
      "##ir": 3385,
      "##/26/2001": 3386,
      "▁03:20": 3387,
      "##294-": 3388,
      "▁3/9": 3389,
      "##wh": 3390,
      "▁10/20/2000": 3391,
      "▁1900": 3392,
      "▁five": 3393,
      "▁04:": 3394,
      "▁inc": 3395,
      "##acy": 3396,
      "##ause": 3397,
      "##ary": 3398,
      "##32": 3399,
      "##-3989": 3400,
      "##48": 3401,
      "▁747": 3402,
      "##enix": 3403,
      "##ving": 3404,
      "▁11:3": 3405,
      "##ath": 3406,
      "▁110": 3407,
      "▁meet": 3408,
      "▁team": 3409,
      "▁be": 3410,
      "##/08": 3411,
      "##anta": 3412,
      "▁john": 3413,
      "▁city": 3414,
      "▁monday": 3415,
      "▁sto": 3416,
      "##=": 3417,
      "▁~": 3418,
      "▁case": 3419,
      "##cross": 3420,
      "▁via": 3421,
      "▁europe": 3422,
      "▁no-": 3423,
      "▁1985": 3424,
      "##7": 3425,
      "▁round": 3426,
      "▁2:25": 3427,
      "▁months": 3428,
      "▁language": 3429,
      "▁417": 3430,
      "▁push": 3431,
      "▁foc": 3432,
      "▁it's": 3433,
      "▁thing": 3434,
      "##ly": 3435,
      "▁more": 3436,
      "4": 3437,
      "▁super": 3438,
      "琴": 3439,
      "##h": 3440,
      "##ɑ": 3441,
      "##sp": 3442,
      "▁research": 3443,
      "##app": 3444,
      "▁morning": 3445,
      "▁mil": 3446,
      "▁maj": 3447,
      "##:46": 3448,
      "▁up": 3449,
      "##ets": 3450,
      "##ble": 3451,
      "##24": 3452,
      "##ild": 3453,
      "▁european": 3454,
      "▁twelve": 3455,
      "▁tw": 3456,
      "▁.?": 3457,
      "▁take": 3458,
      "▁fares": 3459,
      "▁11/10/2000": 3460,
      "▁intern": 3461,
      "▁1962": 3462,
      "7": 3463,
      "▁earli": 3464,
      "▁38": 3465,
      "▁1945": 3466,
      "##(": 3467,
      "▁invest": 3468,
      "▁01:39:56": 3469,
      "▁phil": 3470,
      "▁then": 3471,
      "##inn": 3472,
      "▁tomorrow": 3473,
      "▁disc": 3474,
      "▁195": 3475,
      "▁08": 3476,
      "##葉": 3477,
      "##cc": 3478,
      "▁1616": 3479,
      "▁1951": 3480,
      "##:25": 3481,
      "##2000": 3482,
      "##================": 3483,
      "▁99": 3484,
      "[MASK]": 3485,
      "▁char": 3486,
      "▁partic": 3487,
      "##ental": 3488,
      "##ob": 3489,
      "▁1964": 3490,
      "##bs": 3491,
      "##.621": 3492,
      "▁2:30": 3493,
      "▁vs": 3494,
      "▁gas": 3495,
      "▁rich": 3496,
      "▁anoder": 3497,
      "▁val": 3498,
      "▁thurs": 3499,
      "▁act": 3500,
      "▁name": 3501,
      "▁cal": 3502,
      "▁being": 3503,
      "▁838": 3504,
      "▁-": 3505,
      "▁813": 3506,
      "☎": 3507,
      "##way": 3508,
      "##ived": 3509,
      "##0072": 3510,
      "▁08/03/2000": 3511,
      "▁regard": 3512,
      "##38": 3513,
      "▁6871082": 3514,
      "▁baltimore": 3515,
      "▁they": 3516,
      "##town": 3517,
      "##ς": 3518,
      "##oll": 3519,
      "▁tor": 3520,
      "▁72,000": 3521,
      "?": 3522,
      "▁3.2": 3523,
      "▁''": 3524,
      "▁sal": 3525,
      "##ience": 3526,
      "##ations": 3527,
      "##hia": 3528,
      "▁.....": 3529,
      "▁word": 3530,
      "▁07/14/2000": 3531,
      "▁day": 3532,
      "i": 3533,
      "▁over": 3534,
      "▁american": 3535,
      "▁auth": 3536,
      "▁lea": 3537,
      "▁i": 3538,
      "▁les": 3539,
      "##ح": 3540,
      "▁1998": 3541,
      "##ren": 3542,
      "▁box": 3543,
      "▁grand": 3544,
      "##ter": 3545,
      "▁class": 3546,
      "▁lear": 3547,
      "##od": 3548,
      "▁chair": 3549,
      "▁1696": 3550,
      "▁custom": 3551,
      "▁some": 3552,
      "##uge": 3553,
      "▁1-800-991-90": 3554,
      "##ast": 3555,
      "##tr": 3556,
      "##η": 3557,
      "▁issue": 3558,
      "▁fact": 3559,
      "▁296": 3560,
      "##ams": 3561,
      "##lish": 3562,
      "##az": 3563,
      "▁per": 3564,
      "和": 3565,
      "_": 3566,
      "▁1160": 3567,
      "▁101": 3568,
      "s": 3569,
      "▁!": 3570,
      "▁01/24/2001": 3571,
      "##/13/2001": 3572,
      "##16": 3573,
      "▁770": 3574,
      "▁…": 3575,
      "▁young": 3576,
      "▁fift": 3577,
      "▁left": 3578,
      "▁bre": 3579,
      "▁enj": 3580,
      "##22": 3581,
      "▁doctor": 3582,
      "▁713/853": 3583,
      "▁street": 3584,
      "##ig": 3585,
      "澹": 3586,
      "▁05908549": 3587,
      "##/25/2001": 3588,
      "▁11,000": 3589,
      "▁quest": 3590,
      "▁member": 3591,
      "▁o'": 3592,
      "▁01810": 3593,
      "▁struct": 3594,
      "η": 3595,
      "##200": 3596,
      "▁hund": 3597,
      "▁every": 3598,
      "▁ano": 3599,
      "▁che": 3600,
      "▁159": 3601,
      "▁07/1": 3602,
      "▁1608": 3603,
      "f": 3604,
      "##•": 3605,
      "▁315-": 3606,
      "▁pass": 3607,
      "▁whether": 3608,
      "▁1972": 3609,
      "▁s/he": 3610,
      "▁abs": 3611,
      "##,008": 3612,
      "▁713-793-": 3613,
      "▁1504": 3614,
      "##itch": 3615,
      "▁members": 3616,
      "##irl": 3617,
      "▁since": 3618,
      "▁origin": 3619,
      "##oy": 3620,
      "##29": 3621,
      "▁notwi": 3622,
      "##415-": 3623,
      "▁lar": 3624,
      "▁1724": 3625,
      "##1/2001": 3626,
      "▁somet": 3627,
      "##ology": 3628,
      "▁los": 3629,
      "▁ourselves": 3630,
      "##two": 3631,
      "▁env": 3632,
      "▁165": 3633,
      "▁tot": 3634,
      "##kk": 3635,
      "##ul": 3636,
      "##ors": 3637,
      "▁week": 3638,
      "##raw": 3639,
      "▁330": 3640,
      "▁44": 3641,
      "ι": 3642,
      "▁mom": 3643,
      "\"": 3644,
      "##ρ": 3645,
      "▁economy": 3646,
      "##na": 3647,
      "a": 3648,
      "##ula": 3649,
      "▁bring": 3650,
      "▁sixteen": 3651,
      "▁rec": 3652,
      "▁cont": 3653,
      "▁2007": 3654,
      "▁ham": 3655,
      "▁fing": 3656,
      "##an": 3657,
      "##thers": 3658,
      "##velopment": 3659,
      "▁1992": 3660,
      "▁kid": 3661,
      "▁point": 3662,
      "##head": 3663,
      "▁m": 3664,
      "▁both": 3665,
      "##/2005": 3666,
      "##pl": 3667,
      "##“": 3668,
      "##8806": 3669,
      "##ating": 3670,
      "▁wednesday": 3671,
      "##/4": 3672,
      "▁1505": 3673,
      "▁[": 3674,
      "[UNK]": 3675,
      "▁have": 3676,
      "▁nonstop": 3677,
      "▁59": 3678,
      "▁3.5": 3679,
      "▁espec": 3680,
      "▁yester": 3681,
      "##he": 3682,
      "▁show": 3683,
      "▁kansas": 3684,
      "ɑ": 3685,
      "▁short": 3686,
      "▁able": 3687,
      "▁thought": 3688,
      "##.718": 3689,
      "##alf": 3690,
      "▁green": 3691,
      "▁210": 3692,
      "▁ve": 3693,
      "▁dc": 3694,
      "▁01/25/2001": 3695,
      "▁29587": 3696,
      "▁financ": 3697,
      "▁power": 3698,
      "##ا": 3699,
      "##????????": 3700,
      "▁consider": 3701,
      "##pped": 3702,
      "▁wou": 3703,
      "##one": 3704,
      "##ise": 3705,
      "▁might": 3706,
      "##illion": 3707,
      "▁1600": 3708,
      "##60": 3709,
      "▁82": 3710,
      "▁w/": 3711,
      "▁/": 3712,
      "▁059085": 3713,
      "6": 3714,
      "##ays": 3715,
      "▁blue": 3716,
      "##ew": 3717,
      "##atter": 3718,
      "▁g": 3719,
      "▁saw": 3720,
      "##or": 3721,
      "▁abe": 3722,
      "▁tex": 3723,
      "▁especially": 3724,
      "▁israel": 3725,
      "▁50": 3726,
      "▁2011": 3727,
      "##.1": 3728,
      "▁rul": 3729,
      "▁04/2": 3730,
      "##ften": 3731,
      "静": 3732,
      "▁includ": 3733,
      "##enc": 3734,
      "▁1598": 3735,
      "▁bn": 3736,
      "▁bur": 3737,
      "▁979": 3738,
      "▁dist": 3739,
      "▁twenty-six": 3740,
      "▁open": 3741,
      "▁international": 3742,
      "▁opt": 3743,
      "▁!!!!!!!!!!!": 3744,
      "##ale": 3745,
      "▁281-443-3744": 3746,
      "▁’re": 3747,
      "##!!!": 3748,
      "##oke": 3749,
      "▁1966": 3750,
      "▁08/15/2000": 3751,
      "##la": 3752,
      "▁pan": 3753,
      "▁1.5": 3754,
      "▁book": 3755,
      "▁'re": 3756,
      "▁nine": 3757,
      "▁ver": 3758,
      "##ition": 3759,
      "##ember": 3760,
      "▁pict": 3761,
      "##:03": 3762,
      "▁12:42": 3763,
      "##93": 3764,
      "▁bath": 3765,
      "▁eat": 3766,
      "▁calif": 3767,
      "##ature": 3768,
      "▁met": 3769,
      "¢": 3770,
      "##°": 3771,
      "##int": 3772,
      "▁soc": 3773,
      "▁problem": 3774,
      "##res": 3775,
      "##ute": 3776,
      "##99": 3777,
      "##/he": 3778,
      "▁57": 3779,
      "▁80,000": 3780,
      "▁canad": 3781,
      "▁03:3": 3782,
      "▁perform": 3783,
      "##ber": 3784,
      "##ur": 3785,
      "▁2000": 3786,
      "▁several": 3787,
      "@": 3788,
      "▁necess": 3789,
      "▁couple": 3790,
      "▁top": 3791,
      "##@enron_de": 3792,
      "##θ": 3793,
      "##ms": 3794,
      "▁202.456": 3795,
      "##pr": 3796,
      "▁dom": 3797,
      "##gy": 3798,
      "▁new": 3799,
      "▁508": 3800,
      "▁express": 3801,
      "##59": 3802,
      "▁direct": 3803,
      "▁har": 3804,
      "▁1984": 3805,
      "##ient": 3806,
      "▁170": 3807,
      "##ه": 3808,
      "▁children": 3809,
      "▁sp": 3810,
      "▁possible": 3811,
      "▁mean": 3812,
      "##ment": 3813,
      "##37": 3814,
      "▁9": 3815,
      "▁713/": 3816,
      "▁'em": 3817,
      "▁199": 3818,
      "▁dall": 3819,
      "▁115": 3820,
      "##es": 3821,
      "▁“": 3822,
      "▁.doc": 3823,
      "▁2,300": 3824,
      "##ash": 3825,
      "▁ch": 3826,
      "▁east": 3827,
      "##lik": 3828,
      "▁al": 3829,
      "ʁ": 3830,
      "▁wed": 3831,
      "▁guess": 3832,
      "▁24,000": 3833,
      "##.2461": 3834,
      "▁1691": 3835,
      "▁cam": 3836,
      "▁11-20-2000": 3837,
      "##k": 3838,
      "▁allow": 3839,
      "##ay": 3840,
      "##奈": 3841,
      "▁su": 3842,
      "##ists": 3843,
      "▁national": 3844,
      "▁29": 3845,
      "▁dere": 3846,
      "▁3.": 3847,
      "▁6.2": 3848,
      "##.8317": 3849,
      "▁888": 3850,
      "▁cheapest": 3851,
      "▁dead": 3852,
      "▁pers": 3853,
      "▁1996": 3854,
      "▁fly": 3855,
      "▁1999": 3856,
      "▁18,000": 3857,
      "▁grow": 3858,
      "▁kids": 3859,
      "▁him": 3860,
      "▁progr": 3861,
      "▁harry": 3862,
      "古": 3863,
      "▁978": 3864,
      "##æ": 3865,
      "▁month": 3866,
      "##810": 3867,
      "##ability": 3868,
      "▁who": 3869,
      "±": 3870,
      "▁fine": 3871,
      "œ": 3872,
      "▁train": 3873,
      "▁1605": 3874,
      "▁4:00": 3875,
      "##esday": 3876,
      "▁almost": 3877,
      "▁1790": 3878,
      "▁1965": 3879,
      "##??": 3880,
      "##ana": 3881,
      "##********": 3882,
      "▁appro": 3883,
      "▁least": 3884,
      "▁main": 3885,
      "##c": 3886,
      "▁what": 3887,
      "##low": 3888,
      "▁713-654-128": 3889,
      "<": 3890,
      "n": 3891,
      "▁interest": 3892,
      "▁888.916.7184": 3893,
      "##ention": 3894,
      "▁10/23/2000": 3895,
      "▁pol": 3896,
      "▁forty-eight": 3897,
      "▁11/28/2000": 3898,
      "##osite": 3899,
      "##:1": 3900,
      "况": 3901,
      "##一": 3902,
      "▁ret": 3903,
      "▁pain": 3904,
      "▁189": 3905,
      "▁12.": 3906,
      "▁!!!": 3907,
      "▁o'clock": 3908,
      "▁1738": 3909,
      "▁shakes": 3910,
      "▁bl": 3911,
      "▁none": 3912,
      "▁example": 3913,
      "▁ele": 3914,
      "▁belie": 3915,
      "▁twenty": 3916,
      "##ach": 3917,
      "▁46": 3918,
      "▁iss": 3919,
      "▁)": 3920,
      "▁05:37": 3921,
      "▁comedie": 3922,
      "##r": 3923,
      "▁no": 3924,
      "##idence": 3925,
      "▁baltim": 3926,
      "▁202.7": 3927,
      "▁wife": 3928,
      "##au": 3929,
      "▁&amp": 3930,
      "▁d'": 3931,
      "▁01/2": 3932,
      "##h-": 3933,
      "##attle": 3934,
      "▁herself": 3935,
      "▁??": 3936,
      "▁11-20-": 3937,
      "▁small": 3938,
      "▁to": 3939,
      "▁earth": 3940,
      "##cept": 3941,
      "▁e": 3942,
      "##:32": 3943,
      "▁38,000": 3944,
      "▁31": 3945,
      "▁62": 3946,
      "▁just": 3947,
      "##/01/2001": 3948,
      "▁was": 3949,
      "▁twenty-": 3950,
      "▁experience": 3951,
      "##ott": 3952,
      "##ف": 3953,
      "▁whenever": 3954,
      "▁tuesday": 3955,
      "▁505-625-8031": 3956,
      "▁9/11": 3957,
      "▁cer": 3958,
      "##ital": 3959,
      "##0": 3960,
      "▁c": 3961,
      "##ony": 3962,
      "##umb": 3963,
      "▁1980": 3964,
      "##gress": 3965,
      "##ml": 3966,
      "##ults": 3967,
      "▁'ve": 3968,
      "##ross": 3969,
      "##craft": 3970,
      "▁oakland": 3971,
      "c": 3972,
      "▁cur": 3973,
      "##ht": 3974,
      "▁certain": 3975,
      "▁1995": 3976,
      "▁bad": 3977,
      "▁185": 3978,
      "##icago": 3979,
      "##kee": 3980,
      "##les": 3981,
      "▁2.00": 3982,
      "▁turned": 3983,
      "▁11608": 3984,
      "▁amongst": 3985,
      "▁sept": 3986,
      "▁tho": 3987,
      "##omet": 3988,
      "##90": 3989,
      "##pite": 3990,
      "▁947": 3991,
      "▁langu": 3992,
      "▁11/27/2000": 3993,
      "▁school": 3994,
      "##aw": 3995,
      "ʃ": 3996,
      "##✉": 3997,
      "▁thousand": 3998,
      "▁polic": 3999,
      "▁420": 4000,
      "##@": 4001,
      "▁ant": 4002,
      "▁idea": 4003,
      "##s": 4004,
      "▁seemed": 4005,
      "▁1868": 4006,
      "##ope": 4007,
      "▁exam": 4008,
      "▁however": 4009,
      "▁quick": 4010,
      "▁noone": 4011,
      "##ou": 4012,
      "▁compan": 4013,
      "‘": 4014,
      "▁heard": 4015,
      "▁10/31": 4016,
      "▁work": 4017,
      "ز": 4018,
      "▁1928": 4019,
      "▁191": 4020,
      "▁cour": 4021,
      "▁1777": 4022,
      "##iod": 4023,
      "▁op": 4024,
      "##anger": 4025,
      "##ics": 4026,
      "##ically": 4027,
      "▁something": 4028,
      "▁his": 4029,
      "▁alberta": 4030,
      "##ves": 4031,
      "▁hot": 4032,
      "▁sound": 4033,
      "▁actually": 4034,
      "▁10:5": 4035,
      "##it": 4036,
      "▁present": 4037,
      "##-n": 4038,
      "▁on": 4039,
      "▁]": 4040,
      "##icle": 4041,
      "▁red": 4042,
      "▁forty": 4043,
      "##aur": 4044,
      "##.doc": 4045,
      "▁2005": 4046,
      "##,": 4047,
      "##t": 4048,
      "##enth": 4049,
      "▁trillion": 4050,
      "▁1623": 4051,
      "ص": 4052,
      "##--------------------------------": 4053,
      "▁dkk": 4054,
      "▁0590": 4055,
      "▁laur": 4056,
      "▁washington": 4057,
      "##ement": 4058,
      "▁z": 4059,
      "▁answ": 4060,
      "▁keep": 4061,
      "##go": 4062,
      "##ith": 4063,
      "h": 4064,
      "▁xiii": 4065,
      "▁1994": 4066,
      "▁evening": 4067,
      "μ": 4068,
      "▁cut": 4069,
      "▁by": 4070,
      "##ust": 4071,
      "▁08:30": 4072,
      "▁’ve": 4073,
      "##72": 4074,
      "▁maybe": 4075,
      "▁whom": 4076,
      "##eng": 4077,
      "▁happen": 4078,
      "##unch": 4079,
      "▁nothing": 4080,
      "▁2:00": 4081,
      "▁born": 4082,
      "▁later": 4083,
      "##司": 4084,
      "▁1039": 4085,
      "▁ple": 4086,
      "##anc": 4087,
      "##round": 4088,
      "##uc": 4089,
      "##-00": 4090,
      "▁far": 4091,
      "▁avail": 4092,
      "▁port": 4093,
      "▁time": 4094,
      "##st": 4095
    }
  }
}