{
  "version": "1.0",
  "truncation": null,
  "padding": null,
  "added_tokens": [
    {
      "id": 3298,
      "content": "[PAD]",
      "single_word": false,
      "lstrip": false,
      "rstrip": false,
      "normalized": false,
      "special": true
    },
    {
      "id": 3849,
      "content": "[MASK]",
      "single_word": false,
      "lstrip": false,
      "rstrip": false,
      "normalized": false,
      "special": true
    },
    {
      "id": 3943,
      "content": "[UNK]",
      "single_word": false,
      "lstrip": false,
      "rstrip": false,
      "normalized": false,
      "special": true
    },
    {
      "id": 6453,
      "content": "[CLS]",
      "single_word": false,
      "lstrip": false,
      "rstrip": false,
      "normalized": false,
      "special": true
    },
    {
      "id": 6669,
      "content": "[SEP]",
      "single_word": false,
      "lstrip": false,
      "rstrip": false,
      "normalized": false,
      "special": true
    }
  ],
  "normalizer": {
    "type": "Sequence",
    "normalizers": [
      {
        "type": "NFD"
      },
      {
        "type": "Lowercase"
      },
      {
        "type": "StripAccents"
      }
    ]
  },
  "pre_tokenizer": {
    "type": "Sequence",
    "pretokenizers": [
      {
        "type": "Metaspace",
        "replacement": "▁",
        "prepend_scheme": "always",
        "split": true
      }
    ]
  },
  "post_processor": {
    "type": "TemplateProcessing",
    "single": [
      {
        "SpecialToken": {
          "id": "[CLS]",
          "type_id": 0
        }
      },
      {
        "Sequence": {
          "id": "A",
          "type_id": 0
        }
      },
      {
        "SpecialToken": {
          "id": "[SEP]",
          "type_id": 0
        }
      }
    ],
    "pair": [
      {
        "SpecialToken": {
          "id": "[CLS]",
          "type_id": 0
        }
      },
      {
        "Sequence": {
          "id": "A",
          "type_id": 0
        }
      },
      {
        "SpecialToken": {
          "id": "[SEP]",
          "type_id": 0
        }
      },
      {
        "Sequence": {
          "id": "B",
          "type_id": 1
        }
      },
      {
        "SpecialToken": {
          "id": "[SEP]",
          "type_id": 1
        }
      }
    ],
    "special_tokens": {
      "[CLS]": {
        "id": "[CLS]",
        "ids": [
          6453
        ],
        "tokens": [
          "[CLS]"
        ]
      },
      "[SEP]": {
        "id": "[SEP]",
        "ids": [
          6669
        ],
        "tokens": [
          "[SEP]"
        ]
      }
    }
  },
  "decoder": {
    "type": "Metaspace",
    "replacement": "▁",
    "prepend_scheme": "always",
    "split": true
  },
  "model": {
    "type": "BPE",
    "dropout": null,
    "unk_token": "[UNK]",
    "continuing_subword_prefix": null,
    "end_of_word_suffix": null,
    "fuse_unk": false,
    "byte_fallback": false,
    "ignore_merges": false,
    "vocab": {
      "!!!!!!!!": 0,
      "iss": 1,
      ":56": 2,
      "ming": 3,
      "▁rude": 4,
      "▁chat": 5,
      "orum": 6,
      "40": 7,
      "▁12/2": 8,
      "▁interv": 9,
      "▁there": 10,
      "▁date": 11,
      "▁circum": 12,
      "▁ec": 13,
      "▁involved": 14,
      "▁ha": 15,
      "▁must": 16,
      "▁proble": 17,
      "▁boots": 18,
      "▁tells": 19,
      "▁form": 20,
      "▁biological": 21,
      "▁1589": 22,
      ".c": 23,
      "orio": 24,
      "▁1,200": 25,
      "▁2030": 26,
      "▁areas": 27,
      "▁thomas": 28,
      "▁redlined": 29,
      "/13": 30,
      "▁resources": 31,
      "▁recommended": 32,
      "ived": 33,
      "▁q": 34,
      "▁paint": 35,
      "▁pun": 36,
      "▁wanted": 37,
      "▁establish": 38,
      "▁appears": 39,
      "5/2001": 40,
      "▁guidelines": 41,
      "▁1562": 42,
      "▁created": 43,
      "▁bathroom": 44,
      "▁4.6": 45,
      "▁lest": 46,
      "▁wedding": 47,
      "▁1609": 48,
      "wide": 49,
      "▁wait": 50,
      "cross": 51,
      "0-3": 52,
      "▁old": 53,
      "▁buy": 54,
      "▁map": 55,
      "▁watch": 56,
      "▁well": 57,
      "▁iran": 58,
      "▁employees": 59,
      "▁suff": 60,
      "▁replication": 61,
      "▁squ": 62,
      ".6": 63,
      "▁y": 64,
      "90": 65,
      "▁daily": 66,
      "one": 67,
      "▁bench": 68,
      "▁hm": 69,
      "▁spend": 70,
      "▁u": 71,
      "hing": 72,
      "▁charlie": 73,
      "unications": 74,
      "sem": 75,
      "eis": 76,
      "▁counterpart": 77,
      "▁central": 78,
      "▁!!!?": 79,
      "▁gives": 80,
      "▁fig": 81,
      "▁wonderful": 82,
      "▁indian": 83,
      "▁once": 84,
      "▁1635": 85,
      "▁hard": 86,
      "▁2017": 87,
      "▁mar": 88,
      "tsbur": 89,
      "iration": 90,
      "▁oblig": 91,
      "▁felt": 92,
      "ier": 93,
      "▁afghan": 94,
      "▁finance": 95,
      "teboo": 96,
      "▁ra": 97,
      "---": 98,
      "-9004": 99,
      "▁driver": 100,
      "▁donkey": 101,
      "▁fail": 102,
      "▁will": 103,
      "▁amendment": 104,
      "aling": 105,
      "▁sir": 106,
      "aters": 107,
      "▁golden": 108,
      "▁with": 109,
      "▁const": 110,
      "▁commission": 111,
      "▁upside": 112,
      "▁first": 113,
      "▁forward": 114,
      "▁trees": 115,
      "....": 116,
      "▁mid-": 117,
      "▁2018": 118,
      "▁papers": 119,
      "▁management": 120,
      "ally": 121,
      "▁33,000": 122,
      "▁coinc": 123,
      "ging": 124,
      "▁conduct": 125,
      "▁...................": 126,
      "osure": 127,
      "istics": 128,
      "▁indic": 129,
      "▁ever": 130,
      "▁888.916.718": 131,
      "▁reserve": 132,
      "▁boy": 133,
      "▁☏": 134,
      "▁sometimes": 135,
      "hood": 136,
      "round": 137,
      "▁info": 138,
      "ble": 139,
      "▁01:14": 140,
      "ans": 141,
      "az": 142,
      "▁nut": 143,
      "oam": 144,
      "▁said": 145,
      "▁demon": 146,
      "▁inn": 147,
      "▁mat": 148,
      "▁shi": 149,
      "▁oil": 150,
      "▁control": 151,
      "▁tacoma": 152,
      "▁bec": 153,
      "▁jobs": 154,
      "▁support": 155,
      "☏": 156,
      "▁fully": 157,
      "▁reality": 158,
      "▁3,202.61": 159,
      "▁enjoyed": 160,
      "▁alleged": 161,
      "▁44,000": 162,
      "ings": 163,
      "▁05/01/2001": 164,
      "▁known": 165,
      "ures": 166,
      "elines": 167,
      "▁********************************": 168,
      "▁funds": 169,
      "▁egypt": 170,
      "▁pur": 171,
      "ect": 172,
      "}*{===<----": 173,
      "iwan": 174,
      "id": 175,
      "▁useful": 176,
      "▁approxim": 177,
      "▁obv": 178,
      "atter": 179,
      "end": 180,
      "55": 181,
      "▁prot": 182,
      "▁draw": 183,
      "▁20.doc": 184,
      "▁lean": 185,
      "▁party": 186,
      "▁blood": 187,
      "amental": 188,
      "▁1594": 189,
      "▁equip": 190,
      "ix": 191,
      "▁748": 192,
      ":29": 193,
      "gest": 194,
      "▁thom": 195,
      "▁campaign": 196,
      "▁scan": 197,
      "▁ice": 198,
      "▁programs": 199,
      "▁phone": 200,
      "clus": 201,
      "▁dud": 202,
      "▁soft": 203,
      "449": 204,
      ".1234": 205,
      "iere": 206,
      "▁rough": 207,
      "▁server": 208,
      "”": 209,
      "▁bon": 210,
      "most": 211,
      "▁bigger": 212,
      "▁gent": 213,
      "▁starting": 214,
      "▁egyptian": 215,
      "onom": 216,
      "▁window": 217,
      "▁04:37": 218,
      "▁song": 219,
      "▁impress": 220,
      "osite": 221,
      "▁mm": 222,
      "7/99": 223,
      "▁rap": 224,
      "▁become": 225,
      "▁enh": 226,
      "▁developing": 227,
      "▁kim": 228,
      "019": 229,
      "▁sim": 230,
      ":55": 231,
      "▁lion": 232,
      "▁wolves": 233,
      "▁s/h": 234,
      "▁prob": 235,
      "▁airline": 236,
      "▁associated": 237,
      "▁strength": 238,
      "▁1952": 239,
      "▁sources": 240,
      "nic": 241,
      "▁3/8/00": 242,
      "▁painting": 243,
      "▁historic": 244,
      "▁does": 245,
      "il": 246,
      "▁11/0": 247,
      "▁analy": 248,
      "▁814014": 249,
      "▁ask": 250,
      "▁schedule": 251,
      "arr": 252,
      "▁unkn": 253,
      "ify": 254,
      "▁kiss": 255,
      "▁read": 256,
      "▁mc": 257,
      "▁clothes": 258,
      "ological": 259,
      "▁bri": 260,
      "ium": 261,
      "▁-----": 262,
      "▁bulldozer": 263,
      "thern": 264,
      "▁ob": 265,
      "▁hospital": 266,
      "5-0": 267,
      "▁transp": 268,
      "▁w.": 269,
      "ius": 270,
      "ublic": 271,
      "▁1950": 272,
      "▁mud": 273,
      "▁8:00": 274,
      "orial": 275,
      ",5": 276,
      "--------+----------------": 277,
      "▁baking": 278,
      "▁delhi": 279,
      "▁hun": 280,
      "kk": 281,
      "etic": 282,
      "▁forever": 283,
      "▁reached": 284,
      "▁received": 285,
      "ulate": 286,
      "st": 287,
      "▁80435": 288,
      "fl": 289,
      "▁1833": 290,
      "-n": 291,
      "▁delta": 292,
      "-5": 293,
      ".676": 294,
      "▁dut": 295,
      "▁cycl": 296,
      "▁surrounded": 297,
      "▁amounts": 298,
      "'s": 299,
      "▁contem": 300,
      "▁alth": 301,
      ".7822": 302,
      "▁hous": 303,
      "▁ocho": 304,
      "▁rank": 305,
      "▁n": 306,
      "▁stopping": 307,
      "▁cap": 308,
      "▁1100": 309,
      "▁highest": 310,
      "▁'ll": 311,
      "▁dr": 312,
      "▁meth": 313,
      "▁call": 314,
      "▁spect": 315,
      "▁[...]": 316,
      "▁using": 317,
      "▁beneath": 318,
      "▁farm": 319,
      "▁concerns": 320,
      "eding": 321,
      "▁529999": 322,
      "▁fantastic": 323,
      "▁communic": 324,
      "▁credit": 325,
      "▁methods": 326,
      "▁212": 327,
      "ry": 328,
      "ph": 329,
      "▁points": 330,
      "▁breat": 331,
      "equ": 332,
      "▁96": 333,
      "▁senior": 334,
      "▁stren": 335,
      "▁legos": 336,
      "▁americans": 337,
      "ς": 338,
      "▁apparent": 339,
      "▁scar": 340,
      "..": 341,
      "▁sav": 342,
      "▁922": 343,
      "asks": 344,
      "val": 345,
      "▁potato": 346,
      "▁tort": 347,
      "te": 348,
      "▁eighteen": 349,
      "▁confer": 350,
      "▁ill": 351,
      "▁adults": 352,
      "38": 353,
      "▁03:48": 354,
      "▁animals": 355,
      "ends": 356,
      "▁e.": 357,
      "rep": 358,
      "ayed": 359,
      "▁bird": 360,
      "ns": 361,
      "liament": 362,
      "▁agency": 363,
      "▁showing": 364,
      "ned": 365,
      "▁09:45": 366,
      "▁cia": 367,
      "▁pilot": 368,
      "▁11/7": 369,
      "▁sleepy": 370,
      "▁excel": 371,
      "▁giv": 372,
      "oss": 373,
      "iate": 374,
      "▁alternative": 375,
      "ef": 376,
      "boo": 377,
      "▁charged": 378,
      "▁l2": 379,
      "ention": 380,
      "▁1947": 381,
      "▁37": 382,
      "_0": 383,
      "▁plenty": 384,
      "▁unit": 385,
      "▁alt.": 386,
      "oh": 387,
      "▁mess": 388,
      "▁16.379": 389,
      "▁bay": 390,
      "▁milit": 391,
      "▁pret": 392,
      "amm": 393,
      "▁comment": 394,
      "ama": 395,
      "▁youn": 396,
      "▁chairs": 397,
      "▁i.e.": 398,
      "▁resc": 399,
      "▁co": 400,
      "▁across": 401,
      "▁137": 402,
      "als": 403,
      "▁tenth": 404,
      "▁pere": 405,
      "▁powerful": 406,
      "rition": 407,
      "▁whoo": 408,
      "▁constituency": 409,
      "▁asleep": 410,
      "▁2.9": 411,
      "-23": 412,
      "▁ded": 413,
      "▁sle": 414,
      "▁twist": 415,
      "▁315": 416,
      "▁die": 417,
      "rant": 418,
      "idence": 419,
      "▁yellow": 420,
      "▁ce": 421,
      "/7": 422,
      "▁neighbor": 423,
      "▁thir": 424,
      "▁candidate": 425,
      "▁ger": 426,
      "夏": 427,
      "rec": 428,
      "ame": 429,
      "▁son": 430,
      "▁mill": 431,
      "ables": 432,
      "▁marie": 433,
      "lic": 434,
      "uted": 435,
      "▁project": 436,
      "▁exposure": 437,
      "gami": 438,
      "▁ninety-nine": 439,
      "▁schools": 440,
      "▁steve": 441,
      "ree": 442,
      "▁ey": 443,
      "▁syri": 444,
      ",950": 445,
      "▁dolph": 446,
      "▁here": 447,
      "sel": 448,
      "▁any": 449,
      "▁fixed": 450,
      "▁bus": 451,
      "▁+++": 452,
      "▁boston": 453,
      "▁threw": 454,
      "▁tennessee": 455,
      "▁wrong": 456,
      "uals": 457,
      "▁minutes": 458,
      "▁wish": 459,
      "▁currently": 460,
      "ination": 461,
      "▁markets": 462,
      "▁transportation": 463,
      "43": 464,
      "ilities": 465,
      "▁scre": 466,
      "▁tower": 467,
      "lig": 468,
      "▁fy": 469,
      "▁mir": 470,
      "▁facebook": 471,
      "▁las": 472,
      "▁dragon": 473,
      "▁prof": 474,
      "ower": 475,
      "▁contracts": 476,
      "▁‘’": 477,
      "▁2.975": 478,
      "▁initi": 479,
      "itt": 480,
      "▁tul": 481,
      "entially": 482,
      "▁formed": 483,
      "▁69": 484,
      "▁susan": 485,
      "▁fr": 486,
      "▁simply": 487,
      "▁aim": 488,
      "▁master": 489,
      "▁stella": 490,
      "▁load": 491,
      "▁311": 492,
      "ak": 493,
      "▁dirt": 494,
      "▁grown": 495,
      "uk": 496,
      "ror": 497,
      "alo": 498,
      "▁345-343": 499,
      "▁he": 500,
      "▁substantial": 501,
      "...@": 502,
      "time": 503,
      "▁governor": 504,
      "unt": 505,
      "▁speech": 506,
      "▁loss": 507,
      "▁01/19/2001": 508,
      "▁condition": 509,
      "ience": 510,
      "ences": 511,
      "▁goods": 512,
      "▁relevant": 513,
      "▁kitchen": 514,
      "▁captain": 515,
      "▁ach": 516,
      ".": 517,
      "▁os": 518,
      "▁political": 519,
      "▁satisf": 520,
      "▁687": 521,
      "▁18": 522,
      "▁oneself": 523,
      "z": 524,
      "▁1584": 525,
      "▁bu": 526,
      "▁dest": 527,
      "▁legs": 528,
      "▁british": 529,
      "▁single": 530,
      "▁orange": 531,
      "▁innov": 532,
      "▁seen": 533,
      "▁root": 534,
      "▁concern": 535,
      "▁6": 536,
      "}": 537,
      "▁perdu": 538,
      "iter": 539,
      "▁20,000": 540,
      "▁mult": 541,
      "▁encab": 542,
      "▁fifty": 543,
      "/10": 544,
      "▁numbers": 545,
      "oring": 546,
      "ips": 547,
      "▁376": 548,
      "ounds": 549,
      "it": 550,
      "▁floor": 551,
      "innati": 552,
      "▁800.713.8600": 553,
      "▁indo": 554,
      "▁technologies": 555,
      "▁mostly": 556,
      "▁zoo": 557,
      "ised": 558,
      "zz": 559,
      "空": 560,
      "▁713-646-3393": 561,
      "▁01/12/2001": 562,
      "▁appropri": 563,
      "iat": 564,
      "819602175": 565,
      "▁greek": 566,
      "▁instit": 567,
      "tto": 568,
      "▁somehow": 569,
      "▁h": 570,
      "▁505": 571,
      "he": 572,
      "▁416-865-3": 573,
      "iers": 574,
      "icial": 575,
      "▁hors": 576,
      "▁177": 577,
      "▁bud": 578,
      "▁orient": 579,
      "▁sophie": 580,
      "▁dey": 581,
      "lo": 582,
      "▁pip": 583,
      "▁been": 584,
      "▁gross": 585,
      "▁ga": 586,
      "▁danger": 587,
      "tain": 588,
      "▁wiggle": 589,
      "▁269": 590,
      "▁ther": 591,
      "ced": 592,
      "cement": 593,
      "▁impossible": 594,
      "▁1871": 595,
      "ids": 596,
      "▁==============================================================================": 597,
      "oint": 598,
      "▁today": 599,
      "▁lady": 600,
      "▁subsequ": 601,
      "▁entirely": 602,
      "▁innovation": 603,
      "▁1835": 604,
      "▁tra": 605,
      "▁amazing": 606,
      "▁vogelaviatiolap": 607,
      "▁cloth": 608,
      "▁sector": 609,
      "▁107": 610,
      ",": 611,
      "▁municip": 612,
      "▁course": 613,
      "▁private": 614,
      "▁stuff": 615,
      "▁watched": 616,
      "▁deal": 617,
      "▁alread": 618,
      "▁hundreds": 619,
      "▁recording": 620,
      "▁cruise": 621,
      "▁explore": 622,
      "ism": 623,
      "▁print": 624,
      "▁ens": 625,
      "ones": 626,
      "▁giving": 627,
      "▁11/7/08": 628,
      "▁often": 629,
      ":39": 630,
      "▁09/15": 631,
      "▁side": 632,
      "▁band": 633,
      "ically": 634,
      "▁health": 635,
      "▁magic": 636,
      "▁pill": 637,
      "▁____________________________________________________________": 638,
      "▁khins": 639,
      "▁proc": 640,
      "łodz": 641,
      "▁enemy": 642,
      "▁la": 643,
      "▁345": 644,
      "▁already": 645,
      "▁creat": 646,
      "▁engine": 647,
      "9933": 648,
      "▁dangerous": 649,
      "▁colour": 650,
      "清": 651,
      "▁fund": 652,
      "▁15": 653,
      "▁coat": 654,
      "▁mo": 655,
      "▁trick": 656,
      "bit": 657,
      "▁assoc": 658,
      "▁”": 659,
      "▁taxi": 660,
      "▁1890": 661,
      "▁snake": 662,
      "▁fre": 663,
      "▁fold": 664,
      "▁increase": 665,
      "ily": 666,
      "ames": 667,
      "▁cro": 668,
      "▁doll": 669,
      "▁investig": 670,
      "▁immed": 671,
      "▁0000108806": 672,
      "▁concent": 673,
      "▁un": 674,
      "▁traveling": 675,
      "▁posted": 676,
      "▁jer": 677,
      "alys": 678,
      "▁dol": 679,
      "φ": 680,
      "un": 681,
      "▁sk": 682,
      "▁dress": 683,
      "▁uses": 684,
      "▁juice": 685,
      "u": 686,
      "▁7484": 687,
      "▁termin": 688,
      "▁henry": 689,
      "▁econom": 690,
      "▁twice": 691,
      "▁disappoint": 692,
      "▁orig": 693,
      "▁restaur": 694,
      "▁professional": 695,
      "▁element": 696,
      "▁comments": 697,
      "▁2021": 698,
      "▁.3": 699,
      "▁425-415-": 700,
      "▁1830": 701,
      "▁500": 702,
      "▁temper": 703,
      "▁count": 704,
      "▁muscles": 705,
      "▁ships": 706,
      "▁832.676": 707,
      "▁dep": 708,
      "▁conv": 709,
      "▁1610": 710,
      "▁email": 711,
      "▁bub": 712,
      "▁potential": 713,
      "▁twenty-two": 714,
      "▁pleas": 715,
      "▁seventy": 716,
      "▁appeal": 717,
      "▁booked": 718,
      "▁neither": 719,
      "▁03/27/2001": 720,
      "▁vod": 721,
      "▁math": 722,
      "▁track": 723,
      "▁real": 724,
      "eech": 725,
      "▁blanket": 726,
      "▁want": 727,
      "▁scient": 728,
      "▁00": 729,
      "▁command": 730,
      "▁02/13/2001": 731,
      "▁war": 732,
      ".com/": 733,
      "▁let": 734,
      "▁rock": 735,
      "▁ur": 736,
      "▁4:50": 737,
      "▁silver": 738,
      "&": 739,
      "▁behav": 740,
      "▁secur": 741,
      "no": 742,
      "▁sub": 743,
      "▁worked": 744,
      "15": 745,
      "▁646": 746,
      "▁machine": 747,
      "▁detail": 748,
      "▁129": 749,
      "▁laden": 750,
      "sm": 751,
      "▁;)": 752,
      "unic": 753,
      "▁you": 754,
      "ois": 755,
      "▁magazine": 756,
      "▁activities": 757,
      "/26/2000": 758,
      ":52": 759,
      "▁=": 760,
      "ru": 761,
      "rol": 762,
      "▁illusions": 763,
      "stand": 764,
      "▁remains": 765,
      "p": 766,
      "▁dri": 767,
      "▁after": 768,
      "▁world": 769,
      "▁....................": 770,
      "▁217": 771,
      "▁rule": 772,
      "▁changed": 773,
      "iance": 774,
      ":20": 775,
      "▁star": 776,
      "▁product": 777,
      "▁valid": 778,
      "▁presence": 779,
      "uring": 780,
      "bs": 781,
      "▁(a)": 782,
      "▁instance": 783,
      "▁eu": 784,
      "ending": 785,
      "▁edu": 786,
      "atives": 787,
      "▁select": 788,
      "▁high": 789,
      "d2": 790,
      "▁prop": 791,
      "▁passing": 792,
      "▁big": 793,
      "min": 794,
      "ian": 795,
      "hin": 796,
      "▁expect": 797,
      "▁awesome": 798,
      "▁advice": 799,
      "▁approach": 800,
      ".8": 801,
      "▁found": 802,
      "▁million": 803,
      "▁themselves": 804,
      "▁1989": 805,
      "▁1975": 806,
      "▁rates": 807,
      "▁islands": 808,
      "▁|": 809,
      "▁rom": 810,
      "▁ago": 811,
      "▁produc": 812,
      "▁enfor": 813,
      "▁sufficient": 814,
      "▁clean": 815,
      "▁accord": 816,
      "▁ninety-n": 817,
      "▁----------------------------------------------------------------------": 818,
      "▁click": 819,
      "ondon": 820,
      "▁chall": 821,
      "ł": 822,
      "▁water": 823,
      "▁screen": 824,
      "berry": 825,
      "▁vide": 826,
      "▁discount": 827,
      "▁scary": 828,
      "▁within": 829,
      "sey": 830,
      "▁fi": 831,
      "inny": 832,
      "uate": 833,
      "3098": 834,
      "▁delivery": 835,
      "ians": 836,
      "▁201": 837,
      "▁cla": 838,
      "▁163": 839,
      "▁poo": 840,
      "▁spring": 841,
      "▁466": 842,
      "▁09/15/99": 843,
      "h-r": 844,
      "▁spin": 845,
      "▁dose": 846,
      "▁mer": 847,
      "▁blank": 848,
      "▁constantly": 849,
      "ay": 850,
      "▁journ": 851,
      "eld": 852,
      "▁loc": 853,
      "--------------------------------------------": 854,
      "ο": 855,
      "ici": 856,
      "▁com": 857,
      "viat": 858,
      "▁components": 859,
      "eda": 860,
      "under": 861,
      "▁south": 862,
      "▁rapidly": 863,
      "oma": 864,
      "▁brows": 865,
      "▁pas": 866,
      "ym": 867,
      "▁til": 868,
      "▁gone": 869,
      "▁countries": 870,
      "▁sty": 871,
      "▁purple": 872,
      "▁continental": 873,
      "▁adm": 874,
      "▁whose": 875,
      "▁89": 876,
      "--": 877,
      "2-0": 878,
      "▁gym": 879,
      "▁=---": 880,
      "▁receiving": 881,
      "ε": 882,
      "▁gri": 883,
      "▁tiger": 884,
      "ern": 885,
      "▁glass": 886,
      "ters": 887,
      "▁97": 888,
      ".ur": 889,
      "▁studies": 890,
      "▁minimum": 891,
      "por": 892,
      "▁literature": 893,
      "▁dance": 894,
      "▁legisl": 895,
      "▁planning": 896,
      "zen": 897,
      "▁houses": 898,
      "▁197": 899,
      "▁ready": 900,
      "▁vol": 901,
      "▁got": 902,
      "▁nearly": 903,
      "▁08/0": 904,
      "ev": 905,
      "▁who's": 906,
      "oulder": 907,
      "▁ev": 908,
      "▁waited": 909,
      "▁saddam": 910,
      "▁eng": 911,
      "▁weak": 912,
      "os": 913,
      "arts": 914,
      "cel": 915,
      "iod": 916,
      "▁noteboo": 917,
      "▁chief": 918,
      "ate": 919,
      "▁pro": 920,
      "/1": 921,
      "▁request": 922,
      "▁quino": 923,
      "ne": 924,
      "ros": 925,
      "▁fa": 926,
      "▁weasley": 927,
      ".61": 928,
      "▁unable": 929,
      "▁woman": 930,
      "sc": 931,
      "▁achie": 932,
      "▁tem": 933,
      "▁unf": 934,
      "claim": 935,
      "▁completed": 936,
      "ek": 937,
      "▁1910": 938,
      "iders": 939,
      "▁281-518": 940,
      "▁medic": 941,
      "▁wondering": 942,
      "8196021": 943,
      "▁killed": 944,
      "▁argent": 945,
      "▁failure": 946,
      "▁beauty": 947,
      "▁hang": 948,
      "ples": 949,
      "▁`": 950,
      "5": 951,
      "▁dancing": 952,
      "▁past": 953,
      "▁shar": 954,
      "▁perman": 955,
      "tern": 956,
      "▁lick": 957,
      "▁disney": 958,
      "▁35": 959,
      "▁1145": 960,
      "ring": 961,
      "▁flo": 962,
      "▁important": 963,
      "doc": 964,
      "▁ang": 965,
      "▁symbol": 966,
      "▁ancient": 967,
      "▁wake": 968,
      "▁nat": 969,
      "▁13011": 970,
      "▁spec": 971,
      "▁staff": 972,
      "ors": 973,
      "▁generally": 974,
      "▁bulb": 975,
      "▁01:09": 976,
      "▁refer": 977,
      "▁atmos": 978,
      "▁whatever": 979,
      ":21": 980,
      "umble": 981,
      "▁swed": 982,
      "▁_________________________________": 983,
      "46": 984,
      "▁doing": 985,
      "▁arms": 986,
      "66": 987,
      "▁lip": 988,
      "▁alive": 989,
      "▁takes": 990,
      "re": 991,
      "ash": 992,
      "▁oct": 993,
      "cceed": 994,
      "▁rid": 995,
      "▁mental": 996,
      "▁place": 997,
      "▁cathol": 998,
      "▁07": 999,
      "▁upper": 1000,
      "▁4.9": 1001,
      "▁billion": 1002,
      ":32": 1003,
      "/2005": 1004,
      "▁scientific": 1005,
      "▁04:28": 1006,
      "▁television": 1007,
      "ton": 1008,
      "ene": 1009,
      "▁firm": 1010,
      "art": 1011,
      "▁teeth": 1012,
      "▁wh": 1013,
      "▁afric": 1014,
      "▁08/16": 1015,
      "▁johnson": 1016,
      "▁telephone": 1017,
      "den": 1018,
      "lin": 1019,
      "▁assemb": 1020,
      "▁cats": 1021,
      "/200": 1022,
      "▁shut": 1023,
      "▁discussion": 1024,
      "▁pockets": 1025,
      "ages": 1026,
      "▁models": 1027,
      "▁asking": 1028,
      "-27": 1029,
      "ogel": 1030,
      "▁cookies": 1031,
      "▁ca": 1032,
      "▁regular": 1033,
      "▁hide": 1034,
      "▁spirit": 1035,
      "▁pron": 1036,
      "▁som": 1037,
      "izes": 1038,
      "山": 1039,
      "▁345-9945": 1040,
      "▁solution": 1041,
      "▁mexic": 1042,
      "▁sta": 1043,
      "ibilities": 1044,
      "▁0.00": 1045,
      "▁test": 1046,
      "++": 1047,
      "▁under": 1048,
      "▁dram": 1049,
      "▁theat": 1050,
      "▁implementing": 1051,
      "▁rob": 1052,
      "▁nmemdrft8-7": 1053,
      "▁quant": 1054,
      "▁rental": 1055,
      "▁plate": 1056,
      ":15": 1057,
      "▁windows": 1058,
      "▁clothing": 1059,
      "▁holt": 1060,
      "town": 1061,
      "▁files": 1062,
      "▁281-435-0295": 1063,
      "%": 1064,
      "ver": 1065,
      "ye": 1066,
      "▁01": 1067,
      "▁female": 1068,
      "fer": 1069,
      "ender": 1070,
      "▁archit": 1071,
      "▁n'": 1072,
      "▁defin": 1073,
      "▁me": 1074,
      "▁id": 1075,
      "▁alloc": 1076,
      "▁scene": 1077,
      "▁ding": 1078,
      "▁waters": 1079,
      "aid": 1080,
      "▁twent": 1081,
      "▁leon": 1082,
      "ted": 1083,
      "▁russ": 1084,
      "▁detroit": 1085,
      "two": 1086,
      "▁relatively": 1087,
      "▁programme": 1088,
      "▁indianapolis": 1089,
      "▁ny": 1090,
      "93": 1091,
      "▁particular": 1092,
      "85": 1093,
      "▁dh": 1094,
      "▁wide": 1095,
      "▁reported": 1096,
      "▁stop": 1097,
      "▁missed": 1098,
      "ulous": 1099,
      "▁extra": 1100,
      "▁suggest": 1101,
      "▁uhhuh": 1102,
      "▁8:15": 1103,
      "▁expression": 1104,
      "▁southern": 1105,
      "▁such": 1106,
      "▁sweater": 1107,
      "▁lives": 1108,
      "▁mother": 1109,
      "▁itself": 1110,
      "▁still": 1111,
      "▁bear": 1112,
      "▁var": 1113,
      "▁concepts": 1114,
      "▁alt": 1115,
      "▁yourself": 1116,
      "▁104": 1117,
      "atures": 1118,
      "▁parliament": 1119,
      "ield": 1120,
      "enda": 1121,
      "▁besides": 1122,
      "▁scenes": 1123,
      "ka": 1124,
      "▁vote": 1125,
      "▁shopping": 1126,
      "▁meeting": 1127,
      "▁suicide": 1128,
      "-------": 1129,
      "▁unh": 1130,
      "▁charl": 1131,
      "▁youtube": 1132,
      "▁eval": 1133,
      "9/2001": 1134,
      "▁lots": 1135,
      "▁from": 1136,
      "-r": 1137,
      "▁jews": 1138,
      "▁words": 1139,
      "▁seat": 1140,
      "▁remembered": 1141,
      "▁gorio": 1142,
      "▁bill": 1143,
      "▁fir": 1144,
      "▁eleven": 1145,
      "▁thanks": 1146,
      "roy": 1147,
      "▁1967": 1148,
      "ck": 1149,
      "ach": 1150,
      "ust": 1151,
      "▁coup": 1152,
      "▁400": 1153,
      "▁photograph": 1154,
      "▁provide": 1155,
      "▁burn": 1156,
      "▁cinc": 1157,
      "▁1205": 1158,
      "▁democracy": 1159,
      "▁funct": 1160,
      "ected": 1161,
      "▁10:34": 1162,
      "ibald": 1163,
      "▁pa": 1164,
      "▁160": 1165,
      "▁feel": 1166,
      "▁feet": 1167,
      "▁generation": 1168,
      "▁sy": 1169,
      "ervation": 1170,
      "elled": 1171,
      "▁1614": 1172,
      "ct": 1173,
      "▁alcal": 1174,
      "▁cooking": 1175,
      "▁location": 1176,
      "0010": 1177,
      "au": 1178,
      "▁fur": 1179,
      "▁dism": 1180,
      "▁nab": 1181,
      "ese": 1182,
      "uced": 1183,
      "▁therefore": 1184,
      "ron": 1185,
      "▁mod": 1186,
      "▁pittsburgh": 1187,
      "▁angel": 1188,
      "✉": 1189,
      "-46": 1190,
      "▁get": 1191,
      "ʒ": 1192,
      "oll": 1193,
      "▁hole": 1194,
      "▁‘": 1195,
      "▁store": 1196,
      "0s": 1197,
      "▁anywhere": 1198,
      "▁_________________________________________________": 1199,
      "▁flavor": 1200,
      "▁yer": 1201,
      "▁incorpor": 1202,
      "▁method": 1203,
      "▁warhol": 1204,
      "ival": 1205,
      "▁dogs": 1206,
      "▁toget": 1207,
      "▁93": 1208,
      "▁circ": 1209,
      "▁cream": 1210,
      "enc": 1211,
      "▁pir": 1212,
      "▁s": 1213,
      "▁pay": 1214,
      "▁domestic": 1215,
      "und": 1216,
      "▁dry": 1217,
      "▁search": 1218,
      "▁washing": 1219,
      "acter": 1220,
      "==": 1221,
      "ch": 1222,
      "▁rese": 1223,
      "▁720": 1224,
      "ω": 1225,
      "▁lower": 1226,
      "▁released": 1227,
      "▁connected": 1228,
      "▁1822": 1229,
      "▁2.2": 1230,
      "▁weapon": 1231,
      "▁nation": 1232,
      "奈": 1233,
      "▁jul": 1234,
      "ulation": 1235,
      "▁dem": 1236,
      "iction": 1237,
      "▁5/1": 1238,
      "▁tiny": 1239,
      "stances": 1240,
      "▁jud": 1241,
      "▁20": 1242,
      "▁1.6": 1243,
      "▁card": 1244,
      "▁10:25": 1245,
      "ounts": 1246,
      "gets": 1247,
      "▁explan": 1248,
      "wich": 1249,
      "▁ro": 1250,
      "▁1754": 1251,
      "▁familiar": 1252,
      "▁minus": 1253,
      "▁emerging": 1254,
      "1/2001": 1255,
      "▁narr": 1256,
      "▁xv": 1257,
      "-79": 1258,
      "▁wel": 1259,
      "▁pros": 1260,
      "▁talking": 1261,
      "▁575": 1262,
      "ato": 1263,
      "▁remain": 1264,
      "▁makes": 1265,
      "▁sole": 1266,
      ".p": 1267,
      "▁multip": 1268,
      "▁1832": 1269,
      "▁mathem": 1270,
      "qu": 1271,
      "▁nutrition": 1272,
      "1": 1273,
      "▁isl": 1274,
      "▁walls": 1275,
      "▁trading": 1276,
      "ext": 1277,
      "eling": 1278,
      "ock": 1279,
      "▁launch": 1280,
      "!!!": 1281,
      "▁appearance": 1282,
      "gle": 1283,
      "▁hav": 1284,
      "▁chann": 1285,
      "▁forth": 1286,
      "▁ability": 1287,
      "▁uncle": 1288,
      "▁collected": 1289,
      "og": 1290,
      "▁nail": 1291,
      "▁speaking": 1292,
      "▁summer": 1293,
      "▁apartment": 1294,
      "▁desc": 1295,
      "▁exact": 1296,
      "▁carried": 1297,
      "af": 1298,
      "▁grew": 1299,
      "▁healthy": 1300,
      "▁commercial": 1301,
      "antic": 1302,
      "▁74419": 1303,
      "▁ten": 1304,
      "▁sue": 1305,
      "▁elimin": 1306,
      "▁capt": 1307,
      "▁chem": 1308,
      "▁03/08/2000": 1309,
      "ger": 1310,
      "▁propos": 1311,
      "▁swe": 1312,
      "era": 1313,
      "▁uma": 1314,
      "▁disease": 1315,
      "▁6/1": 1316,
      "▁nmemdrft8-7-01": 1317,
      "▁ants": 1318,
      "▁bedroom": 1319,
      "▁formica": 1320,
      "algamiento": 1321,
      "▁hos": 1322,
      "▁cor": 1323,
      "▁see": 1324,
      "▁neighborhood": 1325,
      "@enron.com": 1326,
      "▁ben": 1327,
      "▁overall": 1328,
      "ransredes": 1329,
      "dred": 1330,
      "▁awoh": 1331,
      "▁visa": 1332,
      "/0": 1333,
      "74": 1334,
      "west": 1335,
      "▁10/26/2000": 1336,
      "▁.2": 1337,
      "▁ai": 1338,
      "▁container": 1339,
      "▁pri": 1340,
      "}*{": 1341,
      "son": 1342,
      "42": 1343,
      "▁option": 1344,
      "▁industrial": 1345,
      "▁response": 1346,
      "-01": 1347,
      ":03": 1348,
      "▁located": 1349,
      "ration": 1350,
      "dam": 1351,
      "▁bom": 1352,
      "▁compreh": 1353,
      "▁loves": 1354,
      "▁2.6": 1355,
      "rees": 1356,
      "▁6400": 1357,
      "pre": 1358,
      "▁teaching": 1359,
      "▁dad": 1360,
      "▁ide": 1361,
      "▁spent": 1362,
      "▁public": 1363,
      "ills": 1364,
      "▁focus": 1365,
      "▁underneath": 1366,
      "▁associate": 1367,
      ".123": 1368,
      "▁eff": 1369,
      "▁639": 1370,
      "▁reasons": 1371,
      "▁seek": 1372,
      "e": 1373,
      "▁63": 1374,
      "ud": 1375,
      "▁towns": 1376,
      "▁190": 1377,
      "-ked": 1378,
      "▁luck": 1379,
      "▁1875": 1380,
      "ark": 1381,
      "▁dining": 1382,
      "▁trouble": 1383,
      "▁section": 1384,
      "▁exce": 1385,
      "▁jordan": 1386,
      "▁934": 1387,
      "uff": 1388,
      "▁secretary": 1389,
      "▁---->===": 1390,
      "▁510-642": 1391,
      "-f": 1392,
      "▁^_^": 1393,
      "fare": 1394,
      "▁frag": 1395,
      "-780": 1396,
      "▁temperature": 1397,
      "▁atl": 1398,
      "▁revised": 1399,
      "▁alcalde": 1400,
      "▁collabor": 1401,
      "▁properties": 1402,
      "▁343": 1403,
      "▁government": 1404,
      "▁military": 1405,
      "▁adv": 1406,
      "ano": 1407,
      "▁corp": 1408,
      "▁while": 1409,
      "▁505-625": 1410,
      "/4": 1411,
      "▁her": 1412,
      "­": 1413,
      "▁ones": 1414,
      "bank": 1415,
      "/26": 1416,
      "▁ship": 1417,
      "oa": 1418,
      "▁metro": 1419,
      "▁thick": 1420,
      "▁approval": 1421,
      "▁committ": 1422,
      "dden": 1423,
      "ature": 1424,
      "▁...............": 1425,
      ":42": 1426,
      "irt": 1427,
      "▁care": 1428,
      "▁hit": 1429,
      "▁applic": 1430,
      "▁6:00": 1431,
      ".916.718": 1432,
      "图": 1433,
      "ires": 1434,
      "▁cases": 1435,
      "▁wee": 1436,
      "rel": 1437,
      "▁insp": 1438,
      "▁bike": 1439,
      "▁p.s.": 1440,
      "▁organ": 1441,
      "▁camera": 1442,
      "▁cereal": 1443,
      "ihow": 1444,
      "irs": 1445,
      "▁conn": 1446,
      "ɔ": 1447,
      "▁n't": 1448,
      "▁banks": 1449,
      "▁300": 1450,
      "▁1993": 1451,
      "▁item": 1452,
      "▁ena": 1453,
      "+": 1454,
      "ober": 1455,
      "▁repres": 1456,
      "▁chemical": 1457,
      "▁magn": 1458,
      "▁reject": 1459,
      "▁sus": 1460,
      "▁h-0": 1461,
      "▁subject": 1462,
      "▁laugh": 1463,
      "▁sup": 1464,
      "▁estim": 1465,
      "-625": 1466,
      "▁fighting": 1467,
      "▁ge": 1468,
      "82": 1469,
      "ously": 1470,
      "▁colleag": 1471,
      "rench": 1472,
      "▁killing": 1473,
      "ing": 1474,
      "▁blackl": 1475,
      "▁oper": 1476,
      "eau": 1477,
      "▁em": 1478,
      "fully": 1479,
      "aged": 1480,
      "78": 1481,
      "339": 1482,
      "▁possess": 1483,
      "▁twa": 1484,
      "eable": 1485,
      "▁groups": 1486,
      "▁**********": 1487,
      "▁1787": 1488,
      "x": 1489,
      "▁friend": 1490,
      "ace": 1491,
      "▁thinking": 1492,
      "▁student": 1493,
      "▁living": 1494,
      "▁andaman": 1495,
      "▁recorder": 1496,
      "▁tough": 1497,
      "gl": 1498,
      "▁those": 1499,
      "tr": 1500,
      "▁sett": 1501,
      "ound": 1502,
      "▁rac": 1503,
      "going": 1504,
      "▁frequ": 1505,
      "imin": 1506,
      "▁łodz": 1507,
      "▁**": 1508,
      "red": 1509,
      "▁bell": 1510,
      "ager": 1511,
      "inking": 1512,
      "▁twenty-four": 1513,
      "▁states": 1514,
      "ity": 1515,
      "mos": 1516,
      "▁mummy": 1517,
      "ession": 1518,
      "▁====================================================": 1519,
      "▁longer": 1520,
      "▁oak": 1521,
      ".d": 1522,
      "j": 1523,
      "▁risk": 1524,
      "▁ac": 1525,
      "▁colors": 1526,
      "▁81": 1527,
      "▁2003": 1528,
      "▁jewish": 1529,
      "▁princip": 1530,
      "▁prepared": 1531,
      "▁lighting": 1532,
      "▁rol": 1533,
      "row": 1534,
      "-12": 1535,
      "0/2000": 1536,
      "▁foods": 1537,
      "▁famous": 1538,
      "ur": 1539,
      "enge": 1540,
      "▁working": 1541,
      "▁chines": 1542,
      "▁judge": 1543,
      "▁fac": 1544,
      "▁kay": 1545,
      "▁bulld": 1546,
      "▁guarantee": 1547,
      "▁st": 1548,
      "▁operation": 1549,
      "ored": 1550,
      "▁646-84": 1551,
      "▁election": 1552,
      "▁counterparty": 1553,
      "▁401": 1554,
      "▁trip": 1555,
      "▁testing": 1556,
      "▁kinds": 1557,
      "▁fl": 1558,
      "▁chocolate": 1559,
      "▁player": 1560,
      "▁everywhere": 1561,
      "▁claim": 1562,
      "▁init": 1563,
      "▁treated": 1564,
      "abor": 1565,
      "▁arch": 1566,
      "▁ep": 1567,
      "▁milwaukee": 1568,
      "▁material": 1569,
      "▁sport": 1570,
      "▁horses": 1571,
      "▁-----------------------------------------------------------------------": 1572,
      "▁928": 1573,
      "▁till": 1574,
      "▁recru": 1575,
      "09": 1576,
      "▁better": 1577,
      "▁mathematics": 1578,
      "▁dans": 1579,
      "▁protection": 1580,
      "▁right": 1581,
      "▁sh": 1582,
      "-98": 1583,
      "▁sust": 1584,
      "▁hamas": 1585,
      "#": 1586,
      "▁hum": 1587,
      "ashion": 1588,
      "▁loved": 1589,
      "▁peanut": 1590,
      "▁pakistan": 1591,
      "▁stretch": 1592,
      "▁pages": 1593,
      "▁finding": 1594,
      "self": 1595,
      "▁boom": 1596,
      "ands": 1597,
      "fin": 1598,
      "acy": 1599,
      "▁settle": 1600,
      "▁complet": 1601,
      "▁deb": 1602,
      "▁leave": 1603,
      "▁fire": 1604,
      "▁expectations": 1605,
      "▁phen": 1606,
      "▁fight": 1607,
      "▁mistake": 1608,
      "▁boot": 1609,
      "▁title": 1610,
      "ax": 1611,
      "▁environment": 1612,
      "65-3": 1613,
      "▁resour": 1614,
      "▁bottle": 1615,
      "▁rare": 1616,
      "▁tables": 1617,
      "bles": 1618,
      "erg": 1619,
      "ii": 1620,
      "▁offer": 1621,
      "▁ballet": 1622,
      "▁birds": 1623,
      "▁fal": 1624,
      "▁matt": 1625,
      "▁drove": 1626,
      "▁huma": 1627,
      "▁'": 1628,
      "rib": 1629,
      "▁self": 1630,
      "eared": 1631,
      "▁regional": 1632,
      "▁destroy": 1633,
      "uel": 1634,
      "▁smooth": 1635,
      "▁astride": 1636,
      "▁repl": 1637,
      "▁dust": 1638,
      "ford": 1639,
      "/13/2001": 1640,
      "▁definitely": 1641,
      "▁black": 1642,
      "▁sol": 1643,
      "▁off": 1644,
      "▁ban": 1645,
      "veria": 1646,
      "▁ag": 1647,
      "ster": 1648,
      "zai": 1649,
      "▁keeping": 1650,
      "▁hours": 1651,
      "ital": 1652,
      "omer": 1653,
      "▁sky": 1654,
      "▁dark": 1655,
      "▁austral": 1656,
      "▁deriv": 1657,
      "▁target": 1658,
      "▁600": 1659,
      "▁celebr": 1660,
      "ogether": 1661,
      "▁2004": 1662,
      "▁need": 1663,
      "▁vi": 1664,
      "▁other": 1665,
      "30": 1666,
      "inter": 1667,
      "▁covered": 1668,
      "▁mixed": 1669,
      "▁phr": 1670,
      "▁blog": 1671,
      "▁imm": 1672,
      "▁cab": 1673,
      "▁36": 1674,
      "▁thus": 1675,
      "▁scen": 1676,
      "▁requ": 1677,
      "▁older": 1678,
      "//": 1679,
      "8549": 1680,
      "▁1836": 1681,
      "▁fear": 1682,
      "▁kam": 1683,
      "**********************************": 1684,
      "▁connecting": 1685,
      "▁too": 1686,
      ":35": 1687,
      "▁instructions": 1688,
      "▁max": 1689,
      "▁spos": 1690,
      "al": 1691,
      "▁✉": 1692,
      "▁7:30": 1693,
      "▁21,000": 1694,
      "▁accurate": 1695,
      "▁05/25/2001": 1696,
      "▁buildings": 1697,
      "ologies": 1698,
      "▁americ": 1699,
      "▁slow": 1700,
      "▁decline": 1701,
      "▁1848": 1702,
      "▁meh-risk": 1703,
      "▁rain": 1704,
      "822": 1705,
      "▁10/20/2000": 1706,
      "▁string": 1707,
      "▁statement": 1708,
      "ript": 1709,
      "aked": 1710,
      "▁smoke": 1711,
      "here": 1712,
      "▁bob": 1713,
      ",9": 1714,
      "▁hate": 1715,
      "action": 1716,
      "erre": 1717,
      "ab": 1718,
      "▁~": 1719,
      "▁case": 1720,
      "▁alliance": 1721,
      "sters": 1722,
      "ued": 1723,
      "▁round": 1724,
      "▁2:25": 1725,
      "▁language": 1726,
      "▁products": 1727,
      "▁super": 1728,
      "琴": 1729,
      ":01": 1730,
      "▁european": 1731,
      "▁gold": 1732,
      "ush": 1733,
      "▁total": 1734,
      "▁fares": 1735,
      "veland": 1736,
      "ql": 1737,
      "▁intr": 1738,
      "cell": 1739,
      "▁tip": 1740,
      "▁invest": 1741,
      "▁tun": 1742,
      "▁dollar": 1743,
      "▁then": 1744,
      "13.86": 1745,
      "▁incred": 1746,
      "-#6": 1747,
      "▁assistance": 1748,
      "▁1616": 1749,
      "▁played": 1750,
      "▁1951": 1751,
      "▁lem": 1752,
      "/h": 1753,
      "ning": 1754,
      "▁passed": 1755,
      "que": 1756,
      "▁shared": 1757,
      "▁foot": 1758,
      "▁jam": 1759,
      "▁drag": 1760,
      "allow": 1761,
      "ular": 1762,
      "60": 1763,
      "▁pool": 1764,
      "ilar": 1765,
      "▁considerable": 1766,
      "▁pizza": 1767,
      "ride": 1768,
      "▁pleasant": 1769,
      "▁tor": 1770,
      "?": 1771,
      "▁emergency": 1772,
      "eping": 1773,
      "▁07/14/2000": 1774,
      "▁written": 1775,
      "▁burst": 1776,
      "▁wearing": 1777,
      "th": 1778,
      "8-7": 1779,
      "▁american": 1780,
      "▁i": 1781,
      "bi": 1782,
      "izations": 1783,
      "===": 1784,
      "ibly": 1785,
      "eal": 1786,
      "▁lear": 1787,
      "ransred": 1788,
      "kana": 1789,
      "▁variety": 1790,
      "▁equal": 1791,
      "_": 1792,
      "▁kar": 1793,
      "▁cock": 1794,
      "ency": 1795,
      "▁dish": 1796,
      ",0": 1797,
      "▁flat": 1798,
      "▁young": 1799,
      "▁boo": 1800,
      "▁cand": 1801,
      "ounded": 1802,
      "bre": 1803,
      "▁tam": 1804,
      "▁session": 1805,
      "▁conditions": 1806,
      "ants": 1807,
      "▁11,000": 1808,
      "▁rack": 1809,
      "▁o'": 1810,
      "================================": 1811,
      "▁hund": 1812,
      "▁frozen": 1813,
      "▁every": 1814,
      "▁ano": 1815,
      "▁whether": 1816,
      "744": 1817,
      "15-": 1818,
      "▁pac": 1819,
      "▁abs": 1820,
      "▁cry": 1821,
      ":38": 1822,
      "▁1504": 1823,
      "estic": 1824,
      "▁christian": 1825,
      "▁gro": 1826,
      "▁merely": 1827,
      "▁conference": 1828,
      "▁since": 1829,
      "iated": 1830,
      "▁otherwise": 1831,
      "sa": 1832,
      "▁adult": 1833,
      "▁weekend": 1834,
      "▁ladder": 1835,
      "▁positions": 1836,
      "ine": 1837,
      "▁week": 1838,
      "▁perm": 1839,
      "▁44": 1840,
      "ι": 1841,
      "\"": 1842,
      "▁sixteen": 1843,
      "▁supreme": 1844,
      "▁ham": 1845,
      "ht": 1846,
      "▁point": 1847,
      "▁m": 1848,
      "onn": 1849,
      "▁england": 1850,
      "▁drug": 1851,
      "▁1505": 1852,
      "▁wednesday": 1853,
      "▁nonstop": 1854,
      "▁administration": 1855,
      "▁3.5": 1856,
      "▁show": 1857,
      "ɑ": 1858,
      "▁thought": 1859,
      "▁sheet": 1860,
      "▁ig": 1861,
      "▁ve": 1862,
      ",000": 1863,
      "▁01/25/2001": 1864,
      "▁financ": 1865,
      "▁power": 1866,
      "▁mode": 1867,
      "▁1600": 1868,
      "▁82": 1869,
      "▁fee": 1870,
      "▁mouse": 1871,
      "▁******************************************************************": 1872,
      "▁belly": 1873,
      "▁depends": 1874,
      "▁zawahiri": 1875,
      "▁clay": 1876,
      "▁beauveria": 1877,
      "▁worst": 1878,
      "▁ears": 1879,
      ":46": 1880,
      "lymp": 1881,
      "▁stood": 1882,
      "ves": 1883,
      "▁memory": 1884,
      "▁communications": 1885,
      "静": 1886,
      "▁lank": 1887,
      "ogn": 1888,
      "-3": 1889,
      "▁opt": 1890,
      "ount": 1891,
      "▁’re": 1892,
      "▁book": 1893,
      "▁ver": 1894,
      "om": 1895,
      "bruary": 1896,
      "72": 1897,
      "▁bin": 1898,
      "▁ordered": 1899,
      "face": 1900,
      "pl": 1901,
      "▁03:3": 1902,
      "rast": 1903,
      "@": 1904,
      "7/2000": 1905,
      "▁necess": 1906,
      "▁sac": 1907,
      "▁territory": 1908,
      "▁anyway": 1909,
      "▁voices": 1910,
      "uc": 1911,
      "▁202.456": 1912,
      "▁tig": 1913,
      "▁dom": 1914,
      "▁pure": 1915,
      ".86": 1916,
      "▁stores": 1917,
      "▁slide": 1918,
      "▁1984": 1919,
      "▁children": 1920,
      "▁sp": 1921,
      "ative": 1922,
      "▁conclud": 1923,
      "▁considering": 1924,
      "ece": 1925,
      "▁switch": 1926,
      "▁experts": 1927,
      "ʁ": 1928,
      "▁aware": 1929,
      "▁calm": 1930,
      "▁11-20-2000": 1931,
      "irts": 1932,
      "▁afraid": 1933,
      "▁iranian": 1934,
      "▁urs": 1935,
      "▁dere": 1936,
      "eless": 1937,
      "▁888": 1938,
      "▁dead": 1939,
      "ieth": 1940,
      "aps": 1941,
      "uth": 1942,
      "ase": 1943,
      "▁tickle": 1944,
      "▁grow": 1945,
      "▁bought": 1946,
      "▁him": 1947,
      "▁skitt": 1948,
      "▁harry": 1949,
      "▁978": 1950,
      "▁month": 1951,
      "▁.....": 1952,
      "iny": 1953,
      "▁applied": 1954,
      "▁1965": 1955,
      "▁least": 1956,
      "▁greet": 1957,
      "▁pin": 1958,
      "▁main": 1959,
      "kn": 1960,
      "n": 1961,
      "▁ped": 1962,
      "ivid": 1963,
      "▁personal": 1964,
      "▁hub": 1965,
      "▁189": 1966,
      "▁!!!": 1967,
      "▁bra": 1968,
      "noon": 1969,
      "olly": 1970,
      "@ect": 1971,
      "▁none": 1972,
      "▁ele": 1973,
      "▁twenty": 1974,
      "▁hidden": 1975,
      "▁iss": 1976,
      "▁baltim": 1977,
      "▁traged": 1978,
      "▁begun": 1979,
      "▁mirror": 1980,
      "acio": 1981,
      "urday": 1982,
      "anc": 1983,
      "------": 1984,
      "stick": 1985,
      "▁sometime": 1986,
      "▁gather": 1987,
      "▁was": 1988,
      "▁director": 1989,
      "▁fork": 1990,
      "▁505-625-8031": 1991,
      "▁cer": 1992,
      "▁forget": 1993,
      "▁1980": 1994,
      "▁democratic": 1995,
      "ag": 1996,
      "▁moment": 1997,
      "▁application": 1998,
      "▁'ve": 1999,
      "▁learning": 2000,
      "mar": 2001,
      "ts": 2002,
      "▁tong": 2003,
      "▁1995": 2004,
      "▁pair": 2005,
      "▁185": 2006,
      "▁cash": 2007,
      "med": 2008,
      "▁smaller": 2009,
      "▁v.": 2010,
      "▁turned": 2011,
      "▁11608": 2012,
      "▁starts": 2013,
      "▁uk": 2014,
      "▁pillow": 2015,
      "▁sept": 2016,
      ".m": 2017,
      "iling": 2018,
      "▁specifically": 2019,
      "▁knife": 2020,
      "ology": 2021,
      "▁420": 2022,
      "▁quick": 2023,
      "▁heard": 2024,
      "▁10/31": 2025,
      "ality": 2026,
      "▁infrast": 2027,
      "▁aer": 2028,
      "▁u.": 2029,
      "▁w3c": 2030,
      "ij": 2031,
      "▁ticket": 2032,
      "▁>----------------------------------------------------------------------------": 2033,
      "▁alberta": 2034,
      "ateg": 2035,
      "▁moon": 2036,
      "▁on": 2037,
      "▁]": 2038,
      "▁cars": 2039,
      "▁michelle": 2040,
      "▁forty": 2041,
      "ged": 2042,
      "▁contract": 2043,
      "▁2005": 2044,
      "▁frame": 2045,
      "▁wrap": 2046,
      "ص": 2047,
      "712": 2048,
      "ivia": 2049,
      "▁incom": 2050,
      "▁totally": 2051,
      "h": 2052,
      "▁emerg": 2053,
      "▁1994": 2054,
      "roit": 2055,
      "▁by": 2056,
      "ping": 2057,
      "▁cross": 2058,
      "▁honey": 2059,
      "▁mis": 2060,
      "▁’ve": 2061,
      "▁mexican": 2062,
      "land": 2063,
      "▁fool": 2064,
      "igration": 2065,
      "▁whom": 2066,
      "▁tv": 2067,
      "▁flood": 2068,
      "▁millions": 2069,
      "ung": 2070,
      "▁2:00": 2071,
      "▁later": 2072,
      "▁worse": 2073,
      "ett": 2074,
      "▁syn": 2075,
      "▁port": 2076,
      "▁time": 2077,
      "▁4_28_00.doc": 2078,
      "▁debate": 2079,
      "▁columb": 2080,
      "▁pr": 2081,
      "2-": 2082,
      "▁carefully": 2083,
      "ind": 2084,
      "▁america": 2085,
      "e.": 2086,
      "????": 2087,
      "▁anth": 2088,
      "▁balance": 2089,
      "▁1954": 2090,
      "▁controls": 2091,
      "▁shop": 2092,
      "▁recip": 2093,
      "▁ad": 2094,
      "idden": 2095,
      "▁ash": 2096,
      "▁cens": 2097,
      "▁20:00": 2098,
      "▁staying": 2099,
      "bha": 2100,
      "▁depart": 2101,
      "▁50000": 2102,
      "k.ur": 2103,
      "▁parents": 2104,
      "▁surv": 2105,
      "▁1991": 2106,
      "▁pittsbur": 2107,
      "▁before": 2108,
      "ased": 2109,
      "▁joined": 2110,
      "▁whi": 2111,
      "▁last": 2112,
      "igator": 2113,
      "c)": 2114,
      "▁unless": 2115,
      "▁ski": 2116,
      "▁standing": 2117,
      "▁1929": 2118,
      "▁wear": 2119,
      "▁tokyo": 2120,
      "…": 2121,
      "▁175": 2122,
      "▁period": 2123,
      "▁interconn": 2124,
      "tip": 2125,
      "ertain": 2126,
      "▁ear": 2127,
      "▁priv": 2128,
      "▁poll": 2129,
      "ess": 2130,
      "▁mor": 2131,
      "▁related": 2132,
      "▁1847": 2133,
      "enix": 2134,
      "zing": 2135,
      "33": 2136,
      "▁7:00": 2137,
      "ril": 2138,
      "▁code": 2139,
      "▁ap": 2140,
      "▁quinoa": 2141,
      "▁progress": 2142,
      "▁free": 2143,
      "▁basic": 2144,
      "▁ph": 2145,
      "▁78": 2146,
      "▁club": 2147,
      "ven": 2148,
      "corn": 2149,
      "▁younger": 2150,
      "ester": 2151,
      "anger": 2152,
      "▁ka": 2153,
      "ape": 2154,
      "*{": 2155,
      "▁65": 2156,
      "▁ninth": 2157,
      "▁experim": 2158,
      "▁stead": 2159,
      "▁japan": 2160,
      "▁4_28": 2161,
      "kins": 2162,
      "▁law": 2163,
      "▁sleep": 2164,
      "004": 2165,
      "▁unfortunately": 2166,
      "▁distort": 2167,
      "▁arab": 2168,
      "▁divers": 2169,
      "▁glad": 2170,
      "--------": 2171,
      "cum": 2172,
      "▁rights": 2173,
      "▁needed": 2174,
      "▁watching": 2175,
      "ably": 2176,
      "ving": 2177,
      "▁accepted": 2178,
      "▁drinking": 2179,
      "co": 2180,
      "▁16": 2181,
      "▁14": 2182,
      "▁sc": 2183,
      "▁kn": 2184,
      "▁candid": 2185,
      "ea": 2186,
      "▁hill": 2187,
      "▁eas": 2188,
      "–": 2189,
      "▁yog": 2190,
      "ville": 2191,
      "▁bottles": 2192,
      ":05": 2193,
      "▁lesson": 2194,
      "48": 2195,
      "▁sight": 2196,
      "▁migr": 2197,
      "▁korea": 2198,
      "▁nose": 2199,
      "▁significant": 2200,
      "oes": 2201,
      "▁tail": 2202,
      "▁b/c": 2203,
      "icago": 2204,
      "ults": 2205,
      "▁ansi-": 2206,
      "wau": 2207,
      "▁fields": 2208,
      "▁02": 2209,
      "▁nam": 2210,
      "▁tac": 2211,
      "▁1880": 2212,
      "imum": 2213,
      "▁italian": 2214,
      "▁corn": 2215,
      "▁rab": 2216,
      "▁comfortable": 2217,
      "▁regime": 2218,
      "▁addiction": 2219,
      "▁mand": 2220,
      "▁bag": 2221,
      "▁mater": 2222,
      "▁373": 2223,
      "▁jew": 2224,
      "uch": 2225,
      "▁eb": 2226,
      "icious": 2227,
      "▁breakfast": 2228,
      "▁regions": 2229,
      "▁agree": 2230,
      "what": 2231,
      "▁in": 2232,
      "lers": 2233,
      "▁1955": 2234,
      "▁stayed": 2235,
      "▁likely": 2236,
      "ost": 2237,
      "▁sunni": 2238,
      "d-#6": 2239,
      "▁j": 2240,
      "▁number": 2241,
      "▁wilt": 2242,
      "ective": 2243,
      "▁meas": 2244,
      "ها": 2245,
      "▁add": 2246,
      "bits": 2247,
      "▁highlight": 2248,
      "akk": 2249,
      "▁returned": 2250,
      "-6": 2251,
      "▁hands": 2252,
      ":11": 2253,
      "▁order": 2254,
      ".2": 2255,
      "▁documents": 2256,
      "▁break": 2257,
      "glo": 2258,
      "▁nin": 2259,
      "▁toward": 2260,
      "▁lawy": 2261,
      "nel": 2262,
      "▁about": 2263,
      "▁californ": 2264,
      "ees": 2265,
      "▁’": 2266,
      "▁usual": 2267,
      "▁update": 2268,
      "▁04:17": 2269,
      "▁ir": 2270,
      "▁p": 2271,
      "ec": 2272,
      "/10/2000": 2273,
      "▁pract": 2274,
      "▁5.6": 2275,
      "eenth": 2276,
      "▁08/15": 2277,
      "▁trav": 2278,
      "▁bound": 2279,
      "▁poor": 2280,
      ".713.86": 2281,
      "▁lu": 2282,
      "▁veg": 2283,
      "▁cond": 2284,
      "▁depend": 2285,
      "▁special": 2286,
      "cil": 2287,
      "▁---------------------------------": 2288,
      "▁trained": 2289,
      "▁nav": 2290,
      "tering": 2291,
      "lae": 2292,
      "▁daniel": 2293,
      "-696": 2294,
      "▁75": 2295,
      "itation": 2296,
      "▁atop": 2297,
      "▁gisb": 2298,
      "▁united": 2299,
      "▁http://www": 2300,
      "▁unles": 2301,
      "▁swimming": 2302,
      "▁11.5": 2303,
      "▁explain": 2304,
      "▁exception": 2305,
      "▁flex": 2306,
      "▁safe": 2307,
      "▁202": 2308,
      "$": 2309,
      "head": 2310,
      "raz": 2311,
      "▁critical": 2312,
      "/2001": 2313,
      "/2000": 2314,
      "▁normally": 2315,
      "▁called": 2316,
      "▁chicken": 2317,
      "▁independent": 2318,
      "▁1.1": 2319,
      "▁s’": 2320,
      "▁opportunity": 2321,
      "▁standards": 2322,
      "▁ours": 2323,
      "▁12,000": 2324,
      "▁1300": 2325,
      "▁indeed": 2326,
      "▁helping": 2327,
      "ening": 2328,
      "/03": 2329,
      "/17/99": 2330,
      "ums": 2331,
      "▁options": 2332,
      "ا": 2333,
      "▁penal": 2334,
      "▁1820": 2335,
      "====": 2336,
      "▁wants": 2337,
      "▁pig": 2338,
      "▁readers": 2339,
      "▁av": 2340,
      "▁wol": 2341,
      "▁o": 2342,
      "▁format": 2343,
      "▁disp": 2344,
      "▁face": 2345,
      "▁:-)": 2346,
      "urn": 2347,
      "▁knowing": 2348,
      "sych": 2349,
      "▁pachom": 2350,
      "▁joint": 2351,
      "ero": 2352,
      "▁job": 2353,
      "alle": 2354,
      "bha-": 2355,
      "▁whereas": 2356,
      "▁going": 2357,
      "ense": 2358,
      "▁brought": 2359,
      "▁continued": 2360,
      "▁11:00": 2361,
      "sl": 2362,
      "▁oz": 2363,
      "▁wand": 2364,
      "▁anyone": 2365,
      "▁facilities": 2366,
      "▁limited": 2367,
      "▁average": 2368,
      "▁ab": 2369,
      "▁mov": 2370,
      "▁48": 2371,
      "▁kill": 2372,
      "▁cit": 2373,
      "▁tit": 2374,
      "▁everybody": 2375,
      "▁russia": 2376,
      "3c": 2377,
      "▁hire": 2378,
      "▁export": 2379,
      "kee": 2380,
      "y@ect": 2381,
      "book": 2382,
      "▁restaurant": 2383,
      "ana": 2384,
      "▁money": 2385,
      "▁jwww": 2386,
      "▁constitu": 2387,
      "▁1974": 2388,
      "▁nandakk": 2389,
      "▁family": 2390,
      "▁01:58": 2391,
      "▁representative": 2392,
      "▁lat": 2393,
      "bow": 2394,
      "1696": 2395,
      "▁nature": 2396,
      "▁during": 2397,
      "ently": 2398,
      "▁doct": 2399,
      "elt": 2400,
      "▁68": 2401,
      "ro": 2402,
      "▁beginning": 2403,
      "▁intellig": 2404,
      "▁10:00": 2405,
      "apes": 2406,
      "▁stre": 2407,
      "▁apprec": 2408,
      "▁california": 2409,
      "▁kitch": 2410,
      "▁cage": 2411,
      "-20-": 2412,
      "▁receive": 2413,
      "▁dam": 2414,
      "▁bunny": 2415,
      "▁april": 2416,
      "ipt": 2417,
      "▁funny": 2418,
      "▁imp": 2419,
      "▁sure": 2420,
      "▁83": 2421,
      "▁ow": 2422,
      "▁4": 2423,
      "▁audit": 2424,
      "▁imper": 2425,
      "▁respons": 2426,
      "▁charlotte": 2427,
      "▁aff": 2428,
      "▁crimin": 2429,
      "▁reach": 2430,
      "▁425": 2431,
      "!!": 2432,
      "▁award": 2433,
      "▁puzzle": 2434,
      "▁!!!!!!!!!!!!!!!": 2435,
      "▁acc": 2436,
      "▁brings": 2437,
      "▁hom": 2438,
      "▁motor": 2439,
      "▁image": 2440,
      "▁1590": 2441,
      "▁pointed": 2442,
      "▁03/28/2001": 2443,
      "▁congr": 2444,
      ".m.": 2445,
      "icy": 2446,
      "▁choo": 2447,
      "|": 2448,
      "ets": 2449,
      "▁size": 2450,
      "▁11:0": 2451,
      "aviatio": 2452,
      "▁assum": 2453,
      "▁minn": 2454,
      "akes": 2455,
      "▁london": 2456,
      "▁cr": 2457,
      "▁upd": 2458,
      "▁arrive": 2459,
      "▁ackn": 2460,
      "▁eleph": 2461,
      "▁advanced": 2462,
      "▁bul": 2463,
      "▁contin": 2464,
      "▁army": 2465,
      "▁door": 2466,
      "▁expand": 2467,
      "uit": 2468,
      "▁baby": 2469,
      "▁host": 2470,
      "rial": 2471,
      "cl": 2472,
      "▁nar": 2473,
      "▁lie": 2474,
      "▁bassiana": 2475,
      "▁teh": 2476,
      "▁cleveland": 2477,
      "▁ku": 2478,
      "ays": 2479,
      "ive": 2480,
      "/8/00": 2481,
      "▁bid": 2482,
      ":48": 2483,
      "▁25": 2484,
      "▁….": 2485,
      "lect": 2486,
      "▁airport": 2487,
      "▁1500": 2488,
      "erve": 2489,
      "▁52": 2490,
      "▁@": 2491,
      "▁threat": 2492,
      "ely": 2493,
      "▁87": 2494,
      "▁1,": 2495,
      "▁nice": 2496,
      "b": 2497,
      "▁abo": 2498,
      "ges": 2499,
      "▁glow": 2500,
      "▁1307": 2501,
      "++++": 2502,
      "▁1115": 2503,
      "▁figure": 2504,
      "▁but": 2505,
      "▁afternoon": 2506,
      "ulty": 2507,
      "▁85": 2508,
      "▁+45": 2509,
      "eter": 2510,
      "▁2050": 2511,
      "35": 2512,
      "__": 2513,
      "▁proceed": 2514,
      "****************": 2515,
      "▁handle": 2516,
      "ds": 2517,
      "▁peaceful": 2518,
      "▁denver": 2519,
      ".g": 2520,
      "▁53": 2521,
      "▁&amp;": 2522,
      "algami": 2523,
      "▁elev": 2524,
      "▁conver": 2525,
      "itter": 2526,
      "ito": 2527,
      "▁shower": 2528,
      "▁attached": 2529,
      "▁legal": 2530,
      "▁person": 2531,
      "▁1689": 2532,
      "▁and": 2533,
      "▁410-468-3": 2534,
      "▁turistica": 2535,
      "ard": 2536,
      "▁phot": 2537,
      "▁vice": 2538,
      "huh": 2539,
      "gel": 2540,
      "▁neg": 2541,
      "ounced": 2542,
      "▁’ll": 2543,
      "▁feeling": 2544,
      "▁uhh": 2545,
      "oot": 2546,
      "▁drinks": 2547,
      "▁terrorist": 2548,
      "dd": 2549,
      "▁weeks": 2550,
      "▁11/29/2000": 2551,
      "on@ect": 2552,
      "ok": 2553,
      "ain": 2554,
      "▁investment": 2555,
      "▁flies": 2556,
      "▁path": 2557,
      "▁follows": 2558,
      "▁twel": 2559,
      "³": 2560,
      "▁sorry": 2561,
      "▁guard": 2562,
      "▁bowl": 2563,
      "▁pet": 2564,
      "▁described": 2565,
      "▁260": 2566,
      "▁whe": 2567,
      "295": 2568,
      "▁buck": 2569,
      "▁ciao": 2570,
      "▁leads": 2571,
      "ight": 2572,
      "▁1988": 2573,
      "▁looks": 2574,
      "▁814.86": 2575,
      "▁speed": 2576,
      "▁hundred": 2577,
      "▁shake": 2578,
      "▁shirt": 2579,
      "▁trust": 2580,
      "▁inh": 2581,
      "▁numerous": 2582,
      "▁skin": 2583,
      "▁password": 2584,
      "0th": 2585,
      "▁mohammed": 2586,
      "▁profess": 2587,
      "▁penc": 2588,
      "▁hotel": 2589,
      "ram": 2590,
      "uation": 2591,
      "aint": 2592,
      "▁hur": 2593,
      "8/2001": 2594,
      "▁friends": 2595,
      "uments": 2596,
      "▁angry": 2597,
      "iet": 2598,
      "▁pick": 2599,
      "▁warming": 2600,
      "awah": 2601,
      "▁edge": 2602,
      "▁relax": 2603,
      "▁text": 2604,
      "▁sm": 2605,
      "go": 2606,
      "▁spok": 2607,
      "▁elevator": 2608,
      "▁theatre": 2609,
      "▁5,000": 2610,
      "▁dursleys": 2611,
      "▁despite": 2612,
      "▁electricity": 2613,
      "▁danny": 2614,
      "▁wak": 2615,
      "▁bla": 2616,
      "▁>>": 2617,
      "ure": 2618,
      "▁easily": 2619,
      "▁usually": 2620,
      "▁simple": 2621,
      "▁’s": 2622,
      "ys": 2623,
      "▁fortun": 2624,
      "▁1575": 2625,
      "12": 2626,
      "▁interp": 2627,
      "▁poetry": 2628,
      "-m": 2629,
      "▁72": 2630,
      "77": 2631,
      "▁1-800-991-9": 2632,
      "▁estimated": 2633,
      "▁mr": 2634,
      "▁occ": 2635,
      "/17/2000": 2636,
      "▁neu": 2637,
      "word": 2638,
      "301": 2639,
      "▁dg": 2640,
      "▁own": 2641,
      "▁council": 2642,
      "▁nobody": 2643,
      "▁clearly": 2644,
      "▁terror": 2645,
      "▁vodka": 2646,
      "▁clin": 2647,
      "6021": 2648,
      "▁ann": 2649,
      "▁1997": 2650,
      "▁patient": 2651,
      "▁experimental": 2652,
      "▁recon": 2653,
      "/30": 2654,
      "iness": 2655,
      "111": 2656,
      "▁stress": 2657,
      "▁dise": 2658,
      "▁museum": 2659,
      "▁obviously": 2660,
      "▁values": 2661,
      "▁procedure": 2662,
      "▁histor": 2663,
      "of": 2664,
      "mon": 2665,
      "23": 2666,
      "▁include": 2667,
      "▁stomach": 2668,
      "▁toronto": 2669,
      "▁cell": 2670,
      "▁b.": 2671,
      "▁marriage": 2672,
      "▁2,000": 2673,
      "▁bye": 2674,
      "rop": 2675,
      "▁22": 2676,
      "▁future": 2677,
      "▁major": 2678,
      "apt": 2679,
      "-w": 2680,
      "▁supper": 2681,
      "ural": 2682,
      "aren": 2683,
      "od": 2684,
      "▁pollution": 2685,
      "▁which": 2686,
      "▁416-8": 2687,
      "▁24.7": 2688,
      "▁neighb": 2689,
      "▁excited": 2690,
      "ata": 2691,
      "▁heart": 2692,
      "▁rocks": 2693,
      "vert": 2694,
      "▁psychology": 2695,
      "▁sanders": 2696,
      "▁burbank": 2697,
      "bby": 2698,
      "▁riding": 2699,
      "▁49": 2700,
      "▁dr.": 2701,
      "▁415.782": 2702,
      "____": 2703,
      "▁correct": 2704,
      "▁sand": 2705,
      "▁grab": 2706,
      "▁_": 2707,
      "▁told": 2708,
      "▁calling": 2709,
      "alam": 2710,
      "▁everyone": 2711,
      "ball": 2712,
      "▁peop": 2713,
      ".com": 2714,
      "▁always": 2715,
      "▁getting": 2716,
      "▁nt": 2717,
      "▁713-853-3989": 2718,
      "ipped": 2719,
      "▁fourth": 2720,
      "▁stone": 2721,
      "▁sen": 2722,
      "▁flav": 2723,
      "▁strike": 2724,
      "▁squir": 2725,
      "▁im": 2726,
      "ord": 2727,
      "▁everything": 2728,
      "▁doughnut": 2729,
      "▁6,000": 2730,
      "ios": 2731,
      "av": 2732,
      "▁bun": 2733,
      "▁comes": 2734,
      "▁tim": 2735,
      "ied": 2736,
      "▁cha": 2737,
      "arraf": 2738,
      "d-#693": 2739,
      "▁1840": 2740,
      "▁reve": 2741,
      "ica": 2742,
      "▁inch": 2743,
      "▁alt.animals": 2744,
      "▁thous": 2745,
      "▁may": 2746,
      "▁!!!!!!!": 2747,
      "mine": 2748,
      "ument": 2749,
      "▁growing": 2750,
      "▁teach": 2751,
      "▁th": 2752,
      "▁talk": 2753,
      "▁pop": 2754,
      "▁boat": 2755,
      "▁jen": 2756,
      "92": 2757,
      "▁1604": 2758,
      "▁our": 2759,
      "▁hor": 2760,
      "▁particip": 2761,
      "▁vs.": 2762,
      "dulo": 2763,
      "▁than": 2764,
      "▁pull": 2765,
      "▁unc": 2766,
      "▁moreau": 2767,
      "oice": 2768,
      "▁louis": 2769,
      "▁listening": 2770,
      "▁property": 2771,
      "▁uv": 2772,
      "ann": 2773,
      "ikh": 2774,
      ".10": 2775,
      "ade": 2776,
      "is_0": 2777,
      "3": 2778,
      "▁connect": 2779,
      "▁accept": 2780,
      "ronic": 2781,
      "bers": 2782,
      "la": 2783,
      "▁becom": 2784,
      "tered": 2785,
      "▁end": 2786,
      "▁huge": 2787,
      "eth": 2788,
      "▁move": 2789,
      "ioned": 2790,
      "▁---=": 2791,
      "▁des": 2792,
      "▁married": 2793,
      "▁meh-r": 2794,
      "aiss": 2795,
      "▁....": 2796,
      "▁cig": 2797,
      "`": 2798,
      "▁official": 2799,
      "iring": 2800,
      "▁1982": 2801,
      "▁rece": 2802,
      "▁483": 2803,
      "▁mhm": 2804,
      "emy": 2805,
      "▁1949": 2806,
      "▁expert": 2807,
      "▁jump": 2808,
      "▁passion": 2809,
      "71": 2810,
      "ber": 2811,
      "▁sin": 2812,
      "▁knows": 2813,
      "gue": 2814,
      "erc": 2815,
      "7th": 2816,
      "ress": 2817,
      "ug": 2818,
      "▁gun": 2819,
      "▁elephant": 2820,
      "ners": 2821,
      "▁primary": 2822,
      "▁leg": 2823,
      "▁did": 2824,
      "ond": 2825,
      "▁albeit": 2826,
      "▁andril": 2827,
      "▁cray": 2828,
      "津": 2829,
      "▁civil": 2830,
      "fri": 2831,
      "dr": 2832,
      "▁pretend": 2833,
      "ipe": 2834,
      "▁cleaning": 2835,
      "ined": 2836,
      "▁k": 2837,
      "▁friendly": 2838,
      "ded": 2839,
      "24": 2840,
      "▁universal": 2841,
      "bon": 2842,
      "▁late": 2843,
      "▁sou": 2844,
      "▁2010": 2845,
      "wa": 2846,
      "▁uns": 2847,
      "▁craw": 2848,
      "▁senate": 2849,
      "igu": 2850,
      "▁3:30": 2851,
      "bie": 2852,
      "▁surround": 2853,
      "▁says": 2854,
      "employ": 2855,
      "▁helped": 2856,
      "▁festival": 2857,
      "▁congrat": 2858,
      "▁2019": 2859,
      "▁prec": 2860,
      "▁stand": 2861,
      "▁×": 2862,
      "▁900": 2863,
      "▁large": 2864,
      "▁der": 2865,
      "▁english": 2866,
      "▁cake": 2867,
      "▁leaves": 2868,
      "ength": 2869,
      "▁decisions": 2870,
      "▁she": 2871,
      "▁viet": 2872,
      "▁car": 2873,
      "▁prove": 2874,
      "▁opp": 2875,
      "▁202.456.1414": 2876,
      "▁selection": 2877,
      "king": 2878,
      "▁montreal": 2879,
      "▁although": 2880,
      "▁suggests": 2881,
      "▁spoon": 2882,
      "-10": 2883,
      "▁non-": 2884,
      "▁1647": 2885,
      "ifying": 2886,
      "▁zer": 2887,
      "▁friday": 2888,
      "isb": 2889,
      "▁de": 2890,
      "▁|--------+----------------------->": 2891,
      "▁ontario": 2892,
      "▁1878": 2893,
      "▁notwithstanding": 2894,
      "▁hi": 2895,
      "▁stipulation": 2896,
      "▁weekly": 2897,
      "▁colle": 2898,
      "▁fresh": 2899,
      "▁281-44": 2900,
      "▁improvement": 2901,
      "utes": 2902,
      "wood": 2903,
      "----------------": 2904,
      "▁circumstances": 2905,
      "anim": 2906,
      "▁jelly": 2907,
      "▁served": 2908,
      "22,000": 2909,
      "t": 2910,
      "▁183": 2911,
      "▁nap": 2912,
      "▁reference": 2913,
      "iced": 2914,
      "-50": 2915,
      "▁minneapolis": 2916,
      "葉": 2917,
      "▁1990": 2918,
      "usion": 2919,
      "▁hou": 2920,
      "▁sunn": 2921,
      "▁placed": 2922,
      "▁remark": 2923,
      "▁rate": 2924,
      "▁1805": 2925,
      "▁1902": 2926,
      "mail": 2927,
      "night": 2928,
      "▁security": 2929,
      "▁1.4": 2930,
      "ick": 2931,
      "so": 2932,
      "▁certainly": 2933,
      "▁int": 2934,
      "▁pit": 2935,
      "▁system": 2936,
      "▁pen": 2937,
      "/26/2001": 2938,
      "▁hour": 2939,
      "dp": 2940,
      "▁afghanistan": 2941,
      "▁even": 2942,
      "▁51": 2943,
      "▁ninety": 2944,
      "▁fri": 2945,
      "▁construction": 2946,
      "▁video": 2947,
      "icient": 2948,
      "▁st.": 2949,
      "▁hold": 2950,
      "erous": 2951,
      "▁true": 2952,
      "▁bare": 2953,
      "▁key": 2954,
      "▁playing": 2955,
      "▁cir": 2956,
      "▁thin": 2957,
      "▁kept": 2958,
      "▁1977": 2959,
      "▁coal": 2960,
      "oid": 2961,
      "▁tulsa": 2962,
      "▁u.s.": 2963,
      "▁doub": 2964,
      "age": 2965,
      "▁folks": 2966,
      "▁safet": 2967,
      "asy": 2968,
      "▁apple": 2969,
      "▁evolutionary": 2970,
      "▁stopped": 2971,
      "▁charge": 2972,
      "▁bush": 2973,
      "▁1968": 2974,
      "44": 2975,
      "iar": 2976,
      "-kedne": 2977,
      "▁syria": 2978,
      "▁cos": 2979,
      "▁spoke": 2980,
      "9.3": 2981,
      "tc": 2982,
      "▁mind": 2983,
      "▁climate": 2984,
      "▁convention": 2985,
      "ercial": 2986,
      "▁mid": 2987,
      ":17": 2988,
      "viatio": 2989,
      "▁consequ": 2990,
      "▁prev": 2991,
      "▁german": 2992,
      "▁brown": 2993,
      "iving": 2994,
      "elle": 2995,
      "▁fingers": 2996,
      "▁article": 2997,
      "▁718": 2998,
      "▁fiction": 2999,
      "rible": 3000,
      "▁onto": 3001,
      "▁chap": 3002,
      "▁channel": 3003,
      "mem": 3004,
      "-)": 3005,
      "aq": 3006,
      "▁ath": 3007,
      "fet": 3008,
      "▁regulation": 3009,
      "yond": 3010,
      "▁·": 3011,
      "uction": 3012,
      "▁8": 3013,
      "▁orders": 3014,
      "pp": 3015,
      "9/2000": 3016,
      "le": 3017,
      "▁713-853-1696": 3018,
      "ley": 3019,
      "▁queries": 3020,
      "▁ven": 3021,
      "▁ought": 3022,
      "▁amid": 3023,
      "esh": 3024,
      "▁bat": 3025,
      ".4": 3026,
      "▁sugg": 3027,
      "▁cod": 3028,
      "ile": 3029,
      "▁development": 3030,
      "▁liked": 3031,
      "▁1978": 3032,
      "nondel": 3033,
      "▁2500": 3034,
      "▁effects": 3035,
      "==============": 3036,
      "isions": 3037,
      "lear": 3038,
      "▁ultim": 3039,
      "▁asked": 3040,
      "d": 3041,
      "▁spell": 3042,
      "▁800-553-3119": 3043,
      "▁mus": 3044,
      "▁vir": 3045,
      "▁good": 3046,
      "▁counter": 3047,
      "▁tro": 3048,
      "▁15,000": 3049,
      "▁-----------------------------------------------------------------": 3050,
      "!!!!": 3051,
      "▁soil": 3052,
      "▁writ": 3053,
      "▁rome": 3054,
      "▁crop": 3055,
      "▁considered": 3056,
      "▁pictures": 3057,
      "▁defense": 3058,
      "▁nmem": 3059,
      "▁changes": 3060,
      "▁canc": 3061,
      "▁2020": 3062,
      "get": 3063,
      "▁shark": 3064,
      "▁50,000": 3065,
      "▁stock": 3066,
      "▁102": 3067,
      "▁laura": 3068,
      "▁hopefully": 3069,
      "▁commons": 3070,
      "▁5000": 3071,
      "▁network": 3072,
      "▁amidst": 3073,
      "▁tr": 3074,
      "▁slowly": 3075,
      "▁liquid": 3076,
      "▁10,000": 3077,
      "0": 3078,
      "▁e-mail": 3079,
      "°": 3080,
      "▁1583": 3081,
      "▁http://www.": 3082,
      "▁11:30": 3083,
      "▁************************************************": 3084,
      "▁huit": 3085,
      "▁we": 3086,
      "’": 3087,
      "▁momma": 3088,
      "▁sort": 3089,
      "▁shobha-": 3090,
      "-468-3": 3091,
      "▁surger": 3092,
      "▁cooper": 3093,
      "▁sat": 3094,
      "▁-stip": 3095,
      "day": 3096,
      "▁7.2": 3097,
      "ability": 3098,
      "▁create": 3099,
      "▁shit": 3100,
      "========": 3101,
      "acion": 3102,
      "▁ou": 3103,
      "▁xml": 3104,
      "▁jason": 3105,
      "▁713-654-1281": 3106,
      "▁nwww": 3107,
      "lied": 3108,
      "ought": 3109,
      "▁no-6": 3110,
      "▁sell": 3111,
      "▁es": 3112,
      "▁unknown": 3113,
      ".0": 3114,
      "▁sweet": 3115,
      "▁fem": 3116,
      "itting": 3117,
      "▁pericles": 3118,
      "▁ok": 3119,
      "▁bears": 3120,
      "▁principle": 3121,
      "▁levels": 3122,
      "▁internet": 3123,
      "▁feature": 3124,
      "▁295870": 3125,
      "orders": 3126,
      "▁miss": 3127,
      "▁social": 3128,
      "▁features": 3129,
      "▁benefits": 3130,
      "▁hey": 3131,
      "▁governments": 3132,
      "▁gramm": 3133,
      "▁dando": 3134,
      "▁hiking": 3135,
      "▁16.3": 3136,
      "▁quiet": 3137,
      "▁liter": 3138,
      "▁novel": 3139,
      "▁caught": 3140,
      "roll": 3141,
      "▁go": 3142,
      "▁'m": 3143,
      "▁proud": 3144,
      "▁discover": 3145,
      "ively": 3146,
      "▁violence": 3147,
      "▁list": 3148,
      "▁newspaper": 3149,
      "▁leader": 3150,
      "▁families": 3151,
      "l": 3152,
      "ury": 3153,
      "▁win": 3154,
      "▁front": 3155,
      "▁pressure": 3156,
      "▁flower": 3157,
      "▁contribution": 3158,
      "on@enron": 3159,
      "bar": 3160,
      "▁india": 3161,
      "▁factor": 3162,
      "▁situ": 3163,
      "▁ident": 3164,
      "▁based": 3165,
      "▁adjust": 3166,
      "oub": 3167,
      "▁extended": 3168,
      "▁fusca": 3169,
      "@t": 3170,
      "▁regist": 3171,
      "angu": 3172,
      "nov": 3173,
      "to": 3174,
      "▁stom": 3175,
      "▁filled": 3176,
      "▁doggie": 3177,
      "▁appropriate": 3178,
      "load": 3179,
      "▁plays": 3180,
      "▁shorts": 3181,
      "▁415.621": 3182,
      "▁piec": 3183,
      "▁becomes": 3184,
      "▁meat": 3185,
      "▁claims": 3186,
      "▁colon": 3187,
      "▁----==": 3188,
      "▁:p": 3189,
      "▁silk": 3190,
      "▁rolling": 3191,
      "▁structure": 3192,
      "▁muse": 3193,
      "▁loose": 3194,
      "▁ken": 3195,
      "26": 3196,
      "▁arrang": 3197,
      "▁abb": 3198,
      "arm": 3199,
      "▁cat": 3200,
      "▁moder": 3201,
      "pt": 3202,
      "▁toast": 3203,
      "▁fat": 3204,
      "▁143": 3205,
      "▁ends": 3206,
      "▁alone": 3207,
      "▁emphas": 3208,
      "▁basil": 3209,
      "aken": 3210,
      "▁130": 3211,
      "▁1,000": 3212,
      "grin": 3213,
      "▁2.": 3214,
      "stop": 3215,
      "▁petersburg": 3216,
      "otion": 3217,
      "▁1846": 3218,
      "▁took": 3219,
      "▁26": 3220,
      "▁...": 3221,
      "▁letters": 3222,
      "▁70": 3223,
      "▁bi": 3224,
      "▁anthrax": 3225,
      "▁visited": 3226,
      "99": 3227,
      "osoph": 3228,
      "▁address": 3229,
      "▁done": 3230,
      "▁12:30": 3231,
      "em": 3232,
      "▁harv": 3233,
      "▁hea": 3234,
      "▁newark": 3235,
      "▁decade": 3236,
      "▁li": 3237,
      "▁vernon": 3238,
      "▁report": 3239,
      "▁1200": 3240,
      "▁p.s": 3241,
      "▁predict": 3242,
      "▁sciss": 3243,
      "▁court": 3244,
      "led": 3245,
      "▁somebody": 3246,
      "▁goat": 3247,
      "▁sudden": 3248,
      "▁january": 3249,
      "▁ict": 3250,
      "▁provisions": 3251,
      "▁cow": 3252,
      "gypt": 3253,
      "▁county": 3254,
      "▁alle": 3255,
      "▁each": 3256,
      "▁wor": 3257,
      "▁conflict": 3258,
      "▁euro": 3259,
      "▁attended": 3260,
      "▁1821": 3261,
      "▁home": 3262,
      "▁fam": 3263,
      "▁october": 3264,
      "ß": 3265,
      "ws": 3266,
      "▁corporate": 3267,
      "▁peters": 3268,
      "ution": 3269,
      "oney": 3270,
      "▁amb": 3271,
      "at": 3272,
      "▁split": 3273,
      "iqu": 3274,
      "▁writing": 3275,
      "▁1780": 3276,
      "▁jo": 3277,
      "▁shad": 3278,
      "▁modern": 3279,
      "▁1920": 3280,
      "▁281-435": 3281,
      "▁complex": 3282,
      "7.77": 3283,
      "-7": 3284,
      "lying": 3285,
      "▁flights": 3286,
      "▁death": 3287,
      "oose": 3288,
      "▁04": 3289,
      "low": 3290,
      "▁cart": 3291,
      "▁surgery": 3292,
      "▁spending": 3293,
      "ino": 3294,
      ",1": 3295,
      "389": 3296,
      "▁website": 3297,
      "[PAD]": 3298,
      ":34": 3299,
      "ales": 3300,
      "▁619": 3301,
      "with": 3302,
      "▁attack": 3303,
      "iation": 3304,
      "raf": 3305,
      "▁great": 3306,
      "▁long": 3307,
      "▁goals": 3308,
      "▁philadelphia": 3309,
      "▁formal": 3310,
      "▁exper": 3311,
      "ment": 3312,
      "▁2100": 3313,
      "lines": 3314,
      "▁lee": 3315,
      "▁luc": 3316,
      "▁'s": 3317,
      "▁collective": 3318,
      "▁surprising": 3319,
      "▁mosque": 3320,
      "▁theory": 3321,
      "▁objectives": 3322,
      "▁depending": 3323,
      "▁re": 3324,
      "▁cous": 3325,
      "2.doc": 3326,
      "▁december": 3327,
      "▁telev": 3328,
      "▁removed": 3329,
      "yn": 3330,
      "4/2000": 3331,
      "▁mal": 3332,
      "ut": 3333,
      "29": 3334,
      ":40": 3335,
      "▁wig": 3336,
      ",6": 3337,
      "▁rent": 3338,
      "▁glove": 3339,
      "▁eighty": 3340,
      "6-8": 3341,
      "▁into": 3342,
      "▁l": 3343,
      "▁750,000": 3344,
      "▁china": 3345,
      "▁1831": 3346,
      "▁755": 3347,
      "▁shackleton@ect": 3348,
      ".30": 3349,
      "▁most": 3350,
      "▁church": 3351,
      "▁mech": 3352,
      "▁signs": 3353,
      "▁ate": 3354,
      "▁accom": 3355,
      "▁surface": 3356,
      "▁cook": 3357,
      "▁refr": 3358,
      "▁claimed": 3359,
      "own": 3360,
      "atch": 3361,
      "takana": 3362,
      "▁jean": 3363,
      "▁shoulder": 3364,
      "▁approximately": 3365,
      "17": 3366,
      "▁naim": 3367,
      "▁rules": 3368,
      ":13": 3369,
      "▁wilson": 3370,
      "▁paper": 3371,
      "▁steph": 3372,
      "▁dis": 3373,
      "▁them": 3374,
      "▁these": 3375,
      "▁v": 3376,
      "樋": 3377,
      "▁discuss": 3378,
      "▁falls": 3379,
      "▁australia": 3380,
      "▁1801": 3381,
      "▁ensure": 3382,
      "▁deg": 3383,
      "▁ft": 3384,
      "▁purchase": 3385,
      "▁http": 3386,
      "▁pot": 3387,
      "▁coach": 3388,
      "▁cost": 3389,
      "▁send": 3390,
      "▁realized": 3391,
      "arter": 3392,
      "▁faith": 3393,
      "▁careful": 3394,
      "▁efficiency": 3395,
      "▁below": 3396,
      "gy": 3397,
      "▁virt": 3398,
      "▁beside": 3399,
      "per": 3400,
      "▁rescue": 3401,
      "▁appear": 3402,
      "▁sit": 3403,
      "▁religious": 3404,
      "▁july": 3405,
      "▁inst": 3406,
      "▁-ect": 3407,
      "▁4:30": 3408,
      "~*~*": 3409,
      "▁knew": 3410,
      "▁stupid": 3411,
      "▁2013": 3412,
      "▁fle": 3413,
      "▁officials": 3414,
      "enner": 3415,
      "▁return": 3416,
      "▁ltte": 3417,
      "iff": 3418,
      "ik": 3419,
      "▁a.": 3420,
      "▁par": 3421,
      "▁piece": 3422,
      "▁yesterday": 3423,
      "▁concerning": 3424,
      "▁ingredients": 3425,
      "▁pow": 3426,
      "▁stands": 3427,
      "▁simp": 3428,
      "▁quite": 3429,
      "▁office": 3430,
      "my": 3431,
      "________": 3432,
      "porary": 3433,
      "enn": 3434,
      "ه": 3435,
      "ner": 3436,
      "▁_______": 3437,
      "aim": 3438,
      "▁notes": 3439,
      "ises": 3440,
      "idge": 3441,
      "▁fab": 3442,
      "▁distingu": 3443,
      "▁positive": 3444,
      "▁45": 3445,
      "▁?!": 3446,
      "▁alber": 3447,
      "eur": 3448,
      "▁import": 3449,
      "▁escape": 3450,
      "▁fuck": 3451,
      "ong": 3452,
      "aming": 3453,
      "▁interesting": 3454,
      "▁community": 3455,
      "▁860": 3456,
      "▁columbus": 3457,
      "▁having": 3458,
      "y": 3459,
      "▁probably": 3460,
      "▁eye": 3461,
      "▁814": 3462,
      "ou": 3463,
      "▁financial": 3464,
      "▁all": 3465,
      "▁story": 3466,
      "▁-----------------": 3467,
      "igh": 3468,
      "▁łod": 3469,
      "▁environ": 3470,
      "▁ram": 3471,
      "€": 3472,
      "--------------------------------": 3473,
      "▁structures": 3474,
      "or": 3475,
      "nd": 3476,
      "ude": 3477,
      "got": 3478,
      "▁800": 3479,
      "▁income": 3480,
      "ll": 3481,
      "▁180": 3482,
      "hip": 3483,
      "gress": 3484,
      "▁where": 3485,
      "▁never": 3486,
      "ati": 3487,
      "ex": 3488,
      "▁himself": 3489,
      "rick": 3490,
      "wik": 3491,
      "▁dinner": 3492,
      "▁seriously": 3493,
      "urs": 3494,
      "▁land": 3495,
      "▁1603": 3496,
      "▁inspired": 3497,
      "▁fin": 3498,
      "-1": 3499,
      "ause": 3500,
      "clusion": 3501,
      "▁crack": 3502,
      ".00": 3503,
      "▁wether": 3504,
      "▁5.5": 3505,
      "▁failed": 3506,
      "▁island": 3507,
      "▁cra": 3508,
      "ware": 3509,
      "▁writers": 3510,
      "soft": 3511,
      "▁an": 3512,
      "br": 3513,
      "▁balls": 3514,
      "▁guerre": 3515,
      "▁goes": 3516,
      "▁sees": 3517,
      "▁seis": 3518,
      "▁cycle": 3519,
      "ows": 3520,
      "▁david": 3521,
      "▁3.7": 3522,
      "▁agriculture": 3523,
      "raph": 3524,
      "oul": 3525,
      "▁willing": 3526,
      "▁raise": 3527,
      "▁white": 3528,
      "▁suprem": 3529,
      "res": 3530,
      "atory": 3531,
      "▁34": 3532,
      "▁hand": 3533,
      "▁2009": 3534,
      "▁develop": 3535,
      "▁measure": 3536,
      "oup": 3537,
      "▁1-800-991-9019": 3538,
      "ific": 3539,
      "▁sea": 3540,
      "▁throw": 3541,
      "▁when": 3542,
      "♥": 3543,
      "▁plat": 3544,
      "▁bar": 3545,
      "▁713-853-3098": 3546,
      "▁serves": 3547,
      "atic": 3548,
      "▁offic": 3549,
      "▁airlines": 3550,
      "º": 3551,
      "▁neigh": 3552,
      "▁peace": 3553,
      "▁litt": 3554,
      "▁mart": 3555,
      "▁cas": 3556,
      "β": 3557,
      "▁negative": 3558,
      "▁?!?": 3559,
      "▁vict": 3560,
      "▁trans": 3561,
      "▁crisis": 3562,
      "▁one": 3563,
      "izing": 3564,
      "an@t": 3565,
      "ien": 3566,
      "▁bed": 3567,
      "▁chocol": 3568,
      "oc": 3569,
      "ped": 3570,
      "▁suck": 3571,
      "ablish": 3572,
      "▁fol": 3573,
      "]": 3574,
      "▁drink": 3575,
      "▁530": 3576,
      "▁untill": 3577,
      "▁through": 3578,
      "▁heat": 3579,
      "▁manufact": 3580,
      "▁bos": 3581,
      "▁very": 3582,
      "▁hu": 3583,
      "▁ar": 3584,
      "▁disapp": 3585,
      "▁hurt": 3586,
      "▁specific": 3587,
      "▁cou": 3588,
      "▁revolution": 3589,
      ".25": 3590,
      "▁aboard": 3591,
      "ibreat": 3592,
      "▁tight": 3593,
      "ai": 3594,
      "▁4-12": 3595,
      "▁sur": 3596,
      "▁trash": 3597,
      "▁--": 3598,
      "▁damage": 3599,
      "▁mur": 3600,
      "▁soon": 3601,
      "▁aesth": 3602,
      "▁decades": 3603,
      "▁campa": 3604,
      "2/2001": 3605,
      "▁2015": 3606,
      "▁dogg": 3607,
      "▁tampa": 3608,
      "司": 3609,
      "▁arr": 3610,
      "▁hind": 3611,
      "▁matters": 3612,
      "▁necessarily": 3613,
      "▁neat": 3614,
      "▁document": 3615,
      "▁rub": 3616,
      "▁give": 3617,
      "adelp": 3618,
      "house": 3619,
      "arily": 3620,
      "▁curren": 3621,
      "▁angeles": 3622,
      "imes": 3623,
      "ifies": 3624,
      "▁mist": 3625,
      "▁snitch": 3626,
      "3-3744": 3627,
      "▁elect": 3628,
      "arrass": 3629,
      "▁particularly": 3630,
      "▁incor": 3631,
      "▁horn": 3632,
      "man": 3633,
      "▁sleeping": 3634,
      "▁published": 3635,
      "▁dre": 3636,
      "▁floating": 3637,
      "▁pakistani": 3638,
      "▁reasonable": 3639,
      "iped": 3640,
      "▁state": 3641,
      "▁frank": 3642,
      "▁wik": 3643,
      "▁cris": 3644,
      "ret": 3645,
      "▁current": 3646,
      "▁718-780": 3647,
      "iously": 3648,
      "leys": 3649,
      "▁boxes": 3650,
      "70": 3651,
      "et": 3652,
      "▁equ": 3653,
      "▁caused": 3654,
      "▁examples": 3655,
      "▁democr": 3656,
      "▁review": 3657,
      "▁requirements": 3658,
      "▁stoy": 3659,
      "jo": 3660,
      "▁mweta": 3661,
      "ding": 3662,
      "/10/2004": 3663,
      "▁symp": 3664,
      "▁granted": 3665,
      "▁wr": 3666,
      "byl": 3667,
      "▁constit": 3668,
      "iot": 3669,
      "▁12:12": 3670,
      "ered": 3671,
      "300": 3672,
      "▁exactly": 3673,
      "▁climb": 3674,
      "ms": 3675,
      "▁1932": 3676,
      "▁replaced": 3677,
      "-460-3": 3678,
      "▁poverty": 3679,
      "▁cheap": 3680,
      "▁design": 3681,
      "alk": 3682,
      "on": 3683,
      "key": 3684,
      "▁bottom": 3685,
      "▁closely": 3686,
      "▁for": 3687,
      "▁yea": 3688,
      "▁lunch": 3689,
      "▁.!": 3690,
      "▁04/16/2001": 3691,
      "read": 3692,
      "▁1918": 3693,
      "▁fut": 3694,
      "▁ter": 3695,
      "▁how": 3696,
      "▁forgot": 3697,
      "▁mot": 3698,
      "▁translation": 3699,
      "omet": 3700,
      "▁liber": 3701,
      "▁accident": 3702,
      "▁substant": 3703,
      "inner": 3704,
      "▁events": 3705,
      "▁825": 3706,
      "use": 3707,
      "▁price": 3708,
      "▁log": 3709,
      "iii": 3710,
      "▁skittles": 3711,
      "▁pour": 3712,
      "by": 3713,
      "▁institutions": 3714,
      "▁elsewhere": 3715,
      "▁mexico": 3716,
      "▁1779": 3717,
      "▁surr": 3718,
      "▁120,000": 3719,
      "▁arrives": 3720,
      "▁bump": 3721,
      "light": 3722,
      "53": 3723,
      "▁blackline": 3724,
      "▁kitt": 3725,
      "▁vast": 3726,
      "▁injury": 3727,
      "ault": 3728,
      "▁bir": 3729,
      "▁dyn": 3730,
      "▁tear": 3731,
      "▁fall": 3732,
      "▁il": 3733,
      "▁data": 3734,
      "atively": 3735,
      "raft": 3736,
      "gam": 3737,
      "▁murder": 3738,
      "rect": 3739,
      "eight": 3740,
      "▁used": 3741,
      "▁islamic": 3742,
      ".85": 3743,
      "75": 3744,
      "==============================================": 3745,
      "▁decide": 3746,
      "▁besid": 3747,
      "▁1585": 3748,
      "ˈ": 3749,
      "▁mouth": 3750,
      "▁users": 3751,
      "▁western": 3752,
      "▁light": 3753,
      "ite": 3754,
      "ppy": 3755,
      "▁informed": 3756,
      "ere": 3757,
      "▁:(": 3758,
      "aced": 3759,
      "▁desper": 3760,
      "▁{": 3761,
      "▁430": 3762,
      "ook": 3763,
      "▁chickens": 3764,
      "▁walking": 3765,
      "app": 3766,
      "▁james": 3767,
      "▁47,500": 3768,
      "▁betw": 3769,
      "▁sor": 3770,
      "▁out": 3771,
      "ernobyl": 3772,
      "▁shadow": 3773,
      "▁lowest": 3774,
      "▁accur": 3775,
      "icult": 3776,
      "▁arriving": 3777,
      "/11": 3778,
      "▁800.713.86": 3779,
      "ils": 3780,
      "ception": 3781,
      "▁ya": 3782,
      "-8031": 3783,
      "non": 3784,
      "▁6:30": 3785,
      "▁september": 3786,
      "▁wrote": 3787,
      "▁1-800": 3788,
      "▁conclusion": 3789,
      "six": 3790,
      "▁field": 3791,
      "▁pack": 3792,
      "▁ignor": 3793,
      "▁commissioner": 3794,
      "▁120": 3795,
      "▁reply": 3796,
      "▁block": 3797,
      "▁four": 3798,
      "▁barn": 3799,
      "▁cigare": 3800,
      "▁dinosaur": 3801,
      "▁grant": 3802,
      "▁set": 3803,
      "▁perhaps": 3804,
      "▁04:": 3805,
      "880": 3806,
      "▁coast": 3807,
      "▁747": 3808,
      "▁commit": 3809,
      "ozer": 3810,
      "▁vie": 3811,
      "▁meet": 3812,
      "▁declar": 3813,
      "▁team": 3814,
      "conn": 3815,
      "stein": 3816,
      "▁mention": 3817,
      ":51": 3818,
      "▁norm": 3819,
      "ren": 3820,
      "▁1985": 3821,
      "▁signed": 3822,
      "▁doubt": 3823,
      "▁spir": 3824,
      "▁417": 3825,
      "▁leigh": 3826,
      "▁research": 3827,
      "▁refuge": 3828,
      "▁up": 3829,
      "▁attrib": 3830,
      "▁twelve": 3831,
      "▁lun": 3832,
      "▁xsd": 3833,
      "▁11/10/2000": 3834,
      "▁intern": 3835,
      "ign": 3836,
      "enron": 3837,
      "s/": 3838,
      "▁critics": 3839,
      "▁desk": 3840,
      "▁38": 3841,
      "▁1945": 3842,
      "▁phil": 3843,
      "iking": 3844,
      "▁definition": 3845,
      "fe": 3846,
      "▁mountains": 3847,
      "▁worms": 3848,
      "[MASK]": 3849,
      "▁char": 3850,
      "bing": 3851,
      "▁crit": 3852,
      "▁citizens": 3853,
      "▁1964": 3854,
      "▁importance": 3855,
      "ways": 3856,
      "▁gas": 3857,
      "▁vs": 3858,
      "▁publish": 3859,
      "▁being": 3860,
      "▁thurs": 3861,
      "▁name": 3862,
      "▁813": 3863,
      "▁experienced": 3864,
      "▁led": 3865,
      "▁science": 3866,
      "▁72,000": 3867,
      "itive": 3868,
      "▁sal": 3869,
      "arant": 3870,
      "▁length": 3871,
      "▁day": 3872,
      "k.url": 3873,
      "▁manuf": 3874,
      "▁bunch": 3875,
      "▁planet": 3876,
      "oug": 3877,
      "ri": 3878,
      "▁lack": 3879,
      "▁per": 3880,
      "96": 3881,
      "▁tre": 3882,
      "▁…": 3883,
      "elp": 3884,
      "▁fift": 3885,
      "▁doctor": 3886,
      "▁vet": 3887,
      ".net": 3888,
      "olis": 3889,
      "inct": 3890,
      "▁domain": 3891,
      "▁category": 3892,
      "▁member": 3893,
      "▁01810": 3894,
      "▁literary": 3895,
      "mber": 3896,
      "ition": 3897,
      "▁che": 3898,
      "▁morality": 3899,
      "41": 3900,
      "▁soph": 3901,
      "ione": 3902,
      "velop": 3903,
      "▁1972": 3904,
      "▁s/he": 3905,
      "▁713-793-": 3906,
      "▁nook": 3907,
      "▁origin": 3908,
      "▁cincinnati": 3909,
      "▁lar": 3910,
      "rier": 3911,
      "▁ourselves": 3912,
      "ence": 3913,
      "▁tot": 3914,
      "icip": 3915,
      "▁hamm": 3916,
      "ert": 3917,
      "▁babies": 3918,
      "airs": 3919,
      "inary": 3920,
      "▁recall": 3921,
      "▁grandmother": 3922,
      "▁experiment": 3923,
      "▁french": 3924,
      "▁mom": 3925,
      "▁economy": 3926,
      "▁ho": 3927,
      "▁basis": 3928,
      "a": 3929,
      "▁beatles": 3930,
      "▁welcome": 3931,
      "eton@ect": 3932,
      "▁cont": 3933,
      "fast": 3934,
      "▁fing": 3935,
      "▁1992": 3936,
      "ensive": 3937,
      "▁kid": 3938,
      "▁subst": 3939,
      "▁prosper": 3940,
      "orton": 3941,
      "▁[": 3942,
      "[UNK]": 3943,
      "3/2000": 3944,
      "▁achieve": 3945,
      "▁yester": 3946,
      "ake": 3947,
      "▁hungry": 3948,
      "1082": 3949,
      "▁able": 3950,
      "▁partners": 3951,
      "mp": 3952,
      "▁29587": 3953,
      "▁anti-": 3954,
      "ado": 3955,
      "eness": 3956,
      "▁urban": 3957,
      "ork": 3958,
      "▁harmon": 3959,
      "v.": 3960,
      "▁hog": 3961,
      "▁might": 3962,
      "▁w/": 3963,
      "▁/": 3964,
      "▁singing": 3965,
      "▁scr": 3966,
      "iciency": 3967,
      "▁coll": 3968,
      "ivity": 3969,
      "cast": 3970,
      "ops": 3971,
      "▁authorities": 3972,
      "▁saw": 3973,
      "▁straw": 3974,
      "verage": 3975,
      "▁israel": 3976,
      "▁......": 3977,
      "▁vogel": 3978,
      "▁romantic": 3979,
      "▁liqu": 3980,
      "▁rul": 3981,
      "▁pleased": 3982,
      "▁elections": 3983,
      "▁04/2": 3984,
      "▁charles": 3985,
      "▁bn": 3986,
      "▁bur": 3987,
      "-4": 3988,
      "▁twenty-six": 3989,
      "pan": 3990,
      "erson": 3991,
      "sh": 3992,
      "▁peau": 3993,
      "▁1966": 3994,
      "▁08/15/2000": 3995,
      "▁rapid": 3996,
      "▁1.5": 3997,
      "▁'re": 3998,
      "ary": 3999,
      "▁pict": 4000,
      "▁12:42": 4001,
      "▁completely": 4002,
      "¢": 4003,
      "▁met": 4004,
      "▁[...": 4005,
      "▁soc": 4006,
      "vant": 4007,
      "▁theod": 4008,
      "▁manage": 4009,
      "▁norton": 4010,
      "▁57": 4011,
      "▁canad": 4012,
      "▁transfer": 4013,
      "asa": 4014,
      "▁square": 4015,
      "▁movement": 4016,
      "▁top": 4017,
      "▁cocktail": 4018,
      "-p": 4019,
      "▁strict": 4020,
      "▁direct": 4021,
      "ations": 4022,
      "rup": 4023,
      "▁170": 4024,
      "▁possible": 4025,
      "eak": 4026,
      "▁713/": 4027,
      "▁115": 4028,
      "▁'em": 4029,
      "▁“": 4030,
      "▁.doc": 4031,
      "nondelibreat": 4032,
      "▁al": 4033,
      "▁cam": 4034,
      "▁construct": 4035,
      "▁1691": 4036,
      "▁gdp": 4037,
      "▁allow": 4038,
      "▁ment": 4039,
      "▁29": 4040,
      "___________": 4041,
      "pping": 4042,
      "▁affected": 4043,
      "▁counterfe": 4044,
      "▁fly": 4045,
      "▁1999": 4046,
      "▁conscious": 4047,
      "▁nuclear": 4048,
      "古": 4049,
      "▁seats": 4050,
      "▁jokes": 4051,
      "▁according": 4052,
      "▁1790": 4053,
      "œ": 4054,
      "▁games": 4055,
      "epend": 4056,
      "▁named": 4057,
      "3-3": 4058,
      "▁what": 4059,
      "▁stories": 4060,
      "▁yout": 4061,
      "<": 4062,
      "▁sounds": 4063,
      "ical": 4064,
      "@enron_de": 4065,
      "▁10/23/2000": 4066,
      "ery": 4067,
      "ansen": 4068,
      "▁ret": 4069,
      "▁images": 4070,
      "▁12.": 4071,
      "▁jumped": 4072,
      "▁josh": 4073,
      "▁source": 4074,
      "▁toys": 4075,
      "▁1738": 4076,
      "ala": 4077,
      ".77": 4078,
      "▁shakes": 4079,
      "▁developed": 4080,
      "▁paying": 4081,
      "▁seeing": 4082,
      "▁belie": 4083,
      "▁adopt": 4084,
      "▁prices": 4085,
      "▁46": 4086,
      "▁comedie": 4087,
      "▁no": 4088,
      "▁202.7": 4089,
      "▁fbi": 4090,
      "▁wife": 4091,
      "/01": 4092,
      "▁talked": 4093,
      "▁streets": 4094,
      "▁01/2": 4095,
      "▁apply": 4096,
      "ob": 4097,
      "aska": 4098,
      "▁11-20-": 4099,
      "▁earth": 4100,
      "▁answers": 4101,
      "▁twentieth": 4102,
      "edge": 4103,
      "▁amendments": 4104,
      "▁38,000": 4105,
      "burg": 4106,
      "▁================================================": 4107,
      "▁31": 4108,
      "▁twenty-": 4109,
      "iety": 4110,
      "▁naima": 4111,
      "pa": 4112,
      "our": 4113,
      "▁c": 4114,
      "▁l'": 4115,
      "▁defined": 4116,
      "lish": 4117,
      "▁wikihow": 4118,
      "▁tab": 4119,
      "▁cur": 4120,
      "am": 4121,
      "▁rose": 4122,
      "astic": 4123,
      "▁.x": 4124,
      "▁bad": 4125,
      "▁furniture": 4126,
      "ften": 4127,
      "▁complete": 4128,
      "▁amongst": 4129,
      "int": 4130,
      "ushing": 4131,
      "▁percentage": 4132,
      "▁947": 4133,
      "ane": 4134,
      "ʃ": 4135,
      "ww": 4136,
      "▁thousand": 4137,
      "▁polic": 4138,
      "▁seemed": 4139,
      "83": 4140,
      "▁widely": 4141,
      "▁anglo": 4142,
      "‘": 4143,
      "▁pricing": 4144,
      "19": 4145,
      "/2": 4146,
      "▁revenue": 4147,
      "▁1928": 4148,
      "eb": 4149,
      "urch": 4150,
      "uries": 4151,
      "▁executive": 4152,
      "▁op": 4153,
      "▁arrog": 4154,
      "▁vlog": 4155,
      "▁something": 4156,
      "▁his": 4157,
      "▁hot": 4158,
      "bert": 4159,
      "819": 4160,
      "▁actually": 4161,
      "▁chinese": 4162,
      "▁cool": 4163,
      "ground": 4164,
      "▁blow": 4165,
      "▁occas": 4166,
      "▁1623": 4167,
      "▁opportun": 4168,
      "ney": 4169,
      "men": 4170,
      "461": 4171,
      "oler": 4172,
      "▁feels": 4173,
      "▁degrees": 4174,
      "rew": 4175,
      ":07": 4176,
      "▁approved": 4177,
      "▁08:30": 4178,
      "▁negoti": 4179,
      "▁nothing": 4180,
      "al.doc": 4181,
      "▁leading": 4182,
      "▁far": 4183,
      "▁calls": 4184,
      "/00": 4185,
      "ank": 4186,
      ":19": 4187,
      "▁thoughts": 4188,
      "▁40": 4189,
      "▁directive": 4190,
      "fi": 4191,
      "▁ingred": 4192,
      "iest": 4193,
      "▁pie": 4194,
      "▁mass": 4195,
      "▁253": 4196,
      "▁heads": 4197,
      "▁1940": 4198,
      "eed": 4199,
      "ting": 4200,
      "▁forster": 4201,
      "▁integr": 4202,
      "▁patter": 4203,
      "▁authority": 4204,
      "aw": 4205,
      "ly": 4206,
      "........": 4207,
      "▁helpful": 4208,
      "isf": 4209,
      "bed": 4210,
      "▁yeah": 4211,
      "▁enough": 4212,
      "▁ital": 4213,
      "ement": 4214,
      "▁64": 4215,
      "clud": 4216,
      "▁help": 4217,
      "lf": 4218,
      "stip": 4219,
      "▁describe": 4220,
      "▁would": 4221,
      "▁hop": 4222,
      "▁belg": 4223,
      "▁helps": 4224,
      "▁federal": 4225,
      "▁opin": 4226,
      "▁wow": 4227,
      "▁global": 4228,
      "▁worried": 4229,
      "up": 4230,
      "▁713/8": 4231,
      "ility": 4232,
      "isk": 4233,
      "▁1971": 4234,
      "æ": 4235,
      "boy": 4236,
      "▁08:50": 4237,
      "81": 4238,
      "▁business": 4239,
      "'": 4240,
      "▁prod": 4241,
      "▁rep": 4242,
      "ided": 4243,
      "▁driving": 4244,
      "▁dar": 4245,
      "▁28": 4246,
      "▁plan": 4247,
      "▁live": 4248,
      "and": 4249,
      "▁august": 4250,
      "▁content": 4251,
      "▁became": 4252,
      "▁aside": 4253,
      "▁perf": 4254,
      "▁hung": 4255,
      "▁flag": 4256,
      "osh": 4257,
      "ither": 4258,
      "▁thro": 4259,
      "▁dear": 4260,
      "▁2014": 4261,
      "▁300,000": 4262,
      "▁scott": 4263,
      "ass": 4264,
      "craft": 4265,
      "▁ron": 4266,
      "▁diss": 4267,
      "▁sens": 4268,
      "▁_____": 4269,
      "▁architect": 4270,
      "▁activ": 4271,
      "▁learned": 4272,
      "▁vietn": 4273,
      "▁finger": 4274,
      "▁202.45": 4275,
      "▁vallee": 4276,
      "▁apar": 4277,
      "▁so": 4278,
      "▁vince": 4279,
      "▁creative": 4280,
      "▁ale": 4281,
      "▁march": 4282,
      "▁measures": 4283,
      "▁distrib": 4284,
      "▁1530": 4285,
      "▁explained": 4286,
      "▁10/2": 4287,
      "jam": 4288,
      "ized": 4289,
      "▁viol": 4290,
      "ig": 4291,
      "▁vis": 4292,
      "▁08/17/2000": 4293,
      "▁fair": 4294,
      "▁!.": 4295,
      "▁favour": 4296,
      "▁tract": 4297,
      "▁cooperation": 4298,
      "rest": 4299,
      "utions": 4300,
      "▁1709": 4301,
      "▁5.8": 4302,
      "ario": 4303,
      "▁season": 4304,
      "▁former": 4305,
      "▁wild": 4306,
      "▁influ": 4307,
      "ant": 4308,
      "▁active": 4309,
      "▁explor": 4310,
      "rical": 4311,
      "▁versus": 4312,
      "▁1602": 4313,
      "ep": 4314,
      "ize": 4315,
      "ackl": 4316,
      "▁iraq": 4317,
      "▁mike": 4318,
      "ustom": 4319,
      "▁dent": 4320,
      "▁.......": 4321,
      "▁applications": 4322,
      "▁hal": 4323,
      "▁;": 4324,
      "ed": 4325,
      "▁are": 4326,
      "▁anc": 4327,
      "eline": 4328,
      "▁agre": 4329,
      "ca": 4330,
      "▁if": 4331,
      "▁esp": 4332,
      "▁kent": 4333,
      "▁oc": 4334,
      "▁sched": 4335,
      "▁hello": 4336,
      "▁tomato": 4337,
      "▁9:30": 4338,
      "▁majority": 4339,
      "▁realize": 4340,
      "▁seeking": 4341,
      "neath": 4342,
      "▁154": 4343,
      "▁730": 4344,
      "▁mwet": 4345,
      "▁promise": 4346,
      "▁successfully": 4347,
      "▁general": 4348,
      "5th": 4349,
      "r": 4350,
      "ear": 4351,
      "▁accomm": 4352,
      "utely": 4353,
      "▁items": 4354,
      "▁1776": 4355,
      "▁transl": 4356,
      "▁airports": 4357,
      "▁serving": 4358,
      "▁appointment": 4359,
      "▁role": 4360,
      "ces": 4361,
      "ses": 4362,
      "▁broad": 4363,
      "▁shakespeare": 4364,
      "erved": 4365,
      "▁tele": 4366,
      "pts": 4367,
      "▁lope": 4368,
      "▁kitty": 4369,
      "▁until": 4370,
      "▁ground": 4371,
      "▁inv": 4372,
      "tt": 4373,
      "▁450": 4374,
      "are": 4375,
      ".htm": 4376,
      "▁amount": 4377,
      "▁distance": 4378,
      "▁possibly": 4379,
      "▁1774": 4380,
      "▁consequences": 4381,
      "▁-2-f.doc": 4382,
      "▁collection": 4383,
      "▁mine": 4384,
      "▁rout": 4385,
      "00": 4386,
      "kin": 4387,
      "21": 4388,
      "▁centre": 4389,
      "▁di": 4390,
      "3736": 4391,
      "▁stated": 4392,
      "case": 4393,
      "er": 4394,
      "ives": 4395,
      "for": 4396,
      "▁range": 4397,
      "▁1943": 4398,
      "ated": 4399,
      "▁unique": 4400,
      "▁outside": 4401,
      "▁interview": 4402,
      "▁1800": 4403,
      "ope": 4404,
      "ip": 4405,
      "▁govern": 4406,
      "▁2,500": 4407,
      "▁buttons": 4408,
      "▁br": 4409,
      "▁their": 4410,
      "▁salad": 4411,
      "▁post": 4412,
      "▁glor": 4413,
      "▁dishes": 4414,
      "▁agricult": 4415,
      "▁people": 4416,
      "ul": 4417,
      "▁3": 4418,
      "▁space": 4419,
      "ild": 4420,
      "▁ii": 4421,
      "▁dozen": 4422,
      "▁crow": 4423,
      "▁spr": 4424,
      "▁islam": 4425,
      "▁miles": 4426,
      "v": 4427,
      "▁vietnam": 4428,
      "!?": 4429,
      "▁pu": 4430,
      "uma": 4431,
      "39": 4432,
      "ashed": 4433,
      "▁anything": 4434,
      "▁declaration": 4435,
      "▁:?": 4436,
      "ast": 4437,
      "▁1220": 4438,
      ".st": 4439,
      "▁epis": 4440,
      "031": 4441,
      "▁purchased": 4442,
      "▁84": 4443,
      "vely": 4444,
      "▁fare": 4445,
      "▁..": 4446,
      "▁202.456.2461": 4447,
      "▁regarding": 4448,
      "▁avo": 4449,
      "ise": 4450,
      "ove": 4451,
      "iro": 4452,
      "▁micro": 4453,
      "▁shoes": 4454,
      "▁rooms": 4455,
      "▁dev": 4456,
      "▁monkey": 4457,
      "υ": 4458,
      "▁teen": 4459,
      "▁coo": 4460,
      "▁smith": 4461,
      "▁implement": 4462,
      "▁bever": 4463,
      "▁1230": 4464,
      "▁wonder": 4465,
      "▁ran": 4466,
      "de": 4467,
      "▁independ": 4468,
      "▁businesses": 4469,
      "91": 4470,
      "▁basket": 4471,
      "▁corner": 4472,
      "▁quality": 4473,
      "▁throu": 4474,
      "▁details": 4475,
      "wards": 4476,
      "▁administ": 4477,
      "▁effective": 4478,
      "▁acts": 4479,
      "▁desert": 4480,
      "▁saved": 4481,
      "▁teams": 4482,
      "▁744": 4483,
      "ction": 4484,
      "▁start": 4485,
      "um": 4486,
      "▁built": 4487,
      "▁lord": 4488,
      "is_0712": 4489,
      ".x": 4490,
      "▁loud": 4491,
      "inn": 4492,
      "▁score": 4493,
      "▁pivottable": 4494,
      "▁err": 4495,
      "▁toy": 4496,
      "▁ky": 4497,
      "ful": 4498,
      "ation": 4499,
      "▁rang": 4500,
      "▁milk": 4501,
      "▁albe": 4502,
      "▁250": 4503,
      "▁finished": 4504,
      "▁-ect-kedne": 4505,
      "ater": 4506,
      "osed": 4507,
      "▁houston": 4508,
      "exp": 4509,
      "▁senator": 4510,
      "bel": 4511,
      "▁appeared": 4512,
      "▁..........": 4513,
      "tte": 4514,
      "iles": 4515,
      "▁cub": 4516,
      "▁easy": 4517,
      "lies": 4518,
      "▁women": 4519,
      "▁lift": 4520,
      "▁acknowled": 4521,
      "▁01/26/2001": 4522,
      "▁ess": 4523,
      "▁falluj": 4524,
      "▁texas": 4525,
      "eeze": 4526,
      "▁'0": 4527,
      "▁analysis_0712": 4528,
      "▁---------------------------------------------------------------------------": 4529,
      "▁nick": 4530,
      "▁restaurants": 4531,
      "clock": 4532,
      "▁copy": 4533,
      "200": 4534,
      "itted": 4535,
      "/97": 4536,
      "490": 4537,
      "vember": 4538,
      "▁樋口": 4539,
      "▁deliver": 4540,
      "ually": 4541,
      "▁insurance": 4542,
      "▁adam": 4543,
      "▁1976": 4544,
      "د": 4545,
      "▁5/18": 4546,
      "▁picture": 4547,
      "▁shr": 4548,
      "▁surprised": 4549,
      "▁interests": 4550,
      "ecess": 4551,
      "▁movies": 4552,
      "▁feed": 4553,
      "▁crowd": 4554,
      "9999": 4555,
      "▁750": 4556,
      "▁stars": 4557,
      "▁justice": 4558,
      "oices": 4559,
      "amp": 4560,
      "▁village": 4561,
      "▁pock": 4562,
      "▁rather": 4563,
      "▁degree": 4564,
      "▁beautiful": 4565,
      "ull": 4566,
      "▁sil": 4567,
      "isc": 4568,
      "▁confir": 4569,
      "▁next": 4570,
      "▁releases": 4571,
      "ote": 4572,
      "▁truth": 4573,
      "▁body": 4574,
      "▁message": 4575,
      "▁making": 4576,
      "▁belong": 4577,
      "▁button": 4578,
      "▁mu": 4579,
      ",8": 4580,
      "▁faces": 4581,
      "▁employ": 4582,
      "▁stopover": 4583,
      "▁1/4": 4584,
      "▁increasing": 4585,
      "▁3-5": 4586,
      "▁ukrain": 4587,
      "ights": 4588,
      "ilt": 4589,
      "▁discovered": 4590,
      "▁packed": 4591,
      "▁away": 4592,
      "▁54,000": 4593,
      "▁elected": 4594,
      "://": 4595,
      "▁decision": 4596,
      "fore": 4597,
      "▁jun": 4598,
      "▁cop": 4599,
      "▁typ": 4600,
      "▁09:14": 4601,
      "▁enjamb": 4602,
      "▁except": 4603,
      "▁trying": 4604,
      "▁descri": 4605,
      "▁tent": 4606,
      "▁comfort": 4607,
      "oted": 4608,
      "▁entitled": 4609,
      "▁display": 4610,
      "▁libr": 4611,
      "ternal": 4612,
      "▁1660": 4613,
      "dom": 4614,
      "▁bern": 4615,
      "sid": 4616,
      "▁salt": 4617,
      "▁nope": 4618,
      "▁exerc": 4619,
      "▁spain": 4620,
      "▁1944": 4621,
      "▁stud": 4622,
      "itions": 4623,
      "/11/2004": 4624,
      "▁med": 4625,
      "is": 4626,
      "cal": 4627,
      "▁please": 4628,
      "e@enron": 4629,
      "▁mission": 4630,
      "▁proposal": 4631,
      "▁status": 4632,
      "▁pets": 4633,
      "▁infl": 4634,
      "▁down": 4635,
      "▁problems": 4636,
      "▁832": 4637,
      "ances": 4638,
      "-59": 4639,
      "▁foreign": 4640,
      "▁action": 4641,
      "▁men": 4642,
      ":44": 4643,
      "▁days": 4644,
      "▁father": 4645,
      "▁negot": 4646,
      "▁thursday": 4647,
      "▁1593": 4648,
      "▁adding": 4649,
      "▁gentle": 4650,
      "▁fish": 4651,
      "▁guys": 4652,
      "▁33": 4653,
      "▁hope": 4654,
      "▁smok": 4655,
      "▁enforcement": 4656,
      "▁happening": 4657,
      "▁determined": 4658,
      "▁bac": 4659,
      "ps": 4660,
      "▁think": 4661,
      "▁mommy": 4662,
      "▁raised": 4663,
      "▁greater": 4664,
      "vern": 4665,
      "ommend": 4666,
      "▁tralee": 4667,
      "ech": 4668,
      "istic": 4669,
      "as": 4670,
      "▁vot": 4671,
      "▁ll": 4672,
      "▁hosp": 4673,
      "▁mountain": 4674,
      "▁4.0": 4675,
      "▁closed": 4676,
      "▁rat": 4677,
      "ada": 4678,
      "▁aft": 4679,
      "▁electric": 4680,
      "▁belief": 4681,
      "ten": 4682,
      "▁zealand": 4683,
      "▁near": 4684,
      "▁broken": 4685,
      "▁trad": 4686,
      "▁f": 4687,
      "ale": 4688,
      "▁paul": 4689,
      "▁11": 4690,
      "ructure": 4691,
      "▁exercise": 4692,
      "log": 4693,
      "▁wolf": 4694,
      "201": 4695,
      "▁taken": 4696,
      "▁researchers": 4697,
      "▁earliest": 4698,
      "▁style": 4699,
      "antly": 4700,
      "▁150": 4701,
      "▁forster@enron": 4702,
      "▁11:16": 4703,
      "ν": 4704,
      "▁workers": 4705,
      "▁94": 4706,
      "ange": 4707,
      "▁advance": 4708,
      "▁behalf": 4709,
      "▁phys": 4710,
      "▁consc": 4711,
      "▁1611": 4712,
      "▁whale": 4713,
      "▁hair": 4714,
      "▁1:30": 4715,
      "▁somewhere": 4716,
      "▁—": 4717,
      "▁158": 4718,
      ":23": 4719,
      "str": 4720,
      "ould": 4721,
      "▁swim": 4722,
      "▁baseball": 4723,
      "50": 4724,
      "▁newsp": 4725,
      "▁strateg": 4726,
      "▁capac": 4727,
      "▁taste": 4728,
      "▁vogelaviatio": 4729,
      "▁represent": 4730,
      "▁brother": 4731,
      "▁iraqi": 4732,
      "▁hy": 4733,
      "ams": 4734,
      "▁marbles": 4735,
      "▁falling": 4736,
      "otted": 4737,
      "▁gr": 4738,
      "▁54": 4739,
      "ins": 4740,
      "▁arrival": 4741,
      "59": 4742,
      "▁confl": 4743,
      "▁laid": 4744,
      "▁airfare": 4745,
      "ict": 4746,
      "▁oh": 4747,
      "▁peter": 4748,
      "▁enron": 4749,
      "▁thru": 4750,
      "▁intelligence": 4751,
      "▁tick": 4752,
      "-h": 4753,
      "▁write": 4754,
      "www": 4755,
      "▁alex": 4756,
      "▁forest": 4757,
      "ida": 4758,
      "onto": 4759,
      "▁gal": 4760,
      "▁shall": 4761,
      "▁ted": 4762,
      "nut": 4763,
      "▁jose": 4764,
      "▁opportunities": 4765,
      "▁agenda": 4766,
      "ent": 4767,
      "#6": 4768,
      "ouble": 4769,
      "▁cause": 4770,
      "▁musharraf": 4771,
      "ved": 4772,
      "▁service": 4773,
      "▁six": 4774,
      "▁03/21/2001": 4775,
      "▁accommod": 4776,
      "rou": 4777,
      "½": 4778,
      "▁se": 4779,
      "▁character": 4780,
      "▁informacion": 4781,
      "▁225": 4782,
      "▁serv": 4783,
      "▁analys": 4784,
      "▁sports": 4785,
      "agon": 4786,
      "ion": 4787,
      "------->": 4788,
      "▁cast": 4789,
      "ous": 4790,
      "rif": 4791,
      "uing": 4792,
      "▁gh": 4793,
      "▁essential": 4794,
      "▁activity": 4795,
      "????????????????????????????????": 4796,
      "ento": 4797,
      "▁implementation": 4798,
      "ele": 4799,
      "▁1981": 4800,
      "▁consum": 4801,
      "▁solid": 4802,
      "▁169": 4803,
      "▁evolution": 4804,
      "▁andy": 4805,
      "▁b/": 4806,
      "▁num": 4807,
      "▁sql": 4808,
      "▁pm": 4809,
      "▁pepper": 4810,
      "ship": 4811,
      "▁khan@transredes": 4812,
      "▁fellow": 4813,
      "usions": 4814,
      "▁goal": 4815,
      "cab": 4816,
      "89": 4817,
      "▁certific": 4818,
      "▁od": 4819,
      "hib": 4820,
      "▁sex": 4821,
      "++++++++": 4822,
      "inging": 4823,
      "▁hearing": 4824,
      "▁1291": 4825,
      "ollow": 4826,
      "▁thy": 4827,
      "▁exist": 4828,
      "▁hat": 4829,
      "▁spear": 4830,
      "▁cre": 4831,
      "▁adopted": 4832,
      "▁whoever": 4833,
      "igned": 4834,
      "▁rel": 4835,
      "omm": 4836,
      "ates": 4837,
      "▁copies": 4838,
      "▁term": 4839,
      "ughter": 4840,
      "▁240": 4841,
      "▁agents": 4842,
      "▁pulled": 4843,
      "/": 4844,
      "▁chance": 4845,
      "▁09/16": 4846,
      "▁treatment": 4847,
      "▁silly": 4848,
      "▁observed": 4849,
      "elf": 4850,
      "▁though": 4851,
      "▁included": 4852,
      "▁6.8": 4853,
      "▁occasion": 4854,
      "▁account": 4855,
      "▁324": 4856,
      "▁marked": 4857,
      "▁weapons": 4858,
      "▁gets": 4859,
      "▁2.0": 4860,
      "▁penn": 4861,
      "▁cruc": 4862,
      "gely": 4863,
      "▁socks": 4864,
      "▁foundation": 4865,
      "▁dro": 4866,
      "▁cath": 4867,
      "▁exp": 4868,
      "rist": 4869,
      "▁trails": 4870,
      "▁stick": 4871,
      "▁eight": 4872,
      "▁treat": 4873,
      "esday": 4874,
      "▁anymore": 4875,
      "do": 4876,
      "▁showed": 4877,
      "ʊ": 4878,
      "134": 4879,
      "▁production": 4880,
      "▁comm": 4881,
      "▁introduced": 4882,
      "▁hurts": 4883,
      "▁truck": 4884,
      "▁stage": 4885,
      "umn": 4886,
      "stairs": 4887,
      "▁smell": 4888,
      "▁stay": 4889,
      "▁worry": 4890,
      "let": 4891,
      "oman": 4892,
      "▁thirteen": 4893,
      "band": 4894,
      "▁birth": 4895,
      "▁125": 4896,
      "xim": 4897,
      "▁web": 4898,
      "life": 4899,
      "▁relig": 4900,
      ".s": 4901,
      "selves": 4902,
      "▁fast": 4903,
      "_^": 4904,
      "-343": 4905,
      "▁offers": 4906,
      "▁settlement": 4907,
      "▁larger": 4908,
      "▁ru": 4909,
      "▁dwww": 4910,
      "▁contain": 4911,
      "▁seventeen": 4912,
      "▁puts": 4913,
      "▁corpor": 4914,
      "▁run": 4915,
      "▁plant": 4916,
      "ty": 4917,
      "▁bread": 4918,
      "▁arrest": 4919,
      "▁raining": 4920,
      "▁occur": 4921,
      "▁this": 4922,
      "nondelibreaten": 4923,
      "orm": 4924,
      "▁refused": 4925,
      "▁speaker": 4926,
      "▁bott": 4927,
      "▁pach": 4928,
      "ule": 4929,
      "illed": 4930,
      "▁really": 4931,
      "▁peoples": 4932,
      "how": 4933,
      "▁05/30/2001": 4934,
      "▁liberty": 4935,
      "▁pric": 4936,
      "▁3:00": 4937,
      "▁provided": 4938,
      "▁israeli": 4939,
      "▁pho": 4940,
      "▁11:35": 4941,
      "0072": 4942,
      "ح": 4943,
      "ampa": 4944,
      "▁same": 4945,
      "aur": 4946,
      "▁steps": 4947,
      "gh": 4948,
      "▁uh": 4949,
      "▁graduate": 4950,
      "▁query": 4951,
      "zy": 4952,
      "▁connection": 4953,
      "▁wan": 4954,
      "les": 4955,
      "▁agent": 4956,
      "▁few": 4957,
      "▁ble": 4958,
      "ide": 4959,
      "urt": 4960,
      "“": 4961,
      "▁aust": 4962,
      "▁strong": 4963,
      "▁41": 4964,
      "▁understand": 4965,
      "▁yard": 4966,
      "587": 4967,
      "way": 4968,
      "▁unfortun": 4969,
      "ication": 4970,
      "▁neighbour": 4971,
      "▁judg": 4972,
      "umer": 4973,
      "4-": 4974,
      "▁town": 4975,
      "▁online": 4976,
      "▁nabe": 4977,
      "▁1969": 4978,
      "tw": 4979,
      "▁1564": 4980,
      "▁basically": 4981,
      "▁shoe": 4982,
      "▁lies": 4983,
      "▁expensive": 4984,
      "▁01:39": 4985,
      "▁pul": 4986,
      "▁legislative": 4987,
      "▁2": 4988,
      "▁#": 4989,
      "▁spanish": 4990,
      "▁79": 4991,
      "▁mh": 4992,
      "▁sending": 4993,
      "ired": 4994,
      "▁okay": 4995,
      "▁third": 4996,
      "▁challenge": 4997,
      "▁anim": 4998,
      "▁wars": 4999,
      "▁230": 5000,
      "▁tummy": 5001,
      "▁plane": 5002,
      "▁life": 5003,
      "▁je": 5004,
      "ol": 5005,
      "▁doors": 5006,
      "▁god": 5007,
      "口": 5008,
      "▁apr": 5009,
      "▁comple": 5010,
      "▁stra": 5011,
      "▁renew": 5012,
      "een": 5013,
      "▁bodies": 5014,
      "ling": 5015,
      "▁shows": 5016,
      "▁rail": 5017,
      "▁rise": 5018,
      "▁opened": 5019,
      "▁atlanta": 5020,
      "▁policy": 5021,
      "-2": 5022,
      "▁1222": 5023,
      "uz": 5024,
      "▁sitting": 5025,
      "▁7.3": 5026,
      "▁walked": 5027,
      "▁???": 5028,
      "▁priority": 5029,
      "▁sent": 5030,
      "▁encour": 5031,
      "yal": 5032,
      "▁igts": 5033,
      "▁energ": 5034,
      "▁necessary": 5035,
      "子": 5036,
      "▁cheek": 5037,
      "▁univers": 5038,
      "▁andrillae": 5039,
      "▁satan": 5040,
      "▁storm": 5041,
      "▁unto": 5042,
      "q": 5043,
      "▁elements": 5044,
      "▁company": 5045,
      "▁benef": 5046,
      "▁def": 5047,
      "lackl": 5048,
      "▁year": 5049,
      "▁dur": 5050,
      "ried": 5051,
      "▁coffee": 5052,
      "ipping": 5053,
      "▁route": 5054,
      "hol": 5055,
      "▁interact": 5056,
      "▁oce": 5057,
      "▁restrict": 5058,
      "▁sad": 5059,
      "▁strain": 5060,
      "▁sever": 5061,
      "▁,?": 5062,
      "▁returning": 5063,
      "▁beach": 5064,
      "▁tri": 5065,
      "▁rib": 5066,
      "stem": 5067,
      "illion": 5068,
      "▁news": 5069,
      "▁contact": 5070,
      "▁tal": 5071,
      "▁i.": 5072,
      "▁div": 5073,
      "▁pil": 5074,
      "▁color": 5075,
      "▁t": 5076,
      "▁join": 5077,
      "2": 5078,
      "rod": 5079,
      "road": 5080,
      "▁bone": 5081,
      "▁11:07": 5082,
      "▁iu": 5083,
      "▁lucky": 5084,
      "▁allowed": 5085,
      "dy": 5086,
      "▁montejo": 5087,
      "▁choose": 5088,
      "igning": 5089,
      "▁ukraine": 5090,
      "ortun": 5091,
      "▁1000": 5092,
      "▁111": 5093,
      "▁offered": 5094,
      "********": 5095,
      "order": 5096,
      "▁08/03": 5097,
      "esth": 5098,
      "▁rush": 5099,
      "ste": 5100,
      "ities": 5101,
      "▁esc": 5102,
      "▁held": 5103,
      "▁hen": 5104,
      "▁northwest": 5105,
      "▁noise": 5106,
      "▁tradition": 5107,
      "▁horrible": 5108,
      "▁downtown": 5109,
      "▁emp": 5110,
      "▁ext": 5111,
      "▁1592": 5112,
      "▁3889": 5113,
      "▁lose": 5114,
      "+----------------": 5115,
      "▁release": 5116,
      ":45": 5117,
      "▁1700": 5118,
      "etime": 5119,
      "▁en": 5120,
      "▁spac": 5121,
      "▁07/17/2000": 5122,
      "▁tourists": 5123,
      "▁91": 5124,
      "ject": 5125,
      "▁purp": 5126,
      "1.": 5127,
      "▁4.": 5128,
      "▁empty": 5129,
      "▁conc": 5130,
      "▁gar": 5131,
      "27": 5132,
      "▁forces": 5133,
      "amed": 5134,
      "▁prom": 5135,
      "▁cupc": 5136,
      "all": 5137,
      "▁difficult": 5138,
      "asing": 5139,
      "▁bones": 5140,
      "▁arrived": 5141,
      "▁hurry": 5142,
      "▁middle": 5143,
      "▁susp": 5144,
      "▁713-654-": 5145,
      "etary": 5146,
      "414": 5147,
      "za": 5148,
      "ingu": 5149,
      "▁wid": 5150,
      "elling": 5151,
      "▁independence": 5152,
      "▁rural": 5153,
      "~*~*~*~*": 5154,
      "721": 5155,
      "===<----": 5156,
      "▁sri": 5157,
      "▁punch": 5158,
      "▁attem": 5159,
      "▁mush": 5160,
      "▁30": 5161,
      "▁three": 5162,
      "▁full": 5163,
      "▁infrastructure": 5164,
      "▁pants": 5165,
      "ah": 5166,
      "ison": 5167,
      "se": 5168,
      ".ht": 5169,
      "ther": 5170,
      "▁together": 5171,
      "▁final": 5172,
      "▁meals": 5173,
      "▁spl": 5174,
      "▁impl": 5175,
      "▁spread": 5176,
      "▁notebook.url": 5177,
      "▁gall": 5178,
      "tim": 5179,
      "omen": 5180,
      "▁author": 5181,
      "igr": 5182,
      "▁answered": 5183,
      "▁03/0": 5184,
      "▁percell": 5185,
      "itude": 5186,
      "▁palest": 5187,
      "less": 5188,
      "eries": 5189,
      "oph": 5190,
      "ades": 5191,
      "▁culture": 5192,
      "▁02/27/2001": 5193,
      "远": 5194,
      "▁station": 5195,
      "b)": 5196,
      "▁argument": 5197,
      "▁find": 5198,
      "▁honest": 5199,
      "▁systems": 5200,
      "▁waste": 5201,
      "▁aud": 5202,
      "▁mum": 5203,
      "▁bit": 5204,
      "▁miami": 5205,
      "eapolis": 5206,
      "uses": 5207,
      "▁brit": 5208,
      "animals": 5209,
      "gan": 5210,
      "▁1970": 5211,
      "▁852": 5212,
      "▁statements": 5213,
      "▁-%": 5214,
      "▁devil": 5215,
      "its": 5216,
      "▁yet": 5217,
      "▁tried": 5218,
      "▁&": 5219,
      "ators": 5220,
      "▁offices": 5221,
      "▁site": 5222,
      "▁put": 5223,
      "▁assume": 5224,
      "rad": 5225,
      "▁normal": 5226,
      "une": 5227,
      "▁client": 5228,
      "▁compon": 5229,
      "aro": 5230,
      "▁comput": 5231,
      "▁imple": 5232,
      "▁popcorn": 5233,
      "▁different": 5234,
      "ization": 5235,
      "▁department": 5236,
      "▁pe": 5237,
      "▁opposite": 5238,
      "▁emph": 5239,
      "▁mile": 5240,
      "▁2022": 5241,
      "▁drop": 5242,
      "▁medical": 5243,
      "▁350": 5244,
      "▁medicine": 5245,
      "▁daughter": 5246,
      "▁turis": 5247,
      "▁causes": 5248,
      "▁rev": 5249,
      "-518": 5250,
      "▁2.3": 5251,
      "§": 5252,
      "▁weas": 5253,
      "▁fill": 5254,
      "ished": 5255,
      "▁writer": 5256,
      "▁270": 5257,
      "▁copyright": 5258,
      "▁tax": 5259,
      "▁directly": 5260,
      "▁ip": 5261,
      "gin": 5262,
      "▁800-5": 5263,
      "4-79": 5264,
      "▁question": 5265,
      "▁veh": 5266,
      "▁race": 5267,
      "▁ric": 5268,
      "▁tennis": 5269,
      "▁4.7": 5270,
      "▁garden": 5271,
      "▁ireland": 5272,
      "▁looking": 5273,
      "io": 5274,
      "▁hoo": 5275,
      "▁happy": 5276,
      "▁1799": 5277,
      "▁beliefs": 5278,
      "▁02-0": 5279,
      "isl": 5280,
      "▁ign": 5281,
      "▁putting": 5282,
      "▁cover": 5283,
      "▁muslim": 5284,
      "over": 5285,
      "▁uhoh": 5286,
      "▁strongly": 5287,
      ":57": 5288,
      "aging": 5289,
      "sus": 5290,
      "▁1.3": 5291,
      "▁severe": 5292,
      "raw": 5293,
      "▁compared": 5294,
      "▁lopez": 5295,
      "gether": 5296,
      "▁140": 5297,
      "---------------": 5298,
      "▁costs": 5299,
      "iddle": 5300,
      ">": 5301,
      "▁reg": 5302,
      "▁fifteen": 5303,
      "▁seating": 5304,
      "▁ord": 5305,
      "iture": 5306,
      "▁decl": 5307,
      "▁mic": 5308,
      "▁366": 5309,
      "▁anal": 5310,
      "▁inf": 5311,
      "▁!!": 5312,
      "▁direction": 5313,
      "▁witness": 5314,
      "▁agreed": 5315,
      "▁meant": 5316,
      "▁height": 5317,
      "sd": 5318,
      "▁db": 5319,
      "pite": 5320,
      "▁force": 5321,
      "▁prepar": 5322,
      "▁zero": 5323,
      "▁back": 5324,
      "▁=)": 5325,
      "▁whil": 5326,
      "▁268": 5327,
      "▁bright": 5328,
      "▁100,000": 5329,
      "▁quote": 5330,
      "▁moving": 5331,
      "-0295": 5332,
      "▁bow": 5333,
      "▁łodzian": 5334,
      "▁information": 5335,
      "iding": 5336,
      "icycle": 5337,
      "•": 5338,
      "▁desire": 5339,
      "ua": 5340,
      "▁between": 5341,
      "▁cuz": 5342,
      "98": 5343,
      "▁lay": 5344,
      "▁mr.": 5345,
      "▁including": 5346,
      "▁cogn": 5347,
      "▁tourist": 5348,
      "^": 5349,
      "▁thirty-": 5350,
      "icing": 5351,
      "ral": 5352,
      "_de": 5353,
      "▁ye": 5354,
      "▁also": 5355,
      "ics": 5356,
      "▁camp": 5357,
      "ified": 5358,
      "▁type": 5359,
      "▁happens": 5360,
      "/25/2001": 5361,
      "▁require": 5362,
      "▁francisco": 5363,
      "▁415.621.8317": 5364,
      "▁fright": 5365,
      "▁humaine": 5366,
      "hold": 5367,
      "ore": 5368,
      "▁crazy": 5369,
      "▁laws": 5370,
      "▁da": 5371,
      ">===": 5372,
      "▁deals": 5373,
      "▁swww": 5374,
      "▁ju": 5375,
      "▁bas": 5376,
      "ald": 5377,
      "▁30,000": 5378,
      "ird": 5379,
      "▁puppy": 5380,
      "iew": 5381,
      "▁follow": 5382,
      "iber": 5383,
      "▁licens": 5384,
      "▁coun": 5385,
      "▁housing": 5386,
      "▁sustain": 5387,
      "▁microphone": 5388,
      "xce": 5389,
      "▁3,": 5390,
      "▁bridge": 5391,
      "haps": 5392,
      "9": 5393,
      "ami": 5394,
      "-84": 5395,
      "▁strategy": 5396,
      "aph": 5397,
      "▁expertise": 5398,
      "ying": 5399,
      "183": 5400,
      "▁owned": 5401,
      "▁ris": 5402,
      "asons": 5403,
      "▁soldiers": 5404,
      "▁tel": 5405,
      "▁remind": 5406,
      "ivers": 5407,
      "▁noticed": 5408,
      "▁04:03": 5409,
      "▁205": 5410,
      "▁either": 5411,
      "▁complic": 5412,
      "▁reading": 5413,
      "▁immediately": 5414,
      "▁moral": 5415,
      ":24": 5416,
      "▁san": 5417,
      "▁nato": 5418,
      "ection": 5419,
      "kes": 5420,
      "▁concept": 5421,
      "rans": 5422,
      "▁audience": 5423,
      "ential": 5424,
      ":58": 5425,
      "▁richard": 5426,
      "▁joe": 5427,
      "other": 5428,
      "▁asia": 5429,
      "emic": 5430,
      "▁egg": 5431,
      "▁wo": 5432,
      "▁listing": 5433,
      "athy": 5434,
      "▁66": 5435,
      "idd": 5436,
      "▁sick": 5437,
      "icles": 5438,
      "▁150,000": 5439,
      "▁fun": 5440,
      "▁rice": 5441,
      "▁runs": 5442,
      "▁second": 5443,
      "▁properly": 5444,
      "▁fav": 5445,
      "▁services": 5446,
      "▁pink": 5447,
      "▁emb": 5448,
      "~": 5449,
      "▁plac": 5450,
      "▁displ": 5451,
      "▁proper": 5452,
      "▁646-8420": 5453,
      "▁border": 5454,
      "▁prep": 5455,
      "▁visit": 5456,
      "▁suddenly": 5457,
      "li": 5458,
      "▁23": 5459,
      "▁galois": 5460,
      "▁tree": 5461,
      "ota": 5462,
      "▁trump": 5463,
      "▁06": 5464,
      "out": 5465,
      "▁catholic": 5466,
      "▁1701": 5467,
      "▁produced": 5468,
      "tica": 5469,
      "▁affect": 5470,
      "▁invol": 5471,
      "tejo": 5472,
      "side": 5473,
      "▁karzai": 5474,
      "▁bee": 5475,
      "▁mun": 5476,
      "▁anybody": 5477,
      "▁separ": 5478,
      "▁believes": 5479,
      "▁qu": 5480,
      "▁manner": 5481,
      "▁cute": 5482,
      "▁involve": 5483,
      "gill": 5484,
      "eng": 5485,
      "▁robert": 5486,
      "67": 5487,
      "▁meaning": 5488,
      "▁interconnect": 5489,
      "cent": 5490,
      "▁713-654-03": 5491,
      "▁philadelp": 5492,
      "▁899": 5493,
      "▁alongside": 5494,
      "▁recover": 5495,
      "▁,": 5496,
      ":30": 5497,
      "▁november": 5498,
      "▁languages": 5499,
      "▁arrow": 5500,
      "▁university": 5501,
      "▁inter": 5502,
      "▁polit": 5503,
      "▁shape": 5504,
      "▁1/2": 5505,
      "▁breath": 5506,
      "ief": 5507,
      "▁deter": 5508,
      "▁padaleck": 5509,
      "ists": 5510,
      "▁note": 5511,
      "ements": 5512,
      "▁techn": 5513,
      "▁effort": 5514,
      "▁clos": 5515,
      "uce": 5516,
      "▁police": 5517,
      "▁+1": 5518,
      "▁rad": 5519,
      "▁the": 5520,
      "20": 5521,
      "▁eggs": 5522,
      "▁everyday": 5523,
      "room": 5524,
      "▁sw": 5525,
      "▁200": 5526,
      "lebr": 5527,
      "▁sales": 5528,
      "▁afford": 5529,
      "▁love": 5530,
      "▁behind": 5531,
      "▁coc": 5532,
      "▁pretty": 5533,
      "▁carol": 5534,
      "na": 5535,
      "▁>": 5536,
      "▁pre": 5537,
      "ugh": 5538,
      "▁thank": 5539,
      "▁32": 5540,
      "ruct": 5541,
      "▁believe": 5542,
      "▁technology": 5543,
      "gar": 5544,
      "▁dial": 5545,
      "▁kick": 5546,
      "8/2000": 5547,
      "▁347": 5548,
      "▁htt": 5549,
      "▁wit": 5550,
      "▁local": 5551,
      "▁tu": 5552,
      "▁make": 5553,
      "isation": 5554,
      "—": 5555,
      "ran": 5556,
      "/31": 5557,
      "▁non": 5558,
      "▁12:3": 5559,
      "▁heav": 5560,
      ":16": 5561,
      "olog": 5562,
      "ers": 5563,
      "▁10:45": 5564,
      "▁collect": 5565,
      "▁robot": 5566,
      "25": 5567,
      "▁transport": 5568,
      "▁modulo": 5569,
      "▁!!!!!!!!!!": 5570,
      "edie": 5571,
      "▁york": 5572,
      "phis": 5573,
      "▁domin": 5574,
      "▁challeng": 5575,
      "▁pushed": 5576,
      "▁vent": 5577,
      "▁res": 5578,
      "▁visual": 5579,
      "▁bond": 5580,
      "16": 5581,
      "uj": 5582,
      "▁fell": 5583,
      "▁hell": 5584,
      "▁seems": 5585,
      "leep": 5586,
      "▁quickly": 5587,
      "▁3,202": 5588,
      "oured": 5589,
      "▁equipment": 5590,
      "w": 5591,
      "▁half": 5592,
      "47": 5593,
      "▁eyes": 5594,
      "peare": 5595,
      "▁consist": 5596,
      "▁str": 5597,
      "▁separate": 5598,
      "▁initiative": 5599,
      ".75": 5600,
      "▁continues": 5601,
      "▁b": 5602,
      "▁couch": 5603,
      "65": 5604,
      "ze": 5605,
      "▁27": 5606,
      "iban": 5607,
      "▁5.3": 5608,
      ";": 5609,
      "ael": 5610,
      "!": 5611,
      "▁happ": 5612,
      "▁tag": 5613,
      "▁gray": 5614,
      "▁wall": 5615,
      "enue": 5616,
      "61": 5617,
      "▁salon": 5618,
      "======": 5619,
      "▁frequently": 5620,
      "resh": 5621,
      "mission": 5622,
      "▁47": 5623,
      "▁obs": 5624,
      "▁terrible": 5625,
      "▁william": 5626,
      "▁joke": 5627,
      "▁gen": 5628,
      "wor": 5629,
      "ines": 5630,
      "▁press": 5631,
      "▁reform": 5632,
      "▁committee": 5633,
      "▁philosoph": 5634,
      "-0": 5635,
      "▁dim": 5636,
      "▁08:00": 5637,
      "▁traffic": 5638,
      "▁shock": 5639,
      "▁check": 5640,
      "▁includes": 5641,
      "▁produce": 5642,
      "▁sant": 5643,
      "▁sites": 5644,
      "just": 5645,
      "ident": 5646,
      "ache": 5647,
      "zac": 5648,
      "▁repeated": 5649,
      "▁growth": 5650,
      "▁fed": 5651,
      "▁kind": 5652,
      "▁bro": 5653,
      "▁944": 5654,
      "▁fro": 5655,
      "▁trade": 5656,
      "▁attend": 5657,
      "-20": 5658,
      "▁wiz": 5659,
      "ucing": 5660,
      "▁running": 5661,
      "▁樋": 5662,
      "▁415.782.7822": 5663,
      "▁excell": 5664,
      "▁toes": 5665,
      "▁walk": 5666,
      "▁tenn": 5667,
      "▁autom": 5668,
      "▁mechan": 5669,
      "▁continue": 5670,
      "▁relations": 5671,
      "▁announced": 5672,
      "reh": 5673,
      "▁trial": 5674,
      "▁operations": 5675,
      "i-": 5676,
      "▁tank": 5677,
      "▁nations": 5678,
      "▁seven": 5679,
      "pped": 5680,
      "▁minister": 5681,
      "▁blind": 5682,
      "▁555": 5683,
      "▁(": 5684,
      "▁et": 5685,
      "▁column": 5686,
      "ir": 5687,
      "▁enter": 5688,
      "_00.doc": 5689,
      "▁analyst": 5690,
      "verty": 5691,
      "▁ed": 5692,
      "▁surprise": 5693,
      "ott": 5694,
      "▁is": 5695,
      "▁713-79": 5696,
      "▁types": 5697,
      "tegr": 5698,
      "▁transaction": 5699,
      "ias": 5700,
      "▁piv": 5701,
      "▁pat": 5702,
      "▁materials": 5703,
      "▁demonstr": 5704,
      "▁matter": 5705,
      "1-9": 5706,
      "▁immediate": 5707,
      "▁correspond": 5708,
      "▁various": 5709,
      "▁:": 5710,
      "▁09:01": 5711,
      "▁360": 5712,
      "▁christmas": 5713,
      "▁dollars": 5714,
      "▁03/09/2000": 5715,
      "▁mitchell": 5716,
      "▁1843": 5717,
      "▁1939": 5718,
      "▁mont": 5719,
      "oms": 5720,
      "▁personally": 5721,
      "18": 5722,
      "▁c.": 5723,
      "▁iso": 5724,
      "▁cooked": 5725,
      "▁valley": 5726,
      "▁haf": 5727,
      "▁jour": 5728,
      "ribe": 5729,
      "ification": 5730,
      "▁speak": 5731,
      "▁khan@t": 5732,
      "▁participation": 5733,
      "▁!!!!!!!!!!!!!": 5734,
      "▁1.25": 5735,
      "▁mayor": 5736,
      "▁model": 5737,
      "5-02.doc": 5738,
      "▁presented": 5739,
      "▁04/30/2001": 5740,
      "▁further": 5741,
      "▁vers": 5742,
      "▁brush": 5743,
      "▁poet": 5744,
      "▁lists": 5745,
      "▁$": 5746,
      "▁gaz": 5747,
      "▁circle": 5748,
      "alth": 5749,
      "▁base": 5750,
      "▁daddy": 5751,
      "▁http://": 5752,
      "▁rem": 5753,
      "▁vegas": 5754,
      "eral": 5755,
      "▁trail": 5756,
      "▁comed": 5757,
      "▁<<": 5758,
      "▁gi": 5759,
      "▁practice": 5760,
      "▁-------------------------------------------------": 5761,
      "▁draft": 5762,
      "▁rot": 5763,
      "▁straight": 5764,
      "▁historical": 5765,
      "g": 5766,
      "▁provides": 5767,
      "▁10:56": 5768,
      "▁individuals": 5769,
      "rem": 5770,
      "▁close": 5771,
      "▁ta": 5772,
      "ories": 5773,
      "▁620-": 5774,
      "▁imag": 5775,
      "▁whereby": 5776,
      "▁£": 5777,
      "▁means": 5778,
      "▁fit": 5779,
      "ie": 5780,
      "▁fifth": 5781,
      "▁labor": 5782,
      "▁e-m": 5783,
      "▁limit": 5784,
      "________________________________": 5785,
      "itely": 5786,
      ":50": 5787,
      "▁its": 5788,
      "▁cru": 5789,
      "ious": 5790,
      "▁1958": 5791,
      "est": 5792,
      "▁huh": 5793,
      "▁orland": 5794,
      "▁energy": 5795,
      "drft8-7": 5796,
      "ff": 5797,
      "▁saturday": 5798,
      "ke": 5799,
      "ract": 5800,
      "▁datab": 5801,
      "£": 5802,
      "▁ryan": 5803,
      "▁1859": 5804,
      "apolis": 5805,
      "▁compar": 5806,
      "istan": 5807,
      "▁yours": 5808,
      "▁tec": 5809,
      "▁bea": 5810,
      "iques": 5811,
      "▁113": 5812,
      "▁resident": 5813,
      "▁lot": 5814,
      "▁prompt": 5815,
      "▁2,": 5816,
      "▁af": 5817,
      "▁r": 5818,
      "▁cards": 5819,
      "▁mad": 5820,
      "uela": 5821,
      "▁315-460-33": 5822,
      "▁spray": 5823,
      "▁turning": 5824,
      "ional": 5825,
      "ha": 5826,
      "▁tell": 5827,
      "▁flight": 5828,
      "ating": 5829,
      "oses": 5830,
      "▁app": 5831,
      "▁aircraft": 5832,
      "rict": 5833,
      "▁pos": 5834,
      "▁156": 5835,
      "▁noted": 5836,
      "▁players": 5837,
      "▁cheese": 5838,
      "▁touch": 5839,
      "▁42,000": 5840,
      "▁horse": 5841,
      "▁3/9": 5842,
      "ason": 5843,
      "iately": 5844,
      "▁03:20": 5845,
      "▁1900": 5846,
      "▁constitution": 5847,
      "▁inc": 5848,
      "▁required": 5849,
      "▁remo": 5850,
      "▁picked": 5851,
      "▁11:3": 5852,
      "▁sam": 5853,
      "▁be": 5854,
      "▁john": 5855,
      "ons": 5856,
      "▁marsh": 5857,
      "2/2000": 5858,
      "icle": 5859,
      "▁months": 5860,
      "▁it's": 5861,
      "▁thing": 5862,
      "▁more": 5863,
      "▁amaz": 5864,
      "4": 5865,
      "▁olivia": 5866,
      "▁garage": 5867,
      "▁morning": 5868,
      "ator": 5869,
      "▁mil": 5870,
      "▁.?": 5871,
      "▁aunt": 5872,
      "▁1962": 5873,
      "▁earli": 5874,
      "▁01:39:56": 5875,
      "▁!!!!!!!!!!!!!!!!!!!": 5876,
      "▁object": 5877,
      "▁disc": 5878,
      "▁08": 5879,
      "▁prem": 5880,
      "3.6": 5881,
      "▁99": 5882,
      "▁partic": 5883,
      "▁situation": 5884,
      "▁mathemat": 5885,
      "▁gul": 5886,
      "▁exch": 5887,
      "▁2:30": 5888,
      "▁center": 5889,
      "ider": 5890,
      "▁val": 5891,
      "▁-": 5892,
      "▁act": 5893,
      "▁838": 5894,
      "▁capital": 5895,
      "▁departing": 5896,
      "▁regard": 5897,
      "▁afgh": 5898,
      "▁baltimore": 5899,
      "ats": 5900,
      "▁3.2": 5901,
      "asp": 5902,
      "▁''": 5903,
      "ross": 5904,
      "▁word": 5905,
      "el": 5906,
      "▁contrib": 5907,
      "i": 5908,
      "▁auth": 5909,
      "▁les": 5910,
      "▁box": 5911,
      "▁grand": 5912,
      "▁class": 5913,
      "▁chair": 5914,
      "▁1696": 5915,
      "▁glasses": 5916,
      "▁some": 5917,
      "teen": 5918,
      "▁issue": 5919,
      "▁fact": 5920,
      "▁instruct": 5921,
      "和": 5922,
      "▁101": 5923,
      "s": 5924,
      "ards": 5925,
      "202": 5926,
      ",008": 5927,
      "▁01/24/2001": 5928,
      "▁filter": 5929,
      "▁ing": 5930,
      "bye": 5931,
      "oun": 5932,
      "▁left": 5933,
      "▁om": 5934,
      "▁enj": 5935,
      ":18": 5936,
      "▁imposs": 5937,
      "ill": 5938,
      "▁street": 5939,
      "澹": 5940,
      "▁05908549": 5941,
      "ory": 5942,
      "▁quest": 5943,
      "▁challenges": 5944,
      "▁scholars": 5945,
      "▁159": 5946,
      "▁1608": 5947,
      "▁pass": 5948,
      "ament": 5949,
      "ula": 5950,
      "▁jord": 5951,
      "▁additional": 5952,
      "76": 5953,
      "▁narrow": 5954,
      "▁dir": 5955,
      "▁regards": 5956,
      "ib": 5957,
      "▁members": 5958,
      "2000": 5959,
      "▁changing": 5960,
      "▁re-": 5961,
      "13": 5962,
      "▁1724": 5963,
      "▁los": 5964,
      "▁bang": 5965,
      "iv": 5966,
      "▁165": 5967,
      "ho": 5968,
      "ara": 5969,
      "▁influence": 5970,
      "ox": 5971,
      "▁affair": 5972,
      "▁yoga": 5973,
      "▁african": 5974,
      "2,000": 5975,
      "▁rec": 5976,
      "▁2007": 5977,
      "▁wast": 5978,
      "▁shops": 5979,
      "▁uniform": 5980,
      "aa": 5981,
      "▁|--------+----------------": 5982,
      "och": 5983,
      "▁59": 5984,
      "▁have": 5985,
      "ulating": 5986,
      "▁espec": 5987,
      "inting": 5988,
      ":25": 5989,
      "▁edit": 5990,
      "▁drive": 5991,
      "▁ont": 5992,
      "pet": 5993,
      "▁210": 5994,
      "ched": 5995,
      "icide": 5996,
      "▁consider": 5997,
      "▁views": 5998,
      "▁capacity": 5999,
      "6": 6000,
      "ember": 6001,
      "▁alligator": 6002,
      "▁g": 6003,
      "▁abe": 6004,
      "▁tex": 6005,
      "▁eastern": 6006,
      "▁encabalgamiento": 6007,
      "▁sweetie": 6008,
      "▁skills": 6009,
      "▁turns": 6010,
      "▁confident": 6011,
      "▁humans": 6012,
      "▁979": 6013,
      "▁promised": 6014,
      "▁dist": 6015,
      "▁international": 6016,
      "▁fant": 6017,
      "▁281-443-3744": 6018,
      "▁animal": 6019,
      "aine": 6020,
      "del": 6021,
      "▁spot": 6022,
      "▁bath": 6023,
      "▁eat": 6024,
      "▁breaking": 6025,
      "▁315-460-3": 6026,
      "owled": 6027,
      "▁pieces": 6028,
      "▁problem": 6029,
      "riage": 6030,
      "jwww": 6031,
      "iful": 6032,
      "▁several": 6033,
      "▁soup": 6034,
      "▁sense": 6035,
      "ottable": 6036,
      "▁new": 6037,
      "▁express": 6038,
      "ar": 6039,
      "28": 6040,
      "▁busy": 6041,
      "▁disco": 6042,
      "▁dall": 6043,
      "▁2,300": 6044,
      "▁etc.": 6045,
      "▁east": 6046,
      "▁nashville": 6047,
      "ologist": 6048,
      "▁spoken": 6049,
      "▁seconds": 6050,
      "▁famil": 6051,
      "-b": 6052,
      ":5": 6053,
      "▁jih": 6054,
      "▁3.": 6055,
      "▁tru": 6056,
      "▁cheapest": 6057,
      "▁pers": 6058,
      "▁1996": 6059,
      "▁succeed": 6060,
      "...": 6061,
      "±": 6062,
      "orus": 6063,
      "▁appro": 6064,
      "874": 6065,
      "▁install": 6066,
      "▁713-654-128": 6067,
      "▁century": 6068,
      "▁forty-eight": 6069,
      "▁bugs": 6070,
      "▁potty": 6071,
      "olution": 6072,
      "▁penny": 6073,
      "urning": 6074,
      "enced": 6075,
      "der": 6076,
      "▁o'clock": 6077,
      "▁bl": 6078,
      "-9": 6079,
      "iting": 6080,
      ".70": 6081,
      "▁conven": 6082,
      "▁example": 6083,
      "▁license": 6084,
      "▁added": 6085,
      "▁)": 6086,
      "▁05:37": 6087,
      "▁gender": 6088,
      "▁academic": 6089,
      "▁leadership": 6090,
      "ic": 6091,
      "▁iodine": 6092,
      "▁sem": 6093,
      "▁herself": 6094,
      "▁small": 6095,
      "▁to": 6096,
      "ishing": 6097,
      "----------": 6098,
      "▁weather": 6099,
      "▁decided": 6100,
      "▁republican": 6101,
      "▁just": 6102,
      "▁computer": 6103,
      "▁whenever": 6104,
      "body": 6105,
      "▁dinos": 6106,
      "▁d.": 6107,
      "▁cultural": 6108,
      "▁contemporary": 6109,
      "▁airplane": 6110,
      ",500": 6111,
      "iver": 6112,
      "osition": 6113,
      "▁internal": 6114,
      "▁appoint": 6115,
      "c": 6116,
      "▁santa": 6117,
      "▁usd": 6118,
      "▁teacher": 6119,
      "ties": 6120,
      "▁successful": 6121,
      "▁2.00": 6122,
      ".3": 6123,
      "▁canada": 6124,
      "erv": 6125,
      "▁tho": 6126,
      "▁requested": 6127,
      "▁wal": 6128,
      "par": 6129,
      "▁11/27/2000": 6130,
      "▁school": 6131,
      "ension": 6132,
      "ategy": 6133,
      "▁ant": 6134,
      "ston": 6135,
      "▁idea": 6136,
      "▁tonight": 6137,
      "▁1868": 6138,
      "▁exam": 6139,
      "▁behavior": 6140,
      "▁learn": 6141,
      "eap": 6142,
      "▁tend": 6143,
      "__________": 6144,
      "▁brenner": 6145,
      "ز": 6146,
      "▁191": 6147,
      "ux": 6148,
      "▁task": 6149,
      "▁consumption": 6150,
      "▁beer": 6151,
      "ler": 6152,
      "ump": 6153,
      "000": 6154,
      "▁core": 6155,
      "▁sound": 6156,
      "ute": 6157,
      "right": 6158,
      "▁10:5": 6159,
      "y@enron_development": 6160,
      "▁red": 6161,
      "▁goriot": 6162,
      "▁athens": 6163,
      "xic": 6164,
      "▁trillion": 6165,
      "79": 6166,
      "yl": 6167,
      "▁z": 6168,
      "▁keep": 6169,
      "~*": 6170,
      "/08": 6171,
      "▁carry": 6172,
      "μ": 6173,
      "▁==": 6174,
      "▁hes": 6175,
      "▁advantage": 6176,
      "▁broke": 6177,
      "her": 6178,
      "▁happen": 6179,
      "▁ple": 6180,
      "ife": 6181,
      "▁avail": 6182,
      "ple": 6183,
      "▁position": 6184,
      "▁secret": 6185,
      "▁microsoft": 6186,
      "▁male": 6187,
      "illing": 6188,
      "▁ursula": 6189,
      "▁subsc": 6190,
      "▁700": 6191,
      "▁pocket": 6192,
      "▁little": 6193,
      "▁as": 6194,
      "▁\"": 6195,
      "▁lake": 6196,
      "ior": 6197,
      "▁jeff": 6198,
      "vo": 6199,
      "erno": 6200,
      "ew": 6201,
      "gth": 6202,
      "▁numer": 6203,
      "▁dat": 6204,
      "????????": 6205,
      "▁entertain": 6206,
      "aking": 6207,
      "itable": 6208,
      "▁guarant": 6209,
      "▁13": 6210,
      "▁silence": 6211,
      "▁impact": 6212,
      "▁objects": 6213,
      "▁238": 6214,
      "▁11:36": 6215,
      "▁outs": 6216,
      "▁planned": 6217,
      "▁know": 6218,
      "▁execut": 6219,
      "▁carolina": 6220,
      "▁florida": 6221,
      "eare": 6222,
      ".15": 6223,
      "cy": 6224,
      "dies": 6225,
      "▁fuel": 6226,
      "▁hug": 6227,
      "▁wine": 6228,
      "▁e.g": 6229,
      "▁!!!!!": 6230,
      "atically": 6231,
      "▁times": 6232,
      "-l": 6233,
      "▁fred": 6234,
      "▁tow": 6235,
      "▁hear": 6236,
      "------------": 6237,
      "▁nandaro": 6238,
      "867": 6239,
      "▁etc": 6240,
      "▁software": 6241,
      "▁fourteen": 6242,
      "▁prevent": 6243,
      "▁alright": 6244,
      "▁occurred": 6245,
      "▁saying": 6246,
      "iw": 6247,
      "▁6871082#": 6248,
      "▁mama": 6249,
      "▁moved": 6250,
      "▁10": 6251,
      "uss": 6252,
      "▁x": 6253,
      "iel": 6254,
      "▁originally": 6255,
      "▁joy": 6256,
      "not": 6257,
      "ih": 6258,
      "▁lad": 6259,
      "▁col": 6260,
      "ʻ": 6261,
      "▁1245": 6262,
      "▁now": 6263,
      "▁could": 6264,
      "▁mosquito": 6265,
      "▁best": 6266,
      "▁shell": 6267,
      "▁waiting": 6268,
      "▁***": 6269,
      "▁reflect": 6270,
      "▁60,000": 6271,
      "▁mainly": 6272,
      "▁shown": 6273,
      "▁2016": 6274,
      "▁iron": 6275,
      "bol": 6276,
      "ocol": 6277,
      "▁+44": 6278,
      "37": 6279,
      "▁********": 6280,
      "▁house": 6281,
      "▁hist": 6282,
      "ique": 6283,
      "▁ne": 6284,
      "▁sally": 6285,
      "▁61": 6286,
      "form": 6287,
      "▁ton": 6288,
      "▁–": 6289,
      "▁tar": 6290,
      "da": 6291,
      "▁405": 6292,
      ":1": 6293,
      "▁hers": 6294,
      "▁'d": 6295,
      "▁56": 6296,
      "▁winter": 6297,
      "▁scientology": 6298,
      "▁secure": 6299,
      "▁1.75": 6300,
      "▁anne": 6301,
      "wn": 6302,
      "▁kinda": 6303,
      "erves": 6304,
      "anda": 6305,
      "▁whilst": 6306,
      "▁1841": 6307,
      "ella": 6308,
      "▁responsibility": 6309,
      "▁unp": 6310,
      "▁things": 6311,
      "▁exhib": 6312,
      "▁cult": 6313,
      "▁09/16/99": 6314,
      "▁khinss": 6315,
      "es": 6316,
      "▁actual": 6317,
      "01": 6318,
      "▁grandm": 6319,
      "▁experiences": 6320,
      "▁1560": 6321,
      "▁taiwan": 6322,
      "▁extrem": 6323,
      "▁increased": 6324,
      "▁comb": 6325,
      "▁repe": 6326,
      "▁1579": 6327,
      "ead": 6328,
      "▁200,000": 6329,
      "ising": 6330,
      "32": 6331,
      "▁adequ": 6332,
      "ood": 6333,
      "arch": 6334,
      "11": 6335,
      "▁dressed": 6336,
      "▁attach": 6337,
      "ve": 6338,
      "resp": 6339,
      "▁.........": 6340,
      "▁mohamed": 6341,
      "ris": 6342,
      "five": 6343,
      "▁den": 6344,
      "53-3119": 6345,
      "▁bringing": 6346,
      "/01/2001": 6347,
      "▁less": 6348,
      "▁file": 6349,
      "▁pad": 6350,
      "▁study": 6351,
      "ance": 6352,
      "▁quarter": 6353,
      "▁at": 6354,
      "▁05/03/2001": 6355,
      "▁lys": 6356,
      "▁forced": 6357,
      "ather": 6358,
      "▁legislation": 6359,
      ".9": 6360,
      "ey": 6361,
      "cles": 6362,
      "84": 6363,
      "tle": 6364,
      "▁begins": 6365,
      "▁game": 6366,
      "etch": 6367,
      "▁416-865-370": 6368,
      "ma": 6369,
      "ments": 6370,
      "▁.xsl": 6371,
      "▁759933": 6372,
      "▁cliff": 6373,
      "87": 6374,
      "▁protected": 6375,
      "▁aw": 6376,
      "▁come": 6377,
      ":": 6378,
      "▁sister": 6379,
      "▁deep": 6380,
      "▁arri": 6381,
      "▁w": 6382,
      "▁throughout": 6383,
      "ode": 6384,
      "▁09": 6385,
      "▁fairly": 6386,
      "▁boys": 6387,
      "mo": 6388,
      "▁2.15": 6389,
      "▁!!!!": 6390,
      "▁why": 6391,
      "▁finally": 6392,
      "▁library": 6393,
      ",600": 6394,
      "▁compet": 6395,
      "▁upstairs": 6396,
      "elds": 6397,
      "pper": 6398,
      "▁diego": 6399,
      "o": 6400,
      "▁fore": 6401,
      "▁06/01/2001": 6402,
      "▁subjects": 6403,
      "eric": 6404,
      "▁occup": 6405,
      "▁stops": 6406,
      "▁robin": 6407,
      "iner": 6408,
      "ift": 6409,
      "▁1-8": 6410,
      "▁%": 6411,
      "▁human": 6412,
      "ham": 6413,
      "▁.": 6414,
      "▁cl": 6415,
      "▁george": 6416,
      "ante": 6417,
      "eing": 6418,
      "▁should": 6419,
      "▁tren": 6420,
      "ric": 6421,
      "▁worth": 6422,
      "/15/2001": 6423,
      "▁reviews": 6424,
      "▁double": 6425,
      "irl": 6426,
      "▁convers": 6427,
      "▁100": 6428,
      "▁2012": 6429,
      "▁suit": 6430,
      "▁vogelaviatiola": 6431,
      "lined": 6432,
      ".doc": 6433,
      "▁2.5": 6434,
      "▁ride": 6435,
      "thing": 6436,
      "▁tom": 6437,
      "otte": 6438,
      "▁weight": 6439,
      "eland": 6440,
      "iron": 6441,
      "▁contents": 6442,
      "▁it": 6443,
      "▁issues": 6444,
      "▁becuse": 6445,
      "▁rice@enron": 6446,
      "using": 6447,
      "********************************": 6448,
      "▁pump": 6449,
      "▁orlando": 6450,
      "▁cent": 6451,
      "akistan": 6452,
      "[CLS]": 6453,
      "ulations": 6454,
      "▁eating": 6455,
      "▁stuck": 6456,
      "▁sl": 6457,
      "▁sar": 6458,
      "cuz": 6459,
      "▁swing": 6460,
      "▁brief": 6461,
      "uge": 6462,
      "▁88": 6463,
      "▁70.85": 6464,
      "leg": 6465,
      "▁arg": 6466,
      "▁mitch": 6467,
      "hia": 6468,
      "▁mark": 6469,
      "▁classes": 6470,
      "▁sel": 6471,
      "▁that": 6472,
      "▁saud": 6473,
      "▁dropped": 6474,
      "verse": 6475,
      "▁presentation": 6476,
      "▁among": 6477,
      "▁neck": 6478,
      "51": 6479,
      "ube": 6480,
      "▁traff": 6481,
      "cept": 6482,
      "▁country": 6483,
      "▁0": 6484,
      "▁thirty-five": 6485,
      ".782": 6486,
      "ints": 6487,
      "▁conf": 6488,
      "▁cons": 6489,
      "ona": 6490,
      "▁minor": 6491,
      "▁answer": 6492,
      "ars": 6493,
      "▁comp": 6494,
      "▁j.doc": 6495,
      "▁anti": 6496,
      "▁****": 6497,
      "▁communication": 6498,
      "▁1960": 6499,
      "▁conversation": 6500,
      "▁courses": 6501,
      "▁detailed": 6502,
      "▁sink": 6503,
      "-d": 6504,
      "▁attacks": 6505,
      "▁head": 6506,
      "▁citiz": 6507,
      "▁prefer": 6508,
      "▁lab": 6509,
      "oy": 6510,
      "▁rs": 6511,
      "▁phoenix": 6512,
      "▁2.7": 6513,
      ".org": 6514,
      "usal": 6515,
      "▁prim": 6516,
      "old": 6517,
      "▁reliable": 6518,
      "velopment": 6519,
      "rison": 6520,
      "▁fort": 6521,
      "act": 6522,
      "eds": 6523,
      "▁eighth": 6524,
      "ge": 6525,
      "oo": 6526,
      "/8": 6527,
      "▁movie": 6528,
      "▁une": 6529,
      "▁room": 6530,
      "real": 6531,
      "▁ways": 6532,
      "²": 6533,
      "▁stir": 6534,
      "mony": 6535,
      "▁against": 6536,
      "▁19": 6537,
      "▁dough": 6538,
      "▁projects": 6539,
      "▁reprod": 6540,
      "ks": 6541,
      "▁76": 6542,
      "▁incl": 6543,
      "▁680": 6544,
      "ummy": 6545,
      "▁journal": 6546,
      "▁05/17/99": 6547,
      "▁diff": 6548,
      "▁03/02/2001": 6549,
      "▁parts": 6550,
      "inated": 6551,
      "ened": 6552,
      "▁evidence": 6553,
      "/9": 6554,
      "▁fo": 6555,
      "▁river": 6556,
      "arent": 6557,
      "▁03/15/2001": 6558,
      "▁use": 6559,
      "▁remove": 6560,
      "line": 6561,
      "▁surpr": 6562,
      "tch": 6563,
      "▁reason": 6564,
      "ward": 6565,
      "▁pub": 6566,
      "▁stri": 6567,
      "orn": 6568,
      "asc": 6569,
      "cond": 6570,
      ",000,000,000": 6571,
      "▁ty": 6572,
      "▁around": 6573,
      "▁food": 6574,
      "▁enjoy": 6575,
      "▁fif": 6576,
      "▁stairs": 6577,
      "▁artwork": 6578,
      "▁lock": 6579,
      "▁1983": 6580,
      "▁page": 6581,
      "▁rele": 6582,
      "03": 6583,
      "▁companies": 6584,
      "▁society": 6585,
      "0.doc": 6586,
      "▁park": 6587,
      "▁batter": 6588,
      "▁differ": 6589,
      "▁nervous": 6590,
      "▁taught": 6591,
      "▁others": 6592,
      "▁transmission": 6593,
      "▁portion": 6594,
      "▁quart": 6595,
      "▁union": 6596,
      "ited": 6597,
      "oon": 6598,
      "▁1914": 6599,
      "aleck": 6600,
      "▁tall": 6601,
      "▁earned": 6602,
      "▁girl": 6603,
      "▁works": 6604,
      "4014": 6605,
      "▁jim": 6606,
      "▁christ": 6607,
      "▁mac": 6608,
      "▁duty": 6609,
      "▁207": 6610,
      "anced": 6611,
      "▁manag": 6612,
      "▁listed": 6613,
      "▁magaz": 6614,
      "▁crying": 6615,
      "▁80": 6616,
      "apers": 6617,
      "▁geor": 6618,
      "▁owner": 6619,
      "▁thousands": 6620,
      "ang": 6621,
      "▁similar": 6622,
      "▁assem": 6623,
      "▁say": 6624,
      "▁415": 6625,
      "σ": 6626,
      "▁acqu": 6627,
      "▁pl": 6628,
      "▁drawing": 6629,
      "ire": 6630,
      "▁opening": 6631,
      "▁cara": 6632,
      "yan": 6633,
      "▁knowled": 6634,
      "▁grounds": 6635,
      "▁signific": 6636,
      "▁birthday": 6637,
      "▁willi": 6638,
      "onse": 6639,
      "▁followed": 6640,
      "▁wealth": 6641,
      "▁night": 6642,
      "▁8:30": 6643,
      "oe": 6644,
      "▁row": 6645,
      "▁sugar": 6646,
      "friend": 6647,
      "▁concer": 6648,
      "▁remained": 6649,
      "▁dand": 6650,
      "▁designed": 6651,
      "▁pal": 6652,
      "▁religion": 6653,
      "▁psych": 6654,
      "in": 6655,
      "▁1:00": 6656,
      "▁priced": 6657,
      "▁incre": 6658,
      "ell": 6659,
      "▁yep": 6660,
      "▁ful": 6661,
      "▁3/4": 6662,
      "wise": 6663,
      "▁scared": 6664,
      "▁nante": 6665,
      "▁a": 6666,
      "▁needs": 6667,
      "▁-final.doc": 6668,
      "[SEP]": 6669,
      "▁wi": 6670,
      "▁were": 6671,
      "ee": 6672,
      "▁713-6": 6673,
      "▁leaving": 6674,
      "four": 6675,
      "▁concerned": 6676,
      "▁missing": 6677,
      "gn": 6678,
      "▁932": 6679,
      "*": 6680,
      "▁efficient": 6681,
      "▁due": 6682,
      "▁nasa": 6683,
      "----": 6684,
      "▁+": 6685,
      "14": 6686,
      "▁1877": 6687,
      "34": 6688,
      "ides": 6689,
      "▁michael": 6690,
      "▁bal": 6691,
      ":0": 6692,
      "▁balloon": 6693,
      "▁conce": 6694,
      "▁mob": 6695,
      "▁bray": 6696,
      "▁24": 6697,
      "encies": 6698,
      "▁wa": 6699,
      "▁excellent": 6700,
      "uated": 6701,
      "▁du": 6702,
      "▁inside": 6703,
      "▁user": 6704,
      "▁identified": 6705,
      "reat": 6706,
      "-3989": 6707,
      "▁1892": 6708,
      "▁supp": 6709,
      "▁scheduled": 6710,
      "▁many": 6711,
      "▁bel": 6712,
      "▁yes": 6713,
      "ə": 6714,
      "▁focused": 6715,
      "▁listen": 6716,
      "▁coming": 6717,
      "▁kat": 6718,
      ":27": 6719,
      "ken": 6720,
      "▁link": 6721,
      "▁gl": 6722,
      "▁dav": 6723,
      "▁else": 6724,
      "▁12:1": 6725,
      "▁*****": 6726,
      "ites": 6727,
      "enty": 6728,
      "▁stan": 6729,
      "▁history": 6730,
      "▁qual": 6731,
      "▁paral": 6732,
      "▁seventh": 6733,
      "▁knowledge": 6734,
      "im": 6735,
      "us": 6736,
      "▁noon": 6737,
      "chester": 6738,
      "▁rug": 6739,
      "ption": 6740,
      "▁03:00": 6741,
      "ores": 6742,
      "▁function": 6743,
      "▁tur": 6744,
      "▁troops": 6745,
      "▁um": 6746,
      "▁popular": 6747,
      "▁beat": 6748,
      "come": 6749,
      "▁following": 6750,
      "rael": 6751,
      "▁seem": 6752,
      "▁xsl": 6753,
      "▁ma": 6754,
      ".45": 6755,
      "▁extent": 6756,
      ".621": 6757,
      "▁camel": 6758,
      "▁not": 6759,
      "ago": 6760,
      "▁upon": 6761,
      "▁processes": 6762,
      "enes": 6763,
      "lus": 6764,
      "▁geograph": 6765,
      "▁ba": 6766,
      "▁ah": 6767,
      "▁zeal": 6768,
      "▁cognitive": 6769,
      "▁board": 6770,
      "▁fus": 6771,
      "▁sch": 6772,
      "▁nurs": 6773,
      "▁tired": 6774,
      "ρ": 6775,
      "oth": 6776,
      "▁payment": 6777,
      "ult": 6778,
      "▁---->===}*{===<----": 6779,
      "▁vill": 6780,
      "▁poss": 6781,
      "/30/2001": 6782,
      "▁lol": 6783,
      "▁myself": 6784,
      "▁220": 6785,
      "ever": 6786,
      "▁po": 6787,
      "▁wentz": 6788,
      "▁8.3": 6789,
      "▁way": 6790,
      "▁evol": 6791,
      "▁prov": 6792,
      "▁gordon": 6793,
      "if": 6794,
      "ients": 6795,
      "▁perdues": 6796,
      ".1": 6797,
      "▁puzz": 6798,
      "▁dig": 6799,
      "ny": 6800,
      "▁highly": 6801,
      "▁hoc": 6802,
      "▁ended": 6803,
      "▁1957": 6804,
      "▁lines": 6805,
      "▁gon": 6806,
      "▁expl": 6807,
      "ister": 6808,
      "ceed": 6809,
      "▁years": 6810,
      "▁fan": 6811,
      "-435": 6812,
      "▁thirty": 6813,
      "393": 6814,
      "iger": 6815,
      "inger": 6816,
      "▁€": 6817,
      "▁cred": 6818,
      "▁witch": 6819,
      "▁4,": 6820,
      "imp": 6821,
      "▁comparison": 6822,
      ".16": 6823,
      "▁grammar": 6824,
      "▁commun": 6825,
      "▁paren": 6826,
      "▁gulf": 6827,
      "ograph": 6828,
      "alf": 6829,
      "▁physical": 6830,
      "▁organization": 6831,
      "▁hamster": 6832,
      "▁mach": 6833,
      "orrow": 6834,
      "▁con": 6835,
      "ual": 6836,
      "▁sing": 6837,
      "▁grad": 6838,
      "uary": 6839,
      "▁smile": 6840,
      "119": 6841,
      "▁recently": 6842,
      "▁awful": 6843,
      "łod": 6844,
      "uding": 6845,
      "▁heavy": 6846,
      "▁age": 6847,
      "▁started": 6848,
      "▁tool": 6849,
      "▁pi": 6850,
      "thers": 6851,
      "▁imagine": 6852,
      "▁qaeda": 6853,
      "ub": 6854,
      ".11": 6855,
      "▁another": 6856,
      "rog": 6857,
      "▁1.": 6858,
      "ploy": 6859,
      "▁lead": 6860,
      "▁sexual": 6861,
      "▁van": 6862,
      "▁issued": 6863,
      "▁fans": 6864,
      "▁10:46": 6865,
      "▁7": 6866,
      "▁suffer": 6867,
      "ban": 6868,
      "▁stup": 6869,
      "▁breast": 6870,
      "=": 6871,
      "sp": 6872,
      "▁1819": 6873,
      "▁above": 6874,
      "▁match": 6875,
      "▁sec": 6876,
      "▁attention": 6877,
      "▁el": 6878,
      "▁727": 6879,
      "▁thinks": 6880,
      "▁gu": 6881,
      "▁mosqu": 6882,
      "ist": 6883,
      "▁aspect": 6884,
      "▁chang": 6885,
      "▁west": 6886,
      "▁music": 6887,
      ",7": 6888,
      "ached": 6889,
      "▁sun": 6890,
      "▁3724": 6891,
      "▁cere": 6892,
      "▁doo": 6893,
      "elly": 6894,
      "opment": 6895,
      "▁entire": 6896,
      "▁chapter": 6897,
      "▁705": 6898,
      "zer": 6899,
      "▁purch": 6900,
      "anch": 6901,
      "entions": 6902,
      "▁ball": 6903,
      "▁invited": 6904,
      "▁exchange": 6905,
      ",000,000": 6906,
      "▁ser": 6907,
      "▁child": 6908,
      "eck": 6909,
      "▁taking": 6910,
      "▁career": 6911,
      "ta": 6912,
      "▁12": 6913,
      "▁1/8": 6914,
      "▁1596": 6915,
      "▁281": 6916,
      "▁dw": 6917,
      "new": 6918,
      "▁saving": 6919,
      "iz": 6920,
      "▁safety": 6921,
      "▁legit": 6922,
      "aped": 6923,
      "▁seattle": 6924,
      "▁1783": 6925,
      "▁3.8": 6926,
      "rax": 6927,
      "▁1599": 6928,
      "▁looked": 6929,
      "▁>--------------------------------": 6930,
      "▁inj": 6931,
      "/99": 6932,
      "▁butter": 6933,
      "-00": 6934,
      "▁flu": 6935,
      "▁look": 6936,
      "▁webs": 6937,
      "▁rh": 6938,
      "▁ocean": 6939,
      "435": 6940,
      "▁nic": 6941,
      "▁moh": 6942,
      "▁structural": 6943,
      "▁places": 6944,
      "▁available": 6945,
      "▁began": 6946,
      "▁two": 6947,
      "▁1.00": 6948,
      "▁ent": 6949,
      "▁respect": 6950,
      "umb": 6951,
      "▁lim": 6952,
      "ya": 6953,
      "▁cutting": 6954,
      "▁household": 6955,
      "128": 6956,
      "-44": 6957,
      "▁unt": 6958,
      "▁employment": 6959,
      "▁ghost": 6960,
      "sy": 6961,
      "▁aug": 6962,
      "▁original": 6963,
      "▁08/16/2000": 6964,
      "edule": 6965,
      "▁district": 6966,
      "▁level": 6967,
      "▁5:00": 6968,
      "▁ke": 6969,
      "▁veget": 6970,
      "▁))": 6971,
      "▁again": 6972,
      "ugg": 6973,
      "▁discip": 6974,
      "▁questions": 6975,
      "▁para": 6976,
      "▁shin": 6977,
      "enth": 6978,
      "▁181": 6979,
      "▁bask": 6980,
      "▁effect": 6981,
      "lik": 6982,
      "lac": 6983,
      "▁line": 6984,
      "▁disaster": 6985,
      "▁apparently": 6986,
      "▁713-8": 6987,
      "teenth": 6988,
      "▁mon": 6989,
      "▁publicly": 6990,
      "▁low": 6991,
      "▁inform": 6992,
      "▁pencil": 6993,
      "ce": 6994,
      "▁clim": 6995,
      "▁bomb": 6996,
      "▁madam": 6997,
      "ot": 6998,
      "▁mich": 6999,
      "▁spider": 7000,
      "▁eventually": 7001,
      "acle": 7002,
      "fort": 7003,
      "▁te": 7004,
      "▁advant": 7005,
      "▁succ": 7006,
      "▁of": 7007,
      "▁================================": 7008,
      "▁net": 7009,
      "ilit": 7010,
      "▁11/2": 7011,
      "▁sli": 7012,
      "8-3": 7013,
      "▁lost": 7014,
      "▁chick": 7015,
      "standing": 7016,
      "▁strange": 7017,
      "▁yo": 7018,
      "▁kev": 7019,
      "▁iod": 7020,
      "pe": 7021,
      "▁tour": 7022,
      "ony": 7023,
      "▁1973": 7024,
      "▁6.00": 7025,
      "▁alike": 7026,
      "▁dele": 7027,
      "▁proced": 7028,
      "oons": 7029,
      "▁mem": 7030,
      "▁common": 7031,
      "▁expected": 7032,
      "▁plus": 7033,
      "▁650": 7034,
      "▁vac": 7035,
      "ught": 7036,
      "▁build": 7037,
      "▁fashion": 7038,
      "▁02/2": 7039,
      "▁group": 7040,
      "▁*": 7041,
      "▁att": 7042,
      "lim": 7043,
      "▁sha": 7044,
      "▁bother": 7045,
      "58": 7046,
      "▁estimate": 7047,
      "▁goo": 7048,
      "▁italy": 7049,
      "▁background": 7050,
      "▁05": 7051,
      "ented": 7052,
      "eet": 7053,
      "si": 7054,
      "ema": 7055,
      "▁santorum": 7056,
      "▁02-05-02.doc": 7057,
      "`s": 7058,
      "▁§": 7059,
      "▁flowers": 7060,
      "▁39": 7061,
      "▁567.77": 7062,
      ".2461": 7063,
      "▁-fin": 7064,
      "▁sarah": 7065,
      "▁russian": 7066,
      "▁view": 7067,
      "▁toky": 7068,
      "ible": 7069,
      "▁remember": 7070,
      "ia": 7071,
      "▁providing": 7072,
      "▁forty-one": 7073,
      "ancing": 7074,
      "▁terms": 7075,
      "▁shelf": 7076,
      "499": 7077,
      "▁1986": 7078,
      "▁ste": 7079,
      "▁unif": 7080,
      "▁beau": 7081,
      "uclear": 7082,
      "▁del": 7083,
      "▁forty-": 7084,
      "▁(c)": 7085,
      "▁volunte": 7086,
      "▁410": 7087,
      "▁my": 7088,
      "▁d": 7089,
      "▁indust": 7090,
      "▁ast": 7091,
      "ained": 7092,
      "▁prior": 7093,
      "cc": 7094,
      "▁3,000": 7095,
      "▁aut": 7096,
      "ml": 7097,
      "▁expressed": 7098,
      "▁westchester": 7099,
      ".99": 7100,
      "▁education": 7101,
      ".7": 7102,
      "ects": 7103,
      "▁your": 7104,
      "▁enc": 7105,
      "▁345-99": 7106,
      "▁flash": 7107,
      "▁^": 7108,
      "▁320": 7109,
      "▁det": 7110,
      "▁critic": 7111,
      "▁palestinian": 7112,
      "▁fest": 7113,
      "▁hall": 7114,
      "▁ideas": 7115,
      "▁proposed": 7116,
      "{": 7117,
      "▁early": 7118,
      "▁gener": 7119,
      "▁furn": 7120,
      "▁serve": 7121,
      "▁higher": 7122,
      "▁change": 7123,
      "▁earlier": 7124,
      ":14": 7125,
      "els": 7126,
      ":3": 7127,
      "▁industry": 7128,
      "ue": 7129,
      "▁husband": 7130,
      "▁pred": 7131,
      "▁’’": 7132,
      "where": 7133,
      "▁wind": 7134,
      "▁’m": 7135,
      "▁92": 7136,
      "ough": 7137,
      "ls": 7138,
      "▁jan": 7139,
      "mark": 7140,
      "▁'71": 7141,
      "▁sandwich": 7142,
      "▁lanka": 7143,
      "▁196": 7144,
      "▁art": 7145,
      "▁theodorus": 7146,
      "▁1699": 7147,
      "▁republic": 7148,
      "uts": 7149,
      "rain": 7150,
      "▁airl": 7151,
      "▁chicago": 7152,
      "▁share": 7153,
      "▁202.456.1": 7154,
      "▁fundamental": 7155,
      "wet": 7156,
      "anie": 7157,
      "▁ind": 7158,
      "▁chagrin": 7159,
      "▁horsie": 7160,
      "ions": 7161,
      "▁air": 7162,
      "▁sym": 7163,
      "▁58": 7164,
      "k": 7165,
      "▁came": 7166,
      "▁1926": 7167,
      "▁’d": 7168,
      "▁event": 7169,
      "▁roman": 7170,
      "odes": 7171,
      "ort": 7172,
      "▁intel": 7173,
      "-642": 7174,
      "▁holding": 7175,
      "▁trale": 7176,
      "▁tractor": 7177,
      "ime": 7178,
      "▁girls": 7179,
      "aman": 7180,
      "rr": 7181,
      "ooth": 7182,
      "▁pres": 7183,
      "**": 7184,
      "▁☎": 7185,
      "▁cert": 7186,
      "31": 7187,
      "▁cle": 7188,
      "att": 7189,
      "810": 7190,
      "ac": 7191,
      "aled": 7192,
      "▁42": 7193,
      "▁notwithstand": 7194,
      "▁happened": 7195,
      "▁access": 7196,
      "iri": 7197,
      "▁forms": 7198,
      "-s": 7199,
      "ad": 7200,
      "▁france": 7201,
      "ient": 7202,
      "80": 7203,
      "20-": 7204,
      "ose": 7205,
      "4/2001": 7206,
      "iday": 7207,
      "▁because": 7208,
      "▁1,6": 7209,
      "▁aid": 7210,
      "esc": 7211,
      "▁lik": 7212,
      "▁!?": 7213,
      "▁students": 7214,
      "▁species": 7215,
      "▁(:": 7216,
      "▁empt": 7217,
      "▁sunday": 7218,
      "▁bite": 7219,
      "▁lovely": 7220,
      "▁advis": 7221,
      "▁latest": 7222,
      "eo": 7223,
      "▁77": 7224,
      "▁characters": 7225,
      "ots": 7226,
      "oin": 7227,
      "▁confidential": 7228,
      "一": 7229,
      "▁412": 7230,
      "▁supposed": 7231,
      "▁dec": 7232,
      "▁1937": 7233,
      "▁202.456.1111": 7234,
      "▁records": 7235,
      "▁bet": 7236,
      "▁accompl": 7237,
      "outh": 7238,
      "▁sour": 7239,
      "▁shoot": 7240,
      "pr": 7241,
      "▁fil": 7242,
      "sex": 7243,
      "▁setting": 7244,
      "▁ref": 7245,
      "▁can": 7246,
      "▁demand": 7247,
      "▁choice": 7248,
      ",00": 7249,
      "▁believed": 7250,
      "????????????????": 7251,
      "sequ": 7252,
      "▁plants": 7253,
      "▁iii": 7254,
      "▁market": 7255,
      "▁airpl": 7256,
      "▁1613": 7257,
      "▁2002": 7258,
      "▁1896": 7259,
      "▁sixth": 7260,
      "fa": 7261,
      "▁protest": 7262,
      "700": 7263,
      ":02": 7264,
      "oke": 7265,
      "▁parking": 7266,
      "▁guid": 7267,
      "▁11:45": 7268,
      "ies": 7269,
      "▁instead": 7270,
      ":00": 7271,
      "▁plastic": 7272,
      "ulated": 7273,
      "▁categ": 7274,
      "10": 7275,
      "com": 7276,
      "ld": 7277,
      "ack": 7278,
      "uct": 7279,
      "ordon": 7280,
      "▁55": 7281,
      "▁ld2": 7282,
      "vey": 7283,
      "uled": 7284,
      "▁without": 7285,
      "α": 7286,
      "▁entit": 7287,
      "▁along": 7288,
      "▁wheel": 7289,
      "unte": 7290,
      "▁01/1": 7291,
      "▁determine": 7292,
      "▁king": 7293,
      "▁pic": 7294,
      "▁01:0": 7295,
      "▁0.0": 7296,
      "▁performance": 7297,
      "ina": 7298,
      "▁1849": 7299,
      "ink": 7300,
      "▁carro": 7301,
      "▁weap": 7302,
      "▁stat": 7303,
      "gu": 7304,
      "▁princ": 7305,
      "▁07:24": 7306,
      "▁17": 7307,
      "▁a.m.": 7308,
      "8": 7309,
      "▁olymp": 7310,
      "▁interested": 7311,
      "▁sect": 7312,
      "▁nand": 7313,
      "▁slightly": 7314,
      "ume": 7315,
      "ancy": 7316,
      "gre": 7317,
      "▁000010": 7318,
      "▁coron": 7319,
      "▁cup": 7320,
      "▁given": 7321,
      "▁environmental": 7322,
      "▁delicious": 7323,
      "▁parties": 7324,
      "▁cc": 7325,
      "****": 7326,
      "▁kore": 7327,
      "ness": 7328,
      "▁turn": 7329,
      "▁value": 7330,
      "▁620-294-": 7331,
      "▁fax": 7332,
      "mer": 7333,
      "▁february": 7334,
      "▁parad": 7335,
      "’t": 7336,
      "▁man": 7337,
      "▁carrying": 7338,
      "▁books": 7339,
      "▁43": 7340,
      "49": 7341,
      "▁much": 7342,
      "▁franc": 7343,
      "▁ins": 7344,
      "▁chris": 7345,
      "▁previous": 7346,
      "▁rest": 7347,
      "ices": 7348,
      "▁atmosphere": 7349,
      "▁jap": 7350,
      "▁outer": 7351,
      "▁padalecki": 7352,
      "bo": 7353,
      "ansas": 7354,
      "▁road": 7355,
      "vers": 7356,
      "▁mentioned": 7357,
      "▁95": 7358,
      "▁nineteen": 7359,
      "▁adop": 7360,
      "-c": 7361,
      "rated": 7362,
      "op": 7363,
      "▁dream": 7364,
      "▁had": 7365,
      "▁1": 7366,
      "ن": 7367,
      "▁theirs": 7368,
      "▁process": 7369,
      "▁hol": 7370,
      "▁somewhat": 7371,
      ":28": 7372,
      "ف": 7373,
      "gr": 7374,
      "▁freedom": 7375,
      "▁competition": 7376,
      "▁al.": 7377,
      "▁north": 7378,
      "org": 7379,
      "▁sixty": 7380,
      "▁ect": 7381,
      "ining": 7382,
      "▁has": 7383,
      "ission": 7384,
      "aper": 7385,
      "294-": 7386,
      "▁woud": 7387,
      "▁6.2.1": 7388,
      "▁`s": 7389,
      "▁rubber": 7390,
      "▁technical": 7391,
      "ice": 7392,
      "▁programm": 7393,
      "▁nor": 7394,
      "▁metal": 7395,
      "▁dipl": 7396,
      "/2004": 7397,
      "▁diplom": 7398,
      "▁clear": 7399,
      "raid": 7400,
      "ike": 7401,
      "▁ass": 7402,
      "actions": 7403,
      "ow": 7404,
      "fr": 7405,
      "ي": 7406,
      "▁suggested": 7407,
      "▁ex": 7408,
      "▁dollie": 7409,
      "▁population": 7410,
      "▁wash": 7411,
      "▁corresp": 7412,
      "▁lou": 7413,
      "▁e.g.": 7414,
      "▁yourselves": 7415,
      "▁713-853": 7416,
      "▁sara": 7417,
      "▁settled": 7418,
      "▁713-853-": 7419,
      "▁civ": 7420,
      "▁administr": 7421,
      "▁10:30": 7422,
      "▁03": 7423,
      "▁pray": 7424,
      "▁acad": 7425,
      "▁serious": 7426,
      "bal": 7427,
      "▁insur": 7428,
      "θ": 7429,
      "▁dallas": 7430,
      "▁duck": 7431,
      "▁512": 7432,
      "▁creation": 7433,
      "▁creating": 7434,
      "▁ol": 7435,
      "iled": 7436,
      "▁baba": 7437,
      "▁ul": 7438,
      "▁addition": 7439,
      "▁paseo": 7440,
      "▁460": 7441,
      ".95": 7442,
      "oud": 7443,
      "@enron_development": 7444,
      "▁went": 7445,
      "7/2001": 7446,
      "▁mut": 7447,
      "unk": 7448,
      "▁hanging": 7449,
      "▁obt": 7450,
      "▁713": 7451,
      "▁admin": 7452,
      "▁glob": 7453,
      "▁tou": 7454,
      "▁bug": 7455,
      "ases": 7456,
      "▁agreement": 7457,
      "▁din": 7458,
      "▁finish": 7459,
      "▁198": 7460,
      "▁tea": 7461,
      "▁<": 7462,
      "▁try": 7463,
      "▁1588": 7464,
      "▁wood": 7465,
      "▁operators": 7466,
      "▁dan": 7467,
      "miss": 7468,
      "▁recommend": 7469,
      ")": 7470,
      "▁03/2": 7471,
      "▁exec": 7472,
      "▁fix": 7473,
      "ries": 7474,
      "grad": 7475,
      "▁schol": 7476,
      "ental": 7477,
      "▁minute": 7478,
      "▁impro": 7479,
      "▁ros": 7480,
      "▁natural": 7481,
      "▁begin": 7482,
      "▁tast": 7483,
      "▁pleasure": 7484,
      "itch": 7485,
      "-8": 7486,
      "uh": 7487,
      "-": 7488,
      "▁na": 7489,
      "set": 7490,
      "▁plans": 7491,
      "▁closer": 7492,
      "\\": 7493,
      "vel": 7494,
      "▁apart": 7495,
      "▁save": 7496,
      "▁percell,": 7497,
      "erry": 7498,
      "▁71": 7499,
      "arian": 7500,
      "▁customers": 7501,
      "▁notice": 7502,
      "board": 7503,
      "▁only": 7504,
      "▁improve": 7505,
      "▁milwau": 7506,
      "▁behin": 7507,
      "▁ahead": 7508,
      "▁cold": 7509,
      "siana": 7510,
      "▁n’t": 7511,
      "▁sho": 7512,
      "▁scale": 7513,
      "▁850": 7514,
      "▁03:58": 7515,
      "▁individual": 7516,
      "▁sides": 7517,
      "ra": 7518,
      "▁---": 7519,
      "back": 7520,
      "▁ren": 7521,
      "▁jihad": 7522,
      "▁510": 7523,
      "▁1580": 7524,
      "▁attract": 7525,
      ".5": 7526,
      "▁guy": 7527,
      "phere": 7528,
      "ont": 7529,
      "ues": 7530,
      "en": 7531,
      "▁like": 7532,
      "▁inqu": 7533,
      "▁palestin": 7534,
      "▁summ": 7535,
      ".html": 7536,
      "▁1850": 7537,
      "vin": 7538,
      "▁glo": 7539,
      "ath": 7540,
      "▁ooh": 7541,
      "▁73": 7542,
      "ool": 7543,
      "▁president": 7544,
      "▁ld2d-#693": 7545,
      "f.doc": 7546,
      "▁series": 7547,
      "▁meal": 7548,
      "▁?": 7549,
      "athers": 7550,
      "▁talks": 7551,
      "▁won": 7552,
      "▁initial": 7553,
      "aster": 7554,
      "▁wro": 7555,
      "▁67": 7556,
      "bc": 7557,
      "▁died": 7558,
      "ares": 7559,
      "▁palacio": 7560,
      "▁record": 7561,
      "▁zawah": 7562,
      "▁1110": 7563,
      "▁mi": 7564,
      "▁names": 7565,
      "▁training": 7566,
      "▁3,500": 7567,
      "▁amend": 7568,
      "▁resp": 7569,
      "▁loan": 7570,
      "▁karen": 7571,
      "45": 7572,
      "▁recent": 7573,
      "▁warm": 7574,
      "itten": 7575,
      "▁manager": 7576,
      "▁japanese": 7577,
      "du": 7578,
      "▁1987": 7579,
      "▁facts": 7580,
      "16.718": 7581,
      "▁travel": 7582,
      "▁arm": 7583,
      "▁tape": 7584,
      "▁media": 7585,
      "▁lo": 7586,
      "-3393": 7587,
      "3-": 7588,
      "谿": 7589,
      "▁crime": 7590,
      "▁1912": 7591,
      "▁visitors": 7592,
      "▁1179": 7593,
      "▁table": 7594,
      "▁fruit": 7595,
      "▁standard": 7596,
      "▁opinion": 7597,
      "▁roll": 7598,
      "▁1925": 7599,
      "oned": 7600,
      "unch": 7601,
      "▁describ": 7602,
      "▁participants": 7603,
      "▁loo": 7604,
      "gers": 7605,
      "▁june": 7606,
      "gg": 7607,
      "▁auster": 7608,
      "▁tie": 7609,
      "▁gard": 7610,
      "port": 7611,
      "▁paid": 7612,
      "▁mag": 7613,
      "▁existing": 7614,
      "▁durs": 7615,
      "▁1765": 7616,
      "▁kitten": 7617,
      "▁respond": 7618,
      "▁am": 7619,
      "▁menu": 7620,
      "▁630": 7621,
      "like": 7622,
      "▁someone": 7623,
      "▁09:": 7624,
      "▁----": 7625,
      "▁throat": 7626,
      "▁presents": 7627,
      "▁sold": 7628,
      "▁efforts": 7629,
      "▁mix": 7630,
      "▁dog": 7631,
      "▁saudi": 7632,
      "▁snow": 7633,
      "68": 7634,
      "▁thr": 7635,
      "▁beyond": 7636,
      "ail": 7637,
      "▁1888": 7638,
      "▁medium": 7639,
      "ering": 7640,
      "illa": 7641,
      "▁cabin": 7642,
      "▁le": 7643,
      "ision": 7644,
      "▁1959": 7645,
      "▁gave": 7646,
      "▁(b)": 7647,
      "▁qa": 7648,
      "▁chaos": 7649,
      "▁span": 7650,
      "▁screw": 7651,
      "▁763736": 7652,
      "▁aband": 7653,
      "ss": 7654,
      "▁dirty": 7655,
      "▁wave": 7656,
      "▁balzac": 7657,
      "ole": 7658,
      "iao": 7659,
      "▁calc": 7660,
      "▁hon": 7661,
      "▁part": 7662,
      "▁prepare": 7663,
      "s.": 7664,
      "▁memphis": 7665,
      "▁2006": 7666,
      "▁345-3436": 7667,
      "▁exhibit": 7668,
      "▁ans": 7669,
      "vil": 7670,
      "▁coord": 7671,
      "<----": 7672,
      "▁beg": 7673,
      "▁subm": 7674,
      "ome": 7675,
      "ked": 7676,
      "mas": 7677,
      "inews": 7678,
      "pri": 7679,
      "▁canadian": 7680,
      "▁currency": 7681,
      "▁flow": 7682,
      "ɛ": 7683,
      "================": 7684,
      "be": 7685,
      "▁9221": 7686,
      "▁truly": 7687,
      "▁favor": 7688,
      "air": 7689,
      "m": 7690,
      "▁database": 7691,
      "▁6.1": 7692,
      "▁lic": 7693,
      "▁mail": 7694,
      "▁don": 7695,
      "▁wil": 7696,
      "▁sa": 7697,
      "reg": 7698,
      "▁beh": 7699,
      "▁actions": 7700,
      "▁nandakke": 7701,
      "▁percent": 7702,
      "▁5": 7703,
      "nesday": 7704,
      "essee": 7705,
      "▁bo": 7706,
      "▁sn": 7707,
      "▁sign": 7708,
      "▁quinn": 7709,
      "▁individ": 7710,
      "▁ring": 7711,
      "5,000": 7712,
      "▁sev": 7713,
      "▁est": 7714,
      "▁2001": 7715,
      "▁60": 7716,
      "22": 7717,
      "▁beaut": 7718,
      "▁90": 7719,
      "▁lingu": 7720,
      "▁towards": 7721,
      "▁banana": 7722,
      "▁assess": 7723,
      "▁largest": 7724,
      "▁or": 7725,
      "▁er": 7726,
      "▁catch": 7727,
      "▁college": 7728,
      "▁confirm": 7729,
      "▁40,000": 7730,
      "▁easier": 7731,
      "▁professor": 7732,
      "800": 7733,
      "▁___________": 7734,
      "▁713-654-0365": 7735,
      "tride": 7736,
      "▁purs": 7737,
      "▁braz": 7738,
      "▁mos": 7739,
      "▁result": 7740,
      "▁advert": 7741,
      "▁enjambment": 7742,
      "▁coff": 7743,
      "▁11/08/2000": 7744,
      "▁": 7745,
      "▁cities": 7746,
      "▁min": 7747,
      "▁mrs": 7748,
      "▁hotels": 7749,
      "46-3393": 7750,
      "▁do": 7751,
      "▁turkey": 7752,
      "▁policies": 7753,
      "▁smart": 7754,
      "esome": 7755,
      "▁discussed": 7756,
      "ap": 7757,
      "-49": 7758,
      "▁whole": 7759,
      "enron.com": 7760,
      "bage": 7761,
      "▁ire": 7762,
      "▁cromer": 7763,
      "▁experi": 7764,
      "ky": 7765,
      "▁1829": 7766,
      "▁969": 7767,
      "ish": 7768,
      "ains": 7769,
      "▁5:30": 7770,
      "▁dese": 7771,
      "▁12/26/2000": 7772,
      "▁tickets": 7773,
      "▁iv": 7774,
      "▁us": 7775,
      "▁tools": 7776,
      "×": 7777,
      "▁para13": 7778,
      "▁703": 7779,
      "▁!!!!!!": 7780,
      "▁drew": 7781,
      "▁bab": 7782,
      "▁docum": 7783,
      "▁success": 7784,
      "ov": 7785,
      "▁perfect": 7786,
      "▁28,000": 7787,
      "▁nana": 7788,
      "▁cigarette": 7789,
      "ø": 7790,
      "▁play": 7791,
      "▁google": 7792,
      "▁:)": 7793,
      "bur": 7794,
      "▁nest": 7795,
      "▁wikinews": 7796,
      "▁made": 7797,
      "▁owners": 7798,
      "df": 7799,
      "▁area": 7800,
      ".n": 7801,
      "▁11:32": 7802,
      "▁rabbit": 7803,
      "▁maint": 7804,
      "▁agric": 7805,
      "▁reports": 7806,
      "▁mary": 7807,
      "▁asian": 7808,
      "▁sample": 7809,
      "▁error": 7810,
      "▁wet": 7811,
      "work": 7812,
      "▁2008": 7813,
      ".718": 7814,
      "▁und": 7815,
      "▁step": 7816,
      "▁21": 7817,
      "▁exc": 7818,
      "▁unlike": 7819,
      "▁1561": 7820,
      "▁3.1": 7821,
      "▁altern": 7822,
      "ents": 7823,
      "hi": 7824,
      "▁telling": 7825,
      "/16/2001": 7826,
      "▁166": 7827,
      "▁flying": 7828,
      "8806": 7829,
      "jects": 7830,
      "▁fe": 7831,
      "▁mei": 7832,
      "▁gre": 7833,
      "▁version": 7834,
      "▁colleagues": 7835,
      "▁educ": 7836,
      "·": 7837,
      "[": 7838,
      "ince": 7839,
      "▁aspects": 7840,
      "▁decent": 7841,
      "▁debra": 7842,
      "▁analysis": 7843,
      "▁stream": 7844,
      "▁economic": 7845,
      "ave": 7846,
      "ammed": 7847,
      "cing": 7848,
      "▁98": 7849,
      "(": 7850,
      "▁studied": 7851,
      "ial": 7852,
      ":37": 7853,
      "ended": 7854,
      "▁cowboy": 7855,
      "▁established": 7856,
      "▁five": 7857,
      "hn": 7858,
      "acts": 7859,
      "chi": 7860,
      "wh": 7861,
      ".831": 7862,
      "▁110": 7863,
      "▁region": 7864,
      "▁knock": 7865,
      "inc": 7866,
      "▁flor": 7867,
      "mm": 7868,
      "▁city": 7869,
      "▁monday": 7870,
      "▁sto": 7871,
      "_28": 7872,
      "▁via": 7873,
      "▁europe": 7874,
      "▁intended": 7875,
      "▁excuse": 7876,
      "ette": 7877,
      "▁foc": 7878,
      "▁push": 7879,
      "east": 7880,
      "uf": 7881,
      "▁identity": 7882,
      "▁suffering": 7883,
      "▁maj": 7884,
      "▁ups": 7885,
      "/15": 7886,
      "▁tw": 7887,
      "▁take": 7888,
      "▁jack": 7889,
      "7": 7890,
      "▁program": 7891,
      "▁film": 7892,
      "▁tomorrow": 7893,
      "ft": 7894,
      "▁195": 7895,
      "▁odd": 7896,
      "▁brain": 7897,
      "war": 7898,
      "ocent": 7899,
      "▁introd": 7900,
      "rit": 7901,
      "▁favorite": 7902,
      "▁asp": 7903,
      "▁attempt": 7904,
      "iveness": 7905,
      "anta": 7906,
      "▁maintain": 7907,
      ".uk": 7908,
      "▁rich": 7909,
      "▁anoder": 7910,
      "▁letter": 7911,
      "err": 7912,
      "☎": 7913,
      "▁northern": 7914,
      "▁cal": 7915,
      "▁08/03/2000": 7916,
      "▁6871082": 7917,
      "▁they": 7918,
      "tra": 7919,
      "ft8-7": 7920,
      "▁results": 7921,
      "▁mount": 7922,
      "'re": 7923,
      "off": 7924,
      "53-3": 7925,
      "▁over": 7926,
      "▁lea": 7927,
      ".8317": 7928,
      "▁underst": 7929,
      "▁1998": 7930,
      "▁;-)": 7931,
      "▁custom": 7932,
      "▁absor": 7933,
      "▁296": 7934,
      "▁ber": 7935,
      "-99": 7936,
      "▁territ": 7937,
      "54-": 7938,
      "▁1160": 7939,
      "ests": 7940,
      "▁!": 7941,
      "▁xslt": 7942,
      "▁770": 7943,
      "▁notwith": 7944,
      "▁bre": 7945,
      "▁cy": 7946,
      "▁713/853": 7947,
      "▁polar": 7948,
      "rupt": 7949,
      "▁reli": 7950,
      "▁struct": 7951,
      "aries": 7952,
      "ipp": 7953,
      "η": 7954,
      "▁germany": 7955,
      "▁ut": 7956,
      "▁07/1": 7957,
      "f": 7958,
      "▁defe": 7959,
      "▁leaders": 7960,
      "▁---------------------------------------------------------------------": 7961,
      "ecca": 7962,
      "88": 7963,
      "ately": 7964,
      "▁contr": 7965,
      "aves": 7966,
      "▁somet": 7967,
      "▁+++++": 7968,
      "▁env": 7969,
      "▁digital": 7970,
      "▁330": 7971,
      "ibility": 7972,
      "▁congress": 7973,
      "▁greatest": 7974,
      "▁forg": 7975,
      "▁bring": 7976,
      "▁unemploy": 7977,
      "▁delivered": 7978,
      "▁compl": 7979,
      "▁both": 7980,
      "aff": 7981,
      "▁customer": 7982,
      "▁understanding": 7983,
      "▁appreciate": 7984,
      "▁transform": 7985,
      "2-6": 7986,
      "________________": 7987,
      "▁kansas": 7988,
      "▁short": 7989,
      "▁suppose": 7990,
      "ational": 7991,
      "▁green": 7992,
      "▁dc": 7993,
      "▁relief": 7994,
      "amb": 7995,
      "▁wou": 7996,
      "▁taliban": 7997,
      "▁responsible": 7998,
      "▁multiple": 7999,
      "ared": 8000,
      "▁blue": 8001,
      "▁prime": 8002,
      "▁economies": 8003,
      "▁stillman": 8004,
      "ght": 8005,
      "▁determin": 8006,
      "▁especially": 8007,
      "▁assist": 8008,
      "▁repair": 8009,
      "▁consult": 8010,
      "▁tied": 8011,
      "▁transm": 8012,
      "▁africa": 8013,
      "▁50": 8014,
      "▁hel": 8015,
      "▁absolutely": 8016,
      "▁2011": 8017,
      "oni": 8018,
      "▁includ": 8019,
      "▁1598": 8020,
      "▁absol": 8021,
      "▁-2-": 8022,
      "▁nash": 8023,
      "▁open": 8024,
      "▁!!!!!!!!!!!": 8025,
      "▁voice": 8026,
      "▁pan": 8027,
      "▁building": 8028,
      "▁nine": 8029,
      "▁grass": 8030,
      "▁equival": 8031,
      "▁calif": 8032,
      "▁nerv": 8033,
      "▁80,000": 8034,
      "▁perform": 8035,
      "▁2000": 8036,
      "▁buying": 8037,
      "ens": 8038,
      "▁couple": 8039,
      "▁vacation": 8040,
      "ether": 8041,
      "▁relationship": 8042,
      "▁budget": 8043,
      "▁kevalam": 8044,
      "used": 8045,
      "▁==----": 8046,
      "▁508": 8047,
      "▁mel": 8048,
      "▁nandarou": 8049,
      "▁har": 8050,
      "▁purpose": 8051,
      "▁motion": 8052,
      "▁stip": 8053,
      "▁royal": 8054,
      "tail": 8055,
      "@enron": 8056,
      "▁mean": 8057,
      "▁9": 8058,
      "▁199": 8059,
      "▁clock": 8060,
      "part": 8061,
      "▁ch": 8062,
      "ker": 8063,
      "▁wed": 8064,
      "▁guess": 8065,
      "▁24,000": 8066,
      "ith": 8067,
      "▁dudley": 8068,
      "▁massive": 8069,
      "▁su": 8070,
      "▁national": 8071,
      "▁6.2": 8072,
      "36": 8073,
      "▁18,000": 8074,
      "ocr": 8075,
      "▁kids": 8076,
      "▁progr": 8077,
      "▁valle": 8078,
      "ask": 8079,
      "▁1605": 8080,
      "▁who": 8081,
      "▁fine": 8082,
      "acters": 8083,
      "▁train": 8084,
      "▁4:00": 8085,
      "▁almost": 8086,
      "▁classical": 8087,
      "▁hus": 8088,
      "▁paris": 8089,
      "??": 8090,
      "▁slight": 8091,
      "▁>----------------------------------------------------------------------------|": 8092,
      "▁888.916.7184": 8093,
      "▁interest": 8094,
      "we": 8095,
      "▁pol": 8096,
      "▁differences": 8097,
      "▁11/28/2000": 8098,
      "▁:d": 8099,
      "况": 8100,
      "▁pain": 8101,
      "phone": 8102,
      "▁teachers": 8103,
      "▁shackl": 8104,
      "/03/2001": 8105,
      "ti": 8106,
      "greg": 8107,
      "▁&amp": 8108,
      "ellow": 8109,
      "▁d'": 8110,
      "uck": 8111,
      "▁protect": 8112,
      "▁??": 8113,
      "▁lights": 8114,
      "▁e": 8115,
      "attle": 8116,
      "▁studying": 8117,
      "▁recogn": 8118,
      "▁62": 8119,
      "▁avoid": 8120,
      "▁experience": 8121,
      "▁battle": 8122,
      "▁tuesday": 8123,
      "▁pean": 8124,
      "▁9/11": 8125,
      "an": 8126,
      "ured": 8127,
      "a)": 8128,
      "▁attorn": 8129,
      "▁oakland": 8130,
      "▁certain": 8131,
      "▁perfectly": 8132,
      "▁diversity": 8133,
      "able": 8134,
      "▁context": 8135,
      "▁langu": 8136,
      "▁difference": 8137,
      "989": 8138,
      "▁reb": 8139,
      "-415-": 8140,
      "▁however": 8141,
      "▁noone": 8142,
      "▁?????": 8143,
      "▁compan": 8144,
      "/16": 8145,
      "▁work": 8146,
      "▁kh": 8147,
      "▁interviews": 8148,
      "-991-9": 8149,
      "ellig": 8150,
      "▁cour": 8151,
      "▁1777": 8152,
      "▁extremely": 8153,
      "ially": 8154,
      "cle": 8155,
      "▁present": 8156,
      "▁questar": 8157,
      "yr": 8158,
      "▁shot": 8159,
      "ter": 8160,
      "▁dkk": 8161,
      "aining": 8162,
      "▁0590": 8163,
      "▁laur": 8164,
      "▁washington": 8165,
      "▁eth": 8166,
      "▁answ": 8167,
      "▁benefit": 8168,
      "ouse": 8169,
      "▁maris": 8170,
      "▁intellect": 8171,
      "57": 8172,
      "▁xiii": 8173,
      "▁bank": 8174,
      "▁evening": 8175,
      "▁cut": 8176,
      "▁likes": 8177,
      "▁entered": 8178,
      "▁supplies": 8179,
      "▁maybe": 8180,
      "▁piz": 8181,
      "▁born": 8182,
      "▁lived": 8183,
      "more": 8184,
      "▁1039": 8185,
      "ich": 8186,
      "xt": 8187,
      "109": 8188,
      "▁freed": 8189,
      "▁branch": 8190,
      "isco": 8191
    },
    "merges": [
      [
        "▁12",
        "."
      ],
      [
        "▁ha",
        "f"
      ],
      [
        ".ht",
        "m"
      ],
      [
        "▁swim",
        "ming"
      ],
      [
        "▁qu",
        "ery"
      ],
      [
        "▁lad",
        "y"
      ],
      [
        "*",
        "*"
      ],
      [
        "▁15",
        "4"
      ],
      [
        "▁h",
        "ope"
      ],
      [
        "▁enj",
        "amb"
      ],
      [
        "▁c",
        "ards"
      ],
      [
        "▁t",
        "y"
      ],
      [
        "act",
        "ions"
      ],
      [
        "o",
        "ke"
      ],
      [
        "▁fil",
        "ter"
      ],
      [
        "▁med",
        "ia"
      ],
      [
        "▁================================",
        "================"
      ],
      [
        "▁b",
        "/"
      ],
      [
        "▁look",
        "s"
      ],
      [
        "ph",
        "one"
      ],
      [
        "-6",
        "25"
      ],
      [
        "▁0",
        "5"
      ],
      [
        "▁sc",
        "ary"
      ],
      [
        "▁w",
        "ould"
      ],
      [
        "▁ge",
        "ograph"
      ],
      [
        "1",
        "8"
      ],
      [
        "▁teach",
        "ing"
      ],
      [
        "▁dec",
        "isions"
      ],
      [
        "▁squ",
        "ir"
      ],
      [
        "▁",
        "z"
      ],
      [
        "▁6",
        "80"
      ],
      [
        "g",
        "ers"
      ],
      [
        "in",
        "er"
      ],
      [
        "ec",
        "ts"
      ],
      [
        "▁st",
        "y"
      ],
      [
        "▁r",
        "ank"
      ],
      [
        "▁sp",
        "an"
      ],
      [
        "▁ad",
        "ults"
      ],
      [
        "▁8",
        "8"
      ],
      [
        "▁r",
        "ural"
      ],
      [
        "▁195",
        "4"
      ],
      [
        "▁princ",
        "ip"
      ],
      [
        "▁713-654-128",
        "1"
      ],
      [
        "res",
        "p"
      ],
      [
        "▁conf",
        "ident"
      ],
      [
        "e",
        "qu"
      ],
      [
        "ak",
        "istan"
      ],
      [
        "▁fir",
        "st"
      ],
      [
        "▁p",
        "il"
      ],
      [
        "▁mod",
        "e"
      ],
      [
        "▁poll",
        "ution"
      ],
      [
        "▁",
        "r"
      ],
      [
        "s",
        "ter"
      ],
      [
        "▁lear",
        "n"
      ],
      [
        "▁a",
        "d"
      ],
      [
        ":",
        "30"
      ],
      [
        "▁min",
        "imum"
      ],
      [
        "▁mo",
        "on"
      ],
      [
        "▁stay",
        "ing"
      ],
      [
        "▁improve",
        "ment"
      ],
      [
        "all",
        "ow"
      ],
      [
        "▁",
        "id"
      ],
      [
        "▁w",
        "al"
      ],
      [
        "o",
        "res"
      ],
      [
        "▁b",
        "all"
      ],
      [
        "▁imple",
        "ment"
      ],
      [
        "▁count",
        "y"
      ],
      [
        "▁t",
        "ampa"
      ],
      [
        "▁pr",
        "on"
      ],
      [
        "▁col",
        "l"
      ],
      [
        "▁h",
        "om"
      ],
      [
        "ic",
        "a"
      ],
      [
        "▁f",
        "at"
      ],
      [
        "z",
        "z"
      ],
      [
        "▁conc",
        "ern"
      ],
      [
        "▁char",
        "acter"
      ],
      [
        "▁158",
        "5"
      ],
      [
        "▁pro",
        "c"
      ],
      [
        "▁invest",
        "ment"
      ],
      [
        "▁play",
        "ed"
      ],
      [
        "▁rul",
        "es"
      ],
      [
        "uct",
        "ion"
      ],
      [
        "▁report",
        "ed"
      ],
      [
        "-99",
        "1-9"
      ],
      [
        "▁",
        "/"
      ],
      [
        "y",
        "m"
      ],
      [
        "a",
        "x"
      ],
      [
        "▁w",
        "it"
      ],
      [
        "▁start",
        "s"
      ],
      [
        "▁re",
        "le"
      ],
      [
        "▁sm",
        "ok"
      ],
      [
        "▁ra",
        "ised"
      ],
      [
        "▁2",
        ".15"
      ],
      [
        "▁valle",
        "e"
      ],
      [
        "-",
        "h"
      ],
      [
        "▁d",
        "ar"
      ],
      [
        "ac",
        "e"
      ],
      [
        "▁in",
        "st"
      ],
      [
        "▁abs",
        "ol"
      ],
      [
        "as",
        "h"
      ],
      [
        "▁hen",
        "ry"
      ],
      [
        "▁s",
        "ink"
      ],
      [
        "▁west",
        "chester"
      ],
      [
        "▁cl",
        "os"
      ],
      [
        "▁********************************",
        "**********************************"
      ],
      [
        "▁2",
        "8"
      ],
      [
        "▁vi",
        "a"
      ],
      [
        "▁11",
        ":30"
      ],
      [
        "▁1.",
        "6"
      ],
      [
        "g",
        "ress"
      ],
      [
        "▁e",
        "qu"
      ],
      [
        "8",
        "0"
      ],
      [
        "l",
        "l"
      ],
      [
        "▁su",
        "gar"
      ],
      [
        "▁10/2",
        "3/2000"
      ],
      [
        "ter",
        "ed"
      ],
      [
        "el",
        "ly"
      ],
      [
        "▁dest",
        "roy"
      ],
      [
        "▁per",
        "iod"
      ],
      [
        "r",
        "uct"
      ],
      [
        "▁giv",
        "es"
      ],
      [
        "▁l",
        "ock"
      ],
      [
        "▁ev",
        "olution"
      ],
      [
        "▁ra",
        "ise"
      ],
      [
        "▁20",
        "22"
      ],
      [
        "▁h",
        "is"
      ],
      [
        "▁sh",
        "oot"
      ],
      [
        "▁5",
        "9"
      ],
      [
        "is",
        "f"
      ],
      [
        "▁1",
        "5"
      ],
      [
        "▁bu",
        "ilt"
      ],
      [
        "▁cl",
        "osed"
      ],
      [
        "▁i",
        "s"
      ],
      [
        "▁der",
        "iv"
      ],
      [
        "▁ter",
        "ms"
      ],
      [
        "▁sol",
        "id"
      ],
      [
        "3",
        "7"
      ],
      [
        "▁d",
        "kk"
      ],
      [
        "▁dec",
        "ision"
      ],
      [
        "b",
        "e"
      ],
      [
        ".",
        "st"
      ],
      [
        "▁he",
        "ad"
      ],
      [
        "a",
        "z"
      ],
      [
        "▁f",
        "ul"
      ],
      [
        "▁cal",
        "c"
      ],
      [
        "▁6",
        "9"
      ],
      [
        "▁con",
        "c"
      ],
      [
        "▁d",
        "c"
      ],
      [
        "▁att",
        "ached"
      ],
      [
        "▁isl",
        "am"
      ],
      [
        "▁resp",
        "ect"
      ],
      [
        "▁rel",
        "ations"
      ],
      [
        "▁st",
        "up"
      ],
      [
        "on",
        "y"
      ],
      [
        "▁sch",
        "ed"
      ],
      [
        "▁0",
        "2"
      ],
      [
        "▁andril",
        "lae"
      ],
      [
        "▁begin",
        "ning"
      ],
      [
        "▁18",
        "1"
      ],
      [
        "ac",
        "ts"
      ],
      [
        "▁dat",
        "ab"
      ],
      [
        "▁gr",
        "ass"
      ],
      [
        "▁10",
        ":00"
      ],
      [
        "▁s",
        "ar"
      ],
      [
        "▁profess",
        "or"
      ],
      [
        "▁m",
        "akes"
      ],
      [
        "▁11/0",
        "8/2000"
      ],
      [
        "g",
        "n"
      ],
      [
        "▁pric",
        "ing"
      ],
      [
        "▁sp",
        "ac"
      ],
      [
        "om",
        "s"
      ],
      [
        "▁in",
        "side"
      ],
      [
        "▁w",
        "."
      ],
      [
        "▁02-0",
        "5-02.doc"
      ],
      [
        "▁k",
        "en"
      ],
      [
        "▁!!!",
        "!!!"
      ],
      [
        "▁a",
        "ug"
      ],
      [
        "▁pro",
        "gress"
      ],
      [
        "/",
        "31"
      ],
      [
        "ou",
        "r"
      ],
      [
        "▁tr",
        "a"
      ],
      [
        "▁bus",
        "h"
      ],
      [
        "▁no",
        "on"
      ],
      [
        "▁pl",
        "astic"
      ],
      [
        "b",
        "an"
      ],
      [
        "u",
        "a"
      ],
      [
        "▁bott",
        "le"
      ],
      [
        "▁for",
        "ce"
      ],
      [
        "h",
        "e"
      ],
      [
        "er",
        "ve"
      ],
      [
        "▁anal",
        "ys"
      ],
      [
        "▁char",
        "acters"
      ],
      [
        "▁nmem",
        "drft8-7"
      ],
      [
        "▁sh",
        "eet"
      ],
      [
        "▁cand",
        "id"
      ],
      [
        "▁whi",
        "l"
      ],
      [
        "▁cap",
        "t"
      ],
      [
        "▁nash",
        "ville"
      ],
      [
        "▁rec",
        "ogn"
      ],
      [
        "▁scient",
        "ific"
      ],
      [
        "▁:",
        ")"
      ],
      [
        "▁origin",
        "al"
      ],
      [
        "▁c",
        "ake"
      ],
      [
        "r",
        "ick"
      ],
      [
        "l",
        "es"
      ],
      [
        "▁v",
        "oice"
      ],
      [
        "▁tele",
        "phone"
      ],
      [
        "▁o",
        "u"
      ],
      [
        "▁cl",
        "im"
      ],
      [
        "!!",
        "!"
      ],
      [
        "▁him",
        "self"
      ],
      [
        "▁for",
        "ces"
      ],
      [
        "▁all",
        "ow"
      ],
      [
        "▁f",
        "ast"
      ],
      [
        "/1",
        "5/2001"
      ],
      [
        "▁u",
        "s"
      ],
      [
        "▁n'",
        "t"
      ],
      [
        "▁qu",
        "est"
      ],
      [
        "▁713-853",
        "-"
      ],
      [
        "▁w",
        "ind"
      ],
      [
        "▁fa",
        "x"
      ],
      [
        "========",
        "========"
      ],
      [
        "▁republic",
        "an"
      ],
      [
        "ver",
        "ia"
      ],
      [
        "ra",
        "x"
      ],
      [
        "es",
        "e"
      ],
      [
        "▁w",
        "ood"
      ],
      [
        "▁9",
        "9"
      ],
      [
        "▁h",
        "ard"
      ],
      [
        "▁bas",
        "ically"
      ],
      [
        "▁as",
        "h"
      ],
      [
        "▁ment",
        "ioned"
      ],
      [
        "▁s",
        "c"
      ],
      [
        "▁tur",
        "ning"
      ],
      [
        "m",
        "ent"
      ],
      [
        "▁m",
        "ade"
      ],
      [
        "▁",
        "p"
      ],
      [
        "▁ser",
        "ver"
      ],
      [
        "▁09",
        ":45"
      ],
      [
        "▁sec",
        "ret"
      ],
      [
        "▁prod",
        "uce"
      ],
      [
        "▁spl",
        "it"
      ],
      [
        "▁seven",
        "ty"
      ],
      [
        "▁gl",
        "o"
      ],
      [
        "▁und",
        "er"
      ],
      [
        "▁art",
        "icle"
      ],
      [
        "▁relations",
        "hip"
      ],
      [
        "▁f",
        "ed"
      ],
      [
        "▁o",
        "cc"
      ],
      [
        "r",
        "ition"
      ],
      [
        "▁sy",
        "n"
      ],
      [
        "▁equ",
        "al"
      ],
      [
        "▁cha",
        "os"
      ],
      [
        "▁un",
        "t"
      ],
      [
        "re",
        "ad"
      ],
      [
        "▁19",
        "40"
      ],
      [
        "▁y",
        "ester"
      ],
      [
        "▁nmemdrft8-7",
        "-01"
      ],
      [
        "inn",
        "y"
      ],
      [
        "▁sp",
        "r"
      ],
      [
        "▁prom",
        "ised"
      ],
      [
        "al",
        "k"
      ],
      [
        "▁bo",
        "ston"
      ],
      [
        "▁cup",
        "c"
      ],
      [
        "▁hu",
        "b"
      ],
      [
        "▁pad",
        "aleck"
      ],
      [
        "▁n",
        "ante"
      ],
      [
        "▁di",
        "vers"
      ],
      [
        "▁mount",
        "ain"
      ],
      [
        "▁for",
        "m"
      ],
      [
        "▁aw",
        "ard"
      ],
      [
        "▁purp",
        "ose"
      ],
      [
        "at",
        "ely"
      ],
      [
        "▁co",
        "de"
      ],
      [
        "▁con",
        "gress"
      ],
      [
        "▁stri",
        "ke"
      ],
      [
        "▁percell",
        ","
      ],
      [
        "▁16.3",
        "79"
      ],
      [
        "ul",
        "t"
      ],
      [
        "▁1",
        "2"
      ],
      [
        "▁h",
        "ear"
      ],
      [
        "7",
        "4"
      ],
      [
        "c",
        "ab"
      ],
      [
        "▁t",
        "ie"
      ],
      [
        "ab",
        "lish"
      ],
      [
        "▁anal",
        "y"
      ],
      [
        "▁at",
        "t"
      ],
      [
        "▁l",
        "ope"
      ],
      [
        "▁israel",
        "i"
      ],
      [
        "vel",
        "and"
      ],
      [
        "▁|--------+----------------",
        "------->"
      ],
      [
        "at",
        "h"
      ],
      [
        "▁",
        ";"
      ],
      [
        ".",
        "uk"
      ],
      [
        "ra",
        "z"
      ],
      [
        "▁a",
        "ft"
      ],
      [
        "i",
        "s"
      ],
      [
        "ont",
        "o"
      ],
      [
        "▁w",
        "ith"
      ],
      [
        "▁ackn",
        "owled"
      ],
      [
        "▁m",
        "atch"
      ],
      [
        "▁t",
        "est"
      ],
      [
        "▁do",
        "or"
      ],
      [
        "▁contain",
        "er"
      ],
      [
        "▁fest",
        "ival"
      ],
      [
        "9",
        "8"
      ],
      [
        "▁",
        "ign"
      ],
      [
        "▁init",
        "ial"
      ],
      [
        "gh",
        "t"
      ],
      [
        "▁cost",
        "s"
      ],
      [
        "at",
        "ion"
      ],
      [
        "▁compan",
        "y"
      ],
      [
        "▁earli",
        "er"
      ],
      [
        "by",
        "e"
      ],
      [
        "▁trans",
        "p"
      ],
      [
        "▁re",
        "ad"
      ],
      [
        "▁pay",
        "ment"
      ],
      [
        "▁r",
        "out"
      ],
      [
        "ent",
        "s"
      ],
      [
        "▁c",
        "am"
      ],
      [
        "ra",
        "id"
      ],
      [
        "or",
        "s"
      ],
      [
        "m",
        "m"
      ],
      [
        "c",
        "el"
      ],
      [
        "▁matt",
        "ers"
      ],
      [
        "▁emph",
        "as"
      ],
      [
        "▁eas",
        "ier"
      ],
      [
        "▁h",
        "ot"
      ],
      [
        "▁record",
        "ing"
      ],
      [
        "k",
        "ana"
      ],
      [
        "▁eight",
        "h"
      ],
      [
        "▁_________________________________________________",
        "___________"
      ],
      [
        "bha",
        "-"
      ],
      [
        "te",
        "jo"
      ],
      [
        "g",
        "el"
      ],
      [
        "▁any",
        "more"
      ],
      [
        "▁collect",
        "ive"
      ],
      [
        "▁10",
        "/2"
      ],
      [
        ",",
        "9"
      ],
      [
        "▁d",
        "."
      ],
      [
        "▁1",
        "/4"
      ],
      [
        "▁wr",
        "iter"
      ],
      [
        "d",
        "er"
      ],
      [
        "▁z",
        "eal"
      ],
      [
        "▁execut",
        "ive"
      ],
      [
        "▁000010",
        "8806"
      ],
      [
        "▁h",
        "op"
      ],
      [
        "▁expl",
        "ore"
      ],
      [
        "m",
        "l"
      ],
      [
        "b",
        "les"
      ],
      [
        "▁sch",
        "edule"
      ],
      [
        "▁prod",
        "uc"
      ],
      [
        "▁env",
        "iron"
      ],
      [
        "▁ro",
        "l"
      ],
      [
        "2",
        "-0"
      ],
      [
        "t",
        "y"
      ],
      [
        "▁particip",
        "ants"
      ],
      [
        "gr",
        "ad"
      ],
      [
        "▁real",
        "ized"
      ],
      [
        "ou",
        "p"
      ],
      [
        "▁end",
        "s"
      ],
      [
        "▁pret",
        "ty"
      ],
      [
        "▁of",
        "f"
      ],
      [
        "▁po",
        "int"
      ],
      [
        "▁sm",
        "ith"
      ],
      [
        "one",
        "y"
      ],
      [
        "r",
        "i"
      ],
      [
        "▁tr",
        "ad"
      ],
      [
        "▁spec",
        "ies"
      ],
      [
        "▁ev",
        "ol"
      ],
      [
        "▁19",
        "7"
      ],
      [
        "▁t",
        "a"
      ],
      [
        "-8",
        "4"
      ],
      [
        "n",
        "ing"
      ],
      [
        "ath",
        "er"
      ],
      [
        "▁lea",
        "st"
      ],
      [
        "ep",
        "end"
      ],
      [
        "▁bur",
        "bank"
      ],
      [
        "id",
        "e"
      ],
      [
        "n",
        "ew"
      ],
      [
        "ond",
        "on"
      ],
      [
        "▁8",
        "13"
      ],
      [
        "-",
        "435"
      ],
      [
        "se",
        "qu"
      ],
      [
        "ap",
        "t"
      ],
      [
        "▁sp",
        "eech"
      ],
      [
        "▁dec",
        "ide"
      ],
      [
        "▁ad",
        "op"
      ],
      [
        "▁j",
        "am"
      ],
      [
        "▁coun",
        "ter"
      ],
      [
        ".ht",
        "ml"
      ],
      [
        "▁11",
        ":16"
      ],
      [
        "▁713-853-",
        "3098"
      ],
      [
        "▁br",
        "ight"
      ],
      [
        "p",
        "er"
      ],
      [
        "6",
        "0"
      ],
      [
        "▁h",
        "our"
      ],
      [
        "▁inter",
        "est"
      ],
      [
        "b",
        "r"
      ],
      [
        "▁fl",
        "ow"
      ],
      [
        "▁ca",
        "used"
      ],
      [
        "▁c",
        "ase"
      ],
      [
        "▁the",
        "m"
      ],
      [
        "▁16",
        "35"
      ],
      [
        "▁f",
        "ing"
      ],
      [
        "▁understand",
        "ing"
      ],
      [
        "▁e",
        "at"
      ],
      [
        "▁b",
        "ub"
      ],
      [
        "880",
        "6"
      ],
      [
        "▁don",
        "key"
      ],
      [
        "om",
        "e"
      ],
      [
        "▁h",
        "ou"
      ],
      [
        "▁inform",
        "ed"
      ],
      [
        "▁16",
        "47"
      ],
      [
        "at",
        "ives"
      ],
      [
        "▁ninety-n",
        "ine"
      ],
      [
        "v",
        "al"
      ],
      [
        "▁pro",
        "ject"
      ],
      [
        "▁po",
        "st"
      ],
      [
        "▁r",
        "ace"
      ],
      [
        "in",
        "o"
      ],
      [
        "▁suprem",
        "e"
      ],
      [
        "st",
        "airs"
      ],
      [
        "▁b",
        "ro"
      ],
      [
        "▁to",
        "ys"
      ],
      [
        "▁dre",
        "am"
      ],
      [
        ".",
        "3"
      ],
      [
        "▁!!!",
        "!"
      ],
      [
        "▁back",
        "ground"
      ],
      [
        "▁h",
        "iking"
      ],
      [
        "3",
        "c"
      ],
      [
        "▁p",
        "o"
      ],
      [
        "▁:",
        "d"
      ],
      [
        ",00",
        "8"
      ],
      [
        "▁consider",
        "ed"
      ],
      [
        "▁def",
        "ined"
      ],
      [
        "..",
        ".."
      ],
      [
        "▁cir",
        "cle"
      ],
      [
        "▁ro",
        "bert"
      ],
      [
        "l",
        "ers"
      ],
      [
        "▁d",
        "oll"
      ],
      [
        "▁w",
        "ays"
      ],
      [
        "▁n",
        "ot"
      ],
      [
        "▁sugg",
        "est"
      ],
      [
        "▁v",
        "oices"
      ],
      [
        "/",
        "8"
      ],
      [
        "▁p",
        "eau"
      ],
      [
        "▁ph",
        "one"
      ],
      [
        "▁watch",
        "ed"
      ],
      [
        "▁cl",
[...]
