{
  "version": "1.0",
  "truncation": null,
  "padding": null,
  "added_tokens": [
    {
      "id": 546,
      "content": "[CLS]",
      "single_word": false,
      "lstrip": false,
      "rstrip": false,
      "normalized": false,
      "special": true
    },
    {
      "id": 977,
      "content": "[SEP]",
      "single_word": false,
      "lstrip": false,
      "rstrip": false,
      "normalized": false,
      "special": true
    },
    {
      "id": 2313,
      "content": "[PAD]",
      "single_word": false,
      "lstrip": false,
      "rstrip": false,
      "normalized": false,
      "special": true
    },
    {
      "id": 3454,
      "content": "[MASK]",
      "single_word": false,
      "lstrip": false,
      "rstrip": false,
      "normalized": false,
      "special": true
    },
    {
      "id": 3648,
      "content": "[UNK]",
      "single_word": false,
      "lstrip": false,
      "rstrip": false,
      "normalized": false,
      "special": true
    }
  ],
  "normalizer": {
    "type": "Sequence",
    "normalizers": [
      {
        "type": "NFD"
      },
      {
        "type": "Lowercase"
      },
      {
        "type": "StripAccents"
      }
    ]
  },
  "pre_tokenizer": {
    "type": "Sequence",
    "pretokenizers": [
      {
        "type": "Metaspace",
        "replacement": "▁",
        "prepend_scheme": "always",
        "split": true
      }
    ]
  },
  "post_processor": {
    "type": "TemplateProcessing",
    "single": [
      {
        "SpecialToken": {
          "id": "[CLS]",
          "type_id": 0
        }
      },
      {
        "Sequence": {
          "id": "A",
          "type_id": 0
        }
      },
      {
        "SpecialToken": {
          "id": "[SEP]",
          "type_id": 0
        }
      }
    ],
    "pair": [
      {
        "SpecialToken": {
          "id": "[CLS]",
          "type_id": 0
        }
      },
      {
        "Sequence": {
          "id": "A",
          "type_id": 0
        }
      },
      {
        "SpecialToken": {
          "id": "[SEP]",
          "type_id": 0
        }
      },
      {
        "Sequence": {
          "id": "B",
          "type_id": 1
        }
      },
      {
        "SpecialToken": {
          "id": "[SEP]",
          "type_id": 1
        }
      }
    ],
    "special_tokens": {
      "[CLS]": {
        "id": "[CLS]",
        "ids": [
          546
        ],
        "tokens": [
          "[CLS]"
        ]
      },
      "[SEP]": {
        "id": "[SEP]",
        "ids": [
          977
        ],
        "tokens": [
          "[SEP]"
        ]
      }
    }
  },
  "decoder": {
    "type": "Metaspace",
    "replacement": "▁",
    "prepend_scheme": "always",
    "split": true
  },
  "model": {
    "type": "BPE",
    "dropout": null,
    "unk_token": "[UNK]",
    "continuing_subword_prefix": null,
    "end_of_word_suffix": null,
    "fuse_unk": false,
    "byte_fallback": false,
    "ignore_merges": false,
    "vocab": {
      ":19": 0,
      "iss": 1,
      "!!!!!!!!": 2,
      ":56": 3,
      "▁pr": 4,
      "▁40": 5,
      "ming": 6,
      "▁700": 7,
      "▁little": 8,
      "fi": 9,
      "ind": 10,
      "▁america": 11,
      "????": 12,
      "▁1954": 13,
      "▁as": 14,
      "▁shop": 15,
      "▁\"": 16,
      "▁lake": 17,
      "ior": 18,
      "▁ad": 19,
      "40": 20,
      "▁12/2": 21,
      "▁mass": 22,
      "▁253": 23,
      "ew": 24,
      "▁1940": 25,
      "▁20:00": 26,
      "▁there": 27,
      "▁interv": 28,
      "eed": 29,
      "▁numer": 30,
      "▁date": 31,
      "ting": 32,
      "▁depart": 33,
      "▁dat": 34,
      "▁50000": 35,
      "????????": 36,
      "▁ec": 37,
      "aking": 38,
      "▁parents": 39,
      "▁ha": 40,
      "▁must": 41,
      "▁13": 42,
      "▁proble": 43,
      "aw": 44,
      "ly": 45,
      "▁form": 46,
      "........": 47,
      "▁1991": 48,
      "▁238": 49,
      "▁11:36": 50,
      "▁outs": 51,
      "▁1589": 52,
      "▁know": 53,
      "▁pittsbur": 54,
      "▁before": 55,
      "▁1,200": 56,
      "ased": 57,
      "▁2030": 58,
      "▁yeah": 59,
      "eare": 60,
      "▁enough": 61,
      "▁last": 62,
      "▁whi": 63,
      ".15": 64,
      "/13": 65,
      "▁unless": 66,
      "ement": 67,
      "▁64": 68,
      "clud": 69,
      "▁help": 70,
      "ived": 71,
      "▁q": 72,
      "lf": 73,
      "▁1929": 74,
      "▁wear": 75,
      "▁times": 76,
      "▁wanted": 77,
      "▁would": 78,
      "…": 79,
      "▁hop": 80,
      "▁establish": 81,
      "▁175": 82,
      "▁hear": 83,
      "5/2001": 84,
      "▁global": 85,
      "▁period": 86,
      "up": 87,
      "867": 88,
      "▁713/8": 89,
      "ility": 90,
      "▁1562": 91,
      "▁fourteen": 92,
      "▁4.6": 93,
      "▁1971": 94,
      "▁1609": 95,
      "æ": 96,
      "▁ear": 97,
      "ertain": 98,
      "▁alright": 99,
      "isk": 100,
      "▁wait": 101,
      "▁08:50": 102,
      "▁priv": 103,
      "81": 104,
      "▁saying": 105,
      "cross": 106,
      "ess": 107,
      "▁mor": 108,
      "0-3": 109,
      "▁business": 110,
      "'": 111,
      "▁6871082#": 112,
      "▁old": 113,
      "▁rep": 114,
      "▁prod": 115,
      "▁1847": 116,
      "enix": 117,
      "▁buy": 118,
      "▁10": 119,
      "uss": 120,
      "▁watch": 121,
      "▁well": 122,
      "ided": 123,
      "▁iran": 124,
      "33": 125,
      "▁x": 126,
      "▁7:00": 127,
      "▁suff": 128,
      "▁28": 129,
      "▁plan": 130,
      "▁squ": 131,
      "▁live": 132,
      "▁code": 133,
      "and": 134,
      ".6": 135,
      "▁august": 136,
      "▁y": 137,
      "▁ap": 138,
      "▁aside": 139,
      "▁perf": 140,
      "90": 141,
      "▁daily": 142,
      "ither": 143,
      "one": 144,
      "▁lad": 145,
      "▁col": 146,
      "ʻ": 147,
      "▁1245": 148,
      "▁2014": 149,
      "▁300,000": 150,
      "▁now": 151,
      "▁free": 152,
      "▁could": 153,
      "▁ph": 154,
      "ass": 155,
      "▁78": 156,
      "craft": 157,
      "▁_____": 158,
      "ven": 159,
      "▁best": 160,
      "▁activ": 161,
      "▁u": 162,
      "hing": 163,
      "▁***": 164,
      "ester": 165,
      "unications": 166,
      "anger": 167,
      "▁202.45": 168,
      "▁60,000": 169,
      "ape": 170,
      "▁65": 171,
      "▁apar": 172,
      "▁so": 173,
      "▁japan": 174,
      "▁fig": 175,
      "▁2016": 176,
      "▁indian": 177,
      "▁law": 178,
      "▁sleep": 179,
      "▁once": 180,
      "▁1635": 181,
      "▁hard": 182,
      "▁2017": 183,
      "004": 184,
      "▁1530": 185,
      "▁march": 186,
      "▁+44": 187,
      "▁10/2": 188,
      "--------": 189,
      "37": 190,
      "cum": 191,
      "▁mar": 192,
      "▁house": 193,
      "ized": 194,
      "ig": 195,
      "▁vis": 196,
      "▁hist": 197,
      "tsbur": 198,
      "▁08/17/2000": 199,
      "▁rights": 200,
      "▁fair": 201,
      "▁needed": 202,
      "▁ne": 203,
      "▁felt": 204,
      "ier": 205,
      "ably": 206,
      "ving": 207,
      "▁ra": 208,
      "co": 209,
      "utions": 210,
      "▁16": 211,
      "▁61": 212,
      "form": 213,
      "▁14": 214,
      "▁–": 215,
      "▁sc": 216,
      "-9004": 217,
      "▁1709": 218,
      "▁fail": 219,
      "▁5.8": 220,
      "▁kn": 221,
      "▁will": 222,
      "▁405": 223,
      "ea": 224,
      ":1": 225,
      "▁hers": 226,
      "▁'d": 227,
      "▁56": 228,
      "▁eas": 229,
      "▁with": 230,
      "▁1.75": 231,
      "▁const": 232,
      "▁commission": 233,
      "–": 234,
      "▁first": 235,
      "wn": 236,
      "▁forward": 237,
      "ant": 238,
      "....": 239,
      "▁2018": 240,
      ":05": 241,
      "48": 242,
      "▁versus": 243,
      "▁whilst": 244,
      "▁1841": 245,
      "▁nose": 246,
      "▁1602": 247,
      "ally": 248,
      "▁33,000": 249,
      "▁things": 250,
      "▁b/c": 251,
      "ep": 252,
      "▁cult": 253,
      "icago": 254,
      "ults": 255,
      "▁09/16/99": 256,
      "ize": 257,
      "es": 258,
      "▁iraq": 259,
      "ackl": 260,
      "wau": 261,
      "▁1560": 262,
      "▁ever": 263,
      "ustom": 264,
      "▁02": 265,
      "▁.......": 266,
      "▁888.916.718": 267,
      "▁1880": 268,
      "▁boy": 269,
      "▁;": 270,
      "ed": 271,
      "▁are": 272,
      "▁extrem": 273,
      "▁sometimes": 274,
      "▁1579": 275,
      "▁agre": 276,
      "round": 277,
      "ca": 278,
      "▁bag": 279,
      "ble": 280,
      "ead": 281,
      "▁if": 282,
      "▁200,000": 283,
      "▁01:14": 284,
      "▁373": 285,
      "uch": 286,
      "ising": 287,
      "ans": 288,
      "az": 289,
      "32": 290,
      "▁esp": 291,
      "▁oc": 292,
      "▁breakfast": 293,
      "ood": 294,
      "▁in": 295,
      "arch": 296,
      "▁sched": 297,
      "11": 298,
      "▁1955": 299,
      "ve": 300,
      "▁said": 301,
      "▁9:30": 302,
      "ost": 303,
      "five": 304,
      "▁den": 305,
      "▁j": 306,
      "▁control": 307,
      "▁number": 308,
      "▁bec": 309,
      "/01/2001": 310,
      "▁oil": 311,
      "53-3119": 312,
      "▁less": 313,
      "▁file": 314,
      "neath": 315,
      "▁study": 316,
      "▁support": 317,
      "ance": 318,
      "▁730": 319,
      "▁154": 320,
      "▁at": 321,
      "▁05/03/2001": 322,
      "☏": 323,
      "▁add": 324,
      "▁meas": 325,
      "▁3,202.61": 326,
      "▁general": 327,
      "r": 328,
      "ear": 329,
      "▁44,000": 330,
      "-6": 331,
      "ather": 332,
      "▁hands": 333,
      ".9": 334,
      "ings": 335,
      ":11": 336,
      "▁1776": 337,
      "▁order": 338,
      ".2": 339,
      "84": 340,
      "▁known": 341,
      "▁05/01/2001": 342,
      "ures": 343,
      "▁game": 344,
      "▁********************************": 345,
      "▁break": 346,
      "▁416-865-370": 347,
      "ma": 348,
      "ces": 349,
      "▁pur": 350,
      "ments": 351,
      "ect": 352,
      "▁toward": 353,
      "▁759933": 354,
      "▁shakespeare": 355,
      "id": 356,
      "▁about": 357,
      "▁’": 358,
      "▁californ": 359,
      "▁until": 360,
      "87": 361,
      "▁ground": 362,
      "▁inv": 363,
      "tt": 364,
      "▁450": 365,
      "are": 366,
      "▁04:17": 367,
      "▁ir": 368,
      "▁aw": 369,
      "▁come": 370,
      "atter": 371,
      ":": 372,
      "end": 373,
      "55": 374,
      "▁prot": 375,
      "▁amount": 376,
      "▁p": 377,
      "ec": 378,
      "▁draw": 379,
      "/10/2000": 380,
      "▁5.6": 381,
      "▁pract": 382,
      "▁arri": 383,
      "▁party": 384,
      "▁w": 385,
      "▁throughout": 386,
      "▁08/15": 387,
      "▁poor": 388,
      "▁09": 389,
      "▁1774": 390,
      ".713.86": 391,
      "▁1594": 392,
      "ix": 393,
      "▁veg": 394,
      "▁2.15": 395,
      "▁748": 396,
      "▁cond": 397,
      ":29": 398,
      "▁!!!!": 399,
      "▁why": 400,
      "▁finally": 401,
      ",600": 402,
      "▁phone": 403,
      "▁compet": 404,
      "▁mine": 405,
      "449": 406,
      ".1234": 407,
      "▁special": 408,
      "00": 409,
      "cil": 410,
      "21": 411,
      "▁---------------------------------": 412,
      "”": 413,
      "▁di": 414,
      "3736": 415,
      "-696": 416,
      "most": 417,
      "▁75": 418,
      "▁diego": 419,
      "er": 420,
      "ives": 421,
      "▁atop": 422,
      "for": 423,
      "▁1943": 424,
      "o": 425,
      "▁united": 426,
      "onom": 427,
      "▁http://www": 428,
      "ated": 429,
      "▁unles": 430,
      "▁04:37": 431,
      "▁fore": 432,
      "▁06/01/2001": 433,
      "▁outside": 434,
      "▁1800": 435,
      "▁11.5": 436,
      "eric": 437,
      "ip": 438,
      "ope": 439,
      "▁govern": 440,
      "osite": 441,
      "▁2,500": 442,
      "7/99": 443,
      "▁mm": 444,
      "▁br": 445,
      "▁become": 446,
      "▁their": 447,
      "▁202": 448,
      "$": 449,
      "▁post": 450,
      "head": 451,
      "/2001": 452,
      "▁1-8": 453,
      "▁people": 454,
      "▁%": 455,
      "/2000": 456,
      "ul": 457,
      "▁human": 458,
      "▁3": 459,
      "▁.": 460,
      "▁space": 461,
      "ild": 462,
      "▁cl": 463,
      "▁george": 464,
      "▁ii": 465,
      "▁called": 466,
      "▁dozen": 467,
      "019": 468,
      "▁chicken": 469,
      "▁1.1": 470,
      "▁sim": 471,
      ":55": 472,
      "▁s’": 473,
      "▁spr": 474,
      "▁should": 475,
      "v": 476,
      "▁ours": 477,
      "▁12,000": 478,
      "▁1300": 479,
      "!?": 480,
      "ric": 481,
      "uma": 482,
      "▁s/h": 483,
      "▁worth": 484,
      "/15/2001": 485,
      "▁pu": 486,
      "▁prob": 487,
      "39": 488,
      "/03": 489,
      "▁anything": 490,
      "/17/99": 491,
      "▁airline": 492,
      "irl": 493,
      "ast": 494,
      "▁1220": 495,
      "▁100": 496,
      "▁1952": 497,
      "▁2012": 498,
      "031": 499,
      "▁3/8/00": 500,
      "ا": 501,
      "▁1820": 502,
      "▁does": 503,
      "▁84": 504,
      "il": 505,
      "====": 506,
      "▁fare": 507,
      "▁..": 508,
      "▁wants": 509,
      ".doc": 510,
      "▁11/0": 511,
      "▁2.5": 512,
      "▁202.456.2461": 513,
      "▁ride": 514,
      "▁av": 515,
      "thing": 516,
      "▁o": 517,
      "ise": 518,
      "▁face": 519,
      "▁tom": 520,
      "ove": 521,
      "otte": 522,
      "▁ask": 523,
      "▁:-)": 524,
      "▁micro": 525,
      "▁814014": 526,
      "urn": 527,
      "υ": 528,
      "iron": 529,
      "▁job": 530,
      "ify": 531,
      "▁it": 532,
      "▁becuse": 533,
      "▁whereas": 534,
      "▁going": 535,
      "ense": 536,
      "▁read": 537,
      "********************************": 538,
      "▁orlando": 539,
      "▁cent": 540,
      "▁1230": 541,
      "▁wonder": 542,
      "▁11:00": 543,
      "de": 544,
      "sl": 545,
      "[CLS]": 546,
      "91": 547,
      "ium": 548,
      "▁anyone": 549,
      "▁eating": 550,
      "▁ob": 551,
      "▁quality": 552,
      "▁ab": 553,
      "▁mov": 554,
      "▁throu": 555,
      "▁sl": 556,
      "▁48": 557,
      "▁kill": 558,
      "▁cit": 559,
      "▁sar": 560,
      "▁everybody": 561,
      "cuz": 562,
      "▁administ": 563,
      "▁1950": 564,
      "▁8:00": 565,
      "▁70.85": 566,
      "▁88": 567,
      "uge": 568,
      ",5": 569,
      "▁arg": 570,
      "hia": 571,
      "kee": 572,
      "▁mark": 573,
      "book": 574,
      "▁restaurant": 575,
      "ana": 576,
      "▁money": 577,
      "▁744": 578,
      "▁hun": 579,
      "▁jwww": 580,
      "▁1974": 581,
      "▁family": 582,
      "▁01:58": 583,
      "kk": 584,
      "▁start": 585,
      "▁that": 586,
      "▁lat": 587,
      "1696": 588,
      "um": 589,
      "▁received": 590,
      "st": 591,
      "▁80435": 592,
      "is_0712": 593,
      "▁during": 594,
      "▁among": 595,
      "▁1833": 596,
      "-n": 597,
      "51": 598,
      "▁delta": 599,
      "-5": 600,
      "▁value": 601,
      ".676": 602,
      "ently": 603,
      "▁doct": 604,
      "cept": 605,
      "inn": 606,
      "▁country": 607,
      "elt": 608,
      "▁0": 609,
      "▁68": 610,
      "▁thirty-five": 611,
      "ro": 612,
      "▁10:00": 613,
      "'s": 614,
      "ful": 615,
      "ation": 616,
      ".782": 617,
      "ints": 618,
      "▁alth": 619,
      ".7822": 620,
      "▁conf": 621,
      "▁stre": 622,
      "▁cons": 623,
      "▁milk": 624,
      "ars": 625,
      "▁california": 626,
      "▁comp": 627,
      "-20-": 628,
      "▁****": 629,
      "▁1960": 630,
      "▁albe": 631,
      "▁n": 632,
      "▁250": 633,
      "▁cap": 634,
      "▁april": 635,
      "▁1100": 636,
      "▁'ll": 637,
      "ater": 638,
      "▁funny": 639,
      "▁dr": 640,
      "▁head": 641,
      "osed": 642,
      "▁houston": 643,
      "▁meth": 644,
      "▁call": 645,
      "▁imp": 646,
      "▁sure": 647,
      "▁lab": 648,
      "oy": 649,
      "▁83": 650,
      "▁phoenix": 651,
      "▁2.7": 652,
      "▁using": 653,
      "▁4": 654,
      "▁beneath": 655,
      "old": 656,
      "▁easy": 657,
      "velopment": 658,
      "ls": 659,
      "▁fort": 660,
      "act": 661,
      "▁women": 662,
      "▁529999": 663,
      "▁respons": 664,
      "▁charlotte": 665,
      "▁01/26/2001": 666,
      "▁aff": 667,
      "ge": 668,
      "oo": 669,
      "/8": 670,
      "▁texas": 671,
      "▁425": 672,
      "▁une": 673,
      "▁'0": 674,
      "!!": 675,
      "▁acc": 676,
      "▁room": 677,
      "▁analysis_0712": 678,
      "▁ways": 679,
      "²": 680,
      "▁212": 681,
      "clock": 682,
      "▁1590": 683,
      "ry": 684,
      "▁against": 685,
      "▁19": 686,
      "ph": 687,
      "▁copy": 688,
      "▁03/28/2001": 689,
      "|": 690,
      "ets": 691,
      "▁11:0": 692,
      "ks": 693,
      "200": 694,
      "▁76": 695,
      "▁96": 696,
      "/97": 697,
      "490": 698,
      "akes": 699,
      "▁london": 700,
      "▁cr": 701,
      "▁incl": 702,
      "▁americans": 703,
      "▁680": 704,
      "▁deliver": 705,
      "ς": 706,
      "ually": 707,
      "▁adam": 708,
      "▁arrive": 709,
      "ummy": 710,
      "▁1976": 711,
      "▁05/17/99": 712,
      "د": 713,
      "▁bul": 714,
      "▁contin": 715,
      "▁diff": 716,
      "▁picture": 717,
      "▁03/02/2001": 718,
      "▁door": 719,
      "..": 720,
      "▁5/18": 721,
      "▁922": 722,
      "te": 723,
      "▁eighteen": 724,
      "ecess": 725,
      "▁baby": 726,
      "/9": 727,
      "cl": 728,
      "▁fo": 729,
      "▁ill": 730,
      "9999": 731,
      "▁750": 732,
      "▁use": 733,
      "▁03/15/2001": 734,
      "▁cleveland": 735,
      "▁teh": 736,
      "ays": 737,
      "38": 738,
      "▁03:48": 739,
      "ive": 740,
      "/8/00": 741,
      "line": 742,
      "▁surpr": 743,
      "amp": 744,
      "▁animals": 745,
      "▁25": 746,
      ":48": 747,
      "▁reason": 748,
      "ward": 749,
      "▁e.": 750,
      "▁pock": 751,
      "lect": 752,
      "▁rather": 753,
      "▁pub": 754,
      "▁airport": 755,
      "▁1500": 756,
      "orn": 757,
      "▁beautiful": 758,
      "▁bird": 759,
      "cond": 760,
      "ull": 761,
      "▁sil": 762,
      "isc": 763,
      ",000,000,000": 764,
      "▁ty": 765,
      "▁52": 766,
      "▁around": 767,
      "▁food": 768,
      "▁enjoy": 769,
      "▁@": 770,
      "ely": 771,
      "ned": 772,
      "▁next": 773,
      "▁1,": 774,
      "▁87": 775,
      "▁09:45": 776,
      "▁nice": 777,
      "b": 778,
      "ote": 779,
      "▁1983": 780,
      "▁body": 781,
      "▁page": 782,
      "▁abo": 783,
      "▁rele": 784,
      "▁making": 785,
      "▁11/7": 786,
      "03": 787,
      "▁button": 788,
      "▁mu": 789,
      ",8": 790,
      "▁1307": 791,
      "▁giv": 792,
      "++++": 793,
      "iate": 794,
      "▁society": 795,
      "▁employ": 796,
      "▁1/4": 797,
      "▁park": 798,
      "▁1115": 799,
      "▁but": 800,
      "ef": 801,
      "▁differ": 802,
      "▁afternoon": 803,
      "▁3-5": 804,
      "▁others": 805,
      "▁transmission": 806,
      "▁85": 807,
      "ention": 808,
      "▁+45": 809,
      "▁2050": 810,
      "35": 811,
      "__": 812,
      "****************": 813,
      "ds": 814,
      "▁1947": 815,
      "▁denver": 816,
      "▁away": 817,
      "ited": 818,
      "▁53": 819,
      "▁1914": 820,
      "oon": 821,
      "▁54,000": 822,
      "▁&amp;": 823,
      "://": 824,
      "▁37": 825,
      "fore": 826,
      "_0": 827,
      "▁girl": 828,
      "▁jun": 829,
      "oh": 830,
      "▁mess": 831,
      "▁16.379": 832,
      "▁milit": 833,
      "▁pret": 834,
      "amm": 835,
      "▁cop": 836,
      "▁works": 837,
      "▁attached": 838,
      "4014": 839,
      "▁typ": 840,
      "▁09:14": 841,
      "▁christ": 842,
      "▁person": 843,
      "▁except": 844,
      "▁trying": 845,
      "ama": 846,
      "▁207": 847,
      "▁manag": 848,
      "▁1689": 849,
      "▁youn": 850,
      "▁and": 851,
      "▁410-468-3": 852,
      "▁80": 853,
      "▁1660": 854,
      "ard": 855,
      "▁co": 856,
      "▁across": 857,
      "▁137": 858,
      "▁geor": 859,
      "▁phot": 860,
      "als": 861,
      "sid": 862,
      "ang": 863,
      "huh": 864,
      "gel": 865,
      "▁salt": 866,
      "▁say": 867,
      "▁’ll": 868,
      "▁415": 869,
      "▁1944": 870,
      "▁stud": 871,
      "itions": 872,
      "▁uhh": 873,
      "oot": 874,
      "/11/2004": 875,
      "▁med": 876,
      "is": 877,
      "σ": 878,
      "▁please": 879,
      "e@enron": 880,
      "▁pl": 881,
      "dd": 882,
      "▁weeks": 883,
      "ire": 884,
      "▁11/29/2000": 885,
      "ok": 886,
      "▁2.9": 887,
      "ain": 888,
      "-23": 889,
      "▁infl": 890,
      "▁sle": 891,
      "▁down": 892,
      "▁888": 893,
      "▁twel": 894,
      "³": 895,
      "▁315": 896,
      "▁sorry": 897,
      "▁832": 898,
      "▁birthday": 899,
      "▁pet": 900,
      "ances": 901,
      "▁die": 902,
      "-59": 903,
      "▁260": 904,
      "▁problems": 905,
      "▁whe": 906,
      "▁action": 907,
      "▁men": 908,
      ":44": 909,
      "▁days": 910,
      "idence": 911,
      "▁yellow": 912,
      "295": 913,
      "▁father": 914,
      "/7": 915,
      "▁thir": 916,
      "▁night": 917,
      "▁8:30": 918,
      "▁ger": 919,
      "ight": 920,
      "▁1988": 921,
      "▁looks": 922,
      "▁thursday": 923,
      "▁1593": 924,
      "夏": 925,
      "▁814.86": 926,
      "▁hundred": 927,
      "ame": 928,
      "▁son": 929,
      "▁numerous": 930,
      "▁fish": 931,
      "▁guys": 932,
      "▁33": 933,
      "▁hope": 934,
      "lic": 935,
      "▁pal": 936,
      "▁profess": 937,
      "▁project": 938,
      "gami": 939,
      "▁ninety-nine": 940,
      "in": 941,
      "▁hotel": 942,
      "▁1:00": 943,
      "▁bac": 944,
      "▁incre": 945,
      "ell": 946,
      "ps": 947,
      "▁think": 948,
      "uation": 949,
      "ree": 950,
      "▁ey": 951,
      "▁mommy": 952,
      ",950": 953,
      "▁hur": 954,
      "▁here": 955,
      "vern": 956,
      "ommend": 957,
      "▁tralee": 958,
      "sel": 959,
      "▁3/4": 960,
      "8/2001": 961,
      "▁friends": 962,
      "▁any": 963,
      "▁bus": 964,
      "ech": 965,
      "as": 966,
      "▁boston": 967,
      "iet": 968,
      "▁pick": 969,
      "▁wrong": 970,
      "▁ll": 971,
      "▁a": 972,
      "▁needs": 973,
      "▁minutes": 974,
      "▁wish": 975,
      "ination": 976,
      "[SEP]": 977,
      "▁4.0": 978,
      "▁sm": 979,
      "go": 980,
      "▁transportation": 981,
      "▁wi": 982,
      "43": 983,
      "▁were": 984,
      "ee": 985,
      "▁713-6": 986,
      "ilities": 987,
      "▁leaving": 988,
      "four": 989,
      "▁5,000": 990,
      "▁aft": 991,
      "▁932": 992,
      "*": 993,
      "▁despite": 994,
      "▁due": 995,
      "----": 996,
      "▁+": 997,
      "▁>>": 998,
      "ure": 999,
      "14": 1000,
      "▁1877": 1001,
      "▁usually": 1002,
      "▁near": 1003,
      "▁’s": 1004,
      "▁trad": 1005,
      "▁f": 1006,
      "ale": 1007,
      "▁paul": 1008,
      "34": 1009,
      "ys": 1010,
      "▁las": 1011,
      "ides": 1012,
      "▁1575": 1013,
      "12": 1014,
      "▁bal": 1015,
      "▁prof": 1016,
      "▁11": 1017,
      ":0": 1018,
      "▁72": 1019,
      "77": 1020,
      "ower": 1021,
      "▁1-800-991-9": 1022,
      "▁mr": 1023,
      "▁occ": 1024,
      "/17/2000": 1025,
      "201": 1026,
      "▁taken": 1027,
      "301": 1028,
      "▁‘’": 1029,
      "▁24": 1030,
      "▁2.975": 1031,
      "itt": 1032,
      "▁own": 1033,
      "▁wa": 1034,
      "▁excellent": 1035,
      "▁earliest": 1036,
      "▁nobody": 1037,
      "▁150": 1038,
      "▁du": 1039,
      "▁inside": 1040,
      "▁69": 1041,
      "▁fr": 1042,
      "reat": 1043,
      "6021": 1044,
      "-3989": 1045,
      "▁ann": 1046,
      "▁1997": 1047,
      "▁1892": 1048,
      "▁supp": 1049,
      "▁11:16": 1050,
      "/30": 1051,
      "▁many": 1052,
      "iness": 1053,
      "▁311": 1054,
      "▁bel": 1055,
      "▁yes": 1056,
      "111": 1057,
      "ak": 1058,
      "ν": 1059,
      "ə": 1060,
      "▁94": 1061,
      "ange": 1062,
      "▁listen": 1063,
      "▁coming": 1064,
      "ror": 1065,
      "▁345-343": 1066,
      ":27": 1067,
      "▁he": 1068,
      "▁link": 1069,
      "ken": 1070,
      "▁gl": 1071,
      "▁else": 1072,
      "▁12:1": 1073,
      "▁1611": 1074,
      "23": 1075,
      "▁hair": 1076,
      "▁toronto": 1077,
      "▁1:30": 1078,
      "enty": 1079,
      "▁history": 1080,
      "▁—": 1081,
      "▁158": 1082,
      "▁01/19/2001": 1083,
      "▁seventh": 1084,
      "▁2,000": 1085,
      "ience": 1086,
      ":23": 1087,
      "rop": 1088,
      "ences": 1089,
      "▁22": 1090,
      "im": 1091,
      "us": 1092,
      "▁future": 1093,
      "▁noon": 1094,
      "▁major": 1095,
      "ould": 1096,
      "ural": 1097,
      "aren": 1098,
      "▁ach": 1099,
      "od": 1100,
      "50": 1101,
      ".": 1102,
      "▁which": 1103,
      "▁416-8": 1104,
      "▁24.7": 1105,
      "▁political": 1106,
      "▁represent": 1107,
      "▁03:00": 1108,
      "▁tur": 1109,
      "ams": 1110,
      "▁49": 1111,
      "▁415.782": 1112,
      "▁um": 1113,
      "▁18": 1114,
      "▁oneself": 1115,
      "z": 1116,
      "▁687": 1117,
      "____": 1118,
      "▁1584": 1119,
      "▁bu": 1120,
      "▁dest": 1121,
      "▁gr": 1122,
      "▁following": 1123,
      "▁54": 1124,
      "▁sand": 1125,
      "▁_": 1126,
      "ins": 1127,
      "▁told": 1128,
      "rael": 1129,
      "▁seen": 1130,
      "59": 1131,
      "▁6": 1132,
      "▁seem": 1133,
      "}": 1134,
      "▁ma": 1135,
      "▁xsl": 1136,
      "▁perdu": 1137,
      "▁concern": 1138,
      "iter": 1139,
      "▁everyone": 1140,
      "▁20,000": 1141,
      ".45": 1142,
      "▁peop": 1143,
      "ict": 1144,
      ".com": 1145,
      "▁oh": 1146,
      "▁always": 1147,
      "▁getting": 1148,
      "▁nt": 1149,
      "▁fifty": 1150,
      "▁713-853-3989": 1151,
      ".621": 1152,
      "/10": 1153,
      "▁not": 1154,
      "▁sen": 1155,
      "ago": 1156,
      "▁enron": 1157,
      "▁im": 1158,
      "ord": 1159,
      "▁everything": 1160,
      "▁thru": 1161,
      "▁376": 1162,
      "it": 1163,
      "▁tick": 1164,
      "▁6,000": 1165,
      "▁floor": 1166,
      "▁write": 1167,
      "www": 1168,
      "▁upon": 1169,
      "▁800.713.8600": 1170,
      "av": 1171,
      "onto": 1172,
      "▁shall": 1173,
      "lus": 1174,
      "ised": 1175,
      "▁comes": 1176,
      "空": 1177,
      "▁713-646-3393": 1178,
      "▁ah": 1179,
      "▁01/12/2001": 1180,
      "▁board": 1181,
      "▁tim": 1182,
      "ied": 1183,
      "▁cha": 1184,
      "ent": 1185,
      "iat": 1186,
      "▁wilt": 1187,
      "819602175": 1188,
      "ouble": 1189,
      "▁sch": 1190,
      "ρ": 1191,
      "oth": 1192,
      "▁1840": 1193,
      "▁cause": 1194,
      "ult": 1195,
      "ica": 1196,
      "▁thous": 1197,
      "▁may": 1198,
      "▁!!!!!!!": 1199,
      "▁h": 1200,
      "ved": 1201,
      "▁poss": 1202,
      "/30/2001": 1203,
      "▁teach": 1204,
      "▁service": 1205,
      "▁505": 1206,
      "▁416-865-3": 1207,
      "▁six": 1208,
      "▁th": 1209,
      "▁talk": 1210,
      "▁pop": 1211,
      "▁03/21/2001": 1212,
      "▁boat": 1213,
      "92": 1214,
      "▁myself": 1215,
      "▁1604": 1216,
      "▁our": 1217,
      "▁220": 1218,
      "ever": 1219,
      "▁hors": 1220,
      "▁hor": 1221,
      "▁po": 1222,
      "rou": 1223,
      "▁177": 1224,
      "½": 1225,
      "▁se": 1226,
      "▁8.3": 1227,
      "▁particip": 1228,
      "▁vs.": 1229,
      "▁way": 1230,
      "▁dey": 1231,
      "▁prov": 1232,
      "▁than": 1233,
      "▁225": 1234,
      "▁pull": 1235,
      "if": 1236,
      "lo": 1237,
      "▁perdues": 1238,
      "▁serv": 1239,
      "oice": 1240,
      ".1": 1241,
      "▁analys": 1242,
      "▁louis": 1243,
      "ion": 1244,
      "▁been": 1245,
      "ny": 1246,
      "▁highly": 1247,
      "tain": 1248,
      "ous": 1249,
      "▁1957": 1250,
      "▁269": 1251,
      "▁property": 1252,
      "▁gon": 1253,
      "▁expl": 1254,
      "ister": 1255,
      "ced": 1256,
      "▁years": 1257,
      ".10": 1258,
      "ade": 1259,
      "is_0": 1260,
      "3": 1261,
      "-435": 1262,
      "▁accept": 1263,
      "▁thirty": 1264,
      "bers": 1265,
      "393": 1266,
      "▁1871": 1267,
      "la": 1268,
      "▁end": 1269,
      "eth": 1270,
      "▁today": 1271,
      "▁move": 1272,
      "▁€": 1273,
      "ele": 1274,
      "▁1981": 1275,
      "▁cred": 1276,
      "▁4,": 1277,
      "▁169": 1278,
      ".16": 1279,
      "▁1835": 1280,
      "▁tra": 1281,
      "▁commun": 1282,
      "▁paren": 1283,
      "▁b/": 1284,
      "▁cloth": 1285,
      "▁num": 1286,
      "▁des": 1287,
      "ograph": 1288,
      "alf": 1289,
      "▁pm": 1290,
      "▁107": 1291,
      ",": 1292,
      "▁meh-r": 1293,
      "▁course": 1294,
      "▁stuff": 1295,
      "orrow": 1296,
      "▁con": 1297,
      "▁....": 1298,
      "`": 1299,
      "▁official": 1300,
      "usions": 1301,
      "▁1982": 1302,
      "▁deal": 1303,
      "cab": 1304,
      "89": 1305,
      "ual": 1306,
      "▁alread": 1307,
      "▁rece": 1308,
      "▁sing": 1309,
      "uary": 1310,
      "▁483": 1311,
      "ism": 1312,
      "▁1949": 1313,
      "▁ens": 1314,
      "ones": 1315,
      "119": 1316,
      "łod": 1317,
      "uding": 1318,
      "▁jump": 1319,
      "▁sex": 1320,
      "▁1291": 1321,
      "▁11/7/08": 1322,
      "▁age": 1323,
      "▁often": 1324,
      "▁started": 1325,
      "ollow": 1326,
      "▁thy": 1327,
      "71": 1328,
      "ber": 1329,
      "▁exist": 1330,
      "▁pi": 1331,
      "▁hat": 1332,
      ":39": 1333,
      "▁cre": 1334,
      "▁09/15": 1335,
      "thers": 1336,
      "ub": 1337,
      ".11": 1338,
      "erc": 1339,
      "▁whoever": 1340,
      "▁rel": 1341,
      "▁another": 1342,
      "▁side": 1343,
      "omm": 1344,
      "ically": 1345,
      "ates": 1346,
      "▁1.": 1347,
      "ploy": 1348,
      "▁lead": 1349,
      "▁health": 1350,
      "ress": 1351,
      "▁10:46": 1352,
      "ug": 1353,
      "▁7": 1354,
      "▁240": 1355,
      "/": 1356,
      "▁09/16": 1357,
      "▁leg": 1358,
      "▁proc": 1359,
      "elf": 1360,
      "=": 1361,
      "sp": 1362,
      "▁did": 1363,
      "ond": 1364,
      "▁1819": 1365,
      "▁la": 1366,
      "▁though": 1367,
      "▁above": 1368,
      "▁345": 1369,
      "▁6.8": 1370,
      "▁sec": 1371,
      "▁attention": 1372,
      "▁el": 1373,
      "▁albeit": 1374,
      "▁already": 1375,
      "▁creat": 1376,
      "9933": 1377,
      "▁727": 1378,
      "▁324": 1379,
      "▁account": 1380,
      "▁gu": 1381,
      "津": 1382,
      "▁gets": 1383,
      "ist": 1384,
      "▁2.0": 1385,
      "▁chang": 1386,
      "清": 1387,
      "▁fund": 1388,
      "▁15": 1389,
      "▁mo": 1390,
      "▁west": 1391,
      "dr": 1392,
      "bit": 1393,
      ",7": 1394,
      "ached": 1395,
      "▁”": 1396,
      "▁sun": 1397,
      "▁1890": 1398,
      "ined": 1399,
      "▁k": 1400,
      "24": 1401,
      "▁fre": 1402,
      "▁late": 1403,
      "▁exp": 1404,
      "rist": 1405,
      "▁eight": 1406,
      "▁treat": 1407,
      "ily": 1408,
      "esday": 1409,
      "▁2010": 1410,
      "ames": 1411,
      "▁3724": 1412,
      "▁doo": 1413,
      "opment": 1414,
      "ʊ": 1415,
      "▁doll": 1416,
      "134": 1417,
      "▁entire": 1418,
      "▁705": 1419,
      "zer": 1420,
      "▁0000108806": 1421,
      "▁comm": 1422,
      "▁3:30": 1423,
      "▁un": 1424,
      "▁ball": 1425,
      "▁says": 1426,
      "▁truck": 1427,
      ",000,000": 1428,
      "▁ser": 1429,
      "▁child": 1430,
      "eck": 1431,
      "▁taking": 1432,
      "ta": 1433,
      "alys": 1434,
      "▁12": 1435,
      "▁2019": 1436,
      "▁stay": 1437,
      "▁1/8": 1438,
      "▁1596": 1439,
      "φ": 1440,
      "oman": 1441,
      "▁281": 1442,
      "un": 1443,
      "▁stand": 1444,
      "▁thirteen": 1445,
      "▁900": 1446,
      "▁large": 1447,
      "iz": 1448,
      "▁sk": 1449,
      "▁english": 1450,
      "▁dress": 1451,
      "▁birth": 1452,
      "▁125": 1453,
      "u": 1454,
      "▁7484": 1455,
      "▁web": 1456,
      "▁seattle": 1457,
      "▁1783": 1458,
      "▁3.8": 1459,
      "selves": 1460,
      "▁she": 1461,
      "_^": 1462,
      "-343": 1463,
      "▁econom": 1464,
      "▁1599": 1465,
      "▁looked": 1466,
      "▁car": 1467,
      "/99": 1468,
      "▁dwww": 1469,
      "▁opp": 1470,
      "▁seventeen": 1471,
      "-00": 1472,
      "▁look": 1473,
      "▁202.456.1414": 1474,
      "▁run": 1475,
      "▁orig": 1476,
      "▁restaur": 1477,
      "435": 1478,
      "ty": 1479,
      "▁although": 1480,
      "-10": 1481,
      "▁this": 1482,
      "▁1647": 1483,
      "▁2021": 1484,
      "▁zer": 1485,
      "▁friday": 1486,
      "orm": 1487,
      "▁de": 1488,
      "▁.3": 1489,
      "▁1830": 1490,
      "▁425-415-": 1491,
      "▁places": 1492,
      "▁available": 1493,
      "▁began": 1494,
      "▁two": 1495,
      "▁1.00": 1496,
      "▁ent": 1497,
      "▁notwithstanding": 1498,
      "▁hi": 1499,
      "▁bott": 1500,
      "▁1878": 1501,
      "ule": 1502,
      "▁respect": 1503,
      "▁colle": 1504,
      "▁really": 1505,
      "umb": 1506,
      "▁lim": 1507,
      "▁500": 1508,
      "▁281-44": 1509,
      "utes": 1510,
      "128": 1511,
      "-44": 1512,
      "▁count": 1513,
      "▁05/30/2001": 1514,
      "▁pric": 1515,
      "▁832.676": 1516,
      "▁dep": 1517,
      "▁3:00": 1518,
      "----------------": 1519,
      "▁unt": 1520,
      "▁1610": 1521,
      "▁email": 1522,
      "▁conv": 1523,
      "▁pho": 1524,
      "▁11:35": 1525,
      "▁twenty-two": 1526,
      "0072": 1527,
      "ح": 1528,
      "▁same": 1529,
      "▁seventy": 1530,
      "aur": 1531,
      "22,000": 1532,
      "▁aug": 1533,
      "t": 1534,
      "▁neither": 1535,
      "gh": 1536,
      "▁uh": 1537,
      "▁08/16/2000": 1538,
      "▁03/27/2001": 1539,
      "▁183": 1540,
      "▁level": 1541,
      "▁wan": 1542,
      "les": 1543,
      "▁5:00": 1544,
      "▁few": 1545,
      "▁ke": 1546,
      "-50": 1547,
      "▁real": 1548,
      "ide": 1549,
      "葉": 1550,
      "▁again": 1551,
      "▁want": 1552,
      "▁scient": 1553,
      "▁00": 1554,
      "▁1990": 1555,
      "“": 1556,
      "▁aust": 1557,
      "▁strong": 1558,
      "▁02/13/2001": 1559,
      "▁hou": 1560,
      "▁war": 1561,
      "▁understand": 1562,
      "▁questions": 1563,
      "▁41": 1564,
      "▁let": 1565,
      "enth": 1566,
      "▁rock": 1567,
      "▁ur": 1568,
      "▁181": 1569,
      "▁4:50": 1570,
      "587": 1571,
      "way": 1572,
      "▁1805": 1573,
      "&": 1574,
      "▁effect": 1575,
      "▁1902": 1576,
      "lik": 1577,
      "umer": 1578,
      "▁secur": 1579,
      "▁line": 1580,
      "no": 1581,
      "▁sub": 1582,
      "4-": 1583,
      "▁security": 1584,
      "▁713-8": 1585,
      "▁1.4": 1586,
      "15": 1587,
      "ick": 1588,
      "so": 1589,
      "▁646": 1590,
      "▁detail": 1591,
      "▁int": 1592,
      "▁town": 1593,
      "▁pit": 1594,
      "▁system": 1595,
      "▁129": 1596,
      "▁mon": 1597,
      "▁pen": 1598,
      "/26/2001": 1599,
      "▁hour": 1600,
      "▁;)": 1601,
      "▁1969": 1602,
      "▁low": 1603,
      "▁even": 1604,
      "tw": 1605,
      "▁ninety": 1606,
      "▁51": 1607,
      "▁fri": 1608,
      "▁1564": 1609,
      "unic": 1610,
      "▁you": 1611,
      "▁expensive": 1612,
      "▁01:39": 1613,
      "▁inform": 1614,
      "ce": 1615,
      "▁st.": 1616,
      "▁2": 1617,
      "▁#": 1618,
      "▁hold": 1619,
      "/26/2000": 1620,
      ":52": 1621,
      "▁=": 1622,
      "▁clim": 1623,
      "▁key": 1624,
      "ru": 1625,
      "rol": 1626,
      "ot": 1627,
      "▁illusions": 1628,
      "▁79": 1629,
      "stand": 1630,
      "▁playing": 1631,
      "ired": 1632,
      "p": 1633,
      "▁okay": 1634,
      "▁dri": 1635,
      "▁cir": 1636,
      "▁after": 1637,
      "▁anim": 1638,
      "▁third": 1639,
      "▁230": 1640,
      "▁1977": 1641,
      "▁mich": 1642,
      "▁world": 1643,
      "▁kept": 1644,
      "▁te": 1645,
      "▁life": 1646,
      "age": 1647,
      "▁217": 1648,
      "▁je": 1649,
      "ol": 1650,
      ":20": 1651,
      "▁succ": 1652,
      "▁of": 1653,
      "▁================================": 1654,
      "▁god": 1655,
      "▁star": 1656,
      "▁bush": 1657,
      "▁product": 1658,
      "▁11/2": 1659,
      "▁1968": 1660,
      "44": 1661,
      "8-3": 1662,
      "▁lost": 1663,
      "bs": 1664,
      "▁chick": 1665,
      "▁eu": 1666,
      "口": 1667,
      "▁yo": 1668,
      "▁apr": 1669,
      "ending": 1670,
      "pe": 1671,
      "9.3": 1672,
      "tc": 1673,
      "▁mind": 1674,
      "▁high": 1675,
      "ony": 1676,
      "▁1973": 1677,
      "▁6.00": 1678,
      "▁prop": 1679,
      "▁mid": 1680,
      "▁big": 1681,
      "min": 1682,
      "ian": 1683,
      ":17": 1684,
      "▁mem": 1685,
      "▁comple": 1686,
      "▁plus": 1687,
      "▁common": 1688,
      "▁prev": 1689,
      "een": 1690,
      "hin": 1691,
      "▁650": 1692,
      "▁expect": 1693,
      "ling": 1694,
      "ught": 1695,
      ".8": 1696,
      "▁found": 1697,
      "▁million": 1698,
      "▁build": 1699,
      "▁themselves": 1700,
      "▁1989": 1701,
      "▁1975": 1702,
      "▁718": 1703,
      "▁02/2": 1704,
      "▁|": 1705,
      "▁group": 1706,
      "▁onto": 1707,
      "▁*": 1708,
      "▁atlanta": 1709,
      "▁ago": 1710,
      "▁att": 1711,
      "▁policy": 1712,
      "-2": 1713,
      "▁1222": 1714,
      "uz": 1715,
      "▁sha": 1716,
      "▁sitting": 1717,
      "mem": 1718,
      "58": 1719,
      "▁clean": 1720,
      "▁ninety-n": 1721,
      "▁7.3": 1722,
      "▁accord": 1723,
      "-)": 1724,
      "▁???": 1725,
      "ondon": 1726,
      "aq": 1727,
      "▁sent": 1728,
      "▁05": 1729,
      "ł": 1730,
      "eet": 1731,
      "▁water": 1732,
      "si": 1733,
      "yond": 1734,
      "▁·": 1735,
      "`s": 1736,
      "▁39": 1737,
      "▁567.77": 1738,
      "▁vide": 1739,
      "▁8": 1740,
      "▁energ": 1741,
      "子": 1742,
      ".2461": 1743,
      "pp": 1744,
      "9/2000": 1745,
      "le": 1746,
      "▁view": 1747,
      "▁within": 1748,
      "▁univers": 1749,
      "ible": 1750,
      "▁fi": 1751,
      "▁713-853-1696": 1752,
      "ley": 1753,
      "▁ought": 1754,
      "▁remember": 1755,
      "3098": 1756,
      "ia": 1757,
      "▁amid": 1758,
      "ians": 1759,
      "▁201": 1760,
      "▁unto": 1761,
      "q": 1762,
      "▁163": 1763,
      ".4": 1764,
      "▁sugg": 1765,
      "▁forty-one": 1766,
      "▁company": 1767,
      "▁benef": 1768,
      "▁def": 1769,
      "499": 1770,
      "ile": 1771,
      "▁ste": 1772,
      "▁466": 1773,
      "▁1986": 1774,
      "▁year": 1775,
      "▁dur": 1776,
      "h-r": 1777,
      "▁09/15/99": 1778,
      "▁development": 1779,
      "ried": 1780,
      "▁dose": 1781,
      "▁1978": 1782,
      "▁mer": 1783,
      "▁del": 1784,
      "▁2500": 1785,
      "▁forty-": 1786,
      "▁sad": 1787,
      "▁asked": 1788,
      "d": 1789,
      "▁410": 1790,
      "▁my": 1791,
      "▁d": 1792,
      "ay": 1793,
      "▁sever": 1794,
      "▁indust": 1795,
      "▁beach": 1796,
      "▁tri": 1797,
      "▁800-553-3119": 1798,
      "ained": 1799,
      "▁mus": 1800,
      "eld": 1801,
      "▁good": 1802,
      "▁loc": 1803,
      "▁counter": 1804,
      "stem": 1805,
      "illion": 1806,
      "cc": 1807,
      "▁3,000": 1808,
      "▁news": 1809,
      "▁-----------------------------------------------------------------": 1810,
      "▁15,000": 1811,
      "ο": 1812,
      "!!!!": 1813,
      "viat": 1814,
      "▁com": 1815,
      "ml": 1816,
      ".99": 1817,
      "▁color": 1818,
      "▁t": 1819,
      "▁south": 1820,
      "2": 1821,
      "rod": 1822,
      "▁11:07": 1823,
      ".7": 1824,
      "ects": 1825,
      "▁til": 1826,
      "▁gone": 1827,
      "▁countries": 1828,
      "▁your": 1829,
      "▁2020": 1830,
      "▁sty": 1831,
      "get": 1832,
      "dy": 1833,
      "▁continental": 1834,
      "▁345-99": 1835,
      "▁whose": 1836,
      "▁^": 1837,
      "▁89": 1838,
      "▁320": 1839,
      "--": 1840,
      "▁50,000": 1841,
      "ortun": 1842,
      "▁det": 1843,
      "▁1000": 1844,
      "▁111": 1845,
      "********": 1846,
      "▁08/03": 1847,
      "{": 1848,
      "ε": 1849,
      "▁early": 1850,
      "▁gener": 1851,
      "▁102": 1852,
      "▁laura": 1853,
      "ern": 1854,
      "ities": 1855,
      "▁glass": 1856,
      "ters": 1857,
      "▁change": 1858,
      ":14": 1859,
      "▁97": 1860,
      "els": 1861,
      ":3": 1862,
      "▁5000": 1863,
      "▁amidst": 1864,
      "ue": 1865,
      "por": 1866,
      "▁downtown": 1867,
      "▁tr": 1868,
      "zen": 1869,
      "▁’’": 1870,
      "where": 1871,
      "▁ext": 1872,
      "▁wind": 1873,
      "▁197": 1874,
      "▁’m": 1875,
      "▁92": 1876,
      "ough": 1877,
      "▁10,000": 1878,
      "▁ready": 1879,
      "0": 1880,
      "▁1592": 1881,
      "°": 1882,
      "▁got": 1883,
      "▁http://www.": 1884,
      "▁11:30": 1885,
      "▁08/0": 1886,
      "▁1583": 1887,
      "▁3889": 1888,
      "▁who's": 1889,
      "▁jan": 1890,
      "▁'71": 1891,
      "▁ev": 1892,
      "▁we": 1893,
      "’": 1894,
      ":45": 1895,
      "▁1700": 1896,
      "▁en": 1897,
      "▁eng": 1898,
      "▁196": 1899,
      "▁sort": 1900,
      "▁07/17/2000": 1901,
      "▁art": 1902,
      "▁91": 1903,
      "ject": 1904,
      "▁1699": 1905,
      "-468-3": 1906,
      "os": 1907,
      "▁conc": 1908,
      "▁sat": 1909,
      "27": 1910,
      "▁airl": 1911,
      "iod": 1912,
      "▁chicago": 1913,
      "day": 1914,
      "ate": 1915,
      "amed": 1916,
      "▁pro": 1917,
      "▁7.2": 1918,
      "ability": 1919,
      "▁prom": 1920,
      "▁202.456.1": 1921,
      "/1": 1922,
      "▁create": 1923,
      "========": 1924,
      "▁ou": 1925,
      "▁request": 1926,
      "▁ind": 1927,
      "ne": 1928,
      "▁713-654-1281": 1929,
      "all": 1930,
      "▁fa": 1931,
      "ros": 1932,
      "▁nwww": 1933,
      "▁difficult": 1934,
      "ions": 1935,
      "asing": 1936,
      "▁air": 1937,
      "ought": 1938,
      ".61": 1939,
      "▁no-6": 1940,
      "▁es": 1941,
      "▁58": 1942,
      "k": 1943,
      "▁came": 1944,
      ".0": 1945,
      "▁’d": 1946,
      "▁1926": 1947,
      "▁woman": 1948,
      "sc": 1949,
      "▁roman": 1950,
      "▁event": 1951,
      "▁713-654-": 1952,
      "▁middle": 1953,
      "▁tem": 1954,
      "▁achie": 1955,
      "ort": 1956,
      "414": 1957,
      "ek": 1958,
      "za": 1959,
      "itting": 1960,
      "▁1910": 1961,
      "-642": 1962,
      "▁281-518": 1963,
      "8196021": 1964,
      "▁ok": 1965,
      "▁trale": 1966,
      "ime": 1967,
      "▁internet": 1968,
      "▁girls": 1969,
      "721": 1970,
      "▁295870": 1971,
      "▁`": 1972,
      "▁attem": 1973,
      "5": 1974,
      "▁miss": 1975,
      "▁past": 1976,
      "▁social": 1977,
      "▁35": 1978,
      "▁1145": 1979,
      "▁pres": 1980,
      "**": 1981,
      "▁flo": 1982,
      "▁30": 1983,
      "▁three": 1984,
      "▁full": 1985,
      "31": 1986,
      "▁important": 1987,
      "▁cle": 1988,
      "doc": 1989,
      "att": 1990,
      "▁hey": 1991,
      "▁ang": 1992,
      "ah": 1993,
      "ison": 1994,
      "810": 1995,
      "▁nat": 1996,
      "ac": 1997,
      "se": 1998,
      "▁13011": 1999,
      "▁spec": 2000,
      "▁staff": 2001,
      "ors": 2002,
      "▁42": 2003,
      "ther": 2004,
      "▁happened": 2005,
      "▁access": 2006,
      "▁notwithstand": 2007,
      "▁16.3": 2008,
      "▁together": 2009,
      "ad": 2010,
      "▁01:09": 2011,
      "▁refer": 2012,
      ":21": 2013,
      "ient": 2014,
      "▁whatever": 2015,
      "80": 2016,
      "20-": 2017,
      "ose": 2018,
      "4/2001": 2019,
      "iday": 2020,
      "▁because": 2021,
      "▁1,6": 2022,
      "▁go": 2023,
      "▁_________________________________": 2024,
      "46": 2025,
      "▁'m": 2026,
      "tim": 2027,
      "▁doing": 2028,
      "66": 2029,
      "▁lik": 2030,
      "ively": 2031,
      "▁takes": 2032,
      "omen": 2033,
      "re": 2034,
      "ash": 2035,
      "▁!?": 2036,
      "▁list": 2037,
      "▁oct": 2038,
      "▁author": 2039,
      "▁place": 2040,
      "▁sunday": 2041,
      "l": 2042,
      "ury": 2043,
      "▁03/0": 2044,
      "▁win": 2045,
      "▁07": 2046,
      "less": 2047,
      "▁front": 2048,
      "▁4.9": 2049,
      "▁billion": 2050,
      "oph": 2051,
      ":32": 2052,
      "▁77": 2053,
      "▁india": 2054,
      "▁situ": 2055,
      "▁02/27/2001": 2056,
      "远": 2057,
      "▁ident": 2058,
      "/2005": 2059,
      "▁station": 2060,
      "▁based": 2061,
      "一": 2062,
      "▁04:28": 2063,
      "▁412": 2064,
      "▁find": 2065,
      "ton": 2066,
      "▁dec": 2067,
      "▁1937": 2068,
      "▁202.456.1111": 2069,
      "▁bit": 2070,
      "angu": 2071,
      "art": 2072,
      "▁bet": 2073,
      "▁miami": 2074,
      "outh": 2075,
      "▁sour": 2076,
      "▁wh": 2077,
      "to": 2078,
      "pr": 2079,
      "▁afric": 2080,
      "▁08/16": 2081,
      "▁fil": 2082,
      "gan": 2083,
      "▁1970": 2084,
      "▁doggie": 2085,
      "▁852": 2086,
      "▁ref": 2087,
      "▁can": 2088,
      "▁415.621": 2089,
      "its": 2090,
      "▁yet": 2091,
      "▁tried": 2092,
      "▁&": 2093,
      ",00": 2094,
      "▁piec": 2095,
      "ators": 2096,
      "????????????????": 2097,
      "▁iii": 2098,
      "▁site": 2099,
      "/200": 2100,
      "▁put": 2101,
      "▁market": 2102,
      "26": 2103,
      "▁1613": 2104,
      "▁2002": 2105,
      "▁1896": 2106,
      "700": 2107,
      ":02": 2108,
      "ages": 2109,
      "oke": 2110,
      "aro": 2111,
      "▁comput": 2112,
      "-27": 2113,
      "▁cat": 2114,
      "▁different": 2115,
      "pt": 2116,
      "▁11:45": 2117,
      "▁143": 2118,
      "ies": 2119,
      "ogel": 2120,
      "▁alone": 2121,
      "ization": 2122,
      "▁ca": 2123,
      "▁instead": 2124,
      ":00": 2125,
      "aken": 2126,
      "▁130": 2127,
      "▁1,000": 2128,
      "▁pe": 2129,
      "▁opposite": 2130,
      "▁2.": 2131,
      "stop": 2132,
      "山": 2133,
      "▁345-9945": 2134,
      "10": 2135,
      "▁2022": 2136,
      "com": 2137,
      "▁350": 2138,
      "▁0.00": 2139,
      "▁1846": 2140,
      "ld": 2141,
      "▁took": 2142,
      "▁rev": 2143,
      "▁26": 2144,
      "-518": 2145,
      "▁2.3": 2146,
      "▁test": 2147,
      "++": 2148,
      "ack": 2149,
      "uct": 2150,
      "▁...": 2151,
      "▁under": 2152,
      "§": 2153,
      "▁fill": 2154,
      "▁55": 2155,
      "▁70": 2156,
      "▁rob": 2157,
      "▁without": 2158,
      "α": 2159,
      "▁270": 2160,
      ":15": 2161,
      "▁bi": 2162,
      "▁along": 2163,
      "99": 2164,
      "▁tax": 2165,
      "▁address": 2166,
      "▁done": 2167,
      "town": 2168,
      "▁12:30": 2169,
      "▁800-5": 2170,
      "em": 2171,
      "▁01/1": 2172,
      "▁question": 2173,
      "4-79": 2174,
      "%": 2175,
      "▁hea": 2176,
      "▁281-435-0295": 2177,
      "ver": 2178,
      "▁newark": 2179,
      "▁01": 2180,
      "fer": 2181,
      "▁li": 2182,
      "▁n'": 2183,
      "▁report": 2184,
      "▁1200": 2185,
      "▁01:0": 2186,
      "▁defin": 2187,
      "▁me": 2188,
      "ina": 2189,
      "▁0.0": 2190,
      "▁4.7": 2191,
      "▁1849": 2192,
      "▁id": 2193,
      "▁looking": 2194,
      "io": 2195,
      "ink": 2196,
      "▁court": 2197,
      "▁happy": 2198,
      "▁stat": 2199,
      "led": 2200,
      "▁somebody": 2201,
      "▁1799": 2202,
      "▁07:24": 2203,
      "▁17": 2204,
      "ted": 2205,
      "▁russ": 2206,
      "two": 2207,
      "▁cover": 2208,
      "over": 2209,
      "8": 2210,
      "▁interested": 2211,
      "▁indianapolis": 2212,
      "▁uhoh": 2213,
      "93": 2214,
      "▁nand": 2215,
      ":57": 2216,
      "▁particular": 2217,
      "▁each": 2218,
      "85": 2219,
      "sus": 2220,
      "▁wor": 2221,
      "▁stop": 2222,
      "▁1.3": 2223,
      "▁euro": 2224,
      "▁1821": 2225,
      "▁home": 2226,
      "▁suggest": 2227,
      "▁000010": 2228,
      "▁fam": 2229,
      "▁uhhuh": 2230,
      "ß": 2231,
      "▁8:15": 2232,
      "raw": 2233,
      "▁such": 2234,
      "▁cup": 2235,
      "▁given": 2236,
      "▁lives": 2237,
      "gether": 2238,
      "▁140": 2239,
      "▁mother": 2240,
      "▁itself": 2241,
      "****": 2242,
      "ness": 2243,
      "ution": 2244,
      "▁turn": 2245,
      "oney": 2246,
      "at": 2247,
      "▁still": 2248,
      "▁reg": 2249,
      "▁bear": 2250,
      "iqu": 2251,
      "▁var": 2252,
      "▁fifteen": 2253,
      ">": 2254,
      "mer": 2255,
      "▁1780": 2256,
      "▁jo": 2257,
      "▁yourself": 2258,
      "▁620-294-": 2259,
      "▁104": 2260,
      "▁mic": 2261,
      "’t": 2262,
      "▁366": 2263,
      "▁man": 2264,
      "▁1920": 2265,
      "▁281-435": 2266,
      "7.77": 2267,
      "-7": 2268,
      "▁inf": 2269,
      "▁43": 2270,
      "▁!!": 2271,
      "▁anal": 2272,
      "▁books": 2273,
      "49": 2274,
      "▁flights": 2275,
      "▁death": 2276,
      "▁much": 2277,
      "▁04": 2278,
      "oose": 2279,
      "▁franc": 2280,
      "▁besides": 2281,
      "▁ins": 2282,
      "ka": 2283,
      "low": 2284,
      "pite": 2285,
      "▁meeting": 2286,
      "▁rest": 2287,
      "ices": 2288,
      "▁charl": 2289,
      "▁zero": 2290,
      "9/2001": 2291,
      "▁back": 2292,
      "▁jap": 2293,
      "▁from": 2294,
      "-r": 2295,
      "▁words": 2296,
      "▁whil": 2297,
      "▁268": 2298,
      "bo": 2299,
      "ansas": 2300,
      "▁100,000": 2301,
      "▁road": 2302,
      "▁bill": 2303,
      "▁fir": 2304,
      "▁moving": 2305,
      ",1": 2306,
      "389": 2307,
      "-0295": 2308,
      "vers": 2309,
      "▁eleven": 2310,
      "▁bow": 2311,
      ":34": 2312,
      "[PAD]": 2313,
      "▁95": 2314,
      "▁thanks": 2315,
      "▁619": 2316,
      "▁nineteen": 2317,
      "▁information": 2318,
      "with": 2319,
      "▁1967": 2320,
      "iding": 2321,
      "op": 2322,
      "ck": 2323,
      "▁had": 2324,
      "▁1": 2325,
      "ن": 2326,
      "▁attack": 2327,
      "ach": 2328,
      "▁theirs": 2329,
      "•": 2330,
      "ust": 2331,
      "▁process": 2332,
      "▁hol": 2333,
      "iation": 2334,
      ":28": 2335,
      "ف": 2336,
      "gr": 2337,
      "▁between": 2338,
      "▁400": 2339,
      "▁cuz": 2340,
      "▁great": 2341,
      "98": 2342,
      "▁long": 2343,
      "▁lay": 2344,
      "▁provide": 2345,
      "▁1205": 2346,
      "▁philadelphia": 2347,
      "▁al.": 2348,
      "▁exper": 2349,
      "ment": 2350,
      "▁north": 2351,
      "▁including": 2352,
      "▁sixty": 2353,
      "▁2100": 2354,
      "ected": 2355,
      "▁has": 2356,
      "ission": 2357,
      "aper": 2358,
      "294-": 2359,
      "▁10:34": 2360,
      "▁woud": 2361,
      "▁6.2.1": 2362,
      "▁`s": 2363,
      "^": 2364,
      "▁pa": 2365,
      "▁160": 2366,
      "ice": 2367,
      "▁feel": 2368,
      "▁feet": 2369,
      "▁nor": 2370,
      "▁thirty-": 2371,
      "▁'s": 2372,
      "▁sy": 2373,
      "▁programm": 2374,
      "/2004": 2375,
      "▁1614": 2376,
      "ral": 2377,
      "ct": 2378,
      "▁clear": 2379,
      "_de": 2380,
      "▁ass": 2381,
      "▁ye": 2382,
      "▁also": 2383,
      "ics": 2384,
      "ow": 2385,
      "▁re": 2386,
      "▁camp": 2387,
      "0010": 2388,
      "ified": 2389,
      "au": 2390,
      "▁type": 2391,
      "/25/2001": 2392,
      "▁require": 2393,
      "▁fur": 2394,
      "▁francisco": 2395,
      "ي": 2396,
      "ese": 2397,
      "▁415.621.8317": 2398,
      "▁ex": 2399,
      "4/2000": 2400,
      "▁humaine": 2401,
      "ore": 2402,
      "ron": 2403,
      "▁mod": 2404,
      "ut": 2405,
      "29": 2406,
      "▁pittsburgh": 2407,
      ":40": 2408,
      "▁da": 2409,
      "▁angel": 2410,
      "▁lou": 2411,
      ",6": 2412,
      "▁yourselves": 2413,
      "▁713-853": 2414,
      "✉": 2415,
      "▁eighty": 2416,
      "▁ju": 2417,
      "-46": 2418,
      "▁bas": 2419,
      "▁get": 2420,
      "6-8": 2421,
      "ʒ": 2422,
      "oll": 2423,
      "▁713-853-": 2424,
      "▁into": 2425,
      "▁‘": 2426,
      "▁civ": 2427,
      "▁l": 2428,
      "▁750,000": 2429,
      "▁10:30": 2430,
      "▁store": 2431,
      "▁china": 2432,
      "▁03": 2433,
      "▁1831": 2434,
      "▁30,000": 2435,
      "▁755": 2436,
      "▁_________________________________________________": 2437,
      "iew": 2438,
      ".30": 2439,
      "▁follow": 2440,
      "θ": 2441,
      "▁yer": 2442,
      "▁dallas": 2443,
      "▁most": 2444,
      "▁512": 2445,
      "▁method": 2446,
      "▁church": 2447,
      "▁coun": 2448,
      "▁ol": 2449,
      "▁93": 2450,
      "▁cook": 2451,
      "▁addition": 2452,
      "▁460": 2453,
      "enc": 2454,
      "own": 2455,
      "atch": 2456,
      "xce": 2457,
      "▁s": 2458,
      ".95": 2459,
      "▁pay": 2460,
      "▁3,": 2461,
      "@enron_development": 2462,
      "▁went": 2463,
      "7/2001": 2464,
      "und": 2465,
      "haps": 2466,
      "9": 2467,
      "▁washing": 2468,
      "ami": 2469,
      "==": 2470,
      "17": 2471,
      "-84": 2472,
      "▁713": 2473,
      "ch": 2474,
      "▁rese": 2475,
      "▁720": 2476,
      "ω": 2477,
      "aph": 2478,
      ":13": 2479,
      "183": 2480,
      "▁admin": 2481,
      "▁glob": 2482,
      "▁ris": 2483,
      "▁tou": 2484,
      "▁paper": 2485,
      "ases": 2486,
      "▁agreement": 2487,
      "▁1822": 2488,
      "▁din": 2489,
      "▁dis": 2490,
      "▁them": 2491,
      "▁finish": 2492,
      "▁these": 2493,
      "▁198": 2494,
      "▁v": 2495,
      "▁<": 2496,
      "▁try": 2497,
      "▁1588": 2498,
      "ivers": 2499,
      "樋": 2500,
      "▁04:03": 2501,
      "奈": 2502,
      "▁205": 2503,
      "ulation": 2504,
      "▁either": 2505,
      "▁discuss": 2506,
      "▁dan": 2507,
      "miss": 2508,
      "▁dem": 2509,
      "iction": 2510,
      "▁1801": 2511,
      "▁recommend": 2512,
      "▁5/1": 2513,
      "▁san": 2514,
      ")": 2515,
      ":24": 2516,
      "ection": 2517,
      "▁03/2": 2518,
      "▁jud": 2519,
      "▁lest": 2520,
      "▁fix": 2521,
      "▁20": 2522,
      "▁1.6": 2523,
      "▁exec": 2524,
      "rans": 2525,
      "▁10:25": 2526,
      "▁http": 2527,
      "ential": 2528,
      ":58": 2529,
      "▁pot": 2530,
      "ries": 2531,
      "▁cost": 2532,
      "▁ro": 2533,
      "ental": 2534,
      "▁1754": 2535,
      "▁minute": 2536,
      "other": 2537,
      "▁impro": 2538,
      "▁send": 2539,
      "▁minus": 2540,
      "▁egg": 2541,
      "▁wo": 2542,
      "▁natural": 2543,
      "1/2001": 2544,
      "▁begin": 2545,
      "▁below": 2546,
      "▁66": 2547,
      "▁tast": 2548,
      "gy": 2549,
      "▁beside": 2550,
      "idd": 2551,
      "per": 2552,
      "▁150,000": 2553,
      "▁fun": 2554,
      "▁sit": 2555,
      "▁xv": 2556,
      "▁appear": 2557,
      "▁second": 2558,
      "▁july": 2559,
      "▁fav": 2560,
      "-79": 2561,
      "▁inst": 2562,
      "▁services": 2563,
      "itch": 2564,
      "-8": 2565,
      "▁-ect": 2566,
      "~": 2567,
      "uh": 2568,
      "▁plac": 2569,
      "▁proper": 2570,
      "▁646-8420": 2571,
      "▁4:30": 2572,
      "~*~*": 2573,
      "▁displ": 2574,
      "-": 2575,
      "▁talking": 2576,
      "▁575": 2577,
      "▁knew": 2578,
      "▁makes": 2579,
      "▁visit": 2580,
      "▁na": 2581,
      "▁1832": 2582,
      "\\": 2583,
      "▁2013": 2584,
      "vel": 2585,
      "▁save": 2586,
      "li": 2587,
      "qu": 2588,
      "▁23": 2589,
      "▁apart": 2590,
      "1": 2591,
      "▁71": 2592,
      "▁return": 2593,
      "iff": 2594,
      "ik": 2595,
      "▁par": 2596,
      "ock": 2597,
      "▁06": 2598,
      "out": 2599,
      "▁piece": 2600,
      "▁1701": 2601,
      "!!!": 2602,
      "▁yesterday": 2603,
      "▁only": 2604,
      "gle": 2605,
      "▁hav": 2606,
      "▁milwau": 2607,
      "▁behin": 2608,
      "▁forth": 2609,
      "▁ahead": 2610,
      "▁cold": 2611,
      "▁quite": 2612,
      "▁office": 2613,
      "my": 2614,
      "________": 2615,
      "▁invol": 2616,
      "side": 2617,
      "og": 2618,
      "enn": 2619,
      "▁summer": 2620,
      "▁n’t": 2621,
      "▁desc": 2622,
      "▁anybody": 2623,
      "ه": 2624,
      "ner": 2625,
      "▁sho": 2626,
      "aim": 2627,
      "▁letter": 2628,
      "▁850": 2629,
      "▁qu": 2630,
      "▁03:58": 2631,
      "▁74419": 2632,
      "▁ten": 2633,
      "ra": 2634,
      "▁45": 2635,
      "eng": 2636,
      "▁?!": 2637,
      "▁alber": 2638,
      "▁---": 2639,
      "▁import": 2640,
      "67": 2641,
      "▁ren": 2642,
      "▁03/08/2000": 2643,
      "▁510": 2644,
      "▁1580": 2645,
      "ger": 2646,
      "ong": 2647,
      "▁860": 2648,
      "▁community": 2649,
      ".5": 2650,
      "▁guy": 2651,
      "▁having": 2652,
      "▁6/1": 2653,
      "y": 2654,
      "cent": 2655,
      "ont": 2656,
      "▁probably": 2657,
      "▁cor": 2658,
      "ues": 2659,
      "▁see": 2660,
      "▁eye": 2661,
      "▁814": 2662,
      "en": 2663,
      "▁713-654-03": 2664,
      "▁like": 2665,
      "▁philadelp": 2666,
      "ou": 2667,
      "▁899": 2668,
      "▁ben": 2669,
      "▁all": 2670,
      "▁alongside": 2671,
      "▁story": 2672,
      "▁summ": 2673,
      "▁1850": 2674,
      "▁,": 2675,
      ":30": 2676,
      "igh": 2677,
      "▁awoh": 2678,
      "▁łod": 2679,
      "▁university": 2680,
      "/0": 2681,
      "74": 2682,
      "▁inter": 2683,
      "ath": 2684,
      "▁environ": 2685,
      "▁73": 2686,
      "▁polit": 2687,
      "€": 2688,
      "ool": 2689,
      "▁president": 2690,
      "--------------------------------": 2691,
      "▁1/2": 2692,
      "▁10/26/2000": 2693,
      "▁.2": 2694,
      "or": 2695,
      "▁ai": 2696,
      "nd": 2697,
      "▁deter": 2698,
      "ude": 2699,
      "▁?": 2700,
      "ists": 2701,
      "▁won": 2702,
      "▁800": 2703,
      "got": 2704,
      "▁techn": 2705,
      "▁pri": 2706,
      "▁effort": 2707,
      "ll": 2708,
      "▁clos": 2709,
      "son": 2710,
      "42": 2711,
      "▁180": 2712,
      "uce": 2713,
      "aster": 2714,
      "▁67": 2715,
      ":03": 2716,
      "hip": 2717,
      "gress": 2718,
      "▁where": 2719,
      "▁never": 2720,
      "▁+1": 2721,
      "ex": 2722,
      "▁the": 2723,
      "ration": 2724,
      "20": 2725,
      "▁himself": 2726,
      "▁record": 2727,
      "room": 2728,
      "▁sw": 2729,
      "▁dinner": 2730,
      "▁200": 2731,
      "▁1110": 2732,
      "▁mi": 2733,
      "▁2.6": 2734,
      "▁love": 2735,
      "urs": 2736,
      "▁land": 2737,
      "▁1603": 2738,
      "▁behind": 2739,
      "▁6400": 2740,
      "▁dad": 2741,
      "▁3,500": 2742,
      "▁ide": 2743,
      "▁fin": 2744,
      "▁resp": 2745,
      "▁pretty": 2746,
      "▁public": 2747,
      "45": 2748,
      "na": 2749,
      "▁>": 2750,
      "▁pre": 2751,
      "-1": 2752,
      "▁underneath": 2753,
      "ause": 2754,
      "▁thank": 2755,
      "▁32": 2756,
      "ruct": 2757,
      ".123": 2758,
      "▁eff": 2759,
      "▁believe": 2760,
      "▁639": 2761,
      "du": 2762,
      ".00": 2763,
      "▁1987": 2764,
      "8/2000": 2765,
      "▁5.5": 2766,
      "▁wether": 2767,
      "▁347": 2768,
      "16.718": 2769,
      "▁travel": 2770,
      "e": 2771,
      "▁htt": 2772,
      "▁63": 2773,
      "ud": 2774,
      "▁190": 2775,
      "▁island": 2776,
      "▁lo": 2777,
      "-ked": 2778,
      "-3393": 2779,
      "▁local": 2780,
      "▁tu": 2781,
      "3-": 2782,
      "▁make": 2783,
      "▁1875": 2784,
      "谿": 2785,
      "▁1912": 2786,
      "▁1179": 2787,
      "▁an": 2788,
      "ark": 2789,
      "br": 2790,
      "▁table": 2791,
      "—": 2792,
      "/31": 2793,
      "▁non": 2794,
      "▁12:3": 2795,
      "▁exce": 2796,
      "▁934": 2797,
      "uff": 2798,
      "▁goes": 2799,
      ":16": 2800,
      "olog": 2801,
      "▁510-642": 2802,
      "ers": 2803,
      "▁10:45": 2804,
      "▁1925": 2805,
      "▁collect": 2806,
      "25": 2807,
      "▁transport": 2808,
      "unch": 2809,
      "-780": 2810,
      "▁atl": 2811,
      "ows": 2812,
      "▁3.7": 2813,
      "edie": 2814,
      "▁york": 2815,
      "▁june": 2816,
      "▁res": 2817,
      "gg": 2818,
      "▁government": 2819,
      "raph": 2820,
      "▁adv": 2821,
      "▁white": 2822,
      "16": 2823,
      "▁343": 2824,
      "▁military": 2825,
      "▁fell": 2826,
      "▁while": 2827,
      "▁hell": 2828,
      "▁seems": 2829,
      "▁505-625": 2830,
      "port": 2831,
      "/4": 2832,
      "res": 2833,
      "▁mag": 2834,
      "▁her": 2835,
      "▁3,202": 2836,
      "▁1765": 2837,
      "­": 2838,
      "▁ones": 2839,
      "▁34": 2840,
      "▁hand": 2841,
      "▁am": 2842,
      "▁2009": 2843,
      "like": 2844,
      "▁develop": 2845,
      "▁someone": 2846,
      "/26": 2847,
      "▁630": 2848,
      "▁09:": 2849,
      "▁----": 2850,
      "▁ship": 2851,
      "oup": 2852,
      "▁1-800-991-9019": 2853,
      "w": 2854,
      "ific": 2855,
      "▁sea": 2856,
      "▁half": 2857,
      "47": 2858,
      "▁dog": 2859,
      "▁throw": 2860,
      "▁when": 2861,
      "▁committ": 2862,
      "ature": 2863,
      "♥": 2864,
      ":42": 2865,
      "irt": 2866,
      "▁care": 2867,
      "▁hit": 2868,
      "▁6:00": 2869,
      "▁eyes": 2870,
      "▁bar": 2871,
      "peare": 2872,
      ".916.718": 2873,
      "图": 2874,
      "68": 2875,
      "▁applic": 2876,
      "▁713-853-3098": 2877,
      "▁thr": 2878,
      "▁str": 2879,
      "▁beyond": 2880,
      "ail": 2881,
      "atic": 2882,
      "▁offic": 2883,
      "▁1888": 2884,
      "▁airlines": 2885,
      "º": 2886,
      "▁peace": 2887,
      "▁litt": 2888,
      ".75": 2889,
      "▁organ": 2890,
      "▁b": 2891,
      "β": 2892,
      "ering": 2893,
      "▁le": 2894,
      "ision": 2895,
      "▁1959": 2896,
      "▁conn": 2897,
      "▁gave": 2898,
      "ɔ": 2899,
      "▁trans": 2900,
      "65": 2901,
      "ze": 2902,
      "▁n't": 2903,
      "▁300": 2904,
      "▁27": 2905,
      "▁1993": 2906,
      "▁5.3": 2907,
      "▁item": 2908,
      "▁one": 2909,
      "▁763736": 2910,
      "+": 2911,
      ";": 2912,
      "▁repres": 2913,
      "!": 2914,
      "▁happ": 2915,
      "▁bed": 2916,
      "ss": 2917,
      "oc": 2918,
      "▁h-0": 2919,
      "ped": 2920,
      "61": 2921,
      "-625": 2922,
      "ablish": 2923,
      "▁ge": 2924,
      "]": 2925,
      "82": 2926,
      "mission": 2927,
      "▁drink": 2928,
      "▁balzac": 2929,
      "▁530": 2930,
      "resh": 2931,
      "▁47": 2932,
      "rench": 2933,
      "▁untill": 2934,
      "▁obs": 2935,
      "ing": 2936,
      "ole": 2937,
      "▁through": 2938,
      "▁very": 2939,
      "▁hu": 2940,
      "▁ar": 2941,
      "▁hurt": 2942,
      "▁oper": 2943,
      "▁gen": 2944,
      "eau": 2945,
      "▁specific": 2946,
      "▁cou": 2947,
      "▁aboard": 2948,
      ".25": 2949,
      "▁em": 2950,
      "▁hon": 2951,
      "339": 2952,
      "▁part": 2953,
      "78": 2954,
      "fully": 2955,
      "ines": 2956,
      "▁press": 2957,
      "s.": 2958,
      "▁2006": 2959,
      "▁345-3436": 2960,
      "▁ans": 2961,
      "vil": 2962,
      "▁sur": 2963,
      "▁beg": 2964,
      "▁1787": 2965,
      "▁--": 2966,
      "ome": 2967,
      "x": 2968,
      "▁friend": 2969,
      "ace": 2970,
      "▁soon": 2971,
      "-0": 2972,
      "ked": 2973,
      "▁08:00": 2974,
      "▁thinking": 2975,
      "▁living": 2976,
      "2/2001": 2977,
      "▁2015": 2978,
      "▁dogg": 2979,
      "司": 2980,
      "ɛ": 2981,
      "▁check": 2982,
      "▁those": 2983,
      "================": 2984,
      "be": 2985,
      "▁9221": 2986,
      "▁sett": 2987,
      "ound": 2988,
      "ident": 2989,
      "iddle": 2990,
      "zac": 2991,
      "▁give": 2992,
      "adelp": 2993,
      "▁curren": 2994,
      "▁angeles": 2995,
      "imes": 2996,
      "▁kind": 2997,
      "▁favor": 2998,
      "3-3744": 2999,
      "▁elect": 3000,
      "▁bro": 3001,
      "air": 3002,
      "▁**": 3003,
      "m": 3004,
      "▁944": 3005,
      "red": 3006,
      "▁6.1": 3007,
      "-20": 3008,
      "▁fro": 3009,
      "▁lic": 3010,
      "man": 3011,
      "▁twenty-four": 3012,
      "▁states": 3013,
      "ity": 3014,
      "▁415.782.7822": 3015,
      "▁don": 3016,
      "▁mummy": 3017,
      "▁wil": 3018,
      "▁====================================================": 3019,
      "▁excell": 3020,
      "▁longer": 3021,
      "▁oak": 3022,
      "▁sa": 3023,
      "▁walk": 3024,
      "▁state": 3025,
      "▁beh": 3026,
      "▁percent": 3027,
      "j": 3028,
      "▁5": 3029,
      "nesday": 3030,
      "▁ac": 3031,
      "▁seven": 3032,
      "▁81": 3033,
      "▁bo": 3034,
      "pped": 3035,
      "ret": 3036,
      "▁current": 3037,
      "▁2003": 3038,
      "▁555": 3039,
      "▁sn": 3040,
      "▁(": 3041,
      "iously": 3042,
      "ir": 3043,
      "row": 3044,
      "▁sign": 3045,
      "0/2000": 3046,
      "▁et": 3047,
      "▁718-780": 3048,
      "▁rol": 3049,
      "▁quinn": 3050,
      "▁ed": 3051,
      "ur": 3052,
      "5,000": 3053,
      "ott": 3054,
      "▁is": 3055,
      "▁working": 3056,
      "▁713-79": 3057,
      "▁fac": 3058,
      "▁est": 3059,
      "▁2001": 3060,
      "▁sev": 3061,
      "▁st": 3062,
      "▁60": 3063,
      "22": 3064,
      "70": 3065,
      "et": 3066,
      "▁beaut": 3067,
      "▁equ": 3068,
      "▁90": 3069,
      "▁pat": 3070,
      "▁democr": 3071,
      "▁review": 3072,
      "▁646-84": 3073,
      "▁matter": 3074,
      "▁stoy": 3075,
      "1-9": 3076,
      "▁401": 3077,
      "ding": 3078,
      "/10/2004": 3079,
      "▁trip": 3080,
      "▁:": 3081,
      "▁towards": 3082,
      "▁wr": 3083,
      "▁09:01": 3084,
      "▁fl": 3085,
      "▁360": 3086,
      "▁or": 3087,
      "▁dollars": 3088,
      "▁03/09/2000": 3089,
      "▁claim": 3090,
      "▁init": 3091,
      "▁1939": 3092,
      "▁1843": 3093,
      "▁er": 3094,
      "ered": 3095,
      "▁12:12": 3096,
      "300": 3097,
      "▁mont": 3098,
      "▁ep": 3099,
      "▁milwaukee": 3100,
      "ms": 3101,
      "▁40,000": 3102,
      "▁1932": 3103,
      "800": 3104,
      "▁713-654-0365": 3105,
      "tride": 3106,
      "-460-3": 3107,
      "▁cheap": 3108,
      "18": 3109,
      "▁design": 3110,
      "▁928": 3111,
      "alk": 3112,
      "▁haf": 3113,
      "on": 3114,
      "▁result": 3115,
      "▁till": 3116,
      "key": 3117,
      "▁for": 3118,
      "09": 3119,
      "▁yea": 3120,
      "▁better": 3121,
      "▁speak": 3122,
      "▁lunch": 3123,
      "▁right": 3124,
      "▁04/16/2001": 3125,
      "▁11/08/2000": 3126,
      "▁1.25": 3127,
      "▁": 3128,
      "▁sh": 3129,
      "▁min": 3130,
      "-98": 3131,
      "46-3393": 3132,
      "read": 3133,
      "#": 3134,
      "▁do": 3135,
      "▁hum": 3136,
      "▁04/30/2001": 3137,
      "▁1918": 3138,
      "▁further": 3139,
      "▁fut": 3140,
      "▁$": 3141,
      "▁ter": 3142,
      "self": 3143,
      "▁how": 3144,
      "▁mot": 3145,
      "ands": 3146,
      "omet": 3147,
      "acy": 3148,
      "inner": 3149,
      "alth": 3150,
      "▁825": 3151,
      "use": 3152,
      "▁daddy": 3153,
      "ap": 3154,
      "▁http://": 3155,
      "▁price": 3156,
      "▁deb": 3157,
      "-49": 3158,
      "▁rem": 3159,
      "▁vegas": 3160,
      "eral": 3161,
      "▁leave": 3162,
      "iii": 3163,
      "▁<<": 3164,
      "▁whole": 3165,
      "by": 3166,
      "▁fire": 3167,
      "▁1829": 3168,
      "▁1779": 3169,
      "ish": 3170,
      "▁969": 3171,
      "▁fight": 3172,
      "ains": 3173,
      "▁5:30": 3174,
      "▁dese": 3175,
      "▁12/26/2000": 3176,
      "g": 3177,
      "▁iv": 3178,
      "▁120,000": 3179,
      "▁10:56": 3180,
      "▁us": 3181,
      "▁environment": 3182,
      "65-3": 3183,
      "53": 3184,
      "rem": 3185,
      "▁close": 3186,
      "▁kitt": 3187,
      "▁ta": 3188,
      "×": 3189,
      "ories": 3190,
      "▁620-": 3191,
      "erg": 3192,
      "▁703": 3193,
      "▁whereby": 3194,
      "▁!!!!!!": 3195,
      "▁£": 3196,
      "▁imag": 3197,
      "ii": 3198,
      "▁bab": 3199,
      "▁bir": 3200,
      "▁docum": 3201,
      "▁fall": 3202,
      "▁means": 3203,
      "▁success": 3204,
      "ie": 3205,
      "▁data": 3206,
      "▁28,000": 3207,
      "▁huma": 3208,
      "▁'": 3209,
      "________________________________": 3210,
      "raft": 3211,
      "ø": 3212,
      "▁play": 3213,
      "▁its": 3214,
      "rect": 3215,
      ":50": 3216,
      "eight": 3217,
      "▁:)": 3218,
      "bur": 3219,
      "▁used": 3220,
      "rib": 3221,
      "▁self": 3222,
      "uel": 3223,
      ".85": 3224,
      "▁made": 3225,
      "▁astride": 3226,
      "75": 3227,
      "▁repl": 3228,
      "▁area": 3229,
      "ious": 3230,
      "▁1958": 3231,
      "est": 3232,
      "▁besid": 3233,
      "▁1585": 3234,
      "▁11:32": 3235,
      "▁huh": 3236,
      "/13/2001": 3237,
      "ˈ": 3238,
      "▁black": 3239,
      "▁orland": 3240,
      "▁sol": 3241,
      "▁off": 3242,
      "▁mouth": 3243,
      "▁ban": 3244,
      "▁energy": 3245,
      "ff": 3246,
      "▁saturday": 3247,
      "ke": 3248,
      "ract": 3249,
      "▁ag": 3250,
      "▁light": 3251,
      "ite": 3252,
      "ster": 3253,
      "work": 3254,
      "▁2008": 3255,
      ".718": 3256,
      "£": 3257,
      "ere": 3258,
      "▁hours": 3259,
      "▁:(": 3260,
      "▁1859": 3261,
      "▁und": 3262,
      "▁step": 3263,
      "▁430": 3264,
      "▁21": 3265,
      "ook": 3266,
      "▁exc": 3267,
      "▁unlike": 3268,
      "apolis": 3269,
      "app": 3270,
      "ital": 3271,
      "istan": 3272,
      "▁1561": 3273,
      "▁dark": 3274,
      "▁3.1": 3275,
      "▁47,500": 3276,
      "▁yours": 3277,
      "▁tec": 3278,
      "ents": 3279,
      "▁bea": 3280,
      "ogether": 3281,
      "▁2004": 3282,
      "▁need": 3283,
      "▁600": 3284,
      "▁betw": 3285,
      "▁sor": 3286,
      "▁vi": 3287,
      "▁113": 3288,
      "▁out": 3289,
      "▁other": 3290,
      "30": 3291,
      "▁lot": 3292,
      "icult": 3293,
      "▁arriving": 3294,
      "/11": 3295,
      "/16/2001": 3296,
      "▁800.713.86": 3297,
      "▁2,": 3298,
      "▁af": 3299,
      "▁r": 3300,
      "▁mad": 3301,
      "▁36": 3302,
      "▁166": 3303,
      "▁ya": 3304,
      "▁315-460-33": 3305,
      "8806": 3306,
      "▁requ": 3307,
      "-8031": 3308,
      "jects": 3309,
      "▁fe": 3310,
      "non": 3311,
      "▁6:30": 3312,
      "▁gre": 3313,
      "//": 3314,
      "▁september": 3315,
      "▁1-800": 3316,
      "8549": 3317,
      "·": 3318,
      "▁educ": 3319,
      "ional": 3320,
      "▁1836": 3321,
      "six": 3322,
      "ha": 3323,
      "[": 3324,
      "▁field": 3325,
      "ince": 3326,
      "▁pack": 3327,
      "▁tell": 3328,
      "▁flight": 3329,
      "ating": 3330,
      "▁app": 3331,
      "ave": 3332,
      "▁economic": 3333,
      "▁too": 3334,
      ":35": 3335,
      "▁aircraft": 3336,
      "▁120": 3337,
      "▁98": 3338,
      "▁pos": 3339,
      "(": 3340,
      "al": 3341,
      "▁156": 3342,
      "▁7:30": 3343,
      "▁21,000": 3344,
      "▁05/25/2001": 3345,
      "▁four": 3346,
      "▁americ": 3347,
      "▁slow": 3348,
      "ial": 3349,
      ":37": 3350,
      "▁touch": 3351,
      "ended": 3352,
      "▁42,000": 3353,
      "▁1848": 3354,
      "▁set": 3355,
      "▁horse": 3356,
      "ason": 3357,
      "822": 3358,
      "▁03:20": 3359,
      "▁3/9": 3360,
      "▁1900": 3361,
      "▁meh-risk": 3362,
      "▁perhaps": 3363,
      "▁10/20/2000": 3364,
      "▁five": 3365,
      "▁04:": 3366,
      "▁inc": 3367,
      "880": 3368,
      "hn": 3369,
      "▁747": 3370,
      "▁11:3": 3371,
      "wh": 3372,
      ".831": 3373,
      "▁110": 3374,
      "▁meet": 3375,
      "▁team": 3376,
      "▁sam": 3377,
      "▁be": 3378,
      "inc": 3379,
      ",9": 3380,
      ":51": 3381,
      "▁norm": 3382,
      "ab": 3383,
      "▁john": 3384,
      "ren": 3385,
      "ons": 3386,
      "▁city": 3387,
      "▁monday": 3388,
      "mm": 3389,
      "▁sto": 3390,
      "▁~": 3391,
      "▁case": 3392,
      "▁via": 3393,
      "▁europe": 3394,
      "2/2000": 3395,
      "▁1985": 3396,
      "ued": 3397,
      "▁round": 3398,
      "▁2:25": 3399,
      "▁months": 3400,
      "▁language": 3401,
      "▁push": 3402,
      "▁417": 3403,
      "▁foc": 3404,
      "icle": 3405,
      "▁it's": 3406,
      "▁thing": 3407,
      "▁more": 3408,
      "▁super": 3409,
      "4": 3410,
      "琴": 3411,
      "▁research": 3412,
      "▁morning": 3413,
      "ator": 3414,
      "▁mil": 3415,
      "▁maj": 3416,
      "▁up": 3417,
      ":01": 3418,
      "▁european": 3419,
      "/15": 3420,
      "▁twelve": 3421,
      "ush": 3422,
      "▁tw": 3423,
      "▁take": 3424,
      "▁.?": 3425,
      "▁fares": 3426,
      "▁11/10/2000": 3427,
      "▁intern": 3428,
      "ign": 3429,
      "▁1962": 3430,
      "enron": 3431,
      "7": 3432,
      "veland": 3433,
      "▁earli": 3434,
      "▁38": 3435,
      "▁1945": 3436,
      "▁01:39:56": 3437,
      "▁invest": 3438,
      "▁phil": 3439,
      "▁then": 3440,
      "ft": 3441,
      "fe": 3442,
      "▁disc": 3443,
      "▁tomorrow": 3444,
      "▁08": 3445,
      "▁195": 3446,
      "13.86": 3447,
      "▁1616": 3448,
      "▁1951": 3449,
      "/h": 3450,
      "ning": 3451,
      "3.6": 3452,
      "▁99": 3453,
      "[MASK]": 3454,
      "▁char": 3455,
      "▁partic": 3456,
      "▁crit": 3457,
      "▁1964": 3458,
      "ways": 3459,
      "▁2:30": 3460,
      "▁vs": 3461,
      "▁gas": 3462,
      "anta": 3463,
      "▁rich": 3464,
      "▁anoder": 3465,
      "ular": 3466,
      "ider": 3467,
      "▁val": 3468,
      "▁act": 3469,
      "▁name": 3470,
      "▁cal": 3471,
      "▁thurs": 3472,
      "▁being": 3473,
      "60": 3474,
      "▁838": 3475,
      "▁-": 3476,
      "▁813": 3477,
      "☎": 3478,
      "▁08/03/2000": 3479,
      "▁regard": 3480,
      "▁6871082": 3481,
      "▁baltimore": 3482,
      "▁they": 3483,
      "ride": 3484,
      "ats": 3485,
      "▁tor": 3486,
      "▁72,000": 3487,
      "?": 3488,
      "▁3.2": 3489,
      "itive": 3490,
      "▁''": 3491,
      "▁sal": 3492,
      "ross": 3493,
      "▁07/14/2000": 3494,
      "▁word": 3495,
      "el": 3496,
      "'re": 3497,
      "th": 3498,
      "▁day": 3499,
      "8-7": 3500,
      "i": 3501,
      "▁over": 3502,
      "▁american": 3503,
      "▁auth": 3504,
      "▁lea": 3505,
      "▁i": 3506,
      "▁les": 3507,
      "53-3": 3508,
      "▁1998": 3509,
      "===": 3510,
      ".8317": 3511,
      "▁box": 3512,
      "▁grand": 3513,
      "▁lear": 3514,
      "▁class": 3515,
      "▁chair": 3516,
      "▁1696": 3517,
      "▁custom": 3518,
      "▁some": 3519,
      "oug": 3520,
      "ri": 3521,
      "teen": 3522,
      "▁issue": 3523,
      "▁fact": 3524,
      "▁296": 3525,
      "-99": 3526,
      "和": 3527,
      "▁per": 3528,
      "_": 3529,
      "96": 3530,
      "54-": 3531,
      "▁1160": 3532,
      "▁101": 3533,
      "s": 3534,
      "ards": 3535,
      "202": 3536,
      "▁!": 3537,
      ",008": 3538,
      "ency": 3539,
      ",0": 3540,
      "▁xslt": 3541,
      "▁01/24/2001": 3542,
      "▁770": 3543,
      "▁…": 3544,
      "▁young": 3545,
      "oun": 3546,
      "elp": 3547,
      "▁left": 3548,
      "▁fift": 3549,
      "▁notwith": 3550,
      "▁bre": 3551,
      "▁enj": 3552,
      ":18": 3553,
      "▁doctor": 3554,
      "▁713/853": 3555,
      "ill": 3556,
      "▁street": 3557,
      "澹": 3558,
      "olis": 3559,
      "ants": 3560,
      "▁05908549": 3561,
      "▁11,000": 3562,
      "ory": 3563,
      "▁quest": 3564,
      "▁member": 3565,
      "▁o'": 3566,
      "▁01810": 3567,
      "▁struct": 3568,
      "ipp": 3569,
      "η": 3570,
      "================================": 3571,
      "▁hund": 3572,
      "▁every": 3573,
      "▁ano": 3574,
      "ition": 3575,
      "▁che": 3576,
      "▁159": 3577,
      "▁07/1": 3578,
      "▁1608": 3579,
      "f": 3580,
      "41": 3581,
      "▁pass": 3582,
      "ament": 3583,
      "▁whether": 3584,
      "744": 3585,
      "15-": 3586,
      "velop": 3587,
      "ula": 3588,
      "▁1972": 3589,
      "▁s/he": 3590,
      "76": 3591,
      "▁abs": 3592,
      "▁713-793-": 3593,
      "▁1504": 3594,
      ":38": 3595,
      "▁---------------------------------------------------------------------": 3596,
      "ib": 3597,
      "▁members": 3598,
      "▁origin": 3599,
      "▁since": 3600,
      "88": 3601,
      "ately": 3602,
      "▁lar": 3603,
      "2000": 3604,
      "13": 3605,
      "▁1724": 3606,
      "▁somet": 3607,
      "ine": 3608,
      "▁los": 3609,
      "iv": 3610,
      "▁env": 3611,
      "▁ourselves": 3612,
      "ence": 3613,
      "▁165": 3614,
      "ho": 3615,
      "▁tot": 3616,
      "ert": 3617,
      "▁week": 3618,
      "airs": 3619,
      "▁330": 3620,
      "▁44": 3621,
      "ι": 3622,
      "▁french": 3623,
      "▁mom": 3624,
      "\"": 3625,
      "▁economy": 3626,
      "a": 3627,
      "▁bring": 3628,
      "▁sixteen": 3629,
      "2,000": 3630,
      "▁rec": 3631,
      "▁cont": 3632,
      "▁2007": 3633,
      "▁ham": 3634,
      "fast": 3635,
      "▁fing": 3636,
      "▁1992": 3637,
      "ht": 3638,
      "ensive": 3639,
      "▁kid": 3640,
      "▁point": 3641,
      "▁m": 3642,
      "▁both": 3643,
      "aff": 3644,
      "▁1505": 3645,
      "▁wednesday": 3646,
      "▁[": 3647,
      "[UNK]": 3648,
      "▁have": 3649,
      "▁nonstop": 3650,
      "▁59": 3651,
      "▁3.5": 3652,
      "3/2000": 3653,
      "▁espec": 3654,
      "ake": 3655,
      "2-6": 3656,
      "▁yester": 3657,
      "________________": 3658,
      ":25": 3659,
      "▁show": 3660,
      "1082": 3661,
      "▁kansas": 3662,
      "ɑ": 3663,
      "▁short": 3664,
      "▁able": 3665,
      "▁thought": 3666,
      "▁drive": 3667,
      "ational": 3668,
      "▁green": 3669,
      "▁210": 3670,
      "▁ve": 3671,
      "▁dc": 3672,
      ",000": 3673,
      "mp": 3674,
      "▁29587": 3675,
      "▁01/25/2001": 3676,
      "▁power": 3677,
      "▁financ": 3678,
      "▁consider": 3679,
      "ork": 3680,
      "▁wou": 3681,
      "▁might": 3682,
      "▁1600": 3683,
      "▁w/": 3684,
      "▁/": 3685,
      "▁82": 3686,
      "6": 3687,
      "ember": 3688,
      "ared": 3689,
      "▁blue": 3690,
      "▁coll": 3691,
      "ght": 3692,
      "▁g": 3693,
      "▁saw": 3694,
      "▁abe": 3695,
      "▁tex": 3696,
      "▁especially": 3697,
      "▁israel": 3698,
      "▁......": 3699,
      "▁50": 3700,
      ":46": 3701,
      "▁2011": 3702,
      "ves": 3703,
      "▁communications": 3704,
      "▁rul": 3705,
      "▁04/2": 3706,
      "静": 3707,
      "▁includ": 3708,
      "▁1598": 3709,
      "▁bn": 3710,
      "-3": 3711,
      "▁bur": 3712,
      "-4": 3713,
      "▁979": 3714,
      "ogn": 3715,
      "▁dist": 3716,
      "▁twenty-six": 3717,
      "▁open": 3718,
      "▁international": 3719,
      "▁opt": 3720,
      "sh": 3721,
      "▁!!!!!!!!!!!": 3722,
      "▁281-443-3744": 3723,
      "ount": 3724,
      "▁’re": 3725,
      "▁peau": 3726,
      "▁1966": 3727,
      "▁08/15/2000": 3728,
      "▁pan": 3729,
      "▁1.5": 3730,
      "▁book": 3731,
      "▁'re": 3732,
      "▁nine": 3733,
      "▁ver": 3734,
      "ary": 3735,
      "▁pict": 3736,
      "om": 3737,
      "▁12:42": 3738,
      "72": 3739,
      "▁eat": 3740,
      "▁bath": 3741,
      "▁calif": 3742,
      "¢": 3743,
      "▁met": 3744,
      "▁[...": 3745,
      "▁soc": 3746,
      "▁315-460-3": 3747,
      "▁problem": 3748,
      "▁57": 3749,
      "pl": 3750,
      "▁80,000": 3751,
      "▁03:3": 3752,
      "jwww": 3753,
      "▁perform": 3754,
      "▁canad": 3755,
      "iful": 3756,
      "▁several": 3757,
      "@": 3758,
      "▁2000": 3759,
      "7/2000": 3760,
      "▁necess": 3761,
      "ens": 3762,
      "▁top": 3763,
      "▁couple": 3764,
      "uc": 3765,
      "ether": 3766,
      "▁202.456": 3767,
      "used": 3768,
      "▁dom": 3769,
      "▁new": 3770,
      ".86": 3771,
      "▁508": 3772,
      "▁express": 3773,
      "▁direct": 3774,
      "▁har": 3775,
      "ations": 3776,
      "▁1984": 3777,
      "▁170": 3778,
      "▁children": 3779,
      "▁sp": 3780,
      "ative": 3781,
      "▁possible": 3782,
      "@enron": 3783,
      "▁mean": 3784,
      "ar": 3785,
      "eak": 3786,
      "28": 3787,
      "▁9": 3788,
      "▁713/": 3789,
      "▁'em": 3790,
      "▁199": 3791,
      "▁dall": 3792,
      "▁115": 3793,
      "▁“": 3794,
      "▁.doc": 3795,
      "▁2,300": 3796,
      "▁ch": 3797,
      "▁east": 3798,
      "▁al": 3799,
      "ʁ": 3800,
      "▁wed": 3801,
      "▁guess": 3802,
      "/00": 3803,
      "▁24,000": 3804,
      "ith": 3805,
      "▁1691": 3806,
      "▁cam": 3807,
      "▁11-20-2000": 3808,
      "▁allow": 3809,
      "▁su": 3810,
      "▁national": 3811,
      ":5": 3812,
      "▁29": 3813,
      "▁dere": 3814,
      "▁3.": 3815,
      "▁6.2": 3816,
      "36": 3817,
      "▁cheapest": 3818,
      "▁dead": 3819,
      "▁pers": 3820,
      "uth": 3821,
      "aps": 3822,
      "ase": 3823,
      "▁fly": 3824,
      "▁1999": 3825,
      "ocr": 3826,
      "▁1996": 3827,
      "▁18,000": 3828,
      "▁grow": 3829,
      "...": 3830,
      "▁kids": 3831,
      "▁him": 3832,
      "▁progr": 3833,
      "▁harry": 3834,
      "古": 3835,
      "▁978": 3836,
      "▁according": 3837,
      "▁month": 3838,
      "▁who": 3839,
      "±": 3840,
      "▁fine": 3841,
      "œ": 3842,
      "▁train": 3843,
      "▁1605": 3844,
      "▁4:00": 3845,
      "▁almost": 3846,
      "▁1790": 3847,
      "▁.....": 3848,
      "▁1965": 3849,
      "iny": 3850,
      "epend": 3851,
      "▁appro": 3852,
      "▁least": 3853,
      "??": 3854,
      "874": 3855,
      "▁main": 3856,
      "3-3": 3857,
      "▁what": 3858,
      "▁713-654-128": 3859,
      "<": 3860,
      "n": 3861,
      "ical": 3862,
      "▁interest": 3863,
      "@enron_de": 3864,
      "▁10/23/2000": 3865,
      "▁888.916.7184": 3866,
      "▁pol": 3867,
      "ivid": 3868,
      "▁11/28/2000": 3869,
      "▁forty-eight": 3870,
      "ery": 3871,
      "况": 3872,
      "▁:d": 3873,
      "▁ret": 3874,
      "olution": 3875,
      "▁pain": 3876,
      "▁189": 3877,
      "▁12.": 3878,
      "▁!!!": 3879,
      "der": 3880,
      "noon": 3881,
      "▁o'clock": 3882,
      "▁1738": 3883,
      ".77": 3884,
      "▁shakes": 3885,
      "▁bl": 3886,
      "-9": 3887,
      "iting": 3888,
      ".70": 3889,
      "▁none": 3890,
      "@ect": 3891,
      "▁example": 3892,
      "▁ele": 3893,
      "▁belie": 3894,
      "▁twenty": 3895,
      "/03/2001": 3896,
      "▁46": 3897,
      "▁iss": 3898,
      "▁)": 3899,
      "▁05:37": 3900,
      "▁comedie": 3901,
      "▁no": 3902,
      "▁baltim": 3903,
      "▁202.7": 3904,
      "ti": 3905,
      "ic": 3906,
      "/01": 3907,
      "▁wife": 3908,
      "▁&amp": 3909,
      "ellow": 3910,
      "urday": 3911,
      "▁01/2": 3912,
      "▁d'": 3913,
      "anc": 3914,
      "uck": 3915,
      "------": 3916,
      "ob": 3917,
      "▁herself": 3918,
      "▁11-20-": 3919,
      "▁??": 3920,
      "▁small": 3921,
      "▁to": 3922,
      "▁earth": 3923,
      "▁e": 3924,
      "attle": 3925,
      "▁38,000": 3926,
      "▁================================================": 3927,
      "▁31": 3928,
      "▁62": 3929,
      "▁just": 3930,
      "▁was": 3931,
      "▁twenty-": 3932,
      "▁experience": 3933,
      "iety": 3934,
      "▁whenever": 3935,
      "body": 3936,
      "▁tuesday": 3937,
      "▁505-625-8031": 3938,
      "▁9/11": 3939,
      "▁cer": 3940,
      "our": 3941,
      ",500": 3942,
      "▁c": 3943,
      "iver": 3944,
      "an": 3945,
      "▁1980": 3946,
      "ured": 3947,
      "ag": 3948,
      "lish": 3949,
      "▁moment": 3950,
      "▁'ve": 3951,
      "▁oakland": 3952,
      "c": 3953,
      "ts": 3954,
      "▁cur": 3955,
      "am": 3956,
      "astic": 3957,
      "▁certain": 3958,
      "▁1995": 3959,
      "▁bad": 3960,
      "▁185": 3961,
      "med": 3962,
      "▁2.00": 3963,
      "ften": 3964,
      "▁turned": 3965,
      "▁11608": 3966,
      "▁amongst": 3967,
      "int": 3968,
      ".3": 3969,
      "▁sept": 3970,
      "able": 3971,
      "▁tho": 3972,
      "erv": 3973,
      "▁947": 3974,
      "ane": 3975,
      "▁langu": 3976,
      "par": 3977,
      "▁11/27/2000": 3978,
      "▁school": 3979,
      "ʃ": 3980,
      "ww": 3981,
      "▁thousand": 3982,
      "▁polic": 3983,
      "ology": 3984,
      "989": 3985,
      "▁420": 3986,
      "▁ant": 3987,
      "ston": 3988,
      "▁idea": 3989,
      "▁seemed": 3990,
      "83": 3991,
      "▁1868": 3992,
      "▁exam": 3993,
      "▁however": 3994,
      "▁quick": 3995,
      "▁noone": 3996,
      "▁?????": 3997,
      "-415-": 3998,
      "▁learn": 3999,
      "eap": 4000,
      "▁compan": 4001,
      "‘": 4002,
      "/16": 4003,
      "▁heard": 4004,
      "19": 4005,
      "/2": 4006,
      "▁10/31": 4007,
      "▁work": 4008,
      "__________": 4009,
      "▁pricing": 4010,
      "ality": 4011,
      "ز": 4012,
      "▁1928": 4013,
      "▁kh": 4014,
      "▁191": 4015,
      "urch": 4016,
      "-991-9": 4017,
      "▁cour": 4018,
      "▁1777": 4019,
      "▁op": 4020,
      "ially": 4021,
      "▁something": 4022,
      "ump": 4023,
      "cle": 4024,
      "▁his": 4025,
      "000": 4026,
      "▁sound": 4027,
      "▁hot": 4028,
      "▁alberta": 4029,
      "819": 4030,
      "ute": 4031,
      "right": 4032,
      "▁actually": 4033,
      "▁10:5": 4034,
      "▁present": 4035,
      "▁on": 4036,
      "▁]": 4037,
      "▁red": 4038,
      "▁forty": 4039,
      "ged": 4040,
      "▁2005": 4041,
      "xic": 4042,
      "▁trillion": 4043,
      "▁1623": 4044,
      "ter": 4045,
      "ص": 4046,
      "79": 4047,
      "▁dkk": 4048,
      "712": 4049,
      "ney": 4050,
      "aining": 4051,
      "▁0590": 4052,
      "▁laur": 4053,
      "▁washington": 4054,
      "▁z": 4055,
      "461": 4056,
      "▁answ": 4057,
      "▁keep": 4058,
      "~*": 4059,
      "h": 4060,
      "/08": 4061,
      "57": 4062,
      "▁1994": 4063,
      "▁xiii": 4064,
      "▁evening": 4065,
      "μ": 4066,
      "rew": 4067,
      ":07": 4068,
      "▁cut": 4069,
      "▁by": 4070,
      "ping": 4071,
      "▁08:30": 4072,
      "▁’ve": 4073,
      "land": 4074,
      "▁maybe": 4075,
      "▁whom": 4076,
      "▁happen": 4077,
      "▁nothing": 4078,
      "▁2:00": 4079,
      "▁born": 4080,
      "▁later": 4081,
      "▁1039": 4082,
      "▁ple": 4083,
      "ich": 4084,
      "xt": 4085,
      "▁far": 4086,
      "▁avail": 4087,
      "ife": 4088,
      "109": 4089,
      "ple": 4090,
      "▁time": 4091,
      "▁port": 4092,
      "▁position": 4093,
      "isco": 4094,
      "ank": 4095
    },
    "merges": [
      [
        "in",
        "ts"
      ],
      [
        "▁trale",
        "e"
      ],
      [
        "▁01",
        "/1"
      ],
      [
        "▁ha",
        "f"
      ],
      [
        "▁gu",
        "ess"
      ],
      [
        "▁c",
        "old"
      ],
      [
        "▁o",
        "l"
      ],
      [
        "▁youn",
        "g"
      ],
      [
        "▁ha",
        "ve"
      ],
      [
        "▁eff",
        "ect"
      ],
      [
        "res",
        "h"
      ],
      [
        "▁12",
        "."
      ],
      [
        "▁d",
        "ri"
      ],
      [
        "****",
        "****"
      ],
      [
        "iv",
        "ely"
      ],
      [
        "e",
        "x"
      ],
      [
        "7",
        "00"
      ],
      [
        "u",
        "re"
      ],
      [
        "ent",
        "ly"
      ],
      [
        "it",
        "er"
      ],
      [
        ",",
        "8"
      ],
      [
        "▁",
        "m"
      ],
      [
        "▁th",
        "en"
      ],
      [
        "▁h",
        "ope"
      ],
      [
        "▁160",
        "8"
      ],
      [
        "▁n",
        "um"
      ],
      [
        "▁pro",
        "v"
      ],
      [
        "▁t",
        "y"
      ],
      [
        "3",
        "8"
      ],
      [
        "▁15",
        "4"
      ],
      [
        "6",
        "1"
      ],
      [
        "o",
        "ke"
      ],
      [
        "7",
        "44"
      ],
      [
        "▁================================",
        "================"
      ],
      [
        "▁200",
        "8"
      ],
      [
        "▁b",
        "/"
      ],
      [
        "▁comp",
        "ut"
      ],
      [
        "an",
        "d"
      ],
      [
        "▁look",
        "s"
      ],
      [
        "6",
        "-8"
      ],
      [
        "o",
        "s"
      ],
      [
        "-6",
        "25"
      ],
      [
        "▁d",
        "et"
      ],
      [
        "▁0",
        "5"
      ],
      [
        "ab",
        "ility"
      ],
      [
        "▁w",
        "ould"
      ],
      [
        "▁cer",
        "tain"
      ],
      [
        "▁eas",
        "y"
      ],
      [
        "▁fift",
        "een"
      ],
      [
        "▁-",
        "--"
      ],
      [
        "▁p",
        "it"
      ],
      [
        "▁is",
        "s"
      ],
      [
        "▁interest",
        "ed"
      ],
      [
        "▁f",
        "ut"
      ],
      [
        "1",
        "8"
      ],
      [
        "▁fr",
        "iday"
      ],
      [
        "▁w",
        "ere"
      ],
      [
        "▁loc",
        "al"
      ],
      [
        "▁h",
        "er"
      ],
      [
        "▁thank",
        "s"
      ],
      [
        "▁a",
        "cross"
      ],
      [
        "l",
        "ish"
      ],
      [
        "▁",
        "’"
      ],
      [
        "▁199",
        "2"
      ],
      [
        "▁",
        "z"
      ],
      [
        "▁ear",
        "ly"
      ],
      [
        "▁1",
        ","
      ],
      [
        ":1",
        "5"
      ],
      [
        "▁6",
        "80"
      ],
      [
        "▁f",
        "ight"
      ],
      [
        "▁d",
        "isc"
      ],
      [
        "ec",
        "ts"
      ],
      [
        "▁tec",
        "hn"
      ],
      [
        "▁st",
        "y"
      ],
      [
        "▁w",
        "or"
      ],
      [
        "▁",
        "00"
      ],
      [
        "i",
        "ence"
      ],
      [
        "▁wa",
        "it"
      ],
      [
        "▁8",
        "8"
      ],
      [
        "▁y",
        "er"
      ],
      [
        "▁f",
        "o"
      ],
      [
        "is",
        "ing"
      ],
      [
        "▁inf",
        "l"
      ],
      [
        "▁195",
        "4"
      ],
      [
        "▁ent",
        "ire"
      ],
      [
        "▁713-654-128",
        "1"
      ],
      [
        "i",
        "ally"
      ],
      [
        "▁dogg",
        "ie"
      ],
      [
        "▁800.713.86",
        "00"
      ],
      [
        "▁c",
        "are"
      ],
      [
        "h",
        "-r"
      ],
      [
        "▁**",
        "*"
      ],
      [
        "▁n",
        "e"
      ],
      [
        "▁inv",
        "ol"
      ],
      [
        "▁me",
        "an"
      ],
      [
        ".9",
        "5"
      ],
      [
        "g",
        "et"
      ],
      [
        "▁2",
        "3"
      ],
      [
        "▁fir",
        "st"
      ],
      [
        "▁16",
        "99"
      ],
      [
        "▁",
        "r"
      ],
      [
        "▁w",
        "an"
      ],
      [
        "▁def",
        "in"
      ],
      [
        "s",
        "ter"
      ],
      [
        "oun",
        "t"
      ],
      [
        "▁lear",
        "n"
      ],
      [
        "▁a",
        "d"
      ],
      [
        "▁br",
        "ing"
      ],
      [
        ":",
        "30"
      ],
      [
        "▁any",
        "body"
      ],
      [
        "m",
        "ed"
      ],
      [
        "-6",
        "96"
      ],
      [
        "▁happ",
        "y"
      ],
      [
        "▁",
        "id"
      ],
      [
        "▁kn",
        "ow"
      ],
      [
        "▁univers",
        "ity"
      ],
      [
        "▁b",
        "all"
      ],
      [
        "▁ha",
        "ving"
      ],
      [
        "▁08",
        ":30"
      ],
      [
        "▁r",
        "ound"
      ],
      [
        "▁pa",
        "ul"
      ],
      [
        "▁b",
        "ur"
      ],
      [
        "▁enj",
        "oy"
      ],
      [
        "▁189",
        "0"
      ],
      [
        "▁col",
        "l"
      ],
      [
        "▁4",
        "1"
      ],
      [
        "▁s",
        "outh"
      ],
      [
        "ic",
        "a"
      ],
      [
        "▁180",
        "1"
      ],
      [
        "▁r",
        "oman"
      ],
      [
        "▁a",
        "ir"
      ],
      [
        "▁conc",
        "ern"
      ],
      [
        "▁t",
        "om"
      ],
      [
        "▁dem",
        "ocr"
      ],
      [
        "▁e",
        "x"
      ],
      [
        "▁m",
        "eth"
      ],
      [
        "▁158",
        "5"
      ],
      [
        "▁s",
        "ea"
      ],
      [
        "4",
        "-"
      ],
      [
        "▁pro",
        "c"
      ],
      [
        "▁s",
        "to"
      ],
      [
        "00",
        "72"
      ],
      [
        "er",
        "y"
      ],
      [
        "u",
        "es"
      ],
      [
        "▁notwith",
        "stand"
      ],
      [
        "▁e",
        "lect"
      ],
      [
        "▁n",
        "or"
      ],
      [
        "l",
        "f"
      ],
      [
        "-99",
        "1-9"
      ],
      [
        "▁commun",
        "ity"
      ],
      [
        "▁",
        "/"
      ],
      [
        "▁o",
        "ak"
      ],
      [
        "▁te",
        "am"
      ],
      [
        "-",
        "10"
      ],
      [
        "th",
        "ing"
      ],
      [
        "-3",
        "43"
      ],
      [
        "▁re",
        "le"
      ],
      [
        "▁cour",
        "se"
      ],
      [
        "▁l",
        "ad"
      ],
      [
        "3",
        ".6"
      ],
      [
        "▁11/2",
        "8/2000"
      ],
      [
        "▁2",
        ".15"
      ],
      [
        "▁con",
        "v"
      ],
      [
        "▁a",
        "ct"
      ],
      [
        "▁10",
        "/26/2000"
      ],
      [
        "ac",
        "e"
      ],
      [
        "▁supp",
        "ort"
      ],
      [
        "al",
        "s"
      ],
      [
        "▁re",
        "p"
      ],
      [
        "▁3",
        "9"
      ],
      [
        "▁198",
        "1"
      ],
      [
        "▁in",
        "st"
      ],
      [
        "l",
        "ic"
      ],
      [
        "▁",
        "end"
      ],
      [
        "▁s",
        "et"
      ],
      [
        "as",
        "h"
      ],
      [
        "▁h",
        "und"
      ],
      [
        "▁mon",
        "day"
      ],
      [
        "am",
        "m"
      ],
      [
        "▁41",
        "5"
      ],
      [
        "▁re",
        "g"
      ],
      [
        "▁ne",
        "ed"
      ],
      [
        "▁su",
        "per"
      ],
      [
        "▁high",
        "ly"
      ],
      [
        "▁eff",
        "ort"
      ],
      [
        "▁17",
        "24"
      ],
      [
        "▁mon",
        "th"
      ],
      [
        "▁s",
        "ch"
      ],
      [
        "in",
        "ce"
      ],
      [
        "▁al",
        "be"
      ],
      [
        "4",
        "99"
      ],
      [
        "▁7",
        ".3"
      ],
      [
        "▁get",
        "s"
      ],
      [
        "▁cl",
        "os"
      ],
      [
        "▁",
        ">"
      ],
      [
        "▁2",
        "8"
      ],
      [
        "z",
        "en"
      ],
      [
        "▁fr",
        "anc"
      ],
      [
        "▁vi",
        "a"
      ],
      [
        "▁al",
        "ong"
      ],
      [
        ":1",
        "1"
      ],
      [
        "▁11",
        ":30"
      ],
      [
        "e",
        "en"
      ],
      [
        "8",
        "-3"
      ],
      [
        "▁13",
        "7"
      ],
      [
        "▁---------------------------------",
        "--------------------------------"
      ],
      [
        "▁1.",
        "6"
      ],
      [
        "g",
        "ress"
      ],
      [
        "▁e",
        "qu"
      ],
      [
        "▁child",
        "ren"
      ],
      [
        "▁s",
        "ome"
      ],
      [
        "▁w",
        "il"
      ],
      [
        "▁f",
        "ri"
      ],
      [
        "t",
        "ers"
      ],
      [
        "8",
        "0"
      ],
      [
        "9",
        "2"
      ],
      [
        "l",
        "l"
      ],
      [
        "▁130",
        "11"
      ],
      [
        "▁sp",
        "ec"
      ],
      [
        "▁10/2",
        "3/2000"
      ],
      [
        "▁le",
        "ad"
      ],
      [
        "olog",
        "y"
      ],
      [
        "▁7",
        ":30"
      ],
      [
        "▁wh",
        "i"
      ],
      [
        "▁g",
        "ame"
      ],
      [
        "ic",
        "ago"
      ],
      [
        "▁per",
        "iod"
      ],
      [
        "▁d",
        "ark"
      ],
      [
        "r",
        "uct"
      ],
      [
        "cl",
        "ock"
      ],
      [
        "▁14",
        "0"
      ],
      [
        "▁70",
        ".85"
      ],
      [
        "▁20",
        "22"
      ],
      [
        "e",
        "w"
      ],
      [
        "▁tw",
        "enty"
      ],
      [
        "▁08",
        "/17/2000"
      ],
      [
        "▁h",
        "igh"
      ],
      [
        "is",
        "m"
      ],
      [
        "▁h",
        "is"
      ],
      [
        "29",
        "5"
      ],
      [
        ":3",
        "4"
      ],
      [
        "et",
        "s"
      ],
      [
        "▁5",
        "9"
      ],
      [
        "▁sever",
        "al"
      ],
      [
        "▁1",
        "5"
      ],
      [
        "▁be",
        "fore"
      ],
      [
        "▁c",
        "a"
      ],
      [
        "▁su",
        "gg"
      ],
      [
        "2",
        "2"
      ],
      [
        "▁w",
        "ent"
      ],
      [
        "▁i",
        "s"
      ],
      [
        "/1",
        "0/2000"
      ],
      [
        "▁410",
        "-468-3"
      ],
      [
        "▁10",
        ",000"
      ],
      [
        "▁416-865-3",
        "70"
      ],
      [
        "3",
        "7"
      ],
      [
        "****************",
        "****************"
      ],
      [
        "▁o",
        "ver"
      ],
      [
        "▁d",
        "kk"
      ],
      [
        "▁con",
        "n"
      ],
      [
        "b",
        "e"
      ],
      [
        "▁s",
        "ix"
      ],
      [
        "m",
        "an"
      ],
      [
        "▁he",
        "ad"
      ],
      [
        "▁d",
        "raw"
      ],
      [
        "a",
        "z"
      ],
      [
        "▁197",
        "8"
      ],
      [
        "▁m",
        "ad"
      ],
      [
        "....",
        "...."
      ],
      [
        "▁g",
        "iv"
      ],
      [
        "ke",
        "e"
      ],
      [
        "im",
        "es"
      ],
      [
        "▁a",
        "m"
      ],
      [
        "▁6",
        "9"
      ],
      [
        "▁159",
        "3"
      ],
      [
        "▁im",
        "p"
      ],
      [
        "▁con",
        "c"
      ],
      [
        "▁d",
        "c"
      ],
      [
        "▁att",
        "ached"
      ],
      [
        "▁reg",
        "ard"
      ],
      [
        "▁to",
        "o"
      ],
      [
        "▁a",
        "f"
      ],
      [
        "▁v",
        "ide"
      ],
      [
        ".",
        "5"
      ],
      [
        "as",
        "on"
      ],
      [
        "▁196",
        "5"
      ],
      [
        "▁rese",
        "arch"
      ],
      [
        "▁30",
        ",000"
      ],
      [
        "▁resp",
        "ect"
      ],
      [
        "????",
        "????"
      ],
      [
        "▁aw",
        "oh"
      ],
      [
        "▁21",
        "2"
      ],
      [
        "▁cr",
        "it"
      ],
      [
        "on",
        "y"
      ],
      [
        "▁on",
        "to"
      ],
      [
        "▁d",
        "inner"
      ],
      [
        "▁sch",
        "ed"
      ],
      [
        "▁0",
        "2"
      ],
      [
        ".2",
        "5"
      ],
      [
        "▁their",
        "s"
      ],
      [
        "▁.",
        "doc"
      ],
      [
        "▁l",
        "as"
      ],
      [
        "▁m",
        "iss"
      ],
      [
        "▁ch",
        "urch"
      ],
      [
        "▁work",
        "ing"
      ],
      [
        "▁8",
        "7"
      ],
      [
        "▁18",
        "1"
      ],
      [
        "▁s",
        "ame"
      ],
      [
        "2",
        "/2000"
      ],
      [
        "▁ind",
        "ust"
      ],
      [
        "og",
        "ether"
      ],
      [
        "▁",
        "–"
      ],
      [
        "▁199",
        "3"
      ],
      [
        "▁10",
        ":00"
      ],
      [
        "▁s",
        "ar"
      ],
      [
        "==",
        "=="
      ],
      [
        "▁m",
        "akes"
      ],
      [
        "▁p",
        "m"
      ],
      [
        "8",
        "4"
      ],
      [
        "▁11/0",
        "8/2000"
      ],
      [
        "-9",
        "004"
      ],
      [
        "▁!",
        "?"
      ],
      [
        "▁pric",
        "ing"
      ],
      [
        "▁",
        "^"
      ],
      [
        "▁meet",
        "ing"
      ],
      [
        "▁ill",
        "usions"
      ],
      [
        "▁in",
        "side"
      ],
      [
        "▁me",
        "h-r"
      ],
      [
        "▁can",
        "ad"
      ],
      [
        "▁d",
        "e"
      ],
      [
        "▁in",
        "ter"
      ],
      [
        "ft",
        "en"
      ],
      [
        "▁19",
        "26"
      ],
      [
        "on",
        "d"
      ],
      [
        "▁2",
        ".6"
      ],
      [
        "▁f",
        "orm"
      ],
      [
        "o",
        "k"
      ],
      [
        "▁h",
        "ist"
      ],
      [
        "▁m",
        "em"
      ],
      [
        "▁!!!",
        "!!!"
      ],
      [
        "sid",
        "e"
      ],
      [
        "▁3",
        "6"
      ],
      [
        "▁how",
        "ever"
      ],
      [
        "==",
        "="
      ],
      [
        "▁p",
        "ower"
      ],
      [
        "▁a",
        "l"
      ],
      [
        "▁a",
        "ug"
      ],
      [
        "▁’",
        "s"
      ],
      [
        "ant",
        "a"
      ],
      [
        "▁s",
        "ave"
      ],
      [
        "▁2",
        ":25"
      ],
      [
        "▁713",
        "-79"
      ],
      [
        "8",
        "22"
      ],
      [
        "▁d",
        "'"
      ],
      [
        "▁m",
        "ain"
      ],
      [
        "▁70",
        "5"
      ],
      [
        "▁att",
        "ention"
      ],
      [
        "/",
        "31"
      ],
      [
        "▁1.",
        "1"
      ],
      [
        "ou",
        "r"
      ],
      [
        "▁tr",
        "a"
      ],
      [
        "▁3",
        ".8"
      ],
      [
        "▁201",
        "5"
      ],
      [
        "▁qu",
        "ick"
      ],
      [
        "▁bus",
        "h"
      ],
      [
        "▁proble",
        "ms"
      ],
      [
        "▁08/03",
        "/2000"
      ],
      [
        "▁no",
        "on"
      ],
      [
        "▁att",
        "em"
      ],
      [
        "▁tr",
        "ans"
      ],
      [
        "▁425",
        "-415-"
      ],
      [
        "▁",
        "h"
      ],
      [
        "▁",
        "€"
      ],
      [
        "us",
        "h"
      ],
      [
        "▁hour",
        "s"
      ],
      [
        "a",
        "w"
      ],
      [
        "▁+",
        "44"
      ],
      [
        "▁anal",
        "ys"
      ],
      [
        "▁har",
        "ry"
      ],
      [
        "▁d",
        "ere"
      ],
      [
        "y",
        "ond"
      ],
      [
        "▁whi",
        "l"
      ],
      [
        "▁p",
        "r"
      ],
      [
        "▁:",
        ")"
      ],
      [
        "ak",
        "es"
      ],
      [
        "/200",
        "5"
      ],
      [
        "▁ab",
        "out"
      ],
      [
        "l",
        "es"
      ],
      [
        "▁bet",
        "ter"
      ],
      [
        "end",
        "ed"
      ],
      [
        "ol",
        "ution"
      ],
      [
        "ut",
        "es"
      ],
      [
        "▁5",
        ".5"
      ],
      [
        "▁calif",
        "orn"
      ],
      [
        "▁o",
        "u"
      ],
      [
        "▁cl",
        "im"
      ],
      [
        "▁no",
        "ne"
      ],
      [
        "▁a",
        "re"
      ],
      [
        "!!",
        "!"
      ],
      [
        "▁tw",
        "o"
      ],
      [
        "▁him",
        "self"
      ],
      [
        "▁11",
        "1"
      ],
      [
        "▁b",
        "o"
      ],
      [
        "▁st",
        "ates"
      ],
      [
        "t",
        "ain"
      ],
      [
        "ell",
        "ow"
      ],
      [
        "▁all",
        "ow"
      ],
      [
        "▁18",
        "41"
      ],
      [
        "▁tim",
        "es"
      ],
      [
        "/1",
        "5/2001"
      ],
      [
        "▁u",
        "s"
      ],
      [
        "▁ch",
        "ild"
      ],
      [
        "▁qu",
        "est"
      ],
      [
        "▁s",
        "n"
      ],
      [
        "▁w",
        "ind"
      ],
      [
        "▁n'",
        "t"
      ],
      [
        "▁713-853",
        "-"
      ],
      [
        "========",
        "========"
      ],
      [
        "▁744",
        "19"
      ],
      [
        "▁",
        "le"
      ],
      [
        ":",
        "3"
      ],
      [
        "▁199",
        "8"
      ],
      [
        "es",
        "e"
      ],
      [
        "▁9",
        "9"
      ],
      [
        "▁res",
        "ult"
      ],
      [
        "▁4",
        ".0"
      ],
      [
        "▁h",
        "ard"
      ],
      [
        "▁go",
        "t"
      ],
      [
        "▁7",
        "1"
      ],
      [
        "▁det",
        "er"
      ],
      [
        "▁s",
        "c"
      ],
      [
        "▁d",
        "an"
      ],
      [
        "m",
        "ent"
      ],
      [
        "▁m",
        "ade"
      ],
      [
        "▁",
        "p"
      ],
      [
        "▁7",
        ".2"
      ],
      [
        "b",
        "it"
      ],
      [
        "▁09",
        ":45"
      ],
      [
        "▁dis",
        "pl"
      ],
      [
        "▁th",
        "o"
      ],
      [
        "▁look",
        "ed"
      ],
      [
        "▁t",
        "ill"
      ],
      [
        "▁",
        "g"
      ],
      [
        "▁j",
        "un"
      ],
      [
        "m",
        "ing"
      ],
      [
        "ot",
        "t"
      ],
      [
        "▁w",
        "oman"
      ],
      [
        "▁",
        "0"
      ],
      [
        "▁some",
        "one"
      ],
      [
        "▁seven",
        "ty"
      ],
      [
        "▁fr",
        "ont"
      ],
      [
        "▁und",
        "er"
      ],
      [
        "▁01",
        ":0"
      ],
      [
        "▁o",
        "cc"
      ],
      [
        "f",
        "ul"
      ],
      [
        "if",
        "ic"
      ],
      [
        "▁n",
        "and"
      ],
      [
        "i",
        "od"
      ],
      [
        "ii",
        "i"
      ],
      [
        "o",
        "c"
      ],
      [
        "▁un",
        "t"
      ],
      [
        "▁b",
        "us"
      ],
      [
        "▁among",
        "st"
      ],
      [
        "▁6",
        ".8"
      ],
      [
        "▁sp",
        "eak"
      ],
      [
        "re",
        "ad"
      ],
      [
        "▁19",
        "40"
      ],
      [
        "▁y",
        "ester"
      ],
      [
        "i",
        "t"
      ],
      [
        "9",
        "3"
      ],
      [
        "▁s",
        "itting"
      ],
      [
        "▁s",
        "e"
      ],
      [
        "▁sp",
        "r"
      ],
      [
        "▁st",
        "ill"
      ],
      [
        "▁t",
        "old"
      ],
      [
        "▁",
        "on"
      ],
      [
        "▁bo",
        "ston"
      ],
      [
        "al",
        "k"
      ],
      [
        "▁se",
        "e"
      ],
      [
        "um",
        "p"
      ],
      [
        "ist",
        "s"
      ],
      [
        "in",
        "ess"
      ],
      [
        "▁us",
        "ually"
      ],
      [
        "▁be",
        "hin"
      ],
      [
        "▁at",
        "op"
      ],
      [
        "2",
        "00"
      ],
      [
        "▁li",
        "st"
      ],
      [
        "▁r",
        "ather"
      ],
      [
        "/",
        "2"
      ],
      [
        ".",
        "30"
      ],
      [
        "▁af",
        "ric"
      ],
      [
        "▁for",
        "m"
      ],
      [
        "▁130",
        "7"
      ],
      [
        "at",
        "ely"
      ],
      [
        "▁anim",
        "als"
      ],
      [
        "▁co",
        "de"
      ],
      [
        "▁th",
        "at"
      ],
      [
        "▁num",
        "ber"
      ],
      [
        "▁3",
        "1"
      ],
      [
        "4",
        "3"
      ],
      [
        ".6",
        "1"
      ],
      [
        "om",
        "et"
      ],
      [
        ".7",
        "13.86"
      ],
      [
        "▁w",
        "r"
      ],
      [
        "▁t",
        "ick"
      ],
      [
        "▁am",
        "eric"
      ],
      [
        "▁16.3",
        "79"
      ],
      [
        "5",
        "1"
      ],
      [
        "▁b",
        "ig"
      ],
      [
        "ul",
        "t"
      ],
      [
        "a",
        "ge"
      ],
      [
        "▁1",
        "2"
      ],
      [
        "▁h",
        "ear"
      ],
      [
        "us",
        "s"
      ],
      [
        "7",
        "4"
      ],
      [
        "c",
        "ab"
      ],
      [
        "▁t",
        "aking"
      ],
      [
        "ab",
        "lish"
      ],
      [
        "▁exp",
        "ensive"
      ],
      [
        "▁at",
        "t"
      ],
      [
        "▁l",
        "ab"
      ],
      [
        "▁d",
        "own"
      ],
      [
        "▁whe",
        "ther"
      ],
      [
        "▁80",
        ",000"
      ],
      [
        "▁",
        "o"
      ],
      [
        "vel",
        "and"
      ],
      [
        "i",
        "de"
      ],
      [
        "at",
        "h"
      ],
      [
        "▁y",
        "ear"
      ],
      [
        "▁st",
        "aff"
      ],
      [
        "▁12",
        "0"
      ],
      [
        "▁",
        ";"
      ],
      [
        "ec",
        "ess"
      ],
      [
        "▁p",
        "ur"
      ],
      [
        "▁s",
        "or"
      ],
      [
        "▁an",
        "o"
      ],
      [
        "▁a",
        "ft"
      ],
      [
        "▁",
        "&"
      ],
      [
        "▁prof",
        "ess"
      ],
      [
        "▁albe",
        "it"
      ],
      [
        "i",
        "s"
      ],
      [
        "▁ap",
        "art"
      ],
      [
        "ont",
        "o"
      ],
      [
        "▁196",
        "2"
      ],
      [
        "u",
        "ff"
      ],
      [
        "▁whe",
        "re"
      ],
      [
        ".",
        "2"
      ],
      [
        "▁",
        "4"
      ],
      [
        "▁t",
        "est"
      ],
      [
        "▁718",
        "-780"
      ],
      [
        "▁do",
        "or"
      ],
      [
        "▁start",
        "ed"
      ],
      [
        "▁w",
        "/"
      ],
      [
        ":",
        "//"
      ],
      [
        "8",
        "/2000"
      ],
      [
        "▁c",
        "ap"
      ],
      [
        "g",
        "er"
      ],
      [
        "▁mo",
        "st"
      ],
      [
        "▁5",
        "30"
      ],
      [
        "▁g",
        "er"
      ],
      [
        "gh",
        "t"
      ],
      [
        "▁d",
        "ec"
      ],
      [
        "▁1,",
        "200"
      ],
      [
        "9",
        "8"
      ],
      [
        "▁t",
        "rans"
      ],
      [
        "▁l",
        "ate"
      ],
      [
        "at",
        "ion"
      ],
      [
        "fi",
        "ve"
      ],
      [
        "▁philadelp",
        "hia"
      ],
      [
        "▁compan",
        "y"
      ],
      [
        "▁03",
        "/0"
      ],
      [
        "********",
        "********"
      ],
      [
        "e",
        "ment"
      ],
      [
        "a",
        "h"
      ],
      [
        "▁s",
        "ort"
      ],
      [
        ":",
        "21"
      ],
      [
        "▁al",
        "one"
      ],
      [
        "▁",
        "*"
      ],
      [
        "▁",
        "us"
      ],
      [
        "▁re",
        "ad"
      ],
      [
        "r",
        "u"
      ],
      [
        "am",
        "p"
      ],
      [
        "ect",
        "ion"
      ],
      [
        "ent",
        "s"
      ],
      [
        "▁c",
        "am"
      ],
      [
        "e",
        "s"
      ],
      [
        "f",
        "ast"
      ],
      [
        "1",
        "/2001"
      ],
      [
        "▁e",
        "xce"
      ],
      [
        "▁o",
        "ff"
      ],
      [
        "▁72",
        ",000"
      ],
      [
        "re",
        "n"
      ],
      [
        "ou",
        "ld"
      ],
      [
        "4",
        "8"
      ],
      [
        "r",
        "a"
      ],
      [
        "▁bo",
        "at"
      ],
      [
        "▁47",
        ",500"
      ],
      [
        "▁n",
        "ecess"
      ],
      [
        "or",
        "s"
      ],
      [
        "▁comp",
        "an"
      ],
      [
        "m",
        "m"
      ],
      [
        "it",
        "h"
      ],
      [
        "▁6",
        "30"
      ],
      [
        "▁no",
        "one"
      ],
      [
        "▁",
        "****"
      ],
      [
        "l",
        "a"
      ],
      [
        "oll",
        "ow"
      ],
      [
        "v",
        "ed"
      ],
      [
        "c",
        "om"
      ],
      [
        "▁e",
        "le"
      ],
      [
        "▁des",
        "ign"
      ],
      [
        "▁201",
        "2"
      ],
      [
        "▁h",
        "ot"
      ],
      [
        "▁he",
        "y"
      ],
      [
        "▁17",
        "76"
      ],
      [
        "▁",
        "round"
      ],
      [
        "▁c",
        "ame"
      ],
      [
        "an",
        "g"
      ],
      [
        "▁geor",
        "ge"
      ],
      [
        "▁the",
        "ir"
      ],
      [
        "-",
        "9"
      ],
      [
        "▁ref",
        "er"
      ],
      [
        "g",
        "el"
      ],
      [
        "▁hum",
        "an"
      ],
      [
        "▁315",
        "-460-3"
      ],
      [
        "▁we",
        "b"
      ],
      [
        "▁vis",
        "it"
      ],
      [
        "al",
        "e"
      ],
      [
        "▁m",
        "ich"
      ],
      [
        "▁159",
        "6"
      ],
      [
        "it",
        "ion"
      ],
      [
        "og",
        "n"
      ],
      [
        "▁10",
        "/2"
      ],
      [
        ",",
        "9"
      ],
      [
        "▁p",
        "h"
      ],
      [
        "▁ag",
        "ain"
      ],
      [
        "▁s",
        "er"
      ],
      [
        "▁in",
        "f"
      ],
      [
        "d",
        "er"
      ],
      [
        "▁160",
        "9"
      ],
      [
        "▁1",
        "/4"
      ],
      [
        "▁ph",
        "o"
      ],
      [
        "▁000010",
        "8806"
      ],
      [
        "n",
        "y"
      ],
      [
        "▁120",
        ",000"
      ],
      [
        "▁h",
        "op"
      ],
      [
        "▁200",
        "9"
      ],
      [
        "▁sto",
        "y"
      ],
      [
        "m",
        "l"
      ],
      [
        "▁12",
        "22"
      ],
      [
        "▁apar",
        "t"
      ],
      [
        "▁un",
        "to"
      ],
      [
        "▁env",
        "iron"
      ],
      [
        "▁ro",
        "l"
      ],
      [
        "▁bel",
        "ow"
      ],
      [
        "▁s",
        "il"
      ],
      [
        "1",
        "9"
      ],
      [
        "v",
        "e"
      ],
      [
        "t",
        "y"
      ],
      [
        "▁re",
        "st"
      ],
      [
        "▁flight",
        "s"
      ],
      [
        "r",
        "ou"
      ],
      [
        "▁c",
        "iv"
      ],
      [
        "▁25",
        "3"
      ],
      [
        "is",
        "on"
      ],
      [
        "ou",
        "p"
      ],
      [
        "▁pret",
        "ty"
      ],
      [
        "▁w",
        "ater"
      ],
      [
        "▁of",
        "f"
      ],
      [
        "▁t",
        "u"
      ],
      [
        "ou",
        "g"
      ],
      [
        "▁po",
        "int"
      ],
      [
        "one",
        "y"
      ],
      [
        "▁09",
        "/16"
      ],
      [
        "r",
        "i"
      ],
      [
        "▁tr",
        "ad"
      ],
      [
        "▁cour",
        "t"
      ],
      [
        "▁kn",
        "ew"
      ],
      [
        "▁m",
        "ag"
      ],
      [
        "▁19",
        "7"
      ],
      [
        "▁p",
        "le"
      ],
      [
        "el",
        "t"
      ],
      [
        "▁t",
        "a"
      ],
      [
        "ap",
        "olis"
      ],
      [
        "-8",
        "4"
      ],
      [
        "l",
        "i"
      ],
      [
        "▁s",
        "ec"
      ],
      [
        "n",
        "ing"
      ],
      [
        "ath",
        "er"
      ],
      [
        "▁lea",
        "st"
      ],
      [
        "i",
        "ous"
      ],
      [
        "ep",
        "end"
      ],
      [
        "in",
        "g"
      ],
      [
        "▁ar",
        "ound"
      ],
      [
        "▁j",
        "ap"
      ],
      [
        "▁down",
        "town"
      ],
      [
        "▁g",
        "reat"
      ],
      [
        "i",
        "et"
      ],
      [
        "8",
        "5"
      ],
      [
        "▁",
        "one"
      ],
      [
        "/",
        "00"
      ],
      [
        "▁su",
        "b"
      ],
      [
        "▁s",
        "ent"
      ],
      [
        "id",
        "e"
      ],
      [
        "a",
        "s"
      ],
      [
        "2",
        ",000"
      ],
      [
        "▁nat",
        "ural"
      ],
      [
        "▁sit",
        "u"
      ],
      [
        "▁ans",
        "w"
      ],
      [
        "▁a",
        "round"
      ],
      [
        "vel",
        "opment"
      ],
      [
        "▁51",
        "2"
      ],
      [
        "▁c",
        "ount"
      ],
      [
        "ond",
        "on"
      ],
      [
        "▁8",
        "13"
      ],
      [
        "▁m",
        "om"
      ],
      [
        "-",
        "435"
      ],
      [
        "▁195",
        "2"
      ],
      [
        "▁18",
        "40"
      ],
      [
        "ot",
        "te"
      ],
      [
        "en",
        "d"
      ],
      [
        "▁ret",
        "urn"
      ],
      [
        "▁coun",
        "ter"
      ],
      [
        "▁to",
        "day"
      ],
      [
        "o",
        "d"
      ],
      [
        "7",
        "/2000"
      ],
      [
        "▁11",
        ":16"
      ],
      [
        "▁713-853-",
        "3098"
      ],
      [
        "▁19",
        "47"
      ],
      [
        "▁11",
        "00"
      ],
      [
        "▁includ",
        "ing"
      ],
      [
        "▁gen",
        "er"
      ],
      [
        "p",
        "er"
      ],
      [
        "on",
        "es"
      ],
      [
        "▁",
        ","
      ],
      [
        "▁09",
        ":14"
      ],
      [
        "6",
        "0"
      ],
      [
        "▁h",
        "our"
      ],
      [
        "▁85",
        "2"
      ],
      [
        "▁1",
        "3"
      ],
      [
        "▁or",
        "der"
      ],
      [
        "ec",
        "t"
      ],
      [
        "▁w",
        "h"
      ],
      [
        "▁inter",
        "est"
      ],
      [
        "ad",
        "e"
      ],
      [
        "▁res",
        "p"
      ],
      [
        "b",
        "r"
      ],
      [
        "▁c",
        "ase"
      ],
      [
        "▁the",
        "m"
      ],
      [
        "▁7",
        "00"
      ],
      [
        "▁n",
        "www"
      ],
      [
        "▁16",
        "35"
      ],
      [
        "▁f",
        "ing"
      ],
      [
        "0",
        "9"
      ],
      [
        "▁e",
        "at"
      ],
      [
        "el",
        "s"
      ],
      [
        "880",
        "6"
      ],
      [
        "▁8",
        ".3"
      ],
      [
        "▁o",
        "thers"
      ],
      [
        "l",
        "ow"
      ],
      [
        "om",
        "e"
      ],
      [
        "▁h",
        "ou"
      ],
      [
        "▁7",
        "44"
      ],
      [
        "▁01",
        "810"
      ],
      [
        "▁16",
        "47"
      ],
      [
        "▁fe",
        "el"
      ],
      [
        "▁your",
        "selves"
      ],
      [
        "▁15",
        "60"
      ],
      [
        "▁p",
        "ut"
      ],
      [
        "▁with",
        "in"
      ],
      [
        "▁ninety-n",
        "ine"
      ],
      [
        "▁pos",
        "ition"
      ],
      [
        "▁pro",
        "ject"
      ],
      [
        "▁620-",
        "294-"
      ],
      [
        "▁vs",
        "."
      ],
      [
        "▁f",
        "ir"
      ],
      [
        "▁20",
        "30"
      ],
      [
        "▁po",
        "st"
      ],
      [
        "▁b",
        "ack"
      ],
      [
        "▁b",
        "ro"
      ],
      [
        ".",
        "3"
      ],
      [
        "▁gre",
        "en"
      ],
      [
        "em",
        "ber"
      ],
      [
        "/",
        "/"
      ],
      [
        "▁!!!",
        "!"
      ],
      [
        "▁y",
        "o"
      ],
      [
        "▁p",
        "o"
      ],
      [
        "un",
        "ch"
      ],
      [
        "▁:",
        "d"
      ],
      [
        "▁se",
        "x"
      ],
      [
        "▁w",
        "ant"
      ],
      [
        ",00",
        "8"
      ],
      [
        "3",
        "6"
      ],
      [
        "▁2",
        "9"
      ],
      [
        "▁5",
        "/1"
      ],
      [
        "..",
        ".."
      ],
      [
        "▁sh",
        "ow"
      ],
      [
        "er",
        "t"
      ],
      [
        "▁200",
        "6"
      ],
      [
        "▁d",
        "r"
      ],
      [
        "▁baltim",
        "ore"
      ],
      [
        "▁156",
        "4"
      ],
      [
        "no",
        "on"
      ],
      [
        "4",
        "7"
      ],
      [
        "▁7",
        "20"
      ],
      [
        "i",
        "k"
      ],
      [
        "ation",
        "s"
      ],
      [
        "▁d",
        "oll"
      ],
      [
        "▁s",
        "and"
      ],
      [
        "▁w",
        "ays"
      ],
      [
        "▁n",
        "ot"
      ],
      [
        "-",
        "59"
      ],
      [
        "▁sugg",
        "est"
      ],
      [
        "u",
        "n"
      ],
      [
        "▁a",
        "i"
      ],
      [
        "▁d",
        "id"
      ],
      [
        "▁ha",
        "v"
      ],
      [
        "▁t",
        "ake"
      ],
      [
        "/",
        "8"
      ],
      [
        "▁p",
        "eau"
      ],
      [
        "▁h",
        "at"
      ],
      [
        "▁ph",
        "one"
      ],
      [
        "▁b",
        "as"
      ],
      [
        "▁cl",
        "ose"
      ],
      [
        "▁12",
        ":1"
      ],
      [
        "▁4",
        "0"
      ],
      [
        "▁as",
        "k"
      ],
      [
        "▁rec",
        "ommend"
      ],
      [
        "▁sept",
        "ember"
      ],
      [
        "▁year",
        "s"
      ],
      [
        "▁f",
        "ac"
      ],
      [
        "▁book",
        "s"
      ],
      [
        "▁1",
        "8"
      ],
      [
        "▁w",
        "on"
      ],
      [
        "▁peop",
        "le"
      ],
      [
        "▁p",
        "at"
      ],
      [
        "▁along",
        "side"
      ],
      [
        "s",
        "t"
      ],
      [
        "▁meh-r",
        "isk"
      ],
      [
        "▁part",
        "y"
      ],
      [
        "▁s",
        "qu"
      ],
      [
        "om",
        "an"
      ],
      [
        "▁",
        "im"
      ],
      [
        "30",
        "98"
      ],
      [
        "e",
        "k"
      ],
      [
        "st",
        "on"
      ],
      [
        "oun",
        "d"
      ],
      [
        "v",
        "il"
      ],
      [
        "▁5",
        "3"
      ],
      [
        "▁plac",
        "es"
      ],
      [
        "ul",
        "ar"
      ],
      [
        "▁202.456.1",
        "111"
      ],
      [
        "▁o",
        "n"
      ],
      [
        "▁me",
        "ans"
      ],
      [
        "ur",
        "n"
      ],
      [
        "▁-",
        "ect"
      ],
      [
        "▁an",
        "im"
      ],
      [
        "'",
        "re"
      ],
      [
        "▁the",
        "re"
      ],
      [
        "or",
        "k"
      ],
      [
        ":3",
        "2"
      ],
      [
        ".7",
        "0"
      ],
      [
        "▁",
        "ide"
      ],
      [
        "▁202.45",
        "6"
      ],
      [
        "▁char",
        "l"
      ],
      [
        "▁g",
        "en"
      ],
      [
        "▁doll",
        "ars"
      ],
      [
        "k",
        "en"
      ],
      [
        "a",
        "ch"
      ],
      [
        "us",
        "ed"
      ],
      [
        "▁198",
        "0"
      ],
      [
        "▁!",
        "!"
      ],
      [
        "▁hand",
        "s"
      ],
      [
        "id",
        "er"
      ],
      [
        "▁h",
        "ea"
      ],
      [
        ".",
        "8"
      ],
      [
        "▁02",
        "/2"
      ],
      [
        "▁sal",
        "t"
      ],
      [
        "▁10",
        ":45"
      ],
      [
        "▁bre",
        "ak"
      ],
      [
        "ut",
        "ions"
      ],
      [
        "b",
        "ur"
      ],
      [
        "▁15",
        "00"
      ],
      [
        "▁19",
        "45"
      ],
      [
        "▁may",
        "be"
      ],
      [
        "-",
        "-"
      ],
      [
        "▁gr",
        "and"
      ],
      [
        "▁mom",
        "ent"
      ],
      [
        "▁wh",
        "om"
      ],
      [
        "▁17",
        "0"
      ],
      [
        "w",
        "ith"
      ],
      [
        "▁01",
        ":58"
      ],
      [
        "▁40",
        "1"
      ],
      [
        "▁a",
        "ff"
      ],
      [
        "▁bec",
        "use"
      ],
      [
        "▁3",
        "76"
      ],
      [
        ".6",
        "76"
      ],
      [
        ".1",
        "5"
      ],
      [
        "▁:",
        "-)"
      ],
      [
        "▁f",
        "ind"
      ],
      [
        "▁co",
        "st"
      ],
      [
        "▁thurs",
        "day"
      ],
      [
        "▁o",
        "pp"
      ],
      [
        "▁we",
        "re"
      ],
      [
        "▁agre",
        "ement"
      ],
      [
        "o",
        "m"
      ],
      [
        "▁f",
        "ood"
      ],
      [
        "i",
        "ed"
      ],
      [
        "▁pos",
        "t"
      ],
      [
        "▁pr",
        "om"
      ],
      [
        "ac",
        "h"
      ],
      [
        "▁f",
        "ine"
      ],
      [
        "oo",
        "se"
      ],
      [
        "▁f",
        "ound"
      ],
      [
        "os",
        "ite"
      ],
      [
        "▁",
        "5"
      ],
      [
        "i",
        "um"
      ],
      [
        "▁ser",
        "v"
      ],
      [
        "▁six",
        "teen"
      ],
      [
        "▁n",
        "ational"
      ],
      [
        ".1",
        "23"
      ],
      [
        "▁e",
        "gg"
      ],
      [
        "/1",
        "6"
      ],
      [
        "▁18",
        "46"
      ],
      [
        "▁...",
        "."
      ],
      [
        "i",
        "c"
      ],
      [
        "▁as",
        "ide"
      ],
      [
        "▁outs",
        "ide"
      ],
      [
        "ow",
        "n"
      ],
      [
        "▁3",
        "/8/00"
      ],
      [
        "▁li",
        "ve"
      ],
      [
        "29",
        "4-"
      ],
      [
        "c",
        "es"
      ],
      [
        "▁4",
        "4"
      ],
      [
        "▁offic",
        "ial"
      ],
      [
        "▁p",
        "os"
      ],
      [
        "▁713-853",
        "-3989"
      ],
      [
        "▁d",
        "all"
      ],
      [
        ":",
        "45"
      ],
      [
        "▁off",
        "ic"
      ],
      [
        "-",
        "99"
      ],
      [
        "▁08",
        ":00"
      ],
      [
        "▁37",
        "24"
      ],
      [
        "▁?",
        "?"
      ],
      [
        "id",
        "ent"
      ],
      [
        "3",
        "1"
      ],
      [
        "▁h",
        "ome"
      ],
      [
        "▁d",
        "ur"
      ],
      [
        "▁th",
        "an"
      ],
      [
        "8",
        "2"
      ],
      [
        "ot",
        "e"
      ],
      [
        "▁c",
        "er"
      ],
      [
        "▁ey",
        "e"
      ],
      [
        "a",
        "mp"
      ],
      [
        "▁gr",
        "ound"
      ],
      [
        "▁200",
        "1"
      ],
      [
        "▁1",
        ",000"
      ],
      [
        "▁8",
        ":15"
      ],
      [
        "▁dat",
        "a"
      ],
      [
        "s",
        "i"
      ],
      [
        "e",
        "ed"
      ],
      [
        "▁18",
        "71"
      ],
      [
        "i",
        "pp"
      ],
      [
        "▁ha",
        "pp"
      ],
      [
        "▁2",
        "6"
      ],
      [
        "▁str",
        "ong"
      ],
      [
        "▁per",
        "haps"
      ],
      [
        "▁5",
        "8"
      ],
      [
        "▁s",
        "en"
      ],
      [
        "▁198",
        "6"
      ],
      [
        "▁add",
        "ress"
      ],
      [
        "▁r",
        "ide"
      ],
      [
        "▁un",
        "e"
      ],
      [
        "▁713/8",
        "53"
      ],
      [
        "-0",
        "295"
      ],
      [
        "▁p",
        "ol"
      ],
      [
        "▁bo",
        "th"
      ],
      [
        "o",
        "r"
      ],
      [
        "ve",
        "n"
      ],
      [
        "i",
        "e"
      ],
      [
        "▁n",
        "ight"
      ],
      [
        "m",
        "p"
      ],
      [
        "▁11",
        "/0"
      ],
      [
        "▁",
        "`s"
      ],
      [
        "▁f",
        "l"
      ],
      [
        "▁mark",
        "et"
      ],
      [
        "▁n",
        "o"
      ],
      [
        "▁st",
        "uff"
      ],
      [
        "▁wi",
        "ll"
      ],
      [
        "▁09/15",
        "/99"
      ],
      [
        "▁pos",
        "s"
      ],
      [
        "▁198",
        "4"
      ],
      [
        "▁ma",
        "j"
      ],
      [
        "a",
        "k"
      ],
      [
        "▁f",
        "r"
      ],
      [
        ":",
        "48"
      ],
      [
        "▁un",
        "like"
      ],
      [
        "▁8",
        "1"
      ],
      [
        "-46",
        "8-3"
      ],
      [
        "▁abo",
        "ve"
      ],
      [
        ".7",
        "822"
      ],
      [
        "o",
        "ther"
      ],
      [
        "tw",
        "o"
      ],
      [
        "▁s",
        "w"
      ],
      [
        "▁so",
        "c"
      ],
      [
        "enc",
        "y"
      ],
      [
        "▁18",
        "47"
      ],
      [
        "/26",
        "/2001"
      ],
      [
        "▁sor",
        "ry"
      ],
      [
        "ans",
        "as"
      ],
      [
        "ist",
        "an"
      ],
      [
        "▁oak",
        "land"
      ],
      [
        "os",
        "ed"
      ],
      [
        "▁29587",
        "0"
      ],
      [
        "▁le",
        "ft"
      ],
      [
        "▁12",
        "5"
      ],
      [
        ":1",
        "4"
      ],
      [
        "▁sh",
        "akes"
      ],
      [
        "▁18",
        "0"
      ],
      [
        "▁03",
        "/15/2001"
      ],
      [
        "▁15",
        "8"
      ],
      [
        "u",
        "ation"
      ],
      [
        "▁through",
        "out"
      ],
      [
        "▁mo",
        "ve"
      ],
      [
        "▁199",
        "9"
      ],
      [
        "i",
        "gh"
      ],
      [
        "▁11",
        ":00"
      ],
      [
        "▁2.9",
        "75"
      ],
      [
        "as",
        "ing"
      ],
      [
        "ug",
        "ht"
      ],
      [
        "▁set",
        "t"
      ],
      [
        "▁c",
        "om"
      ],
      [
        "e",
        "e"
      ],
      [
        "▁j",
        "ump"
      ],
      [
        "▁s",
        "end"
      ],
      [
        "▁18",
        "78"
      ],
      [
        "▁th",
        "row"
      ],
      [
        "▁e",
        "ast"
      ],
      [
        "▁hist",
        "ory"
      ],
      [
        ":5",
        "5"
      ],
      [
        "▁jo",
        "b"
      ],
      [
        "▁p",
        "ay"
      ],
      [
        "▁?",
        "????"
      ],
      [
        "▁9",
        "3"
      ],
      [
        "▁b",
        "y"
      ],
      [
        "▁al",
        "ber"
      ],
      [
        "▁07",
        ":24"
      ],
      [
        "▁f",
        "re"
      ],
      [
        "▁7",
        ":00"
      ],
      [
        "▁li",
        "ving"
      ],
      [
        "▁cou",
        "ple"
      ],
      [
        "▁app",
        "ear"
      ],
      [
        "!",
        "!"
      ],
      [
        "i",
        "or"
      ],
      [
        "▁---",
        "-"
      ],
      [
        "▁n",
        "at"
      ],
      [
        "▁_________________________________",
        "________________"
      ],
      [
        ":0",
        "3"
      ],
      [
        "in",
        "k"
      ],
      [
        "▁as",
        "tride"
      ],
      [
        "▁h",
        "ar"
      ],
      [
        "▁del",
        "iver"
      ],
      [
        "?",
        "?"
      ],
      [
        "b",
        "le"
      ],
      [
        "▁t",
        "urn"
      ],
      [
        "▁07/1",
        "7/2000"
      ],
      [
        "▁be",
        "en"
      ],
      [
        "▁195",
        "8"
      ],
      [
        "▁150",
        "4"
      ],
      [
        "▁fi",
        "x"
      ],
      [
        "▁j",
        "ud"
      ],
      [
        "est",
        "er"
      ],
      [
        "▁04",
        "/16/2001"
      ],
      [
        "a",
        "im"
      ],
      [
        "▁18",
        "68"
      ],
      [
        "▁an",
        "al"
      ],
      [
        "▁thir",
        "d"
      ],
      [
        "ar",
        "t"
      ],
      [
        "u",
        "b"
      ],
      [
        "/1",
        "1"
      ],
      [
        "▁26",
        "8"
      ],
      [
        "▁six",
        "ty"
      ],
      [
        "▁",
        "-"
      ],
      [
        "9",
        "/2001"
      ],
      [
        "▁05",
        "/03/2001"
      ],
      [
        "▁huma",
        "ine"
      ],
      [
        "▁sha",
        "ll"
      ],
      [
        "▁s",
        "ur"
      ],
      [
        "ic",
        "ally"
      ],
      [
        "▁t",
        "em"
      ],
      [
        "▁",
        "ident"
      ],
      [
        "e",
        "@enron"
      ],
      [
        "▁191",
        "2"
      ],
      [
        "ros",
        "s"
      ],
      [
        "▁pr",
        "ice"
      ],
      [
        "▁c",
        "reat"
      ],
      [
        "▁im",
        "ag"
      ],
      [
        "▁a",
        "v"
      ],
      [
        "▁des",
        "pite"
      ],
      [
        "▁ar",
        "g"
      ],
      [
        "▁or",
        "gan"
      ],
      [
        "▁st",
        "ar"
      ],
      [
        "▁part",
        "ic"
      ],
      [
        "f",
        "f"
      ],
      [
        "g",
        "ot"
      ],
      [
        "▁50",
        "5"
      ],
      [
        "▁b",
        "ir"
      ],
      [
        "▁11",
        "0"
      ],
      [
        "r",
        "e"
      ],
      [
        "ec",
        "k"
      ],
      [
        "65",
        "-3"
      ],
      [
        "▁g",
        "ot"
      ],
      [
        "4",
        "/2001"
      ],
      [
        "▁12:1",
        "2"
      ],
      [
        "h",
        "ead"
      ],
      [
        "▁80",
        "435"
      ],
      [
        "x",
        "t"
      ],
      [
        "▁th",
        "ing"
      ],
      [
        "▁",
        "£"
      ],
      [
        "a",
        "st"
      ],
      [
        "▁zer",
        "o"
      ],
      [
        "ic",
        "ult"
      ],
      [
        "▁mo",
        "ving"
      ],
      [
        "▁04",
        ":17"
      ],
      [
        "▁l",
        "itt"
      ],
      [
        "▁flo",
        "or"
      ],
      [
        "▁p",
        "ast"
      ],
      [
        "▁7",
        "0"
      ],
      [
        "▁15",
        ",000"
      ],
      [
        "▁re",
        "f"
      ],
      [
        "▁pict",
        "ure"
      ],
      [
        "▁f",
        "air"
      ],
      [
        "▁713-6",
        "54-"
      ],
      [
        "▁f",
        "oc"
      ],
      [
        "▁f",
        "all"
      ],
      [
        "▁3",
        "7"
      ],
      [
        "▁16",
        "13"
      ],
      [
        "▁th",
        "ir"
      ],
      [
        "u",
        "el"
      ],
      [
        "8",
        "19"
      ],
      [
        "7",
        "2"
      ],
      [
        "▁9",
        "8"
      ],
      [
        "▁415.621",
        ".8317"
      ],
      [
        "ent",
        "al"
      ],
      [
        "▁",
        "@"
      ],
      [
        "▁'",
        "0"
      ],
      [
        "▁",
        "+"
      ],
      [
        "▁is",
        "rael"
      ],
      [
        "99",
        "33"
      ],
      [
        "▁w",
        "ay"
      ],
      [
        "▁&",
        "amp"
      ],
      [
        "▁04",
        ":37"
      ],
      [
        "▁'",
        "ll"
      ],
      [
        "▁4",
        ","
      ],
      [
        "▁wh",
        "en"
      ],
      [
        "ar",
        "s"
      ],
      [
        "▁who",
        "ever"
      ],
      [
        "r",
        "act"
      ],
      [
        "▁succ",
        "ess"
      ],
      [
        ":",
        "13"
      ],
      [
        "▁",
        "y"
      ],
      [
        "c",
        "t"
      ],
      [
        "▁12",
        "91"
      ],
      [
        "c",
        "a"
      ],
      [
        "-",
        "20-"
      ],
      [
        "▁7",
        "70"
      ],
      [
        "▁713",
        "/8"
      ],
      [
        "▁05",
        "/30/2001"
      ],
      [
        "▁incl",
        "uding"
      ],
      [
        "▁lea",
        "ve"
      ],
      [
        "op",
        "e"
      ],
      [
        "▁l",
        "a"
      ],
      [
        "▁p",
        "ub"
      ],
      [
        "▁p",
        "ock"
      ],
      [
        "▁ever",
        "y"
      ],
      [
        "▁bo",
        "y"
      ],
      [
        "sel",
        "ves"
      ],
      [
        "▁1.",
        "4"
      ],
      [
        "▁unt",
        "ill"
      ],
      [
        "b",
        "o"
      ],
      [
        "9",
        "9"
      ],
      [
        "49",
        "0"
      ],
      [
        "ar",
        "o"
      ],
      [
        "▁p",
        "ain"
      ],
      [
        "r",
        "or"
      ],
      [
        "▁al",
        "right"
      ],
      [
        "▁d",
        "on"
      ],
      [
        "u",
        "se"
      ],
      [
        "▁g",
        "u"
      ],
      [
        "are",
        "d"
      ],
      [
        "▁beg",
        "an"
      ],
      [
        "8",
        "00"
      ],
      [
        "▁",
        "2"
      ],
      [
        "er",
        "v"
      ],
      [
        "▁go",
        "d"
      ],
      [
        "▁3",
        "47"
      ],
      [
        "re",
        "w"
      ],
      [
        "▁fun",
        "d"
      ],
      [
        "▁sc",
        "ient"
      ],
      [
        "▁re",
        "l"
      ],
      [
        "anc",
        "es"
      ],
      [
        "▁no",
        "se"
      ],
      [
        "om",
        "m"
      ],
      [
        "w",
        "ays"
      ],
      [
        "▁p",
        "ack"
      ],
      [
        ":",
        "42"
      ],
      [
        "▁16",
        ".3"
      ],
      [
        "▁month",
        "s"
      ],
      [
        "s",
        "ix"
      ],
      [
        "▁",
        "d"
      ],
      [
        "▁t",
        "ell"
      ],
      [
        "▁a",
        "n"
      ],
      [
        "▁",
        "“"
      ],
      [
        "▁3",
        "0"
      ],
      [
        "▁5",
        "7"
      ],
      [
        "▁",
        "b"
      ],
      [
        "▁know",
        "n"
      ],
      [
        "▁an",
        "d"
      ],
      [
        "▁f",
        "ire"
      ],
      [
        "53",
        "-3"
      ],
      [
        "5",
        "0"
      ],
      [
        "▁s",
        "h"
      ],
      [
        "▁h",
        "e"
      ],
      [
        "▁con",
        "s"
      ],
      [
        "▁arri",
        "ve"
      ],
      [
        "2",
        "9"
      ],
      [
        "▁pro",
        "ble"
      ],
      [
        "at",
        "ter"
      ],
      [
        "or",
        "row"
      ],
      [
        "▁un",
        "d"
      ],
      [
        "el",
        "e"
      ],
      [
        "▁;",
        ")"
      ],
      [
        "uc",
        "k"
      ],
      [
        "▁5",
        "75"
      ],
      [
        "▁min",
        "us"
      ],
      [
        "▁6",
        "46"
      ],
      [
        "▁14",
        "3"
      ],
      [
        "▁prod",
        "uct"
      ],
      [
        "▁",
        "ir"
      ],
      [
        "▁ch",
        "eap"
      ],
      [
        "▁03/2",
        "7/2001"
      ],
      [
        "▁d",
        "o"
      ],
      [
        "i",
        "ent"
      ],
      [
        "▁twenty-",
        "six"
      ],
      [
        "i",
        "ght"
      ],
      [
        ":3",
        "8"
      ],
      [
        "▁after",
        "noon"
      ],
      [
        "▁19",
        "6"
      ],
      [
        "▁13",
        "00"
      ],
      [
        "▁cre",
        "ate"
      ],
      [
        "▁ch",
        "ick"
      ],
      [
        "▁c",
        "ity"
      ],
      [
        "▁do",
        "cum"
      ],
      [
        "▁ha",
        "lf"
      ],
      [
        "▁6",
        "7"
      ],
      [
        "▁m",
        "in"
      ],
      [
        "▁st",
        "ore"
      ],
      [
        "6",
        "5"
      ],
      [
        "@enron",
        "_de"
      ],
      [
        "h",
        "aps"
      ],
      [
        "▁c",
        "ult"
      ],
      [
        "▁922",
        "1"
      ],
      [
        "▁f",
        "ree"
      ],
      [
        "o",
        "h"
      ],
      [
        "/30",
        "/2001"
      ],
      [
        "▁’",
        "’"
      ],
      [
        "eth",
        "er"
      ],
      [
        "▁pre",
        "t"
      ],
      [
        "-",
        "3"
      ],
      [
        "▁bac",
        "k"
      ],
      [
        "▁seem",
        "s"
      ],
      [
        "▁n",
        "orm"
      ],
      [
        "▁l",
        "ou"
      ],
      [
        ":",
        "27"
      ],
      [
        "▁20",
        "21"
      ],
      [
        "▁forty-",
        "eight"
      ],
      [
        "▁ec",
        "onom"
      ],
      [
        "▁st",
        "e"
      ],
      [
        "▁2",
        ",500"
      ],
      [
        "▁4",
        ".7"
      ],
      [
        "▁val",
        "ue"
      ],
      [
        "▁05",
        "/25/2001"
      ],
      [
        "▁m",
        "u"
      ],
      [
        "▁s",
        "le"
      ],
      [
        "▁h",
        "ere"
      ],
      [
        "▁c",
        "ha"
      ],
      [
        "/2",
        "5/2001"
      ],
      [
        "▁96",
        "9"
      ],
      [
        "k",
        "s"
      ],
      [
        "▁16",
        "6"
      ],
      [
        "d",
        "u"
      ],
      [
        "▁1",
        "/8"
      ],
      [
        "▁l",
        "i"
      ],
      [
        "▁lea",
        "ving"
      ],
      [
        "▁4",
        ":30"
      ],
      [
        "▁r",
        "ich"
      ],
      [
        "e",
        "d"
      ],
      [
        "ag",
        "e"
      ],
      [
        "▁inter",
        "v"
      ],
      [
        "pl",
        "oy"
      ],
      [
        "▁u",
        "m"
      ],
      [
        "▁m",
        "a"
      ],
      [
        "h",
        "o"
      ],
      [
        "▁h",
        "or"
      ],
      [
        "g",
        "o"
      ],
      [
        "▁10/2",
        "0/2000"
      ],
      [
        "er",
        "n"
      ],
      [
        "iz",
        "ation"
      ],
      [
        "▁not",
        "with"
      ],
      [
        "====",
        "===="
      ],
      [
        "▁100",
        ",000"
      ],
      [
        "le",
        "y"
      ],
      [
        "or",
        "d"
      ],
      [
        "▁cop",
        "y"
      ],
      [
        "▁f",
        "ather"
      ],
      [
        "or",
        "ies"
      ],
      [
        "ri",
        "st"
      ],
      [
        "00",
        "0"
      ],
      [
        ":5",
        "2"
      ],
      [
        "er",
        "c"
      ],
      [
        "▁07/1",
        "4/2000"
      ],
      [
        "o",
        "le"
      ],
      [
        "▁9",
        "/11"
      ],
      [
        "▁comp",
        "le"
      ],
      [
        "▁in",
        "to"
      ],
      [
        "▁do",
        "g"
      ],
      [
        "▁w",
        "ork"
      ],
      [
        "▁atl",
        "anta"
      ],
      [
        "it",
        "al"
      ],
      [
        "lik",
        "e"
      ],
      [
        "▁whil",
        "st"
      ],
      [
        "▁rem",
        "ember"
      ],
      [
        "▁l",
        "ake"
      ],
      [
        "▁16",
        "23"
      ],
      [
        "o",
        "p"
      ],
      [
        "8",
        "8"
      ],
      [
        "▁every",
        "one"
      ],
      [
        "▁10",
        "39"
      ],
      [
        "iv",
        "es"
      ],
      [
        "▁1-800",
        "-991-9"
      ],
      [
        "▁2,",
        "300"
      ],
      [
        "▁‘",
        "’"
      ],
      [
        "/0",
        "1"
      ],
      [
        "n",
        "a"
      ],
      [
        "o",
        "g"
      ],
      [
        "▁arri",
        "ving"
      ],
      [
        "▁b",
        "l"
      ],
      [
        "un",
        "d"
      ],
      [
        "▁03",
        ":58"
      ],
      [
        "▁you",
        "r"
      ],
      [
        "▁up",
        "on"
      ],
      [
        "▁v",
        "i"
      ],
      [
        "i",
        "x"
      ],
      [
        "▁ch",
        "eck"
      ],
      [
        "▁",
        "#"
      ],
      [
        "u",
        "ally"
      ],
      [
        "▁190",
        "2"
      ],
      [
        "▁su",
        "mm"
      ],
      [
        "t",
        "t"
      ],
      [
        "t",
        "a"
      ],
      [
        "▁75",
        "9933"
      ],
      [
        "ar",
        "ch"
      ],
      [
        "▁4",
        "5"
      ],
      [
        "▁1",
        "/2"
      ],
      [
        "▁180",
        "5"
      ],
      [
        "▁",
        "enron"
      ],
      [
        "▁me",
        "as"
      ],
      [
        "▁air",
        "port"
      ],
      [
        "▁u",
        "r"
      ],
      [
        "▁maj",
        "or"
      ],
      [
        "▁tor",
        "onto"
      ],
      [
        "s",
        "c"
      ],
      [
        "▁spec",
        "ial"
      ],
      [
        "-",
        "8"
      ],
      [
        "▁en",
        "ough"
      ],
      [
        "▁w",
        "as"
      ],
      [
        "o",
        "on"
      ],
      [
        "▁p",
        "al"
      ],
      [
        "▁th",
        "r"
      ],
      [
        "ac",
        "k"
      ],
      [
        "il",
        "l"
      ],
      [
        "d",
        "s"
      ],
      [
        "▁bir",
        "d"
      ],
      [
        "▁6",
        ".00"
      ],
      [
        "▁inst",
        "ead"
      ],
      [
        "▁u",
        "nd"
      ],
      [
        "▁import",
        "ant"
      ],
      [
        "▁18",
        "88"
      ],
      [
        "4",
        "6"
      ],
      [
        "▁713",
        "-6"
      ],
      [
        "w",
        "au"
      ],
      [
        "a",
        "il"
      ],
      [
        "▁sl",
        "ow"
      ],
      [
        "▁su",
        "cc"
      ],
      [
        "▁4",
        "50"
      ],
      [
        "▁un",
        "les"
      ],
      [
        "r",
        "aph"
      ],
      [
        "▁s",
        "o"
      ],
      [
        "at",
        "ing"
      ],
      [
        "▁h",
        "it"
      ],
      [
        "z",
        "ac"
      ],
      [
        "▁sy",
        "stem"
      ],
      [
        "4-",
        "79"
      ],
      [
        "▁b",
        "re"
      ],
      [
        "▁inter",
        "n"
      ],
      [
        "▁l",
        "ea"
      ],
      [
        "▁co",
        "m"
      ],
      [
        "miss",
        "ion"
      ],
      [
        "▁9",
        "7"
      ],
      [
        "▁m",
        "i"
      ],
      [
        ".7",
        "5"
      ],
      [
        "▁",
        "f"
      ],
      [
        "▁11:3",
        "6"
      ],
      [
        "p",
        "t"
      ],
      [
        "▁",
        "ve"
      ],
      [
        "▁alth",
        "ough"
      ],
      [
        "▁38",
        "89"
      ],
      [
        "▁198",
        "5"
      ],
      [
        "ast",
        "ic"
      ],
      [
        "u",
        "ary"
      ],
      [
        "▁19",
        "1"
      ],
      [
        "819",
        "6021"
      ],
      [
        "i",
        "qu"
      ],
      [
        "ation",
        "al"
      ],
      [
        "▁f",
        "elt"
      ],
      [
        "▁t",
        "ogether"
      ],
      [
        "▁tom",
        "orrow"
      ],
      [
        "▁ro",
        "ad"
      ],
      [
        "▁birth",
        "day"
      ],
      [
        "le",
        "ct"
      ],
      [
        "▁col",
        "lect"
      ],
      [
        "▁p",
        "ost"
      ],
      [
        "▁sh",
        "ip"
      ],
      [
        "▁st",
        "ation"
      ],
      [
        ":0",
        "7"
      ],
      [
        "0",
        "3"
      ],
      [
        "it",
        "y"
      ],
      [
        "▁meth",
        "od"
      ],
      [
        "▁gr",
        "oup"
      ],
      [
        "▁17",
        "5"
      ],
      [
        "▁09",
        ":"
      ],
      [
        "▁c",
        "ook"
      ],
      [
        "and",
        "s"
      ],
      [
        "00",
        "4"
      ],
      [
        "o",
        "o"
      ],
      [
        "▁t",
        "er"
      ],
      [
        "▁19",
        "37"
      ],
      [
        "a",
        "d"
      ],
      [
        "▁pittsbur",
        "gh"
      ],
      [
        "▁st",
        "ud"
      ],
      [
        "▁t",
        "own"
      ],
      [
        "▁comm",
        "on"
      ],
      [
        "▁eight",
        "y"
      ],
      [
        "▁l",
        "et"
      ],
      [
        "▁m",
        "ake"
      ],
      [
        "m",
        "iss"
      ],
      [
        "▁l",
        "ink"
      ],
      [
        "▁d",
        "one"
      ],
      [
        "▁ang",
        "el"
      ],
      [
        "▁for",
        "th"
      ],
      [
        "▁9",
        "47"
      ],
      [
        "▁us",
        "ed"
      ],
      [
        "▁s",
        "at"
      ],
      [
        "ap",
        "er"
      ],
      [
        "▁20",
        "7"
      ],
      [
        "t",
        "i"
      ],
      [
        "it",
        "ies"
      ],
      [
        "▁ir",
        "aq"
      ],
      [
        "as",
        "es"
      ],
      [
        "in",
        "y"
      ],
      [
        "▁",
        "l"
      ],
      [
        "c",
        "ross"
      ],
      [
        "▁",
        "3"
      ],
      [
        "i",
        "z"
      ],
      [
        ":",
        "1"
      ],
      [
        "▁g",
        "et"
      ],
      [
        "a",
        "ir"
      ],
      [
        "▁b",
        "ill"
      ],
      [
        "▁.",
        "?"
      ],
      [
        "et",
        "h"
      ],
      [
        "ar",
        "k"
      ],
      [
        "it",
        "ing"
      ],
      [
        "▁3",
        ".1"
      ],
      [
        "▁pr",
        "op"
      ],
      [
        "/",
        "9"
      ],
      [
        "▁n",
        "'"
      ],
      [
        "oo",
        "t"
      ],
      [
        "e",
        "m"
      ],
      [
        "p",
        "s"
      ],
      [
        "▁any",
        "thing"
      ],
      [
        "▁a",
        "b"
      ],
      [
        "▁bo",
        "dy"
      ],
      [
        "▁156",
        "2"
      ],
      [
        "▁150",
        "5"
      ],
      [
        "enc",
        "es"
      ],
      [
        "re",
        "t"
      ],
      [
        "▁in",
        "v"
      ],
      [
        "▁pol",
        "it"
      ],
      [
        "▁think",
        "ing"
      ],
      [
        "1",
        "-9"
      ],
      [
        "or",
        "m"
      ],
      [
        "▁r",
        "is"
      ],
      [
        "▁11",
        "-20-"
      ],
      [
        "▁e",
        "."
      ],
      [
        "8",
        "10"
      ],
      [
        "▁1",
        "9"
      ],
      [
        "in",
        "d"
      ],
      [
        "▁st",
        "ate"
      ],
      [
        "▁re",
        "pl"
      ],
      [
        "▁m",
        "outh"
      ],
      [
        "▁laur",
        "a"
      ],
      [
        "▁d",
        "ay"
      ],
      [
        "ic",
        "t"
      ],
      [
        "▁en",
        "erg"
      ],
      [
        "i",
        "r"
      ],
      [
        "▁giv",
        "en"
      ],
      [
        "▁un",
        "ivers"
      ],
      [
        "▁tex",
        "as"
      ],
      [
        "▁tu",
        "esday"
      ],
      [
        "itt",
        "ing"
      ],
      [
        "▁hou",
        "se"
      ],
      [
        "▁w",
        "atch"
      ],
      [
        "l",
        "ik"
      ],
      [
        "3",
        "89"
      ],
      [
        "▁",
        "re"
      ],
      [
        "▁do",
        "wn"
      ],
      [
        "▁48",
        "3"
      ],
      [
        "▁23",
        "8"
      ],
      [
        "▁cur",
        "ren"
      ],
      [
        "7",
        "8"
      ],
      [
        "▁al",
        "most"
      ],
      [
        "▁12",
        "00"
      ],
      [
        "c",
        "raft"
      ],
      [
        "ict",
        "ion"
      ],
      [
        "▁charl",
        "otte"
      ],
      [
        "▁159",
        "0"
      ],
      [
        "▁su",
        "ff"
      ],
      [
        "▁196",
        "9"
      ],
      [
        "▁en",
        "ron"
      ],
      [
        ".",
        "9"
      ],
      [
        "▁milwau",
        "kee"
      ],
      [
        "▁800-5",
        "53-3119"
      ],
      [
        "▁3",
        ","
      ],
      [
        "4",
        "1"
      ],
      [
        "▁californ",
        "ia"
      ],
      [
        "▁f",
        "ig"
      ],
      [
        "8196021",
        "75"
      ],
      [
        "▁197",
        "3"
      ],
      [
        "e",
        "l"
      ],
      [
        "▁18",
        "5"
      ],
      [
        "w",
        "ay"
      ],
      [
        "▁ke",
        "y"
      ],
      [
        "▁m",
        "et"
      ],
      [
        "e",
        "r"
      ],
      [
        "▁wi",
        "th"
      ],
      [
        "▁develop",
        "ment"
      ],
      [
        "▁milit",
        "ary"
      ],
      [
        "▁die",
        "go"
      ],
      [
        "-",
        "49"
      ],
      [
        "▁",
        "("
      ],
      [
        "▁?",
        "!"
      ],
      [
        "▁04",
        ":03"
      ],
      [
        "▁10:5",
        "6"
      ],
      [
        "un",
        "ic"
      ],
      [
        "________",
        "__"
      ],
      [
        "re",
        "s"
      ],
      [
        "▁d",
        "ad"
      ],
      [
        "▁",
        "8"
      ],
      [
        "▁fi",
        "le"
      ],
      [
        "▁",
        "—"
      ],
      [
        "▁-",
        "--------------------------------"
      ],
      [
        "e",
        "ther"
      ],
      [
        "▁ask",
        "ed"
      ],
      [
        "▁18",
        "50"
      ],
      [
        "if",
        "y"
      ],
      [
        "▁l",
        "ar"
      ],
      [
        "ic",
        "s"
      ],
      [
        "▁07",
        "/1"
      ],
      [
        "▁33",
        ",000"
      ],
      [
        "▁t",
        "reat"
      ],
      [
        "▁6",
        ".1"
      ],
      [
        "▁are",
        "a"
      ],
      [
        "▁wh",
        "o"
      ],
      [
        "▁12",
        "20"
      ],
      [
        "▁c",
        "op"
      ],
      [
        "7",
        "21"
      ],
      [
        "▁",
        "ill"
      ],
      [
        "k",
        "k"
      ],
      [
        "▁b",
        "est"
      ],
      [
        "▁1.",
        "5"
      ],
      [
        "▁e",
        "m"
      ],
      [
        "at",
        "ic"
      ],
      [
        "▁fam",
        "ily"
      ],
      [
        "▁04",
        ":"
      ],
      [
        "▁k",
        "ind"
      ],
      [
        "▁m",
        "ass"
      ],
      [
        "▁ch",
        "ang"
      ],
      [
        "▁twel",
        "ve"
      ],
      [
        "▁e",
        "ach"
      ],
      [
        "▁mar",
        "ch"
      ],
      [
        "▁201",
        "9"
      ],
      [
        "▁h",
        "and"
      ],
      [
        "▁",
        "'s"
      ],
      [
        "▁avail",
        "able"
      ],
      [
        "________________",
        "________________"
      ],
      [
        "▁",
        "oc"
      ],
      [
        "▁fr",
        "om"
      ],
      [
        "-",
        "7"
      ],
      [
        "▁h",
        "tt"
      ],
      [
        "ri",
        "b"
      ],
      [
        "a",
        "m"
      ],
      [
        "▁exc",
        "ell"
      ],
      [
        "▁fe",
        "et"
      ],
      [
        "▁americ",
        "an"
      ],
      [
        "▁4",
        "2"
      ],
      [
        "▁f",
        "ace"
      ],
      [
        "▁th",
        "ree"
      ],
      [
        "▁j",
        "www"
      ],
      [
        "▁g",
        "ave"
      ],
      [
        ",",
        "7"
      ],
      [
        "▁bl",
        "ack"
      ],
      [
        "▁paren",
        "ts"
      ],
      [
        "▁11",
        "5"
      ],
      [
        "▁xsl",
        "t"
      ],
      [
        "▁u",
        "h"
      ],
      [
        "▁05",
        ":37"
      ],
      [
        "▁aft",
        "er"
      ],
      [
        "▁",
        "es"
      ],
      [
        "▁wh",
        "at"
      ],
      [
        "▁200",
        "7"
      ],
      [
        "▁11",
        ":45"
      ],
      [
        "▁713-654-",
        "03"
      ],
      [
        "▁do",
        "gg"
      ],
      [
        "▁be",
        "low"
      ],
      [
        "▁3",
        ".7"
      ],
      [
        "▁1,",
        "6"
      ],
      [
        "▁st",
        "and"
      ],
      [
        "▁11/7",
        "/08"
      ],
      [
        "▁diff",
        "er"
      ],
      [
        "▁pre",
        "v"
      ],
      [
        "▁to",
        "gether"
      ],
      [
        "▁ch",
        "rist"
      ],
      [
        "▁st",
        "art"
      ],
      [
        "▁veg",
        "as"
      ],
      [
        "▁7",
        "5"
      ],
      [
        "1",
        "7"
      ],
      [
        "▁con",
        "st"
      ],
      [
        "▁’",
        "ll"
      ],
      [
        "▁3",
        ":30"
      ],
      [
        "▁com",
        "e"
      ],
      [
        "c",
        "um"
      ],
      [
        "▁10",
        ":34"
      ],
      [
        "▁o'",
        "clock"
      ],
      [
        "▁seem",
        "ed"
      ],
      [
        "▁15",
        "9"
      ],
      [
        "▁198",
        "2"
      ],
      [
        "▁s",
        "k"
      ],
      [
        "c",
        "c"
      ],
      [
        "▁9",
        "79"
      ],
      [
        "ł",
        "od"
      ],
      [
        "▁12",
        "/26/2000"
      ],
      [
        "a",
        "l"
      ],
      [
        "▁ex",
        "am"
      ],
      [
        "▁bel",
        "ie"
      ],
      [
        "▁10",
        ":25"
      ],
      [
        "igh",
        "t"
      ],
      [
        "g",
        "ed"
      ],
      [
        "▁id",
        "ea"
      ],
      [
        "▁c",
        "our"
      ],
      [
        "a",
        "r"
      ],
      [
        "▁m",
        "ar"
      ],
      [
        "▁s",
        "ite"
      ],
      [
        "▁7",
        "50"
      ],
      [
        "f",
        "i"
      ],
      [
        "k",
        "ed"
      ],
      [
        "▁c",
        "ut"
      ],
      [
        "ill",
        "ion"
      ],
      [
        "3",
        "-3"
      ],
      [
        "▁183",
        "6"
      ],
      [
        "▁5",
        ".3"
      ],
      [
        ".",
        "6"
      ],
      [
        "w",
        "ork"
      ],
      [
        "▁u",
        "p"
      ],
      [
        "3",
        "0"
      ],
      [
        "m",
        "ost"
      ],
      [
        "▁",
        "est"
      ],
      [
        "▁c",
        "ou"
      ],
      [
        "▁",
        "”"
      ],
      [
        "▁uh",
        "h"
      ],
      [
        "▁713",
        "-8"
      ],
      [
        "▁200",
        "0"
      ],
      [
        "▁w",
        "ish"
      ],
      [
        "-9",
        "8"
      ],
      [
        "▁restaur",
        "ant"
      ],
      [
        "▁18",
        "77"
      ],
      [
        "▁c",
        "o"
      ],
      [
        "▁m",
        "oney"
      ],
      [
        "▁sun",
        "day"
      ],
      [
        "▁04",
        "/2"
      ],
      [
        "▁'",
        "'"
      ],
      [
        "▁",
        "ver"
      ],
      [
        "▁281",
        "-44"
      ],
      [
        "at",
        "ure"
      ],
      [
        "▁dr",
        "ink"
      ],
      [
        "▁5",
        "000"
      ],
      [
        "▁3",
        "5"
      ],
      [
        "▁19",
        "43"
      ],
      [
        "▁l",
        "e"
      ],
      [
        "▁4",
        "60"
      ],
      [
        "▁quest",
        "ion"
      ],
      [
        "▁europe",
        "an"
      ],
      [
        "▁en",
        "j"
      ],
      [
        "a",
        "re"
      ],
      [
        "▁se",
        "attle"
      ],
      [
        "▁26",
        "9"
      ],
      [
        "▁800",
        ".713.86"
      ],
      [
        "▁m",
        "ark"
      ],
      [
        "▁girl",
        "s"
      ],
      [
        "5",
        "5"
      ],
      [
        "u",
        "t"
      ],
      [
        "▁r",
        "es"
      ],
      [
        "▁diff",
        "icult"
      ],
      [
        "▁f",
        "ull"
      ],
      [
        "15",
        "-"
      ],
      [
        "l",
        "ess"
      ],
      [
        "▁t",
        "alk"
      ],
      [
        "▁f",
        "am"
      ],
      [
        "▁new",
        "s"
      ],
      [
        "▁8",
        "0"
      ],
      [
        "▁dur",
        "ing"
      ],
      [
        "▁disc",
        "uss"
      ],
      [
        "▁no",
        "t"
      ],
      [
        "g",
        "e"
      ],
      [
        "▁345",
        "-343"
      ],
      [
        "▁",
        "q"
      ],
      [
        "▁50",
        "8"
      ],
      [
        "▁s",
        "im"
      ],
      [
        "▁p",
        "l"
      ],
      [
        "▁g",
        "e"
      ],
      [
        "k",
        "e"
      ],
      [
        "m",
        "y"
      ],
      [
        "▁3",
        "50"
      ],
      [
        "▁j",
        "u"
      ],
      [
        "▁10",
        "7"
      ],
      [
        "▁del",
        "ta"
      ],
      [
        "▁t",
        "en"
      ],
      [
        "▁12",
        ",000"
      ],
      [
        "▁6",
        ":30"
      ],
      [
        "▁m",
        "ed"
      ],
      [
        "/2",
        "000"
      ],
      [
        "▁c",
        "at"
      ],
      [
        "▁follow",
        "ing"
      ],
      [
        "▁9",
        "34"
      ],
      [
        "▁ver",
        "sus"
      ],
      [
        "on",
        "om"
      ],
      [
        "▁55",
        "5"
      ],
      [
        ",000,000",
        ",000"
      ],
      [
        "▁5",
        "6"
      ],
      [
        "▁m",
        "illion"
      ],
      [
        "n",
        "esday"
      ],
      [
        "▁us",
        "ing"
      ],
      [
        "▁b",
        "ott"
      ],
      [
        "▁",
        "ant"
      ],
      [
        "▁di",
        "ff"
      ],
      [
        "▁th",
        "ought"
      ],
      [
        "p",
        "ar"
      ],
      [
        "at",
        "ors"
      ],
      [
        "ant",
        "s"
      ],
      [
        "▁415",
        ".621"
      ],
      [
        "================",
        "================"
      ],
      [
        "▁m",
        "ember"
      ],
      [
        "▁w",
        "ife"
      ],
      [
        "▁5",
        ".8"
      ],
      [
        "u",
        "de"
      ],
      [
        "▁16",
        "00"
      ],
      [
        "j",
        "ects"
      ],
      [
        "▁t",
        "w"
      ],
      [
        "/",
        "30"
      ],
      [
        "▁mil",
        "k"
      ],
      [
        "am",
        "es"
      ],
      [
        "▁alber",
        "ta"
      ],
      [
        "▁",
        "?"
      ],
      [
        "▁2",
        "7"
      ],
      [
        "o",
        "gel"
      ],
      [
        "▁pro",
        "d"
      ],
      [
        "at",
        "es"
      ],
      [
        "▁p",
        "re"
      ],
      [
        "▁56",
        "7.77"
      ],
      [
        "▁ro",
        "b"
      ],
      [
        "▁ou",
        "ts"
      ],
      [
        "u",
        "s"
      ],
      [
        "3",
        "4"
      ],
      [
        "▁41",
        "2"
      ],
      [
        "/",
        "99"
      ],
      [
        "ent",
        "h"
      ],
      [
        "▁200",
        "4"
      ],
      [
        "at",
        "ive"
      ],
      [
        "▁st",
        "ory"
      ],
      [
        "▁6",
        "6"
      ],
      [
        "▁or",
        "ig"
      ],
      [
        "▁1",
        "30"
      ],
      [
        "▁1",
        "-8"
      ],
      [
        "i",
        "le"
      ],
      [
        "▁32",
        "4"
      ],
      [
        "▁d",
        "oo"
      ],
      [
        "▁exce",
        "pt"
      ],
      [
        "a",
        "ur"
      ],
      [
        "▁su",
        "n"
      ],
      [
        "▁ab",
        "s"
      ],
      [
        "▁08",
        "/16"
      ],
      [
        "i",
        "p"
      ],
      [
        "o",
        "st"
      ],
      [
        "/2",
        "6"
      ],
      [
        "ir",
        "l"
      ],
      [
        "/1",
        "0"
      ],
      [
        "▁m",
        "e"
      ],
      [
        "ig",
        "n"
      ],
      [
        "en",
        "ron"
      ],
      [
        "▁f",
        "rench"
      ],
      [
        "i",
        "g"
      ],
      [
        "d",
        "e"
      ],
      [
        "▁b",
        "i"
      ],
      [
        "40",
        "14"
      ],
      [
        "▁f",
        "ro"
      ],
      [
        "▁",
        "<"
      ],
      [
        "g",
        "an"
      ],
      [
        "▁inc",
        "re"
      ],
      [
        "oo",
        "k"
      ],
      [
        "▁happ",
        "en"
      ],
      [
        "!",
        "?"
      ],
      [
        "t",
        "c"
      ],
      [
        "▁183",
        "1"
      ],
      [
        "-6",
        "42"
      ],
      [
        "▁_",
        "____"
      ],
      [
        "▁19",
        "28"
      ],
      [
        "▁play",
        "ing"
      ],
      [
        "▁o",
        "ut"
      ],
      [
        "▁cle",
        "ar"
      ],
      [
        "b",
        "y"
      ],
      [
        "▁4",
        "00"
      ],
      [
        "i",
        "ll"
      ],
      [
        "▁8",
        "4"
      ],
      [
        "▁add",
        "ition"
      ],
      [
        "▁7",
        "30"
      ],
      [
        "is",
        "_0"
      ],
      [
        "ur",
        "s"
      ],
      [
        "▁we",
        "ek"
      ],
      [
        "▁",
        "a"
      ],
      [
        "en",
        "n"
      ],
      [
        "ent",
        "ion"
      ],
      [
        "ke",
        "y"
      ],
      [
        "▁50",
        ",000"
      ],
      [
        "7",
        ".77"
      ],
      [
        "▁",
        "out"
      ],
      [
        "▁langu",
        "age"
      ],
      [
        "ad",
        "elp"
      ],
      [
        "▁17",
        "65"
      ],
      [
        "▁",
        "ans"
      ],
      [
        "ic",
        "k"
      ],
      [
        "▁3",
        ".2"
      ],
      [
        "▁su",
        "pp"
      ],
      [
        "▁wh",
        "ite"
      ],
      [
        "inn",
        "er"
      ],
      [
        "▁ro",
        "om"
      ],
      [
        "▁secur",
        "ity"
      ],
      [
        ".",
        "99"
      ],
      [
        "8",
        "/2001"
      ],
      [
        "p",
        "ed"
      ],
      [
        "▁mo",
        "v"
      ],
      [
        "au",
        "se"
      ],
      [
        "cl",
        "ud"
      ],
      [
        "2",
        "3"
      ],
      [
        "e",
        "p"
      ],
      [
        "▁h",
        "ur"
      ],
      [
        "▁197",
        "7"
      ],
      [
        "▁n",
        "ine"
      ],
      [
        "▁t",
        "ook"
      ],
      [
        "▁pri",
        "v"
      ],
      [
        ":3",
        "9"
      ],
      [
        "-",
        "79"
      ],
      [
        "6",
        "8"
      ],
      [
        "▁345-343",
        "6"
      ],
      [
        "ar",
        "d"
      ],
      [
        ":",
        "40"
      ],
      [
        "u",
        "res"
      ],
      [
        "▁ano",
        "ther"
      ],
      [
        "▁416-8",
        "65-3"
      ],
      [
        "46",
        "1"
      ],
      [
        "t",
        "e"
      ],
      [
        "o",
        "th"
      ],
      [
        "it",
        "ive"
      ],
      [
        "▁betw",
        "een"
      ],
      [
        "▁be",
        "c"
      ],
      [
        "▁wou",
        "d"
      ],
      [
        "▁h",
        "-0"
      ],
      [
        "▁m",
        "or"
      ],
      [
        "▁10",
        ":5"
      ],
      [
        "um",
        "a"
      ],
      [
        "▁6.2",
        ".1"
      ],
      [
        "▁fut",
        "ure"
      ],
      [
        "▁4",
        "20"
      ],
      [
        "▁s",
        "ince"
      ],
      [
        "▁b",
        "ow"
      ],
      [
        "▁17",
        "00"
      ],
      [
        "▁7",
        "2"
      ],
      [
        "▁27",
        "0"
      ],
      [
        "▁2",
        ".00"
      ],
      [
        "in",
        "es"
      ],
      [
        "▁09",
        "/15"
      ],
      [
        "▁sur",
        "pr"
      ],
      [
        "▁dad",
        "dy"
      ],
      [
        "▁198",
        "3"
      ],
      [
        "ow",
        "s"
      ],
      [
        "i",
        "o"
      ],
      [
        "▁l",
        "angu"
      ],
      [
        "▁ch",
        "ina"
      ],
      [
        "▁the",
        "y"
      ],
      [
        "▁0",
        "3"
      ],
      [
        "▁ou",
        "ght"
      ],
      [
        "▁5",
        "1"
      ],
      [
        "▁28",
        ",000"
      ],
      [
        "▁s",
        "an"
      ],
      [
        "unic",
        "ations"
      ],
      [
        "▁10",
        "/31"
      ],
      [
        "▁'",
        "d"
      ],
      [
        "▁in",
        "cl"
      ],
      [
        "p",
        "e"
      ],
      [
        "▁so",
        "on"
      ],
      [
        "▁no",
        "body"
      ],
      [
        "▁bab",
        "y"
      ],
      [
        "▁con",
        "d"
      ],
      [
        "▁air",
        "l"
      ],
      [
        "▁k",
        "h"
      ],
      [
        "▁r",
        "a"
      ],
      [
        "▁repres",
        "ent"
      ],
      [
        "▁",
        "\""
      ],
      [
        "▁9",
        "6"
      ],
      [
        "op",
        "h"
      ],
      [
        "▁s",
        "al"
      ],
      [
        "++",
        "++"
      ],
      [
        "▁20",
        ":00"
      ],
      [
        "8",
        "9"
      ],
      [
        "▁",
        "i"
      ],
      [
        "-5",
        "18"
      ],
      [
        "a",
        "q"
      ],
      [
        "▁hund",
        "red"
      ],
      [
        "▁08",
        "/03"
      ],
      [
        "▁02/2",
        "7/2001"
      ],
      [
        "ve",
        "s"
      ],
      [
        "e",
        "ight"
      ],
      [
        "▁6",
        "1"
      ],
      [
        "▁6871082",
        "#"
      ],
      [
        "ent",
        "ial"
      ],
      [
        "bo",
        "dy"
      ],
      [
        "▁6",
        ".2"
      ],
      [
        "▁01:39",
        ":56"
      ],
      [
        "wh",
        "ere"
      ],
      [
        "▁f",
        "ollow"
      ],
      [
        "▁n",
        "’t"
      ],
      [
        "2",
        "8"
      ],
      [
        "▁franc",
        "isco"
      ],
      [
        "▁r",
        "un"
      ],
      [
        "▁b/",
        "c"
      ],
      [
        "▁16",
        "89"
      ],
      [
        "▁chick",
        "en"
      ],
      [
        "▁re",
        "v"
      ],
      [
        "▁w",
        "ill"
      ],
      [
        "▁es",
        "p"
      ],
      [
        "x",
        "ce"
      ],
      [
        "rou",
        "nd"
      ],
      [
        "▁18",
        "19"
      ],
      [
        "i",
        "at"
      ],
      [
        "▁",
        "ang"
      ],
      [
        "▁ind",
        "ian"
      ],
      [
        "▁thr",
        "u"
      ],
      [
        "▁15",
        "30"
      ],
      [
        "u",
        "ch"
      ],
      [
        "/11",
        "/2004"
      ],
      [
        "▁on",
        "e"
      ],
      [
        "▁e",
        "p"
      ],
      [
        "▁202.456",
        ".1"
      ],
      [
        "▁n",
        "umer"
      ],
      [
        "▁18",
        "43"
      ],
      [
        "▁t",
        "ot"
      ],
      [
        "▁s",
        "it"
      ],
      [
        "▁non",
        "stop"
      ],
      [
        "a",
        "le"
      ],
      [
        "▁",
        "jwww"
      ],
      [
        "▁c",
        "ar"
      ],
      [
        "▁11",
        "60"
      ],
      [
        "▁03/0",
        "8/2000"
      ],
      [
        "h",
        "ing"
      ],
      [
        "▁15",
        "99"
      ],
      [
        "p",
        "or"
      ],
      [
        "▁t",
        "h"
      ],
      [
        "▁transport",
        "ation"
      ],
      [
        "▁hot",
        "el"
      ],
      [
        "a",
        "p"
      ],
      [
        "ure",
        "d"
      ],
      [
        "am",
        "a"
      ],
      [
        "▁17",
        "87"
      ],
      [
        "a",
        "g"
      ],
      [
        "▁pe",
        "ace"
      ],
      [
        "▁sh",
        "a"
      ],
      [
        "▁11/2",
        "9/2000"
      ],
      [
        "▁m",
        "er"
      ],
      [
        "▁wi",
        "l"
      ],
      [
        "id",
        "ed"
      ],
      [
        "re",
        "e"
      ],
      [
        "▁s",
        "uch"
      ],
      [
        "▁wh",
        "e"
      ],
      [
        "▁199",
        "7"
      ],
      [
        "▁158",
        "3"
      ],
      [
        "ri",
        "es"
      ],
      [
        "▁progr",
        "amm"
      ],
      [
        "▁talk",
        "ing"
      ],
      [
        "▁198",
        "8"
      ],
      [
        "al",
        "th"
      ],
      [
        "▁0",
        "8"
      ],
      [
        "h",
        "ip"
      ],
      [
        "▁it",
        "'s"
      ],
      [
        "▁18",
        "00"
      ],
      [
        "ap",
        "h"
      ],
      [
        "ic",
        "e"
      ],
      [
        "ur",
        "ch"
      ],
      [
        "▁t",
        "op"
      ],
      [
        "▁m",
        "il"
      ],
      [
        "▁",
        "********************************"
      ],
      [
        "▁ach",
        "ie"
      ],
      [
        "▁r",
        "ele"
      ],
      [
        "v",
        "iat"
      ],
      [
        "-3",
        "393"
      ],
      [
        "/03",
        "/2001"
      ],
      [
        "an",
        "t"
      ],
      [
        "▁!",
        "!!"
      ],
      [
        "an",
        "a"
      ],
      [
        "p",
        "ort"
      ],
      [
        "r",
        "ight"
      ],
      [
        "l",
        "s"
      ],
      [
        "3",
        "/2000"
      ],
      [
        ":1",
        "8"
      ],
      [
        "▁again",
        "st"
      ],
      [
        "▁>",
        ">"
      ],
      [
        "i",
        "ble"
      ],
      [
        "r",
        "o"
      ],
      [
        "▁al",
        "ways"
      ],
      [
        "n",
        "er"
      ],
      [
        "e",
        "au"
      ],
      [
        "▁hor",
        "se"
      ],
      [
        "7",
        "/2001"
      ],
      [
        "▁apr",
        "il"
      ],
      [
        "ec",
        "h"
      ],
      [
        "▁te",
        "x"
      ],
      [
        "el",
        "p"
      ],
      [
        "▁st",
        "op"
      ],
      [
        "▁3",
        "."
      ],
      [
        "▁wh",
        "ere"
      ],
      [
        "t",
        "er"
      ],
      [
        "▁1.",
        "00"
      ],
      [
        "▁try",
        "ing"
      ],
      [
        "▁24",
        "0"
      ],
      [
        "▁e",
        "ight"
      ],
      [
        "t",
        "own"
      ],
      [
        "▁b",
        "ad"
      ],
      [
        "o",
        "y"
      ],
      [
        "▁re",
        "n"
      ],
      [
        "▁no",
        "-6"
      ],
      [
        "▁x",
        "sl"
      ],
      [
        "op",
        "ment"
      ],
      [
        "al",
        "ys"
      ],
      [
        "▁com",
        "m"
      ],
      [
        "▁her",
        "self"
      ],
      [
        "▁18",
        "20"
      ],
      [
        "end",
        "ing"
      ],
      [
        "▁8",
        "88"
      ],
      [
        "▁k",
        "ansas"
      ],
      [
        "▁pr",
        "act"
      ],
      [
        "▁serv",
        "ice"
      ],
      [
        "▁3",
        "60"
      ],
      [
        "▁54",
        ",000"
      ],
      [
        "▁l",
        "and"
      ],
      [
        "▁202.456",
        ".2461"
      ],
      [
        "▁m",
        "atter"
      ],
      [
        "____",
        "____"
      ],
      [
        "▁s",
        "ing"
      ],
      [
        "▁c",
        "oun"
      ],
      [
        "▁36",
        "6"
      ],
      [
        "▁esp",
        "ec"
      ],
      [
        "▁new",
        "ark"
      ],
      [
        "▁w",
        "est"
      ],
      [
        "▁9",
        "1"
      ],
      [
        "▁h",
        "on"
      ],
      [
        "▁a",
        "t"
      ],
      [
        "▁rec",
        "ord"
      ],
      [
        ":",
        "46"
      ],
      [
        "▁...",
        ".."
      ],
      [
        "▁analys",
        "is_0712"
      ],
      [
        "▁de",
        "al"
      ],
      [
        "ou",
        "t"
      ],
      [
        "▁.",
        ".."
      ],
      [
        "am",
        "i"
      ],
      [
        "▁fri",
        "end"
      ],
      [
        "▁do",
        "ing"
      ],
      [
        "▁o",
        "ften"
      ],
      [
        "▁'",
        "m"
      ],
      [
        ":0",
        "1"
      ],
      [
        ",",
        "000"
      ],
      [
        "▁mil",
        "it"
      ],
      [
        ".7",
        "18"
      ],
      [
        "▁158",
        "8"
      ],
      [
        "ra",
        "ft"
      ],
      [
        "o",
        "b"
      ],
      [
        "▁stud",
        "y"
      ],
      [
        "ro",
        "d"
      ],
      [
        "▁'",
        "ve"
      ],
      [
        "▁look",
        "ing"
      ],
      [
        "-",
        "27"
      ],
      [
        "▁3",
        "/4"
      ],
      [
        "▁count",
        "ry"
      ],
      [
        "▁week",
        "s"
      ],
      [
        "▁19",
        "0"
      ],
      [
        "▁ag",
        "e"
      ],
      [
        "▁4",
        ":00"
      ],
      [
        ",5",
        "00"
      ],
      [
        "▁wh",
        "ole"
      ],
      [
        "-",
        "n"
      ],
      [
        "▁4",
        "10"
      ],
      [
        "is",
        "s"
      ],
      [
        "▁o",
        "k"
      ],
      [
        "▁p",
        "a"
      ],
      [
        "7",
        "9"
      ],
      [
        "▁12",
        "/2"
      ],
      [
        "▁a",
        "cc"
      ],
      [
        "▁11",
        "3"
      ],
      [
        "ic",
        "al"
      ],
      [
        "▁40",
        "5"
      ],
      [
        "▁v",
        "is"
      ],
      [
        "▁8",
        "32"
      ],
      [
        "pp",
        "ed"
      ],
      [
        "▁orland",
        "o"
      ],
      [
        "▁sm",
        "all"
      ],
      [
        "▁t",
        "ou"
      ],
      [
        "▁20",
        "1"
      ],
      [
        "▁uhh",
        "uh"
      ],
      [
        "▁pres",
        "ident"
      ],
      [
        "▁v",
        "iew"
      ],
      [
        "-",
        "6"
      ],
      [
        "▁t",
        "o"
      ],
      [
        "▁long",
        "er"
      ],
      [
        "▁300",
        ",000"
      ],
      [
        "▁g",
        "ood"
      ],
      [
        "▁16",
        "0"
      ],
      [
        "▁7",
        "3"
      ],
      [
        "ol",
        "d"
      ],
      [
        ",9",
        "50"
      ],
      [
        "----",
        "--"
      ],
      [
        "ap",
        "s"
      ],
      [
        "▁do",
        "ct"
      ],
      [
        "▁3",
        "43"
      ],
      [
        "!!!!",
        "!!!!"
      ],
      [
        "s",
        "h"
      ],
      [
        "▁8",
        ":30"
      ],
      [
        "▁",
        "zer"
      ],
      [
        "▁177",
        "7"
      ],
      [
        "se",
        "l"
      ],
      [
        "▁2",
        ","
      ],
      [
        "▁a",
        "s"
      ],
      [
        ",",
        "6"
      ],
      [
        "▁03",
        ":00"
      ],
      [
        "▁",
        "9"
      ],
      [
        ":",
        "0"
      ],
      [
        ".8",
        "6"
      ],
      [
        "ww",
        "w"
      ],
      [
        "??",
        "??"
      ],
      [
        "▁in",
        "form"
      ],
      [
        "▁c",
        "ould"
      ],
      [
        "20",
        "1"
      ],
      [
        "▁22",
        "5"
      ],
      [
        "▁hur",
        "t"
      ],
      [
        "▁r",
        "uss"
      ],
      [
        "u",
        "ed"
      ],
      [
        "▁admin",
        "ist"
      ],
      [
        "▁tr",
        "illion"
      ],
      [
        "3",
        "5"
      ],
      [
        "1",
        "6"
      ],
      [
        "r",
        "os"
      ],
      [
        "▁200",
        "5"
      ],
      [
        "▁toward",
        "s"
      ],
      [
        "▁ch",
        "icago"
      ],
      [
        "ir",
        "on"
      ],
      [
        "▁150",
        ",000"
      ],
      [
        "▁sch",
        "ool"
      ],
      [
        "▁b",
        "n"
      ],
      [
        "▁3",
        "00"
      ],
      [
        "en",
        "se"
      ],
      [
        "2",
        "7"
      ],
      [
        "▁it",
        "self"
      ],
      [
        "16",
        ".718"
      ],
      [
        "▁c",
        "or"
      ],
      [
        "▁08",
        ":50"
      ],
      [
        "▁s",
        "omet"
      ],
      [
        "ag",
        "o"
      ],
      [
        "▁f",
        "ish"
      ],
      [
        "▁w",
        "in"
      ],
      [
        "▁do",
        "zen"
      ],
      [
        "u",
        "c"
      ],
      [
        "▁gu",
        "ys"
      ],
      [
        "▁[",
        "..."
      ],
      [
        "/16",
        "/2001"
      ],
      [
        "▁av",
        "ail"
      ],
      [
        "▁70",
        "3"
      ],
      [
        "▁",
        "v"
      ],
      [
        "▁4",
        "25"
      ],
      [
        "att",
        "le"
      ],
      [
        "▁'",
        "re"
      ],
      [
        "▁pro",
        "gr"
      ],
      [
        "▁201",
        "3"
      ],
      [
        "▁713-654-",
        "128"
      ],
      [
        "+",
        "+"
      ],
      [
        "g",
        "r"
      ],
      [
        "▁8",
        "5"
      ],
      [
        "▁our",
        "s"
      ],
      [
        "▁p",
        "i"
      ],
      [
        "▁g",
        "r"
      ],
      [
        "j",
        "ect"
      ],
      [
        "em",
        "ent"
      ],
      [
        "▁c",
        "an"
      ],
      [
        "▁2",
        ".9"
      ],
      [
        "▁189",
        "2"
      ],
      [
        "▁litt",
        "le"
      ],
      [
        "▁3",
        "/9"
      ],
      [
        "▁w",
        "a"
      ],
      [
        "oo",
        "d"
      ],
      [
        "▁505",
        "-625"
      ],
      [
        "▁21",
        "7"
      ],
      [
        "▁call",
        "ed"
      ],
      [
        "▁airl",
        "ine"
      ],
      [
        "▁st",
        "at"
      ],
      [
        "▁s",
        "ound"
      ],
      [
        "▁s",
        "m"
      ],
      [
        "▁pres",
        "ent"
      ],
      [
        "▁sa",
        "w"
      ],
      [
        "4",
        "0"
      ],
      [
        "▁1160",
        "8"
      ],
      [
        "er",
        "s"
      ],
      [
        "▁18",
        ",000"
      ],
      [
        "▁c",
        "al"
      ],
      [
        "u",
        "e"
      ],
      [
        "▁7",
        "8"
      ],
      [
        "▁3",
        "20"
      ],
      [
        "▁2",
        ".3"
      ],
      [
        "▁196",
        "8"
      ],
      [
        "▁64",
        "00"
      ],
      [
        "▁kid",
        "s"
      ],
      [
        "▁8",
        "50"
      ],
      [
        "▁6",
        "19"
      ],
      [
        "▁12",
        "9"
      ],
      [
        "▁11",
        ":3"
      ],
      [
        "18",
        "3"
      ],
      [
        "________",
        "________"
      ],
      [
        "e",
        "ad"
      ],
      [
        "g",
        "ami"
      ],
      [
        "▁f",
        "ly"
      ],
      [
        "▁2",
        ".7"
      ],
      [
        "▁ab",
        "e"
      ],
      [
        "▁",
        "ro"
      ],
      [
        "@enron_de",
        "velopment"
      ],
      [
        "▁somet",
        "hing"
      ],
      [
        "▁s",
        "’"
      ],
      [
        "@",
        "ect"
      ],
      [
        "▁p",
        "age"
      ],
      [
        "▁t",
        "ri"
      ],
      [
        "▁on",
        "ce"
      ],
      [
        "▁2",
        ":30"
      ],
      [
        "ver",
        "n"
      ],
      [
        "f",
        "er"
      ],
      [
        "v",
        "ing"
      ],
      [
        "▁j",
        "e"
      ],
      [
        "o",
        "ve"
      ],
      [
        "ea",
        "k"
      ],
      [
        "▁+",
        "45"
      ],
      [
        "43",
        "5"
      ],
      [
        "▁gener",
        "al"
      ],
      [
        "▁c",
        "it"
      ],
      [
        "7",
        "6"
      ],
      [
        "▁qu",
        "ite"
      ],
      [
        "__",
        "__"
      ],
      [
        "▁st",
        "ep"
      ],
      [
        "-",
        "1"
      ],
      [
        "▁partic",
        "ip"
      ],
      [
        "▁uh",
        "huh"
      ],
      [
        "▁8",
        "14"
      ],
      [
        "are",
        "n"
      ],
      [
        "s",
        "s"
      ],
      [
        "▁6",
        "00"
      ],
      [
        "85",
        "49"
      ],
      [
        "at",
        "ions"
      ],
      [
        "▁l",
        "ess"
      ],
      [
        "▁bec",
        "ause"
      ],
      [
        "▁n",
        "on"
      ],
      [
        "5",
        "87"
      ],
      [
        "▁s",
        "l"
      ],
      [
        "i",
        "st"
      ],
      [
        "▁h",
        "elp"
      ],
      [
        "▁m",
        "r"
      ],
      [
        "▁",
        "n"
      ],
      [
        "/1",
        "5"
      ],
      [
        "id",
        "d"
      ],
      [
        "▁o",
        "'"
      ],
      [
        ",",
        "1"
      ],
      [
        "s",
        "o"
      ],
      [
        "▁alread",
        "y"
      ],
      [
        "ard",
        "s"
      ],
      [
        "▁lou",
        "is"
      ],
      [
        "d",
        "r"
      ],
      [
        "▁ex",
        "ist"
      ],
      [
        "on",
        "t"
      ],
      [
        "▁201",
        "8"
      ],
      [
        "▁h",
        "ol"
      ],
      [
        "ud",
        "e"
      ],
      [
        ".123",
        "4"
      ],
      [
        "id",
        "ing"
      ],
      [
        "5",
        "8"
      ],
      [
        "▁m",
        "en"
      ],
      [
        "▁count",
        "ries"
      ],
      [
        "▁w",
        "i"
      ],
      [
        "1",
        "1"
      ],
      [
        "▁19",
        "29"
      ],
      [
        "o",
        "l"
      ],
      [
        "▁11",
        ",000"
      ],
      [
        "▁l",
        "ook"
      ],
      [
        "▁gu",
        "y"
      ],
      [
        "▁ne",
        "ver"
      ],
      [
        "▁a",
        "ch"
      ],
      [
        "a",
        "use"
      ],
      [
        "▁l",
        "ear"
      ],
      [
        "c",
        "ond"
      ],
      [
        "▁p",
        "ers"
      ],
      [
        "13",
        ".86"
      ],
      [
        "▁d",
        "es"
      ],
      [
        "▁la",
        "w"
      ],
      [
        "▁170",
        "9"
      ],
      [
        "▁stre",
        "et"
      ],
      [
        "▁off",
        "ice"
      ],
      [
        "ro",
        "l"
      ],
      [
        "▁be",
        "ach"
      ],
      [
        "4",
        "4"
      ],
      [
        "▁work",
        "s"
      ],
      [
        "▁7",
        "18"
      ],
      [
        "22",
        ",000"
      ],
      [
        "▁http",
        "://"
      ],
      [
        "th",
        "ers"
      ],
      [
        "▁pro",
        "p"
      ],
      [
        "▁nine",
        "teen"
      ],
      [
        "▁",
        "!"
      ],
      [
        "i",
        "th"
      ],
      [
        "t",
        "een"
      ],
      [
        "▁min",
        "utes"
      ],
      [
        "▁des",
        "c"
      ],
      [
        "▁when",
        "ever"
      ],
      [
        "m",
        "in"
      ],
      [
        "▁pho",
        "enix"
      ],
      [
        "it",
        "ions"
      ],
      [
        "im",
        "e"
      ],
      [
        "39",
        "3"
      ],
      [
        "▁whi",
        "ch"
      ],
      [
        "▁j",
        "an"
      ],
      [
        "▁c",
        "ent"
      ],
      [
        "▁l",
        "ater"
      ],
      [
        "▁11",
        "10"
      ],
      [
        "▁am",
        "ount"
      ],
      [
        "on",
        "s"
      ],
      [
        "ol",
        "l"
      ],
      [
        "▁ninety",
        "-n"
      ],
      [
        "▁800",
        "-5"
      ],
      [
        "▁510",
        "-642"
      ],
      [
        "o",
        "re"
      ],
      [
        "_",
        "de"
      ],
      [
        "▁em",
        "ail"
      ],
      [
        "▁lo",
        "st"
      ],
      [
        "▁’",
        "d"
      ],
      [
        "▁de",
        "m"
      ],
      [
        "▁mon",
        "t"
      ],
      [
        "▁be",
        "yond"
      ],
      [
        "▁de",
        "f"
      ],
      [
        "**",
        "**"
      ],
      [
        "ort",
        "un"
      ],
      [
        "▁m",
        "ess"
      ],
      [
        "▁d",
        "est"
      ],
      [
        "m",
        "a"
      ],
      [
        "▁197",
        "6"
      ],
      [
        "▁g",
        "ive"
      ],
      [
        "r",
        "ide"
      ],
      [
        "▁my",
        "self"
      ],
      [
        "r",
        "ed"
      ],
      [
        "▁want",
        "s"
      ],
      [
        "is",
        "k"
      ],
      [
        "▁b",
        "ab"
      ],
      [
        "p",
        "r"
      ],
      [
        "▁!!!",
        "!!!!"
      ],
      [
        "▁re",
        "se"
      ],
      [
        "al",
        "f"
      ],
      [
        "▁soc",
        "ial"
      ],
      [
        "t",
        "w"
      ],
      [
        "l",
        "ed"
      ],
      [
        "▁02",
        "/13/2001"
      ],
      [
        "▁sp",
        "ace"
      ],
      [
        "re",
        "m"
      ],
      [
        "/",
        "7"
      ],
      [
        "▁your",
        "self"
      ],
      [
        "▁fe",
        "w"
      ],
      [
        "▁3",
        ",000"
      ],
      [
        "▁25",
        "0"
      ],
      [
        "5",
        "4-"
      ],
      [
        "▁th",
        "y"
      ],
      [
        "▁la",
        "ur"
      ],
      [
        "▁cl",
        "oth"
      ],
      [
        "▁1.",
        "25"
      ],
      [
        "▁polic",
        "y"
      ],
      [
        "3",
        "2"
      ],
      [
        "7",
        "1"
      ],
      [
        "5",
        ",000"
      ],
      [
        "▁10",
        "1"
      ],
      [
        "u",
        "mer"
      ],
      [
        "iz",
        "ed"
      ],
      [
        "i",
        "an"
      ],
      [
        "▁h",
        "ad"
      ],
      [
        "n",
        "ess"
      ],
      [
        "▁ear",
        "th"
      ],
      [
        "▁1",
        "7"
      ],
      [
        "▁aw",
        "ay"
      ],
      [
        "▁fa",
        "res"
      ],
      [
        "▁in",
        "t"
      ],
      [
        "▁l",
        "ot"
      ],
      [
        "ro",
        "ss"
      ],
      [
        "c",
        "h"
      ],
      [
        "▁p",
        "ull"
      ],
      [
        "▁hav",
        "ing"
      ],
      [
        "▁03/0",
        "9/2000"
      ],
      [
        "▁ta",
        "x"
      ],
      [
        "▁r",
        "e"
      ],
      [
        "▁com",
        "p"
      ],
      [
        "▁de",
        "ath"
      ],
      [
        "i",
        "al"
      ],
      [
        "▁te",
        "h"
      ],
      [
        "▁col",
        "or"
      ],
      [
        "▁fift",
        "y"
      ],
      [
        "▁415.782",
        ".7822"
      ],
      [
        "▁me",
        "et"
      ],
      [
        "al",
        "l"
      ],
      [
        "▁f",
        "ill"
      ],
      [
        "▁t",
        "ast"
      ],
      [
        "▁3,202",
        ".61"
      ],
      [
        "▁ple",
        "ase"
      ],
      [
        "▁li",
        "fe"
      ],
      [
        "▁3",
        ":00"
      ],
      [
        "▁8",
        "2"
      ],
      [
        "/26",
        "/2000"
      ],
      [
        "▁2",
        "1"
      ],
      [
        "▁24",
        ".7"
      ],
      [
        "▁",
        "j"
      ],
      [
        "▁p",
        "ress"
      ],
      [
        "g",
        "h"
      ],
      [
        "▁b",
        "ag"
      ],
      [
        "▁196",
        "7"
      ],
      [
        "l",
        "e"
      ],
      [
        ".",
        "7"
      ],
      [
        "ut",
        "e"
      ],
      [
        "▁h",
        "im"
      ],
      [
        "▁500",
        "00"
      ],
      [
        "▁n",
        "ow"
      ],
      [
        "▁bir",
        "th"
      ],
      [
        "▁00",
        "0010"
      ],
      [
        "▁en",
        "s"
      ],
      [
        "▁o",
        "il"
      ],
      [
        "▁i",
        "f"
      ],
      [
        "2",
        "/2001"
      ],
      [
        "▁t",
        "im"
      ],
      [
        "▁:",
        "("
      ],
      [
        "▁th",
        "urs"
      ],
      [
        "▁thirty",
        "-"
      ],
      [
        "3-3",
        "744"
      ],
      [
        "▁tw",
        "el"
      ],
      [
        "▁tim",
        "e"
      ],
      [
        "▁do",
        "es"
      ],
      [
        "▁b",
        "el"
      ],
      [
        "▁sev",
        "enth"
      ],
      [
        "▁d",
        "ays"
      ],
      [
        "iz",
        "e"
      ],
      [
        "▁e",
        "as"
      ],
      [
        "is",
        "ed"
      ],
      [
        "u",
        "ding"
      ],
      [
        "an",
        "c"
      ],
      [
        "▁per",
        "f"
      ],
      [
        "▁p",
        "lus"
      ],
      [
        "▁est",
        "ablish"
      ],
      [
        "▁de",
        "re"
      ],
      [
        "▁nine",
        "ty"
      ],
      [
        "▁",
        "$"
      ],
      [
        "▁9",
        "28"
      ],
      [
        "▁18",
        "22"
      ],
      [
        "▁",
        "…"
      ],
      [
        "▁!!!",
        "!!!!!!!!"
      ],
      [
        "▁19",
        "32"
      ],
      [
        "▁d",
        "in"
      ],
      [
        "▁in",
        "s"
      ],
      [
        "▁re",
        "qu"
      ],
      [
        "▁fi",
        "ve"
      ],
      [
        "is",
        "c"
      ],
      [
        "▁an",
        "y"
      ],
      [
        "▁eng",
        "lish"
      ],
      [
        "g",
        "le"
      ],
      [
        "▁abo",
        "ard"
      ],
      [
        "▁one",
        "self"
      ],
      [
        "▁un",
        "ited"
      ],
      [
        "▁d",
        "u"
      ],
      [
        "▁06",
        "/01/2001"
      ],
      [
        "ow",
        "er"
      ],
      [
[...]
