{
  "version": "1.0",
  "truncation": null,
  "padding": null,
  "added_tokens": [
    {
      "id": 4099,
      "content": "[UNK]",
      "single_word": false,
      "lstrip": false,
      "rstrip": false,
      "normalized": false,
      "special": true
    },
    {
      "id": 4472,
      "content": "[CLS]",
      "single_word": false,
      "lstrip": false,
      "rstrip": false,
      "normalized": false,
      "special": true
    },
    {
      "id": 4632,
      "content": "[SEP]",
      "single_word": false,
      "lstrip": false,
      "rstrip": false,
      "normalized": false,
      "special": true
    },
    {
      "id": 6892,
      "content": "[MASK]",
      "single_word": false,
      "lstrip": false,
      "rstrip": false,
      "normalized": false,
      "special": true
    },
    {
      "id": 8048,
      "content": "[PAD]",
      "single_word": false,
      "lstrip": false,
      "rstrip": false,
      "normalized": false,
      "special": true
    }
  ],
  "normalizer": {
    "type": "Sequence",
    "normalizers": [
      {
        "type": "NFD"
      },
      {
        "type": "Lowercase"
      },
      {
        "type": "StripAccents"
      }
    ]
  },
  "pre_tokenizer": {
    "type": "Sequence",
    "pretokenizers": [
      {
        "type": "Metaspace",
        "replacement": "▁",
        "prepend_scheme": "always",
        "split": true
      }
    ]
  },
  "post_processor": {
    "type": "TemplateProcessing",
    "single": [
      {
        "SpecialToken": {
          "id": "[CLS]",
          "type_id": 0
        }
      },
      {
        "Sequence": {
          "id": "A",
          "type_id": 0
        }
      },
      {
        "SpecialToken": {
          "id": "[SEP]",
          "type_id": 0
        }
      }
    ],
    "pair": [
      {
        "SpecialToken": {
          "id": "[CLS]",
          "type_id": 0
        }
      },
      {
        "Sequence": {
          "id": "A",
          "type_id": 0
        }
      },
      {
        "SpecialToken": {
          "id": "[SEP]",
          "type_id": 0
        }
      },
      {
        "Sequence": {
          "id": "B",
          "type_id": 1
        }
      },
      {
        "SpecialToken": {
          "id": "[SEP]",
          "type_id": 1
        }
      }
    ],
    "special_tokens": {
      "[CLS]": {
        "id": "[CLS]",
        "ids": [
          4472
        ],
        "tokens": [
          "[CLS]"
        ]
      },
      "[SEP]": {
        "id": "[SEP]",
        "ids": [
          4632
        ],
        "tokens": [
          "[SEP]"
        ]
      }
    }
  },
  "decoder": {
    "type": "Metaspace",
    "replacement": "▁",
    "prepend_scheme": "always",
    "split": true
  },
  "model": {
    "type": "Unigram",
    "unk_id": 4099,
    "vocab": [
      [
        "▁radio",
        -10.00022604922527
      ],
      [
        "▁counsel",
        -10.306999286176705
      ],
      [
        "▁fox",
        -10.363162515800607
      ],
      [
        "▁twel",
        -10.421944521785559
      ],
      [
        "▁750",
        -12.229681738664153
      ],
      [
        "▁selection",
        -10.028260337779535
      ],
      [
        "远",
        -12.833785825435129
      ],
      [
        "▁universit",
        -8.24915940145177
      ],
      [
        "59,",
        -14.128729149811772
      ],
      [
        "?!?!",
        -12.18932764104613
      ],
      [
        "▁cross-",
        -10.823791946579682
      ],
      [
        "373",
        -11.658286692588108
      ],
      [
        "▁scholar",
        -10.349349034379241
      ],
      [
        "183",
        -12.30278992028547
      ],
      [
        "och",
        -10.365450393427366
      ],
      [
        "▁subsequent",
        -10.156748647006356
      ],
      [
        "**********",
        -11.222325853193087
      ],
      [
        "▁director",
        -9.304799771102093
      ],
      [
        "adelphi",
        -7.017308035160546
      ],
      [
        "▁sudden",
        -9.190705426951736
      ],
      [
        "▁tower",
        -10.074424294905043
      ],
      [
        "▁pollut",
        -10.399422489807522
      ],
      [
        "▁leak",
        -10.782732120926237
      ],
      [
        "▁5.",
        -12.276806535242752
      ],
      [
        "▁angle",
        -10.707286844098736
      ],
      [
        "▁stick",
        -9.037761035082507
      ],
      [
        "▁flourish",
        -11.084465176906907
      ],
      [
        "▁05:",
        -13.864709534199491
      ],
      [
        "▁welcom",
        -11.01712026475972
      ],
      [
        "▁international",
        -8.068712708003428
      ],
      [
        "▁bo",
        -11.551938346342482
      ],
      [
        "▁majorit",
        -9.801393465139597
      ],
      [
        ")",
        -11.209250208901656
      ],
      [
        "thailand",
        -10.599268146623348
      ],
      [
        "▁tha",
        -4.704439761942432
      ],
      [
        "▁66",
        -12.565870066596311
      ],
      [
        "▁crucial",
        -10.204367698919711
      ],
      [
        "249",
        -14.261623159528837
      ],
      [
        "▁remove",
        -9.406550559239609
      ],
      [
        "cin",
        -12.841946993867692
      ],
      [
        "▁1.6",
        -12.34208568727186
      ],
      [
        "▁guarant",
        -11.0818576984041
      ],
      [
        "▁cutting",
        -9.718855201826862
      ],
      [
        "▁key",
        -8.484768462327857
      ],
      [
        "▁close",
        -7.686725103817867
      ],
      [
        "▁dollar",
        -8.217972870313835
      ],
      [
        "▁plan",
        -8.239561364058881
      ],
      [
        "▁inspector",
        -11.084668990059136
      ],
      [
        "pace",
        -10.307700526706341
      ],
      [
        "▁explorer",
        -10.31426851876181
      ],
      [
        "▁row",
        -9.336530411291363
      ],
      [
        "▁teh",
        -10.887363028096276
      ],
      [
        "▁ethic",
        -10.790297215860974
      ],
      [
        "ori",
        -10.740347578746338
      ],
      [
        "▁im",
        -9.236361427619972
      ],
      [
        "▁hire",
        -10.011991560923857
      ],
      [
        "▁hobb",
        -10.84945128485452
      ],
      [
        "▁judge",
        -9.378819642807517
      ],
      [
        "▁tooth",
        -10.615617675630658
      ],
      [
        "▁responsibilit",
        -9.322902013417542
      ],
      [
        "▁pre-",
        -10.18933125995792
      ],
      [
        "▁2.",
        -12.031407598511363
      ],
      [
        "859",
        -12.901515156474916
      ],
      [
        "山",
        -12.833785825435129
      ],
      [
        "firefox",
        -10.698896977054662
      ],
      [
        "▁infection",
        -10.874337936445944
      ],
      [
        "▁theor",
        -8.743017175975568
      ],
      [
        "▁bio",
        -10.289524882144223
      ],
      [
        "▁communication",
        -9.500328840337204
      ],
      [
        "▁mathematic",
        -9.705997462717797
      ],
      [
        "▁allergi",
        -10.698965033903516
      ],
      [
        "▁muc",
        -6.86389713462494
      ],
      [
        "ove",
        -12.445527802350513
      ],
      [
        "▁militar",
        -8.459025526855871
      ],
      [
        "eta",
        -11.965038771244686
      ],
      [
        "▁just",
        -5.912600459585355
      ],
      [
        "▁another",
        -7.52354668913458
      ],
      [
        "ive",
        -7.438170158579914
      ],
      [
        "▁cough",
        -10.89356251595644
      ],
      [
        "▁clock",
        -9.991985763781523
      ],
      [
        "ill",
        -8.774958342675319
      ],
      [
        "149",
        -13.721615169170054
      ],
      [
        "1-",
        -13.88331746913178
      ],
      [
        "▁stay",
        -7.647084889668953
      ],
      [
        "▁hir",
        -10.598860807369347
      ],
      [
        "▁lantern",
        -10.78223061098274
      ],
      [
        "..",
        -11.613151332723893
      ],
      [
        "ward",
        -11.834056055878488
      ],
      [
        "ting",
        -12.485813309269615
      ],
      [
        "born",
        -10.67360449320501
      ],
      [
        "▁incite",
        -10.699561365519338
      ],
      [
        "abou",
        -9.432236889204198
      ],
      [
        "zem",
        -10.982531757811765
      ],
      [
        "▁day",
        -6.4996563366351685
      ],
      [
        "m",
        -6.691091665117427
      ],
      [
        "▁congratulation",
        -10.873139097778692
      ],
      [
        "96",
        -11.613919797726455
      ],
      [
        "▁4.",
        -14.174409290499899
      ],
      [
        "▁serious",
        -8.676295616756452
      ],
      [
        "ye",
        -12.846015260932822
      ],
      [
        "▁the",
        -3.2262610317436575
      ],
      [
        "▁!!!!",
        -9.884799963893974
      ],
      [
        "▁nu",
        -10.421026734128361
      ],
      [
        "▁been",
        -9.488493653627522
      ],
      [
        "..........",
        -12.171017982803662
      ],
      [
        "ban",
        -9.460161785489724
      ],
      [
        "▁possibl",
        -7.830274572840533
      ],
      [
        "▁inspir",
        -10.721101419095904
      ],
      [
        "▁enterprise",
        -10.873139102883327
      ],
      [
        "/21/200",
        -13.001555604525423
      ],
      [
        "▁physical",
        -9.627548393460176
      ],
      [
        "▁borrow",
        -10.709861872212494
      ],
      [
        "▁jurisdiction",
        -10.973139098353004
      ],
      [
        "▁por",
        -10.708454461439379
      ],
      [
        "ur",
        -10.506677442453604
      ],
      [
        "▁profit",
        -9.843593598315014
      ],
      [
        "▁wa",
        -11.753053668244322
      ],
      [
        "▁hurry",
        -9.910946570297073
      ],
      [
        "▁67",
        -11.6889463992993
      ],
      [
        "58",
        -11.951611418715437
      ],
      [
        "▁min",
        -12.218398821156091
      ],
      [
        "▁refrigerator",
        -10.362554829105239
      ],
      [
        "oid",
        -11.10622445557161
      ],
      [
        "▁419",
        -13.991564203358172
      ],
      [
        "▁regret",
        -10.156748692735986
      ],
      [
        "▁pub",
        -10.782891372020536
      ],
      [
        "you",
        -7.21641018486248
      ],
      [
        "ssi",
        -11.28931369261818
      ],
      [
        "▁sevent",
        -8.595048201353778
      ],
      [
        "▁130",
        -11.55962494378083
      ],
      [
        "▁creature",
        -10.873491934802917
      ],
      [
        "est",
        -12.803706590367392
      ],
      [
        "▁writing",
        -8.753251270652196
      ],
      [
        "▁12/26/200",
        -12.666535639137336
      ],
      [
        "▁conservative",
        -10.62197359668251
      ],
      [
        "/2005.09/200509",
        -10.873139097778202
      ],
      [
        "▁disturb",
        -10.782230017059518
      ],
      [
        "▁quixot",
        -10.782230107113012
      ],
      [
        "berr",
        -10.776528224324034
      ],
      [
        "▁destroy",
        -9.683897589894258
      ],
      [
        "202.6",
        -12.915949819819229
      ],
      [
        "▁10.9",
        -13.49551542024026
      ],
      [
        "▁sh",
        -10.592138988891902
      ],
      [
        "▁provider",
        -10.9568341609857
      ],
      [
        "▁where",
        -8.802452388749018
      ],
      [
        "▁121",
        -14.581591867325715
      ],
      [
        "36",
        -11.65262285376474
      ],
      [
        "▁carpet",
        -10.873177596365458
      ],
      [
        "▁badge",
        -11.10199561813052
      ],
      [
        "▁show",
        -5.970318070480243
      ],
      [
        "eenth",
        -9.71809106585776
      ],
      [
        "▁method",
        -8.839900117692412
      ],
      [
        "▁knot",
        -10.699301809641248
      ],
      [
        "tw",
        -10.822631328216058
      ],
      [
        "ab",
        -12.134109862263205
      ],
      [
        "5/",
        -12.852576072044881
      ],
      [
        "bun",
        -10.560419836200156
      ],
      [
        "ml",
        -12.717349243513349
      ],
      [
        "▁percent",
        -9.263883381406046
      ],
      [
        "▁coal",
        -10.084904259302753
      ],
      [
        "▁4",
        -10.546337851859159
      ],
      [
        "▁vacu",
        -10.973253659171904
      ],
      [
        "▁dr",
        -9.858773018326904
      ],
      [
        "▁swimm",
        -9.987172226305304
      ],
      [
        "art",
        -13.09379638849015
      ],
      [
        "▁+45",
        -12.642880847425277
      ],
      [
        "▁authorit",
        -9.196082780009075
      ],
      [
        "▁interven",
        -10.973030420149744
      ],
      [
        "▁warn",
        -10.222968708909637
      ],
      [
        "▁ca",
        -5.9021396961811305
      ],
      [
        "920",
        -12.849170236525222
      ],
      [
        "▁know",
        -5.7441817362972625
      ],
      [
        "100,000",
        -15.487655502934642
      ],
      [
        "000",
        -12.033561010171681
      ],
      [
        "history",
        -8.608259189325832
      ],
      [
        "ag",
        -12.393280713458324
      ],
      [
        "▁discriminat",
        -10.873595797475925
      ],
      [
        "▁335",
        -13.289610428496676
      ],
      [
        "▁population",
        -8.941396065056118
      ],
      [
        "▁loop",
        -10.975151019661386
      ],
      [
        "▁train",
        -7.731045237193903
      ],
      [
        "▁central",
        -9.151434451939577
      ],
      [
        "▁my",
        -5.717040750618234
      ],
      [
        "▁principal",
        -10.782230006869987
      ],
      [
        "▁vogel",
        -12.833785843711352
      ],
      [
        "▁tol",
        -7.619101235401257
      ],
      [
        "清",
        -12.833785825435129
      ],
      [
        "night",
        -8.962873307213105
      ],
      [
        "dden",
        -9.682495760392893
      ],
      [
        "▁continent",
        -8.468002396080681
      ],
      [
        "▁variet",
        -9.94869633740008
      ],
      [
        "▁adam",
        -7.721631801519224
      ],
      [
        "▁readers",
        -10.319732800748818
      ],
      [
        "▁reconcili",
        -10.697886438305716
      ],
      [
        "▁break",
        -8.368927317035848
      ],
      [
        "hin",
        -10.374880887447762
      ],
      [
        "your",
        -8.818172243492096
      ],
      [
        "▁expire",
        -10.523925976638623
      ],
      [
        "w",
        -10.535206273216964
      ],
      [
        "▁56",
        -12.820438180065187
      ],
      [
        "▁servant",
        -10.873139181658324
      ],
      [
        "pa",
        -13.720982255518187
      ],
      [
        "▁super",
        -9.022770468576729
      ],
      [
        "▁legislati",
        -9.392237773238424
      ],
      [
        "▁throat",
        -10.156748802465845
      ],
      [
        "▁smith",
        -9.78702819957555
      ],
      [
        "▁equal",
        -8.676298482692705
      ],
      [
        "▁albania",
        -10.362642799032342
      ],
      [
        "drew",
        -9.840618850414014
      ],
      [
        "▁intervention",
        -10.362644303977385
      ],
      [
        "---------------",
        -9.308357502044146
      ],
      [
        "▁luna",
        -10.700627766255375
      ],
      [
        "▁amuse",
        -10.885630252194463
      ],
      [
        "▁met",
        -8.603101720892726
      ],
      [
        "am",
        -12.966085211699605
      ],
      [
        "▁direction",
        -9.388006737768812
      ],
      [
        "▁few",
        -7.563886831166232
      ],
      [
        "kat",
        -10.785619882956034
      ],
      [
        "47",
        -11.295163113814404
      ],
      [
        "▁chi",
        -11.906643426785514
      ],
      [
        "▁thu",
        -9.072202207332808
      ],
      [
        "842",
        -12.352497377056995
      ],
      [
        "▁281-518-",
        -13.136774397976367
      ],
      [
        "▁concentrate",
        -10.972435086980399
      ],
      [
        "y",
        -9.961283824744118
      ],
      [
        "b",
        -5.330992993415272
      ],
      [
        "▁dessert",
        -10.698906843251349
      ],
      [
        "▁mari",
        -11.608463054468066
      ],
      [
        "▁specification",
        -10.986956153273978
      ],
      [
        "▁abandon",
        -10.254370416887017
      ],
      [
        "▁learn",
        -7.88042129122728
      ],
      [
        "▁exaggerat",
        -11.084250214502688
      ],
      [
        "ggy",
        -10.449918684818245
      ],
      [
        "wa",
        -14.382662615359285
      ],
      [
        "----------------",
        -8.665339290745422
      ],
      [
        "saw",
        -10.188446220144538
      ],
      [
        "▁batter",
        -9.8143623711453
      ],
      [
        "▁susan",
        -10.204478479882056
      ],
      [
        "doo",
        -11.146811228681674
      ],
      [
        "senate",
        -9.53817065117319
      ],
      [
        "▁limb",
        -10.310116894117117
      ],
      [
        "▁11:1",
        -14.098589520058274
      ],
      [
        "▁gam",
        -10.54330296832061
      ],
      [
        "▁treat",
        -8.6655024072791
      ],
      [
        "▁gain",
        -9.324827222454653
      ],
      [
        "news",
        -9.776762005602393
      ],
      [
        "▁stir",
        -10.619828421611135
      ],
      [
        "▁spawn",
        -10.973150881821585
      ],
      [
        "▁cu",
        -9.673098888119576
      ],
      [
        "▁foundation",
        -9.784632926658542
      ],
      [
        "▁accelerat",
        -10.973139151502155
      ],
      [
        "▁micro",
        -9.427415796789692
      ],
      [
        "▁06:2",
        -12.823132787264766
      ],
      [
        "▁distinguish",
        -10.070646317987443
      ],
      [
        "▁play",
        -6.6231897240285145
      ],
      [
        "▁temperature",
        -9.600529284995515
      ],
      [
        "▁superior",
        -10.55088028787786
      ],
      [
        "▁eggs",
        -8.93237515233059
      ],
      [
        "▁stranger",
        -10.366130293346387
      ],
      [
        "▁data",
        -7.727877367826411
      ],
      [
        "▁no",
        -6.229759536099308
      ],
      [
        "▁infect",
        -10.69789289619604
      ],
      [
        "▁urs",
        -8.863958073948023
      ],
      [
        "▁tray",
        -10.441970949039163
      ],
      [
        "folio",
        -10.652678599379442
      ],
      [
        "giere",
        -10.366952557136093
      ],
      [
        "▁remed",
        -11.085042031098347
      ],
      [
        "▁wire",
        -10.026523457718886
      ],
      [
        "▁inspiration",
        -11.086379355328912
      ],
      [
        "▁works",
        -9.07721609789462
      ],
      [
        "▁holding",
        -9.241074712082153
      ],
      [
        "▁wolf",
        -9.875679660580001
      ],
      [
        "▁gradual",
        -10.873140005275761
      ],
      [
        "▁fri",
        -10.324795025491802
      ],
      [
        "▁mandat",
        -10.262067436082912
      ],
      [
        "enron",
        -11.020742050745039
      ],
      [
        "▁ninety",
        -11.07772853787612
      ],
      [
        "%",
        -11.209249942480852
      ],
      [
        ".",
        -6.79351354525888
      ],
      [
        "▁demo",
        -11.048580346906451
      ],
      [
        "▁prove",
        -9.415223936804313
      ],
      [
        "▁253",
        -12.845769189610536
      ],
      [
        "▁sophie",
        -9.385425573548483
      ],
      [
        "▁arrest",
        -9.655336391081956
      ],
      [
        "▁modification",
        -10.973151612579825
      ],
      [
        "▁festival",
        -9.840453556947086
      ],
      [
        "▁ba",
        -11.474094207813557
      ],
      [
        "▁popular",
        -9.124669048485398
      ],
      [
        "▁lower",
        -9.197218049773147
      ],
      [
        "▁let",
        -6.560592762468597
      ],
      [
        "▁duckie",
        -10.81920791047557
      ],
      [
        "countries",
        -8.323488568640954
      ],
      [
        "▁danc",
        -9.556703548929299
      ],
      [
        "▁6.",
        -13.152792151780694
      ],
      [
        "kept",
        -8.713651240756871
      ],
      [
        "▁4.9",
        -12.967616918539465
      ],
      [
        "▁some",
        -8.358879461006477
      ],
      [
        "▁crash",
        -9.98615963372275
      ],
      [
        "▁organi",
        -11.103072114284014
      ],
      [
        "▁dangerous",
        -9.226805459243224
      ],
      [
        "----",
        -10.450866178525061
      ],
      [
        "kin",
        -9.891673832123367
      ],
      [
        "▁photo",
        -10.082778506771009
      ],
      [
        "▁polar",
        -10.69923363789085
      ],
      [
        "▁ridiculous",
        -10.873309578703292
      ],
      [
        "▁169",
        -11.526929689379745
      ],
      [
        "2-46",
        -13.18303338315813
      ],
      [
        "▁con",
        -8.444368400819524
      ],
      [
        "fel",
        -10.864596426963793
      ],
      [
        "/15/200",
        -11.71241481715062
      ],
      [
        "▁determine",
        -9.272151089346597
      ],
      [
        "oz",
        -13.096519113337363
      ],
      [
        "▁mop",
        -10.790474460970408
      ],
      [
        "▁necessar",
        -8.776369707705634
      ],
      [
        "▁suffer",
        -9.604025317426432
      ],
      [
        "▁gi",
        -10.443453457446921
      ],
      [
        "▁restriction",
        -9.807457141715194
      ],
      [
        "▁enron",
        -11.789098139055671
      ],
      [
        "3.0",
        -14.167747683965414
      ],
      [
        "▁888",
        -15.102084738941228
      ],
      [
        "▁leban",
        -10.782715313114682
      ],
      [
        "▁igua",
        -10.78223662630943
      ],
      [
        "jo",
        -10.250693673346753
      ],
      [
        "▁salar",
        -10.793175747322568
      ],
      [
        "▁fight",
        -8.47028326476148
      ],
      [
        "▁10:",
        -12.180176153817651
      ],
      [
        "▁artistic",
        -10.486119468794149
      ],
      [
        "uit",
        -12.289312307441701
      ],
      [
        "wear",
        -11.204002201397703
      ],
      [
        "374",
        -14.171634080521564
      ],
      [
        "▁white",
        -7.924957886826736
      ],
      [
        "▁sweat",
        -10.869170354180843
      ],
      [
        "▁medicine",
        -9.8071543639723
      ],
      [
        "▁representation",
        -10.311150562286752
      ],
      [
        "ar",
        -8.96739030467699
      ],
      [
        "▁rick",
        -10.653745983316881
      ],
      [
        "▁europe",
        -8.645316315144727
      ],
      [
        "▁col",
        -10.390603271193527
      ],
      [
        "▁164",
        -13.046176533905449
      ],
      [
        "▁crack",
        -10.061714918069473
      ],
      [
        "aden",
        -11.835808419303513
      ],
      [
        "▁requirement",
        -9.174268169730036
      ],
      [
        "-time",
        -10.88377323962846
      ],
      [
        "▁stirrup",
        -10.973254376638161
      ],
      [
        "▁commander",
        -10.891789821318035
      ],
      [
        "▁outside",
        -8.272985819524127
      ],
      [
        "▁buri",
        -10.783036128557077
      ],
      [
        "▁2/",
        -14.396171217010773
      ],
      [
        "▁notice",
        -8.576804992108414
      ],
      [
        "-b",
        -10.204731894151271
      ],
      [
        "oul",
        -11.01320091446491
      ],
      [
        "▁chair",
        -8.315479766564518
      ],
      [
        "▁japan",
        -9.482287619868831
      ],
      [
        "trans",
        -10.240933231132955
      ],
      [
        "▁resident",
        -9.68404071248232
      ],
      [
        "▁missile",
        -10.112042517345044
      ],
      [
        "▁kansa",
        -8.539770468004393
      ],
      [
        "▁royal",
        -9.910749390134207
      ],
      [
        "▁moon",
        -9.271432626961925
      ],
      [
        "▁fil",
        -10.399992572836497
      ],
      [
        "▁location",
        -8.813235837821617
      ],
      [
        "eutical",
        -11.084564371504166
      ],
      [
        "cambridge",
        -10.873139107515504
      ],
      [
        "▁individual",
        -8.914085054526353
      ],
      [
        "/28/200",
        -11.29149863706367
      ],
      [
        "▁encouraging",
        -10.873139097849716
      ],
      [
        "age",
        -11.003488229021976
      ],
      [
        "▁pi",
        -9.581604494031545
      ],
      [
        "▁receiv",
        -9.091497159262875
      ],
      [
        "▁260",
        -13.873155210873321
      ],
      [
        "▁copyright",
        -9.84121398410671
      ],
      [
        "g",
        -7.134346932207946
      ],
      [
        "▁traditional",
        -10.127235216054286
      ],
      [
        "▁invoice",
        -10.833467673306377
      ],
      [
        "6:00",
        -11.54136812453849
      ],
      [
        "▁info",
        -9.81194587601626
      ],
      [
        "nik",
        -10.852237962476178
      ],
      [
        "▁interfere",
        -11.08424644966685
      ],
      [
        "▁thirty-",
        -12.337669254678353
      ],
      [
        "▁pixie",
        -10.97316651015548
      ],
      [
        "▁picnic",
        -10.873139364071855
      ],
      [
        "▁curse",
        -10.873552930794325
      ],
      [
        "ation",
        -6.760252862409607
      ],
      [
        "e",
        -7.9839449649842855
      ],
      [
        "▁bozo",
        -10.483973595903105
      ],
      [
        "▁explanation",
        -10.067815841448223
      ],
      [
        "▁romantic",
        -9.912593201872433
      ],
      [
        "ka",
        -11.598593399000144
      ],
      [
        "▁167",
        -13.956538851473839
      ],
      [
        "▁mia",
        -11.835498122457036
      ],
      [
        "▁abstract",
        -10.973144297913167
      ],
      [
        "force",
        -10.660635018840182
      ],
      [
        "76",
        -11.504346634557045
      ],
      [
        "▁189",
        -11.15103278247761
      ],
      [
        "▁shed",
        -10.338589670652677
      ],
      [
        "▁ninet",
        -11.980756886517543
      ],
      [
        "▁technological",
        -10.421540082604126
      ],
      [
        "q",
        -14.203397884361365
      ],
      [
        "▁fi",
        -14.154370951148584
      ],
      [
        "ir",
        -9.122160282993224
      ],
      [
        "inst",
        -8.311210208200965
      ],
      [
        "▁else",
        -7.480389237587039
      ],
      [
        "▁get",
        -9.018875979559912
      ],
      [
        "▁truth",
        -9.429978628376253
      ],
      [
        "▁joke",
        -8.708600512081382
      ],
      [
        "▁shipped",
        -10.905193136531366
      ],
      [
        "`",
        -11.307802325334926
      ],
      [
        "▁member",
        -8.346273353133489
      ],
      [
        "▁lee",
        -9.422124594614411
      ],
      [
        "▁pier",
        -10.437985514774054
      ],
      [
        "▁twirl",
        -11.085729714778335
      ],
      [
        "▁horses",
        -10.123208117387705
      ],
      [
        "▁preferabl",
        -11.167434356257967
      ],
      [
        ".c.",
        -10.553091459715063
      ],
      [
        "6:5",
        -14.245778065733244
      ],
      [
        "▁striv",
        -10.877207190306837
      ],
      [
        "▁bald",
        -10.854832258179222
      ],
      [
        "▁imagination",
        -10.551068692518175
      ],
      [
        "thing",
        -10.166447768338331
      ],
      [
        "▁traffic",
        -9.572708649024872
      ],
      [
        "▁press",
        -8.804496807644863
      ],
      [
        "▁guideline",
        -9.875003433101787
      ],
      [
        "ies",
        -6.204351518052511
      ],
      [
        "che",
        -11.83366373947532
      ],
      [
        "▁less",
        -8.101930377749888
      ],
      [
        "▁evil",
        -10.421388575750399
      ],
      [
        "▁pepper",
        -9.947687829727784
      ],
      [
        "▁interconnect",
        -10.622008288222833
      ],
      [
        "▁iron",
        -10.109303633017
      ],
      [
        "▁upper",
        -10.00775950595508
      ],
      [
        "online",
        -10.539107277207002
      ],
      [
        "▁gloom",
        -10.873197649818103
      ],
      [
        "round",
        -7.710117922089975
      ],
      [
        "▁225",
        -12.177426783633818
      ],
      [
        "/",
        -8.28130137214163
      ],
      [
        "▁wha",
        -9.743228513517918
      ],
      [
        "▁fat",
        -9.318869720702216
      ],
      [
        "▁street",
        -8.10390710118344
      ],
      [
        "▁306",
        -14.143148896271562
      ],
      [
        "sky",
        -10.668733407829906
      ],
      [
        "▁uk",
        -9.796629383737784
      ],
      [
        "z",
        -11.758838788587859
      ],
      [
        "▁college",
        -9.02768057999804
      ],
      [
        "rap",
        -10.359951639191557
      ],
      [
        "ح",
        -12.833785825435129
      ],
      [
        "▁dong",
        -11.004985380303683
      ],
      [
        "pal",
        -12.510807336189368
      ],
      [
        "▁height",
        -9.986259286483449
      ],
      [
        "▁development",
        -8.520634377464724
      ],
      [
        "▁cord",
        -10.459095794300705
      ],
      [
        "8/200",
        -11.740197949817686
      ],
      [
        "msel",
        -12.496307117546552
      ],
      [
        "▁wrestle",
        -10.834411082895505
      ],
      [
        "▁responsibl",
        -9.475709167416968
      ],
      [
        "igger",
        -10.28259929214996
      ],
      [
        "▁vision",
        -10.484130588957454
      ],
      [
        "▁mann",
        -10.357146209346725
      ],
      [
        "▁outcome",
        -10.156788904885325
      ],
      [
        "▁life",
        -7.389180158699001
      ],
      [
        "▁th",
        -5.884171476561597
      ],
      [
        "▁river",
        -8.800124282412238
      ],
      [
        "▁hermi",
        -10.699223612173219
      ],
      [
        "▁agricultural",
        -10.366051476349973
      ],
      [
        "▁assur",
        -10.069849464392137
      ],
      [
        "▁even",
        -6.782816792514361
      ],
      [
        "▁op",
        -10.340318410867607
      ],
      [
        "hatta",
        -11.08536777662701
      ],
      [
        "▁ai",
        -10.74992631303672
      ],
      [
        "▁laura",
        -7.802172180168117
      ],
      [
        "▁student",
        -8.40864805576661
      ],
      [
        "▁exchange",
        -9.364144323490219
      ],
      [
        "▁peaceful",
        -9.714534555532595
      ],
      [
        "therland",
        -10.721118241423568
      ],
      [
        "▁assembl",
        -9.986149225074179
      ],
      [
        "cane",
        -11.039139481395997
      ],
      [
        "▁dadd",
        -7.153794639423395
      ],
      [
        "▁massive",
        -10.112702862336674
      ],
      [
        "▁owe",
        -10.500139367073587
      ],
      [
        "▁murderer",
        -10.808071338190853
      ],
      [
        "▁54",
        -11.691610356896991
      ],
      [
        "▁repeated",
        -9.928620188757991
      ],
      [
        "▁!!!!!!!!!!",
        -11.698363094807423
      ],
      [
        "▁02",
        -12.852745059953298
      ],
      [
        "▁working",
        -8.325255110505058
      ],
      [
        "▁balzac",
        -8.510863758518745
      ],
      [
        "▁belong",
        -9.20884745279132
      ],
      [
        "tt",
        -12.075768069728678
      ],
      [
        "rick",
        -10.112124056875249
      ],
      [
        "▁someon",
        -8.389355761262244
      ],
      [
        "▁something",
        -9.452286158078696
      ],
      [
        "▁cara",
        -10.23123908255597
      ],
      [
        "▁visit",
        -8.170813889284817
      ],
      [
        "toxic",
        -10.620979383968251
      ],
      [
        "elve",
        -8.718995318874825
      ],
      [
        "!!!!",
        -9.691707156797474
      ],
      [
        "▁immigrant",
        -11.084250208893108
      ],
      [
        "▁endanger",
        -10.782230120846496
      ],
      [
        "al",
        -9.879150985532643
      ],
      [
        "▁trot",
        -10.783143822318094
      ],
      [
        "▁yo",
        -11.72382369226988
      ],
      [
        "▁easter",
        -10.647104943975076
      ],
      [
        "▁expansi",
        -10.421382699177775
      ],
      [
        "ache",
        -10.228184509874547
      ],
      [
        "▁ride",
        -8.403267148048073
      ],
      [
        "▁monday",
        -7.838112867563392
      ],
      [
        "▁fre",
        -10.273914318210839
      ],
      [
        "▁718-780-0",
        -13.13677057931521
      ],
      [
        "▁warwick",
        -10.782492476082169
      ],
      [
        "▁here",
        -5.984861889906757
      ],
      [
        "5",
        -9.078884607816796
      ],
      [
        "▁oppose",
        -9.94768774642835
      ],
      [
        "▁occupation",
        -10.254378057930651
      ],
      [
        "▁ordinar",
        -10.204368314666993
      ],
      [
        "lena",
        -11.133085530454839
      ],
      [
        "▁'",
        -9.940251085542698
      ],
      [
        "▁jihad",
        -9.840453569321054
      ],
      [
        "nte",
        -11.329980172230284
      ],
      [
        "▁licens",
        -9.97323477002145
      ],
      [
        "▁convert",
        -10.029357588634547
      ],
      [
        "▁bann",
        -11.09056152002874
      ],
      [
        "ug",
        -9.674912179649512
      ],
      [
        "▁disabilit",
        -10.62293710131849
      ],
      [
        "▁alaska",
        -10.156753017189542
      ],
      [
        "noth",
        -10.310046823389449
      ],
      [
        "▁soot",
        -11.184598475233992
      ],
      [
        "-84",
        -13.610000242966729
      ],
      [
        "▁respectful",
        -10.976911309061954
      ],
      [
        "▁saw",
        -7.7959899037895255
      ],
      [
        "▁steps",
        -9.47062441429753
      ],
      [
        "ome",
        -9.966960153601715
      ],
      [
        "▁dick",
        -10.622675451820747
      ],
      [
        "▁deficienc",
        -10.55405286985771
      ],
      [
        "▁hesitate",
        -11.111153421168543
      ],
      [
        "9/11/",
        -14.264817947757411
      ],
      [
        "\\",
        -11.833785825435129
      ],
      [
        ".12",
        -13.14616394307192
      ],
      [
        "▁german",
        -9.105893240832089
      ],
      [
        "▁like",
        -5.718089311360961
      ],
      [
        "▁critical",
        -9.920664149309165
      ],
      [
        "itie",
        -9.804402092164615
      ],
      [
        "▁sound",
        -8.231313584953632
      ],
      [
        "▁snitch",
        -10.06782760149656
      ],
      [
        "riori",
        -10.701347265442699
      ],
      [
        "▁resolve",
        -11.089183476267916
      ],
      [
        ".net",
        -9.80846492820864
      ],
      [
        "▁describ",
        -10.303672823059955
      ],
      [
        "▁grey",
        -10.362829521118229
      ],
      [
        "▁honest",
        -9.499185949862639
      ],
      [
        "3.8",
        -12.702689943172382
      ],
      [
        "▁de",
        -13.02013865677002
      ],
      [
        "wi",
        -9.553009052057462
      ],
      [
        "▁social",
        -8.322963388043254
      ],
      [
        "▁tar",
        -10.739743768629403
      ],
      [
        "▁sai",
        -6.3903415043042475
      ],
      [
        "428",
        -13.59096394870987
      ],
      [
        "▁....",
        -10.491737081619904
      ],
      [
        "▁potential",
        -9.17309416317223
      ],
      [
        "▁be",
        -6.994585827916629
      ],
      [
        "▁disaster",
        -9.49917536486175
      ],
      [
        "]",
        -6.130793076695081
      ],
      [
        "▁mommy",
        -6.733903923115041
      ],
      [
        "bec",
        -9.720690803025338
      ],
      [
        "incin",
        -8.950775990607584
      ],
      [
        "▁reviv",
        -10.973368890350072
      ],
      [
        "▁boy",
        -8.038393916805603
      ],
      [
        "1.8",
        -12.279299099288766
      ],
      [
        "▁prince",
        -9.98615026164634
      ],
      [
        "oto",
        -10.913814579791683
      ],
      [
        "▁3.7",
        -12.773552462560504
      ],
      [
        "▁1030",
        -14.191480154345427
      ],
      [
        "▁want",
        -5.736206502054337
      ],
      [
        "▁bla",
        -10.665478825956292
      ],
      [
        "▁łodziani",
        -12.060366022888068
      ],
      [
        "28",
        -11.333881110935934
      ],
      [
        "▁banjo",
        -10.698956502375562
      ],
      [
        "cho",
        -11.18965547867573
      ],
      [
        "pk",
        -12.83599579115239
      ],
      [
        "▁chan",
        -10.81959680504434
      ],
      [
        "▁not",
        -5.826808915645819
      ],
      [
        "▁year",
        -6.436918537020915
      ],
      [
        "▁claim",
        -8.46701473064891
      ],
      [
        "▁opening",
        -9.301654071613436
      ],
      [
        "η",
        -12.833785825435129
      ],
      [
        "▁replace",
        -9.728311069313325
      ],
      [
        "▁societ",
        -8.441588303014921
      ],
      [
        "▁united",
        -7.351920910224737
      ],
      [
        "▁belt",
        -10.114843530013616
      ],
      [
        "▁sent",
        -8.479552331171764
      ],
      [
        "▁repeat",
        -10.047210587365228
      ],
      [
        "▁arena",
        -10.98263708754326
      ],
      [
        "▁bac",
        -10.425217228104898
      ],
      [
        "▁vo",
        -9.247025705758425
      ],
      [
        "▁telescope",
        -11.084250744466289
      ],
      [
        "▁bother",
        -9.68913144319813
      ],
      [
        "▁43",
        -12.118601240506226
      ],
      [
        "▁default",
        -10.204367698915043
      ],
      [
        "▁right",
        -6.270653959419714
      ],
      [
        "▁congratulate",
        -10.698896673535405
      ],
      [
        "▁remind",
        -9.38542537827361
      ],
      [
        "▁reli",
        -9.432672774039238
      ],
      [
        "▁propose",
        -9.301415492648431
      ],
      [
        "cou",
        -7.440679466282132
      ],
      [
        "ani",
        -12.835348331773929
      ],
      [
        "▁roast",
        -10.97317924388968
      ],
      [
        "2000",
        -9.70736640342331
      ],
      [
        "▁ja",
        -12.309018936156052
      ],
      [
        "ist",
        -8.227925635947678
      ],
      [
        "mir",
        -9.849649488136778
      ],
      [
        "▁familiar",
        -9.914987500586836
      ],
      [
        "▁late",
        -7.815785339604707
      ],
      [
        "▁confirm",
        -9.2635565498862
      ],
      [
        "▁1,",
        -11.196637822129153
      ],
      [
        "6:2",
        -14.56407253126821
      ],
      [
        "▁spot",
        -9.032777456236623
      ],
      [
        "up",
        -9.571776430989441
      ],
      [
        "▁altho",
        -8.78807180982115
      ],
      [
        "▁replie",
        -11.085238885554599
      ],
      [
        "▁her",
        -9.72695964450235
      ],
      [
        "▁invasi",
        -10.973341193301938
      ],
      [
        "▁associate",
        -9.22667695934851
      ],
      [
        "▁soak",
        -10.890602054076302
      ],
      [
        "▁max",
        -9.525010895821698
      ],
      [
        "an",
        -7.749024924842498
      ],
      [
        "▁tag",
        -9.676440447499155
      ],
      [
        "erran",
        -11.107370832225595
      ],
      [
        "▁with",
        -10.577457793838306
      ],
      [
        "▁lose",
        -9.560895771100656
      ],
      [
        "wikihow",
        -10.213938585777234
      ],
      [
        "▁para",
        -10.100087377997593
      ],
      [
        "▁root",
        -9.15591286801247
      ],
      [
        "▁laptop",
        -10.973202611702124
      ],
      [
        "620",
        -14.246999949014942
      ],
      [
        "one",
        -7.505439725207756
      ],
      [
        "▁compound",
        -10.550579954677715
      ],
      [
        "▁efficien",
        -10.198952793563505
      ],
      [
        "v",
        -8.162352736604976
      ],
      [
        "▁drawer",
        -10.474598376935136
      ],
      [
        "▁work",
        -6.4901330857045
      ],
      [
        "wikipedia",
        -11.084252198310033
      ],
      [
        "▁832.676.",
        -13.136770579315863
      ],
      [
        "▁knock",
        -9.499175025023927
      ],
      [
        "ß",
        -12.833785825435129
      ],
      [
        "▁compliment",
        -10.698896675698423
      ],
      [
        "▁quot",
        -11.012410731660072
      ],
      [
        "/9",
        -15.447297605292762
      ],
      [
        "▁rug",
        -9.812645642771317
      ],
      [
        "▁duel",
        -11.00565503896579
      ],
      [
        "▁03/2",
        -13.199689666990963
      ],
      [
        "▁joint",
        -10.175624316707406
      ],
      [
        "pa",
        -9.569752882755997
      ],
      [
        "mine",
        -11.79533885365613
      ],
      [
        "ara",
        -10.38420504990581
      ],
      [
        "▁potato",
        -10.156750059154401
      ],
      [
        "wig",
        -10.682736565498114
      ],
      [
        "o",
        -8.471522179778706
      ],
      [
        "▁sometime",
        -8.057362494565194
      ],
      [
        "▁h-02",
        -12.636821816479888
      ],
      [
        "▁acquir",
        -10.498801535045468
      ],
      [
        "▁ours",
        -11.486000418694196
      ],
      [
        "ugh",
        -8.69076516514481
      ],
      [
        "▁mur",
        -10.987044337471406
      ],
      [
        "▁compare",
        -9.94952585392986
      ],
      [
        "▁landing",
        -10.551452720486946
      ],
      [
        "0000",
        -13.705120895521128
      ],
      [
        "▁painting",
        -9.372661448001542
      ],
      [
        "30",
        -9.658731711958618
      ],
      [
        "275",
        -13.948612843905096
      ],
      [
        "▁prepare",
        -9.939418236022362
      ],
      [
        "▁fuss",
        -11.093835632945332
      ],
      [
        "▁wid",
        -10.814941163010996
      ],
      [
        "▁swap",
        -10.98790692180973
      ],
      [
        "iz",
        -8.867919582963047
      ],
      [
        "958",
        -13.341006206325527
      ],
      [
        "▁chamber",
        -10.782231221353264
      ],
      [
        "▁text",
        -9.04007653836441
      ],
      [
        "▁gil",
        -11.019719633217903
      ],
      [
        "fyi",
        -10.575636230915917
      ],
      [
        "▁vii",
        -14.792669293226949
      ],
      [
        "▁replication",
        -9.807120223429534
      ],
      [
        "▁militant",
        -10.254368439340722
      ],
      [
        "load",
        -10.94576887721807
      ],
      [
        "▁caus",
        -10.089274306493337
      ],
      [
        "▁explore",
        -10.1180799741859
      ],
      [
        "▁rescue",
        -9.87494931159543
      ],
      [
        "off",
        -10.074721619544425
      ],
      [
        "21",
        -11.158998581851865
      ],
      [
        "▁196",
        -10.370659192566032
      ],
      [
        "▁non-",
        -9.042895840168757
      ],
      [
        "▁emil",
        -10.973735754305352
      ],
      [
        "▁lit",
        -10.449367339077526
      ],
      [
        "!!!!!!!!!!!!!!!!",
        -11.406486109637537
      ],
      [
        "▁primari",
        -10.64238478458082
      ],
      [
        "delhi",
        -10.026379840066673
      ],
      [
        "▁gaze",
        -10.977126213777451
      ],
      [
        "▁mil",
        -7.943964855495765
      ],
      [
        "▁core",
        -10.06661997618566
      ],
      [
        "marie",
        -10.454421070252378
      ],
      [
        "-19",
        -14.096896478575978
      ],
      [
        "▁illustrat",
        -11.042137117701483
      ],
      [
        "▁pho",
        -10.845826107710002
      ],
      [
        "▁strawberr",
        -10.067823096283739
      ],
      [
        "field",
        -10.337021971103859
      ],
      [
        "▁whe",
        -8.779464586792184
      ],
      [
        "▁flower",
        -8.973649604585102
      ],
      [
        "eau",
        -10.944244681849543
      ],
      [
        "▁country",
        -7.87597849249275
      ],
      [
        "▁particle",
        -10.326599374460498
      ],
      [
        "▁twi",
        -9.112277527028718
      ],
      [
        "▁rail",
        -10.111542284518068
      ],
      [
        "▁blu",
        -10.726064686152132
      ],
      [
        "▁brown",
        -9.208498000935347
      ],
      [
        "▁raphael",
        -10.973139099338086
      ],
      [
        "▁advertis",
        -10.027649214794119
      ],
      [
        "▁went",
        -7.259772340846345
      ],
      [
        "▁stable",
        -10.996689230876141
      ],
      [
        "en",
        -7.218818468425575
      ],
      [
        "▁mine",
        -10.774985846253598
      ],
      [
        "tain",
        -10.892362746246064
      ],
      [
        "▁find",
        -6.839903537726631
      ],
      [
        "▁corrupt",
        -10.621973656080424
      ],
      [
        "▁90",
        -10.827220631113349
      ],
      [
        "▁economic",
        -8.452623553565067
      ],
      [
        "▁interview",
        -8.812100937266154
      ],
      [
        "daro",
        -12.83364613195101
      ],
      [
        "▁hero",
        -10.161949237256202
      ],
      [
        "67.7",
        -12.63684079713223
      ],
      [
        "▁mcdonald",
        -10.621973599154376
      ],
      [
        "▁derivative",
        -9.98614917543864
      ],
      [
        "bbc",
        -10.700912641340949
      ],
      [
        "than",
        -10.213510771916935
      ],
      [
        "ha",
        -9.601993731172115
      ],
      [
        "leans",
        -10.307879103370025
      ],
      [
        "838",
        -11.947564887353263
      ],
      [
        "▁mood",
        -10.80088021996229
      ],
      [
        "098",
        -13.688847105212474
      ],
      [
        "on",
        -6.434801464072722
      ],
      [
        "unci",
        -11.114290510937709
      ],
      [
        "▁surgeon",
        -10.874727293739172
      ],
      [
        "ibilit",
        -10.602331615067644
      ],
      [
        "▁avail",
        -9.253036216915286
      ],
      [
        "uf",
        -12.761125359841303
      ],
      [
        "▁dash",
        -10.979981076505647
      ],
      [
        "▁habit",
        -10.669319905492552
      ],
      [
        "▁fresh",
        -8.955367011606516
      ],
      [
        "▁identit",
        -9.997191189830431
      ],
      [
        "man",
        -7.704297337695551
      ],
      [
        "@",
        -10.554571148747016
      ],
      [
        "393",
        -11.979993705934664
      ],
      [
        "▁includ",
        -8.124599105292042
      ],
      [
        "mmy",
        -11.137154007142037
      ],
      [
        "▁04/",
        -13.644403838609609
      ],
      [
        "▁fighter",
        -10.751396967838968
      ],
      [
        "▁2",
        -10.556276463566192
      ],
      [
        "immigration",
        -10.25436769463617
      ],
      [
        "▁sensitiv",
        -10.427189890721605
      ],
      [
        "▁fift",
        -10.360459669577795
      ],
      [
        "▁tape",
        -8.890400140974819
      ],
      [
        "▁pale",
        -10.399902773369876
      ],
      [
        "et",
        -8.926017628742862
      ],
      [
        "▁paw",
        -11.091095130442135
      ],
      [
        "cion",
        -13.357598950459646
      ],
      [
        "=============",
        -11.216882392454107
      ],
      [
        "▁pie",
        -9.571091870884427
      ],
      [
        "▁ones",
        -12.644688079861359
      ],
      [
        "▁mechanic",
        -10.111294119072687
      ],
      [
        "95",
        -11.454904720194879
      ],
      [
        "▁debr",
        -9.94937054825209
      ],
      [
        "▁may",
        -7.182855929768164
      ],
      [
        "▁frie",
        -10.827355288912031
      ],
      [
        "▁8",
        -9.408204222629287
      ],
      [
        "▁ho",
        -12.26155928050526
      ],
      [
        "▁specify",
        -10.622017947604288
      ],
      [
        "les",
        -13.952486469106416
      ],
      [
        "▁freez",
        -11.205369194707748
      ],
      [
        "lys",
        -10.25405955036088
      ],
      [
        "▁value",
        -8.191214021686617
      ],
      [
        "top",
        -10.278912271660428
      ],
      [
        "roni",
        -10.076164355454045
      ],
      [
        "▁dimension",
        -10.621973686626875
      ],
      [
        "ina",
        -12.093453738177573
      ],
      [
        "giving",
        -9.174344864407594
      ],
      [
        "4.4",
        -13.305398854713754
      ],
      [
        "die",
        -10.223377604815685
      ],
      [
        "▁ruth",
        -10.552489341489407
      ],
      [
        "▁lov",
        -10.19055952682449
      ],
      [
        "▁agricultur",
        -9.908431450001055
      ],
      [
        "03/",
        -13.793640388604164
      ],
      [
        "pe",
        -9.309455294022152
      ],
      [
        "rice",
        -9.737077777896744
      ],
      [
        "▁martyr",
        -11.084259725885662
      ],
      [
        "rdon",
        -9.973277323331189
      ],
      [
        "▁stephen",
        -11.084316868340117
      ],
      [
        "▁release",
        -9.14754314877851
      ],
      [
        "▁sand",
        -9.83745237239268
      ],
      [
        "▁painful",
        -11.086559195918362
      ],
      [
        "is",
        -7.588739761077403
      ],
      [
        "▁1960",
        -11.084250244129834
      ],
      [
        "ect",
        -10.011284538849868
      ],
      [
        "pped",
        -9.37082436722205
      ],
      [
        "0.8",
        -12.754940125285833
      ],
      [
        "3.9",
        -15.105236235809905
      ],
      [
        "1:",
        -14.542473638832032
      ],
      [
        "▁strict",
        -10.111372253146186
      ],
      [
        "514",
        -14.796244535458388
      ],
      [
        "▁route",
        -9.657903526493904
      ],
      [
        "take",
        -11.109839568737534
      ],
      [
        "▁past",
        -8.320484914580108
      ],
      [
        "…",
        -9.311962512561424
      ],
      [
        ".com/",
        -9.517461516992178
      ],
      [
        "▁ec",
        -9.277949923899358
      ],
      [
        "▁smile",
        -9.650114307972885
      ],
      [
        "▁705",
        -13.150366755684853
      ],
      [
        "orr",
        -12.821101771078977
      ],
      [
        "-",
        -11.333263518052433
      ],
      [
        "▁multiple",
        -10.111295169131482
      ],
      [
        "▁position",
        -8.539686451992031
      ],
      [
        "ł",
        -14.203297884361366
      ],
      [
        "▁sole",
        -10.584120138090718
      ],
      [
        "8.9",
        -15.33959221900913
      ],
      [
        "▁bagg",
        -10.98548629895857
      ],
      [
        "51",
        -13.168608066560093
      ],
      [
        "3/10/",
        -13.858668163224241
      ],
      [
        "▁biological",
        -10.067919225555057
      ],
      [
        "dr",
        -12.262021389616722
      ],
      [
        "▁pop",
        -9.193950031686068
      ],
      [
        "lo",
        -9.686887479395796
      ],
      [
        "▁india",
        -8.561543563303214
      ],
      [
        "▁cent",
        -10.331253896280856
      ],
      [
        "ive",
        -12.834167004932644
      ],
      [
        "▁rep",
        -9.230917048612305
      ],
      [
        "▁counterpart",
        -9.60052118286885
      ],
      [
        "▁counter",
        -9.697787168381142
      ],
      [
        "▁adjust",
        -9.947002420506642
      ],
      [
        "74",
        -12.34134876797
      ],
      [
        "akin",
        -12.199266592263612
      ],
      [
        "o@enron",
        -12.613336171203937
      ],
      [
        "94",
        -12.022107636496195
      ],
      [
        "▁assign",
        -10.026196719945812
      ],
      [
        "▁doubt",
        -9.47875937545279
      ],
      [
        "▁absen",
        -10.7916813687716
      ],
      [
        "rou",
        -8.854957786186286
      ],
      [
        "▁forg",
        -11.150426585136625
      ],
      [
        "ow",
        -11.530249375954355
      ],
      [
        "▁move",
        -7.8848987885699415
      ],
      [
        "▁complete",
        -8.336446864683701
      ],
      [
        "▁maintain",
        -9.105890714259296
      ],
      [
        "ur",
        -8.683152834905162
      ],
      [
        "cha",
        -12.098391471455836
      ],
      [
        "▁b/",
        -12.079815656165398
      ],
      [
        "▁ladder",
        -10.115410406620839
      ],
      [
        "▁lemon",
        -10.307750190209529
      ],
      [
        "▁dislike",
        -10.551371030564349
      ],
      [
        "▁thes",
        -7.428819531863239
      ],
      [
        "▁ko",
        -9.426190994450568
      ],
      [
        "▁password",
        -10.11138846362725
      ],
      [
        "▁desk",
        -9.075860319009784
      ],
      [
        "▁01:5",
        -12.124920194609327
      ],
      [
        "▁tel",
        -10.530182352291902
      ],
      [
        "▁375",
        -13.567938652830124
      ],
      [
        "iness",
        -9.799260107864468
      ],
      [
        "▁flap",
        -11.194988289778415
      ],
      [
        "worm",
        -10.583454550119928
      ],
      [
        "bu",
        -8.933136665927833
      ],
      [
        "▁48",
        -11.650344269400826
      ],
      [
        "▁gather",
        -9.807318566942248
      ],
      [
        "▁tendenc",
        -11.084280789312444
      ],
      [
        "▁dragg",
        -10.484540829240407
      ],
      [
        "▁incorporate",
        -10.158228028629237
      ],
      [
        "樋",
        -11.333785825435129
      ],
      [
        "▁proclaim",
        -10.698896673649921
      ],
      [
        "sumption",
        -9.90974152525665
      ],
      [
        "184",
        -12.62128093123546
      ],
      [
        "▁female",
        -9.302902584175493
      ],
      [
        "ino",
        -10.146744242787907
      ],
      [
        "▁ton",
        -9.675484862090121
      ],
      [
        "▁pet",
        -9.005199560456031
      ],
      [
        "*",
        -8.451504526190725
      ],
      [
        "▁recipe",
        -10.973193687198943
      ],
      [
        "▁margin",
        -11.083096990368661
      ],
      [
        "▁bite",
        -8.882192736897272
      ],
      [
        "▁5:",
        -13.578265554939463
      ],
      [
        "▁oh",
        -6.27702176129235
      ],
      [
        "▁bump",
        -9.774989649407399
      ],
      [
        "▁aggressive",
        -10.782500001088744
      ],
      [
        "_",
        -4.842285251919584
      ],
      [
        "▁713.8",
        -14.139852382530703
      ],
      [
        "▁combat",
        -10.795199292155912
      ],
      [
        "▁beater",
        -11.115077403861003
      ],
      [
        "ber",
        -8.531894994131164
      ],
      [
        "▁ever",
        -14.412819073874982
      ],
      [
        "!!!!!!!",
        -11.378490256407192
      ],
      [
        "▁per",
        -10.524772088798718
      ],
      [
        "▁innocent",
        -10.550545143940855
      ],
      [
        "▁down",
        -6.894787423979743
      ],
      [
        "▁clinic",
        -10.370075657248501
      ],
      [
        "▁separate",
        -9.22944454469081
      ],
      [
        "▁workshop",
        -10.874765811046109
      ],
      [
        "za",
        -9.52899712928384
      ],
      [
        "9",
        -9.761469071731705
      ],
      [
        "▁shiite",
        -10.156876261658965
      ],
      [
        "▁blueberr",
        -10.87348919033801
      ],
      [
        "▁myceli",
        -10.621973699964737
      ],
      [
        "29",
        -11.000795650078883
      ],
      [
        "▁brilliant",
        -10.873139106361101
      ],
      [
        "▁prosecutor",
        -11.08425020904966
      ],
      [
        "▁3/9/",
        -13.141521256888392
      ],
      [
        "the",
        -5.642825194949208
      ],
      [
        "▁equivalen",
        -10.867578689185054
      ],
      [
        "▁55,",
        -13.499818052039403
      ],
      [
        "▁08:2",
        -12.405270304354552
      ],
      [
        "▁hug",
        -8.55825019292379
      ],
      [
        "ap",
        -9.602738098524735
      ],
      [
        "▁summar",
        -10.167849183697484
      ],
      [
        "▁alway",
        -7.494077491090278
      ],
      [
        "▁kam",
        -11.998371256610433
      ],
      [
        "▁keep",
        -7.455030079453249
      ],
      [
        "▁thirst",
        -10.782231533897402
      ],
      [
        "▁shuttle",
        -10.782253120120702
      ],
      [
        "▁water",
        -7.3433845228055326
      ],
      [
        "▁whisper",
        -10.873139802159924
      ],
      [
        "at",
        -8.580003650869935
      ],
      [
        "gan",
        -8.24243046840046
      ],
      [
        "y@e",
        -11.877703282032476
      ],
      [
        "78",
        -11.485769806607408
      ],
      [
        "▁fe",
        -13.184799183402896
      ],
      [
        "▁accomplish",
        -10.698179129624727
      ],
      [
        "▁smell",
        -9.042836147814644
      ],
      [
        "▁ram",
        -9.93450016978628
      ],
      [
        "▁banana",
        -8.836660443754045
      ],
      [
        "▁seattle",
        -8.538012627106802
      ],
      [
        "▁ant",
        -11.860894755500919
      ],
      [
        "▁verb",
        -10.97344325202095
      ],
      [
        "▁deteriorat",
        -10.622491312316283
      ],
      [
        "▁sauce",
        -10.421543581335143
      ],
      [
        "6/200",
        -15.097693619441639
      ],
      [
        "▁merry",
        -10.69987685168506
      ],
      [
        "▁greas",
        -10.973152101639501
      ],
      [
        "▁supply",
        -10.362554988192926
      ],
      [
        "▁vi",
        -11.090089463635374
      ],
      [
        "▁monster",
        -9.743650427204727
      ],
      [
        "ize",
        -9.049255508895651
      ],
      [
        "▁simpl",
        -8.809611150738295
      ],
      [
        "”",
        -6.541188097635501
      ],
      [
        "art",
        -9.95838834848572
      ],
      [
        "▁wednesday",
        -7.519443471921703
      ],
      [
        "▁account",
        -8.47562117545495
      ],
      [
        "eur",
        -12.843554417548672
      ],
      [
        "orland",
        -8.410516301592102
      ],
      [
        "▁drug",
        -9.499248248373597
      ],
      [
        "▁designate",
        -11.154347884831648
      ],
      [
        "69",
        -11.839517049892248
      ],
      [
        "master",
        -11.06119709878956
      ],
      [
        "66",
        -12.073162576097861
      ],
      [
        "▁criminal",
        -10.026149254213435
      ],
      [
        "▁s.",
        -10.629615480501329
      ],
      [
        ":",
        -5.169352985407191
      ],
      [
        "▁terminal",
        -11.086231808686032
      ],
      [
        "icles",
        -9.436864811028613
      ],
      [
        "ative",
        -9.647084216985043
      ],
      [
        "▁ignor",
        -10.747432441251064
      ],
      [
        "7,5",
        -14.136437153738301
      ],
      [
        "nmar",
        -10.934394582831917
      ],
      [
        ":00:5",
        -13.43040680701948
      ],
      [
        "_",
        -4.782693395996079
      ],
      [
        "another",
        -10.357494289543581
      ],
      [
        "▁haf",
        -7.746963796290526
      ],
      [
        "by",
        -9.258694004423091
      ],
      [
        "▁85",
        -12.357745637678045
      ],
      [
        "▁101",
        -12.534622449071785
      ],
      [
        "▁inevitabl",
        -10.550545110781142
      ],
      [
        "ation",
        -10.323213255553194
      ],
      [
        "▁reputation",
        -10.550918149433562
      ],
      [
        "▁anyway",
        -8.776648282742809
      ],
      [
        "▁range",
        -9.395393356462982
      ],
      [
        "▁bath",
        -9.327314677299698
      ],
      [
        "▁reform",
        -10.253569940410554
      ],
      [
        "▁laugh",
        -8.777463967172537
      ],
      [
        "▁fluid",
        -10.622243741345308
      ],
      [
        "▁bi",
        -9.593222906502632
      ],
      [
        "▁wis",
        -10.638357746747287
      ],
      [
        "ac",
        -11.991757960654494
      ],
      [
        "▁island",
        -8.22835318912909
      ],
      [
        "▁racket",
        -10.622152089241036
      ],
      [
        "▁table",
        -8.228483860067728
      ],
      [
        "▁hope",
        -7.909580887764246
      ],
      [
        "▁falluja",
        -10.204375673532832
      ],
      [
        "▁resume",
        -10.421527050898291
      ],
      [
        "▁steak",
        -10.483882522389678
      ],
      [
        "===============",
        -10.485113607253005
      ],
      [
        "▁famous",
        -9.548565740227971
      ],
      [
        "und",
        -8.394454848542383
      ],
      [
        "▁merchant",
        -10.550546369587599
      ],
      [
        "▁et",
        -9.566894945876847
      ],
      [
        "▁abuse",
        -10.363283460497282
      ],
      [
        "ac",
        -9.396153271130302
      ],
      [
        "st.",
        -7.76723701790979
      ],
      [
        "▁grabb",
        -10.433161696820882
      ],
      [
        "▁critic",
        -9.168123834605495
      ],
      [
        "tion",
        -12.180068468084194
      ],
      [
        "▁l2",
        -10.068040995809394
      ],
      [
        "▁name",
        -6.98022701701271
      ],
      [
        "▁she",
        -9.907792165235584
      ],
      [
        "▁now",
        -6.042119585916172
      ],
      [
        "▁pun",
        -11.09258415939765
      ],
      [
        "▁gar",
        -11.938717667428307
      ],
      [
        "▁steven",
        -10.886576220647642
      ],
      [
        "ik",
        -11.833857830146384
      ],
      [
        "▁appropriate",
        -9.432296933988706
      ],
      [
        "rui",
        -11.834054007462155
      ],
      [
        "23",
        -10.346114600887256
      ],
      [
        "90",
        -11.918338620993051
      ],
      [
        "ict",
        -9.93212676511423
      ],
      [
        "▁explor",
        -10.34860403344086
      ],
      [
        "duct",
        -10.77297473358777
      ],
      [
        "▁butter",
        -9.173705463214255
      ],
      [
        "lik",
        -8.795665178243048
      ],
      [
        "▁objective",
        -9.549561350806206
      ],
      [
        "▁fatal",
        -11.021973930295047
      ],
      [
        "▁hum",
        -9.940930220010681
      ],
      [
        "▁69",
        -13.421823213516547
      ],
      [
        "▁tunnel",
        -10.55054533816844
      ],
      [
        "▁since",
        -10.363678526293729
      ],
      [
        "▁lake",
        -8.371272675956211
      ],
      [
        "▁12.4",
        -12.675189927992925
      ],
      [
        "▁2,2",
        -13.414392304097612
      ],
      [
        "▁worst",
        -9.365023829943588
      ],
      [
        "▁sea",
        -7.958463241001096
      ],
      [
        "▁23",
        -10.030498826871938
      ],
      [
        "▁expir",
        -10.730687461086424
      ],
      [
        "▁1-800-",
        -12.663110100375743
      ],
      [
        "▁jobs",
        -9.824553248371982
      ],
      [
        "▁mold",
        -10.62230169518466
      ],
      [
        "▁suite",
        -10.852709526664082
      ],
      [
        "▁drop",
        -9.041306450664015
      ],
      [
        "1.",
        -10.975907898287584
      ],
      [
        "alliance",
        -10.204880421187081
      ],
      [
        "▁apple",
        -9.208888715283639
      ],
      [
        "▁examine",
        -10.43344293428124
      ],
      [
        "of",
        -10.387444100209501
      ],
      [
        "pression",
        -11.182970721705052
      ],
      [
        "me",
        -9.799251337819433
      ],
      [
        "▁credit",
        -8.874609063632553
      ],
      [
        "image",
        -10.758712974907287
      ],
      [
        "▁trail",
        -9.8747619387429
      ],
      [
        "▁d.",
        -11.113447961635394
      ],
      [
        "▁cou",
        -10.858686679206002
      ],
      [
        "m",
        -4.126316415305997
      ],
      [
        "▁cigarette",
        -9.986152975226027
      ],
      [
        "▁rang",
        -10.027473499589643
      ],
      [
        "111",
        -12.788292034875846
      ],
      [
        "▁organiz",
        -10.441649482129073
      ],
      [
        "▁pilgrim",
        -10.972783938234663
      ],
      [
        "▁ka",
        -9.287887647372248
      ],
      [
        "▁length",
        -9.8072350112515
      ],
      [
        "▁arrogant",
        -10.30863613314014
      ],
      [
        "▁fellow",
        -9.385780841845765
      ],
      [
        "ppy",
        -10.999019044961623
      ],
      [
        "▁interpretation",
        -10.623802134642816
      ],
      [
        "▁explain",
        -8.51086377530072
      ],
      [
        "414",
        -13.14622484673741
      ],
      [
        "▁tale",
        -10.488858359267265
      ],
      [
        "sa",
        -10.695860057288726
      ],
      [
        "hiri",
        -9.48853398584903
      ],
      [
        "▁scatter",
        -10.782232701828015
      ],
      [
        "▁bu",
        -9.39841454670741
      ],
      [
        "ory",
        -9.795311600947727
      ],
      [
        "oven",
        -10.251635798684793
      ],
      [
        "▁entertain",
        -10.067874583479254
      ],
      [
        "se",
        -10.116435411708396
      ],
      [
        "▁satisfact",
        -10.555784743981635
      ],
      [
        "/23/200",
        -12.34064088726252
      ],
      [
        "▁beatle",
        -10.15898597747114
      ],
      [
        "▁get",
        -5.735858642197
      ],
      [
        "ay",
        -11.161156096712118
      ],
      [
        "▁presen",
        -9.751245714027014
      ],
      [
        "ama",
        -9.852007125971163
      ],
      [
        "▁713/8",
        -14.340536229756822
      ],
      [
        "▁seal",
        -10.198472083714798
      ],
      [
        "w",
        -4.938168009100055
      ],
      [
        "for",
        -6.699129353135135
      ],
      [
        "▁auster",
        -9.36414949919897
      ],
      [
        "▁garb",
        -10.626431977091142
      ],
      [
        "▁elect",
        -10.063962431714774
      ],
      [
        "▁asset",
        -10.112671690500227
      ],
      [
        "ra",
        -8.411703763920443
      ],
      [
        "ism",
        -8.038150224026701
      ],
      [
        "▁bigge",
        -8.91612420578351
      ],
      [
        "▁sin",
        -10.268003290543396
      ],
      [
        "do",
        -9.304210382376619
      ],
      [
        "▁nas",
        -9.950716072037086
      ],
      [
        "▁australia",
        -9.499174069013288
      ],
      [
        "▁advance",
        -9.187060429267405
      ],
      [
        "ore",
        -12.117485135914382
      ],
      [
        "▁ci",
        -10.998760393632082
      ],
      [
        "▁colonial",
        -10.622151486750308
      ],
      [
        "▁alternative",
        -9.452148556009037
      ],
      [
        "8.",
        -12.843129431892798
      ],
      [
        "pass",
        -10.768434800115557
      ],
      [
        "▁questions",
        -8.33571152417283
      ],
      [
        "▁718",
        -12.70140278258359
      ],
      [
        "▁shah",
        -10.920497979420233
      ],
      [
        "roll",
        -10.28995736936308
      ],
      [
        "▁artificial",
        -10.782234905805863
      ],
      [
        "▁la",
        -7.904863133567718
      ],
      [
        "▁7:",
        -14.019212079305506
      ],
      [
        "ia",
        -8.03447089937854
      ],
      [
        "▁directive",
        -9.090896220717392
      ],
      [
        "▁syria",
        -9.452126335801273
      ],
      [
        "▁your",
        -5.91319889996456
      ],
      [
        "12",
        -10.115966630470972
      ],
      [
        "ing",
        -3.782148856982735
      ],
      [
        "▁du",
        -11.406419735949775
      ],
      [
        "ally",
        -7.772304807920895
      ],
      [
        "ikh",
        -11.10451871092272
      ],
      [
        "hou",
        -10.891721015640892
      ],
      [
        "▁cor",
        -10.112123094158898
      ],
      [
        "▁impress",
        -9.742622333917087
      ],
      [
        "▁quartile",
        -10.068445531913998
      ],
      [
        "▁isda",
        -10.424876960385172
      ],
      [
        "ten",
        -9.120651061828884
      ],
      [
        "▁cere",
        -9.60966486245737
      ],
      [
        "▁4",
        -9.981226615369412
      ],
      [
        "▁shakespeare",
        -8.204304246552072
      ],
      [
        "▁silver",
        -9.475365710233174
      ],
      [
        "▁benefit",
        -8.861786307462594
      ],
      [
        "▁observation",
        -10.309097497528409
      ],
      [
        "▁encourage",
        -9.60052112823979
      ],
      [
        "gar",
        -10.117817981444787
      ],
      [
        "igh",
        -12.634214216105146
      ],
      [
        "▁iranian",
        -10.205415840193677
      ],
      [
        "▁willing",
        -9.36859268797225
      ],
      [
        "46-5",
        -15.428879037278351
      ],
      [
        "▁jump",
        -8.697701325878736
      ],
      [
        "▁law",
        -8.146995868553539
      ],
      [
        "▁convenient",
        -10.362554829351422
      ],
      [
        "▁bar",
        -8.693486194981974
      ],
      [
        "▁airplane",
        -9.600605844388266
      ],
      [
        "▁34",
        -11.55316952087386
      ],
      [
        "▁transmitt",
        -10.557547469064236
      ],
      [
        "▁label",
        -10.225638731557837
      ],
      [
        "oit",
        -9.092533642132357
      ],
      [
        "▁romance",
        -10.8115959335913
      ],
      [
        "az",
        -12.820537301554094
      ],
      [
        "▁relations",
        -10.02719923297105
      ],
      [
        "0",
        -9.597530363980802
      ],
      [
        "/10/200",
        -11.680262662674137
      ],
      [
        "▁ruin",
        -9.948368777946149
      ],
      [
        "▁conduct",
        -9.683970978394619
      ],
      [
        "▁float",
        -9.877077042697405
      ],
      [
        "demic",
        -10.699018809228818
      ],
      [
        "▁up",
        -6.475747422416015
      ],
      [
        "▁harmonis",
        -10.376695013296981
      ],
      [
        "▁queen",
        -10.62213592294907
      ],
      [
        "phis",
        -8.800511606824449
      ],
      [
        "ver",
        -11.024067939475756
      ],
      [
        "▁plu",
        -10.581368776502405
      ],
      [
        "▁earlie",
        -7.83498465180913
      ],
      [
        "▁cocktail",
        -10.2043677066754
      ],
      [
        "/27/200",
        -11.799692145187812
      ],
      [
        "▁apply",
        -9.030911858741433
      ],
      [
        "▁chao",
        -9.878176627615247
      ],
      [
        "▁shal",
        -8.887905078232698
      ],
      [
        "▁spoke",
        -8.80016097687438
      ],
      [
        "▁warrant",
        -10.421394707303438
      ],
      [
        "▁yea",
        -6.46056517696307
      ],
      [
        "▁beetle",
        -10.782711549037664
      ],
      [
        "▁mobile",
        -10.491702122992727
      ],
      [
        "▁lecture",
        -11.084250793162967
      ],
      [
        "as",
        -9.405082315508244
      ],
      [
        "tor",
        -10.223750643728716
      ],
      [
        "▁hu",
        -10.54529047320942
      ],
      [
        "▁counterfeit",
        -10.06781586773566
      ],
      [
        "▁locomoti",
        -10.698896705336098
      ],
      [
        "net",
        -10.00313213250049
      ],
      [
        "pap",
        -11.937393020546956
      ],
      [
        "▁20,000",
        -11.18698593061998
      ],
      [
        "es",
        -11.942189965879606
      ],
      [
        "where",
        -11.75353131760598
      ],
      [
        "▁traveler",
        -10.301337493693392
      ],
      [
        "+",
        -9.375196107582326
      ],
      [
        "▁si",
        -10.89098871490355
      ],
      [
        "nca",
        -12.403582309077763
      ],
      [
        "(",
        -4.749593983020589
      ],
      [
        "▁judgment",
        -10.111450781742505
      ],
      [
        "▁713-8",
        -14.144922617056224
      ],
      [
        "rry",
        -10.098921721006656
      ],
      [
        "▁outfit",
        -10.622000019134093
      ],
      [
        "▁or",
        -9.547816572173035
      ],
      [
        "▁kin",
        -10.643367201731568
      ],
      [
        "aid",
        -8.980888963073902
      ],
      [
        "▁",
        -0.7229493926812545
      ],
      [
        "▁israel",
        -8.826317731794024
      ],
      [
        "otis",
        -10.569655144352943
      ],
      [
        "▁hav",
        -6.307941970917244
      ],
      [
        ":",
        -10.973139075059464
      ],
      [
        "▁`",
        -11.280003543173743
      ],
      [
        "▁electronic",
        -10.362570601077216
      ],
      [
        "▁arrow",
        -9.910708445006218
      ],
      [
        "▁infinit",
        -10.698897661972119
      ],
      [
        "▁thr",
        -8.152049216504125
      ],
      [
        "100",
        -11.126169046448926
      ],
      [
        "▁gender",
        -9.840462036102746
      ],
      [
        "▁scot",
        -10.545246675391496
      ],
      [
        "▁immense",
        -10.975990935391113
      ],
      [
        "▁muff",
        -11.086259669152037
      ],
      [
        "▁<",
        -9.428811894508193
      ],
      [
        "▁television",
        -9.627615351100664
      ],
      [
        "▁class",
        -7.3837290081576015
      ],
      [
        "▁chat",
        -10.389947570978356
      ],
      [
        "▁school",
        -7.212399545302544
      ],
      [
        "ix",
        -12.696653061457788
      ],
      [
        "▁yog",
        -9.600705025202986
      ],
      [
        "▁shackle",
        -10.873139206618037
      ],
      [
        "▁restrict",
        -10.876103267543755
      ],
      [
        "▁mexican",
        -9.875946045922184
      ],
      [
        "883",
        -14.15438031203266
      ],
      [
        "▁complement",
        -11.084251502249018
      ],
      [
        "▁5.8",
        -13.211594130304274
      ],
      [
        "ica",
        -9.76356922231464
      ],
      [
        "ogue",
        -10.692499708725775
      ],
      [
        "▁praise",
        -10.550639873702657
      ],
      [
        "▁mountain",
        -9.122329759882984
      ],
      [
        "woul",
        -8.996040675627027
      ],
      [
        "▁155",
        -13.15109811699319
      ],
      [
        "-------",
        -13.39979738792847
      ],
      [
        "▁luther",
        -10.87329492147498
      ],
      [
        "▁stomach",
        -10.204367838773564
      ],
      [
        "▁drunk",
        -10.782230973077153
      ],
      [
        "▁jane",
        -10.571027509487509
      ],
      [
        "▁pachomi",
        -10.254367708228724
      ],
      [
        "▁capacit",
        -9.245199496825167
      ],
      [
        "even",
        -10.894615013283493
      ],
      [
        "▁resign",
        -10.973189026957632
      ],
      [
        "▁refer",
        -9.381174092002295
      ],
      [
        "ner",
        -9.589470982981643
      ],
      [
        "▁complex",
        -9.523564447795286
      ],
      [
        "▁exam",
        -10.362283817632438
      ],
      [
        "▁paragraph",
        -10.78228039570954
      ],
      [
        "▁xv",
        -13.162449918911665
      ],
      [
        "05",
        -10.948316364981569
      ],
      [
        "▁stem",
        -10.362611461326805
      ],
      [
        "70",
        -10.094034072897372
      ],
      [
        "▁brian",
        -10.483897307528466
      ],
      [
        "de",
        -9.369169666168602
      ],
      [
        "▁goose",
        -10.699703285467194
      ],
      [
        "▁cancel",
        -10.307090867762613
      ],
      [
        "▁meaning",
        -9.363749474879175
      ],
      [
        "▁12:",
        -12.101167411589989
      ],
      [
        "▁jones",
        -10.316613612649606
      ],
      [
        "st",
        -12.984708586078439
      ],
      [
        "▁lime",
        -10.363357443698016
      ],
      [
        "▁easi",
        -8.767152846625212
      ],
      [
        "min",
        -9.957249813968366
      ],
      [
        "▁tippy",
        -10.873264095122337
      ],
      [
        "▁commitment",
        -10.06831984992056
      ],
      [
        "mec",
        -10.456966819748992
      ],
      [
        "▁starv",
        -10.569893336544482
      ],
      [
        "▁barb",
        -10.95803102027407
      ],
      [
        "col",
        -10.00012535916734
      ],
      [
        "▁sand",
        -11.379848541685982
      ],
      [
        "bru",
        -9.083391307199555
      ],
      [
        ".5",
        -11.877263202958114
      ],
      [
        "▁challenge",
        -9.233768861981016
      ],
      [
        "▁radical",
        -10.622149098636298
      ],
      [
        "cinna",
        -10.873620870596088
      ],
      [
        "▁mem",
        -8.7062040056316
      ],
      [
        "▁purchas",
        -10.49389603932395
      ],
      [
        "▁ukrainian",
        -10.873139097863394
      ],
      [
        "170",
        -14.674369146106468
      ],
      [
        "▁12:0",
        -12.672542544953671
      ],
      [
        "▁10:1",
        -14.856075921306761
      ],
      [
        "fore",
        -8.751763233800682
      ],
      [
        "▁taxi",
        -10.07234110019638
      ],
      [
        "▁matthew",
        -10.48387838646294
      ],
      [
        "▁vega",
        -8.245125516575804
      ],
      [
        "power",
        -11.184298997830906
      ],
      [
        "and",
        -10.66544795153681
      ],
      [
        "rt",
        -12.710446383063182
      ],
      [
        "▁calendar",
        -10.550545061463945
      ],
      [
        "▁fr",
        -9.013190444206863
      ],
      [
        "▁contain",
        -8.97808719832403
      ],
      [
        "▁stand",
        -8.48568162038282
      ],
      [
        "▁agent",
        -9.364495825195519
      ],
      [
        "▁unknown",
        -9.94768764085454
      ],
      [
        "▁envelope",
        -11.094138390792462
      ],
      [
        "ه",
        -14.203197884361366
      ],
      [
        "▁weed",
        -10.906302496339183
      ],
      [
        "▁01/2",
        -13.14262021468103
      ],
      [
        "▁gar",
        -9.858379495443078
      ],
      [
        "▁tragic",
        -11.08424879358369
      ],
      [
        "▁161",
        -11.458814305941752
      ],
      [
        "it",
        -8.041259514817341
      ],
      [
        "▁fur",
        -10.407999141826739
      ],
      [
        "▁happening",
        -9.914543032080713
      ],
      [
        "▁donald",
        -10.973335466969779
      ],
      [
        "▁edward",
        -10.026649394389592
      ],
      [
        "42",
        -12.274953641953008
      ],
      [
        "▁obstacle",
        -10.621973597665901
      ],
      [
        "▁fall",
        -7.857750378858382
      ],
      [
        "▁stand",
        -11.833815694314197
      ],
      [
        "×",
        -11.833785825435129
      ],
      [
        "riff",
        -10.781314299648201
      ],
      [
        "16:",
        -14.198968335694197
      ],
      [
        "ta",
        -13.295403756520326
      ],
      [
        "arch",
        -11.028432578511733
      ],
      [
        "ida",
        -10.062880400488224
      ],
      [
        "▁165",
        -13.333829689480133
      ],
      [
        "1,000",
        -11.273927685449541
      ],
      [
        "ez",
        -9.547453984764367
      ],
      [
        "ought",
        -10.22622082612859
      ],
      [
        "▁tension",
        -10.30710828960069
      ],
      [
        "pur",
        -10.37143485701321
      ],
      [
        "▁25.",
        -14.400507833653686
      ],
      [
        "▁hospital",
        -9.122239058231475
      ],
      [
        "▁sick",
        -9.139559467998954
      ],
      [
        "▁cuba",
        -10.104603280832787
      ],
      [
        "▁3.2",
        -13.445561934583502
      ],
      [
        "▁ku",
        -10.599635454007057
      ],
      [
        "▁patient",
        -9.658679189255121
      ],
      [
        "get",
        -11.33405405661711
      ],
      [
        "script",
        -11.149545452505855
      ],
      [
        "▁char",
        -8.018682344236295
      ],
      [
        "▁carbon",
        -10.204408264817292
      ],
      [
        "▁frequent",
        -9.452108736760888
      ],
      [
        "▁cha",
        -9.83474512130551
      ],
      [
        "▁bernard",
        -10.973140559352785
      ],
      [
        "#",
        -11.058960742878686
      ],
      [
        "▁rebuild",
        -10.698896673564077
      ],
      [
        "▁mor",
        -9.778046396027694
      ],
      [
        "▁stor",
        -8.846270410517615
      ],
      [
        "k",
        -9.838251410787471
      ],
      [
        "▁level",
        -8.279686546625193
      ],
      [
        "lett",
        -10.812087449117914
      ],
      [
        ".3",
        -12.322597446836587
      ],
      [
        "craft",
        -8.465931625215791
      ],
      [
        "ol",
        -8.888602258811844
      ],
      [
        "▁sweater",
        -10.158709255728454
      ],
      [
        "sis",
        -12.693411606486883
      ],
      [
        "!!!!!!!!!!!!",
        -12.840602699725888
      ],
      [
        "▁arrive",
        -7.901899479042665
      ],
      [
        "▁connected",
        -10.254950085545678
      ],
      [
        "▁d'",
        -11.991204330988092
      ],
      [
        "▁conquer",
        -11.08425473699881
      ],
      [
        "▁rate",
        -8.394615484833668
      ],
      [
        "▁balti",
        -7.011295923499061
      ],
      [
        "▁recommendation",
        -10.119099979821373
      ],
      [
        "-518",
        -14.187807511083523
      ],
      [
        "▁lib",
        -12.626473873334985
      ],
      [
        "▁202",
        -11.617891900155048
      ],
      [
        "ehr",
        -11.166055404637993
      ],
      [
        "▁dose",
        -10.236557412057024
      ],
      [
        "▁th-",
        -10.367154402671856
      ],
      [
        "▁brief",
        -9.385402798918346
      ],
      [
        "va",
        -9.826610497753862
      ],
      [
        "▁sweep",
        -10.42137902309738
      ],
      [
        "tagon",
        -10.816536665264755
      ],
      [
        "▁visa",
        -9.38604104335638
      ],
      [
        "erdu",
        -13.540715440602636
      ],
      [
        "▁stage",
        -9.524200866182348
      ],
      [
        "▁basic",
        -8.865345052444496
      ],
      [
        "▁scan",
        -10.555954591156478
      ],
      [
        "▁prepared",
        -9.595764938079146
      ],
      [
        "▁wrapp",
        -10.625213571895298
      ],
      [
        "nt",
        -15.500372919647575
      ],
      [
        "▁useful",
        -9.78515183736997
      ],
      [
        "▁end",
        -7.442750247272132
      ],
      [
        "emp",
        -11.876212475785815
      ],
      [
        "▁deserve",
        -10.362569114872025
      ],
      [
        "stella",
        -10.37216117949119
      ],
      [
        "▁persian",
        -10.873516893617701
      ],
      [
        "92",
        -12.130184995798194
      ],
      [
        "llah",
        -10.627447848549224
      ],
      [
        "57",
        -11.891159420239507
      ],
      [
        "▁peel",
        -10.792317086096173
      ],
      [
        "▁operation",
        -9.301029896347814
      ],
      [
        "▁permission",
        -10.622874446386836
      ],
      [
        "▁reference",
        -9.150491090857876
      ],
      [
        "▁kell",
        -10.994236221906172
      ],
      [
        "▁mu",
        -9.426527072591906
      ],
      [
        "bye",
        -10.207259023339528
      ],
      [
        "▁trade",
        -9.087322538664441
      ],
      [
        "▁simon",
        -11.08457365124292
      ],
      [
        "▁absorb",
        -10.306999424214085
      ],
      [
        "▁crown",
        -10.873161515309866
      ],
      [
        "is",
        -7.52289662681752
      ],
      [
        "▁greg",
        -10.42280934201943
      ],
      [
        "▁skill",
        -10.34465159292693
      ],
      [
        "western",
        -11.114036067452457
      ],
      [
        "▁problem",
        -7.617252621318436
      ],
      [
        "▁!?!",
        -14.014058543488009
      ],
      [
        "▁smooth",
        -9.986149370242641
      ],
      [
        "▁mason",
        -11.104575299628094
      ],
      [
        "▁complaint",
        -10.209325109402124
      ],
      [
        "▁insight",
        -10.11141182077436
      ],
      [
        "▁2",
        -8.323821680644631
      ],
      [
        "▁stroll",
        -10.550715348338382
      ],
      [
        "▁operator",
        -9.49984779905536
      ],
      [
        "▁start",
        -7.19167079149622
      ],
      [
        "/22/200",
        -13.133961365114281
      ],
      [
        "▁rid",
        -9.336092373922682
      ],
      [
        "▁oversea",
        -10.782366297352018
      ],
      [
        "▁nah",
        -10.91806674624446
      ],
      [
        "▁educat",
        -11.888247019117516
      ],
      [
        "▁teacher",
        -8.915643045252391
      ],
      [
        "austin",
        -10.873153246742511
      ],
      [
        "▁chapter",
        -9.807190365250314
      ],
      [
        "▁hel",
        -8.839413105193962
      ],
      [
        "▁emerg",
        -9.520259465764106
      ],
      [
        "▁chemical",
        -9.658030631277109
      ],
      [
        "sie",
        -11.754802446786904
      ],
      [
        "▁pm",
        -7.046624845514733
      ],
      [
        "▁'",
        -8.499373499932924
      ],
      [
        "fluent",
        -10.973759944945614
      ],
      [
        "▁future",
        -8.301271372954384
      ],
      [
        "▁1.",
        -12.094938996564373
      ],
      [
        "ctic",
        -10.556789120480966
      ],
      [
        "▁wag",
        -10.820295173950202
      ],
      [
        "▁spark",
        -10.975160593411358
      ],
      [
        "▁fluff",
        -11.084561927121017
      ],
      [
        "ndaro",
        -12.83397278364555
      ],
      [
        "▁assumption",
        -11.088055860482882
      ],
      [
        "▁coordinate",
        -11.07469193398495
      ],
      [
        ".com",
        -8.322054983344787
      ],
      [
        "▁execute",
        -9.950429432794612
      ],
      [
        "▁pattern",
        -10.027924204451505
      ],
      [
        "let",
        -11.33634975264456
      ],
      [
        "▁11:3",
        -11.271903610617212
      ],
      [
        "▁kay",
        -9.626087307179024
      ],
      [
        "▁snake",
        -9.38542073547698
      ],
      [
        "▁+",
        -12.359034424904078
      ],
      [
        "002",
        -14.61004216545788
      ],
      [
        "▁lexic",
        -10.961740967565884
      ],
      [
        "du",
        -14.463914734342401
      ],
      [
        "ton@e",
        -11.320930134632315
      ],
      [
        "▁pair",
        -9.527720273167025
      ],
      [
        "▁ensure",
        -8.961981733224443
      ],
      [
        "▁consequence",
        -9.910650598496199
      ],
      [
        "150",
        -15.027533495975852
      ],
      [
        "en",
        -10.98587827178205
      ],
      [
        "▁particular",
        -8.074493172981779
      ],
      [
        "▁mul",
        -11.089589846251654
      ],
      [
        "▁probabl",
        -7.851997216658618
      ],
      [
        "▁instruction",
        -9.875228441791279
      ],
      [
        "888.",
        -12.636947950041677
      ],
      [
        "ago",
        -8.173160583063979
      ],
      [
        "▁era",
        -9.915296927339309
      ],
      [
        "▁jelly",
        -10.259410270825224
      ],
      [
        "1/200",
        -13.247358491964661
      ],
      [
        "▁elbow",
        -10.782230378206922
      ],
      [
        "w",
        -7.095448608789789
      ],
      [
        "▁up",
        -6.8551603158540315
      ],
      [
        "▁mitch",
        -9.684442776835606
      ],
      [
        "0.7",
        -14.545472279677155
      ],
      [
        "▁turist",
        -11.335733798982876
      ],
      [
        "h",
        -4.251603060837546
      ],
      [
        "▁shin",
        -9.75049094754396
      ],
      [
        "▁transition",
        -10.307949856833766
      ],
      [
        "▁tana",
        -10.82534201347118
      ],
      [
        "5.0",
        -14.634618052259844
      ],
      [
        "▁preferr",
        -10.879717150917775
      ],
      [
        "993",
        -12.980437086431529
      ],
      [
        "▁over",
        -7.36005997528514
      ],
      [
        "▁mathematical",
        -10.56712933697596
      ],
      [
        "09/20",
        -13.900643861991316
      ],
      [
        "le",
        -6.801260736666364
      ],
      [
        "own",
        -10.032124078086936
      ],
      [
        "hoe",
        -10.844896429361297
      ],
      [
        "▁lifetime",
        -10.554194908489867
      ],
      [
        "▁129",
        -12.292761266971034
      ],
      [
        "▁reduc",
        -10.000404195475797
      ],
      [
        "▁defin",
        -9.697165477846394
      ],
      [
        "▁vehicle",
        -9.840454624093288
      ],
      [
        "▁balance",
        -9.043273359413378
      ],
      [
        "0",
        -7.942014689472322
      ],
      [
        "▁assistan",
        -9.424803992360246
      ],
      [
        "▁sides",
        -10.656548309318783
      ],
      [
        "▁frost",
        -10.550584366797674
      ],
      [
        "▁expectation",
        -9.914362365066339
      ],
      [
        "▁database",
        -9.499174598162604
      ],
      [
        "canada",
        -9.109636689333062
      ],
      [
        "▁staff",
        -8.392583685843418
      ],
      [
        "▁ag",
        -10.388638485166753
      ],
      [
        "▁career",
        -9.257862110978383
      ],
      [
        "▁random",
        -10.782424371423929
      ],
      [
        "▁augment",
        -10.782233177353872
      ],
      [
        "fr",
        -13.6376372973617
      ],
      [
        "ennes",
        -10.796096449398352
      ],
      [
        "4-0",
        -13.976970355796785
      ],
      [
        "▁mr",
        -7.7335709982079415
      ],
      [
        "583",
        -14.127899028574245
      ],
      [
        "▁not",
        -8.772272525484624
      ],
      [
        "▁entire",
        -8.69767823643648
      ],
      [
        "▁dem",
        -9.69989078906838
      ],
      [
        "▁exo",
        -11.042802886274767
      ],
      [
        "▁clothes",
        -8.85068760543552
      ],
      [
        "▁ma",
        -8.777114217691906
      ],
      [
        "4:5",
        -14.567715117453758
      ],
      [
        "▁paine",
        -10.227321389786928
      ],
      [
        "▁wake",
        -9.364265189348504
      ],
      [
        "▁bush",
        -7.72046844871407
      ],
      [
        "▁7.",
        -12.563655679205034
      ],
      [
        "▁183",
        -10.543131175840326
      ],
      [
        "▁retain",
        -10.873585930166469
      ],
      [
        "tan",
        -9.9321623395054
      ],
      [
        "▁veteran",
        -10.483885136786792
      ],
      [
        "▁ma",
        -10.186220961378396
      ],
      [
        "altho",
        -11.741346848193063
      ],
      [
        "▁recreat",
        -11.208239552409653
      ],
      [
        "▁e",
        -11.439061779438207
      ],
      [
        "▁collective",
        -9.911869534580015
      ],
      [
        "▁climb",
        -9.208533246993113
      ],
      [
        "▁prohibit",
        -10.782230050816535
      ],
      [
        "/17/",
        -12.886927881943858
      ],
      [
        "▁dial",
        -10.092636414009906
      ],
      [
        "▁provision",
        -9.40715923667676
      ],
      [
        "▁doughnut",
        -9.874936426282439
      ],
      [
        "750",
        -14.563579567680097
      ],
      [
        "▁politician",
        -10.622268263633131
      ],
      [
        "▁personal",
        -8.543072769037531
      ],
      [
        "1507",
        -13.383298432819583
      ],
      [
        "▁transformation",
        -10.552991782242126
      ],
      [
        "cious",
        -10.899994821185008
      ],
      [
        "▁vendor",
        -10.782264222981741
      ],
      [
        "ena",
        -12.84160470787093
      ],
      [
        "di",
        -11.345092246721595
      ],
      [
        "▁excit",
        -10.38666624403752
      ],
      [
        "▁out",
        -6.829099427277347
      ],
      [
        "31",
        -11.169110703635585
      ],
      [
        "▁own",
        -7.355152662122664
      ],
      [
        "▁hol",
        -9.240143613953641
      ],
      [
        "fro",
        -7.918171548395994
      ],
      [
        "1/8",
        -12.30354400335542
      ],
      [
        "ganda",
        -10.871272004792155
      ],
      [
        "▁barn",
        -9.399672418148818
      ],
      [
        "55",
        -11.29034389136408
      ],
      [
        "▁metro",
        -10.15682376435106
      ],
      [
        "industry",
        -9.089719405179967
      ],
      [
        "▁philosopher",
        -10.792383872753884
      ],
      [
        "▁sketch",
        -10.975750859812107
      ],
      [
        "▁paper",
        -7.780929027314263
      ],
      [
        "▁consistent",
        -10.204530350899073
      ],
      [
        "co",
        -8.598166052977437
      ],
      [
        "▁dealer",
        -10.405714245028916
      ],
      [
        "b",
        -7.499961753875149
      ],
      [
        "▁m",
        -11.005205169478106
      ],
      [
        "▁more",
        -6.036639033968968
      ],
      [
        "▁ital",
        -9.875697668932332
      ],
      [
        "▁climate",
        -9.245199342889334
      ],
      [
        "▁styl",
        -11.189549520424134
      ],
      [
        "ced",
        -12.752075754843505
      ],
      [
        "dy",
        -12.875179971822407
      ],
      [
        "▁insect",
        -10.204544091751508
      ],
      [
        "5-9",
        -14.137390615099072
      ],
      [
        "▁services",
        -8.815271832094506
      ],
      [
        "▁sign",
        -8.306427221055973
      ],
      [
        "▁dan",
        -9.627519892607726
      ],
      [
        "▁kim",
        -9.745150132804579
      ],
      [
        "▁toe",
        -9.954289395623492
      ],
      [
        "▁plent",
        -9.604882645858028
      ],
      [
        "▁a",
        -6.611433388642253
      ],
      [
        "▁investment",
        -9.807583011421379
      ],
      [
        "▁100",
        -9.714914411262882
      ],
      [
        "▁bangladesh",
        -10.867528499405825
      ],
      [
        "▁farrier",
        -10.78226851222104
      ],
      [
        "00",
        -11.338619248245909
      ],
      [
        "▁refugee",
        -10.362554831415425
      ],
      [
        "▁sheet",
        -9.412173756280888
      ],
      [
        "▁jacket",
        -10.363024239830585
      ],
      [
        "▁spreadsheet",
        -11.084317728205082
      ],
      [
        "▁couch",
        -10.070680095625164
      ],
      [
        "▁portion",
        -10.02868303921926
      ],
      [
        "6",
        -11.333785825435129
      ],
      [
        "▁02:3",
        -14.039135444681833
      ],
      [
        "▁helicopter",
        -10.42137835851927
      ],
      [
        "7:4",
        -13.733506680232077
      ],
      [
        "▁microscop",
        -10.705930218179468
      ],
      [
        "804",
        -15.394592738338094
      ],
      [
        "▁fortie",
        -11.182917519988719
      ],
      [
        "corporate",
        -10.025404247900372
      ],
      [
        "4-",
        -13.552675663638237
      ],
      [
        "▁mental",
        -10.07011653515895
      ],
      [
        "▁alphabet",
        -11.084250210336586
      ],
      [
        "▁bombing",
        -10.78735410695713
      ],
      [
        "▁grow",
        -7.904220497928737
      ],
      [
        "▁busy",
        -8.870871731144984
      ],
      [
        "▁need",
        -6.228115013039726
      ],
      [
        "▁spread",
        -9.69042270384654
      ],
      [
        "▁obtain",
        -9.774877906859388
      ],
      [
        "▁burn",
        -9.667671962602784
      ],
      [
        "▁complain",
        -10.301544449659234
      ],
      [
        "▁personalit",
        -10.590570452780067
      ],
      [
        "▁16.",
        -14.199282383172985
      ],
      [
        "iv",
        -9.495519770133896
      ],
      [
        "▁aspect",
        -9.190640413785733
      ],
      [
        "uk",
        -10.068659058226505
      ],
      [
        "▁transit",
        -10.550549903554769
      ],
      [
        "nfant",
        -10.483870515745163
      ],
      [
        "193",
        -14.38386731268611
      ],
      [
        "▁theatre",
        -9.988406332191245
      ],
      [
        "▁mad",
        -9.456303742328492
      ],
      [
        "gel",
        -10.844855621277201
      ],
      [
        "▁be",
        -5.10546657731296
      ],
      [
        "▁leg",
        -8.52740958223249
      ],
      [
        "▁uneas",
        -10.782399240010704
      ],
      [
        "▁after",
        -9.748141363374536
      ],
      [
        "▁thought",
        -7.504872057252979
      ],
      [
        "▁element",
        -8.998054476934989
      ],
      [
        "al",
        -10.361669615324121
      ],
      [
        "▁suit",
        -9.390687943397293
      ],
      [
        "▁wax",
        -10.702638499687362
      ],
      [
        "▁distribut",
        -9.826778119136614
      ],
      [
        "▁st",
        -9.101820277451566
      ],
      [
        "ella",
        -10.167560714162999
      ],
      [
        "▁stamp",
        -11.20911858789488
      ],
      [
        "▁settle",
        -9.771911506636336
      ],
      [
        "▁oil",
        -8.522924481945939
      ],
      [
        "▁bleed",
        -10.914453633963511
      ],
      [
        "among",
        -11.64830135198203
      ],
      [
        "▁pets",
        -10.23899880959643
      ],
      [
        "other",
        -12.279273453871173
      ],
      [
        "▁prob",
        -11.152579614308333
      ],
      [
        "▁pla",
        -10.776013639092602
      ],
      [
        "▁culture",
        -8.686925573889859
      ],
      [
        "▁entitle",
        -10.120118806724754
      ],
      [
        "▁voice",
        -8.538168063413751
      ],
      [
        "▁invitation",
        -10.363814143225648
      ],
      [
        "here",
        -8.1828814778635
      ],
      [
        "▁decrease",
        -10.873139458904923
      ],
      [
        "▁_",
        -7.489743914877709
      ],
      [
        "ak",
        -9.461053881043998
      ],
      [
        "▁ip",
        -9.829723376664653
      ],
      [
        "▁miram",
        -10.4217188290074
      ],
      [
        "▁1,0",
        -14.58135672868335
      ],
      [
        "ul",
        -12.818709659508759
      ],
      [
        "▁owners",
        -10.375647256691646
      ],
      [
        "ware",
        -9.559928505583992
      ],
      [
        "▁worker",
        -9.386994668389669
      ],
      [
        "play",
        -10.954605132720598
      ],
      [
        "▁regime",
        -10.026149204420754
      ],
      [
        "▁mont",
        -8.428678843118206
      ],
      [
        "▁split",
        -10.111412663335075
      ],
      [
        "▁dand",
        -9.800602745083477
      ],
      [
        "▁roar",
        -9.775388475204176
      ],
      [
        "▁papa",
        -10.973682672116851
      ],
      [
        "▁continuous",
        -11.086317234988005
      ],
      [
        "9",
        -8.142959650847832
      ],
      [
        "▁allocat",
        -10.235516861576203
      ],
      [
        "▁nav",
        -9.748378611966965
      ],
      [
        "▁tamil",
        -10.362760325987535
      ],
      [
        "▁good",
        -6.299121307940173
      ],
      [
        "▁168",
        -12.511084376247197
      ],
      [
        "us",
        -7.317155285853316
      ],
      [
        "▁auto",
        -10.118081831398609
      ],
      [
        "\"",
        -4.250245863309695
      ],
      [
        "stella",
        -11.33379892341695
      ],
      [
        "cca",
        -10.367605588895945
      ],
      [
        "▁slid",
        -10.857915702277444
      ],
      [
        "▁wil",
        -12.654613728656043
      ],
      [
        "▁5",
        -11.486037404032146
      ],
      [
        "casnon",
        -12.833785903760916
      ],
      [
        "▁unaware",
        -11.084274096767224
      ],
      [
        "▁hate",
        -9.691702620320942
      ],
      [
        "▁limit",
        -8.839152538489198
      ],
      [
        "▁jim",
        -9.718418399026762
      ],
      [
        "re",
        -7.418210813944741
      ],
      [
        "ite",
        -9.313293933056384
      ],
      [
        "8-9",
        -14.116498766605678
      ],
      [
        "▁instructor",
        -10.307349685580334
      ],
      [
        "▁malaysia",
        -10.483878648183122
      ],
      [
        "▁qu",
        -11.69859529127919
      ],
      [
        "68",
        -12.36399916790613
      ],
      [
        "ill",
        -10.131124135757073
      ],
      [
        "▁accent",
        -11.083663831747039
      ],
      [
        "▁nazi",
        -11.08462085375221
      ],
      [
        "x",
        -9.923621729153174
      ],
      [
        "▁serving",
        -9.910655351251881
      ],
      [
        ".2",
        -12.489296254993784
      ],
      [
        "▁discount",
        -10.111361096708025
      ],
      [
        "▁side",
        -8.06770306737863
      ],
      [
        "▁713.",
        -15.35656633532893
      ],
      [
        "▁christ",
        -8.896456994603366
      ],
      [
        "▁01/1",
        -11.985543249189035
      ],
      [
        "▁julie",
        -10.426951248941101
      ],
      [
        "▁cheape",
        -8.054503630646087
      ],
      [
        "▁27",
        -10.732058639073955
      ],
      [
        "an",
        -8.57482120710274
      ],
      [
        "▁collect",
        -9.20566082715278
      ],
      [
        "▁ignore",
        -10.131552064966813
      ],
      [
        "▁theme",
        -9.91090242196421
      ],
      [
        "▁teach",
        -10.177180199698679
      ],
      [
        "80",
        -10.680973208443643
      ],
      [
        "▁indi",
        -11.042052469811676
      ],
      [
        "▁load",
        -9.580832142956545
      ],
      [
        "agr",
        -10.984714191306647
      ],
      [
        "▁substanti",
        -10.76685357444342
      ],
      [
        "▁flo",
        -9.977545630452616
      ],
      [
        "▁examination",
        -10.875061319686852
      ],
      [
        "▁cup",
        -8.405700011656386
      ],
      [
        "▁god",
        -9.188733570179135
      ],
      [
        "2.7",
        -13.14138521051941
      ],
      [
        "some",
        -9.085706270044335
      ],
      [
        "ed",
        -3.9099723365377272
      ],
      [
        "▁was",
        -7.314014138687145
      ],
      [
        ".......",
        -12.703372935004914
      ],
      [
        "▁f",
        -12.447108393056933
      ],
      [
        "▁fleet",
        -11.101417952336762
      ],
      [
        "▁analyze",
        -10.97314346294055
      ],
      [
        "8011",
        -13.265494279497794
      ],
      [
        "▁rec",
        -9.803308011844216
      ],
      [
        "wer",
        -11.29929180413551
      ],
      [
        "▁accept",
        -8.442552136605165
      ],
      [
        "▁tru",
        -9.800951603678634
      ],
      [
        "or",
        -9.02650783446284
      ],
      [
        "▁se",
        -9.672007415461184
      ],
      [
        "/16/",
        -14.183274814702699
      ],
      [
        "▁mission",
        -9.762788012599191
      ],
      [
        "ms",
        -11.919613931885365
      ],
      [
        "▁citi",
        -9.577254621959252
      ],
      [
        "beside",
        -13.177654069771513
      ],
      [
        "▁america",
        -8.542401033813977
      ],
      [
        "▁solution",
        -9.139008841750574
      ],
      [
        "+++",
        -13.65833462004859
      ],
      [
        "ott",
        -9.763156690135412
      ],
      [
        "ka",
        -9.129234008371364
      ],
      [
        "▁participate",
        -10.289281120787095
      ],
      [
        "eac",
        -8.274376285108616
      ],
      [
        "▁closing",
        -10.307898360183321
      ],
      [
        "lace",
        -11.855295916706593
      ],
      [
        "▁slight",
        -9.157105049739688
      ],
      [
        "4-6",
        -14.856897830413907
      ],
      [
        "▁ansi-",
        -10.112259386372154
      ],
      [
        "▁ya",
        -14.202852529658717
      ],
      [
        "▁conscious",
        -9.776968378913718
      ],
      [
        "com",
        -9.665541144741027
      ],
      [
        "▁shame",
        -10.362885833335763
      ],
      [
        "▁talk",
        -7.1301945872195045
      ],
      [
        "999",
        -12.577476596359821
      ],
      [
        "led",
        -9.604468449402448
      ],
      [
        "▁household",
        -10.026184045435333
      ],
      [
        "▁toll",
        -10.395401937724131
      ],
      [
        "▁waste",
        -9.395442483388848
      ],
      [
        "ridge",
        -10.625448970823681
      ],
      [
        "1",
        -7.526925805932847
      ],
      [
        "478",
        -12.69529157028718
      ],
      [
        "▁contest",
        -10.421407814300917
      ],
      [
        "▁tor",
        -8.082311227337001
      ],
      [
        "▁rath",
        -8.52632782296996
      ],
      [
        "▁pocket",
        -8.741883838082094
      ],
      [
        "▁block",
        -9.107840845631657
      ],
      [
        ".1",
        -13.151530141619636
      ],
      [
        "▁raise",
        -9.307571758468216
      ],
      [
        "▁bee",
        -9.928187267565546
      ],
      [
        "169",
        -14.132303240133886
      ],
      [
        "no",
        -10.794430943084201
      ],
      [
        "sh",
        -11.580471676368933
      ],
      [
        "▁713/",
        -13.06620154124905
      ],
      [
        "f",
        -10.257164615019802
      ],
      [
        "▁harr",
        -8.007388779922819
      ],
      [
        "titude",
        -10.784973387301536
      ],
      [
        "▁bridge",
        -9.323140178129563
      ],
      [
        "nex",
        -8.220385841155046
      ],
      [
        "▁pitt",
        -6.833825180859635
      ],
      [
        "▁skittle",
        -9.840453616678788
      ],
      [
        "gen",
        -9.566900680554339
      ],
      [
        "▁hindu",
        -10.622829783229722
      ],
      [
        "--------",
        -11.160764127950651
      ],
      [
        "▁!!!!!",
        -12.653937826383912
      ],
      [
        "ruse",
        -11.153345853613754
      ],
      [
        "▁899-4",
        -13.136770620605855
      ],
      [
        "san",
        -12.693784656590033
      ],
      [
        "46",
        -11.619091125597334
      ],
      [
        "▁punctu",
        -11.084250331073527
      ],
      [
        "ical",
        -8.670614710682718
      ],
      [
        "ison",
        -10.231946535048682
      ],
      [
        "guy",
        -11.202896969010405
      ],
      [
        "avia",
        -10.558225672703909
      ],
      [
        "▁3-5",
        -14.178510138455286
      ],
      [
        "况",
        -12.833785825435129
      ],
      [
        "of",
        -7.711049108475501
      ],
      [
        "▁derive",
        -10.97357463945604
      ],
      [
        "▁04:4",
        -12.694115992812023
      ],
      [
        "etic",
        -10.543931013159224
      ],
      [
        "▁candidate",
        -9.80712026710024
      ],
      [
        "▁315-460-334",
        -13.136770579354721
      ],
      [
        "▁desperate",
        -10.205149944016684
      ],
      [
        "▁bob",
        -10.174999737101915
      ],
      [
        "if",
        -10.983017135113453
      ],
      [
        "▁afterward",
        -10.111357485578354
      ],
      [
        "tel",
        -12.258190552242457
      ],
      [
        "g",
        -9.85599899805753
      ],
      [
        "▁product",
        -8.237072258385432
      ],
      [
        "▁coat",
        -9.882658753931313
      ],
      [
        "▁amount",
        -8.224351865613128
      ],
      [
        "▁delicious",
        -9.840457640315849
      ],
      [
        "me",
        -8.491665941977896
      ],
      [
        "▁73",
        -12.691161218511667
      ],
      [
        "▁external",
        -10.254367829945295
      ],
      [
        "▁vine",
        -10.894791362121435
      ],
      [
        "▁important",
        -8.002763386549248
      ],
      [
        "ountain",
        -10.972564648702694
      ],
      [
        "▁jenn",
        -10.389167631225849
      ],
      [
        "avoc",
        -10.493480038705066
      ],
      [
        "▁per",
        -7.651239297079778
      ],
      [
        "▁bird",
        -8.378669166328248
      ],
      [
        "305",
        -14.449579635922536
      ],
      [
        "▁encounter",
        -10.550545984719854
      ],
      [
        "▁needles",
        -11.180646624741314
      ],
      [
        "over",
        -9.637137994016882
      ],
      [
        "▁cell",
        -9.409923178293717
      ],
      [
        "▁raw",
        -10.7021158319524
      ],
      [
        "▁libr",
        -10.759596768643673
      ],
      [
        "esome",
        -9.553743835219098
      ],
      [
        "▁peek",
        -10.9814191326297
      ],
      [
        "▁anti-",
        -10.25405281613231
      ],
      [
        "so",
        -6.47315483930564
      ],
      [
        "▁amendment",
        -9.343632926256255
      ],
      [
        "▁example",
        -7.870665921743455
      ],
      [
        "▁adult",
        -9.173094693974939
      ],
      [
        "▁size",
        -8.943134331160117
      ],
      [
        "▁luxur",
        -10.973139510593205
      ],
      [
        "▁h",
        -11.05111200066364
      ],
      [
        "▁deal",
        -8.104452548948185
      ],
      [
        "columbia",
        -10.283954831749819
      ],
      [
        "▁unhapp",
        -10.36256095896599
      ],
      [
        "▁tactic",
        -10.6990387585676
      ],
      [
        "=---",
        -11.827184960077153
      ],
      [
        "/01",
        -12.978977334180982
      ],
      [
        "▁galler",
        -10.908805069222112
      ],
      [
        ":32",
        -12.490201473690343
      ],
      [
        "▁perfume",
        -11.084253629127037
      ],
      [
        "na",
        -8.649351000055063
      ],
      [
        "▁03:1",
        -12.490305688520102
      ],
      [
        "u",
        -9.36905735747882
      ],
      [
        "▁cran",
        -10.589458672465627
      ],
      [
        "▁photographer",
        -10.722627131486732
      ],
      [
        "▁teen",
        -10.623483841898741
      ],
      [
        "▁410-468-3",
        -13.136770579350877
      ],
      [
        "343",
        -12.390815633755022
      ],
      [
        "▁17",
        -9.290161455670848
      ],
      [
        "ish",
        -8.23995531956783
      ],
      [
        "rent",
        -10.515982332423805
      ],
      [
        "▁complian",
        -10.973140849643853
      ],
      [
        "▁jerk",
        -10.977220184926393
      ],
      [
        "mutation",
        -10.38405172703791
      ],
      [
        "▁convey",
        -11.084416653453022
      ],
      [
        "71",
        -11.60846397450329
      ],
      [
        "▁me",
        -11.596167386121415
      ],
      [
        "▁control",
        -8.241589411148528
      ],
      [
        "c",
        -8.583264543799583
      ],
      [
        "form",
        -10.459964239826919
      ],
      [
        "▁reproduce",
        -11.015195610571267
      ],
      [
        "▁maxim",
        -10.307308717917312
      ],
      [
        "▁marriage",
        -9.074216234111105
      ],
      [
        "▁diploma",
        -11.02886386687105
      ],
      [
        "▁stock",
        -9.370213999849458
      ],
      [
        "▁cape",
        -10.735762615106887
      ],
      [
        "ecca",
        -10.938936590055048
      ],
      [
        "onnais",
        -10.97335496332478
      ],
      [
        "▁adequate",
        -10.208911520232537
      ],
      [
        "▁dropp",
        -9.366287293380005
      ],
      [
        "▁disorder",
        -10.873140580116985
      ],
      [
        "ga",
        -9.283104149630207
      ],
      [
        "▁programme",
        -8.883567770222658
      ],
      [
        "▁area",
        -7.612175356855768
      ],
      [
        "▁122",
        -14.496571227426578
      ],
      [
        "ad",
        -13.093669832419435
      ],
      [
        "▁actual",
        -7.681684088959584
      ],
      [
        "▁gem",
        -11.06840638476596
      ],
      [
        "▁sa",
        -8.787187002172942
      ],
      [
        "/30/",
        -14.116722555682113
      ],
      [
        "ever",
        -7.471192227509686
      ],
      [
        "▁orient",
        -10.62079481138992
      ],
      [
        "▁comp",
        -10.606307807147635
      ],
      [
        "des",
        -12.595929635241497
      ],
      [
        "▁09:2",
        -12.432918097703686
      ],
      [
        "▁02:",
        -13.328867592342894
      ],
      [
        "▁professor",
        -9.452108731629185
      ],
      [
        "▁flood",
        -9.683970550376737
      ],
      [
        "▁successful",
        -9.107243610514848
      ],
      [
        "land",
        -6.858891640333334
      ],
      [
        "▁shelter",
        -10.550991501949838
      ],
      [
        "▁extraordinar",
        -10.483878358852513
      ],
      [
        "▁spike",
        -11.086645786251504
      ],
      [
        "▁groom",
        -10.975621635738317
      ],
      [
        "▁negotiation",
        -10.205352931878844
      ],
      [
        "▁no-4",
        -13.278173271145704
      ],
      [
        "▁favorite",
        -8.914110698792726
      ],
      [
        "ius",
        -10.471658471223911
      ],
      [
        "▁whit",
        -10.837248722398087
      ],
      [
        "▁we",
        -12.03066344970174
      ],
      [
        "ping",
        -9.440227777608705
      ],
      [
        "gli",
        -10.823220541600403
      ],
      [
        "2.4",
        -14.15936974051795
      ],
      [
        "through",
        -10.343789277758114
      ],
      [
        "▁subscribe",
        -9.949218297883826
      ],
      [
        "▁u",
        -13.936497440614524
      ],
      [
        "older",
        -9.970724146929422
      ],
      [
        "▁travell",
        -10.089294952182636
      ],
      [
        "moi",
        -11.88521742952827
      ],
      [
        "▁favor",
        -10.218145956383685
      ],
      [
        "d",
        -4.011586997049184
      ],
      [
        "▁escap",
        -11.043016627922443
      ],
      [
        "▁159",
        -10.436268207533203
      ],
      [
        "▁vietnam",
        -9.627548198152445
      ],
      [
        "-5",
        -13.761965689359299
      ],
      [
        "▁xml",
        -8.849131228084183
      ],
      [
        "▁notabl",
        -11.189700688768166
      ],
      [
        "▁circle",
        -9.094106789806663
      ],
      [
        "4,",
        -13.63281336500848
      ],
      [
        ".htm",
        -10.36052391552881
      ],
      [
        "9.3",
        -14.113070844606728
      ],
      [
        "▁away",
        -7.493676026543827
      ],
      [
        "out",
        -9.061841395065889
      ],
      [
        "▁124",
        -12.957445890925836
      ],
      [
        "▁inspire",
        -10.143604303538792
      ],
      [
        "+++++",
        -13.238891581489804
      ],
      [
        "▁governor",
        -9.684242725761354
      ],
      [
        "▁m",
        -9.468035479108513
      ],
      [
        "▁earth",
        -8.64532043558489
      ],
      [
        "044",
        -14.672105413985397
      ],
      [
        "cin",
        -10.84158521061184
      ],
      [
        "▁04:0",
        -12.773739120218524
      ],
      [
        "▁by",
        -9.863838491433988
      ],
      [
        "▁01",
        -11.778088733885701
      ],
      [
        "▁irritat",
        -10.973165780840041
      ],
      [
        "d",
        -4.146547213859666
      ],
      [
        "er",
        -5.6234802527310395
      ],
      [
        "▁ken",
        -9.94309372024912
      ],
      [
        "ow",
        -13.920453066150827
      ],
      [
        "▁ac",
        -9.7107270867548
      ],
      [
        "▁rhythm",
        -11.084250209378883
      ],
      [
        "▁mesoamerica",
        -11.20925020890223
      ],
      [
        "▁tickle",
        -9.922821781373251
      ],
      [
        "▁formal",
        -9.554374422259787
      ],
      [
        "▁push",
        -8.31596891674306
      ],
      [
        "▁orange",
        -8.969270651009642
      ],
      [
        "▁sock",
        -10.628883240796343
      ],
      [
        "▁house",
        -7.187298756520364
      ],
      [
        "922",
        -12.522603151732726
      ],
      [
        "tair",
        -11.5315465560451
      ],
      [
        "▁prepar",
        -10.273962222283009
      ],
      [
        "▁mistake",
        -9.407175045138592
      ],
      [
        "▁connection",
        -8.595471697816537
      ],
      [
        "0,000",
        -10.195250905356877
      ],
      [
        "dom",
        -10.331424811980522
      ],
      [
        "▁islam",
        -9.949279733106522
      ],
      [
        "▁citizen",
        -10.413194021631194
      ],
      [
        "▁cheese",
        -8.824422308160722
      ],
      [
        "▁soft",
        -9.087275182123214
      ],
      [
        "▁former",
        -8.939106940686681
      ],
      [
        "▁napkin",
        -10.484191869754042
      ],
      [
        "???",
        -11.362839390116866
      ],
      [
        "237",
        -13.823535084092079
      ],
      [
        "▁w",
        -10.342911633810916
      ],
      [
        "▁rot",
        -10.045272757946453
      ],
      [
        "▁weekday",
        -10.552593004906736
      ],
      [
        "▁customiz",
        -11.10018268218619
      ],
      [
        "▁donation",
        -10.487867164366381
      ],
      [
        "▁11",
        -8.972238801626698
      ],
      [
        "▁60,00",
        -13.953467716680118
      ],
      [
        "ily",
        -9.067209170638304
      ],
      [
        "x",
        -7.981746832535318
      ],
      [
        "▁bench",
        -10.112803623073946
      ],
      [
        "nnon",
        -10.583414559937925
      ],
      [
        "▁jur",
        -10.668505727065707
      ],
      [
        "ba",
        -11.549657294385684
      ],
      [
        "▁is",
        -6.896931179427394
      ],
      [
        "▁debate",
        -9.343335723780509
      ],
      [
        "▁fuel",
        -9.911371422154803
      ],
      [
        "▁pant",
        -9.262115238180751
      ],
      [
        "ura",
        -10.534559506215391
      ],
      [
        "▁gravit",
        -10.973201699459278
      ],
      [
        "▁role",
        -8.753846021959848
      ],
      [
        "&",
        -10.750452492101797
      ],
      [
        "▁railway",
        -10.78259210052808
      ],
      [
        "design",
        -10.459113804656393
      ],
      [
        "▁champion",
        -11.084909105306407
      ],
      [
        "800.",
        -12.777623006555508
      ],
      [
        "----------",
        -11.627260667774785
      ],
      [
        "not",
        -10.686810269817808
      ],
      [
        "▁kenya",
        -10.783191077851953
      ],
      [
        "▁pictures",
        -8.9935914385518
      ],
      [
        "as",
        -11.683377276244991
      ],
      [
        "▁re",
        -7.760333686055139
      ],
      [
        "patriot",
        -11.085866536934983
      ],
      [
        "▁jan",
        -9.91558855071249
      ],
      [
        "▁magazine",
        -9.840453554190466
      ],
      [
        "▁brass",
        -10.882739485267997
      ],
      [
        "▁420",
        -12.876752718469392
      ],
      [
        "▁little",
        -6.756416918978919
      ],
      [
        "▁throw",
        -8.451380294034394
      ],
      [
        "▁potter",
        -10.64101534702855
      ],
      [
        "▁cancer",
        -10.873230252226753
      ],
      [
        "▁254",
        -14.829903551071716
      ],
      [
        "▁gu",
        -9.72993125812959
      ],
      [
        "▁carrot",
        -10.254409270645382
      ],
      [
        "87",
        -11.624567727260338
      ],
      [
        "33",
        -11.518810232972717
      ],
      [
        "store",
        -10.337191162963041
      ],
      [
        "name",
        -10.486359765719353
      ],
      [
        "▁player",
        -9.370077421276076
      ],
      [
        "158",
        -13.40478322388883
      ],
      [
        "▁search",
        -9.10585886283555
      ],
      [
        "2/",
        -14.043906342491137
      ],
      [
        "▁traged",
        -10.15676875461363
      ],
      [
        "▁whi",
        -10.203049322712616
      ],
      [
        "▁idiot",
        -10.873139288814624
      ],
      [
        "il",
        -11.044022491264839
      ],
      [
        "▁scratch",
        -10.306999274906872
      ],
      [
        "▁194",
        -10.650689352601228
      ],
      [
        "stock",
        -10.863988312208784
      ],
      [
        "▁mess",
        -9.415370513152652
      ],
      [
        "▁polaroid",
        -10.307010748358898
      ],
      [
        "▁plunge",
        -10.973350559591818
      ],
      [
        "▁performance",
        -9.283711560354007
      ],
      [
        "que",
        -11.476850546345958
      ],
      [
        "▁poster",
        -10.271826498004392
      ],
      [
        "▁govern",
        -10.256767498350003
      ],
      [
        "@enron",
        -9.947791281457736
      ],
      [
        "uc",
        -12.842263175669295
      ],
      [
        "end",
        -9.762614891455298
      ],
      [
        "▁shri",
        -11.074811392141779
      ],
      [
        "▁winn",
        -10.00125401625725
      ],
      [
        "▁x",
        -8.663881306236346
      ],
      [
        "▁genius",
        -10.69889981991749
      ],
      [
        "▁lion",
        -9.630952028610238
      ],
      [
        "▁political",
        -8.294564553285074
      ],
      [
        "▁false",
        -10.3070347897972
      ],
      [
        "ked",
        -10.891497111084522
      ],
      [
        "globe",
        -10.37077260754506
      ],
      [
        "▁intellectual",
        -10.25436796455335
      ],
      [
        "▁insult",
        -10.698906173847156
      ],
      [
        "▁575",
        -13.298948382838432
      ],
      [
        "▁unfortunate",
        -9.429381458416902
      ],
      [
        "low",
        -9.2248909134359
      ],
      [
        "ai",
        -12.414113861418649
      ],
      [
        "nt",
        -9.483159295592271
      ],
      [
        "ackl",
        -11.41247990272296
      ],
      [
        "▁tan",
        -10.219190522267397
      ],
      [
        "▁stress",
        -10.06799908225467
      ],
      [
        "▁summ",
        -10.780632045419036
      ],
      [
        "▁sorr",
        -8.467554203363258
      ],
      [
        "ord",
        -12.345884856600925
      ],
      [
        "itis",
        -10.803939841273074
      ],
      [
        "▁01:",
        -12.702476815545063
      ],
      [
        "along",
        -11.988352002306268
      ],
      [
        "▁fifth",
        -9.452232373785431
      ],
      [
        "▁lind",
        -10.324745710038563
      ],
      [
        "▁dut",
        -9.794259175031064
      ],
      [
        "▁direct",
        -8.406305212865606
      ],
      [
        "▁headache",
        -10.974435596490418
      ],
      [
        "oul",
        -7.370660610853058
      ],
      [
        "▁western",
        -9.369088236322312
      ],
      [
        "ic",
        -7.528556480818281
      ],
      [
        ":46",
        -13.579038763616385
      ],
      [
        "▁=",
        -10.869655881095504
      ],
      [
        "▁settler",
        -10.556140607317698
      ],
      [
        "▁qualifi",
        -10.69974326751338
      ],
      [
        "▁referr",
        -9.993787910507507
      ],
      [
        "▁rainbow",
        -10.973140154403183
      ],
      [
        ".asp",
        -10.973169058988427
      ],
      [
        "1/01",
        -12.746409468391521
      ],
      [
        "▁quick",
        -8.308569840722752
      ],
      [
        "▁structural",
        -10.026409011536419
      ],
      [
        "▁friday",
        -8.001843765119784
      ],
      [
        "▁interference",
        -10.973194083582447
      ],
      [
        "▁communicat",
        -11.111866893120414
      ],
      [
        "▁play+grou",
        -10.873821088501428
      ],
      [
        "▁reside",
        -11.086597725363816
      ],
      [
        "▁sugar",
        -9.452173019472287
      ],
      [
        "mitted",
        -10.713819042800655
      ],
      [
        "▁other",
        -6.194378569061986
      ],
      [
        "▁1.2",
        -12.884990035352798
      ],
      [
        "▁06/01/200",
        -12.339716654186573
      ],
      [
        "▁other",
        -10.00918580141893
      ],
      [
        "▁modify",
        -10.421378459153559
      ],
      [
        "▁innovative",
        -10.873405067601121
      ],
      [
        "▁instruct",
        -11.08251156546368
      ],
      [
        "▁haircut",
        -10.622281997406839
      ],
      [
        "▁genuine",
        -10.483878365707556
      ],
      [
        "word",
        -11.182409259765398
      ],
      [
        "▁victor",
        -9.961037051802286
      ],
      [
        "▁beside",
        -10.020238870103876
      ],
      [
        "shima",
        -10.422041543253608
      ],
      [
        "j",
        -12.63677057935472
      ],
      [
        "▁vern",
        -9.80787432781051
      ],
      [
        "l",
        -6.231528932805014
      ],
      [
        "▁silk",
        -10.766710997771254
      ],
      [
        "▁host",
        -9.494227777960521
      ],
      [
        "▁email",
        -8.441597639727075
      ],
      [
        "▁e-mail",
        -9.42938154617665
      ],
      [
        "▁eight",
        -9.059025391871746
      ],
      [
        "▁blow",
        -8.85710762768358
      ],
      [
        "▁stands",
        -10.181990110226405
      ],
      [
        "▁mac",
        -9.799652425538548
      ],
      [
        "▁kni",
        -10.596344908148108
      ],
      [
        "▁coinciden",
        -10.87570454632011
      ],
      [
        "▁over",
        -7.215890673759658
      ],
      [
        "===========",
        -11.614216336397975
      ],
      [
        "ors",
        -9.483204885093222
      ],
      [
        "▁rum",
        -10.271077794814662
      ],
      [
        "------------",
        -10.630566914886277
      ],
      [
        "▁114",
        -13.672578331648024
      ],
      [
        "▁**",
        -12.279077018718112
      ],
      [
        "▁trend",
        -10.254525871019972
      ],
      [
        "nope",
        -10.359706746292618
      ],
      [
        "▁interjection",
        -11.084250208948113
      ],
      [
        "▁fore",
        -9.677585858184017
      ],
      [
        "▁hedge",
        -10.698928098408363
      ],
      [
        "▁pursue",
        -10.899348033936045
      ],
      [
        "1:1",
        -14.344002145884023
      ],
      [
        "▁econom",
        -8.429755692367394
      ],
      [
        "▁lol",
        -10.121433496731262
      ],
      [
        "▁double",
        -9.689996662841148
      ],
      [
        "▁femora",
        -11.084339054378685
      ],
      [
        "yn",
        -12.105820007253286
      ],
      [
        "▁814",
        -13.626596620227593
      ],
      [
        "▁saturday",
        -8.04591976154444
      ],
      [
        "▁pizza",
        -9.058225023239046
      ],
      [
        "2/200",
        -11.389975573398571
      ],
      [
        "432",
        -13.678790289678101
      ],
      [
        "▁prophet",
        -10.973145312537424
      ],
      [
        "▁g",
        -7.650181126835428
      ],
      [
        "▁litera",
        -9.55165512951099
      ],
      [
        "ous",
        -7.775197511361604
      ],
      [
        "▁station",
        -8.70949508048799
      ],
      [
        "▁sever",
        -8.097655284957366
      ],
      [
        "▁alre",
        -7.660596022457105
      ],
      [
        "internet",
        -8.73156106710295
      ],
      [
        "▁copie",
        -9.605030574017004
      ],
      [
        "iling",
        -10.20389837161698
      ],
      [
        "▁decided",
        -8.833658582539117
      ],
      [
        "▁zac",
        -11.073291581889665
      ],
      [
        "▁depend",
        -9.051332825165185
      ],
      [
        "317",
        -12.522027844751664
      ],
      [
        "page",
        -10.44255235687459
      ],
      [
        "▁us",
        -9.506253679050264
      ],
      [
        "▁230",
        -11.64354903219914
      ],
      [
        "cut",
        -10.853807700159052
      ],
      [
        "▁strengthen",
        -10.027454384403145
      ],
      [
        "▁funnel",
        -10.78527659658753
      ],
      [
        "▁bill",
        -8.658093049267228
      ],
      [
        "▁volley",
        -10.699206666983699
      ],
      [
        "uchi",
        -10.351889406709885
      ],
      [
        "▁laurie",
        -10.873140680802452
      ],
      [
        "ra",
        -12.715795992954599
      ],
      [
        "▁whom",
        -9.933139747952437
      ],
      [
        "▁plot",
        -10.12400728497877
      ],
      [
        "/26/",
        -14.189086006831161
      ],
      [
        "cu",
        -9.884334780207373
      ],
      [
        "▁pacific",
        -10.550545476634735
      ],
      [
        "▁hippop",
        -11.085005478072754
      ],
      [
        "ف",
        -12.833785825435129
      ],
      [
        "▁custom",
        -9.764463156047718
      ],
      [
        "▁cit",
        -9.32307346964867
      ],
      [
        "▁09/",
        -14.713481892351869
      ],
      [
        "/08",
        -13.1520347351975
      ],
      [
        "▁wizard",
        -10.067816128528214
      ],
      [
        "▁marvelous",
        -10.782230010211443
      ],
      [
        "grew",
        -9.548785293535614
      ],
      [
        "▁words",
        -8.622974459151386
      ],
      [
        "▁spo",
        -9.741346703911068
      ],
      [
        "▁bit",
        -7.810951364632925
      ],
      [
        "▁helping",
        -10.476684833509537
      ],
      [
        "▁lieutenant",
        -11.20925020918376
      ],
      [
        "/16/200",
        -11.522972034904177
      ],
      [
        "--",
        -6.730423465345394
      ],
      [
        "ated",
        -9.376059212414237
      ],
      [
        "▁shi",
        -11.9449705468203
      ],
      [
        "▁centre",
        -9.627738450186865
      ],
      [
        "▁av",
        -13.367145336733245
      ],
      [
        "▁volunteer",
        -10.25436769468425
      ],
      [
        "▁confront",
        -10.873329858528972
      ],
      [
        "324",
        -13.101879675234535
      ],
      [
        "▁foreign",
        -9.356311755483098
      ],
      [
        "▁convict",
        -10.972140638941866
      ],
      [
        "▁na",
        -11.357453840286972
      ],
      [
        "▁partial",
        -10.981810534576992
      ],
      [
        "▁most",
        -7.018956699682697
      ],
      [
        "▁05:0",
        -13.188630233891784
      ],
      [
        "ran",
        -9.828288344305339
      ],
      [
        "▁review",
        -8.191228696821646
      ],
      [
        "▁wave",
        -9.570787027686935
      ],
      [
        "▁loo",
        -10.360464304595935
      ],
      [
        "▁accident",
        -9.176438552225346
      ],
      [
        "▁jul",
        -8.141997678377955
      ],
      [
        "▁compensation",
        -11.084250316031385
      ],
      [
        "▁achievement",
        -9.987208085876434
      ],
      [
        "▁screen",
        -9.385420392795186
      ],
      [
        "▁sci",
        -11.107011038143355
      ],
      [
        "▁08:5",
        -12.695296350327887
      ],
      [
        "▁sake",
        -10.363180213463842
      ],
      [
        "▁record",
        -8.22145530443655
      ],
      [
        "▁lawyer",
        -10.112080359948578
      ],
      [
        "▁salt",
        -8.092118074436844
      ],
      [
        "▁cost",
        -7.890335100128528
      ],
      [
        "▁spring",
        -9.32533119850187
      ],
      [
        "9:5",
        -13.213451670145268
      ],
      [
        "enti",
        -12.154891043607538
      ],
      [
        "▁urgent",
        -10.782477655880484
      ],
      [
        "whom",
        -13.147185253957925
      ],
      [
        "hear",
        -10.781204805371843
      ],
      [
        "▁rode",
        -10.370388089257775
      ],
      [
        "▁713-",
        -11.018494241629348
      ],
      [
        "ere",
        -10.431743240538172
      ],
      [
        "▁express",
        -8.835651585477788
      ],
      [
        "▁tourist",
        -9.267349256962817
      ],
      [
        "▁month",
        -7.566381804033583
      ],
      [
        "▁attain",
        -10.873550511772436
      ],
      [
        "▁made",
        -7.076706702593958
      ],
      [
        "15/200",
        -14.513831683276635
      ],
      [
        "r.",
        -10.13031318877856
      ],
      [
        "▁outer",
        -10.167010622346456
      ],
      [
        "▁pledge",
        -10.067825178185675
      ],
      [
        "▁glacier",
        -11.084250209879071
      ],
      [
        "▁be",
        -11.273560827601584
      ],
      [
        "▁pe",
        -9.814133936656614
      ],
      [
        "▁literal",
        -10.216435973081545
      ],
      [
        "▁setup",
        -10.977468038035665
      ],
      [
        "▁restaurant",
        -8.424974601917057
      ],
      [
        "▁built",
        -9.24519639979724
      ],
      [
        "▁friendship",
        -10.423758583152864
      ],
      [
        "-33",
        -14.126752647604532
      ],
      [
        "▁stall",
        -10.973182576273542
      ],
      [
        "▁null",
        -11.084365955680411
      ],
      [
        "▁indicat",
        -10.24644801086482
      ],
      [
        "▁reaction",
        -10.111881543821
      ],
      [
        "▁different",
        -7.536214261894406
      ],
      [
        "▁460",
        -13.649907694200532
      ],
      [
        "▁studio",
        -10.307000357603705
      ],
      [
        "▁service",
        -7.290626362869434
      ],
      [
        "later",
        -7.854677146825209
      ],
      [
        "▁mailing",
        -10.727556429584961
      ],
      [
        "▁425-415-30",
        -13.13677057933544
      ],
      [
        "▁!",
        -6.755596490218561
      ],
      [
        "mu",
        -12.904897371489005
      ],
      [
        "▁phenomen",
        -10.421399869634927
      ],
      [
        "▁spinn",
        -11.114061973857943
      ],
      [
        "▁dec",
        -8.632162772797415
      ],
      [
        "▁cupcake",
        -9.910680538299973
      ],
      [
        "▁pe",
        -9.603703697944885
      ],
      [
        "ي",
        -12.833785825435129
      ],
      [
        "alle",
        -12.346705581634012
      ],
      [
        "▁ire",
        -9.99283848875679
      ],
      [
        "▁far",
        -7.662949477238191
      ],
      [
        "▁th",
        -9.237088627257252
      ],
      [
        "▁vote",
        -8.678610694923584
      ],
      [
        "▁2.2",
        -11.833956366586506
      ],
      [
        "▁*",
        -9.609198289345132
      ],
      [
        "▁previous",
        -9.302902073948548
      ],
      [
        "▁help",
        -6.918072615016294
      ],
      [
        "▁zero",
        -10.157203743955243
      ],
      [
        "▁bert",
        -10.928570099223112
      ],
      [
        "▁guy",
        -7.7004890689592
      ],
      [
        "▁bone",
        -9.337231429640692
      ],
      [
        "858",
        -14.142649939049774
      ],
      [
        "▁chef",
        -10.624313700391756
      ],
      [
        "ough",
        -8.427482906163835
      ],
      [
        "‘",
        -14.136770579354708
      ],
      [
        "853-3",
        -14.140827607357918
      ],
      [
        "▁223",
        -13.579519920084984
      ],
      [
        "▁upside",
        -10.257175337530626
      ],
      [
        "▁95",
        -12.338386007555426
      ],
      [
        "ip",
        -9.932655409933886
      ],
      [
        "▁fac",
        -10.219118484401793
      ],
      [
        "ami",
        -8.205226536496497
      ],
      [
        "▁ocean",
        -9.874937163773595
      ],
      [
        "fall",
        -10.947059439621205
      ],
      [
        "▁headline",
        -10.485841834314083
      ],
      [
        "▁every",
        -9.010722107800653
      ],
      [
        "▁beer",
        -9.758706235684162
      ],
      [
        "▁minister",
        -9.52359771966728
      ],
      [
        "▁midwest",
        -10.637891023701902
      ],
      [
        "▁220",
        -11.83384365594317
      ],
      [
        "▁daughter",
        -9.042834527859924
      ],
      [
        "▁administration",
        -9.13928665952518
      ],
      [
        "mark",
        -10.356460852961318
      ],
      [
        "4",
        -7.806431209066835
      ],
      [
        "▁salon",
        -10.067976965406952
      ],
      [
        "▁nephew",
        -10.621973600657142
      ],
      [
        "▁leave",
        -7.150061787842219
      ],
      [
        "▁diandr",
        -10.698927006599249
      ],
      [
        "1.0",
        -14.848236296224862
      ],
      [
        "32",
        -11.669857894312882
      ],
      [
        "`",
        -11.928182729573079
      ],
      [
        "▁conversation",
        -9.05822472813522
      ],
      [
        "4-3",
        -14.138263700674802
      ],
      [
        "!!!!!!",
        -10.851202100899231
      ],
      [
        "▁bank",
        -9.028098151087228
      ],
      [
        "▁sept",
        -8.140789743440468
      ],
      [
        "▁/",
        -8.874696097338479
      ],
      [
        "▁dig",
        -10.482751033828267
      ],
      [
        "ontario",
        -9.523571022552304
      ],
      [
        "▁supposed",
        -8.843077243777273
      ],
      [
        "▁actor",
        -10.073684881401038
      ],
      [
        "▁applau",
        -10.973153990686935
      ],
      [
        "ula",
        -8.707120394123102
      ],
      [
        "▁harv",
        -10.646021733898124
      ],
      [
        "▁cho",
        -12.937881227017023
      ],
      [
        "▁35",
        -10.996138419717752
      ],
      [
        "▁h",
        -9.927331136986188
      ],
      [
        "....",
        -10.495299798696006
      ],
      [
        "▁some",
        -6.347888441191562
      ],
      [
        "▁michi",
        -10.363221774573756
      ],
      [
        "▁miracle",
        -10.62207516838858
      ],
      [
        "80",
        -9.707693221937276
      ],
      [
        "▁assum",
        -10.405099238509848
      ],
      [
        "▁grand",
        -9.486132052799874
      ],
      [
        "▁code",
        -8.641263454512213
      ],
      [
        "▁oz",
        -9.986806398971959
      ],
      [
        "▁signal",
        -10.32366404244923
      ],
      [
        "▁nak",
        -10.630678359349384
      ],
      [
        "▁bo",
        -6.124535547122032
      ],
      [
        "ta",
        -9.012465213063102
      ],
      [
        "▁athen",
        -9.859163454921605
      ],
      [
        ".........",
        -12.588671540398492
      ],
      [
        ".16",
        -14.099913540792532
      ],
      [
        "▁toilet",
        -10.55054599191426
      ],
      [
        "ter",
        -10.432873965842234
      ],
      [
        "▁young",
        -8.018144157986086
      ],
      [
        "▁qua",
        -10.89264180221103
      ],
      [
        "▁j",
        -7.7541569369743035
      ],
      [
        "▁300",
        -10.870247792781871
      ],
      [
        "▁consist",
        -10.254514990933082
      ],
      [
        "bar",
        -12.83606405568118
      ],
      [
        "▁yahoo",
        -10.97313937758308
      ],
      [
        "▁attempt",
        -8.75324748236065
      ],
      [
        "▁sail",
        -10.186589821493465
      ],
      [
        "▁trial",
        -9.72154285944912
      ],
      [
        "▁socialist",
        -11.092707118366048
      ],
      [
        "ww",
        -11.333822930986164
      ],
      [
        "▁expression",
        -9.809720635755282
      ],
      [
        "▁syrup",
        -10.873139742477605
      ],
      [
        "▁expected",
        -9.49318980185867
      ],
      [
        "▁...............",
        -13.349509917108689
      ],
      [
        "▁+1",
        -12.26268493713398
      ],
      [
        "▁b",
        -7.155592931822902
      ],
      [
        "▁curve",
        -10.026154957621898
      ],
      [
        "888",
        -14.243603115788291
      ],
      [
        ":50",
        -14.104129210442572
      ],
      [
        "▁damn",
        -10.362591329913021
      ],
      [
        "00:",
        -14.117195805228246
      ],
      [
        "ment",
        -7.3255547321199215
      ],
      [
        "▁proceeding",
        -10.668841601076785
      ],
      [
        "▁dab",
        -10.902979590423204
      ],
      [
        "▁abundant",
        -11.087255735208817
      ],
      [
        "seven",
        -11.950148330680463
      ],
      [
        "▁amid",
        -11.533324385705862
      ],
      [
        "▁reasonabl",
        -9.447370947948354
      ],
      [
        "▁thick",
        -10.156864605085618
      ],
      [
        "▁hub",
        -11.366333878990952
      ],
      [
        "▁best",
        -7.254915090398858
      ],
      [
        "2:3",
        -14.199321364264764
      ],
      [
        "▁cruel",
        -10.306999290650566
      ],
      [
        "▁01/19/",
        -12.359978021860883
      ],
      [
        "1-51",
        -14.136826951535193
      ],
      [
        "▁kick",
        -9.627784484248615
      ],
      [
        "▁under",
        -7.820617230569183
      ],
      [
        "www",
        -7.609954759208668
      ],
      [
        "ner@e",
        -12.804765139028529
      ],
      [
        "▁kill",
        -8.62201226921261
      ],
      [
        "av",
        -14.112756966059495
      ],
      [
        "perlin",
        -10.432308958008498
      ],
      [
        "▁770",
        -13.561149847827563
      ],
      [
        "▁taylor",
        -10.873139244553116
      ],
      [
        "▁gis",
        -10.57110895234702
      ],
      [
        "▁416-865-370",
        -12.667278132134355
      ],
      [
        "▁finding",
        -9.422643015323228
      ],
      [
        "▁mathematician",
        -10.782862148494019
      ],
      [
        "▁can",
        -9.12851698596339
      ],
      [
        "▁territor",
        -9.499177066415605
      ],
      [
        "▁sch",
        -10.146093743714044
      ],
      [
        "▁worse",
        -9.500686305556309
      ],
      [
        "ious",
        -9.462533047787062
      ],
      [
        "▁marx",
        -10.485231116177626
      ],
      [
        "prop",
        -10.365018816758836
      ],
      [
        "▁shorts",
        -10.49088240066591
      ],
      [
        "▁10/31/",
        -13.136852295825433
      ],
      [
        "▁3",
        -8.585018104094017
      ],
      [
        "nonym",
        -10.782994933948842
      ],
      [
        "lli",
        -12.814597241988295
      ],
      [
        "▁..",
        -12.692418167268963
      ],
      [
        "ground",
        -10.4688275124849
      ],
      [
        "▁dead",
        -8.511929414312135
      ],
      [
        "▁loose",
        -9.81111415364294
      ],
      [
        "plastic",
        -9.887731683576224
      ],
      [
        "yoursel",
        -12.14637731604893
      ],
      [
        "▁expens",
        -8.624846248232291
      ],
      [
        "▁no-",
        -13.47376073561761
      ],
      [
        "▁scoop",
        -10.973139290279235
      ],
      [
        "▁preparation",
        -10.552126020686849
      ],
      [
        "irr",
        -12.829351814011266
      ],
      [
        "burn",
        -10.868710510094592
      ],
      [
        "media",
        -10.396040399386203
      ],
      [
        "▁ironic",
        -10.788487022656472
      ],
      [
        "bell",
        -10.411182326663338
      ],
      [
        "***********",
        -13.316906961952217
      ],
      [
        "▁adapt",
        -10.361398165415913
      ],
      [
        "lib",
        -11.1655319791594
      ],
      [
        "▁appearance",
        -9.84196641758258
      ],
      [
        "▁temper",
        -10.627167153924646
      ],
      [
        "▁kent",
        -9.95490671918438
      ],
      [
        "ins",
        -12.845286296256571
      ],
      [
        "▁due",
        -8.46771461249692
      ],
      [
        "▁210",
        -12.59373170075374
      ],
      [
        "▁suf",
        -10.442272084373887
      ],
      [
        "ex",
        -9.281783810318018
      ],
      [
        ".",
        -1.4798978484674539
      ],
      [
        "▁rack",
        -10.701726303717162
      ],
      [
        "▁aware",
        -9.324117364796887
      ],
      [
        "▁mutual",
        -10.782235539557208
      ],
      [
        "▁teaspoon",
        -11.084250212308032
      ],
      [
        "▁[",
        -8.845600951931221
      ],
      [
        "▁symptom",
        -11.084297502871946
      ],
      [
        "▁arab",
        -9.097070900709443
      ],
      [
        "▁mini",
        -10.948851077698453
      ],
      [
        "bi",
        -8.910361586796144
      ],
      [
        "▁license",
        -8.591303536205135
      ],
      [
        "▁+++",
        -12.358572978158323
      ],
      [
        "284",
        -14.231690287536495
      ],
      [
        "▁harris",
        -10.348691389613622
      ],
      [
        "▁time",
        -6.0771170514633415
      ],
      [
        "▁frustrat",
        -10.421378398742569
      ],
      [
        "it",
        -12.427307726460162
      ],
      [
        "▁southeast",
        -10.973140988778145
      ],
      [
        "▁greeting",
        -10.363356476549598
      ],
      [
        "▁flag",
        -9.523839181395044
      ],
      [
        "▁developer",
        -10.673851438671011
      ],
      [
        "terior",
        -11.14655127181349
      ],
      [
        "▁participant",
        -9.68389736136428
      ],
      [
        "▁twa",
        -9.31546027163797
      ],
      [
        "180",
        -13.395822881608929
      ],
      [
        "▁eric",
        -11.089220440443952
      ],
      [
        "▁bottom",
        -9.073841554591539
      ],
      [
        "an",
        -11.74871686222503
      ],
      [
        "▁abbreviation",
        -11.084250208928754
      ],
      [
        "quarter",
        -10.75629779434438
      ],
      [
        "▁trib",
        -11.031021474593175
      ],
      [
        "-6",
        -12.344996043092538
      ],
      [
        "▁influen",
        -10.48454715875535
      ],
      [
        "▁afford",
        -9.452129781111907
      ],
      [
        "▁fund",
        -8.570628459796676
      ],
      [
        "▁enjamb",
        -9.840453554340316
      ],
      [
        "▁monkey",
        -9.655401752026014
      ],
      [
        "ola",
        -10.46244598477619
      ],
      [
        "▁grip",
        -10.949213861747415
      ],
      [
        "▁indiana",
        -8.412608329940667
      ],
      [
        "▁partner",
        -10.349314017229075
      ],
      [
        "▁addiction",
        -10.068666308104648
      ],
      [
        "▁parent",
        -8.48436152703714
      ],
      [
        "|",
        -9.70691813184516
      ],
      [
        "2.1",
        -13.661571770770541
      ],
      [
        "▁cafe",
        -10.157001728483023
      ],
      [
        "▁until",
        -8.319056567480276
      ],
      [
        "▁apart",
        -9.774269006626648
      ],
      [
        "ia",
        -11.939110865357861
      ],
      [
        "▁fu",
        -10.818085774961895
      ],
      [
        "▁en",
        -7.63522159035565
      ],
      [
        "▁caution",
        -10.973143235969845
      ],
      [
        "▁recognize",
        -9.629563296634123
      ],
      [
        "13",
        -10.554443607867526
      ],
      [
        "▁bulb",
        -9.8749469175353
      ],
      [
        "▁0.3",
        -13.34791874631892
      ],
      [
        "ither",
        -9.686385961934345
      ],
      [
        "▁notion",
        -10.077543876072896
      ],
      [
        "▁deni",
        -9.919591447831637
      ],
      [
        "......",
        -13.23315766491825
      ],
      [
        "osa",
        -12.837565136005598
      ],
      [
        "▁optional",
        -10.921046402742245
      ],
      [
        "▁town",
        -8.240935918116394
      ],
      [
        "▁timing",
        -10.873267822616477
      ],
      [
        "▁prior",
        -9.706676417420116
      ],
      [
        "▁cry",
        -9.108958169507517
      ],
      [
        "▁renew",
        -10.204370689335715
      ],
      [
        "▁any",
        -6.499089214725912
      ],
      [
        "▁degree",
        -9.47562404155615
      ],
      [
        "▁relat",
        -10.575137367651303
      ],
      [
        "▁andrew",
        -10.422066450914535
      ],
      [
        "which",
        -9.262264540950643
      ],
      [
        "▁devo",
        -10.31006857928851
      ],
      [
        "110",
        -13.650665772775568
      ],
      [
        "▁add",
        -7.914306687559227
      ],
      [
        "corn",
        -9.831170147097403
      ],
      [
        "▁appreciate",
        -9.407159236202858
      ],
      [
        "▁ski",
        -9.543418456118967
      ],
      [
        "▁sale",
        -10.179520140623758
      ],
      [
        "▁beep",
        -10.554045291669198
      ],
      [
        "97",
        -11.603342702020502
      ],
      [
        "▁kan",
        -10.605655494201345
      ],
      [
        "▁heavy",
        -9.264063449991776
      ],
      [
        "▁42",
        -11.224730240689347
      ],
      [
        "▁sixt",
        -10.805887792387185
      ],
      [
        "▁action",
        -8.28150196420686
      ],
      [
        "▁compress",
        -10.885719033975008
      ],
      [
        "town",
        -8.368010673077002
      ],
      [
        "▁stadium",
        -10.87313912836256
      ],
      [
        "▁tube",
        -10.637353572919544
      ],
      [
        "▁march",
        -8.742655882322797
      ],
      [
        "▁characteristic",
        -10.783908519818201
      ],
      [
        "▁collapse",
        -10.20436901743862
      ],
      [
        "▁24",
        -9.636353922881266
      ],
      [
        "ook",
        -11.669820182477455
      ],
      [
        "▁publish",
        -8.962630177023936
      ],
      [
        "▁enjoy",
        -8.204305387255843
      ],
      [
        "▁grass",
        -9.747686775499886
      ],
      [
        "▁cartoon",
        -9.774865484621335
      ],
      [
        "0981",
        -14.135593250866743
      ],
      [
        "ed",
        -9.811572089528623
      ],
      [
        "▁companie",
        -9.264067861109915
      ],
      [
        "▁terre",
        -10.747630374118458
      ],
      [
        "sheet",
        -11.058017091042267
      ],
      [
        "▁opposit",
        -10.98184291421266
      ],
      [
        "▁gra",
        -12.238890135767296
      ],
      [
        "▁substantial",
        -9.780538497751099
      ],
      [
        "▁village",
        -9.947687766579849
      ],
      [
        "___________",
        -10.848298036816363
      ],
      [
        ",10",
        -14.134301008475443
      ],
      [
        "print",
        -10.673588507722767
      ],
      [
        "▁180",
        -11.117175652875956
      ],
      [
        "▁topic",
        -9.843276334321182
      ],
      [
        "▁unique",
        -9.385421554095007
      ],
      [
        "▁cricket",
        -11.084250839927735
      ],
      [
        "2:30",
        -12.60871249453827
      ],
      [
        "▁chew",
        -10.308804566796516
      ],
      [
        "▁divers",
        -9.59153674329994
      ],
      [
        "▁tali",
        -9.713487927642184
      ],
      [
        "ar",
        -7.965964220060477
      ],
      [
        "▁05/0",
        -13.800770594177061
      ],
      [
        "▁border",
        -9.385474837556275
      ],
      [
        "***************",
        -11.88101471954236
      ],
      [
        "▁excellent",
        -8.595161819626078
      ],
      [
        "▁attend",
        -8.913883640874811
      ],
      [
        "time",
        -8.809829255372613
      ],
      [
        "▁529999",
        -13.136774160688278
      ],
      [
        "▁15",
        -10.872546048728742
      ],
      [
        "▁elephant",
        -9.713309126344264
      ],
      [
        "▁vary",
        -10.70143027182225
      ],
      [
        "▁african",
        -9.530535689183772
      ],
      [
        "▁minne",
        -8.969421239318699
      ],
      [
        "▁public",
        -7.948143399472624
      ],
      [
        "▁await",
        -10.78225767087819
      ],
      [
        "-20",
        -11.85227201413492
      ],
      [
        "837",
        -14.148190312760422
      ],
      [
        "848",
        -14.227528089212953
      ],
      [
        "▁destination",
        -10.02685041592717
      ],
      [
        "▁mail",
        -9.190127835417108
      ],
      [
        "▁rom",
        -10.952089094795301
      ],
      [
        "▁ugl",
        -10.828058022483088
      ],
      [
        "▁178",
        -11.993874165942232
      ],
      [
        "▁seven",
        -8.978118629881946
      ],
      [
        "od",
        -12.873654958755289
      ],
      [
        "ong",
        -8.847486266431805
      ],
      [
        "▁co",
        -11.082967748862703
      ],
      [
        "▁fear",
        -9.12317845442543
      ],
      [
        "▁cake",
        -9.157675138773254
      ],
      [
        "▁flie",
        -9.807853956987563
      ],
      [
        "▁iodi",
        -9.661439334967717
      ],
      [
        "▁whale",
        -9.574221340532933
      ],
      [
        "▁enem",
        -9.743723064682364
      ],
      [
        "▁twin",
        -10.684036912295621
      ],
      [
        "ern",
        -8.858052921036036
      ],
      [
        "istan",
        -8.979925601053568
      ],
      [
        "▁decade",
        -9.155944193568827
      ],
      [
        "190",
        -13.810053399207337
      ],
      [
        "▁http://",
        -9.452090910088607
      ],
      [
        "▁61",
        -11.866436017991857
      ],
      [
        "▁pancake",
        -10.483904894072653
      ],
      [
        "▁airline",
        -6.977882350243302
      ],
      [
        "vin",
        -10.183296501869318
      ],
      [
        "▁line",
        -7.575646412263138
      ],
      [
        "▁circum",
        -9.841160603545681
      ],
      [
        "▁big",
        -6.967008261820933
      ],
      [
        "▁effect",
        -8.62413313730999
      ],
      [
        "▁201-",
        -14.09272654832999
      ],
      [
        "▁marry",
        -10.70098719757442
      ],
      [
        "trina",
        -10.782321193244947
      ],
      [
        "▁flat",
        -9.358512786118835
      ],
      [
        "▁single",
        -8.955590215494038
      ],
      [
        "▁confident",
        -10.254217523018069
      ],
      [
        "▁comprehensi",
        -10.15674873032442
      ],
      [
        "▁e.",
        -9.953706045496723
      ],
      [
        "▁daniel",
        -9.574206871297058
      ],
      [
        "tial",
        -10.123767922022834
      ],
      [
        "▁afghan",
        -8.969270604761736
      ],
      [
        "istic",
        -9.688874011276143
      ],
      [
        "▁filth",
        -11.085999536042905
      ],
      [
        "isation",
        -10.367091781794418
      ],
      [
        "▁systematic",
        -10.62199773448522
      ],
      [
        "▁astronaut",
        -11.209250208958494
      ],
      [
        "▁check",
        -8.125909251329407
      ],
      [
        "1960",
        -11.315720686444237
      ],
      [
        "▁that",
        -9.074053696074316
      ],
      [
        "▁jess",
        -10.786509836177169
      ],
      [
        "law",
        -11.14752537101335
      ],
      [
        "▁pound",
        -10.421939726114195
      ],
      [
        "▁de",
        -9.38426533896157
      ],
      [
        "▁belgi",
        -10.36210762639962
      ],
      [
        "-8",
        -12.581491700602657
      ],
      [
        "▁stillman",
        -9.001052209822694
      ],
      [
        "▁spill",
        -10.25470935652357
      ],
      [
        "▁famil",
        -7.701694862887736
      ],
      [
        "wise",
        -9.220251406717114
      ],
      [
        "un",
        -13.85980904261956
      ],
      [
        "bert",
        -10.714461390207582
      ],
      [
        "▁bottle",
        -8.812088137996604
      ],
      [
        "▁positive",
        -9.600603018052393
      ],
      [
        "usi",
        -10.751881598698496
      ],
      [
        "▁historic",
        -10.244862305510082
      ],
      [
        "▁rur",
        -9.923938487947463
      ],
      [
        "▁ok",
        -8.384361398967076
      ],
      [
        "▁melanie",
        -10.873139982195664
      ],
      [
        "stair",
        -9.381591166035527
      ],
      [
        "▁cats",
        -9.460972607007141
      ],
      [
        "▁complicat",
        -10.306577108811059
      ],
      [
        "▁26",
        -10.232134791583128
      ],
      [
        "▁buzz",
        -10.550553049427965
      ],
      [
        "9025",
        -13.941520505513104
      ],
      [
        "▁online",
        -9.254379026410083
      ],
      [
        "▁y",
        -12.731331290976454
      ],
      [
        "den",
        -9.087725871295806
      ],
      [
        "▁kitten",
        -9.685640591011255
      ],
      [
        "▁card",
        -8.584562181125989
      ],
      [
        "ennes",
        -11.4152029478778
      ],
      [
        "▁braver",
        -11.10181731081446
      ],
      [
        "▁identify",
        -10.026156257754327
      ],
      [
        "▁living",
        -8.459898744669136
      ],
      [
        "▁grant",
        -9.284513879493453
      ],
      [
        "set",
        -10.198191725432384
      ],
      [
        "▁o",
        -9.672946019114775
      ],
      [
        "▁eng",
        -8.949208129558002
      ],
      [
        "250",
        -13.491759104348043
      ],
      [
        "fe",
        -10.063314280292355
      ],
      [
        "▁got",
        -6.471185232180018
      ],
      [
        "▁announce",
        -9.698459758573577
      ],
      [
        "nel",
        -10.565950804463373
      ],
      [
        "▁homosexual",
        -11.084250209205056
      ],
      [
        "▁fi",
        -12.276772853692053
      ],
      [
        "▁hop",
        -11.83466611609779
      ],
      [
        "▁charge",
        -8.54806971049041
      ],
      [
        "▁28",
        -10.454550929746874
      ],
      [
        "142",
        -13.600140993251276
      ],
      [
        "▁apartment",
        -9.364585252691992
      ],
      [
        "▁phone",
        -8.133027680288292
      ],
      [
        "ude",
        -11.343820274385248
      ],
      [
        "2.5",
        -13.146120449771661
      ],
      [
        "sett",
        -10.703706332384812
      ],
      [
        "▁read",
        -7.152437649624039
      ],
      [
        "▁coming",
        -8.057412809300788
      ],
      [
        "▁categori",
        -10.421379140151682
      ],
      [
        "▁",
        -3.685699605188219
      ],
      [
        "▁frank",
        -9.548970594545004
      ],
      [
        "▁manage",
        -8.756721150847328
      ],
      [
        "▁703",
        -13.389617785203246
      ],
      [
        "▁comparison",
        -10.111343907761277
      ],
      [
        "▁studie",
        -8.624769454639594
      ],
      [
        "▁extract",
        -10.254448478147212
      ],
      [
        "6867",
        -13.1370270105642
      ],
      [
        "int",
        -12.839402515140927
      ],
      [
        "ward",
        -10.031064876724024
      ],
      [
        "▁rock",
        -8.519707724901052
      ],
      [
        "▁democrat",
        -10.438394867585117
      ],
      [
        "919",
        -14.487614837274576
      ],
      [
        "▁compos",
        -10.622206236202477
      ],
      [
        "▁pre",
        -8.89534139102248
      ],
      [
        "▁snap",
        -10.481528870228985
      ],
      [
        "▁120",
        -10.933966636273306
      ],
      [
        "▁restor",
        -10.495184972482729
      ],
      [
        "▁unl",
        -9.680113489348734
      ],
      [
        "▁memor",
        -9.1431398826326
      ],
      [
        "??????????????",
        -12.573916463968976
      ],
      [
        "▁engage",
        -10.030424991308264
      ],
      [
        "▁++++",
        -13.72110732452765
      ],
      [
        "nsen",
        -12.433775802277559
      ],
      [
        "berkeley",
        -11.08425073845234
      ],
      [
        "▁shoe",
        -8.380056526732112
      ],
      [
        "rah",
        -10.060084194368319
      ],
      [
        "▁stepp",
        -9.957951806662797
      ],
      [
        "la",
        -10.26981702219517
      ],
      [
        "▁war",
        -7.685704703236816
      ],
      [
        "▁vaccine",
        -10.483878362914211
      ],
      [
        "▁usual",
        -8.294175329753353
      ],
      [
        "▁concert",
        -10.782300675917869
      ],
      [
        "ere",
        -6.953201077980379
      ],
      [
        "▁hack",
        -10.623199884324794
      ],
      [
        "▁app",
        -10.287189566796503
      ],
      [
        "▁turis",
        -12.826046104154699
      ],
      [
        "▁pig",
        -9.357296852367515
      ],
      [
        "-59",
        -13.070384567929212
      ],
      [
        "▁pin",
        -9.466395341686695
      ],
      [
        "hich",
        -14.237104677914536
      ],
      [
        "▁further",
        -8.510869129574889
      ],
      [
        "▁pudd",
        -10.993211504636179
      ],
      [
        "▁ginger",
        -10.623815494166784
      ],
      [
        "▁eva",
        -10.88270424756706
      ],
      [
        "▁breed",
        -10.382876049561908
      ],
      [
        "▁george",
        -8.510863764464974
      ],
      [
        "233",
        -13.678237943553544
      ],
      [
        "▁trick",
        -9.775141775574182
      ],
      [
        "dn",
        -12.852271289120075
      ],
      [
        "▁ruf",
        -10.986384975618922
      ],
      [
        "him",
        -9.53100735965861
      ],
      [
        "▁cookie",
        -9.452343529189825
      ],
      [
        "▁dress",
        -8.52815531764082
      ],
      [
        "nida",
        -10.572220448551235
      ],
      [
        "▁donna",
        -10.430952390420547
      ],
      [
        "▁replacement",
        -10.875344812116644
      ],
      [
        "▁bull",
        -10.55543134115589
      ],
      [
        "▁158",
        -10.771498006496458
      ],
      [
        "▁feature",
        -9.343367990276107
      ],
      [
        "om",
        -12.821276219444899
      ],
      [
        "€",
        -10.750452492101797
      ],
      [
        ";",
        -12.303437246021387
      ],
      [
        "li",
        -12.21078093944209
      ],
      [
        "▁103",
        -13.542774831643694
      ],
      [
        "een",
        -10.053247329201625
      ],
      [
        "tte",
        -13.86112417319225
      ],
      [
        "▁than",
        -7.291350501791546
      ],
      [
        "her",
        -7.767715035430991
      ],
      [
        "▁fame",
        -10.364349642941828
      ],
      [
        "▁co",
        -8.585027183678735
      ],
      [
        "▁shoul",
        -7.016245635624688
      ],
      [
        "@",
        -8.811977016458613
      ],
      [
        "▁wh",
        -9.220690979633488
      ],
      [
        "wh",
        -12.456898445064779
      ],
      [
        "unl",
        -12.934716141644028
      ],
      [
        "▁reef",
        -11.084484818392472
      ],
      [
        "▁928",
        -14.21094168812489
      ],
      [
        "▁panel",
        -10.363738447183305
      ],
      [
        "▁party",
        -8.297455321890126
      ],
      [
        "▁metropoli",
        -11.087056827575786
      ],
      [
        "38",
        -11.571807773434363
      ],
      [
        "▁walk",
        -7.584883910155949
      ],
      [
        "▁rain",
        -8.676584227600062
      ],
      [
        "▁crowd",
        -9.476926501554429
      ],
      [
        "▁broc",
        -10.98160270525697
      ],
      [
        "▁bat",
        -9.819321890693324
      ],
      [
        "▁181",
        -12.6722014366133
      ],
      [
        "▁virus",
        -10.726878509670541
      ],
      [
        "▁dish",
        -9.322580740242284
      ],
      [
        "aternal",
        -10.783017175466739
      ],
      [
        "▁challeng",
        -10.593855762955263
      ],
      [
        "▁atlant",
        -6.7109201785828185
      ],
      [
        "1918",
        -11.546116586931637
      ],
      [
        "▁develop",
        -8.37860232585212
      ],
      [
        "▁budget",
        -9.499174560523482
      ],
      [
        "▁attache",
        -9.182440947383979
      ],
      [
        "▁contribute",
        -10.124772979090258
      ],
      [
        "▁local",
        -8.272617127562505
      ],
      [
        "▁weekend",
        -9.043186274808786
      ],
      [
        "▁expose",
        -10.904598698611846
      ],
      [
        "▁confess",
        -10.9731438250026
      ],
      [
        "▁boxe",
        -9.929398466386692
      ],
      [
        "▁significant",
        -8.97007357438066
      ],
      [
        "row",
        -9.896580482552928
      ],
      [
        "bul",
        -10.45420270467387
      ],
      [
        "▁guadeloupe",
        -10.782230006868874
      ],
      [
        "▁optimis",
        -11.084297253445419
      ],
      [
        "port",
        -9.68451554888983
      ],
      [
        "un",
        -9.193911747915315
      ],
      [
        "▁muslim",
        -9.910720331479082
      ],
      [
        "199",
        -11.808463155916124
      ],
      [
        "▁11:",
        -12.774231487304524
      ],
      [
        "▁lamp",
        -10.874636911660788
      ],
      [
        "▁browser",
        -10.362555224308817
      ],
      [
        "▁vi",
        -10.603769107239945
      ],
      [
        "▁df",
        -10.563077858529104
      ],
      [
        "▁heal",
        -10.557732414120334
      ],
      [
        "*",
        -11.209250208901656
      ],
      [
        "▁post",
        -8.21368532157217
      ],
      [
        "man",
        -12.141727430762016
      ],
      [
        "▁baghdad",
        -10.483878437726085
      ],
      [
        "▁hopeful",
        -9.686468242602027
      ],
      [
        "ina",
        -10.335495820432765
      ],
      [
        "▁blog",
        -10.206508010273453
      ],
      [
        "▁hundred",
        -9.481396688621842
      ],
      [
        "339",
        -11.238809738318704
      ],
      [
        "minate",
        -10.993126635007146
      ],
      [
        "▁20",
        -10.758623086612115
      ],
      [
        "▁fail",
        -9.208635457953807
      ],
      [
        "done",
        -7.734496910975022
      ],
      [
        "‘",
        -9.441460514763136
      ],
      [
        "▁uncertaint",
        -10.794735669431077
      ],
      [
        "▁please",
        -6.5611205714047145
      ],
      [
        "▁trans",
        -9.478156993461104
      ],
      [
        ",9",
        -13.146070500982553
      ],
      [
        "▁chatham",
        -10.483940123195023
      ],
      [
        "ne",
        -10.32490622756281
      ],
      [
        "▁paralympic",
        -10.483878359159906
      ],
      [
        "16",
        -10.36257830423802
      ],
      [
        "del",
        -13.592865985019715
      ],
      [
        "▁cream",
        -9.499298788801497
      ],
      [
        "▁elizabeth",
        -10.782230006871133
      ],
      [
        "oatme",
        -10.778654167455988
      ],
      [
        "▁lesson",
        -9.581703507944743
      ],
      [
        "▁justice",
        -9.690381009134365
      ],
      [
        "▁t.",
        -10.982348734523061
      ],
      [
        "oun",
        -11.10653329383833
      ],
      [
        "▁immediate",
        -9.042831836157855
      ],
      [
        "▁reported",
        -9.400668780602931
      ],
      [
        "▁anthr",
        -9.574255411679363
      ],
      [
        "▁golf",
        -10.973682995264534
      ],
      [
        "▁brother",
        -8.849407188241042
      ],
      [
        "ampa",
        -9.076298603920982
      ],
      [
        "02",
        -11.277532520438841
      ],
      [
        "aima",
        -8.956940157347182
      ],
      [
        "▁firm",
        -9.264443195184324
      ],
      [
        "▁ag",
        -9.062038990771534
      ],
      [
        "▁van",
        -9.562859974576504
      ],
      [
        "compaq.com",
        -11.085452085135776
      ],
      [
        "372",
        -12.895773325174972
      ],
      [
        "▁steadi",
        -10.702593891613823
      ],
      [
        "▁rent",
        -9.50679364064101
      ],
      [
        "▁hers",
        -12.827484547626566
      ],
      [
        "▁map",
        -9.449652112771533
      ],
      [
        "▁archi",
        -10.030074686922266
      ],
      [
        "▁pickle",
        -11.107768104612832
      ],
      [
        "▁travel",
        -8.214959285963763
      ],
      [
        "nook",
        -10.166981447595251
      ],
      [
        "▁east",
        -8.61828764045853
      ],
      [
        "▁predator",
        -10.254372035817202
      ],
      [
        "35-",
        -12.600562428656753
      ],
      [
        "▁ill",
        -9.943678002587184
      ],
      [
        "*****",
        -11.566808758753416
      ],
      [
        "▁bathroom",
        -9.264134991111142
      ],
      [
        "▁click",
        -9.74361346957305
      ],
      [
        "▁door",
        -8.03169024463638
      ],
      [
        "▁cure",
        -10.706116989977577
      ],
      [
        "nana",
        -9.673480514167576
      ],
      [
        "▁convince",
        -10.156749054792275
      ],
      [
        "lotte",
        -8.381745288109983
      ],
      [
        "▁gift",
        -9.80813765268639
      ],
      [
        "▁dis",
        -8.281888613200405
      ],
      [
        "▁cleric",
        -10.973176579381743
      ],
      [
        "5000",
        -13.766487213310356
      ],
      [
        "▁georgi",
        -10.621973920321357
      ],
      [
        "▁golden",
        -9.876150185289776
      ],
      [
        "▁71",
        -12.27401445262819
      ],
      [
        "▁exceptional",
        -10.732586149771393
      ],
      [
        "▁41",
        -11.462132681209736
      ],
      [
        "▁casual",
        -10.770752255974218
      ],
      [
        "92",
        -10.548452700926305
      ],
      [
        "▁car",
        -6.814059369216863
      ],
      [
        "▁bon",
        -11.44154234529399
      ],
      [
        "▁string",
        -9.492072391848916
      ],
      [
        "▁sha",
        -9.452059176718008
      ],
      [
        "their",
        -9.446301580601954
      ],
      [
        "▁frog",
        -10.428547242701686
      ],
      [
        "▁6,",
        -14.13778527497731
      ],
      [
        "hobby",
        -11.133881692598024
      ],
      [
        ".x",
        -10.498047676957157
      ],
      [
        "▁44",
        -11.794641251323517
      ],
      [
        "sion",
        -10.424354767085728
      ],
      [
        "▁story",
        -8.444950928720758
      ],
      [
        "▁ad",
        -9.676051397487518
      ],
      [
        "▁regard",
        -8.110749527844678
      ],
      [
        "▁09:1",
        -12.94142892502291
      ],
      [
        "▁polic",
        -9.600246205301495
      ],
      [
        "▁surplus",
        -11.209250211141214
      ],
      [
        "▁spray",
        -10.111301390907311
      ],
      [
        "▁pitch",
        -10.624703098271443
      ],
      [
        "▁preference",
        -10.78252337983508
      ],
      [
        "▁exclusive",
        -11.084780089014547
      ],
      [
        "▁catholic",
        -9.98614961608647
      ],
      [
        "▁luc",
        -10.447948098513276
      ],
      [
        "▁commit",
        -10.355009632428231
      ],
      [
        "der",
        -11.612089083720626
      ],
      [
        "y",
        -5.310532547169549
      ],
      [
        "▁na",
        -11.199504350597584
      ],
      [
        "pdf",
        -10.255628992738792
      ],
      [
        "science",
        -10.556809667448835
      ],
      [
        "803",
        -13.975360954908663
      ],
      [
        "▁evening",
        -8.161262701432678
      ],
      [
        "13",
        -10.571710913851277
      ],
      [
        "▁camera",
        -9.50068615968036
      ],
      [
        "▁par",
        -11.828129688036489
      ],
      [
        "ese",
        -13.969336546849245
      ],
      [
        "656",
        -15.204647324905137
      ],
      [
        "▁2.9",
        -12.683758666043078
      ],
      [
        "ur",
        -11.393468614066895
      ],
      [
        "▁package",
        -9.948561433355973
      ],
      [
        "▁ambulance",
        -10.782230293840053
      ],
      [
        "▁65",
        -11.678712553193165
      ],
      [
        "▁of",
        -5.314681426468249
      ],
      [
        "▁old",
        -7.310560369202452
      ],
      [
        "▁on",
        -6.050779729216608
      ],
      [
        "▁tree",
        -8.66131432277415
      ],
      [
        "▁pakistani",
        -10.07236774880387
      ],
      [
        "▁da",
        -8.952820310393305
      ],
      [
        "▁4",
        -8.742783755132502
      ],
      [
        "▁dispos",
        -11.175140067885284
      ],
      [
        "inches",
        -10.859283484310678
      ],
      [
        "▁audit",
        -10.15676455097204
      ],
      [
        "herself",
        -13.45138161859207
      ],
      [
        "▁adaptation",
        -10.975389580895667
      ],
      [
        "▁theropod",
        -11.209250208966148
      ],
      [
        "▁church",
        -8.76700001969672
      ],
      [
        "upper",
        -10.178111168113647
      ],
      [
        "▁1000",
        -10.355355157779499
      ],
      [
        "0",
        -10.782683652942984
      ],
      [
        "raig",
        -10.975073682894683
      ],
      [
        "▁to",
        -11.047449325321436
      ],
      [
        "0.2",
        -14.1427018553399
      ],
      [
        "▁ou",
        -10.262009073803753
      ],
      [
        "cient",
        -9.908996480231782
      ],
      [
        "6.8",
        -11.52194411340363
      ],
      [
        "▁uncle",
        -9.364154389618484
      ],
      [
        "▁m.",
        -10.114025076790023
      ],
      [
        "▁pose",
        -10.46370333331644
      ],
      [
        "▁steam",
        -10.42095619549449
      ],
      [
        "▁tam",
        -10.519663649389418
      ],
      [
        "dental",
        -11.088745450448755
      ],
      [
        "▁applie",
        -9.343366425886325
      ],
      [
        "▁report",
        -7.7755583564881805
      ],
      [
        "▁relationship",
        -9.283337721318198
      ],
      [
        "▁tit",
        -10.849853436231792
      ],
      [
        "1.75",
        -12.636868206891616
      ],
      [
        "▁pursu",
        -10.944607685626538
      ],
      [
        "▁dinosaur",
        -8.900755064400187
      ],
      [
        "▁libert",
        -9.994241487661904
      ],
      [
        "▁equit",
        -11.157451592742849
      ],
      [
        "▁reward",
        -10.36316106623224
      ],
      [
        "▁extra",
        -9.65488497288834
      ],
      [
        "▁fake",
        -10.62221587017501
      ],
      [
        "▁premium",
        -11.084250776352164
      ],
      [
        "______________",
        -10.890899768835993
      ],
      [
        "▁ig",
        -11.51413377136796
      ],
      [
        "▁squeak",
        -10.698897447972636
      ],
      [
        "▁peak",
        -10.485505922525952
      ],
      [
        "rio",
        -11.368284490750389
      ],
      [
        "kk",
        -10.129784113247265
      ],
      [
        "89",
        -10.199888421912359
      ],
      [
        "▁opt",
        -10.886424240305193
      ],
      [
        "▁watch",
        -7.632043517616635
      ],
      [
        "▁liquidation",
        -10.975132394047812
      ],
      [
        "▁weaken",
        -10.976991419956672
      ],
      [
        "▁moo",
        -10.774072696878319
      ],
      [
        "▁aw",
        -8.821695715009092
      ],
      [
        "▁ar",
        -6.938284200336329
      ],
      [
        "▁gap",
        -10.03508961409538
      ],
      [
        "cia",
        -10.97411299701249
      ],
      [
        "▁ye",
        -7.899840741072134
      ],
      [
        "▁swing",
        -9.429482531068444
      ],
      [
        "▁supermarket",
        -10.48387838435153
      ],
      [
        "▁standing",
        -9.366795432440306
      ],
      [
        "▁va",
        -13.588427220972488
      ],
      [
        "▁nine",
        -9.205736100991716
      ],
      [
        "ful",
        -7.756954765414779
      ],
      [
        "▁gentleman",
        -11.085593229846864
      ],
      [
        "02/",
        -14.117092650879105
      ],
      [
        "▁survey",
        -10.369168625885816
      ],
      [
        "▁tow",
        -9.62052790184732
      ],
      [
        "▁chant",
        -10.793895823429857
      ],
      [
        "▁volume",
        -10.483888558489781
      ],
      [
        "-04",
        -14.123579800210047
      ],
      [
        "we",
        -8.084226335730307
      ],
      [
        "ney",
        -9.21457544688886
      ],
      [
        "▁extend",
        -9.441025206889728
      ],
      [
        "3-32",
        -14.140185884914017
      ],
      [
        "berg",
        -10.49274338526644
      ],
      [
        "▁simp",
        -10.89961413918464
      ],
      [
        "▁spiritual",
        -10.364882294943385
      ],
      [
        "naiss",
        -11.833792202418863
      ],
      [
        "▁real",
        -6.447431398550839
      ],
      [
        "▁11/2",
        -13.632092236267711
      ],
      [
        "▁neo",
        -9.919572678084233
      ],
      [
        "▁endeavor",
        -11.08425020986138
      ],
      [
        "▁afternoon",
        -7.758943884537265
      ],
      [
        "▁librar",
        -9.885754834860293
      ],
      [
        "cio",
        -12.833369130139856
      ],
      [
        "arian",
        -10.775781461207036
      ],
      [
        "▁stopp",
        -8.870291921383313
      ],
      [
        "72",
        -11.567392815125887
      ],
      [
        "j",
        -8.474923089370577
      ],
      [
        "▁minute",
        -7.811016186378632
      ],
      [
        "▁whos",
        -9.510403012777239
      ],
      [
        "im",
        -8.88475988247119
      ],
      [
        "02",
        -11.000492439779539
      ],
      [
        "045",
        -14.051548089164978
      ],
      [
        "someon",
        -11.278191597539164
      ],
      [
        "▁415",
        -11.58093456553975
      ],
      [
        "▁dividend",
        -10.3626366566194
      ],
      [
        "▁weight",
        -9.578458903833841
      ],
      [
        "▁detect",
        -10.549956889011497
      ],
      [
        "4.",
        -13.372752792048173
      ],
      [
        "▁01:0",
        -13.214497832237067
      ],
      [
        "▁before",
        -8.625549974881018
      ],
      [
        "▁puff",
        -10.974305750846108
      ],
      [
        "▁72",
        -12.15083050910019
      ],
      [
        "▁2:30",
        -11.734134949673816
      ],
      [
        "▁film",
        -8.94158326608536
      ],
      [
        "·",
        -9.904817571414563
      ],
      [
        "▁valentin",
        -10.621978087465147
      ],
      [
        "▁alto",
        -10.212468321437358
      ],
      [
        "▁#",
        -9.176891655473467
      ],
      [
        "▁experimental",
        -10.117742280838666
      ],
      [
        "▁37",
        -11.88765483250735
      ],
      [
        "▁yours",
        -10.490369004197085
      ],
      [
        "▁currenc",
        -9.910656282398373
      ],
      [
        "▁2.",
        -11.0544669463262
      ],
      [
        "▁drawing",
        -10.12176973869357
      ],
      [
        "▁62",
        -12.292935032403635
      ],
      [
        "nal",
        -11.838409662774964
      ],
      [
        "▁w/",
        -13.028036467691177
      ],
      [
        "ine",
        -11.05431148575052
      ],
      [
        "▁plann",
        -8.83373503072169
      ],
      [
        "stance",
        -9.959193539869547
      ],
      [
        "▁mid-",
        -9.876946511075625
      ],
      [
        "▁analyst",
        -9.815905401291193
      ],
      [
        "▁12",
        -8.716716429943682
      ],
      [
        "▁lei",
        -13.470949667794718
      ],
      [
        "4gamer",
        -10.782230014594703
      ],
      [
        "▁regulator",
        -10.698896678679944
      ],
      [
        "▁facilit",
        -9.473892914848987
      ],
      [
        "▁slippe",
        -10.356676942505176
      ],
      [
        "▁free",
        -7.951715259832073
      ],
      [
        "▁troop",
        -9.910651316343309
      ],
      [
        "▁hik",
        -9.965683402116886
      ],
      [
        "▁mi",
        -7.871724973931419
      ],
      [
        "▁wed",
        -9.315546137527582
      ],
      [
        "▁ya",
        -12.898998956236884
      ],
      [
        "t",
        -2.6296534203519837
      ],
      [
        "▁utter",
        -10.55092717612398
      ],
      [
        "▁who",
        -6.506588786527327
      ],
      [
        "464",
        -15.254803851314197
      ],
      [
        "▁passage",
        -10.487155251237887
      ],
      [
        "▁att",
        -13.762559927223512
      ],
      [
        "▁whistle",
        -10.78513595408813
      ],
      [
        "▁paris",
        -8.984183902884304
      ],
      [
        "-up",
        -10.792742516863157
      ],
      [
        "▁english",
        -8.458450690811581
      ],
      [
        "20",
        -12.731670396565669
      ],
      [
        "quino",
        -10.505480623860873
      ],
      [
        "▁witness",
        -10.696174358064457
      ],
      [
        "▁floor",
        -8.316029719346911
      ],
      [
        "▁www.",
        -10.484392257665853
      ],
      [
        "▁annual",
        -9.910654348908567
      ],
      [
        "▁conclusion",
        -9.774862157549517
      ],
      [
        "▁document",
        -8.528964295834928
      ],
      [
        "▁fireplace",
        -11.084956264057439
      ],
      [
        "▁difficult",
        -8.466997343888703
      ],
      [
        "▁tribe",
        -10.720551045264124
      ],
      [
        "▁mel",
        -10.28141798429387
      ],
      [
        "bert",
        -10.242654352680248
      ],
      [
        "2",
        -10.53881921003439
      ],
      [
        "3-",
        -14.52960505613413
      ],
      [
        "▁cave",
        -10.43148721028314
      ],
      [
        "▁domain",
        -9.874948404542526
      ],
      [
        "▁boom",
        -9.631582630288975
      ],
      [
        "▁smok",
        -10.19573723926888
      ],
      [
        "▁borgi",
        -11.086483350127166
      ],
      [
        "0.9",
        -15.298300968100728
      ],
      [
        "▁embass",
        -11.209250219378506
      ],
      [
        "▁04:5",
        -13.362917933474566
      ],
      [
        "▁curr",
        -10.980567041645251
      ],
      [
        "6/9",
        -12.808934602602188
      ],
      [
        "▁allow",
        -8.804257228262099
      ],
      [
        "l",
        -6.2229667881949515
      ],
      [
        "▁census",
        -10.550609585763745
      ],
      [
        "▁debut",
        -10.973148977735374
      ],
      [
        "▁poison",
        -10.783315460348035
      ],
      [
        "ch",
        -11.427146876420403
      ],
      [
        "▁hint",
        -10.363557216605296
      ],
      [
        "▁dunn",
        -10.782321786566396
      ],
      [
        "▁oak",
        -7.78465491882055
      ],
      [
        "▁match",
        -9.230767282598007
      ],
      [
        "▁sweet",
        -8.941300674347222
      ],
      [
        "▁newspaper",
        -9.49919608104054
      ],
      [
        "▁where",
        -6.23540645533923
      ],
      [
        "▁glori",
        -10.421136565693942
      ],
      [
        "▁discover",
        -9.012786778284584
      ],
      [
        "ady",
        -7.638505959234531
      ],
      [
        "▁indonesia",
        -10.362572797834668
      ],
      [
        "ص",
        -12.833785825435129
      ],
      [
        "▁container",
        -9.610797222643319
      ],
      [
        "7/200",
        -11.393922540536888
      ],
      [
        "▁conservation",
        -11.209250211288964
      ],
      [
        "its",
        -10.743570623640188
      ],
      [
        ".6",
        -12.64527802129072
      ],
      [
        "taking",
        -8.046389070022471
      ],
      [
        "▁div",
        -10.41964347556724
      ],
      [
        "▁address",
        -8.57038704206899
      ],
      [
        "▁bake",
        -10.92637896941837
      ],
      [
        "▁qu",
        -10.412207750123624
      ],
      [
        "▁delay",
        -10.15689404276343
      ],
      [
        "▁03/0",
        -11.442809681049695
      ],
      [
        "▁continu",
        -9.53695546922758
      ],
      [
        "lle",
        -11.518747435289725
      ],
      [
        "▁violation",
        -10.783419453835855
      ],
      [
        "▁admitted",
        -10.421553032521256
      ],
      [
        "▁percentile",
        -10.622004141620593
      ],
      [
        "string",
        -11.063495038409272
      ],
      [
        "▁journey",
        -10.204367825285065
      ],
      [
        "▁fine",
        -8.25907503132596
      ],
      [
        "▁consideration",
        -10.317718589990287
      ],
      [
        "▁iris",
        -10.515298404737104
      ],
      [
        "▁happ",
        -8.153841663651347
      ],
      [
        "t",
        -5.232622221240422
      ],
      [
        "▁basil",
        -9.502220359685678
      ],
      [
        "▁inequalit",
        -10.873141466853603
      ],
      [
        "id",
        -10.679683010652342
      ],
      [
        "▁refus",
        -9.81821068947286
      ],
      [
        "▁situation",
        -8.708630114144965
      ],
      [
        "▁expect",
        -8.766445120151669
      ],
      [
        "umn",
        -10.78416941849006
      ],
      [
        "▁circu",
        -10.420086463471744
      ],
      [
        "ugh",
        -10.799613475865524
      ],
      [
        "▁rachel",
        -10.873196698551936
      ],
      [
        "1.3",
        -11.69160675419613
      ],
      [
        "uter",
        -11.195607737965023
      ],
      [
        "▁order",
        -7.689555316556323
      ],
      [
        "o",
        -2.82187220909794
      ],
      [
        "-1.",
        -11.08405888417924
      ],
      [
        "▁draw",
        -8.023142053893743
      ],
      [
        "▁group",
        -7.486920746737258
      ],
      [
        "clusive",
        -11.119254990182814
      ],
      [
        "▁cyclone",
        -10.307023162573316
      ],
      [
        "n'",
        -9.381928970317361
      ],
      [
        "▁fa",
        -12.47731390070696
      ],
      [
        "▁zip",
        -11.207668530060356
      ],
      [
        "▁ruler",
        -11.012571321199605
      ],
      [
        "▁dal",
        -10.650001091976666
      ],
      [
        "security",
        -8.514115204358278
      ],
      [
        "▁adventure",
        -10.653439603615304
      ],
      [
        "tha",
        -7.447652869023349
      ],
      [
        "▁620-294-",
        -12.665389467361315
      ],
      [
        "▁give",
        -6.5690448486762625
      ],
      [
        "▁global",
        -8.67628738823569
      ],
      [
        "▁junk",
        -10.800701673090433
      ],
      [
        "r",
        -6.00790320594875
      ],
      [
        "▁pull",
        -8.34589253199323
      ],
      [
        "▁188",
        -12.696627625251612
      ],
      [
        "▁motor",
        -9.840610077927533
      ],
      [
        "▁bin",
        -9.6610324373028
      ],
      [
        "311",
        -13.198320466201267
      ],
      [
        "▁angr",
        -9.986303125707781
      ],
      [
        "ess",
        -10.471468821381702
      ],
      [
        "▁productive",
        -11.013172743341498
      ],
      [
        "▁scribble",
        -10.782230021613067
      ],
      [
        "▁07",
        -14.85886526325713
      ],
      [
        "▁continue",
        -8.247767614339391
      ],
      [
        "▁identifie",
        -9.807147500482166
      ],
      [
        "▁research",
        -8.467199144325534
      ],
      [
        "▁costume",
        -10.783949542322876
      ],
      [
        "▁definition",
        -9.910744447713716
      ],
      [
        "▁shadow",
        -9.87493756778584
      ],
      [
        "▁tight",
        -9.52366361184055
      ],
      [
        "▁pirate",
        -10.156750733305032
      ],
      [
        "▁215",
        -12.77746616942131
      ],
      [
        "▁competitive",
        -10.550550013091408
      ],
      [
        "▁minorit",
        -10.95271200726077
      ],
      [
        "▁profound",
        -11.08425045714576
      ],
      [
        "▁transport",
        -7.512818640918077
      ],
      [
        "▁freezer",
        -10.705888187735908
      ],
      [
        "▁premise",
        -10.973144827633282
      ],
      [
        "▁initiat",
        -9.947087319060564
      ],
      [
        "▁beard",
        -10.01809895740331
      ],
      [
        "▁.32",
        -14.792785263810408
      ],
      [
        "▁pure",
        -9.948496827320778
      ],
      [
        "▁air",
        -7.309015664493768
      ],
      [
        "▁privilege",
        -10.3625548291057
      ],
      [
        "orrow",
        -8.115700336615571
      ],
      [
        "11",
        -10.407366820278074
      ],
      [
        "▁react",
        -10.807208965608863
      ],
      [
        "▁influence",
        -9.323427190509516
      ],
      [
        "world",
        -10.847732144510665
      ],
      [
        "▁rose",
        -9.317844527618277
      ],
      [
        "parallel",
        -10.421379712373549
      ],
      [
        "▁fung",
        -10.315103775195087
      ],
      [
        "unch",
        -9.967894023839056
      ],
      [
        "▁horror",
        -10.421378402477004
      ],
      [
        ".37",
        -13.779820701624006
      ],
      [
        "ismo",
        -12.834074781890388
      ],
      [
        "▁hammer",
        -10.421395625710122
      ],
      [
        "▁access",
        -7.9493326922422405
      ],
      [
        "▁chill",
        -10.421908704354923
      ],
      [
        "▁favour",
        -10.06941905346666
      ],
      [
        "▁mystery",
        -10.483879285138752
      ],
      [
        "▁deadline",
        -11.085482313062178
      ],
      [
        "▁182",
        -11.921712514434294
      ],
      [
        "$",
        -10.362512787707264
      ],
      [
        "▁thei",
        -15.11873651409302
      ],
      [
        "y@enron",
        -13.171364865159829
      ],
      [
        "▁excel",
        -10.025933362849285
[...]
