{
  "version": "1.0",
  "truncation": null,
  "padding": null,
  "added_tokens": [
    {
      "id": 6549,
      "content": "[PAD]",
      "single_word": false,
      "lstrip": false,
      "rstrip": false,
      "normalized": false,
      "special": true
    },
    {
      "id": 7693,
      "content": "[MASK]",
      "single_word": false,
      "lstrip": false,
      "rstrip": false,
      "normalized": false,
      "special": true
    },
    {
      "id": 7881,
      "content": "[UNK]",
      "single_word": false,
      "lstrip": false,
      "rstrip": false,
      "normalized": false,
      "special": true
    },
    {
      "id": 12893,
      "content": "[CLS]",
      "single_word": false,
      "lstrip": false,
      "rstrip": false,
      "normalized": false,
      "special": true
    },
    {
      "id": 13318,
      "content": "[SEP]",
      "single_word": false,
      "lstrip": false,
      "rstrip": false,
      "normalized": false,
      "special": true
    }
  ],
  "normalizer": {
    "type": "Sequence",
    "normalizers": [
      {
        "type": "NFD"
      },
      {
        "type": "Lowercase"
      },
      {
        "type": "StripAccents"
      }
    ]
  },
  "pre_tokenizer": {
    "type": "Sequence",
    "pretokenizers": [
      {
        "type": "Metaspace",
        "replacement": "▁",
        "prepend_scheme": "always",
        "split": true
      }
    ]
  },
  "post_processor": {
    "type": "TemplateProcessing",
    "single": [
      {
        "SpecialToken": {
          "id": "[CLS]",
          "type_id": 0
        }
      },
      {
        "Sequence": {
          "id": "A",
          "type_id": 0
        }
      },
      {
        "SpecialToken": {
          "id": "[SEP]",
          "type_id": 0
        }
      }
    ],
    "pair": [
      {
        "SpecialToken": {
          "id": "[CLS]",
          "type_id": 0
        }
      },
      {
        "Sequence": {
          "id": "A",
          "type_id": 0
        }
      },
      {
        "SpecialToken": {
          "id": "[SEP]",
          "type_id": 0
        }
      },
      {
        "Sequence": {
          "id": "B",
          "type_id": 1
        }
      },
      {
        "SpecialToken": {
          "id": "[SEP]",
          "type_id": 1
        }
      }
    ],
    "special_tokens": {
      "[CLS]": {
        "id": "[CLS]",
        "ids": [
          12893
        ],
        "tokens": [
          "[CLS]"
        ]
      },
      "[SEP]": {
        "id": "[SEP]",
        "ids": [
          13318
        ],
        "tokens": [
          "[SEP]"
        ]
      }
    }
  },
  "decoder": {
    "type": "Metaspace",
    "replacement": "▁",
    "prepend_scheme": "always",
    "split": true
  },
  "model": {
    "type": "BPE",
    "dropout": null,
    "unk_token": "[UNK]",
    "continuing_subword_prefix": null,
    "end_of_word_suffix": null,
    "fuse_unk": false,
    "byte_fallback": false,
    "ignore_merges": false,
    "vocab": {
      "!!!!!!!!": 0,
      "iss": 1,
      "▁candy": 2,
      "enf": 3,
      ":56": 4,
      "▁threats": 5,
      "ming": 6,
      "▁rude": 7,
      "ensity": 8,
      "▁squirt": 9,
      "▁slipped": 10,
      "▁sic": 11,
      "▁cognition": 12,
      "▁chat": 13,
      "▁unus": 14,
      "▁upr": 15,
      "orum": 16,
      "▁intoler": 17,
      "▁hast": 18,
      "40": 19,
      "izz": 20,
      "▁12/2": 21,
      "▁allocated": 22,
      "▁circles": 23,
      "▁interv": 24,
      "▁there": 25,
      "▁trafficking": 26,
      "▁date": 27,
      "▁circum": 28,
      "▁twirl": 29,
      "▁passages": 30,
      "▁dies": 31,
      "▁ec": 32,
      "▁involved": 33,
      "▁ha": 34,
      "▁must": 35,
      "▁proble": 36,
      "▁boots": 37,
      "▁tells": 38,
      "/p": 39,
      "▁perce": 40,
      "▁form": 41,
      "▁biological": 42,
      "eu": 43,
      "▁jr.": 44,
      "▁1589": 45,
      "▁caribbean": 46,
      ".c": 47,
      "▁beck": 48,
      "orio": 49,
      "▁conventions": 50,
      "▁fortier": 51,
      "▁forgotten": 52,
      "▁1,200": 53,
      "▁2030": 54,
      "▁areas": 55,
      "▁thomas": 56,
      "▁scorp": 57,
      "▁redlined": 58,
      "▁odds": 59,
      "/13": 60,
      "ensus": 61,
      "look": 62,
      "▁resources": 63,
      "▁whistle": 64,
      "▁pharmaceutical": 65,
      "▁exclus": 66,
      "▁recommended": 67,
      "ived": 68,
      "▁q": 69,
      "▁joining": 70,
      "▁paint": 71,
      "▁pun": 72,
      "▁provocation": 73,
      "▁wanted": 74,
      "▁indones": 75,
      "▁football": 76,
      "▁establish": 77,
      "▁appears": 78,
      "▁thursdays": 79,
      "▁fueled": 80,
      "▁advisor": 81,
      "▁futures": 82,
      "uffling": 83,
      "5/2001": 84,
      "▁guidelines": 85,
      "▁wrink": 86,
      "▁1562": 87,
      "▁created": 88,
      "▁bathroom": 89,
      "▁grants": 90,
      "▁snuffy": 91,
      "▁4.6": 92,
      "wide": 93,
      "▁wedding": 94,
      "▁1609": 95,
      "▁lest": 96,
      "▁negligence": 97,
      "▁wait": 98,
      "▁voters": 99,
      "cross": 100,
      "0-3": 101,
      "▁laundry": 102,
      "▁commerce": 103,
      "▁old": 104,
      "▁deed": 105,
      "arents": 106,
      "▁shackle": 107,
      "▁buy": 108,
      "▁sinking": 109,
      "mn": 110,
      "▁map": 111,
      "▁watch": 112,
      "▁well": 113,
      "▁iran": 114,
      "ulpt": 115,
      "▁employees": 116,
      "▁suff": 117,
      "▁replication": 118,
      "▁childhood": 119,
      "▁gaining": 120,
      "▁squ": 121,
      "▁simon": 122,
      "quart": 123,
      "▁pile": 124,
      "burn": 125,
      ".6": 126,
      "▁y": 127,
      "▁israelis": 128,
      "▁dong": 129,
      "90": 130,
      "▁daily": 131,
      "one": 132,
      "▁bench": 133,
      "▁sunny": 134,
      "▁merry": 135,
      "aire": 136,
      "▁cham": 137,
      "▁answering": 138,
      "▁attractive": 139,
      "▁hm": 140,
      "▁triumph": 141,
      "▁spend": 142,
      "▁overseas": 143,
      "▁hilton": 144,
      "▁input": 145,
      "▁u": 146,
      "hing": 147,
      "▁charlie": 148,
      "▁headed": 149,
      "keeping": 150,
      "▁ammunition": 151,
      "unications": 152,
      "▁agel": 153,
      "▁abundance": 154,
      "sem": 155,
      "▁counterpart": 156,
      "eis": 157,
      "▁central": 158,
      "▁sufaat": 159,
      "inction": 160,
      "sticks": 161,
      "▁!!!?": 162,
      "▁gives": 163,
      "▁gallon": 164,
      "▁fig": 165,
      "▁carl": 166,
      "▁wonderful": 167,
      "▁indian": 168,
      "▁once": 169,
      "▁1635": 170,
      "▁uva": 171,
      "▁hard": 172,
      "▁2017": 173,
      "▁practices": 174,
      "▁comparative": 175,
      "▁promises": 176,
      "▁mar": 177,
      "▁invention": 178,
      "▁enormous": 179,
      "tsbur": 180,
      "▁stub": 181,
      "iration": 182,
      "400": 183,
      "▁rip": 184,
      "▁belts": 185,
      "▁oblig": 186,
      "hous": 187,
      "▁felt": 188,
      "▁collectively": 189,
      "ier": 190,
      "▁afghan": 191,
      "▁finance": 192,
      "▁excitement": 193,
      "teboo": 194,
      "▁ra": 195,
      "▁obstacle": 196,
      "▁rescued": 197,
      "---": 198,
      "▁blows": 199,
      "-9004": 200,
      "▁driver": 201,
      "▁donkey": 202,
      "▁identify": 203,
      "▁memorial": 204,
      "▁fail": 205,
      "▁plug": 206,
      "▁will": 207,
      "▁spons": 208,
      "birds": 209,
      "▁amendment": 210,
      "▁contrad": 211,
      "aling": 212,
      "▁sir": 213,
      "aters": 214,
      "▁golden": 215,
      "▁with": 216,
      "akan": 217,
      "▁const": 218,
      "▁commission": 219,
      "▁upside": 220,
      "▁first": 221,
      "▁diesel": 222,
      "▁forward": 223,
      "▁trees": 224,
      "▁pushes": 225,
      "▁hasid": 226,
      "▁mid-": 227,
      "....": 228,
      "▁2018": 229,
      "▁unnecess": 230,
      "▁outcome": 231,
      "▁papers": 232,
      "gmail.com": 233,
      "▁management": 234,
      "osis": 235,
      "ally": 236,
      "▁coinc": 237,
      "▁33,000": 238,
      "▁mistakes": 239,
      "▁cradle": 240,
      "ging": 241,
      "▁conduct": 242,
      "▁...................": 243,
      "▁aaf": 244,
      "zan": 245,
      "▁histories": 246,
      "▁wai": 247,
      "osure": 248,
      "istics": 249,
      "▁indic": 250,
      "▁varied": 251,
      "▁rogers": 252,
      "▁ever": 253,
      "▁888.916.718": 254,
      "▁distributed": 255,
      "▁dried": 256,
      "▁wong": 257,
      "▁reserve": 258,
      "▁boy": 259,
      "▁prosecut": 260,
      "ocrats": 261,
      "▁sadly": 262,
      "▁☏": 263,
      "▁disappear": 264,
      "▁admir": 265,
      "▁prophet": 266,
      "▁sometimes": 267,
      "▁subjected": 268,
      "hood": 269,
      "▁syd": 270,
      "▁partnership": 271,
      "round": 272,
      "▁motive": 273,
      "▁info": 274,
      "▁carney": 275,
      "ble": 276,
      "▁01:14": 277,
      "▁pillars": 278,
      "establish": 279,
      "ans": 280,
      "az": 281,
      "▁forehead": 282,
      "▁nut": 283,
      "oam": 284,
      "▁wy": 285,
      "asant": 286,
      "▁continent": 287,
      "idays": 288,
      "preh": 289,
      "▁applause": 290,
      "▁said": 291,
      "▁marilyn": 292,
      "▁yan": 293,
      "▁demon": 294,
      "▁inn": 295,
      "▁obtained": 296,
      "▁dimension": 297,
      "▁mat": 298,
      "▁cfl": 299,
      "▁habits": 300,
      "▁shi": 301,
      "▁caves": 302,
      "▁oil": 303,
      "▁control": 304,
      "▁tacoma": 305,
      "▁bec": 306,
      "▁tires": 307,
      "▁jobs": 308,
      "▁support": 309,
      "☏": 310,
      "▁transmedia": 311,
      "▁fully": 312,
      "▁reality": 313,
      "science": 314,
      "▁enjoyed": 315,
      "▁3,202.61": 316,
      "▁tickles": 317,
      "▁restruct": 318,
      "▁alleged": 319,
      "▁darkness": 320,
      "▁44,000": 321,
      "ctic": 322,
      "▁councill": 323,
      "▁sentiment": 324,
      "ings": 325,
      "▁05/01/2001": 326,
      "▁known": 327,
      "▁relat": 328,
      "ures": 329,
      "elines": 330,
      "▁soldier": 331,
      "▁paula": 332,
      "▁nicely": 333,
      "▁10th": 334,
      "▁funds": 335,
      "▁********************************": 336,
      "rid": 337,
      "▁ray": 338,
      "▁anthony": 339,
      "▁egypt": 340,
      "▁builders": 341,
      "▁pur": 342,
      "ect": 343,
      "}*{===<----": 344,
      "▁mailto:": 345,
      "iwan": 346,
      "▁colombo": 347,
      "id": 348,
      "▁kleenex": 349,
      "▁tragedies": 350,
      "▁useful": 351,
      "omend": 352,
      "▁divid": 353,
      "▁shiny": 354,
      "▁ruth": 355,
      "▁foreigner": 356,
      "▁approxim": 357,
      "▁obv": 358,
      "atter": 359,
      "end": 360,
      "55": 361,
      "▁prot": 362,
      "kward": 363,
      "istical": 364,
      "▁draw": 365,
      "▁20.doc": 366,
      "▁lean": 367,
      "▁party": 368,
      "▁blood": 369,
      "▁emphasize": 370,
      "▁abilities": 371,
      "amental": 372,
      "ini": 373,
      "▁wipe": 374,
      "▁1594": 375,
      "▁organizing": 376,
      "▁leop": 377,
      "▁surroundings": 378,
      "▁equip": 379,
      "▁communists": 380,
      "ix": 381,
      "▁maintains": 382,
      "▁748": 383,
      ":29": 384,
      "▁graph": 385,
      "gest": 386,
      "▁thom": 387,
      "▁ew": 388,
      "▁campaign": 389,
      "▁scan": 390,
      "▁ice": 391,
      "▁macbeth": 392,
      "▁programs": 393,
      "▁phone": 394,
      "clus": 395,
      "▁dud": 396,
      "▁soft": 397,
      "449": 398,
      "▁updates": 399,
      ".1234": 400,
      "iere": 401,
      "▁rough": 402,
      "▁server": 403,
      "”": 404,
      "▁mister": 405,
      "▁arising": 406,
      "▁bon": 407,
      "=1": 408,
      "▁brave": 409,
      "▁abbreviation": 410,
      "most": 411,
      "▁bigger": 412,
      "utan": 413,
      "▁brook": 414,
      "▁scrut": 415,
      "▁gent": 416,
      "▁tarzan": 417,
      "▁dip": 418,
      "▁starting": 419,
      "▁egyptian": 420,
      "onom": 421,
      "▁window": 422,
      "▁04:37": 423,
      "▁earl": 424,
      "see": 425,
      "▁examination": 426,
      "▁intensive": 427,
      "▁paints": 428,
      "▁tamils": 429,
      "▁song": 430,
      "▁scored": 431,
      "▁impress": 432,
      "osite": 433,
      "▁robinson": 434,
      "▁mm": 435,
      "7/99": 436,
      "▁rap": 437,
      "▁become": 438,
      "▁modification": 439,
      "▁enh": 440,
      "▁devoted": 441,
      "▁developing": 442,
      "▁filed": 443,
      "step": 444,
      "▁kim": 445,
      "▁jama": 446,
      "▁flour": 447,
      "▁banned": 448,
      "▁refugee": 449,
      "▁tut": 450,
      "▁autumn": 451,
      "019": 452,
      "▁fabulous": 453,
      "inely": 454,
      "▁sim": 455,
      "▁limitations": 456,
      ":55": 457,
      "▁lucy": 458,
      "▁lion": 459,
      "▁hect": 460,
      "cher": 461,
      "▁wolves": 462,
      "▁criminal": 463,
      "▁s/h": 464,
      "▁prel": 465,
      "▁prob": 466,
      "▁airline": 467,
      "▁jury": 468,
      "▁giov": 469,
      "▁associated": 470,
      "▁strength": 471,
      "▁asap": 472,
      "▁rising": 473,
      "▁sources": 474,
      "▁1952": 475,
      "▁possessions": 476,
      "nic": 477,
      "▁3/8/00": 478,
      "▁badge": 479,
      "▁commissioned": 480,
      "▁painting": 481,
      "▁sheltered": 482,
      "▁historic": 483,
      "▁does": 484,
      "il": 485,
      "@comp": 486,
      "▁11/0": 487,
      "▁chronic": 488,
      "▁satisfaction": 489,
      "▁calculated": 490,
      "▁realised": 491,
      "▁analy": 492,
      "▁booking": 493,
      "coon": 494,
      "▁stoo": 495,
      "▁grade": 496,
      "▁814014": 497,
      "▁ask": 498,
      "-by": 499,
      "▁parallel": 500,
      "▁schedule": 501,
      "rie": 502,
      "arr": 503,
      "▁lil": 504,
      "▁unkn": 505,
      "▁encouraged": 506,
      "ify": 507,
      "▁boeing": 508,
      "▁voldemort": 509,
      "▁globe": 510,
      "▁interpre": 511,
      "▁assert": 512,
      "▁kiss": 513,
      "▁read": 514,
      "▁profession": 515,
      "▁quartile": 516,
      "▁mc": 517,
      "▁notably": 518,
      "▁extremist": 519,
      "▁clothes": 520,
      "▁mood": 521,
      "ological": 522,
      "▁proposals": 523,
      "▁misc": 524,
      "▁alaska": 525,
      "▁illusion": 526,
      "iment": 527,
      "▁bri": 528,
      "ium": 529,
      "▁-----": 530,
      "▁bulldozer": 531,
      "▁tracks": 532,
      "thern": 533,
      "▁ob": 534,
      "gregation": 535,
      "put": 536,
      "▁satisfy": 537,
      "▁looming": 538,
      "▁hospital": 539,
      "5-0": 540,
      "▁transp": 541,
      "▁w.": 542,
      "ius": 543,
      "ublic": 544,
      "▁wished": 545,
      "▁1950": 546,
      "▁mud": 547,
      "▁8:00": 548,
      "▁thais": 549,
      "orial": 550,
      ",5": 551,
      "▁corps": 552,
      "▁baking": 553,
      "--------+----------------": 554,
      "htub": 555,
      "▁taj": 556,
      "▁delhi": 557,
      "▁hun": 558,
      "▁homeland": 559,
      "▁alter": 560,
      "kk": 561,
      "etic": 562,
      "▁forever": 563,
      "▁reached": 564,
      "▁soooo": 565,
      "▁overwhel": 566,
      "▁received": 567,
      "ulate": 568,
      "▁sunlight": 569,
      "st": 570,
      "▁80435": 571,
      "6th": 572,
      "fl": 573,
      "▁1833": 574,
      "-n": 575,
      "▁delta": 576,
      "-5": 577,
      ".676": 578,
      "▁cox": 579,
      "▁dut": 580,
      "hist": 581,
      "▁dna": 582,
      "▁cycl": 583,
      "▁surrounded": 584,
      "▁amounts": 585,
      "▁tide": 586,
      "▁gam": 587,
      "'s": 588,
      "ructive": 589,
      "▁consumers": 590,
      "▁yale": 591,
      "▁contem": 592,
      "▁alth": 593,
      ".7822": 594,
      "▁straps": 595,
      "ensions": 596,
      "▁communist": 597,
      "▁proceeding": 598,
      "▁phd": 599,
      "▁shia": 600,
      "▁implications": 601,
      "▁gloria": 602,
      "▁communicated": 603,
      "▁hous": 604,
      "▁socc": 605,
      "▁francois": 606,
      "▁lung": 607,
      "▁ocho": 608,
      "▁rank": 609,
      "▁thirtieth": 610,
      "80s": 611,
      "▁cruelty": 612,
      "▁n": 613,
      "▁stopping": 614,
      "▁cap": 615,
      "overs": 616,
      "▁facilitate": 617,
      "▁solicit": 618,
      "▁highest": 619,
      "▁1100": 620,
      "▁'ll": 621,
      "▁limb": 622,
      "fahan": 623,
      "▁ashamed": 624,
      "▁signoff": 625,
      "▁dr": 626,
      "▁meth": 627,
      "▁yam": 628,
      "▁call": 629,
      "▁undermine": 630,
      "▁crossed": 631,
      "inating": 632,
      "▁spect": 633,
      "▁rainy": 634,
      "▁[...]": 635,
      "▁using": 636,
      "▁ecc": 637,
      "icted": 638,
      "▁beneath": 639,
      "▁spark": 640,
      "▁pulling": 641,
      "▁farm": 642,
      "▁concerns": 643,
      "oton": 644,
      "vis": 645,
      "▁cambridge": 646,
      "eding": 647,
      "▁529999": 648,
      "▁fruits": 649,
      "▁fantastic": 650,
      "▁zion": 651,
      "▁exile": 652,
      "▁communic": 653,
      "▁beetle": 654,
      "▁chin": 655,
      "▁introduce": 656,
      "▁credit": 657,
      "ignation": 658,
      "▁artistic": 659,
      "▁methods": 660,
      "▁undoubtedly": 661,
      "▁sidd": 662,
      "▁dp": 663,
      "▁classified": 664,
      "▁liquidweb": 665,
      "▁scrub": 666,
      "cht": 667,
      "▁fetch": 668,
      "▁sony": 669,
      "▁gel": 670,
      "etts": 671,
      "▁hopes": 672,
      "▁dodge": 673,
      "▁bot": 674,
      "aso": 675,
      "▁212": 676,
      "zo": 677,
      "ry": 678,
      "ph": 679,
      "▁desperately": 680,
      "▁points": 681,
      "▁breat": 682,
      "▁analysts": 683,
      "equ": 684,
      "jamas": 685,
      "▁senior": 686,
      "▁96": 687,
      "▁locomotive": 688,
      "▁stren": 689,
      "▁legos": 690,
      "▁mrs.": 691,
      "▁americans": 692,
      "▁countless": 693,
      "▁pse": 694,
      "ς": 695,
      "▁apparent": 696,
      "▁scar": 697,
      "▁charming": 698,
      "..": 699,
      "▁sav": 700,
      "▁lif": 701,
      "▁destiny": 702,
      "▁popped": 703,
      "▁922": 704,
      "asks": 705,
      "val": 706,
      "▁potato": 707,
      "▁tort": 708,
      "te": 709,
      "▁eighteen": 710,
      "▁muslims": 711,
      "▁chase": 712,
      "▁effectiveness": 713,
      "▁confer": 714,
      "atched": 715,
      "▁alphabet": 716,
      "▁ill": 717,
      "▁arguing": 718,
      "▁escaped": 719,
      "▁adults": 720,
      "fk": 721,
      "38": 722,
      "▁03:48": 723,
      "alling": 724,
      "▁animals": 725,
      "ends": 726,
      "▁e.": 727,
      "image/2005.09": 728,
      "rep": 729,
      "▁lb": 730,
      "ayed": 731,
      "ga": 732,
      "▁oregon": 733,
      "▁tasty": 734,
      "▁bird": 735,
      "▁kennedy": 736,
      "▁thirds": 737,
      "ns": 738,
      "▁tresp": 739,
      "▁mothers": 740,
      "liament": 741,
      "▁agency": 742,
      "edia": 743,
      "▁showing": 744,
      "▁naval": 745,
      "▁indirect": 746,
      "▁marvelous": 747,
      "ned": 748,
      "▁09:45": 749,
      "▁mercy": 750,
      "▁cd": 751,
      "▁cia": 752,
      "mental": 753,
      "▁pilot": 754,
      "▁authentic": 755,
      "▁trap": 756,
      "▁spices": 757,
      "▁tastes": 758,
      "▁11/7": 759,
      "▁sleepy": 760,
      "▁excel": 761,
      "▁oo": 762,
      "▁giv": 763,
      "oss": 764,
      "iate": 765,
      "▁supernat": 766,
      "▁alternative": 767,
      "enz": 768,
      "▁accum": 769,
      "▁operative": 770,
      "▁extending": 771,
      "ef": 772,
      "▁g.": 773,
      "▁stare": 774,
      "▁visitor": 775,
      "▁anonymous": 776,
      "▁charged": 777,
      "▁assigned": 778,
      "boo": 779,
      "▁l2": 780,
      "▁dame": 781,
      "▁sandwiches": 782,
      "ention": 783,
      "▁freak": 784,
      "▁recc": 785,
      "▁libriv": 786,
      "▁1947": 787,
      "▁conqu": 788,
      "▁overalls": 789,
      "▁sals": 790,
      "▁sars": 791,
      "▁tribe": 792,
      "▁37": 793,
      "▁plenty": 794,
      "_0": 795,
      "▁guardia": 796,
      "▁unit": 797,
      "▁alt.": 798,
      "oh": 799,
      "▁mess": 800,
      "▁16.379": 801,
      "▁faint": 802,
      "▁bay": 803,
      "▁spagh": 804,
      "▁milit": 805,
      "▁pret": 806,
      "amm": 807,
      "▁veto": 808,
      "illance": 809,
      "▁comment": 810,
      "ttes": 811,
      "▁cooler": 812,
      "▁unesco": 813,
      "ama": 814,
      "▁sunshine": 815,
      "▁conducting": 816,
      "▁youn": 817,
      "▁messages": 818,
      "▁chairs": 819,
      "▁i.e.": 820,
      "▁thai": 821,
      "uggle": 822,
      "▁resc": 823,
      "▁respects": 824,
      "▁co": 825,
      "▁across": 826,
      "▁137": 827,
      "▁finishing": 828,
      "aki": 829,
      "▁hamsters": 830,
      "▁df": 831,
      "als": 832,
      "▁phail": 833,
      "▁appe": 834,
      "ughters": 835,
      "ocado": 836,
      "▁proceedings": 837,
      "▁demanding": 838,
      "▁fountain": 839,
      "▁beating": 840,
      "plus": 841,
      "▁ian": 842,
      "▁tenth": 843,
      "▁regulate": 844,
      "▁pere": 845,
      "▁powerful": 846,
      ".ell": 847,
      "rition": 848,
      "▁lime": 849,
      "▁whoo": 850,
      "▁constituency": 851,
      "▁asleep": 852,
      "▁2.9": 853,
      "▁ded": 854,
      "-23": 855,
      "▁5th": 856,
      "▁sle": 857,
      "▁twist": 858,
      "▁315": 859,
      "▁jamie": 860,
      "▁hosting": 861,
      "▁die": 862,
      "▁lately": 863,
      "rant": 864,
      "▁reint": 865,
      "▁biting": 866,
      "idence": 867,
      "▁yellow": 868,
      "air@enron.com": 869,
      "▁demonstration": 870,
      "elson": 871,
      "▁ce": 872,
      "/7": 873,
      "▁neighbor": 874,
      "▁thir": 875,
      "▁candidate": 876,
      "▁ger": 877,
      "ders": 878,
      "夏": 879,
      "▁commodity": 880,
      "▁chemicals": 881,
      "rec": 882,
      "ame": 883,
      "▁son": 884,
      "rors": 885,
      "▁mill": 886,
      "▁pdt": 887,
      "▁socially": 888,
      "ables": 889,
      "▁carey": 890,
      "▁marie": 891,
      "▁fisher": 892,
      "▁idiots": 893,
      "▁cass": 894,
      "lic": 895,
      "▁squirrel": 896,
      "▁recre": 897,
      "uted": 898,
      "▁project": 899,
      "▁exposure": 900,
      "▁peanuts": 901,
      "▁staring": 902,
      "gami": 903,
      "▁ninety-nine": 904,
      "▁methodology": 905,
      "▁schools": 906,
      "▁steve": 907,
      "ree": 908,
      "▁ey": 909,
      "▁syri": 910,
      "▁accurately": 911,
      ",950": 912,
      "▁pennsylv": 913,
      "irm": 914,
      "▁dolph": 915,
      "▁orch": 916,
      "▁here": 917,
      "ciation": 918,
      "iots": 919,
      "/index": 920,
      "▁rathbun": 921,
      "sel": 922,
      "▁orchestra": 923,
      "▁any": 924,
      "▁fixed": 925,
      "▁bus": 926,
      "▁+++": 927,
      "▁acquis": 928,
      "▁europol": 929,
      "lier": 930,
      "▁studio": 931,
      "vest": 932,
      "▁boston": 933,
      "▁threw": 934,
      "▁tennessee": 935,
      "▁wrong": 936,
      "uals": 937,
      "▁minutes": 938,
      "▁wish": 939,
      "▁currently": 940,
      "▁bless": 941,
      "ination": 942,
      "▁remed": 943,
      "▁markets": 944,
      "▁transportation": 945,
      "43": 946,
      "ilities": 947,
      "▁borg": 948,
      "church": 949,
      "▁scre": 950,
      "▁madrid": 951,
      "▁assumed": 952,
      "▁sword": 953,
      "▁poly": 954,
      "▁tower": 955,
      "▁moist": 956,
      "▁comply": 957,
      "▁4th": 958,
      "pool": 959,
      "▁sketch": 960,
      "lig": 961,
      "uity": 962,
      "▁grandmas": 963,
      "▁fy": 964,
      "▁mir": 965,
      "▁facebook": 966,
      "▁las": 967,
      "▁exit": 968,
      "▁dragon": 969,
      "▁vend": 970,
      "▁harrow": 971,
      "▁prof": 972,
      "▁obvious": 973,
      "cont": 974,
      "ower": 975,
      "▁separated": 976,
      "▁contracts": 977,
      "▁compensate": 978,
      "▁casc": 979,
      "▁courage": 980,
      "▁equally": 981,
      "▁wealthy": 982,
      "▁median": 983,
      "▁‘’": 984,
      "▁2.975": 985,
      "boro": 986,
      "▁initi": 987,
      "itt": 988,
      "▁tul": 989,
      "entially": 990,
      "▁permits": 991,
      "▁tanks": 992,
      "▁formed": 993,
      "▁69": 994,
      "▁susan": 995,
      "▁fr": 996,
      "▁simply": 997,
      "▁aim": 998,
      "▁wilbur": 999,
      "▁dash": 1000,
      "▁master": 1001,
      "▁stella": 1002,
      "▁ba'ath": 1003,
      "ateral": 1004,
      "▁annual": 1005,
      "▁load": 1006,
      "▁s.": 1007,
      "▁counters": 1008,
      "▁subscribers": 1009,
      "▁expon": 1010,
      "▁311": 1011,
      "ak": 1012,
      "▁dirt": 1013,
      "▁grown": 1014,
      "▁larry": 1015,
      "alph": 1016,
      "uk": 1017,
      "▁policeman": 1018,
      "ror": 1019,
      "alo": 1020,
      "▁345-343": 1021,
      "issance": 1022,
      "▁greetings": 1023,
      "▁he": 1024,
      "▁substantial": 1025,
      "▁inc.": 1026,
      "...@": 1027,
      "▁gran": 1028,
      "▁boulev": 1029,
      "▁ware": 1030,
      "time": 1031,
      "▁presumably": 1032,
      "ullah": 1033,
      "▁governor": 1034,
      "▁maize": 1035,
      "▁nier": 1036,
      "unt": 1037,
      "▁speech": 1038,
      "▁covid": 1039,
      "email": 1040,
      "erce": 1041,
      "▁loss": 1042,
      "▁subsequently": 1043,
      "▁brid": 1044,
      "▁foreigners": 1045,
      "▁spaces": 1046,
      "▁iguazu": 1047,
      "▁01/19/2001": 1048,
      "▁condition": 1049,
      "▁policymakers": 1050,
      "▁candidates": 1051,
      "▁counted": 1052,
      "ience": 1053,
      "ences": 1054,
      "▁armenian": 1055,
      "▁goods": 1056,
      "▁affirm": 1057,
      "▁relevant": 1058,
      "▁kitchen": 1059,
      "▁captain": 1060,
      "▁ach": 1061,
      "▁pete": 1062,
      "▁bock": 1063,
      ".": 1064,
      "▁recruited": 1065,
      "▁os": 1066,
      "▁sentence": 1067,
      "▁descend": 1068,
      "▁political": 1069,
      "▁breaks": 1070,
      "leon": 1071,
      "▁satisf": 1072,
      "▁automatic": 1073,
      "▁flavors": 1074,
      "▁underwear": 1075,
      "oration": 1076,
      "▁borgin": 1077,
      "▁nazi": 1078,
      "▁leverage": 1079,
      "▁687": 1080,
      "▁18": 1081,
      "▁oneself": 1082,
      "z": 1083,
      "▁benefited": 1084,
      "▁superb": 1085,
      "▁1584": 1086,
      "▁amuse": 1087,
      "▁sush": 1088,
      "▁bu": 1089,
      "▁dest": 1090,
      "▁legs": 1091,
      "▁british": 1092,
      "▁sla": 1093,
      "▁single": 1094,
      "▁orange": 1095,
      "▁innov": 1096,
      "▁seen": 1097,
      "▁root": 1098,
      "▁concern": 1099,
      "▁6": 1100,
      "}": 1101,
      "▁perdu": 1102,
      "▁threatens": 1103,
      "▁baghdad": 1104,
      "iter": 1105,
      "▁vic": 1106,
      "▁20,000": 1107,
      "▁fisheries": 1108,
      "▁u.s": 1109,
      "▁mult": 1110,
      "▁encab": 1111,
      "▁kicking": 1112,
      "▁describes": 1113,
      "▁fifty": 1114,
      "▁interrupt": 1115,
      "/10": 1116,
      "▁giraffe": 1117,
      "▁numbers": 1118,
      "oring": 1119,
      "ips": 1120,
      "▁376": 1121,
      "▁chest": 1122,
      "▁unlikely": 1123,
      "ounds": 1124,
      "▁component": 1125,
      "it": 1126,
      "▁competitive": 1127,
      "▁consisted": 1128,
      "▁floor": 1129,
      "innati": 1130,
      "▁800.713.8600": 1131,
      "▁technologies": 1132,
      "▁indo": 1133,
      "▁mostly": 1134,
      "▁zoo": 1135,
      "▁steak": 1136,
      "ised": 1137,
      "zz": 1138,
      "空": 1139,
      "▁713-646-3393": 1140,
      "▁gosp": 1141,
      "▁shrew": 1142,
      "▁01/12/2001": 1143,
      "▁appropri": 1144,
      "iat": 1145,
      "▁aimed": 1146,
      "819602175": 1147,
      "▁needles": 1148,
      "▁greek": 1149,
      "▁sj": 1150,
      "▁instit": 1151,
      "izabeth": 1152,
      "text": 1153,
      "▁neil": 1154,
      "clusive": 1155,
      "▁dorm": 1156,
      "tto": 1157,
      "▁somehow": 1158,
      "▁genev": 1159,
      "▁h": 1160,
      "▁facing": 1161,
      "▁attentive": 1162,
      "▁wreck": 1163,
      "iers": 1164,
      "he": 1165,
      "▁505": 1166,
      "▁416-865-3": 1167,
      "▁losing": 1168,
      "icial": 1169,
      "▁hors": 1170,
      "enerate": 1171,
      "gence": 1172,
      "beth": 1173,
      "▁177": 1174,
      "▁accordance": 1175,
      "▁p.m": 1176,
      "▁slavery": 1177,
      "▁bud": 1178,
      "▁orient": 1179,
      "▁walker": 1180,
      "▁sophie": 1181,
      "▁popularity": 1182,
      "▁plot": 1183,
      "▁dey": 1184,
      "ington": 1185,
      "▁browser": 1186,
      "▁harmonised": 1187,
      "▁grain": 1188,
      "lo": 1189,
      "▁pip": 1190,
      "▁dilemm": 1191,
      "▁locking": 1192,
      "▁holes": 1193,
      "▁been": 1194,
      "▁gross": 1195,
      "▁ga": 1196,
      "▁danger": 1197,
      "▁edison": 1198,
      "▁cans": 1199,
      "tain": 1200,
      "▁firing": 1201,
      "▁wiggle": 1202,
      "▁269": 1203,
      "▁vacuum": 1204,
      "▁ther": 1205,
      "▁ahab": 1206,
      "ced": 1207,
      "▁injuries": 1208,
      "cement": 1209,
      "▁perling": 1210,
      "▁claw": 1211,
      "▁impossible": 1212,
      "▁nowhere": 1213,
      "▁tug": 1214,
      "▁secular": 1215,
      "grow": 1216,
      "▁confirming": 1217,
      "▁1871": 1218,
      "ids": 1219,
      "▁archive": 1220,
      "▁==============================================================================": 1221,
      "oint": 1222,
      "▁today": 1223,
      "▁lady": 1224,
      "avian": 1225,
      "▁subsequ": 1226,
      "▁entirely": 1227,
      "▁fuzzy": 1228,
      "▁innovation": 1229,
      "▁1835": 1230,
      "nuts": 1231,
      "hee": 1232,
      "▁barrett": 1233,
      "▁tra": 1234,
      "▁amazing": 1235,
      "▁dump": 1236,
      "urd": 1237,
      "▁vogelaviatiolap": 1238,
      "▁cloth": 1239,
      "▁furthermore": 1240,
      "▁sector": 1241,
      "ria": 1242,
      "▁107": 1243,
      ",": 1244,
      "▁amin": 1245,
      "▁shoo": 1246,
      "▁header": 1247,
      "▁municip": 1248,
      "▁course": 1249,
      "▁private": 1250,
      "▁scientist": 1251,
      "▁stuff": 1252,
      "▁watched": 1253,
      "▁redeem": 1254,
      "arias": 1255,
      "▁barger": 1256,
      "▁deal": 1257,
      "▁alread": 1258,
      "▁hundreds": 1259,
      "▁recording": 1260,
      "▁temperatures": 1261,
      "enna": 1262,
      "▁cruise": 1263,
      "▁explore": 1264,
      "ism": 1265,
      "▁print": 1266,
      "▁ens": 1267,
      "▁attorney": 1268,
      "ones": 1269,
      "uces": 1270,
      "▁picking": 1271,
      "▁giving": 1272,
      "▁11/7/08": 1273,
      "▁devised": 1274,
      "▁speaks": 1275,
      "dron": 1276,
      "▁often": 1277,
      "▁dominate": 1278,
      ":39": 1279,
      "▁09/15": 1280,
      "▁anger": 1281,
      "▁fears": 1282,
      "▁side": 1283,
      "▁band": 1284,
      "ically": 1285,
      "▁dwarf": 1286,
      "▁attracted": 1287,
      "▁defensive": 1288,
      "▁hiss": 1289,
      "▁health": 1290,
      "▁magic": 1291,
      "imm": 1292,
      "inent": 1293,
      "▁pill": 1294,
      "▁balloons": 1295,
      "▁privileged": 1296,
      "▁____________________________________________________________": 1297,
      "▁khins": 1298,
      "▁gang": 1299,
      "▁proc": 1300,
      "▁boring": 1301,
      "▁astronauts": 1302,
      "▁favorable": 1303,
      "▁subscrib": 1304,
      "łodz": 1305,
      "▁enemy": 1306,
      "▁squeak": 1307,
      "dle": 1308,
      "ahe": 1309,
      "▁la": 1310,
      "▁caul": 1311,
      "▁345": 1312,
      "▁breach": 1313,
      "▁aspir": 1314,
      "▁mushroom": 1315,
      "itual": 1316,
      "▁already": 1317,
      "▁creat": 1318,
      "▁engine": 1319,
      "9933": 1320,
      "▁damaged": 1321,
      "▁dangerous": 1322,
      "▁colour": 1323,
      "▁lwww": 1324,
      "▁shob": 1325,
      "▁consultation": 1326,
      "▁bour": 1327,
      "清": 1328,
      "▁spite": 1329,
      "▁fund": 1330,
      "▁coat": 1331,
      "▁15": 1332,
      "icemail": 1333,
      "▁mo": 1334,
      "▁trick": 1335,
      "▁hats": 1336,
      "bit": 1337,
      "▁haircut": 1338,
      "▁distributing": 1339,
      "▁assoc": 1340,
      "▁marine": 1341,
      "▁reflects": 1342,
      "▁”": 1343,
      "▁taxi": 1344,
      "▁1890": 1345,
      "▁spicy": 1346,
      "▁ranging": 1347,
      "▁stung": 1348,
      "▁requesting": 1349,
      "▁cross-section": 1350,
      "▁snake": 1351,
      "▁urged": 1352,
      "▁shrimp": 1353,
      "▁fre": 1354,
      "▁profile": 1355,
      "▁fold": 1356,
      "▁donate": 1357,
      "▁increase": 1358,
      "ily": 1359,
      "isible": 1360,
      "ames": 1361,
      "▁cro": 1362,
      "▁situations": 1363,
      "▁doll": 1364,
      "▁investig": 1365,
      "▁immed": 1366,
      "▁0000108806": 1367,
      "▁concent": 1368,
      "▁un": 1369,
      "▁numbered": 1370,
      "▁extinction": 1371,
      "▁buyer": 1372,
      "▁kelly": 1373,
      "index": 1374,
      "▁traveling": 1375,
      "▁posted": 1376,
      "▁jer": 1377,
      "alys": 1378,
      "▁dol": 1379,
      "▁d.c.": 1380,
      "φ": 1381,
      "▁tasks": 1382,
      "▁greasy": 1383,
      "▁submitted": 1384,
      "▁holiday": 1385,
      "un": 1386,
      "attan": 1387,
      "▁settlements": 1388,
      "▁ay": 1389,
      "▁uncomfortable": 1390,
      "▁sk": 1391,
      "▁monkeys": 1392,
      "▁norms": 1393,
      "▁dress": 1394,
      "▁shiites": 1395,
      "▁uses": 1396,
      "▁juice": 1397,
      "u": 1398,
      "▁7484": 1399,
      "▁termin": 1400,
      "hy": 1401,
      "▁attitudes": 1402,
      "▁aafia": 1403,
      "▁aggression": 1404,
      "▁headset": 1405,
      "▁henry": 1406,
      "▁econom": 1407,
      "▁indicated": 1408,
      "urtz": 1409,
      "▁rained": 1410,
      "▁twice": 1411,
      "▁agreeing": 1412,
      "▁jerusalem": 1413,
      "▁chathams": 1414,
      "▁disappoint": 1415,
      "anche": 1416,
      "▁clients": 1417,
      "▁gil": 1418,
      "▁blankets": 1419,
      "▁manners": 1420,
      "olf": 1421,
      "sty": 1422,
      "▁orig": 1423,
      "▁restaur": 1424,
      "oly": 1425,
      "▁professional": 1426,
      "▁centuries": 1427,
      "▁persp": 1428,
      "▁element": 1429,
      "▁comments": 1430,
      "pir": 1431,
      "▁2021": 1432,
      "▁.3": 1433,
      "▁425-415-": 1434,
      "▁discourse": 1435,
      "▁1830": 1436,
      "▁buggy": 1437,
      "▁ie": 1438,
      "▁odara": 1439,
      "▁marketing": 1440,
      "▁posts": 1441,
      "▁spacetime": 1442,
      "▁500": 1443,
      "ront": 1444,
      "▁temper": 1445,
      "▁mystery": 1446,
      "▁quad": 1447,
      "boats": 1448,
      "▁stap": 1449,
      "gie": 1450,
      "en.": 1451,
      "▁fridays": 1452,
      "▁beverage": 1453,
      "▁count": 1454,
      "▁muscles": 1455,
      "eman": 1456,
      "▁ships": 1457,
      "▁jurisd": 1458,
      "▁clearer": 1459,
      "▁832.676": 1460,
      "▁dep": 1461,
      "▁conv": 1462,
      "▁proprietary": 1463,
      "▁1610": 1464,
      "▁email": 1465,
      "▁chips": 1466,
      "▁bub": 1467,
      "▁constitutional": 1468,
      "▁albania": 1469,
      "▁potential": 1470,
      "▁prolong": 1471,
      "▁dine": 1472,
      "▁twenty-two": 1473,
      "▁pleas": 1474,
      "▁appeal": 1475,
      "▁seventy": 1476,
      "▁l'enf": 1477,
      "▁booked": 1478,
      "▁neither": 1479,
      "▁complaint": 1480,
      "▁boarding": 1481,
      "▁03/27/2001": 1482,
      "▁vod": 1483,
      "▁striking": 1484,
      "▁math": 1485,
      "▁track": 1486,
      "▁accuracy": 1487,
      "▁partnerships": 1488,
      "▁nursery": 1489,
      "▁epm": 1490,
      "▁real": 1491,
      "eech": 1492,
      "rey": 1493,
      "▁subway": 1494,
      "▁specim": 1495,
      "▁pattern": 1496,
      "▁blanket": 1497,
      "▁want": 1498,
      "▁scient": 1499,
      "▁command": 1500,
      "▁00": 1501,
      "▁02/13/2001": 1502,
      "▁war": 1503,
      "▁yidd": 1504,
      ".com/": 1505,
      "▁let": 1506,
      "▁rock": 1507,
      "▁ur": 1508,
      "▁4:50": 1509,
      "i.": 1510,
      "▁judgment": 1511,
      "▁silver": 1512,
      "&": 1513,
      "▁behav": 1514,
      "▁bust": 1515,
      "▁worship": 1516,
      "▁communicate": 1517,
      "▁honesty": 1518,
      "▁pel": 1519,
      "▁dying": 1520,
      "▁secur": 1521,
      "▁relating": 1522,
      "▁intermed": 1523,
      "no": 1524,
      "▁sub": 1525,
      "▁worked": 1526,
      "15": 1527,
      "▁conviction": 1528,
      "▁machine": 1529,
      "▁646": 1530,
      "▁detail": 1531,
      "▁logic": 1532,
      "▁dragged": 1533,
      "▁conformity": 1534,
      "▁129": 1535,
      "▁laden": 1536,
      "▁apolog": 1537,
      "station": 1538,
      "▁knowledgeable": 1539,
      "▁freezer": 1540,
      "▁dick": 1541,
      "sm": 1542,
      "▁emission": 1543,
      "▁plut": 1544,
      "▁sufficiently": 1545,
      "▁foo": 1546,
      "▁;)": 1547,
      "▁stim": 1548,
      "unic": 1549,
      "▁mainstream": 1550,
      "▁pedic": 1551,
      "▁bru": 1552,
      "▁you": 1553,
      "ois": 1554,
      "▁magazine": 1555,
      "▁faculty": 1556,
      "ernand": 1557,
      "▁invested": 1558,
      "▁corners": 1559,
      "▁resume": 1560,
      "▁activities": 1561,
      "▁mid-1": 1562,
      "▁hr": 1563,
      "▁differently": 1564,
      "▁massac": 1565,
      "▁priorities": 1566,
      "▁slave": 1567,
      "/26/2000": 1568,
      ":52": 1569,
      "▁=": 1570,
      "ru": 1571,
      "▁soviet": 1572,
      "rol": 1573,
      "▁illusions": 1574,
      "▁medal": 1575,
      "stand": 1576,
      "▁remains": 1577,
      "p": 1578,
      "▁dri": 1579,
      "▁lions": 1580,
      "▁after": 1581,
      "▁gots": 1582,
      "▁world": 1583,
      "▁....................": 1584,
      "▁217": 1585,
      "▁rule": 1586,
      "▁changed": 1587,
      "▁pajamas": 1588,
      "▁creates": 1589,
      "iance": 1590,
      ":20": 1591,
      "▁blinked": 1592,
      "▁star": 1593,
      "▁groan": 1594,
      "▁units": 1595,
      "▁pew": 1596,
      "▁indef": 1597,
      "▁hills": 1598,
      "▁product": 1599,
      "▁valid": 1600,
      "▁presence": 1601,
      "▁publications": 1602,
      "uring": 1603,
      "bs": 1604,
      "▁(a)": 1605,
      "▁instance": 1606,
      "▁eu": 1607,
      "ending": 1608,
      "▁edu": 1609,
      "atives": 1610,
      "▁thailand": 1611,
      "▁select": 1612,
      "ocratic": 1613,
      "▁inhabitants": 1614,
      "▁segment": 1615,
      "▁depths": 1616,
      "▁high": 1617,
      "▁guerr": 1618,
      "d2": 1619,
      "▁prop": 1620,
      "▁doc": 1621,
      "▁passing": 1622,
      "▁equals": 1623,
      "▁big": 1624,
      "min": 1625,
      "▁ribbon": 1626,
      "ian": 1627,
      "▁marry": 1628,
      "▁attempted": 1629,
      "▁awesome": 1630,
      "▁expect": 1631,
      "▁exciting": 1632,
      "▁advice": 1633,
      "hin": 1634,
      "▁approach": 1635,
      ".8": 1636,
      "▁found": 1637,
      "▁million": 1638,
      "▁themselves": 1639,
      "▁rates": 1640,
      "▁1989": 1641,
      "▁1975": 1642,
      "mir": 1643,
      "ths": 1644,
      "▁hated": 1645,
      "▁sharks": 1646,
      "▁islands": 1647,
      "▁|": 1648,
      "▁rom": 1649,
      "▁cauc": 1650,
      "▁ago": 1651,
      "▁produc": 1652,
      "▁enfor": 1653,
      "▁obsc": 1654,
      "▁flap": 1655,
      "worth": 1656,
      "▁sufficient": 1657,
      "▁involving": 1658,
      "▁cuc": 1659,
      "▁clean": 1660,
      "▁accord": 1661,
      "▁click": 1662,
      "▁ninety-n": 1663,
      "▁----------------------------------------------------------------------": 1664,
      "▁passionate": 1665,
      "ondon": 1666,
      "▁gorbach": 1667,
      "▁chall": 1668,
      "ł": 1669,
      "▁desperate": 1670,
      "▁scrape": 1671,
      "▁water": 1672,
      "▁bachel": 1673,
      "▁advise": 1674,
      "pes": 1675,
      "▁screen": 1676,
      "▁shame": 1677,
      "▁jaw": 1678,
      "berry": 1679,
      "▁vide": 1680,
      "▁discount": 1681,
      "▁accounts": 1682,
      "▁treating": 1683,
      "▁lifet": 1684,
      "etti": 1685,
      "▁scary": 1686,
      "▁ja": 1687,
      "▁playstation": 1688,
      "▁within": 1689,
      "sey": 1690,
      "rete": 1691,
      "▁fi": 1692,
      "▁overlook": 1693,
      "▁zip": 1694,
      "inny": 1695,
      "uate": 1696,
      "▁distribution": 1697,
      "▁artist": 1698,
      "▁craft": 1699,
      "3098": 1700,
      "▁delivery": 1701,
      "ians": 1702,
      "very": 1703,
      "▁supermark": 1704,
      "▁201": 1705,
      "▁cla": 1706,
      "▁thumb": 1707,
      "▁denied": 1708,
      "▁163": 1709,
      "▁economists": 1710,
      "▁package": 1711,
      "▁poo": 1712,
      "▁imbal": 1713,
      "▁spring": 1714,
      "igan": 1715,
      "rd": 1716,
      "▁km": 1717,
      "▁accommodation": 1718,
      "▁jeffs": 1719,
      "▁painewebber": 1720,
      "▁sain": 1721,
      "▁auck": 1722,
      "▁466": 1723,
      "▁martyrs": 1724,
      "▁09/15/99": 1725,
      "h-r": 1726,
      "▁praise": 1727,
      "▁hee": 1728,
      "▁spin": 1729,
      "▁dose": 1730,
      "▁sushi": 1731,
      "▁index": 1732,
      "▁mer": 1733,
      "▁blank": 1734,
      "▁squared": 1735,
      "▁constantly": 1736,
      "▁makeup": 1737,
      "owned": 1738,
      "▁nineteenth": 1739,
      "▁calculate": 1740,
      "▁aa": 1741,
      "▁laughter": 1742,
      "ay": 1743,
      "▁journ": 1744,
      "theless": 1745,
      "eld": 1746,
      "▁loc": 1747,
      "--------------------------------------------": 1748,
      "▁ripe": 1749,
      "▁monopoly": 1750,
      "▁toile": 1751,
      "▁assassination": 1752,
      "ο": 1753,
      "▁congest": 1754,
      "ripts": 1755,
      "ici": 1756,
      "▁com": 1757,
      "viat": 1758,
      "▁tippy": 1759,
      "fox": 1760,
      "▁components": 1761,
      "▁textile": 1762,
      "eda": 1763,
      "▁beds": 1764,
      "▁judy": 1765,
      "under": 1766,
      "▁glacier": 1767,
      "▁phon": 1768,
      "▁south": 1769,
      "▁rapidly": 1770,
      "▁overnight": 1771,
      "▁caution": 1772,
      "oma": 1773,
      "▁brows": 1774,
      "▁endang": 1775,
      "▁headband": 1776,
      "▁pas": 1777,
      "▁worsh": 1778,
      "▁identification": 1779,
      "ym": 1780,
      "▁prest": 1781,
      "▁til": 1782,
      "▁chan": 1783,
      "▁gone": 1784,
      "▁countries": 1785,
      "▁sty": 1786,
      "▁judgments": 1787,
      "▁purple": 1788,
      "▁stadium": 1789,
      "▁continental": 1790,
      "▁adm": 1791,
      "obia": 1792,
      "chief": 1793,
      "▁whose": 1794,
      "eler": 1795,
      "engers": 1796,
      "▁89": 1797,
      "▁lib": 1798,
      "--": 1799,
      "▁preferred": 1800,
      "2-0": 1801,
      "▁acceler": 1802,
      "▁lind": 1803,
      "▁gym": 1804,
      "▁=---": 1805,
      "▁childcare": 1806,
      "▁receiving": 1807,
      "ε": 1808,
      "▁rinny": 1809,
      "▁gri": 1810,
      "▁claus": 1811,
      "▁tiger": 1812,
      "▁swiss": 1813,
      "ern": 1814,
      "▁glass": 1815,
      "ters": 1816,
      "▁97": 1817,
      ".ur": 1818,
      "oupe": 1819,
      "▁artworks": 1820,
      "▁annoyed": 1821,
      "▁eyebrow": 1822,
      "▁studies": 1823,
      "rell": 1824,
      "▁minimum": 1825,
      "por": 1826,
      "▁literature": 1827,
      "▁dance": 1828,
      "▁protocol": 1829,
      "▁legisl": 1830,
      "▁hardest": 1831,
      "▁planning": 1832,
      "zen": 1833,
      "▁houses": 1834,
      "▁neighbors": 1835,
      "▁197": 1836,
      "▁useless": 1837,
      "▁mute": 1838,
      "urse": 1839,
      "▁interstellar": 1840,
      "▁ready": 1841,
      "▁vol": 1842,
      "▁coh": 1843,
      "▁got": 1844,
      "▁saucepan": 1845,
      "▁nearly": 1846,
      "▁08/0": 1847,
      "ev": 1848,
      "oulder": 1849,
      "▁cheney": 1850,
      "▁who's": 1851,
      "▁registered": 1852,
      "▁civilization": 1853,
      "▁uniquely": 1854,
      "▁deficit": 1855,
      "▁ev": 1856,
      "▁waited": 1857,
      "▁saddam": 1858,
      "▁eng": 1859,
      "▁encouraging": 1860,
      "▁capacities": 1861,
      "▁weak": 1862,
      "os": 1863,
      "07": 1864,
      "arts": 1865,
      "▁finest": 1866,
      "cel": 1867,
      "iod": 1868,
      "▁noteboo": 1869,
      "▁pivotchart": 1870,
      "▁chief": 1871,
      "▁mish": 1872,
      "ate": 1873,
      "▁pro": 1874,
      "▁ink": 1875,
      "▁encourage": 1876,
      "▁medieval": 1877,
      "/1": 1878,
      "▁request": 1879,
      "▁lawn": 1880,
      "▁quino": 1881,
      "ne": 1882,
      "▁rocky": 1883,
      "ros": 1884,
      "▁fa": 1885,
      "▁weasley": 1886,
      ".61": 1887,
      "▁enrononline": 1888,
      "▁unable": 1889,
      "▁valent": 1890,
      "▁woman": 1891,
      "sc": 1892,
      "▁achie": 1893,
      "icop": 1894,
      "▁tem": 1895,
      "▁unf": 1896,
      "claim": 1897,
      "▁mature": 1898,
      "▁completed": 1899,
      "ek": 1900,
      "▁1910": 1901,
      "iders": 1902,
      "▁281-518": 1903,
      "▁medic": 1904,
      "▁wondering": 1905,
      "▁killed": 1906,
      "8196021": 1907,
      "▁blame": 1908,
      "▁bleeding": 1909,
      "▁argent": 1910,
      "▁mini": 1911,
      "▁wines": 1912,
      "▁ruf": 1913,
      "▁guantanamo": 1914,
      "▁beneficial": 1915,
      "▁darin": 1916,
      "▁failure": 1917,
      "▁presidents": 1918,
      "▁hoped": 1919,
      "▁relaxing": 1920,
      "▁beauty": 1921,
      "▁hang": 1922,
      "▁co-f": 1923,
      "ples": 1924,
      "▁`": 1925,
      "▁susanna": 1926,
      "5": 1927,
      "▁dancing": 1928,
      "▁past": 1929,
      "▁shar": 1930,
      "▁corporation": 1931,
      "▁rhinoceros": 1932,
      "▁perman": 1933,
      "tern": 1934,
      "▁lick": 1935,
      "▁disney": 1936,
      "▁becoming": 1937,
      "ring": 1938,
      "▁35": 1939,
      "▁1145": 1940,
      "▁amster": 1941,
      "▁tile": 1942,
      "▁judging": 1943,
      "▁flo": 1944,
      "▁buses": 1945,
      "▁phones": 1946,
      "▁argues": 1947,
      "▁important": 1948,
      "▁ambit": 1949,
      "doc": 1950,
      "▁mold": 1951,
      "▁ang": 1952,
      "▁convergence": 1953,
      "▁symbol": 1954,
      "▁ancient": 1955,
      "▁wake": 1956,
      "▁nat": 1957,
      "▁13011": 1958,
      "▁greenhouse": 1959,
      "▁electron": 1960,
      "▁spec": 1961,
      "▁intensity": 1962,
      "▁staff": 1963,
      "ors": 1964,
      "▁generally": 1965,
      "▁mississipp": 1966,
      "▁bulb": 1967,
      "▁invent": 1968,
      "▁ferc": 1969,
      "▁highlights": 1970,
      "▁preventing": 1971,
      "uter": 1972,
      "▁01:09": 1973,
      "▁prominent": 1974,
      "▁refer": 1975,
      "▁atmos": 1976,
      "▁whatever": 1977,
      ":21": 1978,
      "▁warrant": 1979,
      "▁ceo": 1980,
      "umble": 1981,
      "▁oatmeal": 1982,
      "encer": 1983,
      "▁faced": 1984,
      "sheet": 1985,
      "▁swed": 1986,
      "▁reserved": 1987,
      "ocation": 1988,
      "▁eve": 1989,
      "▁meiring": 1990,
      "▁transc": 1991,
      "▁_________________________________": 1992,
      "▁feeding": 1993,
      "46": 1994,
      "▁doing": 1995,
      "▁arms": 1996,
      "▁lip": 1997,
      "▁drawn": 1998,
      "66": 1999,
      "▁alive": 2000,
      "▁takes": 2001,
      "re": 2002,
      "ash": 2003,
      "▁treatise": 2004,
      "▁leahy": 2005,
      "▁hearings": 2006,
      "ropri": 2007,
      "▁oct": 2008,
      "arency": 2009,
      "▁scoring": 2010,
      "cceed": 2011,
      "▁rid": 2012,
      "▁seed": 2013,
      "▁impul": 2014,
      "▁mental": 2015,
      "▁place": 2016,
      "▁violation": 2017,
      "▁sept.": 2018,
      "rovers": 2019,
      "▁cathol": 2020,
      "▁upper": 2021,
      "▁07": 2022,
      "▁spiritual": 2023,
      "▁phase": 2024,
      "pike": 2025,
      "▁hamper": 2026,
      "▁4.9": 2027,
      "▁keral": 2028,
      "▁billion": 2029,
      "inator": 2030,
      "page": 2031,
      ":32": 2032,
      "-in": 2033,
      "▁arrange": 2034,
      "▁rein": 2035,
      "/2005": 2036,
      "ody": 2037,
      "▁scientific": 2038,
      "▁04:28": 2039,
      "▁television": 2040,
      "ton": 2041,
      "ene": 2042,
      "▁firm": 2043,
      "▁specified": 2044,
      "▁dum": 2045,
      "▁harvest": 2046,
      "art": 2047,
      "▁papa": 2048,
      "aces": 2049,
      ".edu/": 2050,
      "▁gigantic": 2051,
      "reen": 2052,
      "▁nicholas": 2053,
      "▁teeth": 2054,
      "▁wh": 2055,
      "▁afric": 2056,
      "▁08/16": 2057,
      "▁johnson": 2058,
      "▁spiders": 2059,
      "▁murph": 2060,
      "▁holds": 2061,
      "▁telephone": 2062,
      "den": 2063,
      "shire": 2064,
      "▁strat": 2065,
      "▁jur": 2066,
      "▁conversational": 2067,
      "▁welfare": 2068,
      "lin": 2069,
      "lics": 2070,
      "▁assemb": 2071,
      "▁cats": 2072,
      "▁sydney": 2073,
      "▁microscope": 2074,
      "isandy": 2075,
      "▁poured": 2076,
      "/200": 2077,
      "▁lam": 2078,
      "▁shut": 2079,
      "▁hyd": 2080,
      "▁discussion": 2081,
      "▁pockets": 2082,
      "ages": 2083,
      "▁coin": 2084,
      "▁models": 2085,
      "▁asking": 2086,
      "-27": 2087,
      "▁hem": 2088,
      "ura": 2089,
      "▁containing": 2090,
      "ogel": 2091,
      "▁cookies": 2092,
      "▁ca": 2093,
      "▁regular": 2094,
      "▁hide": 2095,
      "▁seeds": 2096,
      "▁debated": 2097,
      "▁households": 2098,
      "▁nelson": 2099,
      "▁spirit": 2100,
      "▁grandpa": 2101,
      "apor": 2102,
      "▁pron": 2103,
      "▁nether": 2104,
      "▁computing": 2105,
      "▁som": 2106,
      "▁fract": 2107,
      "izes": 2108,
      "estone": 2109,
      "▁vegetables": 2110,
      "anmar": 2111,
      "▁agencies": 2112,
      "▁345-9945": 2113,
      "山": 2114,
      "▁bib": 2115,
      "▁solution": 2116,
      "▁gates": 2117,
      "eplace": 2118,
      "▁duration": 2119,
      "▁waiver": 2120,
      "▁mexic": 2121,
      "ari": 2122,
      "ibilities": 2123,
      "▁sta": 2124,
      "▁0.00": 2125,
      "chernobyl": 2126,
      "▁test": 2127,
      "++": 2128,
      "▁ruler": 2129,
      "▁under": 2130,
      "▁workforce": 2131,
      "▁dram": 2132,
      "▁federation": 2133,
      "▁theat": 2134,
      "▁implementing": 2135,
      "▁prohib": 2136,
      "▁rob": 2137,
      "▁quant": 2138,
      "▁dinosaurs": 2139,
      "▁nmemdrft8-7": 2140,
      "-faced": 2141,
      "▁rental": 2142,
      "▁plate": 2143,
      "▁linda": 2144,
      ":15": 2145,
      "▁increasingly": 2146,
      "▁traders": 2147,
      "▁deeper": 2148,
      "▁influenced": 2149,
      "▁windows": 2150,
      "▁clothing": 2151,
      "▁holt": 2152,
      "▁blew": 2153,
      "town": 2154,
      "anga": 2155,
      "▁files": 2156,
      "▁tips": 2157,
      "▁costly": 2158,
      "▁281-435-0295": 2159,
      "%": 2160,
      "▁deposit": 2161,
      "ver": 2162,
      "vation": 2163,
      "▁biew": 2164,
      "ye": 2165,
      "▁maximum": 2166,
      "▁01": 2167,
      "▁muggles": 2168,
      "▁recognized": 2169,
      "▁female": 2170,
      "fer": 2171,
      "ender": 2172,
      "▁archit": 2173,
      "ription": 2174,
      "▁n'": 2175,
      "▁comparable": 2176,
      "▁defin": 2177,
      "▁me": 2178,
      "▁id": 2179,
      "▁alloc": 2180,
      "▁scene": 2181,
      "ifications": 2182,
      "▁org": 2183,
      "▁olive": 2184,
      "▁rejection": 2185,
      "▁ding": 2186,
      "▁waters": 2187,
      "aid": 2188,
      "▁meetings": 2189,
      "▁twent": 2190,
      "▁leon": 2191,
      "ted": 2192,
      "▁russ": 2193,
      "▁detroit": 2194,
      "▁relatively": 2195,
      "two": 2196,
      "▁roberts": 2197,
      "▁bathtub": 2198,
      "▁programme": 2199,
      "▁hirosh": 2200,
      "▁wound": 2201,
      "▁indianapolis": 2202,
      "▁cost-e": 2203,
      "▁ny": 2204,
      "93": 2205,
      "▁particular": 2206,
      "▁dh": 2207,
      "85": 2208,
      "▁contex": 2209,
      "▁wide": 2210,
      "▁reported": 2211,
      "comp": 2212,
      "▁stop": 2213,
      "▁missed": 2214,
      "▁supposedly": 2215,
      "ulous": 2216,
      "▁extra": 2217,
      "▁association": 2218,
      "▁shortest": 2219,
      "▁profit": 2220,
      "▁suggest": 2221,
      "▁uhhuh": 2222,
      "xon": 2223,
      "▁southern": 2224,
      "▁expression": 2225,
      "▁8:15": 2226,
      "fight": 2227,
      "▁such": 2228,
      "attered": 2229,
      "▁sweater": 2230,
      "▁dynam": 2231,
      "▁lives": 2232,
      "▁animation": 2233,
      "▁behavi": 2234,
      "alid": 2235,
      "▁mother": 2236,
      "▁pretending": 2237,
      "▁itself": 2238,
      "▁still": 2239,
      "▁bear": 2240,
      "▁var": 2241,
      "▁intervention": 2242,
      "▁concepts": 2243,
      "▁alt": 2244,
      "▁yourself": 2245,
      "▁104": 2246,
      "atures": 2247,
      "▁alternatives": 2248,
      "▁parliament": 2249,
      "ield": 2250,
      "▁supplement": 2251,
      "enda": 2252,
      "▁compete": 2253,
      "▁bubbles": 2254,
      "▁fount": 2255,
      "▁islamabad": 2256,
      "▁tx": 2257,
      "▁ballerina": 2258,
      "▁pennsylvania": 2259,
      "▁besides": 2260,
      "▁scenes": 2261,
      "ka": 2262,
      "▁vote": 2263,
      "▁carne": 2264,
      "▁shopping": 2265,
      "▁meeting": 2266,
      "▁suicide": 2267,
      "ucks": 2268,
      "▁unh": 2269,
      "-------": 2270,
      "▁charl": 2271,
      "▁youtube": 2272,
      "▁eval": 2273,
      "▁coordination": 2274,
      "9/2001": 2275,
      "▁retain": 2276,
      "▁robots": 2277,
      "▁lots": 2278,
      "▁from": 2279,
      "-r": 2280,
      "▁bankrupt": 2281,
      "▁satisfactory": 2282,
      "▁jews": 2283,
      "▁words": 2284,
      "▁marshmallow": 2285,
      "▁seat": 2286,
      "▁remembered": 2287,
      "▁gorio": 2288,
      "▁lengthy": 2289,
      "▁frera": 2290,
      "▁bill": 2291,
      "▁pixies": 2292,
      "▁fir": 2293,
      "▁nguyen": 2294,
      "▁bernard": 2295,
      "▁drum": 2296,
      "▁eleven": 2297,
      "▁stall": 2298,
      "▁highlighted": 2299,
      "▁sfo": 2300,
      "▁thanks": 2301,
      "roy": 2302,
      "gate": 2303,
      "▁1967": 2304,
      "▁montalvo": 2305,
      "▁hussein": 2306,
      "ck": 2307,
      "▁bits": 2308,
      "▁rigid": 2309,
      "▁ekr": 2310,
      "ach": 2311,
      "▁enact": 2312,
      "ust": 2313,
      "▁coup": 2314,
      "▁assessing": 2315,
      "▁aber": 2316,
      "▁taxes": 2317,
      "▁hoof": 2318,
      "▁minim": 2319,
      "▁charitable": 2320,
      "▁400": 2321,
      "▁bean": 2322,
      "▁leash": 2323,
      "▁diag": 2324,
      "isal": 2325,
      "▁photograph": 2326,
      "▁succeeded": 2327,
      "▁municipalities": 2328,
      "▁othello": 2329,
      "▁shackleton": 2330,
      "▁provide": 2331,
      "▁tame": 2332,
      "▁celebrity": 2333,
      "▁burn": 2334,
      "▁cinc": 2335,
      "▁1205": 2336,
      "pton": 2337,
      "▁democracy": 2338,
      "▁superseding": 2339,
      "▁sperm": 2340,
      "-down": 2341,
      "▁funct": 2342,
      "▁votes": 2343,
      "flies": 2344,
      "ected": 2345,
      "▁lent": 2346,
      "▁10:34": 2347,
      "ibald": 2348,
      "▁burden": 2349,
      "▁charco": 2350,
      "▁okinawa": 2351,
      "▁pa": 2352,
      "▁160": 2353,
      "▁flexibility": 2354,
      "▁contained": 2355,
      "▁feel": 2356,
      "▁feet": 2357,
      "▁generation": 2358,
      "▁sy": 2359,
      "▁husse": 2360,
      "ervation": 2361,
      "elled": 2362,
      "▁1614": 2363,
      "▁noir": 2364,
      "▁barrel": 2365,
      "▁utah": 2366,
      "▁assault": 2367,
      "ct": 2368,
      "▁alcal": 2369,
      "▁bil": 2370,
      "▁grapes": 2371,
      "▁jay": 2372,
      "▁cooking": 2373,
      "▁location": 2374,
      "▁privet": 2375,
      "▁junk": 2376,
      "▁trunk": 2377,
      "▁petsmart": 2378,
      "0010": 2379,
      "au": 2380,
      "innis": 2381,
      "bl": 2382,
      "▁fur": 2383,
      "▁sore": 2384,
      "▁dism": 2385,
      "▁advent": 2386,
      "▁nab": 2387,
      "ese": 2388,
      "uced": 2389,
      "▁enthusi": 2390,
      "▁moore": 2391,
      "▁shuffling": 2392,
      "▁therefore": 2393,
      "ron": 2394,
      "▁mod": 2395,
      "▁aggregate": 2396,
      "▁pittsburgh": 2397,
      "▁hans": 2398,
      "▁governmental": 2399,
      "▁angel": 2400,
      "ahoo": 2401,
      "✉": 2402,
      "▁relying": 2403,
      "▁mujah": 2404,
      "▁smells": 2405,
      "▁gig": 2406,
      "-46": 2407,
      "▁get": 2408,
      "ʒ": 2409,
      "oll": 2410,
      "▁hole": 2411,
      "▁‘": 2412,
      "▁pocketbook": 2413,
      "▁store": 2414,
      "0s": 2415,
      "▁anywhere": 2416,
      "▁fung": 2417,
      "▁_________________________________________________": 2418,
      "▁shade": 2419,
      "▁neoclass": 2420,
      "▁classic": 2421,
      "▁flavor": 2422,
      "▁yer": 2423,
      "▁incorpor": 2424,
      "▁23rd": 2425,
      "imir": 2426,
      "usted": 2427,
      "▁bunk": 2428,
      "▁castle": 2429,
      "▁virginia": 2430,
      "▁method": 2431,
      "▁warhol": 2432,
      "▁magazines": 2433,
      "▁realistic": 2434,
      "ival": 2435,
      "▁incompet": 2436,
      "▁dogs": 2437,
      "▁toget": 2438,
      "▁93": 2439,
      "▁cease": 2440,
      "▁seller": 2441,
      "▁impressive": 2442,
      "▁categories": 2443,
      "▁wrapped": 2444,
      "▁circ": 2445,
      "▁cream": 2446,
      "▁teaspoon": 2447,
      "enc": 2448,
      "▁pir": 2449,
      "ira": 2450,
      "▁s": 2451,
      "▁pay": 2452,
      "▁necktie": 2453,
      "▁domestic": 2454,
      "und": 2455,
      "▁dry": 2456,
      "▁explaining": 2457,
      "▁flew": 2458,
      "▁commander": 2459,
      "▁search": 2460,
      "▁sake": 2461,
      "▁arabic": 2462,
      "▁renee": 2463,
      "ardy": 2464,
      "▁frontier": 2465,
      "▁washing": 2466,
      "acter": 2467,
      "==": 2468,
      "▁prospect": 2469,
      "ch": 2470,
      "ression": 2471,
      "▁tradem": 2472,
      "▁rese": 2473,
      "▁720": 2474,
      "ω": 2475,
      "▁lower": 2476,
      "▁assass": 2477,
      "▁released": 2478,
      "osing": 2479,
      "▁assumptions": 2480,
      "▁fries": 2481,
      "▁braver": 2482,
      "▁connected": 2483,
      "▁1822": 2484,
      "▁harmonisation": 2485,
      "▁weapon": 2486,
      "▁2.2": 2487,
      "▁habit": 2488,
      "▁shone": 2489,
      "▁phill": 2490,
      "▁nation": 2491,
      "奈": 2492,
      "▁jul": 2493,
      "▁partner": 2494,
      "ulation": 2495,
      "▁cabinet": 2496,
      "▁orchest": 2497,
      "▁geographic": 2498,
      "▁conditioning": 2499,
      "▁impeachment": 2500,
      "▁dung": 2501,
      "▁dem": 2502,
      "iction": 2503,
      "▁5/1": 2504,
      "▁sufa": 2505,
      "▁tiny": 2506,
      "▁motorcy": 2507,
      "stances": 2508,
      "▁jud": 2509,
      "▁20": 2510,
      "▁1.6": 2511,
      "▁persu": 2512,
      "▁mol": 2513,
      "▁generations": 2514,
      "▁newly": 2515,
      "▁card": 2516,
      "ounts": 2517,
      "▁10:25": 2518,
      "▁donald": 2519,
      "▁misunder": 2520,
      "▁contributed": 2521,
      "gets": 2522,
      "▁iqr": 2523,
      "▁patt": 2524,
      "igger": 2525,
      "▁explan": 2526,
      "actory": 2527,
      "wich": 2528,
      "▁ro": 2529,
      "▁familiar": 2530,
      "▁1754": 2531,
      "▁relation": 2532,
      "▁websites": 2533,
      "▁tech": 2534,
      "▁null": 2535,
      "▁minus": 2536,
      "▁emerging": 2537,
      "▁narr": 2538,
      "1/2001": 2539,
      "▁understood": 2540,
      "▁xv": 2541,
      "▁ladies": 2542,
      "▁venice": 2543,
      "-79": 2544,
      "▁asymmet": 2545,
      "▁duke": 2546,
      "▁bearing": 2547,
      "▁paths": 2548,
      "▁sheep": 2549,
      "▁glorious": 2550,
      "▁wel": 2551,
      "▁pros": 2552,
      "▁talking": 2553,
      "▁controvers": 2554,
      "▁575": 2555,
      "usetts": 2556,
      "ato": 2557,
      "▁remain": 2558,
      "▁makes": 2559,
      "▁sole": 2560,
      ".p": 2561,
      "▁declined": 2562,
      "▁multip": 2563,
      "▁1832": 2564,
      "▁inspector": 2565,
      "▁declared": 2566,
      "▁laboratory": 2567,
      "▁mathem": 2568,
      "qu": 2569,
      "gled": 2570,
      "▁nutrition": 2571,
      "1": 2572,
      "▁isl": 2573,
      "▁walls": 2574,
      "semin": 2575,
      "▁trading": 2576,
      "ext": 2577,
      "itarian": 2578,
      "eling": 2579,
      ".ca/": 2580,
      "▁statute": 2581,
      "▁motives": 2582,
      "icate": 2583,
      "ilyn": 2584,
      "ock": 2585,
      "4th": 2586,
      "▁launch": 2587,
      "ki": 2588,
      "▁wiped": 2589,
      "!!!": 2590,
      "▁nerve": 2591,
      "▁appearance": 2592,
      "oir": 2593,
      "gle": 2594,
      "big": 2595,
      "▁hav": 2596,
      "▁atlantic": 2597,
      "▁cakes": 2598,
      "▁chann": 2599,
      "ortium": 2600,
      "▁inapp": 2601,
      "▁forth": 2602,
      "▁calculations": 2603,
      "ords": 2604,
      "▁accommodate": 2605,
      "▁ability": 2606,
      "▁uncle": 2607,
      "▁collected": 2608,
      "uously": 2609,
      "eurial": 2610,
      "fu": 2611,
      "▁difficulty": 2612,
      "og": 2613,
      "▁nail": 2614,
      "po": 2615,
      "▁speaking": 2616,
      "▁summer": 2617,
      "▁apartment": 2618,
      "▁socotra": 2619,
      "▁desc": 2620,
      "▁exact": 2621,
      "▁beaches": 2622,
      "▁carried": 2623,
      "▁sprouts": 2624,
      "▁johann": 2625,
      "af": 2626,
      "▁allerg": 2627,
      "▁grew": 2628,
      "▁instructor": 2629,
      "▁healthy": 2630,
      "▁commercial": 2631,
      "antic": 2632,
      "▁brightly": 2633,
      "▁74419": 2634,
      "dham": 2635,
      "▁ten": 2636,
      "▁periods": 2637,
      "▁sue": 2638,
      "▁elimin": 2639,
      "▁capt": 2640,
      "ulatory": 2641,
      "eller": 2642,
      "▁prud": 2643,
      "▁mysteries": 2644,
      "▁helmet": 2645,
      "▁chem": 2646,
      "▁nida": 2647,
      "▁heavier": 2648,
      "▁reflecting": 2649,
      "▁clark": 2650,
      "▁03/08/2000": 2651,
      "▁frust": 2652,
      "▁confid": 2653,
      "ger": 2654,
      "▁sensing": 2655,
      "▁propos": 2656,
      "▁swe": 2657,
      "era": 2658,
      "▁uma": 2659,
      "▁preferably": 2660,
      "▁administrator": 2661,
      "▁ugly": 2662,
      "▁disease": 2663,
      "▁6/1": 2664,
      "▁checked": 2665,
      "▁ants": 2666,
      "▁bedroom": 2667,
      "▁formica": 2668,
      "▁functions": 2669,
      "algamiento": 2670,
      "▁nmemdrft8-7-01": 2671,
      "▁hos": 2672,
      "▁suitable": 2673,
      "▁cor": 2674,
      "▁see": 2675,
      "▁neighborhood": 2676,
      "roph": 2677,
      "▁foul": 2678,
      "▁civic": 2679,
      "@enron.com": 2680,
      "▁ben": 2681,
      "▁chi": 2682,
      "▁overall": 2683,
      "ransredes": 2684,
      "dred": 2685,
      "▁bleachers": 2686,
      "▁awoh": 2687,
      "▁joh": 2688,
      "▁visa": 2689,
      "/0": 2690,
      "74": 2691,
      "west": 2692,
      "▁luther": 2693,
      "▁outbreak": 2694,
      "▁emailed": 2695,
      "▁10/26/2000": 2696,
      "▁zurbaran": 2697,
      "▁.2": 2698,
      "▁dil": 2699,
      "▁prosec": 2700,
      "▁ai": 2701,
      "▁container": 2702,
      "▁ahmed": 2703,
      "hast": 2704,
      "lec": 2705,
      "▁lands": 2706,
      "▁array": 2707,
      "▁tearing": 2708,
      "▁bumped": 2709,
      "▁pri": 2710,
      "iley": 2711,
      "}*{": 2712,
      "son": 2713,
      "42": 2714,
      "▁trends": 2715,
      "▁option": 2716,
      "ones@": 2717,
      "▁industrial": 2718,
      "▁response": 2719,
      "-01": 2720,
      ":03": 2721,
      "aza": 2722,
      "▁located": 2723,
      "iev": 2724,
      "▁publication": 2725,
      "ration": 2726,
      "dam": 2727,
      "▁pumpkin": 2728,
      "▁bom": 2729,
      "▁congratulations": 2730,
      "▁innovations": 2731,
      "▁minority": 2732,
      "▁arrows": 2733,
      "▁congratulate": 2734,
      "▁compreh": 2735,
      "▁loves": 2736,
      "▁2.6": 2737,
      "rees": 2738,
      "▁immigration": 2739,
      "▁6400": 2740,
      "pre": 2741,
      "▁teaching": 2742,
      "▁pins": 2743,
      "▁hopeless": 2744,
      "▁spilled": 2745,
      "▁dad": 2746,
      "▁ide": 2747,
      "▁spent": 2748,
      "▁public": 2749,
      "ills": 2750,
      "▁possibilities": 2751,
      "▁shy": 2752,
      "▁hubbard": 2753,
      "▁focus": 2754,
      "▁mice": 2755,
      "▁underneath": 2756,
      "▁associate": 2757,
      "▁lux": 2758,
      ".123": 2759,
      "▁eff": 2760,
      "▁opera": 2761,
      "▁mare": 2762,
      "▁639": 2763,
      "▁hesitate": 2764,
      "▁damned": 2765,
      "▁oreg": 2766,
      "▁reasons": 2767,
      "▁prince": 2768,
      "▁seek": 2769,
      "e": 2770,
      "▁63": 2771,
      "▁hed": 2772,
      "ud": 2773,
      "▁towns": 2774,
      "▁190": 2775,
      "▁nons": 2776,
      "manship": 2777,
      "▁curator": 2778,
      "-ked": 2779,
      "▁clause": 2780,
      "▁luck": 2781,
      "▁subd": 2782,
      "▁comic": 2783,
      "▁tact": 2784,
      "▁1875": 2785,
      "▁minds": 2786,
      "▁typical": 2787,
      "ila": 2788,
      "▁whol": 2789,
      "▁homeopathy": 2790,
      "ark": 2791,
      "▁manufacturing": 2792,
      "▁campus": 2793,
      "▁dining": 2794,
      "▁trouble": 2795,
      "▁section": 2796,
      "▁jordan": 2797,
      "▁exce": 2798,
      "▁934": 2799,
      "uff": 2800,
      "ili": 2801,
      "▁pouring": 2802,
      "▁secretary": 2803,
      "▁---->===": 2804,
      "▁510-642": 2805,
      "▁operate": 2806,
      "▁correl": 2807,
      "-f": 2808,
      "antanamo": 2809,
      "fare": 2810,
      "▁^_^": 2811,
      "▁frag": 2812,
      "▁lur": 2813,
      "▁temperature": 2814,
      "-780": 2815,
      "▁atl": 2816,
      "▁shipped": 2817,
      "▁sequence": 2818,
      "▁spore": 2819,
      "▁trucks": 2820,
      "▁revised": 2821,
      ".consum": 2822,
      "▁alcalde": 2823,
      "ahu": 2824,
      "▁collabor": 2825,
      "▁properties": 2826,
      "▁threatening": 2827,
      "▁government": 2828,
      "▁343": 2829,
      "▁military": 2830,
      "▁adv": 2831,
      "ano": 2832,
      "▁corp": 2833,
      "▁while": 2834,
      "▁505-625": 2835,
      "/4": 2836,
      "▁her": 2837,
      "6/": 2838,
      "isure": 2839,
      "▁citizen": 2840,
      "▁temple": 2841,
      "▁dries": 2842,
      "­": 2843,
      "▁syrup": 2844,
      "▁ones": 2845,
      "▁nationality": 2846,
      "▁warmer": 2847,
      "▁whee": 2848,
      "bank": 2849,
      "▁failures": 2850,
      "▁enhance": 2851,
      "▁approximation": 2852,
      "/26": 2853,
      "acht": 2854,
      "▁ship": 2855,
      "oa": 2856,
      "▁yoko": 2857,
      "▁metro": 2858,
      "▁rivers": 2859,
      "▁understands": 2860,
      "▁thick": 2861,
      "▁approval": 2862,
      "▁lyn": 2863,
      "▁prevail": 2864,
      "▁committ": 2865,
      "▁themes": 2866,
      "dden": 2867,
      "▁saturdays": 2868,
      "ature": 2869,
      "▁...............": 2870,
      "▁strategic": 2871,
      ":42": 2872,
      "irt": 2873,
      "▁care": 2874,
      "▁hit": 2875,
      "▁applic": 2876,
      "▁6:00": 2877,
      ".916.718": 2878,
      "图": 2879,
      "▁kand": 2880,
      "▁panc": 2881,
      "ires": 2882,
      "▁cases": 2883,
      "▁noisy": 2884,
      "▁pride": 2885,
      "▁wee": 2886,
      "rel": 2887,
      "▁insp": 2888,
      "▁bike": 2889,
      "▁camera": 2890,
      "▁organ": 2891,
      "▁cereal": 2892,
      "▁p.s.": 2893,
      "▁cents": 2894,
      "ihow": 2895,
      "irs": 2896,
      "▁ansi-92": 2897,
      "▁sauce": 2898,
      "▁conn": 2899,
      "ɔ": 2900,
      "▁lant": 2901,
      "▁possibility": 2902,
      "▁securities": 2903,
      "▁wtc": 2904,
      "▁n't": 2905,
      "▁banks": 2906,
      "▁lessons": 2907,
      "▁300": 2908,
      "▁suspended": 2909,
      "▁annoying": 2910,
      "▁1993": 2911,
      "ebe": 2912,
      "eco": 2913,
      "▁item": 2914,
      "▁ena": 2915,
      ".co.uk": 2916,
      "+": 2917,
      "ober": 2918,
      "▁combination": 2919,
      "▁repres": 2920,
      "▁chemical": 2921,
      "▁magn": 2922,
      "▁conserv": 2923,
      "▁argued": 2924,
      "▁reject": 2925,
      "▁sus": 2926,
      "@a": 2927,
      "▁wise": 2928,
      "▁h-0": 2929,
      "abi": 2930,
      "▁subject": 2931,
      "▁laugh": 2932,
      "▁sup": 2933,
      "▁pickle": 2934,
      "▁estim": 2935,
      "▁outstanding": 2936,
      "-625": 2937,
      "▁f-": 2938,
      "▁unl": 2939,
      "▁fighting": 2940,
      "▁ge": 2941,
      "▁securing": 2942,
      "82": 2943,
      "▁tries": 2944,
      "ously": 2945,
      "▁colleag": 2946,
      "rench": 2947,
      "▁killing": 2948,
      "ing": 2949,
      ".ca": 2950,
      "▁chased": 2951,
      "▁blackl": 2952,
      "▁alice": 2953,
      "▁feb.": 2954,
      "▁designer": 2955,
      "▁aviation": 2956,
      "▁billions": 2957,
      "▁llms": 2958,
      "▁oper": 2959,
      "eau": 2960,
      "oameric": 2961,
      "▁liverpool": 2962,
      "▁gand": 2963,
      "▁em": 2964,
      "▁insight": 2965,
      "▁a1": 2966,
      "fully": 2967,
      "aged": 2968,
      "▁possess": 2969,
      "py": 2970,
      "ificent": 2971,
      "▁twa": 2972,
      "78": 2973,
      "339": 2974,
      "▁recipe": 2975,
      "▁inevitably": 2976,
      "▁blowing": 2977,
      "▁melting": 2978,
      "▁genetically": 2979,
      "▁umb": 2980,
      "eable": 2981,
      "▁emper": 2982,
      "▁groups": 2983,
      "dering": 2984,
      "▁grim": 2985,
      "▁**********": 2986,
      "▁1787": 2987,
      "▁indoor": 2988,
      "▁herm": 2989,
      "▁continually": 2990,
      "▁shel": 2991,
      "x": 2992,
      "▁friend": 2993,
      "ace": 2994,
      "▁colleague": 2995,
      "▁thinking": 2996,
      "▁syntact": 2997,
      "▁student": 2998,
      "▁opposition": 2999,
      "▁living": 3000,
      "▁spikes": 3001,
      "▁andaman": 3002,
      "▁upcoming": 3003,
      "▁departs": 3004,
      "▁topic": 3005,
      "▁recorder": 3006,
      "▁tough": 3007,
      "▁hippopotamus": 3008,
      "gl": 3009,
      "esa": 3010,
      "away": 3011,
      "odox": 3012,
      "▁those": 3013,
      "atient": 3014,
      "▁exploration": 3015,
      "onia": 3016,
      "▁suggesting": 3017,
      "▁venus": 3018,
      "tr": 3019,
      "▁charcoal": 3020,
      "▁thrift": 3021,
      "jection": 3022,
      "▁sett": 3023,
      "ound": 3024,
      "▁effectively": 3025,
      "▁rac": 3026,
      "▁monit": 3027,
      "▁desir": 3028,
      "▁precious": 3029,
      "a.": 3030,
      "iah": 3031,
      "▁adapted": 3032,
      "going": 3033,
      "▁principles": 3034,
      "child": 3035,
      "▁frequ": 3036,
      "▁gosh": 3037,
      "imin": 3038,
      "parnasse": 3039,
      "▁łodz": 3040,
      "▁researching": 3041,
      "▁**": 3042,
      "red": 3043,
      "▁inade": 3044,
      "▁bell": 3045,
      "ething": 3046,
      "ager": 3047,
      "inking": 3048,
      "▁cyclone": 3049,
      "▁mim": 3050,
      "▁twenty-four": 3051,
      "▁states": 3052,
      "ity": 3053,
      "▁limous": 3054,
      "▁motiv": 3055,
      "mos": 3056,
      "▁mummy": 3057,
      "ession": 3058,
      "▁====================================================": 3059,
      "lem": 3060,
      "zb": 3061,
      "▁longer": 3062,
      "▁oak": 3063,
      "▁hilar": 3064,
      "▁queen": 3065,
      "smith": 3066,
      ".d": 3067,
      "▁therap": 3068,
      "▁verd": 3069,
      "j": 3070,
      "▁risk": 3071,
      "▁ac": 3072,
      "▁colors": 3073,
      "▁meanwhile": 3074,
      "▁hydrogen": 3075,
      "▁81": 3076,
      "▁outright": 3077,
      "▁altogether": 3078,
      "▁2003": 3079,
      "▁gob": 3080,
      "▁waving": 3081,
      "▁jewish": 3082,
      "▁princip": 3083,
      "▁prepared": 3084,
      "▁lighting": 3085,
      "▁rol": 3086,
      "row": 3087,
      "▁persist": 3088,
      "0/2000": 3089,
      "-12": 3090,
      "▁taylor": 3091,
      "▁pounds": 3092,
      "▁foods": 3093,
      "▁famous": 3094,
      "oga": 3095,
      "ur": 3096,
      "enge": 3097,
      "-looking": 3098,
      "▁working": 3099,
      "▁diseases": 3100,
      "▁chines": 3101,
      "▁sunken": 3102,
      "▁judge": 3103,
      "▁fac": 3104,
      "▁kay": 3105,
      "▁avenue": 3106,
      "▁bulld": 3107,
      "▁guarantee": 3108,
      "▁gala": 3109,
      "▁st": 3110,
      "▁operation": 3111,
      "▁unfortunate": 3112,
      "sole": 3113,
      "▁transformative": 3114,
      "brow": 3115,
      "▁statistics": 3116,
      "▁contributions": 3117,
      "iov": 3118,
      "ored": 3119,
      "▁impart": 3120,
      "▁deliberate": 3121,
      "▁ducks": 3122,
      "▁femur": 3123,
      "▁646-84": 3124,
      "▁election": 3125,
      "uration": 3126,
      "▁counterparty": 3127,
      "▁401": 3128,
      "▁williams": 3129,
      "▁trip": 3130,
      "▁testing": 3131,
      "▁recalled": 3132,
      "▁kinds": 3133,
      "▁fl": 3134,
      "▁chocolate": 3135,
      "▁jealous": 3136,
      "▁player": 3137,
      "▁everywhere": 3138,
      "▁mistaken": 3139,
      "▁removal": 3140,
      "▁bags": 3141,
      "▁prejud": 3142,
      "▁claim": 3143,
      "▁init": 3144,
      "▁consistent": 3145,
      "mes": 3146,
      "▁treated": 3147,
      "killed": 3148,
      "▁restricted": 3149,
      "abor": 3150,
      "▁arch": 3151,
      "▁ep": 3152,
      "▁repetition": 3153,
      "▁milwaukee": 3154,
      "▁material": 3155,
      "▁sport": 3156,
      "unia": 3157,
      "-th": 3158,
      "▁hano": 3159,
      "▁formatting": 3160,
      "aganda": 3161,
      "▁horses": 3162,
      "gia": 3163,
      "▁usa": 3164,
      "▁disin": 3165,
      "▁-----------------------------------------------------------------------": 3166,
      "▁928": 3167,
      "▁till": 3168,
      "▁lets": 3169,
      "▁recru": 3170,
      "09": 3171,
      "▁better": 3172,
      "▁pref": 3173,
      "▁mathematics": 3174,
      "▁millisandy": 3175,
      "▁dans": 3176,
      "▁protection": 3177,
      "▁right": 3178,
      "▁neare": 3179,
      "▁sh": 3180,
      "▁illeg": 3181,
      "▁sust": 3182,
      "▁hamas": 3183,
      "-98": 3184,
      "rayed": 3185,
      "#": 3186,
      "▁jones": 3187,
      "▁hum": 3188,
      "▁yummy": 3189,
      "being": 3190,
      "ashion": 3191,
      "vor": 3192,
      "▁loved": 3193,
      "▁peanut": 3194,
      "▁pakistan": 3195,
      "▁leaning": 3196,
      "▁stretch": 3197,
      "▁pages": 3198,
      "▁brains": 3199,
      "▁finding": 3200,
      "self": 3201,
      "▁boom": 3202,
      "ands": 3203,
      "fin": 3204,
      "▁screws": 3205,
      "isons": 3206,
      "acy": 3207,
      "▁settle": 3208,
      "▁mercury": 3209,
      "▁pennies": 3210,
      "▁sheriff": 3211,
      "▁complet": 3212,
      "▁peninsula": 3213,
      "▁deb": 3214,
      "▁tremendous": 3215,
      "▁lawsuit": 3216,
      "▁promote": 3217,
      "▁leave": 3218,
      "▁fallen": 3219,
      "▁analyses": 3220,
      "▁comedy": 3221,
      "▁guarantees": 3222,
      "▁sinh": 3223,
      "▁fire": 3224,
      "▁expectations": 3225,
      "▁phenomenon": 3226,
      "▁phen": 3227,
      "▁introducing": 3228,
      "▁cared": 3229,
      "▁fight": 3230,
      "▁mistake": 3231,
      "▁masterpi": 3232,
      "▁boot": 3233,
      "▁lufthansa": 3234,
      "/chernobyl/": 3235,
      "▁proven": 3236,
      "▁forb": 3237,
      "▁title": 3238,
      "▁shirts": 3239,
      "ax": 3240,
      "iguing": 3241,
      "▁environment": 3242,
      "▁pian": 3243,
      "▁negotiation": 3244,
      "onym": 3245,
      "▁resour": 3246,
      "▁bottle": 3247,
      "▁rare": 3248,
      "▁tables": 3249,
      "65-3": 3250,
      "▁weary": 3251,
      "bles": 3252,
      "food": 3253,
      "▁instant": 3254,
      "erg": 3255,
      "ii": 3256,
      "▁ruby": 3257,
      "▁pipeline": 3258,
      "▁pyth": 3259,
      "▁offer": 3260,
      "▁confused": 3261,
      "▁teleph": 3262,
      "▁cheeks": 3263,
      "aut": 3264,
      "ieval": 3265,
      "▁ballet": 3266,
      "▁birds": 3267,
      "@p": 3268,
      "▁pigs": 3269,
      "▁symptoms": 3270,
      "▁fal": 3271,
      "▁rig": 3272,
      "▁pione": 3273,
      "▁matt": 3274,
      "▁drove": 3275,
      "▁huma": 3276,
      "▁condem": 3277,
      "▁'": 3278,
      "▁lawyer": 3279,
      "vings": 3280,
      "▁edition": 3281,
      "▁uncover": 3282,
      "iloqu": 3283,
      "▁matches": 3284,
      "rib": 3285,
      "▁self": 3286,
      "eared": 3287,
      "▁regional": 3288,
      "▁destroy": 3289,
      "uel": 3290,
      "▁nob": 3291,
      "▁comparing": 3292,
      "edience": 3293,
      "▁smooth": 3294,
      "▁astride": 3295,
      "▁combine": 3296,
      "▁repl": 3297,
      "▁bunn": 3298,
      "▁eol": 3299,
      "▁dust": 3300,
      "▁judged": 3301,
      "▁backward": 3302,
      "ford": 3303,
      "/13/2001": 3304,
      "▁cosplay": 3305,
      "▁definitely": 3306,
      "▁vintage": 3307,
      "▁black": 3308,
      "▁pall": 3309,
      "▁sol": 3310,
      "▁off": 3311,
      "▁discussing": 3312,
      "▁ban": 3313,
      "▁decor": 3314,
      "▁knives": 3315,
      "▁questionna": 3316,
      "veria": 3317,
      "▁compressor": 3318,
      "▁ag": 3319,
      ".co.uk/": 3320,
      "ster": 3321,
      "zai": 3322,
      "▁keeping": 3323,
      "▁midnight": 3324,
      "▁hours": 3325,
      "▁solely": 3326,
      "▁arbitr": 3327,
      "▁peach": 3328,
      "▁venet": 3329,
      "ital": 3330,
      "▁shine": 3331,
      "omer": 3332,
      "▁ss": 3333,
      "▁sky": 3334,
      "▁dark": 3335,
      "▁austral": 3336,
      "▁deriv": 3337,
      "▁target": 3338,
      "▁600": 3339,
      "▁celebr": 3340,
      "ogether": 3341,
      "▁2004": 3342,
      "▁need": 3343,
      "▁exhibited": 3344,
      "▁scrap": 3345,
      "▁vi": 3346,
      "▁gained": 3347,
      "▁ambul": 3348,
      "▁other": 3349,
      "30": 3350,
      "inter": 3351,
      "▁wis": 3352,
      "▁covered": 3353,
      "▁clarify": 3354,
      "▁mixed": 3355,
      "▁phr": 3356,
      "▁blog": 3357,
      "▁imm": 3358,
      "▁cab": 3359,
      "▁36": 3360,
      "▁parakeets": 3361,
      "▁thus": 3362,
      "o-": 3363,
      "▁interrupted": 3364,
      "▁wives": 3365,
      "▁scen": 3366,
      "▁kong": 3367,
      "▁requ": 3368,
      "▁leban": 3369,
      "▁edward": 3370,
      "▁reef": 3371,
      "▁savage": 3372,
      "▁diary": 3373,
      "▁older": 3374,
      "▁exagger": 3375,
      "gment": 3376,
      "▁puff": 3377,
      "//": 3378,
      "derm": 3379,
      "8549": 3380,
      ".xls": 3381,
      "iac": 3382,
      "▁1836": 3383,
      "▁fear": 3384,
      "▁pyram": 3385,
      "▁kam": 3386,
      "**********************************": 3387,
      "▁cind": 3388,
      "▁connecting": 3389,
      "▁consensus": 3390,
      "▁too": 3391,
      "▁instructions": 3392,
      ":35": 3393,
      "erto": 3394,
      "▁withdrawn": 3395,
      "▁max": 3396,
      "▁brooklyn": 3397,
      "▁spos": 3398,
      "▁exped": 3399,
      "▁surely": 3400,
      "al": 3401,
      "▁✉": 3402,
      "▁7:30": 3403,
      "▁christoph": 3404,
      "arded": 3405,
      "▁accurate": 3406,
      "▁21,000": 3407,
      "▁buildings": 3408,
      "▁05/25/2001": 3409,
      "▁punchline": 3410,
      "ilton": 3411,
      "ologies": 3412,
      "▁americ": 3413,
      "▁slow": 3414,
      "▁decline": 3415,
      "▁yay": 3416,
      "▁1848": 3417,
      "▁meh-risk": 3418,
      "▁rain": 3419,
      "822": 3420,
      "▁texts": 3421,
      "▁10/20/2000": 3422,
      "umed": 3423,
      "▁string": 3424,
      "▁statement": 3425,
      "▁robber": 3426,
      "ript": 3427,
      "▁exchanged": 3428,
      "aked": 3429,
      "image": 3430,
      "▁anthrop": 3431,
      "idable": 3432,
      "▁entrepren": 3433,
      "▁programmes": 3434,
      "▁smoke": 3435,
      "▁processor": 3436,
      "▁inex": 3437,
      "here": 3438,
      "iros": 3439,
      "▁bob": 3440,
      "onnay": 3441,
      "▁lav": 3442,
      "▁prevention": 3443,
      ",9": 3444,
      "▁hate": 3445,
      "action": 3446,
      "▁league": 3447,
      "▁chernobyl": 3448,
      "erre": 3449,
      "ab": 3450,
      "▁laurie": 3451,
      "▁treats": 3452,
      "▁wizard": 3453,
      "▁disappointment": 3454,
      "▁negotiations": 3455,
      "gian": 3456,
      "▁alliance": 3457,
      "▁case": 3458,
      "▁~": 3459,
      "▁relieved": 3460,
      "▁coupled": 3461,
      "sters": 3462,
      "ued": 3463,
      "▁round": 3464,
      "▁2:25": 3465,
      "▁bou": 3466,
      "▁language": 3467,
      "orth": 3468,
      "▁products": 3469,
      "▁sao": 3470,
      "▁unity": 3471,
      "▁paine": 3472,
      "▁super": 3473,
      "▁sliding": 3474,
      "agic": 3475,
      "琴": 3476,
      "▁moustache": 3477,
      "otes": 3478,
      "▁patience": 3479,
      "▁gay": 3480,
      "berts": 3481,
      ":01": 3482,
      "▁wider": 3483,
      "▁european": 3484,
      "▁sf": 3485,
      "▁gold": 3486,
      "ush": 3487,
      "▁total": 3488,
      "▁barack": 3489,
      "▁jeffrey": 3490,
      "▁paradise": 3491,
      "▁fares": 3492,
      "veland": 3493,
      "ql": 3494,
      "▁collections": 3495,
      "▁intr": 3496,
      "▁tip": 3497,
      "cell": 3498,
      "▁invest": 3499,
      "▁evidently": 3500,
      "mania": 3501,
      "▁tun": 3502,
      "▁dollar": 3503,
      "▁dl": 3504,
      "▁then": 3505,
      "▁incred": 3506,
      "-#6": 3507,
      "13.86": 3508,
      "ety": 3509,
      "▁assistance": 3510,
      "▁backup": 3511,
      "▁philly": 3512,
      "web": 3513,
      "▁1616": 3514,
      "▁played": 3515,
      "▁lem": 3516,
      "▁1951": 3517,
      "/h": 3518,
      "aya": 3519,
      "▁helm": 3520,
      "ning": 3521,
      "▁passed": 3522,
      "asses": 3523,
      "que": 3524,
      "▁investigate": 3525,
      "▁shared": 3526,
      "uling": 3527,
      "▁foot": 3528,
      "▁jam": 3529,
      "▁drag": 3530,
      "allow": 3531,
      "ular": 3532,
      "▁shep": 3533,
      "▁plates": 3534,
      "▁milky": 3535,
      "▁backs": 3536,
      "60": 3537,
      "▁brut": 3538,
      "▁marks": 3539,
      "▁backwards": 3540,
      "▁pool": 3541,
      "ilar": 3542,
      "▁considerable": 3543,
      "▁ts": 3544,
      "▁amy": 3545,
      "▁pizza": 3546,
      "ride": 3547,
      "▁laughs": 3548,
      "▁pleasant": 3549,
      "▁d-": 3550,
      "▁tor": 3551,
      "▁adequate": 3552,
      "?": 3553,
      "▁acquired": 3554,
      "▁comet": 3555,
      "wikipedia": 3556,
      "▁emergency": 3557,
      "▁sucked": 3558,
      "eping": 3559,
      "▁07/14/2000": 3560,
      "▁written": 3561,
      "▁burst": 3562,
      "▁wearing": 3563,
      "th": 3564,
      "8-7": 3565,
      "▁microsc": 3566,
      "▁american": 3567,
      "▁i": 3568,
      "bi": 3569,
      "izations": 3570,
      "▁educational": 3571,
      "▁chatham": 3572,
      "===": 3573,
      "▁demonstrates": 3574,
      "ibly": 3575,
      "▁establishing": 3576,
      "liness": 3577,
      "eal": 3578,
      "▁theater": 3579,
      "▁lear": 3580,
      "ransred": 3581,
      "▁recreat": 3582,
      "kana": 3583,
      "▁variety": 3584,
      "▁agreements": 3585,
      "▁equal": 3586,
      "▁allawi": 3587,
      "▁ornament": 3588,
      "reml": 3589,
      "▁hurried": 3590,
      "▁identical": 3591,
      "_": 3592,
      "▁kar": 3593,
      "▁t-": 3594,
      "▁manufacturer": 3595,
      "▁buba": 3596,
      "▁cock": 3597,
      "national": 3598,
      "etics": 3599,
      "ency": 3600,
      "▁dish": 3601,
      "▁flat": 3602,
      ",0": 3603,
      "▁rope": 3604,
      "▁wellington": 3605,
      "▁young": 3606,
      "▁boo": 3607,
      "▁cand": 3608,
      "ounded": 3609,
      "▁smiling": 3610,
      "bre": 3611,
      "▁discrim": 3612,
      "▁lifted": 3613,
      "▁tam": 3614,
      "▁session": 3615,
      "▁conditions": 3616,
      "hajatra": 3617,
      "ants": 3618,
      "▁11,000": 3619,
      "▁separately": 3620,
      "▁rack": 3621,
      "▁o'": 3622,
      "▁goats": 3623,
      "================================": 3624,
      "▁hund": 3625,
      "▁mcdon": 3626,
      "▁frozen": 3627,
      "▁every": 3628,
      "▁ano": 3629,
      "▁virus": 3630,
      "iciary": 3631,
      "▁liby": 3632,
      "▁shaped": 3633,
      "▁agra": 3634,
      "▁refresh": 3635,
      "▁whether": 3636,
      "744": 3637,
      "15-": 3638,
      "▁thane": 3639,
      "▁pac": 3640,
      "▁pre-": 3641,
      "▁guitar": 3642,
      "▁abs": 3643,
      "▁essence": 3644,
      "▁cry": 3645,
      "estic": 3646,
      ":38": 3647,
      "▁1504": 3648,
      "▁christian": 3649,
      "▁gro": 3650,
      "▁kosher": 3651,
      "▁merely": 3652,
      "▁conference": 3653,
      "gs": 3654,
      "▁since": 3655,
      "▁lords": 3656,
      "iated": 3657,
      "▁otherwise": 3658,
      "sa": 3659,
      "▁bucks": 3660,
      "▁itch": 3661,
      "▁homosexual": 3662,
      "▁adult": 3663,
      "▁shortly": 3664,
      "▁weekend": 3665,
      "▁ladder": 3666,
      "▁positions": 3667,
      "▁extension": 3668,
      "ine": 3669,
      "ng": 3670,
      "anna": 3671,
      "▁lens": 3672,
      "▁week": 3673,
      "▁detective": 3674,
      "mart": 3675,
      "▁perm": 3676,
      "▁44": 3677,
      "▁attributed": 3678,
      "ι": 3679,
      "▁disgust": 3680,
      "▁capable": 3681,
      "▁destination": 3682,
      "\"": 3683,
      "▁liquidation": 3684,
      "▁mitig": 3685,
      "▁tuck": 3686,
      "spot.com/": 3687,
      "adas": 3688,
      "▁restriction": 3689,
      "▁sixteen": 3690,
      "▁references": 3691,
      "▁supreme": 3692,
      "▁ham": 3693,
      "feld": 3694,
      "▁likewise": 3695,
      "▁musicians": 3696,
      "▁cooker": 3697,
      "ht": 3698,
      "▁point": 3699,
      "▁m": 3700,
      "▁boil": 3701,
      "onn": 3702,
      "▁actors": 3703,
      "▁england": 3704,
      "▁drug": 3705,
      "▁1505": 3706,
      "▁wednesday": 3707,
      "▁confine": 3708,
      "▁organizations": 3709,
      "▁divide": 3710,
      "▁nonstop": 3711,
      "▁civilizations": 3712,
      "▁administration": 3713,
      "▁3.5": 3714,
      "▁ignored": 3715,
      "▁corpus": 3716,
      "esque": 3717,
      "ologists": 3718,
      "▁bobby": 3719,
      "▁tasted": 3720,
      "▁legislature": 3721,
      "▁convincing": 3722,
      "▁show": 3723,
      "▁recipient": 3724,
      "ɑ": 3725,
      "▁thought": 3726,
      "hear": 3727,
      "▁sheet": 3728,
      "▁appreciated": 3729,
      "eweb": 3730,
      "▁ig": 3731,
      "▁ve": 3732,
      ",000": 3733,
      "▁01/25/2001": 3734,
      "▁financ": 3735,
      "▁wrestle": 3736,
      "▁power": 3737,
      "▁tablet": 3738,
      "▁mode": 3739,
      "▁soda": 3740,
      "▁poses": 3741,
      "▁nich": 3742,
      "▁armen": 3743,
      "▁1600": 3744,
      "▁kicked": 3745,
      "▁82": 3746,
      "▁laughing": 3747,
      "▁fee": 3748,
      "▁mouse": 3749,
      "▁urge": 3750,
      "▁******************************************************************": 3751,
      "▁distracting": 3752,
      "▁harm": 3753,
      "▁belly": 3754,
      "▁depends": 3755,
      "matic": 3756,
      "▁pupp": 3757,
      "▁assuming": 3758,
      "▁bc": 3759,
      "▁payments": 3760,
      "▁newer": 3761,
      "▁zawahiri": 3762,
      "▁toler": 3763,
      "▁clay": 3764,
      "lv": 3765,
      "▁inject": 3766,
      "▁beauveria": 3767,
      "▁argue": 3768,
      "▁worst": 3769,
      "▁width": 3770,
      "▁relativ": 3771,
      "▁floren": 3772,
      "▁ears": 3773,
      "▁palace": 3774,
      "▁stranger": 3775,
      "lymp": 3776,
      ":46": 3777,
      "▁crush": 3778,
      "▁stood": 3779,
      "▁messy": 3780,
      "ves": 3781,
      "▁memory": 3782,
      "▁communications": 3783,
      "▁carrier": 3784,
      "▁ivan": 3785,
      "rich": 3786,
      "▁lank": 3787,
      "静": 3788,
      "ceptions": 3789,
      "ogn": 3790,
      "-3": 3791,
      "▁supermarket": 3792,
      "▁glowing": 3793,
      "▁audio": 3794,
      "▁chewing": 3795,
      "▁opt": 3796,
      "▁bol": 3797,
      "ount": 3798,
      "▁’re": 3799,
      "▁inclined": 3800,
      "portion": 3801,
      "▁interval": 3802,
      "▁book": 3803,
      "▁ver": 3804,
      "om": 3805,
      "▁sundays": 3806,
      "▁countryside": 3807,
      "bruary": 3808,
      "72": 3809,
      "▁credential": 3810,
      "▁sucks": 3811,
      "▁dizzy": 3812,
      "▁establishments": 3813,
      "▁bin": 3814,
      "▁skip": 3815,
      "▁ordered": 3816,
      "face": 3817,
      "aste": 3818,
      "pl": 3819,
      "rast": 3820,
      "▁03:3": 3821,
      "▁staircase": 3822,
      "▁fraud": 3823,
      "▁empathy": 3824,
      "@": 3825,
      "7/2000": 3826,
      "▁necess": 3827,
      "▁sac": 3828,
      "▁slammed": 3829,
      "▁territory": 3830,
      "▁anyway": 3831,
      "▁voices": 3832,
      "uc": 3833,
      "▁202.456": 3834,
      "▁tig": 3835,
      "▁unim": 3836,
      "▁cross-s": 3837,
      "▁dom": 3838,
      "▁pure": 3839,
      "▁apologize": 3840,
      "▁shanna": 3841,
      "▁stores": 3842,
      ".86": 3843,
      "▁slide": 3844,
      "▁restr": 3845,
      "ihu": 3846,
      "▁roots": 3847,
      "▁1984": 3848,
      "▁membership": 3849,
      "▁sail": 3850,
      "▁children": 3851,
      "▁sp": 3852,
      "ative": 3853,
      "▁conclud": 3854,
      "▁considering": 3855,
      "▁bok": 3856,
      "▁ascertain": 3857,
      "ece": 3858,
      "▁switch": 3859,
      "▁losses": 3860,
      "▁disorders": 3861,
      "▁traditional": 3862,
      "ico": 3863,
      "▁re-e": 3864,
      "▁categor": 3865,
      "▁loop": 3866,
      "▁experts": 3867,
      "ʁ": 3868,
      "▁aware": 3869,
      "▁calm": 3870,
      "▁handy": 3871,
      "▁museums": 3872,
      "keley": 3873,
      "▁11-20-2000": 3874,
      "▁businessmen": 3875,
      "irts": 3876,
      "▁conceptual": 3877,
      "▁afraid": 3878,
      "▁iranian": 3879,
      "▁berkeley": 3880,
      "▁urs": 3881,
      "▁decree": 3882,
      "▁labrad": 3883,
      "▁imported": 3884,
      "▁dere": 3885,
      "eless": 3886,
      "▁888": 3887,
      "▁dead": 3888,
      "ieth": 3889,
      "aps": 3890,
      "uth": 3891,
      "ase": 3892,
      "▁dign": 3893,
      "▁philippines": 3894,
      "▁composition": 3895,
      "▁pioneers": 3896,
      "▁tickle": 3897,
      "▁grow": 3898,
      "▁bought": 3899,
      "▁obsession": 3900,
      "▁him": 3901,
      "franch": 3902,
      "▁skitt": 3903,
      "▁philip": 3904,
      "▁harry": 3905,
      "▁discharge": 3906,
      "▁doubts": 3907,
      "▁978": 3908,
      "▁month": 3909,
      "▁rotating": 3910,
      "▁.....": 3911,
      "▁rely": 3912,
      "▁perceptions": 3913,
      "iny": 3914,
      "▁applied": 3915,
      "▁hier": 3916,
      "▁1965": 3917,
      "▁apost": 3918,
      "▁sheets": 3919,
      "oui": 3920,
      "▁least": 3921,
      "▁greet": 3922,
      "▁pin": 3923,
      "▁usi": 3924,
      "▁reserves": 3925,
      "▁dates": 3926,
      "▁main": 3927,
      "▁circus": 3928,
      "▁21st": 3929,
      "urp": 3930,
      "▁degenerate": 3931,
      "kn": 3932,
      "▁exha": 3933,
      "▁presidential": 3934,
      "n": 3935,
      "▁ped": 3936,
      "ivid": 3937,
      "▁personal": 3938,
      "▁hub": 3939,
      "▁189": 3940,
      "▁!!!": 3941,
      "▁bra": 3942,
      "achment": 3943,
      "▁solo": 3944,
      "noon": 3945,
      "▁conducted": 3946,
      "▁heather": 3947,
      "olly": 3948,
      "azz": 3949,
      "inate": 3950,
      "▁none": 3951,
      "@ect": 3952,
      "▁minerals": 3953,
      "▁ele": 3954,
      "▁twenty": 3955,
      "▁sticking": 3956,
      "▁musk": 3957,
      "▁kurtz": 3958,
      "▁hidden": 3959,
      "▁iss": 3960,
      "history": 3961,
      "▁interpreted": 3962,
      "▁discl": 3963,
      "▁checkout": 3964,
      "▁collects": 3965,
      "▁baltim": 3966,
      "▁traged": 3967,
      "▁begun": 3968,
      "▁lantern": 3969,
      "▁mirror": 3970,
      "▁kosovo": 3971,
      "acio": 3972,
      "urday": 3973,
      "anc": 3974,
      "------": 3975,
      "▁burrow": 3976,
      "▁polaroids": 3977,
      "▁sie": 3978,
      "stick": 3979,
      "▁determination": 3980,
      "▁supply": 3981,
      "▁grande": 3982,
      "▁vest": 3983,
      "▁functioning": 3984,
      "▁sometime": 3985,
      "▁gather": 3986,
      "▁was": 3987,
      "▁director": 3988,
      "▁fork": 3989,
      "achusetts": 3990,
      "▁intrig": 3991,
      "▁505-625-8031": 3992,
      "▁maintained": 3993,
      "▁notebook": 3994,
      "▁molec": 3995,
      "▁cer": 3996,
      "▁play+": 3997,
      "▁forget": 3998,
      "▁runner": 3999,
      "▁pixie": 4000,
      "▁meow": 4001,
      "▁blanche": 4002,
      "▁1980": 4003,
      "▁democratic": 4004,
      "▁revisions": 4005,
      "ag": 4006,
      "▁societies": 4007,
      "▁moment": 4008,
      "▁application": 4009,
      "▁alert": 4010,
      "▁'ve": 4011,
      "▁reactions": 4012,
      "▁learning": 4013,
      "mar": 4014,
      "▁patrons": 4015,
      "ts": 4016,
      "▁resolved": 4017,
      "▁tong": 4018,
      "▁jaf": 4019,
      "▁1995": 4020,
      "▁pair": 4021,
      "mat": 4022,
      "▁185": 4023,
      "▁cash": 4024,
      "▁exceptionally": 4025,
      "med": 4026,
      "▁smaller": 4027,
      "▁v.": 4028,
      "amiliar": 4029,
      "▁turned": 4030,
      "▁11608": 4031,
      "▁starts": 4032,
      "▁migrated": 4033,
      "▁uk": 4034,
      "▁pillow": 4035,
      "▁corruption": 4036,
      "▁narrative": 4037,
      "▁sept": 4038,
      "▁flaubert": 4039,
      ".m": 4040,
      "iling": 4041,
      "▁specifically": 4042,
      "▁snack": 4043,
      "▁cocoa": 4044,
      "▁knife": 4045,
      "▁martinez": 4046,
      "▁modem": 4047,
      "▁roadgrad": 4048,
      "▁immigrants": 4049,
      "gged": 4050,
      "▁stopovers": 4051,
      "ology": 4052,
      "▁420": 4053,
      "▁poison": 4054,
      "▁secondary": 4055,
      "▁quick": 4056,
      "▁heard": 4057,
      "▁10/31": 4058,
      "auts": 4059,
      "▁kw": 4060,
      "ality": 4061,
      "▁infrast": 4062,
      "▁aer": 4063,
      "▁summar": 4064,
      "▁u.": 4065,
      "ras": 4066,
      "▁w3c": 4067,
      "▁precisely": 4068,
      "cr": 4069,
      "▁maintenance": 4070,
      "▁roof": 4071,
      "ij": 4072,
      "▁destroyed": 4073,
      "▁ticket": 4074,
      "▁>----------------------------------------------------------------------------": 4075,
      "▁motel": 4076,
      "▁retract": 4077,
      "▁alberta": 4078,
      "ateg": 4079,
      "▁prefect": 4080,
      "▁moon": 4081,
      "▁cough": 4082,
      "▁on": 4083,
      "▁cars": 4084,
      "▁michelle": 4085,
      "▁]": 4086,
      "▁fulf": 4087,
      "▁stolen": 4088,
      "▁owes": 4089,
      "▁forty": 4090,
      "ged": 4091,
      "▁contract": 4092,
      "▁2005": 4093,
      "▁frame": 4094,
      "▁wrap": 4095,
      "▁possession": 4096,
      "ص": 4097,
      "712": 4098,
      "ivia": 4099,
      "▁incom": 4100,
      "▁reaches": 4101,
      "▁totally": 4102,
      "h": 4103,
      "▁fungi": 4104,
      "▁emerg": 4105,
      "▁1994": 4106,
      "▁receptionist": 4107,
      "▁khalid": 4108,
      "aping": 4109,
      "▁relationships": 4110,
      "roit": 4111,
      "▁by": 4112,
      "ping": 4113,
      "▁cross": 4114,
      "uls": 4115,
      "▁honey": 4116,
      "▁mis": 4117,
      "▁mexican": 4118,
      "▁’ve": 4119,
      "land": 4120,
      "▁solved": 4121,
      "▁fool": 4122,
      "igration": 4123,
      "▁whom": 4124,
      "▁tv": 4125,
      "▁flood": 4126,
      "▁millions": 4127,
      "ung": 4128,
      "▁define": 4129,
      "▁2:00": 4130,
      "▁validity": 4131,
      "▁later": 4132,
      "▁worse": 4133,
      "ett": 4134,
      "▁professors": 4135,
      "▁syn": 4136,
      "▁port": 4137,
      "▁time": 4138,
      "▁4_28_00.doc": 4139,
      "▁miller": 4140,
      "▁closet": 4141,
      "▁denton": 4142,
      "ologically": 4143,
      "▁traveler": 4144,
      "▁debate": 4145,
      "▁olympic": 4146,
      "▁insuff": 4147,
      "▁columb": 4148,
      "▁twin": 4149,
      "▁explanation": 4150,
      "rint": 4151,
      "▁pr": 4152,
      "▁pivot": 4153,
      "▁nights": 4154,
      "kman": 4155,
      "2-": 4156,
      "▁carefully": 4157,
      "olitan": 4158,
      "...@gmail.com": 4159,
      "ind": 4160,
      "▁america": 4161,
      "e.": 4162,
      "????": 4163,
      "▁courtney": 4164,
      "▁anth": 4165,
      "▁balance": 4166,
      "▁controls": 4167,
      "▁1954": 4168,
      "▁shop": 4169,
      "ray": 4170,
      "eces": 4171,
      "▁recip": 4172,
      "▁ad": 4173,
      "idden": 4174,
      "▁ash": 4175,
      "olit": 4176,
      "▁cens": 4177,
      "▁towels": 4178,
      "▁20:00": 4179,
      "icked": 4180,
      "▁staying": 4181,
      "▁olds": 4182,
      "bha": 4183,
      "▁tighten": 4184,
      "▁revis": 4185,
      "▁depart": 4186,
      "▁50000": 4187,
      "k.ur": 4188,
      "▁parents": 4189,
      "▁existence": 4190,
      "▁mediterranean": 4191,
      "▁surv": 4192,
      "lib": 4193,
      "▁tub": 4194,
      "▁1991": 4195,
      "▁invisible": 4196,
      "care": 4197,
      "▁pittsbur": 4198,
      "▁before": 4199,
      "▁mayonna": 4200,
      "▁posting": 4201,
      "ased": 4202,
      "▁joined": 4203,
      "▁whi": 4204,
      "▁last": 4205,
      "▁resulting": 4206,
      "igator": 4207,
      "c)": 4208,
      "▁unless": 4209,
      "▁lennon": 4210,
      "▁chosen": 4211,
      "▁lettuce": 4212,
      "▁ski": 4213,
      "▁standing": 4214,
      "▁gor": 4215,
      "903": 4216,
      "▁eec": 4217,
      "▁1929": 4218,
      "▁wear": 4219,
      "▁tokyo": 4220,
      "…": 4221,
      "▁champagne": 4222,
      "▁stretching": 4223,
      "▁soo": 4224,
      "▁ansi-89": 4225,
      "▁175": 4226,
      "▁addressed": 4227,
      "▁period": 4228,
      "▁vegetarian": 4229,
      "▁enjoying": 4230,
      "▁interconn": 4231,
      "▁proficiency": 4232,
      "tip": 4233,
      "ertain": 4234,
      "▁ear": 4235,
      "▁priv": 4236,
      "▁poll": 4237,
      "obile": 4238,
      "ess": 4239,
      "▁mor": 4240,
      "▁related": 4241,
      "▁nuts": 4242,
      "▁1847": 4243,
      "▁757": 4244,
      "enix": 4245,
      "zing": 4246,
      "alled": 4247,
      "ot.com/": 4248,
      ".blogspot.com/": 4249,
      "▁consideration": 4250,
      "▁geomet": 4251,
      "33": 4252,
      "▁7:00": 4253,
      "ril": 4254,
      "▁committed": 4255,
      "▁smelled": 4256,
      "edter": 4257,
      "▁shale": 4258,
      "▁kaoshikii": 4259,
      "▁mant": 4260,
      "▁code": 4261,
      "▁searches": 4262,
      "▁20th": 4263,
      "▁ap": 4264,
      "▁quinoa": 4265,
      "▁ib": 4266,
      "▁pom": 4267,
      "▁elabor": 4268,
      "▁progress": 4269,
      "▁canned": 4270,
      "▁joking": 4271,
      "enet": 4272,
      "▁free": 4273,
      "▁davis": 4274,
      "▁dazzling": 4275,
      "▁basic": 4276,
      "▁ph": 4277,
      "▁club": 4278,
      "▁78": 4279,
      "▁chos": 4280,
      "ven": 4281,
      "▁kalkat": 4282,
      "▁jal": 4283,
      "corn": 4284,
      "▁thirsty": 4285,
      "▁younger": 4286,
      "▁chop": 4287,
      "▁sunsh": 4288,
      "ester": 4289,
      "anger": 4290,
      "▁ka": 4291,
      "▁colleges": 4292,
      "▁toilet": 4293,
      "▁cares": 4294,
      "▁splash": 4295,
      "▁heightened": 4296,
      "ape": 4297,
      "*{": 4298,
      "▁dow": 4299,
      "▁trauma": 4300,
      "▁65": 4301,
      "▁ninth": 4302,
      "▁referee": 4303,
      "▁experim": 4304,
      "▁stead": 4305,
      "▁japan": 4306,
      "▁4_28": 4307,
      "kins": 4308,
      "ications": 4309,
      "▁law": 4310,
      "▁sleep": 4311,
      "▁unfortunately": 4312,
      "▁funeral": 4313,
      "004": 4314,
      "▁attempting": 4315,
      "▁buddhist": 4316,
      "▁distort": 4317,
      "▁arab": 4318,
      "▁divers": 4319,
      "▁glad": 4320,
      "▁arafat": 4321,
      "▁handled": 4322,
      "--------": 4323,
      "05": 4324,
      "▁elastic": 4325,
      "cum": 4326,
      "▁walter": 4327,
      "▁photo": 4328,
      "aware": 4329,
      "▁macaroni": 4330,
      "▁rights": 4331,
      "▁rebu": 4332,
      "▁p.": 4333,
      "▁needed": 4334,
      "▁summit": 4335,
      "▁watching": 4336,
      "▁coupons": 4337,
      "▁jerome": 4338,
      "▁mau": 4339,
      "▁ironic": 4340,
      "▁liver": 4341,
      "ably": 4342,
      "ving": 4343,
      "▁accepted": 4344,
      "▁vine": 4345,
      "▁rhinoc": 4346,
      "▁drinking": 4347,
      "co": 4348,
      "▁stealing": 4349,
      "▁16": 4350,
      "▁copying": 4351,
      "▁14": 4352,
      "ikii": 4353,
      ".go": 4354,
      "▁biology": 4355,
      "▁sc": 4356,
      "occo": 4357,
      "antics": 4358,
      "▁kn": 4359,
      "▁civilian": 4360,
      "▁lightning": 4361,
      "▁incorporated": 4362,
      "▁candid": 4363,
      "ea": 4364,
      "▁resilience": 4365,
      "▁hill": 4366,
      "▁eas": 4367,
      "–": 4368,
      "▁mornings": 4369,
      "▁yog": 4370,
      "▁dedicated": 4371,
      "▁strip": 4372,
      "ville": 4373,
      "▁bottles": 4374,
      "▁avoiding": 4375,
      "▁phant": 4376,
      "▁pippo": 4377,
      ":05": 4378,
      "▁investors": 4379,
      "▁scotland": 4380,
      "▁lesson": 4381,
      "48": 4382,
      "▁sight": 4383,
      "▁migr": 4384,
      "▁korea": 4385,
      "▁dys": 4386,
      "▁nose": 4387,
      "gary": 4388,
      "▁significant": 4389,
      "oked": 4390,
      "ivan": 4391,
      "oes": 4392,
      "▁tail": 4393,
      "▁vig": 4394,
      "▁b/c": 4395,
      "season": 4396,
      "▁traci": 4397,
      "icago": 4398,
      "ults": 4399,
      "▁frankly": 4400,
      "▁ansi-": 4401,
      "▁discret": 4402,
      "wau": 4403,
      "▁fields": 4404,
      "▁buckets": 4405,
      "▁02": 4406,
      "▁beard": 4407,
      "▁nam": 4408,
      "▁tac": 4409,
      "▁1880": 4410,
      "imum": 4411,
      "▁italian": 4412,
      "▁waiter": 4413,
      "▁corn": 4414,
      "▁butterfly": 4415,
      "▁arvn": 4416,
      "▁rab": 4417,
      "▁versa": 4418,
      "▁wav": 4419,
      "▁comfortable": 4420,
      "▁relics": 4421,
      "▁regime": 4422,
      "▁addiction": 4423,
      "▁beep": 4424,
      "▁mand": 4425,
      "▁bag": 4426,
      "▁mater": 4427,
      "▁illust": 4428,
      "▁373": 4429,
      "▁manif": 4430,
      "▁jew": 4431,
      "uch": 4432,
      "▁vessel": 4433,
      "▁eb": 4434,
      "icious": 4435,
      "▁breakfast": 4436,
      "▁regions": 4437,
      "▁jana": 4438,
      "▁agree": 4439,
      "▁shift": 4440,
      "what": 4441,
      "▁harder": 4442,
      "▁in": 4443,
      "lers": 4444,
      "▁1955": 4445,
      "▁montana": 4446,
      "point": 4447,
      "▁stayed": 4448,
      "▁likely": 4449,
      "▁sons": 4450,
      "ost": 4451,
      "▁buff": 4452,
      "▁cem": 4453,
      "▁sunni": 4454,
      "d-#6": 4455,
      "met": 4456,
      "▁j": 4457,
      "▁commonly": 4458,
      "▁number": 4459,
      "▁wilt": 4460,
      "▁scenic": 4461,
      "bey": 4462,
      "▁alleg": 4463,
      "ective": 4464,
      "▁meas": 4465,
      "▁francis": 4466,
      "ها": 4467,
      "▁add": 4468,
      "▁belongs": 4469,
      "▁refrigerator": 4470,
      "▁drift": 4471,
      "bits": 4472,
      "▁highlight": 4473,
      "field": 4474,
      "akk": 4475,
      "▁pam": 4476,
      "▁returned": 4477,
      "-6": 4478,
      "▁hands": 4479,
      ":11": 4480,
      "▁order": 4481,
      "▁documents": 4482,
      ".2": 4483,
      "▁nik": 4484,
      "ference": 4485,
      "▁wra": 4486,
      "▁break": 4487,
      "glo": 4488,
      "▁expenses": 4489,
      "▁nin": 4490,
      "▁stampede": 4491,
      "▁lawy": 4492,
      "▁toward": 4493,
      "▁semantic": 4494,
      "▁kalk": 4495,
      "▁attempts": 4496,
      "▁insects": 4497,
      "nel": 4498,
      "erable": 4499,
      "▁about": 4500,
      "▁californ": 4501,
      "ees": 4502,
      "▁’": 4503,
      "▁merida": 4504,
      "rosh": 4505,
      "▁pla": 4506,
      "▁usual": 4507,
      "▁bridges": 4508,
      "▁update": 4509,
      "▁wins": 4510,
      "oxide": 4511,
      "▁04:17": 4512,
      "▁katrina": 4513,
      "▁chand": 4514,
      "▁ir": 4515,
      "@esa": 4516,
      "▁composed": 4517,
      "▁p": 4518,
      "ec": 4519,
      "/10/2000": 4520,
      "▁pract": 4521,
      "▁5.6": 4522,
      "▁referenced": 4523,
      "▁engineering": 4524,
      "▁engineers": 4525,
      "eenth": 4526,
      "▁trav": 4527,
      "▁08/15": 4528,
      "▁bound": 4529,
      "▁poor": 4530,
      "▁proceeded": 4531,
      ".713.86": 4532,
      "▁lu": 4533,
      "▁tens": 4534,
      "▁veg": 4535,
      "▁oops": 4536,
      "▁cond": 4537,
      "▁aston": 4538,
      "▁craig": 4539,
      "tie": 4540,
      "▁porch": 4541,
      "▁depend": 4542,
      "▁spong": 4543,
      "▁gle": 4544,
      "▁dull": 4545,
      "▁special": 4546,
      "▁guards": 4547,
      "▁bait": 4548,
      "cil": 4549,
      "▁previously": 4550,
      "▁southeast": 4551,
      "▁distract": 4552,
      "▁huck": 4553,
      "uster": 4554,
      "▁fatal": 4555,
      "▁---------------------------------": 4556,
      "▁enjoys": 4557,
      "▁cyn": 4558,
      "▁trained": 4559,
      "▁nav": 4560,
      "tering": 4561,
      "lae": 4562,
      "▁ruy": 4563,
      "▁daniel": 4564,
      "▁beaver": 4565,
      "@esaibos.com": 4566,
      "-696": 4567,
      "▁occurs": 4568,
      "▁abcs": 4569,
      "▁dated": 4570,
      "▁75": 4571,
      "itation": 4572,
      "di": 4573,
      "▁queue": 4574,
      "▁atop": 4575,
      "▁gisb": 4576,
      "▁united": 4577,
      "▁incompreh": 4578,
      "▁http://www": 4579,
      "▁swimming": 4580,
      "▁unles": 4581,
      "▁computers": 4582,
      "▁canvas": 4583,
      "▁11.5": 4584,
      "▁ideation": 4585,
      "▁explain": 4586,
      "▁exception": 4587,
      "▁flex": 4588,
      "▁safe": 4589,
      "▁202": 4590,
      "▁hok": 4591,
      "▁abandoned": 4592,
      "▁interventions": 4593,
      "$": 4594,
      "head": 4595,
      "▁critical": 4596,
      "raz": 4597,
      "▁assured": 4598,
      "▁twisted": 4599,
      "▁imagined": 4600,
      "online": 4601,
      "/2001": 4602,
      "▁engines": 4603,
      "▁proph": 4604,
      "/2000": 4605,
      "▁normally": 4606,
      "▁resistance": 4607,
      "▁called": 4608,
      "▁dare": 4609,
      "▁chicken": 4610,
      "▁independent": 4611,
      "▁1.1": 4612,
      "▁spont": 4613,
      "▁exclusive": 4614,
      "▁s’": 4615,
      "▁opportunity": 4616,
      "▁standards": 4617,
      "▁prosp": 4618,
      "▁ours": 4619,
      "▁12,000": 4620,
      "▁1300": 4621,
      "▁indeed": 4622,
      "▁kin": 4623,
      "▁naming": 4624,
      "▁helping": 4625,
      "ening": 4626,
      "▁factory": 4627,
      "▁warn": 4628,
      "▁jellyfish": 4629,
      "/03": 4630,
      "▁sov": 4631,
      "/17/99": 4632,
      "▁linguistics": 4633,
      "▁paperwork": 4634,
      "▁fishes": 4635,
      "ums": 4636,
      "▁debut": 4637,
      "▁options": 4638,
      "ا": 4639,
      "▁penal": 4640,
      "▁females": 4641,
      "▁1820": 4642,
      "====": 4643,
      "▁wants": 4644,
      "▁pig": 4645,
      "▁skiing": 4646,
      "▁readers": 4647,
      "▁scrib": 4648,
      "▁av": 4649,
      "▁wol": 4650,
      "ibu": 4651,
      "▁eleg": 4652,
      "▁o": 4653,
      "▁format": 4654,
      "▁disp": 4655,
      "▁respected": 4656,
      "▁face": 4657,
      "▁peeling": 4658,
      "▁pronunciation": 4659,
      "▁:-)": 4660,
      "▁dfw": 4661,
      "▁pand": 4662,
      "urn": 4663,
      "▁knowing": 4664,
      "sych": 4665,
      "▁victor": 4666,
      "▁pachom": 4667,
      "▁joint": 4668,
      "ero": 4669,
      "▁graphic": 4670,
      "ections": 4671,
      "urbar": 4672,
      "▁job": 4673,
      "▁jazz": 4674,
      "▁perro": 4675,
      "alle": 4676,
      "bha-": 4677,
      "▁whereas": 4678,
      "▁going": 4679,
      "▁loving": 4680,
      "ense": 4681,
      "▁monarch": 4682,
      "▁brought": 4683,
      "worm": 4684,
      "▁continued": 4685,
      "▁ethnic": 4686,
      "▁11:00": 4687,
      "sl": 4688,
      "▁premium": 4689,
      "▁oz": 4690,
      "anagi": 4691,
      "▁recommendation": 4692,
      "▁wand": 4693,
      "ez": 4694,
      "ucker": 4695,
      "▁anyone": 4696,
      "▁facilities": 4697,
      "▁successor": 4698,
      "▁limited": 4699,
      "▁average": 4700,
      "▁ab": 4701,
      "▁mov": 4702,
      "▁tongue": 4703,
      "iqui": 4704,
      "▁48": 4705,
      "erie": 4706,
      "▁kill": 4707,
      "▁cit": 4708,
      "▁tit": 4709,
      "▁everybody": 4710,
      "▁destruction": 4711,
      "▁candle": 4712,
      "▁swap": 4713,
      "▁hamburg": 4714,
      "▁martyr": 4715,
      "▁russia": 4716,
      "3c": 4717,
      "▁hire": 4718,
      "▁treatments": 4719,
      "▁export": 4720,
      "kee": 4721,
      "▁affordable": 4722,
      "y@ect": 4723,
      "book": 4724,
      "▁restaurant": 4725,
      "▁rhodes": 4726,
      "ana": 4727,
      "▁money": 4728,
      "▁institutional": 4729,
      "▁behaviour": 4730,
      "▁nom": 4731,
      "▁jwww": 4732,
      "▁constitu": 4733,
      "▁1974": 4734,
      "▁nandakk": 4735,
      "▁rapporteur": 4736,
      "▁enr": 4737,
      "▁family": 4738,
      "▁mobile": 4739,
      "▁01:58": 4740,
      "▁sting": 4741,
      "▁representative": 4742,
      "▁percentile": 4743,
      "▁nord": 4744,
      "▁lat": 4745,
      "bow": 4746,
      "1696": 4747,
      "▁nature": 4748,
      "inqu": 4749,
      "▁heritage": 4750,
      "▁during": 4751,
      "20s": 4752,
      "▁leisure": 4753,
      "ently": 4754,
      "▁doct": 4755,
      "elt": 4756,
      "▁tomatoes": 4757,
      "▁68": 4758,
      "ro": 4759,
      "▁beginning": 4760,
      "▁intellig": 4761,
      "▁10:00": 4762,
      "▁toxic": 4763,
      "▁champ": 4764,
      "▁incub": 4765,
      "▁chamber": 4766,
      "oard": 4767,
      "▁http://www.b": 4768,
      "apes": 4769,
      "▁converted": 4770,
      "▁oppose": 4771,
      "▁theropods": 4772,
      "▁stre": 4773,
      "▁rode": 4774,
      "▁relevance": 4775,
      "▁apprec": 4776,
      "down": 4777,
      "ican": 4778,
      "▁california": 4779,
      "▁kitch": 4780,
      "▁cage": 4781,
      "▁receive": 4782,
      "-20-": 4783,
      "▁interjection": 4784,
      "onsider": 4785,
      "▁dam": 4786,
      "▁sofa": 4787,
      "▁trend": 4788,
      "▁voted": 4789,
      "▁bunny": 4790,
      "▁tendencies": 4791,
      "▁dill": 4792,
      "▁discouraging": 4793,
      "▁bm": 4794,
      "▁peer": 4795,
      "▁translating": 4796,
      "▁fleeing": 4797,
      "▁regularly": 4798,
      "▁april": 4799,
      "ipt": 4800,
      "▁balances": 4801,
      "▁funny": 4802,
      "▁gesture": 4803,
      "▁diana": 4804,
      "▁imp": 4805,
      "▁sure": 4806,
      "▁nickn": 4807,
      "▁83": 4808,
      "▁swirl": 4809,
      "▁ow": 4810,
      "▁4": 4811,
      "▁audit": 4812,
      "▁highlighting": 4813,
      "quest": 4814,
      "▁marx": 4815,
      "4gamer": 4816,
      "▁imper": 4817,
      "pi": 4818,
      "▁engaging": 4819,
      "onic": 4820,
      "▁respons": 4821,
      "▁charlotte": 4822,
      "weight": 4823,
      "▁aff": 4824,
      "▁crimin": 4825,
      "▁witnesses": 4826,
      "▁reach": 4827,
      "▁425": 4828,
      "!!": 4829,
      "▁award": 4830,
      "▁autof": 4831,
      "▁puzzle": 4832,
      "▁!!!!!!!!!!!!!!!": 4833,
      "▁acc": 4834,
      "▁brings": 4835,
      "▁hom": 4836,
      "▁motor": 4837,
      "mmet": 4838,
      "ieve": 4839,
      "▁image": 4840,
      "▁sank": 4841,
      "ilize": 4842,
      "▁pointed": 4843,
      "▁1590": 4844,
      "▁deem": 4845,
      "▁isfahan": 4846,
      "▁collateral": 4847,
      "▁03/28/2001": 4848,
      "▁sacred": 4849,
      "▁congr": 4850,
      "▁locked": 4851,
      ".m.": 4852,
      "icy": 4853,
      "▁choo": 4854,
      "|": 4855,
      "ets": 4856,
      "▁size": 4857,
      "▁assum": 4858,
      "▁11:0": 4859,
      "aviatio": 4860,
      "▁genuinely": 4861,
      "▁mour": 4862,
      "▁minn": 4863,
      "akes": 4864,
      "▁london": 4865,
      "▁cr": 4866,
      "&e": 4867,
      "▁shouting": 4868,
      "▁upd": 4869,
      "▁unst": 4870,
      "▁mous": 4871,
      "ocked": 4872,
      "▁arrive": 4873,
      "▁ackn": 4874,
      "▁eleph": 4875,
      "▁http://www.4gamer.net/news/image/2005.09/2005091": 4876,
      "▁advanced": 4877,
      "▁messed": 4878,
      "▁bul": 4879,
      "▁buttered": 4880,
      "▁contin": 4881,
      "▁army": 4882,
      "▁door": 4883,
      "oven": 4884,
      "▁ske": 4885,
      "▁departments": 4886,
      "▁tap": 4887,
      "▁expand": 4888,
      "▁relate": 4889,
      "uit": 4890,
      "▁covers": 4891,
      "▁healing": 4892,
      "▁manual": 4893,
      "▁baby": 4894,
      "▁consortium": 4895,
      "▁host": 4896,
      "rial": 4897,
      "▁grandma": 4898,
      "cl": 4899,
      "▁nar": 4900,
      "▁lie": 4901,
      "▁bassiana": 4902,
      "▁sets": 4903,
      "▁teh": 4904,
      "▁criticism": 4905,
      "▁cleveland": 4906,
      "▁ku": 4907,
      "ays": 4908,
      "▁grampy": 4909,
      "ive": 4910,
      "/8/00": 4911,
      "▁accustomed": 4912,
      "▁bid": 4913,
      ":48": 4914,
      "▁travelling": 4915,
      "▁25": 4916,
      "yth": 4917,
      "▁promising": 4918,
      "▁….": 4919,
      "▁grasp": 4920,
      "▁acres": 4921,
      "lect": 4922,
      "▁airport": 4923,
      "▁1500": 4924,
      "▁gradu": 4925,
      "▁murdered": 4926,
      "▁nj": 4927,
      "erve": 4928,
      "▁reim": 4929,
      "▁52": 4930,
      "▁sadr": 4931,
      "▁@": 4932,
      "▁threat": 4933,
      "ely": 4934,
      "▁87": 4935,
      "▁1,": 4936,
      "▁nice": 4937,
      "b": 4938,
      "▁kissed": 4939,
      "▁neolog": 4940,
      "▁boards": 4941,
      "▁advances": 4942,
      "▁abo": 4943,
      "▁jess": 4944,
      "ges": 4945,
      "▁glow": 4946,
      "chart": 4947,
      "▁1307": 4948,
      "++++": 4949,
      "▁defeated": 4950,
      "▁1115": 4951,
      "▁figure": 4952,
      "▁reminder": 4953,
      "▁but": 4954,
      "▁afternoon": 4955,
      "ulty": 4956,
      "wait": 4957,
      "▁85": 4958,
      "▁gain": 4959,
      "▁as400": 4960,
      "▁scheme": 4961,
      "▁+45": 4962,
      "eter": 4963,
      "▁appli": 4964,
      "▁handle": 4965,
      "▁2050": 4966,
      "35": 4967,
      "▁proceed": 4968,
      "__": 4969,
      "****************": 4970,
      "ds": 4971,
      "▁editions": 4972,
      "▁peaceful": 4973,
      "▁denver": 4974,
      ".g": 4975,
      "itters": 4976,
      "▁handful": 4977,
      "▁53": 4978,
      "▁mhc": 4979,
      "▁schema": 4980,
      "▁brad": 4981,
      "▁&amp;": 4982,
      "▁ringing": 4983,
      "algami": 4984,
      "▁rats": 4985,
      "▁deserves": 4986,
      "▁ambass": 4987,
      "▁elev": 4988,
      "▁conver": 4989,
      "▁lisa": 4990,
      "usters": 4991,
      "itter": 4992,
      "ito": 4993,
      "▁briefly": 4994,
      "▁accomplish": 4995,
      "▁shower": 4996,
      "▁attached": 4997,
      "▁22nd": 4998,
      "▁legal": 4999,
      "▁person": 5000,
      "▁mop": 5001,
      "▁sitara": 5002,
      "▁restored": 5003,
      "▁shipping": 5004,
      "▁clouds": 5005,
      "▁athe": 5006,
      "▁1689": 5007,
      "▁and": 5008,
      "▁410-468-3": 5009,
      "▁turistica": 5010,
      "▁stair": 5011,
      "ard": 5012,
      "▁phot": 5013,
      "fly": 5014,
      "▁sidewalk": 5015,
      "▁vice": 5016,
      "▁neg": 5017,
      "huh": 5018,
      "gel": 5019,
      "▁grades": 5020,
      "urity": 5021,
      "▁blinking": 5022,
      "▁celebration": 5023,
      "ounced": 5024,
      "club": 5025,
      "▁’ll": 5026,
      "▁feeling": 5027,
      "ander": 5028,
      "▁supports": 5029,
      "▁footage": 5030,
      "▁victims": 5031,
      "▁uhh": 5032,
      "oot": 5033,
      "▁interceptor": 5034,
      "▁dock": 5035,
      "▁amended": 5036,
      "▁squeeze": 5037,
      "▁merit": 5038,
      "▁drinks": 5039,
      "▁terrorist": 5040,
      "dd": 5041,
      "▁weeks": 5042,
      "▁performances": 5043,
      "▁11/29/2000": 5044,
      "▁bren": 5045,
      "▁painted": 5046,
      "on@ect": 5047,
      "ok": 5048,
      "ain": 5049,
      "▁investment": 5050,
      "▁flies": 5051,
      "▁path": 5052,
      "▁follows": 5053,
      "▁twel": 5054,
      "³": 5055,
      "▁sorry": 5056,
      "▁guard": 5057,
      "▁bowl": 5058,
      "▁pet": 5059,
      "▁described": 5060,
      "▁authorized": 5061,
      "▁magnificent": 5062,
      "▁260": 5063,
      "▁oatm": 5064,
      "▁whe": 5065,
      "▁officially": 5066,
      "▁russell": 5067,
      "▁inclusive": 5068,
      "▁turnpike": 5069,
      "▁couns": 5070,
      "arked": 5071,
      "295": 5072,
      "▁buck": 5073,
      "▁episode": 5074,
      "▁obligations": 5075,
      "▁ciao": 5076,
      "▁leads": 5077,
      "▁plaint": 5078,
      "▁dealer": 5079,
      "ight": 5080,
      "▁1988": 5081,
      "▁looks": 5082,
      "▁814.86": 5083,
      "▁speed": 5084,
      "▁nonna": 5085,
      "▁hundred": 5086,
      "▁shake": 5087,
      "▁shirt": 5088,
      "▁trust": 5089,
      "▁datasheet": 5090,
      "▁inh": 5091,
      "iliar": 5092,
      "▁numerous": 5093,
      "▁skin": 5094,
      "▁decre": 5095,
      "▁password": 5096,
      "▁carroll": 5097,
      "0th": 5098,
      "▁mohammed": 5099,
      "▁profess": 5100,
      "▁penc": 5101,
      "▁hotel": 5102,
      "▁honorable": 5103,
      "ram": 5104,
      "uation": 5105,
      "aint": 5106,
      "▁hur": 5107,
      "▁gregg": 5108,
      "▁demonstrated": 5109,
      "akers": 5110,
      "8/2001": 5111,
      "▁uniqu": 5112,
      "enger": 5113,
      "▁friends": 5114,
      "▁displayed": 5115,
      "▁atomic": 5116,
      "▁incomes": 5117,
      "uments": 5118,
      "▁angry": 5119,
      "▁kenn": 5120,
      "▁waive": 5121,
      "▁antibiotics": 5122,
      "iet": 5123,
      "▁pick": 5124,
      "▁warming": 5125,
      "awah": 5126,
      "▁edge": 5127,
      "▁racket": 5128,
      "▁relax": 5129,
      "▁text": 5130,
      "▁sm": 5131,
      "go": 5132,
      "▁spok": 5133,
      "▁elevator": 5134,
      "▁aggreg": 5135,
      "▁poems": 5136,
      "▁theatre": 5137,
      "elpaso": 5138,
      "▁dursleys": 5139,
      "▁5,000": 5140,
      "▁despite": 5141,
      "▁pencils": 5142,
      "▁electricity": 5143,
      "▁roar": 5144,
      "▁annex": 5145,
      "▁retal": 5146,
      "▁danny": 5147,
      "▁grill": 5148,
      "▁wak": 5149,
      "▁bla": 5150,
      "▁semin": 5151,
      "▁>>": 5152,
      "▁labour": 5153,
      "ure": 5154,
      "▁easily": 5155,
      "▁charity": 5156,
      "▁usually": 5157,
      "▁protecting": 5158,
      "hole": 5159,
      "▁simple": 5160,
      "▁bce": 5161,
      "▁suggestions": 5162,
      "▁’s": 5163,
      "▁injured": 5164,
      "▁attorneys": 5165,
      "▁sacrifice": 5166,
      "▁politics": 5167,
      "ys": 5168,
      "▁fortun": 5169,
      "▁interp": 5170,
      "▁poetry": 5171,
      "▁1575": 5172,
      "12": 5173,
      "▁pinch": 5174,
      ".b": 5175,
      "▁leonard": 5176,
      "-m": 5177,
      "▁wherever": 5178,
      "▁factions": 5179,
      "▁72": 5180,
      "77": 5181,
      "▁1-800-991-9": 5182,
      "▁estimated": 5183,
      "▁mr": 5184,
      "▁amazed": 5185,
      "▁occ": 5186,
      "/17/2000": 5187,
      "▁neu": 5188,
      "word": 5189,
      "301": 5190,
      "▁rushed": 5191,
      "inal": 5192,
      "▁defended": 5193,
      "▁dg": 5194,
      "▁own": 5195,
      "▁council": 5196,
      "▁nobody": 5197,
      "▁grizz": 5198,
      "▁clearly": 5199,
      "▁genes": 5200,
      "chant": 5201,
      "▁cuckoo": 5202,
      "▁terror": 5203,
      "asters": 5204,
      "ishment": 5205,
      "▁timely": 5206,
      "▁vodka": 5207,
      "▁stressed": 5208,
      "▁clin": 5209,
      "6021": 5210,
      "▁ann": 5211,
      "▁pant": 5212,
      "▁carol.st": 5213,
      "▁1997": 5214,
      "▁tik": 5215,
      "▁volunt": 5216,
      "▁patient": 5217,
      "▁pentagon": 5218,
      "▁antioch": 5219,
      "▁experimental": 5220,
      "▁recon": 5221,
      "/30": 5222,
      "▁recommendations": 5223,
      "iness": 5224,
      "▁cited": 5225,
      "andy": 5226,
      "111": 5227,
      "▁tsar": 5228,
      "▁appreciation": 5229,
      "▁stress": 5230,
      "▁farmer": 5231,
      "▁dise": 5232,
      "▁threatened": 5233,
      "▁ensured": 5234,
      "▁museum": 5235,
      "▁obviously": 5236,
      "▁values": 5237,
      "▁procedure": 5238,
      "▁por": 5239,
      "▁seaman": 5240,
      "▁reconcil": 5241,
      "▁monitor": 5242,
      "▁ehow": 5243,
      "ambling": 5244,
      "▁hob": 5245,
      "▁boing": 5246,
      "▁stickerbirds": 5247,
      "▁histor": 5248,
      "▁undert": 5249,
      "of": 5250,
      "mon": 5251,
      "▁thereby": 5252,
      "▁stomach": 5253,
      "▁include": 5254,
      "23": 5255,
      "▁insult": 5256,
      "▁ave": 5257,
      "▁migration": 5258,
      "▁commands": 5259,
      "▁toronto": 5260,
      "▁cell": 5261,
      "▁identifies": 5262,
      "▁yellowstone": 5263,
      "▁appropriations": 5264,
      "▁b.": 5265,
      "▁marriage": 5266,
      "▁thames": 5267,
      "tta": 5268,
      "▁barnes": 5269,
      "▁2,000": 5270,
      "▁bye": 5271,
      "rop": 5272,
      "▁dea": 5273,
      "▁responses": 5274,
      "▁future": 5275,
      "▁22": 5276,
      "▁major": 5277,
      "apt": 5278,
      "▁skirt": 5279,
      "-w": 5280,
      "▁supper": 5281,
      ".j": 5282,
      "ural": 5283,
      "aren": 5284,
      "▁brutal": 5285,
      "od": 5286,
      "▁pollution": 5287,
      "▁waves": 5288,
      "▁gloom": 5289,
      "▁which": 5290,
      "▁416-8": 5291,
      "▁approaches": 5292,
      "▁24.7": 5293,
      "▁symbols": 5294,
      "▁neighb": 5295,
      "▁excited": 5296,
      "ata": 5297,
      "▁rin": 5298,
      "▁heart": 5299,
      "▁broadcast": 5300,
      "▁orientation": 5301,
      "▁rocks": 5302,
      "▁logical": 5303,
      "vert": 5304,
      "▁psychology": 5305,
      "▁ethics": 5306,
      "▁yorkshire": 5307,
      "▁productivity": 5308,
      "▁burbank": 5309,
      "▁sanders": 5310,
      "rum": 5311,
      "bby": 5312,
      "▁riding": 5313,
      "▁49": 5314,
      "▁dr.": 5315,
      "▁415.782": 5316,
      "____": 5317,
      "▁installing": 5318,
      "▁outlets": 5319,
      "▁correct": 5320,
      "unh": 5321,
      "▁sand": 5322,
      "▁grab": 5323,
      "▁_": 5324,
      "▁told": 5325,
      "▁waved": 5326,
      "▁ich": 5327,
      "▁anticip": 5328,
      "▁calling": 5329,
      "▁taller": 5330,
      "alam": 5331,
      "▁everyone": 5332,
      "▁plain": 5333,
      "ball": 5334,
      "▁peop": 5335,
      "▁iodised": 5336,
      ".com": 5337,
      "▁warwick": 5338,
      "▁prayer": 5339,
      "▁always": 5340,
      "▁getting": 5341,
      "▁nt": 5342,
      "▁fourth": 5343,
      "ipped": 5344,
      "▁stone": 5345,
      "▁713-853-3989": 5346,
      "▁lacking": 5347,
      "▁sen": 5348,
      "ported": 5349,
      "▁flav": 5350,
      "▁strike": 5351,
      "▁squir": 5352,
      "▁harris": 5353,
      "▁im": 5354,
      "ord": 5355,
      "▁doughnut": 5356,
      "▁everything": 5357,
      "▁easter": 5358,
      "▁notch": 5359,
      "▁6,000": 5360,
      "ennese": 5361,
      "ios": 5362,
      "▁prize": 5363,
      "▁dusty": 5364,
      "▁harvard": 5365,
      "av": 5366,
      "isely": 5367,
      "▁bun": 5368,
      "▁comes": 5369,
      "illy": 5370,
      "▁creativity": 5371,
      "▁tim": 5372,
      "▁muffin": 5373,
      "ied": 5374,
      "▁cha": 5375,
      "▁wholly": 5376,
      "▁provinc": 5377,
      "arraf": 5378,
      "▁pled": 5379,
      "▁squirrels": 5380,
      "d-#693": 5381,
      "▁1840": 5382,
      "dad": 5383,
      "▁reve": 5384,
      "▁unbeliev": 5385,
      "▁surrounding": 5386,
      "ica": 5387,
      "▁inch": 5388,
      "▁alt.animals": 5389,
      "▁authorship": 5390,
      "▁thous": 5391,
      "▁may": 5392,
      "▁!!!!!!!": 5393,
      "mine": 5394,
      "▁equine": 5395,
      "▁arbit": 5396,
      "ument": 5397,
      "▁growing": 5398,
      "▁rust": 5399,
      "▁teach": 5400,
      "▁fate": 5401,
      "▁jons": 5402,
      "▁dost": 5403,
      "▁th": 5404,
      "▁talk": 5405,
      "▁pop": 5406,
      "▁boat": 5407,
      "▁jen": 5408,
      "92": 5409,
      "▁1604": 5410,
      "▁hierarch": 5411,
      "▁our": 5412,
      "▁homeopath": 5413,
      "ources": 5414,
      "▁fer": 5415,
      "▁hor": 5416,
      "rism": 5417,
      "▁chalkboard": 5418,
      "▁mco": 5419,
      "win": 5420,
      "▁particip": 5421,
      "▁vs.": 5422,
      "▁solve": 5423,
      "dulo": 5424,
      "▁reflection": 5425,
      "▁7th": 5426,
      "ancement": 5427,
      "▁mcc": 5428,
      "▁than": 5429,
      "▁pull": 5430,
      "▁inevitable": 5431,
      "▁unc": 5432,
      "▁lex": 5433,
      "▁moreau": 5434,
      "oice": 5435,
      "▁louis": 5436,
      "▁listening": 5437,
      "▁p.m.": 5438,
      "▁indonesia": 5439,
      "▁property": 5440,
      "▁uv": 5441,
      "▁weakened": 5442,
      "ann": 5443,
      "▁dating": 5444,
      "▁terry": 5445,
      "etery": 5446,
      "▁cz": 5447,
      "▁workshops": 5448,
      "ikh": 5449,
      ".10": 5450,
      "ade": 5451,
      "is_0": 5452,
      "3": 5453,
      "iograph": 5454,
      "▁connect": 5455,
      "▁accept": 5456,
      "ronic": 5457,
      "bers": 5458,
      "la": 5459,
      "▁sized": 5460,
      "▁becom": 5461,
      "tered": 5462,
      "▁end": 5463,
      "▁wilder": 5464,
      "▁huge": 5465,
      "eth": 5466,
      "▁move": 5467,
      "▁passage": 5468,
      "orescent": 5469,
      "▁competing": 5470,
      "▁parakeet": 5471,
      "ioned": 5472,
      "▁disneyland": 5473,
      "▁---=": 5474,
      "▁des": 5475,
      "▁pcbs": 5476,
      "▁married": 5477,
      "▁clip": 5478,
      "▁filtering": 5479,
      "▁walnut": 5480,
      "▁ratt": 5481,
      "▁meh-r": 5482,
      "▁comprehensive": 5483,
      "aiss": 5484,
      "▁cig": 5485,
      "▁....": 5486,
      "▁grabbed": 5487,
      "▁shove": 5488,
      "`": 5489,
      "▁official": 5490,
      "iring": 5491,
      "▁1982": 5492,
      "▁bath+room": 5493,
      "▁tray": 5494,
      "▁winds": 5495,
      "▁rece": 5496,
      "▁483": 5497,
      "▁mhm": 5498,
      "emy": 5499,
      "▁1949": 5500,
      "▁missile": 5501,
      "▁cleared": 5502,
      "▁expert": 5503,
      "▁nonsense": 5504,
      "▁jump": 5505,
      "▁crap": 5506,
      "▁springs": 5507,
      "▁empirical": 5508,
      "▁rwww": 5509,
      "▁passion": 5510,
      "▁entering": 5511,
      "mus": 5512,
      "▁rod": 5513,
      "71": 5514,
      "ber": 5515,
      "▁sin": 5516,
      "▁anyways": 5517,
      "▁carn": 5518,
      "▁corresponding": 5519,
      "▁conflicts": 5520,
      "▁knows": 5521,
      "gue": 5522,
      "erc": 5523,
      "▁kane": 5524,
      "▁sochi": 5525,
      "▁proclaimed": 5526,
      ".ed": 5527,
      "7th": 5528,
      "▁widespread": 5529,
      "▁colom": 5530,
      "▁occupation": 5531,
      "▁overs": 5532,
      "ress": 5533,
      "▁araf": 5534,
      "▁audiences": 5535,
      "ug": 5536,
      "▁gun": 5537,
      "▁elephant": 5538,
      "▁ordinary": 5539,
      "▁fost": 5540,
      "ners": 5541,
      "▁primary": 5542,
      "▁leg": 5543,
      "mines": 5544,
      "▁cooperate": 5545,
      "▁elderly": 5546,
      "▁did": 5547,
      "▁default": 5548,
      "ond": 5549,
      "▁affection": 5550,
      "▁clar": 5551,
      "▁notify": 5552,
      "▁acquisition": 5553,
      "▁dischar": 5554,
      "▁albeit": 5555,
      "▁artists": 5556,
      "▁andril": 5557,
      "▁sought": 5558,
      "▁disg": 5559,
      "▁mosques": 5560,
      "▁curtain": 5561,
      "▁cray": 5562,
      "▁alt.animals.c": 5563,
      "津": 5564,
      "▁civil": 5565,
      "▁rav": 5566,
      "ipop": 5567,
      "fri": 5568,
      "dr": 5569,
      "▁pretend": 5570,
      "len": 5571,
      "workers": 5572,
      "▁ouij": 5573,
      "osexual": 5574,
      "▁brian": 5575,
      "▁gilderoy": 5576,
      "ipe": 5577,
      "▁vital": 5578,
      "▁cleaning": 5579,
      "▁yahoo": 5580,
      "ined": 5581,
      "▁monster": 5582,
      "▁k": 5583,
      "▁friendly": 5584,
      "ded": 5585,
      "▁universal": 5586,
      "24": 5587,
      "▁jet": 5588,
      "▁motivation": 5589,
      "bon": 5590,
      "▁late": 5591,
      "▁acceptance": 5592,
      "▁sou": 5593,
      "▁2010": 5594,
      "▁murderers": 5595,
      "▁forwarded": 5596,
      "wa": 5597,
      "isters": 5598,
      "▁uns": 5599,
      "▁craw": 5600,
      "▁coordinate": 5601,
      "▁senate": 5602,
      "▁proposing": 5603,
      "▁mutil": 5604,
      "▁hamlet": 5605,
      "▁loll": 5606,
      "igu": 5607,
      "▁3:30": 5608,
      "▁lapt": 5609,
      "bie": 5610,
      "▁unhunh": 5611,
      "▁surround": 5612,
      "▁says": 5613,
      "etically": 5614,
      "employ": 5615,
      "▁helped": 5616,
      "▁festival": 5617,
      "▁congrat": 5618,
      "▁styl": 5619,
      "▁2019": 5620,
      "vals": 5621,
      "▁predicted": 5622,
      "▁prec": 5623,
      "▁stand": 5624,
      "▁×": 5625,
      "▁endless": 5626,
      "▁900": 5627,
      "▁networks": 5628,
      "▁large": 5629,
      "▁offering": 5630,
      "▁der": 5631,
      "▁english": 5632,
      "▁squee": 5633,
      "▁pitter": 5634,
      "▁cake": 5635,
      "▁leaves": 5636,
      "ength": 5637,
      "▁decisions": 5638,
      "▁envelop": 5639,
      "▁she": 5640,
      "▁procedures": 5641,
      "▁tails": 5642,
      "atics": 5643,
      "▁viet": 5644,
      "▁car": 5645,
      "▁checking": 5646,
      "▁prove": 5647,
      "▁opp": 5648,
      "▁observ": 5649,
      "▁oklah": 5650,
      "▁sponge": 5651,
      "▁pent": 5652,
      "▁202.456.1414": 5653,
      "▁spa": 5654,
      "atom": 5655,
      "▁selection": 5656,
      "king": 5657,
      "▁outr": 5658,
      "▁montreal": 5659,
      "@n": 5660,
      "▁although": 5661,
      "▁suggests": 5662,
      "▁wrest": 5663,
      "▁spoon": 5664,
      "don": 5665,
      "-10": 5666,
      "▁banjo": 5667,
      "▁sheik": 5668,
      "▁non-": 5669,
      "ifying": 5670,
      "▁1647": 5671,
      "▁happiness": 5672,
      "▁zer": 5673,
      "▁friday": 5674,
      "isb": 5675,
      "▁de": 5676,
      "me": 5677,
      "▁collar": 5678,
      "▁passenger": 5679,
      "▁ansi": 5680,
      "▁typically": 5681,
      "▁ontario": 5682,
      "▁|--------+----------------------->": 5683,
      "▁manhattan": 5684,
      "▁1878": 5685,
      "▁exceed": 5686,
      "▁notwithstanding": 5687,
      "▁fourteenth": 5688,
      "▁hi": 5689,
      "▁weekly": 5690,
      "▁stipulation": 5691,
      "▁fashioned": 5692,
      "▁colle": 5693,
      "▁backed": 5694,
      "▁fresh": 5695,
      "leen": 5696,
      "▁receipt": 5697,
      "▁281-44": 5698,
      "▁scent": 5699,
      "▁wrongdo": 5700,
      "▁improvement": 5701,
      "utes": 5702,
      "os.com": 5703,
      "▁modes": 5704,
      "▁naz": 5705,
      "wood": 5706,
      "▁bearded": 5707,
      "----------------": 5708,
      "▁mit": 5709,
      "▁arkansas": 5710,
      "▁circumstances": 5711,
      "▁que": 5712,
      "anim": 5713,
      "▁intervals": 5714,
      "▁occurring": 5715,
      "▁jelly": 5716,
      "▁served": 5717,
      "22,000": 5718,
      "▁transformation": 5719,
      "t": 5720,
      "▁prevented": 5721,
      "▁hook": 5722,
      "▁sha'lan": 5723,
      "▁183": 5724,
      "▁nap": 5725,
      "▁reference": 5726,
      "▁mask": 5727,
      "▁sits": 5728,
      "iced": 5729,
      "-50": 5730,
      "vi": 5731,
      "▁defines": 5732,
      "▁minneapolis": 5733,
      "葉": 5734,
      "▁1990": 5735,
      "usion": 5736,
      "▁ridiculous": 5737,
      "▁shah": 5738,
      "▁hou": 5739,
      "▁sunn": 5740,
      "▁antonio": 5741,
      "▁empire": 5742,
      "beque": 5743,
      "▁placed": 5744,
      "▁gren": 5745,
      "▁powell": 5746,
      "▁remark": 5747,
      "▁banner": 5748,
      "▁rate": 5749,
      "▁1805": 5750,
      "▁penalty": 5751,
      "▁nyl": 5752,
      "▁nicobar": 5753,
      "▁envelopes": 5754,
      "▁1902": 5755,
      "▁observe": 5756,
      "mail": 5757,
      "▁targets": 5758,
      "▁colorado": 5759,
      "▁giant": 5760,
      "▁charges": 5761,
      "▁claws": 5762,
      "▁resist": 5763,
      "osy": 5764,
      "night": 5765,
      "▁security": 5766,
      "▁1.4": 5767,
      "ick": 5768,
      "so": 5769,
      "▁certainly": 5770,
      "▁int": 5771,
      "▁olympics": 5772,
      "▁pit": 5773,
      "▁system": 5774,
      "oos": 5775,
      "▁formidable": 5776,
      "▁pen": 5777,
      "/26/2001": 5778,
      "▁hour": 5779,
      "▁awkward": 5780,
      "▁hens": 5781,
      "dp": 5782,
      "▁switzer": 5783,
      "▁afghanistan": 5784,
      "▁even": 5785,
      "▁51": 5786,
      "▁ninety": 5787,
      "▁reduction": 5788,
      "▁fri": 5789,
      "▁construction": 5790,
      "▁suspect": 5791,
      "▁drunk": 5792,
      "▁float": 5793,
      "▁betty": 5794,
      "▁video": 5795,
      "▁supplied": 5796,
      "icient": 5797,
      "▁breed": 5798,
      "▁consciousness": 5799,
      "▁st.": 5800,
      "▁buddy": 5801,
      "▁hold": 5802,
      "erous": 5803,
      "▁true": 5804,
      "▁bare": 5805,
      "▁14th": 5806,
      "▁stew": 5807,
      "▁key": 5808,
      "▁feasible": 5809,
      "▁liberation": 5810,
      "▁sweden": 5811,
      "▁hiring": 5812,
      "itzer": 5813,
      "▁elephants": 5814,
      "▁adorn": 5815,
      "▁playing": 5816,
      "▁cir": 5817,
      "▁thin": 5818,
      "▁travelled": 5819,
      "▁intelligent": 5820,
      "▁kept": 5821,
      "▁1977": 5822,
      "▁coal": 5823,
      "oid": 5824,
      "▁veggies": 5825,
      "ottie": 5826,
      "▁tulsa": 5827,
      "▁u.s.": 5828,
      "▁doub": 5829,
      "age": 5830,
      "▁folks": 5831,
      "▁safet": 5832,
      "▁localist": 5833,
      "asy": 5834,
      "▁apple": 5835,
      "▁evolutionary": 5836,
      "rels": 5837,
      "▁stopped": 5838,
      "▁charge": 5839,
      "▁bush": 5840,
      "▁firstly": 5841,
      "▁1968": 5842,
      "44": 5843,
      "iar": 5844,
      "-kedne": 5845,
      "▁syria": 5846,
      "▁infer": 5847,
      "▁cos": 5848,
      "▁suffered": 5849,
      "▁spoke": 5850,
      "▁shakespearean": 5851,
      "9.3": 5852,
      "tc": 5853,
      "onymous": 5854,
      "▁mind": 5855,
      "▁climate": 5856,
      "▁guest": 5857,
      "▁convention": 5858,
      "▁bernoul": 5859,
      "ercial": 5860,
      "▁oppos": 5861,
      "▁mid": 5862,
      "▁collaboration": 5863,
      "▁banknot": 5864,
      "itivity": 5865,
      ":17": 5866,
      "viatio": 5867,
      "▁consequ": 5868,
      "▁prev": 5869,
      "▁phailin": 5870,
      "▁extrad": 5871,
      "▁german": 5872,
      "▁brown": 5873,
      "iving": 5874,
      "▁complicated": 5875,
      "elle": 5876,
      "▁colonial": 5877,
      "▁fingers": 5878,
      "▁article": 5879,
      "▁718": 5880,
      "▁bold": 5881,
      "▁fiction": 5882,
      "▁outdoors": 5883,
      "rible": 5884,
      "▁onto": 5885,
      "▁vendors": 5886,
      "▁erase": 5887,
      "▁evely": 5888,
      "▁len": 5889,
      "▁completion": 5890,
      "▁chap": 5891,
      "▁channel": 5892,
      "▁smugg": 5893,
      "▁absolute": 5894,
      "▁volunteer": 5895,
      "mem": 5896,
      "▁yn": 5897,
      "ania": 5898,
      "▁argentina": 5899,
      "▁non-avian": 5900,
      "▁abstract": 5901,
      "-)": 5902,
      "▁flaw": 5903,
      "▁poster": 5904,
      "▁contexts": 5905,
      "aq": 5906,
      "▁ath": 5907,
      "▁varying": 5908,
      "▁desp": 5909,
      "▁sixteenth": 5910,
      "pg": 5911,
      "▁identifying": 5912,
      "fet": 5913,
      "▁regulation": 5914,
      "yond": 5915,
      "▁·": 5916,
      "▁nanny": 5917,
      "ipper": 5918,
      "essive": 5919,
      "▁embass": 5920,
      "▁flea": 5921,
      "▁coincidence": 5922,
      "▁obst": 5923,
      "uction": 5924,
      "▁8": 5925,
      "sen": 5926,
      "▁tasting": 5927,
      "▁mosquitoes": 5928,
      "▁asymmetrical": 5929,
      "▁storing": 5930,
      "▁orders": 5931,
      "▁theatrical": 5932,
      "pp": 5933,
      "9/2000": 5934,
      "▁dict": 5935,
      "le": 5936,
      "▁bert": 5937,
      "▁gw": 5938,
      "▁exclaim": 5939,
      "▁713-853-1696": 5940,
      "ley": 5941,
      "▁queries": 5942,
      "▁ven": 5943,
      "▁ought": 5944,
      "▁diaper": 5945,
      "▁reaching": 5946,
      "▁amid": 5947,
      "bro": 5948,
      "esh": 5949,
      "▁bat": 5950,
      ".4": 5951,
      "▁sugg": 5952,
      "▁repeatedly": 5953,
      "▁excessive": 5954,
      "▁aberde": 5955,
      "▁complement": 5956,
      "▁referend": 5957,
      "▁cod": 5958,
      "ile": 5959,
      "▁development": 5960,
      "imony": 5961,
      "▁liked": 5962,
      "▁awake": 5963,
      "▁specify": 5964,
      "▁1978": 5965,
      "nondel": 5966,
      "▁suspicion": 5967,
      "iable": 5968,
      "▁2500": 5969,
      "▁effects": 5970,
      "▁shif": 5971,
      "==============": 5972,
      "▁locomotion": 5973,
      "▁silkie": 5974,
      "isions": 5975,
      "▁offshore": 5976,
      "lear": 5977,
      "▁ultim": 5978,
      "▁asked": 5979,
      "▁dots": 5980,
      "d": 5981,
      "▁registration": 5982,
      "▁whis": 5983,
      "▁spell": 5984,
      "▁grip": 5985,
      "▁800-553-3119": 5986,
      "▁protein": 5987,
      "▁mus": 5988,
      "▁vir": 5989,
      "▁norway": 5990,
      "▁good": 5991,
      "▁valentine": 5992,
      "▁counter": 5993,
      "ptive": 5994,
      "ership": 5995,
      "▁tro": 5996,
      "itement": 5997,
      "▁15,000": 5998,
      "▁-----------------------------------------------------------------": 5999,
      "▁scissors": 6000,
      "!!!!": 6001,
      "adar": 6002,
      "▁strait": 6003,
      "▁transwestern": 6004,
      "▁mailing": 6005,
      "▁eliminated": 6006,
      "▁vegan": 6007,
      "nets": 6008,
      "▁supers": 6009,
      "▁grocery": 6010,
      "▁soil": 6011,
      "▁°": 6012,
      "▁enrongss.xls": 6013,
      "tax": 6014,
      "▁writ": 6015,
      "▁nursies": 6016,
      "▁rome": 6017,
      "▁crop": 6018,
      "▁founder": 6019,
      "▁pending": 6020,
      "▁param": 6021,
      "▁heights": 6022,
      "▁cri": 6023,
      "▁considered": 6024,
      "▁pictures": 6025,
      "▁defense": 6026,
      "▁pipe": 6027,
      "▁nmem": 6028,
      "▁oval": 6029,
      "▁referring": 6030,
      "▁changes": 6031,
      "▁canc": 6032,
      "▁overchar": 6033,
      "▁caus": 6034,
      "▁wondered": 6035,
      "▁napkin": 6036,
      "▁jes": 6037,
      "▁2020": 6038,
      "▁curt": 6039,
      "▁epist": 6040,
      "▁derived": 6041,
      "▁stun": 6042,
      "get": 6043,
      "▁shark": 6044,
      "▁bent": 6045,
      "▁hipp": 6046,
      "▁50,000": 6047,
      "▁reconst": 6048,
      "▁verify": 6049,
      "▁curve": 6050,
      "▁resolution": 6051,
      "▁broader": 6052,
      "▁no.": 6053,
      "▁stock": 6054,
      "▁whit": 6055,
      "▁struck": 6056,
      "▁professionally": 6057,
      "▁102": 6058,
      "▁laura": 6059,
      "▁pud": 6060,
      "▁ethn": 6061,
      "verance": 6062,
      "▁fits": 6063,
      "▁hopefully": 6064,
      "▁sh-": 6065,
      "▁commons": 6066,
      "▁malfoy": 6067,
      "esis": 6068,
      "▁5000": 6069,
      "▁1960s": 6070,
      "▁network": 6071,
      "▁amidst": 6072,
      "▁liz": 6073,
      "▁slim": 6074,
      "▁finds": 6075,
      "▁males": 6076,
      "▁tr": 6077,
      "▁fever": 6078,
      "▁slowly": 6079,
      "▁liquid": 6080,
      ".asp": 6081,
      "▁crad": 6082,
      "enses": 6083,
      "▁gif": 6084,
      "anks": 6085,
      "▁10,000": 6086,
      "▁chatting": 6087,
      "▁sweep": 6088,
      "0": 6089,
      "▁e-mail": 6090,
      "°": 6091,
      "▁scholar": 6092,
      "▁http://www.": 6093,
      "▁11:30": 6094,
      "▁1583": 6095,
      "▁renowned": 6096,
      "▁desired": 6097,
      "▁************************************************": 6098,
      "▁huit": 6099,
      "▁characterized": 6100,
      "▁equity": 6101,
      "▁linguistic": 6102,
      "oren": 6103,
      "▁we": 6104,
      "’": 6105,
      "▁momma": 6106,
      "▁receives": 6107,
      "▁shores": 6108,
      "▁sort": 6109,
      "▁shobha-": 6110,
      "▁ambition": 6111,
      "ishly": 6112,
      "-468-3": 6113,
      "▁surger": 6114,
      "▁cooper": 6115,
      "▁blocks": 6116,
      "▁baker": 6117,
      "▁sat": 6118,
      "▁restrictions": 6119,
      "▁donated": 6120,
      "-1.doc": 6121,
      "▁-stip": 6122,
      "day": 6123,
      "▁temples": 6124,
      "▁absurd": 6125,
      "▁7.2": 6126,
      "▁hjal": 6127,
      "ability": 6128,
      "▁create": 6129,
      "▁shit": 6130,
      "astroph": 6131,
      "========": 6132,
      "acion": 6133,
      "▁ou": 6134,
      "▁xml": 6135,
      "▁wikipedia": 6136,
      "▁swept": 6137,
      "▁jason": 6138,
      "▁anderson": 6139,
      "▁713-654-1281": 6140,
      "▁surviving": 6141,
      "▁nwww": 6142,
      "lied": 6143,
      "ought": 6144,
      "▁no-6": 6145,
      "▁sell": 6146,
      "▁es": 6147,
      "▁unknown": 6148,
      "▁metaph": 6149,
      "▁intercom": 6150,
      "▁disabled": 6151,
      ".0": 6152,
      "mi": 6153,
      "▁sweet": 6154,
      "▁fem": 6155,
      "▁transparency": 6156,
      "itting": 6157,
      "entives": 6158,
      "▁pericles": 6159,
      "▁conversations": 6160,
      "▁ok": 6161,
      "▁bears": 6162,
      "▁principle": 6163,
      "▁solas": 6164,
      "▁levels": 6165,
      "▁internet": 6166,
      "▁feature": 6167,
      "▁relates": 6168,
      "▁recipients": 6169,
      "▁eliminate": 6170,
      "▁295870": 6171,
      "▁shaking": 6172,
      "▁manh": 6173,
      "▁wayne": 6174,
      "orders": 6175,
      "▁miss": 6176,
      "▁societal": 6177,
      "▁social": 6178,
      "▁features": 6179,
      "▁benefits": 6180,
      "▁perpet": 6181,
      "hea": 6182,
      ".09": 6183,
      "▁damasc": 6184,
      "▁durham": 6185,
      "▁novelist": 6186,
      "▁hey": 6187,
      "▁governments": 6188,
      "▁crisp": 6189,
      "▁gramm": 6190,
      "▁associ": 6191,
      "▁debt": 6192,
      "person": 6193,
      "▁perez": 6194,
      "▁dando": 6195,
      "▁so-c": 6196,
      "▁resulted": 6197,
      "▁hiking": 6198,
      "▁consume": 6199,
      "▁displaced": 6200,
      "▁16.3": 6201,
      "-t": 6202,
      "-st": 6203,
      "▁delayed": 6204,
      "▁specialized": 6205,
      "▁canon": 6206,
      "▁quiet": 6207,
      "▁liter": 6208,
      "▁novel": 6209,
      "▁caught": 6210,
      "roll": 6211,
      "▁fought": 6212,
      "▁go": 6213,
      "▁currents": 6214,
      "▁'m": 6215,
      "▁proud": 6216,
      "▁discover": 6217,
      "ively": 6218,
      "▁violence": 6219,
      "▁eich": 6220,
      "▁supernatural": 6221,
      "▁list": 6222,
      "▁newspaper": 6223,
      "▁cott": 6224,
      "hou": 6225,
      "▁carbon": 6226,
      "icity": 6227,
      "▁curb": 6228,
      "▁leader": 6229,
      "▁hajj": 6230,
      "▁dramatic": 6231,
      "▁families": 6232,
      "l": 6233,
      "ury": 6234,
      "▁lott": 6235,
      "▁raid": 6236,
      "▁win": 6237,
      "▁front": 6238,
      "▁pressure": 6239,
      "▁flower": 6240,
      "inson": 6241,
      "▁carries": 6242,
      "▁contribution": 6243,
      "▁winking": 6244,
      "bar": 6245,
      "on@enron": 6246,
      "▁hardness": 6247,
      "▁india": 6248,
      "▁factor": 6249,
      "▁situ": 6250,
      "▁ident": 6251,
      "▁politic": 6252,
      "▁salesman": 6253,
      "▁based": 6254,
      "▁adjust": 6255,
      "▁beef": 6256,
      "oub": 6257,
      "t.": 6258,
      "▁extended": 6259,
      "▁fusca": 6260,
      "▁virtual": 6261,
      "▁unanimously": 6262,
      "hill": 6263,
      "orie": 6264,
      "▁moreover": 6265,
      "@t": 6266,
      "▁lexical": 6267,
      "▁regist": 6268,
      "angu": 6269,
      "nov": 6270,
      "▁poop": 6271,
      "yard": 6272,
      "▁rated": 6273,
      "▁hyatt": 6274,
      "▁fallujah": 6275,
      "▁struggle": 6276,
      "to": 6277,
      "jan": 6278,
      "▁stom": 6279,
      "▁filled": 6280,
      "▁doggie": 6281,
      "▁appropriate": 6282,
      "▁constructed": 6283,
      "▁llc": 6284,
      "load": 6285,
      "▁urgent": 6286,
      "▁plays": 6287,
      "▁shorts": 6288,
      "▁uneasy": 6289,
      "▁415.621": 6290,
      "▁crashed": 6291,
      "▁sut": 6292,
      "▁mcdonalds": 6293,
      "▁weeds": 6294,
      "▁simult": 6295,
      "▁piec": 6296,
      "▁distinguished": 6297,
      "▁cultures": 6298,
      "▁becomes": 6299,
      "▁tempor": 6300,
      "▁meat": 6301,
      "▁painful": 6302,
      "▁claims": 6303,
      "▁colon": 6304,
      "utz": 6305,
      "▁----==": 6306,
      "▁snakes": 6307,
      "▁primarily": 6308,
      "▁silk": 6309,
      "▁rolling": 6310,
      "▁:p": 6311,
      "▁reinfor": 6312,
      "▁factors": 6313,
      "▁patty": 6314,
      "▁structure": 6315,
      "▁abd": 6316,
      "▁pail": 6317,
      "▁handker": 6318,
      "▁muse": 6319,
      "▁loose": 6320,
      "▁ken": 6321,
      "▁holoca": 6322,
      "26": 6323,
      "▁aro": 6324,
      "iki": 6325,
      "▁technically": 6326,
      "▁salinity": 6327,
      "▁arrang": 6328,
      "▁landed": 6329,
      "▁abb": 6330,
      "arm": 6331,
      "▁colours": 6332,
      "▁cat": 6333,
      "▁moder": 6334,
      "pt": 6335,
      "▁toast": 6336,
      "▁fat": 6337,
      "▁ends": 6338,
      "▁143": 6339,
      "▁crops": 6340,
      "▁alone": 6341,
      "▁cav": 6342,
      "▁brass": 6343,
      "▁emphas": 6344,
      "▁basil": 6345,
      "▁walmart": 6346,
      "▁colorful": 6347,
      "▁remod": 6348,
      "▁postp": 6349,
      "aken": 6350,
      "▁130": 6351,
      "▁1,000": 6352,
      "grin": 6353,
      "▁chocolates": 6354,
      "▁2.": 6355,
      "▁evolving": 6356,
      "▁bending": 6357,
      "▁fifteenth": 6358,
      "▁viable": 6359,
      "▁horizontal": 6360,
      "stop": 6361,
      "▁trem": 6362,
      "▁pro-": 6363,
      "▁newton": 6364,
      "gage": 6365,
      "▁carolyn": 6366,
      "▁incredibly": 6367,
      "▁petersburg": 6368,
      "▁walks": 6369,
      "otion": 6370,
      "▁bosnia": 6371,
      "▁1846": 6372,
      "▁mang": 6373,
      "▁took": 6374,
      "▁subs": 6375,
      "va": 6376,
      "▁26": 6377,
      "▁...": 6378,
      "▁letters": 6379,
      "▁wholes": 6380,
      "▁70": 6381,
      "sylv": 6382,
      "▁divor": 6383,
      "▁resource": 6384,
      "▁bi": 6385,
      "cling": 6386,
      "▁reservation": 6387,
      "▁corp.": 6388,
      "▁anthrax": 6389,
      "▁appointed": 6390,
      "▁visited": 6391,
      "99": 6392,
      "osoph": 6393,
      "▁parmes": 6394,
      "▁address": 6395,
      "▁done": 6396,
      "▁captured": 6397,
      "▁wore": 6398,
      "▁12:30": 6399,
      "agh": 6400,
      "▁figures": 6401,
      "▁opens": 6402,
      "▁deleted": 6403,
      "em": 6404,
      "▁harv": 6405,
      "▁acupunct": 6406,
      "▁hea": 6407,
      "▁newark": 6408,
      "▁performed": 6409,
      "▁guerrillas": 6410,
      "▁decade": 6411,
      "▁britain": 6412,
      "▁gcp": 6413,
      "▁li": 6414,
      "▁vernon": 6415,
      "▁crust": 6416,
      "▁crushing": 6417,
      "▁report": 6418,
      "▁1200": 6419,
      "▁p.s": 6420,
      "▁predict": 6421,
      "▁homosexuality": 6422,
      "▁diplomacy": 6423,
      "▁disagre": 6424,
      "▁cried": 6425,
      "▁forbidden": 6426,
      "▁sciss": 6427,
      "▁court": 6428,
      "▁barclays": 6429,
      "led": 6430,
      "▁somebody": 6431,
      "▁maker": 6432,
      "▁goat": 6433,
      "▁sudden": 6434,
      "▁january": 6435,
      "▁ict": 6436,
      "▁bureauc": 6437,
      "▁provisions": 6438,
      "▁origins": 6439,
      "▁cow": 6440,
      "@compaq.com": 6441,
      "▁sauv": 6442,
      "▁caucas": 6443,
      "gypt": 6444,
      "▁stro": 6445,
      "-on": 6446,
      "var": 6447,
      "▁county": 6448,
      "▁si": 6449,
      "▁sparks": 6450,
      "▁alle": 6451,
      "▁photographer": 6452,
      "▁each": 6453,
      "▁abrupt": 6454,
      "▁spawn": 6455,
      "▁tran": 6456,
      "▁wor": 6457,
      "▁jesus": 6458,
      "▁conflict": 6459,
      "▁euro": 6460,
      "▁attended": 6461,
      "▁lamb": 6462,
      "▁1821": 6463,
      "▁strawberries": 6464,
      "▁home": 6465,
      "9th": 6466,
      "▁well-": 6467,
      "▁fam": 6468,
      "▁october": 6469,
      "ß": 6470,
      "▁realism": 6471,
      "▁mugg": 6472,
      "ws": 6473,
      "▁pushing": 6474,
      "▁intake": 6475,
      "bish": 6476,
      "▁promoting": 6477,
      "▁demands": 6478,
      "▁seeker": 6479,
      "▁disappearance": 6480,
      "▁coastal": 6481,
      "▁deserted": 6482,
      "▁sniff": 6483,
      "▁corporate": 6484,
      "▁budd": 6485,
      "▁peters": 6486,
      "wiki": 6487,
      "ution": 6488,
      "oney": 6489,
      "▁amb": 6490,
      "at": 6491,
      "▁split": 6492,
      "cp": 6493,
      "▁reportedly": 6494,
      "iqu": 6495,
      "▁protects": 6496,
      "▁writing": 6497,
      "▁rect": 6498,
      "▁1780": 6499,
      "▁screens": 6500,
      "▁jo": 6501,
      "▁shad": 6502,
      "▁modern": 6503,
      "▁1920": 6504,
      "adel": 6505,
      "▁complex": 6506,
      "▁281-435": 6507,
      "▁vulnerable": 6508,
      "▁twww": 6509,
      "▁qualified": 6510,
      "▁turb": 6511,
      "lying": 6512,
      "-7": 6513,
      "7.77": 6514,
      "▁moderate": 6515,
      "onents": 6516,
      "▁flights": 6517,
      "▁death": 6518,
      "oose": 6519,
      "▁04": 6520,
      "▁ngu": 6521,
      "▁extend": 6522,
      "▁importantly": 6523,
      "awed": 6524,
      "low": 6525,
      "▁sled": 6526,
      "▁debr": 6527,
      "▁caf": 6528,
      "▁impacts": 6529,
      "▁illegal": 6530,
      "940": 6531,
      "▁precise": 6532,
      "▁output": 6533,
      "▁radiation": 6534,
      "▁asks": 6535,
      "▁skill": 6536,
      "▁cart": 6537,
      "▁surgery": 6538,
      "mann": 6539,
      "▁spending": 6540,
      "ino": 6541,
      "iterrane": 6542,
      "▁evaluator": 6543,
      "▁tournament": 6544,
      ",1": 6545,
      "389": 6546,
      "▁willow": 6547,
      "▁website": 6548,
      "[PAD]": 6549,
      "ales": 6550,
      ":34": 6551,
      "▁ecodes": 6552,
      "▁eligible": 6553,
      "emies": 6554,
      "▁619": 6555,
      "▁inferior": 6556,
      "▁hobby": 6557,
      "▁pag": 6558,
      "with": 6559,
      "▁eul": 6560,
      "▁sculpt": 6561,
      "isp": 6562,
      "▁crimes": 6563,
      "▁attack": 6564,
      "▁bureaucr": 6565,
      "▁figured": 6566,
      "▁belgium": 6567,
      "iation": 6568,
      "▁alan": 6569,
      "raf": 6570,
      "▁dada": 6571,
      "▁dumb": 6572,
      "▁great": 6573,
      "▁long": 6574,
      "▁reliability": 6575,
      "▁html": 6576,
      "▁goals": 6577,
      "▁philadelphia": 6578,
      "▁formal": 6579,
      "▁compass": 6580,
      "ipple": 6581,
      "▁exper": 6582,
      "ment": 6583,
      "▁genius": 6584,
      "▁shaw": 6585,
      "▁congregation": 6586,
      "han": 6587,
      "▁2100": 6588,
      "▁fridge": 6589,
      "▁rum": 6590,
      "mec": 6591,
      "▁casually": 6592,
      "lines": 6593,
      "▁reluct": 6594,
      "▁grape": 6595,
      "▁jugg": 6596,
      "▁tempt": 6597,
      "▁strongest": 6598,
      "▁monk": 6599,
      "▁lee": 6600,
      "▁luc": 6601,
      "▁'s": 6602,
      "▁opposed": 6603,
      "▁soul": 6604,
      "▁sox": 6605,
      "▁collective": 6606,
      "▁kil": 6607,
      "▁neural": 6608,
      "▁surprising": 6609,
      "▁definitions": 6610,
      "▁mosque": 6611,
      "▁haven": 6612,
      "▁suspic": 6613,
      "▁kashmir": 6614,
      "▁tob": 6615,
      "fall": 6616,
      "▁theory": 6617,
      "▁objectives": 6618,
      "▁bald": 6619,
      "sing": 6620,
      "▁plaintiffs": 6621,
      "▁sender": 6622,
      "▁depending": 6623,
      "lest": 6624,
      "▁re": 6625,
      "▁cous": 6626,
      "▁attitude": 6627,
      "▁pro-beijing": 6628,
      "▁mets": 6629,
      "▁zo": 6630,
      "2.doc": 6631,
      "▁prints": 6632,
      "bucks": 6633,
      "▁december": 6634,
      "▁telev": 6635,
      "▁removed": 6636,
      "yn": 6637,
      "4/2000": 6638,
      "▁misunderstanding": 6639,
      "▁cindy": 6640,
      "▁mal": 6641,
      "▁telephones": 6642,
      "▁privacy": 6643,
      "▁freezing": 6644,
      "ut": 6645,
      "29": 6646,
      ":40": 6647,
      "▁trailer": 6648,
      "▁phillip": 6649,
      "▁ivory": 6650,
      "▁wig": 6651,
      ",6": 6652,
      "▁sincer": 6653,
      "▁rent": 6654,
      "jud": 6655,
      "▁glove": 6656,
      "▁eighty": 6657,
      "▁crushed": 6658,
      "6-8": 6659,
      "▁shady": 6660,
      "▁dealing": 6661,
      "▁into": 6662,
      "▁l": 6663,
      "▁750,000": 6664,
      "▁campaigns": 6665,
      "▁china": 6666,
      "▁1831": 6667,
      "▁755": 6668,
      "▁shackleton@ect": 6669,
      "ol.com": 6670,
      ".30": 6671,
      "▁historically": 6672,
      "▁technique": 6673,
      "▁frightened": 6674,
      "▁most": 6675,
      "asion": 6676,
      "▁church": 6677,
      "▁alt.animals.": 6678,
      "▁mech": 6679,
      "▁signs": 6680,
      "▁stations": 6681,
      "▁ate": 6682,
      "▁accom": 6683,
      "acent": 6684,
      "▁khan": 6685,
      "▁surface": 6686,
      "▁customs": 6687,
      "▁cook": 6688,
      "▁masks": 6689,
      "▁refr": 6690,
      "▁claimed": 6691,
      "own": 6692,
      "atch": 6693,
      "inence": 6694,
      "takana": 6695,
      "▁confidence": 6696,
      "▁genuine": 6697,
      "▁posters": 6698,
      "▁trop": 6699,
      "▁jean": 6700,
      "▁shoulder": 6701,
      "▁goose": 6702,
      "▁adoption": 6703,
      "▁unfold": 6704,
      "urf": 6705,
      "▁limits": 6706,
      "▁singapore": 6707,
      "▁approximately": 6708,
      "▁awards": 6709,
      "▁alignment": 6710,
      "17": 6711,
      "▁naim": 6712,
      "▁rules": 6713,
      "▁osama": 6714,
      "ingle": 6715,
      "▁duckie": 6716,
      "▁musician": 6717,
      ":13": 6718,
      "▁convince": 6719,
      "▁happily": 6720,
      "▁flir": 6721,
      "▁mason": 6722,
      "▁wilson": 6723,
      "▁paper": 6724,
      "▁steph": 6725,
      "▁dis": 6726,
      "▁them": 6727,
      "▁waterfall": 6728,
      "▁these": 6729,
      "▁v": 6730,
      "▁continuation": 6731,
      "樋": 6732,
      "▁burning": 6733,
      "▁eric": 6734,
      "▁discuss": 6735,
      "assing": 6736,
      "▁philosophy": 6737,
      "▁falls": 6738,
      "▁pony": 6739,
      "bridge": 6740,
      "▁australia": 6741,
      "▁fert": 6742,
      "▁1801": 6743,
      "▁acted": 6744,
      "▁hopeful": 6745,
      "▁ensure": 6746,
      "▁deg": 6747,
      "formed": 6748,
      "rets": 6749,
      "▁tommy": 6750,
      "▁handsome": 6751,
      "▁ft": 6752,
      "▁economically": 6753,
      "▁takeoff": 6754,
      "▁purchase": 6755,
      "▁http": 6756,
      "▁daughters": 6757,
      "▁introduction": 6758,
      "▁pot": 6759,
      "▁ignore": 6760,
      "▁coach": 6761,
      "▁thanksg": 6762,
      "▁cost": 6763,
      "▁suggestion": 6764,
      "▁wounded": 6765,
      "▁magical": 6766,
      "▁ecosy": 6767,
      "▁send": 6768,
      "▁realized": 6769,
      "arter": 6770,
      "▁nz": 6771,
      "▁holly": 6772,
      "▁faith": 6773,
      "▁careful": 6774,
      "▁efficiency": 6775,
      "▁reveals": 6776,
      "▁below": 6777,
      "▁dehy": 6778,
      "gy": 6779,
      "▁virt": 6780,
      "▁dominant": 6781,
      "▁beside": 6782,
      "▁staged": 6783,
      "▁hibern": 6784,
      "per": 6785,
      "▁rescue": 6786,
      "▁appear": 6787,
      "▁sit": 6788,
      "▁gum": 6789,
      "fill": 6790,
      "▁religious": 6791,
      "▁recruit": 6792,
      "▁july": 6793,
      "ruption": 6794,
      "▁hunt": 6795,
      "▁inst": 6796,
      "▁cross-sectional": 6797,
      "▁-ect": 6798,
      "▁4:30": 6799,
      "~*~*": 6800,
      "▁bayley": 6801,
      "atus": 6802,
      "▁knew": 6803,
      "erts": 6804,
      "▁compuls": 6805,
      "▁stupid": 6806,
      "▁stocks": 6807,
      "▁2013": 6808,
      "▁subsequent": 6809,
      "▁insist": 6810,
      "▁partially": 6811,
      "▁hjalmar": 6812,
      "riers": 6813,
      "▁fle": 6814,
      "▁hut": 6815,
      "▁officials": 6816,
      "enner": 6817,
      "▁return": 6818,
      "▁ltte": 6819,
      "▁quebec": 6820,
      "iff": 6821,
      "ik": 6822,
      "▁a.": 6823,
      "▁par": 6824,
      "▁champions": 6825,
      "▁piece": 6826,
      "▁argentine": 6827,
      "▁yesterday": 6828,
      "▁download": 6829,
      "▁concerning": 6830,
      "▁calculation": 6831,
      "▁ingredients": 6832,
      "▁costume": 6833,
      "▁pow": 6834,
      "▁louisiana": 6835,
      "▁sympath": 6836,
      "▁stands": 6837,
      "▁societ": 6838,
      "▁simp": 6839,
      "▁inexp": 6840,
      "▁quite": 6841,
      "▁office": 6842,
      "▁tons": 6843,
      "my": 6844,
      "porary": 6845,
      "________": 6846,
      "▁experiments": 6847,
      "enn": 6848,
      "▁austria": 6849,
      "▁invented": 6850,
      "ه": 6851,
      "ner": 6852,
      "▁_______": 6853,
      "▁erasmus": 6854,
      "▁emer": 6855,
      "▁shelter": 6856,
      "aim": 6857,
      "▁notes": 6858,
      "▁attachments": 6859,
      "ises": 6860,
      "idge": 6861,
      "▁fab": 6862,
      "ecd": 6863,
      "▁reads": 6864,
      "▁distingu": 6865,
      "▁bases": 6866,
      "▁positive": 6867,
      "▁observations": 6868,
      "▁45": 6869,
      "▁?!": 6870,
      "▁alber": 6871,
      "eur": 6872,
      "▁import": 6873,
      "▁wing": 6874,
      "▁escape": 6875,
      "▁fuck": 6876,
      "ong": 6877,
      "aming": 6878,
      "▁interesting": 6879,
      "▁community": 6880,
      "▁columbus": 6881,
      "▁860": 6882,
      "▁having": 6883,
      "fts": 6884,
      "y": 6885,
      "▁probably": 6886,
      "▁eye": 6887,
      "jah": 6888,
      "cliff": 6889,
      "▁balc": 6890,
      "▁compli": 6891,
      "▁exceptional": 6892,
      "▁lying": 6893,
      "▁814": 6894,
      "ou": 6895,
      "▁financial": 6896,
      "▁all": 6897,
      "▁headquart": 6898,
      "▁story": 6899,
      "acious": 6900,
      "▁-----------------": 6901,
      "▁bree": 6902,
      "ioch": 6903,
      "▁designated": 6904,
      "▁novels": 6905,
      "▁touched": 6906,
      "igh": 6907,
      "▁leaned": 6908,
      "▁łod": 6909,
      "▁enhanced": 6910,
      "▁vietnamese": 6911,
      "▁environ": 6912,
      "▁signal": 6913,
      "▁ram": 6914,
      "stock": 6915,
      "€": 6916,
      ".net/": 6917,
      "▁tupper": 6918,
      "--------------------------------": 6919,
      "▁structures": 6920,
      "itty": 6921,
      "or": 6922,
      "nd": 6923,
      "▁flooding": 6924,
      "ude": 6925,
      "got": 6926,
      "▁income": 6927,
      "▁800": 6928,
      "ll": 6929,
      "▁tricks": 6930,
      "▁spit": 6931,
      "▁oppress": 6932,
      "▁180": 6933,
      "▁schemes": 6934,
      "▁dancers": 6935,
      "▁blur": 6936,
      "hip": 6937,
      "gress": 6938,
      "▁where": 6939,
      "▁never": 6940,
      "ati": 6941,
      "ex": 6942,
      "▁chuck": 6943,
      "essions": 6944,
      "mare": 6945,
      "▁y-": 6946,
      "▁airbnb": 6947,
      "▁approached": 6948,
      "▁pharm": 6949,
      "▁naqsh-e": 6950,
      "▁himself": 6951,
      "rick": 6952,
      "wik": 6953,
      "▁dinner": 6954,
      "▁desirable": 6955,
      "▁solar": 6956,
      "▁seriously": 6957,
      "alt": 6958,
      "iy": 6959,
      "▁schem": 6960,
      "▁discour": 6961,
      "▁locally": 6962,
      "urs": 6963,
      "▁land": 6964,
      "▁1603": 6965,
      "ings.com": 6966,
      "▁inspired": 6967,
      "▁instinct": 6968,
      "▁embarrassment": 6969,
      "▁fin": 6970,
      "▁diet": 6971,
      "▁keen": 6972,
      "▁vivid": 6973,
      "-1": 6974,
      "▁providers": 6975,
      "ause": 6976,
      "clusion": 6977,
      "▁admit": 6978,
      "▁r.": 6979,
      "▁beings": 6980,
      "▁crack": 6981,
      ".00": 6982,
      "▁ekrapels@esaibos.com": 6983,
      "code": 6984,
      "▁wether": 6985,
      "▁failed": 6986,
      "▁5.5": 6987,
      "▁ft.": 6988,
      "▁loudly": 6989,
      "▁hagr": 6990,
      "▁island": 6991,
      "▁cra": 6992,
      "ware": 6993,
      "▁spells": 6994,
      "▁founded": 6995,
      "▁progressive": 6996,
      "▁writers": 6997,
      "▁lonely": 6998,
      "soft": 6999,
      "▁an": 7000,
      "br": 7001,
      "▁balls": 7002,
      "▁nails": 7003,
      "04": 7004,
      "vn": 7005,
      "▁guerre": 7006,
      "▁goes": 7007,
      "▁sees": 7008,
      "▁vib": 7009,
      "▁ginger": 7010,
      "tha": 7011,
      "▁marcel": 7012,
      "▁wheat": 7013,
      "▁seis": 7014,
      "▁cycle": 7015,
      "▁anticipated": 7016,
      "▁farrier": 7017,
      "anged": 7018,
      "▁potatoes": 7019,
      "lord": 7020,
      "▁scholarship": 7021,
      "▁injust": 7022,
      "keys": 7023,
      "ows": 7024,
      "▁xbox": 7025,
      "▁david": 7026,
      "▁sneak": 7027,
      "▁substance": 7028,
      "argument": 7029,
      "▁3.7": 7030,
      "▁mailings": 7031,
      "▁agriculture": 7032,
      "▁deny": 7033,
      "▁replied": 7034,
      "raph": 7035,
      "oul": 7036,
      "▁willing": 7037,
      "▁raise": 7038,
      "▁white": 7039,
      "ador": 7040,
      "▁evil": 7041,
      "▁cryst": 7042,
      "ijing": 7043,
      "logspot.com/": 7044,
      "▁earning": 7045,
      "anges": 7046,
      "▁fantasy": 7047,
      "▁suprem": 7048,
      "res": 7049,
      "▁flesh": 7050,
      "▁http://www.4gamer.net/news/image/2005.09/2005": 7051,
      "▁shout": 7052,
      "atory": 7053,
      "▁compact": 7054,
      "aq.com": 7055,
      "▁34": 7056,
      "▁hand": 7057,
      "▁2009": 7058,
      "▁develop": 7059,
      "▁diagram": 7060,
      "aroni": 7061,
      "▁measure": 7062,
      "oup": 7063,
      "▁1-800-991-9019": 7064,
      "ific": 7065,
      "▁perlingiere": 7066,
      "▁sea": 7067,
      "▁traditionally": 7068,
      "▁throw": 7069,
      "▁when": 7070,
      "▁oath": 7071,
      "▁rating": 7072,
      "♥": 7073,
      "▁plat": 7074,
      "▁habitat": 7075,
      "▁bar": 7076,
      "▁serves": 7077,
      "▁713-853-3098": 7078,
      "▁remote": 7079,
      "miah": 7080,
      "▁asy": 7081,
      "▁generate": 7082,
      "▁acknowledge": 7083,
      "▁emperor": 7084,
      "atic": 7085,
      "▁offic": 7086,
      "▁articles": 7087,
      "▁airlines": 7088,
      "º": 7089,
      "▁neigh": 7090,
      "▁welcomed": 7091,
      "▁peace": 7092,
      "▁litt": 7093,
      "▁mart": 7094,
      "▁cas": 7095,
      "β": 7096,
      "atia": 7097,
      "▁anytime": 7098,
      "▁negative": 7099,
      "▁?!?": 7100,
      "▁complaining": 7101,
      "▁vict": 7102,
      "▁sealed": 7103,
      "▁trans": 7104,
      "▁implemented": 7105,
      "▁offended": 7106,
      "▁hideout": 7107,
      "▁awareness": 7108,
      "▁repairs": 7109,
      "▁clinging": 7110,
      "▁crisis": 7111,
      "▁helicop": 7112,
      "▁drama": 7113,
      "▁jacket": 7114,
      "▁one": 7115,
      "izing": 7116,
      "▁eug": 7117,
      "▁correlation": 7118,
      "an@t": 7119,
      "ien": 7120,
      "▁bed": 7121,
      "▁posed": 7122,
      "▁chocol": 7123,
      "oc": 7124,
      "ped": 7125,
      "▁suck": 7126,
      "ablish": 7127,
      "▁fol": 7128,
      "▁genetic": 7129,
      "▁bake": 7130,
      "▁optimistic": 7131,
      "▁bludgers": 7132,
      "]": 7133,
      "▁borrow": 7134,
      "▁drink": 7135,
      "▁530": 7136,
      "▁urine": 7137,
      "▁barrels": 7138,
      "▁untill": 7139,
      "▁bitter": 7140,
      "▁through": 7141,
      "▁salary": 7142,
      "▁heat": 7143,
      "▁manufact": 7144,
      "▁bos": 7145,
      "▁caps": 7146,
      "▁very": 7147,
      "▁hu": 7148,
      "▁ar": 7149,
      "▁cozy": 7150,
      "▁disapp": 7151,
      "▁hurt": 7152,
      "▁specific": 7153,
      "▁cou": 7154,
      "▁revolution": 7155,
      ".25": 7156,
      "▁aboard": 7157,
      "▁alley": 7158,
      "▁pork": 7159,
      "ibreat": 7160,
      "▁temp": 7161,
      "▁acquire": 7162,
      "▁beak": 7163,
      "▁tight": 7164,
      "▁mars": 7165,
      "▁fucking": 7166,
      "ai": 7167,
      "▁feelings": 7168,
      "▁headquarters": 7169,
      "▁panama": 7170,
      "▁passengers": 7171,
      "▁warfare": 7172,
      "▁4-12": 7173,
      "▁asset": 7174,
      "▁sur": 7175,
      "▁trash": 7176,
      "▁damage": 7177,
      "▁--": 7178,
      "lause": 7179,
      "▁mur": 7180,
      "▁soon": 7181,
      "▁aesth": 7182,
      "▁decades": 7183,
      "▁campa": 7184,
      "2/2001": 7185,
      "▁2015": 7186,
      "▁crunch": 7187,
      "▁dogg": 7188,
      "▁tampa": 7189,
      "▁distortion": 7190,
      "司": 7191,
      "▁arr": 7192,
      "▁hind": 7193,
      "▁matters": 7194,
      "▁surge": 7195,
      "▁memories": 7196,
      "▁prohibited": 7197,
      "▁necessarily": 7198,
      "▁neat": 7199,
      "▁document": 7200,
      "▁pap": 7201,
      "ille": 7202,
      "▁robbie": 7203,
      "▁contacted": 7204,
      "▁displac": 7205,
      "▁rub": 7206,
      "▁lifelong": 7207,
      "▁ehr": 7208,
      "▁assemble": 7209,
      "▁crayons": 7210,
      "▁give": 7211,
      "adelp": 7212,
      "house": 7213,
      "arily": 7214,
      "▁curren": 7215,
      "▁logan": 7216,
      "▁angeles": 7217,
      "▁visits": 7218,
      "imes": 7219,
      "asser": 7220,
      "ifies": 7221,
      "▁locom": 7222,
      "▁mist": 7223,
      "▁snitch": 7224,
      "3-3744": 7225,
      "▁elect": 7226,
      "itudes": 7227,
      "▁preparation": 7228,
      "arrass": 7229,
      "▁zone": 7230,
      "▁thrones": 7231,
      "▁particularly": 7232,
      "▁incor": 7233,
      "▁horn": 7234,
      "man": 7235,
      "▁sleeping": 7236,
      "▁salty": 7237,
      "▁published": 7238,
      "▁outcomes": 7239,
      "▁earthworms": 7240,
      "▁non-bondad": 7241,
      "▁dre": 7242,
      "▁immigr": 7243,
      "▁floating": 7244,
      "▁pakistani": 7245,
      "▁reasonable": 7246,
      "zes": 7247,
      "▁screwdriver": 7248,
      "▁socialist": 7249,
      "▁permitted": 7250,
      "▁folded": 7251,
      "iped": 7252,
      "▁participating": 7253,
      "▁state": 7254,
      "▁corporations": 7255,
      "▁presently": 7256,
      "▁worldwide": 7257,
      "'t": 7258,
      "▁ras": 7259,
      "▁glance": 7260,
      "▁frank": 7261,
      "▁mosul": 7262,
      "▁wik": 7263,
      "▁cris": 7264,
      "ret": 7265,
      "▁bind": 7266,
      "▁current": 7267,
      "▁crash": 7268,
      "▁necessity": 7269,
      "▁718-780": 7270,
      "iously": 7271,
      "ysis": 7272,
      "▁ank": 7273,
      "leys": 7274,
      "▁mechanism": 7275,
      "▁eaten": 7276,
      "▁banglades": 7277,
      "▁boxes": 7278,
      "▁referred": 7279,
      "500": 7280,
      "▁consistently": 7281,
      "group": 7282,
      "▁incredible": 7283,
      "70": 7284,
      "et": 7285,
      "▁spectac": 7286,
      "▁buenos": 7287,
      "▁femoral": 7288,
      "▁melt": 7289,
      "▁equ": 7290,
      "▁caused": 7291,
      "▁sang": 7292,
      "big.html": 7293,
      "▁atroph": 7294,
      "▁examples": 7295,
      "osal": 7296,
      "▁democr": 7297,
      "▁review": 7298,
      "▁requirements": 7299,
      "jo": 7300,
      "▁stoy": 7301,
      "▁mweta": 7302,
      "ding": 7303,
      "▁shed": 7304,
      "/10/2004": 7305,
      "▁pays": 7306,
      "▁symp": 7307,
      "▁granted": 7308,
      "▁wr": 7309,
      "byl": 7310,
      "▁parent": 7311,
      "▁obl": 7312,
      "▁butt": 7313,
      "▁unemployment": 7314,
      "▁constit": 7315,
      "iot": 7316,
      "ered": 7317,
      "▁exactly": 7318,
      "▁climb": 7319,
      "▁vacc": 7320,
      "300": 7321,
      "▁12:12": 7322,
      "▁spelling": 7323,
      "▁accent": 7324,
      "ms": 7325,
      "▁1932": 7326,
      "▁richmond": 7327,
      "ilight": 7328,
      "▁replaced": 7329,
      "▁propri": 7330,
      "▁celebrating": 7331,
      "udge": 7332,
      "-460-3": 7333,
      "▁poverty": 7334,
      "▁cheap": 7335,
      "▁stab": 7336,
      "▁patients": 7337,
      "▁design": 7338,
      "▁cells": 7339,
      "alk": 7340,
      "▁refin": 7341,
      "on": 7342,
      "▁closely": 7343,
      "key": 7344,
      "▁bottom": 7345,
      "▁for": 7346,
      "▁thunder": 7347,
      "▁chib": 7348,
      "▁tube": 7349,
      "▁knees": 7350,
      "▁yea": 7351,
      "▁lunch": 7352,
      "▁.!": 7353,
      "▁sleeves": 7354,
      "herd": 7355,
      "▁functionality": 7356,
      "eys": 7357,
      "▁04/16/2001": 7358,
      "▁lit": 7359,
      "▁toll": 7360,
      "read": 7361,
      "▁installation": 7362,
      "▁tears": 7363,
      ".co": 7364,
      "▁halloween": 7365,
      "▁prospects": 7366,
      "▁1918": 7367,
      "▁thirt": 7368,
      "▁waff": 7369,
      "▁fut": 7370,
      "▁bengal": 7371,
      "▁fry": 7372,
      "▁steadily": 7373,
      "▁ter": 7374,
      "▁cuck": 7375,
      "▁how": 7376,
      "▁forgot": 7377,
      "▁mot": 7378,
      "▁translation": 7379,
      "omet": 7380,
      "▁liber": 7381,
      "▁accident": 7382,
      "▁substant": 7383,
      "inner": 7384,
      "▁events": 7385,
      "▁covering": 7386,
      "▁waist": 7387,
      "▁825": 7388,
      "use": 7389,
      "▁kreml": 7390,
      "▁breasts": 7391,
      "▁price": 7392,
      "▁indiana": 7393,
      "▁dottie": 7394,
      "▁log": 7395,
      "▁sponsored": 7396,
      "iii": 7397,
      "▁pup": 7398,
      "▁catherine": 7399,
      "▁interfere": 7400,
      "▁skittles": 7401,
      "▁soften": 7402,
      "▁pour": 7403,
      "by": 7404,
      "▁institutions": 7405,
      "▁elsewhere": 7406,
      "▁subsid": 7407,
      "▁fireplace": 7408,
      "▁blo": 7409,
      "▁mexico": 7410,
      "▁1779": 7411,
      "▁summary": 7412,
      "-y": 7413,
      "▁surr": 7414,
      "books": 7415,
      "▁120,000": 7416,
      "▁arrives": 7417,
      "▁rah": 7418,
      "▁bump": 7419,
      "evs": 7420,
      "light": 7421,
      "udd": 7422,
      "-fl": 7423,
      "53": 7424,
      "▁blackline": 7425,
      "▁delay": 7426,
      "▁kitt": 7427,
      "soever": 7428,
      "▁raccoon": 7429,
      "▁vast": 7430,
      "dging": 7431,
      "▁injury": 7432,
      "70s": 7433,
      "▁supple": 7434,
      "ault": 7435,
      "▁bir": 7436,
      "▁dyn": 7437,
      "▁tear": 7438,
      "▁device": 7439,
      "▁fall": 7440,
      "▁il": 7441,
      "▁festivals": 7442,
      "▁data": 7443,
      "atively": 7444,
      "▁propose": 7445,
      "▁generators": 7446,
      "▁phoebe": 7447,
      "▁lyr": 7448,
      "raft": 7449,
      "gam": 7450,
      "▁murder": 7451,
      ".gov": 7452,
      "rect": 7453,
      "▁locations": 7454,
      "idding": 7455,
      "eight": 7456,
      "▁chard": 7457,
      "▁used": 7458,
      "▁imagination": 7459,
      "▁islamic": 7460,
      ".85": 7461,
      "75": 7462,
      "==============================================": 7463,
      "▁quix": 7464,
      "▁packages": 7465,
      "▁conditional": 7466,
      "▁overc": 7467,
      "▁decide": 7468,
      "▁besid": 7469,
      "▁1585": 7470,
      "▁spreadsheet": 7471,
      "▁starvation": 7472,
      "ˈ": 7473,
      "▁radio": 7474,
      "▁vag": 7475,
      "▁intentions": 7476,
      "▁alabama": 7477,
      "▁mouth": 7478,
      "▁enterprise": 7479,
      "▁users": 7480,
      "▁laund": 7481,
      "▁bure": 7482,
      "▁neurol": 7483,
      "-sh": 7484,
      "▁leonardo": 7485,
      "▁western": 7486,
      "▁unpopular": 7487,
      "lan": 7488,
      "▁tracking": 7489,
      "▁reass": 7490,
      "▁regulated": 7491,
      "▁daisy": 7492,
      "▁light": 7493,
      "ite": 7494,
      "ppy": 7495,
      "▁jac": 7496,
      "▁informed": 7497,
      "ere": 7498,
      "▁:(": 7499,
      "aced": 7500,
      "▁managers": 7501,
      "▁desper": 7502,
      "▁hoping": 7503,
      "▁{": 7504,
      "▁sings": 7505,
      "▁430": 7506,
      "ook": 7507,
      "▁chickens": 7508,
      "▁walking": 7509,
      "app": 7510,
      "▁causing": 7511,
      "▁james": 7512,
      "▁bron": 7513,
      "▁q1": 7514,
      "▁railway": 7515,
      "▁astronom": 7516,
      "▁isol": 7517,
      "angle": 7518,
      "▁47,500": 7519,
      "▁obsf": 7520,
      "otamus": 7521,
      "▁scratch": 7522,
      "▁betw": 7523,
      "▁sor": 7524,
      "▁out": 7525,
      "ernobyl": 7526,
      "▁shadow": 7527,
      "▁lowest": 7528,
      "▁accur": 7529,
      "icult": 7530,
      "▁arriving": 7531,
      "orter": 7532,
      "/11": 7533,
      "▁guaranteed": 7534,
      "liers": 7535,
      "▁800.713.86": 7536,
      "▁borders": 7537,
      "▁mariner": 7538,
      "▁cabbage": 7539,
      "▁terre": 7540,
      "▁t.": 7541,
      "ils": 7542,
      "▁haz": 7543,
      "▁environments": 7544,
      "▁hunger": 7545,
      "ception": 7546,
      "▁camping": 7547,
      "▁ya": 7548,
      "▁remembering": 7549,
      "▁mayko": 7550,
      "▁practicing": 7551,
      "-8031": 7552,
      "oko": 7553,
      "ogy": 7554,
      "▁holder": 7555,
      "▁popeye": 7556,
      "non": 7557,
      "▁chapters": 7558,
      "▁sensible": 7559,
      "▁6:30": 7560,
      "▁september": 7561,
      "▁wrote": 7562,
      "▁1-800": 7563,
      "▁conclusion": 7564,
      "▁expanded": 7565,
      "▁cargill": 7566,
      "▁hack": 7567,
      "▁preserved": 7568,
      "six": 7569,
      "▁fiji": 7570,
      "▁hitler": 7571,
      "90s": 7572,
      "▁field": 7573,
      "▁vaguely": 7574,
      "▁pack": 7575,
      "▁retrie": 7576,
      "ailand": 7577,
      "▁residents": 7578,
      "▁ignor": 7579,
      "▁commissioner": 7580,
      "▁proved": 7581,
      "▁nov.": 7582,
      "▁watered": 7583,
      "▁120": 7584,
      "▁reply": 7585,
      "roe": 7586,
      "▁pee": 7587,
      "▁linked": 7588,
      "▁arrangements": 7589,
      "▁block": 7590,
      "▁four": 7591,
      "▁barn": 7592,
      "▁engineer": 7593,
      "▁cigare": 7594,
      "▁dinosaur": 7595,
      "▁grant": 7596,
      "▁transition": 7597,
      "▁set": 7598,
      "▁perhaps": 7599,
      "outs": 7600,
      "▁anem": 7601,
      "▁invite": 7602,
      "▁abandon": 7603,
      "▁04:": 7604,
      "880": 7605,
      "▁strive": 7606,
      "▁dissatisf": 7607,
      "▁coast": 7608,
      "ikes": 7609,
      "▁byebye": 7610,
      "lor": 7611,
      "▁747": 7612,
      "uv": 7613,
      "▁commit": 7614,
      "▁pacific": 7615,
      "ozer": 7616,
      "▁vie": 7617,
      "▁meet": 7618,
      "▁declar": 7619,
      "▁team": 7620,
      "stein": 7621,
      "conn": 7622,
      "uku": 7623,
      "▁sailed": 7624,
      "▁mention": 7625,
      ":51": 7626,
      "▁norm": 7627,
      "eny": 7628,
      "▁ultimate": 7629,
      "▁stating": 7630,
      "ren": 7631,
      "▁questioned": 7632,
      "▁signed": 7633,
      "▁doubt": 7634,
      "▁1985": 7635,
      "▁eleventh": 7636,
      "▁ling": 7637,
      "▁jenn": 7638,
      "▁spir": 7639,
      "▁417": 7640,
      "▁deterior": 7641,
      "▁forwarding": 7642,
      "▁register": 7643,
      "▁phenomen": 7644,
      "▁signing": 7645,
      "▁screaming": 7646,
      "▁leigh": 7647,
      "agement": 7648,
      "▁addicted": 7649,
      "▁research": 7650,
      "▁hugh": 7651,
      "▁specialists": 7652,
      "▁refuge": 7653,
      "▁up": 7654,
      "▁attrib": 7655,
      "▁aqu": 7656,
      "▁sum": 7657,
      "▁lun": 7658,
      "ima": 7659,
      "▁twelve": 7660,
      "▁xsd": 7661,
      "▁essie": 7662,
      "▁11/10/2000": 7663,
      "▁intern": 7664,
      "ign": 7665,
      "enron": 7666,
      "s/": 7667,
      "▁sights": 7668,
      "▁geometry": 7669,
      "▁critics": 7670,
      "▁desk": 7671,
      "▁38": 7672,
      "▁1945": 7673,
      "▁renewed": 7674,
      "▁lymph": 7675,
      "▁phil": 7676,
      "iking": 7677,
      "▁bund": 7678,
      "▁definition": 7679,
      "bug": 7680,
      "▁repeating": 7681,
      "fe": 7682,
      "▁mountains": 7683,
      "▁eastward": 7684,
      "▁licenses": 7685,
      "▁doctors": 7686,
      "▁grumb": 7687,
      "▁layover": 7688,
      "liver": 7689,
      "▁worms": 7690,
      "▁inherent": 7691,
      "▁burger": 7692,
      "[MASK]": 7693,
      "▁char": 7694,
      "bing": 7695,
      "▁crit": 7696,
      "star": 7697,
      "▁citizens": 7698,
      "▁1964": 7699,
      "▁importance": 7700,
      "▁undertaken": 7701,
      "▁deer": 7702,
      "▁flats": 7703,
      "ways": 7704,
      "▁gas": 7705,
      "▁vs": 7706,
      "▁donna": 7707,
      "▁publish": 7708,
      "▁being": 7709,
      "▁thurs": 7710,
      "▁christopher": 7711,
      "▁name": 7712,
      "▁ridic": 7713,
      "▁813": 7714,
      "▁experienced": 7715,
      "▁sticks": 7716,
      "▁led": 7717,
      "▁science": 7718,
      "▁predatory": 7719,
      "▁actor": 7720,
      "▁finals": 7721,
      "▁72,000": 7722,
      "▁mccartney": 7723,
      "itive": 7724,
      "▁rational": 7725,
      "▁sal": 7726,
      "arant": 7727,
      "▁horizont": 7728,
      "▁length": 7729,
      "▁bland": 7730,
      "▁day": 7731,
      "▁neuro": 7732,
      "k.url": 7733,
      "▁jahan": 7734,
      "▁manuf": 7735,
      "▁bunch": 7736,
      "▁boun": 7737,
      "▁planet": 7738,
      "▁treas": 7739,
      "▁arises": 7740,
      "ocate": 7741,
      "oug": 7742,
      "ri": 7743,
      "▁lack": 7744,
      "▁yelling": 7745,
      "esota": 7746,
      "▁metropolitan": 7747,
      "▁shuttle": 7748,
      "▁ignoring": 7749,
      "▁per": 7750,
      "96": 7751,
      "▁deficiency": 7752,
      "▁shobhajatra": 7753,
      "▁tre": 7754,
      "▁kenneth": 7755,
      "▁vehicle": 7756,
      "▁routine": 7757,
      "▁…": 7758,
      "▁disciplines": 7759,
      "elp": 7760,
      "▁fift": 7761,
      "▁abby": 7762,
      "▁lorie": 7763,
      "ibos.com": 7764,
      "▁rows": 7765,
      "▁doctor": 7766,
      "▁vet": 7767,
      ".net": 7768,
      "▁roost": 7769,
      "artney": 7770,
      "olis": 7771,
      "▁motivated": 7772,
      "▁civilized": 7773,
      "inct": 7774,
      "▁acid": 7775,
      "▁domain": 7776,
      "▁category": 7777,
      "▁member": 7778,
      "▁forecast": 7779,
      "▁radi": 7780,
      "stellar": 7781,
      "▁juliet": 7782,
      "▁01810": 7783,
      "▁topics": 7784,
      "▁literary": 7785,
      "mber": 7786,
      "gig": 7787,
      "ition": 7788,
      "▁che": 7789,
      "▁revolutionary": 7790,
      "▁morality": 7791,
      "41": 7792,
      "▁soph": 7793,
      "▁rahman": 7794,
      "▁defence": 7795,
      "ione": 7796,
      "velop": 7797,
      "▁retail": 7798,
      "▁1972": 7799,
      "▁s/he": 7800,
      "▁spinning": 7801,
      "▁713-793-": 7802,
      "emor": 7803,
      "▁nu": 7804,
      "▁nook": 7805,
      "091": 7806,
      "▁augmentation": 7807,
      "▁origin": 7808,
      "▁eras": 7809,
      "▁cincinnati": 7810,
      "▁lar": 7811,
      "▁discrimination": 7812,
      "unction": 7813,
      "▁enov": 7814,
      "rier": 7815,
      "▁explorer": 7816,
      "▁evident": 7817,
      "▁ourselves": 7818,
      "▁fox": 7819,
      "acked": 7820,
      "ence": 7821,
      "▁tot": 7822,
      "▁awa": 7823,
      "abul": 7824,
      "icip": 7825,
      "▁hamm": 7826,
      "nis": 7827,
      "ert": 7828,
      "▁naturally": 7829,
      "▁tunisia": 7830,
      "▁babies": 7831,
      "airs": 7832,
      "▁participate": 7833,
      "inary": 7834,
      "▁recall": 7835,
      "▁grandmother": 7836,
      "▁experiment": 7837,
      "▁kittens": 7838,
      "▁french": 7839,
      "usc": 7840,
      "▁mom": 7841,
      "▁economy": 7842,
      "▁ho": 7843,
      "▁basis": 7844,
      "▁salsa": 7845,
      "a": 7846,
      "▁beatles": 7847,
      "▁authors": 7848,
      "▁unclear": 7849,
      "▁welcome": 7850,
      "eton@ect": 7851,
      "▁cont": 7852,
      "fast": 7853,
      "▁crum": 7854,
      "▁bees": 7855,
      "▁fing": 7856,
      "▁kang": 7857,
      "▁installed": 7858,
      "▁polaroid": 7859,
      "▁1992": 7860,
      "▁candles": 7861,
      "ensive": 7862,
      "▁kid": 7863,
      "▁devast": 7864,
      "▁grace": 7865,
      "▁massage": 7866,
      "▁temporary": 7867,
      "▁derivative": 7868,
      "▁funnel": 7869,
      "▁subst": 7870,
      "jatra": 7871,
      "▁survey": 7872,
      "▁prosper": 7873,
      "priced": 7874,
      "ansa": 7875,
      "▁clown": 7876,
      "orton": 7877,
      "▁stepping": 7878,
      "▁[": 7879,
      "▁marble": 7880,
      "[UNK]": 7881,
      "3/2000": 7882,
      "▁achieve": 7883,
      "▁yester": 7884,
      "ake": 7885,
      "▁hungry": 7886,
      "▁laser": 7887,
      "uten": 7888,
      "irus": 7889,
      "1082": 7890,
      "▁able": 7891,
      "▁guests": 7892,
      "▁comprom": 7893,
      "▁assisting": 7894,
      "▁stays": 7895,
      "▁partners": 7896,
      "mp": 7897,
      "▁landsc": 7898,
      "▁29587": 7899,
      "▁anti-": 7900,
      "▁cdec": 7901,
      "▁bog": 7902,
      "ado": 7903,
      "▁hards": 7904,
      "eness": 7905,
      "▁boost": 7906,
      "▁urban": 7907,
      "ork": 7908,
      "▁harmon": 7909,
      "v.": 7910,
      "▁hog": 7911,
      "wear": 7912,
      "▁drill": 7913,
      "▁timer": 7914,
      "▁might": 7915,
      "▁w/": 7916,
      "▁/": 7917,
      "▁singing": 7918,
      "▁scr": 7919,
      "▁julien": 7920,
      "▁speculation": 7921,
      "▁cottage": 7922,
      "amar": 7923,
      "iciency": 7924,
      "▁philosopher": 7925,
      "▁indicate": 7926,
      "▁similarly": 7927,
      "▁coll": 7928,
      "ivity": 7929,
      "cast": 7930,
      "ops": 7931,
      "▁improved": 7932,
      "▁unconscious": 7933,
      "▁authorities": 7934,
      "▁straw": 7935,
      "▁saw": 7936,
      "▁examining": 7937,
      "▁gm": 7938,
      "verage": 7939,
      "▁israel": 7940,
      "▁......": 7941,
      "▁refusing": 7942,
      "▁vogel": 7943,
      "▁romantic": 7944,
      "▁liqu": 7945,
      "the": 7946,
      "teous": 7947,
      "inded": 7948,
      "▁concrete": 7949,
      "▁jill": 7950,
      "▁rul": 7951,
      "▁pleased": 7952,
      "▁elections": 7953,
      "▁04/2": 7954,
      "▁emma": 7955,
      "rele": 7956,
      "▁charles": 7957,
      "▁replac": 7958,
      "▁ic": 7959,
      "olyn": 7960,
      "▁bn": 7961,
      "▁bur": 7962,
      "-4": 7963,
      "pan": 7964,
      "▁twenty-six": 7965,
      "▁bosom": 7966,
      "erson": 7967,
      "▁lemon": 7968,
      "sh": 7969,
      "▁creek": 7970,
      "▁peau": 7971,
      "▁1966": 7972,
      "▁08/15/2000": 7973,
      "▁rapid": 7974,
      "▁evans": 7975,
      "▁gift": 7976,
      "▁guit": 7977,
      "lie": 7978,
      "▁1.5": 7979,
      "▁'re": 7980,
      "▁substit": 7981,
      "acks": 7982,
      "ary": 7983,
      "▁pict": 7984,
      "▁12:42": 7985,
      "▁completely": 7986,
      "ouched": 7987,
      "▁manage": 7988,
      "▁met": 7989,
      "▁theod": 7990,
      "▁soc": 7991,
      "vant": 7992,
      "▁norton": 7993,
      "▁disappointed": 7994,
      "¢": 7995,
      "▁[...": 7996,
      "▁wite": 7997,
      "▁57": 7998,
      "▁mayonnaise": 7999,
      "▁canad": 8000,
      "▁terrific": 8001,
      "▁transfer": 8002,
      "▁unemployed": 8003,
      "rella": 8004,
      "▁harmony": 8005,
      "asa": 8006,
      "▁square": 8007,
      "▁movement": 8008,
      "▁transferred": 8009,
      "▁journalist": 8010,
      "▁top": 8011,
      "▁cocktail": 8012,
      "esco": 8013,
      "▁bothered": 8014,
      "-p": 8015,
      "▁pra": 8016,
      "▁andre": 8017,
      "▁enable": 8018,
      "▁kum": 8019,
      "▁victory": 8020,
      "nels": 8021,
      "▁strict": 8022,
      "▁direct": 8023,
      "version": 8024,
      "ations": 8025,
      "rup": 8026,
      "▁170": 8027,
      "▁seventeenth": 8028,
      "▁eg": 8029,
      "▁possible": 8030,
      "oks": 8031,
      "eak": 8032,
      "▁ner": 8033,
      "▁713/": 8034,
      "▁115": 8035,
      "▁'em": 8036,
      "upunct": 8037,
      "▁“": 8038,
      "▁.doc": 8039,
      "irk": 8040,
      "nondelibreat": 8041,
      "▁al": 8042,
      "ometer": 8043,
      "▁cam": 8044,
      "▁construct": 8045,
      "▁repeat": 8046,
      "▁1691": 8047,
      "▁trusted": 8048,
      "▁gdp": 8049,
      "▁yuc": 8050,
      "▁assure": 8051,
      "▁allow": 8052,
      "▁ment": 8053,
      "▁rains": 8054,
      "▁cheeky": 8055,
      "▁berry": 8056,
      "▁presc": 8057,
      "▁29": 8058,
      "___________": 8059,
      "pping": 8060,
      "▁affected": 8061,
      "▁founders": 8062,
      "▁counterfe": 8063,
      "▁hippop": 8064,
      "▁fence": 8065,
      "▁fly": 8066,
      "▁licensor": 8067,
      "▁1999": 8068,
      "▁conscious": 8069,
      "▁nuclear": 8070,
      "▁ketch": 8071,
      "古": 8072,
      "▁seats": 8073,
      "▁jokes": 8074,
      "▁according": 8075,
      "▁1790": 8076,
      "œ": 8077,
      "▁games": 8078,
      "▁deput": 8079,
      "epend": 8080,
      "▁hero": 8081,
      "▁named": 8082,
      "oodle": 8083,
      "3-3": 8084,
      "▁motorcycle": 8085,
      "▁sunglasses": 8086,
      "▁wides": 8087,
      "▁what": 8088,
      "▁stories": 8089,
      "▁yout": 8090,
      "<": 8091,
      "▁sounds": 8092,
      "ical": 8093,
      "@enron_de": 8094,
      "▁eerie": 8095,
      "▁10/23/2000": 8096,
      "▁mechanics": 8097,
      "▁disability": 8098,
      "▁raphael": 8099,
      "ery": 8100,
      "ansen": 8101,
      "▁ret": 8102,
      "▁images": 8103,
      "▁12.": 8104,
      "▁updated": 8105,
      "▁jumped": 8106,
      "▁ceiling": 8107,
      "▁josh": 8108,
      "▁source": 8109,
      "▁suited": 8110,
      "▁toys": 8111,
      "▁1738": 8112,
      "▁recovery": 8113,
      "▁crab": 8114,
      "ala": 8115,
      "▁paying": 8116,
      "▁shakes": 8117,
      "▁developed": 8118,
      ".77": 8119,
      "▁seeing": 8120,
      "▁cambod": 8121,
      "▁conclude": 8122,
      "▁joyce": 8123,
      "▁crosses": 8124,
      "▁belie": 8125,
      "▁adopt": 8126,
      "▁honestly": 8127,
      "▁ukrainian": 8128,
      "▁retained": 8129,
      "▁prices": 8130,
      "▁46": 8131,
      "▁comedie": 8132,
      "▁no": 8133,
      "▁retire": 8134,
      "▁practical": 8135,
      "▁202.7": 8136,
      "▁europ": 8137,
      "▁fbi": 8138,
      "▁landings": 8139,
      "▁wife": 8140,
      "/01": 8141,
      "▁talked": 8142,
      "▁streets": 8143,
      "▁dropping": 8144,
      "▁01/2": 8145,
      "▁apply": 8146,
      "ob": 8147,
      "aska": 8148,
      "▁preparing": 8149,
      "▁11-20-": 8150,
      "▁earth": 8151,
      "▁answers": 8152,
      "▁swung": 8153,
      "▁additionally": 8154,
      "agen": 8155,
      "▁profitable": 8156,
      "▁eups": 8157,
      "▁obtain": 8158,
      "▁kandahar": 8159,
      "▁twentieth": 8160,
      "edge": 8161,
      "▁amendments": 8162,
      "▁38,000": 8163,
      "burg": 8164,
      "▁================================================": 8165,
      "▁31": 8166,
      "▁strol": 8167,
      "3rd": 8168,
      "▁emails": 8169,
      "▁twenty-": 8170,
      "iety": 8171,
      "▁rufus": 8172,
      "▁naima": 8173,
      "▁blah": 8174,
      "▁cloud": 8175,
      "▁jared": 8176,
      "▁fluff": 8177,
      "pa": 8178,
      "▁interf": 8179,
      "our": 8180,
      "▁fewer": 8181,
      "▁c": 8182,
      "▁l'": 8183,
      "▁defined": 8184,
      "▁toss": 8185,
      "▁selected": 8186,
      "lish": 8187,
      "▁cruises": 8188,
      "▁wikihow": 8189,
      "▁tab": 8190,
      "▁nasty": 8191,
      "▁mt": 8192,
      "▁watering": 8193,
      "▁ignorant": 8194,
      "▁catalog": 8195,
      "▁cur": 8196,
      "am": 8197,
      "▁rose": 8198,
      "astic": 8199,
      "▁conform": 8200,
      "▁furniture": 8201,
      "▁bad": 8202,
      "▁.x": 8203,
      "▁proof": 8204,
      "▁impression": 8205,
      "▁proponents": 8206,
      "▁embed": 8207,
      "terior": 8208,
      "ften": 8209,
      "▁complete": 8210,
      "▁tamil": 8211,
      "▁reminded": 8212,
      "▁amongst": 8213,
      "▁struggling": 8214,
      "int": 8215,
      "ushing": 8216,
      "▁percentage": 8217,
      "▁sacrif": 8218,
      "▁947": 8219,
      "ane": 8220,
      "▁laure": 8221,
      "ʃ": 8222,
      "keep": 8223,
      "ww": 8224,
      "▁cuts": 8225,
      "▁thousand": 8226,
      "▁cheaper": 8227,
      "▁polic": 8228,
      "▁honor": 8229,
      "▁http://www.4gamer.net/news/image/2005.09/2005091903": 8230,
      "▁seemed": 8231,
      "83": 8232,
      "▁verse": 8233,
      "▁widely": 8234,
      "▁styrof": 8235,
      "▁guardian": 8236,
      "▁anglo": 8237,
      "‘": 8238,
      "▁pricing": 8239,
      "▁urg": 8240,
      "▁revenue": 8241,
      "/2": 8242,
      "19": 8243,
      "▁eee": 8244,
      "pread": 8245,
      "▁individually": 8246,
      "▁conforms": 8247,
      "▁1928": 8248,
      "eb": 8249,
      "eem": 8250,
      "urch": 8251,
      "uries": 8252,
      "▁executive": 8253,
      "▁op": 8254,
      "▁arrog": 8255,
      "▁starch": 8256,
      "▁vlog": 8257,
      "▁something": 8258,
      "▁his": 8259,
      "▁hot": 8260,
      "bert": 8261,
      "819": 8262,
      "▁actually": 8263,
      "▁chinese": 8264,
      "▁cool": 8265,
      "ground": 8266,
      "▁blow": 8267,
      "▁occas": 8268,
      "▁gladly": 8269,
      "▁lined": 8270,
      "▁personality": 8271,
      "▁1623": 8272,
      "▁opportun": 8273,
      "▁veins": 8274,
      "▁spare": 8275,
      "ney": 8276,
      "▁organic": 8277,
      "men": 8278,
      "▁polite": 8279,
      "▁initially": 8280,
      "▁flau": 8281,
      "▁keeps": 8282,
      "461": 8283,
      "oler": 8284,
      "▁cows": 8285,
      "▁feels": 8286,
      "▁degrees": 8287,
      "rew": 8288,
      ":07": 8289,
      "▁opponent": 8290,
      "ecraft": 8291,
      "▁ninet": 8292,
      "▁reasonably": 8293,
      "▁approved": 8294,
      "▁08:30": 8295,
      "▁negoti": 8296,
      "▁tunnel": 8297,
      "▁humor": 8298,
      "▁yazid": 8299,
      "▁nathan": 8300,
      "▁closest": 8301,
      "▁troubled": 8302,
      "▁nothing": 8303,
      "▁chalk": 8304,
      "▁flop": 8305,
      "al.doc": 8306,
      "▁leading": 8307,
      "▁greeted": 8308,
      "▁far": 8309,
      "▁wif": 8310,
      "▁vanished": 8311,
      "▁soy": 8312,
      "▁circular": 8313,
      "▁calls": 8314,
      "ank": 8315,
      "/00": 8316,
      "▁chrome": 8317,
      "▁tofu": 8318,
      ":19": 8319,
      "▁thoughts": 8320,
      "▁40": 8321,
      "▁unn": 8322,
      "▁alab": 8323,
      "▁pace": 8324,
      "▁preserve": 8325,
      "▁gathered": 8326,
      "tery": 8327,
      "▁silkies": 8328,
      "▁directive": 8329,
      "fi": 8330,
      "▁pett": 8331,
      "arking": 8332,
      "▁unbel": 8333,
      "▁avoided": 8334,
      "▁helicopters": 8335,
      "▁ingred": 8336,
      "iest": 8337,
      "▁pie": 8338,
      "▁mass": 8339,
      "vet": 8340,
      "▁heads": 8341,
      "▁253": 8342,
      "▁1940": 8343,
      "▁appearing": 8344,
      "0's": 8345,
      "▁burnt": 8346,
      "▁traveled": 8347,
      "▁airborne": 8348,
      "eed": 8349,
      "ting": 8350,
      "▁forster": 8351,
      "▁integr": 8352,
      "▁patter": 8353,
      "▁plural": 8354,
      "adays": 8355,
      "▁authority": 8356,
      "aw": 8357,
      "▁concluded": 8358,
      "ly": 8359,
      "........": 8360,
      "▁helpful": 8361,
      "▁therapy": 8362,
      "isf": 8363,
      "fy": 8364,
      "▁decrease": 8365,
      "bed": 8366,
      "acles": 8367,
      "▁liv": 8368,
      "▁quaffle": 8369,
      "▁yeah": 8370,
      "▁enough": 8371,
      "▁nicer": 8372,
      "▁innocent": 8373,
      "▁ital": 8374,
      "▁bible": 8375,
      "enteenth": 8376,
      "organ": 8377,
      "▁vcu": 8378,
      "ement": 8379,
      "▁cler": 8380,
      "oubtedly": 8381,
      "▁lockhart": 8382,
      "▁64": 8383,
      "▁populations": 8384,
      "clud": 8385,
      "▁explo": 8386,
      "iary": 8387,
      "▁help": 8388,
      "lf": 8389,
      "▁brushing": 8390,
      "stip": 8391,
      "aches": 8392,
      "berg": 8393,
      "▁describe": 8394,
      "▁wandered": 8395,
      "▁would": 8396,
      "▁hop": 8397,
      "▁belg": 8398,
      "▁steven": 8399,
      "▁helps": 8400,
      "▁federal": 8401,
      "▁opin": 8402,
      "▁wow": 8403,
      "▁islamists": 8404,
      "▁surplus": 8405,
      "▁global": 8406,
      "▁worried": 8407,
      "▁arrested": 8408,
      "up": 8409,
      "▁hmm": 8410,
      "▁713/8": 8411,
      "ility": 8412,
      "▁esther": 8413,
      "orno": 8414,
      "isk": 8415,
      "▁1971": 8416,
      "æ": 8417,
      "boy": 8418,
      "▁08:50": 8419,
      "▁declaring": 8420,
      "81": 8421,
      "aria": 8422,
      "▁stephen": 8423,
      "▁business": 8424,
      "'": 8425,
      "▁marvel": 8426,
      "▁prod": 8427,
      "▁rep": 8428,
      "▁stored": 8429,
      "▁electoral": 8430,
      "ided": 8431,
      "▁driving": 8432,
      "▁dar": 8433,
      "▁28": 8434,
      "▁plan": 8435,
      "bat": 8436,
      "▁live": 8437,
      "and": 8438,
      "▁marl": 8439,
      "▁powers": 8440,
      "▁quotes": 8441,
      "▁august": 8442,
      "▁content": 8443,
      "▁became": 8444,
      "osh": 8445,
      "▁perf": 8446,
      "▁hung": 8447,
      "▁flag": 8448,
      "▁aside": 8449,
      "ither": 8450,
      "▁thro": 8451,
      "▁dear": 8452,
      "zilla": 8453,
      "▁2014": 8454,
      "▁300,000": 8455,
      "▁scott": 8456,
      "▁reflected": 8457,
      "after": 8458,
      "▁30th": 8459,
      "▁kr": 8460,
      "ass": 8461,
      "craft": 8462,
      "▁ron": 8463,
      "▁diss": 8464,
      "▁sens": 8465,
      "▁_____": 8466,
      "render": 8467,
      "▁adver": 8468,
      "▁architect": 8469,
      "▁fitness": 8470,
      "▁activ": 8471,
      "▁revol": 8472,
      "▁learned": 8473,
      "apore": 8474,
      "path": 8475,
      "▁vietn": 8476,
      "▁recorded": 8477,
      "▁nationwide": 8478,
      "▁finger": 8479,
      "▁202.45": 8480,
      "▁ms": 8481,
      "▁coconut": 8482,
      "▁swinging": 8483,
      "▁vallee": 8484,
      "▁switched": 8485,
      "▁exem": 8486,
      ".jpg": 8487,
      "erina": 8488,
      "▁saus": 8489,
      "▁apar": 8490,
      "▁so": 8491,
      "▁vince": 8492,
      "▁marian": 8493,
      "▁hod": 8494,
      "▁rhino": 8495,
      "▁raph": 8496,
      "water": 8497,
      "▁creative": 8498,
      "▁ale": 8499,
      "▁realization": 8500,
      "▁march": 8501,
      "▁measures": 8502,
      "▁intim": 8503,
      "▁distrib": 8504,
      "▁1530": 8505,
      "▁greatly": 8506,
      "▁explained": 8507,
      "▁organized": 8508,
      "▁alar": 8509,
      "▁10/2": 8510,
      "-e": 8511,
      "▁denmark": 8512,
      "jam": 8513,
      "▁databases": 8514,
      "▁guilty": 8515,
      "iffer": 8516,
      "ized": 8517,
      "▁viol": 8518,
      "ig": 8519,
      "▁vis": 8520,
      "▁08/17/2000": 8521,
      "values": 8522,
      "▁britney": 8523,
      "▁fair": 8524,
      "▁!.": 8525,
      "azu": 8526,
      "▁favour": 8527,
      "▁tract": 8528,
      "▁cooperation": 8529,
      "▁electrical": 8530,
      "▁barbara": 8531,
      "▁hoax": 8532,
      "rest": 8533,
      "utions": 8534,
      "▁bookstore": 8535,
      "▁gotted": 8536,
      "▁knights": 8537,
      "▁1709": 8538,
      "▁inaug": 8539,
      "▁timothy": 8540,
      "▁5.8": 8541,
      "ario": 8542,
      "▁season": 8543,
      "▁compulsive": 8544,
      "▁former": 8545,
      "▁jersey": 8546,
      "itage": 8547,
      "▁ak": 8548,
      "▁ronn": 8549,
      "▁wild": 8550,
      "▁ambitious": 8551,
      "▁influ": 8552,
      "▁tire": 8553,
      "▁pole": 8554,
      "ppo": 8555,
      "▁accepting": 8556,
      "▁intervening": 8557,
      "▁hasidim": 8558,
      "ant": 8559,
      "▁active": 8560,
      "▁explor": 8561,
      "rical": 8562,
      "▁versus": 8563,
      "▁outcom": 8564,
      "▁thri": 8565,
      "▁columns": 8566,
      "▁towed": 8567,
      "▁1602": 8568,
      "rent": 8569,
      "▁freedoms": 8570,
      "ep": 8571,
      "entic": 8572,
      "expl": 8573,
      "▁leung": 8574,
      "ize": 8575,
      "ackl": 8576,
      "▁iraq": 8577,
      "rosp": 8578,
      "▁australian": 8579,
      "gen": 8580,
      "▁mike": 8581,
      "▁considerably": 8582,
      "ihood": 8583,
      "ustom": 8584,
      "▁dent": 8585,
      "▁.......": 8586,
      "▁uncertain": 8587,
      "▁applications": 8588,
      "▁elbow": 8589,
      "▁targeting": 8590,
      "▁headache": 8591,
      "▁uneasiness": 8592,
      "▁hal": 8593,
      "▁;": 8594,
      "break": 8595,
      "ed": 8596,
      "▁are": 8597,
      "▁anc": 8598,
      "▁absence": 8599,
      "▁fortune": 8600,
      "▁interim": 8601,
      "▁ross": 8602,
      "▁scanning": 8603,
      "onathan": 8604,
      "eline": 8605,
      "▁agre": 8606,
      "ca": 8607,
      "▁spor": 8608,
      "▁naq": 8609,
      "▁if": 8610,
      "psu": 8611,
      "▁overwhelming": 8612,
      "orough": 8613,
      "▁educated": 8614,
      "▁chantilly": 8615,
      "▁cannon": 8616,
      "▁esp": 8617,
      "▁kent": 8618,
      "iculous": 8619,
      "▁kingdom": 8620,
      "▁oc": 8621,
      "▁immers": 8622,
      "▁sched": 8623,
      "▁hello": 8624,
      "▁evaluate": 8625,
      "▁tomato": 8626,
      "▁justified": 8627,
      "▁9:30": 8628,
      "▁majority": 8629,
      "▁realize": 8630,
      "▁amm": 8631,
      "▁seeking": 8632,
      "itively": 8633,
      "▁vegetable": 8634,
      "▁repaired": 8635,
      "neath": 8636,
      "▁cabins": 8637,
      "▁154": 8638,
      "▁730": 8639,
      "▁posture": 8640,
      "▁mwet": 8641,
      "ocentrism": 8642,
      "▁promise": 8643,
      "▁successfully": 8644,
      "▁general": 8645,
      "5th": 8646,
      "▁heaven": 8647,
      "r": 8648,
      "ear": 8649,
      "▁accountant": 8650,
      "▁entrance": 8651,
      "▁accomm": 8652,
      "▁leaf": 8653,
      "utely": 8654,
      "▁items": 8655,
      "▁1776": 8656,
      "▁transl": 8657,
      "▁wang": 8658,
      "▁joan": 8659,
      "▁dramat": 8660,
      "▁airports": 8661,
      "▁serving": 8662,
      "▁appointment": 8663,
      "▁planted": 8664,
      "▁role": 8665,
      "je": 8666,
      "ces": 8667,
      "ses": 8668,
      "▁minnesota": 8669,
      "▁damn": 8670,
      "▁broad": 8671,
      "▁assassinated": 8672,
      "▁shakespeare": 8673,
      "erved": 8674,
      "▁tele": 8675,
      "pts": 8676,
      "▁lope": 8677,
      "▁kitty": 8678,
      "▁gramp": 8679,
      "▁until": 8680,
      "▁ground": 8681,
      "▁inv": 8682,
      "tt": 8683,
      "▁450": 8684,
      "are": 8685,
      "▁pyr": 8686,
      "hand": 8687,
      "▁deadline": 8688,
      "▁manufactured": 8689,
      ".htm": 8690,
      "▁romance": 8691,
      "stab": 8692,
      "▁virgin": 8693,
      "▁amount": 8694,
      "▁chal": 8695,
      "▁distance": 8696,
      "▁possibly": 8697,
      "▁tourism": 8698,
      "▁stamp": 8699,
      "▁seas": 8700,
      "▁hunh": 8701,
      "▁gaps": 8702,
      "▁isi": 8703,
      "▁adequately": 8704,
      "▁1774": 8705,
      "▁consequences": 8706,
      "jj": 8707,
      "▁dal": 8708,
      "erm": 8709,
      "▁uncomfort": 8710,
      "▁-2-f.doc": 8711,
      "▁collection": 8712,
      "▁horribly": 8713,
      "▁crick": 8714,
      "▁ado": 8715,
      "▁mine": 8716,
      "▁rout": 8717,
      "▁bw": 8718,
      "00": 8719,
      "▁programming": 8720,
      "kin": 8721,
      "berries": 8722,
      "21": 8723,
      "▁withdraw": 8724,
      "▁centre": 8725,
      "▁di": 8726,
      "▁exhaust": 8727,
      "3736": 8728,
      "▁stated": 8729,
      "oped": 8730,
      "▁armored": 8731,
      "▁chas": 8732,
      "case": 8733,
      "er": 8734,
      "onut": 8735,
      "ives": 8736,
      "for": 8737,
      "▁range": 8738,
      "▁btw": 8739,
      "▁marg": 8740,
      "▁1943": 8741,
      "▁involves": 8742,
      "▁oldest": 8743,
      "ated": 8744,
      "-of": 8745,
      "▁imprisoned": 8746,
      "▁unique": 8747,
      "▁outside": 8748,
      "▁interview": 8749,
      "▁1800": 8750,
      "enance": 8751,
      "▁demanded": 8752,
      "▁terrorists": 8753,
      "ope": 8754,
      "ip": 8755,
      "▁govern": 8756,
      "▁2,500": 8757,
      "▁worm": 8758,
      "▁appell": 8759,
      "▁buttons": 8760,
      "▁confirms": 8761,
      "▁br": 8762,
      "▁connections": 8763,
      "▁salad": 8764,
      "▁their": 8765,
      "▁cages": 8766,
      "▁meter": 8767,
      "▁post": 8768,
      "▁glor": 8769,
      "▁ench": 8770,
      "▁dishes": 8771,
      "▁bath+": 8772,
      "▁agricult": 8773,
      "▁irrele": 8774,
      "▁people": 8775,
      "ul": 8776,
      "▁3": 8777,
      "▁space": 8778,
      "ild": 8779,
      "▁diverse": 8780,
      "▁ii": 8781,
      "▁dozen": 8782,
      "ographic": 8783,
      "▁crow": 8784,
      "▁spr": 8785,
      "▁islam": 8786,
      "▁miles": 8787,
      "v": 8788,
      "▁vietnam": 8789,
      "!?": 8790,
      "▁obligation": 8791,
      "▁pu": 8792,
      "uma": 8793,
      "onc": 8794,
      "▁delays": 8795,
      "▁travis": 8796,
      "▁neighbours": 8797,
      "39": 8798,
      "ashed": 8799,
      "▁anything": 8800,
      "▁affluent": 8801,
      "▁declaration": 8802,
      "▁:?": 8803,
      "ast": 8804,
      "▁underlying": 8805,
      "▁1220": 8806,
      "▁gib": 8807,
      ".st": 8808,
      "▁epis": 8809,
      "031": 8810,
      "▁counties": 8811,
      "▁purchased": 8812,
      "▁glac": 8813,
      "▁84": 8814,
      "vely": 8815,
      "asse": 8816,
      "▁fare": 8817,
      "▁..": 8818,
      "leum": 8819,
      "▁202.456.2461": 8820,
      "▁regarding": 8821,
      "▁sections": 8822,
      "▁documented": 8823,
      "▁guilt": 8824,
      "▁weasleys": 8825,
      "▁division": 8826,
      "▁avo": 8827,
      "ise": 8828,
      "▁luna": 8829,
      "ove": 8830,
      "iro": 8831,
      "▁micro": 8832,
      "▁indicates": 8833,
      "▁shoes": 8834,
[...]
