{
  "version": "1.0",
  "truncation": null,
  "padding": null,
  "added_tokens": [
    {
      "id": 6528,
      "content": "[PAD]",
      "single_word": false,
      "lstrip": false,
      "rstrip": false,
      "normalized": false,
      "special": true
    },
    {
      "id": 7696,
      "content": "[MASK]",
      "single_word": false,
      "lstrip": false,
      "rstrip": false,
      "normalized": false,
      "special": true
    },
    {
      "id": 7870,
      "content": "[UNK]",
      "single_word": false,
      "lstrip": false,
      "rstrip": false,
      "normalized": false,
      "special": true
    },
    {
      "id": 12910,
      "content": "[CLS]",
      "single_word": false,
      "lstrip": false,
      "rstrip": false,
      "normalized": false,
      "special": true
    },
    {
      "id": 13327,
      "content": "[SEP]",
      "single_word": false,
      "lstrip": false,
      "rstrip": false,
      "normalized": false,
      "special": true
    }
  ],
  "normalizer": {
    "type": "Sequence",
    "normalizers": [
      {
        "type": "NFD"
      },
      {
        "type": "Lowercase"
      },
      {
        "type": "StripAccents"
      }
    ]
  },
  "pre_tokenizer": {
    "type": "Sequence",
    "pretokenizers": [
      {
        "type": "Metaspace",
        "replacement": "▁",
        "prepend_scheme": "always",
        "split": true
      }
    ]
  },
  "post_processor": {
    "type": "TemplateProcessing",
    "single": [
      {
        "SpecialToken": {
          "id": "[CLS]",
          "type_id": 0
        }
      },
      {
        "Sequence": {
          "id": "A",
          "type_id": 0
        }
      },
      {
        "SpecialToken": {
          "id": "[SEP]",
          "type_id": 0
        }
      }
    ],
    "pair": [
      {
        "SpecialToken": {
          "id": "[CLS]",
          "type_id": 0
        }
      },
      {
        "Sequence": {
          "id": "A",
          "type_id": 0
        }
      },
      {
        "SpecialToken": {
          "id": "[SEP]",
          "type_id": 0
        }
      },
      {
        "Sequence": {
          "id": "B",
          "type_id": 1
        }
      },
      {
        "SpecialToken": {
          "id": "[SEP]",
          "type_id": 1
        }
      }
    ],
    "special_tokens": {
      "[CLS]": {
        "id": "[CLS]",
        "ids": [
          12910
        ],
        "tokens": [
          "[CLS]"
        ]
      },
      "[SEP]": {
        "id": "[SEP]",
        "ids": [
          13327
        ],
        "tokens": [
          "[SEP]"
        ]
      }
    }
  },
  "decoder": {
    "type": "Metaspace",
    "replacement": "▁",
    "prepend_scheme": "always",
    "split": true
  },
  "model": {
    "type": "WordPiece",
    "unk_token": "[UNK]",
    "continuing_subword_prefix": "##",
    "max_input_chars_per_word": 100,
    "vocab": {
      "▁candy": 0,
      "▁threats": 1,
      "▁rude": 2,
      "##emical": 3,
      "##津": 4,
      "##96": 5,
      "▁squirt": 6,
      "▁slipped": 7,
      "▁sic": 8,
      "▁cognition": 9,
      "##to": 10,
      "▁chat": 11,
      "▁unus": 12,
      "▁upr": 13,
      "▁intoler": 14,
      "▁hast": 15,
      "▁12/2": 16,
      "##ulate": 17,
      "▁allocated": 18,
      "▁circles": 19,
      "▁interv": 20,
      "▁there": 21,
      "▁trafficking": 22,
      "▁date": 23,
      "▁circum": 24,
      "▁twirl": 25,
      "▁passages": 26,
      "##my": 27,
      "▁dies": 28,
      "##estone": 29,
      "▁ec": 30,
      "##0s": 31,
      "▁involved": 32,
      "##tical": 33,
      "▁ha": 34,
      "▁must": 35,
      "##________": 36,
      "▁proble": 37,
      "▁boots": 38,
      "▁tells": 39,
      "##asser": 40,
      "▁perce": 41,
      "▁form": 42,
      "▁biological": 43,
      "##-5": 44,
      "▁jr.": 45,
      "##illes": 46,
      "▁1589": 47,
      "▁caribbean": 48,
      "##wi": 49,
      "##una": 50,
      "▁beck": 51,
      "▁conventions": 52,
      "##inger": 53,
      "##aste": 54,
      "##ament": 55,
      "▁fortier": 56,
      "▁forgotten": 57,
      "▁1,200": 58,
      "▁2030": 59,
      "##resp": 60,
      "▁areas": 61,
      "▁thomas": 62,
      "▁scorp": 63,
      "▁redlined": 64,
      "▁odds": 65,
      "##son": 66,
      "▁resources": 67,
      "▁whistle": 68,
      "▁pharmaceutical": 69,
      "▁exclus": 70,
      "▁recommended": 71,
      "▁q": 72,
      "▁joining": 73,
      "▁paint": 74,
      "##53": 75,
      "▁pun": 76,
      "▁provocation": 77,
      "▁wanted": 78,
      "▁indones": 79,
      "▁football": 80,
      "▁establish": 81,
      "▁appears": 82,
      "▁thursdays": 83,
      "##eree": 84,
      "##encies": 85,
      "▁futures": 86,
      "▁guidelines": 87,
      "▁wrink": 88,
      "▁1562": 89,
      "▁created": 90,
      "▁bathroom": 91,
      "▁grants": 92,
      "▁snuffy": 93,
      "▁4.6": 94,
      "▁lest": 95,
      "##ways": 96,
      "▁wedding": 97,
      "▁1609": 98,
      "▁negligence": 99,
      "##ects": 100,
      "▁wait": 101,
      "##/7": 102,
      "▁voters": 103,
      "##itage": 104,
      "▁laundry": 105,
      "▁commerce": 106,
      "▁old": 107,
      "##rav": 108,
      "##/10/2000": 109,
      "▁buy": 110,
      "##aces": 111,
      "▁sinking": 112,
      "▁shackle": 113,
      "##inence": 114,
      "▁map": 115,
      "▁watch": 116,
      "▁well": 117,
      "▁iran": 118,
      "▁employees": 119,
      "▁suff": 120,
      "▁replication": 121,
      "▁childhood": 122,
      "▁gaining": 123,
      "▁squ": 124,
      "▁simon": 125,
      "▁pile": 126,
      "##awi": 127,
      "##-p": 128,
      "▁y": 129,
      "▁israelis": 130,
      "▁dong": 131,
      "▁daily": 132,
      "▁bench": 133,
      "##ز": 134,
      "▁sunny": 135,
      "▁merry": 136,
      "##ful": 137,
      "▁cham": 138,
      "▁answering": 139,
      "▁attractive": 140,
      "▁hm": 141,
      "##han": 142,
      "##ocks": 143,
      "▁triumph": 144,
      "▁spend": 145,
      "▁overseas": 146,
      "▁hilton": 147,
      "▁input": 148,
      "▁u": 149,
      "▁headed": 150,
      "▁charlie": 151,
      "▁ammunition": 152,
      "▁agel": 153,
      "##utes": 154,
      "▁counterpart": 155,
      "▁sufaat": 156,
      "▁central": 157,
      "▁!!!?": 158,
      "##urally": 159,
      "▁gives": 160,
      "▁gallon": 161,
      "▁fig": 162,
      "▁carl": 163,
      "▁wonderful": 164,
      "##ص": 165,
      "▁indian": 166,
      "▁once": 167,
      "▁1635": 168,
      "▁hard": 169,
      "▁2017": 170,
      "##nesday": 171,
      "▁practices": 172,
      "▁comparative": 173,
      "▁promises": 174,
      "▁mar": 175,
      "▁invention": 176,
      "▁enormous": 177,
      "▁stub": 178,
      "##read": 179,
      "▁rip": 180,
      "▁belts": 181,
      "▁oblig": 182,
      "##actions": 183,
      "▁felt": 184,
      "▁collectively": 185,
      "▁excitement": 186,
      "▁afghan": 187,
      "▁finance": 188,
      "##04": 189,
      "▁ra": 190,
      "##fly": 191,
      "##aleck": 192,
      "▁obstacle": 193,
      "▁rescued": 194,
      "##roc": 195,
      "▁blows": 196,
      "▁driver": 197,
      "▁donkey": 198,
      "▁identify": 199,
      "▁memorial": 200,
      "▁fail": 201,
      "▁plug": 202,
      "▁will": 203,
      "▁spons": 204,
      "▁amendment": 205,
      "▁contrad": 206,
      "▁sir": 207,
      "##图": 208,
      "▁golden": 209,
      "▁with": 210,
      "▁const": 211,
      "▁commission": 212,
      "▁upside": 213,
      "▁first": 214,
      "▁forward": 215,
      "▁trees": 216,
      "▁pushes": 217,
      "##.10": 218,
      "▁hasid": 219,
      "▁mid-": 220,
      "▁2018": 221,
      "##84": 222,
      "##1.": 223,
      "▁outcome": 224,
      "▁unnecess": 225,
      "##-99": 226,
      "▁papers": 227,
      "##enron.com": 228,
      "▁management": 229,
      "##teen": 230,
      "▁coinc": 231,
      "▁33,000": 232,
      "▁mistakes": 233,
      "▁cradle": 234,
      "##un": 235,
      "▁conduct": 236,
      "▁...................": 237,
      "▁aaf": 238,
      "▁histories": 239,
      "##reen": 240,
      "▁wai": 241,
      "##ioned": 242,
      "▁indic": 243,
      "▁varied": 244,
      "▁rogers": 245,
      "##itude": 246,
      "▁ever": 247,
      "##oice": 248,
      "##arr": 249,
      "##ished": 250,
      "▁888.916.718": 251,
      "▁distributed": 252,
      "▁dried": 253,
      "▁wong": 254,
      "▁reserve": 255,
      "▁boy": 256,
      "▁prosecut": 257,
      "##anga": 258,
      "▁sadly": 259,
      "▁☏": 260,
      "▁disappear": 261,
      "▁prophet": 262,
      "▁sometimes": 263,
      "▁subjected": 264,
      "##se": 265,
      "▁syd": 266,
      "▁partnership": 267,
      "▁motive": 268,
      "▁info": 269,
      "▁carney": 270,
      "▁01:14": 271,
      "##alo": 272,
      "##ead": 273,
      "▁pillars": 274,
      "▁forehead": 275,
      "##osoph": 276,
      "▁nut": 277,
      "##inity": 278,
      "##isible": 279,
      "##rench": 280,
      "▁wy": 281,
      "▁continent": 282,
      "##@p": 283,
      "▁said": 284,
      "▁applause": 285,
      "▁yan": 286,
      "▁demon": 287,
      "▁marilyn": 288,
      "▁inn": 289,
      "##cing": 290,
      "▁obtained": 291,
      "▁mat": 292,
      "##claim": 293,
      "▁cfl": 294,
      "▁dimension": 295,
      "▁shi": 296,
      "▁caves": 297,
      "▁habits": 298,
      "▁oil": 299,
      "▁control": 300,
      "▁tacoma": 301,
      "▁bec": 302,
      "##agen": 303,
      "▁tires": 304,
      "▁jobs": 305,
      "▁support": 306,
      "☏": 307,
      "##org": 308,
      "##jects": 309,
      "▁fully": 310,
      "▁reality": 311,
      "##}*{===<----": 312,
      "▁transmedia": 313,
      "▁enjoyed": 314,
      "▁3,202.61": 315,
      "▁tickles": 316,
      "▁restruct": 317,
      "▁alleged": 318,
      "##index": 319,
      "▁darkness": 320,
      "##ails": 321,
      "▁44,000": 322,
      "▁councill": 323,
      "▁sentiment": 324,
      "##takana": 325,
      "▁05/01/2001": 326,
      "▁known": 327,
      "▁relat": 328,
      "##ensen": 329,
      "▁soldier": 330,
      "▁paula": 331,
      "▁nicely": 332,
      "▁10th": 333,
      "▁funds": 334,
      "▁********************************": 335,
      "##vant": 336,
      "▁ray": 337,
      "▁anthony": 338,
      "▁egypt": 339,
      "▁builders": 340,
      "▁pur": 341,
      "##±": 342,
      "##vo": 343,
      "##,00": 344,
      "##bour": 345,
      "▁mailto:": 346,
      "▁colombo": 347,
      "##iguous": 348,
      "##ke": 349,
      "▁kleenex": 350,
      "▁tragedies": 351,
      "▁useful": 352,
      "▁divid": 353,
      "▁shiny": 354,
      "▁ruth": 355,
      "##atively": 356,
      "▁approxim": 357,
      "▁obv": 358,
      "▁foreigner": 359,
      "##arians": 360,
      "##ality": 361,
      "##ider": 362,
      "▁prot": 363,
      "##semin": 364,
      "▁draw": 365,
      "##igr": 366,
      "▁lean": 367,
      "▁20.doc": 368,
      "▁party": 369,
      "▁blood": 370,
      "▁emphasize": 371,
      "▁abilities": 372,
      "▁surroundings": 373,
      "▁communists": 374,
      "▁wipe": 375,
      "▁1594": 376,
      "▁organizing": 377,
      "▁leop": 378,
      "##dan": 379,
      "▁equip": 380,
      "▁maintains": 381,
      "▁748": 382,
      "##macion": 383,
      "▁graph": 384,
      "▁ew": 385,
      "▁thom": 386,
      "▁campaign": 387,
      "▁scan": 388,
      "▁ice": 389,
      "##yan": 390,
      "▁programs": 391,
      "▁phone": 392,
      "▁dud": 393,
      "▁macbeth": 394,
      "▁soft": 395,
      "▁updates": 396,
      "▁rough": 397,
      "▁server": 398,
      "##ad": 399,
      "”": 400,
      "##eak": 401,
      "▁mister": 402,
      "▁bon": 403,
      "▁arising": 404,
      "##earing": 405,
      "▁brave": 406,
      "▁abbreviation": 407,
      "▁bigger": 408,
      "▁brook": 409,
      "▁scrut": 410,
      "▁gent": 411,
      "▁tarzan": 412,
      "##ual": 413,
      "▁dip": 414,
      "##9th": 415,
      "##ards": 416,
      "▁starting": 417,
      "▁egyptian": 418,
      "▁window": 419,
      "▁04:37": 420,
      "▁earl": 421,
      "▁examination": 422,
      "▁paints": 423,
      "▁intensive": 424,
      "##pport": 425,
      "▁song": 426,
      "##izing": 427,
      "##ill": 428,
      "##alee": 429,
      "▁scored": 430,
      "▁impress": 431,
      "▁robinson": 432,
      "▁mm": 433,
      "##????????????????????????????????": 434,
      "▁rap": 435,
      "▁become": 436,
      "▁modification": 437,
      "▁enh": 438,
      "##df": 439,
      "▁devoted": 440,
      "▁developing": 441,
      "▁filed": 442,
      "▁kim": 443,
      "##ieved": 444,
      "▁jama": 445,
      "▁flour": 446,
      "▁banned": 447,
      "##@comp": 448,
      "▁refugee": 449,
      "▁tut": 450,
      "▁autumn": 451,
      "▁fabulous": 452,
      "##renched": 453,
      "▁sim": 454,
      "▁limitations": 455,
      "▁lucy": 456,
      "▁lion": 457,
      "▁hect": 458,
      "▁wolves": 459,
      "▁criminal": 460,
      "▁s/h": 461,
      "▁prel": 462,
      "▁prob": 463,
      "▁airline": 464,
      "▁jury": 465,
      "▁giov": 466,
      "▁associated": 467,
      "▁strength": 468,
      "▁asap": 469,
      "▁rising": 470,
      "▁sources": 471,
      "▁1952": 472,
      "▁possessions": 473,
      "▁commissioned": 474,
      "▁3/8/00": 475,
      "▁badge": 476,
      "▁painting": 477,
      "##risk": 478,
      "▁historic": 479,
      "▁does": 480,
      "▁11/0": 481,
      "▁chronic": 482,
      "▁satisfaction": 483,
      "▁calculated": 484,
      "▁realised": 485,
      "▁analy": 486,
      "▁booking": 487,
      "▁stoo": 488,
      "▁grade": 489,
      "▁814014": 490,
      "▁ask": 491,
      "▁parallel": 492,
      "▁schedule": 493,
      "▁lil": 494,
      "▁unkn": 495,
      "##ong": 496,
      "##arked": 497,
      "▁encouraged": 498,
      "▁boeing": 499,
      "##cill": 500,
      "##omen": 501,
      "▁voldemort": 502,
      "▁globe": 503,
      "▁interpre": 504,
      "▁assert": 505,
      "▁kiss": 506,
      "▁read": 507,
      "▁profession": 508,
      "▁quartile": 509,
      "▁mc": 510,
      "▁notably": 511,
      "▁extremist": 512,
      "▁clothes": 513,
      "▁mood": 514,
      "▁proposals": 515,
      "▁misc": 516,
      "##ito": 517,
      "▁alaska": 518,
      "##eter": 519,
      "▁illusion": 520,
      "▁bri": 521,
      "▁-----": 522,
      "▁bulldozer": 523,
      "▁tracks": 524,
      "▁ob": 525,
      "▁satisfy": 526,
      "▁looming": 527,
      "##led": 528,
      "##-m": 529,
      "▁hospital": 530,
      "▁transp": 531,
      "▁w.": 532,
      "▁wished": 533,
      "##iss": 534,
      "▁1950": 535,
      "▁mud": 536,
      "▁8:00": 537,
      "▁thais": 538,
      "▁corps": 539,
      "▁baking": 540,
      "▁taj": 541,
      "▁delhi": 542,
      "▁hun": 543,
      "##ti": 544,
      "▁homeland": 545,
      "▁alter": 546,
      "▁forever": 547,
      "▁reached": 548,
      "##esota": 549,
      "▁overwhel": 550,
      "##oth": 551,
      "▁received": 552,
      "▁sunlight": 553,
      "▁80435": 554,
      "▁1833": 555,
      "▁delta": 556,
      "▁cox": 557,
      "##ato": 558,
      "▁dut": 559,
      "▁dna": 560,
      "▁cycl": 561,
      "▁surrounded": 562,
      "▁amounts": 563,
      "▁tide": 564,
      "▁gam": 565,
      "▁consumers": 566,
      "▁yale": 567,
      "▁contem": 568,
      "▁alth": 569,
      "▁straps": 570,
      "▁communist": 571,
      "▁proceeding": 572,
      "▁phd": 573,
      "▁shia": 574,
      "▁implications": 575,
      "##dies": 576,
      "▁gloria": 577,
      "▁communicated": 578,
      "▁hous": 579,
      "▁socc": 580,
      "▁francois": 581,
      "▁lung": 582,
      "▁ocho": 583,
      "▁rank": 584,
      "▁thirtieth": 585,
      "▁cruelty": 586,
      "▁n": 587,
      "▁stopping": 588,
      "##ray": 589,
      "▁cap": 590,
      "##ilt": 591,
      "##8-7": 592,
      "##code": 593,
      "##thew": 594,
      "▁facilitate": 595,
      "▁solicit": 596,
      "▁highest": 597,
      "▁1100": 598,
      "▁'ll": 599,
      "▁limb": 600,
      "▁signoff": 601,
      "▁dr": 602,
      "▁meth": 603,
      "▁yam": 604,
      "▁call": 605,
      "▁undermine": 606,
      "▁crossed": 607,
      "##comm": 608,
      "##ploy": 609,
      "▁spect": 610,
      "##vor": 611,
      "##l": 612,
      "▁rainy": 613,
      "▁[...]": 614,
      "▁using": 615,
      "▁ecc": 616,
      "##ican": 617,
      "##aps": 618,
      "##ored": 619,
      "##ld": 620,
      "▁beneath": 621,
      "##icult": 622,
      "##book": 623,
      "▁spark": 624,
      "▁farm": 625,
      "▁pulling": 626,
      "##edeen": 627,
      "▁concerns": 628,
      "▁cambridge": 629,
      "▁fruits": 630,
      "▁529999": 631,
      "▁fantastic": 632,
      "▁zion": 633,
      "##hing": 634,
      "▁communic": 635,
      "▁exile": 636,
      "▁beetle": 637,
      "▁chin": 638,
      "▁introduce": 639,
      "▁credit": 640,
      "##arf": 641,
      "▁artistic": 642,
      "▁methods": 643,
      "▁undoubtedly": 644,
      "##search": 645,
      "▁sidd": 646,
      "##ason": 647,
      "▁dp": 648,
      "##ctic": 649,
      "▁scrub": 650,
      "▁classified": 651,
      "▁liquidweb": 652,
      "▁fetch": 653,
      "▁sony": 654,
      "▁gel": 655,
      "▁dodge": 656,
      "▁hopes": 657,
      "▁bot": 658,
      "##enses": 659,
      "▁212": 660,
      "##erals": 661,
      "▁desperately": 662,
      "##31": 663,
      "▁points": 664,
      "▁breat": 665,
      "▁analysts": 666,
      "##aa": 667,
      "▁senior": 668,
      "▁96": 669,
      "▁stren": 670,
      "▁legos": 671,
      "▁locomotive": 672,
      "▁mrs.": 673,
      "▁americans": 674,
      "▁countless": 675,
      "▁pse": 676,
      "ς": 677,
      "▁apparent": 678,
      "▁scar": 679,
      "##pper": 680,
      "▁charming": 681,
      "##ep": 682,
      "▁sav": 683,
      "▁lif": 684,
      "▁destiny": 685,
      "▁popped": 686,
      "▁922": 687,
      "▁potato": 688,
      "▁tort": 689,
      "##ism": 690,
      "▁eighteen": 691,
      "▁muslims": 692,
      "▁chase": 693,
      "▁effectiveness": 694,
      "▁confer": 695,
      "##ook": 696,
      "▁alphabet": 697,
      "▁ill": 698,
      "##ancing": 699,
      "▁arguing": 700,
      "##bar": 701,
      "▁escaped": 702,
      "▁adults": 703,
      "##ave": 704,
      "##amp": 705,
      "##-in": 706,
      "▁03:48": 707,
      "▁animals": 708,
      "##443-3": 709,
      "▁e.": 710,
      "##eller": 711,
      "▁lb": 712,
      "▁oregon": 713,
      "▁tasty": 714,
      "▁kennedy": 715,
      "▁bird": 716,
      "##berts": 717,
      "▁thirds": 718,
      "##iki": 719,
      "▁tresp": 720,
      "▁mothers": 721,
      "##time": 722,
      "##andy": 723,
      "▁agency": 724,
      "▁showing": 725,
      "▁naval": 726,
      "▁indirect": 727,
      "▁marvelous": 728,
      "▁09:45": 729,
      "▁cd": 730,
      "▁cia": 731,
      "▁pilot": 732,
      "▁authentic": 733,
      "▁trap": 734,
      "▁spices": 735,
      "▁tastes": 736,
      "▁11/7": 737,
      "##lied": 738,
      "▁sleepy": 739,
      "▁excel": 740,
      "##erald": 741,
      "▁oo": 742,
      "##terior": 743,
      "▁giv": 744,
      "##oil": 745,
      "▁supernat": 746,
      "##uded": 747,
      "▁alternative": 748,
      "▁accum": 749,
      "▁operative": 750,
      "▁extending": 751,
      "##istry": 752,
      "▁g.": 753,
      "▁stare": 754,
      "▁visitor": 755,
      "##other": 756,
      "▁anonymous": 757,
      "▁charged": 758,
      "▁assigned": 759,
      "##²": 760,
      "##ger": 761,
      "▁l2": 762,
      "##-2": 763,
      "▁dame": 764,
      "▁sandwiches": 765,
      "▁freak": 766,
      "▁recc": 767,
      "▁libriv": 768,
      "##oli": 769,
      "##ace": 770,
      "▁1947": 771,
      "##1-9": 772,
      "##omm": 773,
      "▁conqu": 774,
      "▁overalls": 775,
      "▁sals": 776,
      "▁sars": 777,
      "##omic": 778,
      "▁tribe": 779,
      "##atisf": 780,
      "▁37": 781,
      "▁plenty": 782,
      "##grad": 783,
      "▁unit": 784,
      "▁alt.": 785,
      "▁guardia": 786,
      "▁16.379": 787,
      "▁mess": 788,
      "▁faint": 789,
      "▁spagh": 790,
      "##be": 791,
      "▁bay": 792,
      "▁milit": 793,
      "▁pret": 794,
      "##rou": 795,
      "##roleum": 796,
      "▁veto": 797,
      "▁comment": 798,
      "##/15": 799,
      "##isan": 800,
      "▁cooler": 801,
      "▁unesco": 802,
      "▁sunshine": 803,
      "▁conducting": 804,
      "▁youn": 805,
      "▁messages": 806,
      "▁chairs": 807,
      "▁i.e.": 808,
      "▁thai": 809,
      "##uster": 810,
      "▁hamsters": 811,
      "▁resc": 812,
      "##lv": 813,
      "▁co": 814,
      "▁across": 815,
      "▁137": 816,
      "▁finishing": 817,
      "▁respects": 818,
      "▁df": 819,
      "##zan": 820,
      "▁phail": 821,
      "▁appe": 822,
      "▁proceedings": 823,
      "##cum": 824,
      "▁demanding": 825,
      "▁fountain": 826,
      "▁beating": 827,
      "##antic": 828,
      "▁tenth": 829,
      "▁ian": 830,
      "▁regulate": 831,
      "▁pere": 832,
      "##nb": 833,
      "▁powerful": 834,
      "▁lime": 835,
      "▁whoo": 836,
      "##acked": 837,
      "▁constituency": 838,
      "▁asleep": 839,
      "▁2.9": 840,
      "▁ded": 841,
      "▁5th": 842,
      "▁sle": 843,
      "▁twist": 844,
      "▁315": 845,
      "▁jamie": 846,
      "▁hosting": 847,
      "▁die": 848,
      "▁lately": 849,
      "▁reint": 850,
      "▁biting": 851,
      "▁demonstration": 852,
      "▁yellow": 853,
      "##boy": 854,
      "##dered": 855,
      "▁ce": 856,
      "▁neighbor": 857,
      "##clud": 858,
      "▁thir": 859,
      "▁candidate": 860,
      "▁ger": 861,
      "##ones@": 862,
      "夏": 863,
      "▁commodity": 864,
      "##onse": 865,
      "##ator": 866,
      "##red": 867,
      "▁chemicals": 868,
      "##ized": 869,
      "▁son": 870,
      "▁mill": 871,
      "##ject": 872,
      "##gal": 873,
      "▁socially": 874,
      "##e": 875,
      "##7/2001": 876,
      "▁marie": 877,
      "▁carey": 878,
      "▁fisher": 879,
      "▁cass": 880,
      "▁pdt": 881,
      "##urt": 882,
      "▁squirrel": 883,
      "▁recre": 884,
      "##ing": 885,
      "▁concentrate": 886,
      "▁project": 887,
      "▁exposure": 888,
      "▁peanuts": 889,
      "▁staring": 890,
      "▁ninety-nine": 891,
      "▁methodology": 892,
      "▁schools": 893,
      "▁steve": 894,
      "##17": 895,
      "##aining": 896,
      "##ream": 897,
      "▁ey": 898,
      "##xce": 899,
      "▁syri": 900,
      "▁accurately": 901,
      "##ε": 902,
      "▁pennsylv": 903,
      "##ailand": 904,
      "▁dolph": 905,
      "▁orch": 906,
      "▁here": 907,
      "##outh": 908,
      "▁rathbun": 909,
      "##ensity": 910,
      "▁orchestra": 911,
      "▁any": 912,
      "▁fixed": 913,
      "##fe": 914,
      "▁bus": 915,
      "##oup": 916,
      "##lin": 917,
      "##ught": 918,
      "▁+++": 919,
      "▁acquis": 920,
      "▁europol": 921,
      "##mi": 922,
      "##assing": 923,
      "▁studio": 924,
      "▁boston": 925,
      "▁threw": 926,
      "▁tennessee": 927,
      "▁wrong": 928,
      "▁minutes": 929,
      "▁wish": 930,
      "▁currently": 931,
      "▁bless": 932,
      "▁remed": 933,
      "▁markets": 934,
      "▁transportation": 935,
      "##play": 936,
      "##....": 937,
      "##tc": 938,
      "▁borg": 939,
      "##k.url": 940,
      "▁scre": 941,
      "▁madrid": 942,
      "##english": 943,
      "▁assumed": 944,
      "▁sword": 945,
      "▁poly": 946,
      "##ive": 947,
      "▁tower": 948,
      "▁moist": 949,
      "##oween": 950,
      "▁comply": 951,
      "▁4th": 952,
      "▁sketch": 953,
      "##otra": 954,
      "▁grandmas": 955,
      "##iffer": 956,
      "▁fy": 957,
      "▁mir": 958,
      "▁facebook": 959,
      "▁las": 960,
      "▁exit": 961,
      "▁dragon": 962,
      "▁vend": 963,
      "▁harrow": 964,
      "##ader": 965,
      "##derm": 966,
      "▁prof": 967,
      "▁obvious": 968,
      "▁separated": 969,
      "▁compensate": 970,
      "▁contracts": 971,
      "▁casc": 972,
      "##antly": 973,
      "▁courage": 974,
      "▁equally": 975,
      "##inform": 976,
      "▁wealthy": 977,
      "▁median": 978,
      "▁‘’": 979,
      "▁2.975": 980,
      "##born": 981,
      "▁initi": 982,
      "##jal": 983,
      "##____": 984,
      "▁tul": 985,
      "##eweb": 986,
      "▁permits": 987,
      "▁tanks": 988,
      "▁formed": 989,
      "▁69": 990,
      "▁susan": 991,
      "▁fr": 992,
      "▁simply": 993,
      "▁aim": 994,
      "▁wilbur": 995,
      "##odz": 996,
      "▁master": 997,
      "▁stella": 998,
      "▁ba'ath": 999,
      "▁dash": 1000,
      "▁annual": 1001,
      "▁load": 1002,
      "▁s.": 1003,
      "▁counters": 1004,
      "##raid": 1005,
      "▁subscribers": 1006,
      "▁expon": 1007,
      "▁311": 1008,
      "▁larry": 1009,
      "▁dirt": 1010,
      "▁grown": 1011,
      "##ecd": 1012,
      "##ody": 1013,
      "▁policeman": 1014,
      "▁gran": 1015,
      "▁345-343": 1016,
      "▁greetings": 1017,
      "▁he": 1018,
      "▁substantial": 1019,
      "▁inc.": 1020,
      "▁boulev": 1021,
      "▁ware": 1022,
      "##ucing": 1023,
      "▁presumably": 1024,
      "▁maize": 1025,
      "##at": 1026,
      "▁governor": 1027,
      "▁nier": 1028,
      "▁speech": 1029,
      "▁covid": 1030,
      "##-w": 1031,
      "▁loss": 1032,
      "▁xii": 1033,
      "##ared": 1034,
      "▁subsequently": 1035,
      "▁brid": 1036,
      "▁foreigners": 1037,
      "##/c": 1038,
      "▁spaces": 1039,
      "▁iguazu": 1040,
      "▁01/19/2001": 1041,
      "▁condition": 1042,
      "##ooking": 1043,
      "▁policymakers": 1044,
      "▁candidates": 1045,
      "▁counted": 1046,
      "##isions": 1047,
      "##iw": 1048,
      "▁armenian": 1049,
      "▁goods": 1050,
      "▁affirm": 1051,
      "▁relevant": 1052,
      "##26": 1053,
      "▁kitchen": 1054,
      "▁captain": 1055,
      "▁ach": 1056,
      "▁pete": 1057,
      "▁bock": 1058,
      ".": 1059,
      "▁os": 1060,
      "▁sentence": 1061,
      "##orable": 1062,
      "▁descend": 1063,
      "▁political": 1064,
      "▁breaks": 1065,
      "##gled": 1066,
      "▁satisf": 1067,
      "▁automatic": 1068,
      "▁flavors": 1069,
      "▁underwear": 1070,
      "▁borgin": 1071,
      "▁nazi": 1072,
      "##,950": 1073,
      "▁leverage": 1074,
      "▁687": 1075,
      "▁18": 1076,
      "▁oneself": 1077,
      "z": 1078,
      "▁benefited": 1079,
      "##,500": 1080,
      "▁superb": 1081,
      "▁1584": 1082,
      "▁amuse": 1083,
      "▁sush": 1084,
      "▁bu": 1085,
      "▁dest": 1086,
      "▁legs": 1087,
      "▁british": 1088,
      "##子": 1089,
      "▁sla": 1090,
      "▁single": 1091,
      "▁orange": 1092,
      "▁innov": 1093,
      "▁seen": 1094,
      "##wind": 1095,
      "▁root": 1096,
      "▁concern": 1097,
      "▁6": 1098,
      "}": 1099,
      "▁perdu": 1100,
      "▁threatens": 1101,
      "▁baghdad": 1102,
      "▁vic": 1103,
      "▁20,000": 1104,
      "▁fisheries": 1105,
      "▁u.s": 1106,
      "##east": 1107,
      "▁mult": 1108,
      "▁encab": 1109,
      "##eared": 1110,
      "▁kicking": 1111,
      "▁describes": 1112,
      "▁fifty": 1113,
      "▁interrupt": 1114,
      "▁giraffe": 1115,
      "▁numbers": 1116,
      "##ical": 1117,
      "▁component": 1118,
      "▁376": 1119,
      "▁chest": 1120,
      "▁unlikely": 1121,
      "▁consisted": 1122,
      "▁competitive": 1123,
      "▁floor": 1124,
      "##/2000": 1125,
      "▁indo": 1126,
      "▁800.713.8600": 1127,
      "▁technologies": 1128,
      "▁mostly": 1129,
      "▁zoo": 1130,
      "##oons": 1131,
      "▁steak": 1132,
      "##xim": 1133,
      "##o": 1134,
      "▁713-646-3393": 1135,
      "空": 1136,
      "▁gosp": 1137,
      "▁01/12/2001": 1138,
      "##unity": 1139,
      "▁appropri": 1140,
      "▁shrew": 1141,
      "▁aimed": 1142,
      "##m": 1143,
      "▁needles": 1144,
      "▁greek": 1145,
      "▁sj": 1146,
      "▁instit": 1147,
      "▁neil": 1148,
      "##nedy": 1149,
      "▁dorm": 1150,
      "##iot": 1151,
      "▁somehow": 1152,
      "▁genev": 1153,
      "▁h": 1154,
      "▁facing": 1155,
      "▁attentive": 1156,
      "##1-90": 1157,
      "▁wreck": 1158,
      "▁505": 1159,
      "▁416-865-3": 1160,
      "##aments": 1161,
      "▁losing": 1162,
      "##igan": 1163,
      "▁hors": 1164,
      "▁177": 1165,
      "▁accordance": 1166,
      "##aff": 1167,
      "##abeth": 1168,
      "▁p.m": 1169,
      "▁slavery": 1170,
      "▁bud": 1171,
      "▁orient": 1172,
      "▁walker": 1173,
      "▁sophie": 1174,
      "▁popularity": 1175,
      "▁plot": 1176,
      "▁dey": 1177,
      "##ove": 1178,
      "▁browser": 1179,
      "▁harmonised": 1180,
      "##apes": 1181,
      "▁grain": 1182,
      "▁pip": 1183,
      "▁dilemm": 1184,
      "▁locking": 1185,
      "##vd": 1186,
      "▁holes": 1187,
      "▁been": 1188,
      "▁gross": 1189,
      "▁ga": 1190,
      "▁danger": 1191,
      "▁edison": 1192,
      "▁cans": 1193,
      "▁firing": 1194,
      "▁wiggle": 1195,
      "##-b": 1196,
      "▁269": 1197,
      "▁vacuum": 1198,
      "▁ther": 1199,
      "▁ahab": 1200,
      "##insula": 1201,
      "▁injuries": 1202,
      "▁perling": 1203,
      "##ination": 1204,
      "▁claw": 1205,
      "▁impossible": 1206,
      "▁nowhere": 1207,
      "▁tug": 1208,
      "▁secular": 1209,
      "##version": 1210,
      "▁confirming": 1211,
      "##us": 1212,
      "▁1871": 1213,
      "##-col": 1214,
      "##oug": 1215,
      "▁archive": 1216,
      "▁==============================================================================": 1217,
      "##port": 1218,
      "▁today": 1219,
      "▁lady": 1220,
      "##‘": 1221,
      "##lets": 1222,
      "##ignation": 1223,
      "▁subsequ": 1224,
      "▁entirely": 1225,
      "##ar": 1226,
      "##istrib": 1227,
      "▁innovation": 1228,
      "▁1835": 1229,
      "▁barrett": 1230,
      "▁tra": 1231,
      "▁amazing": 1232,
      "▁dump": 1233,
      "▁vogelaviatiolap": 1234,
      "▁cloth": 1235,
      "##eros": 1236,
      "##ashes": 1237,
      "##emade": 1238,
      "▁furthermore": 1239,
      "▁sector": 1240,
      "▁107": 1241,
      ",": 1242,
      "▁amin": 1243,
      "##44": 1244,
      "##<": 1245,
      "▁shoo": 1246,
      "▁header": 1247,
      "▁municip": 1248,
      "▁course": 1249,
      "▁private": 1250,
      "##-12": 1251,
      "▁stuff": 1252,
      "▁watched": 1253,
      "▁scientist": 1254,
      "▁redeem": 1255,
      "▁barger": 1256,
      "##ount": 1257,
      "▁deal": 1258,
      "▁alread": 1259,
      "▁hundreds": 1260,
      "▁recording": 1261,
      "▁temperatures": 1262,
      "▁cruise": 1263,
      "▁explore": 1264,
      "▁print": 1265,
      "▁attorney": 1266,
      "▁ens": 1267,
      "▁picking": 1268,
      "▁giving": 1269,
      "▁11/7/08": 1270,
      "▁devised": 1271,
      "▁speaks": 1272,
      "▁often": 1273,
      "##worth": 1274,
      "##raf": 1275,
      "▁dominate": 1276,
      "▁09/15": 1277,
      "##stration": 1278,
      "▁anger": 1279,
      "▁fears": 1280,
      "##:30": 1281,
      "##edia": 1282,
      "▁side": 1283,
      "▁band": 1284,
      "▁dwarf": 1285,
      "▁attracted": 1286,
      "▁defensive": 1287,
      "##arts": 1288,
      "▁hiss": 1289,
      "▁health": 1290,
      "▁magic": 1291,
      "##.net/": 1292,
      "##tern": 1293,
      "▁pill": 1294,
      "▁balloons": 1295,
      "▁privileged": 1296,
      "##ulations": 1297,
      "▁____________________________________________________________": 1298,
      "▁gang": 1299,
      "▁proc": 1300,
      "▁boring": 1301,
      "▁astronauts": 1302,
      "▁favorable": 1303,
      "▁subscrib": 1304,
      "▁enemy": 1305,
      "▁squeak": 1306,
      "▁la": 1307,
      "▁caul": 1308,
      "▁345": 1309,
      "▁breach": 1310,
      "▁aspir": 1311,
      "▁mushroom": 1312,
      "##err": 1313,
      "##ipper": 1314,
      "▁already": 1315,
      "##all": 1316,
      "▁creat": 1317,
      "▁engine": 1318,
      "▁damaged": 1319,
      "▁dangerous": 1320,
      "▁colour": 1321,
      "▁lwww": 1322,
      "##ened": 1323,
      "▁shob": 1324,
      "▁bour": 1325,
      "清": 1326,
      "▁spite": 1327,
      "▁fund": 1328,
      "##xt": 1329,
      "##ires": 1330,
      "▁coat": 1331,
      "▁15": 1332,
      "▁mo": 1333,
      "▁trick": 1334,
      "##ecess": 1335,
      "##ist": 1336,
      "▁hats": 1337,
      "▁haircut": 1338,
      "▁distributing": 1339,
      "▁assoc": 1340,
      "▁marine": 1341,
      "▁reflects": 1342,
      "▁”": 1343,
      "▁taxi": 1344,
      "▁1890": 1345,
      "▁spicy": 1346,
      "▁ranging": 1347,
      "▁stung": 1348,
      "##.1234": 1349,
      "▁cross-section": 1350,
      "▁snake": 1351,
      "▁urged": 1352,
      "▁requesting": 1353,
      "▁shrimp": 1354,
      "▁fre": 1355,
      "##-time": 1356,
      "▁fold": 1357,
      "▁profile": 1358,
      "▁increase": 1359,
      "▁donate": 1360,
      "▁cro": 1361,
      "▁situations": 1362,
      "▁doll": 1363,
      "##oses": 1364,
      "##gig": 1365,
      "##esque": 1366,
      "▁investig": 1367,
      "▁immed": 1368,
      "▁0000108806": 1369,
      "▁concent": 1370,
      "##elson": 1371,
      "▁un": 1372,
      "▁numbered": 1373,
      "▁extinction": 1374,
      "▁buyer": 1375,
      "##ys": 1376,
      "▁kelly": 1377,
      "▁traveling": 1378,
      "▁posted": 1379,
      "##ulpt": 1380,
      "##uten": 1381,
      "▁jer": 1382,
      "##2-0": 1383,
      "▁dol": 1384,
      "▁d.c.": 1385,
      "φ": 1386,
      "▁tasks": 1387,
      "▁greasy": 1388,
      "▁submitted": 1389,
      "▁holiday": 1390,
      "##email": 1391,
      "▁settlements": 1392,
      "▁ay": 1393,
      "▁uncomfortable": 1394,
      "▁sk": 1395,
      "▁monkeys": 1396,
      "▁norms": 1397,
      "▁dress": 1398,
      "▁shiites": 1399,
      "▁uses": 1400,
      "▁juice": 1401,
      "u": 1402,
      "▁7484": 1403,
      "▁termin": 1404,
      "▁attitudes": 1405,
      "##ang": 1406,
      "▁aafia": 1407,
      "▁headset": 1408,
      "##icts": 1409,
      "▁henry": 1410,
      "▁econom": 1411,
      "▁indicated": 1412,
      "##inez": 1413,
      "▁rained": 1414,
      "▁twice": 1415,
      "##nov": 1416,
      "##bon": 1417,
      "▁jerusalem": 1418,
      "▁chathams": 1419,
      "▁disappoint": 1420,
      "▁agreeing": 1421,
      "##.uk": 1422,
      "▁clients": 1423,
      "##ances": 1424,
      "▁306": 1425,
      "▁gil": 1426,
      "▁blankets": 1427,
      "▁manners": 1428,
      "▁orig": 1429,
      "▁restaur": 1430,
      "▁professional": 1431,
      "▁centuries": 1432,
      "▁persp": 1433,
      "▁element": 1434,
      "▁comments": 1435,
      "##ener": 1436,
      "▁2021": 1437,
      "▁.3": 1438,
      "▁425-415-": 1439,
      "▁discourse": 1440,
      "▁1830": 1441,
      "▁buggy": 1442,
      "▁ie": 1443,
      "▁odara": 1444,
      "▁marketing": 1445,
      "##orial": 1446,
      "▁posts": 1447,
      "##irect": 1448,
      "▁spacetime": 1449,
      "▁500": 1450,
      "▁temper": 1451,
      "##zing": 1452,
      "##.00": 1453,
      "▁mystery": 1454,
      "▁stap": 1455,
      "▁quad": 1456,
      "▁fridays": 1457,
      "▁beverage": 1458,
      "▁count": 1459,
      "##;": 1460,
      "▁muscles": 1461,
      "▁ships": 1462,
      "▁jurisd": 1463,
      "▁clearer": 1464,
      "▁832.676": 1465,
      "▁dep": 1466,
      "▁conv": 1467,
      "##iciency": 1468,
      "▁proprietary": 1469,
      "▁1610": 1470,
      "▁email": 1471,
      "▁chips": 1472,
      "▁bub": 1473,
      "▁constitutional": 1474,
      "▁albania": 1475,
      "▁potential": 1476,
      "##ingle": 1477,
      "▁prolong": 1478,
      "▁twenty-two": 1479,
      "▁dine": 1480,
      "##boats": 1481,
      "▁pleas": 1482,
      "▁appeal": 1483,
      "▁seventy": 1484,
      "##ould": 1485,
      "▁l'enf": 1486,
      "▁booked": 1487,
      "##bi": 1488,
      "##enes": 1489,
      "▁neither": 1490,
      "▁complaint": 1491,
      "▁boarding": 1492,
      "▁03/27/2001": 1493,
      "▁vod": 1494,
      "▁striking": 1495,
      "▁math": 1496,
      "▁track": 1497,
      "##ota": 1498,
      "▁accuracy": 1499,
      "##iterranean": 1500,
      "▁nursery": 1501,
      "▁epm": 1502,
      "▁real": 1503,
      "##news/": 1504,
      "▁specim": 1505,
      "▁subway": 1506,
      "▁pattern": 1507,
      "##bur": 1508,
      "##ption": 1509,
      "▁blanket": 1510,
      "▁want": 1511,
      "▁scient": 1512,
      "▁command": 1513,
      "##ice": 1514,
      "##5-": 1515,
      "▁00": 1516,
      "##eight": 1517,
      "▁02/13/2001": 1518,
      "▁war": 1519,
      "▁yidd": 1520,
      "▁let": 1521,
      "##ow": 1522,
      "▁rock": 1523,
      "▁ur": 1524,
      "▁4:50": 1525,
      "▁judgment": 1526,
      "▁silver": 1527,
      "##vis": 1528,
      "&": 1529,
      "##yth": 1530,
      "▁behav": 1531,
      "▁bust": 1532,
      "▁worship": 1533,
      "▁communicate": 1534,
      "▁honesty": 1535,
      "▁pel": 1536,
      "▁dying": 1537,
      "##ppers": 1538,
      "▁secur": 1539,
      "▁relating": 1540,
      "##sex": 1541,
      "▁intermed": 1542,
      "▁sub": 1543,
      "##amped": 1544,
      "▁worked": 1545,
      "##person": 1546,
      "▁conviction": 1547,
      "▁logic": 1548,
      "▁machine": 1549,
      "▁646": 1550,
      "##iation": 1551,
      "▁detail": 1552,
      "▁dragged": 1553,
      "##otts": 1554,
      "▁129": 1555,
      "##fall": 1556,
      "▁laden": 1557,
      "▁apolog": 1558,
      "##-a": 1559,
      "##880": 1560,
      "▁freezer": 1561,
      "▁knowledgeable": 1562,
      "▁dick": 1563,
      "▁emission": 1564,
      "##verse": 1565,
      "▁sufficiently": 1566,
      "▁foo": 1567,
      "▁;)": 1568,
      "▁plut": 1569,
      "▁stim": 1570,
      "##ini": 1571,
      "##atives": 1572,
      "▁mainstream": 1573,
      "##34": 1574,
      "▁you": 1575,
      "▁bru": 1576,
      "▁invested": 1577,
      "▁magazine": 1578,
      "▁faculty": 1579,
      "##etics": 1580,
      "##agne": 1581,
      "▁corners": 1582,
      "▁resume": 1583,
      "▁activities": 1584,
      "▁mid-1": 1585,
      "▁hr": 1586,
      "▁differently": 1587,
      "▁massac": 1588,
      "▁priorities": 1589,
      "▁slave": 1590,
      "##_1": 1591,
      "##isters": 1592,
      "▁=": 1593,
      "▁soviet": 1594,
      "▁indoor": 1595,
      "▁illusions": 1596,
      "##can": 1597,
      "▁medal": 1598,
      "▁remains": 1599,
      "p": 1600,
      "▁dri": 1601,
      "▁lions": 1602,
      "▁after": 1603,
      "▁gots": 1604,
      "▁world": 1605,
      "##³": 1606,
      "##92": 1607,
      "▁217": 1608,
      "▁rule": 1609,
      "▁changed": 1610,
      "▁....................": 1611,
      "▁pajamas": 1612,
      "▁creates": 1613,
      "##els@esa": 1614,
      "##ple": 1615,
      "▁blinked": 1616,
      "▁star": 1617,
      "##veland": 1618,
      "##bert": 1619,
      "▁units": 1620,
      "▁pew": 1621,
      "▁hills": 1622,
      "▁product": 1623,
      "▁indef": 1624,
      "▁valid": 1625,
      "▁groan": 1626,
      "##atic": 1627,
      "▁presence": 1628,
      "▁publications": 1629,
      "▁(a)": 1630,
      "▁instance": 1631,
      "▁eu": 1632,
      "▁edu": 1633,
      "▁thailand": 1634,
      "##very": 1635,
      "▁inhabitants": 1636,
      "▁select": 1637,
      "▁segment": 1638,
      "▁depths": 1639,
      "▁high": 1640,
      "▁guerr": 1641,
      "▁doc": 1642,
      "▁prop": 1643,
      "▁passing": 1644,
      "▁equals": 1645,
      "▁big": 1646,
      "▁ribbon": 1647,
      "##alle": 1648,
      "▁marry": 1649,
      "▁attempted": 1650,
      "▁awesome": 1651,
      "▁expect": 1652,
      "▁exciting": 1653,
      "▁advice": 1654,
      "▁approach": 1655,
      "##☎": 1656,
      "▁found": 1657,
      "▁million": 1658,
      "▁themselves": 1659,
      "▁rates": 1660,
      "▁1989": 1661,
      "▁1975": 1662,
      "▁hated": 1663,
      "▁sharks": 1664,
      "▁islands": 1665,
      "▁|": 1666,
      "##etti": 1667,
      "▁rom": 1668,
      "▁cauc": 1669,
      "##łod": 1670,
      "▁ago": 1671,
      "▁produc": 1672,
      "▁enfor": 1673,
      "▁flap": 1674,
      "▁sufficient": 1675,
      "▁involving": 1676,
      "▁cuc": 1677,
      "▁clean": 1678,
      "▁accord": 1679,
      "▁click": 1680,
      "▁ninety-n": 1681,
      "▁----------------------------------------------------------------------": 1682,
      "##dle": 1683,
      "▁passionate": 1684,
      "▁gorbach": 1685,
      "▁chall": 1686,
      "ł": 1687,
      "▁desperate": 1688,
      "▁scrape": 1689,
      "▁water": 1690,
      "##·": 1691,
      "▁bachel": 1692,
      "▁advise": 1693,
      "▁screen": 1694,
      "▁shame": 1695,
      "▁jaw": 1696,
      "▁vide": 1697,
      "▁discount": 1698,
      "▁accounts": 1699,
      "##inely": 1700,
      "##ogical": 1701,
      "##ster": 1702,
      "▁lifet": 1703,
      "▁treating": 1704,
      "▁scary": 1705,
      "##zed": 1706,
      "▁ja": 1707,
      "▁playstation": 1708,
      "▁within": 1709,
      "▁fi": 1710,
      "▁overlook": 1711,
      "▁zip": 1712,
      "▁distribution": 1713,
      "▁artist": 1714,
      "▁craft": 1715,
      "▁delivery": 1716,
      "▁supermark": 1717,
      "▁201": 1718,
      "▁cla": 1719,
      "▁thumb": 1720,
      "▁denied": 1721,
      "▁163": 1722,
      "##br": 1723,
      "▁package": 1724,
      "▁poo": 1725,
      "##ifies": 1726,
      "▁spring": 1727,
      "▁km": 1728,
      "▁economists": 1729,
      "▁accommodation": 1730,
      "▁jeffs": 1731,
      "▁imbal": 1732,
      "▁painewebber": 1733,
      "▁sain": 1734,
      "▁auck": 1735,
      "▁466": 1736,
      "▁martyrs": 1737,
      "▁09/15/99": 1738,
      "▁praise": 1739,
      "▁hee": 1740,
      "▁spin": 1741,
      "▁dose": 1742,
      "▁sushi": 1743,
      "▁index": 1744,
      "▁mer": 1745,
      "▁blank": 1746,
      "▁squared": 1747,
      "▁constantly": 1748,
      "▁makeup": 1749,
      "▁nineteenth": 1750,
      "▁calculate": 1751,
      "##27": 1752,
      "▁aa": 1753,
      "▁laughter": 1754,
      "▁journ": 1755,
      "##ivers": 1756,
      "##.htm": 1757,
      "▁loc": 1758,
      "##alph": 1759,
      "▁ripe": 1760,
      "▁monopoly": 1761,
      "▁toile": 1762,
      "▁assassination": 1763,
      "ο": 1764,
      "##alled": 1765,
      "▁congest": 1766,
      "##ars": 1767,
      "▁com": 1768,
      "▁tippy": 1769,
      "▁components": 1770,
      "##chart": 1771,
      "▁textile": 1772,
      "▁beds": 1773,
      "▁glacier": 1774,
      "##acles": 1775,
      "▁phon": 1776,
      "▁south": 1777,
      "▁rapidly": 1778,
      "▁overnight": 1779,
      "▁caution": 1780,
      "▁brows": 1781,
      "##ulous": 1782,
      "▁endang": 1783,
      "▁pas": 1784,
      "▁headband": 1785,
      "##lics": 1786,
      "##acer": 1787,
      "▁worsh": 1788,
      "▁identification": 1789,
      "▁prest": 1790,
      "▁til": 1791,
      "▁chan": 1792,
      "▁gone": 1793,
      "▁countries": 1794,
      "▁sty": 1795,
      "##ken": 1796,
      "▁judgments": 1797,
      "##-01": 1798,
      "▁purple": 1799,
      "##maine": 1800,
      "▁stadium": 1801,
      "▁continental": 1802,
      "▁adm": 1803,
      "▁whose": 1804,
      "▁lib": 1805,
      "▁89": 1806,
      "▁preferred": 1807,
      "▁acceler": 1808,
      "▁lind": 1809,
      "▁gym": 1810,
      "▁=---": 1811,
      "##itals": 1812,
      "##&": 1813,
      "▁childcare": 1814,
      "▁receiving": 1815,
      "ε": 1816,
      "##4-79": 1817,
      "▁rinny": 1818,
      "▁gri": 1819,
      "##anding": 1820,
      "▁claus": 1821,
      "▁tiger": 1822,
      "▁swiss": 1823,
      "##3-3": 1824,
      "▁glass": 1825,
      "▁97": 1826,
      "##unia": 1827,
      "▁artworks": 1828,
      "##œ": 1829,
      "▁eyebrow": 1830,
      "##otten": 1831,
      "▁studies": 1832,
      "▁minimum": 1833,
      "▁literature": 1834,
      "▁dance": 1835,
      "##overs": 1836,
      "▁protocol": 1837,
      "▁legisl": 1838,
      "▁hardest": 1839,
      "▁planning": 1840,
      "##ra": 1841,
      "▁houses": 1842,
      "▁neighbors": 1843,
      "▁197": 1844,
      "▁useless": 1845,
      "▁mute": 1846,
      "▁saucepan": 1847,
      "▁interstellar": 1848,
      "▁ready": 1849,
      "▁vol": 1850,
      "▁coh": 1851,
      "▁got": 1852,
      "##ining": 1853,
      "▁nearly": 1854,
      "##oices": 1855,
      "▁08/0": 1856,
      "##rell": 1857,
      "▁who's": 1858,
      "▁cheney": 1859,
      "▁civilization": 1860,
      "▁registered": 1861,
      "▁uniquely": 1862,
      "▁deficit": 1863,
      "▁ev": 1864,
      "▁waited": 1865,
      "▁saddam": 1866,
      "▁eng": 1867,
      "▁encouraging": 1868,
      "▁capacities": 1869,
      "▁weak": 1870,
      "##eer": 1871,
      "##****": 1872,
      "##win": 1873,
      "▁finest": 1874,
      "##thst": 1875,
      "▁noteboo": 1876,
      "##ennese": 1877,
      "▁pivotchart": 1878,
      "▁chief": 1879,
      "▁mish": 1880,
      "##river": 1881,
      "▁pro": 1882,
      "##agraph": 1883,
      "▁ink": 1884,
      "▁encourage": 1885,
      "▁medieval": 1886,
      "##let": 1887,
      "▁request": 1888,
      "▁lawn": 1889,
      "▁quino": 1890,
      "▁rocky": 1891,
      "▁fa": 1892,
      "▁weasley": 1893,
      "##-out": 1894,
      "##ius": 1895,
      "##ree": 1896,
      "##ece": 1897,
      "▁enrononline": 1898,
      "▁unable": 1899,
      "▁valent": 1900,
      "▁woman": 1901,
      "##3rd": 1902,
      "▁achie": 1903,
      "##ce": 1904,
      "▁tem": 1905,
      "▁unf": 1906,
      "▁mature": 1907,
      "##el": 1908,
      "▁completed": 1909,
      "##here": 1910,
      "▁1910": 1911,
      "▁281-518": 1912,
      "▁medic": 1913,
      "▁wondering": 1914,
      "▁killed": 1915,
      "▁blame": 1916,
      "▁bleeding": 1917,
      "##acks": 1918,
      "▁argent": 1919,
      "▁mini": 1920,
      "▁wines": 1921,
      "▁ruf": 1922,
      "▁guantanamo": 1923,
      "##rif": 1924,
      "##01": 1925,
      "▁beneficial": 1926,
      "▁darin": 1927,
      "▁failure": 1928,
      "▁presidents": 1929,
      "▁hoped": 1930,
      "▁relaxing": 1931,
      "##mm": 1932,
      "▁beauty": 1933,
      "▁hang": 1934,
      "▁co-f": 1935,
      "##,000": 1936,
      "▁`": 1937,
      "▁susanna": 1938,
      "5": 1939,
      "▁dancing": 1940,
      "▁past": 1941,
      "▁shar": 1942,
      "▁corporation": 1943,
      "▁rhinoceros": 1944,
      "▁perman": 1945,
      "▁tile": 1946,
      "▁lick": 1947,
      "##uries": 1948,
      "▁disney": 1949,
      "▁becoming": 1950,
      "▁35": 1951,
      "▁1145": 1952,
      "▁amster": 1953,
      "▁judging": 1954,
      "▁flo": 1955,
      "▁buses": 1956,
      "▁phones": 1957,
      "▁argues": 1958,
      "▁important": 1959,
      "▁ambit": 1960,
      "▁mold": 1961,
      "▁ang": 1962,
      "▁convergence": 1963,
      "▁symbol": 1964,
      "▁ancient": 1965,
      "##ceed": 1966,
      "▁wake": 1967,
      "▁nat": 1968,
      "▁13011": 1969,
      "##ocation": 1970,
      "▁electron": 1971,
      "▁greenhouse": 1972,
      "▁spec": 1973,
      "▁intensity": 1974,
      "▁staff": 1975,
      "▁generally": 1976,
      "▁mississipp": 1977,
      "▁bulb": 1978,
      "▁invent": 1979,
      "##ises": 1980,
      "▁ferc": 1981,
      "▁highlights": 1982,
      "▁preventing": 1983,
      "▁01:09": 1984,
      "##远": 1985,
      "▁refer": 1986,
      "▁atmos": 1987,
      "##ieth": 1988,
      "▁whatever": 1989,
      "▁warrant": 1990,
      "▁prominent": 1991,
      "▁ceo": 1992,
      "▁oatmeal": 1993,
      "##aim": 1994,
      "##ging": 1995,
      "▁faced": 1996,
      "##fu": 1997,
      "▁swed": 1998,
      "▁reserved": 1999,
      "##thor": 2000,
      "▁eve": 2001,
      "▁meiring": 2002,
      "▁transc": 2003,
      "▁_________________________________": 2004,
      "▁feeding": 2005,
      "▁doing": 2006,
      "▁arms": 2007,
      "▁lip": 2008,
      "▁drawn": 2009,
      "##lear": 2010,
      "▁takes": 2011,
      "▁alive": 2012,
      "##break": 2013,
      "▁treatise": 2014,
      "▁leahy": 2015,
      "▁hearings": 2016,
      "▁oct": 2017,
      "▁scoring": 2018,
      "▁rid": 2019,
      "▁seed": 2020,
      "▁impul": 2021,
      "▁mental": 2022,
      "▁place": 2023,
      "##uffling": 2024,
      "▁violation": 2025,
      "▁sept.": 2026,
      "▁cathol": 2027,
      "▁upper": 2028,
      "▁07": 2029,
      "▁spiritual": 2030,
      "▁phase": 2031,
      "##aster": 2032,
      "▁hamper": 2033,
      "▁4.9": 2034,
      "▁keral": 2035,
      "##ea": 2036,
      "▁billion": 2037,
      "##wet": 2038,
      "▁arrange": 2039,
      "##ives": 2040,
      "▁rein": 2041,
      "##achment": 2042,
      "▁scientific": 2043,
      "##bers": 2044,
      "▁04:28": 2045,
      "##what": 2046,
      "▁television": 2047,
      "▁firm": 2048,
      "▁specified": 2049,
      "##30": 2050,
      "▁dum": 2051,
      "▁harvest": 2052,
      "##-46": 2053,
      "▁papa": 2054,
      "▁gigantic": 2055,
      "▁nicholas": 2056,
      "▁teeth": 2057,
      "▁wh": 2058,
      "▁afric": 2059,
      "▁08/16": 2060,
      "▁johnson": 2061,
      "▁spiders": 2062,
      "▁murph": 2063,
      "▁holds": 2064,
      "##ß": 2065,
      "##ricane": 2066,
      "▁telephone": 2067,
      "▁strat": 2068,
      "▁jur": 2069,
      "▁conversational": 2070,
      "▁welfare": 2071,
      "##@s": 2072,
      "▁assemb": 2073,
      "▁cats": 2074,
      "##ny": 2075,
      "##lebr": 2076,
      "▁microscope": 2077,
      "▁poured": 2078,
      "▁sydney": 2079,
      "##07": 2080,
      "##fire": 2081,
      "##field": 2082,
      "▁lam": 2083,
      "▁shut": 2084,
      "▁hyd": 2085,
      "▁discussion": 2086,
      "▁pockets": 2087,
      "##ident": 2088,
      "##icide": 2089,
      "▁coin": 2090,
      "▁models": 2091,
      "▁asking": 2092,
      "##--": 2093,
      "▁hem": 2094,
      "▁containing": 2095,
      "##ennium": 2096,
      "▁cookies": 2097,
      "##eded": 2098,
      "▁ca": 2099,
      "▁regular": 2100,
      "▁hide": 2101,
      "▁seeds": 2102,
      "▁debated": 2103,
      "▁households": 2104,
      "▁nelson": 2105,
      "▁spirit": 2106,
      "##arraf": 2107,
      "##-642": 2108,
      "▁pron": 2109,
      "▁grandpa": 2110,
      "##pts": 2111,
      "▁som": 2112,
      "▁nether": 2113,
      "▁computing": 2114,
      "▁fract": 2115,
      "▁vegetables": 2116,
      "▁gates": 2117,
      "▁agencies": 2118,
      "▁345-9945": 2119,
      "山": 2120,
      "▁bib": 2121,
      "▁solution": 2122,
      "▁duration": 2123,
      "##ipping": 2124,
      "▁mexic": 2125,
      "▁sta": 2126,
      "▁waiver": 2127,
      "▁0.00": 2128,
      "##ios": 2129,
      "▁test": 2130,
      "▁ruler": 2131,
      "▁under": 2132,
      "##ening": 2133,
      "▁workforce": 2134,
      "▁dram": 2135,
      "▁federation": 2136,
      "▁theat": 2137,
      "##ot": 2138,
      "▁implementing": 2139,
      "▁prohib": 2140,
      "▁rob": 2141,
      "▁quant": 2142,
      "▁dinosaurs": 2143,
      "▁rental": 2144,
      "▁plate": 2145,
      "▁linda": 2146,
      "▁increasingly": 2147,
      "▁traders": 2148,
      "##esy": 2149,
      "▁deeper": 2150,
      "▁influenced": 2151,
      "▁windows": 2152,
      "##ahe": 2153,
      "▁clothing": 2154,
      "▁holt": 2155,
      "▁blew": 2156,
      "##dy": 2157,
      "##onents": 2158,
      "▁files": 2159,
      "▁tips": 2160,
      "▁costly": 2161,
      "▁281-435-0295": 2162,
      "%": 2163,
      "▁deposit": 2164,
      "▁biew": 2165,
      "▁maximum": 2166,
      "▁01": 2167,
      "▁muggles": 2168,
      "▁recognized": 2169,
      "▁female": 2170,
      "▁archit": 2171,
      "##47": 2172,
      "▁n'": 2173,
      "##weight": 2174,
      "▁comparable": 2175,
      "##-3": 2176,
      "▁defin": 2177,
      "▁me": 2178,
      "##orse": 2179,
      "▁id": 2180,
      "▁alloc": 2181,
      "▁scene": 2182,
      "##urtz": 2183,
      "▁org": 2184,
      "##ales": 2185,
      "##3/2000": 2186,
      "▁rejection": 2187,
      "▁olive": 2188,
      "##ro": 2189,
      "▁ding": 2190,
      "▁waters": 2191,
      "##raph": 2192,
      "▁meetings": 2193,
      "▁4_2": 2194,
      "▁twent": 2195,
      "▁leon": 2196,
      "▁detroit": 2197,
      "▁russ": 2198,
      "▁relatively": 2199,
      "▁roberts": 2200,
      "##enga": 2201,
      "▁bathtub": 2202,
      "▁programme": 2203,
      "▁hirosh": 2204,
      "##acc": 2205,
      "▁wound": 2206,
      "▁indianapolis": 2207,
      "▁cost-e": 2208,
      "▁ny": 2209,
      "▁particular": 2210,
      "▁dh": 2211,
      "▁contex": 2212,
      "▁wide": 2213,
      "▁reported": 2214,
      "▁stop": 2215,
      "▁missed": 2216,
      "▁supposedly": 2217,
      "▁profit": 2218,
      "▁extra": 2219,
      "▁association": 2220,
      "▁shortest": 2221,
      "▁suggest": 2222,
      "##stem": 2223,
      "##iel": 2224,
      "▁uhhuh": 2225,
      "##ibos.com": 2226,
      "▁southern": 2227,
      "▁expression": 2228,
      "▁8:15": 2229,
      "▁such": 2230,
      "##idency": 2231,
      "▁sweater": 2232,
      "▁dynam": 2233,
      "▁lives": 2234,
      "▁animation": 2235,
      "▁behavi": 2236,
      "▁mother": 2237,
      "▁pretending": 2238,
      "▁itself": 2239,
      "##nament": 2240,
      "▁still": 2241,
      "▁bear": 2242,
      "##ife": 2243,
      "▁var": 2244,
      "▁intervention": 2245,
      "##ateg": 2246,
      "▁concepts": 2247,
      "▁alt": 2248,
      "▁yourself": 2249,
      "##is_0712": 2250,
      "##big.html": 2251,
      "▁104": 2252,
      "▁alternatives": 2253,
      "##ijing": 2254,
      "▁parliament": 2255,
      "▁ł": 2256,
      "##umph": 2257,
      "##aging": 2258,
      "▁compete": 2259,
      "▁bubbles": 2260,
      "▁fount": 2261,
      "##ae": 2262,
      "▁islamabad": 2263,
      "##rog": 2264,
      "▁ballerina": 2265,
      "▁tx": 2266,
      "▁pennsylvania": 2267,
      "▁besides": 2268,
      "▁scenes": 2269,
      "##ffin": 2270,
      "▁carne": 2271,
      "▁vote": 2272,
      "▁shopping": 2273,
      "▁meeting": 2274,
      "##46-3393": 2275,
      "▁suicide": 2276,
      "▁interventions": 2277,
      "▁unh": 2278,
      "##ey": 2279,
      "▁charl": 2280,
      "▁youtube": 2281,
      "▁eval": 2282,
      "##uation": 2283,
      "▁coordination": 2284,
      "▁retain": 2285,
      "▁robots": 2286,
      "▁lots": 2287,
      "▁from": 2288,
      "##nal": 2289,
      "▁bankrupt": 2290,
      "▁satisfactory": 2291,
      "▁jews": 2292,
      "▁words": 2293,
      "▁marshmallow": 2294,
      "▁seat": 2295,
      "▁remembered": 2296,
      "▁gorio": 2297,
      "▁lengthy": 2298,
      "##81": 2299,
      "▁frera": 2300,
      "▁bill": 2301,
      "▁fir": 2302,
      "▁nguyen": 2303,
      "▁bernard": 2304,
      "▁drum": 2305,
      "▁eleven": 2306,
      "▁stall": 2307,
      "▁highlighted": 2308,
      "▁thanks": 2309,
      "##erts": 2310,
      "▁1967": 2311,
      "▁montalvo": 2312,
      "▁hussein": 2313,
      "▁bits": 2314,
      "▁rigid": 2315,
      "##:21": 2316,
      "▁enact": 2317,
      "▁coup": 2318,
      "▁assessing": 2319,
      "▁aber": 2320,
      "▁taxes": 2321,
      "▁hoof": 2322,
      "▁minim": 2323,
      "▁charitable": 2324,
      "▁400": 2325,
      "▁bean": 2326,
      "▁leash": 2327,
      "▁diag": 2328,
      "##string": 2329,
      "▁photograph": 2330,
      "▁succeeded": 2331,
      "▁municipalities": 2332,
      "▁othello": 2333,
      "##-s": 2334,
      "▁shackleton": 2335,
      "##ions": 2336,
      "▁provide": 2337,
      "▁tame": 2338,
      "▁burn": 2339,
      "##pat": 2340,
      "▁celebrity": 2341,
      "▁cinc": 2342,
      "▁1205": 2343,
      "▁democracy": 2344,
      "▁superseding": 2345,
      "▁sperm": 2346,
      "▁funct": 2347,
      "▁votes": 2348,
      "▁lent": 2349,
      "##lae": 2350,
      "▁10:34": 2351,
      "▁burden": 2352,
      "▁charco": 2353,
      "▁okinawa": 2354,
      "▁pa": 2355,
      "##rem": 2356,
      "▁160": 2357,
      "▁flexibility": 2358,
      "▁contained": 2359,
      "▁feel": 2360,
      "▁feet": 2361,
      "▁generation": 2362,
      "▁sy": 2363,
      "▁husse": 2364,
      "##greg": 2365,
      "##/10": 2366,
      "##.edu/": 2367,
      "▁1614": 2368,
      "▁noir": 2369,
      "▁barrel": 2370,
      "▁utah": 2371,
      "▁assault": 2372,
      "▁alcal": 2373,
      "##algamiento": 2374,
      "▁bil": 2375,
      "▁grapes": 2376,
      "▁jay": 2377,
      "▁cooking": 2378,
      "▁location": 2379,
      "▁privet": 2380,
      "▁junk": 2381,
      "▁trunk": 2382,
      "▁petsmart": 2383,
      "##hr": 2384,
      "##ocr": 2385,
      "▁fur": 2386,
      "▁sore": 2387,
      "▁dism": 2388,
      "▁advent": 2389,
      "▁nab": 2390,
      "##erc": 2391,
      "▁enthusi": 2392,
      "▁moore": 2393,
      "▁shuffling": 2394,
      "▁therefore": 2395,
      "▁mod": 2396,
      "##ober": 2397,
      "▁aggregate": 2398,
      "##iently": 2399,
      "##ied": 2400,
      "▁pittsburgh": 2401,
      "▁hans": 2402,
      "##zer": 2403,
      "▁governmental": 2404,
      "▁angel": 2405,
      "##clu": 2406,
      "✉": 2407,
      "▁relying": 2408,
      "##ned": 2409,
      "▁mujah": 2410,
      "▁smells": 2411,
      "##deroy": 2412,
      "▁gig": 2413,
      "▁get": 2414,
      "ʒ": 2415,
      "▁hole": 2416,
      "▁‘": 2417,
      "▁pocketbook": 2418,
      "##ogy": 2419,
      "▁store": 2420,
      "▁anywhere": 2421,
      "▁_________________________________________________": 2422,
      "▁fung": 2423,
      "##unct": 2424,
      "▁shade": 2425,
      "▁neoclass": 2426,
      "▁classic": 2427,
      "##x": 2428,
      "▁flavor": 2429,
      "▁yer": 2430,
      "▁incorpor": 2431,
      "▁23rd": 2432,
      "##nasse": 2433,
      "▁bunk": 2434,
      "▁castle": 2435,
      "▁virginia": 2436,
      "▁method": 2437,
      "▁warhol": 2438,
      "##ww": 2439,
      "▁magazines": 2440,
      "▁realistic": 2441,
      "▁incompet": 2442,
      "##ings.com": 2443,
      "▁dogs": 2444,
      "▁toget": 2445,
      "##ida": 2446,
      "▁93": 2447,
      "▁cease": 2448,
      "▁seller": 2449,
      "▁impressive": 2450,
      "▁categories": 2451,
      "##夏": 2452,
      "▁wrapped": 2453,
      "▁circ": 2454,
      "▁cream": 2455,
      "▁teaspoon": 2456,
      "▁pir": 2457,
      "▁s": 2458,
      "▁pay": 2459,
      "##:16": 2460,
      "▁necktie": 2461,
      "##sm": 2462,
      "▁domestic": 2463,
      "▁dry": 2464,
      "##:17": 2465,
      "##ril": 2466,
      "▁flew": 2467,
      "▁explaining": 2468,
      "▁commander": 2469,
      "▁search": 2470,
      "▁sake": 2471,
      "##ct": 2472,
      "▁arabic": 2473,
      "▁renee": 2474,
      "▁frontier": 2475,
      "▁washing": 2476,
      "##tain": 2477,
      "##asis": 2478,
      "##ich": 2479,
      "▁prospect": 2480,
      "▁assumptions": 2481,
      "▁rese": 2482,
      "##ashion": 2483,
      "ω": 2484,
      "▁lower": 2485,
      "▁assass": 2486,
      "▁released": 2487,
      "▁720": 2488,
      "##ummy": 2489,
      "##........": 2490,
      "▁fries": 2491,
      "##ething": 2492,
      "▁braver": 2493,
      "##11": 2494,
      "▁connected": 2495,
      "##ers": 2496,
      "▁1822": 2497,
      "▁harmonisation": 2498,
      "▁weapon": 2499,
      "▁2.2": 2500,
      "##ə": 2501,
      "▁habit": 2502,
      "▁shone": 2503,
      "▁phill": 2504,
      "▁nation": 2505,
      "奈": 2506,
      "▁jul": 2507,
      "▁partner": 2508,
      "▁orchest": 2509,
      "▁cabinet": 2510,
      "▁geographic": 2511,
      "▁conditioning": 2512,
      "▁impeachment": 2513,
      "▁dung": 2514,
      "▁dem": 2515,
      "▁5/1": 2516,
      "▁sufa": 2517,
      "▁tiny": 2518,
      "▁motorcy": 2519,
      "▁jud": 2520,
      "##ously": 2521,
      "▁20": 2522,
      "▁1.6": 2523,
      "▁persu": 2524,
      "▁mol": 2525,
      "▁generations": 2526,
      "▁newly": 2527,
      "▁card": 2528,
      "▁10:25": 2529,
      "▁donald": 2530,
      "▁misunder": 2531,
      "▁contributed": 2532,
      "▁fourteenth": 2533,
      "▁iqr": 2534,
      "▁patt": 2535,
      "▁explan": 2536,
      "##tica": 2537,
      "##see": 2538,
      "▁ro": 2539,
      "▁familiar": 2540,
      "##d2": 2541,
      "▁1754": 2542,
      "▁relation": 2543,
      "▁tech": 2544,
      "▁null": 2545,
      "▁minus": 2546,
      "▁websites": 2547,
      "##mon": 2548,
      "▁emerging": 2549,
      "▁inclu": 2550,
      "▁narr": 2551,
      "▁understood": 2552,
      "▁xv": 2553,
      "▁ladies": 2554,
      "##.5": 2555,
      "▁asymmet": 2556,
      "▁duke": 2557,
      "##elp": 2558,
      "▁bearing": 2559,
      "▁paths": 2560,
      "▁sheep": 2561,
      "▁wel": 2562,
      "##gian": 2563,
      "▁pros": 2564,
      "▁talking": 2565,
      "▁controvers": 2566,
      "▁575": 2567,
      "##uh": 2568,
      "▁remain": 2569,
      "▁makes": 2570,
      "▁sole": 2571,
      "▁declined": 2572,
      "▁inspector": 2573,
      "▁multip": 2574,
      "▁1832": 2575,
      "▁laboratory": 2576,
      "▁declared": 2577,
      "##:58": 2578,
      "▁mathem": 2579,
      "##ieties": 2580,
      "▁nutrition": 2581,
      "1": 2582,
      "##ck": 2583,
      "▁isl": 2584,
      "▁walls": 2585,
      "##airah": 2586,
      "▁trading": 2587,
      "##uts": 2588,
      "##obiograph": 2589,
      "▁statute": 2590,
      "▁motives": 2591,
      "##ince": 2592,
      "##ng": 2593,
      "##rev": 2594,
      "▁launch": 2595,
      "▁wiped": 2596,
      "##202": 2597,
      "##af": 2598,
      "▁appearance": 2599,
      "▁nerve": 2600,
      "▁cakes": 2601,
      "##raz": 2602,
      "▁hav": 2603,
      "▁atlantic": 2604,
      "▁chann": 2605,
      "▁inapp": 2606,
      "▁forth": 2607,
      "▁calculations": 2608,
      "▁accommodate": 2609,
      "▁ability": 2610,
      "▁uncle": 2611,
      "▁collected": 2612,
      "##aph": 2613,
      "##ry": 2614,
      "▁difficulty": 2615,
      "▁nail": 2616,
      "▁tradem": 2617,
      "▁boun": 2618,
      "▁speaking": 2619,
      "▁summer": 2620,
      "▁apartment": 2621,
      "▁socotra": 2622,
      "▁desc": 2623,
      "▁exact": 2624,
      "▁beaches": 2625,
      "▁carried": 2626,
      "▁sprouts": 2627,
      "##/01": 2628,
      "▁johann": 2629,
      "▁allerg": 2630,
      "▁grew": 2631,
      "##oty": 2632,
      "▁instructor": 2633,
      "##utions": 2634,
      "▁healthy": 2635,
      "▁commercial": 2636,
      "▁brightly": 2637,
      "##orrow": 2638,
      "##ton": 2639,
      "▁74419": 2640,
      "##aking": 2641,
      "▁ten": 2642,
      "▁periods": 2643,
      "▁sue": 2644,
      "▁elimin": 2645,
      "▁capt": 2646,
      "▁prud": 2647,
      "▁helmet": 2648,
      "▁chem": 2649,
      "##/11/2004": 2650,
      "##.9": 2651,
      "▁nida": 2652,
      "▁heavier": 2653,
      "▁reflecting": 2654,
      "##ators": 2655,
      "▁03/08/2000": 2656,
      "▁frust": 2657,
      "▁clark": 2658,
      "▁confid": 2659,
      "▁sensing": 2660,
      "##stick": 2661,
      "▁propos": 2662,
      "▁swe": 2663,
      "▁infor": 2664,
      "▁uma": 2665,
      "##imony": 2666,
      "▁preferably": 2667,
      "▁administrator": 2668,
      "▁ugly": 2669,
      "▁disease": 2670,
      "▁6/1": 2671,
      "▁checked": 2672,
      "▁ants": 2673,
      "▁bedroom": 2674,
      "▁formica": 2675,
      "▁nmemdrft8-7-01": 2676,
      "▁functions": 2677,
      "▁suitable": 2678,
      "▁hos": 2679,
      "▁cor": 2680,
      "▁see": 2681,
      "▁neighborhood": 2682,
      "##ression": 2683,
      "##omin": 2684,
      "##sylv": 2685,
      "▁foul": 2686,
      "##antanamo": 2687,
      "▁civic": 2688,
      "▁chi": 2689,
      "▁ben": 2690,
      "##unh": 2691,
      "▁overall": 2692,
      "##season": 2693,
      "▁bleachers": 2694,
      "▁awoh": 2695,
      "▁joh": 2696,
      "▁visa": 2697,
      "▁luther": 2698,
      "▁outbreak": 2699,
      "##gment": 2700,
      "▁emailed": 2701,
      "▁10/26/2000": 2702,
      "▁zurbaran": 2703,
      "▁.2": 2704,
      "▁dil": 2705,
      "▁prosec": 2706,
      "##jan": 2707,
      "▁ai": 2708,
      "▁container": 2709,
      "▁ahmed": 2710,
      "▁array": 2711,
      "▁bumped": 2712,
      "▁lands": 2713,
      "▁tearing": 2714,
      "▁pri": 2715,
      "▁trends": 2716,
      "▁option": 2717,
      "▁curator": 2718,
      "▁industrial": 2719,
      "▁response": 2720,
      "▁located": 2721,
      "##amar": 2722,
      "##munic": 2723,
      "▁publication": 2724,
      "##osed": 2725,
      "▁pumpkin": 2726,
      "##744": 2727,
      "▁bom": 2728,
      "▁congratulations": 2729,
      "▁innovations": 2730,
      "▁minority": 2731,
      "▁arrows": 2732,
      "##s.": 2733,
      "▁congratulate": 2734,
      "▁compreh": 2735,
      "▁loves": 2736,
      "▁2.6": 2737,
      "▁immigration": 2738,
      "▁6400": 2739,
      "▁teaching": 2740,
      "▁pins": 2741,
      "##-79": 2742,
      "##bridge": 2743,
      "▁hopeless": 2744,
      "▁spilled": 2745,
      "▁dad": 2746,
      "▁ide": 2747,
      "▁spent": 2748,
      "▁public": 2749,
      "▁possibilities": 2750,
      "▁shy": 2751,
      "##山": 2752,
      "▁focus": 2753,
      "▁mice": 2754,
      "▁underneath": 2755,
      "▁associate": 2756,
      "▁lux": 2757,
      "▁eff": 2758,
      "▁opera": 2759,
      "▁mare": 2760,
      "##183": 2761,
      "▁639": 2762,
      "▁hesitate": 2763,
      "▁damned": 2764,
      "▁oreg": 2765,
      "##83": 2766,
      "▁reasons": 2767,
      "▁prince": 2768,
      "▁seek": 2769,
      "e": 2770,
      "▁63": 2771,
      "▁hed": 2772,
      "▁towns": 2773,
      "▁obsc": 2774,
      "▁190": 2775,
      "##lying": 2776,
      "##andra": 2777,
      "##/97": 2778,
      "▁clause": 2779,
      "▁nons": 2780,
      "▁luck": 2781,
      "##inoc": 2782,
      "▁subd": 2783,
      "▁comic": 2784,
      "##ippers": 2785,
      "▁tact": 2786,
      "▁1875": 2787,
      "▁minds": 2788,
      "▁typical": 2789,
      "##oga": 2790,
      "▁whol": 2791,
      "▁homeopathy": 2792,
      "▁manufacturing": 2793,
      "▁campus": 2794,
      "▁dining": 2795,
      "##ib": 2796,
      "▁trouble": 2797,
      "▁section": 2798,
      "▁jordan": 2799,
      "▁exce": 2800,
      "▁934": 2801,
      "##anged": 2802,
      "▁pouring": 2803,
      "▁secretary": 2804,
      "▁---->===": 2805,
      "▁510-642": 2806,
      "##eping": 2807,
      "▁operate": 2808,
      "▁correl": 2809,
      "▁^_^": 2810,
      "▁lur": 2811,
      "▁frag": 2812,
      "▁trucks": 2813,
      "▁temperature": 2814,
      "▁spore": 2815,
      "▁atl": 2816,
      "▁shipped": 2817,
      "▁sequence": 2818,
      "▁revised": 2819,
      "##her": 2820,
      "▁alcalde": 2821,
      "▁collabor": 2822,
      "▁properties": 2823,
      "##asty": 2824,
      "▁government": 2825,
      "▁343": 2826,
      "##ansen": 2827,
      "▁military": 2828,
      "▁adv": 2829,
      "▁corp": 2830,
      "##dog": 2831,
      "▁while": 2832,
      "▁505-625": 2833,
      "▁her": 2834,
      "##die": 2835,
      "##chant": 2836,
      "##-8": 2837,
      "▁citizen": 2838,
      "##iron": 2839,
      "▁temple": 2840,
      "▁dries": 2841,
      "##/2004": 2842,
      "­": 2843,
      "▁syrup": 2844,
      "▁ones": 2845,
      "▁nationality": 2846,
      "##doc": 2847,
      "▁whee": 2848,
      "▁warmer": 2849,
      "▁failures": 2850,
      "▁enhance": 2851,
      "##itis": 2852,
      "##lines": 2853,
      "▁approximation": 2854,
      "▁ship": 2855,
      "▁yoko": 2856,
      "▁metro": 2857,
      "▁rivers": 2858,
      "▁understands": 2859,
      "▁thick": 2860,
      "▁approval": 2861,
      "▁lyn": 2862,
      "▁prevail": 2863,
      "▁committ": 2864,
      "▁themes": 2865,
      "▁saturdays": 2866,
      "▁...............": 2867,
      "▁strategic": 2868,
      "▁care": 2869,
      "▁hit": 2870,
      "▁applic": 2871,
      "▁6:00": 2872,
      "##anic": 2873,
      "图": 2874,
      "▁kand": 2875,
      "▁panc": 2876,
      "▁cases": 2877,
      "▁noisy": 2878,
      "▁pride": 2879,
      "##arity": 2880,
      "▁wee": 2881,
      "##+": 2882,
      "▁bike": 2883,
      "▁insp": 2884,
      "▁camera": 2885,
      "▁cereal": 2886,
      "▁organ": 2887,
      "▁p.s.": 2888,
      "▁cents": 2889,
      "##elong": 2890,
      "▁ansi-92": 2891,
      "▁sauce": 2892,
      "▁conn": 2893,
      "##ometer": 2894,
      "ɔ": 2895,
      "▁lant": 2896,
      "▁possibility": 2897,
      "##onut": 2898,
      "▁securities": 2899,
      "▁n't": 2900,
      "▁banks": 2901,
      "▁lessons": 2902,
      "▁300": 2903,
      "##hole": 2904,
      "▁suspended": 2905,
      "##aire": 2906,
      "▁annoying": 2907,
      "▁1993": 2908,
      "▁item": 2909,
      "##esome": 2910,
      "##ont": 2911,
      "+": 2912,
      "▁ena": 2913,
      "▁combination": 2914,
      "▁repres": 2915,
      "▁chemical": 2916,
      "▁magn": 2917,
      "▁conserv": 2918,
      "##,000,000,000": 2919,
      "▁reject": 2920,
      "▁sus": 2921,
      "▁argued": 2922,
      "▁wise": 2923,
      "▁h-0": 2924,
      "▁pickle": 2925,
      "##%": 2926,
      "▁subject": 2927,
      "▁laugh": 2928,
      "▁sup": 2929,
      "▁estim": 2930,
      "▁outstanding": 2931,
      "▁f-": 2932,
      "##text": 2933,
      "▁unl": 2934,
      "▁fighting": 2935,
      "▁ge": 2936,
      "▁securing": 2937,
      "##ello": 2938,
      "▁tries": 2939,
      "▁colleag": 2940,
      "▁killing": 2941,
      "##dging": 2942,
      "▁chased": 2943,
      "▁alice": 2944,
      "##isl": 2945,
      "##3736": 2946,
      "▁designer": 2947,
      "▁aviation": 2948,
      "▁billions": 2949,
      "##ertain": 2950,
      "▁llms": 2951,
      "▁oper": 2952,
      "##ammed": 2953,
      "##chief": 2954,
      "##ttes": 2955,
      "▁liverpool": 2956,
      "▁gand": 2957,
      "▁em": 2958,
      "▁insight": 2959,
      "##!!!!": 2960,
      "##ff": 2961,
      "▁possess": 2962,
      "▁a1": 2963,
      "▁twa": 2964,
      "▁recipe": 2965,
      "▁inevitably": 2966,
      "▁blowing": 2967,
      "##54-": 2968,
      "▁melting": 2969,
      "▁genetically": 2970,
      "▁umb": 2971,
      "▁emper": 2972,
      "▁groups": 2973,
      "##owned": 2974,
      "▁grim": 2975,
      "▁**********": 2976,
      "▁1787": 2977,
      "##itt": 2978,
      "▁herm": 2979,
      "▁continually": 2980,
      "▁shel": 2981,
      "x": 2982,
      "▁friend": 2983,
      "▁colleague": 2984,
      "##ker": 2985,
      "▁thinking": 2986,
      "▁syntact": 2987,
      "▁student": 2988,
      "##cl": 2989,
      "▁living": 2990,
      "▁opposition": 2991,
      "▁andaman": 2992,
      "▁spikes": 2993,
      "▁upcoming": 2994,
      "▁topic": 2995,
      "▁recorder": 2996,
      "▁tough": 2997,
      "##:07": 2998,
      "▁hippopotamus": 2999,
      "##fully": 3000,
      "▁departs": 3001,
      "##ately": 3002,
      "▁those": 3003,
      "##ube": 3004,
      "▁exploration": 3005,
      "##atch": 3006,
      "▁suggesting": 3007,
      "▁venus": 3008,
      "▁charcoal": 3009,
      "▁thrift": 3010,
      "▁effectively": 3011,
      "▁sett": 3012,
      "##kes": 3013,
      "##look": 3014,
      "▁rac": 3015,
      "▁monit": 3016,
      "▁desir": 3017,
      "▁precious": 3018,
      "##ampa": 3019,
      "▁adapted": 3020,
      "▁principles": 3021,
      "▁frequ": 3022,
      "▁gosh": 3023,
      "##any": 3024,
      "▁łodz": 3025,
      "##asa": 3026,
      "▁researching": 3027,
      "##kana": 3028,
      "▁**": 3029,
      "▁inade": 3030,
      "▁bell": 3031,
      "##mp": 3032,
      "▁cyclone": 3033,
      "▁mim": 3034,
      "▁twenty-four": 3035,
      "##oodle": 3036,
      "##.com/wikihow": 3037,
      "▁states": 3038,
      "##ass": 3039,
      "▁limous": 3040,
      "▁motiv": 3041,
      "▁mummy": 3042,
      "▁====================================================": 3043,
      "▁longer": 3044,
      "▁oak": 3045,
      "▁hilar": 3046,
      "▁queen": 3047,
      "▁verd": 3048,
      "▁therap": 3049,
      "##arter": 3050,
      "j": 3051,
      "▁risk": 3052,
      "▁ac": 3053,
      "##'s": 3054,
      "▁colors": 3055,
      "▁meanwhile": 3056,
      "▁hydrogen": 3057,
      "▁81": 3058,
      "▁outright": 3059,
      "▁altogether": 3060,
      "▁2003": 3061,
      "▁gob": 3062,
      "▁waving": 3063,
      "▁jewish": 3064,
      "▁princip": 3065,
      "▁prepared": 3066,
      "▁lighting": 3067,
      "▁rol": 3068,
      "▁persist": 3069,
      "##ize": 3070,
      "▁taylor": 3071,
      "▁jingle": 3072,
      "##eys": 3073,
      "▁pounds": 3074,
      "▁foods": 3075,
      "▁famous": 3076,
      "##ec": 3077,
      "▁working": 3078,
      "▁diseases": 3079,
      "▁chines": 3080,
      "▁sunken": 3081,
      "▁judge": 3082,
      "##v.": 3083,
      "##ificent": 3084,
      "▁fac": 3085,
      "▁kay": 3086,
      "▁avenue": 3087,
      "▁bulld": 3088,
      "▁guarantee": 3089,
      "▁gala": 3090,
      "▁st": 3091,
      "▁operation": 3092,
      "##-kedne": 3093,
      "▁unfortunate": 3094,
      "▁transformative": 3095,
      "##ym": 3096,
      "▁statistics": 3097,
      "##eau": 3098,
      "▁contributions": 3099,
      "##ome": 3100,
      "▁impart": 3101,
      "▁deliberate": 3102,
      "##onsc": 3103,
      "▁ducks": 3104,
      "▁femur": 3105,
      "▁646-84": 3106,
      "▁election": 3107,
      "▁counterparty": 3108,
      "▁401": 3109,
      "##and": 3110,
      "▁williams": 3111,
      "▁trip": 3112,
      "##/17/2000": 3113,
      "##id": 3114,
      "▁testing": 3115,
      "##6021": 3116,
      "▁kinds": 3117,
      "##ν": 3118,
      "▁fl": 3119,
      "▁chocolate": 3120,
      "▁jealous": 3121,
      "##www": 3122,
      "▁player": 3123,
      "▁everywhere": 3124,
      "▁mistaken": 3125,
      "▁removal": 3126,
      "▁bags": 3127,
      "##erves": 3128,
      "▁claim": 3129,
      "▁init": 3130,
      "▁consistent": 3131,
      "▁prejud": 3132,
      "##icked": 3133,
      "##yen": 3134,
      "▁treated": 3135,
      "##ward": 3136,
      "##.7": 3137,
      "##4": 3138,
      "▁arch": 3139,
      "▁ep": 3140,
      "▁repetition": 3141,
      "▁milwaukee": 3142,
      "▁material": 3143,
      "▁sport": 3144,
      "##imin": 3145,
      "▁hano": 3146,
      "▁formatting": 3147,
      "▁horses": 3148,
      "▁usa": 3149,
      "▁disin": 3150,
      "▁-----------------------------------------------------------------------": 3151,
      "▁928": 3152,
      "##iasm": 3153,
      "##ago": 3154,
      "▁till": 3155,
      "▁lets": 3156,
      "▁recru": 3157,
      "##-50": 3158,
      "▁better": 3159,
      "##/8/00": 3160,
      "▁pref": 3161,
      "▁mathematics": 3162,
      "##2/2000": 3163,
      "▁dans": 3164,
      "▁millisandy": 3165,
      "▁protection": 3166,
      "▁right": 3167,
      "▁neare": 3168,
      "▁sh": 3169,
      "▁illeg": 3170,
      "▁sust": 3171,
      "▁hamas": 3172,
      "#": 3173,
      "##ansion": 3174,
      "▁jones": 3175,
      "▁hum": 3176,
      "##ashed": 3177,
      "▁yummy": 3178,
      "##pi": 3179,
      "▁loved": 3180,
      "##ris": 3181,
      "▁pakistan": 3182,
      "##ipe": 3183,
      "▁stretch": 3184,
      "▁peanut": 3185,
      "▁leaning": 3186,
      "▁pages": 3187,
      "▁brains": 3188,
      "▁finding": 3189,
      "▁boom": 3190,
      "▁screws": 3191,
      "##ither": 3192,
      "##ounding": 3193,
      "##esses": 3194,
      "##istan": 3195,
      "▁settle": 3196,
      "▁mercury": 3197,
      "##70": 3198,
      "▁pennies": 3199,
      "▁complet": 3200,
      "▁peninsula": 3201,
      "▁deb": 3202,
      "▁tremendous": 3203,
      "▁lawsuit": 3204,
      "▁promote": 3205,
      "▁leave": 3206,
      "▁fallen": 3207,
      "##nia": 3208,
      "▁analyses": 3209,
      "▁comedy": 3210,
      "▁guarantees": 3211,
      "##aria": 3212,
      "▁sinh": 3213,
      "▁fire": 3214,
      "##uable": 3215,
      "▁expectations": 3216,
      "▁phenomenon": 3217,
      "▁phen": 3218,
      "##i": 3219,
      "▁introducing": 3220,
      "▁fight": 3221,
      "▁mistake": 3222,
      "▁cared": 3223,
      "▁boot": 3224,
      "▁masterpi": 3225,
      "▁lufthansa": 3226,
      "##uz": 3227,
      "▁proven": 3228,
      "▁forb": 3229,
      "▁title": 3230,
      "▁shirts": 3231,
      "▁environment": 3232,
      "▁pian": 3233,
      "▁negotiation": 3234,
      "▁weary": 3235,
      "▁resour": 3236,
      "▁bottle": 3237,
      "▁rare": 3238,
      "▁tables": 3239,
      "▁instant": 3240,
      "##ensed": 3241,
      "##09": 3242,
      "▁ruby": 3243,
      "▁pipeline": 3244,
      "▁cheeks": 3245,
      "##:05": 3246,
      "▁offer": 3247,
      "▁confused": 3248,
      "▁teleph": 3249,
      "▁pyth": 3250,
      "##v": 3251,
      "##-10": 3252,
      "▁ballet": 3253,
      "##arents": 3254,
      "##era": 3255,
      "▁birds": 3256,
      "▁pigs": 3257,
      "▁symptoms": 3258,
      "##@a": 3259,
      "▁fal": 3260,
      "▁rig": 3261,
      "##view": 3262,
      "▁matt": 3263,
      "▁drove": 3264,
      "▁condem": 3265,
      "▁pione": 3266,
      "▁'": 3267,
      "##aping": 3268,
      "▁lawyer": 3269,
      "▁edition": 3270,
      "##5th": 3271,
      "▁uncover": 3272,
      "▁matches": 3273,
      "▁self": 3274,
      "▁destroy": 3275,
      "▁regional": 3276,
      "▁nob": 3277,
      "##c.": 3278,
      "##unt": 3279,
      "▁comparing": 3280,
      "▁smooth": 3281,
      "##/2001": 3282,
      "▁astride": 3283,
      "##ase": 3284,
      "▁combine": 3285,
      "▁repl": 3286,
      "▁bunn": 3287,
      "▁eol": 3288,
      "▁dust": 3289,
      "▁judged": 3290,
      "▁backward": 3291,
      "▁cosplay": 3292,
      "▁definitely": 3293,
      "▁vintage": 3294,
      "▁black": 3295,
      "▁pall": 3296,
      "▁sol": 3297,
      "▁off": 3298,
      "▁discussing": 3299,
      "##~*~*": 3300,
      "##lie": 3301,
      "▁ban": 3302,
      "##ortium": 3303,
      "▁decor": 3304,
      "▁knives": 3305,
      "##ines": 3306,
      "▁questionna": 3307,
      "##math": 3308,
      "▁compressor": 3309,
      "▁ag": 3310,
      "▁keeping": 3311,
      "▁midnight": 3312,
      "##entic": 3313,
      "▁hours": 3314,
      "▁solely": 3315,
      "▁arbitr": 3316,
      "▁peach": 3317,
      "▁shine": 3318,
      "##ograph": 3319,
      "##itzer": 3320,
      "▁ss": 3321,
      "▁sky": 3322,
      "▁dark": 3323,
      "##tegr": 3324,
      "▁austral": 3325,
      "▁deriv": 3326,
      "▁target": 3327,
      "▁600": 3328,
      "▁celebr": 3329,
      "▁2004": 3330,
      "##step": 3331,
      "▁need": 3332,
      "▁exhibited": 3333,
      "▁scrap": 3334,
      "▁vi": 3335,
      "▁gained": 3336,
      "▁ambul": 3337,
      "▁other": 3338,
      "▁wis": 3339,
      "▁covered": 3340,
      "▁clarify": 3341,
      "▁mixed": 3342,
      "▁phr": 3343,
      "▁blog": 3344,
      "▁imm": 3345,
      "▁cab": 3346,
      "▁36": 3347,
      "▁thus": 3348,
      "▁interrupted": 3349,
      "▁wives": 3350,
      "▁scen": 3351,
      "▁kong": 3352,
      "▁requ": 3353,
      "##.html": 3354,
      "▁leban": 3355,
      "▁edward": 3356,
      "▁reef": 3357,
      "##~*~*~*~*": 3358,
      "▁savage": 3359,
      "▁older": 3360,
      "▁diary": 3361,
      "▁exagger": 3362,
      "##en.": 3363,
      "▁puff": 3364,
      "▁1836": 3365,
      "▁fear": 3366,
      "▁pyram": 3367,
      "▁kam": 3368,
      "▁cind": 3369,
      "▁connecting": 3370,
      "▁consensus": 3371,
      "▁too": 3372,
      "▁instructions": 3373,
      "▁withdrawn": 3374,
      "▁max": 3375,
      "##fare": 3376,
      "##bod": 3377,
      "▁brooklyn": 3378,
      "▁spos": 3379,
      "▁exped": 3380,
      "▁surely": 3381,
      "##85": 3382,
      "▁✉": 3383,
      "▁7:30": 3384,
      "▁christoph": 3385,
      "▁punchline": 3386,
      "▁accurate": 3387,
      "▁21,000": 3388,
      "▁buildings": 3389,
      "▁05/25/2001": 3390,
      "##ight": 3391,
      "▁americ": 3392,
      "▁slow": 3393,
      "▁decline": 3394,
      "##ings": 3395,
      "▁yay": 3396,
      "▁1848": 3397,
      "##ras": 3398,
      "▁meh-risk": 3399,
      "▁rain": 3400,
      "##/26/2001": 3401,
      "▁texts": 3402,
      "##fl": 3403,
      "▁10/20/2000": 3404,
      "##0's": 3405,
      "▁string": 3406,
      "▁statement": 3407,
      "▁robber": 3408,
      "▁exchanged": 3409,
      "##32": 3410,
      "##worms": 3411,
      "▁anthrop": 3412,
      "▁entrepren": 3413,
      "##-h": 3414,
      "##48": 3415,
      "▁programmes": 3416,
      "▁smoke": 3417,
      "▁processor": 3418,
      "▁inex": 3419,
      "##ev": 3420,
      "▁bob": 3421,
      "▁lav": 3422,
      "▁prevention": 3423,
      "▁hate": 3424,
      "▁league": 3425,
      "▁chernobyl": 3426,
      "▁laurie": 3427,
      "##anta": 3428,
      "▁treats": 3429,
      "▁wizard": 3430,
      "▁disappointment": 3431,
      "▁negotiations": 3432,
      "##.j": 3433,
      "▁alliance": 3434,
      "▁case": 3435,
      "▁~": 3436,
      "▁relieved": 3437,
      "##odox": 3438,
      "▁coupled": 3439,
      "##erm": 3440,
      "##wise": 3441,
      "▁round": 3442,
      "▁2:25": 3443,
      "▁bou": 3444,
      "▁language": 3445,
      "▁paine": 3446,
      "▁products": 3447,
      "▁sao": 3448,
      "▁unity": 3449,
      "▁super": 3450,
      "▁sliding": 3451,
      "琴": 3452,
      "##4th": 3453,
      "▁moustache": 3454,
      "▁patience": 3455,
      "▁gay": 3456,
      "##icate": 3457,
      "##iott": 3458,
      "##ets": 3459,
      "##edule": 3460,
      "▁wider": 3461,
      "▁european": 3462,
      "▁sf": 3463,
      "▁gold": 3464,
      "▁barack": 3465,
      "▁total": 3466,
      "▁jeffrey": 3467,
      "##lessly": 3468,
      "▁fares": 3469,
      "▁collections": 3470,
      "##rison": 3471,
      "▁intr": 3472,
      "▁tip": 3473,
      "▁evidently": 3474,
      "▁invest": 3475,
      "▁tun": 3476,
      "▁dollar": 3477,
      "▁dl": 3478,
      "▁then": 3479,
      "▁incred": 3480,
      "##葉": 3481,
      "##cc": 3482,
      "▁assistance": 3483,
      "▁backup": 3484,
      "▁philly": 3485,
      "##woman": 3486,
      "▁1616": 3487,
      "▁played": 3488,
      "▁lem": 3489,
      "▁1951": 3490,
      "▁helm": 3491,
      "▁passed": 3492,
      "##ob": 3493,
      "##dam": 3494,
      "▁investigate": 3495,
      "▁shared": 3496,
      "##eeze": 3497,
      "##ots": 3498,
      "▁foot": 3499,
      "▁jam": 3500,
      "▁drag": 3501,
      "▁shep": 3502,
      "##otted": 3503,
      "▁plates": 3504,
      "▁milky": 3505,
      "▁backs": 3506,
      "▁brut": 3507,
      "▁marks": 3508,
      "▁backwards": 3509,
      "##0072": 3510,
      "▁pool": 3511,
      "▁considerable": 3512,
      "▁protecting": 3513,
      "▁ts": 3514,
      "▁amy": 3515,
      "▁pizza": 3516,
      "##-fl": 3517,
      "▁laughs": 3518,
      "▁pleasant": 3519,
      "▁d-": 3520,
      "▁tor": 3521,
      "##osure": 3522,
      "?": 3523,
      "▁adequate": 3524,
      "▁acquired": 3525,
      "▁comet": 3526,
      "▁emergency": 3527,
      "▁07/14/2000": 3528,
      "##ughter": 3529,
      "▁written": 3530,
      "▁wearing": 3531,
      "▁burst": 3532,
      "▁microsc": 3533,
      "##ologists": 3534,
      "▁chatham": 3535,
      "▁american": 3536,
      "▁i": 3537,
      "##ح": 3538,
      "▁educational": 3539,
      "▁demonstrates": 3540,
      "▁establishing": 3541,
      "▁theater": 3542,
      "▁lear": 3543,
      "##ief": 3544,
      "▁recreat": 3545,
      "▁variety": 3546,
      "▁agreements": 3547,
      "▁equal": 3548,
      "##uge": 3549,
      "▁allawi": 3550,
      "▁ornament": 3551,
      "▁hurried": 3552,
      "▁identical": 3553,
      "_": 3554,
      "▁kar": 3555,
      "▁t-": 3556,
      "▁buba": 3557,
      "▁cock": 3558,
      "##hh": 3559,
      "▁dish": 3560,
      "▁flat": 3561,
      "▁wellington": 3562,
      "▁rope": 3563,
      "▁young": 3564,
      "▁boo": 3565,
      "▁cand": 3566,
      "▁smiling": 3567,
      "##ez": 3568,
      "##ude": 3569,
      "##cel": 3570,
      "##bun": 3571,
      "▁discrim": 3572,
      "▁lifted": 3573,
      "▁tam": 3574,
      "▁session": 3575,
      "##ig": 3576,
      "▁conditions": 3577,
      "▁11,000": 3578,
      "▁separately": 3579,
      "##=1": 3580,
      "▁rack": 3581,
      "##cy": 3582,
      "▁o'": 3583,
      "▁goats": 3584,
      "##200": 3585,
      "▁hund": 3586,
      "▁mcdon": 3587,
      "▁frozen": 3588,
      "▁every": 3589,
      "▁ano": 3590,
      "▁virus": 3591,
      "▁liby": 3592,
      "▁shaped": 3593,
      "##@esa": 3594,
      "▁agra": 3595,
      "▁refresh": 3596,
      "##iary": 3597,
      "##enda": 3598,
      "##aurs": 3599,
      "▁whether": 3600,
      "▁thane": 3601,
      "▁pac": 3602,
      "##orough": 3603,
      "▁pre-": 3604,
      "▁guitar": 3605,
      "▁abs": 3606,
      "▁essence": 3607,
      "▁cry": 3608,
      "▁1504": 3609,
      "▁kosher": 3610,
      "▁lords": 3611,
      "▁christian": 3612,
      "▁gro": 3613,
      "▁merely": 3614,
      "##irl": 3615,
      "▁conference": 3616,
      "▁since": 3617,
      "▁notwi": 3618,
      "▁otherwise": 3619,
      "##415-": 3620,
      "▁bucks": 3621,
      "▁itch": 3622,
      "▁homosexual": 3623,
      "##i-": 3624,
      "▁adult": 3625,
      "▁shortly": 3626,
      "▁weekend": 3627,
      "▁ladder": 3628,
      "##ology": 3629,
      "##igu": 3630,
      "▁positions": 3631,
      "▁extension": 3632,
      "▁lens": 3633,
      "##mania": 3634,
      "▁week": 3635,
      "▁detective": 3636,
      "##beijing": 3637,
      "##igs": 3638,
      "▁perm": 3639,
      "▁44": 3640,
      "▁attributed": 3641,
      "ι": 3642,
      "##ront": 3643,
      "▁disgust": 3644,
      "▁capable": 3645,
      "▁destination": 3646,
      "\"": 3647,
      "▁liquidation": 3648,
      "▁mitig": 3649,
      "▁tuck": 3650,
      "##ata": 3651,
      "##oes": 3652,
      "▁restriction": 3653,
      "▁sixteen": 3654,
      "▁references": 3655,
      "▁supreme": 3656,
      "▁ham": 3657,
      "##iao": 3658,
      "▁likewise": 3659,
      "▁musicians": 3660,
      "##ounce": 3661,
      "▁cooker": 3662,
      "##bish": 3663,
      "▁point": 3664,
      "##.ht": 3665,
      "▁m": 3666,
      "##head": 3667,
      "##keys": 3668,
      "▁boil": 3669,
      "▁actors": 3670,
      "▁england": 3671,
      "##8806": 3672,
      "##pot": 3673,
      "▁drug": 3674,
      "▁1505": 3675,
      "▁wednesday": 3676,
      "##/4": 3677,
      "▁confine": 3678,
      "▁organizations": 3679,
      "▁divide": 3680,
      "▁nonstop": 3681,
      "▁civilizations": 3682,
      "##-up": 3683,
      "▁administration": 3684,
      "▁3.5": 3685,
      "▁ignored": 3686,
      "▁corpus": 3687,
      "##year": 3688,
      "▁bobby": 3689,
      "▁tasted": 3690,
      "##he": 3691,
      "▁legislature": 3692,
      "▁show": 3693,
      "▁recipient": 3694,
      "ɑ": 3695,
      "##.718": 3696,
      "▁thought": 3697,
      "▁sheet": 3698,
      "##alf": 3699,
      "▁appreciated": 3700,
      "▁ig": 3701,
      "▁ve": 3702,
      "▁01/25/2001": 3703,
      "▁financ": 3704,
      "##nets": 3705,
      "▁wrestle": 3706,
      "▁power": 3707,
      "##ا": 3708,
      "▁tablet": 3709,
      "##????????": 3710,
      "▁mode": 3711,
      "▁soda": 3712,
      "▁poses": 3713,
      "▁nich": 3714,
      "▁armen": 3715,
      "▁1600": 3716,
      "▁kicked": 3717,
      "##60": 3718,
      "▁82": 3719,
      "▁laughing": 3720,
      "▁fee": 3721,
      "▁mouse": 3722,
      "▁urge": 3723,
      "▁******************************************************************": 3724,
      "##do": 3725,
      "##ays": 3726,
      "▁harm": 3727,
      "▁belly": 3728,
      "##ew": 3729,
      "▁depends": 3730,
      "##ims": 3731,
      "▁pupp": 3732,
      "▁assuming": 3733,
      "▁bc": 3734,
      "##or": 3735,
      "##roy": 3736,
      "▁zawahiri": 3737,
      "▁toler": 3738,
      "▁clay": 3739,
      "▁payments": 3740,
      "▁newer": 3741,
      "▁inject": 3742,
      "▁beauveria": 3743,
      "▁argue": 3744,
      "▁worst": 3745,
      "▁width": 3746,
      "▁relativ": 3747,
      "▁floren": 3748,
      "▁ears": 3749,
      "▁palace": 3750,
      "▁stranger": 3751,
      "##grade": 3752,
      "##arias": 3753,
      "▁crush": 3754,
      "▁stood": 3755,
      "##rap": 3756,
      "##iri": 3757,
      "▁memory": 3758,
      "##.1": 3759,
      "▁communications": 3760,
      "▁messy": 3761,
      "▁carrier": 3762,
      "##ften": 3763,
      "▁lank": 3764,
      "静": 3765,
      "##enc": 3766,
      "##enue": 3767,
      "▁supermarket": 3768,
      "▁glowing": 3769,
      "▁audio": 3770,
      "▁chewing": 3771,
      "▁opt": 3772,
      "##ale": 3773,
      "▁bol": 3774,
      "##oke": 3775,
      "▁’re": 3776,
      "##la": 3777,
      "##aiss": 3778,
      "##endous": 3779,
      "▁inclined": 3780,
      "▁book": 3781,
      "▁interval": 3782,
      "##inal": 3783,
      "▁ver": 3784,
      "##/chernobyl": 3785,
      "▁sundays": 3786,
      "##93": 3787,
      "▁countryside": 3788,
      "▁credential": 3789,
      "##forward": 3790,
      "▁dizzy": 3791,
      "▁establishments": 3792,
      "##°": 3793,
      "▁bin": 3794,
      "▁skip": 3795,
      "##80s": 3796,
      "##iring": 3797,
      "##ute": 3798,
      "▁ordered": 3799,
      "▁03:3": 3800,
      "▁staircase": 3801,
      "▁fraud": 3802,
      "##oa": 3803,
      "@": 3804,
      "▁empathy": 3805,
      "▁necess": 3806,
      "▁sac": 3807,
      "▁slammed": 3808,
      "▁territory": 3809,
      "##acht": 3810,
      "▁anyway": 3811,
      "##θ": 3812,
      "▁voices": 3813,
      "##oration": 3814,
      "▁202.456": 3815,
      "##birds": 3816,
      "▁tig": 3817,
      "▁unim": 3818,
      "▁cross-s": 3819,
      "▁dom": 3820,
      "▁pure": 3821,
      "▁apologize": 3822,
      "▁shanna": 3823,
      "▁stores": 3824,
      "▁slide": 3825,
      "▁restr": 3826,
      "▁roots": 3827,
      "▁1984": 3828,
      "▁membership": 3829,
      "##iy": 3830,
      "##8th": 3831,
      "▁sail": 3832,
      "▁children": 3833,
      "▁sp": 3834,
      "▁conclud": 3835,
      "▁considering": 3836,
      "##flies": 3837,
      "▁bok": 3838,
      "▁disorders": 3839,
      "▁switch": 3840,
      "▁losses": 3841,
      "▁traditional": 3842,
      "▁re-e": 3843,
      "▁categor": 3844,
      "▁ekrap": 3845,
      "##rome": 3846,
      "▁experts": 3847,
      "▁loop": 3848,
      "ʁ": 3849,
      "▁aware": 3850,
      "▁calm": 3851,
      "##usal": 3852,
      "##.2461": 3853,
      "▁handy": 3854,
      "▁museums": 3855,
      "▁11-20-2000": 3856,
      "▁businessmen": 3857,
      "▁conceptual": 3858,
      "▁afraid": 3859,
      "▁iranian": 3860,
      "▁berkeley": 3861,
      "▁urs": 3862,
      "▁decree": 3863,
      "▁labrad": 3864,
      "▁imported": 3865,
      "▁dere": 3866,
      "##var": 3867,
      "##.8317": 3868,
      "▁888": 3869,
      "▁dead": 3870,
      "▁dign": 3871,
      "▁philippines": 3872,
      "▁composition": 3873,
      "▁tickle": 3874,
      "▁grow": 3875,
      "▁bought": 3876,
      "▁obsession": 3877,
      "▁him": 3878,
      "##icing": 3879,
      "▁skitt": 3880,
      "▁harry": 3881,
      "▁philip": 3882,
      "▁doubts": 3883,
      "▁discharge": 3884,
      "▁978": 3885,
      "▁month": 3886,
      "##ability": 3887,
      "##********": 3888,
      "▁.....": 3889,
      "▁rely": 3890,
      "##esday": 3891,
      "▁applied": 3892,
      "▁hier": 3893,
      "▁1965": 3894,
      "▁perceptions": 3895,
      "▁apost": 3896,
      "▁sheets": 3897,
      "▁least": 3898,
      "▁greet": 3899,
      "▁pin": 3900,
      "##7th": 3901,
      "▁reserves": 3902,
      "▁usi": 3903,
      "▁main": 3904,
      "▁dates": 3905,
      "▁circus": 3906,
      "##osexual": 3907,
      "▁21st": 3908,
      "▁degenerate": 3909,
      "▁exha": 3910,
      "▁presidential": 3911,
      "n": 3912,
      "##py": 3913,
      "##ention": 3914,
      "▁ped": 3915,
      "##osite": 3916,
      "▁personal": 3917,
      "▁hub": 3918,
      "##teboo": 3919,
      "▁189": 3920,
      "▁!!!": 3921,
      "▁bra": 3922,
      "▁solo": 3923,
      "##esh": 3924,
      "##liver": 3925,
      "▁conducted": 3926,
      "▁heather": 3927,
      "##apt": 3928,
      "##amble": 3929,
      "▁none": 3930,
      "▁minerals": 3931,
      "▁ele": 3932,
      "▁twenty": 3933,
      "▁sticking": 3934,
      "▁musk": 3935,
      "▁kurtz": 3936,
      "▁hidden": 3937,
      "▁iss": 3938,
      "▁interpreted": 3939,
      "▁discl": 3940,
      "▁checkout": 3941,
      "##idence": 3942,
      "▁collects": 3943,
      "▁baltim": 3944,
      "▁traged": 3945,
      "▁begun": 3946,
      "▁lantern": 3947,
      "▁mirror": 3948,
      "##h-": 3949,
      "##attle": 3950,
      "▁burrow": 3951,
      "▁polaroids": 3952,
      "▁sie": 3953,
      "▁determination": 3954,
      "▁supply": 3955,
      "##-cage": 3956,
      "▁grande": 3957,
      "▁vest": 3958,
      "▁functioning": 3959,
      "▁sometime": 3960,
      "▁gather": 3961,
      "▁was": 3962,
      "##essive": 3963,
      "▁director": 3964,
      "▁fork": 3965,
      "▁intrig": 3966,
      "▁utility": 3967,
      "▁505-625-8031": 3968,
      "▁maintained": 3969,
      "▁notebook": 3970,
      "▁molec": 3971,
      "▁cer": 3972,
      "▁play+": 3973,
      "##aled": 3974,
      "▁forget": 3975,
      "##olly": 3976,
      "▁runner": 3977,
      "##umb": 3978,
      "▁meow": 3979,
      "▁blanche": 3980,
      "▁1980": 3981,
      "▁democratic": 3982,
      "▁revisions": 3983,
      "▁societies": 3984,
      "##gress": 3985,
      "▁moment": 3986,
      "▁application": 3987,
      "##iterrane": 3988,
      "▁alert": 3989,
      "##ca": 3990,
      "##leon": 3991,
      "▁'ve": 3992,
      "##ross": 3993,
      "▁learning": 3994,
      "▁reactions": 3995,
      "▁patrons": 3996,
      "##ht": 3997,
      "▁tong": 3998,
      "##iev": 3999,
      "▁jaf": 4000,
      "▁resolved": 4001,
      "▁1995": 4002,
      "▁pair": 4003,
      "▁185": 4004,
      "▁cash": 4005,
      "▁exceptionally": 4006,
      "▁smaller": 4007,
      "▁v.": 4008,
      "▁migrated": 4009,
      "##yn": 4010,
      "##les": 4011,
      "▁turned": 4012,
      "▁starts": 4013,
      "▁11608": 4014,
      "▁uk": 4015,
      "▁pillow": 4016,
      "▁corruption": 4017,
      "▁narrative": 4018,
      "▁sept": 4019,
      "▁flaubert": 4020,
      "##oyd": 4021,
      "▁cocoa": 4022,
      "▁specifically": 4023,
      "▁martinez": 4024,
      "▁snack": 4025,
      "▁knife": 4026,
      "▁modem": 4027,
      "▁immigrants": 4028,
      "▁stopovers": 4029,
      "##rial": 4030,
      "▁420": 4031,
      "▁poison": 4032,
      "##igger": 4033,
      "##s": 4034,
      "##erre": 4035,
      "▁secondary": 4036,
      "##ope": 4037,
      "▁quick": 4038,
      "▁heard": 4039,
      "▁10/31": 4040,
      "▁kw": 4041,
      "##rof": 4042,
      "▁aer": 4043,
      "▁infrast": 4044,
      "##eez": 4045,
      "▁summar": 4046,
      "##iguing": 4047,
      "▁u.": 4048,
      "▁w3c": 4049,
      "▁precisely": 4050,
      "▁maintenance": 4051,
      "##anger": 4052,
      "▁roof": 4053,
      "▁destroyed": 4054,
      "▁ticket": 4055,
      "▁>----------------------------------------------------------------------------": 4056,
      "▁motel": 4057,
      "▁retract": 4058,
      "▁alberta": 4059,
      "▁prefect": 4060,
      "▁moon": 4061,
      "##erve": 4062,
      "▁cough": 4063,
      "▁on": 4064,
      "▁cars": 4065,
      "▁michelle": 4066,
      "▁]": 4067,
      "▁fulf": 4068,
      "▁stolen": 4069,
      "▁owes": 4070,
      "▁forty": 4071,
      "▁contract": 4072,
      "▁2005": 4073,
      "##icking": 4074,
      "##t": 4075,
      "▁frame": 4076,
      "▁wrap": 4077,
      "▁possession": 4078,
      "ص": 4079,
      "##iac": 4080,
      "##veria": 4081,
      "##@enron.com": 4082,
      "▁incom": 4083,
      "▁reaches": 4084,
      "▁totally": 4085,
      "##ulating": 4086,
      "h": 4087,
      "▁fungi": 4088,
      "▁emerg": 4089,
      "▁1994": 4090,
      "▁receptionist": 4091,
      "▁khalid": 4092,
      "▁relationships": 4093,
      "▁by": 4094,
      "▁cross": 4095,
      "▁honey": 4096,
      "▁mis": 4097,
      "▁mexican": 4098,
      "▁’ve": 4099,
      "▁solved": 4100,
      "▁fool": 4101,
      "▁whom": 4102,
      "##eng": 4103,
      "▁tv": 4104,
      "▁flood": 4105,
      "##unch": 4106,
      "▁millions": 4107,
      "▁define": 4108,
      "▁2:00": 4109,
      "▁later": 4110,
      "▁worse": 4111,
      "▁professors": 4112,
      "▁syn": 4113,
      "##anc": 4114,
      "##round": 4115,
      "##iable": 4116,
      "##gam": 4117,
      "##idding": 4118,
      "▁port": 4119,
      "▁time": 4120,
      "▁4_28_00.doc": 4121,
      "▁miller": 4122,
      "▁closet": 4123,
      "##st": 4124,
      "##osis": 4125,
      "▁traveler": 4126,
      "▁debate": 4127,
      "▁olympic": 4128,
      "▁insuff": 4129,
      "▁columb": 4130,
      "▁twin": 4131,
      "▁explanation": 4132,
      "▁pr": 4133,
      "##33": 4134,
      "##/9": 4135,
      "▁pivot": 4136,
      "▁nights": 4137,
      "▁carefully": 4138,
      "##utical": 4139,
      "▁america": 4140,
      "▁courtney": 4141,
      "▁anth": 4142,
      "▁balance": 4143,
      "▁controls": 4144,
      "▁1954": 4145,
      "▁shop": 4146,
      "##sequ": 4147,
      "▁recip": 4148,
      "##nd": 4149,
      "##-7": 4150,
      "▁ad": 4151,
      "▁ash": 4152,
      "##__": 4153,
      "▁towels": 4154,
      "▁cens": 4155,
      "▁20:00": 4156,
      "▁staying": 4157,
      "##report": 4158,
      "▁olds": 4159,
      "▁tighten": 4160,
      "▁revis": 4161,
      "▁depart": 4162,
      "▁50000": 4163,
      "##×": 4164,
      "##tha": 4165,
      "▁parents": 4166,
      "##ici": 4167,
      "▁existence": 4168,
      "##mental": 4169,
      "▁mediterranean": 4170,
      "▁surv": 4171,
      "▁tub": 4172,
      "▁1991": 4173,
      "▁invisible": 4174,
      "▁pittsbur": 4175,
      "▁before": 4176,
      "##gen": 4177,
      "▁mayonna": 4178,
      "▁posting": 4179,
      "##ottie": 4180,
      "▁joined": 4181,
      "##igning": 4182,
      "▁whi": 4183,
      "▁last": 4184,
      "▁resulting": 4185,
      "##cp": 4186,
      "▁lennon": 4187,
      "▁unless": 4188,
      "▁chosen": 4189,
      "▁lettuce": 4190,
      "▁ski": 4191,
      "##031": 4192,
      "##xon": 4193,
      "▁standing": 4194,
      "▁gor": 4195,
      "##ag": 4196,
      "▁eec": 4197,
      "##pe": 4198,
      "▁1929": 4199,
      "▁wear": 4200,
      "▁tokyo": 4201,
      "…": 4202,
      "▁stretching": 4203,
      "▁soo": 4204,
      "##ollow": 4205,
      "▁ansi-89": 4206,
      "▁175": 4207,
      "##essed": 4208,
      "▁addressed": 4209,
      "▁period": 4210,
      "▁vegetarian": 4211,
      "▁enjoying": 4212,
      "▁interconn": 4213,
      "▁proficiency": 4214,
      "##-war": 4215,
      "##693": 4216,
      "▁ear": 4217,
      "▁priv": 4218,
      "##ud": 4219,
      "▁poll": 4220,
      "▁mor": 4221,
      "▁related": 4222,
      "▁nuts": 4223,
      "##ino": 4224,
      "▁1847": 4225,
      "##ko": 4226,
      "▁757": 4227,
      "▁consideration": 4228,
      "▁geomet": 4229,
      "##itated": 4230,
      "##iban": 4231,
      "▁7:00": 4232,
      "##itty": 4233,
      "▁committed": 4234,
      "##ering": 4235,
      "▁smelled": 4236,
      "▁shale": 4237,
      "▁kaoshikii": 4238,
      "##ids": 4239,
      "▁mant": 4240,
      "▁code": 4241,
      "##iquette": 4242,
      "##oculars": 4243,
      "▁searches": 4244,
      "▁20th": 4245,
      "▁ap": 4246,
      "▁quinoa": 4247,
      "▁ib": 4248,
      "▁pom": 4249,
      "▁elabor": 4250,
      "▁progress": 4251,
      "▁canned": 4252,
      "▁joking": 4253,
      "▁free": 4254,
      "##.s.": 4255,
      "▁davis": 4256,
      "##143": 4257,
      "▁basic": 4258,
      "##books": 4259,
      "▁ph": 4260,
      "▁club": 4261,
      "▁78": 4262,
      "▁dazzling": 4263,
      "▁chos": 4264,
      "▁kalkat": 4265,
      "▁jal": 4266,
      "▁thirsty": 4267,
      "▁younger": 4268,
      "##page": 4269,
      "▁chop": 4270,
      "▁sunsh": 4271,
      "▁ka": 4272,
      "▁cares": 4273,
      "▁colleges": 4274,
      "▁toilet": 4275,
      "##ipple": 4276,
      "▁splash": 4277,
      "▁heightened": 4278,
      "▁dow": 4279,
      "▁trauma": 4280,
      "▁roadgrad": 4281,
      "▁65": 4282,
      "##light": 4283,
      "▁ninth": 4284,
      "▁referee": 4285,
      "##eck": 4286,
      "▁experim": 4287,
      "##agon": 4288,
      "▁japan": 4289,
      "▁stead": 4290,
      "▁law": 4291,
      "▁sleep": 4292,
      "▁unfortunately": 4293,
      "▁funeral": 4294,
      "▁attempting": 4295,
      "##119": 4296,
      "▁buddhist": 4297,
      "▁distort": 4298,
      "▁arab": 4299,
      "▁divers": 4300,
      "##ake": 4301,
      "▁glad": 4302,
      "▁arafat": 4303,
      "##istic": 4304,
      "##val": 4305,
      "▁handled": 4306,
      "▁elastic": 4307,
      "##ball": 4308,
      "▁walter": 4309,
      "##etic": 4310,
      "▁photo": 4311,
      "▁macaroni": 4312,
      "##ackle": 4313,
      "▁rights": 4314,
      "▁rebu": 4315,
      "##.co.uk/": 4316,
      "##ilities": 4317,
      "##leton": 4318,
      "▁needed": 4319,
      "▁p.": 4320,
      "▁watching": 4321,
      "▁coupons": 4322,
      "▁jerome": 4323,
      "##chernobyl": 4324,
      "##apore": 4325,
      "▁summit": 4326,
      "▁liver": 4327,
      "▁accepted": 4328,
      "▁vine": 4329,
      "▁rhinoc": 4330,
      "▁mau": 4331,
      "▁drinking": 4332,
      "▁stealing": 4333,
      "▁16": 4334,
      "▁copying": 4335,
      "▁14": 4336,
      "▁biology": 4337,
      "▁sc": 4338,
      "##yal": 4339,
      "##,7": 4340,
      "▁kn": 4341,
      "▁civilian": 4342,
      "▁lightning": 4343,
      "##zac": 4344,
      "▁incorporated": 4345,
      "▁candid": 4346,
      "##icit": 4347,
      "▁resilience": 4348,
      "▁hill": 4349,
      "##e@enron": 4350,
      "▁eas": 4351,
      "##reck": 4352,
      "–": 4353,
      "▁mornings": 4354,
      "▁yog": 4355,
      "▁dedicated": 4356,
      "▁strip": 4357,
      "▁avoiding": 4358,
      "▁bottles": 4359,
      "▁phant": 4360,
      "▁pippo": 4361,
      "▁investors": 4362,
      "▁scotland": 4363,
      "▁lesson": 4364,
      "▁sight": 4365,
      "▁migr": 4366,
      "▁korea": 4367,
      "##uting": 4368,
      "▁nose": 4369,
      "##itudes": 4370,
      "▁significant": 4371,
      "▁tail": 4372,
      "##lyn": 4373,
      "▁b/c": 4374,
      "▁vig": 4375,
      "▁traci": 4376,
      "▁frankly": 4377,
      "▁discret": 4378,
      "##ault": 4379,
      "▁ansi-": 4380,
      "▁fields": 4381,
      "##5,000": 4382,
      "▁buckets": 4383,
      "##erick": 4384,
      "▁02": 4385,
      "##ignon": 4386,
      "▁beard": 4387,
      "##iety": 4388,
      "▁nam": 4389,
      "▁tac": 4390,
      "▁1880": 4391,
      "##uff": 4392,
      "▁italian": 4393,
      "▁waiter": 4394,
      "▁corn": 4395,
      "▁butterfly": 4396,
      "▁arvn": 4397,
      "▁rab": 4398,
      "##518": 4399,
      "##inson": 4400,
      "##y": 4401,
      "▁comfortable": 4402,
      "▁versa": 4403,
      "▁wav": 4404,
      "▁regime": 4405,
      "▁addiction": 4406,
      "▁beep": 4407,
      "▁mand": 4408,
      "▁relics": 4409,
      "##isc": 4410,
      "▁bag": 4411,
      "▁mater": 4412,
      "▁illust": 4413,
      "▁373": 4414,
      "▁manif": 4415,
      "▁jew": 4416,
      "▁vessel": 4417,
      "▁eb": 4418,
      "▁breakfast": 4419,
      "##arg": 4420,
      "▁regions": 4421,
      "▁jana": 4422,
      "▁agree": 4423,
      "▁shift": 4424,
      "##zzling": 4425,
      "▁harder": 4426,
      "▁in": 4427,
      "▁1955": 4428,
      "▁montana": 4429,
      "▁stayed": 4430,
      "##ths": 4431,
      "▁likely": 4432,
      "▁sons": 4433,
      "▁buff": 4434,
      "##met": 4435,
      "▁cem": 4436,
      "▁sunni": 4437,
      "##况": 4438,
      "▁j": 4439,
      "##um": 4440,
      "▁number": 4441,
      "▁commonly": 4442,
      "▁wilt": 4443,
      "▁scenic": 4444,
      "▁alleg": 4445,
      "▁meas": 4446,
      "▁francis": 4447,
      "▁add": 4448,
      "▁belongs": 4449,
      "▁refrigerator": 4450,
      "##ram": 4451,
      "▁drift": 4452,
      "▁highlight": 4453,
      "▁pam": 4454,
      "▁returned": 4455,
      "▁hands": 4456,
      "##act": 4457,
      "▁order": 4458,
      "▁documents": 4459,
      "▁nik": 4460,
      "▁wra": 4461,
      "##ilton": 4462,
      "▁break": 4463,
      "##pri": 4464,
      "▁expenses": 4465,
      "▁nin": 4466,
      "▁lawy": 4467,
      "▁toward": 4468,
      "▁semantic": 4469,
      "▁kalk": 4470,
      "##|": 4471,
      "##ected": 4472,
      "▁attempts": 4473,
      "▁insects": 4474,
      "▁about": 4475,
      "▁californ": 4476,
      "▁’": 4477,
      "▁merida": 4478,
      "##are": 4479,
      "▁wins": 4480,
      "▁usual": 4481,
      "▁bridges": 4482,
      "▁update": 4483,
      "▁04:17": 4484,
      "▁chand": 4485,
      "▁katrina": 4486,
      "▁ir": 4487,
      "##ases": 4488,
      "##ymp": 4489,
      "##ebe": 4490,
      "▁composed": 4491,
      "▁p": 4492,
      "##while": 4493,
      "▁5.6": 4494,
      "▁pract": 4495,
      "▁referenced": 4496,
      "▁engineering": 4497,
      "▁engineers": 4498,
      "▁trav": 4499,
      "▁08/15": 4500,
      "▁bound": 4501,
      "▁814.863": 4502,
      "▁poor": 4503,
      "##ο": 4504,
      "▁proceeded": 4505,
      "##enos": 4506,
      "##oly": 4507,
      "▁lu": 4508,
      "##ded": 4509,
      "▁tens": 4510,
      "##ite": 4511,
      "▁veg": 4512,
      "##:37": 4513,
      "▁oops": 4514,
      "##chester": 4515,
      "▁cond": 4516,
      "▁aston": 4517,
      "▁craig": 4518,
      "▁porch": 4519,
      "##ł": 4520,
      "##icy": 4521,
      "##vil": 4522,
      "##lig": 4523,
      "##not": 4524,
      "▁depend": 4525,
      "▁spong": 4526,
      "▁gle": 4527,
      "▁dull": 4528,
      "▁special": 4529,
      "▁guards": 4530,
      "▁bait": 4531,
      "▁previously": 4532,
      "▁southeast": 4533,
      "▁distract": 4534,
      "▁huck": 4535,
      "▁fatal": 4536,
      "▁enjoys": 4537,
      "▁---------------------------------": 4538,
      "▁cyn": 4539,
      "##istor": 4540,
      "▁trained": 4541,
      "▁nav": 4542,
      "▁fruity": 4543,
      "▁barber": 4544,
      "▁ruy": 4545,
      "▁daniel": 4546,
      "▁beaver": 4547,
      "▁occurs": 4548,
      "▁dated": 4549,
      "▁75": 4550,
      "##izations": 4551,
      "##iologist": 4552,
      "▁atop": 4553,
      "##ather": 4554,
      "##ilit": 4555,
      "▁gisb": 4556,
      "▁united": 4557,
      "##eech": 4558,
      "▁incompreh": 4559,
      "▁http://www": 4560,
      "##004": 4561,
      "▁swimming": 4562,
      "##oxide": 4563,
      "##ium": 4564,
      "▁unles": 4565,
      "▁computers": 4566,
      "▁canvas": 4567,
      "▁11.5": 4568,
      "▁ideation": 4569,
      "▁explain": 4570,
      "▁exception": 4571,
      "▁flex": 4572,
      "▁safe": 4573,
      "▁202": 4574,
      "▁hok": 4575,
      "▁abandoned": 4576,
      "##olitan": 4577,
      "$": 4578,
      "##ips": 4579,
      "▁critical": 4580,
      "▁assured": 4581,
      "▁twisted": 4582,
      "▁judy": 4583,
      "▁imagined": 4584,
      "##ι": 4585,
      "▁engines": 4586,
      "##393": 4587,
      "▁proph": 4588,
      "##employ": 4589,
      "▁normally": 4590,
      "▁resistance": 4591,
      "##up": 4592,
      "##iqui": 4593,
      "▁called": 4594,
      "▁dare": 4595,
      "▁chicken": 4596,
      "▁independent": 4597,
      "▁1.1": 4598,
      "▁spont": 4599,
      "▁exclusive": 4600,
      "▁s’": 4601,
      "▁opportunity": 4602,
      "##ressed": 4603,
      "##ested": 4604,
      "▁standards": 4605,
      "▁prosp": 4606,
      "##000": 4607,
      "▁ours": 4608,
      "▁12,000": 4609,
      "▁indeed": 4610,
      "▁1300": 4611,
      "▁kin": 4612,
      "▁naming": 4613,
      "▁helping": 4614,
      "▁factory": 4615,
      "▁warn": 4616,
      "▁jellyfish": 4617,
      "▁sov": 4618,
      "▁paperwork": 4619,
      "▁linguistics": 4620,
      "##86": 4621,
      "▁fishes": 4622,
      "##engers": 4623,
      "▁debut": 4624,
      "##ropri": 4625,
      "▁options": 4626,
      "ا": 4627,
      "▁penal": 4628,
      "▁females": 4629,
      "▁1820": 4630,
      "##amon": 4631,
      "▁wants": 4632,
      "▁pig": 4633,
      "▁skiing": 4634,
      "▁readers": 4635,
      "▁scrib": 4636,
      "##erina": 4637,
      "▁av": 4638,
      "##pp": 4639,
      "▁wol": 4640,
      "▁eleg": 4641,
      "▁o": 4642,
      "▁format": 4643,
      "▁disp": 4644,
      "▁respected": 4645,
      "▁face": 4646,
      "##nut": 4647,
      "▁peeling": 4648,
      "▁pronunciation": 4649,
      "▁:-)": 4650,
      "▁dfw": 4651,
      "▁pand": 4652,
      "##4-": 4653,
      "▁knowing": 4654,
      "▁victor": 4655,
      "▁pachom": 4656,
      "▁joint": 4657,
      "▁graphic": 4658,
      "▁job": 4659,
      "##.99": 4660,
      "▁jazz": 4661,
      "▁perro": 4662,
      "##k.ur": 4663,
      "##ot.com/": 4664,
      "▁whereas": 4665,
      "##ic": 4666,
      "▁going": 4667,
      "##ven": 4668,
      "▁loving": 4669,
      "##ough": 4670,
      "##am": 4671,
      "##lades": 4672,
      "##lan": 4673,
      "▁monarch": 4674,
      "▁brought": 4675,
      "##nes": 4676,
      "▁continued": 4677,
      "▁ethnic": 4678,
      "▁11:00": 4679,
      "▁premium": 4680,
      "▁oz": 4681,
      "▁recommendation": 4682,
      "▁wand": 4683,
      "▁anyone": 4684,
      "▁facilities": 4685,
      "▁successor": 4686,
      "▁limited": 4687,
      "▁average": 4688,
      "▁ab": 4689,
      "▁mov": 4690,
      "##ald": 4691,
      "##ision": 4692,
      "▁tongue": 4693,
      "##alam": 4694,
      "▁48": 4695,
      "▁kill": 4696,
      "▁cit": 4697,
      "▁tit": 4698,
      "##ze": 4699,
      "▁everybody": 4700,
      "▁destruction": 4701,
      "▁candle": 4702,
      "▁swap": 4703,
      "▁hamburg": 4704,
      "##more": 4705,
      "▁russia": 4706,
      "▁martyr": 4707,
      "##imir": 4708,
      "▁hire": 4709,
      "▁treatments": 4710,
      "##-1": 4711,
      "▁export": 4712,
      "▁affordable": 4713,
      "▁behaviour": 4714,
      "▁restaurant": 4715,
      "▁rhodes": 4716,
      "▁money": 4717,
      "▁institutional": 4718,
      "▁nom": 4719,
      "▁jwww": 4720,
      "▁constitu": 4721,
      "▁1974": 4722,
      "▁nandakk": 4723,
      "▁rapporteur": 4724,
      "▁enr": 4725,
      "▁family": 4726,
      "▁01:58": 4727,
      "##iz": 4728,
      "▁mobile": 4729,
      "▁representative": 4730,
      "▁sting": 4731,
      "▁percentile": 4732,
      "▁nord": 4733,
      "▁lat": 4734,
      "▁nature": 4735,
      "▁heritage": 4736,
      "▁during": 4737,
      "##清": 4738,
      "▁leisure": 4739,
      "▁doct": 4740,
      "▁tomatoes": 4741,
      "##.831": 4742,
      "▁68": 4743,
      "▁beginning": 4744,
      "▁intellig": 4745,
      "▁10:00": 4746,
      "▁toxic": 4747,
      "▁champ": 4748,
      "▁incub": 4749,
      "▁chamber": 4750,
      "▁http://www.b": 4751,
      "▁converted": 4752,
      "▁oppose": 4753,
      "##--------": 4754,
      "##.7822": 4755,
      "##atan": 4756,
      "▁stre": 4757,
      "▁rode": 4758,
      "▁theropods": 4759,
      "▁relevance": 4760,
      "▁apprec": 4761,
      "##ki": 4762,
      "▁california": 4763,
      "▁kitch": 4764,
      "▁cage": 4765,
      "▁receive": 4766,
      "##:3": 4767,
      "▁interjection": 4768,
      "▁dam": 4769,
      "▁sofa": 4770,
      "▁trend": 4771,
      "▁voted": 4772,
      "▁bunny": 4773,
      "▁dill": 4774,
      "▁meh-": 4775,
      "▁discouraging": 4776,
      "▁bm": 4777,
      "▁peer": 4778,
      "▁translating": 4779,
      "▁fleeing": 4780,
      "▁regularly": 4781,
      "▁april": 4782,
      "##ational": 4783,
      "▁balances": 4784,
      "▁funny": 4785,
      "##stop": 4786,
      "▁diana": 4787,
      "▁imp": 4788,
      "▁sure": 4789,
      "▁nickn": 4790,
      "▁83": 4791,
      "▁swirl": 4792,
      "▁ow": 4793,
      "▁4": 4794,
      "▁audit": 4795,
      "▁marx": 4796,
      "##hee": 4797,
      "##part": 4798,
      "▁imper": 4799,
      "▁engaging": 4800,
      "▁respons": 4801,
      "▁charlotte": 4802,
      "##itivity": 4803,
      "▁aff": 4804,
      "##*{": 4805,
      "##:39": 4806,
      "▁crimin": 4807,
      "▁witnesses": 4808,
      "▁reach": 4809,
      "▁425": 4810,
      "▁autof": 4811,
      "▁award": 4812,
      "▁puzzle": 4813,
      "▁!!!!!!!!!!!!!!!": 4814,
      "▁acc": 4815,
      "▁brings": 4816,
      "▁hom": 4817,
      "▁motor": 4818,
      "▁image": 4819,
      "▁sank": 4820,
      "##olog": 4821,
      "▁pointed": 4822,
      "▁1590": 4823,
      "▁deem": 4824,
      "▁isfahan": 4825,
      "▁collateral": 4826,
      "▁03/28/2001": 4827,
      "##rayed": 4828,
      "▁sacred": 4829,
      "▁congr": 4830,
      "▁locked": 4831,
      "▁choo": 4832,
      "|": 4833,
      "▁size": 4834,
      "▁assum": 4835,
      "▁11:0": 4836,
      "▁mour": 4837,
      "▁minn": 4838,
      "##teenth": 4839,
      "##with": 4840,
      "▁london": 4841,
      "▁cr": 4842,
      "##eal": 4843,
      "##miss": 4844,
      "▁shouting": 4845,
      "▁upd": 4846,
      "▁unst": 4847,
      "▁mous": 4848,
      "##keeping": 4849,
      "##uter": 4850,
      "▁arrive": 4851,
      "##8_0": 4852,
      "▁ackn": 4853,
      "▁eleph": 4854,
      "▁http://www.4gamer.net/news/image/2005.09/2005091": 4855,
      "▁advanced": 4856,
      "▁messed": 4857,
      "▁bul": 4858,
      "▁buttered": 4859,
      "▁contin": 4860,
      "▁army": 4861,
      "▁door": 4862,
      "▁ske": 4863,
      "▁departments": 4864,
      "▁tap": 4865,
      "▁expand": 4866,
      "▁relate": 4867,
      "##vely": 4868,
      "▁covers": 4869,
      "▁healing": 4870,
      "▁manual": 4871,
      "▁baby": 4872,
      "▁consortium": 4873,
      "▁host": 4874,
      "▁grandma": 4875,
      "▁nar": 4876,
      "##ologue": 4877,
      "##9": 4878,
      "▁lie": 4879,
      "▁bassiana": 4880,
      "▁sets": 4881,
      "▁teh": 4882,
      "▁criticism": 4883,
      "▁cleveland": 4884,
      "▁ku": 4885,
      "##ney": 4886,
      "##eur": 4887,
      "##...@gmail.com": 4888,
      "##agger": 4889,
      "▁grampy": 4890,
      "##eth": 4891,
      "▁accustomed": 4892,
      "▁bid": 4893,
      "▁travelling": 4894,
      "▁acres": 4895,
      "▁25": 4896,
      "▁promising": 4897,
      "▁grasp": 4898,
      "##ased": 4899,
      "▁….": 4900,
      "▁airport": 4901,
      "▁1500": 4902,
      "▁gradu": 4903,
      "▁murdered": 4904,
      "▁nj": 4905,
      "##8_00.doc": 4906,
      "##walk": 4907,
      "▁reim": 4908,
      "▁52": 4909,
      "▁sadr": 4910,
      "▁@": 4911,
      "▁threat": 4912,
      "▁87": 4913,
      "▁1,": 4914,
      "▁nice": 4915,
      "b": 4916,
      "▁kissed": 4917,
      "▁neolog": 4918,
      "##`": 4919,
      "▁boards": 4920,
      "##rors": 4921,
      "▁advances": 4922,
      "▁abo": 4923,
      "▁jess": 4924,
      "##ifications": 4925,
      "▁glow": 4926,
      "▁1307": 4927,
      "▁defeated": 4928,
      "##g&e": 4929,
      "▁1115": 4930,
      "▁figure": 4931,
      "▁reminder": 4932,
      "▁but": 4933,
      "##atched": 4934,
      "▁afternoon": 4935,
      "##bling": 4936,
      "##aceutical": 4937,
      "##ernobyl": 4938,
      "▁gain": 4939,
      "▁85": 4940,
      "▁as400": 4941,
      "▁+45": 4942,
      "▁scheme": 4943,
      "▁appli": 4944,
      "▁handle": 4945,
      "▁2050": 4946,
      "▁editions": 4947,
      "▁proceed": 4948,
      "##4014": 4949,
      "▁peaceful": 4950,
      "▁denver": 4951,
      "##zales": 4952,
      "▁53": 4953,
      "▁handful": 4954,
      "▁mhc": 4955,
      "▁schema": 4956,
      "▁brad": 4957,
      "▁&amp;": 4958,
      "▁ringing": 4959,
      "##amm": 4960,
      "▁rats": 4961,
      "▁deserves": 4962,
      "▁ambass": 4963,
      "▁elev": 4964,
      "▁conver": 4965,
      "▁lisa": 4966,
      "▁briefly": 4967,
      "▁22nd": 4968,
      "▁accomplish": 4969,
      "▁shower": 4970,
      "▁attached": 4971,
      "▁legal": 4972,
      "▁person": 4973,
      "▁mop": 4974,
      "##8-3": 4975,
      "▁sitara": 4976,
      "▁restored": 4977,
      "##em": 4978,
      "▁shipping": 4979,
      "▁clouds": 4980,
      "▁athe": 4981,
      "▁1689": 4982,
      "##ilyn": 4983,
      "##big": 4984,
      "##vern": 4985,
      "▁and": 4986,
      "##oss": 4987,
      "##ole": 4988,
      "▁410-468-3": 4989,
      "▁turistica": 4990,
      "▁stair": 4991,
      "##ine": 4992,
      "▁phot": 4993,
      "▁sidewalk": 4994,
      "▁vice": 4995,
      "▁neg": 4996,
      "▁grades": 4997,
      "▁blinking": 4998,
      "▁celebration": 4999,
      "##bat": 5000,
      "▁’ll": 5001,
      "▁feeling": 5002,
      "▁footage": 5003,
      "▁supports": 5004,
      "##hear": 5005,
      "##web": 5006,
      "▁uhh": 5007,
      "▁victims": 5008,
      "▁interceptor": 5009,
      "##owning": 5010,
      "##so": 5011,
      "▁dock": 5012,
      "▁amended": 5013,
      "▁squeeze": 5014,
      "▁merit": 5015,
      "▁drinks": 5016,
      "▁terrorist": 5017,
      "▁weeks": 5018,
      "▁performances": 5019,
      "▁11/29/2000": 5020,
      "▁bren": 5021,
      "▁painted": 5022,
      "▁investment": 5023,
      "▁flies": 5024,
      "▁path": 5025,
      "##ada": 5026,
      "▁follows": 5027,
      "##apping": 5028,
      "##eff": 5029,
      "▁twel": 5030,
      "³": 5031,
      "▁sorry": 5032,
      "▁guard": 5033,
      "▁bowl": 5034,
      "▁pet": 5035,
      "▁described": 5036,
      "▁authorized": 5037,
      "▁magnificent": 5038,
      "▁260": 5039,
      "▁oatm": 5040,
      "##ript": 5041,
      "##ura": 5042,
      "▁whe": 5043,
      "▁officially": 5044,
      "▁russell": 5045,
      "▁inclusive": 5046,
      "▁turnpike": 5047,
      "▁couns": 5048,
      "##ils": 5049,
      "▁buck": 5050,
      "▁episode": 5051,
      "▁obligations": 5052,
      "▁ciao": 5053,
      "▁leads": 5054,
      "▁plaint": 5055,
      "▁dealer": 5056,
      "▁1988": 5057,
      "▁looks": 5058,
      "▁speed": 5059,
      "▁nonna": 5060,
      "##west": 5061,
      "▁hundred": 5062,
      "▁shake": 5063,
      "▁shirt": 5064,
      "▁trust": 5065,
      "▁datasheet": 5066,
      "▁inh": 5067,
      "##rans": 5068,
      "▁numerous": 5069,
      "##verted": 5070,
      "▁skin": 5071,
      "▁decre": 5072,
      "▁password": 5073,
      "▁carroll": 5074,
      "▁mohammed": 5075,
      "##ounds": 5076,
      "▁profess": 5077,
      "▁penc": 5078,
      "▁hotel": 5079,
      "##ection": 5080,
      "##gth": 5081,
      "▁hur": 5082,
      "▁gregg": 5083,
      "▁demonstrated": 5084,
      "▁atomic": 5085,
      "▁uniqu": 5086,
      "##du": 5087,
      "▁friends": 5088,
      "▁displayed": 5089,
      "▁incomes": 5090,
      "##ister": 5091,
      "##ples": 5092,
      "##ological": 5093,
      "##ap": 5094,
      "▁angry": 5095,
      "▁kenn": 5096,
      "▁waive": 5097,
      "▁antibiotics": 5098,
      "▁pick": 5099,
      "##rogen": 5100,
      "▁warming": 5101,
      "##rid": 5102,
      "##thansa": 5103,
      "▁edge": 5104,
      "▁racket": 5105,
      "▁relax": 5106,
      "▁text": 5107,
      "▁sm": 5108,
      "##edience": 5109,
      "▁spok": 5110,
      "▁elevator": 5111,
      "▁aggreg": 5112,
      "▁poems": 5113,
      "##four": 5114,
      "##enous": 5115,
      "##55": 5116,
      "▁theatre": 5117,
      "▁dursleys": 5118,
      "▁5,000": 5119,
      "##mdrft": 5120,
      "▁despite": 5121,
      "▁pencils": 5122,
      "▁electricity": 5123,
      "▁roar": 5124,
      "▁annex": 5125,
      "▁retal": 5126,
      "▁danny": 5127,
      "▁grill": 5128,
      "▁wak": 5129,
      "##/0": 5130,
      "▁bla": 5131,
      "▁>>": 5132,
      "▁labour": 5133,
      "▁easily": 5134,
      "▁charity": 5135,
      "▁semin": 5136,
      "▁usually": 5137,
      "##ston": 5138,
      "##wor": 5139,
      "▁simple": 5140,
      "▁bce": 5141,
      "▁suggestions": 5142,
      "##rupt": 5143,
      "▁’s": 5144,
      "▁injured": 5145,
      "##icious": 5146,
      "##ills": 5147,
      "▁sacrifice": 5148,
      "▁politics": 5149,
      "▁fortun": 5150,
      "▁interp": 5151,
      "▁poetry": 5152,
      "▁1575": 5153,
      "##α": 5154,
      "▁pinch": 5155,
      "▁leonard": 5156,
      "▁factions": 5157,
      "▁wherever": 5158,
      "▁72": 5159,
      "▁estimated": 5160,
      "▁mr": 5161,
      "▁amazed": 5162,
      "▁occ": 5163,
      "▁neu": 5164,
      "##435-": 5165,
      "▁defended": 5166,
      "▁dg": 5167,
      "##ouble": 5168,
      "▁own": 5169,
      "##ert": 5170,
      "▁council": 5171,
      "▁nobody": 5172,
      "▁grizz": 5173,
      "▁clearly": 5174,
      "▁genes": 5175,
      "▁cuckoo": 5176,
      "▁terror": 5177,
      "▁timely": 5178,
      "##ained": 5179,
      "▁vodka": 5180,
      "▁clin": 5181,
      "▁pant": 5182,
      "▁ann": 5183,
      "▁tik": 5184,
      "▁carol.st": 5185,
      "▁1997": 5186,
      "▁volunt": 5187,
      "▁patient": 5188,
      "▁pentagon": 5189,
      "##roid": 5190,
      "##gin": 5191,
      "▁experimental": 5192,
      "##ipped": 5193,
      "▁recon": 5194,
      "▁antioch": 5195,
      "▁recommendations": 5196,
      "▁cited": 5197,
      "##ush": 5198,
      "▁tsar": 5199,
      "▁appreciation": 5200,
      "▁stress": 5201,
      "▁farmer": 5202,
      "▁dise": 5203,
      "▁threatened": 5204,
      "▁ensured": 5205,
      "▁museum": 5206,
      "▁obviously": 5207,
      "▁values": 5208,
      "▁procedure": 5209,
      "▁por": 5210,
      "▁seaman": 5211,
      "▁reconcil": 5212,
      "▁monitor": 5213,
      "▁ehow": 5214,
      "▁boing": 5215,
      "▁hob": 5216,
      "▁histor": 5217,
      "##irts": 5218,
      "##ania": 5219,
      "▁undert": 5220,
      "▁thereby": 5221,
      "▁ave": 5222,
      "▁migration": 5223,
      "▁stomach": 5224,
      "▁include": 5225,
      "▁insult": 5226,
      "▁commands": 5227,
      "##!!": 5228,
      "▁toronto": 5229,
      "▁cell": 5230,
      "##dt": 5231,
      "▁identifies": 5232,
      "▁yellowstone": 5233,
      "▁appropriations": 5234,
      "▁b.": 5235,
      "▁marriage": 5236,
      "▁thames": 5237,
      "##76": 5238,
      "▁barnes": 5239,
      "▁2,000": 5240,
      "##ort": 5241,
      "▁bye": 5242,
      "▁dea": 5243,
      "▁responses": 5244,
      "▁future": 5245,
      "▁22": 5246,
      "##of": 5247,
      "▁major": 5248,
      "▁skirt": 5249,
      "▁supper": 5250,
      "##found": 5251,
      "▁brutal": 5252,
      "▁pollution": 5253,
      "▁waves": 5254,
      "▁gloom": 5255,
      "▁which": 5256,
      "▁416-8": 5257,
      "▁approaches": 5258,
      "##89": 5259,
      "▁24.7": 5260,
      "▁symbols": 5261,
      "▁neighb": 5262,
      "▁excited": 5263,
      "▁rin": 5264,
      "▁heart": 5265,
      "▁broadcast": 5266,
      "##mar": 5267,
      "▁rocks": 5268,
      "##61": 5269,
      "▁psychology": 5270,
      "▁orientation": 5271,
      "▁ethics": 5272,
      "▁logical": 5273,
      "▁productivity": 5274,
      "▁burbank": 5275,
      "▁sanders": 5276,
      "▁riding": 5277,
      "▁49": 5278,
      "##y@ect": 5279,
      "▁dr.": 5280,
      "##ous": 5281,
      "▁415.782": 5282,
      "##soever": 5283,
      "▁installing": 5284,
      "▁outlets": 5285,
      "▁correct": 5286,
      "##orter": 5287,
      "##.c": 5288,
      "##wash": 5289,
      "▁sand": 5290,
      "▁grab": 5291,
      "▁_": 5292,
      "##asters": 5293,
      "▁told": 5294,
      "▁waved": 5295,
      "▁ich": 5296,
      "##lane": 5297,
      "▁anticip": 5298,
      "▁calling": 5299,
      "##jo": 5300,
      "▁taller": 5301,
      "▁everyone": 5302,
      "##ommend": 5303,
      "▁plain": 5304,
      "▁peop": 5305,
      "▁iodised": 5306,
      "▁warwick": 5307,
      "▁prayer": 5308,
      "▁always": 5309,
      "▁getting": 5310,
      "▁nt": 5311,
      "▁fourth": 5312,
      "▁713-853-3989": 5313,
      "▁stone": 5314,
      "▁supplement": 5315,
      "▁lacking": 5316,
      "▁sen": 5317,
      "##akan": 5318,
      "▁flav": 5319,
      "▁strike": 5320,
      "▁squir": 5321,
      "▁harris": 5322,
      "▁im": 5323,
      "▁doughnut": 5324,
      "▁everything": 5325,
      "▁easter": 5326,
      "▁notch": 5327,
      "##unition": 5328,
      "▁6,000": 5329,
      "▁prize": 5330,
      "▁dusty": 5331,
      "▁harvard": 5332,
      "▁bun": 5333,
      "▁comes": 5334,
      "▁creativity": 5335,
      "▁tim": 5336,
      "▁muffin": 5337,
      "##derick": 5338,
      "▁cha": 5339,
      "▁wholly": 5340,
      "##xtures": 5341,
      "▁provinc": 5342,
      "▁pled": 5343,
      "▁squirrels": 5344,
      "▁1840": 5345,
      "▁reve": 5346,
      "▁unbeliev": 5347,
      "▁surrounding": 5348,
      "▁alt.animals": 5349,
      "▁inch": 5350,
      "▁thous": 5351,
      "▁may": 5352,
      "▁!!!!!!!": 5353,
      "##======": 5354,
      "▁equine": 5355,
      "▁arbit": 5356,
      "▁growing": 5357,
      "▁rust": 5358,
      "##irk": 5359,
      "▁teach": 5360,
      "▁fate": 5361,
      "##issance": 5362,
      "▁jons": 5363,
      "▁dost": 5364,
      "▁th": 5365,
      "▁talk": 5366,
      "▁pop": 5367,
      "▁boat": 5368,
      "▁jen": 5369,
      "##cases": 5370,
      "▁1604": 5371,
      "▁hierarch": 5372,
      "▁our": 5373,
      "▁homeopath": 5374,
      "##.st": 5375,
      "▁hor": 5376,
      "▁fer": 5377,
      "##mike": 5378,
      "##---": 5379,
      "▁mco": 5380,
      "▁particip": 5381,
      "▁vs.": 5382,
      "##ications": 5383,
      "▁solve": 5384,
      "##bach": 5385,
      "▁reflection": 5386,
      "▁7th": 5387,
      "▁mcc": 5388,
      "▁than": 5389,
      "##,5": 5390,
      "##iqu": 5391,
      "▁pull": 5392,
      "▁unc": 5393,
      "▁inevitable": 5394,
      "##iliar": 5395,
      "▁lex": 5396,
      "▁moreau": 5397,
      "##inner": 5398,
      "##like": 5399,
      "▁louis": 5400,
      "##rad": 5401,
      "##hou": 5402,
      "▁listening": 5403,
      "▁p.m.": 5404,
      "▁indonesia": 5405,
      "▁property": 5406,
      "▁uv": 5407,
      "▁weakened": 5408,
      "▁dating": 5409,
      "▁terry": 5410,
      "##-3393": 5411,
      "▁cz": 5412,
      "▁workshops": 5413,
      "##ange": 5414,
      "##urf": 5415,
      "3": 5416,
      "##iday": 5417,
      "▁accept": 5418,
      "▁connect": 5419,
      "##hastings.com": 5420,
      "▁sized": 5421,
      "▁becom": 5422,
      "▁end": 5423,
      "##ashing": 5424,
      "▁wilder": 5425,
      "▁huge": 5426,
      "▁move": 5427,
      "##eing": 5428,
      "##/30": 5429,
      "##819": 5430,
      "▁passage": 5431,
      "##ggies": 5432,
      "##.61": 5433,
      "▁competing": 5434,
      "##le": 5435,
      "##iov": 5436,
      "▁parakeet": 5437,
      "##arse": 5438,
      "##verning": 5439,
      "▁---=": 5440,
      "##ure": 5441,
      "##itarian": 5442,
      "▁des": 5443,
      "▁pcbs": 5444,
      "##9.3": 5445,
      "##apolis": 5446,
      "▁married": 5447,
      "▁clip": 5448,
      "▁filtering": 5449,
      "▁walnut": 5450,
      "##_de": 5451,
      "▁ratt": 5452,
      "▁comprehensive": 5453,
      "##akes": 5454,
      "▁cig": 5455,
      "▁....": 5456,
      "##stone": 5457,
      "##uations": 5458,
      "##eem": 5459,
      "`": 5460,
      "▁official": 5461,
      "▁grabbed": 5462,
      "▁shove": 5463,
      "▁1982": 5464,
      "▁bath+room": 5465,
      "▁tray": 5466,
      "##ians": 5467,
      "▁winds": 5468,
      "▁rece": 5469,
      "▁483": 5470,
      "▁mhm": 5471,
      "▁cleared": 5472,
      "▁1949": 5473,
      "▁missile": 5474,
      "▁expert": 5475,
      "▁nonsense": 5476,
      "▁jump": 5477,
      "▁crap": 5478,
      "▁springs": 5479,
      "▁empirical": 5480,
      "##atory": 5481,
      "▁rwww": 5482,
      "▁passion": 5483,
      "▁entering": 5484,
      "▁corresponding": 5485,
      "▁rod": 5486,
      "##che": 5487,
      "▁sin": 5488,
      "##uments": 5489,
      "▁anyways": 5490,
      "▁carn": 5491,
      "▁conflicts": 5492,
      "▁knows": 5493,
      "##ager": 5494,
      "▁kane": 5495,
      "▁sochi": 5496,
      "▁proclaimed": 5497,
      "##ock": 5498,
      "▁widespread": 5499,
      "##22,000": 5500,
      "##-1.doc": 5501,
      "▁colom": 5502,
      "▁occupation": 5503,
      "▁overs": 5504,
      "▁araf": 5505,
      "▁audiences": 5506,
      "▁gun": 5507,
      "▁elephant": 5508,
      "▁fost": 5509,
      "▁ordinary": 5510,
      "##hast": 5511,
      "▁primary": 5512,
      "##0/2000": 5513,
      "▁leg": 5514,
      "##gling": 5515,
      "##leen": 5516,
      "▁cooperate": 5517,
      "▁elderly": 5518,
      "▁did": 5519,
      "▁default": 5520,
      "▁affection": 5521,
      "▁acquisition": 5522,
      "▁clar": 5523,
      "▁notify": 5524,
      "▁dischar": 5525,
      "##------": 5526,
      "▁albeit": 5527,
      "▁artists": 5528,
      "▁andril": 5529,
      "▁sought": 5530,
      "▁disg": 5531,
      "▁mosques": 5532,
      "▁curtain": 5533,
      "▁cray": 5534,
      "▁alt.animals.c": 5535,
      "津": 5536,
      "##dulo": 5537,
      "▁civil": 5538,
      "##ille": 5539,
      "##rint": 5540,
      "▁rav": 5541,
      "##otte": 5542,
      "▁pretend": 5543,
      "##byl": 5544,
      "▁ouij": 5545,
      "▁brian": 5546,
      "##pers": 5547,
      "▁vital": 5548,
      "##ined": 5549,
      "##angu": 5550,
      "▁cleaning": 5551,
      "▁yahoo": 5552,
      "▁monster": 5553,
      "▁k": 5554,
      "▁friendly": 5555,
      "▁universal": 5556,
      "▁motivation": 5557,
      "▁jet": 5558,
      "##ayed": 5559,
      "▁late": 5560,
      "▁acceptance": 5561,
      "▁sou": 5562,
      "▁2010": 5563,
      "▁murderers": 5564,
      "▁forwarded": 5565,
      "▁coordinate": 5566,
      "▁uns": 5567,
      "##ub": 5568,
      "▁craw": 5569,
      "▁senate": 5570,
      "▁proposing": 5571,
      "▁mutil": 5572,
      "##onna": 5573,
      "▁hamlet": 5574,
      "##ched": 5575,
      "##ipp": 5576,
      "▁loll": 5577,
      "▁3:30": 5578,
      "▁lapt": 5579,
      "##70s": 5580,
      "##.b": 5581,
      "##iance": 5582,
      "▁surround": 5583,
      "▁unhunh": 5584,
      "▁says": 5585,
      "##onom": 5586,
      "▁helped": 5587,
      "▁festival": 5588,
      "##att": 5589,
      "▁congrat": 5590,
      "▁styl": 5591,
      "▁2019": 5592,
      "▁predicted": 5593,
      "▁prec": 5594,
      "##ottable": 5595,
      "▁stand": 5596,
      "▁×": 5597,
      "▁endless": 5598,
      "▁900": 5599,
      "##jah": 5600,
      "▁networks": 5601,
      "##inth": 5602,
      "▁large": 5603,
      "▁offering": 5604,
      "▁der": 5605,
      "▁english": 5606,
      "▁squee": 5607,
      "▁pitter": 5608,
      "▁cake": 5609,
      "##aha": 5610,
      "▁leaves": 5611,
      "▁decisions": 5612,
      "##liament": 5613,
      "##av": 5614,
      "▁envelop": 5615,
      "▁she": 5616,
      "▁procedures": 5617,
      "▁tails": 5618,
      "▁viet": 5619,
      "▁car": 5620,
      "##bum": 5621,
      "▁checking": 5622,
      "▁prove": 5623,
      "▁opp": 5624,
      "▁observ": 5625,
      "##-59": 5626,
      "▁oklah": 5627,
      "▁sponge": 5628,
      "▁pent": 5629,
      "▁202.456.1414": 5630,
      "▁spa": 5631,
      "▁selection": 5632,
      "##ocrats": 5633,
      "▁outr": 5634,
      "▁montreal": 5635,
      "##rating": 5636,
      "##oshikii": 5637,
      "▁although": 5638,
      "▁suggests": 5639,
      "##astery": 5640,
      "▁wrest": 5641,
      "▁spoon": 5642,
      "▁banjo": 5643,
      "##boat": 5644,
      "▁sheik": 5645,
      "▁non-": 5646,
      "▁1647": 5647,
      "##uration": 5648,
      "▁happiness": 5649,
      "▁collar": 5650,
      "▁friday": 5651,
      "▁passenger": 5652,
      "▁de": 5653,
      "##stances": 5654,
      "▁ansi": 5655,
      "▁typically": 5656,
      "▁ontario": 5657,
      "▁|--------+----------------------->": 5658,
      "▁manhattan": 5659,
      "▁1878": 5660,
      "▁exceed": 5661,
      "▁notwithstanding": 5662,
      "##iciary": 5663,
      "▁hi": 5664,
      "▁weekly": 5665,
      "▁stipulation": 5666,
      "▁fashioned": 5667,
      "▁colle": 5668,
      "▁backed": 5669,
      "▁fresh": 5670,
      "▁receipt": 5671,
      "##argement": 5672,
      "▁scent": 5673,
      "▁wrongdo": 5674,
      "▁improvement": 5675,
      "▁modes": 5676,
      "▁naz": 5677,
      "▁bearded": 5678,
      "##roduct": 5679,
      "▁mit": 5680,
      "▁arkansas": 5681,
      "▁circumstances": 5682,
      "##arine": 5683,
      "▁que": 5684,
      "##room": 5685,
      "▁intervals": 5686,
      "▁occurring": 5687,
      "##ria": 5688,
      "▁jelly": 5689,
      "▁served": 5690,
      "▁transformation": 5691,
      "##gan": 5692,
      "t": 5693,
      "▁prevented": 5694,
      "▁hook": 5695,
      "##ached": 5696,
      "##stab": 5697,
      "▁sha'lan": 5698,
      "##oler": 5699,
      "▁183": 5700,
      "▁nap": 5701,
      "▁reference": 5702,
      "▁mask": 5703,
      "▁sits": 5704,
      "▁defines": 5705,
      "▁minneapolis": 5706,
      "葉": 5707,
      "▁1990": 5708,
      "▁ridiculous": 5709,
      "##gg": 5710,
      "▁shah": 5711,
      "▁hou": 5712,
      "▁sunn": 5713,
      "▁antonio": 5714,
      "##five": 5715,
      "▁empire": 5716,
      "▁placed": 5717,
      "▁gren": 5718,
      "▁powell": 5719,
      "▁remark": 5720,
      "▁banner": 5721,
      "▁rate": 5722,
      "##aso": 5723,
      "▁1805": 5724,
      "▁nmemdrft": 5725,
      "▁penalty": 5726,
      "▁nyl": 5727,
      "▁nicobar": 5728,
      "▁envelopes": 5729,
      "##18": 5730,
      "▁1902": 5731,
      "▁observe": 5732,
      "##ade": 5733,
      "▁targets": 5734,
      "##dred": 5735,
      "▁colorado": 5736,
      "▁giant": 5737,
      "▁charges": 5738,
      "▁claws": 5739,
      "▁resist": 5740,
      "##elt": 5741,
      "▁security": 5742,
      "▁1.4": 5743,
      "▁certainly": 5744,
      "▁int": 5745,
      "▁olympics": 5746,
      "▁pit": 5747,
      "▁system": 5748,
      "▁formidable": 5749,
      "▁pen": 5750,
      "▁hour": 5751,
      "▁awkward": 5752,
      "▁hens": 5753,
      "▁lig": 5754,
      "▁switzer": 5755,
      "▁afghanistan": 5756,
      "▁even": 5757,
      "▁51": 5758,
      "▁ninety": 5759,
      "▁reduction": 5760,
      "▁fri": 5761,
      "##*": 5762,
      "▁construction": 5763,
      "▁suspect": 5764,
      "▁drunk": 5765,
      "▁betty": 5766,
      "▁video": 5767,
      "▁float": 5768,
      "▁supplied": 5769,
      "▁breed": 5770,
      "##pro": 5771,
      "##§": 5772,
      "▁consciousness": 5773,
      "▁st.": 5774,
      "▁buddy": 5775,
      "▁hold": 5776,
      "▁14th": 5777,
      "▁true": 5778,
      "▁bare": 5779,
      "▁stew": 5780,
      "▁key": 5781,
      "▁feasible": 5782,
      "▁liberation": 5783,
      "▁sweden": 5784,
      "▁hiring": 5785,
      "▁elephants": 5786,
      "##onsum": 5787,
      "▁adorn": 5788,
      "▁playing": 5789,
      "▁cir": 5790,
      "▁thin": 5791,
      "▁travelled": 5792,
      "▁intelligent": 5793,
      "##$": 5794,
      "▁kept": 5795,
      "▁1977": 5796,
      "▁coal": 5797,
      "▁veggies": 5798,
      "▁tulsa": 5799,
      "▁u.s.": 5800,
      "▁doub": 5801,
      "▁folks": 5802,
      "▁safet": 5803,
      "##coming": 5804,
      "##zb": 5805,
      "▁localist": 5806,
      "▁evolutionary": 5807,
      "▁apple": 5808,
      "##rosh": 5809,
      "▁stopped": 5810,
      "▁charge": 5811,
      "▁bush": 5812,
      "##iment": 5813,
      "▁firstly": 5814,
      "▁1968": 5815,
      "##-class": 5816,
      "##ect": 5817,
      "▁syria": 5818,
      "##etts": 5819,
      "▁infer": 5820,
      "▁cos": 5821,
      "▁suffered": 5822,
      "▁spoke": 5823,
      "▁shakespearean": 5824,
      "▁mind": 5825,
      "▁climate": 5826,
      "▁guest": 5827,
      "▁convention": 5828,
      "▁bernoul": 5829,
      "▁oppos": 5830,
      "▁mid": 5831,
      "▁collaboration": 5832,
      "▁banknot": 5833,
      "▁consequ": 5834,
      "▁281-": 5835,
      "▁prev": 5836,
      "▁phailin": 5837,
      "▁extrad": 5838,
      "▁german": 5839,
      "▁brown": 5840,
      "▁complicated": 5841,
      "▁colonial": 5842,
      "▁fingers": 5843,
      "▁article": 5844,
      "▁718": 5845,
      "▁bold": 5846,
      "▁fiction": 5847,
      "▁outdoors": 5848,
      "##board": 5849,
      "▁onto": 5850,
      "▁vendors": 5851,
      "▁erase": 5852,
      "▁evely": 5853,
      "▁len": 5854,
      "▁completion": 5855,
      "▁chap": 5856,
      "▁channel": 5857,
      "##łodz": 5858,
      "▁smugg": 5859,
      "▁absolute": 5860,
      "▁volunteer": 5861,
      "▁yn": 5862,
      "▁argentina": 5863,
      "▁non-avian": 5864,
      "▁abstract": 5865,
      "▁flaw": 5866,
      "▁contexts": 5867,
      "▁poster": 5868,
      "##ribly": 5869,
      "▁ath": 5870,
      "▁desp": 5871,
      "▁sixteenth": 5872,
      "##ried": 5873,
      "▁identifying": 5874,
      "▁regulation": 5875,
      "##ime": 5876,
      "▁·": 5877,
      "##estic": 5878,
      "▁nanny": 5879,
      "##burger": 5880,
      "##ho": 5881,
      "▁embass": 5882,
      "##gh": 5883,
      "▁flea": 5884,
      "▁coincidence": 5885,
      "▁obst": 5886,
      "##eon": 5887,
      "▁8": 5888,
      "▁mosquitoes": 5889,
      "▁tasting": 5890,
      "▁asymmetrical": 5891,
      "▁storing": 5892,
      "▁orders": 5893,
      "▁theatrical": 5894,
      "▁dict": 5895,
      "▁bert": 5896,
      "▁gw": 5897,
      "▁exclaim": 5898,
      "▁713-853-1696": 5899,
      "▁queries": 5900,
      "##enron": 5901,
      "▁ven": 5902,
      "▁ought": 5903,
      "▁diaper": 5904,
      "▁reaching": 5905,
      "▁amid": 5906,
      "##ink": 5907,
      "▁bat": 5908,
      "▁sugg": 5909,
      "▁repeatedly": 5910,
      "▁excessive": 5911,
      "▁aberde": 5912,
      "▁complement": 5913,
      "▁referend": 5914,
      "▁cod": 5915,
      "▁development": 5916,
      "##iting": 5917,
      "▁liked": 5918,
      "##men": 5919,
      "▁awake": 5920,
      "▁specify": 5921,
      "▁1978": 5922,
      "##yah": 5923,
      "▁suspicion": 5924,
      "▁2500": 5925,
      "▁effects": 5926,
      "##lest": 5927,
      "▁shif": 5928,
      "▁locomotion": 5929,
      "▁silkie": 5930,
      "▁offshore": 5931,
      "▁dots": 5932,
      "▁ultim": 5933,
      "▁asked": 5934,
      "##3098": 5935,
      "d": 5936,
      "▁registration": 5937,
      "##obile": 5938,
      "▁whis": 5939,
      "▁spell": 5940,
      "##priced": 5941,
      "▁800-553-3119": 5942,
      "▁grip": 5943,
      "▁protein": 5944,
      "▁mus": 5945,
      "▁vir": 5946,
      "▁norway": 5947,
      "▁good": 5948,
      "▁valentine": 5949,
      "▁counter": 5950,
      "##day": 5951,
      "▁tro": 5952,
      "▁15,000": 5953,
      "▁-----------------------------------------------------------------": 5954,
      "##ipop": 5955,
      "▁scissors": 5956,
      "##ittal": 5957,
      "▁strait": 5958,
      "##===": 5959,
      "##atics": 5960,
      "▁transwestern": 5961,
      "▁mailing": 5962,
      "▁vegan": 5963,
      "▁supers": 5964,
      "▁grocery": 5965,
      "▁soil": 5966,
      "▁°": 5967,
      "▁enrongss.xls": 5968,
      "▁writ": 5969,
      "##most": 5970,
      "▁nursies": 5971,
      "▁rome": 5972,
      "▁crop": 5973,
      "▁founder": 5974,
      "▁pending": 5975,
      "▁param": 5976,
      "▁heights": 5977,
      "▁cri": 5978,
      "▁considered": 5979,
      "▁pictures": 5980,
      "▁defense": 5981,
      "▁pipe": 5982,
      "▁oval": 5983,
      "▁referring": 5984,
      "▁changes": 5985,
      "▁canc": 5986,
      "▁overchar": 5987,
      "▁caus": 5988,
      "▁wondered": 5989,
      "##alds": 5990,
      "##rovers": 5991,
      "##ner": 5992,
      "▁napkin": 5993,
      "▁jes": 5994,
      "##killed": 5995,
      "▁2020": 5996,
      "##د": 5997,
      "▁curt": 5998,
      "▁epist": 5999,
      "▁derived": 6000,
      "▁stun": 6001,
      "▁shark": 6002,
      "##arily": 6003,
      "▁bent": 6004,
      "▁hipp": 6005,
      "##uated": 6006,
      "##vet": 6007,
      "▁50,000": 6008,
      "##78": 6009,
      "▁reconst": 6010,
      "▁verify": 6011,
      "▁curve": 6012,
      "▁resolution": 6013,
      "▁broader": 6014,
      "##abad": 6015,
      "▁stock": 6016,
      "▁no.": 6017,
      "▁whit": 6018,
      "▁struck": 6019,
      "▁professionally": 6020,
      "▁102": 6021,
      "▁laura": 6022,
      "▁pud": 6023,
      "▁ethn": 6024,
      "▁fits": 6025,
      "▁hopefully": 6026,
      "▁sh-": 6027,
      "▁commons": 6028,
      "▁malfoy": 6029,
      "##out": 6030,
      "##dden": 6031,
      "▁5000": 6032,
      "▁1960s": 6033,
      "▁network": 6034,
      "▁amidst": 6035,
      "▁liz": 6036,
      "▁slim": 6037,
      "##da": 6038,
      "▁finds": 6039,
      "▁males": 6040,
      "##φ": 6041,
      "▁tr": 6042,
      "▁slowly": 6043,
      "▁fever": 6044,
      "▁liquid": 6045,
      "▁crad": 6046,
      "##isal": 6047,
      "▁gif": 6048,
      "▁chatting": 6049,
      "▁10,000": 6050,
      "▁sweep": 6051,
      "0": 6052,
      "▁e-mail": 6053,
      "°": 6054,
      "▁scholar": 6055,
      "▁http://www.": 6056,
      "▁11:30": 6057,
      "▁1583": 6058,
      "##σ": 6059,
      "▁renowned": 6060,
      "##ivia": 6061,
      "##gl": 6062,
      "▁huit": 6063,
      "▁************************************************": 6064,
      "▁desired": 6065,
      "▁characterized": 6066,
      "▁equity": 6067,
      "▁linguistic": 6068,
      "##.77": 6069,
      "##een": 6070,
      "▁we": 6071,
      "’": 6072,
      "▁momma": 6073,
      "▁receives": 6074,
      "▁shores": 6075,
      "▁sort": 6076,
      "##☏": 6077,
      "▁shobha-": 6078,
      "▁ambition": 6079,
      "##ban": 6080,
      "▁surger": 6081,
      "▁cooper": 6082,
      "##aman": 6083,
      "▁blocks": 6084,
      "▁baker": 6085,
      "▁sat": 6086,
      "▁restrictions": 6087,
      "▁donated": 6088,
      "▁-stip": 6089,
      "▁temples": 6090,
      "▁absurd": 6091,
      "▁7.2": 6092,
      "▁hjal": 6093,
      "##ury": 6094,
      "##.pdf": 6095,
      "▁create": 6096,
      "▁shit": 6097,
      "##rect": 6098,
      "##aine": 6099,
      "##nuts": 6100,
      "▁ou": 6101,
      "▁xml": 6102,
      "▁wikipedia": 6103,
      "##portion": 6104,
      "▁swept": 6105,
      "▁jason": 6106,
      "▁anderson": 6107,
      "▁713-654-1281": 6108,
      "▁surviving": 6109,
      "##ql": 6110,
      "▁nwww": 6111,
      "##-780": 6112,
      "▁no-6": 6113,
      "▁sell": 6114,
      "▁es": 6115,
      "▁unknown": 6116,
      "##edge": 6117,
      "##cot": 6118,
      "##rian": 6119,
      "▁metaph": 6120,
      "▁intercom": 6121,
      "▁disabled": 6122,
      "##@enron_development": 6123,
      "▁sweet": 6124,
      "▁fem": 6125,
      "▁transparency": 6126,
      "##ug": 6127,
      "▁pericles": 6128,
      "##1-": 6129,
      "▁conversations": 6130,
      "▁ok": 6131,
      "##vere": 6132,
      "▁bears": 6133,
      "▁principle": 6134,
      "▁solas": 6135,
      "▁levels": 6136,
      "##ival": 6137,
      "▁internet": 6138,
      "▁feature": 6139,
      "##sel": 6140,
      "▁relates": 6141,
      "##osition": 6142,
      "▁recipients": 6143,
      "▁eliminate": 6144,
      "▁295870": 6145,
      "▁shaking": 6146,
      "▁manh": 6147,
      "▁wayne": 6148,
      "▁miss": 6149,
      "▁societal": 6150,
      "▁social": 6151,
      "▁features": 6152,
      "##ma": 6153,
      "▁benefits": 6154,
      "▁perpet": 6155,
      "##ning": 6156,
      "##phere": 6157,
      "▁damasc": 6158,
      "▁novelist": 6159,
      "▁hey": 6160,
      "▁governments": 6161,
      "##izer": 6162,
      "▁crisp": 6163,
      "▁gramm": 6164,
      "##bank": 6165,
      "▁associ": 6166,
      "▁debt": 6167,
      "##iness": 6168,
      "▁perez": 6169,
      "▁dando": 6170,
      "▁so-c": 6171,
      "##tuce": 6172,
      "▁resulted": 6173,
      "▁hiking": 6174,
      "▁consume": 6175,
      "▁displaced": 6176,
      "▁16.3": 6177,
      "▁delayed": 6178,
      "▁specialized": 6179,
      "▁canon": 6180,
      "▁quiet": 6181,
      "##721": 6182,
      "▁liter": 6183,
      "▁novel": 6184,
      "▁caught": 6185,
      "▁fought": 6186,
      "▁go": 6187,
      "▁currents": 6188,
      "▁'m": 6189,
      "▁proud": 6190,
      "▁discover": 6191,
      "##laimed": 6192,
      "##16.718": 6193,
      "▁violence": 6194,
      "▁eich": 6195,
      "▁supernatural": 6196,
      "▁list": 6197,
      "▁newspaper": 6198,
      "##ension": 6199,
      "▁cott": 6200,
      "▁carbon": 6201,
      "▁curb": 6202,
      "▁leader": 6203,
      "▁hajj": 6204,
      "▁dramatic": 6205,
      "▁families": 6206,
      "l": 6207,
      "##inated": 6208,
      "##eplace": 6209,
      "▁lott": 6210,
      "##ilty": 6211,
      "##7/2000": 6212,
      "▁win": 6213,
      "▁raid": 6214,
      "▁front": 6215,
      "▁pressure": 6216,
      "▁flower": 6217,
      "▁carries": 6218,
      "##50": 6219,
      "▁contribution": 6220,
      "▁winking": 6221,
      "▁hardness": 6222,
      "▁india": 6223,
      "▁factor": 6224,
      "▁situ": 6225,
      "▁ident": 6226,
      "▁politic": 6227,
      "▁salesman": 6228,
      "▁based": 6229,
      "▁adjust": 6230,
      "▁beef": 6231,
      "▁extended": 6232,
      "▁fusca": 6233,
      "▁virtual": 6234,
      "##ted": 6235,
      "▁unanimously": 6236,
      "##ares": 6237,
      "▁moreover": 6238,
      "▁lexical": 6239,
      "▁regist": 6240,
      "##ishing": 6241,
      "▁poop": 6242,
      "▁rated": 6243,
      "▁hyatt": 6244,
      "##:42": 6245,
      "▁fallujah": 6246,
      "▁struggle": 6247,
      "##ico": 6248,
      "▁stom": 6249,
      "▁filled": 6250,
      "##eler": 6251,
      "▁doggie": 6252,
      "▁appropriate": 6253,
      "▁constructed": 6254,
      "▁llc": 6255,
      "▁uneasy": 6256,
      "▁urgent": 6257,
      "▁plays": 6258,
      "▁shorts": 6259,
      "##alvo": 6260,
      "▁415.621": 6261,
      "▁crashed": 6262,
      "▁sut": 6263,
      "##ular": 6264,
      "▁weeds": 6265,
      "▁simult": 6266,
      "▁piec": 6267,
      "##itive": 6268,
      "▁distinguished": 6269,
      "▁cultures": 6270,
      "▁becomes": 6271,
      "▁tempor": 6272,
      "▁meat": 6273,
      "▁painful": 6274,
      "▁claims": 6275,
      "▁colon": 6276,
      "▁----==": 6277,
      "▁snakes": 6278,
      "▁primarily": 6279,
      "▁silk": 6280,
      "▁rolling": 6281,
      "▁:p": 6282,
      "▁reinfor": 6283,
      "▁factors": 6284,
      "▁patty": 6285,
      "▁structure": 6286,
      "▁abd": 6287,
      "▁pail": 6288,
      "▁handker": 6289,
      "▁muse": 6290,
      "▁loose": 6291,
      "▁ken": 6292,
      "▁holoca": 6293,
      "##uity": 6294,
      "▁aro": 6295,
      "##hajatra": 6296,
      "##aham": 6297,
      "▁technically": 6298,
      "▁salinity": 6299,
      "▁arrang": 6300,
      "▁landed": 6301,
      "▁abb": 6302,
      "▁cat": 6303,
      "▁moder": 6304,
      "▁toast": 6305,
      "▁ends": 6306,
      "▁fat": 6307,
      "▁143": 6308,
      "▁crops": 6309,
      "▁sheriff": 6310,
      "▁alone": 6311,
      "▁cav": 6312,
      "▁brass": 6313,
      "▁emphas": 6314,
      "▁basil": 6315,
      "##brew": 6316,
      "##ibu": 6317,
      "▁colorful": 6318,
      "▁walmart": 6319,
      "▁remod": 6320,
      "▁postp": 6321,
      "▁130": 6322,
      "▁1,000": 6323,
      "##oking": 6324,
      "▁chocolates": 6325,
      "▁2.": 6326,
      "▁evolving": 6327,
      "▁bending": 6328,
      "▁fifteenth": 6329,
      "▁viable": 6330,
      "▁horizontal": 6331,
      "▁trem": 6332,
      "▁pro-": 6333,
      "##wait": 6334,
      "##aq": 6335,
      "▁newton": 6336,
      "▁carolyn": 6337,
      "▁incredibly": 6338,
      "▁petersburg": 6339,
      "▁walks": 6340,
      "▁bosnia": 6341,
      "▁1846": 6342,
      "▁mang": 6343,
      "▁took": 6344,
      "▁subs": 6345,
      "▁26": 6346,
      "▁...": 6347,
      "▁letters": 6348,
      "##sed": 6349,
      "▁wholes": 6350,
      "##oo": 6351,
      "▁70": 6352,
      "##occo": 6353,
      "##mat": 6354,
      "▁divor": 6355,
      "▁resource": 6356,
      "##ours": 6357,
      "▁bi": 6358,
      "▁reservation": 6359,
      "▁corp.": 6360,
      "▁anthrax": 6361,
      "##isted": 6362,
      "▁appointed": 6363,
      "##uses": 6364,
      "▁visited": 6365,
      "##rated": 6366,
      "##iograph": 6367,
      "▁parmes": 6368,
      "▁address": 6369,
      "▁done": 6370,
      "▁captured": 6371,
      "##ans": 6372,
      "##.ell": 6373,
      "▁wore": 6374,
      "▁12:30": 6375,
      "▁figures": 6376,
      "▁opens": 6377,
      "##min": 6378,
      "▁harv": 6379,
      "##asts": 6380,
      "▁acupunct": 6381,
      "▁hea": 6382,
      "▁newark": 6383,
      "▁performed": 6384,
      "##ules": 6385,
      "##isms": 6386,
      "▁decade": 6387,
      "▁guerrillas": 6388,
      "##where": 6389,
      "▁li": 6390,
      "▁vernon": 6391,
      "▁gcp": 6392,
      "▁britain": 6393,
      "▁crust": 6394,
      "▁report": 6395,
      "▁1200": 6396,
      "##,0": 6397,
      "▁predict": 6398,
      "##burg": 6399,
      "▁crushing": 6400,
      "▁homosexuality": 6401,
      "##rest": 6402,
      "▁diplomacy": 6403,
      "▁disagre": 6404,
      "▁cried": 6405,
      "##65-3": 6406,
      "##abling": 6407,
      "▁sciss": 6408,
      "##back": 6409,
      "##ume": 6410,
      "▁court": 6411,
      "##dering": 6412,
      "▁barclays": 6413,
      "▁somebody": 6414,
      "▁maker": 6415,
      "▁goat": 6416,
      "▁sudden": 6417,
      "▁january": 6418,
      "▁ict": 6419,
      "▁bureauc": 6420,
      "▁provisions": 6421,
      "▁origins": 6422,
      "▁cow": 6423,
      "##:45": 6424,
      "▁sauv": 6425,
      "▁caucas": 6426,
      "▁stro": 6427,
      "##ively": 6428,
      "##hab": 6429,
      "▁county": 6430,
      "##eap": 6431,
      "##ably": 6432,
      "▁si": 6433,
      "▁sparks": 6434,
      "▁alle": 6435,
      "▁photographer": 6436,
      "▁each": 6437,
      "##brow": 6438,
      "▁abrupt": 6439,
      "▁spawn": 6440,
      "##ror": 6441,
      "▁tran": 6442,
      "▁wor": 6443,
      "▁jesus": 6444,
      "▁conflict": 6445,
      "▁euro": 6446,
      "▁attended": 6447,
      "▁lamb": 6448,
      "▁1821": 6449,
      "▁strawberries": 6450,
      "▁home": 6451,
      "▁well-": 6452,
      "▁fam": 6453,
      "▁october": 6454,
      "ß": 6455,
      "##ab": 6456,
      "▁mugg": 6457,
      "▁realism": 6458,
      "##vid": 6459,
      "##ucker": 6460,
      "##5/2001": 6461,
      "▁pushing": 6462,
      "▁intake": 6463,
      "##ugg": 6464,
      "▁promoting": 6465,
      "▁demands": 6466,
      "▁seeker": 6467,
      "▁disappearance": 6468,
      "▁coastal": 6469,
      "##ork": 6470,
      "▁deserted": 6471,
      "▁sniff": 6472,
      "##inging": 6473,
      "▁corporate": 6474,
      "▁budd": 6475,
      "▁peters": 6476,
      "##itement": 6477,
      "##being": 6478,
      "▁amb": 6479,
      "▁split": 6480,
      "▁reportedly": 6481,
      "▁protects": 6482,
      "▁writing": 6483,
      "▁rect": 6484,
      "▁1780": 6485,
      "▁screens": 6486,
      "▁jo": 6487,
      "▁shad": 6488,
      "▁modern": 6489,
      "▁1920": 6490,
      "▁vulnerable": 6491,
      "▁complex": 6492,
      "▁twww": 6493,
      "▁qualified": 6494,
      "▁turb": 6495,
      "##omer": 6496,
      "▁moderate": 6497,
      "▁flights": 6498,
      "▁death": 6499,
      "▁04": 6500,
      "▁ngu": 6501,
      "##teous": 6502,
      "##uls": 6503,
      "▁extend": 6504,
      "##@ect": 6505,
      "▁importantly": 6506,
      "▁sled": 6507,
      "##ellow": 6508,
      "▁debr": 6509,
      "▁caf": 6510,
      "▁impacts": 6511,
      "▁illegal": 6512,
      "▁precise": 6513,
      "##porary": 6514,
      "▁output": 6515,
      "▁radiation": 6516,
      "▁asks": 6517,
      "##beat": 6518,
      "▁skill": 6519,
      "▁cart": 6520,
      "▁surgery": 6521,
      "##cho": 6522,
      "▁tournament": 6523,
      "▁spending": 6524,
      "▁evaluator": 6525,
      "▁willow": 6526,
      "▁website": 6527,
      "[PAD]": 6528,
      "##oun": 6529,
      "▁ecodes": 6530,
      "▁eligible": 6531,
      "##/15/2001": 6532,
      "▁619": 6533,
      "▁hobby": 6534,
      "▁pag": 6535,
      "▁inferior": 6536,
      "##ign": 6537,
      "▁eul": 6538,
      "##able": 6539,
      "▁sculpt": 6540,
      "##tail": 6541,
      "▁crimes": 6542,
      "▁attack": 6543,
      "##bell": 6544,
      "▁figured": 6545,
      "▁bureaucr": 6546,
      "▁belgium": 6547,
      "##ually": 6548,
      "▁alan": 6549,
      "▁dada": 6550,
      "▁dumb": 6551,
      "▁great": 6552,
      "##artney": 6553,
      "▁long": 6554,
      "##wau": 6555,
      "##bor": 6556,
      "▁reliability": 6557,
      "▁html": 6558,
      "##self": 6559,
      "##-23": 6560,
      "▁goals": 6561,
      "▁philadelphia": 6562,
      "▁formal": 6563,
      "▁compass": 6564,
      "▁congregation": 6565,
      "▁exper": 6566,
      "▁genius": 6567,
      "▁shaw": 6568,
      "▁2100": 6569,
      "▁fridge": 6570,
      "▁rum": 6571,
      "▁reluct": 6572,
      "▁grape": 6573,
      "▁jugg": 6574,
      "##roph": 6575,
      "▁tempt": 6576,
      "▁strongest": 6577,
      "▁lee": 6578,
      "▁luc": 6579,
      "▁monk": 6580,
      "▁'s": 6581,
      "▁opposed": 6582,
      "##********************************": 6583,
      "▁soul": 6584,
      "▁sox": 6585,
      "▁collective": 6586,
      "▁kil": 6587,
      "▁neural": 6588,
      "▁surprising": 6589,
      "▁definitions": 6590,
      "▁mosque": 6591,
      "##ick": 6592,
      "▁haven": 6593,
      "▁kashmir": 6594,
      "▁suspic": 6595,
      "##gence": 6596,
      "▁theory": 6597,
      "▁tob": 6598,
      "##unks": 6599,
      "▁objectives": 6600,
      "▁bald": 6601,
      "▁plaintiffs": 6602,
      "##lined": 6603,
      "▁sender": 6604,
      "▁depending": 6605,
      "##jection": 6606,
      "▁re": 6607,
      "▁cous": 6608,
      "▁attitude": 6609,
      "▁pro-beijing": 6610,
      "▁mets": 6611,
      "▁zo": 6612,
      "##8/2001": 6613,
      "▁prints": 6614,
      "##cliff": 6615,
      "##inned": 6616,
      "▁december": 6617,
      "▁telev": 6618,
      "##ounts": 6619,
      "▁removed": 6620,
      "▁misunderstanding": 6621,
      "▁cindy": 6622,
      "▁mal": 6623,
      "##eb": 6624,
      "▁telephones": 6625,
      "▁privacy": 6626,
      "▁freezing": 6627,
      "▁trailer": 6628,
      "▁phillip": 6629,
      "##animals": 6630,
      "##image": 6631,
      "▁wig": 6632,
      "▁sincer": 6633,
      "▁rent": 6634,
      "▁glove": 6635,
      "▁eighty": 6636,
      "##iversary": 6637,
      "▁crushed": 6638,
      "▁shady": 6639,
      "▁dealing": 6640,
      "▁into": 6641,
      "##father": 6642,
      "##wikihow": 6643,
      "▁l": 6644,
      "##301": 6645,
      "▁750,000": 6646,
      "▁campaigns": 6647,
      "##makers": 6648,
      "▁china": 6649,
      "▁1831": 6650,
      "▁shackleton@ect": 6651,
      "##ounced": 6652,
      "##ander": 6653,
      "▁historically": 6654,
      "##agic": 6655,
      "▁technique": 6656,
      "▁frightened": 6657,
      "##oca": 6658,
      "##mail.com": 6659,
      "##esa": 6660,
      "▁most": 6661,
      "##erous": 6662,
      "▁church": 6663,
      "▁alt.animals.": 6664,
      "▁mech": 6665,
      "▁signs": 6666,
      "▁stations": 6667,
      "▁ate": 6668,
      "▁accom": 6669,
      "▁khan": 6670,
      "##ts": 6671,
      "▁surface": 6672,
      "▁customs": 6673,
      "▁cook": 6674,
      "▁masks": 6675,
      "▁refr": 6676,
      "▁claimed": 6677,
      "▁confidence": 6678,
      "▁genuine": 6679,
      "▁posters": 6680,
      "▁trop": 6681,
      "▁jean": 6682,
      "▁shoulder": 6683,
      "##orio": 6684,
      "▁goose": 6685,
      "▁adoption": 6686,
      "##raft": 6687,
      "##bel": 6688,
      "##ina": 6689,
      "##affle": 6690,
      "▁unfold": 6691,
      "##trans": 6692,
      "▁limits": 6693,
      "▁singapore": 6694,
      "▁approximately": 6695,
      "▁awards": 6696,
      "▁alignment": 6697,
      "▁naim": 6698,
      "▁rules": 6699,
      "▁osama": 6700,
      "▁duckie": 6701,
      "▁musician": 6702,
      "##o.": 6703,
      "▁convince": 6704,
      "▁happily": 6705,
      "##710": 6706,
      "▁flir": 6707,
      "▁mason": 6708,
      "▁wilson": 6709,
      "▁paper": 6710,
      "▁steph": 6711,
      "▁dis": 6712,
      "▁them": 6713,
      "▁waterfall": 6714,
      "▁these": 6715,
      "▁v": 6716,
      "▁continuation": 6717,
      "##ima": 6718,
      "##-": 6719,
      "樋": 6720,
      "▁burning": 6721,
      "##aza": 6722,
      "▁eric": 6723,
      "##elberger": 6724,
      "##ract": 6725,
      "▁discuss": 6726,
      "▁philosophy": 6727,
      "▁falls": 6728,
      "▁pony": 6729,
      "▁australia": 6730,
      "▁fert": 6731,
      "▁1801": 6732,
      "▁acted": 6733,
      "▁hopeful": 6734,
      "##through": 6735,
      "##ala": 6736,
      "▁ensure": 6737,
      "▁deg": 6738,
      "▁tommy": 6739,
      "▁handsome": 6740,
      "##ization": 6741,
      "▁ft": 6742,
      "▁economically": 6743,
      "▁takeoff": 6744,
      "##io": 6745,
      "##orescent": 6746,
      "▁purchase": 6747,
      "▁http": 6748,
      "▁daughters": 6749,
      "▁introduction": 6750,
      "▁pot": 6751,
      "▁ignore": 6752,
      "▁coach": 6753,
      "▁thanksg": 6754,
      "▁cost": 6755,
      "##-f": 6756,
      "▁suggestion": 6757,
      "▁wounded": 6758,
      "##ided": 6759,
      "▁magical": 6760,
      "▁ecosy": 6761,
      "▁send": 6762,
      "▁realized": 6763,
      "▁nz": 6764,
      "▁ekrapels@esa": 6765,
      "▁holly": 6766,
      "▁faith": 6767,
      "▁careful": 6768,
      "▁efficiency": 6769,
      "##di": 6770,
      "▁below": 6771,
      "▁dehy": 6772,
      "##-com": 6773,
      "▁virt": 6774,
      "▁dominant": 6775,
      "▁beside": 6776,
      "▁staged": 6777,
      "▁hibern": 6778,
      "▁reveals": 6779,
      "▁rescue": 6780,
      "▁appear": 6781,
      "▁sit": 6782,
      "▁gum": 6783,
      "▁religious": 6784,
      "▁recruit": 6785,
      "▁july": 6786,
      "▁hunt": 6787,
      "▁inst": 6788,
      "▁cross-sectional": 6789,
      "##comp": 6790,
      "▁-ect": 6791,
      "▁4:30": 6792,
      "##eless": 6793,
      "##53-3119": 6794,
      "▁bayley": 6795,
      "##itative": 6796,
      "▁knew": 6797,
      "##**********************************": 6798,
      "▁compuls": 6799,
      "▁stupid": 6800,
      "▁stocks": 6801,
      "▁2013": 6802,
      "▁subsequent": 6803,
      "▁insist": 6804,
      "▁partially": 6805,
      "▁hjalmar": 6806,
      "▁fle": 6807,
      "##ative": 6808,
      "▁hut": 6809,
      "▁officials": 6810,
      "##0010": 6811,
      "▁return": 6812,
      "▁ltte": 6813,
      "▁quebec": 6814,
      "##rep": 6815,
      "▁a.": 6816,
      "▁par": 6817,
      "##ishment": 6818,
      "▁champions": 6819,
      "▁piece": 6820,
      "▁yesterday": 6821,
      "▁download": 6822,
      "▁concerning": 6823,
      "▁calculation": 6824,
      "▁ingredients": 6825,
      "▁costume": 6826,
      "##oton": 6827,
      "▁pow": 6828,
      "▁louisiana": 6829,
      "##elle": 6830,
      "▁sympath": 6831,
      "▁stands": 6832,
      "##p": 6833,
      "##fri": 6834,
      "▁simp": 6835,
      "▁societ": 6836,
      "▁inexp": 6837,
      "##uss": 6838,
      "▁quite": 6839,
      "▁office": 6840,
      "▁tons": 6841,
      "##y@enron_development": 6842,
      "▁experiments": 6843,
      "##rin": 6844,
      "##================================": 6845,
      "▁invented": 6846,
      "▁austria": 6847,
      "ه": 6848,
      "▁_______": 6849,
      "▁erasmus": 6850,
      "▁emer": 6851,
      "▁shelter": 6852,
      "##kman": 6853,
      "▁notes": 6854,
      "##unciation": 6855,
      "▁attachments": 6856,
      "##vey": 6857,
      "▁fab": 6858,
      "▁reads": 6859,
      "▁distingu": 6860,
      "##burn": 6861,
      "▁bases": 6862,
      "▁positive": 6863,
      "▁observations": 6864,
      "▁45": 6865,
      "▁?!": 6866,
      "▁alber": 6867,
      "▁import": 6868,
      "▁wing": 6869,
      "▁escape": 6870,
      "##idden": 6871,
      "##aken": 6872,
      "▁fuck": 6873,
      "##esth": 6874,
      "##juku": 6875,
      "##ansa": 6876,
      "▁interesting": 6877,
      "▁community": 6878,
      "▁columbus": 6879,
      "##ird": 6880,
      "▁860": 6881,
      "▁having": 6882,
      "##'t": 6883,
      "y": 6884,
      "▁probably": 6885,
      "▁eye": 6886,
      "▁balc": 6887,
      "▁compli": 6888,
      "▁exceptional": 6889,
      "▁lying": 6890,
      "▁814": 6891,
      "##ecraft": 6892,
      "##kward": 6893,
      "▁financial": 6894,
      "##wa": 6895,
      "▁all": 6896,
      "##ribe": 6897,
      "##~*": 6898,
      "▁story": 6899,
      "▁headquart": 6900,
      "▁-----------------": 6901,
      "▁bree": 6902,
      "▁designated": 6903,
      "▁novels": 6904,
      "##/13": 6905,
      "▁touched": 6906,
      "▁leaned": 6907,
      "▁enhanced": 6908,
      "▁vietnamese": 6909,
      "▁environ": 6910,
      "▁signal": 6911,
      "▁ram": 6912,
      "##imm": 6913,
      "€": 6914,
      "▁tupper": 6915,
      "▁structures": 6916,
      "##eral": 6917,
      "##lect": 6918,
      "▁flooding": 6919,
      "##2-": 6920,
      "##orum": 6921,
      "##oir": 6922,
      "▁income": 6923,
      "▁800": 6924,
      "▁tricks": 6925,
      "##========": 6926,
      "▁spit": 6927,
      "##-625": 6928,
      "▁oppress": 6929,
      "▁180": 6930,
      "▁schemes": 6931,
      "▁dancers": 6932,
      "▁blur": 6933,
      "▁where": 6934,
      "▁never": 6935,
      "##esc": 6936,
      "▁chuck": 6937,
      "▁y-": 6938,
      "▁airbnb": 6939,
      "▁approached": 6940,
      "▁pharm": 6941,
      "▁naqsh-e": 6942,
      "▁himself": 6943,
      "▁desirable": 6944,
      "▁dinner": 6945,
      "##ها": 6946,
      "▁solar": 6947,
      "▁seriously": 6948,
      "▁schem": 6949,
      "▁discour": 6950,
      "##0295": 6951,
      "##bern": 6952,
      "▁locally": 6953,
      "▁land": 6954,
      "▁1603": 6955,
      "▁inspired": 6956,
      "▁instinct": 6957,
      "▁embarrassment": 6958,
      "▁fin": 6959,
      "▁diet": 6960,
      "▁keen": 6961,
      "▁vivid": 6962,
      "##isco": 6963,
      "##½": 6964,
      "▁providers": 6965,
      "▁admit": 6966,
      "▁r.": 6967,
      "▁beings": 6968,
      "▁crack": 6969,
      "##ership": 6970,
      "##ups": 6971,
      "▁ekrapels@esaibos.com": 6972,
      "▁wether": 6973,
      "▁failed": 6974,
      "▁5.5": 6975,
      "##ucks": 6976,
      "▁ft.": 6977,
      "▁loudly": 6978,
      "▁hagr": 6979,
      "▁island": 6980,
      "##eable": 6981,
      "##ceptions": 6982,
      "▁cra": 6983,
      "▁spells": 6984,
      "▁founded": 6985,
      "▁progressive": 6986,
      "▁writers": 6987,
      "▁lonely": 6988,
      "##/00": 6989,
      "▁an": 6990,
      "▁balls": 6991,
      "▁nails": 6992,
      "##.net": 6993,
      "▁guerre": 6994,
      "▁goes": 6995,
      "▁sees": 6996,
      "▁vib": 6997,
      "▁ginger": 6998,
      "▁marcel": 6999,
      "▁wheat": 7000,
      "▁seis": 7001,
      "▁cycle": 7002,
      "▁farrier": 7003,
      "▁potatoes": 7004,
      "▁injust": 7005,
      "▁scholarship": 7006,
      "▁xbox": 7007,
      "▁david": 7008,
      "##ingly": 7009,
      "▁sneak": 7010,
      "▁substance": 7011,
      "▁3.7": 7012,
      "▁mailings": 7013,
      "▁agriculture": 7014,
      "▁deny": 7015,
      "▁replied": 7016,
      "▁willing": 7017,
      "▁raise": 7018,
      "▁white": 7019,
      "##ired": 7020,
      "##ien": 7021,
      "▁evil": 7022,
      "▁cryst": 7023,
      "##-84": 7024,
      "▁earning": 7025,
      "▁fantasy": 7026,
      "▁suprem": 7027,
      "##outs": 7028,
      "▁flesh": 7029,
      "▁http://www.4gamer.net/news/image/2005.09/2005": 7030,
      "▁shout": 7031,
      "##空": 7032,
      "##yl": 7033,
      "▁compact": 7034,
      "##roit": 7035,
      "▁34": 7036,
      "##谿": 7037,
      "▁hand": 7038,
      "▁2009": 7039,
      "▁develop": 7040,
      "▁measure": 7041,
      "▁1-800-991-9019": 7042,
      "▁perlingiere": 7043,
      "▁sea": 7044,
      "▁traditionally": 7045,
      "▁throw": 7046,
      "▁when": 7047,
      "##q": 7048,
      "▁oath": 7049,
      "▁rating": 7050,
      "♥": 7051,
      "▁plat": 7052,
      "##ahoo": 7053,
      "▁habitat": 7054,
      "▁bar": 7055,
      "▁serves": 7056,
      "▁713-853-3098": 7057,
      "▁remote": 7058,
      "▁asy": 7059,
      "▁generate": 7060,
      "##adel": 7061,
      "##-e": 7062,
      "##anal": 7063,
      "▁acknowledge": 7064,
      "▁emperor": 7065,
      "▁articles": 7066,
      "▁offic": 7067,
      "▁airlines": 7068,
      "º": 7069,
      "▁neigh": 7070,
      "▁welcomed": 7071,
      "▁peace": 7072,
      "▁litt": 7073,
      "##.go": 7074,
      "##-ter": 7075,
      "##use": 7076,
      "##1082": 7077,
      "▁mart": 7078,
      "▁cas": 7079,
      "β": 7080,
      "▁anytime": 7081,
      "▁negative": 7082,
      "▁?!?": 7083,
      "▁complaining": 7084,
      "▁vict": 7085,
      "▁sealed": 7086,
      "▁trans": 7087,
      "▁implemented": 7088,
      "▁offended": 7089,
      "▁hideout": 7090,
      "▁awareness": 7091,
      "▁repairs": 7092,
      "▁clinging": 7093,
      "##.m": 7094,
      "▁crisis": 7095,
      "▁helicop": 7096,
      "##issipp": 7097,
      "▁drama": 7098,
      "▁jacket": 7099,
      "▁one": 7100,
      "▁eug": 7101,
      "▁correlation": 7102,
      "##othy": 7103,
      "##asible": 7104,
      "##obar": 7105,
      "▁bed": 7106,
      "##ped": 7107,
      "##ois": 7108,
      "▁posed": 7109,
      "▁chocol": 7110,
      "##hire": 7111,
      "▁suck": 7112,
      "▁fol": 7113,
      "▁optimistic": 7114,
      "##lass": 7115,
      "▁bake": 7116,
      "▁genetic": 7117,
      "▁bludgers": 7118,
      "##.15": 7119,
      "##46": 7120,
      "]": 7121,
      "▁borrow": 7122,
      "▁drink": 7123,
      "▁530": 7124,
      "▁urine": 7125,
      "▁barrels": 7126,
      "▁untill": 7127,
      "▁bitter": 7128,
      "▁through": 7129,
      "▁salary": 7130,
      "▁heat": 7131,
      "▁manufact": 7132,
      "▁bos": 7133,
      "##-on": 7134,
      "▁caps": 7135,
      "▁very": 7136,
      "##-27": 7137,
      "▁hu": 7138,
      "##group": 7139,
      "▁ar": 7140,
      "▁cozy": 7141,
      "▁disapp": 7142,
      "##product": 7143,
      "▁hurt": 7144,
      "##riage": 7145,
      "▁specific": 7146,
      "▁cou": 7147,
      "▁revolution": 7148,
      "▁aboard": 7149,
      "▁alley": 7150,
      "▁pork": 7151,
      "▁acquire": 7152,
      "▁temp": 7153,
      "▁beak": 7154,
      "▁tight": 7155,
      "##134": 7156,
      "##alog": 7157,
      "▁fucking": 7158,
      "▁mars": 7159,
      "▁feelings": 7160,
      "▁headquarters": 7161,
      "▁panama": 7162,
      "▁passengers": 7163,
      "▁warfare": 7164,
      "▁4-12": 7165,
      "▁asset": 7166,
      "▁sur": 7167,
      "▁trash": 7168,
      "▁damage": 7169,
      "▁--": 7170,
      "▁mur": 7171,
      "▁soon": 7172,
      "▁aesth": 7173,
      "▁decades": 7174,
      "##ently": 7175,
      "##ges": 7176,
      "▁campa": 7177,
      "▁2015": 7178,
      "▁crunch": 7179,
      "▁dogg": 7180,
      "▁tampa": 7181,
      "▁distortion": 7182,
      "##stein": 7183,
      "司": 7184,
      "▁arr": 7185,
      "##de": 7186,
      "▁hind": 7187,
      "▁matters": 7188,
      "▁surge": 7189,
      "▁memories": 7190,
      "##erable": 7191,
      "▁necessarily": 7192,
      "▁neat": 7193,
      "▁document": 7194,
      "##ile": 7195,
      "▁pap": 7196,
      "▁robbie": 7197,
      "##utely": 7198,
      "▁contacted": 7199,
      "##igrew": 7200,
      "▁displac": 7201,
      "▁rub": 7202,
      "▁ehr": 7203,
      "▁assemble": 7204,
      "▁crayons": 7205,
      "##和": 7206,
      "▁give": 7207,
      "##ests": 7208,
      "##arded": 7209,
      "▁curren": 7210,
      "▁logan": 7211,
      "▁angeles": 7212,
      "▁visits": 7213,
      "##oved": 7214,
      "##ores": 7215,
      "▁locom": 7216,
      "▁mist": 7217,
      "▁snitch": 7218,
      "▁elect": 7219,
      "▁preparation": 7220,
      "▁zone": 7221,
      "##:/": 7222,
      "▁thrones": 7223,
      "##iver": 7224,
      "##ity": 7225,
      "▁particularly": 7226,
      "##oys": 7227,
      "▁incor": 7228,
      "▁horn": 7229,
      "▁sleeping": 7230,
      "▁salty": 7231,
      "▁published": 7232,
      "▁outcomes": 7233,
      "▁earthworms": 7234,
      "▁non-bondad": 7235,
      "▁dre": 7236,
      "▁immigr": 7237,
      "▁floating": 7238,
      "##ron": 7239,
      "▁reasonable": 7240,
      "▁pakistani": 7241,
      "▁screwdriver": 7242,
      "##ull": 7243,
      "▁socialist": 7244,
      "▁permitted": 7245,
      "▁folded": 7246,
      "##7/99": 7247,
      "▁participating": 7248,
      "▁state": 7249,
      "##down": 7250,
      "▁corporations": 7251,
      "▁presently": 7252,
      "▁worldwide": 7253,
      "▁ras": 7254,
      "▁glance": 7255,
      "##ere": 7256,
      "▁frank": 7257,
      "##don": 7258,
      "▁mosul": 7259,
      "##osy": 7260,
      "▁wik": 7261,
      "▁cris": 7262,
      "▁bind": 7263,
      "▁necessity": 7264,
      "▁current": 7265,
      "▁crash": 7266,
      "▁718-780": 7267,
      "▁ank": 7268,
      "##ux": 7269,
      "▁mechanism": 7270,
      "▁eaten": 7271,
      "▁banglades": 7272,
      "▁boxes": 7273,
      "▁referred": 7274,
      "##eeting": 7275,
      "▁consistently": 7276,
      "▁incredible": 7277,
      "##unga": 7278,
      "▁spectac": 7279,
      "##umbled": 7280,
      "▁buenos": 7281,
      "▁femoral": 7282,
      "▁melt": 7283,
      "▁equ": 7284,
      "▁caused": 7285,
      "▁sang": 7286,
      "▁atroph": 7287,
      "##ool": 7288,
      "##oms": 7289,
      "▁examples": 7290,
      "▁democr": 7291,
      "▁review": 7292,
      "▁requirements": 7293,
      "##/chernobyl/": 7294,
      "▁stoy": 7295,
      "##uck": 7296,
      "##essions": 7297,
      "▁mweta": 7298,
      "▁shed": 7299,
      "##bal": 7300,
      "▁pays": 7301,
      "##oe": 7302,
      "▁symp": 7303,
      "▁granted": 7304,
      "▁wr": 7305,
      "▁parent": 7306,
      "##201": 7307,
      "▁obl": 7308,
      "▁butt": 7309,
      "▁unemployment": 7310,
      "▁constit": 7311,
      "▁vacc": 7312,
      "▁exactly": 7313,
      "▁climb": 7314,
      "▁12:12": 7315,
      "▁accent": 7316,
      "▁spelling": 7317,
      "▁1932": 7318,
      "▁richmond": 7319,
      "##ovich": 7320,
      "▁replaced": 7321,
      "▁propri": 7322,
      "▁celebrating": 7323,
      "▁poverty": 7324,
      "▁cheap": 7325,
      "▁stab": 7326,
      "##verage": 7327,
      "▁patients": 7328,
      "##oui": 7329,
      "▁design": 7330,
      "▁cells": 7331,
      "▁refin": 7332,
      "▁closely": 7333,
      "▁bottom": 7334,
      "▁thunder": 7335,
      "▁for": 7336,
      "▁chib": 7337,
      "▁tube": 7338,
      "▁knees": 7339,
      "##nn": 7340,
      "▁yea": 7341,
      "##ion": 7342,
      "▁lunch": 7343,
      "▁.!": 7344,
      "▁sleeves": 7345,
      "▁functionality": 7346,
      "▁04/16/2001": 7347,
      "##ying": 7348,
      "▁toll": 7349,
      "▁lit": 7350,
      "##.un": 7351,
      "▁installation": 7352,
      "▁tears": 7353,
      "##.org/": 7354,
      "▁halloween": 7355,
      "▁prospects": 7356,
      "▁1918": 7357,
      "▁thirt": 7358,
      "▁waff": 7359,
      "▁fut": 7360,
      "▁bengal": 7361,
      "▁fry": 7362,
      "▁steadily": 7363,
      "▁ter": 7364,
      "▁cuck": 7365,
      "##ilight": 7366,
      "▁how": 7367,
      "▁forgot": 7368,
      "▁mot": 7369,
      "▁translation": 7370,
      "▁liber": 7371,
      "##6": 7372,
      "▁accident": 7373,
      "▁substant": 7374,
      "##ending": 7375,
      "▁events": 7376,
      "##vert": 7377,
      "▁covering": 7378,
      "▁825": 7379,
      "▁waist": 7380,
      "▁kreml": 7381,
      "▁breasts": 7382,
      "▁price": 7383,
      "▁indiana": 7384,
      "▁dottie": 7385,
      "▁log": 7386,
      "▁sponsored": 7387,
      "▁catherine": 7388,
      "▁pup": 7389,
      "##ainted": 7390,
      "▁interfere": 7391,
      "▁skittles": 7392,
      "▁soften": 7393,
      "▁pour": 7394,
      "##ify": 7395,
      "▁institutions": 7396,
      "▁elsewhere": 7397,
      "##otes": 7398,
      "▁subsid": 7399,
      "▁fireplace": 7400,
      "▁blo": 7401,
      "##-of": 7402,
      "▁mexico": 7403,
      "▁1779": 7404,
      "##====": 7405,
      "▁summary": 7406,
      "▁surr": 7407,
      "##ses": 7408,
      "▁120,000": 7409,
      "##itting": 7410,
      "▁arrives": 7411,
      "▁rah": 7412,
      "▁bump": 7413,
      "##:": 7414,
      "▁blackline": 7415,
      "▁delay": 7416,
      "▁kitt": 7417,
      "##illed": 7418,
      "▁raccoon": 7419,
      "▁vast": 7420,
      "▁injury": 7421,
      "▁supple": 7422,
      "▁bir": 7423,
      "▁dyn": 7424,
      "▁tear": 7425,
      "▁device": 7426,
      "##57": 7427,
      "▁fall": 7428,
      "▁il": 7429,
      "##edter": 7430,
      "▁festivals": 7431,
      "▁data": 7432,
      "▁propose": 7433,
      "▁generators": 7434,
      "##/16": 7435,
      "▁phoebe": 7436,
      "##esty": 7437,
      "▁lyr": 7438,
      "▁chard": 7439,
      "▁murder": 7440,
      "▁locations": 7441,
      "##aid": 7442,
      "##iscal": 7443,
      "▁used": 7444,
      "##91": 7445,
      "▁imagination": 7446,
      "▁islamic": 7447,
      "##5-0": 7448,
      "##8196021": 7449,
      "▁quix": 7450,
      "▁packages": 7451,
      "▁conditional": 7452,
      "##'re": 7453,
      "▁overc": 7454,
      "▁decide": 7455,
      "▁besid": 7456,
      "▁1585": 7457,
      "▁spreadsheet": 7458,
      "▁starvation": 7459,
      "ˈ": 7460,
      "##iers": 7461,
      "▁radio": 7462,
      "##rael": 7463,
      "▁vag": 7464,
      "##!?": 7465,
      "▁alabama": 7466,
      "##pg": 7467,
      "▁intentions": 7468,
      "##issions": 7469,
      "##b)": 7470,
      "▁mouth": 7471,
      "▁enterprise": 7472,
      "▁users": 7473,
      "▁laund": 7474,
      "▁bure": 7475,
      "▁neurol": 7476,
      "▁unpopular": 7477,
      "▁leonardo": 7478,
      "▁western": 7479,
      "▁tracking": 7480,
      "▁reass": 7481,
      "▁regulated": 7482,
      "▁daisy": 7483,
      "##uits": 7484,
      "▁light": 7485,
      "▁jac": 7486,
      "##8/2000": 7487,
      "##f": 7488,
      "##ford": 7489,
      "▁informed": 7490,
      "▁:(": 7491,
      "▁managers": 7492,
      "##/s": 7493,
      "▁desper": 7494,
      "▁hoping": 7495,
      "▁{": 7496,
      "▁sings": 7497,
      "▁430": 7498,
      "▁chickens": 7499,
      "##ood": 7500,
      "▁walking": 7501,
      "▁causing": 7502,
      "##bucks": 7503,
      "▁james": 7504,
      "▁bron": 7505,
      "▁q1": 7506,
      "##rane": 7507,
      "▁railway": 7508,
      "▁isol": 7509,
      "▁47,500": 7510,
      "▁obsf": 7511,
      "▁scratch": 7512,
      "▁betw": 7513,
      "▁sor": 7514,
      "##==": 7515,
      "▁out": 7516,
      "▁shadow": 7517,
      "▁lowest": 7518,
      "▁accur": 7519,
      "##ting": 7520,
      "▁arriving": 7521,
      "##ric": 7522,
      "▁guaranteed": 7523,
      "##ground": 7524,
      "▁borders": 7525,
      "▁mariner": 7526,
      "##urse": 7527,
      "▁cabbage": 7528,
      "▁terre": 7529,
      "##aves": 7530,
      "▁t.": 7531,
      "##13": 7532,
      "▁haz": 7533,
      "▁environments": 7534,
      "##ju": 7535,
      "▁hunger": 7536,
      "▁wtc": 7537,
      "##ora": 7538,
      "▁camping": 7539,
      "▁ya": 7540,
      "##entives": 7541,
      "▁mayko": 7542,
      "▁remembering": 7543,
      "▁practicing": 7544,
      "▁chapters": 7545,
      "▁holder": 7546,
      "▁popeye": 7547,
      "##2": 7548,
      "▁sensible": 7549,
      "##ache": 7550,
      "▁6:30": 7551,
      "##73": 7552,
      "▁september": 7553,
      "▁wrote": 7554,
      "▁1-800": 7555,
      "▁conclusion": 7556,
      "▁expanded": 7557,
      "##nik": 7558,
      "▁cargill": 7559,
      "▁hack": 7560,
      "▁preserved": 7561,
      "##thy": 7562,
      "▁fiji": 7563,
      "##.": 7564,
      "##rich": 7565,
      "##:57": 7566,
      "▁hitler": 7567,
      "▁field": 7568,
      "▁vaguely": 7569,
      "▁pack": 7570,
      "▁retrie": 7571,
      "##ls": 7572,
      "##<----": 7573,
      "▁residents": 7574,
      "##dge": 7575,
      "▁ignor": 7576,
      "▁commissioner": 7577,
      "▁proved": 7578,
      "##life": 7579,
      "▁nov.": 7580,
      "▁watered": 7581,
      "▁120": 7582,
      "##ibreat": 7583,
      "▁reply": 7584,
      "##over": 7585,
      "▁pee": 7586,
      "##xic": 7587,
      "▁linked": 7588,
      "▁arrangements": 7589,
      "##ikh": 7590,
      "##htub": 7591,
      "##reh": 7592,
      "▁block": 7593,
      "▁four": 7594,
      "▁barn": 7595,
      "▁engineer": 7596,
      "▁cigare": 7597,
      "▁dinosaur": 7598,
      "▁grant": 7599,
      "▁transition": 7600,
      "▁set": 7601,
      "▁perhaps": 7602,
      "##lf": 7603,
      "▁anem": 7604,
      "▁invite": 7605,
      "##wh": 7606,
      "##uclear": 7607,
      "▁04:": 7608,
      "▁abandon": 7609,
      "##icop": 7610,
      "▁strive": 7611,
      "▁dissatisf": 7612,
      "▁coast": 7613,
      "##epend": 7614,
      "##club": 7615,
      "▁byebye": 7616,
      "▁747": 7617,
      "##bean": 7618,
      "##ving": 7619,
      "▁commit": 7620,
      "▁pacific": 7621,
      "▁vie": 7622,
      "##ath": 7623,
      "##ength": 7624,
      "▁meet": 7625,
      "▁declar": 7626,
      "▁team": 7627,
      "▁sailed": 7628,
      "##ologies": 7629,
      "##/08": 7630,
      "▁mention": 7631,
      "▁norm": 7632,
      "▁ultimate": 7633,
      "▁stating": 7634,
      "▁questioned": 7635,
      "##inf": 7636,
      "##cher": 7637,
      "▁signed": 7638,
      "▁doubt": 7639,
      "▁1985": 7640,
      "▁eleventh": 7641,
      "▁ling": 7642,
      "##rr": 7643,
      "▁jenn": 7644,
      "▁spir": 7645,
      "▁417": 7646,
      "▁deterior": 7647,
      "##onc": 7648,
      "▁forwarding": 7649,
      "##king": 7650,
      "▁register": 7651,
      "▁phenomen": 7652,
      "▁signing": 7653,
      "▁screaming": 7654,
      "▁leigh": 7655,
      "▁addicted": 7656,
      "▁research": 7657,
      "▁hugh": 7658,
      "▁specialists": 7659,
      "▁refuge": 7660,
      "▁up": 7661,
      "##24": 7662,
      "▁attrib": 7663,
      "▁aqu": 7664,
      "▁sum": 7665,
      "▁lun": 7666,
      "▁twelve": 7667,
      "▁xsd": 7668,
      "##.s": 7669,
      "▁essie": 7670,
      "▁11/10/2000": 7671,
      "▁intern": 7672,
      "▁geometry": 7673,
      "▁lymph": 7674,
      "▁sights": 7675,
      "▁critics": 7676,
      "▁desk": 7677,
      "▁38": 7678,
      "▁1945": 7679,
      "##(": 7680,
      "▁renewed": 7681,
      "▁phil": 7682,
      "▁bund": 7683,
      "##ocol": 7684,
      "▁definition": 7685,
      "▁repeating": 7686,
      "▁mountains": 7687,
      "▁eastward": 7688,
      "▁licenses": 7689,
      "▁doctors": 7690,
      "▁grumb": 7691,
      "▁layover": 7692,
      "▁worms": 7693,
      "▁inherent": 7694,
      "▁burger": 7695,
      "[MASK]": 7696,
      "▁char": 7697,
      "▁crit": 7698,
      "▁citizens": 7699,
      "##iques": 7700,
      "##lands": 7701,
      "▁1964": 7702,
      "##903": 7703,
      "##spot.com/": 7704,
      "▁importance": 7705,
      "▁undertaken": 7706,
      "▁deer": 7707,
      "▁flats": 7708,
      "▁gas": 7709,
      "▁vs": 7710,
      "▁donna": 7711,
      "▁publish": 7712,
      "▁being": 7713,
      "▁thurs": 7714,
      "▁christopher": 7715,
      "▁name": 7716,
      "##iences": 7717,
      "▁813": 7718,
      "▁experienced": 7719,
      "▁sticks": 7720,
      "▁ridic": 7721,
      "##way": 7722,
      "▁led": 7723,
      "▁science": 7724,
      "##vez": 7725,
      "##inking": 7726,
      "##emort": 7727,
      "##38": 7728,
      "▁predatory": 7729,
      "▁actor": 7730,
      "##oll": 7731,
      "▁finals": 7732,
      "▁72,000": 7733,
      "▁mccartney": 7734,
      "▁rational": 7735,
      "▁sal": 7736,
      "##ience": 7737,
      "▁horizont": 7738,
      "▁length": 7739,
      "▁bland": 7740,
      "▁day": 7741,
      "▁neuro": 7742,
      "##ione": 7743,
      "▁jahan": 7744,
      "▁manuf": 7745,
      "▁bunch": 7746,
      "##od": 7747,
      "▁planet": 7748,
      "▁treas": 7749,
      "▁arises": 7750,
      "##rimin": 7751,
      "▁1-800-991-90": 7752,
      "▁lack": 7753,
      "▁yelling": 7754,
      "▁metropolitan": 7755,
      "##set": 7756,
      "▁shuttle": 7757,
      "▁ignoring": 7758,
      "▁per": 7759,
      "▁deficiency": 7760,
      "▁shobhajatra": 7761,
      "▁tre": 7762,
      "▁kenneth": 7763,
      "▁vehicle": 7764,
      "▁routine": 7765,
      "▁…": 7766,
      "▁fift": 7767,
      "▁abby": 7768,
      "##fa": 7769,
      "▁doctor": 7770,
      "▁rows": 7771,
      "▁vet": 7772,
      "##erno": 7773,
      "▁roost": 7774,
      "##tra": 7775,
      "▁civilized": 7776,
      "##bled": 7777,
      "▁acid": 7778,
      "▁domain": 7779,
      "▁category": 7780,
      "▁member": 7781,
      "▁forecast": 7782,
      "▁radi": 7783,
      "▁juliet": 7784,
      "▁01810": 7785,
      "▁topics": 7786,
      "▁literary": 7787,
      "▁che": 7788,
      "▁revolutionary": 7789,
      "▁morality": 7790,
      "▁rahman": 7791,
      "▁soph": 7792,
      "▁defence": 7793,
      "##eney": 7794,
      "▁retail": 7795,
      "▁1972": 7796,
      "▁s/he": 7797,
      "▁spinning": 7798,
      "▁713-793-": 7799,
      "▁nu": 7800,
      "##itch": 7801,
      "##boo": 7802,
      "▁nook": 7803,
      "▁augmentation": 7804,
      "▁origin": 7805,
      "##gill": 7806,
      "▁eras": 7807,
      "▁cincinnati": 7808,
      "##29": 7809,
      "▁lar": 7810,
      "▁discrimination": 7811,
      "##zilla": 7812,
      "##ushing": 7813,
      "▁enov": 7814,
      "▁explorer": 7815,
      "▁evident": 7816,
      "▁ourselves": 7817,
      "▁fox": 7818,
      "▁tot": 7819,
      "▁awa": 7820,
      "##ul": 7821,
      "##ors": 7822,
      "▁hamm": 7823,
      "##pan": 7824,
      "▁naturally": 7825,
      "▁tunisia": 7826,
      "▁babies": 7827,
      "▁participate": 7828,
      "▁recall": 7829,
      "▁kittens": 7830,
      "▁grandmother": 7831,
      "▁experiment": 7832,
      "▁french": 7833,
      "▁mom": 7834,
      "##ρ": 7835,
      "▁economy": 7836,
      "▁ho": 7837,
      "▁basis": 7838,
      "▁salsa": 7839,
      "a": 7840,
      "##ula": 7841,
      "▁beatles": 7842,
      "▁authors": 7843,
      "▁unclear": 7844,
      "▁welcome": 7845,
      "▁cont": 7846,
      "▁crum": 7847,
      "▁bees": 7848,
      "▁fing": 7849,
      "##an": 7850,
      "▁kang": 7851,
      "▁installed": 7852,
      "▁polaroid": 7853,
      "▁1992": 7854,
      "▁candles": 7855,
      "▁devast": 7856,
      "▁kid": 7857,
      "▁massage": 7858,
      "▁grace": 7859,
      "▁temporary": 7860,
      "▁derivative": 7861,
      "▁funnel": 7862,
      "▁subst": 7863,
      "▁survey": 7864,
      "▁prosper": 7865,
      "▁clown": 7866,
      "▁stepping": 7867,
      "▁[": 7868,
      "▁marble": 7869,
      "[UNK]": 7870,
      "▁achieve": 7871,
      "▁yester": 7872,
      "▁hungry": 7873,
      "▁laser": 7874,
      "##4gamer": 7875,
      "▁able": 7876,
      "▁guests": 7877,
      "▁comprom": 7878,
      "▁assisting": 7879,
      "▁stays": 7880,
      "▁partners": 7881,
      "▁landsc": 7882,
      "▁29587": 7883,
      "▁anti-": 7884,
      "▁bog": 7885,
      "▁hards": 7886,
      "##rd": 7887,
      "▁boost": 7888,
      "▁urban": 7889,
      "▁harmon": 7890,
      "▁timer": 7891,
      "##force": 7892,
      "▁hog": 7893,
      "▁drill": 7894,
      "▁might": 7895,
      "▁w/": 7896,
      "▁059085": 7897,
      "▁/": 7898,
      "▁singing": 7899,
      "▁scr": 7900,
      "##emies": 7901,
      "##md": 7902,
      "▁julien": 7903,
      "▁speculation": 7904,
      "▁cottage": 7905,
      "▁philosopher": 7906,
      "▁indicate": 7907,
      "▁similarly": 7908,
      "▁coll": 7909,
      "▁improved": 7910,
      "##uling": 7911,
      "##atter": 7912,
      "▁unconscious": 7913,
      "▁authorities": 7914,
      "##sd": 7915,
      "▁straw": 7916,
      "▁saw": 7917,
      "▁examining": 7918,
      "##shore": 7919,
      "##ba": 7920,
      "▁refusing": 7921,
      "▁israel": 7922,
      "▁......": 7923,
      "▁gm": 7924,
      "▁vogel": 7925,
      "▁romantic": 7926,
      "▁liqu": 7927,
      "##logspot.com/": 7928,
      "▁concrete": 7929,
      "▁jill": 7930,
      "▁rul": 7931,
      "▁pleased": 7932,
      "▁elections": 7933,
      "##berry": 7934,
      "▁04/2": 7935,
      "▁emma": 7936,
      "##ky": 7937,
      "▁charles": 7938,
      "▁replac": 7939,
      "▁ic": 7940,
      "##ulatory": 7941,
      "▁bn": 7942,
      "▁bur": 7943,
      "▁twenty-six": 7944,
      "▁bosom": 7945,
      "▁lemon": 7946,
      "##mission": 7947,
      "▁creek": 7948,
      "▁peau": 7949,
      "##ptive": 7950,
      "##uate": 7951,
      "▁1966": 7952,
      "▁rapid": 7953,
      "▁08/15/2000": 7954,
      "▁gift": 7955,
      "▁evans": 7956,
      "▁guit": 7957,
      "##rance": 7958,
      "▁'re": 7959,
      "▁1.5": 7960,
      "##@compaq.com": 7961,
      "▁substit": 7962,
      "##aku": 7963,
      "▁pict": 7964,
      "▁12:42": 7965,
      "▁completely": 7966,
      "##away": 7967,
      "▁manage": 7968,
      "▁met": 7969,
      "▁theod": 7970,
      "▁soc": 7971,
      "▁norton": 7972,
      "▁disappointed": 7973,
      "¢": 7974,
      "▁[...": 7975,
      "▁wite": 7976,
      "▁57": 7977,
      "▁mayonnaise": 7978,
      "▁canad": 7979,
      "▁terrific": 7980,
      "▁transfer": 7981,
      "##ber": 7982,
      "##ocentrism": 7983,
      "▁harmony": 7984,
      "▁square": 7985,
      "▁movement": 7986,
      "▁transferred": 7987,
      "▁top": 7988,
      "▁cocktail": 7989,
      "▁bothered": 7990,
      "▁andre": 7991,
      "▁pra": 7992,
      "▁enable": 7993,
      "▁kum": 7994,
      "▁victory": 7995,
      "▁strict": 7996,
      "##59": 7997,
      "▁direct": 7998,
      "▁seventeenth": 7999,
      "▁170": 8000,
      "##ه": 8001,
      "▁eg": 8002,
      "▁possible": 8003,
      "##ment": 8004,
      "▁ner": 8005,
      "▁713/": 8006,
      "▁115": 8007,
      "▁'em": 8008,
      "▁“": 8009,
      "▁.doc": 8010,
      "##ash": 8011,
      "▁al": 8012,
      "▁cam": 8013,
      "▁construct": 8014,
      "▁repeat": 8015,
      "▁1691": 8016,
      "▁trusted": 8017,
      "▁gdp": 8018,
      "▁yuc": 8019,
      "##irus": 8020,
      "▁assure": 8021,
      "▁allow": 8022,
      "▁ment": 8023,
      "▁rains": 8024,
      "▁cheeky": 8025,
      "▁berry": 8026,
      "##ay": 8027,
      "##abilities": 8028,
      "##ists": 8029,
      "##奈": 8030,
      "##ancement": 8031,
      "▁presc": 8032,
      "▁29": 8033,
      "▁affected": 8034,
      "##ription": 8035,
      "▁founders": 8036,
      "##inite": 8037,
      "▁counterfe": 8038,
      "▁hippop": 8039,
      "▁fence": 8040,
      "▁fly": 8041,
      "▁licensor": 8042,
      "▁1999": 8043,
      "▁conscious": 8044,
      "▁nuclear": 8045,
      "▁ketch": 8046,
      "古": 8047,
      "▁seats": 8048,
      "▁jokes": 8049,
      "##æ": 8050,
      "▁according": 8051,
      "##810": 8052,
      "▁1790": 8053,
      "œ": 8054,
      "▁games": 8055,
      "▁deput": 8056,
      "##pay": 8057,
      "▁hero": 8058,
      "▁named": 8059,
      "▁motorcycle": 8060,
      "##c": 8061,
      "▁sunglasses": 8062,
      "▁wides": 8063,
      "##iculous": 8064,
      "▁what": 8065,
      "▁stories": 8066,
      "▁yout": 8067,
      "##ns": 8068,
      "<": 8069,
      "▁sounds": 8070,
      "##low": 8071,
      "▁eerie": 8072,
      "▁10/23/2000": 8073,
      "▁mechanics": 8074,
      "##ivity": 8075,
      "##icted": 8076,
      "##:1": 8077,
      "##一": 8078,
      "▁disability": 8079,
      "▁ret": 8080,
      "▁raphael": 8081,
      "▁images": 8082,
      "▁12.": 8083,
      "▁updated": 8084,
      "▁jumped": 8085,
      "▁ceiling": 8086,
      "▁josh": 8087,
      "##icial": 8088,
      "▁source": 8089,
      "▁suited": 8090,
      "▁toys": 8091,
      "▁1738": 8092,
      "▁recovery": 8093,
      "▁crab": 8094,
      "▁paying": 8095,
      "▁shakes": 8096,
      "▁developed": 8097,
      "▁cambod": 8098,
      "▁seeing": 8099,
      "▁crosses": 8100,
      "▁conclude": 8101,
      "▁joyce": 8102,
      "▁belie": 8103,
      "▁adopt": 8104,
      "▁honestly": 8105,
      "▁ukrainian": 8106,
      "▁retained": 8107,
      "▁prices": 8108,
      "▁46": 8109,
      "▁comedie": 8110,
      "▁no": 8111,
      "▁retire": 8112,
      "▁practical": 8113,
      "▁202.7": 8114,
      "▁europ": 8115,
      "▁fbi": 8116,
      "##cht": 8117,
      "▁landings": 8118,
      "▁wife": 8119,
      "▁talked": 8120,
      "▁streets": 8121,
      "▁dropping": 8122,
      "##erson": 8123,
      "▁01/2": 8124,
      "##agement": 8125,
      "▁apply": 8126,
      "▁additionally": 8127,
      "▁preparing": 8128,
      "▁11-20-": 8129,
      "▁earth": 8130,
      "##uction": 8131,
      "▁answers": 8132,
      "##-like": 8133,
      "▁swung": 8134,
      "▁profitable": 8135,
      "##des": 8136,
      "▁eups": 8137,
      "▁obtain": 8138,
      "▁kandahar": 8139,
      "▁twentieth": 8140,
      "##:32": 8141,
      "▁amendments": 8142,
      "▁38,000": 8143,
      "▁================================================": 8144,
      "▁31": 8145,
      "##oul": 8146,
      "##-st": 8147,
      "▁strol": 8148,
      "▁emails": 8149,
      "▁twenty-": 8150,
      "▁rufus": 8151,
      "▁blah": 8152,
      "▁naima": 8153,
      "▁cloud": 8154,
      "▁jared": 8155,
      "▁fluff": 8156,
      "##rier": 8157,
      "▁interf": 8158,
      "##unction": 8159,
      "##ij": 8160,
      "▁fewer": 8161,
      "▁c": 8162,
      "##quest": 8163,
      "▁l'": 8164,
      "▁defined": 8165,
      "▁toss": 8166,
      "▁selected": 8167,
      "##aud": 8168,
      "##ugal": 8169,
      "##ml": 8170,
      "▁cruises": 8171,
      "▁wikihow": 8172,
      "▁tab": 8173,
      "▁nasty": 8174,
      "▁mt": 8175,
      "▁watering": 8176,
      "##craft": 8177,
      "▁ignorant": 8178,
      "▁cur": 8179,
      "▁catalog": 8180,
      "▁rose": 8181,
      "▁conform": 8182,
      "##.ca": 8183,
      "▁furniture": 8184,
      "▁bad": 8185,
      "##erry": 8186,
      "▁proof": 8187,
      "▁.x": 8188,
      "▁impression": 8189,
      "▁proponents": 8190,
      "▁embed": 8191,
      "##icago": 8192,
      "##utory": 8193,
      "▁complete": 8194,
      "▁tamil": 8195,
      "▁reminded": 8196,
      "##tact": 8197,
      "▁amongst": 8198,
      "▁struggling": 8199,
      "##awk": 8200,
      "▁percentage": 8201,
      "▁sacrif": 8202,
      "##ozer": 8203,
      "##90": 8204,
      "##pite": 8205,
      "▁947": 8206,
      "▁laure": 8207,
      "ʃ": 8208,
      "▁cuts": 8209,
      "▁thousand": 8210,
      "▁cheaper": 8211,
      "▁polic": 8212,
      "▁honor": 8213,
      "▁http://www.4gamer.net/news/image/2005.09/2005091903": 8214,
      "##tter": 8215,
      "▁seemed": 8216,
      "▁verse": 8217,
      "▁widely": 8218,
      "##bee": 8219,
      "▁styrof": 8220,
      "▁guardian": 8221,
      "##712": 8222,
      "▁anglo": 8223,
      "‘": 8224,
      "▁pricing": 8225,
      "▁urg": 8226,
      "▁revenue": 8227,
      "▁eee": 8228,
      "▁individually": 8229,
      "▁1928": 8230,
      "##ye": 8231,
      "▁executive": 8232,
      "▁op": 8233,
      "▁arrog": 8234,
      "▁starch": 8235,
      "##leep": 8236,
      "▁vlog": 8237,
      "##ically": 8238,
      "▁something": 8239,
      "▁his": 8240,
      "▁hot": 8241,
      "##oulder": 8242,
      "##ode": 8243,
      "##unte": 8244,
      "▁actually": 8245,
      "##raved": 8246,
      "▁chinese": 8247,
      "##-n": 8248,
      "▁cool": 8249,
      "▁blow": 8250,
      "▁occas": 8251,
      "##.edu": 8252,
      "##,": 8253,
      "▁lined": 8254,
      "▁personality": 8255,
      "▁gladly": 8256,
      "▁1623": 8257,
      "▁opportun": 8258,
      "▁veins": 8259,
      "▁spare": 8260,
      "##isation": 8261,
      "##box": 8262,
      "▁polite": 8263,
      "▁flau": 8264,
      "▁initially": 8265,
      "▁organic": 8266,
      "▁keeps": 8267,
      "##ext": 8268,
      "##go": 8269,
      "##ith": 8270,
      "##iere": 8271,
      "##lier": 8272,
      "▁cows": 8273,
      "▁feels": 8274,
      "▁degrees": 8275,
      "▁opponent": 8276,
      "##dad": 8277,
      "▁ninet": 8278,
      "▁reasonably": 8279,
      "▁approved": 8280,
      "▁eh": 8281,
      "▁08:30": 8282,
      "▁negoti": 8283,
      "▁tunnel": 8284,
      "▁humor": 8285,
      "▁yazid": 8286,
      "▁nathan": 8287,
      "##place": 8288,
      "##esis": 8289,
      "▁closest": 8290,
      "▁nothing": 8291,
      "##aches": 8292,
      "▁troubled": 8293,
      "▁chalk": 8294,
      "▁flop": 8295,
      "▁leading": 8296,
      "▁greeted": 8297,
      "▁far": 8298,
      "▁wif": 8299,
      "▁vanished": 8300,
      "▁soy": 8301,
      "##attered": 8302,
      "▁circular": 8303,
      "▁calls": 8304,
      "▁tofu": 8305,
      "▁chrome": 8306,
      "▁thoughts": 8307,
      "▁40": 8308,
      "##render": 8309,
      "▁unn": 8310,
      "▁alab": 8311,
      "▁pace": 8312,
      "▁preserve": 8313,
      "▁gathered": 8314,
      "##?": 8315,
      "▁silkies": 8316,
      "▁directive": 8317,
      "▁pett": 8318,
      "▁unbel": 8319,
      "▁avoided": 8320,
      "▁helicopters": 8321,
      "▁yorkshire": 8322,
      "▁ingred": 8323,
      "▁pie": 8324,
      "▁mass": 8325,
      "##rum": 8326,
      "▁heads": 8327,
      "▁253": 8328,
      "▁1940": 8329,
      "▁appearing": 8330,
      "##ero": 8331,
      "▁burnt": 8332,
      "▁traveled": 8333,
      "##3c": 8334,
      "##ued": 8335,
      "▁forster": 8336,
      "▁integr": 8337,
      "##just": 8338,
      "▁patter": 8339,
      "▁plural": 8340,
      "##right": 8341,
      "##gue": 8342,
      "▁authority": 8343,
      "▁concluded": 8344,
      "▁helpful": 8345,
      "##isandy": 8346,
      "##)": 8347,
      "▁therapy": 8348,
      "▁decrease": 8349,
      "▁liv": 8350,
      "▁quaffle": 8351,
      "▁yeah": 8352,
      "▁enough": 8353,
      "##osh": 8354,
      "▁nicer": 8355,
      "▁innocent": 8356,
      "▁ital": 8357,
      "▁bible": 8358,
      "▁vcu": 8359,
      "▁cler": 8360,
      "▁lockhart": 8361,
      "▁64": 8362,
      "▁populations": 8363,
      "▁explo": 8364,
      "##ant": 8365,
      "▁help": 8366,
      "##vals": 8367,
      "▁brushing": 8368,
      "▁wandered": 8369,
      "▁describe": 8370,
      "▁would": 8371,
      "▁hop": 8372,
      "▁belg": 8373,
      "▁steven": 8374,
      "▁helps": 8375,
      "▁federal": 8376,
      "▁opin": 8377,
      "▁wow": 8378,
      "▁islamists": 8379,
      "▁surplus": 8380,
      "▁global": 8381,
      "##oulders": 8382,
      "▁worried": 8383,
      "▁arrested": 8384,
      "▁hmm": 8385,
      "▁713/8": 8386,
      "▁esther": 8387,
      "▁1971": 8388,
      "##490": 8389,
      "æ": 8390,
      "▁08:50": 8391,
      "▁declaring": 8392,
      "▁stephen": 8393,
      "##eries": 8394,
      "▁business": 8395,
      "'": 8396,
      "▁marvel": 8397,
      "▁prod": 8398,
      "▁rep": 8399,
      "##ments": 8400,
      "##igator": 8401,
      "▁stored": 8402,
      "▁electoral": 8403,
      "##gie": 8404,
      "▁driving": 8405,
      "##s/": 8406,
      "▁dar": 8407,
      "▁28": 8408,
      "▁plan": 8409,
      "##ughters": 8410,
      "##tle": 8411,
      "▁live": 8412,
      "▁powers": 8413,
      "▁marl": 8414,
      "▁quotes": 8415,
      "▁august": 8416,
      "▁content": 8417,
      "▁became": 8418,
      "▁aside": 8419,
      "▁perf": 8420,
      "▁hung": 8421,
      "▁flag": 8422,
      "##anche": 8423,
      "##neath": 8424,
      "▁thro": 8425,
      "▁dear": 8426,
      "▁2014": 8427,
      "▁300,000": 8428,
      "▁scott": 8429,
      "▁reflected": 8430,
      "▁30th": 8431,
      "▁kr": 8432,
      "##ilize": 8433,
      "##rosp": 8434,
      "##aters": 8435,
      "▁ron": 8436,
      "▁diss": 8437,
      "▁sens": 8438,
      "##:02": 8439,
      "▁_____": 8440,
      "▁adver": 8441,
      "▁architect": 8442,
      "▁fitness": 8443,
      "##je": 8444,
      "##ie": 8445,
      "▁activ": 8446,
      "##hood": 8447,
      "▁learned": 8448,
      "##riv": 8449,
      "▁revol": 8450,
      "##ellation": 8451,
      "▁vietn": 8452,
      "▁recorded": 8453,
      "▁nationwide": 8454,
      "##ping": 8455,
      "▁finger": 8456,
      "▁202.45": 8457,
      "▁ms": 8458,
      "▁coconut": 8459,
      "▁swinging": 8460,
      "##@enron": 8461,
      "▁vallee": 8462,
      "▁switched": 8463,
      "▁exem": 8464,
      "▁saus": 8465,
      "▁apar": 8466,
      "▁so": 8467,
      "▁vince": 8468,
      "▁marian": 8469,
      "##rel": 8470,
      "##less": 8471,
      "##ox": 8472,
      "▁hod": 8473,
      "▁rhino": 8474,
      "▁raph": 8475,
      "▁realization": 8476,
      "▁creative": 8477,
      "▁ale": 8478,
      "##science": 8479,
      "▁march": 8480,
      "##in": 8481,
      "▁measures": 8482,
      "▁intim": 8483,
      "▁distrib": 8484,
      "##ell": 8485,
      "▁greatly": 8486,
      "▁explained": 8487,
      "▁organized": 8488,
      "▁1530": 8489,
      "▁alar": 8490,
      "▁10/2": 8491,
      "##pent": 8492,
      "▁denmark": 8493,
      "▁databases": 8494,
      "▁guilty": 8495,
      "##aug": 8496,
      "▁viol": 8497,
      "##enn": 8498,
      "▁vis": 8499,
      "▁08/17/2000": 8500,
      "▁britney": 8501,
      "▁fair": 8502,
      "##vance": 8503,
      "▁!.": 8504,
      "▁favour": 8505,
      "▁tract": 8506,
      "▁cooperation": 8507,
      "▁electrical": 8508,
      "▁hoax": 8509,
      "▁bookstore": 8510,
      "▁gotted": 8511,
      "##樋": 8512,
      "##:11": 8513,
      "##kin": 8514,
      "▁knights": 8515,
      "▁1709": 8516,
      "##inc": 8517,
      "##icient": 8518,
      "▁inaug": 8519,
      "▁timothy": 8520,
      "##cut": 8521,
      "▁5.8": 8522,
      "▁season": 8523,
      "▁astr": 8524,
      "##bha-": 8525,
      "▁compulsive": 8526,
      "##icles": 8527,
      "▁former": 8528,
      "▁jersey": 8529,
      "▁ak": 8530,
      "##gate": 8531,
      "▁ronn": 8532,
      "▁wild": 8533,
      "▁ambitious": 8534,
      "▁influ": 8535,
      "▁tire": 8536,
      "▁pole": 8537,
      "##7.77": 8538,
      "▁accepting": 8539,
      "##zai": 8540,
      "▁intervening": 8541,
      "▁hasidim": 8542,
      "##front": 8543,
      "##shed": 8544,
      "▁active": 8545,
      "▁explor": 8546,
      "▁versus": 8547,
      "▁outcom": 8548,
      "▁thri": 8549,
      "▁columns": 8550,
      "▁towed": 8551,
      "▁1602": 8552,
      "##ardy": 8553,
      "▁freedoms": 8554,
      "▁leung": 8555,
      "▁considerably": 8556,
      "▁iraq": 8557,
      "##eu": 8558,
      "▁australian": 8559,
      "##isia": 8560,
      "▁mike": 8561,
      "▁dent": 8562,
      "##£": 8563,
      "▁.......": 8564,
      "▁uncertain": 8565,
      "▁applications": 8566,
      "##saoui": 8567,
      "▁elbow": 8568,
      "▁headache": 8569,
      "▁targeting": 8570,
      "##uj": 8571,
      "▁hal": 8572,
      "▁;": 8573,
      "▁absence": 8574,
      "▁are": 8575,
      "▁anc": 8576,
      "▁ross": 8577,
      "▁fortune": 8578,
      "▁interim": 8579,
      "▁scanning": 8580,
      "##_2": 8581,
      "##merce": 8582,
      "##onsider": 8583,
      "▁agre": 8584,
      "▁spor": 8585,
      "##ii": 8586,
      "▁naq": 8587,
      "▁if": 8588,
      "▁overwhelming": 8589,
      "▁educated": 8590,
      "▁chantilly": 8591,
      "▁cannon": 8592,
      "▁esp": 8593,
      "▁kent": 8594,
      "▁prohibited": 8595,
      "▁kingdom": 8596,
      "▁oc": 8597,
      "▁immers": 8598,
      "##-l": 8599,
      "▁sched": 8600,
      "##ured": 8601,
      "▁hello": 8602,
      "##fet": 8603,
      "##-696": 8604,
      "▁evaluate": 8605,
      "##id=": 8606,
      "▁tomato": 8607,
      "▁justified": 8608,
      "##oni": 8609,
      "▁majority": 8610,
      "▁realize": 8611,
      "▁9:30": 8612,
      "▁amm": 8613,
      "##itual": 8614,
      "▁seeking": 8615,
      "▁vegetable": 8616,
      "▁repaired": 8617,
      "▁cabins": 8618,
      "▁154": 8619,
      "▁730": 8620,
      "▁posture": 8621,
      "▁mwet": 8622,
      "##acts": 8623,
      "▁promise": 8624,
      "▁successfully": 8625,
      "▁general": 8626,
      "▁heaven": 8627,
      "##ious": 8628,
      "r": 8629,
      "##i.com/": 8630,
      "▁accountant": 8631,
      "##clock": 8632,
      "▁entrance": 8633,
      "##og": 8634,
      "▁accomm": 8635,
      "▁leaf": 8636,
      "▁items": 8637,
      "▁1776": 8638,
      "##:35": 8639,
      "##.676": 8640,
      "▁transl": 8641,
      "▁wang": 8642,
      "▁joan": 8643,
      "##su": 8644,
      "▁airports": 8645,
      "##gers": 8646,
      "▁serving": 8647,
      "▁appointment": 8648,
      "##.95": 8649,
      "▁planted": 8650,
      "##unic": 8651,
      "▁role": 8652,
      "▁minnesota": 8653,
      "▁damn": 8654,
      "##lo": 8655,
      "▁broad": 8656,
      "▁shakespeare": 8657,
      "▁gramp": 8658,
      "▁tele": 8659,
      "▁lope": 8660,
      "##________________________________": 8661,
      "▁kitty": 8662,
      "##ved": 8663,
      "▁until": 8664,
      "▁ground": 8665,
      "▁inv": 8666,
      "▁450": 8667,
      "▁pyr": 8668,
      "▁deadline": 8669,
      "▁manufactured": 8670,
      "##ral": 8671,
      "##ioch": 8672,
      "▁romance": 8673,
      "##ge": 8674,
      "▁virgin": 8675,
      "▁amount": 8676,
      "▁chal": 8677,
      "▁distance": 8678,
      "▁possibly": 8679,
      "▁tourism": 8680,
      "▁stamp": 8681,
      "▁seas": 8682,
      "▁hunh": 8683,
      "##arking": 8684,
      "▁gaps": 8685,
      "##keep": 8686,
      "▁isi": 8687,
      "▁adequately": 8688,
      "▁1774": 8689,
      "##700": 8690,
[...]
