{
  "version": "1.0",
  "truncation": null,
  "padding": null,
  "added_tokens": [
    {
      "id": 693,
      "content": "[CLS]",
      "single_word": false,
      "lstrip": false,
      "rstrip": false,
      "normalized": false,
      "special": true
    },
    {
      "id": 996,
      "content": "[SEP]",
      "single_word": false,
      "lstrip": false,
      "rstrip": false,
      "normalized": false,
      "special": true
    },
    {
      "id": 1499,
      "content": "[MASK]",
      "single_word": false,
      "lstrip": false,
      "rstrip": false,
      "normalized": false,
      "special": true
    },
    {
      "id": 3794,
      "content": "[PAD]",
      "single_word": false,
      "lstrip": false,
      "rstrip": false,
      "normalized": false,
      "special": true
    },
    {
      "id": 3988,
      "content": "[UNK]",
      "single_word": false,
      "lstrip": false,
      "rstrip": false,
      "normalized": false,
      "special": true
    }
  ],
  "normalizer": {
    "type": "Sequence",
    "normalizers": [
      {
        "type": "NFD"
      },
      {
        "type": "Lowercase"
      },
      {
        "type": "StripAccents"
      }
    ]
  },
  "pre_tokenizer": {
    "type": "Sequence",
    "pretokenizers": [
      {
        "type": "Metaspace",
        "replacement": "▁",
        "prepend_scheme": "always",
        "split": true
      }
    ]
  },
  "post_processor": {
    "type": "TemplateProcessing",
    "single": [
      {
        "SpecialToken": {
          "id": "[CLS]",
          "type_id": 0
        }
      },
      {
        "Sequence": {
          "id": "A",
          "type_id": 0
        }
      },
      {
        "SpecialToken": {
          "id": "[SEP]",
          "type_id": 0
        }
      }
    ],
    "pair": [
      {
        "SpecialToken": {
          "id": "[CLS]",
          "type_id": 0
        }
      },
      {
        "Sequence": {
          "id": "A",
          "type_id": 0
        }
      },
      {
        "SpecialToken": {
          "id": "[SEP]",
          "type_id": 0
        }
      },
      {
        "Sequence": {
          "id": "B",
          "type_id": 1
        }
      },
      {
        "SpecialToken": {
          "id": "[SEP]",
          "type_id": 1
        }
      }
    ],
    "special_tokens": {
      "[CLS]": {
        "id": "[CLS]",
        "ids": [
          693
        ],
        "tokens": [
          "[CLS]"
        ]
      },
      "[SEP]": {
        "id": "[SEP]",
        "ids": [
          996
        ],
        "tokens": [
          "[SEP]"
        ]
      }
    }
  },
  "decoder": {
    "type": "Metaspace",
    "replacement": "▁",
    "prepend_scheme": "always",
    "split": true
  },
  "model": {
    "type": "Unigram",
    "unk_id": 3988,
    "vocab": [
      [
        "▁pitt",
        -6.928270392283774
      ],
      [
        "▁econom",
        -8.437004820376929
      ],
      [
        "▁ant",
        -9.073024977707348
      ],
      [
        "03:4",
        -15.341353967809006
      ],
      [
        "wo",
        -11.00704601879946
      ],
      [
        "▁master",
        -9.417619448669583
      ],
      [
        "lotte",
        -8.468857228126392
      ],
      [
        "▁mak",
        -7.852869009868518
      ],
      [
        "▁750",
        -12.229681738664153
      ],
      [
        "▁trust",
        -9.093463956594576
      ],
      [
        "▁creative",
        -9.419036456332508
      ],
      [
        "59,",
        -14.128729149811772
      ],
      [
        "▁money",
        -7.9747850591504745
      ],
      [
        "▁mother",
        -7.93731285409739
      ],
      [
        "▁sha",
        -8.713700683610446
      ],
      [
        "▁left",
        -7.89657669170017
      ],
      [
        "▁beside",
        -10.020238870103876
      ],
      [
        "▁281-",
        -14.130872119281483
      ],
      [
        "▁hide",
        -9.401148749252208
      ],
      [
        "▁ton",
        -9.313993778128054
      ],
      [
        "▁court",
        -8.614331039911889
      ],
      [
        "175",
        -13.89952388135222
      ],
      [
        "j",
        -12.63677057935472
      ],
      [
        "▁***",
        -11.49918194768145
      ],
      [
        "l",
        -6.231528932805014
      ],
      [
        "bever",
        -11.340099135873395
      ],
      [
        "509",
        -14.165141654191874
      ],
      [
        "/11/200",
        -12.790331325970003
      ],
      [
        "▁des",
        -9.820925513461212
      ],
      [
        "**********",
        -11.222325853193087
      ],
      [
        "☎",
        -11.833785825435129
      ],
      [
        "'",
        -5.811804410257997
      ],
      [
        "▁eight",
        -9.059025391871746
      ],
      [
        "▁use",
        -6.727165163165884
      ],
      [
        "0072",
        -13.439753158054558
      ],
      [
        "▁inde",
        -9.451503762286503
      ],
      [
        "▁k",
        -7.377484938904235
      ],
      [
        "▁noise",
        -9.220706296893486
      ],
      [
        "▁366",
        -12.639888687731418
      ],
      [
        "▁dropp",
        -9.46430830890178
      ],
      [
        "▁713-793-",
        -13.136770769999327
      ],
      [
        "▁5.",
        -12.276806535242752
      ],
      [
        "▁03:4",
        -12.536190960354329
      ],
      [
        "▁child",
        -8.471181286660203
      ],
      [
        "▁check",
        -8.129158903877167
      ],
      [
        "1,6",
        -13.58883323936137
      ],
      [
        "▁rock",
        -8.463473539954043
      ],
      [
        "▁face",
        -7.917214705659846
      ],
      [
        "▁la",
        -9.448892749659029
      ],
      [
        "50",
        -10.090879082816057
      ],
      [
        "▁message",
        -8.750039384167765
      ],
      [
        "▁05:",
        -13.864709534199491
      ],
      [
        "▁over",
        -7.215890673759658
      ],
      [
        "o",
        -8.471522179778704
      ],
      [
        "===========",
        -11.614216336397975
      ],
      [
        "461",
        -13.307979721832814
      ],
      [
        "▁harr",
        -7.994555857934573
      ],
      [
        "▁10:46",
        -13.191033757998555
      ],
      [
        "▁regard",
        -8.204321683423172
      ],
      [
        "49",
        -12.046337643457093
      ],
      [
        "▁report",
        -7.817262282848568
      ],
      [
        "------------",
        -10.630566914886277
      ],
      [
        "▁114",
        -13.672578331648024
      ],
      [
        "ner",
        -11.893441421125145
      ],
      [
        "▁attend",
        -8.943552896883073
      ],
      [
        "countries",
        -8.410802737614711
      ],
      [
        "▁questions",
        -8.428831043585184
      ],
      [
        "238",
        -12.736357786554253
      ],
      [
        "ors",
        -9.035631897303897
      ],
      [
        "h",
        -4.8693336633009086
      ],
      [
        "▁sign",
        -8.223109350517074
      ],
      [
        "▁bo",
        -11.551938346342482
      ],
      [
        "ps",
        -11.805325689791168
      ],
      [
        "▁first",
        -6.407064579153717
      ],
      [
        "▁definite",
        -9.049805022763316
      ],
      [
        "▁act",
        -8.296104074190776
      ],
      [
        "▁mill",
        -9.334516367393029
      ],
      [
        "▁supposed",
        -8.936985577081636
      ],
      [
        "4",
        -8.425205339486366
      ],
      [
        "7.3",
        -12.70913607973589
      ],
      [
        "▁12:3",
        -12.209603630901498
      ],
      [
        "▁relat",
        -8.99723480385558
      ],
      [
        "▁re",
        -6.851635456603172
      ],
      [
        "▁plant",
        -8.66392530814362
      ],
      [
        "▁tha",
        -4.704439761942432
      ],
      [
        "▁66",
        -12.565870066596311
      ],
      [
        "4-0",
        -13.976970355796787
      ],
      [
        "249",
        -14.261623159528837
      ],
      [
        ".",
        -6.418002661842819
      ],
      [
        "-200",
        -14.147349975607732
      ],
      [
        "▁opinion",
        -9.358483151541456
      ],
      [
        "▁page",
        -8.093126097168021
      ],
      [
        "un",
        -7.788384223024832
      ],
      [
        "▁tent",
        -9.425463567275706
      ],
      [
        "es",
        -9.796773491017948
      ],
      [
        "▁remain",
        -8.487005901795708
      ],
      [
        "not",
        -9.21345883223754
      ],
      [
        "▁1.6",
        -12.34208568727186
      ],
      [
        "ma",
        -7.382142112076833
      ],
      [
        "▁agreement",
        -8.606130150243184
      ],
      [
        "▁stopp",
        -8.97534902100777
      ],
      [
        "2/200",
        -11.389975573398571
      ],
      [
        "ent",
        -10.352899478348686
      ],
      [
        "wha",
        -12.930203603982541
      ],
      [
        "▁eas",
        -8.490011894250035
      ],
      [
        "▁ensure",
        -9.056670866353997
      ],
      [
        "ion",
        -6.441495724832761
      ],
      [
        "▁hand",
        -7.497518979261564
      ],
      [
        "▁ble",
        -9.318490523864863
      ],
      [
        "▁sister",
        -9.078127862201189
      ],
      [
        "432",
        -13.678790289678101
      ],
      [
        "▁before",
        -8.720256941441916
      ],
      [
        "▁toys",
        -9.043004285414902
      ],
      [
        "-10",
        -14.133997772797096
      ],
      [
        "▁na",
        -8.15133216393382
      ],
      [
        "▁pen",
        -11.910450438494662
      ],
      [
        "▁forward",
        -8.527755422434616
      ],
      [
        "▁feel",
        -7.631612183078574
      ],
      [
        "ng",
        -8.02815702881441
      ],
      [
        "▁international",
        -8.16313022423994
      ],
      [
        "bo",
        -11.596433781311088
      ],
      [
        "▁jul",
        -8.046448147272816
      ],
      [
        "ce",
        -6.526989589869492
      ],
      [
        "▁mouth",
        -8.76021378434386
      ],
      [
        "▁bak",
        -9.469875784274445
      ],
      [
        "▁0590",
        -13.23014613029047
      ],
      [
        "rry",
        -8.830956450210099
      ],
      [
        "▁03:3",
        -13.301144353011438
      ],
      [
        "aid",
        -8.675523347433577
      ],
      [
        "▁option",
        -8.623554416691988
      ],
      [
        "ict",
        -9.276167643000434
      ],
      [
        "gan",
        -8.109000240996838
      ],
      [
        "▁minute",
        -7.905442774991222
      ],
      [
        "1/2",
        -11.18934658260106
      ],
      [
        "-66",
        -14.128816852154578
      ],
      [
        "▁further",
        -8.605281261656483
      ],
      [
        "&",
        -8.721264882567068
      ],
      [
        "dden",
        -9.321967803572306
      ],
      [
        "317",
        -12.522027844751664
      ],
      [
        "▁reasonabl",
        -9.426903967162524
      ],
      [
        "▁winter",
        -9.064270977641193
      ],
      [
        "▁bed",
        -8.361339988649739
      ],
      [
        "▁us",
        -9.506253679050264
      ],
      [
        "▁230",
        -11.64354903219914
      ],
      [
        "ment",
        -9.51561824584022
      ],
      [
        "▁za",
        -9.20571539012046
      ],
      [
        "▁mc",
        -9.273195485861415
      ],
      [
        "▁wild",
        -9.20355195540764
      ],
      [
        "▁505",
        -12.496806499314392
      ],
      [
        "▁sport",
        -9.482010940174446
      ],
      [
        "▁women",
        -8.495010013463414
      ],
      [
        "859",
        -12.901515156474916
      ],
      [
        "▁2.",
        -12.031407598511363
      ],
      [
        "ur",
        -6.955957959426385
      ],
      [
        "19-2",
        -14.135609393524858
      ],
      [
        "!!!!!!!!!!",
        -11.520021148139234
      ],
      [
        "ib",
        -9.100983143059237
      ],
      [
        "▁kitt",
        -8.9678306199308
      ],
      [
        "==",
        -10.802124173760925
      ],
      [
        "port",
        -9.347758820682474
      ],
      [
        "▁hel",
        -8.846873611125114
      ],
      [
        "▁earth",
        -8.740105103077068
      ],
      [
        "3",
        -9.772266817123711
      ],
      [
        "▁know",
        -5.8386010447971275
      ],
      [
        "▁08:3",
        -12.515232474275917
      ],
      [
        "368",
        -12.773220836068143
      ],
      [
        "▁help",
        -6.983886387995889
      ],
      [
        "ove",
        -12.445527802350513
      ],
      [
        "▁whom",
        -9.933139747952437
      ],
      [
        "res",
        -11.577153767094355
      ],
      [
        "▁resource",
        -9.250270440065396
      ],
      [
        "do",
        -9.846160357156576
      ],
      [
        "/26/",
        -14.189086006831161
      ],
      [
        "29.",
        -13.145976147055816
      ],
      [
        "▁fly",
        -7.365909748512782
      ],
      [
        "ut",
        -7.568379116798129
      ],
      [
        "▁please",
        -6.655538084228438
      ],
      [
        "▁office",
        -7.914370879502324
      ],
      [
        "0.00",
        -12.093399042272235
      ],
      [
        "▁25",
        -9.47633880356933
      ],
      [
        "▁minne",
        -9.064856351970967
      ],
      [
        "where",
        -8.07270090250436
      ],
      [
        "▁studie",
        -8.719265601142768
      ],
      [
        "▁another",
        -7.52354668913458
      ],
      [
        "▁reading",
        -9.227517744325745
      ],
      [
        "▁seattle",
        -8.623395706754758
      ],
      [
        "687",
        -12.508169247228805
      ],
      [
        "▁05908",
        -14.137857475199201
      ],
      [
        "59",
        -12.012136318615285
      ],
      [
        "3:5",
        -14.208247099564232
      ],
      [
        "▁human",
        -8.05500121114977
      ],
      [
        "▁09/",
        -14.713481892351869
      ],
      [
        "▁24.",
        -14.394829616307645
      ],
      [
        "▁have",
        -5.4959495817174115
      ],
      [
        "▁sevent",
        -8.689448320450783
      ],
      [
        "▁power",
        -8.151682927716848
      ],
      [
        "/08",
        -13.1520347351975
      ],
      [
        "▁potential",
        -9.267511628304085
      ],
      [
        "▁north",
        -8.235852191569847
      ],
      [
        "▁46",
        -11.362534726783958
      ],
      [
        "149",
        -13.721615169170054
      ],
      [
        "el",
        -7.249964921174018
      ],
      [
        "▁cu",
        -9.09412309501462
      ],
      [
        "1-",
        -13.88331746913178
      ],
      [
        "▁inc",
        -8.725250090019681
      ],
      [
        "▁hour",
        -7.9153170672210775
      ],
      [
        "▁80",
        -10.64119910423305
      ],
      [
        "..",
        -11.613151332723893
      ],
      [
        "ward",
        -11.834056055878488
      ],
      [
        "▁word",
        -8.372734462772268
      ],
      [
        "▁jose",
        -8.957217217278583
      ],
      [
        "/16/200",
        -11.522972034904177
      ],
      [
        "abou",
        -9.432236889204198
      ],
      [
        "▁teacher",
        -9.008519634225074
      ],
      [
        "--",
        -6.730423465345394
      ],
      [
        "▁main",
        -8.281627675159033
      ],
      [
        "nasa",
        -9.21089138090376
      ],
      [
        "324",
        -13.101879675234535
      ],
      [
        "▁perfect",
        -8.894458389270973
      ],
      [
        "96",
        -11.613919797726455
      ],
      [
        "▁india",
        -8.65595177376565
      ],
      [
        "▁brain",
        -9.268975673971518
      ],
      [
        "▁american",
        -7.215073173516176
      ],
      [
        "ated",
        -8.144173628033563
      ],
      [
        "▁conc",
        -9.097007757390234
      ],
      [
        "▁suit",
        -9.283135083341413
      ],
      [
        "▁na",
        -11.357453840286972
      ],
      [
        "▁busy",
        -8.967659238411786
      ],
      [
        "au",
        -8.582904875973966
      ],
      [
        "▁07:5",
        -13.366398234128265
      ],
      [
        "▁the",
        -3.2262610317436575
      ],
      [
        "▁!!!!",
        -9.884799963893974
      ],
      [
        "▁05:0",
        -13.188630233891784
      ],
      [
        "44",
        -11.598422574296848
      ],
      [
        "▁airline",
        -7.07239081940001
      ],
      [
        "-------------",
        -10.204800430093533
      ],
      [
        "▁feature",
        -9.417325303551873
      ],
      [
        "ng",
        -7.3269460566366735
      ],
      [
        "▁theor",
        -8.761149241215318
      ],
      [
        "▁god",
        -9.310029383370296
      ],
      [
        "/21/200",
        -13.001555604525423
      ],
      [
        "▁class",
        -7.414190070167843
      ],
      [
        "hos",
        -10.117195108246431
      ],
      [
        "▁law",
        -8.035899628937763
      ],
      [
        "▁code",
        -8.70120038326068
      ],
      [
        "▁individual",
        -9.00850253091054
      ],
      [
        "▁ride",
        -8.46129924539912
      ],
      [
        "▁corner",
        -9.200605827196565
      ],
      [
        "ur",
        -10.506677442453604
      ],
      [
        "▁wa",
        -11.753053668244322
      ],
      [
        "▁67",
        -11.6889463992993
      ],
      [
        "58",
        -11.951611418715437
      ],
      [
        "▁there",
        -6.214826447307164
      ],
      [
        "▁dis",
        -7.639820818334893
      ],
      [
        "▁boy",
        -8.154039556316736
      ],
      [
        "e",
        -3.1746558395188593
      ],
      [
        "▁1327",
        -13.139428332926997
      ],
      [
        "dr.",
        -9.286317515084317
      ],
      [
        "▁419",
        -13.991564203358172
      ],
      [
        "▁answer",
        -8.381243890602553
      ],
      [
        "▁how",
        -8.861903242976682
      ],
      [
        "▁405",
        -13.318467009434519
      ],
      [
        "3/4",
        -12.323964283376021
      ],
      [
        "▁relationship",
        -9.377712092116527
      ],
      [
        "▁199",
        -8.832557886515348
      ],
      [
        "▁anyway",
        -8.871137879543582
      ],
      [
        "yond",
        -9.85779799892806
      ],
      [
        "▁twenty-f",
        -12.946639624578598
      ],
      [
        "▁88",
        -13.04942698006511
      ],
      [
        "whom",
        -13.147185253957925
      ],
      [
        "▁progress",
        -9.339613004894037
      ],
      [
        "you",
        -7.21641018486248
      ],
      [
        "3-3",
        -13.158791324548858
      ],
      [
        "ssi",
        -11.28931369261818
      ],
      [
        "▁sam",
        -7.230643045010177
      ],
      [
        "▁do",
        -6.7340541368657005
      ],
      [
        "▁713-",
        -11.018494241629348
      ],
      [
        "▁11/0",
        -12.309214898187184
      ],
      [
        "ere",
        -10.431743240538172
      ],
      [
        "▁strong",
        -8.325570007715264
      ],
      [
        "▁cross",
        -8.882601384987058
      ],
      [
        "▁12/26/200",
        -12.666535639137336
      ],
      [
        "▁event",
        -8.40516820807451
      ],
      [
        "▁request",
        -8.651163529484808
      ],
      [
        "▁pr",
        -9.426108997092989
      ],
      [
        "▁out",
        -6.916244102671383
      ],
      [
        "nab",
        -11.450820924465399
      ],
      [
        "▁$",
        -8.88609295041069
      ],
      [
        "0-2",
        -13.137095825369885
      ],
      [
        "▁distribut",
        -9.377711646729809
      ],
      [
        "▁structure",
        -9.063688071770727
      ],
      [
        "▁citizens",
        -9.216606301738512
      ],
      [
        "▁ti",
        -8.516038583366363
      ],
      [
        "▁spring",
        -9.417726066853291
      ],
      [
        "ance",
        -7.743258533235753
      ],
      [
        "ness",
        -7.710406897402903
      ],
      [
        "kept",
        -8.816366762532649
      ],
      [
        "▁russian",
        -9.424099899491628
      ],
      [
        "15/200",
        -14.513831683276635
      ],
      [
        "▁mem",
        -8.784776181654262
      ],
      [
        "202.6",
        -12.915949819819229
      ],
      [
        "▁10.9",
        -13.49551542024026
      ],
      [
        "▁sh",
        -10.592138988891902
      ],
      [
        "▁where",
        -8.802452388749018
      ],
      [
        "/29/200",
        -13.527257651397825
      ],
      [
        "▁above",
        -9.321117826801457
      ],
      [
        "36",
        -11.65262285376474
      ],
      [
        "▁121",
        -14.581591867325715
      ],
      [
        "▁kh",
        -11.834523457572555
      ],
      [
        "▁154",
        -12.837464354786793
      ],
      [
        "29",
        -11.000795650078885
      ],
      [
        "sixt",
        -14.516672584551015
      ],
      [
        "▁movement",
        -9.401028900958268
      ],
      [
        "tw",
        -10.822631328216058
      ],
      [
        "▁matter",
        -8.410777112056357
      ],
      [
        "▁more",
        -6.1315232630622525
      ],
      [
        "▁concept",
        -9.184220755485649
      ],
      [
        "-33",
        -14.126752647604532
      ],
      [
        "▁185",
        -11.266486185287963
      ],
      [
        "▁actual",
        -7.776133301890357
      ],
      [
        "5/",
        -12.852576072044881
      ],
      [
        "▁mi",
        -7.584595903015035
      ],
      [
        "794",
        -15.05311632631664
      ],
      [
        "▁03:5",
        -12.716987644101394
      ],
      [
        "rench",
        -8.763932936891987
      ],
      [
        "▁award",
        -9.48364079216216
      ],
      [
        "te",
        -8.20015406475958
      ],
      [
        "-004",
        -14.199300681685395
      ],
      [
        "▁rec",
        -8.871032993191388
      ],
      [
        "side",
        -8.765355711292926
      ],
      [
        "x",
        -10.14291768608771
      ],
      [
        "▁k",
        -11.02216081974675
      ],
      [
        "937",
        -13.65420762076587
      ],
      [
        "▁460",
        -13.649907694200532
      ],
      [
        "▁video",
        -8.802967022553728
      ],
      [
        "▁+45",
        -12.642880847425277
      ],
      [
        "▁bo",
        -6.041901389493599
      ],
      [
        "▁wood",
        -9.264582684763639
      ],
      [
        "tic",
        -7.550327470381054
      ],
      [
        "▁to",
        -8.298286431205746
      ],
      [
        "▁425-415-30",
        -13.13677057933544
      ],
      [
        ":00:5",
        -13.430406807019484
      ],
      [
        "▁!",
        -6.755596490218561
      ],
      [
        "mu",
        -12.904897371489005
      ],
      [
        "▁ca",
        -5.9021396961811305
      ],
      [
        "▁91",
        -13.654755750579634
      ],
      [
        "▁gentl",
        -9.46114334349636
      ],
      [
        "▁jan",
        -9.415534310511546
      ],
      [
        "▁receiv",
        -9.148245788328587
      ],
      [
        "gue",
        -9.318209955335478
      ],
      [
        "100,000",
        -15.487655502934642
      ],
      [
        "▁pe",
        -9.603703697944885
      ],
      [
        "ember",
        -7.636829375397408
      ],
      [
        "▁california",
        -8.813954225277671
      ],
      [
        "ag",
        -12.393280713458324
      ],
      [
        "▁335",
        -13.289610428496676
      ],
      [
        "▁hang",
        -9.123277165185142
      ],
      [
        "able",
        -7.157157010501145
      ],
      [
        "row",
        -9.080148648220087
      ],
      [
        "▁related",
        -9.1914645419112
      ],
      [
        "78",
        -11.48576980660741
      ],
      [
        "▁content",
        -9.10721222081299
      ],
      [
        "▁b",
        -10.167201760957562
      ],
      [
        "▁wh",
        -11.334780390968685
      ],
      [
        "▁my",
        -5.717040750618234
      ],
      [
        "▁_",
        -7.489743914877711
      ],
      [
        "▁*",
        -9.609198289345132
      ],
      [
        "▁2.2",
        -11.833956366586506
      ],
      [
        "ping",
        -8.903447818100233
      ],
      [
        "▁713-853-30",
        -12.918016569717029
      ],
      [
        "▁8:3",
        -12.739873861330425
      ],
      [
        "▁factor",
        -9.0982068712566
      ],
      [
        "z",
        -6.89844985978736
      ],
      [
        "▁flight",
        -5.136349125816862
      ],
      [
        "kin",
        -9.147166564881266
      ],
      [
        "▁may",
        -7.223659519644931
      ],
      [
        "▁be",
        -6.72439312816767
      ],
      [
        "is",
        -7.5887397610774014
      ],
      [
        "986",
        -15.106985701431281
      ],
      [
        "▁raise",
        -9.178604369341468
      ],
      [
        "25",
        -10.167856393966186
      ],
      [
        "▁a",
        -6.41956880040983
      ],
      [
        "▁th",
        -8.06111723820036
      ],
      [
        "▁fantas",
        -9.479892101171222
      ],
      [
        "▁#",
        -13.65519821920551
      ],
      [
        "▁think",
        -6.2775394205840644
      ],
      [
        "▁tank",
        -9.138322846520843
      ],
      [
        "858",
        -14.142649939049774
      ],
      [
        "ough",
        -8.427482906163835
      ],
      [
        "is",
        -6.826998565267504
      ],
      [
        "1",
        -7.860746011381011
      ],
      [
        "‘",
        -14.136770579354708
      ],
      [
        "▁welcome",
        -9.267528089630378
      ],
      [
        "▁223",
        -13.579519920084984
      ],
      [
        "▁16,",
        -14.139170133244486
      ],
      [
        "▁usual",
        -8.388843450976976
      ],
      [
        "3",
        -8.118052244684284
      ],
      [
        "▁bath",
        -9.296536345309237
      ],
      [
        "▁touch",
        -8.64250328341635
      ],
      [
        "22",
        -10.750684418784664
      ],
      [
        "▁da",
        -13.348798848459843
      ],
      [
        "q",
        -15.518065406639655
      ],
      [
        "w",
        -10.535206273216964
      ],
      [
        "▁95",
        -12.338386007555426
      ],
      [
        "▁56",
        -12.820438180065187
      ],
      [
        "6/",
        -13.566124420789025
      ],
      [
        "g",
        -6.298432668733279
      ],
      [
        "h",
        -9.117748607228467
      ],
      [
        "▁as",
        -8.425093425843386
      ],
      [
        "▁way",
        -6.527088376330731
      ],
      [
        "▁london",
        -8.825065854796387
      ],
      [
        "▁president",
        -7.807897979675757
      ],
      [
        "thi",
        -7.4687070885228275
      ],
      [
        "▁health",
        -8.30534786022669
      ],
      [
        "▁summer",
        -8.709153044372451
      ],
      [
        "947",
        -13.616937605241425
      ],
      [
        "▁193",
        -11.572276976136822
      ],
      [
        "▁police",
        -8.9005317680487
      ],
      [
        "▁atlant",
        -6.805338604026212
      ],
      [
        "oc",
        -9.067274792690018
      ],
      [
        ",",
        -14.062328514601077
      ],
      [
        "▁fact",
        -7.982333429154999
      ],
      [
        "-----",
        -11.828237302032942
      ],
      [
        "▁wil",
        -9.233489701380492
      ],
      [
        "4",
        -7.806431209066835
      ],
      [
        "▁claim",
        -8.561911248881556
      ],
      [
        "---------------",
        -9.308357502044146
      ],
      [
        "217",
        -12.045355337881084
      ],
      [
        "▁filter",
        -8.739688769446293
      ],
      [
        "▁circle",
        -9.189127684803037
      ],
      [
        "▁success",
        -9.32064187955278
      ],
      [
        "▁attempt",
        -8.847664937528982
      ],
      [
        "389",
        -14.104025639813528
      ],
      [
        "▁recommend",
        -8.180572435767731
      ],
      [
        "▁impact",
        -9.302912664056727
      ],
      [
        "am",
        -12.966085211699605
      ],
      [
        "▁bet",
        -9.198266971612888
      ],
      [
        "▁dinosaur",
        -8.995169199150652
      ],
      [
        "an@",
        -11.833734850128128
      ],
      [
        "▁camel",
        -9.379739393185362
      ],
      [
        "▁are",
        -7.251485683306448
      ],
      [
        "▁hard",
        -7.741128957604254
      ],
      [
        "1.0",
        -14.848236296224862
      ],
      [
        "~",
        -9.582223498820056
      ],
      [
        "p",
        -5.823333045741625
      ],
      [
        "$",
        -13.701907056799467
      ],
      [
        "47",
        -11.295163113814404
      ],
      [
        "▁pan",
        -8.578623874468914
      ],
      [
        "▁chi",
        -11.906643426785514
      ],
      [
        "32",
        -11.669857894312882
      ],
      [
        "▁van",
        -9.229292720810951
      ],
      [
        "hap",
        -8.574613792161852
      ],
      [
        "k",
        -6.07052918093751
      ],
      [
        "▁pass",
        -8.122029868508768
      ],
      [
        "842",
        -12.352497377056995
      ],
      [
        "▁sky",
        -8.995728439981796
      ],
      [
        "▁trouble",
        -8.918699870505282
      ],
      [
        "▁345",
        -12.680343372250727
      ],
      [
        "▁broke",
        -8.253555233306392
      ],
      [
        "4-3",
        -14.138263700674802
      ],
      [
        "!!!!!!",
        -10.851202100899231
      ],
      [
        "▁/",
        -8.874696097338479
      ],
      [
        "▁accept",
        -8.5359902248609
      ],
      [
        "▁281-518-",
        -13.136774397976367
      ],
      [
        "▁alon",
        -8.69157456885372
      ],
      [
        "17",
        -10.530853205999772
      ],
      [
        "▁solution",
        -9.233321323753191
      ],
      [
        "re",
        -7.418210813944742
      ],
      [
        "▁fe",
        -8.376142166383673
      ],
      [
        "b",
        -5.330992993415272
      ],
      [
        "▁35",
        -10.996138419717752
      ],
      [
        "y",
        -9.961283824744118
      ],
      [
        "▁mari",
        -11.608463054468066
      ],
      [
        "▁perform",
        -9.267428060819281
      ],
      [
        "▁h",
        -9.927331136986188
      ],
      [
        "▁school",
        -7.306817209297453
      ],
      [
        "▁light",
        -7.62955350800621
      ],
      [
        "....",
        -10.495299798696006
      ],
      [
        "▁effort",
        -8.709147316691249
      ],
      [
        "▁some",
        -6.347888441191562
      ],
      [
        "ria",
        -11.73691810135671
      ],
      [
        "no",
        -10.6955255510563
      ],
      [
        "▁create",
        -8.462202658961118
      ],
      [
        "/31/200",
        -14.531245091965793
      ],
      [
        "gen",
        -8.8430279038182
      ],
      [
        "▁wine",
        -9.074356694013225
      ],
      [
        "▁green",
        -8.228646246075812
      ],
      [
        "wa",
        -14.382662615359285
      ],
      [
        "----------------",
        -8.665339290745422
      ],
      [
        "ies",
        -6.245779430837091
      ],
      [
        "▁kitchen",
        -9.216655118434673
      ],
      [
        "▁wash",
        -8.717640736864398
      ],
      [
        "▁stor",
        -8.944989070975224
      ],
      [
        "▁taco",
        -9.129668645108985
      ],
      [
        "▁machine",
        -9.267515509682298
      ],
      [
        "co",
        -7.773169134294321
      ],
      [
        "▁415",
        -11.580934565539748
      ],
      [
        ".16",
        -14.099913540792532
      ],
      [
        "▁min",
        -12.218398821156088
      ],
      [
        "ter",
        -10.432873965842234
      ],
      [
        "▁bread",
        -9.10729183071847
      ],
      [
        "▁300",
        -10.870247792781871
      ],
      [
        "p",
        -9.077018352588304
      ],
      [
        "time",
        -8.626117387688064
      ],
      [
        "▁detr",
        -9.128859693135635
      ],
      [
        "▁standards",
        -9.357858980849077
      ],
      [
        "▁11:1",
        -14.098589520058274
      ],
      [
        "*",
        -8.451504526190723
      ],
      [
        "▁real",
        -6.5151216019782785
      ],
      [
        "▁process",
        -7.9793762822565535
      ],
      [
        "▁snake",
        -9.479843065123577
      ],
      [
        "▁get",
        -5.830814678986002
      ],
      [
        "ley",
        -8.522898140273712
      ],
      [
        "et",
        -10.675836850049606
      ],
      [
        "er",
        -10.869329306103351
      ],
      [
        "▁ski",
        -9.196183477616517
      ],
      [
        "ww",
        -11.333822930986164
      ],
      [
        "▁hell",
        -8.674321740884157
      ],
      [
        "▁region",
        -8.855094648305988
      ],
      [
        "▁m",
        -6.894612805083697
      ],
      [
        "tar",
        -9.390873903757038
      ],
      [
        "713",
        -13.11923726866352
      ],
      [
        "▁6:",
        -15.21017344784904
      ],
      [
        "48-",
        -13.886555118997332
      ],
      [
        "▁+1",
        -12.26268493713398
      ],
      [
        "▁06:2",
        -12.823132787264766
      ],
      [
        "888",
        -14.243603115788291
      ],
      [
        "▁09",
        -12.321597955198031
      ],
      [
        "6",
        -8.138127856803997
      ],
      [
        ":50",
        -14.104129210442572
      ],
      [
        "range",
        -11.833816507855477
      ],
      [
        "▁nandaro",
        -11.378131439771892
      ],
      [
        "00:",
        -14.117195805228246
      ],
      [
        "3.30",
        -13.842287739511173
      ],
      [
        "at",
        -7.478415341971592
      ],
      [
        "▁modu",
        -11.333804758297122
      ],
      [
        "▁",
        -3.6523744629450494
      ],
      [
        "▁woman",
        -8.596368750148525
      ],
      [
        "seven",
        -11.950148330680463
      ],
      [
        "▁for",
        -10.508521129987447
      ],
      [
        "▁di",
        -7.7538842683839295
      ],
      [
        "ler",
        -8.87583806281549
      ],
      [
        "ade",
        -9.148209155988177
      ],
      [
        ">>",
        -10.62399969170513
      ],
      [
        "▁vogelaviatiolap",
        -11.385101046274048
      ],
      [
        "▁under",
        -8.38744551198911
      ],
      [
        "_____________",
        -11.525029049914908
      ],
      [
        "▁hub",
        -11.366333878990952
      ],
      [
        "▁balloon",
        -9.458611226953288
      ],
      [
        "▁’",
        -10.228851442284377
      ],
      [
        "▁mo",
        -11.730657660372195
      ],
      [
        "▁hum",
        -9.44861141369288
      ],
      [
        "ro",
        -11.369268642045476
      ],
      [
        "how",
        -12.00020881905705
      ],
      [
        "2:3",
        -14.199321364264764
      ],
      [
        "▁head",
        -7.455726300054693
      ],
      [
        "▁manager",
        -9.207004879277694
      ],
      [
        "▁arab",
        -8.943645700470409
      ],
      [
        "▁congress",
        -9.184132047357963
      ],
      [
        "▁under",
        -7.820617230569183
      ],
      [
        "▁01/19/",
        -12.359978021860883
      ],
      [
        "mp",
        -7.778525514431886
      ],
      [
        "1-51",
        -14.136826951535193
      ],
      [
        "▁add",
        -7.952258815523314
      ],
      [
        "▁replace",
        -9.378756057119329
      ],
      [
        "wau",
        -8.160369840895928
      ],
      [
        "▁770",
        -13.561149847827563
      ],
      [
        "▁416-865-370",
        -12.667278132134355
      ],
      [
        "▁over",
        -7.317003890912327
      ],
      [
        "▁36",
        -11.01212807405217
      ],
      [
        "enron",
        -11.020742050745039
      ],
      [
        "▁ninety",
        -11.07772853787612
      ],
      [
        "uma",
        -10.957900631582513
      ],
      [
        "▁picture",
        -8.384252107684985
      ],
      [
        "janu",
        -9.012529184372063
      ],
      [
        "▁253",
        -12.845769189610536
      ],
      [
        "▁thank",
        -7.626103912347713
      ],
      [
        "▁low",
        -8.766600697148998
      ],
      [
        "▁thought",
        -7.600181039012372
      ],
      [
        "▁has",
        -6.935440177997949
      ],
      [
        ".1",
        -13.151530141619638
      ],
      [
        "▁853-",
        -14.134241513096976
      ],
      [
        "▁back",
        -6.541148634886516
      ],
      [
        "▁with",
        -5.2317098867092025
      ],
      [
        "▁01:09",
        -13.137174343487052
      ],
      [
        "▁ba",
        -11.474094207813557
      ],
      [
        "▁understand",
        -8.182545433918744
      ],
      [
        "▁boat",
        -8.650284950100126
      ],
      [
        "▁10/31/",
        -13.136852295825433
      ],
      [
        "▁3",
        -8.585018104094017
      ],
      [
        "▁6.",
        -13.152792151780694
      ],
      [
        "▁in",
        -10.559781155066872
      ],
      [
        "▁ra",
        -7.864630054001815
      ],
      [
        "▁case",
        -7.871649774993832
      ],
      [
        "ula",
        -8.41950516916785
      ],
      [
        "696",
        -12.743389716032905
      ],
      [
        "▁4.9",
        -12.967616918539465
      ],
      [
        "▁name",
        -7.0716855963416725
      ],
      [
        "▁interview",
        -8.906551488172934
      ],
      [
        "▁san",
        -6.352228974293977
      ],
      [
        "▁limit",
        -8.742638482598206
      ],
      [
        "----",
        -10.450866178525061
      ],
      [
        "▁bar",
        -8.07127331548027
      ],
      [
        "ation",
        -6.265723474904464
      ],
      [
        "yoursel",
        -12.14637731604893
      ],
      [
        "▁60",
        -10.413109585665811
      ],
      [
        "▁no-",
        -13.47376073561761
      ],
      [
        ",000",
        -9.14239492692628
      ],
      [
        "▁169",
        -11.526929689379745
      ],
      [
        "2-46",
        -13.18303338315813
      ],
      [
        ":13",
        -14.84515451780603
      ],
      [
        "▁connection",
        -8.690503634231328
      ],
      [
        "▁data",
        -7.774998910312055
      ],
      [
        "▁describe",
        -8.870787094035382
      ],
      [
        "ent",
        -7.250815205631113
      ],
      [
        "▁dinner",
        -8.253589716824997
      ],
      [
        "▁previous",
        -9.397320691123904
      ],
      [
        "▁will",
        -6.119805035457615
      ],
      [
        "/15/200",
        -11.71241481715062
      ],
      [
        "ans",
        -11.365661282671361
      ],
      [
        "oz",
        -13.096519113337363
      ],
      [
        "your",
        -8.818172243492093
      ],
      [
        "▁self",
        -8.906536943298097
      ],
      [
        "▁francisco",
        -6.619193229099071
      ],
      [
        "▁daughter",
        -9.137256604017562
      ],
      [
        "571",
        -14.156374722740878
      ],
      [
        "▁unique",
        -9.479845537755086
      ],
      [
        "▁united",
        -7.4462680663163185
      ],
      [
        "▁different",
        -7.6239247599848525
      ],
      [
        "▁pi",
        -9.098907352307265
      ],
      [
        "▁111",
        -12.80605270452926
      ],
      [
        "▁'s",
        -7.428631171175924
      ],
      [
        "▁1.",
        -11.516512236922686
      ],
      [
        "01",
        -10.693832161445869
      ],
      [
        "▁male",
        -9.469805161544851
      ],
      [
        "▁271",
        -13.991854088309573
      ],
      [
        "▁energy",
        -8.561415531862526
      ],
      [
        "▁rich",
        -9.399923998795046
      ],
      [
        "had",
        -7.888036462142847
      ],
      [
        "▁many",
        -6.905827656353488
      ],
      [
        "▁enron",
        -11.789098139055671
      ],
      [
        "▁read",
        -7.211497813274183
      ],
      [
        "▁hold",
        -8.153135701844763
      ],
      [
        "▁japane",
        -9.443014882361268
      ],
      [
        "3.0",
        -14.167747683965414
      ],
      [
        "▁888",
        -15.102084738941228
      ],
      [
        "▁los",
        -7.819550045855893
      ],
      [
        "▁magic",
        -9.092572860610453
      ],
      [
        "▁twa",
        -9.419144142525127
      ],
      [
        "▁second",
        -7.752874367135834
      ],
      [
        "▁210",
        -12.59373170075374
      ],
      [
        "▁put",
        -6.317205586011595
      ],
      [
        "▁perdu",
        -10.615085990278022
      ],
      [
        "ady",
        -7.7249351932103405
      ],
      [
        "▁is",
        -6.683859530650611
      ],
      [
        "ex",
        -9.281783810318018
      ],
      [
        "7/9",
        -12.765859434088394
      ],
      [
        "▁enter",
        -9.040646191921816
      ],
      [
        "▁tie",
        -8.871693403340057
      ],
      [
        ".",
        -1.4798978484674539
      ],
      [
        "▁control",
        -8.266257615497244
      ],
      [
        "l",
        -5.540654461374951
      ],
      [
        "▁tri",
        -8.028709916646665
      ],
      [
        "w",
        -6.6203213463547055
      ],
      [
        "374",
        -14.171634080521564
      ],
      [
        "▁416",
        -14.782803597790648
      ],
      [
        "▁shakespeare",
        -8.29872172303097
      ],
      [
        "▁[",
        -8.845600951931221
      ],
      [
        "▁dish",
        -9.44817447836777
      ],
      [
        "▁brit",
        -9.103986955656644
      ],
      [
        "ar",
        -8.96739030467699
      ],
      [
        "c",
        -6.053272481059237
      ],
      [
        "▁40",
        -10.154022803970175
      ],
      [
        "$",
        -6.573299397139614
      ],
      [
        "▁1996",
        -11.89624821019811
      ],
      [
        "▁164",
        -13.046176533905449
      ],
      [
        "wise",
        -9.084918910057237
      ],
      [
        "▁effective",
        -9.26900558070324
      ],
      [
        "▁set",
        -7.790878888423754
      ],
      [
        "▁f",
        -6.9327381540483435
      ],
      [
        "284",
        -14.231690287536495
      ],
      [
        "▁provide",
        -7.886120850260514
      ],
      [
        "▁so",
        -12.844909382572622
      ],
      [
        "▁memor",
        -8.98381816372248
      ],
      [
        "▁202.456.",
        -13.13539424992046
      ],
      [
        "d",
        -4.114341191525114
      ],
      [
        "not",
        -8.101082181027035
      ],
      [
        "▁park",
        -8.426853465573386
      ],
      [
        "id",
        -7.339463188296636
      ],
      [
        "▁2/",
        -14.396171217010773
      ],
      [
        "r",
        -9.397823026701388
      ],
      [
        "▁specific",
        -8.561417037768836
      ],
      [
        "▁guy",
        -7.799578142842089
      ],
      [
        "[CLS]",
        0.0
      ],
      [
        "▁172",
        -13.091313329777119
      ],
      [
        "trans",
        -10.240933231132955
      ],
      [
        "wa",
        -8.416591560051398
      ],
      [
        "▁building",
        -8.618208250147067
      ],
      [
        "▁184",
        -11.262160856172258
      ],
      [
        "▁7:",
        -14.019212079305508
      ],
      [
        "****",
        -11.720199025079861
      ],
      [
        "today",
        -7.258309210528479
      ],
      [
        "▁05:3",
        -12.668251370718806
      ],
      [
        "an",
        -11.74871686222503
      ],
      [
        "ism",
        -8.03711856526732
      ],
      [
        "▁bear",
        -8.072137983948192
      ],
      [
        "▁island",
        -8.322916155942728
      ],
      [
        "▁father",
        -8.013536959243858
      ],
      [
        "-6",
        -12.344996043092538
      ],
      [
        "▁evidence",
        -9.339612961542674
      ],
      [
        "▁486",
        -12.653032614800075
      ],
      [
        "▁bus",
        -8.681572317858683
      ],
      [
        "/28/200",
        -11.29149863706367
      ],
      [
        "▁mac",
        -9.478362219903813
      ],
      [
        "▁programme",
        -8.969842060668357
      ],
      [
        "ification",
        -9.321985469496274
      ],
      [
        "▁look",
        -6.12907558336374
      ],
      [
        "age",
        -11.003488229021976
      ],
      [
        "▁license",
        -8.641815168893212
      ],
      [
        "▁pric",
        -10.191303320883982
      ],
      [
        "813",
        -12.636830846163312
      ],
      [
        "▁every",
        -9.104257892657138
      ],
      [
        "▁gun",
        -9.329251026728029
      ],
      [
        "06",
        -12.319308541197813
      ],
      [
        "o",
        -5.20564319553996
      ],
      [
        "▁make",
        -6.314691462261522
      ],
      [
        "ul",
        -7.561824814818441
      ],
      [
        "▁china",
        -8.425219458995343
      ],
      [
        "▁93",
        -12.90496554153962
      ],
      [
        "▁260",
        -13.873155210873321
      ],
      [
        "5:5",
        -15.21029726114531
      ],
      [
        "re",
        -9.464589152516979
      ],
      [
        "|",
        -9.70691813184516
      ],
      [
        "▁behavior",
        -9.47983758230112
      ],
      [
        "▁stillman",
        -9.095977626586404
      ],
      [
        "ie",
        -10.957348115487262
      ],
      [
        "2.1",
        -13.661571770770541
      ],
      [
        "43",
        -12.249869721942224
      ],
      [
        "▁method",
        -8.836302501055982
      ],
      [
        "6:00",
        -11.54136812453849
      ],
      [
        "▁186",
        -13.602023377258487
      ],
      [
        "▁until",
        -8.319056567480276
      ],
      [
        "stead",
        -8.280668333769004
      ],
      [
        "ut",
        -11.124828315595805
      ],
      [
        "▁fu",
        -10.818085774961895
      ],
      [
        "▁balzac",
        -8.605281244455934
      ],
      [
        "▁momm",
        -9.109018317258517
      ],
      [
        "▁temp",
        -9.250247604407392
      ],
      [
        "▁communit",
        -8.59636045923212
      ],
      [
        "▁thirty-",
        -12.337669254678353
      ],
      [
        "▁lack",
        -8.99542038412804
      ],
      [
        "▁population",
        -9.03571595590969
      ],
      [
        ".80",
        -14.353379162439051
      ],
      [
        "▁past",
        -8.374079492420163
      ],
      [
        "▁fight",
        -8.463797051937142
      ],
      [
        "▁agree",
        -8.640949134365048
      ],
      [
        "▁1.4",
        -12.362851284027002
      ],
      [
        "▁0.3",
        -13.34791874631892
      ],
      [
        "▁children",
        -8.11806198503027
      ],
      [
        "▁leg",
        -8.238585087274288
      ],
      [
        "▁inter",
        -8.460224282015062
      ],
      [
        "ior",
        -8.992303881116108
      ],
      [
        "cu",
        -8.714580363342135
      ],
      [
        "▁credit",
        -8.969039844600292
      ],
      [
        "▁amid",
        -11.533324385705859
      ],
      [
        "▁!!!!!!!",
        -11.688410197959811
      ],
      [
        "▁had",
        -6.524047177080444
      ],
      [
        "ka",
        -11.598593399000144
      ],
      [
        "ark",
        -8.34175492022032
      ],
      [
        "get",
        -11.632255918019082
      ],
      [
        "▁mia",
        -11.835498122457036
      ],
      [
        "▁floor",
        -8.410823350701234
      ],
      [
        "▁grand",
        -9.30151613728039
      ],
      [
        "▁poet",
        -9.290557250469165
      ],
      [
        "▁189",
        -11.15103278247761
      ],
      [
        "76",
        -11.504346634557045
      ],
      [
        "▁5.1",
        -13.468397919273812
      ],
      [
        "159",
        -14.034648351999111
      ],
      [
        "▁ninet",
        -11.980756886517543
      ],
      [
        "▁necessar",
        -8.870787332282031
      ],
      [
        "▁any",
        -6.499089214725912
      ],
      [
        "upper",
        -9.382230942187922
      ],
      [
        "inst",
        -8.311210208200965
      ],
      [
        "▁yea",
        -6.5535040027673785
      ],
      [
        "▁get",
        -9.018875979559912
      ],
      [
        "35",
        -11.398557063167647
      ],
      [
        "▁620-294-",
        -12.665389467361313
      ],
      [
        "▁mix",
        -9.02468437513701
      ],
      [
        "ow",
        -8.665562147318965
      ],
      [
        "which",
        -9.262264540950643
      ],
      [
        ".62",
        -13.211030304685309
      ],
      [
        "▁slow",
        -8.721176168855836
      ],
      [
        "▁terribl",
        -9.384530569014215
      ],
      [
        "110",
        -13.650665772775568
      ],
      [
        "`",
        -11.307802325334926
      ],
      [
        "▁great",
        -6.941734555124522
      ],
      [
        "▁step",
        -8.519195235183972
      ],
      [
        "41",
        -12.725585459944703
      ],
      [
        "mill",
        -12.402941211649514
      ],
      [
        "ner",
        -9.133533080036347
      ],
      [
        "▁college",
        -9.122098982749819
      ],
      [
        "▁key",
        -8.580191064805206
      ],
      [
        "6:5",
        -14.245778065733244
      ],
      [
        "/03",
        -14.34099684011953
      ],
      [
        "▁smell",
        -9.137267359189963
      ],
      [
        "ack",
        -8.254200762811369
      ],
      [
        "op",
        -10.788078321477654
      ],
      [
        "ville",
        -8.825174274258945
      ],
      [
        "f",
        -4.036213711664914
      ],
      [
        "▁texa",
        -8.719147810234265
      ],
      [
        "▁impos",
        -9.448644881637792
      ],
      [
        "97",
        -11.603342702020502
      ],
      [
        "auv",
        -11.33423327158392
      ],
      [
        "as",
        -9.405082315508245
      ],
      [
        "▁force",
        -8.226163264373266
      ],
      [
        "==============",
        -10.933782317407932
      ],
      [
        "▁sixt",
        -10.805887792387185
      ],
      [
        "▁tam",
        -8.641980672463568
      ],
      [
        "▁excellent",
        -8.68944334514774
      ],
      [
        "com",
        -8.514193136587101
      ],
      [
        "▁jo",
        -8.881615430799824
      ],
      [
        "▁participat",
        -9.233322340743845
      ],
      [
        "ara",
        -11.66586477604424
      ],
      [
        "aima",
        -9.127047648349816
      ],
      [
        "▁central",
        -9.200261268772064
      ],
      [
        "▁24",
        -9.636353922881266
      ],
      [
        "▁single",
        -9.050458117480591
      ],
      [
        "somethin",
        -10.193071307488484
      ],
      [
        "▁3,20",
        -14.285822218088654
      ],
      [
        "▁in",
        -6.438660467612769
      ],
      [
        "▁third",
        -8.587518582692862
      ],
      [
        "▁’",
        -8.643293563333359
      ],
      [
        "1/13/200",
        -13.410633610127514
      ],
      [
        "ir",
        -7.613886122212393
      ],
      [
        "▁pain",
        -9.049276137121005
      ],
      [
        "▁ham",
        -8.89793998266471
      ],
      [
        "▁lead",
        -8.480720858019971
      ],
      [
        "▁.",
        -6.116290613496916
      ],
      [
        "▁f",
        -14.121066608634775
      ],
      [
        "0981",
        -14.135593250866743
      ],
      [
        "▁flat",
        -9.453862856993137
      ],
      [
        "▁when",
        -6.546808709674238
      ],
      [
        "ed",
        -9.811572089528623
      ],
      [
        "ie",
        -7.400553069533788
      ],
      [
        "▁225",
        -12.177426783633818
      ],
      [
        "▁cha",
        -11.250268752536995
      ],
      [
        "ago",
        -8.145972882155217
      ],
      [
        "▁wha",
        -9.743228513517918
      ],
      [
        "▁315",
        -13.155477789292316
      ],
      [
        "ri",
        -7.1472767537524
      ],
      [
        "▁believe",
        -7.941718895976135
      ],
      [
        "▁fun",
        -8.237537716603986
      ],
      [
        "▁oil",
        -8.615610593247059
      ],
      [
        "▁306",
        -14.143148896271562
      ],
      [
        "___________",
        -10.848298036816363
      ],
      [
        ",10",
        -14.134301008475443
      ],
      [
        "▁180",
        -11.117175652875956
      ],
      [
        "▁laugh",
        -8.871818216869809
      ],
      [
        "be",
        -8.125530184423782
      ],
      [
        "ar",
        -6.807554330580583
      ],
      [
        "2:30",
        -12.60871249453827
      ],
      [
        "▁difference",
        -8.689471876169748
      ],
      [
        "z",
        -11.758838788587859
      ],
      [
        "▁companie",
        -9.358562124000589
      ],
      [
        "▁202-",
        -14.080987957304744
      ],
      [
        "▁05/0",
        -13.800770594177061
      ],
      [
        "▁absolute",
        -9.267511614295344
      ],
      [
        "▁mexic",
        -9.457496184890257
      ],
      [
        "8/200",
        -11.740197949817686
      ],
      [
        "msel",
        -12.496307117546552
      ],
      [
        "***************",
        -11.88101471954236
      ],
      [
        "▁wait",
        -7.701144037577289
      ],
      [
        "’",
        -7.123051210512561
      ],
      [
        "▁quit",
        -8.523315041221956
      ],
      [
        "▁529999",
        -13.136774160688278
      ],
      [
        "ked",
        -10.891497111084528
      ],
      [
        "2",
        -7.896452976926308
      ],
      [
        "▁blood",
        -9.13725217290082
      ],
      [
        "▁discuss",
        -8.630939875682813
      ],
      [
        "▁season",
        -9.340218801756295
      ],
      [
        "▁penn",
        -9.076588521702242
      ],
      [
        "▁wonder",
        -8.698905957585579
      ],
      [
        "▁point",
        -7.604953291364947
      ],
      [
        "▁vi",
        -8.399841972136993
      ],
      [
        "▁notice",
        -8.673246041336956
      ],
      [
        "iv",
        -8.364024096655701
      ],
      [
        "▁teeth",
        -9.397322206732
      ],
      [
        "▁fr",
        -10.153127594799269
      ],
      [
        "▁th",
        -5.884171476561597
      ],
      [
        "20-2",
        -13.170838406954257
      ],
      [
        "▁require",
        -8.622501118655226
      ],
      [
        "-20",
        -11.85227201413492
      ],
      [
        "▁plu",
        -9.317925974123064
      ],
      [
        "▁some",
        -8.474755848595636
      ],
      [
        "837",
        -14.148190312760422
      ],
      [
        "848",
        -14.227528089212953
      ],
      [
        "▁12/",
        -14.078541079163124
      ],
      [
        "88",
        -12.876593555634733
      ],
      [
        "/26/200",
        -11.340770759941888
      ],
      [
        "▁char",
        -7.8570960294075105
      ],
      [
        "▁care",
        -8.24898159500623
      ],
      [
        "bur",
        -8.79975279610553
      ],
      [
        "▁tol",
        -7.606090584739393
      ],
      [
        "▁fundamental",
        -9.321094573193804
      ],
      [
        "rice",
        -11.031928129019633
      ],
      [
        "▁benefit",
        -8.956203834511658
      ],
      [
        "▁12:4",
        -13.516124200810152
      ],
      [
        "▁fell",
        -8.780107843904094
      ],
      [
        "00",
        -9.442479071316287
      ],
      [
        "▁soft",
        -9.123359489771174
      ],
      [
        "▁bone",
        -9.445336473516054
      ],
      [
        "▁sophie",
        -9.47985344197593
      ],
      [
        "▁co",
        -11.082967748862703
      ],
      [
        "5:1",
        -12.952843723349199
      ],
      [
        "▁russia",
        -9.451554106252452
      ],
      [
        "84",
        -12.264908599423453
      ],
      [
        "▁bottom",
        -9.168259628896372
      ],
      [
        "▁yellow",
        -8.709187613460625
      ],
      [
        "▁sound",
        -8.326542185238385
      ],
      [
        "▁station",
        -8.811991768344281
      ],
      [
        "▁n'",
        -6.273185656304505
      ],
      [
        "1602",
        -12.75286170753208
      ],
      [
        "aden",
        -11.83580841930351
      ],
      [
        "▁manage",
        -8.823299682193202
      ],
      [
        "ition",
        -9.127816098095735
      ],
      [
        "▁til",
        -14.239400027983454
      ],
      [
        "▁square",
        -8.749761878767426
      ],
      [
        "▁54",
        -11.691610356896991
      ],
      [
        "!!!",
        -8.800632584710378
      ],
      [
        "▁mi",
        -11.290189893230615
      ],
      [
        "nature",
        -9.208546941985718
      ],
      [
        "▁living",
        -8.552926303116106
      ],
      [
        "▁somethin",
        -7.378481269236485
      ],
      [
        "z",
        -11.587180466242845
      ],
      [
        "▁sorr",
        -8.698408973198058
      ],
      [
        "arra",
        -9.41971987481436
      ],
      [
        "190",
        -13.810053399207337
      ],
      [
        "▁!!!!!!!!!!",
        -11.698363094807423
      ],
      [
        "▁978",
        -14.088774827596918
      ],
      [
        "nver",
        -6.54317598155825
      ],
      [
        "▁view",
        -8.020850858852471
      ],
      [
        "▁61",
        -11.866436017991857
      ],
      [
        "▁02",
        -12.852745059953298
      ],
      [
        "▁64.",
        -14.236755398932868
      ],
      [
        "▁row",
        -9.459549204836996
      ],
      [
        "▁lunch",
        -8.614299431243762
      ],
      [
        "▁deep",
        -8.91956535281555
      ],
      [
        "▁50",
        -9.85620643860546
      ],
      [
        "▁day",
        -6.593518791607409
      ],
      [
        "46-",
        -13.34130911049348
      ],
      [
        "▁author",
        -8.907924360174874
      ],
      [
        "▁someon",
        -8.389355761262244
      ],
      [
        "ca",
        -10.50055351711131
      ],
      [
        "zer",
        -9.125334413100273
      ],
      [
        "▁cheese",
        -8.918811434316616
      ],
      [
        "▁door",
        -8.127555876375599
      ],
      [
        "elve",
        -8.718995318874825
      ],
      [
        "!!!!",
        -9.691707156797474
      ],
      [
        "▁paris",
        -8.98383115688314
      ],
      [
        "^",
        -10.478257699563933
      ],
      [
        "uch",
        -7.73655434138152
      ],
      [
        "▁wind",
        -9.135769864530086
      ],
      [
        "▁201-",
        -14.09272654832999
      ],
      [
        "7",
        -9.838895927332633
      ],
      [
        "▁four",
        -8.194599694491092
      ],
      [
        "al",
        -9.879150985532643
      ],
      [
        "▁painting",
        -9.4657053033708
      ],
      [
        "▁moral",
        -8.762084221321375
      ],
      [
        "▁propos",
        -11.833816316062954
      ],
      [
        "▁was",
        -5.269250295583504
      ],
      [
        "▁give",
        -6.663791035394666
      ],
      [
        "▁yo",
        -11.72382369226988
      ],
      [
        "men",
        -8.86830705021744
      ],
      [
        "▁hu",
        -7.76748798687957
      ],
      [
        "▁pull",
        -8.440342531566156
      ],
      [
        "++++++",
        -11.00302849415197
      ],
      [
        "▁713-853-3",
        -10.96826864569135
      ],
      [
        "20,000",
        -13.372871885397519
      ],
      [
        "▁turn",
        -7.568144309718594
      ],
      [
        "▁respect",
        -8.689442727417958
      ],
      [
        "▁12:",
        -12.10116741158999
      ],
      [
        "drew",
        -9.48126616293213
      ],
      [
        "088",
        -14.609238966070613
      ],
      [
        "▁big",
        -7.060017274274957
      ],
      [
        "▁4",
        -9.98122661536941
      ],
      [
        "9/11",
        -11.116867274471282
      ],
      [
        "ster",
        -11.33481441047147
      ],
      [
        "▁814.863.",
        -13.136770579314764
      ],
      [
        "6-",
        -13.674574631379441
      ],
      [
        "▁$",
        -13.370188823105778
      ],
      [
        "▁718-780-0",
        -13.13677057931521
      ],
      [
        "040",
        -14.25756983765908
      ],
      [
        "aught",
        -9.216016350606036
      ],
      [
        "hal",
        -12.11520426761416
      ],
      [
        "q",
        -8.829264080064538
      ],
      [
        "log",
        -8.68425214310804
      ],
      [
        "[SEP]",
        0.0
      ],
      [
        "▁cat",
        -7.885527890535575
      ],
      [
        "▁1.0",
        -13.891586422040152
      ],
      [
        "▁august",
        -8.339131121506128
      ],
      [
        "▁committee",
        -9.039404905147741
      ],
      [
        "▁dat",
        -8.891943523212507
      ],
      [
        "igh",
        -12.634214216105145
      ],
      [
        "▁skill",
        -9.267886954774836
      ],
      [
        "1960",
        -11.315720686444237
      ],
      [
        "▁abo",
        -9.942026802887208
      ],
      [
        "▁sudden",
        -9.28545983996325
      ],
      [
        "▁rule",
        -8.475953020631302
      ],
      [
        "▁activit",
        -8.689452500007516
      ],
      [
        "▁wish",
        -8.772867135140299
      ],
      [
        "nte",
        -11.329980172230284
      ],
      [
        "▁user",
        -9.218026813084805
      ],
      [
        "▁well",
        -6.467894724136595
      ],
      [
        "▁site",
        -8.614808128189024
      ],
      [
        "▁shop",
        -8.716554426331921
      ],
      [
        "▁website",
        -8.894472591396134
      ],
      [
        "▁bu",
        -5.83388619210857
      ],
      [
        "▁mar",
        -8.230179774128711
      ],
      [
        "ac",
        -7.671151142865233
      ],
      [
        "373",
        -11.658286692588113
      ],
      [
        "▁de",
        -9.38426533896157
      ],
      [
        "-8",
        -12.581491700602657
      ],
      [
        "▁less",
        -8.205940347737272
      ],
      [
        "▁to",
        -6.35662362462921
      ],
      [
        "▁represent",
        -8.995163382684641
      ],
      [
        "one",
        -10.618925815360097
      ],
      [
        "▁jump",
        -8.792110093993298
      ],
      [
        "6.1",
        -12.319184560544816
      ],
      [
        "90",
        -11.556925731215681
      ],
      [
        "-84",
        -13.610000242966729
      ],
      [
        "▁cash",
        -9.399326700659087
      ],
      [
        "▁x",
        -8.812121397259162
      ],
      [
        "▁horsie",
        -9.008507360296054
      ],
      [
        "25-",
        -13.398557885729506
      ],
      [
        "▁general",
        -8.05922773660982
      ],
      [
        "▁cap",
        -8.94143861342624
      ],
      [
        ":00",
        -9.712247828919523
      ],
      [
        "9/11/",
        -14.264817947757411
      ],
      [
        "\\",
        -11.833785825435129
      ],
      [
        "usi",
        -10.751881598698496
      ],
      [
        "▁glad",
        -9.377900272341552
      ],
      [
        "?????",
        -11.077398246995248
      ],
      [
        "▁common",
        -8.410505660944114
      ],
      [
        "uck",
        -8.843088058298655
      ],
      [
        "▁ho",
        -8.029852649326275
      ],
      [
        "▁26",
        -10.232134791583128
      ],
      [
        "▁dere",
        -8.285152503504102
      ],
      [
        "▁cha",
        -8.130208949414817
      ],
      [
        "ua",
        -8.940988300689032
      ],
      [
        "9025",
        -13.941520505513104
      ],
      [
        "one",
        -8.564066777187826
      ],
      [
        "▁purpose",
        -9.122097794115689
      ],
      [
        "▁suffer",
        -9.184148656214123
      ],
      [
        "33",
        -11.518810232972719
      ],
      [
        "il",
        -6.945403971323209
      ],
      [
        "3.8",
        -12.702689943172382
      ],
      [
        "▁01/2",
        -13.142620214681031
      ],
      [
        "▁96/",
        -13.462906433389357
      ],
      [
        "ennes",
        -11.4152029478778
      ],
      [
        "▁meet",
        -8.549044851524346
      ],
      [
        "▁o",
        -9.672946019114775
      ],
      [
        "▁forget",
        -9.216659896808451
      ],
      [
        "▁17,",
        -14.128355496279145
      ],
      [
        "▁sort",
        -8.642911609795206
      ],
      [
        "1:1",
        -14.344002145884028
      ],
      [
        "munic",
        -10.47263822377592
      ],
      [
        "ude",
        -11.343820274385248
      ],
      [
        "▁suggest",
        -8.697621377325529
      ],
      [
        "▁life",
        -7.423548496518455
      ],
      [
        "▁note",
        -8.668737389537004
      ],
      [
        "▁....",
        -10.491737081619904
      ],
      [
        "428",
        -13.59096394870987
      ],
      [
        "put",
        -9.465915930202085
      ],
      [
        "▁google",
        -9.285057413080235
      ],
      [
        "250",
        -13.491759104348043
      ],
      [
        "ext",
        -7.969855399548296
      ],
      [
        "ours",
        -13.891153374149832
      ],
      [
        "▁814",
        -13.626596620227598
      ],
      [
        "▁hop",
        -11.83466611609779
      ],
      [
        "▁28",
        -10.454550929746874
      ],
      [
        "142",
        -13.600140993251276
      ],
      [
        "▁si",
        -10.890988714903548
      ],
      [
        "▁iraq",
        -8.375385278747697
      ],
      [
        "what",
        -7.9954044867101235
      ],
      [
        "bec",
        -9.720690803025338
      ],
      [
        "]",
        -6.130793076695081
      ],
      [
        "▁east",
        -8.604034617263736
      ],
      [
        "▁dead",
        -8.488587797024856
      ],
      [
        "▁hug",
        -8.67323528094361
      ],
      [
        "▁poor",
        -8.664930276117861
      ],
      [
        "▁ac",
        -8.728495767194442
      ],
      [
        "▁bank",
        -9.008644020305056
      ],
      [
        "▁14",
        -9.756769856757689
      ],
      [
        "▁say",
        -6.528208512843558
      ],
      [
        "▁159",
        -10.436268207533201
      ],
      [
        "2.5",
        -13.146120449771661
      ],
      [
        "435",
        -13.081662452102297
      ],
      [
        "▁organization",
        -9.201277324931308
      ],
      [
        "▁camp",
        -8.871768595770135
      ],
      [
        "▁meal",
        -8.663911325144536
      ],
      [
        "▁so",
        -5.549549276191815
      ],
      [
        "–",
        -5.86425365958129
      ],
      [
        "▁sever",
        -8.042072041928103
      ],
      [
        "▁financial",
        -8.825065336762291
      ],
      [
        "▁703",
        -13.389617785203246
      ],
      [
        "1.8",
        -12.279299099288766
      ],
      [
        "270",
        -11.860042949136494
      ],
      [
        "6867",
        -13.1370270105642
      ],
      [
        "g",
        -6.096330494060684
      ],
      [
        "▁n",
        -11.765257504191936
      ],
      [
        "▁director",
        -9.401279684286717
      ],
      [
        "▁customer",
        -8.466936804475829
      ],
      [
        "mo",
        -11.05508503396024
      ],
      [
        "31",
        -11.692241147114807
      ],
      [
        "▁3.7",
        -12.773552462560504
      ],
      [
        "▁1030",
        -14.191480154345427
      ],
      [
        "▁kar",
        -9.146769146360793
      ],
      [
        "▁die",
        -7.918433343401409
      ],
      [
        "side",
        -8.896573886283262
      ],
      [
        "-90",
        -13.068844075328698
      ],
      [
        "▁car",
        -6.800361926803769
      ],
      [
        "919",
        -14.487614837274576
      ],
      [
        "cho",
        -11.18965547867573
      ],
      [
        "ung",
        -9.134990722333413
      ],
      [
        "28",
        -11.333881110935934
      ],
      [
        "70",
        -11.821631001181983
      ],
      [
        "20",
        -9.664350029724119
      ],
      [
        "▁produce",
        -8.641814921981414
      ],
      [
        "▁confirm",
        -9.250270258832138
      ],
      [
        "▁locate",
        -9.437937709866972
      ],
      [
        "/15/",
        -14.272112498480151
      ],
      [
        "▁fo",
        -8.84266740213289
      ],
      [
        "lta",
        -8.506766985088582
      ],
      [
        "▁works",
        -9.140894629748715
      ],
      [
        "▁flo",
        -9.474934652357481
      ],
      [
        "▁not",
        -5.826808915645819
      ],
      [
        "▁forty-",
        -12.336962208317317
      ],
      [
        "“",
        -6.515170392843602
      ],
      [
        "▁thu",
        -9.15758095789115
      ],
      [
        "0",
        -8.460475786846803
      ],
      [
        "ship",
        -8.619687396246928
      ],
      [
        "▁qu",
        -9.977230063862478
      ],
      [
        "▁um",
        -7.036908117612678
      ],
      [
        "▁120",
        -10.933966636273306
      ],
      [
        "2-3",
        -14.137626843077042
      ],
      [
        "▁home",
        -7.1488454127664465
      ],
      [
        "▁daily",
        -8.709479327931547
      ],
      [
        "▁unl",
        -9.680113489348734
      ],
      [
        "▁cry",
        -9.085279096331417
      ],
      [
        "▁militar",
        -8.552935495445297
      ],
      [
        "--------",
        -11.160764127950657
      ],
      [
        "▁joke",
        -8.80331203934848
      ],
      [
        "▁foreign",
        -9.152700024442904
      ],
      [
        "130",
        -14.874720468683947
      ],
      [
        "▁sa",
        -8.263256492080124
      ],
      [
        "▁performance",
        -9.378202111891431
      ],
      [
        "tu",
        -11.618331073044228
      ],
      [
        "▁sometime",
        -8.151800219674463
      ],
      [
        "la",
        -10.26981702219517
      ],
      [
        "go",
        -10.366859053500344
      ],
      [
        ".78",
        -14.47481841691544
      ],
      [
        "est",
        -7.263865436841473
      ],
      [
        "▁ar",
        -8.594442661632574
      ],
      [
        "707",
        -13.147084992139547
      ],
      [
        "▁jun",
        -8.165593633123196
      ],
      [
        "▁month",
        -7.661263725797661
      ],
      [
        "▁follow",
        -8.257495573670635
      ],
      [
        "▁nose",
        -8.727774450963967
      ],
      [
        "▁fear",
        -9.21945258442145
      ],
      [
        "▁intend",
        -9.285147534024095
      ],
      [
        "▁woul",
        -6.090018846673981
      ],
      [
        "ere",
        -6.953201077980379
      ],
      [
        "09",
        -11.908274916734841
      ],
      [
        "md",
        -11.141550706240368
      ],
      [
        "-59",
        -13.070384567929212
      ],
      [
        "▁43",
        -12.118601240506226
      ],
      [
        "7",
        -8.305378306802192
      ],
      [
        "hich",
        -14.237104677914536
      ],
      [
        "▁un",
        -6.949505867999903
      ],
      [
        "▁ship",
        -8.853183430174466
      ],
      [
        "▁doggie",
        -8.67989770955515
      ],
      [
        "▁or",
        -9.076491273026875
      ],
      [
        "x",
        -7.389941655910622
      ],
      [
        "▁john",
        -8.269185049672727
      ],
      [
        "▁propert",
        -8.495621845838272
      ],
      [
        "on",
        -10.927554331646155
      ],
      [
        "▁kill",
        -8.50416958578235
      ],
      [
        "▁203.",
        -13.141448739224419
      ],
      [
        "nia",
        -9.260276999793712
      ],
      [
        "▁collect",
        -9.181638368721284
      ],
      [
        "cou",
        -7.440679466282132
      ],
      [
        "▁stay",
        -7.741700828550656
      ],
      [
        "81",
        -13.96535903970435
      ],
      [
        "▁count",
        -8.389434935915599
      ],
      [
        "233",
        -13.678237943553544
      ],
      [
        "2000",
        -9.70736640342331
      ],
      [
        "▁reason",
        -8.154685171974002
      ],
      [
        "▁men",
        -8.272479640613323
      ],
      [
        "6",
        -8.68944238390156
      ],
      [
        "▁repair",
        -9.267520439637593
      ],
      [
        "-5",
        -13.761965689359295
      ],
      [
        "994",
        -12.619595990323594
      ],
      [
        "later",
        -8.009614194567252
      ],
      [
        "ee",
        -10.720525926017277
      ],
      [
        "▁free",
        -7.862159468868084
      ],
      [
        "▁restaurant",
        -8.519392082582367
      ],
      [
        "him",
        -9.53100735965861
      ],
      [
        "▁01:3",
        -12.365376718875854
      ],
      [
        "▁li",
        -7.867141834170179
      ],
      [
        ".html",
        -9.441148347869701
      ],
      [
        "▁broad",
        -9.328797016490917
      ],
      [
        "qu",
        -13.484418413916817
      ],
      [
        "▁ge",
        -8.756685726088506
      ],
      [
        "▁duck",
        -9.09301233478833
      ],
      [
        "▁an",
        -7.783347403906411
      ],
      [
        "▁1,",
        -11.196637822129153
      ],
      [
        "6:2",
        -14.56407253126821
      ],
      [
        "▁launch",
        -9.302916467452288
      ],
      [
        "uff",
        -9.183323010426108
      ],
      [
        "▁hop",
        -9.255239106991887
      ],
      [
        "up",
        -9.571776430989441
      ],
      [
        "▁158",
        -10.771498006496458
      ],
      [
        "1000",
        -13.790121036013629
      ],
      [
        "▁altho",
        -8.78807180982115
      ],
      [
        "or",
        -6.600107834567396
      ],
      [
        "▁320",
        -12.642809539566734
      ],
      [
        "om",
        -12.821276219444899
      ],
      [
        "per",
        -11.823718792668409
      ],
      [
        "▁shape",
        -9.361451619547786
      ],
      [
        "n",
        -9.616052484599335
      ],
      [
        "€",
        -10.750452492101797
      ],
      [
        ";",
        -12.303437246021387
      ],
      [
        "☏",
        -11.333785825435129
      ],
      [
        "▁103",
        -13.542774831643694
      ],
      [
        "every",
        -9.955181868268271
      ],
      [
        "▁salt",
        -8.186672379131807
      ],
      [
        "▁1-8",
        -14.246827685336344
      ],
      [
        "▁than",
        -7.291350501791546
      ],
      [
        "▁dark",
        -8.441454759001928
      ],
      [
        "her",
        -7.767715035430991
      ],
      [
        "▁etc",
        -8.87142913322548
      ],
      [
        "▁friends",
        -8.193579564449255
      ],
      [
        "▁mark",
        -8.433802814841112
      ],
      [
        "▁inform",
        -11.376227375949302
      ],
      [
        "▁125",
        -12.781539555372706
      ],
      [
        "▁stand",
        -8.40327582719255
      ],
      [
        "▁d",
        -10.280019826971163
      ],
      [
        "▁po",
        -7.946448240461352
      ],
      [
        "▁col",
        -8.67126666995286
      ],
      [
        "▁tw",
        -9.14012390288319
      ],
      [
        "end",
        -8.718211509191692
      ],
      [
        "▁avoid",
        -9.10717250312028
      ],
      [
        "▁shoul",
        -7.016245635624688
      ],
      [
        "_0",
        -10.554922362196779
      ],
      [
        "p",
        -7.972623554296506
      ],
      [
        "they",
        -8.51994232805994
      ],
      [
        "620",
        -14.246999949014942
      ],
      [
        "one",
        -7.505439725207756
      ],
      [
        "96/",
        -13.58763307569862
      ],
      [
        "▁true",
        -8.844486774276842
      ],
      [
        "▁estimate",
        -9.233322062820692
      ],
      [
        "▁wh",
        -9.220690979633488
      ],
      [
        "wh",
        -12.456898445064779
      ],
      [
        "unl",
        -12.934716141644028
      ],
      [
        "▁928",
        -14.21094168812489
      ],
      [
        "▁hotel",
        -8.504123090563008
      ],
      [
        "▁service",
        -7.385787973910444
      ],
      [
        "v",
        -8.162352736604976
      ],
      [
        "38",
        -11.571807773434363
      ],
      [
        "own",
        -9.04202917323051
      ],
      [
        "▁190",
        -11.796319890941167
      ],
      [
        "993",
        -12.980437086431532
      ],
      [
        "▁change",
        -7.529481757579186
      ],
      [
        "▁10",
        -8.18158323818868
      ],
      [
        "fi",
        -8.93212334848384
      ],
      [
        "/9",
        -15.447297605292762
      ],
      [
        "▁catch",
        -8.88623275356953
      ],
      [
        "3",
        -7.777164305662692
      ],
      [
        "▁181",
        -12.6722014366133
      ],
      [
        "▁writing",
        -8.847671157315267
      ],
      [
        "form",
        -11.74397402995111
      ],
      [
        "▁op",
        -9.41096321087966
      ],
      [
        "▁03/2",
        -13.199689666990963
      ],
      [
        "mine",
        -11.79533885365613
      ],
      [
        "▁prefer",
        -9.462999698604085
      ],
      [
        "whe",
        -11.84489578683961
      ],
      [
        "1918",
        -11.546116586931637
      ],
      [
        "▁49",
        -12.296047747943508
      ],
      [
        "▁decided",
        -8.928317741876295
      ],
      [
        "▁employ",
        -9.24961456355694
      ],
      [
        "room",
        -9.372363728967992
      ],
      [
        "▁dollar",
        -8.312360726638037
      ],
      [
        "▁wet",
        -9.46773713445434
      ],
      [
        "87",
        -11.624567727260336
      ],
      [
        "▁exist",
        -8.615224431346014
      ],
      [
        "▁944-",
        -13.13846371516161
      ],
      [
        "▁short",
        -8.074919767007625
      ],
      [
        "▁agenc",
        -9.340041153471464
      ],
      [
        "▁time",
        -6.1714709599616855
      ],
      [
        "edu",
        -11.783538758143898
      ],
      [
        "▁h-02",
        -12.636821816479888
      ],
      [
        "▁church",
        -8.859161834898053
      ],
      [
        "▁713-79",
        -14.137051361386526
      ],
      [
        "▁ours",
        -11.486000418694196
      ],
      [
        "%",
        -7.579075707415162
      ],
      [
        "▁draw",
        -7.923417618671357
      ],
      [
        "will",
        -9.026017628551928
      ],
      [
        "ott",
        -9.410100417656075
      ],
      [
        "ugh",
        -8.69076516514481
      ],
      [
        "▁sc",
        -8.39345355328954
      ],
      [
        "que",
        -8.40451464419484
      ],
      [
        "230",
        -14.095816919097267
      ],
      [
        "▁insur",
        -9.419037488848904
      ],
      [
        "a",
        -4.874593473079168
      ],
      [
        "ca",
        -8.252335262780884
      ],
      [
        "▁92",
        -11.352258743075414
      ],
      [
        "▁vo",
        -9.077135596352175
      ],
      [
        "37,0",
        -14.136448329617062
      ],
      [
        "hi",
        -9.42458128149114
      ],
      [
        "▁private",
        -9.152731880492148
      ],
      [
        "▁judge",
        -9.458904235247433
      ],
      [
        "30",
        -9.658731711958618
      ],
      [
        "▁saw",
        -7.8887275477025
      ],
      [
        "▁nonstop",
        -8.35996511822941
      ],
      [
        "199",
        -11.808463155916124
      ],
      [
        "adelphi",
        -7.1117255215702935
      ],
      [
        "400",
        -11.158984950287465
      ],
      [
        "▁11:",
        -12.774231487304524
      ],
      [
        "▁its",
        -7.72296247419334
      ],
      [
        "275",
        -13.948612843905096
      ],
      [
        "▁email",
        -8.53599097688341
      ],
      [
        "▁purchase",
        -9.450782720003158
      ],
      [
        "832",
        -13.25468514613769
      ],
      [
        "▁165",
        -13.333829689480131
      ],
      [
        "▁current",
        -8.381310447445102
      ],
      [
        "▁200,000",
        -11.169756943986634
      ],
      [
        "▁cre",
        -9.146761474322211
      ],
      [
        "▁thi",
        -5.393002986392686
      ],
      [
        "99",
        -10.04345582405485
      ],
      [
        "958",
        -13.341006206325527
      ],
      [
        "▁comment",
        -8.62420970860656
      ],
      [
        "▁fat",
        -9.075277988164979
      ],
      [
        "wi",
        -8.782008284836756
      ],
      [
        "▁surround",
        -9.417338183245398
      ],
      [
        "▁clear",
        -8.198340153352465
      ],
      [
        "▁it",
        -7.425108546980829
      ],
      [
        "whos",
        -12.609213014906798
      ],
      [
        ".com/",
        -9.15353441579065
      ],
      [
        "igh",
        -11.333586498143701
      ],
      [
        "ne",
        -7.410849862552657
      ],
      [
        "▁hundred",
        -9.481396688621842
      ],
      [
        "339",
        -11.238809738318704
      ],
      [
        "▁mov",
        -8.352837758320666
      ],
      [
        "▁person",
        -7.882025533806584
      ],
      [
        "▁20",
        -10.758623086612115
      ],
      [
        "▁maintain",
        -9.200626103584725
      ],
      [
        "lock",
        -8.284784692874336
      ],
      [
        "craft",
        -8.527658160691738
      ],
      [
        "▁cri",
        -8.850982704990427
      ],
      [
        "▁host",
        -9.254377113141015
      ],
      [
        "‘",
        -9.441460514763136
      ],
      [
        "▁attention",
        -8.699246431356803
      ],
      [
        "▁tor",
        -8.127776517804733
      ],
      [
        "21",
        -11.158998581851865
      ],
      [
        "▁196",
        -10.370659192566032
      ],
      [
        "▁air",
        -7.402936138943133
      ],
      [
        ",9",
        -13.146070500982553
      ],
      [
        "▁401",
        -14.13652949020046
      ],
      [
        "▁vega",
        -8.339773056898313
      ],
      [
        "ne",
        -10.32490622756281
      ],
      [
        "▁le",
        -8.11012967911066
      ],
      [
        "▁foot",
        -8.836383516760193
      ],
      [
        "▁201",
        -8.15549122295678
      ],
      [
        "16",
        -10.36257830423802
      ],
      [
        "!!!!!!!!!!!!!!!!",
        -11.406486109637537
      ],
      [
        "▁conversation",
        -9.152635135900177
      ],
      [
        "ca",
        -8.016332254324865
      ],
      [
        "▁practice",
        -9.175821333046336
      ],
      [
        "des",
        -12.59592963524149
      ],
      [
        "l",
        -9.630335043596833
      ],
      [
        "▁500",
        -10.955114086710612
      ],
      [
        "-",
        -6.356993500672367
      ],
      [
        "▁business",
        -7.905459198446443
      ],
      [
        "▁pop",
        -8.886871280805654
      ],
      [
        "▁land",
        -8.163169286121265
      ],
      [
        "▁project",
        -8.24101373166047
      ],
      [
        "ra",
        -7.327903189370295
      ],
      [
        "ible",
        -9.196143436331145
      ],
      [
        "-19",
        -14.096896478575978
      ],
      [
        "▁honey",
        -8.871103608613964
      ],
      [
        "▁app",
        -9.09428701180796
      ],
      [
        "▁rid",
        -9.313196286378396
      ],
      [
        "▁crom",
        -9.397401215106775
      ],
      [
        "▁bigge",
        -8.999151136954277
      ],
      [
        "▁natural",
        -8.651160630872386
      ],
      [
        "oun",
        -11.10653329383833
      ],
      [
        "▁whe",
        -8.779464586792184
      ],
      [
        "eau",
        -10.944244681849543
      ],
      [
        "'",
        -8.55704023923805
      ],
      [
        "▁eat",
        -6.944106996930496
      ],
      [
        "ap",
        -8.145506936056787
      ],
      [
        "▁promise",
        -9.20029570305711
      ],
      [
        "lie",
        -8.859419244860835
      ],
      [
        "▁march",
        -8.838795193610268
      ],
      [
        "02",
        -11.277532520438841
      ],
      [
        "▁africa",
        -9.410356556631882
      ],
      [
        "▁adam",
        -7.816248448657433
      ],
      [
        "ang",
        -11.833863112049684
      ],
      [
        "at",
        -10.216755346387043
      ],
      [
        "er",
        -5.20505550288337
      ],
      [
        "▁bomb",
        -9.285446769149551
      ],
      [
        "▁1",
        -10.229035535106616
      ],
      [
        "▁ag",
        -9.062038990771534
      ],
      [
        "▁di",
        -9.299796853513923
      ],
      [
        "che",
        -11.833663739475321
      ],
      [
        "372",
        -12.895773325174972
      ],
      [
        "aine",
        -10.528294195106865
      ],
      [
        "============",
        -11.363268911856814
      ],
      [
        "▁hers",
        -12.827484547626566
      ],
      [
        "▁forgot",
        -9.168263893134128
      ],
      [
        "▁drive",
        -8.606349870873476
      ],
      [
        "twe",
        -7.82087300365329
      ],
      [
        "▁pick",
        -8.129658110788997
      ],
      [
        "▁speci",
        -9.433993959763857
      ],
      [
        "991",
        -12.803767022995844
      ],
      [
        "35-",
        -12.600562428656753
      ],
      [
        "▁tea",
        -8.735294306497288
      ],
      [
        "*****",
        -11.566808758753416
      ],
      [
        "▁idea",
        -7.942033819905659
      ],
      [
        "▁dc",
        -8.14538587107493
      ],
      [
        "▁expert",
        -9.23332228823379
      ],
      [
        "▁abou",
        -6.522750562308343
      ],
      [
        "▁a",
        -7.553362449753704
      ],
      [
        "34",
        -11.423907652486516
      ],
      [
        "▁90",
        -10.827220631113349
      ],
      [
        "▁ru",
        -8.709262451429165
      ],
      [
        "ize",
        -8.457323121922125
      ],
      [
        "▁02:1",
        -12.451409666312614
      ],
      [
        "ache",
        -9.2047898675983
      ],
      [
        "ke",
        -8.197326124056413
      ],
      [
        "▁af",
        -10.680045281053735
      ],
      [
        "▁institution",
        -9.233321081892914
      ],
      [
        "▁9",
        -10.074828539813632
      ],
      [
        "▁192",
        -11.94057202446741
      ],
      [
        "▁field",
        -8.046149516013326
      ],
      [
        "shal",
        -11.894227517962465
      ],
      [
        "▁turned",
        -8.74008055226329
      ],
      [
        "5",
        -7.525741223050759
      ],
      [
        "▁future",
        -8.395686887099998
      ],
      [
        "67.7",
        -12.63684079713223
      ],
      [
        "technology",
        -9.33961295289861
      ],
      [
        "te",
        -15.405337077280535
      ],
      [
        "5000",
        -13.766487213310356
      ],
      [
        "than",
        -10.213510771916935
      ],
      [
        "▁treat",
        -8.70118938874889
      ],
      [
        "▁str",
        -8.929131828557665
      ],
      [
        "ha",
        -9.601993731172115
      ],
      [
        "▁41",
        -11.462132681209736
      ],
      [
        "▁availab",
        -7.651153585039176
      ],
      [
        "▁71",
        -12.27401445262819
      ],
      [
        "3:2",
        -15.15680264399381
      ],
      [
        "▁little",
        -6.850834289904475
      ],
      [
        "thin",
        -7.525429256744984
      ],
      [
        "838",
        -11.947564887353263
      ],
      [
        "▁experience",
        -7.937109431998956
      ],
      [
        "098",
        -13.688847105212474
      ],
      [
        "▁bon",
        -11.44154234529399
      ],
      [
        "▁fall",
        -7.952996807523441
      ],
      [
        "05",
        -11.33380875399571
      ],
      [
        "ether",
        -7.974193418872434
      ],
      [
        "▁1.8",
        -13.505533095204397
      ],
      [
        "way",
        -8.425097892577403
      ],
      [
        "their",
        -9.446301580601954
      ],
      [
        "▁saying",
        -8.896075748815
      ],
      [
        "ant",
        -7.7719139695830455
      ],
      [
        "▁20",
        -8.49387196891552
      ],
      [
        "▁eu",
        -9.218965206608049
      ],
      [
        "▁6,",
        -14.13778527497731
      ],
      [
        "▁no",
        -6.1597273945769135
      ],
      [
        "ls",
        -11.685671346963833
      ],
      [
        "▁section",
        -9.063696770048114
      ],
      [
        "▁44",
        -11.794641251323517
      ],
      [
        "sion",
        -10.424354767085728
      ],
      [
        "▁team",
        -8.529770669527313
      ],
      [
        "www",
        -7.704482109889893
      ],
      [
        "▁become",
        -8.26627339439015
      ],
      [
        "▁08:1",
        -13.967495779385969
      ],
      [
        "is",
        -9.444125738853518
      ],
      [
        "▁overall",
        -9.26762069796116
      ],
      [
        "itie",
        -9.304613658610263
      ],
      [
        "▁09:1",
        -12.94142892502291
      ],
      [
        "▁still",
        -7.2087176873901635
      ],
      [
        "▁new",
        -6.165316119612405
      ],
      [
        "▁freedom",
        -9.137263977326423
      ],
      [
        "on",
        -6.204848907200461
      ],
      [
        "▁herself",
        -10.235000470458207
      ],
      [
        "▁55",
        -11.36494310179424
      ],
      [
        "393",
        -11.979993705934664
      ],
      [
        "▁832.676.",
        -13.13677057931586
      ],
      [
        "[MASK]",
        0.0
      ],
      [
        "▁8:",
        -14.49589127824081
      ],
      [
        "▁04/",
        -13.644403838609609
      ],
      [
        "▁fill",
        -8.724057199394572
      ],
      [
        "pos",
        -10.531974967040128
      ],
      [
        "▁seem",
        -7.659110186010249
      ],
      [
        "▁full",
        -7.951226508436743
      ],
      [
        "▁open",
        -7.4791654533339
      ],
      [
        "ish",
        -7.983739829070978
      ],
      [
        "▁ex",
        -8.427774897017363
      ],
      [
        "stair",
        -8.944017653035283
      ],
      [
        "▁2",
        -10.556276463566192
      ],
      [
        "▁cruise",
        -9.33961298115004
      ],
      [
        "chi",
        -8.732843427697663
      ],
      [
        "▁visa",
        -9.481844452992275
      ],
      [
        "▁butter",
        -9.266925302368225
      ],
      [
        "▁win",
        -9.353503107474644
      ],
      [
        "▁handle",
        -9.456435398949047
      ],
      [
        "to",
        -8.568824384538232
      ],
      [
        "▁cheape",
        -8.05970743922105
      ],
      [
        "04/0",
        -14.183241206755312
      ],
      [
        "▁fift",
        -10.360459669577795
      ],
      [
        "der",
        -11.612089083720626
      ],
      [
        "▁c",
        -6.389984735104632
      ],
      [
        "▁settle",
        -9.47996776800741
      ],
      [
        "ator",
        -9.01362166330249
      ],
      [
        "y",
        -5.310532547169549
      ],
      [
        "▁na",
        -11.199504350597584
      ],
      [
        "▁long",
        -6.823392798277005
      ],
      [
        "▁1.5",
        -10.928556940654722
      ],
      [
        "security",
        -8.511195542049107
      ],
      [
        "-696",
        -14.0991084797417
      ],
      [
        "=============",
        -11.216882392454107
      ],
      [
        "▁beach",
        -8.625127323510679
      ],
      [
        "▁ones",
        -12.644688079861359
      ],
      [
        "▁176",
        -13.441094984774196
      ],
      [
        "95",
        -11.454904720194879
      ],
      [
        "803",
        -13.975360954908663
      ],
      [
        "right",
        -8.273522008051508
      ],
      [
        "▁ri",
        -8.778915234489826
      ],
      [
        "▁16",
        -9.237816764183771
      ],
      [
        "13",
        -10.571710913851277
      ],
      [
        "▁aspect",
        -9.285064818823628
      ],
      [
        "ins",
        -12.689876329818208
      ],
      [
        "ese",
        -13.969336546849245
      ],
      [
        "656",
        -15.204647324905137
      ],
      [
        "▁2.9",
        -12.683758666043078
      ],
      [
        "▁par",
        -11.828129688036489
      ],
      [
        "▁tourist",
        -9.362233166945185
      ],
      [
        "ur",
        -11.393468614066895
      ],
      [
        "▁statement",
        -9.367110581213286
      ],
      [
        "▁document",
        -8.623384389050628
      ],
      [
        "▁77",
        -12.39158047060522
      ],
      [
        "▁65",
        -11.678712553193165
      ],
      [
        "▁of",
        -5.314681426468249
      ],
      [
        "▁town",
        -8.33767895058483
      ],
      [
        "lan",
        -9.40165689300834
      ],
      [
        "▁glass",
        -8.699260709324175
      ],
      [
        "▁standard",
        -9.268628420925303
      ],
      [
        "▁which",
        -6.3952446191528125
      ],
      [
        "grew",
        -9.481650711217863
      ],
      [
        "▁ph",
        -8.911239665927493
      ],
      [
        "ho",
        -15.256809929066952
      ],
      [
        "les",
        -13.952486469106416
      ],
      [
        "▁feed",
        -8.945194048880126
      ],
      [
        "▁4",
        -8.742783755132502
      ],
      [
        "▁12/2",
        -13.177041296236148
      ],
      [
        "lys",
        -10.25405955036088
      ],
      [
        "herself",
        -13.45138161859207
      ],
      [
        "▁sweet",
        -9.035741681459875
      ],
      [
        "▁high",
        -7.304286923076327
      ],
      [
        "ght",
        -14.671549717397362
      ],
      [
        "0",
        -10.782683652942984
      ],
      [
        "▁us",
        -6.626421391711566
      ],
      [
        "▁1000",
        -10.355355157779499
      ],
      [
        "93",
        -11.85630945489547
      ],
      [
        "▁11:16:",
        -13.156524772672467
      ],
      [
        "▁to",
        -11.047449325321436
      ],
      [
        "▁amazing",
        -9.152635647225235
      ],
      [
        "▁281-4",
        -12.337157708975122
      ],
      [
        "▁ou",
        -10.262009073803753
      ],
      [
        "0.2",
        -14.1427018553399
      ],
      [
        "6.8",
        -11.52194411340363
      ],
      [
        "▁members",
        -8.846924023561048
      ],
      [
        "4.4",
        -13.305398854713754
      ],
      [
        "▁services",
        -8.906277508582331
      ],
      [
        "cus",
        -14.750903904043147
      ],
      [
        "die",
        -10.223377604815685
      ],
      [
        "▁treatment",
        -9.360188140913943
      ],
      [
        "▁bite",
        -8.994047791491425
      ],
      [
        "920",
        -12.849170236525223
      ],
      [
        "▁vi",
        -10.603769107239941
      ],
      [
        "▁political",
        -8.38976114102742
      ],
      [
        "748",
        -13.395315422654793
      ],
      [
        "pped",
        -9.027717207175236
      ],
      [
        "▁vet",
        -9.446486349992686
      ],
      [
        "▁surface",
        -9.437727655413449
      ],
      [
        "mi",
        -8.32829747070474
      ],
      [
        "03/",
        -13.793640388604164
      ],
      [
        "▁sexual",
        -9.358490974295865
      ],
      [
        "▁atmospher",
        -9.417319489797723
      ],
      [
        "▁visit",
        -8.26346221670548
      ],
      [
        "▁percent",
        -9.3579515794565
      ],
      [
        "▁stock",
        -9.459891049291931
      ],
      [
        "▁personal",
        -8.514229975620651
      ],
      [
        "▁party",
        -8.392480052123638
      ],
      [
        "▁evening",
        -8.250203668818394
      ],
      [
        "▁hands",
        -8.644163836495894
      ],
      [
        "red",
        -11.151396409060967
      ],
      [
        "ada",
        -9.155583299324482
      ],
      [
        "1.75",
        -12.636868206891616
      ],
      [
        "▁european",
        -8.536834357895774
      ],
      [
        "▁propose",
        -9.063695890931621
      ],
      [
        "▁show",
        -6.045238655600854
      ],
      [
        "ect",
        -10.011284538849868
      ],
      [
        "▁percentage",
        -9.153042650529775
      ],
      [
        "53-3",
        -13.165316267144016
      ],
      [
        "▁tire",
        -8.832365390621547
      ],
      [
        "1:00",
        -11.411252376672223
      ],
      [
        "0.8",
        -12.754940125285833
      ],
      [
        "▁affect",
        -9.168260095875588
      ],
      [
        "▁con",
        -10.832625508225734
      ],
      [
        "os",
        -14.266191704702232
      ],
      [
        "▁dec",
        -8.185402736637874
      ],
      [
        "1",
        -9.7911173076794
      ],
      [
        "▁built",
        -9.33962983214521
      ],
      [
        "ist",
        -7.575286803880961
      ],
      [
        "▁got",
        -6.575460791453857
      ],
      [
        "ier",
        -8.857155260113991
      ],
      [
        "▁policy",
        -8.866523402484225
      ],
      [
        "▁stoo",
        -9.194930444706602
      ],
      [
        "1:",
        -14.542473638832032
      ],
      [
        "ious",
        -8.547782401348964
      ],
      [
        "▁las",
        -8.530119808181674
      ],
      [
        "▁piece",
        -8.02383157896596
      ],
      [
        "▁condition",
        -8.847672262212466
      ],
      [
        "▁1",
        -8.106310199785788
      ],
      [
        "▁lego",
        -9.39697043787754
      ],
      [
        "▁focus",
        -8.825080480189042
      ],
      [
        ".12",
        -13.146163943071912
      ],
      [
        "7:3",
        -13.59615174620778
      ],
      [
        "514",
        -14.796244535458388
      ],
      [
        "▁model",
        -8.961183709769966
      ],
      [
        "rote",
        -8.887742140375241
      ],
      [
        "▁button",
        -8.699249206325433
      ],
      [
        "▁ago",
        -8.403763783103209
      ],
      [
        "▁den",
        -9.049844408541333
      ],
      [
        "24",
        -10.79235968292323
      ],
      [
        "…",
        -9.311962512561424
      ],
      [
        "______________",
        -10.890899768835993
      ],
      [
        "▁705",
        -13.150366755684853
      ],
      [
        "▁q",
        -9.21887571865083
      ],
      [
        "▁42,000",
        -12.744463221080972
      ],
      [
        "▁down",
        -6.955512669546515
      ],
      [
        "ll",
        -8.078820687831644
      ],
      [
        "▁ig",
        -11.51413377136796
      ],
      [
        "ou",
        -9.381210504395051
      ],
      [
        "▁monday",
        -7.932528626202648
      ],
      [
        "▁run",
        -8.237245478969747
      ],
      [
        "ax",
        -8.953014012554291
      ],
      [
        "▁taste",
        -8.983062408596304
      ],
      [
        "89",
        -10.199888421912359
      ],
      [
        "kk",
        -10.129784113247265
      ],
      [
        "rio",
        -11.368284490750389
      ],
      [
        "▁pink",
        -9.484336818354327
      ],
      [
        "er",
        -8.73873720195392
      ],
      [
        "▁hol",
        -9.36861419035427
      ],
      [
        "▁191",
        -11.896980550058402
      ],
      [
        ":0",
        -13.245667444997434
      ],
      [
        "8.9",
        -15.33959221900913
      ],
      [
        "▁amount",
        -8.31872245526921
      ],
      [
        "▁cho",
        -9.108383058366655
      ],
      [
        "▁el",
        -8.5925852457583
      ],
      [
        "▁529",
        -14.148934904333597
      ],
      [
        "▁chair",
        -8.279701144902113
      ],
      [
        "▁ar",
        -6.938284200336329
      ],
      [
        "3/10/",
        -13.858668163224241
      ],
      [
        "▁peace",
        -8.709295350438492
      ],
      [
        "lo",
        -9.686887479395796
      ],
      [
        "▁books",
        -8.903955875643554
      ],
      [
        "▁king",
        -9.167495426394737
      ],
      [
        "▁lo",
        -8.15480119145138
      ],
      [
        "▁truck",
        -8.556163145659768
      ],
      [
        "▁was",
        -7.401714394676817
      ],
      [
        "ous",
        -7.753065982711501
      ],
      [
        "▁pre",
        -7.892985261762489
      ],
      [
        "▁though",
        -8.61629088245815
      ],
      [
        "▁nine",
        -9.205736100991716
      ],
      [
        "▁kind",
        -7.226958355986995
      ],
      [
        "▁rep",
        -8.763637895111717
      ],
      [
        "598",
        -13.839166517124484
      ],
      [
        "▁200",
        -7.835194488110916
      ],
      [
        "74",
        -12.34134876797
      ],
      [
        "ook",
        -9.212274363111533
      ],
      [
        "94",
        -12.022107636496195
      ],
      [
        "▁mention",
        -8.86012456758397
      ],
      [
        "▁post",
        -8.082860672158628
      ],
      [
        "▁fort",
        -8.140659229984957
      ],
      [
        "▁litera",
        -9.029419764788413
      ],
      [
        "▁cow",
        -9.222389023674037
      ],
      [
        "02/",
        -14.117092650879105
      ],
      [
        "▁constitution",
        -9.417319489817231
      ],
      [
        "nd",
        -8.038269447322932
      ],
      [
        "rou",
        -8.854957786186286
      ],
      [
        "3.6",
        -13.500323944744153
      ],
      [
        "ow",
        -11.530249375954355
      ],
      [
        "-04",
        -14.123579800210047
      ],
      [
        "we",
        -8.084226335730307
      ],
      [
        "▁israel",
        -8.916499859838607
      ],
      [
        "?",
        -3.1139181233845843
      ],
      [
        "▁again",
        -7.123884226758555
      ],
      [
        "▁z",
        -11.679987020174599
      ],
      [
        "▁b/",
        -12.079815656165398
      ],
      [
        "place",
        -9.43433270948421
      ],
      [
        "3-32",
        -14.140185884914017
      ],
      [
        "▁pack",
        -8.996847472949725
      ],
      [
        "▁present",
        -8.108183123337692
      ],
      [
        "ill",
        -8.081649989663587
      ],
      [
        "▁action",
        -8.376132064816296
      ],
      [
        "▁adopt",
        -9.285060797375081
      ],
      [
        "200,000",
        -15.24025698438958
      ],
      [
        "der",
        -8.368736154867896
      ],
      [
        "_",
        -8.880128849305436
      ],
      [
        "[",
        -6.198132057417013
      ],
      [
        "▁deliver",
        -8.836302419392005
      ],
      [
        "ter",
        -7.252168314323319
      ],
      [
        "▁fire",
        -8.381478063018475
      ],
      [
        "▁thes",
        -7.428819531863239
      ],
      [
        "naiss",
        -11.833792202418863
      ],
      [
        "▁01:5",
        -12.124920194609327
      ],
      [
        "▁pat",
        -9.246598164130868
      ],
      [
        "▁wear",
        -8.367143702655586
      ],
      [
        "most",
        -8.097267040735844
      ],
      [
        "▁hm",
        -9.189168691099379
      ],
      [
        "▁11/2",
        -13.632092236267711
      ],
      [
        "like",
        -9.114470217332375
      ],
      [
        "▁02:2",
        -13.25195685742674
      ],
      [
        "▁creat",
        -8.801459216929167
      ],
      [
        "▁pen",
        -8.550203771091986
      ],
      [
        "▁ba",
        -7.864008324699798
      ],
      [
        "▁375",
        -13.567938652830124
      ],
      [
        "72",
        -11.567392815125887
      ],
      [
        "▁bit",
        -7.83972143114499
      ],
      [
        "▁fresh",
        -9.049659124195593
      ],
      [
        "▁dear",
        -9.354996641669977
      ],
      [
        "▁working",
        -8.412682604420574
      ],
      [
        "▁impress",
        -9.425645623569224
      ],
      [
        "j",
        -7.738235191963691
      ],
      [
        "bu",
        -8.933136665927833
      ],
      [
        "▁ap",
        -8.962912394055863
      ],
      [
        "▁48",
        -11.650344269400826
      ],
      [
        "ton",
        -8.443930985955273
      ],
      [
        "▁08:0",
        -12.552782992181449
      ],
      [
        "▁whos",
        -9.510403012777239
      ],
      [
        "nc",
        -13.143028727913363
      ],
      [
        "▁shin",
        -9.34201139749786
      ],
      [
        "▁obvious",
        -9.377711942698388
      ],
      [
        "real",
        -8.968296233379675
      ],
      [
        "樋",
        -11.333785825435129
      ],
      [
        "02",
        -11.000492439779539
      ],
      [
        "045",
        -14.051548089164978
      ],
      [
        "someon",
        -11.278191597539164
      ],
      [
        "184",
        -12.62128093123546
      ],
      [
        "▁release",
        -9.137257433623978
      ],
      [
        "---",
        -10.562408915400244
      ],
      [
        "ami",
        -11.171813005991753
      ],
      [
        "650",
        -14.807816924349003
      ],
      [
        "▁tour",
        -9.077610363846318
      ],
      [
        "▁question",
        -7.96767160500673
      ],
      [
        "▁demand",
        -9.267764845560109
      ],
      [
        "▁authorit",
        -9.300806463721973
      ],
      [
        "▁last",
        -7.142041284498855
      ],
      [
        "▁u",
        -8.67356859208326
      ],
      [
        "▁aware",
        -9.419159707345738
      ],
      [
        "▁find",
        -6.936189724143101
      ],
      [
        "▁son",
        -9.072459893514075
      ],
      [
        "▁inform",
        -9.45078881107364
      ],
      [
        "▁72",
        -12.15083050910019
      ],
      [
        "▁112",
        -13.20433502805754
      ],
      [
        "▁exchange",
        -9.458560990902523
      ],
      [
        "▁hi",
        -7.478900208156904
      ],
      [
        "ney",
        -9.01608556413183
      ],
      [
        "▁deal",
        -8.07133474830507
      ],
      [
        "▁2:30",
        -11.734134949673816
      ],
      [
        ".8",
        -14.11670206142243
      ],
      [
        ":48",
        -13.969906159124326
      ],
      [
        "·",
        -9.904817571414563
      ],
      [
        "▁saturday",
        -8.140337292772895
      ],
      [
        "▁vari",
        -8.848719465712566
      ],
      [
        "▁5:",
        -13.578265554939463
      ],
      [
        "▁luck",
        -9.201284092354715
      ],
      [
        "▁slight",
        -9.252247658738895
      ],
      [
        "▁abe",
        -8.425104083729158
      ],
      [
        "▁official",
        -8.679734561007699
      ],
      [
        "▁75",
        -10.786024161906026
      ],
      [
        "▁whil",
        -9.251389154135122
      ],
      [
        "en",
        -6.67978261498028
      ],
      [
        "/16",
        -14.567007781419006
      ],
      [
        "_",
        -4.842285251919584
      ],
      [
        "▁37",
        -11.88765483250735
      ],
      [
        "@enron",
        -9.186026037313589
      ],
      [
        "▁yours",
        -10.490369004197085
      ],
      [
        "▁713.8",
        -14.139852382530703
      ],
      [
        "▁30",
        -9.486190054048716
      ],
      [
        "▁130",
        -11.559624943780829
      ],
      [
        "▁2.",
        -11.0544669463262
      ],
      [
        "▁2051",
        -13.376212310261275
      ],
      [
        "ten",
        -8.393836517523207
      ],
      [
        "so",
        -6.647691394852844
      ],
      [
        "▁due",
        -8.508742466962776
      ],
      [
        "▁ever",
        -14.412819073874982
      ],
      [
        "▁62",
        -12.292935032403635
      ],
      [
        "!!!!!!!",
        -11.378490256407192
      ],
      [
        "nal",
        -11.838409662774964
      ],
      [
        "▁w/",
        -13.028036467691177
      ],
      [
        "▁per",
        -10.524772088798718
      ],
      [
        "ine",
        -11.05431148575052
      ],
      [
        "▁tho",
        -8.708963387563907
      ],
      [
        "/",
        -7.8076494088019635
      ],
      [
        "oit",
        -9.21815156426921
      ],
      [
        "ik",
        -11.833857830146387
      ],
      [
        "▁#",
        -9.271507836159147
      ],
      [
        "▁sub",
        -8.658869461967162
      ],
      [
        "▁runn",
        -8.84101656151062
      ],
      [
        "▁82",
        -11.78840042592635
      ],
      [
        "a",
        -8.241796670952791
      ],
      [
        "▁u.s.",
        -9.122098148383628
      ],
      [
        "▁muc",
        -6.973535614468273
      ],
      [
        "▁expo",
        -11.835218306368208
      ],
      [
        "na",
        -7.532758845571234
      ],
      [
        "▁remember",
        -7.6863092708225444
      ],
      [
        "▁not",
        -8.536439103409952
      ],
      [
        "▁carry",
        -8.874870589804514
      ],
      [
        "▁fan",
        -8.955867885809834
      ],
      [
        "▁&",
        -9.8279021695494
      ],
      [
        "▁brief",
        -9.397319788816873
      ],
      [
        "▁introduc",
        -8.9820113624484
      ],
      [
        "▁12",
        -8.716716429943682
      ],
      [
        "man",
        -7.558719227012475
      ],
      [
        "light",
        -9.157669538440732
      ],
      [
        "exp",
        -9.486777858442819
      ],
      [
        "▁expens",
        -8.553385723005409
      ],
      [
        "_______",
        -10.805570786638603
      ],
      [
        "rs",
        -10.527302468335112
      ],
      [
        "▁send",
        -8.369763564530732
      ],
      [
        "▁hospital",
        -9.216654417390163
      ],
      [
        "more",
        -6.9393192824748215
      ],
      [
        ".322",
        -13.137284014680993
      ],
      [
        "▁problem",
        -7.711670384366871
      ],
      [
        "▁us",
        -11.512281127981279
      ],
      [
        "▁3/9/",
        -13.141521256888392
      ],
      [
        "mon",
        -8.428464533615823
      ],
      [
        "the",
        -5.642825194949208
      ],
      [
        "▁al",
        -7.856982673714978
      ],
      [
        "▁55,",
        -13.499818052039403
      ],
      [
        "▁belong",
        -9.302922483745471
      ],
      [
        "▁try",
        -7.099828766322752
      ],
      [
        "t",
        -2.6296534203519837
      ],
      [
        "ble",
        -8.729950550610067
      ],
      [
        "▁who",
        -6.506588786527327
      ],
      [
        "▁song",
        -9.05169635665523
      ],
      [
        "464",
        -15.254803851314197
      ],
      [
        "▁good",
        -6.3847403473685675
      ],
      [
        "▁novel",
        -8.996557960240636
      ],
      [
        "▁wow",
        -9.46074197708893
      ],
      [
        "▁sunday",
        -8.107214613726658
      ],
      [
        "▁shi",
        -9.290639511708541
      ],
      [
        ".7",
        -12.93833858127602
      ],
      [
        "▁age",
        -8.443478993561216
      ],
      [
        "▁ob",
        -9.244003303825203
      ],
      [
        "#",
        -8.99009556207349
      ],
      [
        "round",
        -7.770483124251681
      ],
      [
        "5-4",
        -14.479836965446822
      ],
      [
        "ever",
        -7.498368399672412
      ],
      [
        "▁keep",
        -7.549489584849415
      ],
      [
        "to",
        -7.957486178082443
      ],
      [
        "@",
        -8.770704637354378
      ],
      [
        "▁all",
        -7.363815718668822
      ],
      [
        "▁unit",
        -9.220356814082322
      ],
      [
        "sit",
        -11.467061234695635
      ],
      [
        "▁coast",
        -9.339703541798523
      ],
      [
        "▁representative",
        -9.458704575995935
      ],
      [
        "hey",
        -14.089121439372072
      ],
      [
        "▁continue",
        -8.360140942795717
      ],
      [
        "y@e",
        -11.877703282032476
      ],
      [
        "▁country",
        -7.937409522982121
      ],
      [
        "415",
        -15.196552822100086
      ],
      [
        "leur",
        -11.834203543590597
      ],
      [
        "ll",
        -11.633926568399433
      ],
      [
        "▁observ",
        -8.943549198378
      ],
      [
        "▁box",
        -8.19773036974215
      ],
      [
        "self",
        -7.580187025236798
      ],
      [
        "▁ant",
        -11.860894755500919
      ],
      [
        "▁quiet",
        -9.417379651943339
      ],
      [
        "▁game",
        -7.686935382945101
      ],
      [
        "bert",
        -10.242654352680248
      ],
      [
        "3.1",
        -12.945575938572823
      ],
      [
        "▁decision",
        -8.709150859755376
      ],
      [
        "3-",
        -14.52960505613413
      ],
      [
        "2",
        -10.53881921003439
      ],
      [
        "▁top",
        -8.12305106527343
      ],
      [
        "▁coming",
        -8.158538310037523
      ],
      [
        "▁michael",
        -9.26751165737682
      ],
      [
        "▁terr",
        -9.426215588396751
      ],
      [
        "1/",
        -13.869957499964794
      ],
      [
        "▁gon",
        -6.9205258737605355
      ],
      [
        "6/200",
        -15.097693619441639
      ],
      [
        "0.9",
        -15.298300968100728
      ],
      [
        "▁04:5",
        -13.362917933474566
      ],
      [
        "▁stop",
        -7.728362152868246
      ],
      [
        "6/9",
        -12.808934602602188
      ],
      [
        "▁sense",
        -8.79341473698608
      ],
      [
        "▁nov",
        -8.81175623579923
      ],
      [
        "ists",
        -9.05213463883996
      ],
      [
        "al.",
        -10.696464705405322
      ],
      [
        "▁vi",
        -11.090089463635374
      ],
      [
        "ity",
        -6.959836230707151
      ],
      [
        "▁pet",
        -8.526081080849195
      ],
      [
        "880",
        -15.44640996818414
      ],
      [
        "▁our",
        -6.8694529814894745
      ],
      [
        "▁inter",
        -11.373820383720101
      ],
      [
        "▁cup",
        -8.504102855402977
      ],
      [
        "▁7.2",
        -11.348988672922982
      ],
      [
        "▁1754",
        -12.676592216331013
      ],
      [
        "ch",
        -11.427146876420403
      ],
      [
        "▁510-642-",
        -13.136770579314764
      ],
      [
        "▁test",
        -8.193014284173431
      ],
      [
        "”",
        -6.541188097635501
      ],
      [
        "▁basi",
        -9.30158643988529
      ],
      [
        "▁here",
        -6.079985084639705
      ],
      [
        "▁mil",
        -7.810684850678919
      ],
      [
        "▁sai",
        -6.464694710125678
      ],
      [
        "▁safe",
        -8.381472408601299
      ],
      [
        "9",
        -8.635468173052683
      ],
      [
        "▁successful",
        -9.200662283829075
      ],
      [
        "at",
        -11.735037344101686
      ],
      [
        "▁com",
        -8.724292431777304
      ],
      [
        "den",
        -9.270461745767943
      ],
      [
        "▁i",
        -7.92159767903883
      ],
      [
        "hol",
        -8.70862304266796
      ],
      [
        "69",
        -11.839517049892248
      ],
      [
        "xsl",
        -10.981309638386165
      ],
      [
        "▁enjoy",
        -8.298721826529352
      ],
      [
        "▁r",
        -10.787481821924922
      ],
      [
        "▁alre",
        -7.760373454554562
      ],
      [
        "▁book",
        -7.334833051456451
      ],
      [
        "66",
        -12.073162576097861
      ],
      [
        "---->",
        -11.77556405770272
      ],
      [
        "▁voice",
        -8.632633607891634
      ],
      [
        "▁phone",
        -8.228640163044584
      ],
      [
        ":",
        -5.169352985407191
      ],
      [
        "▁reserve",
        -9.358488085811821
      ],
      [
        "bo",
        -8.115289965453384
      ],
      [
        "am",
        -7.768135859811434
      ],
      [
        "▁ground",
        -7.634796744090192
      ],
      [
        "▁afternoon",
        -7.853360221099015
      ],
      [
        "▁half",
        -8.559099409172756
      ],
      [
        "▁can",
        -8.655796546149434
      ],
      [
        "▁sch",
        -11.04252027193222
      ],
      [
        "7/200",
        -11.393922540536888
      ],
      [
        "▁06:0",
        -12.342292111029062
      ],
      [
        "its",
        -10.743570623640188
      ],
      [
        "7,5",
        -14.136437153738301
      ],
      [
        "low",
        -8.599710657972292
      ],
      [
        "▁threat",
        -9.457766540712813
      ],
      [
        "▁choose",
        -9.200267041357325
      ],
      [
        "_",
        -4.782693395996079
      ],
      [
        "another",
        -10.357494289543581
      ],
      [
        "▁twenty-",
        -12.16465112501011
      ],
      [
        "▁red",
        -7.861436410752392
      ],
      [
        "▁sure",
        -7.579524265868768
      ],
      [
        "▁03/0",
        -11.442809681049695
      ],
      [
        "▁85",
        -12.357745637678045
      ],
      [
        "▁ha",
        -8.148079909553118
      ],
      [
        "▁state",
        -7.084784572624048
      ],
      [
        "up",
        -7.9451504141570055
      ],
      [
        "▁that",
        -9.170353357228123
      ],
      [
        "▁tog",
        -8.10919747813125
      ],
      [
        "▁careful",
        -9.304289284637449
      ],
      [
        "lle",
        -11.518747435289725
      ],
      [
        "▁ma",
        -8.017112226473934
      ],
      [
        "▁101",
        -12.534622449071785
      ],
      [
        "▁legislati",
        -9.397329022844513
      ],
      [
        "▁059085495",
        -13.136770580472842
      ],
      [
        "▁qualit",
        -8.417873050970488
      ],
      [
        "▁cousin",
        -11.833838526586176
      ],
      [
        "8,8",
        -13.136802463436528
      ],
      [
        "our",
        -8.449365008953343
      ],
      [
        "180",
        -13.39582288160893
      ],
      [
        "▁favorite",
        -9.00857484142115
      ],
      [
        "tan",
        -8.943866801071252
      ],
      [
        "▁619-",
        -13.152424125381135
      ],
      [
        "▁line",
        -7.679004719538244
      ],
      [
        "s",
        -2.6832207985066745
      ],
      [
        "2-20",
        -13.143407717162013
      ],
      [
        "ac",
        -11.991757960654494
      ],
      [
        "▁3,",
        -11.986573016429366
      ],
      [
        "606",
        -13.08386531655481
      ],
      [
        "▁45",
        -11.407942744300977
      ],
      [
        "▁right",
        -6.365197453296575
      ],
      [
        "▁indian",
        -9.011320480352445
      ],
      [
        "yet",
        -8.78146950483262
      ],
      [
        "▁bye",
        -9.451484346456063
      ],
      [
        "▁press",
        -8.907300424867909
      ],
      [
        "▁debate",
        -9.438007504331113
      ],
      [
        "my",
        -8.402523764829516
      ],
      [
        "▁generat",
        -9.436348314165311
      ],
      [
        "▁5",
        -8.813230402229319
      ],
      [
        "▁2000",
        -9.714470099810217
      ],
      [
        "▁man",
        -7.114086891866975
      ],
      [
        "▁animal",
        -8.134721613395836
      ],
      [
        "und",
        -8.394454848542383
      ],
      [
        "1.3",
        -11.69160675419613
      ],
      [
        "62",
        -12.786065695044039
      ],
      [
        "▁design",
        -8.498427167692375
      ],
      [
        "▁ok",
        -8.486245695946852
      ],
      [
        "▁ones",
        -9.157528673661453
      ],
      [
        "istic",
        -9.29810899262609
      ],
      [
        "history",
        -8.596385151016023
      ],
      [
        "▁am",
        -9.866600663869718
      ],
      [
        "▁et",
        -9.566894945876847
      ],
      [
        "296",
        -12.485626599436337
      ],
      [
        "▁level",
        -8.374107863782427
      ],
      [
        "▁few",
        -7.6587702145827725
      ],
      [
        "▁mass",
        -9.0523169035762
      ],
      [
        "▁body",
        -8.749245870183065
      ],
      [
        "▁implement",
        -8.98201131621358
      ],
      [
        "▁food",
        -7.270885616640193
      ],
      [
        "▁cost",
        -7.93084193426076
      ],
      [
        "▁position",
        -8.639536937081637
      ],
      [
        ".4",
        -12.436816092376473
      ],
      [
        "420",
        -13.637063103502197
      ],
      [
        "▁fellow",
        -9.480745310986393
      ],
      [
        "▁bi",
        -8.977746162111405
      ],
      [
        "n@enron",
        -11.729776130192164
      ],
      [
        "/01/200",
        -12.253837409322445
      ],
      [
        "!",
        -5.053267665729648
      ],
      [
        "▁address",
        -8.570047398591553
      ],
      [
        "ball",
        -9.18040506159038
      ],
      [
        "▁fund",
        -8.666767172477947
      ],
      [
        "▁network",
        -9.479897033600015
      ],
      [
        "ite",
        -8.550272744267982
      ],
      [
        "▁fixed",
        -9.333412058029294
      ],
      [
        "n'",
        -9.381928970317361
      ],
      [
        "▁vacation",
        -9.458570413108085
      ],
      [
        "town",
        -8.465258903254007
      ],
      [
        "cy",
        -7.9503675262590034
      ],
      [
        "ers",
        -7.032992897869821
      ],
      [
        "▁177",
        -10.994130940391571
      ],
      [
        "23",
        -10.346114600887256
      ],
      [
        "1-9",
        -13.133680507267583
      ],
      [
        "8389",
        -13.541293472806034
      ],
      [
        "rui",
        -11.834054007462155
      ],
      [
        "fore",
        -8.831458765007323
      ],
      [
        "90",
        -11.918338620993051
      ],
      [
        "▁mess",
        -9.350750057702108
      ],
      [
        "▁search",
        -9.200286336227126
      ],
      [
        "▁167",
        -13.95653885147384
      ],
      [
        "internet",
        -8.825590452305224
      ],
      [
        "ise",
        -8.712360853994433
      ],
      [
        "▁requirement",
        -9.269196157595786
      ],
      [
        "lik",
        -8.795665178243048
      ],
      [
        "▁late",
        -7.834379668823791
      ],
      [
        "281",
        -13.08571318027819
      ],
      [
        "▁kid",
        -8.188162141055617
      ],
      [
        "sburg",
        -6.826333676900717
      ],
      [
        "▁tu",
        -8.598809402587055
      ],
      [
        "▁69",
        -13.421823213516547
      ],
      [
        "▁650",
        -13.191743379778192
      ],
      [
        "196",
        -13.559621706648938
      ],
      [
        "▁heavy",
        -9.358481269033256
      ],
      [
        "▁2,2",
        -13.414392304097612
      ],
      [
        "▁live",
        -7.606506271231238
      ],
      [
        "urs",
        -11.334386090581136
      ],
      [
        "tha",
        -7.447652869023349
      ],
      [
        "▁g",
        -7.17123019159383
      ],
      [
        "ice",
        -9.380189855670038
      ],
      [
        "se",
        -10.75939678579618
      ],
      [
        "▁style",
        -9.050090305080943
      ],
      [
        "▁23",
        -10.030498826871938
      ],
      [
        "▁is",
        -6.925834268543757
      ],
      [
        "▁1-800-",
        -12.663110100375743
      ],
      [
        "ial",
        -7.971403122952556
      ],
      [
        "▁ca",
        -8.130361962406909
      ],
      [
        "te",
        -10.853311653238517
      ],
      [
        "▁america",
        -8.63486675074125
      ],
      [
        "oursel",
        -11.26406108510363
      ],
      [
        "ica",
        -10.485087838248676
      ],
      [
        "1.",
        -10.975907898287584
      ],
      [
        "▁image",
        -8.837018348044028
      ],
      [
        "415-",
        -14.13691236344024
      ],
      [
        "or",
        -11.559536562033585
      ],
      [
        "▁188",
        -12.696627625251612
      ],
      [
        "▁about",
        -7.665124534009344
      ],
      [
        "st.",
        -7.961080282360188
      ],
      [
        "▁complete",
        -8.39572611075491
      ],
      [
        "▁sp",
        -8.004672064945503
      ],
      [
        "▁scar",
        -8.676299686393161
      ],
      [
        "ma",
        -10.331830571402174
      ],
      [
        "▁nanda",
        -11.373803937697424
      ],
      [
        "311",
        -13.198320466201267
      ],
      [
        "▁cou",
        -10.858686679206002
      ],
      [
        "▁meaning",
        -9.435162450252754
      ],
      [
        "!!!!!!!!!!!!!!!",
        -11.787504311478639
      ],
      [
        "▁attach",
        -8.374100532322643
      ],
      [
        "▁755",
        -13.738721046877318
      ],
      [
        "ess",
        -10.471468821381702
      ],
      [
        "▁breath",
        -9.339630642775518
      ],
      [
        "111",
        -12.788292034875846
      ],
      [
        "microsoft",
        -9.321095238929527
      ],
      [
        "10",
        -9.765559445705975
      ],
      [
        "▁07",
        -14.85886526325713
      ],
      [
        "▁elect",
        -9.357333173576311
      ],
      [
        "-4",
        -12.857549285628796
      ],
      [
        "▁louis",
        -8.760184100810815
      ],
      [
        "came",
        -8.857316094309308
      ],
      [
        "ve",
        -7.179020698767759
      ],
      [
        "▁pri",
        -11.348572751093645
      ],
      [
        "▁according",
        -8.818681673590884
      ],
      [
        "▁euro",
        -9.30343635519371
      ],
      [
        "▁rate",
        -8.502301486008596
      ],
      [
        "val",
        -9.232370327390086
      ],
      [
        "▁capacit",
        -9.339652444279716
      ],
      [
        "▁digital",
        -9.458561096700798
      ],
      [
        "414",
        -13.14622484673741
      ],
      [
        "sa",
        -10.695860057288726
      ],
      [
        "industry",
        -9.184141764804597
      ],
      [
        "0000",
        -13.705120895521137
      ],
      [
        "ate",
        -7.264486358758154
      ],
      [
        "▁fix",
        -8.863041534418361
      ],
      [
        "9/200",
        -11.994173130074634
      ],
      [
        "s",
        -7.82004737457296
      ],
      [
        "▁11/",
        -12.525804538246268
      ],
      [
        "▁peter",
        -8.535274866371045
      ],
      [
        "▁franc",
        -9.178334633524772
      ],
      [
        "▁funn",
        -8.634259803309979
      ],
      [
        "board",
        -9.158413708727867
      ],
      [
        "▁paper",
        -7.874754310344525
      ],
      [
        "se",
        -10.116435411708396
      ],
      [
        "▁rain",
        -8.77456646139792
      ],
      [
        "/23/200",
        -12.34064088726252
      ],
      [
        "▁shar",
        -9.096575464472181
      ],
      [
        "▁quin",
        -8.267674482578922
      ],
      [
        "▁clothes",
        -8.896366026768243
      ],
      [
        "48",
        -11.190259833701614
      ],
      [
        "115",
        -14.502428714841681
      ],
      [
        "800",
        -11.907406779862322
      ],
      [
        "go",
        -7.796127677193533
      ],
      [
        "ay",
        -11.161156096712118
      ],
      [
        "▁.32",
        -14.792785263810408
      ],
      [
        "▁713/8",
        -14.340536229756822
      ],
      [
        "▁finish",
        -8.298791037512775
      ],
      [
        "▁driv",
        -8.846800497726601
      ],
      [
        "▁interesting",
        -9.020930226518532
      ],
      [
        "870",
        -12.325971475335379
      ],
      [
        "▁350",
        -11.93683533752407
      ],
      [
        "▁balance",
        -9.13826261559975
      ],
      [
        "▁close",
        -7.78000993244899
      ],
      [
        "▁marriage",
        -9.168872666662818
      ],
      [
        "w",
        -4.938168009100055
      ],
      [
        "for",
        -6.699129353135135
      ],
      [
        "▁climate",
        -9.339612978651132
      ],
      [
        "▁size",
        -9.039476916277597
      ],
      [
        "them",
        -9.499452395420116
      ],
      [
        "▁carrie",
        -9.409804468852744
      ],
      [
        "▁road",
        -8.527815339463734
      ],
      [
        "▁cheap",
        -8.847228811780486
      ],
      [
        "11",
        -10.407366820278074
      ],
      [
        "▁item",
        -8.679815668815724
      ],
      [
        "shoul",
        -9.890237644806534
      ],
      [
        "▁ever",
        -7.942229594798346
      ],
      [
        "▁moon",
        -9.371780109731457
      ],
      [
        "▁100,000",
        -11.258550211967702
      ],
      [
        "▁love",
        -7.364179385736138
      ],
      [
        "§",
        -11.833785825435129
      ],
      [
        "▁tom",
        -7.95781413012376
      ],
      [
        "5,7",
        -13.612706607221204
      ],
      [
        ":",
        -15.518165406639655
      ],
      [
        "▁sent",
        -8.506926507513953
      ],
      [
        "▁tin",
        -8.805334635847007
      ],
      [
        "ect",
        -8.32707034516018
      ],
      [
        "▁w",
        -7.000356910635807
      ],
      [
        "re",
        -6.80190597408254
      ],
      [
        "▁window",
        -8.511292351040396
      ],
      [
        "orland",
        -8.51546241907928
      ],
      [
        "▁war",
        -7.76059432191367
      ],
      [
        "▁mont",
        -8.553424720027344
      ],
      [
        "▁break",
        -8.425352470361613
      ],
      [
        "▁accident",
        -9.15263392696086
      ],
      [
        "ture",
        -8.411480260299179
      ],
      [
        ",300",
        -12.803982360712018
      ],
      [
        ".37",
        -13.779820701624006
      ],
      [
        "▁\"",
        -8.78674515612092
      ],
      [
        "▁178",
        -11.993874165942234
      ],
      [
        "▁lives",
        -9.081883028473392
      ],
      [
        "▁twenty",
        -8.382907412662831
      ],
      [
        "▁sen",
        -9.186263401958541
      ],
      [
        "▁refus",
        -9.33972485316455
      ],
      [
        "▁06",
        -14.83179025567944
      ],
      [
        "pa",
        -7.8656082972404375
      ],
      [
        "▁'",
        -7.870610159838658
      ],
      [
        "do",
        -9.304210382376619
      ],
      [
        "ry",
        -7.8463551995639484
      ],
      [
        "ft",
        -10.860161527332979
      ],
      [
        "▁yes",
        -7.298472858077711
      ],
      [
        "▁uncle",
        -9.458643283433913
      ],
      [
        "▁xml",
        -8.943558319623568
      ],
      [
        "▁attract",
        -9.479837688291518
      ],
      [
        "▁de",
        -5.953690385181638
      ],
      [
        "▁bird",
        -8.425289795079223
      ],
      [
        "ve",
        -10.988946458107845
      ],
      [
        "nti",
        -11.703237119192112
      ],
      [
        "▁s",
        -9.536036570880462
      ],
      [
        "/08/",
        -13.300465877902393
      ],
      [
        "▁carol",
        -9.469062360446756
      ],
      [
        "▁technical",
        -9.437727653408745
      ],
      [
        "▁cover",
        -8.464929252740957
      ],
      [
        "▁ye",
        -7.862836672991427
      ],
      [
        "ov",
        -8.684273091579186
      ],
      [
        "▁134",
        -14.919254389209478
      ],
      [
        "acion",
        -11.365745765385471
      ],
      [
        "▁646-",
        -12.991578501901367
      ],
      [
        "thes",
        -10.352235109980318
      ],
      [
        "in",
        -6.812645498638377
      ],
      [
        "▁path",
        -9.453428611366958
      ],
      [
        "▁talk",
        -7.224617508601696
      ],
      [
        "▁718",
        -12.70140278258359
      ],
      [
        "▁responsibilit",
        -9.41731948981561
      ],
      [
        "▁often",
        -8.298752740171437
      ],
      [
        "**",
        -11.101205993619278
      ],
      [
        "1:4",
        -14.232888692478268
      ],
      [
        "-46",
        -14.683129009797762
      ],
      [
        "306",
        -13.62520520153245
      ],
      [
        "▁cook",
        -8.740813154708885
      ],
      [
        "burban",
        -9.4177468273457
      ],
      [
        "029",
        -14.571113188046223
      ],
      [
        "---------",
        -11.42153724811176
      ],
      [
        "erre",
        -11.834469720779595
      ],
      [
        "▁xs",
        -11.866820475824259
      ],
      [
        "▁stuff",
        -8.346394656993706
      ],
      [
        "ept",
        -9.456805362320326
      ],
      [
        "▁paul",
        -8.119814649359716
      ],
      [
        "▁your",
        -5.91319889996456
      ],
      [
        "▁earlie",
        -7.928002129149239
      ],
      [
        "12",
        -10.115966630470972
      ],
      [
        "2.",
        -15.381518620275797
      ],
      [
        "▁travel",
        -8.059220193429141
      ],
      [
        "▁du",
        -11.406419735949775
      ],
      [
        "▁aw",
        -8.873379297897902
      ],
      [
        "▁ticket",
        -8.670118717659758
      ],
      [
        "uri",
        -11.894408370198882
      ],
      [
        "▁build",
        -9.115653233566093
      ],
      [
        "▁899-4",
        -13.136770620605853
      ],
      [
        "r",
        -4.496868874099677
      ],
      [
        "conne",
        -11.33380572033166
      ],
      [
        "▁16.3",
        -12.63810091809569
      ],
      [
        "▁198",
        -9.942974826774229
      ],
      [
        "▁right",
        -11.051770298862332
      ],
      [
        "▁con",
        -7.473643817539987
      ],
      [
        "ment",
        -7.044500395971918
      ],
      [
        "us",
        -7.100720917647174
      ],
      [
        "et",
        -7.409003090276252
      ],
      [
        "2/22/200",
        -13.318763253437512
      ],
      [
        "▁lay",
        -8.742502923506535
      ],
      [
        "▁critic",
        -9.19460270085665
      ],
      [
        "▁you",
        -4.2509584929832425
      ],
      [
        ":15",
        -12.622561123925353
      ],
      [
        "▁recent",
        -8.305765529182342
      ],
      [
        "▁depart",
        -8.640730814050848
      ],
      [
        "776",
        -12.023279956286235
      ],
      [
        "▁bell",
        -9.367093603194201
      ],
      [
        "▁08/1",
        -12.915334419237052
      ],
      [
        "744",
        -12.115352357480173
      ],
      [
        "pre",
        -11.826766477842504
      ],
      [
        "id",
        -11.523085669888701
      ],
      [
        "________________",
        -9.675548522665638
      ],
      [
        "▁o",
        -10.961654798814939
      ],
      [
        "▁!!!",
        -8.747253193189774
      ],
      [
        "ou",
        -11.274927960313955
      ],
      [
        "814",
        -13.41959975627615
      ],
      [
        "how",
        -9.453405709065056
      ],
      [
        "▁let",
        -6.657253422921519
      ],
      [
        "/13/200",
        -12.943764559729503
      ],
      [
        "an",
        -6.926761948213766
      ],
      [
        "▁47",
        -12.395029450852924
      ],
      [
        "▁hen",
        -9.32221305658308
      ],
      [
        "kee",
        -7.976470203812449
      ],
      [
        "▁4,",
        -13.54847460893589
      ],
      [
        "▁seek",
        -8.979327234309322
      ],
      [
        "8:",
        -13.917734500659604
      ],
      [
        "8/01",
        -14.138566737487656
      ],
      [
        "46-5",
        -15.428879037278351
      ],
      [
        "zen",
        -11.834053334203773
      ],
      [
        "▁korea",
        -9.358529051436397
      ],
      [
        "▁advi",
        -9.274305406415412
      ],
      [
        "▁statu",
        -9.168679077596874
      ],
      [
        "▁every",
        -7.080078169630708
      ],
      [
        "▁1,6",
        -13.60865191385368
      ],
      [
        "▁34",
        -11.55316952087386
      ],
      [
        "▁3-52",
        -13.137000630792741
      ],
      [
        "▁38",
        -10.592551675736491
      ],
      [
        "91",
        -11.94434201620654
      ],
      [
        "t",
        -8.622881059948114
      ],
      [
        "▁lik",
        -6.442597858089572
      ],
      [
        "rg",
        -11.834427539130644
      ],
      [
        "in",
        -10.121798497307283
      ],
      [
        "▁promot",
        -9.33961743402804
      ],
      [
        "▁possibl",
        -7.92519709871936
      ],
      [
        "▁fel",
        -8.420485704895075
      ],
      [
        "▁plane",
        -8.84135033592889
      ],
      [
        "▁science",
        -9.001748761538908
      ],
      [
        "/10/200",
        -11.680262662674137
      ],
      [
        "8/10/200",
        -13.466113830950324
      ],
      [
        "▁write",
        -7.927922863889931
      ],
      [
        "▁work",
        -6.567330384715148
      ],
      [
        "▁en",
        -7.406324160778275
      ],
      [
        "oo",
        -10.573184319002312
      ],
      [
        "▁4.",
        -11.34728232688808
      ],
      [
        "▁couple",
        -8.535992633842406
      ],
      [
        "▁o'c",
        -8.471190629962624
      ],
      [
        "▁defin",
        -9.092433265227731
      ],
      [
        "▁up",
        -6.475747422416015
      ],
      [
        "hers",
        -14.748162080548967
      ],
      [
        ".0",
        -12.39787142550606
      ],
      [
        "▁grandmother",
        -9.321094601332547
      ],
      [
        "▁860",
        -13.31026522641037
      ],
      [
        "===",
        -10.728766094539285
      ],
      [
        "ver",
        -11.024067939475756
      ],
      [
        "▁vs",
        -11.575267346929792
      ],
      [
        "▁345-",
        -11.796213981224737
      ],
      [
        "▁152",
        -15.203421698304805
      ],
      [
        "-----------",
        -11.0313601562369
      ],
      [
        "ver",
        -7.870001327357098
      ],
      [
        "▁6",
        -8.907968840771389
      ],
      [
        "/27/200",
        -11.799692145187812
      ],
      [
        "▁51",
        -12.853110873290898
      ],
      [
        "▁band",
        -8.970257700256582
      ],
      [
        "▁9.",
        -14.140127953573415
      ],
      [
        "▁market",
        -8.241660473217102
      ],
      [
        "ga",
        -10.834148832479924
      ],
      [
        "ling",
        -7.929749040505828
      ],
      [
        "ma",
        -13.489069089140447
      ],
      [
        "▁shal",
        -8.887905078232698
      ],
      [
        "▁cor",
        -9.14226948466284
      ],
      [
        "▁period",
        -8.455634343455468
      ],
      [
        "▁phoe",
        -8.279156237753213
      ],
      [
        "▁07/1",
        -11.467963282922426
      ],
      [
        "▁11:0",
        -11.779412810543928
      ],
      [
        "orrow",
        -8.13688010897367
      ],
      [
        "le",
        -9.291517426822528
      ],
      [
        "/",
        -6.3884726436073205
      ],
      [
        "0.23",
        -13.696436300133028
      ],
      [
        "179",
        -13.39745496023807
      ],
      [
        "330",
        -13.120737973817718
      ],
      [
        "▁tax",
        -8.967388484282996
      ],
      [
        "▁dra",
        -11.397091660772798
      ],
      [
        "▁161",
        -11.458814305941756
      ],
      [
        "▁speak",
        -8.624089345065226
      ],
      [
        "▁03/",
        -13.930564962300714
      ],
      [
        "got",
        -12.9597684416641
      ],
      [
        "▁hu",
        -10.54529047320942
      ],
      [
        "▁owner",
        -8.860649405906559
      ],
      [
        "▁fee",
        -8.44498571881366
      ],
      [
        "ook",
        -11.669820182477455
      ],
      [
        "even",
        -10.255110157750392
      ],
      [
        "77",
        -12.614120500178377
      ],
      [
        "8-37",
        -14.882399749141332
      ],
      [
        "f",
        -6.331522932516196
      ],
      [
        "▁sept",
        -8.235352983711469
      ],
      [
        "▁connect",
        -9.105572392138434
      ],
      [
        "▁cool",
        -9.109692941867841
      ],
      [
        "▁20,000",
        -11.18698593061998
      ],
      [
        "es",
        -11.942189965879606
      ],
      [
        "where",
        -11.75353131760598
      ],
      [
        "y",
        -4.0883889508373965
      ],
      [
        "+",
        -9.375196107582326
      ],
      [
        "▁micro",
        -9.396208242575334
      ],
      [
        "▁fail",
        -9.304109995523763
      ],
      [
        "▁sevent",
        -11.49321093450371
      ],
      [
        "ful",
        -7.711316853370291
      ],
      [
        "▁bright",
        -9.361559164616368
      ],
      [
        "ase",
        -10.78973269745037
      ],
      [
        "(",
        -4.749593983020589
      ],
      [
        "ing",
        -9.928808428270834
      ],
      [
        "▁farm",
        -9.463778130953877
      ],
      [
        "▁+4",
        -13.201922390698039
      ],
      [
        "▁argument",
        -9.438009380250435
      ],
      [
        "▁713-8",
        -14.144922617056224
      ],
      [
        "▁roman",
        -7.726234094920408
      ],
      [
        "▁fine",
        -8.356519530592992
      ],
      [
        "▁parent",
        -8.578927561185772
      ],
      [
        "▁dog",
        -7.758679361021737
      ],
      [
        "▁brother",
        -8.943547904229511
      ],
      [
        "▁207",
        -13.14865086461803
      ],
      [
        "988",
        -13.709422723261254
      ],
      [
        "▁",
        -0.7229493926812545
      ],
      [
        "▁110",
        -11.62840249240278
      ],
      [
        "▁social",
        -8.352990205776948
      ],
      [
        "▁10:0",
        -12.793923703826332
      ],
      [
        "tor",
        -8.557881457806738
      ],
      [
        "▁639",
        -13.138918451395154
      ],
      [
        "▁auster",
        -9.458581775341361
      ],
      [
        "▁leader",
        -9.318890686610608
      ],
      [
        "jo",
        -11.43397011805476
      ],
      [
        "▁hav",
        -6.307941970917244
      ],
      [
        "7",
        -8.494770528860947
      ],
      [
        "▁old",
        -7.3574789872826445
      ],
      [
        "taking",
        -8.142583171213968
      ],
      [
        "▁`",
        -11.280003543173743
      ],
      [
        "▁repeat",
        -9.378004115269185
      ],
      [
        "▁center",
        -8.91877766432652
      ],
      [
        "▁st",
        -7.316255864460818
      ],
      [
        "▁mo",
        -7.656791271578301
      ],
      [
        "▁arriv",
        -7.871323536174782
      ],
      [
        "▁death",
        -8.403153146077978
      ],
      [
        "▁simple",
        -9.25948605580195
      ],
      [
        "▁thr",
        -8.152049216504125
      ],
      [
        "▁cause",
        -8.419775699577379
      ],
      [
        "▁respond",
        -9.397319582307514
      ],
      [
        "▁104",
        -13.100297995490417
      ],
      [
        "▁scientology",
        -9.458560998889727
      ],
      [
        "ever",
        -10.99252029374719
      ],
      [
        "100",
        -11.126169046448926
      ],
      [
        "be",
        -7.178878376287112
      ],
      [
        "▁h-00",
        -14.077939751247342
      ],
      [
        "3-16",
        -14.136905767427562
      ],
      [
        "!!",
        -8.680316007598034
      ],
      [
        "---=",
        -11.82789170959216
      ],
      [
        "▁at",
        -8.801486665589227
      ],
      [
        "ons",
        -10.56595692661573
      ],
      [
        "▁<",
        -9.428811894508193
      ],
      [
        "▁public",
        -7.937109431943481
      ],
      [
        "▁program",
        -8.650539981646
      ],
      [
        "▁202.",
        -14.066961326149322
      ],
      [
        "rought",
        -8.84928383726328
      ],
      [
        "e",
        -4.3158520478388915
      ],
      [
        "▁we",
        -6.530690589681937
      ],
      [
        ":30",
        -9.919950766679145
      ],
      [
        "▁fifty",
        -10.236686281632453
      ],
      [
        "▁83",
        -15.322788547072959
      ],
      [
        "▁>>",
        -8.408942050936023
      ],
      [
        "▁legal",
        -8.96862720668847
      ],
      [
        "▁chine",
        -9.458804677150585
      ],
      [
        "▁she",
        -8.909007845428341
      ],
      [
        "washington",
        -7.311773059098638
      ],
      [
        "▁1/",
        -13.887911633017263
      ],
      [
        "▁choice",
        -9.13736422685368
      ],
      [
        "▁21",
        -9.7203489093085
      ],
      [
        "▁wonderful",
        -9.201008475360112
      ],
      [
        "883",
        -14.15438031203266
      ],
      [
        "led",
        -8.56122377364095
      ],
      [
        "▁5.8",
        -13.211594130304274
      ],
      [
        "169",
        -14.132303240133881
      ],
      [
        "▁consider",
        -8.11676561588967
      ],
      [
        "▁agent",
        -9.459580307141534
      ],
      [
        "54",
        -12.936357879777361
      ],
      [
        "▁ro",
        -8.38067664810028
      ],
      [
        "▁continu",
        -9.377225429800337
      ],
      [
        "ell",
        -7.934407067217778
      ],
      [
        "▁modern",
        -9.07802223139273
      ],
      [
        "woul",
        -8.996040675627027
      ],
      [
        "19",
        -10.456865167975522
      ],
      [
        "▁155",
        -13.15109811699319
      ],
      [
        "295",
        -12.160820367757692
      ],
      [
        "i",
        -5.892702216880955
      ],
      [
        "▁super",
        -8.670207929065626
      ],
      [
        "713-853-3",
        -14.69068872296564
      ],
      [
        "when",
        -10.093911075754406
      ],
      [
        "ation",
        -10.323213255553187
      ],
      [
        "-7",
        -12.297963295908984
      ],
      [
        "with",
        -7.833760072330719
      ],
      [
        "ritten",
        -9.049634338073208
      ],
      [
        "/25/200",
        -12.112325426631577
      ],
      [
        "▁where",
        -6.3303864986322
      ],
      [
        "▁phil",
        -7.058950833716644
      ],
      [
        "▁article",
        -8.931514531714829
      ],
      [
        "▁j",
        -10.937809915570798
      ],
      [
        "▁trans",
        -8.994327840930392
      ],
      [
        "ifie",
        -9.268583316643017
      ],
      [
        "▁xv",
        -13.162449918911665
      ],
      [
        "▁spot",
        -9.137418892337003
      ],
      [
        "▁02:4",
        -13.19370597151417
      ],
      [
        "8",
        -10.549383621644612
      ],
      [
        "1.5",
        -12.304039930639782
      ],
      [
        "la",
        -7.448072295591107
      ],
      [
        "▁area",
        -7.70922606142424
      ],
      [
        "▁bulldo",
        -9.479837666752847
      ],
      [
        "▁415.",
        -13.853516783498604
      ],
      [
        "ary",
        -7.5246004122383585
      ],
      [
        "05",
        -10.948316364981569
      ],
      [
        "▁hor",
        -11.464129427629091
      ],
      [
        "ee",
        -13.339296558323799
      ],
      [
        "▁202.4",
        -14.138177894591795
      ],
      [
        "419",
        -15.147059457703024
      ],
      [
        "de",
        -9.369169666168602
      ],
      [
        "=",
        -9.47938422417725
      ],
      [
        "198",
        -12.61404466033744
      ],
      [
        "▁return",
        -7.969822759794967
      ],
      [
        "pe",
        -7.935449735004332
      ],
      [
        "▁bug",
        -9.20387350231787
      ],
      [
        "09/",
        -13.576926037779202
      ],
      [
        "▁compar",
        -9.156098633530164
      ],
      [
        "▁fast",
        -8.960691326408941
      ],
      [
        "▁traffic",
        -9.479844245249957
      ],
      [
        "▁6/",
        -14.986465349723131
      ],
      [
        "▁title",
        -9.458675931298346
      ],
      [
        "eries",
        -9.12591609760171
      ],
      [
        "▁18:",
        -13.104846448394456
      ],
      [
        "▁tell",
        -7.001529896655605
      ],
      [
        "▁53",
        -11.83521502435301
      ],
      [
        "ell",
        -11.871927484342326
      ],
      [
        "▁walk",
        -7.679194140199734
      ],
      [
        "▁term",
        -8.262691444169427
      ],
      [
        "ip",
        -8.106814888374583
      ],
      [
        "▁140",
        -13.557539680807714
      ],
      [
        "▁blow",
        -8.804303860599516
      ],
      [
        "our",
        -8.877108391740848
      ],
      [
        "▁space",
        -8.14110397249404
      ],
      [
        "▁electric",
        -9.250374721898481
      ],
      [
        "▁leav",
        -7.397352012425668
      ],
      [
        "ence",
        -8.340010184771524
      ],
      [
        "▁total",
        -8.760402233104456
      ],
      [
        "▁mm",
        -8.913408442266329
      ],
      [
        "▁bill",
        -8.653457007336174
      ],
      [
        "any",
        -9.173355829436742
      ],
      [
        "▁among",
        -8.705769502659557
      ],
      [
        "▁support",
        -8.033570006278705
      ],
      [
        "▁sand",
        -11.379848541685982
      ],
      [
        "▁movie",
        -8.490661238715287
      ],
      [
        "▁democra",
        -9.077431948570093
      ],
      [
        "▁b",
        -6.92888677661958
      ],
      [
        "ber",
        -8.218154199560125
      ],
      [
        "▁climb",
        -9.302912806792666
      ],
      [
        "▁house",
        -7.274917757727706
      ],
      [
        "▁stick",
        -8.957052342689284
      ],
      [
        "1981",
        -13.177681765788966
      ],
      [
        "▁eastern",
        -9.285421281427755
      ],
      [
        "▁leave",
        -7.248980221707029
      ],
      [
        "535",
        -13.342043072083621
      ],
      [
        "ion",
        -11.21408476222782
      ],
      [
        "▁for",
        -5.030157282061143
      ],
      [
        ".5",
        -11.877263202958114
      ],
      [
        "▁713-853-",
        -12.650615157195254
      ],
      [
        "ern",
        -8.89672716777547
      ],
      [
        "550",
        -14.138024971197327
      ],
      [
        "▁spo",
        -9.187914300464719
      ],
      [
        "242",
        -14.03003538722958
      ],
      [
        "120",
        -14.38482441165698
      ],
      [
        ">",
        -8.485528575884175
      ],
      [
        "▁societ",
        -8.535991084832457
      ],
      [
        "▁adult",
        -9.267522862061089
      ],
      [
        "▁5.3",
        -12.917050090092495
      ],
      [
        "▁thanks",
        -7.871898693129788
      ],
      [
        "▁roll",
        -8.838916832360713
      ],
      [
        "▁76",
        -11.534173471198566
      ],
      [
        "▁holding",
        -9.335634709137254
      ],
      [
        "73",
        -12.572276549803448
      ],
      [
        "170",
        -14.674369146106468
      ],
      [
        "▁gain",
        -9.427713598182272
      ],
      [
        "▁begin",
        -8.995053743415896
      ],
      [
        "bi",
        -11.03152925061998
      ],
      [
        "▁met",
        -8.407022798764139
      ],
      [
        "83",
        -12.47164685136304
      ],
      [
        "▁12:0",
        -12.672542544953671
      ],
      [
        "▁113",
        -13.113565674700755
      ],
      [
        "▁morning",
        -7.076127055766018
      ],
      [
        "▁j",
        -7.408547457695582
      ],
      [
        "▁enron",
        -8.395780978481548
      ],
      [
        "▁increase",
        -8.587503366591687
      ],
      [
        "▁11/29/",
        -11.588860208461057
      ],
      [
        "▁12:42",
        -13.166541441986316
      ],
      [
        "ock",
        -8.837641985223101
      ],
      [
        "▁pictures",
        -9.086368124088246
      ],
      [
        "163",
        -15.14065267998616
      ],
      [
        "cal",
        -11.155704790119795
      ],
      [
        "▁ni",
        -8.782962799544531
      ],
      [
        "▁loud",
        -9.417427769974598
      ],
      [
        "4-79",
        -13.475737153577203
      ],
      [
        "▁gene",
        -9.353516034189946
      ],
      [
        "and",
        -10.66544795153681
      ],
      [
        "▁file",
        -8.085936698541161
      ],
      [
        "39",
        -11.637206619097427
      ],
      [
        ":5",
        -14.280357869335674
      ],
      [
        "α",
        -11.833785825395173
      ],
      [
        "2.6",
        -12.444938920687479
      ],
      [
        "▁government",
        -7.9055086170959346
      ],
      [
        "▁10:4",
        -12.397343587659027
      ],
      [
        "▁30,",
        -14.133461492039805
      ],
      [
        "▁express",
        -8.92941791430954
      ],
      [
        "▁thousand",
        -9.479837615899921
      ],
      [
        "n",
        -3.3255869364285555
      ],
      [
        "st",
        -6.5206572918958665
      ],
      [
        "if",
        -8.379036809334309
      ],
      [
        "nati",
        -9.021036664708447
      ],
      [
        "▁able",
        -8.19716415120838
      ],
      [
        "▁de",
        -13.020138656770019
      ],
      [
        "/30/200",
        -11.247169219236588
      ],
      [
        "▁64.7",
        -13.148243418369379
      ],
      [
        "▁rat",
        -9.043856318786695
      ],
      [
        "▁cold",
        -8.526486346327324
      ],
      [
        "ana",
        -9.942388696697838
      ],
      [
        "▁05",
        -11.350817077834545
      ],
      [
        "42",
        -12.274953641953008
      ],
      [
        "▁xsl",
        -10.123975032621118
      ],
      [
        "185",
        -14.936288602100408
      ],
      [
        "▁allow",
        -8.820990037057555
      ],
      [
        "▁stand",
        -11.833815694314197
      ],
      [
        "×",
        -11.833785825435129
      ],
      [
        "▁im",
        -8.537550822823485
      ],
      [
        "646-",
        -10.793300965609513
      ],
      [
        ",000,000",
        -11.9659978439554
      ],
      [
        "▁so",
        -11.218941534601761
      ],
      [
        "▁2.0",
        -11.449299207262337
      ],
      [
        "16:",
        -14.198968335694197
      ],
      [
        "▁contact",
        -8.836301514801004
      ],
      [
        "▁170",
        -11.451663510935797
      ],
      [
        "▁coffee",
        -8.931045904356257
      ],
      [
        "fifty",
        -13.529294893685877
      ],
      [
        "▁les",
        -14.569714431125762
      ],
      [
        "▁fair",
        -8.57037900170376
      ],
      [
        "1,000",
        -11.273927685449541
      ],
      [
        "▁0.05",
        -13.136790309889701
      ],
      [
        "mike",
        -9.004778664861274
      ],
      [
        "▁thirt",
        -11.589558869595724
      ],
      [
        "c",
        -5.810137483510257
      ],
      [
        "▁br",
        -10.94773012055678
      ],
      [
        "▁early",
        -7.885513161119624
      ],
      [
        "▁education",
        -8.77070469343664
      ],
      [
        "▁94",
        -12.478838242203265
      ],
      [
        "▁07:",
        -12.030054931065974
      ],
      [
        "ware",
        -9.448121605498574
      ],
      [
        "▁environmental",
        -9.467773552722303
      ],
      [
        "▁shoe",
        -8.471207512857436
      ],
      [
        "▁3.2",
        -13.445561934583502
      ],
      [
        "▁and",
        -10.843541831848249
      ],
      [
        "▁writer",
        -9.092590946354287
      ],
      [
        "▁chicken",
        -8.52766320324707
      ],
      [
        "over",
        -10.135244341423348
      ],
      [
        "£",
        -10.550452492101797
      ],
      [
        "um",
        -7.195936018384948
      ],
      [
        "▁additional",
        -9.19177840242694
      ],
      [
        "bei",
        -9.843238950922233
      ],
      [
        "▁1.1",
        -12.839654478651052
      ],
      [
        "▁vii",
        -14.79266929322695
      ],
      [
        "get",
        -11.33405405661711
      ],
      [
        "▁immediate",
        -9.1372493389375
      ],
      [
        "▁small",
        -7.574705259943816
      ],
      [
        "▁mean",
        -7.006517564451176
      ],
      [
        "bu",
        -11.33485450048938
      ],
      [
        "▁ec",
        -9.204466119048513
      ],
      [
        "▁18",
        -9.022365567867356
      ],
      [
        "03",
        -10.997704795848549
      ],
      [
        "th",
        -8.187693223871946
      ],
      [
        "}",
        -11.333785825435129
      ],
      [
        "15",
        -10.272007946672396
      ],
      [
        "/8/",
        -13.141982870234665
      ],
      [
        "▁x",
        -10.277760178101254
      ],
      [
        "v",
        -6.637390567748726
      ],
      [
        "sterda",
        -8.725999996569232
      ],
      [
        "▁122",
        -14.496571227426573
      ],
      [
        "/4",
        -14.507837677050658
      ],
      [
        "▁he",
        -8.181341627242086
      ],
      [
        "▁range",
        -9.488820665401725
      ],
      [
        "▁night",
        -7.411750940611165
      ],
      [
        "k",
        -9.838251410787471
      ],
      [
        "▁basic",
        -8.959807901599685
      ],
      [
        "ft",
        -14.523025007239074
      ],
      [
        ".3",
        -12.322597446836587
      ],
      [
        "45",
        -10.75905829108645
      ],
      [
        "▁ther",
        -6.904655898983937
      ],
      [
        "▁68",
        -13.449249827824033
      ],
      [
        "713-",
        -15.202423208569172
      ],
      [
        "61",
        -12.975113719148485
      ],
      [
        "▁octo",
        -9.169791010962111
      ],
      [
        "▁sun",
        -8.094113022699156
      ],
      [
        "▁correct",
        -8.870788039005491
      ],
      [
        "▁banana",
        -8.931202189121105
      ],
      [
        "▁pe",
        -8.693488705973671
      ],
      [
        "▁21,",
        -14.146030434996668
      ],
      [
        "2/",
        -14.043906342491136
      ],
      [
        "▁fr",
        -8.484479743963924
      ],
      [
        "▁come",
        -6.622907201550289
      ],
      [
        "vi",
        -13.271633197609207
      ],
      [
        "▁sector",
        -9.397330827019228
      ],
      [
        "▁ma",
        -10.677501707364897
      ],
      [
        "▁wednesday",
        -7.613860949255734
      ],
      [
        "▁david",
        -9.302915636763812
      ],
      [
        "▁professional",
        -8.943545549190908
      ],
      [
        "▁chance",
        -9.008704083824158
      ],
      [
        "-518",
        -14.187807511083523
      ],
      [
        "200",
        -8.756247508088084
      ],
      [
        "▁202",
        -11.617891900155048
      ],
      [
        "▁pizza",
        -9.15263791197627
      ],
      [
        "▁beginning",
        -9.216839843735539
      ],
      [
        "▁blue",
        -8.300430566511789
      ],
      [
        "▁13",
        -9.708661677019629
      ],
      [
        "804",
        -15.39459273833808
      ],
      [
        "▁?",
        -6.993488358114005
      ],
      [
        "/200",
        -13.438106912467259
      ],
      [
        "four",
        -10.682034391298334
      ],
      [
        "▁bra",
        -9.310555841840523
      ],
      [
        "▁contract",
        -9.019522170364072
      ],
      [
        "▁6.2",
        -13.59099710178936
      ],
      [
        "▁were",
        -8.561856678746627
      ],
      [
        "****************",
        -9.647989595493517
      ],
      [
        "▁religious",
        -9.397319896840092
      ],
      [
        "▁chang",
        -9.294283010872924
      ],
      [
        "▁alt",
        -14.290942961919017
      ],
      [
        "pe",
        -13.042329633844208
      ],
      [
        "her",
        -11.334030496893174
      ],
      [
        "▁tw",
        -8.86939755426435
      ],
      [
        "ho",
        -11.461160583291992
      ],
      [
        "▁ask",
        -7.346104784541157
      ],
      [
        "hundred",
        -12.469625072036138
      ],
      [
        "▁hoc",
        -11.122093153997735
      ],
      [
        "5-2",
        -13.171837843619866
      ],
      [
        "▁w/o",
        -13.283869278045032
      ],
      [
        "▁juic",
        -9.022076909764674
      ],
      [
        "▁girl",
        -7.772185495719856
      ],
      [
        ".99",
        -13.829769440686343
      ],
      [
        "line",
        -10.486520246562543
      ],
      [
        "▁al",
        -9.593659622937922
      ],
      [
        "▁transport",
        -7.607249264941009
      ],
      [
        "▁friend",
        -7.7294557226120055
      ],
      [
        "emp",
        -11.876212475785815
      ],
      [
        "▁happ",
        -8.24499845992509
      ],
      [
        "▁no",
        -7.909575133478278
      ],
      [
        "om",
        -8.375282610503438
      ],
      [
        "▁mountain",
        -9.216654721351714
      ],
      [
        "under",
        -10.713415379023516
      ],
      [
        "▁skin",
        -9.408308491706627
      ],
      [
        "▁certain",
        -8.210341734413245
      ],
      [
        "io",
        -8.65433998279381
      ],
      [
        "istan",
        -9.047922897781413
      ],
      [
        "92",
        -12.130184995798194
      ],
      [
        "#",
        -12.793241489426944
      ],
      [
        "▁campaign",
        -9.200261990454726
      ],
      [
        "▁allowed",
        -9.280557163694086
      ],
      [
        "57",
        -11.891159420239507
      ],
      [
        "▁laura",
        -7.896577501300377
      ],
      [
        "▁river",
        -8.894960140568603
      ],
      [
        "▁5/1",
        -12.79150994845858
      ],
      [
        "v",
        -10.803216070016004
      ],
      [
        "val",
        -11.348403420490468
      ],
      [
        "56",
        -12.270905061205728
      ],
      [
        "▁twi",
        -8.964659892259112
      ],
      [
        "▁al",
        -5.937467870188139
      ],
      [
        "▁birthday",
        -8.670165357740531
      ],
      [
        "▁mu",
        -9.426527072591906
      ],
      [
        "▁target",
        -9.377711894345305
      ],
      [
        "giving",
        -9.218170616975677
      ],
      [
        "▁arm",
        -8.28526994317366
      ],
      [
        "▁09/1",
        -12.073086897726844
      ],
      [
        "▁ne",
        -8.742753231612332
      ],
      [
        "u",
        -6.422267840021648
      ],
      [
        "ance",
        -11.83383946390069
      ],
      [
        "▁particular",
        -8.168910858612637
      ],
      [
        "▁protection",
        -9.252358658623873
      ],
      [
        "▁their",
        -6.577564744618091
      ],
      [
        "▁102",
        -12.015717884418418
      ],
      [
        "▁spider",
        -9.377737114398597
      ],
      [
        "▁tow",
        -9.212732133102016
      ],
      [
        "▁2",
        -8.323821680644631
      ],
      [
        "▁major",
        -8.461192528997787
      ],
      [
        "▁decide",
        -9.46328825673728
      ],
      [
        "65",
        -11.062979589335495
      ],
      [
        "gar",
        -9.109780035017742
      ],
      [
        "▁neck",
        -9.20048405653802
      ],
      [
        "/22/200",
        -13.133961365114281
      ],
      [
        "ough",
        -7.869987987627031
      ],
      [
        "▁wide",
        -8.832873757790889
      ],
      [
        "▁got",
        -9.69475897458434
      ],
      [
        "eral",
        -11.845563440408633
      ],
      [
        "▁ha",
        -9.472018468067569
      ],
      [
        "polis",
        -8.186168000525893
      ],
      [
        "▁0.",
        -13.638150010343118
      ],
      [
        "▁apply",
        -9.132918392127742
      ],
      [
        "60",
        -10.949356537605157
      ],
      [
        "▁select",
        -9.337985547290016
      ],
      [
        "@",
        -10.554571148747018
      ],
      [
        "▁mumm",
        -8.487997427687565
      ],
      [
        "▁educat",
        -11.888247019117516
      ],
      [
        "▁civil",
        -9.107511223837708
      ],
      [
        "▁led",
        -9.39262858489508
      ],
      [
        "once",
        -8.789961681433875
      ],
      [
        "▁research",
        -8.381242427491518
      ],
      [
        "▁straight",
        -9.28505734584718
      ],
      [
        "▁link",
        -8.76035684786639
      ],
      [
        "▁wake",
        -9.458743764212011
      ],
      [
        "▁hurt",
        -8.432822400094189
      ],
      [
        "▁as",
        -6.848736866654512
      ],
      [
        "▁che",
        -8.09254794576394
      ],
      [
        "▁object",
        -9.03484430992972
      ],
      [
        "sie",
        -11.754802446786904
      ],
      [
        "▁display",
        -9.00861891466375
      ],
      [
        "▁'",
        -8.499373499932924
      ],
      [
        "▁goal",
        -9.261072047832116
      ],
      [
        "▁6/1",
        -13.68037551197092
      ],
      [
        "▁1.",
        -12.094938996564373
      ],
      [
        "5.6",
        -13.1400501831892
      ],
      [
        "▁other",
        -6.288896977530217
      ],
      [
        "▁grow",
        -7.90634372057375
      ],
      [
        "▁10,000",
        -11.468522943360597
      ],
      [
        "▁situation",
        -8.80297610795946
      ],
      [
        "▁po",
        -11.008071481084977
      ],
      [
        "▁publish",
        -8.956203777057873
      ],
      [
        "▁trip",
        -7.617127228031334
      ],
      [
        "▁depend",
        -9.070047726089676
      ],
      [
        "ph",
        -8.422004053556655
      ],
      [
        "▁200,",
        -14.14712352768953
      ],
      [
        ",500",
        -10.760021148299018
      ],
      [
        "let",
        -11.33634975264456
      ],
      [
        "▁197",
        -9.69459253888492
      ],
      [
        "18",
        -11.156516477548015
      ],
      [
        "▁11:3",
        -11.271903610617212
      ],
      [
        "▁weekend",
        -9.138281083688815
      ],
      [
        "▁195",
        -10.468279737945544
      ],
      [
        "line",
        -8.479136179438736
      ],
      [
        "▁sara",
        -8.51220133334667
      ],
      [
        "▁surprise",
        -8.749761682488778
      ],
      [
        "▁tra",
        -8.81212590031054
      ],
      [
        "▁+",
        -12.359034424904078
      ],
      [
        "▁163",
        -12.509491590173866
      ],
      [
        "002",
        -14.61004216545788
      ],
      [
        "▁g",
        -10.973761537441948
      ],
      [
        "▁khinssa",
        -11.833785828601398
      ],
      [
        "▁64",
        -12.54155585686422
      ],
      [
        "du",
        -14.463914734342401
      ],
      [
        "▁bike",
        -9.340251002493492
      ],
      [
        "▁offer",
        -8.228699293885931
      ],
      [
        "0/200",
        -13.144123309107325
      ],
      [
        "ton@e",
        -11.320930134632315
      ],
      [
        "▁tape",
        -8.872795819167841
      ],
      [
        "en",
        -10.98587827178205
      ],
      [
        "▁600",
        -11.992235792398532
      ],
      [
        "▁pakistan",
        -9.316965547966692
      ],
      [
        "2",
        -7.6049283355976325
      ],
      [
        "▁co",
        -7.6086626469719105
      ],
      [
        "’",
        -8.356425803803674
      ],
      [
        "▁finger",
        -8.680933932740388
      ],
      [
        "▁influence",
        -9.41806988952198
      ],
      [
        "▁ga",
        -7.524515666659405
      ],
      [
        "▁08:5",
        -12.695296350327888
      ],
      [
        "▁rest",
        -8.357267310280877
      ],
      [
        "▁n",
        -10.854310079964955
      ],
      [
        "mar",
        -11.87875920010933
      ],
      [
        "▁baby",
        -7.546433875679716
      ],
      [
        "▁510",
        -14.65838821448321
      ],
      [
        "▁direction",
        -9.484160156402055
      ],
      [
        "▁09:5",
        -13.197391014154238
      ],
      [
        "ard",
        -8.465365078071507
      ],
      [
        "▁per",
        -7.465536829958845
      ],
      [
        "tain",
        -8.84892129252453
      ],
      [
        "▁especial",
        -8.660594467122335
      ],
      [
        "▁explor",
        -9.233321875768572
      ],
      [
        "888.",
        -12.636947950041677
      ],
      [
        "▁christ",
        -8.991952155429228
      ],
      [
        "1/200",
        -13.247358491964661
      ],
      [
        "▁hit",
        -8.069167359074193
      ],
      [
        "ami",
        -8.256936710355331
      ],
      [
        "▁-",
        -6.672550242218498
      ],
      [
        "▁most",
        -7.1145652880158075
      ],
      [
        "▁acc",
        -10.4426701642256
      ],
      [
        "▁young",
        -8.112558615669567
      ],
      [
        "...............",
        -11.472085322917493
      ],
      [
        "▁better",
        -7.624404749596126
      ],
      [
        "0.7",
        -14.545472279677155
      ],
      [
        "▁turist",
        -11.335733798982876
      ],
      [
        "h",
        -4.251603060837546
      ],
      [
        "▁world",
        -7.192082914332567
      ],
      [
        "▁lake",
        -8.464283060374193
      ],
      [
        "▁cage",
        -9.177868758447403
      ],
      [
        "▁iraqi",
        -9.149839215545416
      ],
      [
        "14",
        -10.356076179222695
      ],
      [
        "tar",
        -11.467785833278288
      ],
      [
        "5.0",
        -14.634618052259844
      ],
      [
        "▁operation",
        -9.268775951018457
      ],
      [
        "▁color",
        -8.070585914903283
      ],
      [
        "ive",
        -7.07269779087986
      ],
      [
        "he",
        -7.136458974037556
      ],
      [
        "183",
        -12.302789920285468
      ],
      [
        "08",
        -11.329350389901101
      ],
      [
        "us",
        -7.936784403825473
      ],
      [
        "53",
        -12.926587056744161
      ],
      [
        "▁>",
        -9.25200696802715
      ],
      [
        "ch",
        -6.615790907789598
      ],
      [
        "09/20",
        -13.900643861991316
      ],
      [
        "r",
        -5.390927117246317
      ],
      [
        "ome",
        -8.970686798042296
      ],
      [
        "▁near",
        -8.588593832158661
      ],
      [
        "▁forty",
        -11.341341411131513
      ],
      [
        "▁best",
        -7.351765805524215
      ],
      [
        "▁713-654-",
        -12.338945399348273
      ],
      [
        "age",
        -7.609327764005608
      ],
      [
        "on",
        -8.513306147673212
      ],
      [
        "▁online",
        -9.34506553922201
      ],
      [
        "▁spoke",
        -8.89479393860999
      ],
      [
        "▁52",
        -13.489944193561968
      ],
      [
        "▁department",
        -9.023307413585155
      ],
      [
        "▁60,",
        -14.127858255991535
      ],
      [
        "▁milk",
        -7.903543546787423
      ],
      [
        "out",
        -7.858831281268998
      ],
      [
        "▁129",
        -12.292761266971034
      ],
      [
        ";",
        -5.847096126235187
      ],
      [
        "▁front",
        -8.26995762723866
      ],
      [
        "ian",
        -7.609165023452071
      ],
      [
        "1/30/",
        -14.050747197655259
      ],
      [
        "▁quer",
        -9.141005751000836
      ],
      [
        "▁cap",
        -11.042763508224242
      ],
      [
        "▁sick",
        -9.236105372964726
      ],
      [
        "ed",
        -3.9656774943322937
      ],
      [
        "ever",
        -9.015581108515743
      ],
      [
        "▁)",
        -8.872842140444845
      ],
      [
        "0",
        -7.942014689472322
      ],
      [
        "▁language",
        -8.043747694198618
      ],
      [
        "ro",
        -7.143415921258842
      ],
      [
        "▁format",
        -9.311970937882414
      ],
      [
        "▁vote",
        -8.727720465532151
      ],
      [
        "hav",
        -9.281154885061614
      ],
      [
        "nda",
        -8.975231535341859
      ],
      [
        "202",
        -13.909683113755968
      ],
      [
        "▁outside",
        -8.367781422575796
      ],
      [
        "▁went",
        -7.305383842011239
      ],
      [
        "ester",
        -9.360892092528688
      ],
      [
        "51",
        -13.168608066560095
      ],
      [
        "▁week",
        -7.423534200285972
      ],
      [
        "▁clean",
        -8.018541165034156
      ],
      [
        "▁play",
        -6.7131092363744065
      ],
      [
        "▁when",
        -7.1746790269173095
      ],
      [
        "▁toward",
        -9.099749241976577
      ],
      [
        "ol",
        -7.603189052657037
      ],
      [
        "▁57",
        -11.163484242835816
      ],
      [
        "857",
        -13.99478226486609
      ],
      [
        "▁made",
        -7.171192307671959
      ],
      [
        "▁!!",
        -8.519732313854664
      ],
      [
        "▁grant",
        -9.3795959215727
      ],
      [
        "???????????????",
        -11.554970775406666
      ],
      [
        "fr",
        -13.6376372973617
      ],
      [
        "▁,",
        -8.356357715006416
      ],
      [
        "▁y",
        -14.20544008200894
      ],
      [
        "houston",
        -8.293769357863146
      ],
      [
        "▁list",
        -6.724935285476688
      ],
      [
        "363",
        -14.556768785455315
      ],
      [
        "583",
        -14.127899028574245
      ],
      [
        "2,000",
        -10.97749512582482
      ],
      [
        "***",
        -10.342156866963231
      ],
      [
        "▁arrive",
        -7.99877860426918
      ],
      [
        "th",
        -6.64947520438928
      ],
      [
        "▁bre",
        -9.172852735254452
      ],
      [
        "±",
        -14.13677057935472
      ],
      [
        "--------------",
        -9.78002565804236
      ],
      [
        "▁determine",
        -9.137252438523479
      ],
      [
        "...",
        -9.005493748066165
      ],
      [
        "▁bowl",
        -9.011021689531791
      ],
      [
        "680",
        -12.884090929504229
      ],
      [
        "ti",
        -11.721458890591762
      ],
      [
        "449",
        -14.15307238737037
      ],
      [
        "▁print",
        -9.173599572633714
      ],
      [
        "000",
        -12.033561010171683
      ],
      [
        "▁location",
        -8.906517058521704
      ],
      [
        "134",
        -13.188304911748338
      ],
      [
        "4:5",
        -14.567715117453758
      ],
      [
        "▁uh",
        -7.396638407131303
      ],
      [
        "▁183",
        -10.543131175840326
      ],
      [
        "▁7.",
        -12.563655679205034
      ],
      [
        "▁425-",
        -14.137749306873557
      ],
      [
        "ce",
        -12.10047152210219
      ],
      [
        "table",
        -8.678623382765835
      ],
      [
        "yo",
        -15.099394858063627
      ],
      [
        "▁bee",
        -9.337284152115927
      ],
      [
        "uk",
        -8.96060588713762
      ],
      [
        "▁airport",
        -7.914527219907149
      ],
      [
        "tho",
        -11.220322659418951
      ],
      [
        "▁job",
        -7.8509551231557415
      ],
      [
        "▁bu",
        -8.539807235532614
      ],
      [
        "▁ma",
        -10.186220961378396
      ],
      [
        "22-",
        -13.183234638764144
      ],
      [
        "altho",
        -11.741346848193063
      ],
      [
        "▁205",
        -12.660918673195054
      ],
      [
        "▁abilit",
        -9.45842950282552
      ],
      [
        "▁10:3",
        -12.310518676031215
      ],
      [
        "▁on",
        -6.120852885470935
      ],
      [
        "▁e",
        -11.439061779438207
      ],
      [
        "▁06/0",
        -14.136984329702415
      ],
      [
        "▁fit",
        -8.65726783267046
      ],
      [
        "▁comp",
        -8.338081157888507
      ],
      [
        "▁whi",
        -9.229987249173398
      ],
      [
        "▁3.",
        -11.838486170755697
      ],
      [
        "▁example",
        -7.965084041692452
      ],
      [
        "▁flower",
        -9.072013867325332
      ],
      [
        "▁sleep",
        -8.195794072268587
      ],
      [
        "hin",
        -10.374880887447764
      ],
      [
        "/17/",
        -12.886927881943858
      ],
      [
        "口",
        -11.333785825435129
      ],
      [
        "▁miss",
        -8.300908098283447
      ],
      [
        "▁extreme",
        -8.882551827632184
      ],
      [
        "▁desk",
        -9.172263309435863
      ],
      [
        "▁directive",
        -9.185844407104192
      ],
      [
        "018",
        -13.097555483422406
      ],
      [
        "750",
        -14.563579567680097
      ],
      [
        "82",
        -12.695234607868187
      ],
      [
        "5",
        -8.494990326661592
      ],
      [
        "▁intelligence",
        -9.437727653063286
      ],
      [
        "▁ice",
        -9.162622349788421
      ],
      [
        "▁:",
        -7.256476862053417
      ],
      [
        "▁bag",
        -8.47288016267375
      ],
      [
        "▁approach",
        -9.15263460669395
      ],
      [
        "▁tip",
        -9.35915019015582
      ],
      [
        "ug",
        -8.756244557765033
      ],
      [
        "582",
        -13.102324567069678
      ],
      [
        "1507",
        -13.383298432819583
      ],
      [
        "in",
        -6.53001450607923
      ],
      [
        "▁develop",
        -8.373219758141841
      ],
      [
        "▁boot",
        -9.254672651322437
      ],
      [
        "▁record",
        -8.192387930378505
      ],
      [
        "▁subject",
        -8.679733769747536
      ],
      [
        "▁220",
        -11.833843655943172
      ],
      [
        "▁19",
        -9.1076050918256
      ],
      [
        "▁whil",
        -7.852958576257973
      ],
      [
        "▁them",
        -6.589170159202508
      ],
      [
        "4.",
        -14.018402976933867
      ],
      [
        "▁1338",
        -13.184186855170024
      ],
      [
        "thr",
        -11.182826915678534
      ],
      [
        "▁never",
        -7.426569446895363
      ],
      [
        "▁drink",
        -8.129213140972272
      ],
      [
        "▁wrong",
        -8.623386407104508
      ],
      [
        "▁c",
        -10.178172696842289
      ],
      [
        "gri",
        -11.087957216298108
      ],
      [
        "▁music",
        -8.814181669613614
      ],
      [
        "fro",
        -7.918171548395994
      ],
      [
        "▁nation",
        -8.493221874516214
      ],
      [
        "1/8",
        -12.30354400335542
      ],
      [
        "▁simpl",
        -8.811087065123843
      ],
      [
        "▁standing",
        -9.47185307670295
      ],
      [
        "▁plann",
        -8.932188803596855
      ],
      [
        "en",
        -9.930597159475044
      ],
      [
        "▁english",
        -8.552868894697614
      ],
      [
        "▁ron",
        -9.318195536959866
      ],
      [
        ".9",
        -13.237707183940275
      ],
      [
        "▁187",
        -11.728130844442214
      ],
      [
        "ong",
        -8.800996149081918
      ],
      [
        "55",
        -11.29034389136408
      ],
      [
        "▁138",
        -12.92362701465887
      ],
      [
        "▁713-6",
        -13.034209030646092
      ],
      [
        "▁rec",
        -11.836390683277891
      ],
      [
        "▁value",
        -8.285975436350224
      ],
      [
        "d",
        -7.957113490295205
      ],
      [
        "▁did",
        -7.541358566476626
      ],
      [
        "▁special",
        -8.373927077480104
      ],
      [
        "ine",
        -8.365569771497189
      ],
      [
        "▁spa",
        -8.895556345533514
      ],
      [
        "▁refer",
        -9.315646740539503
      ],
      [
        "▁large",
        -7.607232800807263
      ],
      [
        "▁response",
        -8.918699875219946
      ],
      [
        "▁meeting",
        -8.467471764150297
      ],
      [
        "▁analys",
        -9.225790506890544
      ],
      [
        "28",
        -10.97103305750776
      ],
      [
        "▁m",
        -11.005205169478106
      ],
      [
        "ev",
        -8.76173918959416
      ],
      [
        "oth",
        -11.630005899227083
      ],
      [
        "bby",
        -9.282550075019149
      ],
      [
        "i",
        -2.8124076435862975
      ],
      [
        "▁…",
        -9.423272303804797
      ],
      [
        "mi",
        -10.350978540918216
      ],
      [
        "▁39",
        -12.103642793380354
      ],
      [
        "ward",
        -8.880695661209417
      ],
      [
        "▁student",
        -8.50306839569275
      ],
      [
        "pl",
        -8.63111145504507
      ],
      [
        "▁side",
        -8.056787216542325
      ],
      [
        "▁very",
        -6.380647254253596
      ],
      [
        "tion",
        -7.915784878248404
      ],
      [
        "▁exact",
        -8.882558196589452
      ],
      [
        "af",
        -13.774373078014477
      ],
      [
        "▁rabbit",
        -9.479838386115855
      ],
      [
        "▁se",
        -8.27547226658779
      ],
      [
        "▁hall",
        -9.3959132485952
      ],
      [
        "▁he",
        -8.534720388220439
      ],
      [
        "dy",
        -12.875179971822407
      ],
      [
        "+",
        -15.518265406639655
      ],
      [
        "▁mr",
        -7.819645212629678
      ],
      [
        "lin",
        -8.669889247315796
      ],
      [
        "▁rose",
        -9.369828435343676
      ],
      [
        "5-9",
        -14.137390615099072
      ],
      [
        "▁pencil",
        -9.049608429899276
      ],
      [
        "▁8",
        -9.408204222629285
      ],
      [
        "▁appear",
        -8.543960147164812
      ],
      [
        "▁281",
        -12.76221967779616
      ],
      [
        "it",
        -9.190207159730747
      ],
      [
        "▁pa",
        -7.979554195531554
      ],
      [
        "▁cla",
        -8.488489221713369
      ],
      [
        "▁gu",
        -8.576077121316972
      ],
      [
        "▁b",
        -8.234301792178819
      ],
      [
        "▁100",
        -9.714914411262882
      ],
      [
        "108",
        -12.520739791687621
      ],
      [
        "▁wou",
        -13.229284662502392
      ],
      [
        "co",
        -11.294682586699293
      ],
      [
        "▁si",
        -8.948515150589142
      ],
      [
        "▁70",
        -10.827511708373175
      ],
      [
        "▁share",
        -8.922815607555457
      ],
      [
        "▁breakfast",
        -8.689442434269354
      ],
      [
        "▁initial",
        -9.184138248324555
      ],
      [
        "bi",
        -8.074334628904854
      ],
      [
        "▁cake",
        -9.25162086700405
      ],
      [
        "▁election",
        -9.036884679602526
      ],
      [
        "79",
        -11.29484954084604
      ],
      [
        "853-3",
        -14.140827607357918
      ],
      [
        "00",
        -11.338619248245909
      ],
      [
        "hat",
        -7.3915594095763515
      ],
      [
        "▁lot",
        -7.35447794582548
      ],
      [
        "▁apri",
        -8.545779646290509
      ],
      [
        "abilit",
        -8.993232555272606
      ],
      [
        "▁3",
        -10.461879651757403
      ],
      [
        "▁mommy",
        -6.828050079635064
      ],
      [
        "1,5",
        -13.143611588264069
      ],
      [
        "done",
        -7.924389163755589
      ],
      [
        "6",
        -11.333785825435129
      ],
      [
        "▁02:3",
        -14.039135444681833
      ],
      [
        "▁wheel",
        -9.341045251857555
      ],
      [
        "▁04:1",
        -12.256999863441553
      ],
      [
        "incin",
        -9.043479078396043
      ],
      [
        "194",
        -14.45571447231612
      ],
      [
        "▁reach",
        -8.652732793345812
      ],
      [
        "7:4",
        -13.733506680232077
      ],
      [
        "le",
        -6.156208793046739
      ],
      [
        "▁indicat",
        -9.267883234574338
      ],
      [
        "▁#",
        -9.37756217200701
      ],
      [
        ".782",
        -12.337539463900077
      ],
      [
        "▁member",
        -8.443433911983096
      ],
      [
        "ama",
        -9.072256725874855
      ],
      [
        "▁wall",
        -8.814699817942225
      ],
      [
        "4-",
        -13.552675663638237
      ],
      [
        "▁pivot",
        -9.233322455351912
      ],
      [
        "▁dat",
        -10.961870180146766
      ],
      [
        "▁03",
        -11.284359577117705
      ],
      [
        "8",
        -8.969752075568277
      ],
      [
        "▁09:4",
        -12.138591205918775
      ],
      [
        "▁involv",
        -8.739440411174716
      ],
      [
        "▁a",
        -9.349514141884656
      ],
      [
        "-20",
        -14.062585561929335
      ],
      [
        "▁10/2",
        -13.225127566197031
      ],
      [
        "▁p",
        -6.971191907334959
      ],
      [
        "▁national",
        -8.098977046408763
      ],
      [
        "466",
        -11.802185778398112
      ],
      [
        "▁xi",
        -13.03778023262626
      ],
      [
        "▁spen",
        -9.279798267960075
      ],
      [
        "▁lie",
        -9.265321697314793
      ],
      [
        "▁pal",
        -11.623352589811217
      ],
      [
        "▁da",
        -8.115773740426297
      ],
      [
        "▁warm",
        -8.667121692786052
      ],
      [
        "▁w",
        -8.44909452292899
      ],
      [
        "head",
        -8.766458726024016
      ],
      [
        "1530",
        -12.901235037960074
      ],
      [
        "▁version",
        -9.321107518969333
      ],
      [
        "▁16.",
        -14.199282383172985
      ],
      [
        "▁direct",
        -8.498970148065773
      ],
      [
        "abo",
        -13.226014168214702
      ],
      [
        "▁remind",
        -9.479931203211216
      ],
      [
        "▁just",
        -5.998348969204042
      ],
      [
        "▁09:",
        -12.264147356493273
      ],
      [
        "▁willing",
        -9.46356215920709
      ],
      [
        "▁ear",
        -9.482445896107496
      ],
      [
        "▁listen",
        -8.749738043853295
      ],
      [
        "▁for",
        -8.892020744218406
      ],
      [
        "▁street",
        -8.198330943953712
      ],
      [
        "ig",
        -8.338245687720697
      ],
      [
        "▁160",
        -10.48923474133084
      ],
      [
        "▁sea",
        -7.96326923890062
      ],
      [
        "▁now",
        -6.137152089125768
      ],
      [
        "▁04:",
        -12.413054408096652
      ],
      [
        "940",
        -13.144619348236319
      ],
      [
        "-40",
        -14.138646239169773
      ],
      [
        "193",
        -14.38386731268611
      ],
      [
        "acio",
        -11.783930075849659
      ],
      [
        "▁female",
        -9.397324191051233
      ],
      [
        "ic",
        -6.916887632679162
      ],
      [
        "▁gas",
        -8.87065706051049
      ],
      [
        "▁be",
        -5.10546657731296
      ],
      [
        "eve",
        -10.31123112989284
      ],
      [
        "ff",
        -8.215000325948928
      ],
      [
        "_______________",
        -10.368062127986821
      ],
      [
        "▁spell",
        -9.322495202930064
      ],
      [
        "al",
        -10.361669615324121
      ],
      [
        "sel",
        -11.095865953535217
      ],
      [
        "ck",
        -11.501990416744686
      ],
      [
        "▁found",
        -7.6919614859524525
      ],
      [
        "u",
        -5.730887179067297
      ],
      [
        "▁photograph",
        -9.078025570392285
      ],
      [
        "▁dangerous",
        -9.321227290789274
      ],
      [
        "52",
        -12.89288325036499
      ],
      [
        "008",
        -13.284409566334318
      ],
      [
        "▁--",
        -7.940506446943769
      ],
      [
        "among",
        -11.64830135198203
      ],
      [
        "-f",
        -11.867378889831972
      ],
      [
        "333",
        -14.345008994232288
      ],
      [
        "▁kansa",
        -8.632561531566687
      ],
      [
        ".6",
        -12.645278021290721
      ],
      [
        "908",
        -13.98920289307353
      ],
      [
        "▁;",
        -8.155138699324173
      ],
      [
        "other",
        -12.279273453871173
      ],
      [
        "▁proper",
        -9.021095426289
      ],
      [
        "▁following",
        -8.51427309567449
      ],
      [
        "rick",
        -9.054948935291524
      ],
      [
        "▁04:3",
        -12.39975877017382
      ],
      [
        "ad",
        -11.29363953844414
      ],
      [
        "▁pig",
        -9.369181804127198
      ],
      [
        "▁federal",
        -9.302921081023673
      ],
      [
        "▁179",
        -12.177181067986169
      ],
      [
        "▁apartment",
        -9.45914834815667
      ],
      [
        "600",
        -11.637633919009222
      ],
      [
        "▁plan",
        -8.306502187294061
      ],
      [
        "here",
        -8.1828814778635
      ],
      [
        "▁barn",
        -9.384713544748749
      ],
      [
        "▁they",
        -5.616133746390841
      ],
      [
        "▁pm",
        -7.143833198925835
      ],
      [
        "▁trade",
        -8.814306883299567
      ],
      [
        "ound",
        -8.95286447858274
      ],
      [
        "twenty",
        -11.271913807343168
      ],
      [
        "▁wi",
        -14.407127597437647
      ],
      [
        "▁!!!!!!",
        -11.049216165262706
      ],
      [
        "▁mom",
        -7.88106669294219
      ],
      [
        "▁york",
        -7.722743356847892
      ],
      [
        "▁1,0",
        -14.58135672868335
      ],
      [
        "ul",
        -12.818709659508759
      ],
      [
        "▁p",
        -9.90999624969824
      ],
      [
        "98",
        -10.894723327413537
      ],
      [
        "▁product",
        -8.311747758446668
      ],
      [
        "▁fla",
        -9.23190464108205
      ],
      [
        "eight",
        -11.16883579998074
      ],
      [
        "004",
        -12.193711620918602
      ],
      [
        "-44",
        -14.00929965221193
      ],
      [
        "25/01",
        -14.13408639190938
      ],
      [
        "ization",
        -9.424486519676288
      ],
      [
        "▁pa",
        -10.829832861928496
      ],
      [
        "▁tree",
        -8.763539531198774
      ],
      [
        "▁not",
        -11.602694169155521
      ],
      [
        "▁bathroom",
        -9.35857351634246
      ],
      [
        "▁5000",
        -11.218341676545693
      ],
      [
        "ha",
        -10.276535708534153
      ],
      [
        "9",
        -8.142959650847832
      ],
      [
        "▁white",
        -8.018706093022356
      ],
      [
        "nix",
        -8.260684047589308
      ],
      [
        "tter",
        -8.918767816572105
      ],
      [
        "474",
        -14.504383402546411
      ],
      [
        "ight",
        -9.357746732889971
      ],
      [
        "▁ad",
        -8.680325829351204
      ],
      [
        "831",
        -13.883646719328423
      ],
      [
        "b",
        -6.325379732110123
      ],
      [
        "uq",
        -11.84168689817814
      ],
[...]
