{
  "version": "1.0",
  "truncation": null,
  "padding": null,
  "added_tokens": [
    {
      "id": 2708,
      "content": "[PAD]",
      "single_word": false,
      "lstrip": false,
      "rstrip": false,
      "normalized": false,
      "special": true
    },
    {
      "id": 3084,
      "content": "[UNK]",
      "single_word": false,
      "lstrip": false,
      "rstrip": false,
      "normalized": false,
      "special": true
    },
    {
      "id": 3304,
      "content": "[SEP]",
      "single_word": false,
      "lstrip": false,
      "rstrip": false,
      "normalized": false,
      "special": true
    },
    {
      "id": 5361,
      "content": "[CLS]",
      "single_word": false,
      "lstrip": false,
      "rstrip": false,
      "normalized": false,
      "special": true
    },
    {
      "id": 6644,
      "content": "[MASK]",
      "single_word": false,
      "lstrip": false,
      "rstrip": false,
      "normalized": false,
      "special": true
    }
  ],
  "normalizer": {
    "type": "Sequence",
    "normalizers": [
      {
        "type": "NFD"
      },
      {
        "type": "Lowercase"
      },
      {
        "type": "StripAccents"
      }
    ]
  },
  "pre_tokenizer": {
    "type": "Sequence",
    "pretokenizers": [
      {
        "type": "Metaspace",
        "replacement": "▁",
        "prepend_scheme": "always",
        "split": true
      }
    ]
  },
  "post_processor": {
    "type": "TemplateProcessing",
    "single": [
      {
        "SpecialToken": {
          "id": "[CLS]",
          "type_id": 0
        }
      },
      {
        "Sequence": {
          "id": "A",
          "type_id": 0
        }
      },
      {
        "SpecialToken": {
          "id": "[SEP]",
          "type_id": 0
        }
      }
    ],
    "pair": [
      {
        "SpecialToken": {
          "id": "[CLS]",
          "type_id": 0
        }
      },
      {
        "Sequence": {
          "id": "A",
          "type_id": 0
        }
      },
      {
        "SpecialToken": {
          "id": "[SEP]",
          "type_id": 0
        }
      },
      {
        "Sequence": {
          "id": "B",
          "type_id": 1
        }
      },
      {
        "SpecialToken": {
          "id": "[SEP]",
          "type_id": 1
        }
      }
    ],
    "special_tokens": {
      "[CLS]": {
        "id": "[CLS]",
        "ids": [
          5361
        ],
        "tokens": [
          "[CLS]"
        ]
      },
      "[SEP]": {
        "id": "[SEP]",
        "ids": [
          3304
        ],
        "tokens": [
          "[SEP]"
        ]
      }
    }
  },
  "decoder": {
    "type": "Metaspace",
    "replacement": "▁",
    "prepend_scheme": "always",
    "split": true
  },
  "model": {
    "type": "WordPiece",
    "unk_token": "[UNK]",
    "continuing_subword_prefix": "##",
    "max_input_chars_per_word": 100,
    "vocab": {
      "##}": 0,
      "▁imple": 1,
      "▁rapporte": 2,
      "▁pri": 3,
      "##pse": 4,
      "▁exchang": 5,
      "▁shape": 6,
      "▁calc": 7,
      "▁inequ": 8,
      "##icked": 9,
      "▁meals": 10,
      "▁doctors": 11,
      "##ais": 12,
      "##oles": 13,
      "▁cartoons": 14,
      "▁relax": 15,
      "##ract": 16,
      "▁names": 17,
      "▁headed": 18,
      "##oup": 19,
      "##3": 20,
      "▁math": 21,
      "##iency": 22,
      "##asing": 23,
      "##irt": 24,
      "▁stuck": 25,
      "▁against": 26,
      "▁mich": 27,
      "##ww": 28,
      "▁becomes": 29,
      "▁great": 30,
      "▁least": 31,
      "##ged": 32,
      "▁discount": 33,
      "▁fee": 34,
      "##ouch": 35,
      "▁players": 36,
      "▁describing": 37,
      "▁expansion": 38,
      "▁young": 39,
      "##”": 40,
      "▁corn": 41,
      "##pol": 42,
      "▁plane": 43,
      "▁defeated": 44,
      "##r.": 45,
      "▁had": 46,
      "▁susp": 47,
      "##tician": 48,
      "▁leaders": 49,
      "##gel": 50,
      "▁guid": 51,
      "▁uniform": 52,
      "##ades": 53,
      "##rel": 54,
      "▁apprec": 55,
      "▁ag": 56,
      "##timate": 57,
      "▁responsibility": 58,
      "▁influenced": 59,
      "▁modified": 60,
      "▁squeeze": 61,
      "▁chicken": 62,
      "▁letting": 63,
      "▁paul": 64,
      "▁format": 65,
      "▁nov": 66,
      "▁last": 67,
      "▁visit": 68,
      "▁shut": 69,
      "##4": 70,
      "##omp": 71,
      "▁presents": 72,
      "##tering": 73,
      "##ought": 74,
      "▁mike": 75,
      "##ρ": 76,
      "##ili": 77,
      "▁she": 78,
      "▁hamb": 79,
      "##ur": 80,
      "##ti": 81,
      "▁origin": 82,
      "▁techniqu": 83,
      "##ression": 84,
      "▁confirmed": 85,
      "##ware": 86,
      "▁again": 87,
      "▁told": 88,
      "▁oc": 89,
      "▁papers": 90,
      "▁struck": 91,
      "##ires": 92,
      "##urs": 93,
      "##ything": 94,
      "▁hi": 95,
      "▁tack": 96,
      "▁****": 97,
      "▁dis": 98,
      "▁seesaw": 99,
      "▁charged": 100,
      "▁conse": 101,
      "##nus": 102,
      "▁containers": 103,
      "▁believes": 104,
      "##ound": 105,
      "▁pit": 106,
      "##ensions": 107,
      "▁continued": 108,
      "▁nobody": 109,
      "▁manner": 110,
      "r": 111,
      "▁whil": 112,
      "▁pup": 113,
      "▁bell": 114,
      "##nam": 115,
      "▁official": 116,
      "▁recr": 117,
      "▁involved": 118,
      "▁wilt": 119,
      "▁file": 120,
      "▁driving": 121,
      "▁chall": 122,
      "▁garden": 123,
      "▁not": 124,
      "▁tha": 125,
      "##σ": 126,
      "##warded": 127,
      "##rol": 128,
      "▁withdraw": 129,
      "▁lin": 130,
      "▁organiz": 131,
      "▁laugh": 132,
      "▁straw": 133,
      "▁)": 134,
      "▁them": 135,
      "▁ex": 136,
      "▁dishes": 137,
      "▁.!": 138,
      "▁farm": 139,
      "▁interpret": 140,
      "▁rug": 141,
      "w": 142,
      "##resent": 143,
      "▁lip": 144,
      "▁fallen": 145,
      "▁wondering": 146,
      "▁gas": 147,
      "▁fung": 148,
      "▁dough": 149,
      "▁lion": 150,
      "▁taxes": 151,
      "▁aim": 152,
      "▁chat": 153,
      "##oral": 154,
      "▁debate": 155,
      "▁rabbit": 156,
      "▁bringing": 157,
      "▁examine": 158,
      "▁hasid": 159,
      "▁batteries": 160,
      "▁organ": 161,
      "▁story": 162,
      "##------->": 163,
      "▁fa": 164,
      "▁phenom": 165,
      "▁into": 166,
      "##iles": 167,
      "▁wh": 168,
      "▁case": 169,
      "▁broken": 170,
      "##ained": 171,
      "##per": 172,
      "▁calend": 173,
      "##±": 174,
      "▁majority": 175,
      "▁legend": 176,
      "▁=": 177,
      "▁accomplish": 178,
      "▁scenes": 179,
      "▁lear": 180,
      "▁foreign": 181,
      "##inu": 182,
      "▁activ": 183,
      "▁state": 184,
      "▁perhap": 185,
      "▁know": 186,
      "▁writing": 187,
      "▁tons": 188,
      "▁flex": 189,
      "▁proc": 190,
      "##..": 191,
      "##minated": 192,
      "▁listing": 193,
      "▁substances": 194,
      "▁psychology": 195,
      "▁ba": 196,
      "##ledge": 197,
      "▁achievements": 198,
      "▁drugs": 199,
      "##ognition": 200,
      "▁sh": 201,
      "##ife": 202,
      "▁forget": 203,
      "▁soccer": 204,
      "▁chocol": 205,
      "##tly": 206,
      "##yond": 207,
      "##lando": 208,
      "▁joke": 209,
      "▁first": 210,
      "##iating": 211,
      "▁journals": 212,
      "♥": 213,
      "▁estate": 214,
      "##tainly": 215,
      "▁sav": 216,
      "▁mechan": 217,
      "##onom": 218,
      "▁responsibilities": 219,
      "▁festival": 220,
      "##jec": 221,
      "▁bathroom": 222,
      "▁camel": 223,
      "▁property": 224,
      "▁pockets": 225,
      "▁identi": 226,
      "▁clear": 227,
      "▁pledged": 228,
      "##ats": 229,
      "▁letters": 230,
      "##ounds": 231,
      "##isions": 232,
      "##ys": 233,
      "##able": 234,
      "▁tre": 235,
      "▁all": 236,
      "▁ev": 237,
      "##ctly": 238,
      "▁innov": 239,
      "▁memory": 240,
      "▁role": 241,
      "##????": 242,
      "▁beer": 243,
      "##lation": 244,
      "▁cli": 245,
      "▁?????": 246,
      "▁talks": 247,
      "▁january": 248,
      "▁response": 249,
      "##uma": 250,
      "##ple": 251,
      "##lus": 252,
      "▁forgotten": 253,
      "▁spoke": 254,
      "▁am": 255,
      "▁become": 256,
      "▁believed": 257,
      "▁unem": 258,
      "▁standing": 259,
      "##aged": 260,
      "##'clock": 261,
      "##ists": 262,
      "▁airline": 263,
      "▁income": 264,
      "▁arrest": 265,
      "▁cred": 266,
      "##anded": 267,
      "▁foc": 268,
      "▁washing": 269,
      "▁foreigners": 270,
      "▁bul": 271,
      "▁surpr": 272,
      "##ete": 273,
      "##mp": 274,
      "▁rum": 275,
      "▁dere": 276,
      "▁invented": 277,
      "▁influ": 278,
      "##opath": 279,
      "▁lands": 280,
      "▁recording": 281,
      "▁participation": 282,
      "▁restrictions": 283,
      "▁airl": 284,
      "▁queries": 285,
      "▁;": 286,
      "##pd": 287,
      "▁sheet": 288,
      "▁cowboy": 289,
      "▁compete": 290,
      "ο": 291,
      "▁seas": 292,
      "##ning": 293,
      "##ca": 294,
      "##ention": 295,
      "▁arti": 296,
      "▁magn": 297,
      "##met": 298,
      "▁access": 299,
      "▁tomato": 300,
      "▁sky": 301,
      "▁destroy": 302,
      "##fully": 303,
      "▁harmonisation": 304,
      "▁patterns": 305,
      "▁n’t": 306,
      "▁del": 307,
      "▁color": 308,
      "▁lying": 309,
      "▁wizard": 310,
      "▁enter": 311,
      "##ison": 312,
      "##icians": 313,
      "▁california": 314,
      "##asa": 315,
      "▁customers": 316,
      "▁suspect": 317,
      "##????????????????": 318,
      "##[": 319,
      "▁tasted": 320,
      "▁ways": 321,
      "▁court": 322,
      "▁third": 323,
      "▁talent": 324,
      "##ologies": 325,
      "▁wear": 326,
      "##stances": 327,
      "▁figure": 328,
      "▁chim": 329,
      "▁sweater": 330,
      "▁special": 331,
      "##selves": 332,
      "▁refri": 333,
      "▁moves": 334,
      "▁winter": 335,
      "▁pas": 336,
      "##pan": 337,
      "▁adam": 338,
      "▁agencies": 339,
      "##otyp": 340,
      "▁doll": 341,
      "▁some": 342,
      "▁licenses": 343,
      "▁takes": 344,
      "##1": 345,
      "▁miam": 346,
      "##akes": 347,
      "▁transit": 348,
      "▁leash": 349,
      "▁draw": 350,
      "▁pony": 351,
      "▁regime": 352,
      "▁rush": 353,
      "▁blame": 354,
      "▁islands": 355,
      "▁ans": 356,
      "▁jumped": 357,
      "##iry": 358,
      "##tail": 359,
      "▁kitt": 360,
      "▁update": 361,
      "##arity": 362,
      "##scrib": 363,
      "##orded": 364,
      "▁appreciate": 365,
      "▁cookies": 366,
      "▁nephew": 367,
      "▁adult": 368,
      "▁allig": 369,
      "▁europe": 370,
      "▁arrival": 371,
      "##load": 372,
      "▁facility": 373,
      "▁mist": 374,
      "▁roared": 375,
      "▁banana": 376,
      "▁data": 377,
      "▁legs": 378,
      "▁changes": 379,
      "▁prev": 380,
      "▁doc": 381,
      "▁threatened": 382,
      "▁its": 383,
      "##ision": 384,
      "▁objec": 385,
      "##oices": 386,
      "▁race": 387,
      "▁coff": 388,
      "##cut": 389,
      "▁nature": 390,
      "▁could": 391,
      "▁tol": 392,
      "##ired": 393,
      "▁tem": 394,
      "▁outside": 395,
      "▁baseball": 396,
      "▁session": 397,
      "▁structures": 398,
      "▁meter": 399,
      "▁military": 400,
      "▁combination": 401,
      "▁dam": 402,
      "▁increasing": 403,
      "ε": 404,
      "▁rolling": 405,
      "▁capture": 406,
      "▁build": 407,
      "▁posted": 408,
      "▁beliefs": 409,
      "##ge": 410,
      "▁aug": 411,
      "▁dancing": 412,
      "▁poli": 413,
      "▁modify": 414,
      "▁art": 415,
      "##ens": 416,
      "##wi": 417,
      "##ss": 418,
      "▁proposals": 419,
      "▁ripped": 420,
      "▁hiking": 421,
      "▁handle": 422,
      "##alsa": 423,
      "▁showed": 424,
      "▁defining": 425,
      "##my": 426,
      "▁ps": 427,
      "▁gel": 428,
      "▁addition": 429,
      "▁positions": 430,
      "▁penc": 431,
      "▁permission": 432,
      "▁interested": 433,
      "▁isl": 434,
      "▁deter": 435,
      "▁needed": 436,
      "▁determine": 437,
      "▁cro": 438,
      "##gry": 439,
      "▁ladder": 440,
      "##ook": 441,
      "▁breaking": 442,
      "▁sym": 443,
      "▁poems": 444,
      "▁duty": 445,
      "▁gym": 446,
      "▁supp": 447,
      "▁invitation": 448,
      "▁pyram": 449,
      "▁reve": 450,
      "▁---=": 451,
      "##ength": 452,
      "▁powder": 453,
      "##iling": 454,
      "▁surge": 455,
      "##formation": 456,
      "##itt": 457,
      "▁supper": 458,
      "##ula": 459,
      "##atisfaction": 460,
      "▁individ": 461,
      "▁analy": 462,
      "##eth": 463,
      "▁creating": 464,
      "▁identifying": 465,
      "##ane": 466,
      "▁gall": 467,
      "▁fash": 468,
      "##oving": 469,
      "▁fuel": 470,
      "▁stopover": 471,
      "▁belongs": 472,
      "##aps": 473,
      "▁tech": 474,
      "▁emer": 475,
      "##less": 476,
      "##ough": 477,
      "▁crack": 478,
      "▁concerns": 479,
      "▁past": 480,
      "▁fact": 481,
      "##pensive": 482,
      "▁elect": 483,
      "▁inviting": 484,
      "▁dollie": 485,
      "▁comedy": 486,
      "▁fre": 487,
      "▁metal": 488,
      "▁cave": 489,
      "▁nonstop": 490,
      "▁mid": 491,
      "##inally": 492,
      "▁prison": 493,
      "▁afford": 494,
      "▁equival": 495,
      "▁partnership": 496,
      "▁mess": 497,
      "▁coll": 498,
      "▁shame": 499,
      "▁ceiling": 500,
      "##ailed": 501,
      "##tery": 502,
      "▁asyl": 503,
      "▁beyond": 504,
      "▁parake": 505,
      "##ection": 506,
      "▁courses": 507,
      "▁cri": 508,
      "▁talk": 509,
      "▁tac": 510,
      "##-1.doc": 511,
      "##ily": 512,
      "##ault": 513,
      "▁command": 514,
      "##ato": 515,
      "▁wrong": 516,
      "▁discover": 517,
      "▁match": 518,
      "▁say": 519,
      "▁invest": 520,
      "▁dinos": 521,
      "ʊ": 522,
      "##ball": 523,
      "▁airport": 524,
      "▁comments": 525,
      "▁mystery": 526,
      "##umb": 527,
      "▁inches": 528,
      "▁activities": 529,
      "▁vegetables": 530,
      "▁monkey": 531,
      "▁jury": 532,
      "##³": 533,
      "▁roar": 534,
      "##'": 535,
      "▁everything": 536,
      "▁puzzle": 537,
      "▁oppose": 538,
      "##essment": 539,
      "##z": 540,
      "##way": 541,
      "▁anticip": 542,
      "##acting": 543,
      "▁probably": 544,
      "##ag": 545,
      "▁sa": 546,
      "▁repa": 547,
      "▁a": 548,
      "▁value": 549,
      "▁mids": 550,
      "▁just": 551,
      "▁fol": 552,
      "▁rather": 553,
      "▁&": 554,
      "▁block": 555,
      "##ecess": 556,
      "▁must": 557,
      "▁persons": 558,
      "▁rope": 559,
      "▁oh": 560,
      "▁_______": 561,
      "▁involvement": 562,
      "▁balzac": 563,
      "▁entities": 564,
      "##inc": 565,
      "▁controls": 566,
      "▁display": 567,
      "##unch": 568,
      "##ores": 569,
      "##oll": 570,
      "▁toes": 571,
      "▁prevail": 572,
      "##ide": 573,
      "▁ever": 574,
      "▁daily": 575,
      "▁behavior": 576,
      "▁collection": 577,
      "▁jeans": 578,
      "▁bus": 579,
      "##?!?": 580,
      "▁detective": 581,
      "▁q": 582,
      "▁orig": 583,
      "▁provide": 584,
      "▁def": 585,
      "##cle": 586,
      "▁cloth": 587,
      "▁hair": 588,
      "▁glow": 589,
      "▁forb": 590,
      "▁excellent": 591,
      "##gery": 592,
      "▁poin": 593,
      "▁documents": 594,
      "##view": 595,
      "##y": 596,
      "▁gras": 597,
      "▁okay": 598,
      "▁decl": 599,
      "▁video": 600,
      "##aries": 601,
      "▁licen": 602,
      "▁resear": 603,
      "▁?": 604,
      "▁profit": 605,
      "▁down": 606,
      "▁move": 607,
      "##unction": 608,
      "▁denti": 609,
      "▁notion": 610,
      "▁strong": 611,
      "##ism": 612,
      "▁connected": 613,
      "▁entering": 614,
      "▁homeopath": 615,
      "▁once": 616,
      "##ass": 617,
      "▁finds": 618,
      "▁woud": 619,
      "##els": 620,
      "▁ten": 621,
      "▁snow": 622,
      "▁realized": 623,
      "##unct": 624,
      "▁fat": 625,
      "▁practices": 626,
      "▁appreciation": 627,
      "▁feedback": 628,
      "▁sand": 629,
      "##cles": 630,
      "▁sk": 631,
      "▁guacamole": 632,
      "▁exh": 633,
      "▁wil": 634,
      "▁campaign": 635,
      "##kle": 636,
      "▁kil": 637,
      "▁coincidence": 638,
      "##qui": 639,
      "▁comed": 640,
      "▁quar": 641,
      "▁ren": 642,
      "▁sunlight": 643,
      "▁drawn": 644,
      "##**********************************": 645,
      "▁answers": 646,
      "▁tick": 647,
      "▁stirrup": 648,
      "##$$": 649,
      "▁regist": 650,
      "▁scholars": 651,
      "▁practice": 652,
      "▁sectors": 653,
      "▁thoug": 654,
      "▁penny": 655,
      "▁loc": 656,
      "##ower": 657,
      "##ipping": 658,
      "##ufact": 659,
      "▁city": 660,
      "▁heav": 661,
      "##ima": 662,
      "▁quickly": 663,
      "##esh": 664,
      "▁sor": 665,
      "▁firms": 666,
      "##oo": 667,
      "▁vol": 668,
      "▁bears": 669,
      "##mos": 670,
      "▁what": 671,
      "##ight": 672,
      "▁ignorance": 673,
      "▁'m": 674,
      "▁aircraft": 675,
      "▁har": 676,
      "▁farrier": 677,
      "▁divers": 678,
      "▁leader": 679,
      "##derstanding": 680,
      "0": 681,
      "##mes": 682,
      "▁dar": 683,
      "##mped": 684,
      "##quis": 685,
      "▁dreamed": 686,
      "▁esc": 687,
      "▁sar": 688,
      "▁gardens": 689,
      "▁struc": 690,
      "▁h": 691,
      "##owed": 692,
      "##lined": 693,
      "▁lost": 694,
      "##iated": 695,
      "▁diaper": 696,
      "▁keeping": 697,
      "▁required": 698,
      "##xt": 699,
      "▁unto": 700,
      "##orted": 701,
      "▁’’": 702,
      "▁sleeve": 703,
      "▁failure": 704,
      "▁grand": 705,
      "▁yellow": 706,
      "▁balloons": 707,
      "▁inter": 708,
      "▁spea": 709,
      "▁wit": 710,
      "▁desk": 711,
      "▁responses": 712,
      "##nets": 713,
      "##ating": 714,
      "8": 715,
      "##oint": 716,
      "▁tens": 717,
      "▁crayon": 718,
      "▁relation": 719,
      "##ved": 720,
      "##d-": 721,
      "##ribb": 722,
      "##inental": 723,
      "▁prosp": 724,
      "▁nav": 725,
      "▁negoti": 726,
      "▁fall": 727,
      "▁trained": 728,
      "▁t": 729,
      "▁allocated": 730,
      "▁family": 731,
      "##ι": 732,
      "▁went": 733,
      "2": 734,
      "▁methods": 735,
      "▁pyr": 736,
      "”": 737,
      "▁organizations": 738,
      "▁program": 739,
      "▁amendments": 740,
      "▁cer": 741,
      "▁succeed": 742,
      "▁accommod": 743,
      "##rim": 744,
      "##corn": 745,
      "▁dies": 746,
      "▁lord": 747,
      "▁santorum": 748,
      "##ck": 749,
      "▁tickets": 750,
      "##waukee": 751,
      "##erc": 752,
      "▁assured": 753,
      "▁brooms": 754,
      "▁itself": 755,
      "▁coc": 756,
      "▁major": 757,
      "##ink": 758,
      "##abit": 759,
      "▁civ": 760,
      "▁secret": 761,
      "▁newark": 762,
      "▁to": 763,
      "##yl": 764,
      "▁puts": 765,
      "▁rib": 766,
      "▁tic": 767,
      "▁real": 768,
      "▁weekday": 769,
      "▁east": 770,
      "▁shore": 771,
      "##centi": 772,
      "▁prosperity": 773,
      "▁jelly": 774,
      "##ott": 775,
      "▁cheese": 776,
      "▁independence": 777,
      "▁bean": 778,
      "▁thy": 779,
      "▁reduced": 780,
      "##ren": 781,
      "▁estimated": 782,
      "##keys": 783,
      "##one": 784,
      "##ace": 785,
      "▁expense": 786,
      "▁knee": 787,
      "▁can": 788,
      "▁childhood": 789,
      "▁doing": 790,
      "▁warning": 791,
      "##ational": 792,
      "▁determ": 793,
      "##als": 794,
      "▁strain": 795,
      "▁asc": 796,
      "##adle": 797,
      "▁recorder": 798,
      "▁pie": 799,
      "##cularly": 800,
      "▁treat": 801,
      "▁language": 802,
      "▁football": 803,
      "▁despite": 804,
      "▁priv": 805,
      "##arture": 806,
      "▁died": 807,
      "▁dealer": 808,
      "▁---": 809,
      "▁winds": 810,
      "▁oil": 811,
      "▁scissors": 812,
      "▁three": 813,
      "##ication": 814,
      "▁faces": 815,
      "▁shirts": 816,
      "▁poverty": 817,
      "▁islam": 818,
      "▁pray": 819,
      "[": 820,
      "▁ship": 821,
      "▁cabin": 822,
      "▁rights": 823,
      "▁wal": 824,
      "▁danger": 825,
      "▁editor": 826,
      "▁suggests": 827,
      "▁sun": 828,
      "<": 829,
      "▁horn": 830,
      "▁s’": 831,
      "##ections": 832,
      "▁landed": 833,
      "▁concluded": 834,
      "##ounts": 835,
      "▁horror": 836,
      "##ctions": 837,
      "▁fig": 838,
      "▁alco": 839,
      "##ics": 840,
      "▁mind": 841,
      "##gth": 842,
      "##ph": 843,
      "##vail": 844,
      "##enti": 845,
      "▁yesterday": 846,
      "▁recognized": 847,
      "▁mr.": 848,
      "▁murder": 849,
      "▁departure": 850,
      "▁licensor": 851,
      "##!!!": 852,
      "##co": 853,
      "▁notebook": 854,
      "▁reduce": 855,
      "##rested": 856,
      "▁posts": 857,
      "▁tex": 858,
      "▁perio": 859,
      "▁oakland": 860,
      "▁partner": 861,
      "▁sme": 862,
      "▁people": 863,
      "▁cleaning": 864,
      "▁confir": 865,
      "##imb": 866,
      "▁hospital": 867,
      "▁cere": 868,
      "##otes": 869,
      "▁pat": 870,
      "▁respon": 871,
      "▁happened": 872,
      "▁series": 873,
      "▁robo": 874,
      "▁samples": 875,
      "▁tummy": 876,
      "▁spe": 877,
      "▁priority": 878,
      "##aid": 879,
      "▁blood": 880,
      "##oke": 881,
      "▁smoke": 882,
      "##atic": 883,
      "▁introduce": 884,
      "▁ourselves": 885,
      "##hap": 886,
      "▁swa": 887,
      "▁cult": 888,
      "▁roman": 889,
      "##ences": 890,
      "▁fail": 891,
      "▁concer": 892,
      "▁relationships": 893,
      "▁hard": 894,
      "▁restriction": 895,
      "▁proof": 896,
      "▁represents": 897,
      "▁landing": 898,
      "##ister": 899,
      "▁near": 900,
      "▁captured": 901,
      "##aking": 902,
      "▁mr": 903,
      "▁ol": 904,
      "▁shopping": 905,
      "##inated": 906,
      "##aches": 907,
      "▁forth": 908,
      "▁current": 909,
      "▁groups": 910,
      "▁categ": 911,
      "▁buildings": 912,
      "##itional": 913,
      "▁quinn": 914,
      "▁civili": 915,
      "##tingu": 916,
      "▁inv": 917,
      "▁ask": 918,
      "▁dan": 919,
      "▁delta": 920,
      "▁aud": 921,
      "▁hay": 922,
      "▁server": 923,
      "##lim": 924,
      "##l": 925,
      "##ance": 926,
      "▁sit": 927,
      "▁magazine": 928,
      "▁occur": 929,
      "▁claims": 930,
      "▁cliff": 931,
      "##9": 932,
      "▁management": 933,
      "▁bent": 934,
      "▁lego": 935,
      "##inoc": 936,
      "▁at": 937,
      "▁identified": 938,
      "##-1": 939,
      "▁signed": 940,
      "▁greet": 941,
      "##owing": 942,
      "▁spa": 943,
      "▁rabb": 944,
      "##ologists": 945,
      "##ize": 946,
      "▁click": 947,
      "▁core": 948,
      "##ern": 949,
      "▁frequ": 950,
      "##alist": 951,
      "▁temples": 952,
      "##ician": 953,
      "▁acts": 954,
      "▁equip": 955,
      "▁prep": 956,
      "▁(": 957,
      "##ective": 958,
      "▁half": 959,
      "▁database": 960,
      "▁few": 961,
      "##ither": 962,
      "##derstand": 963,
      "##erted": 964,
      "▁tutor": 965,
      "▁anybody": 966,
      "▁tags": 967,
      "▁horse": 968,
      "▁presence": 969,
      "▁v": 970,
      "▁upside": 971,
      "▁visits": 972,
      "▁formed": 973,
      "▁mutation": 974,
      "▁stepping": 975,
      "▁solution": 976,
      "##ler": 977,
      "▁forms": 978,
      "▁fed": 979,
      "##rops": 980,
      "▁predators": 981,
      "▁reinfor": 982,
      "##des": 983,
      "##head": 984,
      "##ince": 985,
      "▁shower": 986,
      "▁grow": 987,
      "##erve": 988,
      "##oor": 989,
      "▁exce": 990,
      "▁dragon": 991,
      "##ish": 992,
      "##ounced": 993,
      "▁insects": 994,
      "##ipped": 995,
      "▁versus": 996,
      "▁adver": 997,
      "##oin": 998,
      "##amb": 999,
      "▁denied": 1000,
      "▁requirement": 1001,
      "▁==----": 1002,
      "▁fac": 1003,
      "▁treatments": 1004,
      "▁disease": 1005,
      "▁doggie": 1006,
      "##il": 1007,
      "##aste": 1008,
      "##ville": 1009,
      "▁suppose": 1010,
      "##>": 1011,
      "▁cell": 1012,
      "▁expanding": 1013,
      "▁commit": 1014,
      "▁companies": 1015,
      "▁experiment": 1016,
      "▁explore": 1017,
      "▁laura": 1018,
      "##ager": 1019,
      "##ain": 1020,
      "▁panel": 1021,
      "▁living": 1022,
      "▁shadow": 1023,
      "(": 1024,
      "▁jar": 1025,
      "▁pets": 1026,
      "##where": 1027,
      "▁ingredients": 1028,
      "▁party": 1029,
      "▁advertising": 1030,
      "##velop": 1031,
      "▁yogurt": 1032,
      "▁foundation": 1033,
      "##iliation": 1034,
      "▁behin": 1035,
      "▁held": 1036,
      "▁enj": 1037,
      "▁suck": 1038,
      "##jected": 1039,
      "▁patient": 1040,
      "▁quality": 1041,
      "##uits": 1042,
      "▁orders": 1043,
      "▁inquiry": 1044,
      "▁roo": 1045,
      "##lie": 1046,
      "##namon": 1047,
      "▁contacts": 1048,
      "▁evening": 1049,
      "▁dow": 1050,
      "▁record": 1051,
      "##aces": 1052,
      "▁feature": 1053,
      "▁univers": 1054,
      "▁manufacturers": 1055,
      "##ural": 1056,
      "▁punch": 1057,
      "##ɔ": 1058,
      "▁limited": 1059,
      "▁san": 1060,
      "▁fle": 1061,
      "▁balances": 1062,
      "▁u": 1063,
      "▁call": 1064,
      "▁gram": 1065,
      "▁flu": 1066,
      "▁bumble": 1067,
      "▁describ": 1068,
      "##om": 1069,
      "▁&am": 1070,
      "▁sake": 1071,
      "##idding": 1072,
      "▁consum": 1073,
      "▁drawer": 1074,
      "##ging": 1075,
      "▁obtained": 1076,
      "▁recon": 1077,
      "@": 1078,
      "▁peace": 1079,
      "▁.?": 1080,
      "▁conduct": 1081,
      "##ensity": 1082,
      "▁functions": 1083,
      "▁cooked": 1084,
      "▁nest": 1085,
      "##tions": 1086,
      "▁sure": 1087,
      "▁cocktail": 1088,
      "▁future": 1089,
      "▁favorite": 1090,
      "##alty": 1091,
      "▁gon": 1092,
      "##antee": 1093,
      "▁agreements": 1094,
      "▁stability": 1095,
      "▁resp": 1096,
      "##²": 1097,
      "▁comple": 1098,
      "##ased": 1099,
      "▁flavor": 1100,
      "▁wait": 1101,
      "▁creates": 1102,
      "▁deaths": 1103,
      "##ably": 1104,
      "ɔ": 1105,
      "▁alone": 1106,
      "▁mixture": 1107,
      "▁cinnamon": 1108,
      "▁cincinnati": 1109,
      "##as": 1110,
      "▁underst": 1111,
      "▁basil": 1112,
      "▁depth": 1113,
      "##essed": 1114,
      "##asy": 1115,
      "▁cries": 1116,
      "▁technologies": 1117,
      "▁cows": 1118,
      "▁chose": 1119,
      "▁madam": 1120,
      "##own": 1121,
      "▁scienti": 1122,
      "▁became": 1123,
      "##aith": 1124,
      "##gy": 1125,
      "▁beings": 1126,
      "▁follows": 1127,
      "##amples": 1128,
      "▁listed": 1129,
      "##uality": 1130,
      "##ous": 1131,
      "##ames": 1132,
      "▁proved": 1133,
      "▁poles": 1134,
      "##ugh": 1135,
      "##ces": 1136,
      "▁dry": 1137,
      "▁saw": 1138,
      "▁recipe": 1139,
      "▁defin": 1140,
      "▁mi": 1141,
      "▁banan": 1142,
      "▁minut": 1143,
      "##llow": 1144,
      "▁uncer": 1145,
      "▁transl": 1146,
      "▁derived": 1147,
      "▁consciousness": 1148,
      "▁flat": 1149,
      "##%": 1150,
      "▁instance": 1151,
      "▁decided": 1152,
      "▁please": 1153,
      "▁company": 1154,
      "▁years": 1155,
      "▁shuttle": 1156,
      "▁different": 1157,
      "▁mechanics": 1158,
      "▁international": 1159,
      "▁belon": 1160,
      "▁profession": 1161,
      "##land": 1162,
      "▁be": 1163,
      "▁category": 1164,
      "##-d": 1165,
      "##ue": 1166,
      "▁witn": 1167,
      "▁bedroom": 1168,
      "▁important": 1169,
      "##rate": 1170,
      "▁bye": 1171,
      "▁keeps": 1172,
      "##tis": 1173,
      "▁agree": 1174,
      "▁contributions": 1175,
      "##ether": 1176,
      "▁quartile": 1177,
      "▁looking": 1178,
      "▁ent": 1179,
      "▁sites": 1180,
      "##for": 1181,
      "▁guil": 1182,
      "▁pad": 1183,
      "##ations": 1184,
      "▁rece": 1185,
      "▁iod": 1186,
      "##--": 1187,
      "▁lawy": 1188,
      "▁indianapolis": 1189,
      "▁indicates": 1190,
      "▁issu": 1191,
      "▁wednesday": 1192,
      "##hus": 1193,
      "▁think": 1194,
      "▁cigarette": 1195,
      "▁demanding": 1196,
      "▁prec": 1197,
      "▁hurry": 1198,
      "▁words": 1199,
      "##lights": 1200,
      "##itch": 1201,
      "▁outs": 1202,
      "▁guard": 1203,
      "▁drug": 1204,
      "▁correspond": 1205,
      "##orp": 1206,
      "▁good": 1207,
      "▁pursue": 1208,
      "##oves": 1209,
      "▁gis": 1210,
      "▁purple": 1211,
      "▁coord": 1212,
      "▁touched": 1213,
      "▁knocked": 1214,
      "##ο": 1215,
      "##kes": 1216,
      "▁nut": 1217,
      "▁centuries": 1218,
      "▁sir": 1219,
      "▁purpose": 1220,
      "##vement": 1221,
      "##ker": 1222,
      "▁documented": 1223,
      "▁sent": 1224,
      "▁prepare": 1225,
      "##if": 1226,
      "▁discovery": 1227,
      "##---": 1228,
      "▁....................": 1229,
      "▁chew": 1230,
      "##ession": 1231,
      "▁using": 1232,
      "▁industry": 1233,
      "▁administ": 1234,
      "▁paused": 1235,
      "▁poor": 1236,
      "▁large": 1237,
      "▁scen": 1238,
      "▁muse": 1239,
      "▁implementation": 1240,
      "##ery": 1241,
      "▁--": 1242,
      "##lions": 1243,
      "▁plants": 1244,
      "▁wid": 1245,
      "▁significance": 1246,
      "▁diseas": 1247,
      "##ʒ": 1248,
      "▁streets": 1249,
      "##uding": 1250,
      "▁************************************************": 1251,
      "##eria": 1252,
      "▁jih": 1253,
      "▁ext": 1254,
      "▁nights": 1255,
      "▁beaches": 1256,
      "▁tool": 1257,
      "▁amid": 1258,
      "##ders": 1259,
      "▁bun": 1260,
      "##tion": 1261,
      "▁child": 1262,
      "▁doubt": 1263,
      "▁kids": 1264,
      "##acle": 1265,
      "▁minute": 1266,
      "▁give": 1267,
      "##cc": 1268,
      "▁citiz": 1269,
      "▁roll": 1270,
      "##oot": 1271,
      "▁saying": 1272,
      "##ads": 1273,
      "▁forgot": 1274,
      "▁median": 1275,
      "##g": 1276,
      "##ined": 1277,
      "▁den": 1278,
      "▁rule": 1279,
      "▁abuse": 1280,
      "##avi": 1281,
      "▁knowing": 1282,
      "▁opposite": 1283,
      "▁account": 1284,
      "▁works": 1285,
      "▁sides": 1286,
      "▁ple": 1287,
      "▁tab": 1288,
      "##anks": 1289,
      "▁”": 1290,
      "▁context": 1291,
      "▁sugges": 1292,
      "▁shakes": 1293,
      "▁recorded": 1294,
      "▁datash": 1295,
      "▁mornings": 1296,
      "▁known": 1297,
      "▁deli": 1298,
      "▁couch": 1299,
      "##age": 1300,
      "▁beach": 1301,
      "##onal": 1302,
      "##iced": 1303,
      "##cp": 1304,
      "##amed": 1305,
      "▁phenomenon": 1306,
      "##ho": 1307,
      "▁changing": 1308,
      "▁retired": 1309,
      "▁attitude": 1310,
      "▁jo": 1311,
      "▁fi": 1312,
      "##itated": 1313,
      "▁dialog": 1314,
      "##ians": 1315,
      "##mber": 1316,
      "##chang": 1317,
      "▁finished": 1318,
      "##eled": 1319,
      "▁dead": 1320,
      "▁receiving": 1321,
      "##elly": 1322,
      "▁com": 1323,
      "▁ye": 1324,
      "##ost": 1325,
      "▁recognize": 1326,
      "▁anal": 1327,
      "▁doctor": 1328,
      "▁montreal": 1329,
      "##lished": 1330,
      "▁!!!": 1331,
      "##isture": 1332,
      "▁airplan": 1333,
      "▁latest": 1334,
      "##nut": 1335,
      "▁tr": 1336,
      "▁reputation": 1337,
      "▁covering": 1338,
      "##in": 1339,
      "##nd": 1340,
      "##tification": 1341,
      "▁smal": 1342,
      "##ips": 1343,
      "▁prevent": 1344,
      "▁continue": 1345,
      "▁datab": 1346,
      "▁paper": 1347,
      "c": 1348,
      "##ament": 1349,
      "▁inspection": 1350,
      "▁success": 1351,
      "▁·": 1352,
      "▁missiles": 1353,
      "▁expertise": 1354,
      "▁smiling": 1355,
      "▁writ": 1356,
      "##aining": 1357,
      "▁elephant": 1358,
      "▁intern": 1359,
      "▁arrive": 1360,
      "▁basketball": 1361,
      "▁dro": 1362,
      "▁statute": 1363,
      "▁lay": 1364,
      "▁min": 1365,
      "▁subjects": 1366,
      "▁lik": 1367,
      "▁airports": 1368,
      "##ifies": 1369,
      "##phis": 1370,
      "▁prote": 1371,
      "▁player": 1372,
      "▁returned": 1373,
      "▁technology": 1374,
      "##ones": 1375,
      "▁forward": 1376,
      "▁runs": 1377,
      "▁laun": 1378,
      "▁intelligence": 1379,
      "▁trip": 1380,
      "##itals": 1381,
      "##tures": 1382,
      "##ember": 1383,
      "##aly": 1384,
      "##ial": 1385,
      "▁installing": 1386,
      "##kets": 1387,
      "▁suggesting": 1388,
      "##inks": 1389,
      "▁whic": 1390,
      "##fl": 1391,
      "▁deliver": 1392,
      "##rest": 1393,
      "▁security": 1394,
      "▁shoo": 1395,
      "▁roc": 1396,
      "▁xml": 1397,
      "##ential": 1398,
      "▁initiated": 1399,
      "▁principles": 1400,
      "##cr": 1401,
      "▁legacy": 1402,
      "##alls": 1403,
      "##ording": 1404,
      "▁truth": 1405,
      "▁straps": 1406,
      "▁…": 1407,
      "▁hosting": 1408,
      "▁conf": 1409,
      "▁highly": 1410,
      "##ls": 1411,
      "▁jos": 1412,
      "▁distric": 1413,
      "▁ne": 1414,
      "▁taxi": 1415,
      "▁cle": 1416,
      "▁mama": 1417,
      "▁listened": 1418,
      "▁clos": 1419,
      "▁measures": 1420,
      "▁:?": 1421,
      "▁um": 1422,
      "##over": 1423,
      "▁swallow": 1424,
      "##ployment": 1425,
      "##ulations": 1426,
      "▁cam": 1427,
      "##ct": 1428,
      "▁clothes": 1429,
      "▁dey": 1430,
      "▁descriptions": 1431,
      "▁set": 1432,
      "▁reason": 1433,
      "▁directive": 1434,
      "▁remain": 1435,
      "##ache": 1436,
      "▁course": 1437,
      "▁lar": 1438,
      "▁name": 1439,
      "##ade": 1440,
      "▁meow": 1441,
      "6": 1442,
      "##pp": 1443,
      "##pathy": 1444,
      "▁jew": 1445,
      "▁un": 1446,
      "▁alar": 1447,
      "##al": 1448,
      "▁...": 1449,
      "▁killed": 1450,
      "▁conclude": 1451,
      "▁fixed": 1452,
      "##ild": 1453,
      "▁quino": 1454,
      "▁’re": 1455,
      "▁holds": 1456,
      "▁purch": 1457,
      "▁abbre": 1458,
      "▁hus": 1459,
      "▁putting": 1460,
      "▁come": 1461,
      "##icular": 1462,
      "▁driven": 1463,
      "▁linked": 1464,
      "▁press": 1465,
      "▁banks": 1466,
      "▁fold": 1467,
      "▁have": 1468,
      "▁enemy": 1469,
      "▁closing": 1470,
      "##elled": 1471,
      "▁pir": 1472,
      "##ields": 1473,
      "##orm": 1474,
      "▁perf": 1475,
      "##ults": 1476,
      "▁readers": 1477,
      "▁receive": 1478,
      "##kers": 1479,
      "▁rice": 1480,
      "▁how": 1481,
      "▁bel": 1482,
      "##uses": 1483,
      "▁furniture": 1484,
      "▁abo": 1485,
      "▁network": 1486,
      "▁inves": 1487,
      "▁wife": 1488,
      "▁contain": 1489,
      "‘": 1490,
      "▁ties": 1491,
      "▁pull": 1492,
      "▁trib": 1493,
      "▁conte": 1494,
      "▁cock": 1495,
      "▁pled": 1496,
      "▁reminder": 1497,
      "▁tolerate": 1498,
      "▁playing": 1499,
      "▁indian": 1500,
      "##enced": 1501,
      "▁moment": 1502,
      "▁iodised": 1503,
      "▁res": 1504,
      "##overn": 1505,
      "▁poll": 1506,
      "##cross": 1507,
      "▁filter": 1508,
      "▁jump": 1509,
      "▁rapporteur": 1510,
      "▁`": 1511,
      "▁fans": 1512,
      "▁cre": 1513,
      "▁inn": 1514,
      "▁dign": 1515,
      "▁institutions": 1516,
      "##lling": 1517,
      "▁ears": 1518,
      "##til": 1519,
      "▁dress": 1520,
      "▁!!!!!!!!!!!!!!!": 1521,
      "▁dessert": 1522,
      "##stem": 1523,
      "▁concentration": 1524,
      "##ito": 1525,
      "▁obtain": 1526,
      "##!": 1527,
      "▁stem": 1528,
      "▁ignor": 1529,
      "▁dim": 1530,
      "▁1970s": 1531,
      "▁replaced": 1532,
      "½": 1533,
      "▁often": 1534,
      "▁dism": 1535,
      "▁mel": 1536,
      "▁proper": 1537,
      "▁settlement": 1538,
      "▁shoulder": 1539,
      "▁mode": 1540,
      "▁occ": 1541,
      "▁cats": 1542,
      "▁statement": 1543,
      "▁flew": 1544,
      "##tit": 1545,
      "▁laur": 1546,
      "##inging": 1547,
      "##omet": 1548,
      "▁loves": 1549,
      "▁affect": 1550,
      "▁attack": 1551,
      "▁contents": 1552,
      "##keep": 1553,
      "▁ou": 1554,
      "▁conviction": 1555,
      "▁references": 1556,
      "▁claim": 1557,
      "▁----": 1558,
      "##ored": 1559,
      "▁ran": 1560,
      "▁scene": 1561,
      "▁tur": 1562,
      "▁his": 1563,
      "▁crying": 1564,
      "▁jeep": 1565,
      "▁pop": 1566,
      "##are": 1567,
      "▁bos": 1568,
      "##ice": 1569,
      "▁hat": 1570,
      "▁managers": 1571,
      "##lig": 1572,
      "▁syrup": 1573,
      "▁separate": 1574,
      "▁mummy": 1575,
      "▁bones": 1576,
      "##ods": 1577,
      "▁tou": 1578,
      "▁receip": 1579,
      "▁gre": 1580,
      "▁ad": 1581,
      "▁greetings": 1582,
      "▁observation": 1583,
      "▁neighbour": 1584,
      "ə": 1585,
      "▁bandaid": 1586,
      "▁cincinn": 1587,
      "▁door": 1588,
      "##aked": 1589,
      "▁shed": 1590,
      "▁mum": 1591,
      "##olog": 1592,
      "▁ended": 1593,
      "▁july": 1594,
      "##ozer": 1595,
      "##ib": 1596,
      "▁gallery": 1597,
      "▁entered": 1598,
      "▁nt": 1599,
      "▁proced": 1600,
      "▁declined": 1601,
      "##ows": 1602,
      "▁planet": 1603,
      "▁ensuring": 1604,
      "##lent": 1605,
      "▁mir": 1606,
      "▁bodies": 1607,
      "##bol": 1608,
      "▁hist": 1609,
      "▁supplies": 1610,
      "▁seconds": 1611,
      "▁bronze": 1612,
      "▁plenty": 1613,
      "▁bucket": 1614,
      "▁ai": 1615,
      "▁understanding": 1616,
      "▁journey": 1617,
      "▁doubts": 1618,
      "▁expanded": 1619,
      "##www": 1620,
      "▁nap": 1621,
      "▁uvb": 1622,
      "▁tal": 1623,
      "▁searching": 1624,
      "##sually": 1625,
      "▁candid": 1626,
      "▁volume": 1627,
      "▁appl": 1628,
      "▁surface": 1629,
      "▁grad": 1630,
      "▁temp": 1631,
      "##ift": 1632,
      "##ales": 1633,
      "▁shipped": 1634,
      "##entiality": 1635,
      "▁fill": 1636,
      "▁jose": 1637,
      "##udes": 1638,
      "##elines": 1639,
      "▁committed": 1640,
      "▁homes": 1641,
      "▁depar": 1642,
      "##ou": 1643,
      "▁weapons": 1644,
      "▁requi": 1645,
      "▁forest": 1646,
      "##liance": 1647,
      "##asion": 1648,
      "▁ignored": 1649,
      "▁busy": 1650,
      "▁pursu": 1651,
      "▁vehic": 1652,
      "##engers": 1653,
      "▁added": 1654,
      "▁delete": 1655,
      "▁tonight": 1656,
      "▁enterpr": 1657,
      "▁pancakes": 1658,
      "##-s": 1659,
      "##ums": 1660,
      "▁require": 1661,
      "▁brand": 1662,
      "##omic": 1663,
      "▁belly": 1664,
      "▁inch": 1665,
      "▁oak": 1666,
      "▁acqui": 1667,
      "▁based": 1668,
      "▁hand": 1669,
      "▁bub": 1670,
      "▁asks": 1671,
      "▁mentioned": 1672,
      "##ub": 1673,
      "▁grammar": 1674,
      "▁cow": 1675,
      "##mentation": 1676,
      "##ident": 1677,
      "▁disappeared": 1678,
      "▁himself": 1679,
      "▁sen": 1680,
      "▁lemon": 1681,
      "##dge": 1682,
      "▁sometimes": 1683,
      "▁conflict": 1684,
      "▁vict": 1685,
      "▁breast": 1686,
      "##ˈ": 1687,
      "▁treatment": 1688,
      "▁apol": 1689,
      "▁philadelphia": 1690,
      "##inger": 1691,
      "##ership": 1692,
      "▁sequ": 1693,
      "▁cover": 1694,
      "##ributing": 1695,
      "▁arm": 1696,
      "▁toys": 1697,
      "##plan": 1698,
      "▁conn": 1699,
      "▁locations": 1700,
      "##odes": 1701,
      "▁body": 1702,
      "▁less": 1703,
      "##ustration": 1704,
      "▁everyone": 1705,
      "▁represent": 1706,
      "▁baking": 1707,
      "▁copy": 1708,
      "▁observed": 1709,
      "▁nurs": 1710,
      "▁squir": 1711,
      "▁cooking": 1712,
      "##-b": 1713,
      "▁rainbow": 1714,
      "##ic": 1715,
      "▁medic": 1716,
      "▁boil": 1717,
      "▁scientists": 1718,
      "##tles": 1719,
      "▁obt": 1720,
      "##qu": 1721,
      "▁rememb": 1722,
      "▁smelled": 1723,
      "##ght": 1724,
      "▁fil": 1725,
      "##peare": 1726,
      "▁>>": 1727,
      "##on": 1728,
      "▁disl": 1729,
      "##ocent": 1730,
      "▁sum": 1731,
      "▁husband": 1732,
      "##worms": 1733,
      "▁mater": 1734,
      "##ord": 1735,
      "▁overcome": 1736,
      "▁pages": 1737,
      "▁novelist": 1738,
      "▁fighting": 1739,
      "▁tunnel": 1740,
      "##ich": 1741,
      "▁langu": 1742,
      "▁communities": 1743,
      "▁products": 1744,
      "▁colour": 1745,
      "▁monit": 1746,
      "##osed": 1747,
      "##ography": 1748,
      "▁preferred": 1749,
      "##inating": 1750,
      "▁grown": 1751,
      "##inded": 1752,
      "▁becom": 1753,
      "▁make": 1754,
      "##ak": 1755,
      "▁1": 1756,
      "▁catch": 1757,
      "▁lantern": 1758,
      "▁abandoned": 1759,
      "##body": 1760,
      "##itting": 1761,
      "▁department": 1762,
      "▁advice": 1763,
      "##ability": 1764,
      "▁vill": 1765,
      "##irl": 1766,
      "##90s": 1767,
      "▁teachers": 1768,
      "h": 1769,
      "▁offers": 1770,
      "▁killing": 1771,
      "▁charge": 1772,
      "▁drops": 1773,
      "▁lose": 1774,
      "5": 1775,
      "▁policy": 1776,
      "▁pl": 1777,
      "▁id": 1778,
      "▁adj": 1779,
      "▁attemp": 1780,
      "##ons": 1781,
      "▁consideration": 1782,
      "▁accomm": 1783,
      "##ced": 1784,
      "▁reconciliation": 1785,
      "▁him": 1786,
      "▁ap": 1787,
      "▁send": 1788,
      "▁stat": 1789,
      "##ield": 1790,
      "##mb": 1791,
      "##++++": 1792,
      "▁change": 1793,
      "▁incorp": 1794,
      "▁turns": 1795,
      "▁measured": 1796,
      "▁wild": 1797,
      "▁keep": 1798,
      "▁afternoon": 1799,
      "▁necess": 1800,
      "▁sleeping": 1801,
      "▁cand": 1802,
      "▁victims": 1803,
      "##ette": 1804,
      "▁n't": 1805,
      "▁religion": 1806,
      "▁members": 1807,
      "▁shift": 1808,
      "▁dating": 1809,
      "▁inhabit": 1810,
      "##acamole": 1811,
      "▁business": 1812,
      "##med": 1813,
      "▁representatives": 1814,
      "▁desire": 1815,
      "##zer": 1816,
      "##ssible": 1817,
      "▁vs": 1818,
      "▁yourselves": 1819,
      "##ix": 1820,
      "▁designs": 1821,
      "##zac": 1822,
      "##ading": 1823,
      "##go": 1824,
      "▁towed": 1825,
      "##cept": 1826,
      "▁exam": 1827,
      "##lion": 1828,
      "▁10": 1829,
      "▁seem": 1830,
      "##itement": 1831,
      "▁mood": 1832,
      "##ther": 1833,
      "##ements": 1834,
      "##der": 1835,
      "▁boo": 1836,
      "##oni": 1837,
      "▁bi": 1838,
      "##ution": 1839,
      "##ocated": 1840,
      "▁war": 1841,
      "##ʁ": 1842,
      "##lies": 1843,
      "##bur": 1844,
      "▁sel": 1845,
      "##here": 1846,
      "▁encouraged": 1847,
      "▁explanation": 1848,
      "▁hund": 1849,
      "▁beginning": 1850,
      "▁’s": 1851,
      "▁shad": 1852,
      "▁dinosaurs": 1853,
      "▁renew": 1854,
      "##80s": 1855,
      "▁hav": 1856,
      "▁flowers": 1857,
      "▁sant": 1858,
      "▁grandmother": 1859,
      "▁ve": 1860,
      "▁because": 1861,
      "▁trading": 1862,
      "##illa": 1863,
      "▁reef": 1864,
      "▁sal": 1865,
      "▁ver": 1866,
      "##gre": 1867,
      "▁transform": 1868,
      "▁temperature": 1869,
      "##ints": 1870,
      "▁enjoy": 1871,
      "▁appreciated": 1872,
      "▁took": 1873,
      "##ers": 1874,
      "▁cross": 1875,
      "▁ruin": 1876,
      "▁co": 1877,
      "▁diff": 1878,
      "▁jungle": 1879,
      "▁dolph": 1880,
      "▁during": 1881,
      "##ended": 1882,
      "▁tested": 1883,
      "▁engage": 1884,
      "▁dest": 1885,
      "▁hum": 1886,
      "##bby": 1887,
      "▁monks": 1888,
      "##ze": 1889,
      "▁particip": 1890,
      "▁ch": 1891,
      "▁gives": 1892,
      "▁throwing": 1893,
      "▁threw": 1894,
      "##az": 1895,
      "▁curves": 1896,
      "##att": 1897,
      "▁sp": 1898,
      "##ops": 1899,
      "▁destro": 1900,
      "##enn": 1901,
      "▁fan": 1902,
      "▁however": 1903,
      "▁cust": 1904,
      "##p": 1905,
      "▁components": 1906,
      "▁chap": 1907,
      "▁legos": 1908,
      "▁pover": 1909,
      "ʃ": 1910,
      "▁encour": 1911,
      "▁depend": 1912,
      "▁fam": 1913,
      "▁compar": 1914,
      "▁eas": 1915,
      "▁enab": 1916,
      "▁ju": 1917,
      "▁fab": 1918,
      "##xim": 1919,
      "▁average": 1920,
      "▁qu": 1921,
      "▁specific": 1922,
      "▁lights": 1923,
      "▁cin": 1924,
      "▁right": 1925,
      "##orn": 1926,
      "##derst": 1927,
      "▁machine": 1928,
      "▁engineering": 1929,
      "▁welf": 1930,
      "##af": 1931,
      "▁on": 1932,
      "##----------": 1933,
      "##time": 1934,
      "##ithst": 1935,
      "▁tips": 1936,
      "▁laser": 1937,
      "▁represented": 1938,
      "▁lets": 1939,
      "##cently": 1940,
      "▁administr": 1941,
      "▁suggestion": 1942,
      "▁legislation": 1943,
      "▁belief": 1944,
      "▁disability": 1945,
      "▁notice": 1946,
      "▁iron": 1947,
      "▁grid": 1948,
      "▁.....": 1949,
      "▁route": 1950,
      "▁era": 1951,
      "##ars": 1952,
      "▁gulf": 1953,
      "##υ": 1954,
      "▁cradle": 1955,
      "##essions": 1956,
      "▁wednesdays": 1957,
      "▁attempting": 1958,
      "▁coup": 1959,
      "▁inspired": 1960,
      "▁said": 1961,
      "▁employment": 1962,
      "▁ang": 1963,
      "▁arrang": 1964,
      "▁neg": 1965,
      "▁correc": 1966,
      "##ip": 1967,
      "▁experience": 1968,
      "▁cutting": 1969,
      "▁domain": 1970,
      "##fe": 1971,
      "▁friendly": 1972,
      "##ory": 1973,
      "##ideration": 1974,
      "▁ab": 1975,
      "▁computers": 1976,
      "##ber": 1977,
      "##omm": 1978,
      "▁teacher": 1979,
      "▁periods": 1980,
      "##ann": 1981,
      "▁behaviors": 1982,
      "▁brass": 1983,
      "##-": 1984,
      "▁in": 1985,
      "▁steak": 1986,
      "##orage": 1987,
      "##abb": 1988,
      "▁fever": 1989,
      "▁pee": 1990,
      "▁coordin": 1991,
      "▁away": 1992,
      "▁sli": 1993,
      "μ": 1994,
      "▁lan": 1995,
      "▁vote": 1996,
      "▁confidence": 1997,
      "##im": 1998,
      "▁hopes": 1999,
      "▁code": 2000,
      "▁refused": 2001,
      "▁crap": 2002,
      "▁memoir": 2003,
      "##ting": 2004,
      "▁princip": 2005,
      "▁targets": 2006,
      "##ished": 2007,
      "##igration": 2008,
      "▁quite": 2009,
      "▁establish": 2010,
      "▁revers": 2011,
      "##*": 2012,
      "▁fare": 2013,
      "▁!!!!": 2014,
      "▁image": 2015,
      "▁fishing": 2016,
      "▁cooperation": 2017,
      "▁pe": 2018,
      "▁econom": 2019,
      "▁spoken": 2020,
      "▁funeral": 2021,
      "▁relations": 2022,
      "##atis": 2023,
      "▁congratulations": 2024,
      "▁applications": 2025,
      "▁slide": 2026,
      "▁'ve": 2027,
      "▁points": 2028,
      "##93": 2029,
      "▁web": 2030,
      "▁meeting": 2031,
      "▁slipped": 2032,
      "▁phr": 2033,
      "▁lawyer": 2034,
      "▁bec": 2035,
      "▁values": 2036,
      "▁bits": 2037,
      "▁locked": 2038,
      "##use": 2039,
      "▁er": 2040,
      "▁environment": 2041,
      "▁chapter": 2042,
      "▁imp": 2043,
      "##veral": 2044,
      "##di": 2045,
      "▁br": 2046,
      "##ster": 2047,
      "##0's": 2048,
      "##ency": 2049,
      "##tise": 2050,
      "##ept": 2051,
      "▁cups": 2052,
      "##yr": 2053,
      "▁regulations": 2054,
      "▁warming": 2055,
      "▁reception": 2056,
      "##ff": 2057,
      "##gement": 2058,
      "##2": 2059,
      "▁miracle": 2060,
      "▁located": 2061,
      "▁rescue": 2062,
      "▁smo": 2063,
      "▁example": 2064,
      "▁festiv": 2065,
      "##alized": 2066,
      "▁nose": 2067,
      "##alog": 2068,
      "▁sing": 2069,
      "▁factory": 2070,
      "▁opposition": 2071,
      "▁fro": 2072,
      "▁survive": 2073,
      "▁powers": 2074,
      "y": 2075,
      "▁temper": 2076,
      "▁oven": 2077,
      "▁let": 2078,
      "##iety": 2079,
      "▁fault": 2080,
      "▁soy": 2081,
      "##ail": 2082,
      "##ith": 2083,
      "##nt": 2084,
      "▁exist": 2085,
      "▁occasion": 2086,
      "▁mines": 2087,
      "##ind": 2088,
      "##titude": 2089,
      "▁co-": 2090,
      "▁environ": 2091,
      "▁women": 2092,
      "##ering": 2093,
      "▁opportunity": 2094,
      "▁anim": 2095,
      "▁act": 2096,
      "▁concerning": 2097,
      "▁[": 2098,
      "▁crayons": 2099,
      "▁pret": 2100,
      "##********************************": 2101,
      "▁song": 2102,
      "##ess": 2103,
      "▁diego": 2104,
      "▁height": 2105,
      "▁dri": 2106,
      "##ric": 2107,
      "▁categories": 2108,
      "▁de": 2109,
      "▁listen": 2110,
      "▁movements": 2111,
      "▁gir": 2112,
      "##ld": 2113,
      "▁rul": 2114,
      "##lines": 2115,
      "▁illust": 2116,
      "▁human": 2117,
      "▁entertainment": 2118,
      "▁screen": 2119,
      "ʒ": 2120,
      "▁times": 2121,
      "▁fut": 2122,
      "▁actually": 2123,
      "▁joh": 2124,
      "▁built": 2125,
      "▁distribution": 2126,
      "▁j": 2127,
      "##ways": 2128,
      "▁welc": 2129,
      "##king": 2130,
      "▁offered": 2131,
      "▁surprise": 2132,
      "##urch": 2133,
      "▁drinks": 2134,
      "▁webs": 2135,
      "▁replacement": 2136,
      "▁oz": 2137,
      "x": 2138,
      "▁spl": 2139,
      "##ans": 2140,
      "▁inside": 2141,
      "##he": 2142,
      "##po": 2143,
      "▁vess": 2144,
      "##gle": 2145,
      "▁raised": 2146,
      "##erating": 2147,
      "▁consequences": 2148,
      "▁tele": 2149,
      "=": 2150,
      "▁laughter": 2151,
      "▁testing": 2152,
      "▁stone": 2153,
      "▁don": 2154,
      "▁spokesman": 2155,
      "▁father": 2156,
      "▁mic": 2157,
      "▁mos": 2158,
      "4": 2159,
      "##ounded": 2160,
      "▁whatever": 2161,
      "▁particularly": 2162,
      "▁si": 2163,
      "▁commission": 2164,
      "##urday": 2165,
      "▁gifts": 2166,
      "##`": 2167,
      "▁audience": 2168,
      "▁ret": 2169,
      "▁anyone": 2170,
      "▁boot": 2171,
      "▁wolf": 2172,
      "##ooks": 2173,
      "##yp": 2174,
      "▁rules": 2175,
      "##ime": 2176,
      "▁pi": 2177,
      "▁tourism": 2178,
      "▁if": 2179,
      "##inus": 2180,
      "▁interesting": 2181,
      "##lish": 2182,
      "▁e": 2183,
      "##irst": 2184,
      "▁assoc": 2185,
      "▁sheep": 2186,
      "▁extrem": 2187,
      "▁television": 2188,
      "▁noon": 2189,
      "▁mountain": 2190,
      "##so": 2191,
      "▁luck": 2192,
      "▁use": 2193,
      "▁convin": 2194,
      "##eros": 2195,
      "▁pur": 2196,
      "▁shoe": 2197,
      "##read": 2198,
      "▁wig": 2199,
      "▁!!!?": 2200,
      "##ft": 2201,
      "##ath": 2202,
      "▁lat": 2203,
      "▁|--------+----------------------->": 2204,
      "▁happen": 2205,
      "##mo": 2206,
      "##?!": 2207,
      "▁quantity": 2208,
      "▁prefer": 2209,
      "▁ld2d-#693": 2210,
      "##lities": 2211,
      "▁fair": 2212,
      "▁universities": 2213,
      "▁pean": 2214,
      "▁elev": 2215,
      "▁ho": 2216,
      "▁bulb": 2217,
      "▁method": 2218,
      "▁defend": 2219,
      "g": 2220,
      "▁continent": 2221,
      "##aring": 2222,
      "##ickness": 2223,
      "##phere": 2224,
      "▁developments": 2225,
      "▁cells": 2226,
      "▁very": 2227,
      "▁far": 2228,
      "▁,": 2229,
      "▁level": 2230,
      "▁exploration": 2231,
      "▁board": 2232,
      "▁pencil": 2233,
      "##ama": 2234,
      "▁reveal": 2235,
      "▁age": 2236,
      "##sters": 2237,
      "▁like": 2238,
      "▁than": 2239,
      "▁tractor": 2240,
      "##ansas": 2241,
      "▁email": 2242,
      "▁judg": 2243,
      "▁none": 2244,
      "▁acquis": 2245,
      "▁knew": 2246,
      "##aling": 2247,
      "▁seats": 2248,
      "▁stret": 2249,
      "▁[...": 2250,
      "▁paths": 2251,
      "▁waiver": 2252,
      "▁promise": 2253,
      "▁instructor": 2254,
      "▁concent": 2255,
      "▁salt": 2256,
      "▁trying": 2257,
      "##ened": 2258,
      "▁obsf": 2259,
      "▁dail": 2260,
      "▁portr": 2261,
      "▁circles": 2262,
      "##angu": 2263,
      "▁w": 2264,
      "▁wind": 2265,
      "▁ursula": 2266,
      "▁discovered": 2267,
      "▁pocketbook": 2268,
      "▁lacking": 2269,
      "▁recip": 2270,
      "▁philosoph": 2271,
      "##ma": 2272,
      "▁arrives": 2273,
      "▁net": 2274,
      "▁loo": 2275,
      "##--------------------------------": 2276,
      "▁bee": 2277,
      "▁welfare": 2278,
      "▁lot": 2279,
      "##tick": 2280,
      "▁execution": 2281,
      "▁pass": 2282,
      "##lled": 2283,
      "▁discussions": 2284,
      "▁efficiency": 2285,
      "▁tennis": 2286,
      "##-c": 2287,
      "▁resist": 2288,
      "▁stayed": 2289,
      "▁silence": 2290,
      "▁dogg": 2291,
      "▁ensure": 2292,
      "##top": 2293,
      "▁through": 2294,
      "##ds": 2295,
      "▁flooding": 2296,
      "▁clar": 2297,
      "▁birthday": 2298,
      "##ends": 2299,
      "▁condem": 2300,
      "▁spear": 2301,
      "▁spacetime": 2302,
      "▁repl": 2303,
      "##enty": 2304,
      "▁hotels": 2305,
      "▁entity": 2306,
      "▁beans": 2307,
      "##.c": 2308,
      "▁filed": 2309,
      "▁engine": 2310,
      "▁!!!!!!!!!!": 2311,
      "▁vodka": 2312,
      "##ights": 2313,
      "▁counterfeit": 2314,
      "▁hy": 2315,
      "▁carry": 2316,
      "##ø": 2317,
      "▁lips": 2318,
      "▁forwarded": 2319,
      "▁profits": 2320,
      "▁skill": 2321,
      "##raction": 2322,
      "▁produc": 2323,
      "▁feel": 2324,
      "##avor": 2325,
      "▁mor": 2326,
      "##amp": 2327,
      "##ici": 2328,
      "▁teasp": 2329,
      "##igning": 2330,
      "##pts": 2331,
      "▁techn": 2332,
      "▁opposed": 2333,
      "##ointment": 2334,
      "▁building": 2335,
      "##alization": 2336,
      "##bir": 2337,
      "▁fence": 2338,
      "▁skills": 2339,
      "##uggle": 2340,
      "▁rag": 2341,
      "▁background": 2342,
      "▁drinking": 2343,
      "##aq": 2344,
      "▁sweep": 2345,
      "##ares": 2346,
      "##sing": 2347,
      "▁army": 2348,
      "▁newspapers": 2349,
      "##arian": 2350,
      "▁strip": 2351,
      "▁diss": 2352,
      "##♥": 2353,
      "##ets": 2354,
      "▁taste": 2355,
      "##ects": 2356,
      "##den": 2357,
      "▁resulted": 2358,
      "##­": 2359,
      "▁crossed": 2360,
      "##ergy": 2361,
      "▁period": 2362,
      "▁boats": 2363,
      "▁premium": 2364,
      "▁remaining": 2365,
      "▁rise": 2366,
      "▁up": 2367,
      "▁he": 2368,
      "▁impression": 2369,
      "##.d": 2370,
      "▁local": 2371,
      "▁vendors": 2372,
      "##:/": 2373,
      "▁girlfriend": 2374,
      "▁seattle": 2375,
      "##sure": 2376,
      "##-m": 2377,
      "##e": 2378,
      "##quarters": 2379,
      "##ive": 2380,
      "▁facing": 2381,
      "▁details": 2382,
      "##ement": 2383,
      "##ertain": 2384,
      "##nowled": 2385,
      "▁seized": 2386,
      "▁boys": 2387,
      "##abilities": 2388,
      "##ket": 2389,
      "▁coffee": 2390,
      "##xce": 2391,
      "▁publish": 2392,
      "##ugged": 2393,
      "▁heart": 2394,
      "▁operating": 2395,
      "▁puzz": 2396,
      "▁temperatures": 2397,
      "▁explanations": 2398,
      "▁occasions": 2399,
      "##enef": 2400,
      "▁bom": 2401,
      "▁other": 2402,
      "▁pick": 2403,
      "▁depart": 2404,
      "▁associ": 2405,
      "##otw": 2406,
      "▁error": 2407,
      "▁hambur": 2408,
      "##ict": 2409,
      "##otte": 2410,
      "▁arrange": 2411,
      "##ps": 2412,
      "▁track": 2413,
      "▁versions": 2414,
      "▁devoted": 2415,
      "▁topic": 2416,
      "##ligh": 2417,
      "▁bran": 2418,
      "▁difference": 2419,
      "▁vacc": 2420,
      "▁accept": 2421,
      "##nic": 2422,
      "▁scored": 2423,
      "▁factor": 2424,
      "▁traveled": 2425,
      "##bo": 2426,
      "▁read": 2427,
      "▁dropped": 2428,
      "▁te": 2429,
      "▁gave": 2430,
      "▁woke": 2431,
      "▁india": 2432,
      "▁---------------------------------": 2433,
      "▁contact": 2434,
      "▁pride": 2435,
      "▁supported": 2436,
      "▁attempted": 2437,
      "##ocked": 2438,
      "▁office": 2439,
      ";": 2440,
      "##na": 2441,
      "▁leaf": 2442,
      "▁characteris": 2443,
      "▁yog": 2444,
      "##vening": 2445,
      "▁dna": 2446,
      "▁bug": 2447,
      "##inning": 2448,
      "##pa": 2449,
      "▁pay": 2450,
      "▁product": 2451,
      "##ilize": 2452,
      "▁performance": 2453,
      "▁sci": 2454,
      "##uge": 2455,
      "▁strive": 2456,
      "##ishing": 2457,
      "▁instit": 2458,
      "▁climbed": 2459,
      "▁dallas": 2460,
      "##ee": 2461,
      "▁rub": 2462,
      "##!!": 2463,
      "##yst": 2464,
      "▁traveler": 2465,
      "##uation": 2466,
      "▁privacy": 2467,
      "##res": 2468,
      "▁dignity": 2469,
      "▁leave": 2470,
      "##anim": 2471,
      "▁polic": 2472,
      "##ro": 2473,
      "▁archit": 2474,
      "▁dr": 2475,
      "▁officers": 2476,
      "##erent": 2477,
      "▁headquarters": 2478,
      "▁april": 2479,
      "▁couple": 2480,
      "##ely": 2481,
      "▁instr": 2482,
      "▁wants": 2483,
      "▁happ": 2484,
      "▁laws": 2485,
      "▁old": 2486,
      "▁ground": 2487,
      "▁imprisoned": 2488,
      "##rier": 2489,
      "▁med": 2490,
      "▁-----------------------------------------------------------------------": 2491,
      "▁space": 2492,
      "•": 2493,
      "##een": 2494,
      "##ites": 2495,
      "##other": 2496,
      "▁_____": 2497,
      "▁tric": 2498,
      "▁solve": 2499,
      "▁secure": 2500,
      "▁[...]": 2501,
      "▁profess": 2502,
      "▁paperwork": 2503,
      "▁expl": 2504,
      "▁env": 2505,
      "##ws": 2506,
      "▁3": 2507,
      "▁prin": 2508,
      "▁employees": 2509,
      "▁integration": 2510,
      "▁airplane": 2511,
      "▁preparing": 2512,
      "##onds": 2513,
      "▁passport": 2514,
      "▁establishment": 2515,
      "▁stamp": 2516,
      "##ness": 2517,
      "▁exper": 2518,
      "▁cut": 2519,
      "▁global": 2520,
      "▁films": 2521,
      "▁shr": 2522,
      "▁sched": 2523,
      "▁transp": 2524,
      "▁hoping": 2525,
      "##atch": 2526,
      "▁av": 2527,
      "##ically": 2528,
      "▁altern": 2529,
      "7": 2530,
      "▁love": 2531,
      "▁justice": 2532,
      "##acters": 2533,
      "##k": 2534,
      "▁bro": 2535,
      "##orms": 2536,
      "▁passion": 2537,
      "##idd": 2538,
      "▁pho": 2539,
      "##ference": 2540,
      "▁should": 2541,
      "▁correspondence": 2542,
      "▁agre": 2543,
      "▁sorry": 2544,
      "##oodle": 2545,
      "▁negotiated": 2546,
      "▁wond": 2547,
      "▁friendship": 2548,
      "▁oblig": 2549,
      "▁pipeline": 2550,
      "▁appeared": 2551,
      "##lik": 2552,
      "##****************": 2553,
      "▁tip": 2554,
      "▁circumstances": 2555,
      "##li": 2556,
      "▁bother": 2557,
      "▁hurts": 2558,
      "▁connections": 2559,
      "▁mathema": 2560,
      "▁ele": 2561,
      "▁rain": 2562,
      "▁compos": 2563,
      "▁recommended": 2564,
      "▁under": 2565,
      "##ocol": 2566,
      "▁lap": 2567,
      "▁plate": 2568,
      "▁adults": 2569,
      "▁pitch": 2570,
      "▁fing": 2571,
      "▁guerrillas": 2572,
      "▁does": 2573,
      "n": 2574,
      "▁injury": 2575,
      "▁dav": 2576,
      "▁will": 2577,
      "▁{": 2578,
      "▁selected": 2579,
      "▁stress": 2580,
      "▁reduces": 2581,
      "▁grain": 2582,
      "##lect": 2583,
      "▁expect": 2584,
      "▁fell": 2585,
      "▁improved": 2586,
      "▁lawyers": 2587,
      "▁initial": 2588,
      "▁remember": 2589,
      "▁protected": 2590,
      "##ful": 2591,
      "##rows": 2592,
      "▁limous": 2593,
      "▁hur": 2594,
      "##ambment": 2595,
      "▁eval": 2596,
      "##isms": 2597,
      "▁revision": 2598,
      "▁left": 2599,
      "##ully": 2600,
      "▁promotion": 2601,
      "##'t": 2602,
      "▁ac": 2603,
      "▁celeb": 2604,
      "▁mushroom": 2605,
      "▁ste": 2606,
      "▁area": 2607,
      "##uro": 2608,
      "▁morning": 2609,
      "▁transactions": 2610,
      "##ocks": 2611,
      "▁conducted": 2612,
      "▁following": 2613,
      "##ender": 2614,
      "▁reaching": 2615,
      "▁watch": 2616,
      "▁enem": 2617,
      "##ated": 2618,
      "▁http": 2619,
      "▁journ": 2620,
      "▁before": 2621,
      "##~": 2622,
      "▁barn": 2623,
      "▁remarks": 2624,
      "▁squirt": 2625,
      "▁faculty": 2626,
      "##ye": 2627,
      "▁dra": 2628,
      "##orti": 2629,
      "##book": 2630,
      "##asts": 2631,
      "▁wildlife": 2632,
      "▁fish": 2633,
      "##fer": 2634,
      "▁ketchup": 2635,
      "▁playw": 2636,
      "▁payments": 2637,
      "▁ins": 2638,
      "▁touch": 2639,
      "]": 2640,
      "▁assessing": 2641,
      "▁looks": 2642,
      "▁parti": 2643,
      "▁pair": 2644,
      "▁sup": 2645,
      "▁evaluation": 2646,
      "▁cord": 2647,
      "▁symbol": 2648,
      "▁researchers": 2649,
      "##lection": 2650,
      "▁pricing": 2651,
      "▁learned": 2652,
      "▁here": 2653,
      "▁june": 2654,
      "##ibility": 2655,
      "▁struggle": 2656,
      "##oder": 2657,
      "##****": 2658,
      "▁focusing": 2659,
      "▁top": 2660,
      "▁pow": 2661,
      "▁relief": 2662,
      "$": 2663,
      "##ued": 2664,
      "▁offici": 2665,
      "▁support": 2666,
      "▁start": 2667,
      "▁sweetie": 2668,
      "▁expressed": 2669,
      "▁submitted": 2670,
      "##ale": 2671,
      "##ues": 2672,
      "##pe": 2673,
      "▁scheduled": 2674,
      "▁requires": 2675,
      "▁census": 2676,
      "▁etc.": 2677,
      "▁coach": 2678,
      "▁continues": 2679,
      "▁partic": 2680,
      "▁contacted": 2681,
      "▁crime": 2682,
      "##azed": 2683,
      "▁allow": 2684,
      "▁mayonna": 2685,
      "##tling": 2686,
      "##ner": 2687,
      "##inds": 2688,
      "▁emissions": 2689,
      "▁barrel": 2690,
      "▁interests": 2691,
      "##equ": 2692,
      "▁implem": 2693,
      "v": 2694,
      "▁houses": 2695,
      "##c": 2696,
      "▁cart": 2697,
      "##zed": 2698,
      "▁pile": 2699,
      "##rs": 2700,
      "▁toast": 2701,
      "▁uses": 2702,
      "▁fighter": 2703,
      "##par": 2704,
      "##eries": 2705,
      "##town": 2706,
      "▁staying": 2707,
      "[PAD]": 2708,
      "▁arab": 2709,
      "▁yelling": 2710,
      "##ization": 2711,
      "▁opening": 2712,
      "▁continuing": 2713,
      "▁available": 2714,
      "▁robot": 2715,
      "▁aw": 2716,
      "▁hitting": 2717,
      "▁horsie": 2718,
      "▁citizens": 2719,
      "##illing": 2720,
      "▁congratulate": 2721,
      "▁carrot": 2722,
      "▁programs": 2723,
      "▁wiz": 2724,
      "##icide": 2725,
      "##enting": 2726,
      "▁tells": 2727,
      "▁fears": 2728,
      "##ighter": 2729,
      "▁francisco": 2730,
      "▁survived": 2731,
      "▁reviews": 2732,
      "▁stories": 2733,
      "▁opinion": 2734,
      "▁dirt": 2735,
      "▁together": 2736,
      "▁principle": 2737,
      "##bing": 2738,
      "▁upd": 2739,
      "##icul": 2740,
      "▁integr": 2741,
      "##the": 2742,
      "##ev": 2743,
      "▁club": 2744,
      "##orts": 2745,
      "▁goose": 2746,
      "▁soldiers": 2747,
      "▁distingu": 2748,
      "▁kn": 2749,
      "▁see": 2750,
      "▁london": 2751,
      "##ture": 2752,
      "▁picking": 2753,
      "##isco": 2754,
      "▁look": 2755,
      "▁never": 2756,
      "▁funds": 2757,
      "##amus": 2758,
      "##zz": 2759,
      "▁erase": 2760,
      "##ada": 2761,
      "##iam": 2762,
      "##ending": 2763,
      "▁consequ": 2764,
      "##aser": 2765,
      "▁argued": 2766,
      "▁che": 2767,
      "▁pin": 2768,
      "##i": 2769,
      "▁broad": 2770,
      "▁considered": 2771,
      "▁potential": 2772,
      "##ult": 2773,
      "▁governments": 2774,
      "▁trad": 2775,
      "▁days": 2776,
      "##igr": 2777,
      "▁traged": 2778,
      "▁dining": 2779,
      "▁contr": 2780,
      "▁as": 2781,
      "▁pointed": 2782,
      "▁tracks": 2783,
      "▁end": 2784,
      "##bles": 2785,
      "▁actions": 2786,
      "&": 2787,
      "▁filters": 2788,
      "▁deny": 2789,
      "▁percentage": 2790,
      "##bow": 2791,
      "##ploy": 2792,
      "▁conflic": 2793,
      "##uring": 2794,
      "##d": 2795,
      "▁terr": 2796,
      "▁august": 2797,
      "▁hed": 2798,
      "▁em": 2799,
      "##oration": 2800,
      "▁weap": 2801,
      "▁ic": 2802,
      "##ecks": 2803,
      "▁explained": 2804,
      "▁invol": 2805,
      "▁obst": 2806,
      "##ark": 2807,
      "##ay": 2808,
      "▁train": 2809,
      "##rition": 2810,
      "##ago": 2811,
      "▁dc": 2812,
      "##ship": 2813,
      "##osing": 2814,
      "▁applying": 2815,
      "▁loans": 2816,
      "▁go": 2817,
      "▁stated": 2818,
      "##ech": 2819,
      "▁laundry": 2820,
      "▁poster": 2821,
      "▁-----------------------------------------------------------------": 2822,
      "##hold": 2823,
      "##ors": 2824,
      "##sts": 2825,
      "##ify": 2826,
      "##ption": 2827,
      "?": 2828,
      "##ortion": 2829,
      "▁ri": 2830,
      "▁hide": 2831,
      "▁rel": 2832,
      "▁morn": 2833,
      "▁mother": 2834,
      "▁surrounded": 2835,
      "▁attach": 2836,
      "##nesses": 2837,
      "▁neighbors": 2838,
      "▁count": 2839,
      "▁conserv": 2840,
      "##aurs": 2841,
      "##ised": 2842,
      "▁customs": 2843,
      "▁traff": 2844,
      "▁kitten": 2845,
      "▁hon": 2846,
      "▁print": 2847,
      "▁**": 2848,
      "##mely": 2849,
      "##ha": 2850,
      "▁possibility": 2851,
      "▁potato": 2852,
      "▁encourage": 2853,
      "##asure": 2854,
      "…": 2855,
      "▁spir": 2856,
      "▁called": 2857,
      "▁asking": 2858,
      "▁terms": 2859,
      "##vers": 2860,
      "▁unf": 2861,
      "▁several": 2862,
      "▁chairman": 2863,
      "▁town": 2864,
      "▁pupp": 2865,
      "▁taught": 2866,
      "▁cases": 2867,
      "▁paint": 2868,
      "▁journal": 2869,
      "##thy": 2870,
      "▁spaces": 2871,
      "▁sword": 2872,
      "##aster": 2873,
      "▁tri": 2874,
      "##uly": 2875,
      "##r": 2876,
      "▁branch": 2877,
      "##eland": 2878,
      "▁donkey": 2879,
      "▁common": 2880,
      "##oved": 2881,
      "▁responded": 2882,
      "▁china": 2883,
      "▁ce": 2884,
      "##jamas": 2885,
      "##oking": 2886,
      "##enders": 2887,
      "▁impl": 2888,
      "▁title": 2889,
      "▁stops": 2890,
      "▁games": 2891,
      "##“": 2892,
      "▁outf": 2893,
      "▁spider": 2894,
      "##arch": 2895,
      "▁burden": 2896,
      "▁places": 2897,
      "▁cas": 2898,
      "▁kiss": 2899,
      "##unk": 2900,
      "##ne": 2901,
      "▁difficult": 2902,
      "▁dollars": 2903,
      "▁y": 2904,
      "▁obl": 2905,
      "▁fired": 2906,
      "▁recover": 2907,
      "▁bon": 2908,
      "##wic": 2909,
      "▁wire": 2910,
      "▁brothers": 2911,
      "▁sugar": 2912,
      "##wa": 2913,
      "▁earthqu": 2914,
      "▁summer": 2915,
      "▁evolving": 2916,
      "##les": 2917,
      "##0s": 2918,
      "▁free": 2919,
      "▁behind": 2920,
      "▁something": 2921,
      "▁ris": 2922,
      "l": 2923,
      "##xts": 2924,
      "##acles": 2925,
      "▁arguments": 2926,
      "▁fellows": 2927,
      "▁flav": 2928,
      "##boy": 2929,
      "▁advis": 2930,
      "▁cartoon": 2931,
      "▁belie": 2932,
      "▁sharing": 2933,
      "▁national": 2934,
      "##am": 2935,
      "▁ordered": 2936,
      "▁damage": 2937,
      "##ug": 2938,
      "▁blow": 2939,
      "##yone": 2940,
      "▁characters": 2941,
      "##sm": 2942,
      "▁generate": 2943,
      "##oil": 2944,
      "##ror": 2945,
      "##ipl": 2946,
      "▁picked": 2947,
      "▁room": 2948,
      "##igned": 2949,
      "##onents": 2950,
      "▁thought": 2951,
      "▁worked": 2952,
      "▁cleaned": 2953,
      "▁licensed": 2954,
      "▁ticket": 2955,
      "##tile": 2956,
      "▁swung": 2957,
      "##ei": 2958,
      "-": 2959,
      "##room": 2960,
      "##epend": 2961,
      "▁vehicle": 2962,
      "▁intrigu": 2963,
      "##vailable": 2964,
      "##ches": 2965,
      "▁reference": 2966,
      "##ange": 2967,
      "▁girl": 2968,
      "+": 2969,
      "▁monday": 2970,
      "▁chips": 2971,
      "▁prot": 2972,
      "▁amer": 2973,
      "▁control": 2974,
      "▁myce": 2975,
      "▁educated": 2976,
      "▁ach": 2977,
      "▁oper": 2978,
      "##u": 2979,
      "##formed": 2980,
      "##ided": 2981,
      "▁gu": 2982,
      "▁enh": 2983,
      "▁fri": 2984,
      "▁|": 2985,
      "*": 2986,
      "▁operation": 2987,
      "▁dall": 2988,
      "##ru": 2989,
      "▁junk": 2990,
      "##dy": 2991,
      "▁owned": 2992,
      "▁********": 2993,
      "▁tires": 2994,
      "▁pic": 2995,
      "##utes": 2996,
      "–": 2997,
      "##orth": 2998,
      "▁refl": 2999,
      "▁mosque": 3000,
      "▁adding": 3001,
      "##iously": 3002,
      "▁episode": 3003,
      "▁that": 3004,
      "▁numerous": 3005,
      "▁chic": 3006,
      "##ing": 3007,
      "▁cab": 3008,
      "▁strength": 3009,
      "▁fit": 3010,
      "##eak": 3011,
      "▁girls": 3012,
      "##tee": 3013,
      "▁teen": 3014,
      "▁experien": 3015,
      "▁gl": 3016,
      "▁lack": 3017,
      "▁amidst": 3018,
      "##me": 3019,
      "▁som": 3020,
      "▁joined": 3021,
      "##@": 3022,
      "▁frost": 3023,
      "▁flights": 3024,
      "##oth": 3025,
      "##ear": 3026,
      "▁chees": 3027,
      "▁commun": 3028,
      "▁–": 3029,
      "▁put": 3030,
      "▁quinoa": 3031,
      "²": 3032,
      "##cause": 3033,
      "▁moth": 3034,
      "▁initiative": 3035,
      "▁page": 3036,
      "▁sou": 3037,
      "▁gotten": 3038,
      "##cing": 3039,
      "##unte": 3040,
      "▁destiny": 3041,
      "▁quarter": 3042,
      "▁thoughts": 3043,
      "##actor": 3044,
      "##uggles": 3045,
      "▁arts": 3046,
      "▁invite": 3047,
      "▁adapt": 3048,
      "▁conclusion": 3049,
      "▁fir": 3050,
      "▁place": 3051,
      "▁jwww": 3052,
      "##inity": 3053,
      "▁artists": 3054,
      "##uum": 3055,
      "▁licens": 3056,
      "▁pounds": 3057,
      "▁non": 3058,
      "▁pollution": 3059,
      "▁site": 3060,
      "▁cir": 3061,
      "▁attem": 3062,
      "q": 3063,
      "▁thanks": 3064,
      "▁agreed": 3065,
      "▁geomet": 3066,
      "▁airlines": 3067,
      "▁exceed": 3068,
      "##site": 3069,
      "##ategy": 3070,
      "##β": 3071,
      "▁natural": 3072,
      "œ": 3073,
      "▁viewed": 3074,
      "▁hearing": 3075,
      "##eignty": 3076,
      "▁sac": 3077,
      "▁society": 3078,
      "##gency": 3079,
      "▁parts": 3080,
      "▁custom": 3081,
      "▁dealt": 3082,
      "▁ind": 3083,
      "[UNK]": 3084,
      "▁ladies": 3085,
      "▁extension": 3086,
      "##ashed": 3087,
      "▁tail": 3088,
      "▁direc": 3089,
      "##play": 3090,
      "▁waited": 3091,
      "##ore": 3092,
      "▁wed": 3093,
      "▁upon": 3094,
      "##ularity": 3095,
      "▁produces": 3096,
      "▁quit": 3097,
      "▁bang": 3098,
      "##zations": 3099,
      "▁sale": 3100,
      "▁sounds": 3101,
      "▁event": 3102,
      "##word": 3103,
      "▁tap": 3104,
      "▁feathers": 3105,
      "▁tooth": 3106,
      "▁receipt": 3107,
      "##ashington": 3108,
      "▁defense": 3109,
      "##ks": 3110,
      "▁gift": 3111,
      "▁students": 3112,
      "▁sett": 3113,
      "▁judge": 3114,
      "▁included": 3115,
      "##onto": 3116,
      "##cre": 3117,
      "##ondon": 3118,
      "▁aut": 3119,
      "ł": 3120,
      "▁e-m": 3121,
      "▁ahead": 3122,
      "▁grape": 3123,
      "▁d": 3124,
      "▁running": 3125,
      "##uzz": 3126,
      "▁mud": 3127,
      "##.doc": 3128,
      "▁snitch": 3129,
      "##bers": 3130,
      "▁roles": 3131,
      "##ll": 3132,
      "##ector": 3133,
      "▁motorc": 3134,
      "##ε": 3135,
      "▁cris": 3136,
      "▁prov": 3137,
      "▁….": 3138,
      "▁female": 3139,
      "▁dy": 3140,
      "##erful": 3141,
      "▁levels": 3142,
      "▁range": 3143,
      "##act": 3144,
      "▁chief": 3145,
      "▁labor": 3146,
      "##fore": 3147,
      "▁moisture": 3148,
      "▁productivity": 3149,
      "▁throu": 3150,
      "##ination": 3151,
      "▁peanuts": 3152,
      "▁secon": 3153,
      "▁chair": 3154,
      "▁constituency": 3155,
      "▁bit": 3156,
      "▁meth": 3157,
      "▁buy": 3158,
      "▁risk": 3159,
      "##ury": 3160,
      "▁": 3161,
      "▁beneath": 3162,
      "▁corner": 3163,
      "▁bull": 3164,
      "▁....": 3165,
      "▁compli": 3166,
      "ɛ": 3167,
      "##like": 3168,
      "##uf": 3169,
      "##gl": 3170,
      "##luding": 3171,
      "▁saved": 3172,
      "▁---------------------------------------------------------------------------": 3173,
      "▁colon": 3174,
      "▁connec": 3175,
      "##b": 3176,
      "▁choices": 3177,
      "▁ess": 3178,
      "▁knight": 3179,
      "##err": 3180,
      "▁sees": 3181,
      "##ce": 3182,
      "ʻ": 3183,
      "##ycle": 3184,
      "▁baltimore": 3185,
      "▁th": 3186,
      "▁playwright": 3187,
      "##ly": 3188,
      "▁popcorn": 3189,
      "##books": 3190,
      "▁corners": 3191,
      "##igh": 3192,
      "▁attorn": 3193,
      "▁mil": 3194,
      "▁boyfriend": 3195,
      "▁soli": 3196,
      "▁technique": 3197,
      "▁repe": 3198,
      "▁term": 3199,
      "▁extent": 3200,
      "▁propose": 3201,
      "▁phone": 3202,
      "▁certificate": 3203,
      "▁exception": 3204,
      "▁interviews": 3205,
      "▁rec": 3206,
      "▁phys": 3207,
      "▁starts": 3208,
      "▁p.m.": 3209,
      "▁it's": 3210,
      "▁sm": 3211,
      "▁electric": 3212,
      "▁screwdriver": 3213,
      "##.com/": 3214,
      "▁youth": 3215,
      "▁.........": 3216,
      "▁school": 3217,
      "▁restaurant": 3218,
      "▁chocolate": 3219,
      "▁scam": 3220,
      "##0th": 3221,
      "▁bite": 3222,
      "▁stood": 3223,
      "▁candidates": 3224,
      "▁bill": 3225,
      "▁join": 3226,
      "##eness": 3227,
      "▁cos": 3228,
      "▁8": 3229,
      "##cri": 3230,
      "▁designed": 3231,
      "▁lean": 3232,
      "##ates": 3233,
      "▁processing": 3234,
      "##ayed": 3235,
      "##ulated": 3236,
      "##fication": 3237,
      "▁suspected": 3238,
      "##ri": 3239,
      "▁destruction": 3240,
      "▁designer": 3241,
      "▁power": 3242,
      "▁hel": 3243,
      "##burg": 3244,
      "▁note": 3245,
      "##********": 3246,
      "▁rot": 3247,
      "##mate": 3248,
      "##ointed": 3249,
      "▁hams": 3250,
      "▁being": 3251,
      "▁availability": 3252,
      "##itions": 3253,
      "▁mul": 3254,
      "▁sod": 3255,
      "▁transfer": 3256,
      "▁transaction": 3257,
      "▁**********": 3258,
      "##au": 3259,
      "##uate": 3260,
      "▁managing": 3261,
      "▁they": 3262,
      "▁articles": 3263,
      "▁dust": 3264,
      "##aff": 3265,
      "##oma": 3266,
      "##ecting": 3267,
      "▁eyes": 3268,
      "▁reven": 3269,
      "▁volley": 3270,
      "▁mer": 3271,
      "▁remembered": 3272,
      "##low": 3273,
      "▁figures": 3274,
      "▁satel": 3275,
      "##se": 3276,
      "▁muscles": 3277,
      "▁columns": 3278,
      "▁tools": 3279,
      "▁intervention": 3280,
      "▁anth": 3281,
      "▁vlog": 3282,
      "▁underm": 3283,
      "▁tire": 3284,
      "▁att": 3285,
      "##ird": 3286,
      "▁ending": 3287,
      "▁lif": 3288,
      "▁appearance": 3289,
      "▁aims": 3290,
      "▁angel": 3291,
      "##eren": 3292,
      "##gging": 3293,
      "▁governor": 3294,
      "##goti": 3295,
      "##apping": 3296,
      "▁bird": 3297,
      "▁!!": 3298,
      "##aign": 3299,
      "▁flower": 3300,
      "##aped": 3301,
      "▁divisions": 3302,
      "##ains": 3303,
      "[SEP]": 3304,
      "▁bright": 3305,
      "▁fore": 3306,
      "▁themes": 3307,
      "▁reviewed": 3308,
      "▁missed": 3309,
      "▁library": 3310,
      "▁hr": 3311,
      "▁caught": 3312,
      "##.pdf": 3313,
      "▁cried": 3314,
      "▁electricity": 3315,
      "▁slip": 3316,
      "##ules": 3317,
      "##hood": 3318,
      "##alists": 3319,
      "▁mis": 3320,
      "▁bew": 3321,
      "▁leg": 3322,
      "▁----==": 3323,
      "▁mat": 3324,
      "▁aqu": 3325,
      "##ton": 3326,
      "##tics": 3327,
      "▁en": 3328,
      "▁jokes": 3329,
      "▁nail": 3330,
      "▁establishing": 3331,
      "##eys": 3332,
      "▁blown": 3333,
      "▁resour": 3334,
      "▁mac": 3335,
      "▁house": 3336,
      "▁mo": 3337,
      "##tsbur": 3338,
      "##ine": 3339,
      "▁ob": 3340,
      "▁import": 3341,
      "##dit": 3342,
      "▁drive": 3343,
      "##hibited": 3344,
      "##eeze": 3345,
      "▁teh": 3346,
      "##using": 3347,
      "##tity": 3348,
      "▁ki": 3349,
      "▁bench": 3350,
      "##ter": 3351,
      "##ia": 3352,
      "▁terrorists": 3353,
      "##isting": 3354,
      "##elf": 3355,
      "##gation": 3356,
      "▁promp": 3357,
      "▁kitchen": 3358,
      "##orated": 3359,
      "▁across": 3360,
      "▁edit": 3361,
      "▁remains": 3362,
      "▁making": 3363,
      "▁infrastructure": 3364,
      "##very": 3365,
      "▁wagon": 3366,
      "▁opened": 3367,
      "##olved": 3368,
      "▁downtown": 3369,
      "▁earth": 3370,
      "▁fin": 3371,
      "▁entry": 3372,
      "▁crew": 3373,
      "▁cele": 3374,
      "▁memphis": 3375,
      "▁figured": 3376,
      "##ky": 3377,
      "▁aband": 3378,
      "▁used": 3379,
      "▁jam": 3380,
      "▁license": 3381,
      "##ilosoph": 3382,
      "##lief": 3383,
      "▁limitations": 3384,
      "▁examples": 3385,
      "▁insight": 3386,
      "▁purchased": 3387,
      "##iring": 3388,
      "▁potatoes": 3389,
      "▁ped": 3390,
      "▁guards": 3391,
      "▁science": 3392,
      "##orrow": 3393,
      "▁hoc": 3394,
      "##er": 3395,
      "##cked": 3396,
      "▁financ": 3397,
      "▁travel": 3398,
      "▁wel": 3399,
      "▁counterfeiting": 3400,
      "▁created": 3401,
      "▁alligator": 3402,
      "▁fame": 3403,
      "▁acknowledge": 3404,
      "▁calling": 3405,
      "▁select": 3406,
      "▁throughout": 3407,
      "▁her": 3408,
      "▁run": 3409,
      "##fts": 3410,
      "▁stick": 3411,
      "▁***": 3412,
      "▁challen": 3413,
      "▁switched": 3414,
      "##ual": 3415,
      "▁sink": 3416,
      "▁document": 3417,
      "▁subs": 3418,
      "▁plastic": 3419,
      "##vements": 3420,
      "##olves": 3421,
      "##tiv": 3422,
      "##erest": 3423,
      "##ior": 3424,
      "▁aboard": 3425,
      "▁life": 3426,
      "##inist": 3427,
      "▁origins": 3428,
      "▁referred": 3429,
      "▁verse": 3430,
      "▁procedures": 3431,
      "▁sister": 3432,
      "##ourse": 3433,
      "▁discre": 3434,
      "##v": 3435,
      "▁provides": 3436,
      "▁spos": 3437,
      "▁pud": 3438,
      "▁answer": 3439,
      "▁internet": 3440,
      "▁with": 3441,
      "##rax": 3442,
      "##leg": 3443,
      "▁offer": 3444,
      "▁staff": 3445,
      "▁describes": 3446,
      "▁hole": 3447,
      "▁compared": 3448,
      "▁benefit": 3449,
      "▁checking": 3450,
      "▁uk": 3451,
      "▁funded": 3452,
      "▁pu": 3453,
      "▁independ": 3454,
      "▁wanted": 3455,
      "▁obs": 3456,
      "##eeds": 3457,
      "▁ought": 3458,
      "##ull": 3459,
      "▁landscape": 3460,
      "▁manuscri": 3461,
      "▁plot": 3462,
      "##iss": 3463,
      "##ansion": 3464,
      "##ped": 3465,
      "▁dentist": 3466,
      "##ited": 3467,
      "▁whale": 3468,
      "▁det": 3469,
      "▁drove": 3470,
      "▁hate": 3471,
      "▁matter": 3472,
      "##cakes": 3473,
      "▁continental": 3474,
      "j": 3475,
      "▁sandwiches": 3476,
      "▁so": 3477,
      "▁equals": 3478,
      "▁reasons": 3479,
      "▁post": 3480,
      "##coon": 3481,
      "▁investigation": 3482,
      "▁cat": 3483,
      "▁tug": 3484,
      "▁conform": 3485,
      "▁bulldozer": 3486,
      "▁sunday": 3487,
      "##ible": 3488,
      "▁strategy": 3489,
      "▁subst": 3490,
      "▁head": 3491,
      "▁try": 3492,
      "▁pasta": 3493,
      "▁reserv": 3494,
      "▁fashion": 3495,
      "##ghts": 3496,
      "▁declaration": 3497,
      "##bility": 3498,
      "▁impro": 3499,
      "##mon": 3500,
      "##ching": 3501,
      "▁agent": 3502,
      "##ested": 3503,
      "▁colleagues": 3504,
      "▁savings": 3505,
      "▁surp": 3506,
      "▁rental": 3507,
      "##huh": 3508,
      "##eg": 3509,
      "##ners": 3510,
      "▁tam": 3511,
      "▁declar": 3512,
      "▁define": 3513,
      "▁dollar": 3514,
      "▁group": 3515,
      "▁charl": 3516,
      "▁terrorism": 3517,
      "##+----------------": 3518,
      "ø": 3519,
      "▁incre": 3520,
      "##ady": 3521,
      "▁front": 3522,
      "▁mosqu": 3523,
      "▁strateg": 3524,
      "▁window": 3525,
      "▁why": 3526,
      "##heet": 3527,
      "##iew": 3528,
      "##arm": 3529,
      "▁legislature": 3530,
      "▁models": 3531,
      "##acket": 3532,
      "▁one": 3533,
      "##work": 3534,
      "▁toll": 3535,
      "▁missing": 3536,
      "##tivity": 3537,
      "▁america": 3538,
      "##ius": 3539,
      "▁paragraph": 3540,
      "▁row": 3541,
      "▁radiation": 3542,
      "▁training": 3543,
      "▁brings": 3544,
      "▁initiatives": 3545,
      "##owled": 3546,
      "▁veget": 3547,
      "▁muscle": 3548,
      "##pen": 3549,
      "▁suite": 3550,
      "▁extr": 3551,
      "▁enti": 3552,
      "▁passing": 3553,
      "##ci": 3554,
      "▁notch": 3555,
      "##en": 3556,
      "▁oatmeal": 3557,
      "##-w": 3558,
      "▁l": 3559,
      "▁astride": 3560,
      "▁news": 3561,
      "##la": 3562,
      "##asters": 3563,
      "▁garbage": 3564,
      "▁kidding": 3565,
      "##j": 3566,
      "▁motorcycle": 3567,
      "▁indicated": 3568,
      "##otion": 3569,
      "▁total": 3570,
      "##ana": 3571,
      "##!!!!": 3572,
      "▁buses": 3573,
      "▁eating": 3574,
      "▁written": 3575,
      "▁ocean": 3576,
      "##w": 3577,
      "▁meat": 3578,
      "▁exposure": 3579,
      "▁writers": 3580,
      "▁rising": 3581,
      "##iron": 3582,
      "▁reserve": 3583,
      "▁sang": 3584,
      "▁americ": 3585,
      "##iel": 3586,
      "▁associate": 3587,
      "▁amounts": 3588,
      "##esty": 3589,
      "▁manual": 3590,
      "▁provision": 3591,
      "▁battle": 3592,
      "##nies": 3593,
      "▁radio": 3594,
      "▁artic": 3595,
      "▁males": 3596,
      "▁sonnets": 3597,
      "##self": 3598,
      "▁woman": 3599,
      "▁hanging": 3600,
      "▁vision": 3601,
      "##option": 3602,
      "▁belt": 3603,
      "▁thous": 3604,
      "▁becoming": 3605,
      "▁hor": 3606,
      "▁scale": 3607,
      "##izes": 3608,
      "▁tried": 3609,
      "▁bri": 3610,
      "##]": 3611,
      "▁sting": 3612,
      "▁assets": 3613,
      "▁tragedies": 3614,
      "##ree": 3615,
      "▁st.": 3616,
      "▁reads": 3617,
      "▁removed": 3618,
      "▁pushing": 3619,
      "##aper": 3620,
      "▁arri": 3621,
      "▁die": 3622,
      "▁warned": 3623,
      "▁))": 3624,
      "▁participating": 3625,
      "ι": 3626,
      "##ghting": 3627,
      "▁ski": 3628,
      "▁!": 3629,
      "▁stay": 3630,
      "▁trou": 3631,
      "▁maybe": 3632,
      "▁proceed": 3633,
      "▁exclu": 3634,
      "▁peanut": 3635,
      "▁increased": 3636,
      "▁pocket": 3637,
      "##ants": 3638,
      "##nly": 3639,
      "▁fate": 3640,
      "▁!?!": 3641,
      "▁ours": 3642,
      "▁rene": 3643,
      "▁isd": 3644,
      "##rors": 3645,
      "▁possession": 3646,
      "▁mys": 3647,
      "▁food": 3648,
      "##asp": 3649,
      "##jects": 3650,
      "▁addressed": 3651,
      "##iveness": 3652,
      "▁soldi": 3653,
      "æ": 3654,
      "▁ports": 3655,
      "##istic": 3656,
      "▁ign": 3657,
      "▁capability": 3658,
      "▁dates": 3659,
      "▁ear": 3660,
      "▁yo": 3661,
      "▁corpor": 3662,
      "##ried": 3663,
      "##ret": 3664,
      "▁owe": 3665,
      "▁hall": 3666,
      "▁study": 3667,
      "▁sec": 3668,
      "▁seal": 3669,
      "▁mosquito": 3670,
      "##riage": 3671,
      "▁comb": 3672,
      "▁clean": 3673,
      "▁advertis": 3674,
      "▁mathematics": 3675,
      "▁drag": 3676,
      "▁oct": 3677,
      "##astruc": 3678,
      "▁bring": 3679,
      "▁iraq": 3680,
      "▁photos": 3681,
      "##crib": 3682,
      "▁fund": 3683,
      "▁maint": 3684,
      "▁attracted": 3685,
      "▁sarah": 3686,
      "▁dose": 3687,
      "##000": 3688,
      "▁general": 3689,
      "▁reservation": 3690,
      "##eric": 3691,
      "▁mont": 3692,
      "##eting": 3693,
      "##el": 3694,
      "##ulars": 3695,
      "##ien": 3696,
      "▁performed": 3697,
      "▁fli": 3698,
      "##ut": 3699,
      "▁colle": 3700,
      "▁besides": 3701,
      "▁browser": 3702,
      "##anding": 3703,
      "##ots": 3704,
      "##ally": 3705,
      "▁concepts": 3706,
      "▁comment": 3707,
      "▁ozone": 3708,
      "##etro": 3709,
      "▁line": 3710,
      "▁soap": 3711,
      "▁trave": 3712,
      "▁heel": 3713,
      "▁diseases": 3714,
      "##‘": 3715,
      "▁conferences": 3716,
      "▁existed": 3717,
      "▁wood": 3718,
      "▁diapers": 3719,
      "▁re": 3720,
      "▁along": 3721,
      "▁kinds": 3722,
      "▁raining": 3723,
      "##forcement": 3724,
      "##ply": 3725,
      "▁happy": 3726,
      "▁polar": 3727,
      "##emb": 3728,
      "##lly": 3729,
      "▁trash": 3730,
      "▁clin": 3731,
      "##entions": 3732,
      "▁bar": 3733,
      "▁communication": 3734,
      "▁refin": 3735,
      "▁events": 3736,
      "▁cous": 3737,
      "▁merc": 3738,
      "▁roads": 3739,
      "▁transportation": 3740,
      "▁thinks": 3741,
      "▁risks": 3742,
      "▁climbing": 3743,
      "▁holding": 3744,
      "▁roof": 3745,
      "▁~": 3746,
      "▁apply": 3747,
      "▁deteri": 3748,
      "▁ll": 3749,
      "▁occupation": 3750,
      "##ant": 3751,
      "▁regarded": 3752,
      "▁swim": 3753,
      "▁trav": 3754,
      "▁antiqu": 3755,
      "▁discip": 3756,
      "▁ton": 3757,
      "##cience": 3758,
      "▁par": 3759,
      "▁shoulders": 3760,
      "▁loved": 3761,
      "▁dwww": 3762,
      "▁mouth": 3763,
      "▁those": 3764,
      "▁consid": 3765,
      "##ida": 3766,
      "▁appro": 3767,
      "▁adv": 3768,
      "▁recently": 3769,
      "▁mon": 3770,
      "##mitted": 3771,
      "▁screw": 3772,
      "▁today": 3773,
      "▁chan": 3774,
      "▁get": 3775,
      "▁parakeet": 3776,
      "##.m": 3777,
      "▁equality": 3778,
      "▁euro": 3779,
      "▁restri": 3780,
      "##egr": 3781,
      "▁riding": 3782,
      "▁difficulty": 3783,
      "▁yourself": 3784,
      "▁influence": 3785,
      "▁practicing": 3786,
      "▁involving": 3787,
      "▁user": 3788,
      "##acked": 3789,
      "##bs": 3790,
      "▁mile": 3791,
      "▁fiction": 3792,
      "▁jus": 3793,
      "▁shade": 3794,
      "▁inform": 3795,
      "▁government": 3796,
      "##rael": 3797,
      "▁subscrib": 3798,
      "▁rat": 3799,
      "##h": 3800,
      "##----": 3801,
      "▁from": 3802,
      "▁challenges": 3803,
      "▁standards": 3804,
      "##aker": 3805,
      "▁legisl": 3806,
      "▁tag": 3807,
      "▁approach": 3808,
      "▁these": 3809,
      "##appy": 3810,
      "▁genius": 3811,
      "▁intel": 3812,
      "▁bow": 3813,
      "##utor": 3814,
      "##su": 3815,
      "##areness": 3816,
      "▁resulting": 3817,
      "▁nation": 3818,
      "##nels": 3819,
      "▁recommend": 3820,
      "▁tribe": 3821,
      "##ool": 3822,
      "##ox": 3823,
      "##ios": 3824,
      "▁iss": 3825,
      "##ices": 3826,
      "##le": 3827,
      "▁theater": 3828,
      "##uled": 3829,
      "▁poc": 3830,
      "▁intend": 3831,
      "▁thing": 3832,
      "▁decide": 3833,
      "##spec": 3834,
      "##pl": 3835,
      "##man": 3836,
      "▁°": 3837,
      "▁bone": 3838,
      "▁feels": 3839,
      "▁rep": 3840,
      "▁purse": 3841,
      "##edom": 3842,
      "▁intentions": 3843,
      "▁agric": 3844,
      "##erate": 3845,
      "▁’d": 3846,
      "▁tables": 3847,
      "▁emerged": 3848,
      "##ie": 3849,
      "▁already": 3850,
      "▁rocks": 3851,
      "▁statements": 3852,
      "▁preparation": 3853,
      "▁basis": 3854,
      "▁exists": 3855,
      "##ican": 3856,
      "▁/": 3857,
      "▁crowd": 3858,
      "▁craw": 3859,
      "▁month": 3860,
      "##enance": 3861,
      "▁medium": 3862,
      "▁businesses": 3863,
      "▁best": 3864,
      "▁team": 3865,
      "▁speed": 3866,
      "##iful": 3867,
      "##ole": 3868,
      "##aming": 3869,
      "▁conversation": 3870,
      "▁est": 3871,
      "▁generations": 3872,
      "▁but": 3873,
      "▁anything": 3874,
      "▁interview": 3875,
      "▁opens": 3876,
      "▁territory": 3877,
      "▁world": 3878,
      "▁alt": 3879,
      "▁supply": 3880,
      "▁tasks": 3881,
      "▁virus": 3882,
      "▁contracts": 3883,
      "▁neighbor": 3884,
      "▁agenda": 3885,
      "▁spoon": 3886,
      "##chie": 3887,
      "▁caused": 3888,
      "▁vide": 3889,
      "##ele": 3890,
      "▁......": 3891,
      "▁economic": 3892,
      "▁o'clock": 3893,
      "▁unity": 3894,
      "▁chang": 3895,
      "▁tot": 3896,
      "▁tell": 3897,
      "▁wip": 3898,
      "##ather": 3899,
      "▁visitors": 3900,
      "##atched": 3901,
      "▁uni": 3902,
      "##enture": 3903,
      "▁buttons": 3904,
      "▁’": 3905,
      "▁death": 3906,
      "▁tv": 3907,
      "▁economists": 3908,
      "▁pizza": 3909,
      "▁sauce": 3910,
      "##asses": 3911,
      "##unc": 3912,
      "##rup": 3913,
      "##issions": 3914,
      "▁turb": 3915,
      "▁kept": 3916,
      "▁slice": 3917,
      "▁congress": 3918,
      "▁are": 3919,
      "▁among": 3920,
      "▁launch": 3921,
      "▁skip": 3922,
      "▁universe": 3923,
      "▁magic": 3924,
      "##onstr": 3925,
      "▁lessons": 3926,
      "##ali": 3927,
      "▁big": 3928,
      "▁racing": 3929,
      "##uch": 3930,
      "▁estim": 3931,
      "##ense": 3932,
      "##rote": 3933,
      "##esting": 3934,
      "##isf": 3935,
      "▁follow": 3936,
      "▁developer": 3937,
      "▁book": 3938,
      "##ick": 3939,
      "▁mailings": 3940,
      "▁kansas": 3941,
      "▁november": 3942,
      "##ving": 3943,
      "##_": 3944,
      "▁rabbits": 3945,
      "▁lots": 3946,
      "▁stillman": 3947,
      "##ney": 3948,
      "▁displayed": 3949,
      "##otch": 3950,
      "##utiful": 3951,
      "▁ti": 3952,
      "▁full": 3953,
      "▁knoc": 3954,
      "##igrants": 3955,
      "▁families": 3956,
      "▁reproduc": 3957,
      "▁emerging": 3958,
      "▁concerned": 3959,
      "##sed": 3960,
      "▁composition": 3961,
      "▁scar": 3962,
      "##ape": 3963,
      "▁cond": 3964,
      "▁do": 3965,
      "##ait": 3966,
      "##fications": 3967,
      "▁lou": 3968,
      "▁cheapest": 3969,
      "##oods": 3970,
      "▁collecting": 3971,
      "##order": 3972,
      "▁spons": 3973,
      "▁organized": 3974,
      "##ede": 3975,
      "▁dist": 3976,
      "##oli": 3977,
      "▁-----------------": 3978,
      "##ograph": 3979,
      "▁'": 3980,
      "▁cook": 3981,
      "▁minimum": 3982,
      "▁received": 3983,
      "▁relating": 3984,
      "▁jun": 3985,
      "▁noone": 3986,
      "▁likes": 3987,
      "▁proble": 3988,
      "▁pointing": 3989,
      "##ack": 3990,
      "▁gone": 3991,
      "##itely": 3992,
      "▁root": 3993,
      "▁extre": 3994,
      "▁cy": 3995,
      "##icated": 3996,
      "##veland": 3997,
      "▁objects": 3998,
      "▁cage": 3999,
      "▁alleged": 4000,
      "▁b": 4001,
      "▁explos": 4002,
      "##ell": 4003,
      "▁live": 4004,
      "▁asp": 4005,
      "▁aunt": 4006,
      "##erves": 4007,
      "▁council": 4008,
      "▁housing": 4009,
      "▁bugs": 4010,
      "▁gap": 4011,
      "##**": 4012,
      "▁wheat": 4013,
      "▁no": 4014,
      "▁washington": 4015,
      "##ar": 4016,
      "▁ed": 4017,
      "▁ignore": 4018,
      "▁cabbage": 4019,
      "▁actor": 4020,
      "▁hundreds": 4021,
      "▁mouse": 4022,
      "▁generation": 4023,
      "▁acceptance": 4024,
      "▁gained": 4025,
      "▁complete": 4026,
      "##gin": 4027,
      "▁offic": 4028,
      "▁device": 4029,
      "##arly": 4030,
      "▁eggs": 4031,
      "▁demonstrate": 4032,
      "▁counterfe": 4033,
      "▁helicopters": 4034,
      "▁http://www": 4035,
      "▁it": 4036,
      "▁authors": 4037,
      "##inter": 4038,
      "▁quest": 4039,
      "##ifying": 4040,
      "▁camp": 4041,
      "▁operator": 4042,
      "▁palace": 4043,
      "▁rom": 4044,
      "▁pill": 4045,
      "▁drink": 4046,
      "▁tar": 4047,
      "##ris": 4048,
      "▁came": 4049,
      "▁heading": 4050,
      "▁fles": 4051,
      "▁decre": 4052,
      "##force": 4053,
      "▁reflected": 4054,
      "▁philadel": 4055,
      "▁col": 4056,
      "▁finding": 4057,
      "▁silk": 4058,
      "▁prem": 4059,
      "▁short": 4060,
      "▁climate": 4061,
      "▁date": 4062,
      "▁favor": 4063,
      "##sel": 4064,
      "▁impris": 4065,
      "▁goat": 4066,
      "▁well": 4067,
      "▁stairs": 4068,
      "▁neither": 4069,
      "##rap": 4070,
      "▁flying": 4071,
      "##ibilities": 4072,
      "▁measure": 4073,
      "▁mount": 4074,
      "▁menti": 4075,
      "▁determined": 4076,
      "▁toile": 4077,
      "▁programme": 4078,
      "▁desert": 4079,
      "##at": 4080,
      "##ams": 4081,
      "##uc": 4082,
      "▁revealed": 4083,
      "▁le": 4084,
      "▁teams": 4085,
      "▁shock": 4086,
      "▁pra": 4087,
      "▁pen": 4088,
      "▁explain": 4089,
      "▁found": 4090,
      "▁mad": 4091,
      "▁turn": 4092,
      "▁digging": 4093,
      "▁easy": 4094,
      "▁fruit": 4095,
      "▁waves": 4096,
      "##thing": 4097,
      "##ually": 4098,
      "▁fiel": 4099,
      "▁established": 4100,
      "▁graduate": 4101,
      "▁described": 4102,
      "##edness": 4103,
      "##rog": 4104,
      "▁outcome": 4105,
      "##op": 4106,
      "▁having": 4107,
      "▁soc": 4108,
      "▁residents": 4109,
      "▁gar": 4110,
      "▁pil": 4111,
      "▁beef": 4112,
      "▁franc": 4113,
      "##fin": 4114,
      "▁negot": 4115,
      "##acks": 4116,
      "▁bunch": 4117,
      "3": 4118,
      "▁pattern": 4119,
      "▁estimate": 4120,
      "##athers": 4121,
      "▁length": 4122,
      "▁blanket": 4123,
      "▁behalf": 4124,
      "##ah": 4125,
      "##ached": 4126,
      "▁emb": 4127,
      "##enth": 4128,
      "##loy": 4129,
      "▁position": 4130,
      "▁issues": 4131,
      "##tor": 4132,
      "▁country": 4133,
      "##ngth": 4134,
      "▁knowledge": 4135,
      "▁breakfast": 4136,
      "##gers": 4137,
      "##laimed": 4138,
      "▁interference": 4139,
      "▁enjambment": 4140,
      "▁environments": 4141,
      "##icate": 4142,
      "▁spending": 4143,
      "##eli": 4144,
      "▁gets": 4145,
      "##umin": 4146,
      "▁stepped": 4147,
      "##.": 4148,
      "▁treated": 4149,
      "▁visiting": 4150,
      "▁cler": 4151,
      "▁shared": 4152,
      "▁soil": 4153,
      "▁tomorrow": 4154,
      "##tors": 4155,
      "##ado": 4156,
      "##chup": 4157,
      "▁men": 4158,
      "▁errors": 4159,
      "##urt": 4160,
      "▁sto": 4161,
      "##port": 4162,
      "▁kittens": 4163,
      "▁hea": 4164,
      "▁passed": 4165,
      "##hes": 4166,
      "##iver": 4167,
      "##.x": 4168,
      "##isted": 4169,
      "▁describe": 4170,
      "▁calls": 4171,
      "##iff": 4172,
      "▁walking": 4173,
      "##amas": 4174,
      "▁george": 4175,
      "▁!!!!!!!!!!!!!!!!!!!": 4176,
      "▁sections": 4177,
      "▁shakespeare": 4178,
      "▁da": 4179,
      "##onna": 4180,
      "▁fortune": 4181,
      "e": 4182,
      "▁sect": 4183,
      "▁quan": 4184,
      "##mm": 4185,
      "▁vers": 4186,
      "▁laid": 4187,
      "▁tro": 4188,
      "▁settled": 4189,
      "▁knows": 4190,
      "▁alongside": 4191,
      "▁card": 4192,
      "##s.": 4193,
      "▁hear": 4194,
      "▁coat": 4195,
      "▁suffer": 4196,
      "▁red": 4197,
      "▁targ": 4198,
      "▁bars": 4199,
      "▁survey": 4200,
      "▁ceo": 4201,
      "▁back": 4202,
      "▁projected": 4203,
      "▁adopted": 4204,
      "##aughter": 4205,
      "▁theories": 4206,
      "##tiff": 4207,
      "▁tour": 4208,
      "▁ro": 4209,
      "▁tw": 4210,
      "▁sticks": 4211,
      "##aks": 4212,
      "##elling": 4213,
      "▁forg": 4214,
      "▁-------------------------------------------------": 4215,
      "▁n": 4216,
      "▁return": 4217,
      "▁key": 4218,
      "▁manager": 4219,
      "▁married": 4220,
      "##izing": 4221,
      "▁bubble": 4222,
      "##light": 4223,
      "▁momma": 4224,
      "▁studying": 4225,
      "▁compl": 4226,
      "▁que": 4227,
      "##gets": 4228,
      "▁credit": 4229,
      "##...": 4230,
      "▁creation": 4231,
      "##ome": 4232,
      "▁artworks": 4233,
      "▁progress": 4234,
      "▁economy": 4235,
      "³": 4236,
      "▁etc": 4237,
      "##7": 4238,
      "##portun": 4239,
      "▁interp": 4240,
      "##itled": 4241,
      "▁query": 4242,
      "▁own": 4243,
      "▁argument": 4244,
      "▁day": 4245,
      "▁vi": 4246,
      "▁famili": 4247,
      "▁potty": 4248,
      "▁main": 4249,
      "▁capital": 4250,
      "▁almost": 4251,
      "##ɑ": 4252,
      "p": 4253,
      "##istan": 4254,
      "▁mommy": 4255,
      "▁drew": 4256,
      "##s": 4257,
      "▁approved": 4258,
      "▁community": 4259,
      "▁regar": 4260,
      "▁resistance": 4261,
      "##inal": 4262,
      "▁ar": 4263,
      "▁dog": 4264,
      "##tain": 4265,
      "▁ball": 4266,
      "▁communic": 4267,
      "▁realize": 4268,
      "▁european": 4269,
      "▁overalls": 4270,
      "▁lover": 4271,
      "▁facilities": 4272,
      "▁htt": 4273,
      "▁carbon": 4274,
      "▁banj": 4275,
      "▁buc": 4276,
      "▁push": 4277,
      "▁miles": 4278,
      "▁pajamas": 4279,
      "▁guest": 4280,
      "▁priest": 4281,
      "▁’m": 4282,
      "▁hun": 4283,
      "##ival": 4284,
      "▁message": 4285,
      "##pped": 4286,
      "▁toronto": 4287,
      "##ote": 4288,
      "▁=---": 4289,
      "▁soldier": 4290,
      "▁centre": 4291,
      "▁grant": 4292,
      "##oph": 4293,
      "▁sover": 4294,
      "▁wo": 4295,
      "▁spill": 4296,
      "##off": 4297,
      "##aughters": 4298,
      "▁i": 4299,
      "▁performances": 4300,
      "##gage": 4301,
      "▁compens": 4302,
      "▁ge": 4303,
      "##tices": 4304,
      "▁source": 4305,
      "##0": 4306,
      "##alth": 4307,
      "##aze": 4308,
      "▁initi": 4309,
      "##stit": 4310,
      "▁fulf": 4311,
      "##urop": 4312,
      "▁approval": 4313,
      "▁transport": 4314,
      "##ulf": 4315,
      "##ackers": 4316,
      "▁angeles": 4317,
      "▁su": 4318,
      "▁l2": 4319,
      "▁participate": 4320,
      "▁hidden": 4321,
      "▁constit": 4322,
      "##ottable": 4323,
      "▁plat": 4324,
      "##cend": 4325,
      "##uary": 4326,
      "##lium": 4327,
      "▁cruise": 4328,
      "▁chosen": 4329,
      "▁highligh": 4330,
      "▁gn": 4331,
      "▁grandma": 4332,
      "▁escaped": 4333,
      "▁service": 4334,
      "##val": 4335,
      "##uries": 4336,
      "##ave": 4337,
      "##neath": 4338,
      "▁attacked": 4339,
      "▁ribbon": 4340,
      "▁satisf": 4341,
      "▁bottles": 4342,
      "##oted": 4343,
      "▁vit": 4344,
      "▁consu": 4345,
      "▁blocks": 4346,
      "▁threat": 4347,
      "##??": 4348,
      "▁allies": 4349,
      "▁leaves": 4350,
      "▁extremely": 4351,
      "▁contribution": 4352,
      "▁presentation": 4353,
      "##art": 4354,
      "▁frozen": 4355,
      "▁rip": 4356,
      "▁delivery": 4357,
      "▁weapon": 4358,
      "▁investig": 4359,
      "▁individual": 4360,
      "▁countries": 4361,
      "##ressed": 4362,
      "▁achieving": 4363,
      "▁freezer": 4364,
      "▁storm": 4365,
      "##://": 4366,
      "▁tun": 4367,
      "▁media": 4368,
      "▁bo": 4369,
      "▁sound": 4370,
      "##enc": 4371,
      "▁conclu": 4372,
      "▁recent": 4373,
      "▁interv": 4374,
      "▁dece": 4375,
      "##its": 4376,
      "▁bicycle": 4377,
      "▁biting": 4378,
      "##mpl": 4379,
      "▁poodle": 4380,
      "▁dem": 4381,
      "▁convinced": 4382,
      "##ives": 4383,
      "##ach": 4384,
      "▁certi": 4385,
      "##ac": 4386,
      "▁programmes": 4387,
      "▁promoted": 4388,
      "▁observ": 4389,
      "▁avo": 4390,
      "▁wik": 4391,
      "##ite": 4392,
      "##str": 4393,
      "▁discus": 4394,
      "##ress": 4395,
      "▁version": 4396,
      "▁kid": 4397,
      "▁mosques": 4398,
      "▁patients": 4399,
      "##alu": 4400,
      "▁dep": 4401,
      "▁congrat": 4402,
      "▁banjo": 4403,
      "▁climb": 4404,
      "▁ta": 4405,
      "▁‘’": 4406,
      "▁mention": 4407,
      "▁confusion": 4408,
      "▁cuck": 4409,
      "▁suffered": 4410,
      "▁committee": 4411,
      "▁cheek": 4412,
      "▁confirm": 4413,
      "▁assume": 4414,
      "▁surr": 4415,
      "▁islamists": 4416,
      "▁decline": 4417,
      "▁class": 4418,
      "##ilos": 4419,
      "▁returning": 4420,
      "##orities": 4421,
      "▁gang": 4422,
      "▁pref": 4423,
      "▁u.": 4424,
      "##ht": 4425,
      "▁rob": 4426,
      "▁moving": 4427,
      "▁soul": 4428,
      "▁long": 4429,
      "▁polaroids": 4430,
      "##chen": 4431,
      "##enda": 4432,
      "▁...............": 4433,
      "▁crimes": 4434,
      "▁mom": 4435,
      "▁did": 4436,
      "▁ir": 4437,
      "##itations": 4438,
      "▁usually": 4439,
      "▁wake": 4440,
      "▁|--------+----------------": 4441,
      "##gg": 4442,
      "▁intervening": 4443,
      "##ty": 4444,
      "##utions": 4445,
      "▁trips": 4446,
      "##arked": 4447,
      "▁declare": 4448,
      "▁broke": 4449,
      "##and": 4450,
      "▁chances": 4451,
      "##tern": 4452,
      "▁cray": 4453,
      "▁waters": 4454,
      "▁century": 4455,
      "▁exchange": 4456,
      "▁enjoyed": 4457,
      "##es": 4458,
      "##lic": 4459,
      "▁says": 4460,
      "▁rap": 4461,
      "▁sss": 4462,
      "▁peoples": 4463,
      "##lit": 4464,
      "▁facil": 4465,
      "▁seekers": 4466,
      "##imum": 4467,
      "##akers": 4468,
      "▁installed": 4469,
      "▁carol": 4470,
      "▁too": 4471,
      "▁mem": 4472,
      "b": 4473,
      "▁gro": 4474,
      "▁anti": 4475,
      "▁refriger": 4476,
      "▁directed": 4477,
      "##f": 4478,
      "▁enjo": 4479,
      "▁harry": 4480,
      "▁hippop": 4481,
      "▁pig": 4482,
      "##umble": 4483,
      "▁crawl": 4484,
      "▁enough": 4485,
      "▁tea": 4486,
      "▁close": 4487,
      "▁docum": 4488,
      "▁frag": 4489,
      "▁photography": 4490,
      "▁shall": 4491,
      "##get": 4492,
      "##inate": 4493,
      "▁boots": 4494,
      "▁drank": 4495,
      "▁citizen": 4496,
      "▁number": 4497,
      "▁director": 4498,
      "▁seating": 4499,
      "▁round": 4500,
      "▁walk": 4501,
      "##itive": 4502,
      "▁show": 4503,
      "▁languages": 4504,
      "##nia": 4505,
      "ˈ": 4506,
      "##temp": 4507,
      "▁reflection": 4508,
      "▁sim": 4509,
      "▁tension": 4510,
      "##apolis": 4511,
      "▁agreement": 4512,
      "▁granted": 4513,
      "▁has": 4514,
      "▁played": 4515,
      "▁yester": 4516,
      "▁wiggle": 4517,
      "▁huge": 4518,
      "▁concern": 4519,
      "▁difficulties": 4520,
      "▁definition": 4521,
      "▁adap": 4522,
      "▁purs": 4523,
      "▁folks": 4524,
      "▁thrown": 4525,
      "▁bott": 4526,
      "▁counsel": 4527,
      "▁animal": 4528,
      "▁sust": 4529,
      "##us": 4530,
      "▁wrote": 4531,
      "▁sons": 4532,
      "▁small": 4533,
      "▁was": 4534,
      "▁theme": 4535,
      "▁burn": 4536,
      "▁info": 4537,
      "##atme": 4538,
      "▁sept": 4539,
      "▁..........": 4540,
      "▁applied": 4541,
      "▁routes": 4542,
      "▁decision": 4543,
      "▁ther": 4544,
      "##oring": 4545,
      "▁results": 4546,
      "▁arriving": 4547,
      "##ad": 4548,
      "##ral": 4549,
      "##olving": 4550,
      "▁dolphins": 4551,
      "▁ban": 4552,
      "▁accomp": 4553,
      "##umes": 4554,
      "▁pepper": 4555,
      "##em": 4556,
      "##icals": 4557,
      "##ring": 4558,
      "##or": 4559,
      "▁serve": 4560,
      "▁recogn": 4561,
      "▁invited": 4562,
      "▁tom": 4563,
      "▁flag": 4564,
      "##umn": 4565,
      "▁ambul": 4566,
      "▁falling": 4567,
      "##vely": 4568,
      "▁trials": 4569,
      "▁properties": 4570,
      "▁appe": 4571,
      "▁destruc": 4572,
      "▁noted": 4573,
      "##gr": 4574,
      "##ose": 4575,
      "▁analysis": 4576,
      "▁load": 4577,
      "▁weake": 4578,
      "##ablish": 4579,
      "▁butter": 4580,
      "##ands": 4581,
      "▁grass": 4582,
      "##idence": 4583,
      "#": 4584,
      "▁routine": 4585,
      "▁suffering": 4586,
      "##6": 4587,
      "##issed": 4588,
      "▁libr": 4589,
      "▁neighborhood": 4590,
      "##usion": 4591,
      "▁happening": 4592,
      "▁hearings": 4593,
      "▁regret": 4594,
      "▁draft": 4595,
      "▁thre": 4596,
      "▁vegas": 4597,
      "▁wish": 4598,
      "▁envelop": 4599,
      "▁towards": 4600,
      "▁worksh": 4601,
      "▁especially": 4602,
      "▁donations": 4603,
      "##ils": 4604,
      "▁cup": 4605,
      "▁parad": 4606,
      "##oop": 4607,
      "##--------": 4608,
      "##all": 4609,
      "▁worn": 4610,
      "▁reached": 4611,
      "▁mm": 4612,
      "▁?!?": 4613,
      "▁singing": 4614,
      "▁survival": 4615,
      "##roleum": 4616,
      "##uments": 4617,
      "▁sex": 4618,
      "##????????": 4619,
      "##artment": 4620,
      "▁theirs": 4621,
      "##ven": 4622,
      "▁seventh": 4623,
      "##ger": 4624,
      "▁accepted": 4625,
      "##yed": 4626,
      "▁bed": 4627,
      "▁>": 4628,
      "▁boston": 4629,
      "##up": 4630,
      "##dly": 4631,
      "▁violation": 4632,
      "##gest": 4633,
      "▁innovation": 4634,
      "##ten": 4635,
      "##wood": 4636,
      "##erv": 4637,
      "##ς": 4638,
      "▁taking": 4639,
      "##fort": 4640,
      "▁supermarket": 4641,
      "▁leadership": 4642,
      "▁planned": 4643,
      "▁jur": 4644,
      "▁cereal": 4645,
      "##aws": 4646,
      "▁view": 4647,
      "▁brain": 4648,
      "▁string": 4649,
      "▁for": 4650,
      "▁guide": 4651,
      "▁steam": 4652,
      "▁im": 4653,
      "▁whose": 4654,
      "##=----": 4655,
      "▁ships": 4656,
      "##tered": 4657,
      "▁lad": 4658,
      "▁neighb": 4659,
      "▁transf": 4660,
      "▁replication": 4661,
      "##phone": 4662,
      "##tr": 4663,
      "##knowled": 4664,
      "##rating": 4665,
      "▁wall": 4666,
      "▁sc": 4667,
      "##river": 4668,
      "▁befor": 4669,
      "▁bric": 4670,
      "▁******************************************************************": 4671,
      "▁grapes": 4672,
      "##lf": 4673,
      "▁pa": 4674,
      "##un": 4675,
      "▁gentle": 4676,
      "▁path": 4677,
      "▁russ": 4678,
      "▁beauty": 4679,
      "▁default": 4680,
      "▁officer": 4681,
      "##ceptions": 4682,
      "▁saturday": 4683,
      "▁begin": 4684,
      "▁text": 4685,
      "##ybody": 4686,
      "##roph": 4687,
      "▁style": 4688,
      "▁shoes": 4689,
      "▁stopping": 4690,
      "▁goals": 4691,
      "▁is": 4692,
      "##ternoon": 4693,
      "▁pract": 4694,
      "##ances": 4695,
      "▁looked": 4696,
      "▁officials": 4697,
      "▁non-": 4698,
      "▁play+": 4699,
      "##store": 4700,
      "▁flood": 4701,
      "▁beh": 4702,
      "▁les": 4703,
      "▁workers": 4704,
      "▁parents": 4705,
      "##ity": 4706,
      "▁scenar": 4707,
      "▁amend": 4708,
      "▁september": 4709,
      "▁showing": 4710,
      "▁vacuum": 4711,
      "▁machines": 4712,
      "▁songs": 4713,
      "▁consult": 4714,
      "##etition": 4715,
      "##ep": 4716,
      "▁taken": 4717,
      "▁analyst": 4718,
      "▁sour": 4719,
      "▁hammer": 4720,
      "▁div": 4721,
      "▁interface": 4722,
      "▁espec": 4723,
      "▁artwork": 4724,
      "▁rebuil": 4725,
      "▁tray": 4726,
      "▁smoking": 4727,
      "{": 4728,
      "▁rubber": 4729,
      "##ines": 4730,
      "▁expected": 4731,
      "▁impact": 4732,
      "▁neph": 4733,
      "##t": 4734,
      "##ame": 4735,
      "▁map": 4736,
      "▁ter": 4737,
      "▁concept": 4738,
      "9": 4739,
      "▁export": 4740,
      "▁factors": 4741,
      "▁volunte": 4742,
      "▁clay": 4743,
      "▁festivals": 4744,
      "▁7": 4745,
      "▁rein": 4746,
      "▁dried": 4747,
      "▁airfare": 4748,
      "▁while": 4749,
      "▁audit": 4750,
      "▁knife": 4751,
      "▁depends": 4752,
      "##60s": 4753,
      "▁inh": 4754,
      "▁representative": 4755,
      "▁turning": 4756,
      "##ase": 4757,
      "▁hous": 4758,
      "▁users": 4759,
      "##duction": 4760,
      "▁parks": 4761,
      "▁piv": 4762,
      "▁incident": 4763,
      "##eline": 4764,
      "▁project": 4765,
      "##od": 4766,
      "▁vaccine": 4767,
      "▁popularity": 4768,
      "##operation": 4769,
      "▁blan": 4770,
      "##reds": 4771,
      "▁offering": 4772,
      "▁convers": 4773,
      "▁serves": 4774,
      "##tw": 4775,
      "▁movies": 4776,
      "##led": 4777,
      "▁storage": 4778,
      "▁isda": 4779,
      "▁gal": 4780,
      "▁computer": 4781,
      "▁paris": 4782,
      "▁millions": 4783,
      "▁certific": 4784,
      "##iqu": 4785,
      "▁unemployment": 4786,
      "▁demon": 4787,
      "▁develop": 4788,
      "##mar": 4789,
      "##lity": 4790,
      "▁situation": 4791,
      "▁avoiding": 4792,
      "▁definitely": 4793,
      "▁cla": 4794,
      "##affle": 4795,
      "##uty": 4796,
      "▁dream": 4797,
      "##bly": 4798,
      "##fact": 4799,
      "##idents": 4800,
      "##ond": 4801,
      "▁bank": 4802,
      "▁nur": 4803,
      "▁democracy": 4804,
      "▁cream": 4805,
      "▁inc": 4806,
      "▁swee": 4807,
      "▁prepared": 4808,
      "▁juice": 4809,
      "▁conde": 4810,
      "##arks": 4811,
      "##apped": 4812,
      "▁save": 4813,
      "▁mirror": 4814,
      "▁tragedy": 4815,
      "##ver": 4816,
      "▁except": 4817,
      "▁multipl": 4818,
      "##x": 4819,
      "▁vet": 4820,
      "▁year": 4821,
      "▁laying": 4822,
      "▁effect": 4823,
      "##ees": 4824,
      "▁basket": 4825,
      "▁conversations": 4826,
      "▁amongst": 4827,
      "▁hop": 4828,
      "▁pros": 4829,
      "▁begins": 4830,
      "##forming": 4831,
      "##rely": 4832,
      "▁photograph": 4833,
      "▁ga": 4834,
      "▁means": 4835,
      "▁arg": 4836,
      "▁consumer": 4837,
      "▁balance": 4838,
      "▁discuss": 4839,
      "▁surf": 4840,
      "##ugg": 4841,
      "##ork": 4842,
      "▁witch": 4843,
      "▁bearing": 4844,
      "▁named": 4845,
      "##oned": 4846,
      "▁sn": 4847,
      "##;": 4848,
      "▁towel": 4849,
      "▁califor": 4850,
      "▁boxes": 4851,
      "▁'d": 4852,
      "▁exposed": 4853,
      "##down": 4854,
      "▁iv": 4855,
      "##ust": 4856,
      "##tured": 4857,
      "▁yoga": 4858,
      "▁north": 4859,
      "▁lun": 4860,
      "▁teach": 4861,
      "▁microscope": 4862,
      "▁keys": 4863,
      "▁pumpkin": 4864,
      "▁atlanta": 4865,
      "##gs": 4866,
      "▁border": 4867,
      "▁achieve": 4868,
      "▁spre": 4869,
      "▁implications": 4870,
      "▁revenue": 4871,
      "▁educ": 4872,
      "▁ate": 4873,
      "▁direction": 4874,
      "▁scenario": 4875,
      "▁high": 4876,
      "▁provided": 4877,
      "▁bombs": 4878,
      "▁apolog": 4879,
      "##apse": 4880,
      "▁accord": 4881,
      "▁efforts": 4882,
      "▁chasing": 4883,
      "▁phenomen": 4884,
      "▁waiter": 4885,
      "▁via": 4886,
      "▁translated": 4887,
      "▁toward": 4888,
      "▁though": 4889,
      "##owers": 4890,
      "##re": 4891,
      "##ted": 4892,
      "▁van": 4893,
      "▁provisions": 4894,
      "▁snakes": 4895,
      "▁elected": 4896,
      "▁till": 4897,
      "##clo": 4898,
      "▁mult": 4899,
      "##de": 4900,
      "▁identifies": 4901,
      "##ina": 4902,
      "▁napkin": 4903,
      "▁objectives": 4904,
      "##hing": 4905,
      "##pr": 4906,
      "▁experienced": 4907,
      "##ortant": 4908,
      "▁plant": 4909,
      "▁nash": 4910,
      "▁accompanied": 4911,
      "▁intended": 4912,
      "▁seeking": 4913,
      "##overs": 4914,
      "▁pet": 4915,
      "▁exch": 4916,
      "##oun": 4917,
      "▁whis": 4918,
      "▁station": 4919,
      "▁dese": 4920,
      "▁texas": 4921,
      "▁pub": 4922,
      "▁cheap": 4923,
      "▁painting": 4924,
      "##ns": 4925,
      "▁approve": 4926,
      "##.m.": 4927,
      "▁gum": 4928,
      "▁force": 4929,
      "▁hobby": 4930,
      "▁happiness": 4931,
      "▁earli": 4932,
      "▁updates": 4933,
      "##rib": 4934,
      "##ve": 4935,
      "▁minutes": 4936,
      "##st": 4937,
      "▁strugg": 4938,
      "▁http://": 4939,
      "▁interaction": 4940,
      "▁coordination": 4941,
      "##ety": 4942,
      "▁attract": 4943,
      "▁flight": 4944,
      "▁stage": 4945,
      "▁eff": 4946,
      "▁hoped": 4947,
      "##ny": 4948,
      "##aft": 4949,
      "▁bomb": 4950,
      "▁certain": 4951,
      "##ening": 4952,
      "▁longer": 4953,
      "▁eat": 4954,
      "▁information": 4955,
      "▁hang": 4956,
      "▁meal": 4957,
      "▁slope": 4958,
      "▁focused": 4959,
      "▁affairs": 4960,
      "##ino": 4961,
      "▁spent": 4962,
      "##cery": 4963,
      "▁report": 4964,
      "▁lesson": 4965,
      "▁above": 4966,
      "▁thro": 4967,
      "▁split": 4968,
      "▁bab": 4969,
      "▁transformation": 4970,
      "▁demand": 4971,
      "▁lead": 4972,
      "##ril": 4973,
      "##urned": 4974,
      "▁bulld": 4975,
      "▁heads": 4976,
      "▁4": 4977,
      "##ian": 4978,
      "▁pr": 4979,
      "▁vanilla": 4980,
      "##sex": 4981,
      "▁campus": 4982,
      "▁consumption": 4983,
      "▁filled": 4984,
      "▁most": 4985,
      "▁phase": 4986,
      "▁create": 4987,
      "▁backed": 4988,
      "▁init": 4989,
      "▁regards": 4990,
      "▁elephants": 4991,
      "▁grandm": 4992,
      "▁ready": 4993,
      "▁hiding": 4994,
      "▁imag": 4995,
      "▁backs": 4996,
      "▁police": 4997,
      "▁fries": 4998,
      "##agon": 4999,
      "▁sle": 5000,
      "▁gover": 5001,
      "▁sisters": 5002,
      "▁inj": 5003,
      "##q": 5004,
      "##ission": 5005,
      "▁presented": 5006,
      "###693": 5007,
      "▁crops": 5008,
      "▁concre": 5009,
      "▁b/c": 5010,
      "##eers": 5011,
      "▁stri": 5012,
      "▁surgery": 5013,
      "▁delive": 5014,
      "##umbled": 5015,
      "##line": 5016,
      "▁po": 5017,
      "▁-----": 5018,
      "##ier": 5019,
      "##ul": 5020,
      "▁acknowled": 5021,
      "▁items": 5022,
      "▁gri": 5023,
      "##care": 5024,
      "▁occup": 5025,
      "▁target": 5026,
      "▁remove": 5027,
      "▁many": 5028,
      "▁surround": 5029,
      "▁rank": 5030,
      "▁acquired": 5031,
      "##00": 5032,
      "▁*****": 5033,
      "##alize": 5034,
      "▁adds": 5035,
      "▁the": 5036,
      "ν": 5037,
      "##°": 5038,
      "▁bad": 5039,
      "▁someth": 5040,
      "▁dad": 5041,
      "▁pink": 5042,
      "▁burst": 5043,
      "▁q1": 5044,
      "▁surve": 5045,
      "▁perceived": 5046,
      "##oe": 5047,
      "▁alt.": 5048,
      "▁steps": 5049,
      "##ile": 5050,
      "▁standard": 5051,
      "▁proposal": 5052,
      "▁problems": 5053,
      "##qual": 5054,
      "##est": 5055,
      "▁would": 5056,
      "##iate": 5057,
      "##ast": 5058,
      "▁referen": 5059,
      "▁champ": 5060,
      "▁bags": 5061,
      "▁vom": 5062,
      "##aph": 5063,
      "▁college": 5064,
      "▁middle": 5065,
      "▁coast": 5066,
      "##air": 5067,
      "▁moments": 5068,
      "▁eaten": 5069,
      "##ider": 5070,
      "▁pennies": 5071,
      "##ented": 5072,
      "▁‘": 5073,
      "▁solutions": 5074,
      "▁fix": 5075,
      "##ts": 5076,
      "▁prop": 5077,
      "▁lettuce": 5078,
      "▁twist": 5079,
      "##rons": 5080,
      "▁hire": 5081,
      "▁stand": 5082,
      "▁gun": 5083,
      "##ours": 5084,
      "▁consc": 5085,
      "▁customer": 5086,
      "##raw": 5087,
      "##erence": 5088,
      "▁finger": 5089,
      "▁leaving": 5090,
      "##erta": 5091,
      "▁owl": 5092,
      "▁’ve": 5093,
      "##ides": 5094,
      "##oy": 5095,
      "▁there": 5096,
      "▁including": 5097,
      "##ails": 5098,
      "##ays": 5099,
      "▁materials": 5100,
      "▁monitor": 5101,
      "▁`s": 5102,
      "##urn": 5103,
      "▁somebody": 5104,
      "▁development": 5105,
      "▁dev": 5106,
      "##etter": 5107,
      "▁persp": 5108,
      "▁second": 5109,
      "▁telephone": 5110,
      "▁until": 5111,
      "##igg": 5112,
      "▁word": 5113,
      "##band": 5114,
      "##ular": 5115,
      "##cro": 5116,
      "▁followed": 5117,
      "▁++++": 5118,
      "▁over": 5119,
      "▁sug": 5120,
      "▁freedoms": 5121,
      "##do": 5122,
      "▁vic": 5123,
      "▁changed": 5124,
      "▁drop": 5125,
      "▁smell": 5126,
      "▁avoid": 5127,
      "▁filtered": 5128,
      "▁hearts": 5129,
      "##verage": 5130,
      "▁frid": 5131,
      "▁anyth": 5132,
      "▁municip": 5133,
      "▁bre": 5134,
      "▁channel": 5135,
      "##ties": 5136,
      "##ok": 5137,
      "##ω": 5138,
      "▁percent": 5139,
      "▁watching": 5140,
      "▁glove": 5141,
      "▁kind": 5142,
      "##jection": 5143,
      "▁advance": 5144,
      "▁cleveland": 5145,
      "##uts": 5146,
      "▁bubbles": 5147,
      "▁forwar": 5148,
      "▁provin": 5149,
      "▁copies": 5150,
      "▁helping": 5151,
      "▁refusing": 5152,
      "▁reality": 5153,
      "##war": 5154,
      "▁cig": 5155,
      "##ium": 5156,
      "▁undertake": 5157,
      "▁x3": 5158,
      "▁further": 5159,
      "▁population": 5160,
      "▁check": 5161,
      "▁texts": 5162,
      "▁ep": 5163,
      "##inea": 5164,
      "##an": 5165,
      "▁traffic": 5166,
      "▁tos": 5167,
      "▁consul": 5168,
      "##owl": 5169,
      "▁feed": 5170,
      "▁ham": 5171,
      "▁networks": 5172,
      "##io": 5173,
      "▁culture": 5174,
      "▁airlin": 5175,
      "##—": 5176,
      "▁shoot": 5177,
      "▁ke": 5178,
      "▁planning": 5179,
      "▁critic": 5180,
      "##omed": 5181,
      "▁thou": 5182,
      "##ived": 5183,
      "▁notic": 5184,
      "▁bottle": 5185,
      "▁ser": 5186,
      "▁as400": 5187,
      "▁assist": 5188,
      "▁pushed": 5189,
      "##either": 5190,
      "▁advantage": 5191,
      "▁accum": 5192,
      "▁chance": 5193,
      "▁areas": 5194,
      "##ong": 5195,
      "▁generated": 5196,
      "##tiveness": 5197,
      "▁package": 5198,
      "▁spears": 5199,
      "▁identity": 5200,
      "▁stands": 5201,
      "##ow": 5202,
      "▁thinking": 5203,
      "▁mix": 5204,
      "▁forced": 5205,
      "##inder": 5206,
      "##uter": 5207,
      "##oxide": 5208,
      "▁dark": 5209,
      "▁box": 5210,
      "▁night": 5211,
      "▁ml": 5212,
      "##most": 5213,
      "▁leads": 5214,
      "▁novels": 5215,
      "▁about": 5216,
      "▁market": 5217,
      "▁coinc": 5218,
      "▁qa": 5219,
      "##eti": 5220,
      "▁mechanic": 5221,
      "▁stir": 5222,
      "▁packed": 5223,
      "##ax": 5224,
      "▁soup": 5225,
      "##ition": 5226,
      "▁dre": 5227,
      "▁attitudes": 5228,
      "▁guidelines": 5229,
      "▁ok": 5230,
      "▁resume": 5231,
      "##ash": 5232,
      "▁failed": 5233,
      "▁afric": 5234,
      "▁washed": 5235,
      "▁squirrel": 5236,
      "▁populations": 5237,
      "▁trial": 5238,
      "▁displ": 5239,
      "##orum": 5240,
      "▁withd": 5241,
      "▁op": 5242,
      "▁morality": 5243,
      "▁conc": 5244,
      "▁sol": 5245,
      "▁...................": 5246,
      "▁king": 5247,
      "▁type": 5248,
      "▁lined": 5249,
      "##º": 5250,
      "▁maintain": 5251,
      "▁transition": 5252,
      "▁location": 5253,
      "▁enc": 5254,
      "▁reminded": 5255,
      "▁turned": 5256,
      "▁reduction": 5257,
      "▁fun": 5258,
      "▁production": 5259,
      "##orter": 5260,
      "▁thir": 5261,
      "▁criteria": 5262,
      "▁help": 5263,
      "▁wine": 5264,
      "▁holiday": 5265,
      "▁swit": 5266,
      "▁tests": 5267,
      "##erated": 5268,
      "▁hip": 5269,
      "▁enjoying": 5270,
      "▁<<": 5271,
      "▁vari": 5272,
      "▁chemicals": 5273,
      "▁every": 5274,
      "▁locom": 5275,
      "▁education": 5276,
      "▁table": 5277,
      "▁milk": 5278,
      "##ocr": 5279,
      ",": 5280,
      "▁inf": 5281,
      "▁interf": 5282,
      "▁impacts": 5283,
      "▁piece": 5284,
      "##placement": 5285,
      "▁captain": 5286,
      "▁fear": 5287,
      "▁contrib": 5288,
      "▁distributed": 5289,
      "▁las": 5290,
      "##eer": 5291,
      "▁.......": 5292,
      "▁milwaukee": 5293,
      "▁operate": 5294,
      "▁atmosphere": 5295,
      "▁rem": 5296,
      "##ught": 5297,
      "▁marriage": 5298,
      "##ud": 5299,
      "▁-": 5300,
      "##lar": 5301,
      "▁writes": 5302,
      "φ": 5303,
      "▁eth": 5304,
      "▁tas": 5305,
      "▁commitment": 5306,
      "▁container": 5307,
      "##erences": 5308,
      "▁completed": 5309,
      "▁alcohol": 5310,
      "##outh": 5311,
      "##afts": 5312,
      "▁butterfl": 5313,
      "▁owner": 5314,
      "##ate": 5315,
      "±": 5316,
      "▁!!!!!!!!!!!": 5317,
      "▁flir": 5318,
      "##ych": 5319,
      "▁chairs": 5320,
      "##ies": 5321,
      "▁stic": 5322,
      "▁trail": 5323,
      "##a": 5324,
      "▁participants": 5325,
      "▁trends": 5326,
      "▁awarded": 5327,
      "▁divid": 5328,
      "##cinn": 5329,
      "▁lic": 5330,
      "▁apple": 5331,
      "▁whole": 5332,
      "▁boat": 5333,
      "▁giving": 5334,
      "##rectly": 5335,
      "▁united": 5336,
      "##house": 5337,
      "▁!.": 5338,
      "▁leading": 5339,
      "▁gold": 5340,
      "##ague": 5341,
      "▁alliance": 5342,
      "▁voted": 5343,
      "▁weight": 5344,
      "##ol": 5345,
      "##struc": 5346,
      "##agraph": 5347,
      "##ligence": 5348,
      "▁hour": 5349,
      "▁memories": 5350,
      "▁plain": 5351,
      "▁address": 5352,
      "▁closed": 5353,
      "##ig": 5354,
      "##eep": 5355,
      "▁union": 5356,
      "▁deficiency": 5357,
      "▁reconc": 5358,
      "##come": 5359,
      "▁floor": 5360,
      "[CLS]": 5361,
      "##osite": 5362,
      "##omach": 5363,
      "##wor": 5364,
      "’": 5365,
      "▁wash": 5366,
      "▁pretty": 5367,
      "▁suc": 5368,
      "##mal": 5369,
      "##ease": 5370,
      "▁policies": 5371,
      "▁letter": 5372,
      "##o": 5373,
      "▁software": 5374,
      "▁sussex": 5375,
      "##isters": 5376,
      "##esday": 5377,
      "▁tear": 5378,
      "▁exec": 5379,
      "▁reading": 5380,
      "▁strawberry": 5381,
      "▁enthusi": 5382,
      "##ot": 5383,
      "▁existing": 5384,
      "▁procedure": 5385,
      "▁mu": 5386,
      "▁@": 5387,
      "##lan": 5388,
      "##face": 5389,
      "##app": 5390,
      "▁placed": 5391,
      "##iation": 5392,
      "##ward": 5393,
      "▁amount": 5394,
      "▁ice": 5395,
      "##eal": 5396,
      "▁loss": 5397,
      "▁wave": 5398,
      "▁hal": 5399,
      "▁systems": 5400,
      "▁allows": 5401,
      "▁canc": 5402,
      "▁dated": 5403,
      "▁ling": 5404,
      "▁requested": 5405,
      "▁agency": 5406,
      "▁demonstr": 5407,
      "▁tale": 5408,
      "▁oath": 5409,
      "▁solid": 5410,
      "▁epis": 5411,
      "▁platform": 5412,
      "▁es": 5413,
      "▁vine": 5414,
      "▁meetings": 5415,
      "##ressing": 5416,
      "##makers": 5417,
      "▁uv": 5418,
      "▁stop": 5419,
      "▁'ll": 5420,
      "▁recipient": 5421,
      "##mer": 5422,
      "▁component": 5423,
      "▁dreams": 5424,
      "1": 5425,
      "▁apartment": 5426,
      "##arters": 5427,
      "▁<": 5428,
      "▁jobs": 5429,
      "▁tiger": 5430,
      "▁counter": 5431,
      "▁onto": 5432,
      "▁ec": 5433,
      "▁unit": 5434,
      "▁laughing": 5435,
      "▁elevator": 5436,
      "##used": 5437,
      "▁pron": 5438,
      "##œ": 5439,
      "##eet": 5440,
      "##asm": 5441,
      "▁rock": 5442,
      "▁earned": 5443,
      "▁sunsh": 5444,
      "▁job": 5445,
      "▁sounded": 5446,
      "##ishment": 5447,
      "##---------------": 5448,
      "▁carro": 5449,
      "##oured": 5450,
      "▁seed": 5451,
      "##si": 5452,
      "▁sector": 5453,
      "▁counterparty": 5454,
      "▁parliament": 5455,
      "▁costs": 5456,
      "▁zero": 5457,
      "▁yeah": 5458,
      "▁light": 5459,
      "▁char": 5460,
      "▁grumb": 5461,
      "▁any": 5462,
      "▁status": 5463,
      "##ean": 5464,
      "▁comput": 5465,
      "▁clock": 5466,
      "##icing": 5467,
      "▁boom": 5468,
      "▁released": 5469,
      "▁veg": 5470,
      "▁recruit": 5471,
      "▁whom": 5472,
      "▁extend": 5473,
      "▁wi": 5474,
      "##aganda": 5475,
      "▁sump": 5476,
      "▁veter": 5477,
      "▁soon": 5478,
      "▁certainly": 5479,
      "##----------------": 5480,
      "▁kissed": 5481,
      "▁apar": 5482,
      "▁agents": 5483,
      "##mission": 5484,
      "▁we": 5485,
      "▁feelings": 5486,
      "▁progr": 5487,
      "##ves": 5488,
      "▁foods": 5489,
      "##pping": 5490,
      "▁********************************": 5491,
      "▁growing": 5492,
      "▁church": 5493,
      "▁repeated": 5494,
      "▁particular": 5495,
      "##-p": 5496,
      "▁worms": 5497,
      "▁article": 5498,
      "##rance": 5499,
      "##hea": 5500,
      "▁----------------------------------------------------------------------": 5501,
      "▁our": 5502,
      "▁lines": 5503,
      "##ases": 5504,
      "▁signing": 5505,
      "▁pictures": 5506,
      "▁shops": 5507,
      "##ros": 5508,
      "▁hold": 5509,
      "##pre": 5510,
      "▁tomatoes": 5511,
      "▁mov": 5512,
      "▁newspaper": 5513,
      "▁contro": 5514,
      "▁organize": 5515,
      "▁passes": 5516,
      "▁spotted": 5517,
      "▁vot": 5518,
      "▁shown": 5519,
      "▁wrest": 5520,
      "▁sty": 5521,
      "▁therap": 5522,
      "▁posed": 5523,
      "▁el": 5524,
      "▁cycle": 5525,
      "▁celebr": 5526,
      "▁revolution": 5527,
      "▁speak": 5528,
      "▁transmed": 5529,
      "▁elim": 5530,
      "▁petersburg": 5531,
      "▁who": 5532,
      "##pec": 5533,
      "▁cognition": 5534,
      "▁filtering": 5535,
      "▁break": 5536,
      "##ining": 5537,
      "##tainty": 5538,
      "##pri": 5539,
      "▁election": 5540,
      "##ling": 5541,
      "##hen": 5542,
      "▁pants": 5543,
      "▁order": 5544,
      "▁''": 5545,
      "▁philosophy": 5546,
      "▁who's": 5547,
      "▁planes": 5548,
      "▁soda": 5549,
      "▁accordance": 5550,
      "▁find": 5551,
      "##ingly": 5552,
      "▁femur": 5553,
      "▁funny": 5554,
      "##life": 5555,
      "▁discussed": 5556,
      "▁chr": 5557,
      "▁talking": 5558,
      "▁dee": 5559,
      "▁20": 5560,
      "##æ": 5561,
      "▁care": 5562,
      "▁time": 5563,
      "▁hoo": 5564,
      "##ta": 5565,
      "##ients": 5566,
      "▁handed": 5567,
      "▁babies": 5568,
      "▁ginger": 5569,
      "##berries": 5570,
      "##roduction": 5571,
      "##iz": 5572,
      "▁prayer": 5573,
      "##raph": 5574,
      "▁possibilities": 5575,
      "▁harmon": 5576,
      "##alt": 5577,
      "▁center": 5578,
      "##isation": 5579,
      "▁brother": 5580,
      "▁anthrax": 5581,
      "▁lie": 5582,
      "▁dioxide": 5583,
      "##cape": 5584,
      "##__": 5585,
      "▁cast": 5586,
      "▁commitments": 5587,
      "##issors": 5588,
      "▁attended": 5589,
      "##hic": 5590,
      "##ings": 5591,
      "▁poet": 5592,
      "▁writer": 5593,
      "▁contribute": 5594,
      "▁surrounding": 5595,
      "▁tickle": 5596,
      "▁photo": 5597,
      "▁chec": 5598,
      "▁cafe": 5599,
      "▁oatme": 5600,
      "▁american": 5601,
      "##ction": 5602,
      "▁piano": 5603,
      "▁compon": 5604,
      "##log": 5605,
      "##com": 5606,
      "▁male": 5607,
      "▁opin": 5608,
      "▁hell": 5609,
      "##id": 5610,
      "▁issue": 5611,
      "▁strengthen": 5612,
      "▁arrived": 5613,
      "▁carried": 5614,
      "▁employed": 5615,
      "##rous": 5616,
      "▁tu": 5617,
      "▁review": 5618,
      "▁reducing": 5619,
      "▁wines": 5620,
      "▁notwithstanding": 5621,
      "▁point": 5622,
      "▁kitty": 5623,
      "▁milit": 5624,
      "▁resolution": 5625,
      "##itical": 5626,
      "##ake": 5627,
      "##ctive": 5628,
      "▁folio": 5629,
      "▁outfit": 5630,
      "▁stretch": 5631,
      "##ously": 5632,
      "##son": 5633,
      "d": 5634,
      "▁monarch": 5635,
      "▁children": 5636,
      "▁hill": 5637,
      "##mited": 5638,
      "##wn": 5639,
      "▁mine": 5640,
      "▁sort": 5641,
      "▁ow": 5642,
      "##estiv": 5643,
      "▁improvement": 5644,
      "▁documentation": 5645,
      "##ike": 5646,
      "##eted": 5647,
      "▁marketing": 5648,
      "▁experts": 5649,
      "▁meet": 5650,
      "▁clothing": 5651,
      "##mans": 5652,
      "▁features": 5653,
      "▁visited": 5654,
      "▁christ": 5655,
      "##cean": 5656,
      "##ards": 5657,
      "▁framework": 5658,
      "▁wished": 5659,
      "▁uncertainty": 5660,
      "##ticks": 5661,
      "##aus": 5662,
      "▁'re": 5663,
      "▁rate": 5664,
      "▁mili": 5665,
      "▁evac": 5666,
      "##ute": 5667,
      "▁stopped": 5668,
      "^": 5669,
      "▁stol": 5670,
      "##imore": 5671,
      "##ges": 5672,
      "▁design": 5673,
      "##orld": 5674,
      "▁dig": 5675,
      "\"": 5676,
      "##gue": 5677,
      "▁judgments": 5678,
      "▁variety": 5679,
      "▁circum": 5680,
      "▁classes": 5681,
      "▁cor": 5682,
      "▁entitled": 5683,
      "##imp": 5684,
      "▁dolphin": 5685,
      "▁globe": 5686,
      "▁cold": 5687,
      "▁plans": 5688,
      "▁handling": 5689,
      "▁s/he": 5690,
      "▁lil": 5691,
      "##uropean": 5692,
      "▁sail": 5693,
      "▁views": 5694,
      "▁trans": 5695,
      "▁declared": 5696,
      "▁mechanism": 5697,
      "##uffs": 5698,
      "##ithstanding": 5699,
      "▁implement": 5700,
      "▁tampa": 5701,
      "▁typ": 5702,
      "▁material": 5703,
      "▁opinions": 5704,
      "▁nice": 5705,
      "▁politicians": 5706,
      "##une": 5707,
      "▁poop": 5708,
      "▁profile": 5709,
      "##ruc": 5710,
      "▁affected": 5711,
      "▁author": 5712,
      "##apes": 5713,
      "▁repeat": 5714,
      "▁master": 5715,
      "▁respond": 5716,
      "▁star": 5717,
      "`": 5718,
      "▁baby": 5719,
      "▁booked": 5720,
      "▁fly": 5721,
      "▁mag": 5722,
      "▁chee": 5723,
      "▁introduc": 5724,
      "▁minister": 5725,
      "▁spirit": 5726,
      "▁duties": 5727,
      "▁missile": 5728,
      "▁list": 5729,
      "##ffic": 5730,
      "“": 5731,
      "##acy": 5732,
      "▁founded": 5733,
      "▁repair": 5734,
      "▁portion": 5735,
      "##tives": 5736,
      "▁artist": 5737,
      "▁fellow": 5738,
      "▁recognition": 5739,
      "▁defined": 5740,
      "▁coming": 5741,
      "▁district": 5742,
      "▁tank": 5743,
      "##ially": 5744,
      "▁learning": 5745,
      "##ries": 5746,
      "##?": 5747,
      "▁loan": 5748,
      "##ilities": 5749,
      "##oh": 5750,
      "▁produced": 5751,
      "▁policeman": 5752,
      "▁theat": 5753,
      "##ra": 5754,
      "▁gard": 5755,
      "▁adoption": 5756,
      "##ope": 5757,
      "##vest": 5758,
      "##ality": 5759,
      "▁awa": 5760,
      "▁setup": 5761,
      "##eared": 5762,
      "▁phil": 5763,
      "▁assuming": 5764,
      "▁dinner": 5765,
      "##ids": 5766,
      "▁truck": 5767,
      "▁after": 5768,
      "▁rac": 5769,
      "##uration": 5770,
      "▁perhaps": 5771,
      "▁remind": 5772,
      "▁around": 5773,
      "▁e-mail": 5774,
      "▁sending": 5775,
      "▁more": 5776,
      "▁experim": 5777,
      "▁sev": 5778,
      "##rif": 5779,
      "▁bottom": 5780,
      "##rong": 5781,
      "▁nothing": 5782,
      "▁cracker": 5783,
      "▁audio": 5784,
      "▁signific": 5785,
      "▁noticed": 5786,
      "▁carrying": 5787,
      "▁hes": 5788,
      "▁introduced": 5789,
      "##400": 5790,
      "▁pro": 5791,
      "##ding": 5792,
      "▁scre": 5793,
      "##fare": 5794,
      "▁increase": 5795,
      "▁cities": 5796,
      "▁mot": 5797,
      "▁habit": 5798,
      "▁exp": 5799,
      "▁gate": 5800,
      "##anda": 5801,
      "▁realism": 5802,
      "▁notes": 5803,
      "▁shark": 5804,
      "##=": 5805,
      "##rated": 5806,
      "▁distinguish": 5807,
      "▁square": 5808,
      "##ulate": 5809,
      "##isd": 5810,
      "▁persu": 5811,
      "▁bot": 5812,
      "▁venture": 5813,
      "▁cl": 5814,
      "▁assault": 5815,
      "▁la": 5816,
      "▁manufact": 5817,
      "▁worth": 5818,
      "▁take": 5819,
      "##ins": 5820,
      "##rou": 5821,
      "▁separ": 5822,
      "▁polaro": 5823,
      "▁wol": 5824,
      "▁involve": 5825,
      "##has": 5826,
      "▁wat": 5827,
      "▁rebuild": 5828,
      "▁lasted": 5829,
      "##\"": 5830,
      "▁generators": 5831,
      "▁zone": 5832,
      "##aying": 5833,
      "▁lies": 5834,
      "##uck": 5835,
      "▁infrastruc": 5836,
      "β": 5837,
      "##pers": 5838,
      "▁much": 5839,
      "▁dess": 5840,
      "▁next": 5841,
      "▁crop": 5842,
      "##nuts": 5843,
      "▁late": 5844,
      "▁studied": 5845,
      "##perity": 5846,
      "▁capac": 5847,
      "▁mixed": 5848,
      "▁settle": 5849,
      "▁dinosaur": 5850,
      "▁astr": 5851,
      "▁smile": 5852,
      "##earch": 5853,
      "##cent": 5854,
      "▁---------------------------------------------------------------------": 5855,
      "▁silver": 5856,
      "##<": 5857,
      "▁kicked": 5858,
      "##uss": 5859,
      "▁funding": 5860,
      "▁cupboard": 5861,
      "▁int": 5862,
      "##-------": 5863,
      "▁wolves": 5864,
      "##teries": 5865,
      "▁increases": 5866,
      "▁tourists": 5867,
      "▁mayor": 5868,
      "▁manip": 5869,
      "▁gr": 5870,
      "▁prepar": 5871,
      "▁public": 5872,
      "▁expert": 5873,
      "▁evolution": 5874,
      "▁car": 5875,
      "▁social": 5876,
      "##ever": 5877,
      "▁citi": 5878,
      "▁island": 5879,
      "##enom": 5880,
      "▁assigned": 5881,
      "▁cott": 5882,
      "▁restaurants": 5883,
      "##of": 5884,
      "▁shows": 5885,
      "▁picture": 5886,
      "▁doub": 5887,
      "u": 5888,
      "!": 5889,
      "▁suggest": 5890,
      "▁bat": 5891,
      "▁balt": 5892,
      "▁god": 5893,
      "s": 5894,
      "▁such": 5895,
      "▁pilg": 5896,
      "▁unc": 5897,
      "▁di": 5898,
      "##usions": 5899,
      "▁size": 5900,
      "▁coun": 5901,
      "▁maj": 5902,
      "▁ld2d-": 5903,
      "##…": 5904,
      "▁cour": 5905,
      "▁coverage": 5906,
      "▁english": 5907,
      "##craft": 5908,
      "▁rin": 5909,
      "▁processes": 5910,
      "##gh": 5911,
      "▁bound": 5912,
      "▁walked": 5913,
      "▁wou": 5914,
      "▁surv": 5915,
      "▁purchasing": 5916,
      "▁handled": 5917,
      "▁plaintiff": 5918,
      "▁inst": 5919,
      "##ents": 5920,
      "▁arr": 5921,
      "▁personality": 5922,
      "##stop": 5923,
      "▁fer": 5924,
      "##tice": 5925,
      "▁shorts": 5926,
      "▁bil": 5927,
      "▁dat": 5928,
      "▁foll": 5929,
      "##astic": 5930,
      "▁magaz": 5931,
      "▁maintaining": 5932,
      "▁home": 5933,
      "▁pep": 5934,
      "▁protect": 5935,
      "##acts": 5936,
      "▁their": 5937,
      "▁limit": 5938,
      "▁doors": 5939,
      "'": 5940,
      "▁hedge": 5941,
      "▁recommendation": 5942,
      "▁fees": 5943,
      "##imed": 5944,
      "##ocation": 5945,
      "##box": 5946,
      "▁restric": 5947,
      "▁crimin": 5948,
      "##acking": 5949,
      "▁choo": 5950,
      "▁shot": 5951,
      "##hin": 5952,
      "▁pres": 5953,
      "##)": 5954,
      "##list": 5955,
      "▁stomach": 5956,
      "▁lit": 5957,
      "z": 5958,
      "▁drama": 5959,
      "▁dying": 5960,
      "▁vs.": 5961,
      "▁then": 5962,
      "▁model": 5963,
      "▁duel": 5964,
      "▁mas": 5965,
      "▁dec": 5966,
      "##end": 5967,
      "##icult": 5968,
      "▁mech": 5969,
      "▁structure": 5970,
      "▁task": 5971,
      "▁“": 5972,
      "▁uhhuh": 5973,
      "▁colleag": 5974,
      "▁spread": 5975,
      "##loyed": 5976,
      "##round": 5977,
      "▁apples": 5978,
      "▁comparison": 5979,
      "##bre": 5980,
      "##____": 5981,
      "▁camer": 5982,
      "##ley": 5983,
      "##ulation": 5984,
      "##encies": 5985,
      "▁household": 5986,
      "▁weekends": 5987,
      "▁gent": 5988,
      "▁purchase": 5989,
      "##ʻ": 5990,
      "▁files": 5991,
      "##zation": 5992,
      "##rit": 5993,
      "##anges": 5994,
      "##not": 5995,
      "▁forces": 5996,
      "▁low": 5997,
      "▁assu": 5998,
      "▁fav": 5999,
      "▁intercon": 6000,
      "▁accep": 6001,
      "▁propaganda": 6002,
      "▁glass": 6003,
      "##iti": 6004,
      "▁password": 6005,
      "▁rev": 6006,
      "##avery": 6007,
      "##ental": 6008,
      "##emic": 6009,
      "▁insur": 6010,
      "▁attacks": 6011,
      "▁nor": 6012,
      "▁sear": 6013,
      "▁made": 6014,
      "▁budget": 6015,
      "▁moon": 6016,
      "▁things": 6017,
      "▁tax": 6018,
      "▁thru": 6019,
      "▁sy": 6020,
      "##erved": 6021,
      "▁highl": 6022,
      "▁dragged": 6023,
      "▁poo": 6024,
      "##friend": 6025,
      "▁consider": 6026,
      "▁stars": 6027,
      "▁uti": 6028,
      "▁aspect": 6029,
      "▁battery": 6030,
      "▁orange": 6031,
      "▁societies": 6032,
      "▁con": 6033,
      "##os": 6034,
      "##dle": 6035,
      "##hol": 6036,
      "▁thursday": 6037,
      "##ptions": 6038,
      "▁cove": 6039,
      "▁application": 6040,
      "▁charm": 6041,
      "▁crackers": 6042,
      "▁sales": 6043,
      "▁paying": 6044,
      "▁destin": 6045,
      "##ano": 6046,
      "▁argue": 6047,
      "##ument": 6048,
      "##ih": 6049,
      "▁naima": 6050,
      "▁seam": 6051,
      "▁conclusions": 6052,
      "▁marry": 6053,
      "▁switch": 6054,
      "▁voice": 6055,
      "##==": 6056,
      "▁,?": 6057,
      "##oir": 6058,
      "##ises": 6059,
      "▁authorities": 6060,
      "▁traditions": 6061,
      "▁elbow": 6062,
      "▁ca": 6063,
      "▁which": 6064,
      "##av": 6065,
      "▁emails": 6066,
      "▁thread": 6067,
      "▁disapp": 6068,
      "▁collap": 6069,
      "##ators": 6070,
      "▁oneself": 6071,
      "▁assumed": 6072,
      "##rop": 6073,
      "▁bu": 6074,
      "▁moun": 6075,
      "▁offices": 6076,
      "##acted": 6077,
      "▁humans": 6078,
      "▁pati": 6079,
      "▁ide": 6080,
      "##ounce": 6081,
      "▁hos": 6082,
      "▁causes": 6083,
      "▁li": 6084,
      "▁dish": 6085,
      "##ron": 6086,
      "▁wee": 6087,
      "▁spray": 6088,
      "—": 6089,
      "▁arrow": 6090,
      "▁foot": 6091,
      "▁brush": 6092,
      "▁combined": 6093,
      "▁insurance": 6094,
      "##ned": 6095,
      "▁founder": 6096,
      "▁absence": 6097,
      "▁resc": 6098,
      "##ativity": 6099,
      "##overy": 6100,
      "º": 6101,
      "▁se": 6102,
      "▁]": 6103,
      "▁micro": 6104,
      "▁newsp": 6105,
      "▁2": 6106,
      "▁want": 6107,
      "▁partners": 6108,
      "▁jews": 6109,
      "▁foli": 6110,
      "##iny": 6111,
      "##esthe": 6112,
      "▁black": 6113,
      "▁achievement": 6114,
      "##ea": 6115,
      "▁coo": 6116,
      "a": 6117,
      "▁breathe": 6118,
      "▁happens": 6119,
      "##ming": 6120,
      "##atures": 6121,
      "##iration": 6122,
      "▁orient": 6123,
      "▁approached": 6124,
      "▁saving": 6125,
      "▁carriage": 6126,
      "▁whoever": 6127,
      "▁affair": 6128,
      "▁refers": 6129,
      "▁hom": 6130,
      "##ashing": 6131,
      "▁respons": 6132,
      "▁hamster": 6133,
      "##ising": 6134,
      "▁vehicles": 6135,
      "▁colors": 6136,
      "▁talked": 6137,
      "##eav": 6138,
      "▁tongue": 6139,
      "##wear": 6140,
      "▁avocado": 6141,
      "▁menu": 6142,
      "##$": 6143,
      "##/he": 6144,
      "▁rail": 6145,
      "▁appropri": 6146,
      "▁floating": 6147,
      "▁attachment": 6148,
      "▁hours": 6149,
      "##nel": 6150,
      "▁settings": 6151,
      "▁debated": 6152,
      "▁little": 6153,
      "▁awareness": 6154,
      "▁jail": 6155,
      "▁avoided": 6156,
      "▁prett": 6157,
      "##ment": 6158,
      "##out": 6159,
      "##pos": 6160,
      "▁finally": 6161,
      "▁pack": 6162,
      "▁occurred": 6163,
      "##boat": 6164,
      "##·": 6165,
      "▁contained": 6166,
      "▁sho": 6167,
      "##ke": 6168,
      "▁wealth": 6169,
      "##arg": 6170,
      "▁descri": 6171,
      "▁elements": 6172,
      "▁lab": 6173,
      "▁paid": 6174,
      "▁speci": 6175,
      "▁parties": 6176,
      "##ai": 6177,
      "▁layout": 6178,
      "▁yea": 6179,
      "▁bush": 6180,
      "▁minds": 6181,
      "▁score": 6182,
      "##ew": 6183,
      "▁crossing": 6184,
      "▁rang": 6185,
      "▁borders": 6186,
      "▁cont": 6187,
      "▁amended": 6188,
      "▁advise": 6189,
      "▁helic": 6190,
      "▁ring": 6191,
      "▁squ": 6192,
      "▁orlando": 6193,
      "##illed": 6194,
      "##ont": 6195,
      "▁ber": 6196,
      "##ruption": 6197,
      "##te": 6198,
      "##action": 6199,
      "▁bal": 6200,
      "##okes": 6201,
      "##cer": 6202,
      "##.s": 6203,
      "##th": 6204,
      "▁evidence": 6205,
      "▁refuse": 6206,
      "##ock": 6207,
      "##ington": 6208,
      "▁spend": 6209,
      "▁jihad": 6210,
      "▁statistics": 6211,
      "▁*": 6212,
      "▁preven": 6213,
      "▁viol": 6214,
      "##uals": 6215,
      "▁shel": 6216,
      "▁division": 6217,
      "##iece": 6218,
      "##be": 6219,
      "▁advant": 6220,
      "##no": 6221,
      "##itation": 6222,
      "##ause": 6223,
      "▁guy": 6224,
      "##ighb": 6225,
      "▁boss": 6226,
      "▁concl": 6227,
      "##nding": 6228,
      "▁appears": 6229,
      "▁cupcake": 6230,
      "##arl": 6231,
      "▁vegetable": 6232,
      "##actions": 6233,
      "##sive": 6234,
      "##scope": 6235,
      "▁salad": 6236,
      "▁images": 6237,
      "▁chick": 6238,
      "▁defe": 6239,
      "▁snake": 6240,
      "##ered": 6241,
      "▁mrs": 6242,
      "▁reported": 6243,
      "▁alternative": 6244,
      "##ody": 6245,
      "▁attributed": 6246,
      "▁wor": 6247,
      "##rying": 6248,
      "▁supermar": 6249,
      "▁simply": 6250,
      "▁lunch": 6251,
      "##memb": 6252,
      "▁each": 6253,
      "▁attr": 6254,
      "▁true": 6255,
      "▁beautiful": 6256,
      "▁spec": 6257,
      "▁translation": 6258,
      "##tes": 6259,
      "##ital": 6260,
      "▁phrase": 6261,
      "▁charges": 6262,
      "▁raise": 6263,
      "▁chess": 6264,
      "##eign": 6265,
      "▁novel": 6266,
      "▁ants": 6267,
      "##erving": 6268,
      "m": 6269,
      "▁crash": 6270,
      "##icke": 6271,
      "##riend": 6272,
      "▁throw": 6273,
      "▁months": 6274,
      "▁professor": 6275,
      "▁nat": 6276,
      "▁cry": 6277,
      "▁tube": 6278,
      "##iv": 6279,
      "##ove": 6280,
      "▁suff": 6281,
      "▁cupcakes": 6282,
      "##ead": 6283,
      "▁actors": 6284,
      "▁purpos": 6285,
      "▁ago": 6286,
      "▁eats": 6287,
      ":": 6288,
      "##ses": 6289,
      "▁relig": 6290,
      "▁departing": 6291,
      "##mit": 6292,
      "##uling": 6293,
      "▁eleph": 6294,
      "▁understand": 6295,
      "##ology": 6296,
      "▁mig": 6297,
      "▁effects": 6298,
      "▁expectations": 6299,
      "}": 6300,
      "▁assemb": 6301,
      "##red": 6302,
      "▁spot": 6303,
      "▁benef": 6304,
      "##ran": 6305,
      "▁breath": 6306,
      "▁reports": 6307,
      "##’t": 6308,
      "▁shelf": 6309,
      "▁moved": 6310,
      "▁sitting": 6311,
      "##ule": 6312,
      "##ded": 6313,
      "▁architect": 6314,
      "▁studies": 6315,
      "▁stre": 6316,
      "▁cycl": 6317,
      "▁humanity": 6318,
      "▁govern": 6319,
      "▁psych": 6320,
      "▁investigate": 6321,
      "##ills": 6322,
      "▁mop": 6323,
      "▁gath": 6324,
      "▁cancel": 6325,
      "▁reas": 6326,
      "▁liter": 6327,
      "▁manufactur": 6328,
      "▁confid": 6329,
      "##mall": 6330,
      "▁5": 6331,
      "##++": 6332,
      "##ied": 6333,
      "▁now": 6334,
      "##antly": 6335,
      "##unt": 6336,
      "##eck": 6337,
      "##eas": 6338,
      "▁ma": 6339,
      "▁instructions": 6340,
      "▁air": 6341,
      "▁bear": 6342,
      "##ative": 6343,
      "##essing": 6344,
      "▁'em": 6345,
      "▁pot": 6346,
      "##roduc": 6347,
      "##vation": 6348,
      "▁sushi": 6349,
      "▁december": 6350,
      "▁valu": 6351,
      "▁refer": 6352,
      "▁parent": 6353,
      "▁abilities": 6354,
      "▁sold": 6355,
      "▁slept": 6356,
      "▁selling": 6357,
      "▁object": 6358,
      "▁imagined": 6359,
      "▁p": 6360,
      "▁’ll": 6361,
      "▁occas": 6362,
      "##irts": 6363,
      "▁won": 6364,
      "▁swimming": 6365,
      "▁sens": 6366,
      "▁apr": 6367,
      "▁stones": 6368,
      "##esaw": 6369,
      "▁grew": 6370,
      "▁or": 6371,
      "▁mus": 6372,
      "##&": 6373,
      "▁israel": 6374,
      "▁growth": 6375,
      "▁tort": 6376,
      "▁acted": 6377,
      "▁pix": 6378,
      "▁adventure": 6379,
      "▁evenings": 6380,
      "▁working": 6381,
      "▁mut": 6382,
      "##oting": 6383,
      "▁membership": 6384,
      "▁this": 6385,
      "##hered": 6386,
      "▁reb": 6387,
      "▁advised": 6388,
      "▁launched": 6389,
      "▁patience": 6390,
      "▁resources": 6391,
      "##agement": 6392,
      "##anger": 6393,
      "▁blew": 6394,
      "▁assass": 6395,
      "▁accused": 6396,
      "##ener": 6397,
      "▁litt": 6398,
      "▁pivottable": 6399,
      "##ribution": 6400,
      "▁meant": 6401,
      "▁eng": 6402,
      "▁fingers": 6403,
      "▁ass": 6404,
      "▁coop": 6405,
      "##ked": 6406,
      "▁manage": 6407,
      "▁proce": 6408,
      "▁geor": 6409,
      "▁early": 6410,
      "##iders": 6411,
      "▁hero": 6412,
      "▁welcomed": 6413,
      "##tive": 6414,
      "##place": 6415,
      "▁saf": 6416,
      "##icking": 6417,
      "▁assess": 6418,
      "▁everybody": 6419,
      "▁neck": 6420,
      "▁friends": 6421,
      "##yn": 6422,
      "##ories": 6423,
      "▁ann": 6424,
      "▁mice": 6425,
      "▁f": 6426,
      "##ures": 6427,
      "##urity": 6428,
      "##m": 6429,
      "##ael": 6430,
      "▁ingred": 6431,
      "##jo": 6432,
      "▁passengers": 6433,
      "▁:": 6434,
      "##thin": 6435,
      "##ensus": 6436,
      "##ributed": 6437,
      "▁pos": 6438,
      "▁expensive": 6439,
      "▁write": 6440,
      "##oked": 6441,
      "▁analyses": 6442,
      "▁requ": 6443,
      "▁microphone": 6444,
      "▁congr": 6445,
      "▁syn": 6446,
      "▁compan": 6447,
      "▁rocket": 6448,
      "▁comp": 6449,
      "▁thri": 6450,
      "▁instruc": 6451,
      "##works": 6452,
      "##auc": 6453,
      "▁river": 6454,
      "##usted": 6455,
      "##ests": 6456,
      "▁contract": 6457,
      "▁limb": 6458,
      "##ainly": 6459,
      "##ions": 6460,
      "▁vis": 6461,
      "##ary": 6462,
      "▁frame": 6463,
      "▁cultures": 6464,
      "▁executed": 6465,
      "▁heels": 6466,
      "▁cash": 6467,
      "▁incom": 6468,
      "▁goes": 6469,
      "▁win": 6470,
      "▁narr": 6471,
      "▁fought": 6472,
      "▁serv": 6473,
      "▁continu": 6474,
      "▁wr": 6475,
      "▁jumping": 6476,
      "##ized": 6477,
      "▁econ": 6478,
      "▁attempt": 6479,
      "##eng": 6480,
      "▁expecting": 6481,
      "▁interconnect": 6482,
      "##ief": 6483,
      "##uting": 6484,
      "▁strike": 6485,
      "▁til": 6486,
      "▁produce": 6487,
      "▁stro": 6488,
      "▁ya": 6489,
      "▁me": 6490,
      "▁president": 6491,
      "▁shar": 6492,
      "##oon": 6493,
      "▁disc": 6494,
      "▁bacon": 6495,
      "##alk": 6496,
      "▁connecting": 6497,
      "▁implemented": 6498,
      "##istence": 6499,
      "▁cookie": 6500,
      "▁stream": 6501,
      "▁facul": 6502,
      "▁listening": 6503,
      "▁midnight": 6504,
      "▁ey": 6505,
      "▁managed": 6506,
      "▁sometime": 6507,
      "▁started": 6508,
      "▁you": 6509,
      "▁explo": 6510,
      "▁monaster": 6511,
      "▁explan": 6512,
      "##aced": 6513,
      "▁shit": 6514,
      "▁equ": 6515,
      "▁monster": 6516,
      "##bal": 6517,
      "▁collapsed": 6518,
      "▁hurt": 6519,
      "▁kit": 6520,
      "▁cars": 6521,
      "▁both": 6522,
      "▁af": 6523,
      "▁wearing": 6524,
      "##acter": 6525,
      "##ey": 6526,
      "▁due": 6527,
      "##tually": 6528,
      "▁welcome": 6529,
      "▁!?": 6530,
      "~": 6531,
      "▁excuse": 6532,
      "▁drill": 6533,
      "▁giant": 6534,
      "##enings": 6535,
      "##½": 6536,
      "##ap": 6537,
      "▁valley": 6538,
      "##tims": 6539,
      "▁satellite": 6540,
      "▁character": 6541,
      "▁situations": 6542,
      "▁street": 6543,
      "##iving": 6544,
      "▁charlotte": 6545,
      "▁vod": 6546,
      "▁_": 6547,
      "▁sight": 6548,
      "##inn": 6549,
      "▁candle": 6550,
      "▁delivered": 6551,
      "▁traders": 6552,
      "▁absorb": 6553,
      "▁respect": 6554,
      "▁my": 6555,
      "▁ph": 6556,
      "▁subject": 6557,
      "▁when": 6558,
      "▁soft": 6559,
      "##iding": 6560,
      "▁extended": 6561,
      "▁cha": 6562,
      "##tic": 6563,
      "##ently": 6564,
      "▁confidentiality": 6565,
      "▁violence": 6566,
      "▁stretched": 6567,
      "▁deals": 6568,
      "▁sources": 6569,
      "▁promoting": 6570,
      "f": 6571,
      "▁energy": 6572,
      "##set": 6573,
      "▁lake": 6574,
      "▁interact": 6575,
      "▁units": 6576,
      "▁clo": 6577,
      "▁giraff": 6578,
      "##8": 6579,
      "▁cod": 6580,
      "▁circle": 6581,
      "▁!!!!!!": 6582,
      "▁introduction": 6583,
      "▁pieces": 6584,
      "##itate": 6585,
      "▁crit": 6586,
      "▁friend": 6587,
      "##bb": 6588,
      "▁swe": 6589,
      "▁acting": 6590,
      "▁fe": 6591,
      "▁bor": 6592,
      "▁links": 6593,
      "▁politics": 6594,
      "▁mur": 6595,
      "##ific": 6596,
      "▁website": 6597,
      "##rigu": 6598,
      "##lite": 6599,
      "##erm": 6600,
      "▁shell": 6601,
      "▁fr": 6602,
      "##ancy": 6603,
      "▁driver": 6604,
      "##ension": 6605,
      "▁.": 6606,
      "▁0": 6607,
      "▁wan": 6608,
      "▁lick": 6609,
      "▁detail": 6610,
      "▁distribute": 6611,
      "##pop": 6612,
      "▁actress": 6613,
      "▁submit": 6614,
      "▁poetry": 6615,
      "▁hosp": 6616,
      "▁anoder": 6617,
      "▁uncle": 6618,
      "##anced": 6619,
      "▁still": 6620,
      "▁green": 6621,
      "▁u.s.": 6622,
      "##ble": 6623,
      "▁facilitate": 6624,
      "t": 6625,
      "▁cher": 6626,
      "▁arguing": 6627,
      "##hip": 6628,
      "▁compare": 6629,
      "▁student": 6630,
      "▁individuals": 6631,
      "▁below": 6632,
      "##ertainly": 6633,
      "##uations": 6634,
      "▁suggested": 6635,
      "##py": 6636,
      "##bably": 6637,
      "##.xls": 6638,
      "ɑ": 6639,
      "▁collected": 6640,
      "▁award": 6641,
      "##2d-": 6642,
      "##gether": 6643,
      "[MASK]": 6644,
      "##illas": 6645,
      "σ": 6646,
      "▁safety": 6647,
      "▁cfl": 6648,
      "▁wom": 6649,
      "▁candidate": 6650,
      "▁constitution": 6651,
      "##+": 6652,
      "▁tuesday": 6653,
      "▁deployed": 6654,
      "##mping": 6655,
      "▁reform": 6656,
      "▁wore": 6657,
      "▁checks": 6658,
      "##5": 6659,
      "▁neuro": 6660,
      "▁authority": 6661,
      "##asis": 6662,
      "▁us": 6663,
      "▁column": 6664,
      "▁bridge": 6665,
      "▁hot": 6666,
      "%": 6667,
      "▁secretary": 6668,
      "▁k": 6669,
      "##pet": 6670,
      "###": 6671,
      "▁fits": 6672,
      "▁adopt": 6673,
      "▁political": 6674,
      "▁undert": 6675,
      "▁macaroni": 6676,
      "▁lifesty": 6677,
      "▁bea": 6678,
      "▁cabb": 6679,
      "▁effort": 6680,
      "##------------": 6681,
      "▁app": 6682,
      "▁person": 6683,
      "##ority": 6684,
      "▁fl": 6685,
      "▁analys": 6686,
      "▁allowing": 6687,
      "▁son": 6688,
      "▁soci": 6689,
      "##um": 6690,
      "▁shop": 6691,
      "##bit": 6692,
      "▁seeds": 6693,
      "##:": 6694,
      "▁quack": 6695,
      "▁arrangement": 6696,
      "▁ld": 6697,
      "##und": 6698,
      "▁remained": 6699,
      "▁protection": 6700,
      "##ert": 6701,
      "▁aven": 6702,
      "▁fantasy": 6703,
      "##ancers": 6704,
      "▁vint": 6705,
      "▁ident": 6706,
      "▁liquid": 6707,
      "▁piz": 6708,
      "▁harm": 6709,
      "▁suicide": 6710,
      "▁librarians": 6711,
      "▁dom": 6712,
      "▁literature": 6713,
      "▁understood": 6714,
      "▁since": 6715,
      "▁difficul": 6716,
      "▁degrees": 6717,
      "▁farmers": 6718,
      "▁contains": 6719,
      "▁val": 6720,
      "▁mass": 6721,
      "##row": 6722,
      "▁guinea": 6723,
      "▁bunny": 6724,
      "▁perspective": 6725,
      "##eb": 6726,
      "##ec": 6727,
      "##........": 6728,
      "▁faith": 6729,
      "▁economies": 6730,
      "##ion": 6731,
      "▁worry": 6732,
      "▁waste": 6733,
      "▁momm": 6734,
      "##et": 6735,
      "##ourn": 6736,
      "▁cards": 6737,
      "▁guests": 6738,
      "▁munic": 6739,
      "▁uh": 6740,
      "▁expand": 6741,
      "##aint": 6742,
      "##overed": 6743,
      "▁dump": 6744,
      "▁guit": 6745,
      "▁victory": 6746,
      "##ellow": 6747,
      "▁autumn": 6748,
      "▁debt": 6749,
      "▁process": 6750,
      "##vil": 6751,
      "▁attempts": 6752,
      "▁recomm": 6753,
      "▁sovereignty": 6754,
      "▁windows": 6755,
      "▁out": 6756,
      "▁enforcement": 6757,
      "▁ha": 6758,
      "##right": 6759,
      "▁test": 6760,
      "▁reply": 6761,
      "▁mountains": 6762,
      "▁fields": 6763,
      "▁tow": 6764,
      "▁share": 6765,
      "▁claimed": 6766,
      "▁recommendations": 6767,
      "▁served": 6768,
      "▁mach": 6769,
      "▁socks": 6770,
      "##apers": 6771,
      "▁pool": 6772,
      "##ure": 6773,
      "▁bread": 6774,
      "▁aimed": 6775,
      "▁deck": 6776,
      "##ected": 6777,
      "▁action": 6778,
      "##enience": 6779,
      "▁function": 6780,
      "▁tours": 6781,
      "▁bac": 6782,
      "##thers": 6783,
      "▁step": 6784,
      "##aled": 6785,
      "##ɛ": 6786,
      "##porte": 6787,
      "▁argu": 6788,
      "▁circ": 6789,
      "##tled": 6790,
      "##is": 6791,
      "▁mission": 6792,
      "▁gamb": 6793,
      "##uscri": 6794,
      "##ush": 6795,
      "▁corp": 6796,
      "▁chem": 6797,
      "▁spell": 6798,
      "▁seemed": 6799,
      "▁problem": 6800,
      "▁galleries": 6801,
      "▁else": 6802,
      "▁claiming": 6803,
      "▁finance": 6804,
      "▁telling": 6805,
      "▁innovations": 6806,
      "▁guessed": 6807,
      "▁brows": 6808,
      "▁depos": 6809,
      "▁selection": 6810,
      "▁nations": 6811,
      "▁also": 6812,
      "##auce": 6813,
      "▁rolled": 6814,
      "▁dressed": 6815,
      "▁200": 6816,
      "▁whe": 6817,
      "▁sur": 6818,
      "▁palm": 6819,
      "##let": 6820,
      "▁mistake": 6821,
      "▁regard": 6822,
      "##--------+----------------": 6823,
      "▁bron": 6824,
      "▁z": 6825,
      "▁rif": 6826,
      "▁printed": 6827,
      "▁better": 6828,
      "▁description": 6829,
      "▁regions": 6830,
      "▁wiki": 6831,
      "▁elections": 6832,
      "▁copied": 6833,
      "▁glasses": 6834,
      "▁crush": 6835,
      "▁collect": 6836,
      "▁seeing": 6837,
      "▁beard": 6838,
      "▁indicate": 6839,
      "▁health": 6840,
      "▁incen": 6841,
      "▁option": 6842,
      "▁fort": 6843,
      "▁\"": 6844,
      "##path": 6845,
      "▁chart": 6846,
      "▁priorities": 6847,
      "▁refuge": 6848,
      "▁checked": 6849,
      "##her": 6850,
      "▁constitu": 6851,
      "▁flow": 6852,
      "▁form": 6853,
      "▁endeav": 6854,
      "▁only": 6855,
      "▁mid-": 6856,
      "▁suppl": 6857,
      "▁questioned": 6858,
      "▁payment": 6859,
      "▁inte": 6860,
      "▁degree": 6861,
      "▁beside": 6862,
      "##tuce": 6863,
      "▁cake": 6864,
      "##ire": 6865,
      "▁heat": 6866,
      "▁beet": 6867,
      "▁supporting": 6868,
      "▁play": 6869,
      "##bed": 6870,
      "▁challenge": 6871,
      "▁workforce": 6872,
      "▁duck": 6873,
      "▁install": 6874,
      "▁emphas": 6875,
      "##ials": 6876,
      "##rent": 6877,
      "##phia": 6878,
      "##eds": 6879,
      "▁industries": 6880,
      "##oard": 6881,
      "▁met": 6882,
      "▁sus": 6883,
      "▁butt": 6884,
      "▁york": 6885,
      "▁daughter": 6886,
      "­": 6887,
      "##ception": 6888,
      "##p;": 6889,
      "##ouse": 6890,
      "▁trees": 6891,
      "##vert": 6892,
      "▁lamp": 6893,
      "▁crow": 6894,
      "##ukee": 6895,
      "▁section": 6896,
      "▁pip": 6897,
      "▁fight": 6898,
      "▁mathematician": 6899,
      "▁chef": 6900,
      "▁tourist": 6901,
      "▁avail": 6902,
      "▁may": 6903,
      "▁former": 6904,
      "▁ceremony": 6905,
      "▁village": 6906,
      "##old": 6907,
      "▁ones": 6908,
      "▁resource": 6909,
      "##zing": 6910,
      "▁thank": 6911,
      "▁tape": 6912,
      "▁distance": 6913,
      "##'s": 6914,
      "##ə": 6915,
      "##cake": 6916,
      "▁lighting": 6917,
      "##ters": 6918,
      "##fri": 6919,
      "▁ben": 6920,
      "▁iodine": 6921,
      "▁off": 6922,
      "▁b/": 6923,
      "▁hors": 6924,
      "▁specify": 6925,
      "##key": 6926,
      "▁19": 6927,
      "▁appear": 6928,
      "▁jan": 6929,
      "▁enable": 6930,
      "##sets": 6931,
      "▁cages": 6932,
      "▁investment": 6933,
      "▁connect": 6934,
      "▁white": 6935,
      "▁estab": 6936,
      "▁arrangements": 6937,
      "▁informed": 6938,
      "▁sticker": 6939,
      "##fted": 6940,
      "▁phones": 6941,
      "▁publication": 6942,
      "▁employ": 6943,
      "##earance": 6944,
      "▁blue": 6945,
      "▁plaster": 6946,
      "##ample": 6947,
      "▁ens": 6948,
      "▁sil": 6949,
      "▁bl": 6950,
      "▁dipl": 6951,
      "▁egg": 6952,
      "▁sizes": 6953,
      "▁specialist": 6954,
      "▁forehead": 6955,
      "##oms": 6956,
      "▁producers": 6957,
      "▁helps": 6958,
      "▁fox": 6959,
      "▁strategies": 6960,
      "▁gain": 6961,
      "##aw": 6962,
      "▁south": 6963,
      "##rates": 6964,
      "##tiles": 6965,
      "▁females": 6966,
      "##/": 6967,
      "▁'s": 6968,
      "▁ket": 6969,
      "##ords": 6970,
      "▁consumers": 6971,
      "▁cargo": 6972,
      "▁birth": 6973,
      "▁shares": 6974,
      "▁rais": 6975,
      "▁aesthe": 6976,
      "▁sell": 6977,
      "▁affects": 6978,
      "▁speaking": 6979,
      "##sh": 6980,
      "▁projects": 6981,
      "▁spokes": 6982,
      "▁sock": 6983,
      "▁freedom": 6984,
      "##za": 6985,
      "▁theatre": 6986,
      "▁aside": 6987,
      "▁examination": 6988,
      "▁wa": 6989,
      "▁makes": 6990,
      "##eel": 6991,
      "##amole": 6992,
      "▁pour": 6993,
      "##men": 6994,
      "▁expression": 6995,
      "▁amb": 6996,
      "▁emergency": 6997,
      "▁signature": 6998,
      "▁wanting": 6999,
      "##ik": 7000,
      "▁whether": 7001,
      "▁???": 7002,
      "▁ends": 7003,
      "▁mistakes": 7004,
      "▁shadows": 7005,
      "▁und": 7006,
      "▁criticism": 7007,
      "##ieties": 7008,
      "▁bag": 7009,
      "##sent": 7010,
      "▁tor": 7011,
      "▁schedule": 7012,
      "##leum": 7013,
      "▁present": 7014,
      "##ature": 7015,
      "▁competition": 7016,
      "▁sights": 7017,
      "##any": 7018,
      "▁studio": 7019,
      "▁opportun": 7020,
      "##iness": 7021,
      "▁towns": 7022,
      "▁diplom": 7023,
      "##unic": 7024,
      "▁drawing": 7025,
      "##uated": 7026,
      "##ictions": 7027,
      "▁accounts": 7028,
      "▁execute": 7029,
      "▁mod": 7030,
      "▁examining": 7031,
      "##ucks": 7032,
      "▁lobby": 7033,
      "▁regarding": 7034,
      "▁concrete": 7035,
      "##ration": 7036,
      "##ities": 7037,
      "##φ": 7038,
      "▁without": 7039,
      "▁str": 7040,
      "▁negotiations": 7041,
      "▁pain": 7042,
      "▁vice": 7043,
      "##ist": 7044,
      "▁contributed": 7045,
      "##tch": 7046,
      "▁worm": 7047,
      "▁feeling": 7048,
      "##ard": 7049,
      "▁published": 7050,
      "▁buil": 7051,
      "##outs": 7052,
      "▁dividends": 7053,
      "▁open": 7054,
      "▁reduc": 7055,
      "▁abe": 7056,
      "▁motion": 7057,
      "##ed": 7058,
      "▁possible": 7059,
      "▁lived": 7060,
      "▁realised": 7061,
      "▁decade": 7062,
      "▁spring": 7063,
      "▁pun": 7064,
      "▁passage": 7065,
      "▁receives": 7066,
      "##orting": 7067,
      "▁mean": 7068,
      "##tt": 7069,
      "▁losing": 7070,
      "▁hope": 7071,
      "##ummy": 7072,
      "▁prom": 7073,
      "##duc": 7074,
      "·": 7075,
      "▁cr": 7076,
      "▁counterpar": 7077,
      "▁attend": 7078,
      "▁hotel": 7079,
      "##ester": 7080,
      "##liday": 7081,
      "▁going": 7082,
      "▁plus": 7083,
      "##ation": 7084,
      "▁link": 7085,
      "▁turkey": 7086,
      "▁rooms": 7087,
      "▁a.m.": 7088,
      "▁chalk": 7089,
      "▁differences": 7090,
      "▁tied": 7091,
      "##ping": 7092,
      "##faction": 7093,
      "▁log": 7094,
      "▁demonstrated": 7095,
      "▁existence": 7096,
      "▁lim": 7097,
      "▁num": 7098,
      "▁result": 7099,
      "▁bands": 7100,
      "▁bills": 7101,
      "##enix": 7102,
      "▁resul": 7103,
      "▁clou": 7104,
      "▁began": 7105,
      "▁cons": 7106,
      "▁movie": 7107,
      "▁lifetime": 7108,
      "▁requests": 7109,
      "▁peters": 7110,
      "▁hands": 7111,
      "▁rolls": 7112,
      "▁construction": 7113,
      "▁prove": 7114,
      "▁alter": 7115,
      "##????????????????????????????????": 7116,
      "▁assistant": 7117,
      "##uit": 7118,
      "##ages": 7119,
      "##case": 7120,
      "▁appointed": 7121,
      "##ms": 7122,
      "▁speech": 7123,
      "▁distur": 7124,
      "▁deb": 7125,
      "##otted": 7126,
      "▁experi": 7127,
      "##gan": 7128,
      "▁voices": 7129,
      "▁getting": 7130,
      "##rem": 7131,
      "▁dou": 7132,
      "▁techniques": 7133,
      "▁pressure": 7134,
      "▁construc": 7135,
      "▁allowed": 7136,
      "▁requirements": 7137,
      "▁recog": 7138,
      "##ared": 7139,
      "▁and": 7140,
      "▁per": 7141,
      "▁grit": 7142,
      "▁statis": 7143,
      "▁messages": 7144,
      "▁prices": 7145,
      "##ateg": 7146,
      "▁supposed": 7147,
      "##------": 7148,
      "##inking": 7149,
      "▁shake": 7150,
      "▁conver": 7151,
      "▁work": 7152,
      "##side": 7153,
      "▁walls": 7154,
      "▁pittsburgh": 7155,
      "##vel": 7156,
      "▁scan": 7157,
      "▁honey": 7158,
      "▁earliest": 7159,
      "▁unlike": 7160,
      "##nis": 7161,
      "▁by": 7162,
      "▁pittsbur": 7163,
      "##uk": 7164,
      "▁broom": 7165,
      "▁divided": 7166,
      "▁achie": 7167,
      "##uted": 7168,
      "▁sea": 7169,
      "▁conditions": 7170,
      "##ticians": 7171,
      "▁way": 7172,
      "▁exhib": 7173,
      "▁learn": 7174,
      "▁minn": 7175,
      "▁pump": 7176,
      "▁express": 7177,
      "▁manuf": 7178,
      "▁kick": 7179,
      "▁destroyed": 7180,
      "##titudes": 7181,
      "##ir": 7182,
      "▁pretend": 7183,
      "##ient": 7184,
      "▁button": 7185,
      "▁lives": 7186,
      "▁infr": 7187,
      "ʁ": 7188,
      "▁puppy": 7189,
      "##vision": 7190,
      "▁princ": 7191,
      "▁marked": 7192,
      "▁s": 7193,
      "▁dogs": 7194,
      "##ooth": 7195,
      "▁coupons": 7196,
      "▁bath": 7197,
      "▁adm": 7198,
      "▁sat": 7199,
      "▁grav": 7200,
      "▁tub": 7201,
      "▁facts": 7202,
      "##|": 7203,
      "▁lamb": 7204,
      "▁question": 7205,
      "▁cohes": 7206,
      "##eration": 7207,
      "▁cigar": 7208,
      "▁bought": 7209,
      "▁hung": 7210,
      "▁exerc": 7211,
      "##alism": 7212,
      "▁fruits": 7213,
      "▁signs": 7214,
      "▁ru": 7215,
      "▁ride": 7216,
      "/": 7217,
      "▁mush": 7218,
      "▁oppos": 7219,
      "##arians": 7220,
      "▁turtle": 7221,
      "▁shirt": 7222,
      "▁diversity": 7223,
      "▁weekend": 7224,
      "▁liqu": 7225,
      "▁others": 7226,
      "▁manag": 7227,
      "▁really": 7228,
      "##iod": 7229,
      "##orate": 7230,
      "▁always": 7231,
      "▁ing": 7232,
      "▁pm": 7233,
      "▁ov": 7234,
      "▁contest": 7235,
      "▁ideas": 7236,
      "▁brief": 7237,
      "▁connection": 7238,
      "▁guess": 7239,
      "▁rates": 7240,
      "▁holes": 7241,
      "▁admit": 7242,
      "▁tel": 7243,
      "▁reg": 7244,
      "##night": 7245,
      "▁fork": 7246,
      "▁pers": 7247,
      "▁wipe": 7248,
      "##nce": 7249,
      "▁might": 7250,
      "▁dealing": 7251,
      "▁deal": 7252,
      "▁guerr": 7253,
      "▁crisis": 7254,
      "▁yoy": 7255,
      "▁edge": 7256,
      "##ent": 7257,
      "▁regulation": 7258,
      "▁branches": 7259,
      "▁park": 7260,
      "▁directions": 7261,
      "▁abs": 7262,
      "##oss": 7263,
      "▁tree": 7264,
      "▁qui": 7265,
      "▁ques": 7266,
      "▁equipment": 7267,
      "▁noise": 7268,
      "##–": 7269,
      "▁grounds": 7270,
      "▁includes": 7271,
      "▁owners": 7272,
      "▁somewhere": 7273,
      "##lem": 7274,
      "▁hyp": 7275,
      "▁notw": 7276,
      "##our": 7277,
      "▁conference": 7278,
      "▁season": 7279,
      "##!!!!!!!!": 7280,
      "##bon": 7281,
      "▁history": 7282,
      "▁game": 7283,
      "##cope": 7284,
      "▁starting": 7285,
      "▁!!!!!": 7286,
      "▁accident": 7287,
      "▁outc": 7288,
      "▁sandwich": 7289,
      "##ility": 7290,
      "▁na": 7291,
      "##sul": 7292,
      "▁museum": 7293,
      "▁bananas": 7294,
      "▁percenti": 7295,
      "▁been": 7296,
      "##ober": 7297,
      "##oc": 7298,
      "▁audi": 7299,
      "##ony": 7300,
      "▁cali": 7301,
      "▁murders": 7302,
      "▁verif": 7303,
      "▁improving": 7304,
      "ρ": 7305,
      "▁assassination": 7306,
      "▁statue": 7307,
      "##int": 7308,
      "▁diet": 7309,
      "##ject": 7310,
      "##ob": 7311,
      "##ł": 7312,
      "▁duckie": 7313,
      "▁gh": 7314,
      "▁slee": 7315,
      "o": 7316,
      "▁idea": 7317,
      "▁quoted": 7318,
      "##attle": 7319,
      "▁disaster": 7320,
      "ω": 7321,
      "##•": 7322,
      "▁seen": 7323,
      "▁summary": 7324,
      "▁exhibit": 7325,
      "##alf": 7326,
      "▁tradition": 7327,
      "▁nails": 7328,
      "▁trouble": 7329,
      "##ν": 7330,
      "▁pilot": 7331,
      "▁inqu": 7332,
      "##ying": 7333,
      "▁zoo": 7334,
      "▁darkness": 7335,
      "▁needs": 7336,
      "▁vacation": 7337,
      "▁bod": 7338,
      "▁discussion": 7339,
      ">": 7340,
      "##kin": 7341,
      "▁settlers": 7342,
      "▁implementing": 7343,
      "▁financial": 7344,
      "▁later": 7345,
      "▁scribb": 7346,
      "##driver": 7347,
      "▁containing": 7348,
      "▁speaker": 7349,
      "▁recru": 7350,
      "▁face": 7351,
      "▁penalty": 7352,
      "▁rad": 7353,
      "▁topics": 7354,
      "▁spiders": 7355,
      "##respond": 7356,
      "##ign": 7357,
      "▁winning": 7358,
      "▁wand": 7359,
      "▁bud": 7360,
      "▁suit": 7361,
      "▁minus": 7362,
      "##ulture": 7363,
      "▁preserve": 7364,
      "▁edition": 7365,
      "▁salon": 7366,
      "▁pan": 7367,
      "▁faced": 7368,
      "▁destination": 7369,
      "▁tra": 7370,
      "▁der": 7371,
      "▁stranger": 7372,
      "▁cru": 7373,
      "##board": 7374,
      "▁sports": 7375,
      "▁types": 7376,
      "▁wheels": 7377,
      "▁records": 7378,
      "##rism": 7379,
      "▁heard": 7380,
      "▁ded": 7381,
      "▁ducks": 7382,
      "▁sad": 7383,
      "▁infl": 7384,
      "▁incorporated": 7385,
      "##clock": 7386,
      "▁wing": 7387,
      "##ified": 7388,
      "▁your": 7389,
      "##zen": 7390,
      "▁dolly": 7391,
      "▁agriculture": 7392,
      "▁rout": 7393,
      "##aded": 7394,
      "##ularly": 7395,
      "▁books": 7396,
      "▁super": 7397,
      "▁examined": 7398,
      "##uis": 7399,
      "##ocado": 7400,
      "▁same": 7401,
      "##mented": 7402,
      "▁trust": 7403,
      "##ical": 7404,
      "▁senators": 7405,
      "▁led": 7406,
      "##ise": 7407,
      "▁ord": 7408,
      "▁clown": 7409,
      "▁worship": 7410,
      "▁permitted": 7411,
      "▁answ": 7412,
      "▁seek": 7413,
      "▁blog": 7414,
      "##olding": 7415,
      "##orders": 7416,
      "##selve": 7417,
      "▁myself": 7418,
      "▁pod": 7419,
      "▁?!": 7420,
      "▁wars": 7421,
      "▁bet": 7422,
      "▁acc": 7423,
      "▁thurs": 7424,
      "##ect": 7425,
      "▁fligh": 7426,
      "▁sandwic": 7427,
      "▁schem": 7428,
      "▁cohesion": 7429,
      "##ments": 7430,
      "▁supports": 7431,
      "▁sw": 7432,
      "▁restaur": 7433,
      "▁thousands": 7434,
      "▁cost": 7435,
      "▁snack": 7436,
      "##oice": 7437,
      "▁dol": 7438,
      "▁cur": 7439,
      "▁therefore": 7440,
      "▁gains": 7441,
      "▁road": 7442,
      "▁___________": 7443,
      "▁rent": 7444,
      "▁self": 7445,
      "▁attention": 7446,
      "▁prac": 7447,
      "▁beat": 7448,
      "▁spr": 7449,
      "▁opp": 7450,
      "▁swing": 7451,
      "▁organization": 7452,
      "▁tastes": 7453,
      "##lers": 7454,
      "▁iran": 7455,
      "▁fem": 7456,
      "▁sch": 7457,
      "▁stud": 7458,
      "▁..": 7459,
      "▁pillow": 7460,
      "▁fabric": 7461,
      "##ables": 7462,
      "▁new": 7463,
      "▁6": 7464,
      "▁excel": 7465,
      "▁knees": 7466,
      "▁focus": 7467,
      "▁associated": 7468,
      "▁adapted": 7469,
      "▁videos": 7470,
      "##aos": 7471,
      "▁skin": 7472,
      "▁chicago": 7473,
      "▁goal": 7474,
      "▁exercise": 7475,
      "▁repres": 7476,
      "▁gathered": 7477,
      "▁theory": 7478,
      "▁funnel": 7479,
      "▁greeted": 7480,
      "▁guns": 7481,
      "▁classroom": 7482,
      "##tim": 7483,
      "▁pleasure": 7484,
      "▁escape": 7485,
      "##ill": 7486,
      "▁matters": 7487,
      "##ured": 7488,
      "▁degre": 7489,
      "▁interviewed": 7490,
      "▁boy": 7491,
      "##con": 7492,
      "▁km": 7493,
      "▁port": 7494,
      "##pond": 7495,
      "##erts": 7496,
      "▁replace": 7497,
      "▁stock": 7498,
      "▁atop": 7499,
      "▁movement": 7500,
      "▁need": 7501,
      "▁epm": 7502,
      "▁man": 7503,
      "##back": 7504,
      "▁promote": 7505,
      "▁miami": 7506,
      "▁services": 7507,
      "##educ": 7508,
      "##ence": 7509,
      "▁w/": 7510,
      "##irus": 7511,
      "▁attorney": 7512,
      "▁arms": 7513,
      "▁m": 7514,
      "##lo": 7515,
      "▁swinging": 7516,
      "▁st": 7517,
      "k": 7518,
      "▁interest": 7519,
      "▁request": 7520,
      "▁content": 7521,
      "▁chickens": 7522,
      "▁nove": 7523,
      "▁band": 7524,
      "▁university": 7525,
      "▁fo": 7526,
      "##sp": 7527,
      "▁host": 7528,
      "##ears": 7529,
      "▁arrested": 7530,
      "▁experiences": 7531,
      ".": 7532,
      "##sus": 7533,
      "▁auth": 7534,
      "▁camera": 7535,
      "▁aid": 7536,
      "▁helicop": 7537,
      "##fic": 7538,
      "▁sem": 7539,
      "▁rays": 7540,
      "▁within": 7541,
      "##structed": 7542,
      "▁exc": 7543,
      "##adas": 7544,
      "▁finish": 7545,
      "▁choice": 7546,
      "▁wrap": 7547,
      "▁sense": 7548,
      "▁aff": 7549,
      "▁options": 7550,
      "▁week": 7551,
      "▁member": 7552,
      "▁supporters": 7553,
      "▁birds": 7554,
      "▁gener": 7555,
      "▁rever": 7556,
      "▁condition": 7557,
      "▁timing": 7558,
      "▁plays": 7559,
      "##uce": 7560,
      "▁belong": 7561,
      "##iting": 7562,
      "▁candy": 7563,
      "▁sew": 7564,
      "▁activity": 7565,
      "▁+": 7566,
      "##ex": 7567,
      "▁west": 7568,
      "▁je": 7569,
      "##atory": 7570,
      "##it": 7571,
      "##{": 7572,
      "▁nume": 7573,
      "▁re-": 7574,
      "▁garage": 7575,
      "▁goo": 7576,
      "▁phoenix": 7577,
      "##cess": 7578,
      "▁sha": 7579,
      "▁revised": 7580,
      "▁cal": 7581,
      "▁enron": 7582,
      "##ank": 7583,
      "▁holidays": 7584,
      "▁flo": 7585,
      "▁preserved": 7586,
      "▁giraffe": 7587,
      "##uff": 7588,
      "▁bowl": 7589,
      "▁guar": 7590,
      "▁dresses": 7591,
      "▁decisions": 7592,
      "##ator": 7593,
      "▁racket": 7594,
      "##ema": 7595,
      "▁cap": 7596,
      "▁tops": 7597,
      "##og": 7598,
      "▁ven": 7599,
      "##attered": 7600,
      "▁sentence": 7601,
      "▁developing": 7602,
      "##iousness": 7603,
      "▁des": 7604,
      "##anc": 7605,
      "▁siz": 7606,
      "##to": 7607,
      "_": 7608,
      "▁copyright": 7609,
      "▁dw": 7610,
      "▁trains": 7611,
      "▁eye": 7612,
      "##ologist": 7613,
      "▁mold": 7614,
      "▁subscri": 7615,
      "##form": 7616,
      "▁brought": 7617,
      "▁release": 7618,
      "▁gcp": 7619,
      "▁terror": 7620,
      "▁fax": 7621,
      "##ym": 7622,
      "▁sleep": 7623,
      "▁part": 7624,
      "▁haf": 7625,
      "▁betw": 7626,
      "▁falls": 7627,
      "##yth": 7628,
      "▁firm": 7629,
      "▁ability": 7630,
      "▁adop": 7631,
      "▁themselves": 7632,
      "▁pops": 7633,
      "▁yet": 7634,
      "▁fares": 7635,
      "▁performing": 7636,
      "▁maintained": 7637,
      "▁comes": 7638,
      "▁buck": 7639,
      "▁lists": 7640,
      "▁sush": 7641,
      "▁surprised": 7642,
      "▁quote": 7643,
      "##ousness": 7644,
      "▁discussing": 7645,
      "▁mar": 7646,
      "▁item": 7647,
      "▁evolved": 7648,
      "▁furn": 7649,
      "▁cent": 7650,
      "▁imm": 7651,
      "▁knock": 7652,
      "##ode": 7653,
      "▁traveling": 7654,
      "▁search": 7655,
      "##arr": 7656,
      "▁were": 7657,
      "▁pal": 7658,
      "##orized": 7659,
      "▁por": 7660,
      "▁tast": 7661,
      "▁alt.animals.": 7662,
      "##ka": 7663,
      "##irc": 7664,
      "▁relationship": 7665,
      "##nec": 7666,
      "▁gender": 7667,
      "▁blink": 7668,
      "##dered": 7669,
      "▁sub": 7670,
      "##eding": 7671,
      "▁goods": 7672,
      "▁aft": 7673,
      "##olis": 7674,
      "▁entertain": 7675,
      "▁guys": 7676,
      "##ience": 7677,
      "▁dun": 7678,
      "##μ": 7679,
      "▁done": 7680,
      "▁herself": 7681,
      "▁chain": 7682,
      ")": 7683,
      "▁cros": 7684,
      "##ude": 7685,
      "▁lock": 7686,
      "▁fur": 7687,
      "##'re": 7688,
      "▁waiting": 7689,
      "▁prof": 7690,
      "##cluding": 7691,
      "##uth": 7692,
      "▁pred": 7693,
      "▁cited": 7694,
      "▁atmos": 7695,
      "##ocity": 7696,
      "##ald": 7697,
      "▁film": 7698,
      "▁immigration": 7699,
      "▁alle": 7700,
      "▁admitted": 7701,
      "▁administrator": 7702,
      "▁rose": 7703,
      "##que": 7704,
      "▁grill": 7705,
      "▁particles": 7706,
      "▁instead": 7707,
      "▁jul": 7708,
      "▁system": 7709,
      "▁peop": 7710,
      "▁horses": 7711,
      "▁interpre": 7712,
      "▁petroleum": 7713,
      "##uh": 7714,
      "##ater": 7715,
      "##(": 7716,
      "▁din": 7717,
      "##______": 7718,
      "##oul": 7719,
      "▁schema": 7720,
      "▁une": 7721,
      "##ʃ": 7722,
      "▁walks": 7723,
      "▁daddy": 7724,
      "▁opportunities": 7725,
      "▁waitress": 7726,
      "▁doughnut": 7727,
      "▁schools": 7728,
      "##nect": 7729,
      "##ground": 7730,
      "▁desp": 7731,
      "▁editors": 7732,
      "▁mail": 7733,
      "▁scr": 7734,
      "▁adjust": 7735,
      "▁flies": 7736,
      "##fting": 7737,
      "▁suitcase": 7738,
      "▁law": 7739,
      "▁troops": 7740,
      "▁complex": 7741,
      "▁addiction": 7742,
      "▁tend": 7743,
      "▁land": 7744,
      "▁rode": 7745,
      "▁flash": 7746,
      "▁interpreted": 7747,
      "▁glo": 7748,
      "▁expos": 7749,
      "▁wondered": 7750,
      "##ribute": 7751,
      "▁navy": 7752,
      "▁two": 7753,
      "▁tie": 7754,
      "▁cancer": 7755,
      "▁feat": 7756,
      "▁given": 7757,
      "▁leaned": 7758,
      "▁poss": 7759,
      "▁either": 7760,
      "▁c": 7761,
      "▁cause": 7762,
      "▁g": 7763,
      "▁trag": 7764,
      "▁dal": 7765,
      "▁registered": 7766,
      "▁carries": 7767,
      "▁&amp;": 7768,
      "▁sign": 7769,
      "▁incitement": 7770,
      "##70s": 7771,
      "▁phot": 7772,
      "##aves": 7773,
      "▁sep": 7774,
      "##alities": 7775,
      "▁cerem": 7776,
      "##real": 7777,
      "▁breakf": 7778,
      "▁yard": 7779,
      "▁commissioner": 7780,
      "▁maps": 7781,
      "▁spin": 7782,
      "##olve": 7783,
      "▁jud": 7784,
      "▁numbers": 7785,
      "##oney": 7786,
      "##ticip": 7787,
      "▁nursies": 7788,
      "▁propos": 7789,
      "##ports": 7790,
      "▁enthus": 7791,
      "▁refrigerator": 7792,
      "▁evalu": 7793,
      "▁eliminate": 7794,
      "▁gradu": 7795,
      "##ch": 7796,
      "##lin": 7797,
      "▁price": 7798,
      "▁asked": 7799,
      "▁career": 7800,
      "##ulating": 7801,
      "▁eur": 7802,
      "▁codes": 7803,
      "▁developed": 7804,
      "▁mark": 7805,
      "▁weather": 7806,
      "##eor": 7807,
      "▁include": 7808,
      "▁paintings": 7809,
      "▁another": 7810,
      "▁vend": 7811,
      "▁ballet": 7812,
      "▁scul": 7813,
      "##lor": 7814,
      "▁region": 7815,
      "▁research": 7816,
      "▁comm": 7817,
      "▁meas": 7818,
      "▁pulling": 7819,
      "##ood": 7820,
      "▁meaning": 7821,
      "▁http://www.": 7822,
      "##lu": 7823,
      "▁appointment": 7824,
      "ς": 7825,
      "▁serving": 7826,
      "##ceed": 7827,
      "▁choose": 7828,
      "##ef": 7829,
      "▁got": 7830,
      "▁rats": 7831,
      "##ould": 7832,
      "▁ill": 7833,
      "°": 7834,
      "▁gd": 7835,
      "##ious": 7836,
      "##ry": 7837,
      "▁hug": 7838,
      "##ero": 7839,
      "▁kill": 7840,
      "▁reflects": 7841,
      "▁imagine": 7842,
      "▁stair": 7843,
      "▁vessel": 7844,
      "##airs": 7845,
      "▁field": 7846,
      "▁balloon": 7847,
      "▁arranged": 7848,
      "▁sugg": 7849,
      "▁covered": 7850,
      "##put": 7851,
      "▁fu": 7852,
      "##eral": 7853,
      "▁wheel": 7854,
      "##aging": 7855,
      "##ceived": 7856,
      "▁maintenance": 7857,
      "▁suggestions": 7858,
      "▁lifted": 7859,
      "##ately": 7860,
      "▁liber": 7861,
      "▁causing": 7862,
      "▁where": 7863,
      "##osen": 7864,
      "▁rh": 7865,
      "▁lea": 7866,
      "▁sin": 7867,
      "▁terrorist": 7868,
      "▁promised": 7869,
      "▁jellyfish": 7870,
      "##ere": 7871,
      "▁americans": 7872,
      "▁houston": 7873,
      "▁prohibited": 7874,
      "▁scientist": 7875,
      "▁certa": 7876,
      "▁territ": 7877,
      "▁begun": 7878,
      "▁r": 7879,
      "##nesday": 7880,
      "▁importance": 7881,
      "▁of": 7882,
      "▁farmer": 7883,
      "▁cop": 7884,
      "▁los": 7885,
      "▁motiv": 7886,
      "▁sti": 7887,
      "▁operators": 7888,
      "##fish": 7889,
      "▁recall": 7890,
      "▁sample": 7891,
      "▁complaint": 7892,
      "▁analysts": 7893,
      "▁grows": 7894,
      "▁bir": 7895,
      "▁ra": 7896,
      "▁louis": 7897,
      "▁reserves": 7898,
      "▁pronounced": 7899,
      "▁amendment": 7900,
      "▁accompan": 7901,
      "▁assistance": 7902,
      "▁john": 7903,
      "##lications": 7904,
      "▁poem": 7905,
      "▁sentences": 7906,
      "##’": 7907,
      "▁travelling": 7908,
      "▁conv": 7909,
      "▁architecture": 7910,
      "▁swww": 7911,
      "▁conduc": 7912,
      "▁setting": 7913,
      "▁beds": 7914,
      "▁base": 7915,
      "##utation": 7916,
      "##iac": 7917,
      "▁votes": 7918,
      "▁states": 7919,
      "▁!!!!!!!": 7920,
      "▁indust": 7921,
      "##tc": 7922,
      "##isl": 7923,
      "##cl": 7924,
      "##.pd": 7925,
      "##ional": 7926,
      "##atives": 7927,
      "▁insights": 7928,
      "##hib": 7929,
      "##ount": 7930,
      "##^": 7931,
      "▁motor": 7932,
      "##ung": 7933,
      "▁regre": 7934,
      "▁bic": 7935,
      "▁haircut": 7936,
      "▁??": 7937,
      "▁fine": 7938,
      "▁du": 7939,
      "▁believe": 7940,
      "▁scribble": 7941,
      "▁mycelium": 7942,
      "▁toilet": 7943,
      "▁announced": 7944,
      "##rec": 7945,
      "▁beg": 7946,
      "##gar": 7947,
      "▁able": 7948,
      "##ati": 7949,
      "##aroni": 7950,
      "▁counc": 7951,
      "▁limousine": 7952,
      "▁distinction": 7953,
      "▁laund": 7954,
      "▁requiring": 7955,
      "▁lo": 7956,
      "▁currency": 7957,
      "▁addressing": 7958,
      "##olution": 7959,
      "▁fire": 7960,
      "##iture": 7961,
      "▁urs": 7962,
      "▁ref": 7963,
      "▁store": 7964,
      "##tie": 7965,
      "▁reviewing": 7966,
      "▁behavi": 7967,
      "▁cabinet": 7968,
      "▁calendar": 7969,
      "▁questions": 7970,
      "▁retail": 7971,
      "▁hit": 7972,
      "▁attached": 7973,
      "##gu": 7974,
      "##ivid": 7975,
      "▁prod": 7976,
      "▁wedding": 7977,
      "##acing": 7978,
      "##lication": 7979,
      "▁favour": 7980,
      "▁watched": 7981,
      "▁inclu": 7982,
      "##tle": 7983,
      "▁laughed": 7984,
      "##liament": 7985,
      "##oses": 7986,
      "▁throat": 7987,
      "▁pipe": 7988,
      "##ological": 7989,
      "▁tent": 7990,
      "▁medicine": 7991,
      "▁fright": 7992,
      "▁teaching": 7993,
      "▁feet": 7994,
      "▁considering": 7995,
      "##icted": 7996,
      "▁defic": 7997,
      "##ang": 7998,
      "υ": 7999,
      "▁introducing": 8000,
      "▁purposes": 8001,
      "▁improve": 8002,
      "▁—": 8003,
      "▁quick": 8004,
      "▁absor": 8005,
      "##ov": 8006,
      "▁findings": 8007,
      "▁pace": 8008,
      "▁even": 8009,
      "##riendly": 8010,
      "▁yours": 8011,
      "▁toy": 8012,
      "▁reflect": 8013,
      "▁depending": 8014,
      "▁operations": 8015,
      "▁plan": 8016,
      "▁curr": 8017,
      "##ab": 8018,
      "▁x": 8019,
      "▁pre": 8020,
      "▁an": 8021,
      "##.com": 8022,
      "▁bike": 8023,
      "##iled": 8024,
      "▁visa": 8025,
      "▁side": 8026,
      "##omination": 8027,
      "▁march": 8028,
      "▁apart": 8029,
      "▁pulled": 8030,
      "▁seems": 8031,
      "##iction": 8032,
      "▁answered": 8033,
      "▁mou": 8034,
      "▁insp": 8035,
      "▁anoth": 8036,
      "▁dance": 8037,
      "▁lady": 8038,
      "##anted": 8039,
      "▁summ": 8040,
      "##cally": 8041,
      "▁sl": 8042,
      "▁teeth": 8043,
      "##uil": 8044,
      "##fter": 8045,
      "▁trade": 8046,
      "▁providing": 8047,
      "##day": 8048,
      "▁arch": 8049,
      "▁sought": 8050,
      "▁felt": 8051,
      "##ioned": 8052,
      "##iciency": 8053,
      "##....": 8054,
      "▁disp": 8055,
      "▁d'": 8056,
      "▁imagination": 8057,
      "##reat": 8058,
      "##berry": 8059,
      "▁miss": 8060,
      "▁animals": 8061,
      "▁pol": 8062,
      "▁weeks": 8063,
      "▁grab": 8064,
      "##ʊ": 8065,
      "##pt": 8066,
      "##eces": 8067,
      "▁conce": 8068,
      "▁bas": 8069,
      "▁benefits": 8070,
      "▁reaction": 8071,
      "▁inven": 8072,
      "##ogn": 8073,
      "▁money": 8074,
      "▁wonder": 8075,
      "▁gen": 8076,
      "▁rele": 8077,
      "▁element": 8078,
      "▁pretending": 8079,
      "▁essence": 8080,
      "▁hers": 8081,
      "▁chest": 8082,
      "▁jacket": 8083,
      "##lets": 8084,
      "i": 8085,
      "##ification": 8086,
      "▁o": 8087,
      "▁client": 8088,
      "▁schol": 8089,
      "|": 8090,
      "▁al": 8091,
      "▁decades": 8092,
      "##ocracy": 8093,
      "▁species": 8094,
      "▁stuff": 8095,
      "▁between": 8096,
      "▁capacity": 8097,
      "▁alread": 8098,
      "▁ur": 8099,
      "▁liked": 8100,
      "▁music": 8101,
      "##laim": 8102,
      "▁buying": 8103,
      "▁contrast": 8104,
      "▁admin": 8105,
      "▁indic": 8106,
      "▁staring": 8107,
      "▁assessment": 8108,
      "▁garb": 8109,
      "##aping": 8110,
      "▁gol": 8111,
      "##br": 8112,
      "##ml": 8113,
      "▁issued": 8114,
      "▁identify": 8115,
      "▁balls": 8116,
      "▁marsh": 8117,
      "##min": 8118,
      "▁proposed": 8119,
      "▁trader": 8120,
      "▁underneath": 8121,
      "##,": 8122,
      "▁gather": 8123,
      "▁prosec": 8124,
      "▁water": 8125,
      "▁aspects": 8126,
      "▁guarant": 8127,
      "▁trunk": 8128,
      "▁atlan": 8129,
      "▁emp": 8130,
      "▁convention": 8131,
      "▁asylum": 8132,
      "###6": 8133,
      "##augh": 8134,
      "▁representation": 8135,
      "▁helped": 8136,
      "▁gi": 8137,
      "##ume": 8138,
      "▁alt.animals": 8139,
      "##rew": 8140,
      "▁critics": 8141,
      "##ump": 8142,
      "▁according": 8143,
      "▁youn": 8144,
      "▁perform": 8145,
      "▁inflation": 8146,
      "▁vac": 8147,
      "##ched": 8148,
      "▁administration": 8149,
      "##inction": 8150,
      "▁add": 8151,
      "##oug": 8152,
      "##n": 8153,
      "▁denver": 8154,
      "▁var": 8155,
      "▁squi": 8156,
      "##ivers": 8157,
      "##elt": 8158,
      "##ort": 8159,
      "▁gallon": 8160,
      "▁investi": 8161,
      "▁reach": 8162,
      "##ront": 8163,
      "▁fant": 8164,
      "▁dilem": 8165,
      "▁parking": 8166,
      "##eets": 8167,
      "▁born": 8168,
      "##idden": 8169,
      "▁caps": 8170,
      "▁bur": 8171,
      "▁markets": 8172,
      "▁applies": 8173,
      "▁rest": 8174,
      "▁ble": 8175,
      "##adel": 8176,
      "▁stores": 8177,
      "▁achieved": 8178,
      "▁friday": 8179,
      "▁ant": 8180,
      "▁guarantee": 8181,
      "▁capt": 8182,
      "▁someone": 8183,
      "▁contin": 8184,
      "##aur": 8185,
      "▁collab": 8186,
      "▁guidance": 8187,
      "##animals": 8188,
      "##ancing": 8189,
      "▁!!!!!!!!!!!!!": 8190,
      "▁seat": 8191
    }
  }
}