{
  "version": "1.0",
  "truncation": null,
  "padding": null,
  "added_tokens": [
    {
      "id": 1058,
      "content": "[MASK]",
      "single_word": false,
      "lstrip": false,
      "rstrip": false,
      "normalized": false,
      "special": true
    },
    {
      "id": 1375,
      "content": "[PAD]",
      "single_word": false,
      "lstrip": false,
      "rstrip": false,
      "normalized": false,
      "special": true
    },
    {
      "id": 2122,
      "content": "[UNK]",
      "single_word": false,
      "lstrip": false,
      "rstrip": false,
      "normalized": false,
      "special": true
    },
    {
      "id": 2576,
      "content": "[SEP]",
      "single_word": false,
      "lstrip": false,
      "rstrip": false,
      "normalized": false,
      "special": true
    },
    {
      "id": 2596,
      "content": "[CLS]",
      "single_word": false,
      "lstrip": false,
      "rstrip": false,
      "normalized": false,
      "special": true
    }
  ],
  "normalizer": {
    "type": "Sequence",
    "normalizers": [
      {
        "type": "NFD"
      },
      {
        "type": "Lowercase"
      },
      {
        "type": "StripAccents"
      }
    ]
  },
  "pre_tokenizer": {
    "type": "Sequence",
    "pretokenizers": [
      {
        "type": "Metaspace",
        "replacement": "▁",
        "prepend_scheme": "always",
        "split": true
      }
    ]
  },
  "post_processor": {
    "type": "TemplateProcessing",
    "single": [
      {
        "SpecialToken": {
          "id": "[CLS]",
          "type_id": 0
        }
      },
      {
        "Sequence": {
          "id": "A",
          "type_id": 0
        }
      },
      {
        "SpecialToken": {
          "id": "[SEP]",
          "type_id": 0
        }
      }
    ],
    "pair": [
      {
        "SpecialToken": {
          "id": "[CLS]",
          "type_id": 0
        }
      },
      {
        "Sequence": {
          "id": "A",
          "type_id": 0
        }
      },
      {
        "SpecialToken": {
          "id": "[SEP]",
          "type_id": 0
        }
      },
      {
        "Sequence": {
          "id": "B",
          "type_id": 1
        }
      },
      {
        "SpecialToken": {
          "id": "[SEP]",
          "type_id": 1
        }
      }
    ],
    "special_tokens": {
      "[CLS]": {
        "id": "[CLS]",
        "ids": [
          2596
        ],
        "tokens": [
          "[CLS]"
        ]
      },
      "[SEP]": {
        "id": "[SEP]",
        "ids": [
          2576
        ],
        "tokens": [
          "[SEP]"
        ]
      }
    }
  },
  "decoder": {
    "type": "Metaspace",
    "replacement": "▁",
    "prepend_scheme": "always",
    "split": true
  },
  "model": {
    "type": "WordPiece",
    "unk_token": "[UNK]",
    "continuing_subword_prefix": "##",
    "max_input_chars_per_word": 100,
    "vocab": {
      "##}": 0,
      "##ency": 1,
      "▁imple": 2,
      "##force": 3,
      "▁pri": 4,
      "▁philadel": 5,
      "##ea": 6,
      "▁shape": 7,
      "▁coo": 8,
      "▁meals": 9,
      "▁col": 10,
      "a": 11,
      "▁finding": 12,
      "##ff": 13,
      "▁happens": 14,
      "##ming": 15,
      "##2": 16,
      "##oles": 17,
      "##atures": 18,
      "▁located": 19,
      "▁smo": 20,
      "▁climate": 21,
      "▁example": 22,
      "▁date": 23,
      "▁favor": 24,
      "##sel": 25,
      "▁names": 26,
      "▁well": 27,
      "▁nose": 28,
      "▁whoever": 29,
      "##oup": 30,
      "▁sing": 31,
      "▁neither": 32,
      "▁hom": 33,
      "▁respons": 34,
      "##rap": 35,
      "##3": 36,
      "▁math": 37,
      "▁fro": 38,
      "##asing": 39,
      "##irt": 40,
      "##ising": 41,
      "▁flying": 42,
      "##ibilities": 43,
      "▁mount": 44,
      "▁against": 45,
      "▁menti": 46,
      "##ww": 47,
      "▁great": 48,
      "y": 49,
      "▁temper": 50,
      "##ged": 51,
      "▁programme": 52,
      "▁let": 53,
      "##iety": 54,
      "##ouch": 55,
      "##at": 56,
      "##ams": 57,
      "##uc": 58,
      "▁le": 59,
      "##ith": 60,
      "##ail": 61,
      "##nt": 62,
      "▁menu": 63,
      "##$": 64,
      "▁exist": 65,
      "##/he": 66,
      "##ind": 67,
      "▁pen": 68,
      "▁explain": 69,
      "▁rail": 70,
      "##”": 71,
      "▁found": 72,
      "▁corn": 73,
      "▁mad": 74,
      "▁turn": 75,
      "▁hours": 76,
      "▁environ": 77,
      "##nel": 78,
      "▁plane": 79,
      "▁women": 80,
      "##thing": 81,
      "▁had": 82,
      "▁susp": 83,
      "▁little": 84,
      "##ering": 85,
      "##ually": 86,
      "▁fiel": 87,
      "▁leaders": 88,
      "▁established": 89,
      "▁opportunity": 90,
      "▁anim": 91,
      "▁act": 92,
      "▁described": 93,
      "▁[": 94,
      "▁pret": 95,
      "##********************************": 96,
      "▁guid": 97,
      "▁song": 98,
      "##ades": 99,
      "##rel": 100,
      "▁apprec": 101,
      "##ess": 102,
      "##ment": 103,
      "▁ag": 104,
      "##out": 105,
      "##op": 106,
      "##pos": 107,
      "▁dri": 108,
      "##ric": 109,
      "▁responsibility": 110,
      "▁having": 111,
      "▁soc": 112,
      "▁pack": 113,
      "▁gar": 114,
      "▁chicken": 115,
      "▁pil": 116,
      "▁de": 117,
      "▁format": 118,
      "▁franc": 119,
      "▁nov": 120,
      "##acks": 121,
      "▁listen": 122,
      "▁bunch": 123,
      "##·": 124,
      "3": 125,
      "▁last": 126,
      "▁sho": 127,
      "▁visit": 128,
      "##ke": 129,
      "▁gir": 130,
      "▁shut": 131,
      "##ld": 132,
      "##4": 133,
      "▁rul": 134,
      "##omp": 135,
      "▁descri": 136,
      "▁elements": 137,
      "##tering": 138,
      "▁blanket": 139,
      "##ought": 140,
      "##ah": 141,
      "▁lab": 142,
      "▁paid": 143,
      "##ached": 144,
      "##ρ": 145,
      "##ai": 146,
      "▁speci": 147,
      "▁parties": 148,
      "▁emb": 149,
      "▁screen": 150,
      "ʒ": 151,
      "▁times": 152,
      "▁position": 153,
      "##ew": 154,
      "▁issues": 155,
      "##ili": 156,
      "▁she": 157,
      "##tor": 158,
      "▁country": 159,
      "▁fut": 160,
      "##ur": 161,
      "##ti": 162,
      "▁knowledge": 163,
      "▁techniqu": 164,
      "##ression": 165,
      "▁breakfast": 166,
      "▁cont": 167,
      "▁again": 168,
      "▁told": 169,
      "▁oc": 170,
      "▁built": 171,
      "▁squ": 172,
      "▁enjambment": 173,
      "##urs": 174,
      "▁j": 175,
      "##ways": 176,
      "##ything": 177,
      "##king": 178,
      "▁****": 179,
      "##ont": 180,
      "▁hi": 181,
      "▁offered": 182,
      "▁dis": 183,
      "##te": 184,
      "▁surprise": 185,
      "▁gets": 186,
      "##action": 187,
      "▁bal": 188,
      "##urch": 189,
      "▁webs": 190,
      "##cer": 191,
      "▁conse": 192,
      "##.": 193,
      "##nus": 194,
      "▁treated": 195,
      "▁soil": 196,
      "x": 197,
      "▁tomorrow": 198,
      "##tors": 199,
      "##ans": 200,
      "##ound": 201,
      "▁pit": 202,
      "##th": 203,
      "▁men": 204,
      "▁evidence": 205,
      "▁continued": 206,
      "▁inside": 207,
      "##he": 208,
      "##ock": 209,
      "##port": 210,
      "##ington": 211,
      "▁sto": 212,
      "▁doub": 213,
      "▁spend": 214,
      "▁nobody": 215,
      "▁hea": 216,
      "▁passed": 217,
      "##gle": 218,
      "▁*": 219,
      "##hes": 220,
      "▁preven": 221,
      "▁raised": 222,
      "▁manner": 223,
      "r": 224,
      "▁viol": 225,
      "▁pup": 226,
      "▁tele": 227,
      "=": 228,
      "##iver": 229,
      "##uals": 230,
      "▁involved": 231,
      "▁wilt": 232,
      "▁file": 233,
      "▁driving": 234,
      "##isted": 235,
      "##be": 236,
      "▁chall": 237,
      "▁advant": 238,
      "▁describe": 239,
      "##iff": 240,
      "▁walking": 241,
      "▁garden": 242,
      "▁not": 243,
      "▁tha": 244,
      "▁!!!!!!!!!!!!!!!!!!!": 245,
      "▁don": 246,
      "##σ": 247,
      "▁da": 248,
      "▁father": 249,
      "##rol": 250,
      "▁mic": 251,
      "▁mos": 252,
      "##itation": 253,
      "▁guy": 254,
      "##ighb": 255,
      "4": 256,
      "e": 257,
      "▁sect": 258,
      "▁organiz": 259,
      "▁vers": 260,
      "▁whatever": 261,
      "▁tro": 262,
      "▁laugh": 263,
      "▁straw": 264,
      "▁knows": 265,
      "▁)": 266,
      "##nding": 267,
      "▁concl": 268,
      "▁alongside": 269,
      "▁commission": 270,
      "##urday": 271,
      "▁appears": 272,
      "▁card": 273,
      "##`": 274,
      "▁audience": 275,
      "▁them": 276,
      "▁ex": 277,
      "▁hear": 278,
      "▁ret": 279,
      "##actions": 280,
      "▁.!": 281,
      "▁farm": 282,
      "▁salad": 283,
      "▁rug": 284,
      "w": 285,
      "##resent": 286,
      "▁anyone": 287,
      "▁chick": 288,
      "▁reported": 289,
      "##yp": 290,
      "##ered": 291,
      "▁rules": 292,
      "▁mrs": 293,
      "▁snake": 294,
      "▁pi": 295,
      "▁gas": 296,
      "▁dough": 297,
      "▁lion": 298,
      "▁wor": 299,
      "##rying": 300,
      "▁debate": 301,
      "▁if": 302,
      "##inus": 303,
      "▁rabbit": 304,
      "##lish": 305,
      "▁e": 306,
      "▁lunch": 307,
      "##irst": 308,
      "▁back": 309,
      "▁assoc": 310,
      "▁organ": 311,
      "▁story": 312,
      "##memb": 313,
      "##aughter": 314,
      "##------->": 315,
      "▁each": 316,
      "▁tour": 317,
      "▁into": 318,
      "▁wh": 319,
      "▁ro": 320,
      "▁case": 321,
      "▁spec": 322,
      "##ained": 323,
      "##per": 324,
      "▁tw": 325,
      "▁broken": 326,
      "##±": 327,
      "▁noon": 328,
      "▁television": 329,
      "▁forg": 330,
      "##ital": 331,
      "▁mountain": 332,
      "▁majority": 333,
      "##so": 334,
      "▁luck": 335,
      "▁use": 336,
      "▁=": 337,
      "▁-------------------------------------------------": 338,
      "▁lear": 339,
      "▁n": 340,
      "▁return": 341,
      "▁key": 342,
      "▁manager": 343,
      "##inu": 344,
      "▁married": 345,
      "▁novel": 346,
      "▁ants": 347,
      "##izing": 348,
      "▁activ": 349,
      "m": 350,
      "##light": 351,
      "▁state": 352,
      "▁pur": 353,
      "▁shoe": 354,
      "▁studying": 355,
      "▁know": 356,
      "▁writing": 357,
      "▁momma": 358,
      "▁compl": 359,
      "▁throw": 360,
      "▁months": 361,
      "▁!!!?": 362,
      "##ft": 363,
      "##..": 364,
      "▁cry": 365,
      "##ath": 366,
      "##iv": 367,
      "##ove": 368,
      "▁credit": 369,
      "▁ba": 370,
      "##ledge": 371,
      "##...": 372,
      "▁suff": 373,
      "▁creation": 374,
      "▁|--------+----------------------->": 375,
      "▁happen": 376,
      "▁prefer": 377,
      "##?!": 378,
      "##ead": 379,
      "▁sh": 380,
      "##ife": 381,
      "##ome": 382,
      "▁purpos": 383,
      "▁forget": 384,
      "▁ago": 385,
      ":": 386,
      "▁chocol": 387,
      "##tly": 388,
      "▁pean": 389,
      "##ses": 390,
      "##yond": 391,
      "▁economy": 392,
      "▁progress": 393,
      "³": 394,
      "▁relig": 395,
      "▁elev": 396,
      "▁etc": 397,
      "##7": 398,
      "▁ho": 399,
      "##portun": 400,
      "▁departing": 401,
      "▁query": 402,
      "▁joke": 403,
      "##mit": 404,
      "▁method": 405,
      "▁first": 406,
      "g": 407,
      "▁own": 408,
      "▁eleph": 409,
      "##aring": 410,
      "▁argument": 411,
      "▁understand": 412,
      "▁day": 413,
      "##phere": 414,
      "##ology": 415,
      "▁vi": 416,
      "♥": 417,
      "▁effects": 418,
      "▁famili": 419,
      "▁very": 420,
      "}": 421,
      "##red": 422,
      "▁potty": 423,
      "▁spot": 424,
      "▁far": 425,
      "▁,": 426,
      "▁benef": 427,
      "▁mechan": 428,
      "▁capital": 429,
      "##onom": 430,
      "▁level": 431,
      "▁board": 432,
      "▁pencil": 433,
      "##ama": 434,
      "##jec": 435,
      "▁age": 436,
      "##ɑ": 437,
      "▁reports": 438,
      "▁breath": 439,
      "▁bathroom": 440,
      "▁camel": 441,
      "##’t": 442,
      "▁moved": 443,
      "▁like": 444,
      "▁property": 445,
      "▁than": 446,
      "▁identi": 447,
      "p": 448,
      "▁sitting": 449,
      "##ats": 450,
      "##ded": 451,
      "##ule": 452,
      "▁email": 453,
      "▁letters": 454,
      "▁studies": 455,
      "▁stre": 456,
      "▁none": 457,
      "▁mommy": 458,
      "##ounds": 459,
      "##isions": 460,
      "##s": 461,
      "##ys": 462,
      "▁community": 463,
      "##able": 464,
      "▁govern": 465,
      "▁knew": 466,
      "##ills": 467,
      "▁regar": 468,
      "▁tre": 469,
      "▁all": 470,
      "▁stret": 471,
      "▁[...": 472,
      "▁ev": 473,
      "▁innov": 474,
      "▁memory": 475,
      "▁ar": 476,
      "▁reas": 477,
      "▁dog": 478,
      "▁liter": 479,
      "▁salt": 480,
      "▁trying": 481,
      "▁role": 482,
      "##ened": 483,
      "##????": 484,
      "▁ball": 485,
      "##tain": 486,
      "##lation": 487,
      "##++": 488,
      "▁?????": 489,
      "##ied": 490,
      "▁cli": 491,
      "▁now": 492,
      "##angu": 493,
      "▁response": 494,
      "▁w": 495,
      "▁wind": 496,
      "##unt": 497,
      "##eck": 498,
      "##eas": 499,
      "##ple": 500,
      "▁ma": 501,
      "▁discovered": 502,
      "##lus": 503,
      "▁recip": 504,
      "▁spoke": 505,
      "##ma": 506,
      "▁am": 507,
      "▁air": 508,
      "▁push": 509,
      "▁arrives": 510,
      "▁miles": 511,
      "▁net": 512,
      "▁become": 513,
      "▁believed": 514,
      "▁bear": 515,
      "##ative": 516,
      "▁’m": 517,
      "▁'em": 518,
      "▁standing": 519,
      "▁pot": 520,
      "##ival": 521,
      "##--------------------------------": 522,
      "▁message": 523,
      "##ists": 524,
      "▁airline": 525,
      "##roduc": 526,
      "##pped": 527,
      "##aged": 528,
      "##'clock": 529,
      "▁bee": 530,
      "▁december": 531,
      "##ote": 532,
      "##anded": 533,
      "▁=---": 534,
      "▁refer": 535,
      "▁phil": 536,
      "▁lot": 537,
      "##spite": 538,
      "▁sold": 539,
      "##oph": 540,
      "▁wo": 541,
      "▁foc": 542,
      "▁i": 543,
      "▁pass": 544,
      "▁bul": 545,
      "▁source": 546,
      "▁object": 547,
      "##0": 548,
      "▁surpr": 549,
      "##lled": 550,
      "##alth": 551,
      "##ete": 552,
      "##mp": 553,
      "▁dere": 554,
      "▁initi": 555,
      "▁influ": 556,
      "▁p": 557,
      "▁’ll": 558,
      "▁transport": 559,
      "▁stayed": 560,
      "▁won": 561,
      "▁su": 562,
      "▁dogg": 563,
      "▁ensure": 564,
      "▁sens": 565,
      "▁through": 566,
      "▁constit": 567,
      "▁airl": 568,
      "##ds": 569,
      "▁or": 570,
      "▁;": 571,
      "▁mus": 572,
      "▁grew": 573,
      "##&": 574,
      "##ottable": 575,
      "▁birthday": 576,
      "▁sheet": 577,
      "▁cowboy": 578,
      "##ends": 579,
      "▁growth": 580,
      "▁working": 581,
      "▁repl": 582,
      "▁cruise": 583,
      "▁this": 584,
      "ο": 585,
      "##enty": 586,
      "▁seas": 587,
      "##.c": 588,
      "▁engine": 589,
      "▁!!!!!!!!!!": 590,
      "▁resources": 591,
      "##ights": 592,
      "▁service": 593,
      "##ning": 594,
      "##ca": 595,
      "##ention": 596,
      "▁arti": 597,
      "▁carry": 598,
      "##ø": 599,
      "##val": 600,
      "▁lips": 601,
      "▁access": 602,
      "##anger": 603,
      "##ave": 604,
      "##neath": 605,
      "▁sky": 606,
      "▁produc": 607,
      "▁litt": 608,
      "▁feel": 609,
      "##avor": 610,
      "▁mor": 611,
      "##amp": 612,
      "##ici": 613,
      "▁pivottable": 614,
      "##oted": 615,
      "##ribution": 616,
      "▁n’t": 617,
      "##pts": 618,
      "▁del": 619,
      "▁techn": 620,
      "▁meant": 621,
      "▁eng": 622,
      "▁color": 623,
      "##ointment": 624,
      "▁fingers": 625,
      "▁ass": 626,
      "▁building": 627,
      "▁threat": 628,
      "##??": 629,
      "##ison": 630,
      "▁enter": 631,
      "##ked": 632,
      "▁leaves": 633,
      "▁proce": 634,
      "▁customers": 635,
      "##????????????????": 636,
      "##[": 637,
      "▁skills": 638,
      "##tive": 639,
      "▁ways": 640,
      "##place": 641,
      "▁saf": 642,
      "▁everybody": 643,
      "▁neck": 644,
      "▁court": 645,
      "▁drinking": 646,
      "▁third": 647,
      "##art": 648,
      "▁friends": 649,
      "##sing": 650,
      "▁army": 651,
      "##ologies": 652,
      "▁delivery": 653,
      "##ories": 654,
      "▁wear": 655,
      "▁ann": 656,
      "##stances": 657,
      "▁countries": 658,
      "##ressed": 659,
      "▁f": 660,
      "##ures": 661,
      "##♥": 662,
      "##ets": 663,
      "##urity": 664,
      "##m": 665,
      "##ects": 666,
      "##den": 667,
      "##selves": 668,
      "▁storm": 669,
      "##­": 670,
      "##jo": 671,
      "##ergy": 672,
      "▁:": 673,
      "▁bo": 674,
      "##thin": 675,
      "▁period": 676,
      "▁media": 677,
      "##enc": 678,
      "▁sound": 679,
      "▁up": 680,
      "##ributed": 681,
      "▁winter": 682,
      "▁pos": 683,
      "▁he": 684,
      "▁write": 685,
      "▁pas": 686,
      "▁interv": 687,
      "##.d": 688,
      "▁requ": 689,
      "▁dece": 690,
      "▁doll": 691,
      "▁some": 692,
      "##its": 693,
      "▁takes": 694,
      "##1": 695,
      "▁compan": 696,
      "##akes": 697,
      "▁comp": 698,
      "▁dem": 699,
      "▁instruc": 700,
      "##works": 701,
      "##-m": 702,
      "##sure": 703,
      "##ach": 704,
      "▁river": 705,
      "##ests": 706,
      "▁draw": 707,
      "##e": 708,
      "##ac": 709,
      "▁contract": 710,
      "##ive": 711,
      "▁details": 712,
      "##ement": 713,
      "▁islands": 714,
      "##ions": 715,
      "▁observ": 716,
      "▁vis": 717,
      "##ary": 718,
      "##ite": 719,
      "##str": 720,
      "▁ans": 721,
      "▁discus": 722,
      "##ress": 723,
      "▁version": 724,
      "▁kid": 725,
      "▁avo": 726,
      "▁kitt": 727,
      "▁boys": 728,
      "##alu": 729,
      "##arity": 730,
      "##ket": 731,
      "▁cookies": 732,
      "▁dep": 733,
      "▁coffee": 734,
      "▁climb": 735,
      "##xce": 736,
      "▁cash": 737,
      "▁ta": 738,
      "▁‘’": 739,
      "▁heart": 740,
      "▁goes": 741,
      "▁mist": 742,
      "▁banana": 743,
      "▁mention": 744,
      "▁data": 745,
      "▁win": 746,
      "▁legs": 747,
      "▁committee": 748,
      "▁changes": 749,
      "▁serv": 750,
      "▁doc": 751,
      "▁continu": 752,
      "▁wr": 753,
      "##ized": 754,
      "▁attempt": 755,
      "▁class": 756,
      "##ilos": 757,
      "##eng": 758,
      "▁its": 759,
      "▁bom": 760,
      "##ision": 761,
      "▁objec": 762,
      "##oices": 763,
      "##uting": 764,
      "▁other": 765,
      "▁pick": 766,
      "▁til": 767,
      "##ht": 768,
      "##ertai": 769,
      "▁rob": 770,
      "▁depart": 771,
      "▁produce": 772,
      "▁moving": 773,
      "▁ya": 774,
      "▁me": 775,
      "##otw": 776,
      "▁long": 777,
      "▁president": 778,
      "▁coff": 779,
      "##chen": 780,
      "##oon": 781,
      "▁nature": 782,
      "▁...............": 783,
      "▁disc": 784,
      "▁could": 785,
      "▁mom": 786,
      "▁did": 787,
      "▁ir": 788,
      "##ired": 789,
      "▁tem": 790,
      "▁outside": 791,
      "##alk": 792,
      "##ict": 793,
      "▁wake": 794,
      "##ps": 795,
      "▁track": 796,
      "▁military": 797,
      "▁dam": 798,
      "▁|--------+----------------": 799,
      "##ligh": 800,
      "▁difference": 801,
      "##gg": 802,
      "##ty": 803,
      "ε": 804,
      "##utions": 805,
      "▁build": 806,
      "▁broke": 807,
      "##and": 808,
      "▁ey": 809,
      "▁accept": 810,
      "▁posted": 811,
      "##ge": 812,
      "##tern": 813,
      "▁aug": 814,
      "▁started": 815,
      "▁you": 816,
      "##aced": 817,
      "▁poli": 818,
      "▁equ": 819,
      "▁art": 820,
      "##ens": 821,
      "##bo": 822,
      "▁read": 823,
      "▁dropped": 824,
      "▁hurt": 825,
      "▁kit": 826,
      "▁century": 827,
      "##ss": 828,
      "▁te": 829,
      "▁cars": 830,
      "▁both": 831,
      "▁af": 832,
      "▁gave": 833,
      "▁wearing": 834,
      "##acter": 835,
      "▁enjoyed": 836,
      "##es": 837,
      "##lic": 838,
      "▁---------------------------------": 839,
      "▁says": 840,
      "▁contact": 841,
      "##ey": 842,
      "▁peoples": 843,
      "▁showed": 844,
      "▁!?": 845,
      "##my": 846,
      "~": 847,
      "▁ps": 848,
      "▁too": 849,
      "▁mem": 850,
      "b": 851,
      "▁gro": 852,
      "▁addition": 853,
      "▁penc": 854,
      "▁anti": 855,
      "##ap": 856,
      "▁character": 857,
      "##f": 858,
      ";": 859,
      "▁office": 860,
      "▁isl": 861,
      "▁street": 862,
      "▁enjo": 863,
      "##iving": 864,
      "▁yog": 865,
      "▁pig": 866,
      "▁deter": 867,
      "▁needed": 868,
      "▁_": 869,
      "▁cro": 870,
      "##inn": 871,
      "▁tea": 872,
      "▁bug": 873,
      "##ook": 874,
      "▁respect": 875,
      "▁pay": 876,
      "▁my": 877,
      "▁product": 878,
      "▁ph": 879,
      "▁close": 880,
      "▁sym": 881,
      "▁subject": 882,
      "▁when": 883,
      "▁performance": 884,
      "▁incl": 885,
      "▁sci": 886,
      "▁shall": 887,
      "##get": 888,
      "##iding": 889,
      "▁supp": 890,
      "▁number": 891,
      "▁instit": 892,
      "▁cha": 893,
      "▁reve": 894,
      "▁dallas": 895,
      "##ee": 896,
      "▁director": 897,
      "▁round": 898,
      "##tic": 899,
      "▁---=": 900,
      "##ength": 901,
      "▁walk": 902,
      "▁rub": 903,
      "##!!": 904,
      "##ently": 905,
      "▁show": 906,
      "##formation": 907,
      "##uation": 908,
      "##itt": 909,
      "ˈ": 910,
      "##temp": 911,
      "▁languages": 912,
      "##res": 913,
      "▁individ": 914,
      "▁leave": 915,
      "▁agreement": 916,
      "▁sources": 917,
      "▁has": 918,
      "▁played": 919,
      "f": 920,
      "▁energy": 921,
      "##eth": 922,
      "▁yester": 923,
      "▁creating": 924,
      "▁polic": 925,
      "▁gall": 926,
      "##ro": 927,
      "▁dr": 928,
      "▁concern": 929,
      "▁stopover": 930,
      "##erent": 931,
      "##8": 932,
      "▁april": 933,
      "▁bott": 934,
      "##aps": 935,
      "▁circle": 936,
      "▁!!!!!!": 937,
      "▁couple": 938,
      "▁tech": 939,
      "▁animal": 940,
      "##ely": 941,
      "##us": 942,
      "▁wrote": 943,
      "▁pieces": 944,
      "▁emer": 945,
      "▁friend": 946,
      "##ough": 947,
      "##bb": 948,
      "▁crack": 949,
      "▁swe": 950,
      "▁small": 951,
      "▁was": 952,
      "▁fe": 953,
      "▁happ": 954,
      "▁laws": 955,
      "▁past": 956,
      "▁wants": 957,
      "▁fact": 958,
      "▁old": 959,
      "▁elect": 960,
      "▁..........": 961,
      "▁ground": 962,
      "▁applied": 963,
      "▁sept": 964,
      "▁fre": 965,
      "▁decision": 966,
      "▁bor": 967,
      "▁metal": 968,
      "▁nonstop": 969,
      "▁med": 970,
      "▁mid": 971,
      "▁mur": 972,
      "▁-----------------------------------------------------------------------": 973,
      "##oring": 974,
      "▁results": 975,
      "▁arriving": 976,
      "▁space": 977,
      "▁website": 978,
      "##ad": 979,
      "##een": 980,
      "•": 981,
      "##olving": 982,
      "##other": 983,
      "▁_____": 984,
      "▁[...]": 985,
      "▁ban": 986,
      "▁fr": 987,
      "▁driver": 988,
      "##em": 989,
      "##ension": 990,
      "▁.": 991,
      "##ring": 992,
      "▁wan": 993,
      "▁mess": 994,
      "##or": 995,
      "▁coll": 996,
      "▁expl": 997,
      "▁serve": 998,
      "▁recogn": 999,
      "▁detail": 1000,
      "##tery": 1001,
      "▁beyond": 1002,
      "▁env": 1003,
      "##ws": 1004,
      "▁tom": 1005,
      "##ection": 1006,
      "##umn": 1007,
      "▁flag": 1008,
      "▁prin": 1009,
      "▁employees": 1010,
      "▁hosp": 1011,
      "▁anoder": 1012,
      "▁airplane": 1013,
      "##anced": 1014,
      "▁uncle": 1015,
      "▁cri": 1016,
      "▁still": 1017,
      "▁talk": 1018,
      "##ness": 1019,
      "##ily": 1020,
      "▁exper": 1021,
      "##ault": 1022,
      "##ble": 1023,
      "▁cut": 1024,
      "▁command": 1025,
      "##ato": 1026,
      "t": 1027,
      "▁match": 1028,
      "▁say": 1029,
      "▁sched": 1030,
      "##gr": 1031,
      "##hip": 1032,
      "##ose": 1033,
      "##atch": 1034,
      "▁av": 1035,
      "▁analysis": 1036,
      "▁invest": 1037,
      "▁dinos": 1038,
      "▁student": 1039,
      "▁below": 1040,
      "ʊ": 1041,
      "##ball": 1042,
      "7": 1043,
      "▁love": 1044,
      "▁butter": 1045,
      "##ands": 1046,
      "▁grass": 1047,
      "##idence": 1048,
      "▁airport": 1049,
      "▁comments": 1050,
      "#": 1051,
      "ɑ": 1052,
      "##acters": 1053,
      "##k": 1054,
      "▁bro": 1055,
      "##6": 1056,
      "##gether": 1057,
      "[MASK]": 1058,
      "σ": 1059,
      "▁safety": 1060,
      "##umb": 1061,
      "▁should": 1062,
      "▁libr": 1063,
      "▁wom": 1064,
      "▁agre": 1065,
      "##usion": 1066,
      "▁happening": 1067,
      "##+": 1068,
      "▁tuesday": 1069,
      "▁activities": 1070,
      "▁wond": 1071,
      "▁monkey": 1072,
      "▁draft": 1073,
      "##³": 1074,
      "▁thre": 1075,
      "▁wish": 1076,
      "##'": 1077,
      "▁everything": 1078,
      "▁towards": 1079,
      "▁appeared": 1080,
      "##z": 1081,
      "##way": 1082,
      "##lik": 1083,
      "##****************": 1084,
      "##ag": 1085,
      "▁sa": 1086,
      "##li": 1087,
      "▁cup": 1088,
      "▁a": 1089,
      "▁value": 1090,
      "##5": 1091,
      "##--------": 1092,
      "▁just": 1093,
      "▁mathema": 1094,
      "##all": 1095,
      "▁fol": 1096,
      "▁&": 1097,
      "▁block": 1098,
      "▁ele": 1099,
      "▁reached": 1100,
      "▁must": 1101,
      "▁?!?": 1102,
      "▁rain": 1103,
      "▁us": 1104,
      "▁under": 1105,
      "##ocol": 1106,
      "▁recommended": 1107,
      "▁column": 1108,
      "▁_______": 1109,
      "▁hot": 1110,
      "##uments": 1111,
      "%": 1112,
      "▁plate": 1113,
      "▁k": 1114,
      "##inc": 1115,
      "▁sex": 1116,
      "▁display": 1117,
      "##????????": 1118,
      "##unch": 1119,
      "##ores": 1120,
      "▁adults": 1121,
      "##oll": 1122,
      "##artment": 1123,
      "###": 1124,
      "▁theirs": 1125,
      "##ven": 1126,
      "▁fing": 1127,
      "▁does": 1128,
      "▁bea": 1129,
      "n": 1130,
      "▁effort": 1131,
      "##ide": 1132,
      "▁ever": 1133,
      "▁app": 1134,
      "##------------": 1135,
      "▁will": 1136,
      "##ger": 1137,
      "▁accepted": 1138,
      "▁person": 1139,
      "##ority": 1140,
      "▁fl": 1141,
      "▁{": 1142,
      "##yed": 1143,
      "▁behavior": 1144,
      "▁bed": 1145,
      "▁bus": 1146,
      "##?!?": 1147,
      "▁analys": 1148,
      "▁>": 1149,
      "▁boston": 1150,
      "##up": 1151,
      "▁expect": 1152,
      "▁q": 1153,
      "▁son": 1154,
      "▁fell": 1155,
      "▁orig": 1156,
      "▁innovation": 1157,
      "▁provide": 1158,
      "##ten": 1159,
      "▁def": 1160,
      "##erv": 1161,
      "▁remember": 1162,
      "##ful": 1163,
      "##um": 1164,
      "##ς": 1165,
      "▁taking": 1166,
      "▁hur": 1167,
      "##rows": 1168,
      "##ambment": 1169,
      "▁shop": 1170,
      "##cle": 1171,
      "##:": 1172,
      "▁cloth": 1173,
      "▁left": 1174,
      "▁hair": 1175,
      "▁ac": 1176,
      "##'t": 1177,
      "##und": 1178,
      "▁poin": 1179,
      "▁ste": 1180,
      "▁area": 1181,
      "▁protection": 1182,
      "##uro": 1183,
      "▁cereal": 1184,
      "##ert": 1185,
      "##y": 1186,
      "▁morning": 1187,
      "▁view": 1188,
      "▁video": 1189,
      "##aries": 1190,
      "▁decl": 1191,
      "▁brain": 1192,
      "##ocks": 1193,
      "▁ident": 1194,
      "▁piz": 1195,
      "▁string": 1196,
      "▁for": 1197,
      "▁suicide": 1198,
      "▁following": 1199,
      "##ender": 1200,
      "▁im": 1201,
      "▁whose": 1202,
      "##=----": 1203,
      "▁watch": 1204,
      "##tered": 1205,
      "▁ships": 1206,
      "▁lad": 1207,
      "▁enem": 1208,
      "▁dom": 1209,
      "▁neighb": 1210,
      "▁?": 1211,
      "##ated": 1212,
      "▁replication": 1213,
      "▁journ": 1214,
      "##phone": 1215,
      "##tr": 1216,
      "▁down": 1217,
      "▁before": 1218,
      "▁since": 1219,
      "▁difficul": 1220,
      "▁wall": 1221,
      "▁move": 1222,
      "##~": 1223,
      "▁barn": 1224,
      "▁sc": 1225,
      "▁val": 1226,
      "▁befor": 1227,
      "▁mass": 1228,
      "##row": 1229,
      "▁******************************************************************": 1230,
      "##lf": 1231,
      "##ye": 1232,
      "##ism": 1233,
      "▁pa": 1234,
      "▁bunny": 1235,
      "##un": 1236,
      "▁path": 1237,
      "##ec": 1238,
      "##........": 1239,
      "▁beauty": 1240,
      "##book": 1241,
      "##asts": 1242,
      "##ion": 1243,
      "▁fish": 1244,
      "##ass": 1245,
      "##fer": 1246,
      "##et": 1247,
      "▁woud": 1248,
      "##els": 1249,
      "▁saturday": 1250,
      "##ourn": 1251,
      "▁cards": 1252,
      "▁begin": 1253,
      "▁text": 1254,
      "▁snow": 1255,
      "▁uh": 1256,
      "##aint": 1257,
      "▁ins": 1258,
      "▁touch": 1259,
      "]": 1260,
      "##ybody": 1261,
      "##overed": 1262,
      "▁style": 1263,
      "▁looks": 1264,
      "▁shoes": 1265,
      "▁sup": 1266,
      "▁sand": 1267,
      "##cles": 1268,
      "▁is": 1269,
      "##ternoon": 1270,
      "▁sk": 1271,
      "▁exh": 1272,
      "##lection": 1273,
      "##ances": 1274,
      "▁wil": 1275,
      "▁campaign": 1276,
      "▁officials": 1277,
      "▁looked": 1278,
      "▁process": 1279,
      "▁here": 1280,
      "▁learned": 1281,
      "▁june": 1282,
      "##qui": 1283,
      "##ibility": 1284,
      "▁quar": 1285,
      "▁ren": 1286,
      "▁comed": 1287,
      "▁recomm": 1288,
      "▁beh": 1289,
      "▁les": 1290,
      "▁windows": 1291,
      "▁out": 1292,
      "##**********************************": 1293,
      "▁ha": 1294,
      "##right": 1295,
      "##oder": 1296,
      "##****": 1297,
      "▁test": 1298,
      "▁workers": 1299,
      "▁practice": 1300,
      "▁thoug": 1301,
      "##ity": 1302,
      "▁top": 1303,
      "▁parents": 1304,
      "▁fields": 1305,
      "▁tow": 1306,
      "▁share": 1307,
      "$": 1308,
      "▁offici": 1309,
      "▁served": 1310,
      "##ower": 1311,
      "▁loc": 1312,
      "▁support": 1313,
      "▁start": 1314,
      "▁mach": 1315,
      "▁city": 1316,
      "##apers": 1317,
      "▁amend": 1318,
      "▁september": 1319,
      "▁showing": 1320,
      "▁pool": 1321,
      "##ale": 1322,
      "##ues": 1323,
      "##ure": 1324,
      "▁bread": 1325,
      "##pe": 1326,
      "▁etc.": 1327,
      "##etition": 1328,
      "##ep": 1329,
      "##oo": 1330,
      "▁vol": 1331,
      "▁partic": 1332,
      "##ected": 1333,
      "▁sour": 1334,
      "##mos": 1335,
      "▁what": 1336,
      "▁action": 1337,
      "##ight": 1338,
      "▁allow": 1339,
      "▁taken": 1340,
      "▁function": 1341,
      "▁'m": 1342,
      "▁aircraft": 1343,
      "▁bac": 1344,
      "##ner": 1345,
      "▁har": 1346,
      "▁div": 1347,
      "##inds": 1348,
      "▁interests": 1349,
      "##thers": 1350,
      "▁step": 1351,
      "▁implem": 1352,
      "v": 1353,
      "##c": 1354,
      "▁cart": 1355,
      "##aled": 1356,
      "▁leader": 1357,
      "##ɛ": 1358,
      "##derstanding": 1359,
      "0": 1360,
      "##mes": 1361,
      "▁argu": 1362,
      "{": 1363,
      "▁toast": 1364,
      "▁circ": 1365,
      "▁uses": 1366,
      "##ines": 1367,
      "▁expected": 1368,
      "##par": 1369,
      "▁impact": 1370,
      "##is": 1371,
      "##eries": 1372,
      "▁esc": 1373,
      "##town": 1374,
      "[PAD]": 1375,
      "##ush": 1376,
      "▁spell": 1377,
      "##t": 1378,
      "##ame": 1379,
      "▁seemed": 1380,
      "▁ter": 1381,
      "▁struc": 1382,
      "▁concept": 1383,
      "▁problem": 1384,
      "▁h": 1385,
      "9": 1386,
      "▁opening": 1387,
      "##owed": 1388,
      "##pite": 1389,
      "▁telling": 1390,
      "▁lost": 1391,
      "▁aw": 1392,
      "##iated": 1393,
      "▁keeping": 1394,
      "▁required": 1395,
      "##xt": 1396,
      "▁also": 1397,
      "▁unto": 1398,
      "▁horsie": 1399,
      "▁while": 1400,
      "▁citizens": 1401,
      "##orted": 1402,
      "▁’’": 1403,
      "▁sur": 1404,
      "▁whe": 1405,
      "▁grand": 1406,
      "##let": 1407,
      "▁inter": 1408,
      "▁turning": 1409,
      "▁wit": 1410,
      "▁desk": 1411,
      "##ase": 1412,
      "##icide": 1413,
      "##enting": 1414,
      "##ating": 1415,
      "▁hous": 1416,
      "▁regard": 1417,
      "8": 1418,
      "##oint": 1419,
      "▁francisco": 1420,
      "##--------+----------------": 1421,
      "##ved": 1422,
      "▁z": 1423,
      "▁reviews": 1424,
      "▁stories": 1425,
      "▁opinion": 1426,
      "▁users": 1427,
      "▁dirt": 1428,
      "##duction": 1429,
      "▁together": 1430,
      "▁elections": 1431,
      "▁piv": 1432,
      "▁fall": 1433,
      "▁glasses": 1434,
      "▁upd": 1435,
      "▁t": 1436,
      "▁project": 1437,
      "##icul": 1438,
      "##od": 1439,
      "▁family": 1440,
      "▁seeing": 1441,
      "##operation": 1442,
      "##ι": 1443,
      "▁blan": 1444,
      "##reds": 1445,
      "##orts": 1446,
      "▁health": 1447,
      "▁went": 1448,
      "▁convers": 1449,
      "▁serves": 1450,
      "▁soldiers": 1451,
      "##tw": 1452,
      "▁movies": 1453,
      "▁option": 1454,
      "▁\"": 1455,
      "2": 1456,
      "”": 1457,
      "##led": 1458,
      "▁computer": 1459,
      "▁kn": 1460,
      "▁see": 1461,
      "▁program": 1462,
      "▁millions": 1463,
      "##ture": 1464,
      "##her": 1465,
      "##iqu": 1466,
      "▁cer": 1467,
      "▁develop": 1468,
      "##isco": 1469,
      "▁look": 1470,
      "▁form": 1471,
      "▁never": 1472,
      "▁funds": 1473,
      "##mar": 1474,
      "##lity": 1475,
      "##zz": 1476,
      "▁situation": 1477,
      "▁only": 1478,
      "##ck": 1479,
      "▁cla": 1480,
      "##uty": 1481,
      "##ending": 1482,
      "##bly": 1483,
      "##erc": 1484,
      "##ond": 1485,
      "▁payment": 1486,
      "▁inte": 1487,
      "▁bank": 1488,
      "▁itself": 1489,
      "▁beside": 1490,
      "##ink": 1491,
      "▁democracy": 1492,
      "▁cream": 1493,
      "▁inc": 1494,
      "▁civ": 1495,
      "▁swee": 1496,
      "▁secret": 1497,
      "▁to": 1498,
      "▁juice": 1499,
      "▁che": 1500,
      "##i": 1501,
      "▁cake": 1502,
      "▁tic": 1503,
      "##ire": 1504,
      "▁heat": 1505,
      "▁real": 1506,
      "▁considered": 1507,
      "##ult": 1508,
      "▁save": 1509,
      "▁governments": 1510,
      "▁trad": 1511,
      "##ver": 1512,
      "▁days": 1513,
      "▁except": 1514,
      "▁play": 1515,
      "##x": 1516,
      "▁vet": 1517,
      "▁contr": 1518,
      "▁as": 1519,
      "▁end": 1520,
      "▁year": 1521,
      "▁duck": 1522,
      "▁effect": 1523,
      "##ott": 1524,
      "▁cheese": 1525,
      "▁independence": 1526,
      "▁jelly": 1527,
      "▁actions": 1528,
      "##ees": 1529,
      "&": 1530,
      "▁thy": 1531,
      "▁percentage": 1532,
      "##phia": 1533,
      "##ploy": 1534,
      "##oard": 1535,
      "▁amongst": 1536,
      "▁hop": 1537,
      "▁met": 1538,
      "##ren": 1539,
      "▁butt": 1540,
      "▁pros": 1541,
      "##uring": 1542,
      "▁sus": 1543,
      "▁estimated": 1544,
      "▁daughter": 1545,
      "­": 1546,
      "##d": 1547,
      "##one": 1548,
      "##ception": 1549,
      "##p;": 1550,
      "##ouse": 1551,
      "##ace": 1552,
      "▁august": 1553,
      "▁photograph": 1554,
      "▁em": 1555,
      "▁trees": 1556,
      "▁can": 1557,
      "▁crow": 1558,
      "##oration": 1559,
      "▁weap": 1560,
      "▁section": 1561,
      "▁pip": 1562,
      "▁means": 1563,
      "▁fight": 1564,
      "▁arg": 1565,
      "▁explained": 1566,
      "▁doing": 1567,
      "##ark": 1568,
      "##ational": 1569,
      "▁discuss": 1570,
      "▁may": 1571,
      "▁determ": 1572,
      "##ugg": 1573,
      "##als": 1574,
      "##ork": 1575,
      "##ay": 1576,
      "▁train": 1577,
      "▁ones": 1578,
      "##old": 1579,
      "▁named": 1580,
      "##oned": 1581,
      "▁pie": 1582,
      "##osing": 1583,
      "▁sn": 1584,
      "##;": 1585,
      "▁treat": 1586,
      "▁language": 1587,
      "▁go": 1588,
      "▁despite": 1589,
      "▁thank": 1590,
      "▁tape": 1591,
      "▁stated": 1592,
      "▁boxes": 1593,
      "▁'d": 1594,
      "##ech": 1595,
      "##'s": 1596,
      "▁-----------------------------------------------------------------": 1597,
      "##ə": 1598,
      "##hold": 1599,
      "##ors": 1600,
      "##ters": 1601,
      "##fri": 1602,
      "▁died": 1603,
      "##sts": 1604,
      "##ify": 1605,
      "##ption": 1606,
      "?": 1607,
      "▁ri": 1608,
      "##ust": 1609,
      "▁---": 1610,
      "▁rel": 1611,
      "▁ben": 1612,
      "▁hide": 1613,
      "▁oil": 1614,
      "▁off": 1615,
      "▁iodine": 1616,
      "▁b/": 1617,
      "▁hors": 1618,
      "##key": 1619,
      "▁morn": 1620,
      "▁teach": 1621,
      "▁mother": 1622,
      "▁19": 1623,
      "▁appear": 1624,
      "##ication": 1625,
      "▁atlanta": 1626,
      "▁count": 1627,
      "##ised": 1628,
      "▁achieve": 1629,
      "[": 1630,
      "▁traff": 1631,
      "▁ship": 1632,
      "▁rights": 1633,
      "▁**": 1634,
      "▁wal": 1635,
      "##ha": 1636,
      "▁estab": 1637,
      "▁educ": 1638,
      "▁sun": 1639,
      "<": 1640,
      "##asure": 1641,
      "▁employ": 1642,
      "▁ate": 1643,
      "…": 1644,
      "##earance": 1645,
      "▁spir": 1646,
      "▁provided": 1647,
      "▁s’": 1648,
      "##ections": 1649,
      "▁called": 1650,
      "▁asking": 1651,
      "##ounts": 1652,
      "##ample": 1653,
      "##ctions": 1654,
      "▁sil": 1655,
      "▁fig": 1656,
      "▁bl": 1657,
      "▁terms": 1658,
      "##vers": 1659,
      "▁efforts": 1660,
      "▁egg": 1661,
      "##ics": 1662,
      "▁town": 1663,
      "▁pupp": 1664,
      "▁mind": 1665,
      "▁cases": 1666,
      "▁via": 1667,
      "▁paint": 1668,
      "##ph": 1669,
      "##vail": 1670,
      "▁toward": 1671,
      "##enti": 1672,
      "▁helps": 1673,
      "▁though": 1674,
      "▁yesterday": 1675,
      "##owers": 1676,
      "##re": 1677,
      "##ted": 1678,
      "##aster": 1679,
      "▁murder": 1680,
      "▁tri": 1681,
      "##uly": 1682,
      "##r": 1683,
      "##!!!": 1684,
      "##aw": 1685,
      "##co": 1686,
      "▁elected": 1687,
      "▁till": 1688,
      "▁south": 1689,
      "##rested": 1690,
      "##de": 1691,
      "##oved": 1692,
      "##/": 1693,
      "▁'s": 1694,
      "▁sme": 1695,
      "▁ce": 1696,
      "▁people": 1697,
      "▁confir": 1698,
      "##ords": 1699,
      "##imb": 1700,
      "##pr": 1701,
      "▁hospital": 1702,
      "▁cere": 1703,
      "▁birth": 1704,
      "##otes": 1705,
      "▁pat": 1706,
      "▁games": 1707,
      "▁respon": 1708,
      "##“": 1709,
      "▁happened": 1710,
      "▁series": 1711,
      "▁sell": 1712,
      "▁speaking": 1713,
      "▁intended": 1714,
      "▁spider": 1715,
      "##sh": 1716,
      "▁tummy": 1717,
      "▁spe": 1718,
      "▁places": 1719,
      "▁projects": 1720,
      "▁blood": 1721,
      "##oke": 1722,
      "▁freedom": 1723,
      "▁ourselves": 1724,
      "##za": 1725,
      "##ne": 1726,
      "▁pet": 1727,
      "▁exch": 1728,
      "##oun": 1729,
      "▁dollars": 1730,
      "▁y": 1731,
      "##ences": 1732,
      "▁fail": 1733,
      "▁station": 1734,
      "▁dese": 1735,
      "▁concer": 1736,
      "▁pub": 1737,
      "▁aside": 1738,
      "##wic": 1739,
      "▁force": 1740,
      "##ister": 1741,
      "▁near": 1742,
      "##aking": 1743,
      "▁wa": 1744,
      "▁mr": 1745,
      "##rib": 1746,
      "##ve": 1747,
      "##wa": 1748,
      "▁minutes": 1749,
      "##st": 1750,
      "▁sugar": 1751,
      "▁makes": 1752,
      "▁summer": 1753,
      "##inated": 1754,
      "##les": 1755,
      "##eel": 1756,
      "##0s": 1757,
      "▁pour": 1758,
      "▁forth": 1759,
      "##men": 1760,
      "##ety": 1761,
      "▁behind": 1762,
      "▁something": 1763,
      "▁ris": 1764,
      "l": 1765,
      "▁flight": 1766,
      "▁stage": 1767,
      "▁amb": 1768,
      "▁eff": 1769,
      "▁groups": 1770,
      "##ny": 1771,
      "▁categ": 1772,
      "##aft": 1773,
      "##ik": 1774,
      "##boy": 1775,
      "▁bomb": 1776,
      "▁whether": 1777,
      "▁???": 1778,
      "▁cartoon": 1779,
      "▁certain": 1780,
      "##ening": 1781,
      "▁belie": 1782,
      "▁inv": 1783,
      "▁eat": 1784,
      "▁ask": 1785,
      "▁information": 1786,
      "▁hang": 1787,
      "▁meal": 1788,
      "##am": 1789,
      "▁und": 1790,
      "▁ordered": 1791,
      "▁damage": 1792,
      "##ug": 1793,
      "##ino": 1794,
      "▁spent": 1795,
      "▁blow": 1796,
      "▁report": 1797,
      "▁aud": 1798,
      "##yone": 1799,
      "▁above": 1800,
      "▁characters": 1801,
      "##sm": 1802,
      "▁bag": 1803,
      "##l": 1804,
      "##ance": 1805,
      "▁bab": 1806,
      "▁sit": 1807,
      "▁schedule": 1808,
      "##ror": 1809,
      "▁present": 1810,
      "▁room": 1811,
      "▁occur": 1812,
      "##ature": 1813,
      "▁competition": 1814,
      "##igned": 1815,
      "##9": 1816,
      "▁lead": 1817,
      "##ril": 1818,
      "▁management": 1819,
      "##urned": 1820,
      "▁bulld": 1821,
      "▁heads": 1822,
      "▁opportun": 1823,
      "▁at": 1824,
      "##iness": 1825,
      "▁thought": 1826,
      "▁worked": 1827,
      "##ian": 1828,
      "▁ticket": 1829,
      "▁signed": 1830,
      "▁pr": 1831,
      "##tile": 1832,
      "##ei": 1833,
      "▁mod": 1834,
      "▁most": 1835,
      "▁rabb": 1836,
      "▁filled": 1837,
      "##ize": 1838,
      "▁create": 1839,
      "▁regarding": 1840,
      "##ration": 1841,
      "-": 1842,
      "▁init": 1843,
      "##room": 1844,
      "##epend": 1845,
      "##ities": 1846,
      "##φ": 1847,
      "##alist": 1848,
      "▁without": 1849,
      "▁str": 1850,
      "▁regards": 1851,
      "##vailable": 1852,
      "▁pain": 1853,
      "▁grandm": 1854,
      "##ches": 1855,
      "▁reference": 1856,
      "##ist": 1857,
      "##ange": 1858,
      "▁imag": 1859,
      "▁police": 1860,
      "▁prep": 1861,
      "##agon": 1862,
      "##ard": 1863,
      "▁girl": 1864,
      "▁published": 1865,
      "▁sle": 1866,
      "+": 1867,
      "▁feeling": 1868,
      "▁buil": 1869,
      "▁(": 1870,
      "▁monday": 1871,
      "##liday": 1872,
      "▁open": 1873,
      "▁reduc": 1874,
      "▁prot": 1875,
      "▁half": 1876,
      "▁inj": 1877,
      "##q": 1878,
      "▁control": 1879,
      "▁database": 1880,
      "##ed": 1881,
      "##ission": 1882,
      "▁few": 1883,
      "▁ach": 1884,
      "▁lived": 1885,
      "##ither": 1886,
      "▁spring": 1887,
      "▁oper": 1888,
      "##derstand": 1889,
      "##u": 1890,
      "▁anybody": 1891,
      "▁b/c": 1892,
      "##formed": 1893,
      "##ided": 1894,
      "▁horse": 1895,
      "▁gu": 1896,
      "##orting": 1897,
      "▁presence": 1898,
      "▁v": 1899,
      "▁mean": 1900,
      "▁fri": 1901,
      "▁|": 1902,
      "▁hope": 1903,
      "*": 1904,
      "▁stri": 1905,
      "##ummy": 1906,
      "▁delive": 1907,
      "▁solution": 1908,
      "▁prom": 1909,
      "##duc": 1910,
      "·": 1911,
      "▁po": 1912,
      "▁-----": 1913,
      "##line": 1914,
      "##ul": 1915,
      "▁items": 1916,
      "▁cr": 1917,
      "▁forms": 1918,
      "▁counterpar": 1919,
      "▁gri": 1920,
      "▁attend": 1921,
      "▁hotel": 1922,
      "▁dall": 1923,
      "##ester": 1924,
      "##ru": 1925,
      "##des": 1926,
      "##head": 1927,
      "##ince": 1928,
      "##dy": 1929,
      "▁going": 1930,
      "▁********": 1931,
      "▁shower": 1932,
      "▁plus": 1933,
      "▁many": 1934,
      "##ation": 1935,
      "▁pic": 1936,
      "▁grow": 1937,
      "–": 1938,
      "▁link": 1939,
      "▁surround": 1940,
      "##erve": 1941,
      "▁rooms": 1942,
      "▁refl": 1943,
      "##oor": 1944,
      "▁exce": 1945,
      "▁dragon": 1946,
      "▁*****": 1947,
      "##ish": 1948,
      "##ounced": 1949,
      "▁differences": 1950,
      "##ping": 1951,
      "##ipped": 1952,
      "▁versus": 1953,
      "##oin": 1954,
      "▁the": 1955,
      "▁lim": 1956,
      "▁that": 1957,
      "ν": 1958,
      "▁numerous": 1959,
      "##amb": 1960,
      "##°": 1961,
      "▁num": 1962,
      "▁result": 1963,
      "##ing": 1964,
      "▁cab": 1965,
      "▁strength": 1966,
      "▁fit": 1967,
      "▁resul": 1968,
      "▁someth": 1969,
      "▁dad": 1970,
      "▁girls": 1971,
      "##tee": 1972,
      "▁began": 1973,
      "▁experien": 1974,
      "▁==----": 1975,
      "▁cons": 1976,
      "▁movie": 1977,
      "▁gl": 1978,
      "▁fac": 1979,
      "▁lack": 1980,
      "▁amidst": 1981,
      "##me": 1982,
      "▁som": 1983,
      "▁doggie": 1984,
      "##il": 1985,
      "▁hands": 1986,
      "##@": 1987,
      "##aste": 1988,
      "##>": 1989,
      "▁flights": 1990,
      "##oth": 1991,
      "##ear": 1992,
      "▁chees": 1993,
      "▁commun": 1994,
      "▁steps": 1995,
      "▁cell": 1996,
      "▁–": 1997,
      "▁put": 1998,
      "##ile": 1999,
      "▁quinoa": 2000,
      "²": 2001,
      "##cause": 2002,
      "##????????????????????????????????": 2003,
      "▁problems": 2004,
      "▁commit": 2005,
      "▁proposal": 2006,
      "##est": 2007,
      "▁companies": 2008,
      "##uit": 2009,
      "▁would": 2010,
      "##ages": 2011,
      "▁page": 2012,
      "##iate": 2013,
      "##ast": 2014,
      "##ms": 2015,
      "▁speech": 2016,
      "##ain": 2017,
      "##cing": 2018,
      "▁living": 2019,
      "▁deb": 2020,
      "▁college": 2021,
      "▁middle": 2022,
      "(": 2023,
      "##gan": 2024,
      "▁experi": 2025,
      "▁coast": 2026,
      "##air": 2027,
      "▁getting": 2028,
      "▁thoughts": 2029,
      "▁party": 2030,
      "##velop": 2031,
      "##ider": 2032,
      "##ented": 2033,
      "▁dou": 2034,
      "▁behin": 2035,
      "▁held": 2036,
      "▁place": 2037,
      "▁fir": 2038,
      "▁enj": 2039,
      "▁‘": 2040,
      "▁allowed": 2041,
      "▁jwww": 2042,
      "▁fix": 2043,
      "##ts": 2044,
      "▁requirements": 2045,
      "▁recog": 2046,
      "▁prop": 2047,
      "▁non": 2048,
      "▁quality": 2049,
      "▁site": 2050,
      "##ared": 2051,
      "▁orders": 2052,
      "▁cir": 2053,
      "▁attem": 2054,
      "▁roo": 2055,
      "▁and": 2056,
      "▁per": 2057,
      "q": 2058,
      "▁thanks": 2059,
      "▁stand": 2060,
      "▁evening": 2061,
      "▁dow": 2062,
      "▁gun": 2063,
      "▁record": 2064,
      "▁prices": 2065,
      "▁agreed": 2066,
      "▁customer": 2067,
      "##ateg": 2068,
      "▁supposed": 2069,
      "▁airlines": 2070,
      "##------": 2071,
      "##erence": 2072,
      "▁finger": 2073,
      "▁leaving": 2074,
      "##aces": 2075,
      "▁univers": 2076,
      "▁’ve": 2077,
      "##ides": 2078,
      "##oy": 2079,
      "▁there": 2080,
      "▁including": 2081,
      "▁work": 2082,
      "##ɔ": 2083,
      "##side": 2084,
      "##β": 2085,
      "##ails": 2086,
      "▁pittsburgh": 2087,
      "##vel": 2088,
      "▁san": 2089,
      "##ays": 2090,
      "▁honey": 2091,
      "œ": 2092,
      "▁unlike": 2093,
      "▁u": 2094,
      "▁`s": 2095,
      "##urn": 2096,
      "▁call": 2097,
      "▁somebody": 2098,
      "▁development": 2099,
      "▁dev": 2100,
      "▁by": 2101,
      "▁pittsbur": 2102,
      "▁society": 2103,
      "##gency": 2104,
      "▁parts": 2105,
      "▁second": 2106,
      "##uk": 2107,
      "##om": 2108,
      "▁custom": 2109,
      "▁describ": 2110,
      "▁until": 2111,
      "▁&am": 2112,
      "▁telephone": 2113,
      "▁achie": 2114,
      "##uted": 2115,
      "▁sea": 2116,
      "▁conditions": 2117,
      "▁word": 2118,
      "▁way": 2119,
      "▁ind": 2120,
      "▁consum": 2121,
      "[UNK]": 2122,
      "##band": 2123,
      "##ging": 2124,
      "##cro": 2125,
      "@": 2126,
      "▁followed": 2127,
      "▁++++": 2128,
      "▁.?": 2129,
      "▁peace": 2130,
      "▁learn": 2131,
      "▁exhib": 2132,
      "▁over": 2133,
      "▁tail": 2134,
      "▁direc": 2135,
      "##tions": 2136,
      "##ore": 2137,
      "▁wed": 2138,
      "▁upon": 2139,
      "▁sug": 2140,
      "##ir": 2141,
      "▁quit": 2142,
      "▁future": 2143,
      "▁button": 2144,
      "##ient": 2145,
      "▁changed": 2146,
      "▁lives": 2147,
      "ʁ": 2148,
      "▁drop": 2149,
      "▁sounds": 2150,
      "▁event": 2151,
      "▁puppy": 2152,
      "##vision": 2153,
      "▁princ": 2154,
      "▁gon": 2155,
      "▁s": 2156,
      "▁dogs": 2157,
      "##ashington": 2158,
      "▁avoid": 2159,
      "▁defense": 2160,
      "▁resp": 2161,
      "▁bath": 2162,
      "##ks": 2163,
      "##²": 2164,
      "▁sat": 2165,
      "▁students": 2166,
      "▁facts": 2167,
      "▁included": 2168,
      "##|": 2169,
      "##ased": 2170,
      "▁bre": 2171,
      "##ties": 2172,
      "▁wait": 2173,
      "▁question": 2174,
      "▁aut": 2175,
      "##ω": 2176,
      "##eration": 2177,
      "▁percent": 2178,
      "▁watching": 2179,
      "##ably": 2180,
      "▁kind": 2181,
      "ł": 2182,
      "ɔ": 2183,
      "▁e-m": 2184,
      "▁ahead": 2185,
      "▁cigar": 2186,
      "▁d": 2187,
      "##uts": 2188,
      "▁running": 2189,
      "▁bought": 2190,
      "##uzz": 2191,
      "##.doc": 2192,
      "##alism": 2193,
      "##as": 2194,
      "▁underst": 2195,
      "▁basil": 2196,
      "▁forwar": 2197,
      "##essed": 2198,
      "▁reality": 2199,
      "##bers": 2200,
      "##war": 2201,
      "▁technologies": 2202,
      "▁cig": 2203,
      "##ium": 2204,
      "▁ride": 2205,
      "##ll": 2206,
      "/": 2207,
      "▁shirt": 2208,
      "▁population": 2209,
      "▁check": 2210,
      "▁ep": 2211,
      "▁madam": 2212,
      "##an": 2213,
      "##own": 2214,
      "▁traffic": 2215,
      "▁became": 2216,
      "▁scienti": 2217,
      "##ε": 2218,
      "##owl": 2219,
      "▁feed": 2220,
      "##gy": 2221,
      "▁cris": 2222,
      "▁weekend": 2223,
      "##amples": 2224,
      "##io": 2225,
      "##—": 2226,
      "▁prov": 2227,
      "▁culture": 2228,
      "▁airlin": 2229,
      "▁….": 2230,
      "##ous": 2231,
      "▁others": 2232,
      "##ames": 2233,
      "▁manag": 2234,
      "▁really": 2235,
      "##iod": 2236,
      "▁ke": 2237,
      "▁planning": 2238,
      "▁always": 2239,
      "▁critic": 2240,
      "▁thou": 2241,
      "##ived": 2242,
      "##ugh": 2243,
      "▁bottle": 2244,
      "▁notic": 2245,
      "▁levels": 2246,
      "##ces": 2247,
      "▁ser": 2248,
      "▁range": 2249,
      "▁pm": 2250,
      "##act": 2251,
      "▁saw": 2252,
      "▁assist": 2253,
      "▁ov": 2254,
      "▁ideas": 2255,
      "▁pushed": 2256,
      "##either": 2257,
      "▁connection": 2258,
      "▁guess": 2259,
      "▁mi": 2260,
      "▁banan": 2261,
      "▁labor": 2262,
      "▁chance": 2263,
      "▁minut": 2264,
      "▁throu": 2265,
      "##llow": 2266,
      "##ination": 2267,
      "▁areas": 2268,
      "##ong": 2269,
      "▁secon": 2270,
      "▁chair": 2271,
      "##%": 2272,
      "▁rates": 2273,
      "▁instance": 2274,
      "▁reg": 2275,
      "▁bit": 2276,
      "▁buy": 2277,
      "▁meth": 2278,
      "▁risk": 2279,
      "▁decided": 2280,
      "##ury": 2281,
      "▁fork": 2282,
      "▁pers": 2283,
      "▁company": 2284,
      "▁years": 2285,
      "▁might": 2286,
      "▁different": 2287,
      "##ow": 2288,
      "▁": 2289,
      "▁beneath": 2290,
      "▁belon": 2291,
      "▁corner": 2292,
      "▁....": 2293,
      "▁deal": 2294,
      "ɛ": 2295,
      "▁thinking": 2296,
      "##like": 2297,
      "##ent": 2298,
      "▁mix": 2299,
      "##land": 2300,
      "▁be": 2301,
      "▁---------------------------------------------------------------------------": 2302,
      "##uter": 2303,
      "##ue": 2304,
      "▁dark": 2305,
      "▁box": 2306,
      "▁park": 2307,
      "##oss": 2308,
      "▁tree": 2309,
      "##b": 2310,
      "▁connec": 2311,
      "▁night": 2312,
      "▁bedroom": 2313,
      "▁ques": 2314,
      "▁noise": 2315,
      "##–": 2316,
      "▁about": 2317,
      "▁market": 2318,
      "▁includes": 2319,
      "▁owners": 2320,
      "▁agree": 2321,
      "##eti": 2322,
      "##lem": 2323,
      "##ce": 2324,
      "ʻ": 2325,
      "##ether": 2326,
      "##ycle": 2327,
      "▁baltimore": 2328,
      "▁th": 2329,
      "▁notw": 2330,
      "##our": 2331,
      "##ax": 2332,
      "▁conference": 2333,
      "##ition": 2334,
      "▁looking": 2335,
      "##ly": 2336,
      "▁season": 2337,
      "▁ent": 2338,
      "▁dre": 2339,
      "##!!!!!!!!": 2340,
      "##igh": 2341,
      "##for": 2342,
      "##bon": 2343,
      "▁mil": 2344,
      "▁history": 2345,
      "##ash": 2346,
      "▁game": 2347,
      "##ations": 2348,
      "▁rece": 2349,
      "▁failed": 2350,
      "▁repe": 2351,
      "▁term": 2352,
      "▁starting": 2353,
      "##--": 2354,
      "▁!!!!!": 2355,
      "▁iod": 2356,
      "▁accident": 2357,
      "▁displ": 2358,
      "▁phone": 2359,
      "▁issu": 2360,
      "▁sandwich": 2361,
      "▁op": 2362,
      "▁wednesday": 2363,
      "▁think": 2364,
      "##ility": 2365,
      "▁na": 2366,
      "##sul": 2367,
      "▁rec": 2368,
      "▁conc": 2369,
      "▁it's": 2370,
      "▁sol": 2371,
      "▁sm": 2372,
      "▁been": 2373,
      "▁...................": 2374,
      "▁type": 2375,
      "▁words": 2376,
      "▁king": 2377,
      "▁electric": 2378,
      "##lights": 2379,
      "##oc": 2380,
      "##itch": 2381,
      "##ony": 2382,
      "##º": 2383,
      "▁.........": 2384,
      "▁drug": 2385,
      "▁school": 2386,
      "▁restaurant": 2387,
      "▁chocolate": 2388,
      "▁maintain": 2389,
      "▁location": 2390,
      "▁good": 2391,
      "▁enc": 2392,
      "▁turned": 2393,
      "ρ": 2394,
      "▁bite": 2395,
      "▁stood": 2396,
      "▁fun": 2397,
      "##int": 2398,
      "▁production": 2399,
      "▁coord": 2400,
      "##ject": 2401,
      "##ο": 2402,
      "##kes": 2403,
      "▁thir": 2404,
      "▁bill": 2405,
      "▁help": 2406,
      "##ł": 2407,
      "##vement": 2408,
      "##ker": 2409,
      "▁purpose": 2410,
      "▁wine": 2411,
      "▁holiday": 2412,
      "▁sent": 2413,
      "▁join": 2414,
      "##erated": 2415,
      "##eness": 2416,
      "▁cos": 2417,
      "##if": 2418,
      "▁<<": 2419,
      "##cri": 2420,
      "▁every": 2421,
      "o": 2422,
      "##---": 2423,
      "▁idea": 2424,
      "▁table": 2425,
      "▁....................": 2426,
      "▁milk": 2427,
      "##ocr": 2428,
      ",": 2429,
      "▁education": 2430,
      "##ession": 2431,
      "▁using": 2432,
      "▁inf": 2433,
      "▁industry": 2434,
      "▁administ": 2435,
      "▁disaster": 2436,
      "##ates": 2437,
      "ω": 2438,
      "##•": 2439,
      "▁scen": 2440,
      "▁seen": 2441,
      "##ulated": 2442,
      "▁muse": 2443,
      "##ery": 2444,
      "▁--": 2445,
      "##lions": 2446,
      "▁plants": 2447,
      "▁piece": 2448,
      "##fication": 2449,
      "##alf": 2450,
      "##ri": 2451,
      "##ʒ": 2452,
      "▁trouble": 2453,
      "▁streets": 2454,
      "##uding": 2455,
      "##ν": 2456,
      "▁************************************************": 2457,
      "▁power": 2458,
      "▁hel": 2459,
      "▁note": 2460,
      "##********": 2461,
      "▁ext": 2462,
      "##ying": 2463,
      "##mate": 2464,
      "▁fear": 2465,
      "▁being": 2466,
      "▁needs": 2467,
      "▁vacation": 2468,
      "▁tool": 2469,
      "##itions": 2470,
      "▁amid": 2471,
      "▁bod": 2472,
      "▁.......": 2473,
      "##ders": 2474,
      "##tion": 2475,
      "▁bun": 2476,
      "▁atmosphere": 2477,
      "▁child": 2478,
      "▁kids": 2479,
      "▁**********": 2480,
      "##ught": 2481,
      "▁rem": 2482,
      "▁give": 2483,
      "##au": 2484,
      "▁minute": 2485,
      "▁citiz": 2486,
      "##ud": 2487,
      "▁marriage": 2488,
      ">": 2489,
      "##cc": 2490,
      "▁discussion": 2491,
      "▁roll": 2492,
      "##oot": 2493,
      "##ads": 2494,
      "▁saying": 2495,
      "▁forgot": 2496,
      "##kin": 2497,
      "▁-": 2498,
      "▁they": 2499,
      "##lar": 2500,
      "##g": 2501,
      "φ": 2502,
      "##ined": 2503,
      "▁tas": 2504,
      "▁den": 2505,
      "▁rule": 2506,
      "##erences": 2507,
      "▁dust": 2508,
      "##aff": 2509,
      "##outh": 2510,
      "##avi": 2511,
      "##ecting": 2512,
      "▁owner": 2513,
      "▁face": 2514,
      "▁opposite": 2515,
      "##ate": 2516,
      "▁eyes": 2517,
      "▁rad": 2518,
      "▁reven": 2519,
      "±": 2520,
      "▁account": 2521,
      "▁!!!!!!!!!!!": 2522,
      "▁mer": 2523,
      "▁works": 2524,
      "##ych": 2525,
      "##ies": 2526,
      "▁stic": 2527,
      "▁ple": 2528,
      "##a": 2529,
      "##anks": 2530,
      "##ign": 2531,
      "▁”": 2532,
      "▁context": 2533,
      "▁sugges": 2534,
      "##low": 2535,
      "▁bud": 2536,
      "▁suit": 2537,
      "▁minus": 2538,
      "##ulture": 2539,
      "##se": 2540,
      "▁known": 2541,
      "▁lic": 2542,
      "▁deli": 2543,
      "▁apple": 2544,
      "▁boat": 2545,
      "▁pan": 2546,
      "▁anth": 2547,
      "▁giving": 2548,
      "▁att": 2549,
      "##age": 2550,
      "▁beach": 2551,
      "▁cru": 2552,
      "##board": 2553,
      "▁united": 2554,
      "▁sports": 2555,
      "▁types": 2556,
      "▁appearance": 2557,
      "▁!.": 2558,
      "##amed": 2559,
      "▁leading": 2560,
      "▁heard": 2561,
      "▁bird": 2562,
      "▁changing": 2563,
      "▁weight": 2564,
      "##ol": 2565,
      "▁!!": 2566,
      "##aign": 2567,
      "▁jo": 2568,
      "▁fi": 2569,
      "▁infl": 2570,
      "##struc": 2571,
      "##ligence": 2572,
      "##clock": 2573,
      "##ains": 2574,
      "##ians": 2575,
      "[SEP]": 2576,
      "▁hour": 2577,
      "##mber": 2578,
      "▁address": 2579,
      "▁fore": 2580,
      "▁closed": 2581,
      "##ified": 2582,
      "▁finished": 2583,
      "##ig": 2584,
      "▁your": 2585,
      "##eep": 2586,
      "▁missed": 2587,
      "##elly": 2588,
      "▁caught": 2589,
      "▁com": 2590,
      "▁ye": 2591,
      "##ost": 2592,
      "▁floor": 2593,
      "▁rout": 2594,
      "▁anal": 2595,
      "[CLS]": 2596,
      "##osite": 2597,
      "##aded": 2598,
      "▁doctor": 2599,
      "##lished": 2600,
      "▁!!!": 2601,
      "##wor": 2602,
      "▁books": 2603,
      "▁airplan": 2604,
      "▁super": 2605,
      "’": 2606,
      "▁wash": 2607,
      "▁tr": 2608,
      "##hood": 2609,
      "▁suc": 2610,
      "##mal": 2611,
      "▁same": 2612,
      "▁mis": 2613,
      "##nut": 2614,
      "##alists": 2615,
      "##in": 2616,
      "▁letter": 2617,
      "##o": 2618,
      "##nd": 2619,
      "▁trust": 2620,
      "##ical": 2621,
      "▁leg": 2622,
      "▁----==": 2623,
      "▁smal": 2624,
      "▁led": 2625,
      "##ise": 2626,
      "▁ord": 2627,
      "▁datab": 2628,
      "▁continue": 2629,
      "▁paper": 2630,
      "##esday": 2631,
      "▁mat": 2632,
      "▁answ": 2633,
      "c": 2634,
      "##ament": 2635,
      "▁seek": 2636,
      "▁success": 2637,
      "▁reading": 2638,
      "##olding": 2639,
      "##orders": 2640,
      "▁exec": 2641,
      "##selve": 2642,
      "##ot": 2643,
      "▁·": 2644,
      "▁myself": 2645,
      "▁mu": 2646,
      "▁@": 2647,
      "##lan": 2648,
      "▁?!": 2649,
      "##ton": 2650,
      "##tics": 2651,
      "▁bet": 2652,
      "▁en": 2653,
      "##face": 2654,
      "##app": 2655,
      "▁acc": 2656,
      "##iation": 2657,
      "▁placed": 2658,
      "▁writ": 2659,
      "##aining": 2660,
      "▁jokes": 2661,
      "##ward": 2662,
      "▁thurs": 2663,
      "▁fligh": 2664,
      "##ect": 2665,
      "▁amount": 2666,
      "▁ice": 2667,
      "▁sandwic": 2668,
      "▁resour": 2669,
      "##ments": 2670,
      "▁loss": 2671,
      "▁intern": 2672,
      "▁house": 2673,
      "▁arrive": 2674,
      "▁sw": 2675,
      "▁restaur": 2676,
      "▁thousands": 2677,
      "▁cost": 2678,
      "▁mo": 2679,
      "##tsbur": 2680,
      "▁hal": 2681,
      "##oice": 2682,
      "▁dol": 2683,
      "▁dro": 2684,
      "▁min": 2685,
      "▁cur": 2686,
      "▁lay": 2687,
      "▁systems": 2688,
      "▁road": 2689,
      "▁___________": 2690,
      "▁airports": 2691,
      "▁self": 2692,
      "##ine": 2693,
      "▁rent": 2694,
      "▁ob": 2695,
      "▁attention": 2696,
      "##dit": 2697,
      "▁prac": 2698,
      "▁drive": 2699,
      "▁returned": 2700,
      "▁beat": 2701,
      "▁spr": 2702,
      "▁import": 2703,
      "▁technology": 2704,
      "▁player": 2705,
      "▁opp": 2706,
      "##ones": 2707,
      "▁laun": 2708,
      "▁organization": 2709,
      "▁trip": 2710,
      "▁teh": 2711,
      "▁intelligence": 2712,
      "##using": 2713,
      "##tures": 2714,
      "##tity": 2715,
      "##ember": 2716,
      "▁ki": 2717,
      "##ter": 2718,
      "##ial": 2719,
      "▁es": 2720,
      "▁fem": 2721,
      "##ia": 2722,
      "##lers": 2723,
      "##kets": 2724,
      "##isting": 2725,
      "##inks": 2726,
      "##hether": 2727,
      "##elf": 2728,
      "##gation": 2729,
      "▁kitchen": 2730,
      "▁sch": 2731,
      "##fl": 2732,
      "▁security": 2733,
      "▁stud": 2734,
      "▁..": 2735,
      "▁'ll": 2736,
      "▁stop": 2737,
      "▁across": 2738,
      "▁pillow": 2739,
      "▁edit": 2740,
      "##mer": 2741,
      "##ables": 2742,
      "▁new": 2743,
      "1": 2744,
      "▁apartment": 2745,
      "▁focus": 2746,
      "▁making": 2747,
      "▁<": 2748,
      "##cr": 2749,
      "▁jobs": 2750,
      "▁tiger": 2751,
      "▁counter": 2752,
      "▁onto": 2753,
      "▁ec": 2754,
      "##ording": 2755,
      "▁skin": 2756,
      "##used": 2757,
      "▁truth": 2758,
      "##very": 2759,
      "▁goal": 2760,
      "▁repres": 2761,
      "▁…": 2762,
      "▁theory": 2763,
      "##œ": 2764,
      "##isation": 2765,
      "##eet": 2766,
      "▁opened": 2767,
      "▁conf": 2768,
      "##olved": 2769,
      "▁downtown": 2770,
      "▁earth": 2771,
      "▁rock": 2772,
      "▁fin": 2773,
      "##ls": 2774,
      "##tim": 2775,
      "##ill": 2776,
      "▁job": 2777,
      "##ured": 2778,
      "▁degre": 2779,
      "▁ne": 2780,
      "##---------------": 2781,
      "▁cle": 2782,
      "▁boy": 2783,
      "##con": 2784,
      "▁used": 2785,
      "▁license": 2786,
      "▁mama": 2787,
      "##lief": 2788,
      "▁port": 2789,
      "▁measures": 2790,
      "##si": 2791,
      "▁:?": 2792,
      "▁um": 2793,
      "##over": 2794,
      "▁sector": 2795,
      "▁stock": 2796,
      "▁counterparty": 2797,
      "▁atop": 2798,
      "▁parliament": 2799,
      "▁costs": 2800,
      "▁light": 2801,
      "##ulations": 2802,
      "▁need": 2803,
      "▁char": 2804,
      "▁science": 2805,
      "▁movement": 2806,
      "##orrow": 2807,
      "##er": 2808,
      "▁man": 2809,
      "▁any": 2810,
      "▁cam": 2811,
      "##ct": 2812,
      "▁travel": 2813,
      "▁clothes": 2814,
      "▁boom": 2815,
      "▁released": 2816,
      "▁services": 2817,
      "▁dey": 2818,
      "▁whom": 2819,
      "##educ": 2820,
      "▁wi": 2821,
      "▁created": 2822,
      "##ence": 2823,
      "▁w/": 2824,
      "##----------------": 2825,
      "▁calling": 2826,
      "▁set": 2827,
      "▁reason": 2828,
      "▁directive": 2829,
      "▁remain": 2830,
      "▁arms": 2831,
      "▁m": 2832,
      "▁course": 2833,
      "▁throughout": 2834,
      "▁name": 2835,
      "▁apar": 2836,
      "##lo": 2837,
      "##ade": 2838,
      "▁st": 2839,
      "k": 2840,
      "▁her": 2841,
      "▁run": 2842,
      "6": 2843,
      "##pp": 2844,
      "▁interest": 2845,
      "▁request": 2846,
      "▁content": 2847,
      "▁un": 2848,
      "▁we": 2849,
      "▁***": 2850,
      "##al": 2851,
      "▁challen": 2852,
      "▁...": 2853,
      "##ual": 2854,
      "▁document": 2855,
      "▁band": 2856,
      "▁progr": 2857,
      "▁fo": 2858,
      "▁killed": 2859,
      "##ves": 2860,
      "▁fixed": 2861,
      "▁foods": 2862,
      ".": 2863,
      "##sus": 2864,
      "▁********************************": 2865,
      "##pping": 2866,
      "▁auth": 2867,
      "▁growing": 2868,
      "▁camera": 2869,
      "##ild": 2870,
      "▁church": 2871,
      "▁quino": 2872,
      "▁’re": 2873,
      "▁purch": 2874,
      "##tiv": 2875,
      "▁aboard": 2876,
      "##fic": 2877,
      "▁hus": 2878,
      "▁putting": 2879,
      "▁life": 2880,
      "▁come": 2881,
      "▁article": 2882,
      "▁within": 2883,
      "▁our": 2884,
      "▁----------------------------------------------------------------------": 2885,
      "▁press": 2886,
      "##ases": 2887,
      "▁lines": 2888,
      "▁pictures": 2889,
      "▁have": 2890,
      "▁exc": 2891,
      "▁hold": 2892,
      "▁finish": 2893,
      "▁sister": 2894,
      "▁choice": 2895,
      "##orm": 2896,
      "▁mov": 2897,
      "##ults": 2898,
      "▁sense": 2899,
      "▁aff": 2900,
      "▁options": 2901,
      "▁week": 2902,
      "▁member": 2903,
      "▁birds": 2904,
      "##v": 2905,
      "▁receive": 2906,
      "▁provides": 2907,
      "##kers": 2908,
      "▁gener": 2909,
      "▁shown": 2910,
      "▁how": 2911,
      "▁condition": 2912,
      "▁answer": 2913,
      "▁internet": 2914,
      "▁with": 2915,
      "▁bel": 2916,
      "##rax": 2917,
      "▁offer": 2918,
      "##uses": 2919,
      "▁furniture": 2920,
      "▁staff": 2921,
      "▁abo": 2922,
      "▁sty": 2923,
      "▁plays": 2924,
      "##iting": 2925,
      "▁belong": 2926,
      "▁hole": 2927,
      "▁wife": 2928,
      "▁contain": 2929,
      "▁el": 2930,
      "‘": 2931,
      "▁pull": 2932,
      "▁pu": 2933,
      "▁independ": 2934,
      "▁wanted": 2935,
      "▁obs": 2936,
      "▁activity": 2937,
      "▁+": 2938,
      "▁speak": 2939,
      "##eeds": 2940,
      "▁je": 2941,
      "▁conte": 2942,
      "▁cock": 2943,
      "##it": 2944,
      "▁ought": 2945,
      "▁who": 2946,
      "##{": 2947,
      "▁playing": 2948,
      "▁nume": 2949,
      "▁moment": 2950,
      "▁garage": 2951,
      "▁break": 2952,
      "▁res": 2953,
      "##overn": 2954,
      "##cess": 2955,
      "##cross": 2956,
      "▁poll": 2957,
      "▁sha": 2958,
      "▁filter": 2959,
      "▁jump": 2960,
      "##ining": 2961,
      "##iss": 2962,
      "▁`": 2963,
      "##ited": 2964,
      "▁cre": 2965,
      "##ling": 2966,
      "▁inn": 2967,
      "##hen": 2968,
      "▁institutions": 2969,
      "▁cal": 2970,
      "▁pants": 2971,
      "▁whale": 2972,
      "##lling": 2973,
      "▁det": 2974,
      "##ank": 2975,
      "▁ears": 2976,
      "▁order": 2977,
      "▁matter": 2978,
      "##til": 2979,
      "▁''": 2980,
      "▁dress": 2981,
      "▁who's": 2982,
      "##cakes": 2983,
      "▁!!!!!!!!!!!!!!!": 2984,
      "j": 2985,
      "▁so": 2986,
      "##uff": 2987,
      "##stem": 2988,
      "▁bowl": 2989,
      "▁reasons": 2990,
      "▁post": 2991,
      "▁find": 2992,
      "▁cat": 2993,
      "▁guar": 2994,
      "##!": 2995,
      "▁decisions": 2996,
      "##ator": 2997,
      "▁bulldozer": 2998,
      "▁sunday": 2999,
      "##ible": 3000,
      "##ema": 3001,
      "▁discussed": 3002,
      "▁talking": 3003,
      "▁cap": 3004,
      "½": 3005,
      "▁head": 3006,
      "##og": 3007,
      "▁try": 3008,
      "##æ": 3009,
      "▁care": 3010,
      "▁developing": 3011,
      "▁reserv": 3012,
      "▁proper": 3013,
      "▁des": 3014,
      "##anc": 3015,
      "▁siz": 3016,
      "▁time": 3017,
      "##to": 3018,
      "▁settlement": 3019,
      "##mon": 3020,
      "_": 3021,
      "##ta": 3022,
      "▁impro": 3023,
      "##ching": 3024,
      "▁mode": 3025,
      "##ested": 3026,
      "▁eye": 3027,
      "▁surp": 3028,
      "▁occ": 3029,
      "##ients": 3030,
      "##form": 3031,
      "▁cats": 3032,
      "▁brought": 3033,
      "▁statement": 3034,
      "▁terror": 3035,
      "▁fax": 3036,
      "##huh": 3037,
      "##tit": 3038,
      "##ners": 3039,
      "▁babies": 3040,
      "##inging": 3041,
      "##iz": 3042,
      "##ym": 3043,
      "▁attack": 3044,
      "▁ou": 3045,
      "▁sleep": 3046,
      "##raph": 3047,
      "▁part": 3048,
      "▁haf": 3049,
      "##alt": 3050,
      "▁center": 3051,
      "▁claim": 3052,
      "▁betw": 3053,
      "▁group": 3054,
      "▁----": 3055,
      "▁brother": 3056,
      "##+----------------": 3057,
      "▁certai": 3058,
      "▁lie": 3059,
      "▁anthrax": 3060,
      "##__": 3061,
      "##yth": 3062,
      "##ored": 3063,
      "ø": 3064,
      "▁ability": 3065,
      "▁incre": 3066,
      "▁adop": 3067,
      "▁themselves": 3068,
      "▁ran": 3069,
      "▁yet": 3070,
      "▁front": 3071,
      "▁fares": 3072,
      "##hic": 3073,
      "##ings": 3074,
      "▁poet": 3075,
      "▁mosqu": 3076,
      "▁writer": 3077,
      "▁tur": 3078,
      "▁his": 3079,
      "▁window": 3080,
      "▁comes": 3081,
      "▁why": 3082,
      "##iew": 3083,
      "▁pop": 3084,
      "##are": 3085,
      "▁bos": 3086,
      "▁chec": 3087,
      "##ice": 3088,
      "▁hat": 3089,
      "##ction": 3090,
      "##lig": 3091,
      "##acket": 3092,
      "▁one": 3093,
      "▁compon": 3094,
      "##work": 3095,
      "▁opin": 3096,
      "##tivity": 3097,
      "##id": 3098,
      "▁mummy": 3099,
      "▁mar": 3100,
      "▁item": 3101,
      "▁row": 3102,
      "▁issue": 3103,
      "▁training": 3104,
      "▁arrived": 3105,
      "▁furn": 3106,
      "▁cent": 3107,
      "▁carried": 3108,
      "▁imm": 3109,
      "##ods": 3110,
      "##rous": 3111,
      "▁tou": 3112,
      "▁veget": 3113,
      "##pen": 3114,
      "##ode": 3115,
      "▁gre": 3116,
      "▁tu": 3117,
      "▁review": 3118,
      "▁ad": 3119,
      "▁search": 3120,
      "ə": 3121,
      "▁were": 3122,
      "▁pal": 3123,
      "▁notwithstanding": 3124,
      "▁point": 3125,
      "##en": 3126,
      "▁por": 3127,
      "▁door": 3128,
      "▁kitty": 3129,
      "▁milit": 3130,
      "##ake": 3131,
      "##ka": 3132,
      "##olog": 3133,
      "▁l": 3134,
      "▁relationship": 3135,
      "▁astride": 3136,
      "##nec": 3137,
      "▁gender": 3138,
      "▁news": 3139,
      "▁ended": 3140,
      "d": 3141,
      "▁july": 3142,
      "▁children": 3143,
      "▁sub": 3144,
      "##ozer": 3145,
      "##j": 3146,
      "##wn": 3147,
      "▁goods": 3148,
      "##ib": 3149,
      "▁mine": 3150,
      "▁aft": 3151,
      "▁sort": 3152,
      "▁guys": 3153,
      "##ience": 3154,
      "▁nt": 3155,
      "▁ow": 3156,
      "##!!!!": 3157,
      "▁eating": 3158,
      "▁written": 3159,
      "##μ": 3160,
      "▁done": 3161,
      "▁herself": 3162,
      "▁proced": 3163,
      "##eted": 3164,
      "##w": 3165,
      "##ows": 3166,
      ")": 3167,
      "▁meat": 3168,
      "▁cros": 3169,
      "##ude": 3170,
      "▁meet": 3171,
      "▁exposure": 3172,
      "##'re": 3173,
      "▁waiting": 3174,
      "▁visited": 3175,
      "▁clothing": 3176,
      "▁writers": 3177,
      "▁mir": 3178,
      "▁prof": 3179,
      "##uth": 3180,
      "##iron": 3181,
      "##ards": 3182,
      "▁pred": 3183,
      "▁atmos": 3184,
      "▁americ": 3185,
      "▁film": 3186,
      "▁hist": 3187,
      "▁instead": 3188,
      "▁plenty": 3189,
      "▁system": 3190,
      "▁'re": 3191,
      "▁rate": 3192,
      "▁mili": 3193,
      "▁peop": 3194,
      "▁horses": 3195,
      "##ute": 3196,
      "▁stopped": 3197,
      "^": 3198,
      "▁ai": 3199,
      "▁understanding": 3200,
      "##imore": 3201,
      "##uh": 3202,
      "▁artic": 3203,
      "##ges": 3204,
      "##ater": 3205,
      "##www": 3206,
      "▁nap": 3207,
      "##(": 3208,
      "▁din": 3209,
      "▁design": 3210,
      "##______": 3211,
      "##self": 3212,
      "▁tal": 3213,
      "\"": 3214,
      "▁woman": 3215,
      "##oul": 3216,
      "▁une": 3217,
      "▁candid": 3218,
      "##ʃ": 3219,
      "▁daddy": 3220,
      "▁appl": 3221,
      "▁thous": 3222,
      "▁circum": 3223,
      "▁classes": 3224,
      "▁surface": 3225,
      "▁schools": 3226,
      "▁hor": 3227,
      "▁cor": 3228,
      "▁scale": 3229,
      "##imp": 3230,
      "##ground": 3231,
      "▁tried": 3232,
      "▁bri": 3233,
      "##]": 3234,
      "▁plans": 3235,
      "▁mail": 3236,
      "▁scr": 3237,
      "▁s/he": 3238,
      "▁fill": 3239,
      "▁law": 3240,
      "##aper": 3241,
      "▁conflic": 3242,
      "▁arri": 3243,
      "▁trans": 3244,
      "▁views": 3245,
      "▁die": 3246,
      "▁))": 3247,
      "▁land": 3248,
      "ι": 3249,
      "##ithstanding": 3250,
      "##ghting": 3251,
      "▁!": 3252,
      "##elines": 3253,
      "▁typ": 3254,
      "▁stay": 3255,
      "▁trou": 3256,
      "##ou": 3257,
      "▁material": 3258,
      "▁depar": 3259,
      "▁expos": 3260,
      "▁weapons": 3261,
      "▁tie": 3262,
      "▁requi": 3263,
      "##ruc": 3264,
      "▁given": 3265,
      "▁poss": 3266,
      "▁author": 3267,
      "▁increased": 3268,
      "▁either": 3269,
      "▁pocket": 3270,
      "##ants": 3271,
      "##nly": 3272,
      "▁c": 3273,
      "▁!?!": 3274,
      "▁cause": 3275,
      "▁ours": 3276,
      "▁g": 3277,
      "▁master": 3278,
      "▁&amp;": 3279,
      "▁vehic": 3280,
      "▁star": 3281,
      "`": 3282,
      "▁baby": 3283,
      "▁sign": 3284,
      "▁added": 3285,
      "▁tonight": 3286,
      "▁food": 3287,
      "##jects": 3288,
      "▁fly": 3289,
      "▁mag": 3290,
      "▁chee": 3291,
      "##ums": 3292,
      "▁phot": 3293,
      "##aves": 3294,
      "▁introduc": 3295,
      "æ": 3296,
      "▁require": 3297,
      "▁soldi": 3298,
      "##alities": 3299,
      "▁ign": 3300,
      "▁breakf": 3301,
      "▁acqui": 3302,
      "▁ear": 3303,
      "▁based": 3304,
      "▁hand": 3305,
      "▁yo": 3306,
      "▁bub": 3307,
      "##ried": 3308,
      "##olve": 3309,
      "▁mentioned": 3310,
      "##ub": 3311,
      "▁list": 3312,
      "▁numbers": 3313,
      "##ret": 3314,
      "▁jud": 3315,
      "▁hall": 3316,
      "▁cow": 3317,
      "##oney": 3318,
      "“": 3319,
      "▁study": 3320,
      "##acy": 3321,
      "##ticip": 3322,
      "▁sec": 3323,
      "▁propos": 3324,
      "##ports": 3325,
      "##mentation": 3326,
      "▁repair": 3327,
      "##tives": 3328,
      "##ident": 3329,
      "##riage": 3330,
      "▁comb": 3331,
      "▁clean": 3332,
      "##ch": 3333,
      "▁mathematics": 3334,
      "▁coming": 3335,
      "##lin": 3336,
      "▁himself": 3337,
      "▁price": 3338,
      "▁tank": 3339,
      "▁asked": 3340,
      "▁career": 3341,
      "##dge": 3342,
      "▁conflict": 3343,
      "▁bring": 3344,
      "▁learning": 3345,
      "##ries": 3346,
      "##?": 3347,
      "▁loan": 3348,
      "##ˈ": 3349,
      "##ilities": 3350,
      "▁treatment": 3351,
      "##oh": 3352,
      "▁philadelphia": 3353,
      "▁fund": 3354,
      "##crib": 3355,
      "▁cover": 3356,
      "▁developed": 3357,
      "▁maint": 3358,
      "##ra": 3359,
      "▁gard": 3360,
      "▁weather": 3361,
      "▁include": 3362,
      "##ope": 3363,
      "##vest": 3364,
      "▁dose": 3365,
      "▁awa": 3366,
      "##ality": 3367,
      "▁another": 3368,
      "##eric": 3369,
      "▁arm": 3370,
      "##el": 3371,
      "##ien": 3372,
      "##eared": 3373,
      "▁research": 3374,
      "▁comm": 3375,
      "##ut": 3376,
      "▁dinner": 3377,
      "##ids": 3378,
      "▁colle": 3379,
      "▁truck": 3380,
      "▁toys": 3381,
      "▁meas": 3382,
      "▁region": 3383,
      "▁besides": 3384,
      "▁conn": 3385,
      "##ood": 3386,
      "##plan": 3387,
      "▁after": 3388,
      "▁meaning": 3389,
      "##anding": 3390,
      "##ots": 3391,
      "▁body": 3392,
      "##ally": 3393,
      "▁less": 3394,
      "##lu": 3395,
      "▁comment": 3396,
      "▁appointment": 3397,
      "▁everyone": 3398,
      "ς": 3399,
      "▁represent": 3400,
      "▁copy": 3401,
      "##ceed": 3402,
      "▁observed": 3403,
      "▁choose": 3404,
      "▁around": 3405,
      "##ef": 3406,
      "▁e-mail": 3407,
      "##ic": 3408,
      "▁more": 3409,
      "▁got": 3410,
      "▁line": 3411,
      "▁medic": 3412,
      "▁trave": 3413,
      "##ould": 3414,
      "▁bottom": 3415,
      "°": 3416,
      "▁nothing": 3417,
      "##‘": 3418,
      "▁obt": 3419,
      "##qu": 3420,
      "▁rememb": 3421,
      "##ious": 3422,
      "##ght": 3423,
      "##ry": 3424,
      "▁>>": 3425,
      "▁fil": 3426,
      "##on": 3427,
      "▁noticed": 3428,
      "▁kill": 3429,
      "▁sum": 3430,
      "▁husband": 3431,
      "▁re": 3432,
      "▁along": 3433,
      "▁carrying": 3434,
      "▁mater": 3435,
      "##ply": 3436,
      "▁imagine": 3437,
      "▁pro": 3438,
      "##ding": 3439,
      "##ord": 3440,
      "▁pages": 3441,
      "##airs": 3442,
      "▁scre": 3443,
      "##fare": 3444,
      "##lly": 3445,
      "▁field": 3446,
      "▁balloon": 3447,
      "▁cities": 3448,
      "▁mot": 3449,
      "▁sugg": 3450,
      "##ich": 3451,
      "▁covered": 3452,
      "▁langu": 3453,
      "▁bar": 3454,
      "▁communication": 3455,
      "▁products": 3456,
      "▁exp": 3457,
      "▁events": 3458,
      "▁wheel": 3459,
      "##aging": 3460,
      "##osed": 3461,
      "▁transportation": 3462,
      "##=": 3463,
      "##rated": 3464,
      "▁where": 3465,
      "▁holding": 3466,
      "▁lea": 3467,
      "▁~": 3468,
      "▁apply": 3469,
      "##ulate": 3470,
      "▁ll": 3471,
      "##isd": 3472,
      "▁bot": 3473,
      "##ant": 3474,
      "▁cl": 3475,
      "▁becom": 3476,
      "▁swim": 3477,
      "▁trav": 3478,
      "▁la": 3479,
      "▁make": 3480,
      "##ere": 3481,
      "##ak": 3482,
      "▁1": 3483,
      "▁ton": 3484,
      "▁take": 3485,
      "▁catch": 3486,
      "##ins": 3487,
      "##rou": 3488,
      "▁territ": 3489,
      "##body": 3490,
      "▁par": 3491,
      "▁r": 3492,
      "##nesday": 3493,
      "▁wol": 3494,
      "▁wat": 3495,
      "▁of": 3496,
      "▁cop": 3497,
      "▁los": 3498,
      "▁department": 3499,
      "▁sti": 3500,
      "▁advice": 3501,
      "▁loved": 3502,
      "▁dwww": 3503,
      "▁consid": 3504,
      "▁those": 3505,
      "##ability": 3506,
      "▁mouth": 3507,
      "▁appro": 3508,
      "##\"": 3509,
      "▁adv": 3510,
      "▁mon": 3511,
      "##mitted": 3512,
      "▁today": 3513,
      "h": 3514,
      "▁bir": 3515,
      "▁ra": 3516,
      "▁charge": 3517,
      "▁get": 3518,
      "▁chan": 3519,
      "▁lose": 3520,
      "5": 3521,
      "##.m": 3522,
      "##uck": 3523,
      "▁pl": 3524,
      "▁policy": 3525,
      "▁euro": 3526,
      "▁id": 3527,
      "▁assistance": 3528,
      "##lications": 3529,
      "▁attemp": 3530,
      "##ons": 3531,
      "β": 3532,
      "##’": 3533,
      "##pers": 3534,
      "▁much": 3535,
      "▁conv": 3536,
      "▁next": 3537,
      "▁swww": 3538,
      "▁yourself": 3539,
      "▁conduc": 3540,
      "##ced": 3541,
      "▁user": 3542,
      "##acked": 3543,
      "##bs": 3544,
      "▁him": 3545,
      "▁base": 3546,
      "▁ap": 3547,
      "▁capac": 3548,
      "##utation": 3549,
      "▁send": 3550,
      "▁stat": 3551,
      "##mb": 3552,
      "▁states": 3553,
      "▁!!!!!!!": 3554,
      "##++++": 3555,
      "▁change": 3556,
      "▁indust": 3557,
      "▁dinosaur": 3558,
      "▁settle": 3559,
      "##tc": 3560,
      "▁government": 3561,
      "##cl": 3562,
      "##isl": 3563,
      "##ional": 3564,
      "▁astr": 3565,
      "##atives": 3566,
      "▁rat": 3567,
      "##h": 3568,
      "▁wild": 3569,
      "▁keep": 3570,
      "##earch": 3571,
      "##cent": 3572,
      "▁afternoon": 3573,
      "▁---------------------------------------------------------------------": 3574,
      "##ount": 3575,
      "##^": 3576,
      "▁from": 3577,
      "##----": 3578,
      "##<": 3579,
      "▁standards": 3580,
      "##ung": 3581,
      "▁motor": 3582,
      "##uss": 3583,
      "▁legisl": 3584,
      "▁challenges": 3585,
      "▁??": 3586,
      "▁cand": 3587,
      "▁du": 3588,
      "▁believe": 3589,
      "▁these": 3590,
      "▁approach": 3591,
      "▁int": 3592,
      "##-------": 3593,
      "##rec": 3594,
      "▁beg": 3595,
      "##ati": 3596,
      "▁intel": 3597,
      "##ette": 3598,
      "▁n't": 3599,
      "▁members": 3600,
      "▁gr": 3601,
      "▁counc": 3602,
      "##su": 3603,
      "▁lo": 3604,
      "▁car": 3605,
      "##olution": 3606,
      "##ever": 3607,
      "▁nation": 3608,
      "▁citi": 3609,
      "▁fire": 3610,
      "▁island": 3611,
      "▁recommend": 3612,
      "##iture": 3613,
      "▁business": 3614,
      "▁ref": 3615,
      "##med": 3616,
      "▁store": 3617,
      "##tie": 3618,
      "##of": 3619,
      "##ool": 3620,
      "##zer": 3621,
      "▁picture": 3622,
      "▁shows": 3623,
      "u": 3624,
      "▁vs": 3625,
      "!": 3626,
      "▁yourselves": 3627,
      "▁iss": 3628,
      "▁questions": 3629,
      "▁bat": 3630,
      "▁behavi": 3631,
      "##ix": 3632,
      "▁balt": 3633,
      "##ices": 3634,
      "▁suggest": 3635,
      "##ading": 3636,
      "##go": 3637,
      "▁hit": 3638,
      "s": 3639,
      "##le": 3640,
      "▁attached": 3641,
      "▁exam": 3642,
      "##uled": 3643,
      "▁such": 3644,
      "▁di": 3645,
      "▁seem": 3646,
      "▁poc": 3647,
      "▁thing": 3648,
      "##gu": 3649,
      "▁decide": 3650,
      "▁size": 3651,
      "##ther": 3652,
      "##ivid": 3653,
      "▁coun": 3654,
      "▁maj": 3655,
      "##pl": 3656,
      "▁wedding": 3657,
      "##man": 3658,
      "##…": 3659,
      "##lication": 3660,
      "▁cour": 3661,
      "##ements": 3662,
      "▁watched": 3663,
      "##craft": 3664,
      "▁inclu": 3665,
      "##der": 3666,
      "▁feels": 3667,
      "▁boo": 3668,
      "▁rep": 3669,
      "##tle": 3670,
      "##edom": 3671,
      "##liament": 3672,
      "▁bi": 3673,
      "##gh": 3674,
      "##ution": 3675,
      "##erate": 3676,
      "▁’d": 3677,
      "▁walked": 3678,
      "▁tent": 3679,
      "▁wou": 3680,
      "▁surv": 3681,
      "##ie": 3682,
      "▁war": 3683,
      "##ʁ": 3684,
      "##lies": 3685,
      "##bur": 3686,
      "▁basis": 3687,
      "##here": 3688,
      "▁inst": 3689,
      "▁sel": 3690,
      "▁feet": 3691,
      "##ents": 3692,
      "▁arr": 3693,
      "##ang": 3694,
      "υ": 3695,
      "▁/": 3696,
      "▁beginning": 3697,
      "▁hund": 3698,
      "##stop": 3699,
      "▁month": 3700,
      "##tice": 3701,
      "▁’s": 3702,
      "▁best": 3703,
      "▁team": 3704,
      "▁—": 3705,
      "▁improve": 3706,
      "▁hav": 3707,
      "##ov": 3708,
      "##ole": 3709,
      "▁speed": 3710,
      "▁shorts": 3711,
      "▁conversation": 3712,
      "▁est": 3713,
      "▁even": 3714,
      "▁flowers": 3715,
      "▁grandmother": 3716,
      "▁but": 3717,
      "▁dat": 3718,
      "▁anything": 3719,
      "▁ve": 3720,
      "▁because": 3721,
      "▁interview": 3722,
      "▁yours": 3723,
      "▁toy": 3724,
      "▁territory": 3725,
      "▁plan": 3726,
      "▁curr": 3727,
      "##ab": 3728,
      "▁world": 3729,
      "▁home": 3730,
      "▁sal": 3731,
      "▁pep": 3732,
      "▁x": 3733,
      "▁pre": 3734,
      "▁an": 3735,
      "▁protect": 3736,
      "▁ver": 3737,
      "##gre": 3738,
      "▁bike": 3739,
      "##acts": 3740,
      "##iled": 3741,
      "▁visa": 3742,
      "▁alt": 3743,
      "▁side": 3744,
      "▁their": 3745,
      "▁apart": 3746,
      "##ints": 3747,
      "▁enjoy": 3748,
      "##iction": 3749,
      "▁seems": 3750,
      "▁pulled": 3751,
      "'": 3752,
      "▁temperature": 3753,
      "▁insp": 3754,
      "▁took": 3755,
      "##ers": 3756,
      "▁anoth": 3757,
      "▁dance": 3758,
      "▁neighbor": 3759,
      "##anted": 3760,
      "▁lady": 3761,
      "▁spoon": 3762,
      "▁sl": 3763,
      "##chie": 3764,
      "▁caused": 3765,
      "##imed": 3766,
      "▁vide": 3767,
      "▁teeth": 3768,
      "▁co": 3769,
      "▁restric": 3770,
      "▁......": 3771,
      "▁diff": 3772,
      "▁o'clock": 3773,
      "▁during": 3774,
      "##ended": 3775,
      "▁chang": 3776,
      "▁trade": 3777,
      "##acking": 3778,
      "▁choo": 3779,
      "##day": 3780,
      "▁dest": 3781,
      "▁hum": 3782,
      "▁arch": 3783,
      "##ze": 3784,
      "▁particip": 3785,
      "▁ch": 3786,
      "##hin": 3787,
      "▁tell": 3788,
      "▁gives": 3789,
      "▁pres": 3790,
      "##)": 3791,
      "▁felt": 3792,
      "▁threw": 3793,
      "##az": 3794,
      "z": 3795,
      "##....": 3796,
      "▁disp": 3797,
      "▁vs.": 3798,
      "▁then": 3799,
      "##ather": 3800,
      "▁model": 3801,
      "▁d'": 3802,
      "##berry": 3803,
      "▁miss": 3804,
      "▁animals": 3805,
      "▁sp": 3806,
      "▁dec": 3807,
      "##ops": 3808,
      "▁destro": 3809,
      "▁’": 3810,
      "##end": 3811,
      "▁fan": 3812,
      "▁cust": 3813,
      "▁death": 3814,
      "▁tv": 3815,
      "▁weeks": 3816,
      "▁grab": 3817,
      "▁mech": 3818,
      "##p": 3819,
      "##ʊ": 3820,
      "▁structure": 3821,
      "▁pizza": 3822,
      "▁chap": 3823,
      "▁task": 3824,
      "▁“": 3825,
      "▁uhhuh": 3826,
      "ʃ": 3827,
      "▁encour": 3828,
      "▁legos": 3829,
      "▁colleag": 3830,
      "▁fam": 3831,
      "##round": 3832,
      "##pt": 3833,
      "##eces": 3834,
      "▁ju": 3835,
      "▁enab": 3836,
      "##rup": 3837,
      "▁qu": 3838,
      "▁conce": 3839,
      "▁bas": 3840,
      "##____": 3841,
      "▁camer": 3842,
      "##ley": 3843,
      "▁kept": 3844,
      "##ogn": 3845,
      "▁lights": 3846,
      "##ulation": 3847,
      "▁money": 3848,
      "##encies": 3849,
      "▁are": 3850,
      "▁wonder": 3851,
      "▁among": 3852,
      "▁gen": 3853,
      "▁rele": 3854,
      "##onstr": 3855,
      "##ʻ": 3856,
      "▁hers": 3857,
      "▁right": 3858,
      "##zation": 3859,
      "##orn": 3860,
      "##rit": 3861,
      "##anges": 3862,
      "▁forces": 3863,
      "▁assu": 3864,
      "##ali": 3865,
      "▁big": 3866,
      "##derst": 3867,
      "▁machine": 3868,
      "▁accep": 3869,
      "##af": 3870,
      "▁glass": 3871,
      "▁on": 3872,
      "##uch": 3873,
      "##ense": 3874,
      "##----------": 3875,
      "##iti": 3876,
      "##rote": 3877,
      "i": 3878,
      "▁follow": 3879,
      "##time": 3880,
      "▁estim": 3881,
      "##esting": 3882,
      "▁rev": 3883,
      "▁book": 3884,
      "##ick": 3885,
      "##ithst": 3886,
      "▁o": 3887,
      "▁schol": 3888,
      "▁november": 3889,
      "##ving": 3890,
      "▁insur": 3891,
      "##_": 3892,
      "|": 3893,
      "▁attacks": 3894,
      "▁al": 3895,
      "▁lots": 3896,
      "▁decades": 3897,
      "▁nor": 3898,
      "▁legislation": 3899,
      "##ocracy": 3900,
      "▁belief": 3901,
      "▁species": 3902,
      "▁notice": 3903,
      "▁made": 3904,
      "▁budget": 3905,
      "▁stuff": 3906,
      "▁things": 3907,
      "▁moon": 3908,
      "▁tax": 3909,
      "▁ti": 3910,
      "▁between": 3911,
      "▁thru": 3912,
      "▁capacity": 3913,
      "▁sy": 3914,
      "▁knoc": 3915,
      "▁.....": 3916,
      "##erved": 3917,
      "##ars": 3918,
      "##υ": 3919,
      "▁families": 3920,
      "▁ur": 3921,
      "▁liked": 3922,
      "##friend": 3923,
      "▁consider": 3924,
      "##sed": 3925,
      "▁music": 3926,
      "▁admin": 3927,
      "##os": 3928,
      "▁con": 3929,
      "▁coup": 3930,
      "##dle": 3931,
      "▁indic": 3932,
      "▁thursday": 3933,
      "▁said": 3934,
      "▁employment": 3935,
      "▁arrang": 3936,
      "##ape": 3937,
      "▁cond": 3938,
      "▁do": 3939,
      "##ip": 3940,
      "▁experience": 3941,
      "▁cove": 3942,
      "##fe": 3943,
      "##ait": 3944,
      "##br": 3945,
      "▁application": 3946,
      "▁sales": 3947,
      "##ory": 3948,
      "▁ab": 3949,
      "##oods": 3950,
      "##min": 3951,
      "▁proposed": 3952,
      "##order": 3953,
      "▁underneath": 3954,
      "##ber": 3955,
      "##omm": 3956,
      "▁teacher": 3957,
      "##,": 3958,
      "▁dist": 3959,
      "▁water": 3960,
      "##ument": 3961,
      "##tai": 3962,
      "▁-----------------": 3963,
      "▁aspects": 3964,
      "##ograph": 3965,
      "▁'": 3966,
      "▁cook": 3967,
      "▁received": 3968,
      "##-": 3969,
      "▁in": 3970,
      "▁noone": 3971,
      "▁atlan": 3972,
      "▁jun": 3973,
      "▁proble": 3974,
      "▁likes": 3975,
      "##ack": 3976,
      "▁gone": 3977,
      "▁,?": 3978,
      "##==": 3979,
      "▁voice": 3980,
      "▁emp": 3981,
      "##abb": 3982,
      "▁away": 3983,
      "##ises": 3984,
      "##augh": 3985,
      "▁sli": 3986,
      "▁root": 3987,
      "▁helped": 3988,
      "μ": 3989,
      "▁gi": 3990,
      "##ume": 3991,
      "▁ca": 3992,
      "▁which": 3993,
      "##rew": 3994,
      "▁vote": 3995,
      "##av": 3996,
      "##ump": 3997,
      "##im": 3998,
      "▁according": 3999,
      "▁code": 4000,
      "▁cage": 4001,
      "▁perform": 4002,
      "▁b": 4003,
      "▁vac": 4004,
      "##ched": 4005,
      "▁administration": 4006,
      "##ting": 4007,
      "##ell": 4008,
      "▁princip": 4009,
      "##ators": 4010,
      "▁oneself": 4011,
      "▁add": 4012,
      "##oug": 4013,
      "▁live": 4014,
      "▁asp": 4015,
      "##n": 4016,
      "▁denver": 4017,
      "##ished": 4018,
      "▁var": 4019,
      "##ivers": 4020,
      "##elt": 4021,
      "▁council": 4022,
      "##ort": 4023,
      "▁quite": 4024,
      "▁establish": 4025,
      "##rop": 4026,
      "##*": 4027,
      "▁fare": 4028,
      "##**": 4029,
      "▁!!!!": 4030,
      "▁reach": 4031,
      "▁bu": 4032,
      "▁no": 4033,
      "▁washington": 4034,
      "##acted": 4035,
      "##ar": 4036,
      "▁image": 4037,
      "▁ed": 4038,
      "▁offices": 4039,
      "▁hundreds": 4040,
      "▁mouse": 4041,
      "▁cooperation": 4042,
      "▁pe": 4043,
      "▁pati": 4044,
      "▁generation": 4045,
      "▁econom": 4046,
      "▁ide": 4047,
      "▁born": 4048,
      "▁hos": 4049,
      "##idden": 4050,
      "▁relations": 4051,
      "▁li": 4052,
      "▁bur": 4053,
      "##gin": 4054,
      "▁markets": 4055,
      "▁rest": 4056,
      "##ron": 4057,
      "##adel": 4058,
      "▁offic": 4059,
      "▁wee": 4060,
      "▁'ve": 4061,
      "▁eggs": 4062,
      "▁points": 4063,
      "▁web": 4064,
      "—": 4065,
      "▁friday": 4066,
      "▁meeting": 4067,
      "▁foot": 4068,
      "▁it": 4069,
      "▁someone": 4070,
      "▁bec": 4071,
      "▁values": 4072,
      "##ned": 4073,
      "##use": 4074,
      "▁camp": 4075,
      "º": 4076,
      "##aur": 4077,
      "▁se": 4078,
      "▁pill": 4079,
      "▁er": 4080,
      "▁environment": 4081,
      "▁]": 4082,
      "▁imp": 4083,
      "▁micro": 4084,
      "▁drink": 4085,
      "▁tar": 4086,
      "▁newsp": 4087,
      "▁want": 4088,
      "▁br": 4089,
      "##ancing": 4090,
      "▁!!!!!!!!!!!!!": 4091,
      "▁came": 4092,
      "▁seat": 4093,
      "▁2": 4094,
      "▁partners": 4095
    }
  }
}