{
  "version": "1.0",
  "truncation": null,
  "padding": null,
  "added_tokens": [
    {
      "id": 732,
      "content": "[SEP]",
      "single_word": false,
      "lstrip": false,
      "rstrip": false,
      "normalized": false,
      "special": true
    },
    {
      "id": 1178,
      "content": "[MASK]",
      "single_word": false,
      "lstrip": false,
      "rstrip": false,
      "normalized": false,
      "special": true
    },
    {
      "id": 1931,
      "content": "[PAD]",
      "single_word": false,
      "lstrip": false,
      "rstrip": false,
      "normalized": false,
      "special": true
    },
    {
      "id": 3066,
      "content": "[CLS]",
      "single_word": false,
      "lstrip": false,
      "rstrip": false,
      "normalized": false,
      "special": true
    },
    {
      "id": 3991,
      "content": "[UNK]",
      "single_word": false,
      "lstrip": false,
      "rstrip": false,
      "normalized": false,
      "special": true
    }
  ],
  "normalizer": {
    "type": "Sequence",
    "normalizers": [
      {
        "type": "NFD"
      },
      {
        "type": "Lowercase"
      },
      {
        "type": "StripAccents"
      }
    ]
  },
  "pre_tokenizer": {
    "type": "Sequence",
    "pretokenizers": [
      {
        "type": "Metaspace",
        "replacement": "▁",
        "prepend_scheme": "always",
        "split": true
      }
    ]
  },
  "post_processor": {
    "type": "TemplateProcessing",
    "single": [
      {
        "SpecialToken": {
          "id": "[CLS]",
          "type_id": 0
        }
      },
      {
        "Sequence": {
          "id": "A",
          "type_id": 0
        }
      },
      {
        "SpecialToken": {
          "id": "[SEP]",
          "type_id": 0
        }
      }
    ],
    "pair": [
      {
        "SpecialToken": {
          "id": "[CLS]",
          "type_id": 0
        }
      },
      {
        "Sequence": {
          "id": "A",
          "type_id": 0
        }
      },
      {
        "SpecialToken": {
          "id": "[SEP]",
          "type_id": 0
        }
      },
      {
        "Sequence": {
          "id": "B",
          "type_id": 1
        }
      },
      {
        "SpecialToken": {
          "id": "[SEP]",
          "type_id": 1
        }
      }
    ],
    "special_tokens": {
      "[CLS]": {
        "id": "[CLS]",
        "ids": [
          3066
        ],
        "tokens": [
          "[CLS]"
        ]
      },
      "[SEP]": {
        "id": "[SEP]",
        "ids": [
          732
        ],
        "tokens": [
          "[SEP]"
        ]
      }
    }
  },
  "decoder": {
    "type": "Metaspace",
    "replacement": "▁",
    "prepend_scheme": "always",
    "split": true
  },
  "model": {
    "type": "BPE",
    "dropout": null,
    "unk_token": "[UNK]",
    "continuing_subword_prefix": null,
    "end_of_word_suffix": null,
    "fuse_unk": false,
    "byte_fallback": false,
    "ignore_merges": false,
    "vocab": {
      "▁followed": 0,
      "so": 1,
      "▁text": 2,
      "▁exper": 3,
      "▁non": 4,
      "▁displ": 5,
      "▁credit": 6,
      "t": 7,
      "▁company": 8,
      "place": 9,
      "ally": 10,
      "ather": 11,
      "ters": 12,
      "ied": 13,
      "▁future": 14,
      "▁die": 15,
      "▁bott": 16,
      "▁vac": 17,
      "temp": 18,
      "ognition": 19,
      "huh": 20,
      "uh": 21,
      "▁pie": 22,
      "▁step": 23,
      "qu": 24,
      "▁polic": 25,
      "▁outside": 26,
      "▁tu": 27,
      "▁face": 28,
      "ule": 29,
      "▁technologies": 30,
      "▁al": 31,
      "▁hea": 32,
      "▁case": 33,
      "▁dev": 34,
      "▁check": 35,
      "rested": 36,
      "▁show": 37,
      "lity": 38,
      "ees": 39,
      "▁words": 40,
      "▁&": 41,
      "▁given": 42,
      "▁resources": 43,
      "yet": 44,
      "▁decisions": 45,
      "ances": 46,
      "▁point": 47,
      "ount": 48,
      "▁quar": 49,
      "▁mi": 50,
      "amples": 51,
      "▁station": 52,
      "ashington": 53,
      "adel": 54,
      "▁mode": 55,
      "▁atlanta": 56,
      "▁hold": 57,
      "▁role": 58,
      "ploy": 59,
      "▁sign": 60,
      "ors": 61,
      "▁concept": 62,
      "▁chicken": 63,
      "ed": 64,
      "▁concl": 65,
      "▁expos": 66,
      "▁sec": 67,
      "▁air": 68,
      "▁circ": 69,
      "▁jump": 70,
      "sel": 71,
      "▁many": 72,
      "▁writ": 73,
      "▁ever": 74,
      "akes": 75,
      "ests": 76,
      "edom": 77,
      "ient": 78,
      "se": 79,
      "▁lo": 80,
      "▁innovation": 81,
      "▁poli": 82,
      "▁members": 83,
      "▁hus": 84,
      "▁tal": 85,
      "▁turned": 86,
      "▁leaves": 87,
      "▁settle": 88,
      "▁um": 89,
      "ø": 90,
      "▁animal": 91,
      "▁appl": 92,
      "▁avoid": 93,
      "▁purpose": 94,
      "▁cigar": 95,
      "ching": 96,
      "▁story": 97,
      "▁cop": 98,
      "▁bed": 99,
      "ring": 100,
      "▁manager": 101,
      "ually": 102,
      "▁something": 103,
      "▁dog": 104,
      "----": 105,
      "▁quality": 106,
      "▁monkey": 107,
      "▁abo": 108,
      "▁towards": 109,
      "▁aut": 110,
      "ary": 111,
      "hether": 112,
      "my": 113,
      "▁context": 114,
      "▁myself": 115,
      "▁advice": 116,
      "▁respect": 117,
      "▁brain": 118,
      "d": 119,
      "▁onto": 120,
      "a": 121,
      "▁mathema": 122,
      "▁workers": 123,
      "▁mot": 124,
      "vest": 125,
      "ah": 126,
      "ourn": 127,
      "ac": 128,
      "▁our": 129,
      "▁effort": 130,
      "▁change": 131,
      "oint": 132,
      "▁attemp": 133,
      "▁potty": 134,
      "▁exch": 135,
      "▁famili": 136,
      "▁per": 137,
      "▁sli": 138,
      "▁orders": 139,
      "▁has": 140,
      "▁citi": 141,
      "erences": 142,
      "▁fail": 143,
      "▁mechan": 144,
      "▁best": 145,
      "ived": 146,
      "▁pain": 147,
      "▁opin": 148,
      "oods": 149,
      "▁techn": 150,
      "pr": 151,
      "oke": 152,
      "▁neither": 153,
      "▁enc": 154,
      "ute": 155,
      "▁uh": 156,
      "▁end": 157,
      "▁write": 158,
      "derstanding": 159,
      "▁observ": 160,
      "bo": 161,
      "▁t": 162,
      "▁ext": 163,
      "▁office": 164,
      "duc": 165,
      "▁bod": 166,
      "abb": 167,
      "▁bugs": 168,
      "▁{": 169,
      "º": 170,
      "ats": 171,
      "▁look": 172,
      "²": 173,
      "p;": 174,
      "▁murder": 175,
      "▁counterpar": 176,
      "▁next": 177,
      "bs": 178,
      "▁vacation": 179,
      "·": 180,
      ",": 181,
      "ligh": 182,
      "isted": 183,
      "▁walked": 184,
      "▁question": 185,
      "▁att": 186,
      "▁high": 187,
      "▁cha": 188,
      "▁had": 189,
      "▁account": 190,
      "▁aircraft": 191,
      "ottable": 192,
      "▁type": 193,
      "ple": 194,
      "▁wom": 195,
      "+": 196,
      "▁inst": 197,
      "▁hit": 198,
      "ilities": 199,
      "▁nature": 200,
      "▁prep": 201,
      "▁below": 202,
      "▁yester": 203,
      "▁conduc": 204,
      "em": 205,
      "▁b/c": 206,
      "eration": 207,
      "▁'s": 208,
      "ail": 209,
      "▁tem": 210,
      "▁century": 211,
      "▁gi": 212,
      "▁`": 213,
      "tion": 214,
      "ti": 215,
      "hold": 216,
      "all": 217,
      "▁thous": 218,
      "▁recip": 219,
      "▁gro": 220,
      "▁pro": 221,
      "▁der": 222,
      "▁rec": 223,
      "▁web": 224,
      "▁susp": 225,
      "▁attention": 226,
      "▁bug": 227,
      "▁repres": 228,
      "**********************************": 229,
      "▁now": 230,
      "6": 231,
      "tions": 232,
      "▁nobody": 233,
      "▁run": 234,
      "▁location": 235,
      "▁broke": 236,
      "▁n't": 237,
      "▁been": 238,
      "▁river": 239,
      "▁pati": 240,
      "▁care": 241,
      "▁cases": 242,
      "▁baby": 243,
      "▁pres": 244,
      "craft": 245,
      "crib": 246,
      "▁pig": 247,
      "jo": 248,
      "ef": 249,
      "ost": 250,
      "ash": 251,
      "▁sing": 252,
      "▁event": 253,
      "per": 254,
      "▁paul": 255,
      "▁prom": 256,
      "ister": 257,
      "▁must": 258,
      "tee": 259,
      "▁apple": 260,
      "▁great": 261,
      "▁users": 262,
      "au": 263,
      "▁offered": 264,
      "▁provided": 265,
      "▁price": 266,
      "▁under": 267,
      "▁ass": 268,
      "struc": 269,
      "▁wrote": 270,
      "gu": 271,
      "▁ai": 272,
      "▁ov": 273,
      "▁finger": 274,
      "oles": 275,
      "▁glass": 276,
      "▁muse": 277,
      "▁spider": 278,
      "fo": 279,
      "▁wanted": 280,
      "ting": 281,
      "▁g": 282,
      "▁bee": 283,
      "▁few": 284,
      "pp": 285,
      "▁lat": 286,
      "▁ey": 287,
      "▁his": 288,
      "▁guar": 289,
      "▁third": 290,
      "▁li": 291,
      "▁!!!!": 292,
      "▁church": 293,
      "▁breakfast": 294,
      "rel": 295,
      "▁watch": 296,
      "▁director": 297,
      "▁news": 298,
      "ded": 299,
      "ode": 300,
      "▁wol": 301,
      "ising": 302,
      "▁did": 303,
      "▁money": 304,
      "▁develop": 305,
      "▁pittsbur": 306,
      "▁families": 307,
      "▁gone": 308,
      "▁versus": 309,
      "iss": 310,
      "▁string": 311,
      "▁hotel": 312,
      "ide": 313,
      "▁ju": 314,
      "ian": 315,
      "ass": 316,
      "▁,": 317,
      "ences": 318,
      "▁brought": 319,
      "▁sunday": 320,
      "▁test": 321,
      "▁covered": 322,
      "ients": 323,
      "▁adults": 324,
      "▁atop": 325,
      "▁commission": 326,
      "▁lab": 327,
      "ft": 328,
      "ure": 329,
      "▁aside": 330,
      "▁wall": 331,
      "▁opposite": 332,
      "ct": 333,
      "υ": 334,
      "ket": 335,
      "▁career": 336,
      "▁an": 337,
      "idden": 338,
      "▁movie": 339,
      "tc": 340,
      "▁struc": 341,
      "▁laws": 342,
      "ap": 343,
      "ounds": 344,
      "ybody": 345,
      "▁supposed": 346,
      "aith": 347,
      "ot": 348,
      "elf": 349,
      "▁force": 350,
      "ps": 351,
      "her": 352,
      "▁scen": 353,
      "▁smal": 354,
      "lling": 355,
      "▁influence": 356,
      "▁leading": 357,
      "▁<<": 358,
      "▁human": 359,
      "ion": 360,
      "▁emp": 361,
      "onstr": 362,
      "works": 363,
      "▁legisl": 364,
      "ak": 365,
      "▁stage": 366,
      "ighb": 367,
      "usion": 368,
      "ival": 369,
      "▁described": 370,
      "of": 371,
      "▁fir": 372,
      "▁dec": 373,
      "li": 374,
      "▁resour": 375,
      "▁litt": 376,
      "▁ver": 377,
      "▁prot": 378,
      "lig": 379,
      "▁growing": 380,
      "▁statement": 381,
      "▁gall": 382,
      "la": 383,
      "▁november": 384,
      "▁pic": 385,
      "▁ya": 386,
      "▁birds": 387,
      "pt": 388,
      "▁came": 389,
      "oted": 390,
      "▁speed": 391,
      "▁listen": 392,
      "▁match": 393,
      "▁concern": 394,
      "earance": 395,
      "▁sol": 396,
      "▁property": 397,
      "ili": 398,
      "▁mom": 399,
      "▁fut": 400,
      "▁exh": 401,
      "▁accep": 402,
      ">": 403,
      "▁environment": 404,
      "▁about": 405,
      "▁gave": 406,
      "▁this": 407,
      "▁changes": 408,
      "here": 409,
      "r": 410,
      "▁but": 411,
      "▁your": 412,
      "▁not": 413,
      "▁gun": 414,
      "ense": 415,
      "▁-----------------": 416,
      "▁expect": 417,
      "▁hel": 418,
      "berry": 419,
      "▁compan": 420,
      "▁circum": 421,
      "ption": 422,
      "▁juice": 423,
      "▁wh": 424,
      "▁consum": 425,
      "▁camer": 426,
      "▁pull": 427,
      "▁comb": 428,
      "atives": 429,
      "▁explained": 430,
      "▁po": 431,
      "▁talk": 432,
      "▁should": 433,
      "”": 434,
      "▁debate": 435,
      "▁critic": 436,
      "▁chocolate": 437,
      "vail": 438,
      "▁terms": 439,
      "alk": 440,
      "▁loved": 441,
      "ood": 442,
      "▁grow": 443,
      "▁meat": 444,
      "▁wait": 445,
      "▁citizens": 446,
      "▁countries": 447,
      "▁television": 448,
      "▁fields": 449,
      "lar": 450,
      "______": 451,
      "olved": 452,
      "▁letter": 453,
      "dit": 454,
      "♥": 455,
      "lation": 456,
      "▁ones": 457,
      "▁s": 458,
      "4": 459,
      "ums": 460,
      "▁st": 461,
      "ric": 462,
      "ka": 463,
      "cakes": 464,
      "ild": 465,
      "ea": 466,
      "▁mess": 467,
      "▁bun": 468,
      "▁pressure": 469,
      "dge": 470,
      "▁period": 471,
      "▁sugar": 472,
      "▁held": 473,
      "read": 474,
      "▁_______": 475,
      "▁hal": 476,
      "ders": 477,
      "▁ref": 478,
      "▁plays": 479,
      "▁consid": 480,
      "▁state": 481,
      "▁laura": 482,
      "▁am": 483,
      "▁alread": 484,
      "▁cloth": 485,
      "▁bread": 486,
      "ank": 487,
      "for": 488,
      "esday": 489,
      "▁pa": 490,
      "▁el": 491,
      "▁!!!": 492,
      "ility": 493,
      "▁fix": 494,
      "▁knows": 495,
      "ich": 496,
      "▁glasses": 497,
      "vision": 498,
      "▁coun": 499,
      "▁says": 500,
      "▁counterparty": 501,
      "▁.?": 502,
      "▁month": 503,
      "ck": 504,
      "▁plane": 505,
      "▁conv": 506,
      "sing": 507,
      "▁production": 508,
      "▁arrives": 509,
      "outs": 510,
      "▁dogg": 511,
      "▁value": 512,
      "eces": 513,
      "▁plans": 514,
      "▁sales": 515,
      "▁vet": 516,
      "▁e": 517,
      "tive": 518,
      "▁belief": 519,
      "▁based": 520,
      "ograph": 521,
      "ws": 522,
      "▁seat": 523,
      "uth": 524,
      "▁mat": 525,
      "▁have": 526,
      "▁decl": 527,
      "ina": 528,
      "war": 529,
      "cept": 530,
      "▁front": 531,
      "isting": 532,
      "▁makes": 533,
      "▁bit": 534,
      "▁letters": 535,
      "▁seas": 536,
      "▁spir": 537,
      "▁proced": 538,
      "oun": 539,
      "▁ob": 540,
      "ither": 541,
      "▁really": 542,
      "iod": 543,
      "▁produc": 544,
      "▁ask": 545,
      "▁risk": 546,
      "▁giving": 547,
      "▁windows": 548,
      "eb": 549,
      "▁im": 550,
      "velop": 551,
      "▁wine": 552,
      "▁fax": 553,
      "▁like": 554,
      "ł": 555,
      "▁|--------+----------------": 556,
      "▁mrs": 557,
      "▁pre": 558,
      "▁ne": 559,
      ";": 560,
      "ots": 561,
      "ʃ": 562,
      "▁ris": 563,
      "ven": 564,
      "▁!!!!!!": 565,
      "▁neighb": 566,
      "▁mathematics": 567,
      "▁culture": 568,
      "ivers": 569,
      "▁surpr": 570,
      "▁created": 571,
      "aq": 572,
      "▁friday": 573,
      "ows": 574,
      "▁surp": 575,
      "ʊ": 576,
      "▁---------------------------------": 577,
      "anted": 578,
      "▁sl": 579,
      "▁it": 580,
      "▁comments": 581,
      "▁2": 582,
      "▁enjoy": 583,
      "stem": 584,
      "▁sy": 585,
      "▁noon": 586,
      "▁could": 587,
      "▁accepted": 588,
      "▁interests": 589,
      "utation": 590,
      "▁performance": 591,
      "▁stic": 592,
      "▁pal": 593,
      "▁over": 594,
      "▁offici": 595,
      "▁film": 596,
      "pos": 597,
      "ugg": 598,
      "▁plus": 599,
      "▁re": 600,
      "urn": 601,
      "▁.......": 602,
      "▁schedule": 603,
      "▁board": 604,
      "▁whale": 605,
      "▁delivery": 606,
      "▁becom": 607,
      "**": 608,
      "ements": 609,
      "▁nation": 610,
      "▁neck": 611,
      "▁grass": 612,
      "pped": 613,
      "▁!": 614,
      "▁loss": 615,
      "▁ans": 616,
      "ess": 617,
      "resent": 618,
      "▁intended": 619,
      "▁departing": 620,
      "get": 621,
      "▁planning": 622,
      "ination": 623,
      "ened": 624,
      "▁the": 625,
      "▁shower": 626,
      "▁ahead": 627,
      "▁coord": 628,
      "um": 629,
      "▁mentioned": 630,
      "▁situation": 631,
      "▁fly": 632,
      "▁wilt": 633,
      "▁achieve": 634,
      "▁vers": 635,
      "▁ke": 636,
      "owed": 637,
      "▁action": 638,
      "▁message": 639,
      "$": 640,
      "bly": 641,
      "9": 642,
      "▁eff": 643,
      "▁studies": 644,
      "ind": 645,
      "▁guid": 646,
      "▁mother": 647,
      "alist": 648,
      "olution": 649,
      "▁th": 650,
      "▁incl": 651,
      "▁arms": 652,
      "dy": 653,
      "▁cent": 654,
      "tit": 655,
      "kets": 656,
      "rol": 657,
      "▁enj": 658,
      "▁written": 659,
      "ective": 660,
      "▁mater": 661,
      "ledge": 662,
      "▁at": 663,
      "▁ep": 664,
      "▁heard": 665,
      "▁foot": 666,
      "chen": 667,
      "▁sitting": 668,
      "▁[...]": 669,
      "▁notic": 670,
      "▁driving": 671,
      "ons": 672,
      "▁charge": 673,
      "▁cris": 674,
      "let": 675,
      ".doc": 676,
      "▁depar": 677,
      "▁email": 678,
      "▁candid": 679,
      "▁function": 680,
      "▁prac": 681,
      "ty": 682,
      "▁mu": 683,
      "▁track": 684,
      "▁july": 685,
      "▁mosqu": 686,
      "tly": 687,
      "▁oil": 688,
      "▁hang": 689,
      "▁spr": 690,
      "▁draft": 691,
      "▁morn": 692,
      "bers": 693,
      "▁ice": 694,
      "selves": 695,
      "▁tail": 696,
      "▁number": 697,
      "▁anthrax": 698,
      "▁prefer": 699,
      "▁purpos": 700,
      "▁band": 701,
      "▁rock": 702,
      "▁co": 703,
      "▁trad": 704,
      "▁ordered": 705,
      "▁charl": 706,
      "▁speci": 707,
      "ete": 708,
      "▁decision": 709,
      "▁done": 710,
      "xt": 711,
      "▁experi": 712,
      "oon": 713,
      "▁cons": 714,
      "mitted": 715,
      "▁ind": 716,
      "▁deli": 717,
      "fe": 718,
      "alism": 719,
      "elt": 720,
      "▁\"": 721,
      "▁middle": 722,
      "▁record": 723,
      "▁influ": 724,
      "▁views": 725,
      "ver": 726,
      "▁loc": 727,
      "▁ti": 728,
      "ught": 729,
      "▁dre": 730,
      "▁memory": 731,
      "[SEP]": 732,
      "▁bat": 733,
      "▁guys": 734,
      "1": 735,
      "▁ur": 736,
      "ops": 737,
      "▁live": 738,
      "▁mer": 739,
      "▁sister": 740,
      "ording": 741,
      "rit": 742,
      "inus": 743,
      "▁serve": 744,
      "▁___________": 745,
      "apers": 746,
      "qui": 747,
      "▁opp": 748,
      "▁only": 749,
      "▁beneath": 750,
      "ism": 751,
      "▁behavi": 752,
      "▁display": 753,
      "▁problem": 754,
      "line": 755,
      "▁.....": 756,
      "▁---------------------------------------------------------------------------": 757,
      "▁lea": 758,
      "▁pred": 759,
      "▁rat": 760,
      "▁!!!!!!!!!!": 761,
      "▁und": 762,
      "▁whose": 763,
      "pe": 764,
      "▁option": 765,
      "▁organization": 766,
      "al": 767,
      "ression": 768,
      "▁star": 769,
      "aves": 770,
      "▁paper": 771,
      "▁movies": 772,
      "▁kept": 773,
      "`": 774,
      "▁'em": 775,
      "ycle": 776,
      "▁kitt": 777,
      "▁damage": 778,
      "ods": 779,
      "isd": 780,
      "▁reading": 781,
      "▁madam": 782,
      "▁he": 783,
      "▁amb": 784,
      "▁yesterday": 785,
      "▁girls": 786,
      "▁play": 787,
      "▁rule": 788,
      "▁doc": 789,
      "▁relig": 790,
      "bon": 791,
      "▁whether": 792,
      "▁prin": 793,
      "▁kill": 794,
      "nut": 795,
      "▁leaving": 796,
      "educ": 797,
      "▁reports": 798,
      "formed": 799,
      "▁standards": 800,
      "▁colleag": 801,
      "jec": 802,
      "lan": 803,
      "▁country": 804,
      "▁president": 805,
      "▁hous": 806,
      "▁sent": 807,
      "▁broken": 808,
      "▁ret": 809,
      "▁chair": 810,
      "ets": 811,
      "▁department": 812,
      "▁etc.": 813,
      "▁fork": 814,
      "ec": 815,
      "ens": 816,
      "▁years": 817,
      "▁read": 818,
      "▁noone": 819,
      "▁freedom": 820,
      "▁putting": 821,
      "▁exam": 822,
      "▁ba": 823,
      "▁section": 824,
      "▁quite": 825,
      "▁innov": 826,
      "▁pack": 827,
      "ision": 828,
      "▁manag": 829,
      "▁***": 830,
      "▁v": 831,
      "'re": 832,
      "▁summer": 833,
      "uk": 834,
      "▁see": 835,
      "▁observed": 836,
      "de": 837,
      "aining": 838,
      "▁ri": 839,
      "▁established": 840,
      "▁funds": 841,
      "ared": 842,
      "▁post": 843,
      "▁back": 844,
      "▁dance": 845,
      "▁decades": 846,
      "▁piece": 847,
      "▁team": 848,
      "ried": 849,
      "▁bea": 850,
      "▁imag": 851,
      "▁swe": 852,
      "▁tent": 853,
      "▁du": 854,
      "▁>": 855,
      "▁s/he": 856,
      "▁noticed": 857,
      "▁ach": 858,
      "ception": 859,
      "iv": 860,
      "▁pop": 861,
      "▁col": 862,
      "▁appeared": 863,
      "▁treat": 864,
      "▁pub": 865,
      "▁dogs": 866,
      "▁gold": 867,
      "▁talking": 868,
      "▁miles": 869,
      "ise": 870,
      "▁just": 871,
      "aur": 872,
      "3": 873,
      "▁discuss": 874,
      "▁fingers": 875,
      "le": 876,
      "wor": 877,
      "▁bet": 878,
      "hic": 879,
      "▁rele": 880,
      "▁refl": 881,
      "▁attacks": 882,
      "ar": 883,
      "▁boom": 884,
      "an": 885,
      "▁tri": 886,
      "▁spec": 887,
      "ening": 888,
      "cross": 889,
      "▁sens": 890,
      "▁bel": 891,
      "ict": 892,
      "▁je": 893,
      "------->": 894,
      "▁lights": 895,
      "▁pizza": 896,
      "ook": 897,
      "▁industry": 898,
      "▁streets": 899,
      "▁----------------------------------------------------------------------": 900,
      "▁bi": 901,
      "ction": 902,
      "▁reven": 903,
      "time": 904,
      "▁inj": 905,
      "▁offer": 906,
      "▁philadel": 907,
      "▁watching": 908,
      "(": 909,
      "ual": 910,
      "..": 911,
      "▁practice": 912,
      "▁went": 913,
      "▁di": 914,
      "▁pup": 915,
      "▁button": 916,
      "▁friends": 917,
      "▁are": 918,
      "▁say": 919,
      "▁staff": 920,
      "▁af": 921,
      "▁wr": 922,
      "▁box": 923,
      "▁pants": 924,
      "▁restric": 925,
      "▁being": 926,
      "▁capac": 927,
      "▁near": 928,
      "▁attached": 929,
      "▁connec": 930,
      "▁mos": 931,
      "▁e-mail": 932,
      "▁beside": 933,
      "▁deb": 934,
      "acks": 935,
      "fare": 936,
      "▁down": 937,
      "ming": 938,
      "▁choo": 939,
      "▁gon": 940,
      "g": 941,
      "▁poet": 942,
      "▁closed": 943,
      "▁etc": 944,
      "▁tummy": 945,
      "ien": 946,
      "ily": 947,
      "▁banan": 948,
      "▁se": 949,
      "▁intelligence": 950,
      "▁wear": 951,
      "ush": 952,
      "cess": 953,
      "k": 954,
      "memb": 955,
      "▁'m": 956,
      "ino": 957,
      "ocol": 958,
      "iving": 959,
      "▁degre": 960,
      "▁project": 961,
      "▁********************************": 962,
      "▁out": 963,
      "▁address": 964,
      "▁difficul": 965,
      "▁intel": 966,
      "ard": 967,
      "ong": 968,
      "’t": 969,
      "▁age": 970,
      "ent": 971,
      "▁beauty": 972,
      "▁custom": 973,
      "sh": 974,
      "ified": 975,
      "tery": 976,
      "▁encour": 977,
      "ici": 978,
      "▁right": 979,
      "ay": 980,
      "▁thought": 981,
      "ru": 982,
      "▁running": 983,
      "erence": 984,
      "==": 985,
      "▁bir": 986,
      "ternoon": 987,
      "omm": 988,
      "▁lines": 989,
      "ical": 990,
      "▁nov": 991,
      "▁herself": 992,
      "ize": 993,
      "▁dinos": 994,
      "▁quino": 995,
      "▁meet": 996,
      "▁propos": 997,
      "▁camera": 998,
      "kes": 999,
      "'clock": 1000,
      "▁b/": 1001,
      "▁sleep": 1002,
      "▁adop": 1003,
      "▁los": 1004,
      "▁destro": 1005,
      "▁pas": 1006,
      "▁oakland": 1007,
      "▁groups": 1008,
      "▁’d": 1009,
      "pen": 1010,
      "ury": 1011,
      "ised": 1012,
      "ms": 1013,
      "▁'ll": 1014,
      "▁*****": 1015,
      "lief": 1016,
      "▁considered": 1017,
      "▁yog": 1018,
      "▁places": 1019,
      "/": 1020,
      "▁!!!?": 1021,
      "▁elected": 1022,
      "▁ben": 1023,
      "pl": 1024,
      "▁pushed": 1025,
      "▁press": 1026,
      "▁earth": 1027,
      "ough": 1028,
      "▁counter": 1029,
      "▁behavior": 1030,
      "▁em": 1031,
      "▁bu": 1032,
      "su": 1033,
      "ε": 1034,
      "osing": 1035,
      "ll": 1036,
      "▁service": 1037,
      "aking": 1038,
      "▁hat": 1039,
      "▁it's": 1040,
      "▁aspects": 1041,
      "▁cake": 1042,
      "aster": 1043,
      "end": 1044,
      "▁helped": 1045,
      "▁couple": 1046,
      "▁blanket": 1047,
      "▁ll": 1048,
      "▁names": 1049,
      "ctions": 1050,
      "otw": 1051,
      "▁things": 1052,
      "ence": 1053,
      "▁benef": 1054,
      "▁rememb": 1055,
      "▁asked": 1056,
      "u": 1057,
      "alists": 1058,
      "ads": 1059,
      "esting": 1060,
      "▁))": 1061,
      "▁toward": 1062,
      "oh": 1063,
      "▁agreed": 1064,
      "h": 1065,
      "▁more": 1066,
      "▁kitchen": 1067,
      "▁dou": 1068,
      "▁against": 1069,
      "▁imp": 1070,
      "▁rub": 1071,
      "ɔ": 1072,
      "▁query": 1073,
      "▁sell": 1074,
      "eck": 1075,
      "▁recomm": 1076,
      "▁appears": 1077,
      "▁body": 1078,
      "▁study": 1079,
      "ables": 1080,
      "used": 1081,
      "▁rail": 1082,
      "▁hundreds": 1083,
      "▁police": 1084,
      "▁phil": 1085,
      "▁argu": 1086,
      "▁": 1087,
      "▁up": 1088,
      "▁tur": 1089,
      "▁amidst": 1090,
      "{": 1091,
      "▁set": 1092,
      "▁produce": 1093,
      "imb": 1094,
      "ading": 1095,
      "ory": 1096,
      "▁cor": 1097,
      "acked": 1098,
      "!!!!": 1099,
      "▁shoes": 1100,
      "▁structure": 1101,
      "▁kn": 1102,
      "▁dep": 1103,
      "▁reasons": 1104,
      "▁king": 1105,
      "▁wild": 1106,
      "▁fig": 1107,
      "▁last": 1108,
      "▁nothing": 1109,
      "▁course": 1110,
      "▁species": 1111,
      "▁dese": 1112,
      "▁hospital": 1113,
      "▁or": 1114,
      "orts": 1115,
      "▁player": 1116,
      "▁inside": 1117,
      "mb": 1118,
      "▁son": 1119,
      "lo": 1120,
      "▁close": 1121,
      "▁enjo": 1122,
      "▁having": 1123,
      "▁instruc": 1124,
      "n": 1125,
      "▁x": 1126,
      "▁—": 1127,
      "▁airport": 1128,
      "eared": 1129,
      "▁temperature": 1130,
      "▁health": 1131,
      "eng": 1132,
      "az": 1133,
      "▁named": 1134,
      "body": 1135,
      "ority": 1136,
      "▁dat": 1137,
      "▁rem": 1138,
      "ig": 1139,
      "ock": 1140,
      "▁parents": 1141,
      "▁h": 1142,
      "▁independence": 1143,
      "▁mass": 1144,
      "▁w/": 1145,
      "▁land": 1146,
      "▁follows": 1147,
      "▁percentage": 1148,
      "▁cheap": 1149,
      "▁report": 1150,
      "▁jwww": 1151,
      "▁shop": 1152,
      "▁fall": 1153,
      "▁center": 1154,
      "uss": 1155,
      "▁forms": 1156,
      "▁mine": 1157,
      "▁scienti": 1158,
      "▁fol": 1159,
      "lication": 1160,
      "▁achie": 1161,
      "▁make": 1162,
      "cri": 1163,
      "▁share": 1164,
      "▁pay": 1165,
      "▁tonight": 1166,
      "▁owners": 1167,
      "pite": 1168,
      "hood": 1169,
      "ble": 1170,
      "p": 1171,
      "ards": 1172,
      "▁soc": 1173,
      "▁movement": 1174,
      "▁poc": 1175,
      "▁added": 1176,
      "ro": 1177,
      "[MASK]": 1178,
      "▁[": 1179,
      "ames": 1180,
      "ator": 1181,
      "▁addition": 1182,
      "▁arr": 1183,
      "▁differences": 1184,
      "▁here": 1185,
      "▁fil": 1186,
      "▁dough": 1187,
      "vement": 1188,
      "ocks": 1189,
      "ids": 1190,
      "ing": 1191,
      "tually": 1192,
      "▁climate": 1193,
      "▁including": 1194,
      "-m": 1195,
      "▁create": 1196,
      "▁children": 1197,
      "▁gar": 1198,
      "▁basis": 1199,
      "▁studying": 1200,
      "β": 1201,
      "▁straw": 1202,
      "za": 1203,
      "▁imagine": 1204,
      "▁built": 1205,
      "<": 1206,
      "▁bot": 1207,
      "▁clean": 1208,
      "uff": 1209,
      "jwww": 1210,
      "▁ow": 1211,
      "▁sort": 1212,
      "iled": 1213,
      "▁uses": 1214,
      "▁occ": 1215,
      "▁port": 1216,
      "▁works": 1217,
      "▁mech": 1218,
      "▁prices": 1219,
      "▁elements": 1220,
      "▁heads": 1221,
      "▁+": 1222,
      "ety": 1223,
      "▁tre": 1224,
      "ology": 1225,
      "▁sa": 1226,
      "▁comes": 1227,
      "aced": 1228,
      "▁values": 1229,
      "▁way": 1230,
      "ause": 1231,
      "▁bush": 1232,
      "▁contact": 1233,
      "stances": 1234,
      "▁techniqu": 1235,
      "▁pass": 1236,
      "umb": 1237,
      "▁elections": 1238,
      "▁int": 1239,
      "³": 1240,
      "------------": 1241,
      "▁questions": 1242,
      "ol": 1243,
      "atures": 1244,
      "▁boston": 1245,
      "▁ps": 1246,
      "▁datab": 1247,
      "▁ev": 1248,
      "▁little": 1249,
      "ies": 1250,
      "▁may": 1251,
      "▁approach": 1252,
      "▁head": 1253,
      "▁pan": 1254,
      "▁filter": 1255,
      "▁buildings": 1256,
      "ently": 1257,
      "▁relationship": 1258,
      "00": 1259,
      "om": 1260,
      "ibilities": 1261,
      "ember": 1262,
      "ger": 1263,
      "▁means": 1264,
      "▁note": 1265,
      "▁stood": 1266,
      "▁conse": 1267,
      "▁fligh": 1268,
      "▁plants": 1269,
      "▁!!!!!!!!!!!!!!!": 1270,
      "▁(": 1271,
      "▁items": 1272,
      "clock": 1273,
      "▁balt": 1274,
      "▁writer": 1275,
      "▁husband": 1276,
      "▁1": 1277,
      "▁yo": 1278,
      "!?": 1279,
      "▁weekend": 1280,
      "▁typ": 1281,
      "▁deal": 1282,
      "▁joke": 1283,
      "▁pean": 1284,
      "▁ab": 1285,
      "▁reference": 1286,
      "▁serves": 1287,
      "▁saying": 1288,
      "▁ph": 1289,
      "eg": 1290,
      "▁commit": 1291,
      "▁stopped": 1292,
      "sm": 1293,
      "▁implem": 1294,
      "cro": 1295,
      "▁bunch": 1296,
      "ibility": 1297,
      "uding": 1298,
      "arl": 1299,
      "▁day": 1300,
      "▁small": 1301,
      "▁ele": 1302,
      "ative": 1303,
      "f": 1304,
      "▁enem": 1305,
      "????????": 1306,
      "▁train": 1307,
      "▁mur": 1308,
      "men": 1309,
      "▁contain": 1310,
      "▁proper": 1311,
      "▁waiting": 1312,
      "plan": 1313,
      "▁article": 1314,
      "▁anybody": 1315,
      "▁veget": 1316,
      "▁wonder": 1317,
      "▁dad": 1318,
      "▁follow": 1319,
      "▁corn": 1320,
      "▁shirt": 1321,
      "▁beach": 1322,
      "▁included": 1323,
      "▁apart": 1324,
      "▁sho": 1325,
      "isl": 1326,
      "▁rob": 1327,
      "▁su": 1328,
      "▁tom": 1329,
      "▁pool": 1330,
      "lus": 1331,
      "▁results": 1332,
      "▁pros": 1333,
      "“": 1334,
      "▁everybody": 1335,
      "avor": 1336,
      "▁hav": 1337,
      "▁mean": 1338,
      "▁ago": 1339,
      "be": 1340,
      "▁learn": 1341,
      "--------+----------------": 1342,
      "▁boxes": 1343,
      "book": 1344,
      "uzz": 1345,
      "ape": 1346,
      "▁rug": 1347,
      "▁squ": 1348,
      "lin": 1349,
      "▁progress": 1350,
      "▁--": 1351,
      "▁inv": 1352,
      "ones": 1353,
      "ented": 1354,
      "▁available": 1355,
      "▁community": 1356,
      "ν": 1357,
      "irt": 1358,
      "phone": 1359,
      "▁ended": 1360,
      "▁..": 1361,
      "ners": 1362,
      "▁title": 1363,
      "idents": 1364,
      "den": 1365,
      "ides": 1366,
      "▁business": 1367,
      "ice": 1368,
      "ch": 1369,
      "▁never": 1370,
      "ency": 1371,
      "▁tie": 1372,
      "▁---------------------------------------------------------------------": 1373,
      "▁iss": 1374,
      "▁determ": 1375,
      "▁parts": 1376,
      "▁represent": 1377,
      "▁systems": 1378,
      "ians": 1379,
      "▁conn": 1380,
      "▁inf": 1381,
      "▁payment": 1382,
      "▁circle": 1383,
      "▁noise": 1384,
      "▁surv": 1385,
      "us": 1386,
      "low": 1387,
      "isions": 1388,
      "▁ins": 1389,
      "wa": 1390,
      "▁guess": 1391,
      "▁cheapest": 1392,
      "▁wor": 1393,
      "ts": 1394,
      "▁mus": 1395,
      "▁replication": 1396,
      "ott": 1397,
      "▁who's": 1398,
      "▁birthday": 1399,
      "▁analys": 1400,
      "ticip": 1401,
      "ades": 1402,
      "▁condition": 1403,
      "▁env": 1404,
      "▁airplan": 1405,
      "▁direc": 1406,
      "▁sect": 1407,
      "ud": 1408,
      "urned": 1409,
      "ill": 1410,
      "▁cab": 1411,
      "ome": 1412,
      "aste": 1413,
      "▁a": 1414,
      "▁bottom": 1415,
      "▁surface": 1416,
      "▁alongside": 1417,
      "e": 1418,
      "▁capital": 1419,
      "▁territory": 1420,
      "▁speech": 1421,
      "▁‘": 1422,
      "▁---": 1423,
      "▁ste": 1424,
      "▁repe": 1425,
      "▁reached": 1426,
      "ose": 1427,
      "▁har": 1428,
      "ressed": 1429,
      "▁cros": 1430,
      "▁who": 1431,
      "▁dark": 1432,
      "▁color": 1433,
      "▁scre": 1434,
      "ke": 1435,
      "▁obt": 1436,
      "8": 1437,
      "▁still": 1438,
      "cause": 1439,
      "▁monday": 1440,
      "ugh": 1441,
      "▁mommy": 1442,
      "▁root": 1443,
      "▁garden": 1444,
      "▁cour": 1445,
      "rax": 1446,
      "▁swww": 1447,
      "mentation": 1448,
      "▁transportation": 1449,
      "ha": 1450,
      "ained": 1451,
      "▁administration": 1452,
      "ə": 1453,
      "▁needs": 1454,
      "▁yourself": 1455,
      "▁..........": 1456,
      "ocracy": 1457,
      "both": 1458,
      "ures": 1459,
      "▁wind": 1460,
      "▁aff": 1461,
      "zer": 1462,
      "...": 1463,
      "▁pri": 1464,
      "▁:": 1465,
      "▁song": 1466,
      "▁r": 1467,
      "ow": 1468,
      "ce": 1469,
      "▁between": 1470,
      "y": 1471,
      "▁aug": 1472,
      "orn": 1473,
      "▁trav": 1474,
      "▁brother": 1475,
      "▁format": 1476,
      "▁comed": 1477,
      "▁moving": 1478,
      "▁suit": 1479,
      "▁dinosaur": 1480,
      "▁you": 1481,
      "ech": 1482,
      "inu": 1483,
      "▁owner": 1484,
      "lers": 1485,
      "▁gri": 1486,
      "ww": 1487,
      "et": 1488,
      "ful": 1489,
      "▁tell": 1490,
      "iety": 1491,
      "riage": 1492,
      "▁smo": 1493,
      "▁come": 1494,
      "▁sk": 1495,
      "▁conflict": 1496,
      "▁inte": 1497,
      "▁rates": 1498,
      "ational": 1499,
      "▁daughter": 1500,
      "erved": 1501,
      "▁visited": 1502,
      "▁watched": 1503,
      "▁sp": 1504,
      "red": 1505,
      "▁clothes": 1506,
      ")": 1507,
      "▁adopted": 1508,
      "erc": 1509,
      "▁ban": 1510,
      "▁so": 1511,
      "imed": 1512,
      "▁competition": 1513,
      "ase": 1514,
      "▁gas": 1515,
      "▁le": 1516,
      "ς": 1517,
      "▁sub": 1518,
      "▁returned": 1519,
      "tai": 1520,
      "▁apar": 1521,
      "▁l": 1522,
      "case": 1523,
      "▁long": 1524,
      "anges": 1525,
      "ye": 1526,
      ".m": 1527,
      "▁will": 1528,
      "▁thre": 1529,
      "▁er": 1530,
      "▁initi": 1531,
      "▁y": 1532,
      "▁reas": 1533,
      "▁bro": 1534,
      "▁ki": 1535,
      "▁millions": 1536,
      "im": 1537,
      "▁coff": 1538,
      "mes": 1539,
      "▁music": 1540,
      "▁map": 1541,
      "▁holding": 1542,
      "▁components": 1543,
      "▁data": 1544,
      "▁activ": 1545,
      "ance": 1546,
      "▁coo": 1547,
      "▁would": 1548,
      "▁skills": 1549,
      "▁av": 1550,
      "....": 1551,
      "▁december": 1552,
      "▁en": 1553,
      "▁hosp": 1554,
      "▁pat": 1555,
      "lled": 1556,
      "▁dece": 1557,
      "▁arch": 1558,
      "–": 1559,
      "▁kit": 1560,
      "5": 1561,
      "▁count": 1562,
      "’s": 1563,
      "▁hum": 1564,
      "▁sme": 1565,
      "▁joined": 1566,
      "▁in": 1567,
      "ounced": 1568,
      "▁nice": 1569,
      "▁traffic": 1570,
      "▁hurt": 1571,
      "▁estim": 1572,
      "ident": 1573,
      "ast": 1574,
      "▁already": 1575,
      "nly": 1576,
      "▁mov": 1577,
      "▁leave": 1578,
      "▁energy": 1579,
      "▁continue": 1580,
      "▁introduc": 1581,
      "▁sheet": 1582,
      "▁fi": 1583,
      "▁answer": 1584,
      "ulations": 1585,
      "▁wash": 1586,
      "▁act": 1587,
      "▁terror": 1588,
      "▁trip": 1589,
      "▁invest": 1590,
      "ung": 1591,
      "ope": 1592,
      "▁buc": 1593,
      "▁rel": 1594,
      "▁located": 1595,
      "▁preven": 1596,
      "▁bought": 1597,
      "er": 1598,
      "eness": 1599,
      "uit": 1600,
      "▁term": 1601,
      "▁anim": 1602,
      "▁position": 1603,
      "▁coast": 1604,
      "▁chec": 1605,
      "▁balloon": 1606,
      "eric": 1607,
      "▁safety": 1608,
      "ights": 1609,
      "anc": 1610,
      "▁led": 1611,
      "▁insur": 1612,
      "▁de": 1613,
      "ized": 1614,
      "▁beginning": 1615,
      "▁******************************************************************": 1616,
      "▁is": 1617,
      "▁bill": 1618,
      "ic": 1619,
      "▁off": 1620,
      "▁****": 1621,
      "rou": 1622,
      "▁ide": 1623,
      "▁cheese": 1624,
      "▁beh": 1625,
      "▁times": 1626,
      "▁arm": 1627,
      "▁shut": 1628,
      "▁somebody": 1629,
      "ular": 1630,
      "▁lim": 1631,
      "▁tour": 1632,
      "▁science": 1633,
      "▁known": 1634,
      "▁conc": 1635,
      "▁bar": 1636,
      "▁transport": 1637,
      "▁fin": 1638,
      "▁auth": 1639,
      "▁helps": 1640,
      "----------": 1641,
      "▁o'clock": 1642,
      "▁gl": 1643,
      "cally": 1644,
      "▁f": 1645,
      "▁sch": 1646,
      "les": 1647,
      "▁activities": 1648,
      "▁heat": 1649,
      "▁hers": 1650,
      "▁bos": 1651,
      "▁chocol": 1652,
      "rew": 1653,
      "tern": 1654,
      "▁fro": 1655,
      "▁cla": 1656,
      "σ": 1657,
      "▁aud": 1658,
      "artment": 1659,
      "▁issues": 1660,
      "▁spring": 1661,
      "▁mission": 1662,
      "▁belie": 1663,
      "▁-": 1664,
      "ases": 1665,
      "▁parliament": 1666,
      "▁independ": 1667,
      "ι": 1668,
      "▁restaur": 1669,
      "▁ship": 1670,
      "z": 1671,
      "▁served": 1672,
      "wic": 1673,
      "▁stret": 1674,
      "aign": 1675,
      "og": 1676,
      "▁because": 1677,
      "▁feet": 1678,
      "gin": 1679,
      "▁implementation": 1680,
      "ancing": 1681,
      "0s": 1682,
      "▁cowboy": 1683,
      "uals": 1684,
      "▁yet": 1685,
      "▁ch": 1686,
      "▁room": 1687,
      "▁mr": 1688,
      "▁believe": 1689,
      "▁another": 1690,
      "▁place": 1691,
      "▁washington": 1692,
      "een": 1693,
      "▁yourselves": 1694,
      "▁allowed": 1695,
      "▁vs.": 1696,
      "ink": 1697,
      "▁rout": 1698,
      "▁sty": 1699,
      "▁ann": 1700,
      "key": 1701,
      "▁sci": 1702,
      "▁holiday": 1703,
      "elly": 1704,
      "▁quinoa": 1705,
      "b": 1706,
      "▁dow": 1707,
      "▁rev": 1708,
      "ai": 1709,
      "▁car": 1710,
      "▁showing": 1711,
      "▁wan": 1712,
      "▁numerous": 1713,
      "▁attr": 1714,
      "ant": 1715,
      "▁fan": 1716,
      "▁buy": 1717,
      "self": 1718,
      "▁became": 1719,
      "▁cup": 1720,
      "acts": 1721,
      "▁user": 1722,
      "ont": 1723,
      "▁!!!!!!!!!!!!!!!!!!!": 1724,
      "▁oc": 1725,
      "ou": 1726,
      "ton": 1727,
      "▁used": 1728,
      "▁life": 1729,
      "▁certain": 1730,
      "mer": 1731,
      "▁dr": 1732,
      "▁light": 1733,
      "▁reason": 1734,
      "ax": 1735,
      "▁him": 1736,
      "▁bridge": 1737,
      "▁subject": 1738,
      "▁enab": 1739,
      "▁found": 1740,
      "—": 1741,
      "▁give": 1742,
      "▁missed": 1743,
      "▁response": 1744,
      "like": 1745,
      "▁sh": 1746,
      "▁link": 1747,
      "▁take": 1748,
      "▁forg": 1749,
      "▁ac": 1750,
      "▁actions": 1751,
      "▁bus": 1752,
      "▁dis": 1753,
      "▁hop": 1754,
      "ω": 1755,
      "▁skin": 1756,
      "▁enjambment": 1757,
      "▁top": 1758,
      "▁.": 1759,
      "▁puppy": 1760,
      "rec": 1761,
      "▁forth": 1762,
      "▁por": 1763,
      "▁lived": 1764,
      "▁pencil": 1765,
      "▁behind": 1766,
      "▁ho": 1767,
      "▁notwithstanding": 1768,
      "eries": 1769,
      "▁eggs": 1770,
      "whether": 1771,
      "▁might": 1772,
      "▁ra": 1773,
      "▁agre": 1774,
      "▁peace": 1775,
      "ghting": 1776,
      "▁categ": 1777,
      "port": 1778,
      "▁scale": 1779,
      "ium": 1780,
      "▁cro": 1781,
      "▁airports": 1782,
      "▁parking": 1783,
      "▁hope": 1784,
      "▁such": 1785,
      "▁lion": 1786,
      "▁happened": 1787,
      "!!!!!!!!": 1788,
      "▁soldiers": 1789,
      "▁whatever": 1790,
      "epend": 1791,
      "▁died": 1792,
      "rated": 1793,
      "▁ships": 1794,
      "▁seen": 1795,
      "▁amend": 1796,
      "cha": 1797,
      "▁sel": 1798,
      "▁assoc": 1799,
      "ort": 1800,
      "▁upon": 1801,
      "▁world": 1802,
      "▁license": 1803,
      "ply": 1804,
      "ecting": 1805,
      "▁sup": 1806,
      "=----": 1807,
      "▁understand": 1808,
      "+----------------": 1809,
      "▁liter": 1810,
      "▁ham": 1811,
      "ov": 1812,
      "▁din": 1813,
      "af": 1814,
      "▁model": 1815,
      "▁eng": 1816,
      "▁guy": 1817,
      "▁training": 1818,
      "▁sky": 1819,
      "ivid": 1820,
      "orth": 1821,
      "▁proce": 1822,
      "formation": 1823,
      "▁pen": 1824,
      "▁lose": 1825,
      "erv": 1826,
      "▁:?": 1827,
      "otes": 1828,
      "▁appearance": 1829,
      "man": 1830,
      "▁pictures": 1831,
      "▁find": 1832,
      "stop": 1833,
      "ey": 1834,
      "▁lady": 1835,
      "▁assistance": 1836,
      "▁disc": 1837,
      "▁tax": 1838,
      "ates": 1839,
      "▁include": 1840,
      "jects": 1841,
      "▁among": 1842,
      "ants": 1843,
      "▁told": 1844,
      "▁learning": 1845,
      "▁code": 1846,
      "▁prof": 1847,
      "▁finish": 1848,
      "▁regard": 1849,
      "▁lear": 1850,
      "anks": 1851,
      "eted": 1852,
      "ling": 1853,
      "▁options": 1854,
      "▁----==": 1855,
      "▁why": 1856,
      "▁spot": 1857,
      "▁add": 1858,
      "val": 1859,
      "co": 1860,
      "▁soil": 1861,
      "lf": 1862,
      "▁san": 1863,
      "ament": 1864,
      "roduc": 1865,
      "▁ticket": 1866,
      "w": 1867,
      "▁days": 1868,
      "ars": 1869,
      "▁airline": 1870,
      "▁sector": 1871,
      "▁spent": 1872,
      "▁!.": 1873,
      "▁evening": 1874,
      "▁ce": 1875,
      "▁published": 1876,
      "▁doctor": 1877,
      "▁repl": 1878,
      "▁feels": 1879,
      "▁wal": 1880,
      "▁hom": 1881,
      "ably": 1882,
      "rote": 1883,
      "ords": 1884,
      "▁time": 1885,
      "ag": 1886,
      "iation": 1887,
      "▁rabb": 1888,
      "▁standing": 1889,
      "acter": 1890,
      "ided": 1891,
      "ointment": 1892,
      "▁afternoon": 1893,
      "▁ha": 1894,
      "fic": 1895,
      "▁working": 1896,
      "▁cap": 1897,
      "mit": 1898,
      "tain": 1899,
      "▁foods": 1900,
      "▁seeing": 1901,
      "▁object": 1902,
      "essed": 1903,
      "www": 1904,
      "▁particip": 1905,
      "sul": 1906,
      "ade": 1907,
      "▁taking": 1908,
      "▁vis": 1909,
      "eth": 1910,
      "itch": 1911,
      "▁arg": 1912,
      "▁details": 1913,
      "▁apartment": 1914,
      "▁participants": 1915,
      "▁key": 1916,
      "ater": 1917,
      "▁motor": 1918,
      "▁mad": 1919,
      "▁keeping": 1920,
      "til": 1921,
      "▁k": 1922,
      "itled": 1923,
      "▁character": 1924,
      "▁forgot": 1925,
      "▁fill": 1926,
      "con": 1927,
      "orting": 1928,
      "▁exposure": 1929,
      "▁arri": 1930,
      "[PAD]": 1931,
      "▁meas": 1932,
      "ining": 1933,
      "▁ed": 1934,
      "▁doggie": 1935,
      "▁creating": 1936,
      "▁water": 1937,
      "▁master": 1938,
      "ities": 1939,
      "▁access": 1940,
      "▁pe": 1941,
      "▁wheel": 1942,
      "dle": 1943,
      "▁pl": 1944,
      "▁fit": 1945,
      "▁carry": 1946,
      "c": 1947,
      "raph": 1948,
      "▁goal": 1949,
      "form": 1950,
      "▁need": 1951,
      "▁avo": 1952,
      "ra": 1953,
      "ake": 1954,
      "▁half": 1955,
      "band": 1956,
      "over": 1957,
      "duction": 1958,
      "▁start": 1959,
      "▁seem": 1960,
      "▁breath": 1961,
      "tering": 1962,
      "▁mama": 1963,
      "head": 1964,
      "▁ours": 1965,
      "tsbur": 1966,
      "ell": 1967,
      "uation": 1968,
      "▁knew": 1969,
      "▁princip": 1970,
      "▁accept": 1971,
      "ue": 1972,
      "▁think": 1973,
      "ote": 1974,
      "▁throw": 1975,
      "▁does": 1976,
      "ession": 1977,
      "▁menu": 1978,
      "anding": 1979,
      "▁hear": 1980,
      "▁lips": 1981,
      "▁research": 1982,
      "ering": 1983,
      "▁alt": 1984,
      "▁fore": 1985,
      "osed": 1986,
      "▁!!": 1987,
      "▁fun": 1988,
      "▁creation": 1989,
      "wh": 1990,
      "▁neighbor": 1991,
      "pts": 1992,
      "▁aboard": 1993,
      "▁rep": 1994,
      "▁apply": 1995,
      "ists": 1996,
      "ark": 1997,
      "▁delive": 1998,
      "ension": 1999,
      "▁these": 2000,
      "▁saw": 2001,
      "ams": 2002,
      "▁counc": 2003,
      "▁knoc": 2004,
      "enty": 2005,
      "able": 2006,
      "▁foc": 2007,
      "▁agreement": 2008,
      "▁upd": 2009,
      "lies": 2010,
      "▁requirements": 2011,
      "ned": 2012,
      "▁surround": 2013,
      "▁tas": 2014,
      "▁played": 2015,
      "▁child": 2016,
      "▁discussion": 2017,
      "pers": 2018,
      "▁res": 2019,
      "row": 2020,
      "iate": 2021,
      "▁pep": 2022,
      "▁amount": 2023,
      "▁commun": 2024,
      "▁events": 2025,
      "▁=---": 2026,
      "▁system": 2027,
      "olve": 2028,
      "▁fo": 2029,
      "▁meaning": 2030,
      "▁app": 2031,
      "tics": 2032,
      "▁arti": 2033,
      ".": 2034,
      "ality": 2035,
      "▁americ": 2036,
      "▁drop": 2037,
      "oice": 2038,
      "▁gu": 2039,
      "0": 2040,
      "▁cycle": 2041,
      "▁schol": 2042,
      "▁lead": 2043,
      "▁less": 2044,
      "yst": 2045,
      "▁paid": 2046,
      "▁mo": 2047,
      "▁trave": 2048,
      "▁c": 2049,
      "|": 2050,
      "▁cock": 2051,
      "▁require": 2052,
      "▁piv": 2053,
      "▁penc": 2054,
      "'s": 2055,
      "▁cartoon": 2056,
      "air": 2057,
      "▁required": 2058,
      "▁coll": 2059,
      "▁knowledge": 2060,
      "▁''": 2061,
      "▁when": 2062,
      "▁plenty": 2063,
      "▁opening": 2064,
      "ways": 2065,
      "~": 2066,
      "oup": 2067,
      "▁engine": 2068,
      "ions": 2069,
      "▁build": 2070,
      "zz": 2071,
      "▁even": 2072,
      "▁table": 2073,
      "▁snake": 2074,
      "▁pittsburgh": 2075,
      "▁understanding": 2076,
      "▁dallas": 2077,
      "▁push": 2078,
      "▁conflic": 2079,
      "▁everyone": 2080,
      "orrow": 2081,
      "▁uncle": 2082,
      "▁---=": 2083,
      "ali": 2084,
      "inds": 2085,
      "oney": 2086,
      "▁dust": 2087,
      "▁trade": 2088,
      "mate": 2089,
      "l": 2090,
      "▁friend": 2091,
      "▁par": 2092,
      "▁salad": 2093,
      "▁mix": 2094,
      "▁meals": 2095,
      "▁phone": 2096,
      "▁across": 2097,
      "oin": 2098,
      "▁cond": 2099,
      "▁good": 2100,
      "▁bre": 2101,
      "▁citiz": 2102,
      "▁phot": 2103,
      "▁effects": 2104,
      "▁education": 2105,
      "▁fam": 2106,
      "▁**********": 2107,
      "aw": 2108,
      "▁nonstop": 2109,
      "▁oak": 2110,
      "▁wil": 2111,
      "▁shape": 2112,
      "▁rules": 2113,
      "▁population": 2114,
      "▁shows": 2115,
      "▁lost": 2116,
      "▁process": 2117,
      "▁agree": 2118,
      "▁gir": 2119,
      "par": 2120,
      "▁hand": 2121,
      "▁numbers": 2122,
      "nel": 2123,
      "▁leg": 2124,
      "▁problems": 2125,
      "▁cli": 2126,
      "▁facts": 2127,
      "inging": 2128,
      "▁refer": 2129,
      "▁work": 2130,
      "▁sal": 2131,
      "ambment": 2132,
      "▁thousands": 2133,
      "▁suff": 2134,
      "▁member": 2135,
      "▁states": 2136,
      "▁suicide": 2137,
      "▁impro": 2138,
      "▁cal": 2139,
      "▁thanks": 2140,
      "▁mar": 2141,
      "si": 2142,
      "ect": 2143,
      "▁m": 2144,
      "▁discovered": 2145,
      "▁let": 2146,
      "‘": 2147,
      "▁new": 2148,
      "▁char": 2149,
      "eas": 2150,
      "▁treatment": 2151,
      "▁solution": 2152,
      "▁’": 2153,
      "▁snow": 2154,
      "▁starting": 2155,
      "▁grew": 2156,
      "med": 2157,
      "▁colle": 2158,
      "▁without": 2159,
      "▁mem": 2160,
      "▁maj": 2161,
      "▁involved": 2162,
      "ican": 2163,
      "▁cash": 2164,
      "▁won": 2165,
      "▁catch": 2166,
      "▁person": 2167,
      "▁us": 2168,
      "▁exp": 2169,
      "▁block": 2170,
      "▁content": 2171,
      "▁with": 2172,
      "▁d'": 2173,
      "▁above": 2174,
      "ating": 2175,
      "urch": 2176,
      "▁row": 2177,
      "own": 2178,
      "½": 2179,
      "▁himself": 2180,
      "▁bur": 2181,
      "▁eyes": 2182,
      "▁dress": 2183,
      "▁rabbit": 2184,
      "▁bear": 2185,
      "uty": 2186,
      "ged": 2187,
      "th": 2188,
      "▁within": 2189,
      "▁stri": 2190,
      "▁pet": 2191,
      "▁bor": 2192,
      "▁whe": 2193,
      "▁underneath": 2194,
      "▁calling": 2195,
      "▁langu": 2196,
      "cent": 2197,
      "▁takes": 2198,
      "▁laun": 2199,
      "inate": 2200,
      "tered": 2201,
      "ob": 2202,
      "▁mouth": 2203,
      "---------------": 2204,
      "▁ate": 2205,
      "day": 2206,
      "▁street": 2207,
      "ains": 2208,
      "▁sm": 2209,
      "ased": 2210,
      "▁maint": 2211,
      "▁describe": 2212,
      "▁edit": 2213,
      "ific": 2214,
      "ved": 2215,
      "out": 2216,
      "▁indic": 2217,
      "▁discussed": 2218,
      "▁spell": 2219,
      "▁/": 2220,
      "▁mod": 2221,
      "▁path": 2222,
      "▁types": 2223,
      "▁sto": 2224,
      "▁aw": 2225,
      "▁la": 2226,
      "▁tw": 2227,
      "▁ser": 2228,
      "▁woud": 2229,
      "▁–": 2230,
      "▁animals": 2231,
      "ration": 2232,
      "ials": 2233,
      "▁flowers": 2234,
      "▁school": 2235,
      "ve": 2236,
      "▁milk": 2237,
      "▁minut": 2238,
      "▁appro": 2239,
      "▁cle": 2240,
      "old": 2241,
      "▁interest": 2242,
      "▁enter": 2243,
      "▁territ": 2244,
      "▁cow": 2245,
      "isation": 2246,
      "ew": 2247,
      "▁second": 2248,
      "ad": 2249,
      "•": 2250,
      "ered": 2251,
      "▁chee": 2252,
      "aging": 2253,
      "▁princ": 2254,
      "ren": 2255,
      "▁activity": 2256,
      "▁fe": 2257,
      "▁filled": 2258,
      "▁lives": 2259,
      "▁till": 2260,
      "=": 2261,
      "ber": 2262,
      "▁salt": 2263,
      "▁baltimore": 2264,
      "▁egg": 2265,
      "▁via": 2266,
      "fer": 2267,
      "▁roo": 2268,
      "▁objec": 2269,
      "▁sit": 2270,
      "…": 2271,
      "▁deter": 2272,
      "▁stayed": 2273,
      "wn": 2274,
      "▁op": 2275,
      "▁-----------------------------------------------------------------------": 2276,
      "ends": 2277,
      "ated": 2278,
      "oned": 2279,
      "▁ad": 2280,
      "▁developed": 2281,
      "ince": 2282,
      "▁conference": 2283,
      "force": 2284,
      "▁insp": 2285,
      "reds": 2286,
      "app": 2287,
      "▁swee": 2288,
      "▁univers": 2289,
      "▁ques": 2290,
      "iff": 2291,
      "ive": 2292,
      "▁art": 2293,
      "▁swim": 2294,
      "tile": 2295,
      "▁chan": 2296,
      "ected": 2297,
      "ware": 2298,
      "▁tow": 2299,
      "▁women": 2300,
      "▁steps": 2301,
      "▁comment": 2302,
      "▁pu": 2303,
      "▁trouble": 2304,
      "way": 2305,
      "▁isl": 2306,
      "▁request": 2307,
      "▁machine": 2308,
      "▁psych": 2309,
      "▁viol": 2310,
      "▁notw": 2311,
      "▁q": 2312,
      "▁moon": 2313,
      "▁pret": 2314,
      "▁mistake": 2315,
      "▁improve": 2316,
      "▁fre": 2317,
      "ers": 2318,
      "▁.........": 2319,
      "▁thoughts": 2320,
      "▁mind": 2321,
      "▁united": 2322,
      "▁convers": 2323,
      "ama": 2324,
      "▁tro": 2325,
      "▁&amp;": 2326,
      "▁ir": 2327,
      "▁dem": 2328,
      "▁sti": 2329,
      "airs": 2330,
      "ool": 2331,
      "erve": 2332,
      "▁together": 2333,
      "▁customers": 2334,
      "!": 2335,
      "▁efforts": 2336,
      "od": 2337,
      "▁college": 2338,
      "▁pr": 2339,
      "---": 2340,
      "▁self": 2341,
      "2": 2342,
      "▁she": 2343,
      "our": 2344,
      "ages": 2345,
      "ouch": 2346,
      "▁began": 2347,
      "roduction": 2348,
      "▁-----------------------------------------------------------------": 2349,
      "▁group": 2350,
      "▁size": 2351,
      "▁visit": 2352,
      "aps": 2353,
      "▁showed": 2354,
      "▁’s": 2355,
      "ley": 2356,
      "▁sugges": 2357,
      "▁wedding": 2358,
      "▁opened": 2359,
      "rows": 2360,
      "▁cer": 2361,
      "▁idea": 2362,
      "▁measures": 2363,
      "▁bulldozer": 2364,
      "▁fing": 2365,
      "▁sum": 2366,
      "▁dom": 2367,
      "▁army": 2368,
      "▁!!!!!!!!!!!": 2369,
      "av": 2370,
      "▁men": 2371,
      "/he": 2372,
      "▁pos": 2373,
      "▁'ve": 2374,
      "▁webs": 2375,
      "ings": 2376,
      "ruc": 2377,
      "▁acc": 2378,
      "sus": 2379,
      "▁sha": 2380,
      "str": 2381,
      "rib": 2382,
      "▁con": 2383,
      "▁governments": 2384,
      "ues": 2385,
      "▁com": 2386,
      "▁~": 2387,
      "▁enjoyed": 2388,
      "ub": 2389,
      "ph": 2390,
      "▁…": 2391,
      "▁blan": 2392,
      "▁orig": 2393,
      "▁games": 2394,
      "▁bag": 2395,
      "▁pillow": 2396,
      "cle": 2397,
      "ron": 2398,
      "▁accident": 2399,
      "▁experien": 2400,
      "▁spoke": 2401,
      "ired": 2402,
      "eel": 2403,
      "▁feed": 2404,
      "▁teach": 2405,
      "▁use": 2406,
      "ation": 2407,
      "▁depart": 2408,
      "▁dose": 2409,
      "▁speaking": 2410,
      "▁products": 2411,
      "▁amongst": 2412,
      "▁building": 2413,
      "enti": 2414,
      "▁saf": 2415,
      "▁version": 2416,
      "▁gets": 2417,
      "yth": 2418,
      "▁>>": 2419,
      "▁writing": 2420,
      "amb": 2421,
      "augh": 2422,
      "ound": 2423,
      "'": 2424,
      "if": 2425,
      "ati": 2426,
      "▁fell": 2427,
      "▁prop": 2428,
      "▁argument": 2429,
      "tors": 2430,
      "gle": 2431,
      "▁eleph": 2432,
      "ry": 2433,
      "▁rice": 2434,
      "ought": 2435,
      "▁answ": 2436,
      "umn": 2437,
      "▁emer": 2438,
      "▁doub": 2439,
      "▁islands": 2440,
      "st": 2441,
      "▁nor": 2442,
      "re": 2443,
      "▁move": 2444,
      "▁iod": 2445,
      "▁sandwic": 2446,
      "▁jun": 2447,
      "▁curr": 2448,
      "▁much": 2449,
      "▁be": 2450,
      "▁themselves": 2451,
      "****************": 2452,
      "▁fem": 2453,
      "▁truth": 2454,
      "▁sex": 2455,
      "#": 2456,
      "▁fish": 2457,
      "▁=": 2458,
      "▁trust": 2459,
      "▁bud": 2460,
      "ˈ": 2461,
      "▁cut": 2462,
      "▁failed": 2463,
      "▁base": 2464,
      "▁rooms": 2465,
      "▁sounds": 2466,
      "▁anything": 2467,
      "inn": 2468,
      "▁customer": 2469,
      "▁levels": 2470,
      "▁continued": 2471,
      "▁sc": 2472,
      "▁society": 2473,
      ":": 2474,
      "▁airlines": 2475,
      "▁tele": 2476,
      "----------------": 2477,
      "▁francisco": 2478,
      "aint": 2479,
      "▁war": 2480,
      "ife": 2481,
      "▁thru": 2482,
      "▁farm": 2483,
      "▁hall": 2484,
      "fact": 2485,
      "▁mount": 2486,
      "▁cere": 2487,
      "▁their": 2488,
      "▁someth": 2489,
      "yone": 2490,
      "▁except": 2491,
      "▁ideas": 2492,
      "????????????????": 2493,
      "▁big": 2494,
      "ɑ": 2495,
      "▁babies": 2496,
      "▁camp": 2497,
      "ite": 2498,
      "ills": 2499,
      "▁oneself": 2500,
      "▁climb": 2501,
      "ish": 2502,
      "▁ton": 2503,
      "▁tv": 2504,
      "▁fares": 2505,
      "▁weight": 2506,
      "ker": 2507,
      "▁??": 2508,
      "itation": 2509,
      "oth": 2510,
      "▁bo": 2511,
      "▁offices": 2512,
      "▁val": 2513,
      "▁thir": 2514,
      "▁befor": 2515,
      "▁chang": 2516,
      "▁*": 2517,
      "led": 2518,
      "earch": 2519,
      "▁novel": 2520,
      "▁looks": 2521,
      "▁organiz": 2522,
      "▁some": 2523,
      "▁pip": 2524,
      "▁issu": 2525,
      "▁kitty": 2526,
      "▁astride": 2527,
      "▁|--------+----------------------->": 2528,
      "▁un": 2529,
      "ked": 2530,
      "▁19": 2531,
      "▁cand": 2532,
      "▁cell": 2533,
      "▁journ": 2534,
      "oot": 2535,
      "▁application": 2536,
      "▁product": 2537,
      "▁sept": 2538,
      "▁….": 2539,
      "▁according": 2540,
      "------": 2541,
      "icul": 2542,
      "]": 2543,
      "ents": 2544,
      "▁blow": 2545,
      "▁tech": 2546,
      "▁island": 2547,
      "▁suc": 2548,
      "▁var": 2549,
      "▁cart": 2550,
      "▁success": 2551,
      "▁bank": 2552,
      "▁kids": 2553,
      "▁reg": 2554,
      "▁_____": 2555,
      "▁eat": 2556,
      "▁left": 2557,
      "▁mist": 2558,
      "▁exist": 2559,
      "▁div": 2560,
      "▁management": 2561,
      "▁....................": 2562,
      "kin": 2563,
      "atis": 2564,
      "▁detail": 2565,
      "▁date": 2566,
      "▁anth": 2567,
      "▁,?": 2568,
      "▁hur": 2569,
      "▁rocks": 2570,
      "ission": 2571,
      "▁assu": 2572,
      "ee": 2573,
      "amed": 2574,
      "als": 2575,
      "▁goes": 2576,
      "▁send": 2577,
      "▁meeting": 2578,
      "▁command": 2579,
      "encies": 2580,
      "olog": 2581,
      "▁too": 2582,
      "▁put": 2583,
      "▁.!": 2584,
      "ls": 2585,
      "▁rad": 2586,
      "osite": 2587,
      "▁want": 2588,
      "▁markets": 2589,
      "▁teacher": 2590,
      "▁loan": 2591,
      "▁coming": 2592,
      "▁proposal": 2593,
      "▁**": 2594,
      "▁bul": 2595,
      "▁copy": 2596,
      "▁confir": 2597,
      "inated": 2598,
      "▁by": 2599,
      "▁horsie": 2600,
      "▁plate": 2601,
      "▁estab": 2602,
      "▁winter": 2603,
      "▁same": 2604,
      "▁doll": 2605,
      "▁travel": 2606,
      "ery": 2607,
      "igh": 2608,
      "▁thank": 2609,
      "▁conclu": 2610,
      "▁thy": 2611,
      "light": 2612,
      "▁menti": 2613,
      "ly": 2614,
      "either": 2615,
      "▁directive": 2616,
      "▁surprise": 2617,
      "oices": 2618,
      "iz": 2619,
      "gation": 2620,
      "▁court": 2621,
      "▁ar": 2622,
      "ozer": 2623,
      "v": 2624,
      "▁marriage": 2625,
      ".c": 2626,
      "ʻ": 2627,
      "▁services": 2628,
      "▁barn": 2629,
      "ester": 2630,
      "anded": 2631,
      "▁instead": 2632,
      "▁'d": 2633,
      "▁describ": 2634,
      "▁tree": 2635,
      "ward": 2636,
      "▁rights": 2637,
      "up": 2638,
      "▁advant": 2639,
      "▁companies": 2640,
      "▁dest": 2641,
      "▁costs": 2642,
      "▁dropped": 2643,
      "der": 2644,
      "▁’re": 2645,
      "▁cereal": 2646,
      "▁fight": 2647,
      "▁that": 2648,
      "il": 2649,
      "▁...................": 2650,
      "▁also": 2651,
      "▁discus": 2652,
      "▁tha": 2653,
      "▁away": 2654,
      "▁history": 2655,
      "▁author": 2656,
      "sts": 2657,
      "boy": 2658,
      "▁i": 2659,
      "▁<": 2660,
      "▁man": 2661,
      "ror": 2662,
      "????": 2663,
      "▁conte": 2664,
      "ick": 2665,
      "it": 2666,
      "▁choice": 2667,
      "▁adam": 2668,
      "ches": 2669,
      "▁get": 2670,
      "as": 2671,
      "ten": 2672,
      "▁obs": 2673,
      "ely": 2674,
      "▁==----": 2675,
      "▁shall": 2676,
      "res": 2677,
      "▁feeling": 2678,
      "atch": 2679,
      "rup": 2680,
      "▁labor": 2681,
      "ld": 2682,
      "▁lots": 2683,
      "aring": 2684,
      "▁3": 2685,
      "go": 2686,
      "\"": 2687,
      "▁’ll": 2688,
      "orm": 2689,
      "▁other": 2690,
      "▁going": 2691,
      "uck": 2692,
      "▁fear": 2693,
      "yp": 2694,
      "▁mummy": 2695,
      "▁chall": 2696,
      "▁thing": 2697,
      "eeds": 2698,
      "ergy": 2699,
      "ured": 2700,
      "ix": 2701,
      "▁vide": 2702,
      "▁they": 2703,
      "’": 2704,
      "gan": 2705,
      "▁spe": 2706,
      "▁projects": 2707,
      "▁identi": 2708,
      "▁window": 2709,
      "king": 2710,
      "iver": 2711,
      "▁likes": 2712,
      "ited": 2713,
      "▁ear": 2714,
      "▁une": 2715,
      "▁den": 2716,
      "▁cost": 2717,
      "▁cos": 2718,
      "ached": 2719,
      "itt": 2720,
      "▁student": 2721,
      "onom": 2722,
      "▁market": 2723,
      "▁sn": 2724,
      "▁organ": 2725,
      "ribution": 2726,
      "▁assist": 2727,
      "gg": 2728,
      "lection": 2729,
      "▁father": 2730,
      "▁reviews": 2731,
      "▁crack": 2732,
      "acket": 2733,
      "▁imm": 2734,
      "▁tar": 2735,
      "▁grand": 2736,
      "▁ord": 2737,
      "▁sources": 2738,
      "▁remain": 2739,
      "▁lar": 2740,
      "▁tomorrow": 2741,
      "eti": 2742,
      "▁comm": 2743,
      "▁wish": 2744,
      "me": 2745,
      "▁each": 2746,
      "▁into": 2747,
      "▁stated": 2748,
      "▁...............": 2749,
      "▁rul": 2750,
      "▁wat": 2751,
      "▁bulld": 2752,
      "▁shoe": 2753,
      "▁around": 2754,
      "▁drive": 2755,
      "▁decided": 2756,
      "▁’’": 2757,
      "▁poin": 2758,
      "▁pit": 2759,
      "tives": 2760,
      "▁spend": 2761,
      "▁ourselves": 2762,
      "▁soldi": 2763,
      "ything": 2764,
      "q": 2765,
      "▁butt": 2766,
      "▁conditions": 2767,
      "▁stre": 2768,
      "▁carried": 2769,
      "▁peoples": 2770,
      "ler": 2771,
      "▁thinking": 2772,
      "▁lot": 2773,
      "or": 2774,
      "utions": 2775,
      "▁video": 2776,
      "▁appointment": 2777,
      "ature": 2778,
      "▁most": 2779,
      "nt": 2780,
      "▁fac": 2781,
      "▁media": 2782,
      "lly": 2783,
      "μ": 2784,
      "▁mid": 2785,
      "cer": 2786,
      "▁her": 2787,
      "mal": 2788,
      "▁compl": 2789,
      "avi": 2790,
      "ention": 2791,
      "ire": 2792,
      "▁happens": 2793,
      "▁form": 2794,
      "▁using": 2795,
      "▁behin": 2796,
      "▁piz": 2797,
      "alt": 2798,
      "tivity": 2799,
      "are": 2800,
      "▁hours": 2801,
      "▁oh": 2802,
      "use": 2803,
      "gency": 2804,
      "ummy": 2805,
      "▁camel": 2806,
      "asing": 2807,
      "▁cl": 2808,
      "ition": 2809,
      "▁pour": 2810,
      "▁percent": 2811,
      "▁jo": 2812,
      "▁cig": 2813,
      "▁pair": 2814,
      "ude": 2815,
      "ithstanding": 2816,
      "▁ren": 2817,
      "▁lic": 2818,
      "ample": 2819,
      "▁bath": 2820,
      "▁del": 2821,
      "▁dirt": 2822,
      "▁----": 2823,
      "tice": 2824,
      "▁south": 2825,
      "inc": 2826,
      "oul": 2827,
      "▁met": 2828,
      "▁ensure": 2829,
      "▁sour": 2830,
      "▁buil": 2831,
      "▁conversation": 2832,
      "▁sense": 2833,
      "▁sugg": 2834,
      "▁reserv": 2835,
      "▁parties": 2836,
      "▁fact": 2837,
      "▁provides": 2838,
      "▁som": 2839,
      "▁s’": 2840,
      "▁those": 2841,
      "▁dere": 2842,
      "ema": 2843,
      "▁seems": 2844,
      "iting": 2845,
      "▁wi": 2846,
      "▁bowl": 2847,
      "▁flying": 2848,
      "▁challenges": 2849,
      "▁computer": 2850,
      "▁offic": 2851,
      "he": 2852,
      "ɛ": 2853,
      "▁legislation": 2854,
      "▁ro": 2855,
      "▁weather": 2856,
      "▁na": 2857,
      "▁got": 2858,
      "▁civ": 2859,
      "arly": 2860,
      "▁;": 2861,
      "aled": 2862,
      "▁audience": 2863,
      "▁ent": 2864,
      "▁itself": 2865,
      "▁lad": 2866,
      "aded": 2867,
      "▁teeth": 2868,
      "lights": 2869,
      "▁pers": 2870,
      "etition": 2871,
      "▁taken": 2872,
      "▁my": 2873,
      "▁said": 2874,
      "oc": 2875,
      "▁decide": 2876,
      "▁downtown": 2877,
      "ries": 2878,
      "gre": 2879,
      "tim": 2880,
      "▁plan": 2881,
      "▁“": 2882,
      "▁draw": 2883,
      "▁programme": 2884,
      "▁languages": 2885,
      "▁cri": 2886,
      "▁sw": 2887,
      "ie": 2888,
      "▁favor": 2889,
      "▁recommend": 2890,
      "vel": 2891,
      "▁apprec": 2892,
      "chie": 2893,
      "▁instance": 2894,
      "[": 2895,
      "▁rece": 2896,
      "▁sched": 2897,
      "lish": 2898,
      "▁ground": 2899,
      "▁econom": 2900,
      "liday": 2901,
      "▁forces": 2902,
      "▁traff": 2903,
      "▁received": 2904,
      "▁anti": 2905,
      "ections": 2906,
      "▁week": 2907,
      "ined": 2908,
      "▁grab": 2909,
      "cr": 2910,
      "▁poll": 2911,
      "zation": 2912,
      "▁since": 2913,
      "overn": 2914,
      "iqu": 2915,
      "ut": 2916,
      "▁institutions": 2917,
      "▁both": 2918,
      "ack": 2919,
      "board": 2920,
      "▁pupp": 2921,
      "side": 2922,
      "▁raised": 2923,
      "ested": 2924,
      "▁own": 2925,
      "▁nt": 2926,
      "▁photograph": 2927,
      "uc": 2928,
      "▁woman": 2929,
      "ays": 2930,
      "acted": 2931,
      "▁mag": 2932,
      "▁p": 2933,
      "▁september": 2934,
      "▁page": 2935,
      "ρ": 2936,
      "operation": 2937,
      "▁looked": 2938,
      "ril": 2939,
      "ir": 2940,
      "lik": 2941,
      "▁range": 2942,
      "▁det": 2943,
      "asts": 2944,
      "▁cove": 2945,
      "▁inc": 2946,
      "▁no": 2947,
      "ans": 2948,
      "▁regar": 2949,
      "▁********": 2950,
      "▁development": 2951,
      "ever": 2952,
      "▁open": 2953,
      "▁mir": 2954,
      "▁document": 2955,
      "▁siz": 2956,
      "▁exhib": 2957,
      "ond": 2958,
      "at": 2959,
      "▁rate": 2960,
      "^": 2961,
      "▁meal": 2962,
      "ligence": 2963,
      "▁area": 2964,
      "fication": 2965,
      "▁`s": 2966,
      "▁recogn": 2967,
      "▁remembered": 2968,
      "▁responsibility": 2969,
      "▁mil": 2970,
      "▁gives": 2971,
      "ei": 2972,
      "▁shown": 2973,
      "ter": 2974,
      "erent": 2975,
      "▁every": 2976,
      "gr": 2977,
      "▁·": 2978,
      "▁banana": 2979,
      "▁suggest": 2980,
      "alities": 2981,
      "friend": 2982,
      "ints": 2983,
      "▁always": 2984,
      "▁poss": 2985,
      "▁drug": 2986,
      "▁opinion": 2987,
      "ning": 2988,
      "ower": 2989,
      "▁shorts": 2990,
      "▁iodine": 2991,
      "ile": 2992,
      "ves": 2993,
      "▁focus": 2994,
      "lications": 2995,
      "▁turning": 2996,
      "▁ter": 2997,
      "▁fri": 2998,
      "iew": 2999,
      "▁attem": 3000,
      "▁liked": 3001,
      "▁walk": 3002,
      "▁technology": 3003,
      "rop": 3004,
      "▁birth": 3005,
      "ital": 3006,
      "▁kind": 3007,
      "urs": 3008,
      "▁material": 3009,
      "▁as": 3010,
      "▁atlan": 3011,
      "▁kid": 3012,
      "imp": 3013,
      "agon": 3014,
      "lished": 3015,
      "ributed": 3016,
      "ender": 3017,
      "aged": 3018,
      "act": 3019,
      "▁democracy": 3020,
      "uro": 3021,
      "▁doing": 3022,
      "▁secret": 3023,
      "ify": 3024,
      "▁scr": 3025,
      "▁road": 3026,
      "▁administ": 3027,
      "▁called": 3028,
      "▁cust": 3029,
      "▁learned": 3030,
      "▁list": 3031,
      "▁living": 3032,
      "ses": 3033,
      "▁nume": 3034,
      "▁micro": 3035,
      "▁sug": 3036,
      "ceed": 3037,
      "ate": 3038,
      "▁break": 3039,
      "▁cards": 3040,
      "bb": 3041,
      "ject": 3042,
      "lu": 3043,
      "▁part": 3044,
      "▁lay": 3045,
      "▁weeks": 3046,
      "ine": 3047,
      "▁drink": 3048,
      "▁maintain": 3049,
      "ign": 3050,
      "olving": 3051,
      "▁fare": 3052,
      "▁hors": 3053,
      "and": 3054,
      "oll": 3055,
      "gether": 3056,
      "▁requi": 3057,
      "▁wearing": 3058,
      "itions": 3059,
      "▁employment": 3060,
      "▁bec": 3061,
      "▁arriving": 3062,
      "▁someone": 3063,
      "▁reach": 3064,
      "▁sports": 3065,
      "[CLS]": 3066,
      "ious": 3067,
      "thers": 3068,
      "▁campaign": 3069,
      "▁’ve": 3070,
      "▁name": 3071,
      "▁philadelphia": 3072,
      "++": 3073,
      "thing": 3074,
      ".com": 3075,
      "▁thou": 3076,
      "▁boat": 3077,
      "▁-------------------------------------------------": 3078,
      "▁treated": 3079,
      "ments": 3080,
      "▁gen": 3081,
      "▁applied": 3082,
      "ional": 3083,
      "▁keep": 3084,
      "op": 3085,
      "▁protection": 3086,
      "*": 3087,
      "mos": 3088,
      "▁aft": 3089,
      "▁ability": 3090,
      "nding": 3091,
      "▁what": 3092,
      "uting": 3093,
      "▁characters": 3094,
      "▁during": 3095,
      "▁stories": 3096,
      "▁arrived": 3097,
      "▁teh": 3098,
      "ead": 3099,
      "▁cars": 3100,
      "▁appear": 3101,
      "▁gender": 3102,
      "▁method": 3103,
      "tw": 3104,
      "land": 3105,
      "age": 3106,
      "▁partic": 3107,
      "▁mic": 3108,
      "▁interview": 3109,
      "▁real": 3110,
      "▁interv": 3111,
      "bur": 3112,
      "▁tou": 3113,
      "▁level": 3114,
      "▁sil": 3115,
      "tiv": 3116,
      "▁crow": 3117,
      "arity": 3118,
      "ight": 3119,
      "▁line": 3120,
      "▁&am": 3121,
      "▁pocket": 3122,
      "▁?!?": 3123,
      "▁park": 3124,
      "▁wants": 3125,
      "ur": 3126,
      "▁pi": 3127,
      "▁fund": 3128,
      "ashed": 3129,
      "▁task": 3130,
      "te": 3131,
      "▁jelly": 3132,
      "▁where": 3133,
      "▁cat": 3134,
      "▁past": 3135,
      "ison": 3136,
      "▁vol": 3137,
      "▁relations": 3138,
      "est": 3139,
      "▁style": 3140,
      "▁toast": 3141,
      "▁jud": 3142,
      "iture": 3143,
      "ience": 3144,
      "ang": 3145,
      "▁took": 3146,
      "▁thursday": 3147,
      "▁review": 3148,
      "▁stuff": 3149,
      "▁meant": 3150,
      "▁consequ": 3151,
      "fir": 3152,
      "▁stay": 3153,
      "%": 3154,
      "ust": 3155,
      "▁admin": 3156,
      "▁finished": 3157,
      "????????????????????????????????": 3158,
      "ʁ": 3159,
      "▁boys": 3160,
      "ogn": 3161,
      "j": 3162,
      "▁bas": 3163,
      "hes": 3164,
      "--------": 3165,
      "oph": 3166,
      "action": 3167,
      "acking": 3168,
      "▁thurs": 3169,
      "▁************************************************": 3170,
      "▁power": 3171,
      "▁respon": 3172,
      "▁visa": 3173,
      "▁threat": 3174,
      "▁return": 3175,
      "oss": 3176,
      "ump": 3177,
      "****": 3178,
      "▁continu": 3179,
      "▁cause": 3180,
      "▁pot": 3181,
      "▁evidence": 3182,
      "▁telephone": 3183,
      "±": 3184,
      "ural": 3185,
      "ume": 3186,
      "oder": 3187,
      "ma": 3188,
      "cles": 3189,
      "eep": 3190,
      "ether": 3191,
      "ices": 3192,
      "▁areas": 3193,
      "▁item": 3194,
      "▁cr": 3195,
      "ection": 3196,
      "ulture": 3197,
      "▁attempt": 3198,
      "▁beyond": 3199,
      "--------------------------------": 3200,
      "elines": 3201,
      "▁estimated": 3202,
      "▁perform": 3203,
      "▁wa": 3204,
      "in": 3205,
      "▁vi": 3206,
      "▁books": 3207,
      "▁dwww": 3208,
      "▁ways": 3209,
      "▁saturday": 3210,
      "▁people": 3211,
      "▁call": 3212,
      "▁writers": 3213,
      "ther": 3214,
      "int": 3215,
      "▁generation": 3216,
      "`s": 3217,
      "ress": 3218,
      "on": 3219,
      "▁resp": 3220,
      "▁maybe": 3221,
      "▁ride": 3222,
      "▁es": 3223,
      "▁attack": 3224,
      "▁search": 3225,
      "▁mis": 3226,
      "▁elev": 3227,
      "▁theory": 3228,
      "▁repair": 3229,
      "▁students": 3230,
      "▁bike": 3231,
      "▁str": 3232,
      "ying": 3233,
      "▁following": 3234,
      "▁heart": 3235,
      "izing": 3236,
      "▁cir": 3237,
      "ith": 3238,
      "yond": 3239,
      "very": 3240,
      "▁dinner": 3241,
      "▁wou": 3242,
      "▁challen": 3243,
      "fl": 3244,
      "▁harry": 3245,
      "▁reported": 3246,
      "▁from": 3247,
      "▁different": 3248,
      "▁family": 3249,
      "▁turn": 3250,
      "▁coffee": 3251,
      "▁weap": 3252,
      "gh": 3253,
      "ip": 3254,
      "ole": 3255,
      "▁sat": 3256,
      "▁200": 3257,
      "▁partners": 3258,
      "▁blood": 3259,
      "▁magic": 3260,
      "▁les": 3261,
      "iron": 3262,
      "▁tea": 3263,
      "▁garage": 3264,
      "erate": 3265,
      "▁spoon": 3266,
      "▁flights": 3267,
      "▁was": 3268,
      "anced": 3269,
      "hin": 3270,
      "sure": 3271,
      "▁signed": 3272,
      "kers": 3273,
      "br": 3274,
      "▁region": 3275,
      "ground": 3276,
      "ement": 3277,
      "▁j": 3278,
      "▁net": 3279,
      "actions": 3280,
      "yed": 3281,
      "ulated": 3282,
      "rap": 3283,
      "▁grandm": 3284,
      "?": 3285,
      "asure": 3286,
      "ony": 3287,
      "mar": 3288,
      "uled": 3289,
      "▁officials": 3290,
      "▁series": 3291,
      "▁init": 3292,
      "▁tr": 3293,
      "▁beg": 3294,
      "▁bottle": 3295,
      "▁strength": 3296,
      "▁nose": 3297,
      "&": 3298,
      "▁elect": 3299,
      "ution": 3300,
      "▁butter": 3301,
      "▁ye": 3302,
      "ʒ": 3303,
      "ulate": 3304,
      "▁cats": 3305,
      "??": 3306,
      "▁opportun": 3307,
      "▁cities": 3308,
      "inks": 3309,
      "ects": 3310,
      "▁[...": 3311,
      "vers": 3312,
      "▁nap": 3313,
      "▁bedroom": 3314,
      "▁happening": 3315,
      "▁stat": 3316,
      "uses": 3317,
      "▁euro": 3318,
      "▁communication": 3319,
      "▁cont": 3320,
      "▁dol": 3321,
      "▁death": 3322,
      "enting": 3323,
      "▁!!!!!": 3324,
      "▁reduc": 3325,
      "▁april": 3326,
      "lem": 3327,
      "▁hos": 3328,
      "face": 3329,
      "▁diff": 3330,
      "derstand": 3331,
      "ept": 3332,
      "▁flag": 3333,
      "ym": 3334,
      "▁wed": 3335,
      "▁go": 3336,
      "mp": 3337,
      "ports": 3338,
      "▁consider": 3339,
      "▁sold": 3340,
      "▁peop": 3341,
      "m": 3342,
      "▁sun": 3343,
      "▁govern": 3344,
      "owers": 3345,
      "▁help": 3346,
      "▁telling": 3347,
      "▁mention": 3348,
      "▁presence": 3349,
      "▁dey": 3350,
      "urday": 3351,
      "▁anal": 3352,
      "ial": 3353,
      "ave": 3354,
      "▁tic": 3355,
      "▁infl": 3356,
      "▁sur": 3357,
      "▁emb": 3358,
      "ore": 3359,
      "▁'re": 3360,
      "▁example": 3361,
      "▁claim": 3362,
      "▁very": 3363,
      "▁ign": 3364,
      "--": 3365,
      "i": 3366,
      "▁artic": 3367,
      "ults": 3368,
      "▁jobs": 3369,
      "▁try": 3370,
      "▁'": 3371,
      "uted": 3372,
      "▁duck": 3373,
      "▁bab": 3374,
      "es": 3375,
      "▁opportunity": 3376,
      "▁regards": 3377,
      "▁amid": 3378,
      "▁atmosphere": 3379,
      "▁stock": 3380,
      "olding": 3381,
      "▁passed": 3382,
      "▁franc": 3383,
      "▁id": 3384,
      "ks": 3385,
      "▁stop": 3386,
      "▁ple": 3387,
      "▁difference": 3388,
      "▁there": 3389,
      "tic": 3390,
      "round": 3391,
      "▁bomb": 3392,
      "uly": 3393,
      "φ": 3394,
      "rous": 3395,
      "▁fr": 3396,
      "▁++++": 3397,
      "▁trans": 3398,
      "▁seemed": 3399,
      "____": 3400,
      "ff": 3401,
      "work": 3402,
      "ο": 3403,
      "▁while": 3404,
      "un": 3405,
      "▁legos": 3406,
      "▁b": 3407,
      "▁far": 3408,
      "▁]": 3409,
      "▁!!!!!!!!!!!!!": 3410,
      "▁through": 3411,
      "ving": 3412,
      "▁inclu": 3413,
      "portun": 3414,
      "alu": 3415,
      "▁economy": 3416,
      "ball": 3417,
      "▁mon": 3418,
      "▁recog": 3419,
      "▁caused": 3420,
      "irst": 3421,
      "▁impact": 3422,
      "▁hund": 3423,
      "▁cruise": 3424,
      "▁before": 3425,
      "▁space": 3426,
      "▁class": 3427,
      "▁anyone": 3428,
      "▁math": 3429,
      "▁roll": 3430,
      "▁pages": 3431,
      "▁cru": 3432,
      "▁mili": 3433,
      "▁requ": 3434,
      "sed": 3435,
      "▁oper": 3436,
      "▁respond": 3437,
      "▁proble": 3438,
      "▁love": 3439,
      "▁bird": 3440,
      "tor": 3441,
      "one": 3442,
      "▁instit": 3443,
      "▁secon": 3444,
      "▁sym": 3445,
      "▁sure": 3446,
      "ture": 3447,
      "▁field": 3448,
      "▁demonstr": 3449,
      "▁despite": 3450,
      "▁threw": 3451,
      "▁and": 3452,
      "▁save": 3453,
      "▁developing": 3454,
      "ces": 3455,
      "▁supp": 3456,
      "▁tool": 3457,
      "omp": 3458,
      "unch": 3459,
      "▁door": 3460,
      "▁everything": 3461,
      "ength": 3462,
      "orders": 3463,
      "▁d": 3464,
      "cl": 3465,
      "ia": 3466,
      "▁exc": 3467,
      "▁resul": 3468,
      "rong": 3469,
      "▁milit": 3470,
      "▁libr": 3471,
      "▁laugh": 3472,
      "ner": 3473,
      "▁game": 3474,
      "▁!!!!!!!": 3475,
      "▁language": 3476,
      "▁rent": 3477,
      "its": 3478,
      "▁speak": 3479,
      "▁bite": 3480,
      "▁remember": 3481,
      "uring": 3482,
      "▁looking": 3483,
      "ails": 3484,
      "▁mail": 3485,
      "is": 3486,
      "▁....": 3487,
      "▁dall": 3488,
      "min": 3489,
      "▁however": 3490,
      "▁internet": 3491,
      "▁council": 3492,
      "ding": 3493,
      "▁ou": 3494,
      "▁floor": 3495,
      "▁for": 3496,
      "aper": 3497,
      "▁cook": 3498,
      "lions": 3499,
      "rying": 3500,
      "▁bub": 3501,
      "▁than": 3502,
      "ider": 3503,
      "ul": 3504,
      "iated": 3505,
      "▁cooperation": 3506,
      "▁sle": 3507,
      "▁schools": 3508,
      "▁belong": 3509,
      "▁til": 3510,
      "ping": 3511,
      "ib": 3512,
      "▁reality": 3513,
      "▁des": 3514,
      "▁eating": 3515,
      "▁throughout": 3516,
      "▁whoever": 3517,
      "overed": 3518,
      "▁super": 3519,
      "anger": 3520,
      "▁to": 3521,
      "▁present": 3522,
      "ises": 3523,
      "bably": 3524,
      "▁side": 3525,
      "▁goods": 3526,
      "ert": 3527,
      "▁result": 3528,
      "ging": 3529,
      "▁classes": 3530,
      "▁truck": 3531,
      "cc": 3532,
      "▁bathroom": 3533,
      "iness": 3534,
      "▁medic": 3535,
      "und": 3536,
      "▁program": 3537,
      "▁lunch": 3538,
      "omet": 3539,
      "right": 3540,
      "▁occur": 3541,
      "▁incre": 3542,
      "ched": 3543,
      "▁metal": 3544,
      "ipped": 3545,
      "erated": 3546,
      "▁hi": 3547,
      "▁tank": 3548,
      "tity": 3549,
      "▁furniture": 3550,
      "▁faith": 3551,
      "▁br": 3552,
      "▁e-m": 3553,
      "▁stand": 3554,
      "ced": 3555,
      "▁others": 3556,
      "▁issue": 3557,
      "▁born": 3558,
      "ys": 3559,
      "▁chance": 3560,
      ".d": 3561,
      "▁law": 3562,
      "mber": 3563,
      "▁honey": 3564,
      "ss": 3565,
      "▁ought": 3566,
      "▁ma": 3567,
      "▁?????": 3568,
      "▁gener": 3569,
      "▁cage": 3570,
      "▁which": 3571,
      "el": 3572,
      "nesday": 3573,
      "▁laur": 3574,
      "▁screen": 3575,
      "▁pin": 3576,
      "▁paint": 3577,
      "▁gre": 3578,
      "▁provide": 3579,
      "▁sus": 3580,
      "▁tiger": 3581,
      "▁denver": 3582,
      "▁newsp": 3583,
      "▁become": 3584,
      "▁ag": 3585,
      "art": 3586,
      "▁compon": 3587,
      "▁released": 3588,
      "ouse": 3589,
      "▁betw": 3590,
      "ilos": 3591,
      "ork": 3592,
      "▁hor": 3593,
      "▁whom": 3594,
      "▁?": 3595,
      "ace": 3596,
      "▁corner": 3597,
      "▁making": 3598,
      "pping": 3599,
      "▁imple": 3600,
      "▁happen": 3601,
      "▁|": 3602,
      "ous": 3603,
      "▁allow": 3604,
      "........": 3605,
      "▁analysis": 3606,
      "ations": 3607,
      "▁bring": 3608,
      "enc": 3609,
      "ange": 3610,
      "▁ing": 3611,
      "▁moved": 3612,
      "▁june": 3613,
      "▁mach": 3614,
      "▁security": 3615,
      "ted": 3616,
      "▁do": 3617,
      "urity": 3618,
      "▁tape": 3619,
      "▁pivottable": 3620,
      "▁budget": 3621,
      "▁year": 3622,
      "▁explain": 3623,
      "▁hands": 3624,
      "ics": 3625,
      "'t": 3626,
      "▁besides": 3627,
      "▁either": 3628,
      "▁site": 3629,
      "ato": 3630,
      "ds": 3631,
      "aries": 3632,
      "▁electric": 3633,
      "▁one": 3634,
      "s": 3635,
      "▁employees": 3636,
      "▁york": 3637,
      "▁unto": 3638,
      "▁toys": 3639,
      "▁voice": 3640,
      "▁stopover": 3641,
      "ny": 3642,
      "▁luck": 3643,
      "x": 3644,
      "▁_": 3645,
      "▁indust": 3646,
      "▁beat": 3647,
      "▁momma": 3648,
      "ateg": 3649,
      "▁manner": 3650,
      "py": 3651,
      "▁party": 3652,
      "▁cream": 3653,
      "▁coup": 3654,
      "▁unlike": 3655,
      "ug": 3656,
      "ette": 3657,
      "▁st.": 3658,
      "ex": 3659,
      "▁win": 3660,
      "▁bal": 3661,
      "▁military": 3662,
      "▁jokes": 3663,
      "▁lack": 3664,
      "æ": 3665,
      "▁until": 3666,
      "▁minutes": 3667,
      "ounts": 3668,
      "▁n": 3669,
      "▁effect": 3670,
      "▁fiel": 3671,
      "▁med": 3672,
      "igned": 3673,
      "▁o": 3674,
      "▁proposed": 3675,
      "oration": 3676,
      "­": 3677,
      "ness": 3678,
      "▁expected": 3679,
      "vailable": 3680,
      "▁none": 3681,
      "▁asp": 3682,
      "mon": 3683,
      "▁cam": 3684,
      "nec": 3685,
      "▁well": 3686,
      "-": 3687,
      "ne": 3688,
      "ores": 3689,
      "▁changed": 3690,
      "town": 3691,
      "▁!?": 3692,
      "derst": 3693,
      "llow": 3694,
      "acters": 3695,
      "▁hour": 3696,
      "▁”": 3697,
      "▁dro": 3698,
      "▁night": 3699,
      "selve": 3700,
      "▁contr": 3701,
      "ands": 3702,
      "▁vote": 3703,
      "▁intern": 3704,
      "▁food": 3705,
      "▁file": 3706,
      "o": 3707,
      "eet": 3708,
      "_": 3709,
      "▁qu": 3710,
      "uts": 3711,
      "▁import": 3712,
      "▁airplane": 3713,
      "▁feel": 3714,
      "os": 3715,
      "▁its": 3716,
      "▁gard": 3717,
      "▁respons": 3718,
      "▁playing": 3719,
      "▁house": 3720,
      "▁dam": 3721,
      "▁weapons": 3722,
      "▁‘’": 3723,
      "▁storm": 3724,
      "ould": 3725,
      "ication": 3726,
      "lic": 3727,
      "▁horses": 3728,
      "▁z": 3729,
      "▁trees": 3730,
      "▁equ": 3731,
      "ult": 3732,
      "▁ta": 3733,
      "▁employ": 3734,
      "▁pulled": 3735,
      "▁buttons": 3736,
      "ach": 3737,
      "œ": 3738,
      "ain": 3739,
      "▁changing": 3740,
      "am": 3741,
      "7": 3742,
      "▁dollars": 3743,
      "ability": 3744,
      "en": 3745,
      "▁picture": 3746,
      "ologies": 3747,
      "▁job": 3748,
      "▁num": 3749,
      "ta": 3750,
      "ove": 3751,
      "▁attend": 3752,
      "▁committee": 3753,
      "room": 3754,
      "▁furn": 3755,
      "▁ec": 3756,
      "▁temper": 3757,
      "spite": 3758,
      "▁book": 3759,
      "▁pur": 3760,
      "▁how": 3761,
      "********": 3762,
      "▁min": 3763,
      "oring": 3764,
      "uch": 3765,
      "phere": 3766,
      "iding": 3767,
      "ithst": 3768,
      "▁cur": 3769,
      "▁bac": 3770,
      "▁asking": 3771,
      "▁te": 3772,
      "▁married": 3773,
      "plus": 3774,
      "▁ap": 3775,
      "ere": 3776,
      "▁bunny": 3777,
      "▁me": 3778,
      "▁leaders": 3779,
      "ault": 3780,
      "▁airlin": 3781,
      "▁points": 3782,
      "▁tuesday": 3783,
      "▁round": 3784,
      "▁ball": 3785,
      "ych": 3786,
      "aces": 3787,
      "▁hide": 3788,
      "▁meth": 3789,
      "iction": 3790,
      "▁trou": 3791,
      "▁bom": 3792,
      "}": 3793,
      "ab": 3794,
      "▁increased": 3795,
      "▁driver": 3796,
      "▁cookies": 3797,
      "nd": 3798,
      "ocr": 3799,
      "▁sand": 3800,
      "++++": 3801,
      "▁order": 3802,
      "▁mor": 3803,
      "▁don": 3804,
      "ret": 3805,
      "ep": 3806,
      "▁def": 3807,
      "▁seek": 3808,
      "▁sea": 3809,
      "▁dri": 3810,
      "▁acqui": 3811,
      "phia": 3812,
      "▁?!": 3813,
      "▁establish": 3814,
      "ist": 3815,
      "▁underst": 3816,
      "▁ca": 3817,
      "▁first": 3818,
      "▁actually": 3819,
      "▁toy": 3820,
      "▁lie": 3821,
      "▁settlement": 3822,
      "▁rest": 3823,
      "ride": 3824,
      "tures": 3825,
      "▁morning": 3826,
      "▁worked": 3827,
      "▁eye": 3828,
      "ories": 3829,
      "unt": 3830,
      "▁sandwich": 3831,
      "▁airl": 3832,
      "cing": 3833,
      "▁months": 3834,
      "▁basil": 3835,
      "▁touch": 3836,
      "▁two": 3837,
      "fri": 3838,
      "▁individ": 3839,
      "▁ran": 3840,
      "▁matter": 3841,
      "▁notice": 3842,
      "▁happ": 3843,
      "uter": 3844,
      "ord": 3845,
      "▁capacity": 3846,
      "▁clothing": 3847,
      "▁disaster": 3848,
      "▁majority": 3849,
      "▁flight": 3850,
      "▁serv": 3851,
      "▁desk": 3852,
      "▁believed": 3853,
      "▁support": 3854,
      "ear": 3855,
      "▁???": 3856,
      "io": 3857,
      "▁along": 3858,
      "▁tried": 3859,
      "▁legs": 3860,
      "!!": 3861,
      "▁wife": 3862,
      "▁defense": 3863,
      "▁’m": 3864,
      "@": 3865,
      "aughter": 3866,
      "▁horse": 3867,
      "aft": 3868,
      "▁educ": 3869,
      "▁posted": 3870,
      "▁killed": 3871,
      "▁hair": 3872,
      "▁chees": 3873,
      "▁fl": 3874,
      "▁...": 3875,
      "-------": 3876,
      "▁gr": 3877,
      "▁pick": 3878,
      "icide": 3879,
      "▁view": 3880,
      "▁inn": 3881,
      "▁town": 3882,
      "▁were": 3883,
      "▁yours": 3884,
      "▁carrying": 3885,
      "▁we": 3886,
      "°": 3887,
      "▁policy": 3888,
      "ze": 3889,
      "▁after": 3890,
      "▁hist": 3891,
      "▁bri": 3892,
      "ri": 3893,
      "▁vehic": 3894,
      "▁ve": 3895,
      "▁choose": 3896,
      "▁environ": 3897,
      "ines": 3898,
      "▁est": 3899,
      "▁wednesday": 3900,
      "▁wee": 3901,
      "▁recommended": 3902,
      "▁vs": 3903,
      "ait": 3904,
      "▁dist": 3905,
      "▁if": 3906,
      "ity": 3907,
      "▁importance": 3908,
      "▁fixed": 3909,
      "ca": 3910,
      "▁started": 3911,
      "▁cre": 3912,
      "▁home": 3913,
      "▁progr": 3914,
      "▁conce": 3915,
      "▁cry": 3916,
      "▁again": 3917,
      "▁ex": 3918,
      "outh": 3919,
      "aff": 3920,
      "▁throu": 3921,
      "ght": 3922,
      "tle": 3923,
      "▁arrive": 3924,
      "▁walking": 3925,
      "▁boo": 3926,
      "isco": 3927,
      "▁belon": 3928,
      "ik": 3929,
      "********************************": 3930,
      "neath": 3931,
      "▁pil": 3932,
      "ument": 3933,
      "▁u": 3934,
      "▁forwar": 3935,
      "▁today": 3936,
      "liament": 3937,
      "ins": 3938,
      "▁drinking": 3939,
      "▁@": 3940,
      "▁chick": 3941,
      "▁inter": 3942,
      "▁constit": 3943,
      "hen": 3944,
      "▁getting": 3945,
      "other": 3946,
      "▁city": 3947,
      "ending": 3948,
      "▁insurance": 3949,
      "orted": 3950,
      "▁che": 3951,
      "▁breakf": 3952,
      "▁card": 3953,
      "▁contract": 3954,
      "▁atmos": 3955,
      "ished": 3956,
      "tie": 3957,
      "els": 3958,
      "▁connection": 3959,
      "▁restaurant": 3960,
      "▁control": 3961,
      "▁mouse": 3962,
      "▁pieces": 3963,
      "▁anoder": 3964,
      "▁wond": 3965,
      "angu": 3966,
      "ale": 3967,
      "▁design": 3968,
      "ment": 3969,
      "▁anoth": 3970,
      "idence": 3971,
      "▁though": 3972,
      "▁made": 3973,
      "ge": 3974,
      "order": 3975,
      "▁)": 3976,
      "oo": 3977,
      "▁conf": 3978,
      "oy": 3979,
      "▁on": 3980,
      "▁rain": 3981,
      "▁grandmother": 3982,
      "▁placed": 3983,
      "▁database": 3984,
      "ges": 3985,
      "owl": 3986,
      "uments": 3987,
      "using": 3988,
      "▁cover": 3989,
      "▁chap": 3990,
      "[UNK]": 3991,
      "id": 3992,
      "▁concer": 3993,
      "▁bl": 3994,
      "▁uhhuh": 3995,
      "▁wit": 3996,
      "▁protect": 3997,
      "oard": 3998,
      "▁ears": 3999,
      "amp": 4000,
      "oved": 4001,
      "▁any": 4002,
      "▁begin": 4003,
      "iti": 4004,
      "▁wake": 4005,
      "▁stud": 4006,
      "▁felt": 4007,
      "▁finding": 4008,
      "▁source": 4009,
      "thin": 4010,
      "ath": 4011,
      "oor": 4012,
      "▁moment": 4013,
      "▁august": 4014,
      "▁growth": 4015,
      "▁reve": 4016,
      "▁girl": 4017,
      "tride": 4018,
      "▁pill": 4019,
      "▁wo": 4020,
      "▁old": 4021,
      "ties": 4022,
      "des": 4023,
      "▁ants": 4024,
      "▁minus": 4025,
      "▁them": 4026,
      "▁prov": 4027,
      "alf": 4028,
      "▁of": 4029,
      "▁expl": 4030,
      "acy": 4031,
      "▁government": 4032,
      "▁......": 4033,
      "▁descri": 4034,
      "ington": 4035,
      "▁daddy": 4036,
      "▁season": 4037,
      "__": 4038,
      "▁regarding": 4039,
      "▁miss": 4040,
      "imore": 4041,
      "▁all": 4042,
      "▁website": 4043,
      "ame": 4044,
      "▁then": 4045,
      "▁column": 4046,
      "▁w": 4047,
      "hip": 4048,
      "▁dragon": 4049,
      "▁esc": 4050,
      "tt": 4051,
      "▁information": 4052,
      "to": 4053,
      "▁can": 4054,
      "▁n’t": 4055,
      "▁adv": 4056,
      "▁leader": 4057,
      "▁image": 4058,
      "▁arrang": 4059,
      "▁includes": 4060,
      "▁fire": 4061,
      "▁hole": 4062,
      "▁exec": 4063,
      "!!!": 4064,
      "▁mountain": 4065,
      "▁-----": 4066,
      "▁join": 4067,
      "▁ident": 4068,
      "▁caught": 4069,
      "▁know": 4070,
      "▁theirs": 4071,
      "ators": 4072,
      "▁da": 4073,
      "▁comp": 4074,
      "▁boy": 4075,
      "▁hot": 4076,
      "ored": 4077,
      "▁trying": 4078,
      "▁receive": 4079,
      "▁disp": 4080,
      "▁purch": 4081,
      "▁word": 4082,
      "ible": 4083,
      "▁needed": 4084,
      "ended": 4085,
      "▁haf": 4086,
      "▁experience": 4087,
      "alth": 4088,
      "▁minute": 4089,
      "gy": 4090,
      "▁forget": 4091,
      "▁pm": 4092,
      "ulation": 4093,
      "▁sound": 4094,
      "▁store": 4095
    },
    "merges": [
      [
        "e",
        "ither"
      ],
      [
        "▁la",
        "w"
      ],
      [
        "h",
        "ether"
      ],
      [
        "▁fiel",
        "d"
      ],
      [
        "▁b",
        "y"
      ],
      [
        "▁vis",
        "a"
      ],
      [
        "ep",
        "end"
      ],
      [
        "▁disc",
        "us"
      ],
      [
        "ur",
        "ch"
      ],
      [
        "▁see",
        "m"
      ],
      [
        "▁dog",
        "g"
      ],
      [
        "▁f",
        "urn"
      ],
      [
        "iver",
        "s"
      ],
      [
        "▁ha",
        "lf"
      ],
      [
        "▁press",
        "ure"
      ],
      [
        "▁govern",
        "ment"
      ],
      [
        "et",
        "e"
      ],
      [
        "▁be",
        "tw"
      ],
      [
        "▁or",
        "ig"
      ],
      [
        "▁incl",
        "uding"
      ],
      [
        "ud",
        "e"
      ],
      [
        "▁b",
        "o"
      ],
      [
        "ou",
        "nd"
      ],
      [
        "▁di",
        "rec"
      ],
      [
        "▁rec",
        "ord"
      ],
      [
        "▁am",
        "ount"
      ],
      [
        "▁n",
        "o"
      ],
      [
        "▁l",
        "ist"
      ],
      [
        "▁disp",
        "l"
      ],
      [
        "▁conse",
        "qu"
      ],
      [
        "ic",
        "an"
      ],
      [
        "ve",
        "n"
      ],
      [
        "▁",
        "ex"
      ],
      [
        "▁s",
        "igned"
      ],
      [
        "on",
        "e"
      ],
      [
        "i",
        "lity"
      ],
      [
        "au",
        "gh"
      ],
      [
        "▁pro",
        "f"
      ],
      [
        "▁colle",
        "ag"
      ],
      [
        "a",
        "med"
      ],
      [
        "▁direc",
        "tive"
      ],
      [
        "a",
        "ged"
      ],
      [
        "▁m",
        "u"
      ],
      [
        "▁v",
        "i"
      ],
      [
        "▁w",
        "/"
      ],
      [
        "▁s",
        "ome"
      ],
      [
        "▁op",
        "ening"
      ],
      [
        "▁b",
        "oard"
      ],
      [
        "▁cl",
        "ass"
      ],
      [
        "▁dog",
        "s"
      ],
      [
        "▁ar",
        "gu"
      ],
      [
        "▁a",
        "ss"
      ],
      [
        "ver",
        "y"
      ],
      [
        "ter",
        "s"
      ],
      [
        "▁o",
        "u"
      ],
      [
        "▁wou",
        "d"
      ],
      [
        "p",
        ";"
      ],
      [
        "▁b",
        "l"
      ],
      [
        "▁off",
        "er"
      ],
      [
        "ac",
        "king"
      ],
      [
        "▁progr",
        "am"
      ],
      [
        "an",
        "c"
      ],
      [
        "e",
        "ti"
      ],
      [
        "b",
        "oth"
      ],
      [
        "ou",
        "ld"
      ],
      [
        "i",
        "re"
      ],
      [
        "▁pup",
        "p"
      ],
      [
        "▁f",
        "ound"
      ],
      [
        "▁pittsbur",
        "gh"
      ],
      [
        "for",
        "m"
      ],
      [
        "▁",
        ","
      ],
      [
        "▁b",
        "an"
      ],
      [
        "????",
        "????"
      ],
      [
        "ber",
        "ry"
      ],
      [
        "▁n",
        "ow"
      ],
      [
        "ul",
        "ation"
      ],
      [
        "▁bas",
        "il"
      ],
      [
        "▁",
        "/"
      ],
      [
        "▁ord",
        "er"
      ],
      [
        "▁throu",
        "gh"
      ],
      [
        "▁exp",
        "er"
      ],
      [
        "▁open",
        "ing"
      ],
      [
        "ang",
        "u"
      ],
      [
        "▁stre",
        "t"
      ],
      [
        "en",
        "ting"
      ],
      [
        "▁f",
        "und"
      ],
      [
        "▁eff",
        "ort"
      ],
      [
        "▁s",
        "et"
      ],
      [
        "▁chall",
        "en"
      ],
      [
        "▁re",
        "v"
      ],
      [
        "▁a",
        "r"
      ],
      [
        "▁",
        "ow"
      ],
      [
        "▁e",
        "y"
      ],
      [
        "an",
        "ks"
      ],
      [
        "▁sh",
        "ould"
      ],
      [
        "▁s",
        "up"
      ],
      [
        "ess",
        "ion"
      ],
      [
        "▁d",
        "id"
      ],
      [
        "▁who",
        "'s"
      ],
      [
        "▁post",
        "ed"
      ],
      [
        "▁or",
        "d"
      ],
      [
        "▁gu",
        "ys"
      ],
      [
        "▁v",
        "ote"
      ],
      [
        "▁t",
        "ake"
      ],
      [
        "▁alread",
        "y"
      ],
      [
        "▁appro",
        "ach"
      ],
      [
        "▁w",
        "rote"
      ],
      [
        "▁sty",
        "le"
      ],
      [
        "▁wee",
        "ks"
      ],
      [
        "c",
        "o"
      ],
      [
        "▁",
        "p"
      ],
      [
        "▁c",
        "ateg"
      ],
      [
        "▁fe",
        "ed"
      ],
      [
        "▁",
        "’"
      ],
      [
        "ac",
        "y"
      ],
      [
        "▁trave",
        "l"
      ],
      [
        "▁d",
        "et"
      ],
      [
        "▁...",
        ".."
      ],
      [
        "▁",
        "oc"
      ],
      [
        "▁cr",
        "ack"
      ],
      [
        "g",
        "et"
      ],
      [
        "▁ou",
        "ght"
      ],
      [
        "▁sp",
        "ent"
      ],
      [
        "a",
        "ct"
      ],
      [
        "▁g",
        "round"
      ],
      [
        "i",
        "c"
      ],
      [
        "▁fin",
        "d"
      ],
      [
        "▁bo",
        "y"
      ],
      [
        "▁f",
        "ind"
      ],
      [
        "ili",
        "ties"
      ],
      [
        "▁comp",
        "an"
      ],
      [
        "▁bec",
        "ame"
      ],
      [
        "a",
        "x"
      ],
      [
        "i",
        "ed"
      ],
      [
        "▁d",
        "ate"
      ],
      [
        "▁q",
        "u"
      ],
      [
        "e",
        "t"
      ],
      [
        "▁g",
        "u"
      ],
      [
        "▁thre",
        "at"
      ],
      [
        "id",
        "ents"
      ],
      [
        "▁t",
        "ie"
      ],
      [
        "c",
        "l"
      ],
      [
        "▁app",
        "ro"
      ],
      [
        "▁ch",
        "ance"
      ],
      [
        "▁st",
        "e"
      ],
      [
        "▁wor",
        "ked"
      ],
      [
        "▁e",
        "gg"
      ],
      [
        "▁a",
        "gre"
      ],
      [
        "er",
        "t"
      ],
      [
        "m",
        "e"
      ],
      [
        "ph",
        "one"
      ],
      [
        "▁ch",
        "oo"
      ],
      [
        "▁le",
        "a"
      ],
      [
        "▁",
        "’s"
      ],
      [
        "▁!",
        "!"
      ],
      [
        "▁dis",
        "p"
      ],
      [
        "▁fligh",
        "t"
      ],
      [
        "▁ro",
        "ll"
      ],
      [
        "▁ha",
        "f"
      ],
      [
        "▁far",
        "e"
      ],
      [
        "▁p",
        "ages"
      ],
      [
        "▁show",
        "n"
      ],
      [
        "▁anim",
        "als"
      ],
      [
        "▁pu",
        "ll"
      ],
      [
        "▁he",
        "art"
      ],
      [
        "▁l",
        "ess"
      ],
      [
        "▁man",
        "y"
      ],
      [
        "▁list",
        "en"
      ],
      [
        "▁sa",
        "l"
      ],
      [
        "▁we",
        "ap"
      ],
      [
        "▁minut",
        "e"
      ],
      [
        "▁maj",
        "ority"
      ],
      [
        "▁as",
        "ide"
      ],
      [
        "▁imp",
        "act"
      ],
      [
        "▁in",
        "formation"
      ],
      [
        "▁tr",
        "uth"
      ],
      [
        "▁l",
        "ast"
      ],
      [
        "▁tri",
        "p"
      ],
      [
        "r",
        "ess"
      ],
      [
        "c",
        "ally"
      ],
      [
        "e",
        "w"
      ],
      [
        "▁",
        "&"
      ],
      [
        "▁ev",
        "ent"
      ],
      [
        "ve",
        "s"
      ],
      [
        "▁direc",
        "tor"
      ],
      [
        "▁ass",
        "oc"
      ],
      [
        "▁us",
        "ers"
      ],
      [
        "lik",
        "e"
      ],
      [
        "▁imag",
        "ine"
      ],
      [
        "▁g",
        "ave"
      ],
      [
        "u",
        "ding"
      ],
      [
        "res",
        "sed"
      ],
      [
        "▁",
        "el"
      ],
      [
        "▁m",
        "ech"
      ],
      [
        "ac",
        "ted"
      ],
      [
        "▁min",
        "e"
      ],
      [
        "▁tr",
        "ad"
      ],
      [
        "▁your",
        "s"
      ],
      [
        "▁ba",
        "ck"
      ],
      [
        "n",
        "d"
      ],
      [
        "▁w",
        "ou"
      ],
      [
        "o",
        "und"
      ],
      [
        "▁dri",
        "ve"
      ],
      [
        "▁reas",
        "ons"
      ],
      [
        "ut",
        "e"
      ],
      [
        "▁’",
        "re"
      ],
      [
        "▁und",
        "er"
      ],
      [
        "▁ever",
        "ything"
      ],
      [
        "▁as",
        "s"
      ],
      [
        "▁off",
        "ice"
      ],
      [
        "li",
        "ke"
      ],
      [
        "▁tr",
        "ade"
      ],
      [
        "▁h",
        "und"
      ],
      [
        "▁think",
        "ing"
      ],
      [
        "▁ki",
        "lled"
      ],
      [
        "▁b/",
        "c"
      ],
      [
        "▁poin",
        "ts"
      ],
      [
        "i",
        "ther"
      ],
      [
        "▁e",
        "ither"
      ],
      [
        "▁t",
        "ri"
      ],
      [
        "▁ch",
        "urch"
      ],
      [
        "ou",
        "se"
      ],
      [
        "▁c",
        "ash"
      ],
      [
        "▁li",
        "on"
      ],
      [
        "ig",
        "ned"
      ],
      [
        "▁",
        "k"
      ],
      [
        "▁gr",
        "oup"
      ],
      [
        "▁s",
        "ay"
      ],
      [
        "▁serv",
        "ices"
      ],
      [
        "▁res",
        "erv"
      ],
      [
        "▁exper",
        "ience"
      ],
      [
        "▁writ",
        "ers"
      ],
      [
        "▁system",
        "s"
      ],
      [
        "a",
        "li"
      ],
      [
        "ic",
        "t"
      ],
      [
        "▁pr",
        "ac"
      ],
      [
        "▁ans",
        "w"
      ],
      [
        "▁",
        "ou"
      ],
      [
        "▁r",
        "oo"
      ],
      [
        "▁intel",
        "ligence"
      ],
      [
        "ing",
        "ing"
      ],
      [
        "id",
        "es"
      ],
      [
        "▁stre",
        "ets"
      ],
      [
        "a",
        "in"
      ],
      [
        "li",
        "gh"
      ],
      [
        "▁bab",
        "y"
      ],
      [
        "a",
        "lity"
      ],
      [
        "ri",
        "es"
      ],
      [
        "▁u",
        "n"
      ],
      [
        "▁offici",
        "als"
      ],
      [
        "++",
        "++"
      ],
      [
        "l",
        "s"
      ],
      [
        "▁r",
        "ice"
      ],
      [
        "▁con",
        "cer"
      ],
      [
        "▁comm",
        "ents"
      ],
      [
        "▁ind",
        "ivid"
      ],
      [
        "▁d",
        "ay"
      ],
      [
        "▁bo",
        "at"
      ],
      [
        "end",
        "s"
      ],
      [
        "▁sun",
        "day"
      ],
      [
        "▁o",
        "ver"
      ],
      [
        "▁te",
        "h"
      ],
      [
        "al",
        "f"
      ],
      [
        "al",
        "e"
      ],
      [
        "ar",
        "s"
      ],
      [
        "▁pos",
        "ition"
      ],
      [
        "▁us",
        "e"
      ],
      [
        "▁c",
        "ities"
      ],
      [
        "ap",
        "s"
      ],
      [
        "p",
        "er"
      ],
      [
        "▁l",
        "itt"
      ],
      [
        "▁f",
        "act"
      ],
      [
        "▁sel",
        "f"
      ],
      [
        "▁pro",
        "p"
      ],
      [
        "a",
        "re"
      ],
      [
        "ect",
        "s"
      ],
      [
        "sel",
        "f"
      ],
      [
        "ro",
        "l"
      ],
      [
        "▁ac",
        "qui"
      ],
      [
        "▁sti",
        "ll"
      ],
      [
        "▁ar",
        "ea"
      ],
      [
        "f",
        "ic"
      ],
      [
        "▁innov",
        "ation"
      ],
      [
        "▁th",
        "ou"
      ],
      [
        "u",
        "de"
      ],
      [
        "an",
        "ts"
      ],
      [
        "e",
        "st"
      ],
      [
        "▁ch",
        "ar"
      ],
      [
        "▁k",
        "ing"
      ],
      [
        "▁foc",
        "us"
      ],
      [
        "▁p",
        "er"
      ],
      [
        "s",
        "o"
      ],
      [
        "▁week",
        "end"
      ],
      [
        "▁writ",
        "e"
      ],
      [
        "an",
        "ces"
      ],
      [
        "ro",
        "p"
      ],
      [
        "▁res",
        "our"
      ],
      [
        "▁re",
        "qui"
      ],
      [
        "od",
        "e"
      ],
      [
        "▁sup",
        "er"
      ],
      [
        "▁to",
        "gether"
      ],
      [
        "▁mar",
        "riage"
      ],
      [
        "▁say",
        "ing"
      ],
      [
        "is",
        "s"
      ],
      [
        "▁ro",
        "b"
      ],
      [
        "rib",
        "uted"
      ],
      [
        "▁ch",
        "all"
      ],
      [
        "af",
        "t"
      ],
      [
        "▁resp",
        "ect"
      ],
      [
        "▁pu",
        "b"
      ],
      [
        "▁webs",
        "ite"
      ],
      [
        "▁show",
        "s"
      ],
      [
        "f",
        "act"
      ],
      [
        "▁re",
        "ality"
      ],
      [
        "ul",
        "ated"
      ],
      [
        "i",
        "ent"
      ],
      [
        "▁en",
        "ded"
      ],
      [
        "es",
        "ted"
      ],
      [
        "▁mean",
        "t"
      ],
      [
        "▁cli",
        "mate"
      ],
      [
        "▁cig",
        "ar"
      ],
      [
        "ish",
        "ed"
      ],
      [
        "▁be",
        "ar"
      ],
      [
        "▁appear",
        "ed"
      ],
      [
        "a",
        "c"
      ],
      [
        "▁car",
        "ried"
      ],
      [
        "p",
        "ly"
      ],
      [
        "▁lead",
        "er"
      ],
      [
        "▁leg",
        "os"
      ],
      [
        "▁b",
        "od"
      ],
      [
        "▁min",
        "ut"
      ],
      [
        "▁con",
        "se"
      ],
      [
        "ort",
        "h"
      ],
      [
        "▁un",
        "ivers"
      ],
      [
        "i",
        "ts"
      ],
      [
        "lic",
        "ation"
      ],
      [
        "n",
        "y"
      ],
      [
        "▁inf",
        "lu"
      ],
      [
        "▁ar",
        "r"
      ],
      [
        "▁par",
        "ts"
      ],
      [
        "▁math",
        "ema"
      ],
      [
        "▁for",
        "war"
      ],
      [
        "▁the",
        "se"
      ],
      [
        "▁pr",
        "in"
      ],
      [
        "▁mil",
        "k"
      ],
      [
        "▁n",
        "ight"
      ],
      [
        "▁wear",
        "ing"
      ],
      [
        "▁organ",
        "iz"
      ],
      [
        "get",
        "her"
      ],
      [
        "is",
        "on"
      ],
      [
        "▁af",
        "ter"
      ],
      [
        "en",
        "ce"
      ],
      [
        "▁mili",
        "t"
      ],
      [
        "▁h",
        "app"
      ],
      [
        "▁cheap",
        "est"
      ],
      [
        "▁p",
        "ack"
      ],
      [
        "▁a",
        "l"
      ],
      [
        "▁b",
        "est"
      ],
      [
        "▁din",
        "ner"
      ],
      [
        "▁sal",
        "t"
      ],
      [
        "e",
        "ct"
      ],
      [
        "augh",
        "ter"
      ],
      [
        "▁follow",
        "ing"
      ],
      [
        "▁st",
        "ated"
      ],
      [
        "m",
        "p"
      ],
      [
        "▁appl",
        "y"
      ],
      [
        "ac",
        "t"
      ],
      [
        "▁",
        "”"
      ],
      [
        "e",
        "x"
      ],
      [
        "in",
        "e"
      ],
      [
        "em",
        "ent"
      ],
      [
        "▁e",
        "mp"
      ],
      [
        "c",
        "ha"
      ],
      [
        "▁wor",
        "ld"
      ],
      [
        "▁h",
        "ad"
      ],
      [
        "ti",
        "ce"
      ],
      [
        "▁u",
        "s"
      ],
      [
        "ch",
        "en"
      ],
      [
        "▁meas",
        "ures"
      ],
      [
        "▁for",
        "ces"
      ],
      [
        "▁y",
        "ear"
      ],
      [
        "▁ton",
        "ight"
      ],
      [
        "▁ti",
        "tle"
      ],
      [
        "av",
        "i"
      ],
      [
        "▁sat",
        "urday"
      ],
      [
        "▁",
        "ve"
      ],
      [
        "▁in",
        "to"
      ],
      [
        "▁r",
        "en"
      ],
      [
        "▁co",
        "me"
      ],
      [
        "▁char",
        "ge"
      ],
      [
        "▁dep",
        "ar"
      ],
      [
        "▁h",
        "olding"
      ],
      [
        "p",
        "tion"
      ],
      [
        "▁m",
        "ir"
      ],
      [
        "▁wh",
        "ose"
      ],
      [
        "oun",
        "ds"
      ],
      [
        "▁sa",
        "w"
      ],
      [
        "----",
        "----"
      ],
      [
        "is",
        "h"
      ],
      [
        "▁.......",
        ".."
      ],
      [
        "▁incre",
        "ased"
      ],
      [
        "▁k",
        "id"
      ],
      [
        "▁ro",
        "om"
      ],
      [
        "em",
        "ber"
      ],
      [
        "iz",
        "ed"
      ],
      [
        "▁des",
        "pite"
      ],
      [
        "▁",
        "it"
      ],
      [
        "oun",
        "d"
      ],
      [
        "▁sk",
        "in"
      ],
      [
        "▁broke",
        "n"
      ],
      [
        "▁mo",
        "t"
      ],
      [
        "av",
        "es"
      ],
      [
        "on",
        "t"
      ],
      [
        "▁ex",
        "per"
      ],
      [
        "en",
        "ds"
      ],
      [
        "t",
        "or"
      ],
      [
        "▁doc",
        "ument"
      ],
      [
        "▁ins",
        "p"
      ],
      [
        "▁s",
        "uff"
      ],
      [
        "▁sy",
        "stem"
      ],
      [
        "▁ch",
        "e"
      ],
      [
        "▁respon",
        "se"
      ],
      [
        "▁typ",
        "es"
      ],
      [
        "▁play",
        "ed"
      ],
      [
        "▁cru",
        "ise"
      ],
      [
        "▁",
        "art"
      ],
      [
        "▁num",
        "bers"
      ],
      [
        "▁cap",
        "ital"
      ],
      [
        "▁c",
        "oun"
      ],
      [
        "▁_",
        "____"
      ],
      [
        "▁describ",
        "ed"
      ],
      [
        "▁com",
        "b"
      ],
      [
        "_",
        "_"
      ],
      [
        "▁pr",
        "om"
      ],
      [
        "▁",
        "."
      ],
      [
        "▁",
        "ll"
      ],
      [
        "▁ev",
        "idence"
      ],
      [
        "▁hear",
        "d"
      ],
      [
        "▁be",
        "hin"
      ],
      [
        "▁betw",
        "een"
      ],
      [
        "▁su",
        "r"
      ],
      [
        "▁fil",
        "m"
      ],
      [
        "ul",
        "ture"
      ],
      [
        "▁",
        "cer"
      ],
      [
        "ow",
        "ers"
      ],
      [
        "i",
        "fe"
      ],
      [
        "ag",
        "e"
      ],
      [
        "b",
        "ably"
      ],
      [
        "y",
        "m"
      ],
      [
        "▁res",
        "p"
      ],
      [
        "▁mon",
        "th"
      ],
      [
        "▁b",
        "ill"
      ],
      [
        "▁birth",
        "day"
      ],
      [
        "▁car",
        "s"
      ],
      [
        "▁f",
        "ig"
      ],
      [
        "▁fin",
        "ished"
      ],
      [
        "▁r",
        "educ"
      ],
      [
        "▁",
        "n"
      ],
      [
        "▁cond",
        "itions"
      ],
      [
        "▁g",
        "ri"
      ],
      [
        "▁reg",
        "ards"
      ],
      [
        "r",
        "it"
      ],
      [
        "eti",
        "tion"
      ],
      [
        "f",
        "are"
      ],
      [
        "ec",
        "tion"
      ],
      [
        "ul",
        "t"
      ],
      [
        "▁no",
        "vel"
      ],
      [
        "▁s",
        "ub"
      ],
      [
        "▁supp",
        "ort"
      ],
      [
        "▁att",
        "em"
      ],
      [
        "▁be",
        "side"
      ],
      [
        "i",
        "ly"
      ],
      [
        "▁u",
        "h"
      ],
      [
        "es",
        "t"
      ],
      [
        "▁grow",
        "th"
      ],
      [
        "▁rec",
        "ip"
      ],
      [
        "e",
        "re"
      ],
      [
        "▁cook",
        "ies"
      ],
      [
        "w",
        "ay"
      ],
      [
        "▁secon",
        "d"
      ],
      [
        "▁g",
        "ir"
      ],
      [
        "ll",
        "ow"
      ],
      [
        "o",
        "ke"
      ],
      [
        "▁requ",
        "est"
      ],
      [
        "ro",
        "w"
      ],
      [
        "▁bel",
        "on"
      ],
      [
        "▁behin",
        "d"
      ],
      [
        "▁eff",
        "ects"
      ],
      [
        "▁p",
        "ot"
      ],
      [
        "▁h",
        "igh"
      ],
      [
        "▁en",
        "g"
      ],
      [
        "▁bre",
        "ak"
      ],
      [
        "▁m",
        "orn"
      ],
      [
        "▁de",
        "li"
      ],
      [
        "▁f",
        "i"
      ],
      [
        "▁do",
        "ub"
      ],
      [
        "▁r",
        "e"
      ],
      [
        "ali",
        "st"
      ],
      [
        "▁li",
        "ter"
      ],
      [
        "▁ma",
        "j"
      ],
      [
        "l",
        "ish"
      ],
      [
        "▁",
        "x"
      ],
      [
        "▁",
        "al"
      ],
      [
        "t",
        "ers"
      ],
      [
        "▁som",
        "eth"
      ],
      [
        "▁ch",
        "ee"
      ],
      [
        "▁cand",
        "id"
      ],
      [
        "▁obs",
        "erved"
      ],
      [
        "▁app",
        "l"
      ],
      [
        "s",
        "t"
      ],
      [
        "▁m",
        "id"
      ],
      [
        "▁n",
        "oon"
      ],
      [
        "ib",
        "ility"
      ],
      [
        "▁stud",
        "ying"
      ],
      [
        "rib",
        "ution"
      ],
      [
        "es",
        "sed"
      ],
      [
        "u",
        "ty"
      ],
      [
        "▁dec",
        "l"
      ],
      [
        "▁h",
        "ea"
      ],
      [
        "▁but",
        "ter"
      ],
      [
        "▁d",
        "iv"
      ],
      [
        "▁review",
        "s"
      ],
      [
        "▁acc",
        "ount"
      ],
      [
        "▁fri",
        "end"
      ],
      [
        "▁ex",
        "pl"
      ],
      [
        "a",
        "ts"
      ],
      [
        "▁d",
        "ro"
      ],
      [
        "ol",
        "ding"
      ],
      [
        "▁s",
        "ea"
      ],
      [
        "▁re",
        "sul"
      ],
      [
        "▁m",
        "et"
      ],
      [
        "▁r",
        "ob"
      ],
      [
        "▁b",
        "ag"
      ],
      [
        "▁tele",
        "phone"
      ],
      [
        "j",
        "ect"
      ],
      [
        "▁ele",
        "v"
      ],
      [
        "▁sh",
        "are"
      ],
      [
        "▁v",
        "ia"
      ],
      [
        "o",
        "ss"
      ],
      [
        "ult",
        "ure"
      ],
      [
        "'",
        "clock"
      ],
      [
        "▁te",
        "ach"
      ],
      [
        "▁arri",
        "ving"
      ],
      [
        "p",
        "en"
      ],
      [
        "j",
        "o"
      ],
      [
        "op",
        "e"
      ],
      [
        "o",
        "ned"
      ],
      [
        "e",
        "c"
      ],
      [
        "▁a",
        "t"
      ],
      [
        "▁an",
        "oder"
      ],
      [
        "▁mo",
        "st"
      ],
      [
        "▁f",
        "ace"
      ],
      [
        "**",
        "**"
      ],
      [
        "▁per",
        "s"
      ],
      [
        "▁fl",
        "y"
      ],
      [
        "▁purpos",
        "e"
      ],
      [
        "er",
        "c"
      ],
      [
        "▁th",
        "ose"
      ],
      [
        "▁look",
        "ed"
      ],
      [
        "▁e",
        "ver"
      ],
      [
        "al",
        "k"
      ],
      [
        "▁intern",
        "et"
      ],
      [
        "er",
        "ed"
      ],
      [
        "▁w",
        "in"
      ],
      [
        "▁con",
        "v"
      ],
      [
        "▁dogg",
        "ie"
      ],
      [
        "t",
        "e"
      ],
      [
        "▁p",
        "en"
      ],
      [
        "▁trav",
        "el"
      ],
      [
        "▁d",
        "all"
      ],
      [
        "▁tr",
        "ans"
      ],
      [
        "▁",
        "b"
      ],
      [
        "▁ev",
        "en"
      ],
      [
        "is",
        "ts"
      ],
      [
        "at",
        "ures"
      ],
      [
        "in",
        "ated"
      ],
      [
        "o",
        "r"
      ],
      [
        "▁gu",
        "y"
      ],
      [
        "▁vac",
        "ation"
      ],
      [
        "ott",
        "able"
      ],
      [
        "▁notic",
        "ed"
      ],
      [
        "▁c",
        "al"
      ],
      [
        "it",
        "y"
      ],
      [
        "y",
        "th"
      ],
      [
        "n",
        "t"
      ],
      [
        "▁a",
        "w"
      ],
      [
        "p",
        "ers"
      ],
      [
        "ligh",
        "t"
      ],
      [
        "▁ac",
        "tions"
      ],
      [
        "▁inclu",
        "de"
      ],
      [
        "▁pro",
        "duc"
      ],
      [
        "fo",
        "r"
      ],
      [
        "▁h",
        "as"
      ],
      [
        "▁know",
        "s"
      ],
      [
        "▁",
        "in"
      ],
      [
        "▁sh",
        "ows"
      ],
      [
        "▁work",
        "ing"
      ],
      [
        "▁rece",
        "ive"
      ],
      [
        "▁ent",
        "er"
      ],
      [
        "▁im",
        "m"
      ],
      [
        "▁stre",
        "et"
      ],
      [
        "▁b",
        "re"
      ],
      [
        "▁sci",
        "ence"
      ],
      [
        "▁",
        "s"
      ],
      [
        "d",
        "it"
      ],
      [
        "w",
        "ic"
      ],
      [
        "▁h",
        "i"
      ],
      [
        ".",
        "."
      ],
      [
        "▁dece",
        "mber"
      ],
      [
        "ist",
        "ing"
      ],
      [
        "▁buil",
        "ding"
      ],
      [
        "ke",
        "t"
      ],
      [
        "▁b",
        "os"
      ],
      [
        "▁p",
        "ers"
      ],
      [
        "▁w",
        "ond"
      ],
      [
        "▁c",
        "ases"
      ],
      [
        "▁tr",
        "y"
      ],
      [
        "▁n",
        "ume"
      ],
      [
        "ak",
        "e"
      ],
      [
        "▁g",
        "et"
      ],
      [
        "ul",
        "ations"
      ],
      [
        "▁ch",
        "an"
      ],
      [
        "ro",
        "duc"
      ],
      [
        "▁le",
        "g"
      ],
      [
        "▁se",
        "pt"
      ],
      [
        "cr",
        "aft"
      ],
      [
        "o",
        "ds"
      ],
      [
        "▁s",
        "ec"
      ],
      [
        "▁d",
        "r"
      ],
      [
        "ur",
        "e"
      ],
      [
        "▁happen",
        "s"
      ],
      [
        "ol",
        "ved"
      ],
      [
        "g",
        "r"
      ],
      [
        "r",
        "ide"
      ],
      [
        "▁sp",
        "e"
      ],
      [
        "▁on",
        "ly"
      ],
      [
        "▁ev",
        "ents"
      ],
      [
        "▁dow",
        "n"
      ],
      [
        "at",
        "ors"
      ],
      [
        "▁let",
        "ter"
      ],
      [
        "▁pupp",
        "y"
      ],
      [
        "▁independ",
        "ence"
      ],
      [
        "os",
        "ing"
      ],
      [
        "ri",
        "ght"
      ],
      [
        "▁island",
        "s"
      ],
      [
        "▁af",
        "ternoon"
      ],
      [
        "▁contr",
        "act"
      ],
      [
        "iv",
        "ing"
      ],
      [
        "t",
        "ee"
      ],
      [
        "▁char",
        "acter"
      ],
      [
        "▁ha",
        "ve"
      ],
      [
        "▁m",
        "ay"
      ],
      [
        "▁det",
        "ails"
      ],
      [
        "▁re",
        "ce"
      ],
      [
        "p",
        "e"
      ],
      [
        "▁d",
        "ec"
      ],
      [
        "▁take",
        "n"
      ],
      [
        "q",
        "u"
      ],
      [
        "▁d",
        "ere"
      ],
      [
        "▁w",
        "om"
      ],
      [
        "th",
        "ers"
      ],
      [
        "▁sour",
        "ce"
      ],
      [
        "▁meth",
        "od"
      ],
      [
        "▁counterpar",
        "ty"
      ],
      [
        "▁w",
        "ed"
      ],
      [
        "enc",
        "ies"
      ],
      [
        "▁",
        "on"
      ],
      [
        "▁col",
        "umn"
      ],
      [
        "i",
        "ties"
      ],
      [
        "▁grand",
        "m"
      ],
      [
        "▁p",
        "ants"
      ],
      [
        "▁co",
        "ord"
      ],
      [
        "▁supp",
        "osed"
      ],
      [
        "▁dis",
        "aster"
      ],
      [
        "▁b",
        "ed"
      ],
      [
        "i",
        "m"
      ],
      [
        "▁cl",
        "imb"
      ],
      [
        "▁pres",
        "s"
      ],
      [
        "oo",
        "d"
      ],
      [
        "n",
        "ing"
      ],
      [
        "▁call",
        "ed"
      ],
      [
        "▁mar",
        "ried"
      ],
      [
        "p",
        "le"
      ],
      [
        "▁st",
        "art"
      ],
      [
        "in",
        "k"
      ],
      [
        "▁p",
        "e"
      ],
      [
        "ar",
        "ly"
      ],
      [
        "▁s",
        "pr"
      ],
      [
        "▁w",
        "h"
      ],
      [
        "▁d",
        "is"
      ],
      [
        "▁le",
        "aves"
      ],
      [
        "▁m",
        "ention"
      ],
      [
        "▁st",
        "."
      ],
      [
        "▁m",
        "ind"
      ],
      [
        "x",
        "t"
      ],
      [
        "g",
        "ation"
      ],
      [
        "or",
        "ies"
      ],
      [
        "▁read",
        "ing"
      ],
      [
        "▁t",
        "ax"
      ],
      [
        "▁!!!",
        "!!"
      ],
      [
        "or",
        "e"
      ],
      [
        "om",
        "et"
      ],
      [
        "▁ind",
        "ust"
      ],
      [
        "▁r",
        "ow"
      ],
      [
        "▁id",
        "ent"
      ],
      [
        "ion",
        "al"
      ],
      [
        "▁su",
        "gg"
      ],
      [
        "▁employ",
        "ment"
      ],
      [
        "▁",
        "`"
      ],
      [
        "ow",
        "l"
      ],
      [
        "▁ne",
        "ws"
      ],
      [
        "▁i",
        "r"
      ],
      [
        "▁p",
        "le"
      ],
      [
        "i",
        "en"
      ],
      [
        "▁en",
        "v"
      ],
      [
        "▁",
        "un"
      ],
      [
        "g",
        "e"
      ],
      [
        "▁play",
        "er"
      ],
      [
        "▁am",
        "b"
      ],
      [
        "ain",
        "s"
      ],
      [
        "▁challen",
        "ges"
      ],
      [
        "▁our",
        "selves"
      ],
      [
        "▁chec",
        "k"
      ],
      [
        "▁it",
        "em"
      ],
      [
        "▁",
        "h"
      ],
      [
        "l",
        "ic"
      ],
      [
        "▁...................",
        "."
      ],
      [
        "t",
        "o"
      ],
      [
        "▁bir",
        "th"
      ],
      [
        "r",
        "on"
      ],
      [
        "▁v",
        "ide"
      ],
      [
        "▁sc",
        "re"
      ],
      [
        "▁p",
        "il"
      ],
      [
        "▁build",
        "ing"
      ],
      [
        "▁p",
        "our"
      ],
      [
        "et",
        "s"
      ],
      [
        "▁ob",
        "s"
      ],
      [
        "▁dis",
        "c"
      ],
      [
        "es",
        "day"
      ],
      [
        "▁turn",
        "ing"
      ],
      [
        "▁-",
        "----------------"
      ],
      [
        "!",
        "!"
      ],
      [
        "▁sec",
        "ond"
      ],
      [
        "▁ho",
        "pe"
      ],
      [
        "▁acc",
        "ess"
      ],
      [
        "▁l",
        "ove"
      ],
      [
        "res",
        "ent"
      ],
      [
        "▁pers",
        "on"
      ],
      [
        "c",
        "c"
      ],
      [
        "▁c",
        "on"
      ],
      [
        "a",
        "tion"
      ],
      [
        "▁",
        "ident"
      ],
      [
        "▁fr",
        "i"
      ],
      [
        "ot",
        "ed"
      ],
      [
        "▁ho",
        "liday"
      ],
      [
        "sel",
        "ve"
      ],
      [
        "▁is",
        "land"
      ],
      [
        "c",
        "ed"
      ],
      [
        "▁car",
        "ry"
      ],
      [
        "e",
        "ts"
      ],
      [
        "▁cons",
        "um"
      ],
      [
        "▁bug",
        "s"
      ],
      [
        "▁j",
        "ust"
      ],
      [
        "▁s",
        "ee"
      ],
      [
        "i",
        "ved"
      ],
      [
        "▁loc",
        "ated"
      ],
      [
        "f",
        "o"
      ],
      [
        "▁=",
        "---"
      ],
      [
        "▁mo",
        "re"
      ],
      [
        "l",
        "ine"
      ],
      [
        "i",
        "ents"
      ],
      [
        "▁bud",
        "get"
      ],
      [
        "▁cow",
        "boy"
      ],
      [
        "▁jo",
        "ined"
      ],
      [
        "▁w",
        "ell"
      ],
      [
        "▁mat",
        "ch"
      ],
      [
        "▁par",
        "ents"
      ],
      [
        "▁fing",
        "er"
      ],
      [
        "▁fligh",
        "ts"
      ],
      [
        "▁m",
        "ic"
      ],
      [
        "▁t",
        "ro"
      ],
      [
        "ot",
        "h"
      ],
      [
        "▁em",
        "b"
      ],
      [
        "▁atlan",
        "ta"
      ],
      [
        "▁bir",
        "d"
      ],
      [
        "▁li",
        "m"
      ],
      [
        "▁hosp",
        "ital"
      ],
      [
        "▁ma",
        "y"
      ],
      [
        "ac",
        "ed"
      ],
      [
        "▁th",
        "anks"
      ],
      [
        "▁poc",
        "ket"
      ],
      [
        "▁pro",
        "jects"
      ],
      [
        "▁ever",
        "ybody"
      ],
      [
        "▁in",
        "v"
      ],
      [
        "▁s",
        "af"
      ],
      [
        "▁e",
        "-m"
      ],
      [
        "rap",
        "h"
      ],
      [
        "o",
        "y"
      ],
      [
        "r",
        "ew"
      ],
      [
        "▁w",
        "hen"
      ],
      [
        "▁insur",
        "ance"
      ],
      [
        "▁l",
        "eg"
      ],
      [
        "▁c",
        "ir"
      ],
      [
        "rou",
        "s"
      ],
      [
        "▁dr",
        "aft"
      ],
      [
        "▁t",
        "ea"
      ],
      [
        "w",
        "ar"
      ],
      [
        "▁t",
        "ar"
      ],
      [
        "w",
        "or"
      ],
      [
        "u",
        "ght"
      ],
      [
        "▁level",
        "s"
      ],
      [
        "▁comm",
        "it"
      ],
      [
        "▁take",
        "s"
      ],
      [
        "ac",
        "ks"
      ],
      [
        "▁n",
        "ov"
      ],
      [
        "▁h",
        "a"
      ],
      [
        "▁be",
        "lief"
      ],
      [
        "oun",
        "t"
      ],
      [
        "o",
        "o"
      ],
      [
        "▁s",
        "y"
      ],
      [
        "▁counc",
        "il"
      ],
      [
        "▁aud",
        "ience"
      ],
      [
        "u",
        "nd"
      ],
      [
        "▁sh",
        "a"
      ],
      [
        "▁li",
        "ke"
      ],
      [
        "▁e",
        "ars"
      ],
      [
        "▁li",
        "br"
      ],
      [
        "▁nume",
        "rous"
      ],
      [
        "▁diff",
        "erent"
      ],
      [
        "▁w",
        "here"
      ],
      [
        "▁h",
        "o"
      ],
      [
        "▁s",
        "ect"
      ],
      [
        "em",
        "ents"
      ],
      [
        "▁ele",
        "ph"
      ],
      [
        "▁p",
        "ut"
      ],
      [
        "i",
        "des"
      ],
      [
        "▁w",
        "ear"
      ],
      [
        "▁",
        "ov"
      ],
      [
        "el",
        "t"
      ],
      [
        "▁=",
        "=----"
      ],
      [
        "ce",
        "ption"
      ],
      [
        "▁qu",
        "ality"
      ],
      [
        "▁ac",
        "cess"
      ],
      [
        "▁cere",
        "al"
      ],
      [
        "▁give",
        "n"
      ],
      [
        "▁",
        "imp"
      ],
      [
        "tic",
        "ip"
      ],
      [
        "▁s",
        "o"
      ],
      [
        "en",
        "t"
      ],
      [
        "▁c",
        "ha"
      ],
      [
        "▁we",
        "ll"
      ],
      [
        "on",
        "om"
      ],
      [
        "▁w",
        "ent"
      ],
      [
        "▁ki",
        "ll"
      ],
      [
        "et",
        "h"
      ],
      [
        "▁r",
        "ule"
      ],
      [
        "▁bec",
        "om"
      ],
      [
        "le",
        "dge"
      ],
      [
        "▁stay",
        "ed"
      ],
      [
        "o",
        "l"
      ],
      [
        "▁deb",
        "ate"
      ],
      [
        "▁ques",
        "tions"
      ],
      [
        "o",
        "wn"
      ],
      [
        "▁s",
        "ur"
      ],
      [
        "▁cart",
        "oon"
      ],
      [
        "▁h",
        "ead"
      ],
      [
        "▁rep",
        "orts"
      ],
      [
        "m",
        "in"
      ],
      [
        "▁ro",
        "ad"
      ],
      [
        "▁",
        "here"
      ],
      [
        "ti",
        "t"
      ],
      [
        "▁d",
        "o"
      ],
      [
        ".",
        "c"
      ],
      [
        "▁hea",
        "ds"
      ],
      [
        "▁iss",
        "ues"
      ],
      [
        "g",
        "o"
      ],
      [
        "re",
        "ss"
      ],
      [
        "▁po",
        "et"
      ],
      [
        "o",
        "ted"
      ],
      [
        "▁s",
        "l"
      ],
      [
        "▁ag",
        "o"
      ],
      [
        "u",
        "it"
      ],
      [
        "▁he",
        "ad"
      ],
      [
        "p",
        "p"
      ],
      [
        "▁hel",
        "p"
      ],
      [
        "▁law",
        "s"
      ],
      [
        "ent",
        "ed"
      ],
      [
        "▁ha",
        "s"
      ],
      [
        "▁int",
        "el"
      ],
      [
        "▁s",
        "an"
      ],
      [
        "▁st",
        "orm"
      ],
      [
        "▁t",
        "r"
      ],
      [
        "ave",
        "s"
      ],
      [
        "▁conflic",
        "t"
      ],
      [
        "▁own",
        "er"
      ],
      [
        "▁cl",
        "oth"
      ],
      [
        "▁u",
        "ne"
      ],
      [
        "▁&",
        "am"
      ],
      [
        "▁",
        "cause"
      ],
      [
        "wor",
        "ks"
      ],
      [
        "p",
        "lus"
      ],
      [
        "▁rep",
        "orted"
      ],
      [
        "▁s",
        "ign"
      ],
      [
        "▁att",
        "end"
      ],
      [
        "▁m",
        "iss"
      ],
      [
        "▁is",
        "s"
      ],
      [
        "▁a",
        "re"
      ],
      [
        "z",
        "a"
      ],
      [
        "▁dr",
        "iving"
      ],
      [
        "tiv",
        "es"
      ],
      [
        "▁c",
        "orn"
      ],
      [
        "▁exper",
        "i"
      ],
      [
        "▁dro",
        "p"
      ],
      [
        "g",
        "an"
      ],
      [
        "e",
        "ly"
      ],
      [
        "▁",
        "ton"
      ],
      [
        "▁ex",
        "ec"
      ],
      [
        "▁p",
        "oc"
      ],
      [
        "▁...",
        "...."
      ],
      [
        "▁p",
        "ast"
      ],
      [
        "▁admin",
        "ist"
      ],
      [
        "▁h",
        "at"
      ],
      [
        "r",
        "up"
      ],
      [
        "▁conc",
        "er"
      ],
      [
        "▁pl",
        "e"
      ],
      [
        "▁infl",
        "u"
      ],
      [
        "is",
        "m"
      ],
      [
        "▁n",
        "otw"
      ],
      [
        "▁pic",
        "tures"
      ],
      [
        "▁sur",
        "p"
      ],
      [
        "▁f",
        "aith"
      ],
      [
        "▁da",
        "t"
      ],
      [
        "if",
        "ic"
      ],
      [
        "it",
        "ing"
      ],
      [
        "▁",
        "plus"
      ],
      [
        "vail",
        "able"
      ],
      [
        "an",
        "ger"
      ],
      [
        "s",
        "ed"
      ],
      [
        "▁---",
        "="
      ],
      [
        "c",
        "ent"
      ],
      [
        "▁mess",
        "age"
      ],
      [
        "▁require",
        "ments"
      ],
      [
        "um",
        "e"
      ],
      [
        "▁a",
        "vailable"
      ],
      [
        "▁ch",
        "arl"
      ],
      [
        "in",
        "n"
      ],
      [
        "-",
        "-"
      ],
      [
        "..",
        ".."
      ],
      [
        "▁pres",
        "ent"
      ],
      [
        "▁c",
        "up"
      ],
      [
        "▁",
        "“"
      ],
      [
        "’",
        "t"
      ],
      [
        "▁re",
        "l"
      ],
      [
        "▁j",
        "ud"
      ],
      [
        "▁beg",
        "an"
      ],
      [
        "▁c",
        "ould"
      ],
      [
        "▁en",
        "ergy"
      ],
      [
        "▁cl",
        "a"
      ],
      [
        "ph",
        "ere"
      ],
      [
        "▁tr",
        "ave"
      ],
      [
        "m",
        "ed"
      ],
      [
        "▁coun",
        "c"
      ],
      [
        "re",
        "ds"
      ],
      [
        "▁lo",
        "ve"
      ],
      [
        "▁de",
        "spite"
      ],
      [
        "▁st",
        "ore"
      ],
      [
        "▁child",
        "ren"
      ],
      [
        "▁t",
        "e"
      ],
      [
        "t",
        "t"
      ],
      [
        "▁mem",
        "ory"
      ],
      [
        "▁t",
        "ape"
      ],
      [
        "▁cont",
        "r"
      ],
      [
        "▁",
        "·"
      ],
      [
        "al",
        "s"
      ],
      [
        "▁til",
        "l"
      ],
      [
        "u",
        "al"
      ],
      [
        "▁re",
        "p"
      ],
      [
        "▁pl",
        "aces"
      ],
      [
        "▁m",
        "ar"
      ],
      [
        "i",
        "ans"
      ],
      [
        "▁chang",
        "ed"
      ],
      [
        "▁rep",
        "e"
      ],
      [
        "ou",
        "gh"
      ],
      [
        "▁an",
        "ything"
      ],
      [
        "▁recog",
        "n"
      ],
      [
        "▁sound",
        "s"
      ],
      [
        "▁r",
        "ight"
      ],
      [
        "▁we",
        "b"
      ],
      [
        "▁re",
        "ally"
      ],
      [
        "▁give",
        "s"
      ],
      [
        "▁ev",
        "ery"
      ],
      [
        "▁---",
        "-"
      ],
      [
        "▁m",
        "atch"
      ],
      [
        "▁c",
        "ry"
      ],
      [
        "▁wa",
        "it"
      ],
      [
        "▁e-m",
        "ail"
      ],
      [
        "▁pill",
        "ow"
      ],
      [
        "▁s",
        "ti"
      ],
      [
        "▁wan",
        "ted"
      ],
      [
        "▁be",
        "st"
      ],
      [
        "as",
        "s"
      ],
      [
        "▁a",
        "ge"
      ],
      [
        "▁c",
        "he"
      ],
      [
        "▁s",
        "ort"
      ],
      [
        "f",
        "t"
      ],
      [
        "▁'",
        "d"
      ],
      [
        "t",
        "w"
      ],
      [
        "▁girl",
        "s"
      ],
      [
        "▁d",
        "aughter"
      ],
      [
        "i",
        "um"
      ],
      [
        "▁t",
        "our"
      ],
      [
        "▁f",
        "avor"
      ],
      [
        "ut",
        "ed"
      ],
      [
        "▁_____",
        "__"
      ],
      [
        "li",
        "day"
      ],
      [
        "▁v",
        "et"
      ],
      [
        "▁qu",
        "ino"
      ],
      [
        "▁u",
        "m"
      ],
      [
        "▁",
        "both"
      ],
      [
        "l",
        "i"
      ],
      [
        "n",
        "ed"
      ],
      [
        "t",
        "her"
      ],
      [
        "▁e",
        "mb"
      ],
      [
        "mit",
        "ted"
      ],
      [
        "▁help",
        "ed"
      ],
      [
        "or",
        "k"
      ],
      [
        "▁dep",
        "artment"
      ],
      [
        "art",
        "ment"
      ],
      [
        "ut",
        "h"
      ],
      [
        "h",
        "ic"
      ],
      [
        "u",
        "g"
      ],
      [
        "▁th",
        "rou"
      ],
      [
        "ad",
        "ed"
      ],
      [
        "▁grow",
        "ing"
      ],
      [
        "▁b",
        "ack"
      ],
      [
        "▁ne",
        "xt"
      ],
      [
        "▁f",
        "ing"
      ],
      [
        "▁co",
        "r"
      ],
      [
        "▁a",
        "ch"
      ],
      [
        "air",
        "s"
      ],
      [
        "▁cont",
        "e"
      ],
      [
        "▁g",
        "ro"
      ],
      [
        "▁sci",
        "enti"
      ],
      [
        "tiv",
        "ity"
      ],
      [
        "ou",
        "r"
      ],
      [
        "u",
        "b"
      ],
      [
        "c",
        "er"
      ],
      [
        "▁an",
        "im"
      ],
      [
        "▁cust",
        "om"
      ],
      [
        "ash",
        "ington"
      ],
      [
        "o",
        "t"
      ],
      [
        "l",
        "es"
      ],
      [
        "▁p",
        "aint"
      ],
      [
        "▁mis",
        "s"
      ],
      [
        "▁bo",
        "mb"
      ],
      [
        "▁m",
        "r"
      ],
      [
        "l",
        "ation"
      ],
      [
        "a",
        "nding"
      ],
      [
        "▁techn",
        "iqu"
      ],
      [
        "l",
        "d"
      ],
      [
        "ou",
        "nt"
      ],
      [
        "▁us",
        "ed"
      ],
      [
        "▁artic",
        "le"
      ],
      [
        "▁p",
        "lan"
      ],
      [
        "▁rep",
        "res"
      ],
      [
        "a",
        "il"
      ],
      [
        "▁to",
        "o"
      ],
      [
        "ec",
        "k"
      ],
      [
        "▁mus",
        "ic"
      ],
      [
        "▁o",
        "r"
      ],
      [
        "▁reg",
        "ion"
      ],
      [
        "iv",
        "id"
      ],
      [
        "thin",
        "g"
      ],
      [
        "▁en",
        "ab"
      ],
      [
        "▁find",
        "ing"
      ],
      [
        "k",
        "ed"
      ],
      [
        "▁g",
        "ar"
      ],
      [
        "▁-----------------------------------------------------------------",
        "----"
      ],
      [
        "▁s",
        "t"
      ],
      [
        "▁fun",
        "ction"
      ],
      [
        "il",
        "i"
      ],
      [
        "ic",
        "tion"
      ],
      [
        "/",
        "he"
      ],
      [
        "▁y",
        "ork"
      ],
      [
        "o",
        "mp"
      ],
      [
        "u",
        "s"
      ],
      [
        "▁chocol",
        "ate"
      ],
      [
        "▁",
        "~"
      ],
      [
        "▁av",
        "o"
      ],
      [
        "▁pl",
        "aced"
      ],
      [
        "o",
        "u"
      ],
      [
        "▁d",
        "'"
      ],
      [
        "an",
        "k"
      ],
      [
        "▁!!!",
        "!"
      ],
      [
        "▁particip",
        "ants"
      ],
      [
        "▁sand",
        "wic"
      ],
      [
        "iss",
        "ion"
      ],
      [
        "o",
        "w"
      ],
      [
        "▁b",
        "oo"
      ],
      [
        "▁g",
        "all"
      ],
      [
        "▁whe",
        "re"
      ],
      [
        "=",
        "----"
      ],
      [
        "▁wee",
        "k"
      ],
      [
        "▁fe",
        "el"
      ],
      [
        "ow",
        "n"
      ],
      [
        "▁-",
        "-"
      ],
      [
        "▁se",
        "en"
      ],
      [
        "ul",
        "ts"
      ],
      [
        "▁isl",
        "and"
      ],
      [
        "▁though",
        "ts"
      ],
      [
        "▁f",
        "ire"
      ],
      [
        "▁m",
        "is"
      ],
      [
        "▁com",
        "m"
      ],
      [
        "is",
        "es"
      ],
      [
        "at",
        "s"
      ],
      [
        "iz",
        "e"
      ],
      [
        "▁s",
        "w"
      ],
      [
        "▁s",
        "iz"
      ],
      [
        "si",
        "de"
      ],
      [
        "str",
        "uc"
      ],
      [
        "il",
        "d"
      ],
      [
        "▁ph",
        "one"
      ],
      [
        "▁n",
        "'t"
      ],
      [
        "▁t",
        "o"
      ],
      [
        "j",
        "ects"
      ],
      [
        "is",
        "d"
      ],
      [
        "▁h",
        "ous"
      ],
      [
        "is",
        "ions"
      ],
      [
        "▁?",
        "!"
      ],
      [
        "i",
        "ety"
      ],
      [
        "▁agre",
        "e"
      ],
      [
        "▁ac",
        "t"
      ],
      [
        "▁fing",
        "ers"
      ],
      [
        "▁ca",
        "me"
      ],
      [
        "tern",
        "oon"
      ],
      [
        "▁",
        "ne"
      ],
      [
        "▁s",
        "tic"
      ],
      [
        "▁wal",
        "k"
      ],
      [
        "▁kn",
        "ow"
      ],
      [
        "m",
        "ent"
      ],
      [
        "▁t",
        "ur"
      ],
      [
        "▁describ",
        "e"
      ],
      [
        "▁qu",
        "ar"
      ],
      [
        "am",
        "b"
      ],
      [
        "▁o",
        "f"
      ],
      [
        "y",
        "ing"
      ],
      [
        "s",
        "ts"
      ],
      [
        "e",
        "en"
      ],
      [
        "▁con",
        "ce"
      ],
      [
        "▁r",
        "iver"
      ],
      [
        "▁beside",
        "s"
      ],
      [
        "▁j",
        "e"
      ],
      [
        "▁re",
        "t"
      ],
      [
        "▁g",
        "r"
      ],
      [
        "▁b",
        "us"
      ],
      [
        "▁ou",
        "r"
      ],
      [
        "ri",
        "age"
      ],
      [
        "▁as",
        "su"
      ],
      [
        "▁h",
        "op"
      ],
      [
        "a",
        "ff"
      ],
      [
        "▁diff",
        "erences"
      ],
      [
        "us",
        "s"
      ],
      [
        "▁cond",
        "ition"
      ],
      [
        "▁b",
        "and"
      ],
      [
        "um",
        "p"
      ],
      [
        "▁an",
        "ts"
      ],
      [
        "▁sh",
        "op"
      ],
      [
        "▁mar",
        "kets"
      ],
      [
        "▁mach",
        "ine"
      ],
      [
        "▁kn",
        "oc"
      ],
      [
        "▁conf",
        "ir"
      ],
      [
        "▁m",
        "ath"
      ],
      [
        "▁t",
        "ow"
      ],
      [
        "o",
        "ck"
      ],
      [
        "r",
        "ic"
      ],
      [
        "am",
        "s"
      ],
      [
        "▁conte",
        "xt"
      ],
      [
        "▁rep",
        "l"
      ],
      [
        "▁so",
        "me"
      ],
      [
        "in",
        "c"
      ],
      [
        "▁camp",
        "aign"
      ],
      [
        "▁j",
        "ob"
      ],
      [
        "▁wan",
        "t"
      ],
      [
        "un",
        "d"
      ],
      [
        "▁ter",
        "m"
      ],
      [
        "▁i",
        "t"
      ],
      [
        "▁accep",
        "ted"
      ],
      [
        "▁exp",
        "ected"
      ],
      [
        "▁for",
        "k"
      ],
      [
        "0",
        "0"
      ],
      [
        "in",
        "ed"
      ],
      [
        "re",
        "l"
      ],
      [
        "▁’",
        "’"
      ],
      [
        "▁ha",
        "pp"
      ],
      [
        "▁l",
        "ook"
      ],
      [
        "▁b",
        "ot"
      ],
      [
        "d",
        "ay"
      ],
      [
        "▁b",
        "ud"
      ],
      [
        "▁ap",
        "artment"
      ],
      [
        "▁weap",
        "ons"
      ],
      [
        "el",
        "ines"
      ],
      [
        "c",
        "tion"
      ],
      [
        "o",
        "st"
      ],
      [
        "▁t",
        "ummy"
      ],
      [
        "▁auth",
        "or"
      ],
      [
        "ate",
        "g"
      ],
      [
        "▁appl",
        "ied"
      ],
      [
        "pl",
        "oy"
      ],
      [
        "▁instit",
        "utions"
      ],
      [
        "u",
        "me"
      ],
      [
        "▁ref",
        "erence"
      ],
      [
        "ar",
        "ity"
      ],
      [
        "▁prov",
        "ided"
      ],
      [
        "▁i",
        "mp"
      ],
      [
        "▁l",
        "ad"
      ],
      [
        "▁d",
        "est"
      ],
      [
        "er",
        "ved"
      ],
      [
        "▁l",
        "ine"
      ],
      [
        "▁administ",
        "ration"
      ],
      [
        "▁m",
        "enti"
      ],
      [
        "▁push",
        "ed"
      ],
      [
        "▁?",
        "?"
      ],
      [
        "▁li",
        "ked"
      ],
      [
        "▁transport",
        "ation"
      ],
      [
        "l",
        "y"
      ],
      [
        "▁den",
        "ver"
      ],
      [
        "▁who",
        "m"
      ],
      [
        "▁p",
        "it"
      ],
      [
        "t",
        "ered"
      ],
      [
        "ur",
        "n"
      ],
      [
        "l",
        "a"
      ],
      [
        "ac",
        "tion"
      ],
      [
        "▁mod",
        "e"
      ],
      [
        "▁tr",
        "uck"
      ],
      [
        "▁c",
        "ab"
      ],
      [
        "▁pre",
        "ven"
      ],
      [
        "ens",
        "ion"
      ],
      [
        "▁b",
        "or"
      ],
      [
        "ligh",
        "ts"
      ],
      [
        "▁r",
        "ul"
      ],
      [
        "▁af",
        "t"
      ],
      [
        "▁wat",
        "ch"
      ],
      [
        "▁",
        "]"
      ],
      [
        "▁al",
        "ways"
      ],
      [
        "o",
        "zer"
      ],
      [
        "▁it",
        "self"
      ],
      [
        "▁app",
        "rec"
      ],
      [
        "▁p",
        "art"
      ],
      [
        "▁cre",
        "ated"
      ],
      [
        "m",
        "er"
      ],
      [
        "▁pos",
        "t"
      ],
      [
        "▁kit",
        "ty"
      ],
      [
        "▁re",
        "port"
      ],
      [
        "oul",
        "d"
      ],
      [
        "ke",
        "ts"
      ],
      [
        "tai",
        "n"
      ],
      [
        "▁la",
        "ur"
      ],
      [
        "▁spec",
        "i"
      ],
      [
        "▁",
        "m"
      ],
      [
        "▁n",
        "ap"
      ],
      [
        "at",
        "eg"
      ],
      [
        "▁thir",
        "d"
      ],
      [
        "e",
        "f"
      ],
      [
        "▁stud",
        "ent"
      ],
      [
        "*",
        "*"
      ],
      [
        "▁-----------------------------------------------------------------",
        "----------"
      ],
      [
        "ron",
        "g"
      ],
      [
        "▁depar",
        "ting"
      ],
      [
        "▁g",
        "rew"
      ],
      [
        "▁ren",
        "t"
      ],
      [
        "▁r",
        "oot"
      ],
      [
        "▁struc",
        "ture"
      ],
      [
        "▁ter",
        "rit"
      ],
      [
        "t",
        "ride"
      ],
      [
        "en",
        "c"
      ],
      [
        "▁c",
        "amp"
      ],
      [
        "▁exh",
        "ib"
      ],
      [
        "▁b",
        "en"
      ],
      [
        "▁add",
        "ed"
      ],
      [
        "er",
        "ies"
      ],
      [
        "ang",
        "er"
      ],
      [
        "▁b",
        "uc"
      ],
      [
        "▁m",
        "y"
      ],
      [
        "▁me",
        "al"
      ],
      [
        "****",
        "****"
      ],
      [
        "▁su",
        "re"
      ],
      [
        "en",
        "ed"
      ],
      [
        "il",
        "y"
      ],
      [
        "ag",
        "ed"
      ],
      [
        "▁",
        "qu"
      ],
      [
        "o",
        "ver"
      ],
      [
        "▁co",
        "o"
      ],
      [
        "▁mag",
        "ic"
      ],
      [
        "▁recomm",
        "ended"
      ],
      [
        "▁pay",
        "ment"
      ],
      [
        "l",
        "an"
      ],
      [
        "▁ma",
        "g"
      ],
      [
        "------",
        "-"
      ],
      [
        "▁peop",
        "les"
      ],
      [
        "ec",
        "tive"
      ],
      [
        "or",
        "n"
      ],
      [
        "ti",
        "c"
      ],
      [
        "▁de",
        "gre"
      ],
      [
        "▁adv",
        "ant"
      ],
      [
        "▁o",
        "ut"
      ],
      [
        "▁m",
        "o"
      ],
      [
        "▁up",
        "on"
      ],
      [
        "i",
        "ght"
      ],
      [
        "▁re",
        "st"
      ],
      [
        "▁cont",
        "inu"
      ],
      [
        "▁notic",
        "e"
      ],
      [
        "▁count",
        "ries"
      ],
      [
        "▁inter",
        "n"
      ],
      [
        "▁car",
        "d"
      ],
      [
        "▁com",
        "es"
      ],
      [
        "▁sto",
        "re"
      ],
      [
        "▁manag",
        "er"
      ],
      [
        "are",
        "d"
      ],
      [
        "▁s",
        "ense"
      ],
      [
        "▁rep",
        "ort"
      ],
      [
        "om",
        "e"
      ],
      [
        "ca",
        "use"
      ],
      [
        "▁m",
        "ur"
      ],
      [
        "▁de",
        "f"
      ],
      [
        "▁com",
        "mit"
      ],
      [
        "▁arrive",
        "s"
      ],
      [
        "▁commit",
        "tee"
      ],
      [
        "▁f",
        "am"
      ],
      [
        "▁co",
        "l"
      ],
      [
        "▁",
        "j"
      ],
      [
        "▁p",
        "al"
      ],
      [
        "▁sug",
        "ges"
      ],
      [
        "▁sh",
        "ower"
      ],
      [
        "ou",
        "l"
      ],
      [
        "▁f",
        "ri"
      ],
      [
        "▁proble",
        "m"
      ],
      [
        "i",
        "ble"
      ],
      [
        "▁pl",
        "ace"
      ],
      [
        "▁pri",
        "ces"
      ],
      [
        "▁rev",
        "iew"
      ],
      [
        "ocr",
        "acy"
      ],
      [
        "▁tr",
        "aff"
      ],
      [
        "********************************",
        "**"
      ],
      [
        "'",
        "t"
      ],
      [
        "▁inv",
        "est"
      ],
      [
        "▁aft",
        "er"
      ],
      [
        "▁m",
        "an"
      ],
      [
        "▁su",
        "c"
      ],
      [
        "▁butt",
        "ons"
      ],
      [
        "▁r",
        "un"
      ],
      [
        "it",
        "ch"
      ],
      [
        "ali",
        "ties"
      ],
      [
        "▁our",
        "s"
      ],
      [
        "oin",
        "t"
      ],
      [
        "ow",
        "ed"
      ],
      [
        "▁fun",
        "d"
      ],
      [
        "▁d",
        "ough"
      ],
      [
        "ic",
        "e"
      ],
      [
        "v",
        "ail"
      ],
      [
        "a",
        "k"
      ],
      [
        "▁ex",
        "pos"
      ],
      [
        "▁us",
        "er"
      ],
      [
        "▁gu",
        "id"
      ],
      [
        "▁m",
        "use"
      ],
      [
        "▁sho",
        "e"
      ],
      [
        "▁)",
        ")"
      ],
      [
        "▁datab",
        "ase"
      ],
      [
        "▁ex",
        "t"
      ],
      [
        "as",
        "ter"
      ],
      [
        "k",
        "er"
      ],
      [
        "h",
        "es"
      ],
      [
        "b",
        "all"
      ],
      [
        "▁p",
        "ool"
      ],
      [
        "▁o",
        "p"
      ],
      [
        "ur",
        "s"
      ],
      [
        "▁pr",
        "ess"
      ],
      [
        "▁",
        "end"
      ],
      [
        "▁d",
        "one"
      ],
      [
        "▁le",
        "ar"
      ],
      [
        "ib",
        "ilities"
      ],
      [
        "f",
        "ri"
      ],
      [
        "▁airlin",
        "es"
      ],
      [
        "▁att",
        "acks"
      ],
      [
        "▁depart",
        "ment"
      ],
      [
        "▁med",
        "ia"
      ],
      [
        "▁pa",
        "id"
      ],
      [
        "ter",
        "ing"
      ],
      [
        "▁b",
        "e"
      ],
      [
        "▁cro",
        "s"
      ],
      [
        "ear",
        "ed"
      ],
      [
        "▁mo",
        "ving"
      ],
      [
        "w",
        "hether"
      ],
      [
        "re",
        "t"
      ],
      [
        "▁expl",
        "ained"
      ],
      [
        "▁g",
        "o"
      ],
      [
        "t",
        "c"
      ],
      [
        "▁",
        "as"
      ],
      [
        "in",
        "ts"
      ],
      [
        "▁t",
        "ail"
      ],
      [
        "▁sc",
        "en"
      ],
      [
        "▁",
        "th"
      ],
      [
        "▁g",
        "iving"
      ],
      [
        "p",
        "s"
      ],
      [
        "▁str",
        "ength"
      ],
      [
        "▁occ",
        "ur"
      ],
      [
        "t",
        "ed"
      ],
      [
        "▁n",
        "either"
      ],
      [
        "op",
        "eration"
      ],
      [
        "▁s",
        "li"
      ],
      [
        "▁t",
        "w"
      ],
      [
        "w",
        "w"
      ],
      [
        "▁her",
        "self"
      ],
      [
        "ts",
        "bur"
      ],
      [
        "▁li",
        "ght"
      ],
      [
        "▁d",
        "ie"
      ],
      [
        "▁but",
        "t"
      ],
      [
        "▁acc",
        "ident"
      ],
      [
        "▁settle",
        "ment"
      ],
      [
        "oc",
        "ol"
      ],
      [
        "▁",
        "i"
      ],
      [
        "▁su",
        "ch"
      ],
      [
        "▁le",
        "ss"
      ],
      [
        "▁wor",
        "ds"
      ],
      [
        "id",
        "ence"
      ],
      [
        "▁expos",
        "ure"
      ],
      [
        "▁be",
        "for"
      ],
      [
        "anc",
        "ing"
      ],
      [
        "▁c",
        "are"
      ],
      [
        "-------",
        ">"
      ],
      [
        "▁",
        "des"
      ],
      [
        "▁p",
        "in"
      ],
      [
        "▁c",
        "atch"
      ],
      [
        "▁go",
        "t"
      ],
      [
        "▁op",
        "tions"
      ],
      [
        "o",
        "re"
      ],
      [
        "▁r",
        "ain"
      ],
      [
        "▁w",
        "il"
      ],
      [
        "▁c",
        "all"
      ],
      [
        "▁",
        "either"
      ],
      [
        "▁proper",
        "ty"
      ],
      [
        "act",
        "ers"
      ],
      [
        "▁pl",
        "ans"
      ],
      [
        "s",
        "us"
      ],
      [
        "b",
        "r"
      ],
      [
        "▁cam",
        "er"
      ],
      [
        "▁p",
        "s"
      ],
      [
        "▁g",
        "l"
      ],
      [
        "▁ne",
        "ar"
      ],
      [
        "▁need",
        "ed"
      ],
      [
        "re",
        "w"
      ],
      [
        "▁h",
        "am"
      ],
      [
        "▁air",
        "ports"
      ],
      [
        "▁mom",
        "ent"
      ],
      [
        ".",
        "m"
      ],
      [
        "▁proce",
        "d"
      ],
      [
        "▁sch",
        "ed"
      ],
      [
        "▁he",
        "at"
      ],
      [
        "▁h",
        "os"
      ],
      [
        "▁",
        "out"
      ],
      [
        "▁thous",
        "ands"
      ],
      [
        "▁",
        "es"
      ],
      [
        "▁st",
        "ories"
      ],
      [
        "u",
        "ter"
      ],
      [
        "▁?!",
        "?"
      ],
      [
        "▁lad",
        "y"
      ],
      [
        "▁n",
        "ote"
      ],
      [
        "ear",
        "ch"
      ],
      [
        "▁",
        "["
      ],
      [
        "▁",
        "d"
      ],
      [
        "id",
        "den"
      ],
      [
        "▁l",
        "ong"
      ],
      [
        "ation",
        "al"
      ],
      [
        "th",
        "in"
      ],
      [
        "i",
        "al"
      ],
      [
        "▁l",
        "i"
      ],
      [
        "▁may",
        "be"
      ],
      [
        "▁cos",
        "ts"
      ],
      [
        "▁ke",
        "ep"
      ],
      [
        "▁la",
        "ugh"
      ],
      [
        "▁mo",
        "de"
      ],
      [
        "▁wed",
        "nesday"
      ],
      [
        "▁dou",
        "b"
      ],
      [
        "▁per",
        "cent"
      ],
      [
        "▁exper",
        "ien"
      ],
      [
        "▁t",
        "est"
      ],
      [
        "▁v",
        "ar"
      ],
      [
        "r",
        "ong"
      ],
      [
        "▁re",
        "lig"
      ],
      [
        "▁d",
        "re"
      ],
      [
        "he",
        "ad"
      ],
      [
        "ir",
        "e"
      ],
      [
        "r",
        "i"
      ],
      [
        "g",
        "re"
      ],
      [
        "▁’",
        "ve"
      ],
      [
        "▁.",
        "?"
      ],
      [
        "▁commun",
        "ication"
      ],
      [
        "▁teach",
        "er"
      ],
      [
        "▁c",
        "r"
      ],
      [
        "▁ag",
        "re"
      ],
      [
        "▁n",
        "ame"
      ],
      [
        "en",
        "ts"
      ],
      [
        "▁min",
        "us"
      ],
      [
        "▁",
        "whether"
      ],
      [
        "a",
        "ched"
      ],
      [
        "▁sp",
        "ir"
      ],
      [
        "▁sa",
        "f"
      ],
      [
        "▁go",
        "od"
      ],
      [
        "▁in",
        "side"
      ],
      [
        "▁d",
        "ey"
      ],
      [
        "▁l",
        "es"
      ],
      [
        "▁custom",
        "ers"
      ],
      [
        "en",
        "ces"
      ],
      [
        "▁ar",
        "ound"
      ],
      [
        "ac",
        "e"
      ],
      [
        "▁a",
        "ud"
      ],
      [
        "▁pas",
        "sed"
      ],
      [
        "▁activ",
        "ities"
      ],
      [
        "an",
        "s"
      ],
      [
        "bo",
        "dy"
      ],
      [
        "▁we",
        "bs"
      ],
      [
        "a",
        "nd"
      ],
      [
        "▁e",
        "le"
      ],
      [
        "▁at",
        "t"
      ],
      [
        "▁s",
        "c"
      ],
      [
        "r",
        "es"
      ],
      [
        "▁p",
        "ass"
      ],
      [
        "▁fiel",
        "ds"
      ],
      [
        "▁hot",
        "el"
      ],
      [
        "▁anth",
        "rax"
      ],
      [
        "▁man",
        "ner"
      ],
      [
        "l",
        "u"
      ],
      [
        "▁manag",
        "ement"
      ],
      [
        "▁r",
        "ent"
      ],
      [
        "▁l",
        "aw"
      ],
      [
        "r",
        "ation"
      ],
      [
        "p",
        "h"
      ],
      [
        "▁am",
        "end"
      ],
      [
        "????????????????",
        "????????????????"
      ],
      [
        "▁des",
        "k"
      ],
      [
        "▁tr",
        "av"
      ],
      [
        "▁produc",
        "t"
      ],
      [
        "▁saf",
        "ety"
      ],
      [
        "ou",
        "t"
      ],
      [
        "i",
        "g"
      ],
      [
        "▁wor",
        "king"
      ],
      [
        "▁’",
        "ll"
      ],
      [
        "▁a",
        "cross"
      ],
      [
        "▁b",
        "ut"
      ],
      [
        "om",
        "p"
      ],
      [
        "▁far",
        "m"
      ],
      [
        "▁pe",
        "an"
      ],
      [
        "▁>",
        ">"
      ],
      [
        "▁[...",
        "]"
      ],
      [
        "or",
        "ed"
      ],
      [
        "▁rece",
        "ived"
      ],
      [
        "i",
        "b"
      ],
      [
        "a",
        "ve"
      ],
      [
        "▁de",
        "p"
      ],
      [
        "▁enc",
        "our"
      ],
      [
        "h",
        "a"
      ],
      [
        "y",
        "body"
      ],
      [
        "▁attemp",
        "t"
      ],
      [
        "▁p",
        "h"
      ],
      [
        "▁w",
        "ork"
      ],
      [
        "▁co",
        "mp"
      ],
      [
        "g",
        "ed"
      ],
      [
        "▁g",
        "row"
      ],
      [
        "▁breakf",
        "ast"
      ],
      [
        "▁fr",
        "anc"
      ],
      [
        "m",
        "en"
      ],
      [
        "▁h",
        "ome"
      ],
      [
        "▁mot",
        "or"
      ],
      [
        "▁ass",
        "ist"
      ],
      [
        "▁hal",
        "f"
      ],
      [
        "a",
        "it"
      ],
      [
        "▁b",
        "ur"
      ],
      [
        "▁",
        "ans"
      ],
      [
        "▁rec",
        "og"
      ],
      [
        "ation",
        "s"
      ],
      [
        "▁enj",
        "ambment"
      ],
      [
        "▁to",
        "day"
      ],
      [
        "i",
        "s"
      ],
      [
        "e",
        "el"
      ],
      [
        "▁m",
        "ail"
      ],
      [
        "l",
        "ing"
      ],
      [
        "▁n",
        "um"
      ],
      [
        "a",
        "tive"
      ],
      [
        "▁est",
        "ab"
      ],
      [
        "▁ear",
        "th"
      ],
      [
        "▁r",
        "em"
      ],
      [
        "▁s",
        "ch"
      ],
      [
        "▁b",
        "/"
      ],
      [
        "▁det",
        "ail"
      ],
      [
        "end",
        "ing"
      ],
      [
        "▁sp",
        "ell"
      ],
      [
        "--------",
        "--"
      ],
      [
        "▁re",
        "c"
      ],
      [
        "▁nov",
        "ember"
      ],
      [
        "▁mil",
        "es"
      ],
      [
        "▁techn",
        "ology"
      ],
      [
        "▁ban",
        "k"
      ],
      [
        "▁o",
        "w"
      ],
      [
        "▁r",
        "ound"
      ],
      [
        "▁so",
        "uth"
      ],
      [
        "▁cre",
        "ating"
      ],
      [
        "y",
        "et"
      ],
      [
        "a",
        "ll"
      ],
      [
        "▁",
        "um"
      ],
      [
        "oc",
        "r"
      ],
      [
        "▁ab",
        "ove"
      ],
      [
        "ec",
        "h"
      ],
      [
        "▁c",
        "oup"
      ],
      [
        "▁no",
        "ise"
      ],
      [
        "▁at",
        "op"
      ],
      [
        "▁import",
        "ance"
      ],
      [
        "▁o",
        "pen"
      ],
      [
        "ect",
        "ive"
      ],
      [
        "▁v",
        "is"
      ],
      [
        "▁wh",
        "at"
      ],
      [
        "▁prot",
        "ection"
      ],
      [
        "▁add",
        "ress"
      ],
      [
        "▁",
        "y"
      ],
      [
        "et",
        "te"
      ],
      [
        "▁p",
        "ain"
      ],
      [
        "▁m",
        "od"
      ],
      [
        "▁bl",
        "an"
      ],
      [
        "▁prop",
        "os"
      ],
      [
        "▁",
        "a"
      ],
      [
        "a",
        "n"
      ],
      [
        "m",
        "ents"
      ],
      [
        "▁e",
        "ff"
      ],
      [
        "▁w",
        "ash"
      ],
      [
        "▁dec",
        "ided"
      ],
      [
        "o",
        "cr"
      ],
      [
        "▁m",
        "ight"
      ],
      [
        "i",
        "on"
      ],
      [
        "ithst",
        "anding"
      ],
      [
        "▁be",
        "ach"
      ],
      [
        "▁gar",
        "age"
      ],
      [
        "is",
        "ing"
      ],
      [
        "▁mov",
        "ie"
      ],
      [
        "▁k",
        "ill"
      ],
      [
        "▁b",
        "owl"
      ],
      [
        "ow",
        "er"
      ],
      [
        "iv",
        "ers"
      ],
      [
        "▁ou",
        "t"
      ],
      [
        "▁show",
        "ing"
      ],
      [
        "▁app",
        "ointment"
      ],
      [
        "▁comp",
        "l"
      ],
      [
        "▁u",
        "nd"
      ],
      [
        "▁con",
        "t"
      ],
      [
        "d",
        "es"
      ],
      [
        "s",
        "e"
      ],
      [
        "▁th",
        "y"
      ],
      [
        "▁count",
        "ry"
      ],
      [
        "▁under",
        "neath"
      ],
      [
        "▁",
        "("
      ],
      [
        "▁toward",
        "s"
      ],
      [
        "▁langu",
        "age"
      ],
      [
        "▁f",
        "eel"
      ],
      [
        "▁th",
        "a"
      ],
      [
        "b",
        "o"
      ],
      [
        "▁co",
        "st"
      ],
      [
        "n",
        "ers"
      ],
      [
        "▁l",
        "a"
      ],
      [
        "ry",
        "ing"
      ],
      [
        "▁c",
        "ity"
      ],
      [
        "▁ch",
        "air"
      ],
      [
        "▁rep",
        "resent"
      ],
      [
        "r",
        "y"
      ],
      [
        "▁v",
        "iew"
      ],
      [
        "in",
        "us"
      ],
      [
        "▁e",
        "l"
      ],
      [
        "r",
        "a"
      ],
      [
        "▁sug",
        "ar"
      ],
      [
        "ab",
        "les"
      ],
      [
        "b",
        "ur"
      ],
      [
        "ic",
        "k"
      ],
      [
        "▁dec",
        "ember"
      ],
      [
        "▁",
        "isl"
      ],
      [
        "▁hos",
        "p"
      ],
      [
        "▁",
        "…"
      ],
      [
        "▁ro",
        "ck"
      ],
      [
        "▁cop",
        "y"
      ],
      [
        "▁b",
        "el"
      ],
      [
        "▁a",
        "f"
      ],
      [
        "▁gir",
        "l"
      ],
      [
        "t",
        "er"
      ],
      [
        "▁fil",
        "ter"
      ],
      [
        "▁",
        "round"
      ],
      [
        "▁chang",
        "e"
      ],
      [
        "▁s",
        "ent"
      ],
      [
        "for",
        "ce"
      ],
      [
        "i",
        "ew"
      ],
      [
        "c",
        "ess"
      ],
      [
        "os",
        "e"
      ],
      [
        "p",
        "ts"
      ],
      [
        "'",
        "re"
      ],
      [
        "▁c",
        "a"
      ],
      [
        "form",
        "ation"
      ],
      [
        "▁e",
        "p"
      ],
      [
        "▁d",
        "ied"
      ],
      [
        "▁pr",
        "op"
      ],
      [
        "▁’",
        "s"
      ],
      [
        "iv",
        "e"
      ],
      [
        "▁c",
        "over"
      ],
      [
        "▁off",
        "ic"
      ],
      [
        "▁c",
        "o"
      ],
      [
        "en",
        "tion"
      ],
      [
        "▁far",
        "es"
      ],
      [
        "▁pain",
        "t"
      ],
      [
        "k",
        "ers"
      ],
      [
        "▁cour",
        "se"
      ],
      [
        "duc",
        "tion"
      ],
      [
        "▁",
        "ro"
      ],
      [
        "a",
        "g"
      ],
      [
        "▁",
        "at"
      ],
      [
        "▁minut",
        "es"
      ],
      [
        "▁t",
        "re"
      ],
      [
        "▁ha",
        "d"
      ],
      [
        "▁g",
        "ive"
      ],
      [
        "▁allow",
        "ed"
      ],
      [
        "et",
        "y"
      ],
      [
        "n",
        "e"
      ],
      [
        "a",
        "b"
      ],
      [
        "u",
        "m"
      ],
      [
        "o",
        "tw"
      ],
      [
        "▁im",
        "age"
      ],
      [
        "▁s",
        "ister"
      ],
      [
        "▁ob",
        "jec"
      ],
      [
        "▁stud",
        "ents"
      ],
      [
        "▁ex",
        "am"
      ],
      [
        "or",
        "ts"
      ],
      [
        "▁b",
        "ase"
      ],
      [
        "i",
        "v"
      ],
      [
        "ed",
        "uc"
      ],
      [
        "▁co",
        "ver"
      ],
      [
        "▁",
        "—"
      ],
      [
        "▁percent",
        "age"
      ],
      [
        "▁...............",
        "...."
      ],
      [
        "ad",
        "e"
      ],
      [
        "▁know",
        "ledge"
      ],
      [
        "v",
        "ed"
      ],
      [
        "▁capac",
        "ity"
      ],
      [
        "▁rememb",
        "ered"
      ],
      [
        "▁appear",
        "s"
      ],
      [
        "▁po",
        "ints"
      ],
      [
        "▁c",
        "an"
      ],
      [
        "le",
        "t"
      ],
      [
        "▁imp",
        "lem"
      ],
      [
        "al",
        "th"
      ],
      [
        "t",
        "ly"
      ],
      [
        "a",
        "s"
      ],
      [
        "▁ad",
        "d"
      ],
      [
        "▁!",
        "?"
      ],
      [
        "olog",
        "y"
      ],
      [
        "▁th",
        "at"
      ],
      [
        "ati",
        "ve"
      ],
      [
        "ove",
        "r"
      ],
      [
        "▁acc",
        "ep"
      ],
      [
        "▁ob",
        "ject"
      ],
      [
        "▁ti",
        "e"
      ],
      [
        "▁ec",
        "onom"
      ],
      [
        "▁l",
        "at"
      ],
      [
        "▁boo",
        "m"
      ],
      [
        "ec",
        "ts"
      ],
      [
        "▁'",
        "re"
      ],
      [
        "▁e",
        "tc"
      ],
      [
        "▁---------------------------------",
        "--------------------------------"
      ],
      [
        "▁n",
        "eck"
      ],
      [
        "er",
        "ve"
      ],
      [
        "k",
        "e"
      ],
      [
        "▁ar",
        "my"
      ],
      [
        "▁d",
        "em"
      ],
      [
        "▁r",
        "ad"
      ],
      [
        "▁stud",
        "ies"
      ],
      [
        "▁g",
        "ood"
      ],
      [
        "▁la",
        "b"
      ],
      [
        "▁pur",
        "pos"
      ],
      [
        "▁t",
        "om"
      ],
      [
        "▁m",
        "ake"
      ],
      [
        "▁dr",
        "agon"
      ],
      [
        "c",
        "k"
      ],
      [
        "▁ever",
        "yone"
      ],
      [
        "u",
        "tions"
      ],
      [
        "ear",
        "ance"
      ],
      [
        "▁s",
        "er"
      ],
      [
        "▁ph",
        "ot"
      ],
      [
        "▁s",
        "pe"
      ],
      [
        "▁s",
        "olution"
      ],
      [
        "▁mom",
        "my"
      ],
      [
        "▁c",
        "at"
      ],
      [
        "▁answ",
        "er"
      ],
      [
        "▁mic",
        "ro"
      ],
      [
        "d",
        "y"
      ],
      [
        "▁",
        "fir"
      ],
      [
        "▁k",
        "ey"
      ],
      [
        "▁an",
        "oth"
      ],
      [
        "▁sour",
        "ces"
      ],
      [
        "▁inv",
        "olved"
      ],
      [
        "re",
        "c"
      ],
      [
        "▁traff",
        "ic"
      ],
      [
        "▁d",
        "og"
      ],
      [
        "▁---------------------------------------------------------------------",
        "-"
      ],
      [
        "▁pe",
        "op"
      ],
      [
        "av",
        "or"
      ],
      [
        "▁imp",
        "ro"
      ],
      [
        "▁m",
        "ag"
      ],
      [
        "▁way",
        "s"
      ],
      [
        "▁comp",
        "uter"
      ],
      [
        "ac",
        "k"
      ],
      [
        "c",
        "ase"
      ],
      [
        "▁ra",
        "ised"
      ],
      [
        "▁conc",
        "lu"
      ],
      [
        "▁f",
        "ax"
      ],
      [
        "▁a",
        "ff"
      ],
      [
        "▁gu",
        "ar"
      ],
      [
        "▁d",
        "er"
      ],
      [
        "▁ch",
        "ap"
      ],
      [
        "▁ben",
        "ef"
      ],
      [
        "e",
        "ll"
      ],
      [
        "▁cir",
        "c"
      ],
      [
        "g",
        "er"
      ],
      [
        "▁u",
        "se"
      ],
      [
        "i",
        "ate"
      ],
      [
        "▁f",
        "ol"
      ],
      [
        "▁a",
        "ut"
      ],
      [
        "▁",
        "own"
      ],
      [
        "as",
        "es"
      ],
      [
        "un",
        "g"
      ],
      [
        "▁t",
        "urned"
      ],
      [
        "▁p",
        "red"
      ],
      [
        "▁st",
        "ates"
      ],
      [
        "▁ele",
        "ct"
      ],
      [
        "▁cove",
        "red"
      ],
      [
        "▁respons",
        "ibility"
      ],
      [
        "▁th",
        "ink"
      ],
      [
        "▁displ",
        "ay"
      ],
      [
        "oun",
        "ced"
      ],
      [
        "th",
        "er"
      ],
      [
        "pl",
        "ace"
      ],
      [
        "▁l",
        "ink"
      ],
      [
        "▁co",
        "operation"
      ],
      [
        "▁d",
        "iff"
      ],
      [
        "e",
        "n"
      ],
      [
        "▁se",
        "x"
      ],
      [
        "▁vs",
        "."
      ],
      [
        "ir",
        "t"
      ],
      [
        "▁ex",
        "ch"
      ],
      [
        "u",
        "r"
      ],
      [
        "▁c",
        "row"
      ],
      [
        "▁d",
        "ust"
      ],
      [
        "u",
        "th"
      ],
      [
        "▁forg",
        "et"
      ],
      [
        "▁in",
        "t"
      ],
      [
        "▁gen",
        "eration"
      ],
      [
        "▁play",
        "s"
      ],
      [
        "▁wind",
        "ow"
      ],
      [
        "▁app",
        "le"
      ],
      [
        "▁d",
        "ress"
      ],
      [
        "n",
        "ut"
      ],
      [
        "a",
        "ir"
      ],
      [
        "a",
        "h"
      ],
      [
        "▁re",
        "pe"
      ],
      [
        "▁po",
        "t"
      ],
      [
        "igh",
        "t"
      ],
      [
        "▁jun",
        "e"
      ],
      [
        "▁is",
        "su"
      ],
      [
        "▁be",
        "en"
      ],
      [
        "▁hist",
        "ory"
      ],
      [
        "a",
        "me"
      ],
      [
        "ce",
        "pt"
      ],
      [
        "▁sch",
        "ol"
      ],
      [
        "▁s",
        "ens"
      ],
      [
        "▁li",
        "ps"
      ],
      [
        "▁",
        "u"
      ],
      [
        "▁g",
        "one"
      ],
      [
        "▁mar",
        "ket"
      ],
      [
        "▁y",
        "et"
      ],
      [
        "▁some",
        "one"
      ],
      [
        "▁t",
        "ell"
      ],
      [
        "▁ri",
        "ght"
      ],
      [
        "▁m",
        "os"
      ],
      [
        "▁pre",
        "fer"
      ],
      [
        "il",
        "os"
      ],
      [
        "▁f",
        "ro"
      ],
      [
        "wor",
        "k"
      ],
      [
        "▁w",
        "it"
      ],
      [
        "▁a",
        "p"
      ],
      [
        "▁",
        "to"
      ],
      [
        "ough",
        "t"
      ],
      [
        "p",
        "ite"
      ],
      [
        "▁app",
        "lication"
      ],
      [
        "▁t",
        "oy"
      ],
      [
        "u",
        "es"
      ],
      [
        "at",
        "i"
      ],
      [
        "▁",
        "`s"
      ],
      [
        "▁re",
        "ach"
      ],
      [
        "▁n",
        "’t"
      ],
      [
        "o",
        "ice"
      ],
      [
        "▁it",
        "s"
      ],
      [
        "u",
        "ation"
      ],
      [
        "▁le",
        "t"
      ],
      [
        "u",
        "d"
      ],
      [
        "▁la",
        "un"
      ],
      [
        "▁in",
        "tern"
      ],
      [
        "▁t",
        "hen"
      ],
      [
        "▁bu",
        "il"
      ],
      [
        "▁p",
        "air"
      ],
      [
        "▁",
        "bo"
      ],
      [
        "▁a",
        "ny"
      ],
      [
        "▁r",
        "oll"
      ],
      [
        "o",
        "ol"
      ],
      [
        "▁f",
        "ar"
      ],
      [
        "▁f",
        "or"
      ],
      [
        "a",
        "v"
      ],
      [
        "▁class",
        "es"
      ],
      [
        "▁!!!!!!!",
        "!!!"
      ],
      [
        "▁bea",
        "uty"
      ],
      [
        "al",
        "ity"
      ],
      [
        "▁tas",
        "k"
      ],
      [
        "▁belon",
        "g"
      ],
      [
        "▁",
        "wh"
      ],
      [
        "▁open",
        "ed"
      ],
      [
        "▁-",
        "----"
      ],
      [
        "▁ke",
        "y"
      ],
      [
        "▁air",
        "plan"
      ],
      [
        "at",
        "es"
      ],
      [
        "s",
        "el"
      ],
      [
        "▁compan",
        "y"
      ],
      [
        "▁sugg",
        "est"
      ],
      [
        "▁d",
        "ance"
      ],
      [
        "▁bod",
        "y"
      ],
      [
        "um",
        "ent"
      ],
      [
        "tion",
        "s"
      ],
      [
        "▁",
        "ing"
      ],
      [
        "▁agre",
        "ed"
      ],
      [
        "r",
        "u"
      ],
      [
        "▁y",
        "ester"
      ],
      [
        "▁",
        "op"
      ],
      [
        "▁f",
        "all"
      ],
      [
        "▁s",
        "ol"
      ],
      [
        "▁t",
        "here"
      ],
      [
        "____",
        "__"
      ],
      [
        "ali",
        "sm"
      ],
      [
        "▁bed",
        "room"
      ],
      [
        "▁m",
        "ed"
      ],
      [
        "it",
        "ation"
      ],
      [
        "▁ins",
        "tit"
      ],
      [
        "▁sit",
        "ting"
      ],
      [
        "e",
        "b"
      ],
      [
        "el",
        "f"
      ],
      [
        "▁t",
        "ent"
      ],
      [
        "▁neighb",
        "or"
      ],
      [
        "i",
        "red"
      ],
      [
        "▁ne",
        "t"
      ],
      [
        "▁st",
        "at"
      ],
      [
        "▁",
        "lights"
      ],
      [
        "▁",
        ".."
      ],
      [
        "ic",
        "al"
      ],
      [
        "li",
        "sh"
      ],
      [
        "▁b",
        "ac"
      ],
      [
        "▁d",
        "ol"
      ],
      [
        "it",
        "e"
      ],
      [
        "▁typ",
        "e"
      ],
      [
        "▁off",
        "ici"
      ],
      [
        "▁g",
        "re"
      ],
      [
        "▁j",
        "un"
      ],
      [
        "f",
        "or"
      ],
      [
        "▁ob",
        "t"
      ],
      [
        "t",
        "en"
      ],
      [
        "▁ref",
        "l"
      ],
      [
        "▁s",
        "us"
      ],
      [
        "▁rec",
        "e"
      ],
      [
        "▁res",
        "ult"
      ],
      [
        "▁dinos",
        "aur"
      ],
      [
        "▁reg",
        "ar"
      ],
      [
        "ati",
        "s"
      ],
      [
        "▁em",
        "ploy"
      ],
      [
        "us",
        "es"
      ],
      [
        "▁s",
        "and"
      ],
      [
        "▁ac",
        "tion"
      ],
      [
        "▁th",
        "ing"
      ],
      [
        "▁indust",
        "ry"
      ],
      [
        "e",
        "s"
      ],
      [
        "▁pre",
        "s"
      ],
      [
        "▁sw",
        "e"
      ],
      [
        "▁sa",
        "ve"
      ],
      [
        "▁hous",
        "e"
      ],
      [
        "ir",
        "st"
      ],
      [
        "ti",
        "e"
      ],
      [
        "▁w",
        "al"
      ],
      [
        "▁look",
        "s"
      ],
      [
        "am",
        "es"
      ],
      [
        "er",
        "s"
      ],
      [
        "▁",
        "very"
      ],
      [
        "▁diff",
        "erence"
      ],
      [
        "▁s",
        "eries"
      ],
      [
        "▁h",
        "ot"
      ],
      [
        "▁l",
        "ive"
      ],
      [
        "▁in",
        "st"
      ],
      [
        "ep",
        "t"
      ],
      [
        "▁f",
        "r"
      ],
      [
        "▁b",
        "al"
      ],
      [
        "r",
        "ing"
      ],
      [
        "▁peop",
        "le"
      ],
      [
        "res",
        "s"
      ],
      [
        "▁ne",
        "w"
      ],
      [
        "ou",
        "ch"
      ],
      [
        "▁ser",
        "ved"
      ],
      [
        "▁po",
        "st"
      ],
      [
        "▁jo",
        "b"
      ],
      [
        "st",
        "ances"
      ],
      [
        "▁al",
        "ong"
      ],
      [
        "▁ho",
        "me"
      ],
      [
        "▁in",
        "iti"
      ],
      [
        "▁the",
        "re"
      ],
      [
        "▁ye",
        "ar"
      ],
      [
        "▁har",
        "ry"
      ],
      [
        "▁[",
        "..."
      ],
      [
        "▁rest",
        "ric"
      ],
      [
        "▁n",
        "ose"
      ],
      [
        "ti",
        "le"
      ],
      [
        "▁depar",
        "t"
      ],
      [
        "▁me",
        "m"
      ],
      [
        "▁balt",
        "imore"
      ],
      [
        "▁who",
        "se"
      ],
      [
        "▁mech",
        "an"
      ],
      [
        "v",
        "er"
      ],
      [
        "▁mention",
        "ed"
      ],
      [
        "▁pit",
        "tsbur"
      ],
      [
        "▁t",
        "em"
      ],
      [
        "o",
        "or"
      ],
      [
        "▁c",
        "op"
      ],
      [
        "▁jo",
        "in"
      ],
      [
        "▁inclu",
        "ding"
      ],
      [
        "▁ach",
        "ie"
      ],
      [
        "▁th",
        "ought"
      ],
      [
        "▁l",
        "unch"
      ],
      [
        "ol",
        "ution"
      ],
      [
        "▁e",
        "duc"
      ],
      [
        "▁o",
        "ther"
      ],
      [
        "▁h",
        "ar"
      ],
      [
        "▁etc",
        "."
      ],
      [
        "▁h",
        "or"
      ],
      [
        "▁fut",
        "ure"
      ],
      [
        "▁cont",
        "ent"
      ],
      [
        "ch",
        "es"
      ],
      [
        "▁********************************",
        "****************"
      ],
      [
        "▁pro",
        "ble"
      ],
      [
        "i",
        "ence"
      ],
      [
        "▁l",
        "oss"
      ],
      [
        "ain",
        "ing"
      ],
      [
        "or",
        "ding"
      ],
      [
        "▁at",
        "temp"
      ],
      [
        "a",
        "pp"
      ],
      [
        "li",
        "ty"
      ],
      [
        "▁ma",
        "ss"
      ],
      [
        "▁r",
        "es"
      ],
      [
        "▁de",
        "re"
      ],
      [
        "▁h",
        "all"
      ],
      [
        "▁p",
        "m"
      ],
      [
        "su",
        "l"
      ],
      [
        "▁up",
        "d"
      ],
      [
        "▁ser",
        "ies"
      ],
      [
        "▁dat",
        "a"
      ],
      [
        "▁mil",
        "it"
      ],
      [
        "▁sw",
        "ee"
      ],
      [
        "ic",
        "ul"
      ],
      [
        "▁spe",
        "ech"
      ],
      [
        "▁t",
        "er"
      ],
      [
        "rou",
        "nd"
      ],
      [
        "ic",
        "s"
      ],
      [
        "or",
        "m"
      ],
      [
        "os",
        "t"
      ],
      [
        "▁att",
        "ention"
      ],
      [
        "▁sh",
        "orts"
      ],
      [
        "▁sh",
        "irt"
      ],
      [
        "▁s",
        "uc"
      ],
      [
        "▁",
        "g"
      ],
      [
        "▁yester",
        "day"
      ],
      [
        "▁tem",
        "per"
      ],
      [
        "▁e",
        "x"
      ],
      [
        "▁med",
        "ic"
      ],
      [
        "▁achie",
        "ve"
      ],
      [
        "▁",
        "ide"
      ],
      [
        "▁some",
        "body"
      ],
      [
        "▁estab",
        "lished"
      ],
      [
        "▁b",
        "ul"
      ],
      [
        "▁want",
        "s"
      ],
      [
        "▁ch",
        "oice"
      ],
      [
        "in",
        "ess"
      ],
      [
        "▁c",
        "ats"
      ],
      [
        "▁p",
        "oll"
      ],
      [
        "an",
        "ding"
      ],
      [
        "▁pl",
        "enty"
      ],
      [
        "▁opportun",
        "ity"
      ],
      [
        "▁d",
        "irt"
      ],
      [
        "u",
        "gg"
      ],
      [
        "▁",
        "right"
      ],
      [
        "t",
        "le"
      ],
      [
        "▁d",
        "en"
      ],
      [
        "▁fl",
        "oor"
      ],
      [
        "▁gen",
        "er"
      ],
      [
        "▁o",
        "ak"
      ],
      [
        "▁de",
        "c"
      ],
      [
        "▁ab",
        "ility"
      ],
      [
        "▁sp",
        "end"
      ],
      [
        "▁compon",
        "ents"
      ],
      [
        "▁hus",
        "band"
      ],
      [
        "▁discus",
        "sed"
      ],
      [
        "▁bo",
        "x"
      ],
      [
        "f",
        "f"
      ],
      [
        "▁o",
        "cc"
      ],
      [
        "ign",
        "ed"
      ],
      [
        "ast",
        "e"
      ],
      [
        "f",
        "e"
      ],
      [
        "▁cam",
        "el"
      ],
      [
        "▁fi",
        "lled"
      ],
      [
        "▁who",
        "ever"
      ],
      [
        "t",
        "il"
      ],
      [
        "▁ter",
        "ms"
      ],
      [
        "all",
        "y"
      ],
      [
        "en",
        "ty"
      ],
      [
        "u",
        "ted"
      ],
      [
        "d",
        "ing"
      ],
      [
        "▁produc",
        "ts"
      ],
      [
        "▁me",
        "as"
      ],
      [
        "▁pr",
        "inc"
      ],
      [
        "e",
        "ther"
      ],
      [
        "row",
        "s"
      ],
      [
        "el",
        "l"
      ],
      [
        "▁imple",
        "mentation"
      ],
      [
        "▁n",
        "ever"
      ],
      [
        "▁w",
        "on"
      ],
      [
        "ith",
        "st"
      ],
      [
        "ord",
        "ers"
      ],
      [
        "ti",
        "ty"
      ],
      [
        "▁prot",
        "ect"
      ],
      [
        "▁form",
        "s"
      ],
      [
        "am",
        "a"
      ],
      [
        "▁mean",
        "s"
      ],
      [
        "▁arri",
        "ved"
      ],
      [
        "ro",
        "n"
      ],
      [
        "is",
        "ter"
      ],
      [
        "▁sp",
        "ec"
      ],
      [
        "▁p",
        "ig"
      ],
      [
        "▁develop",
        "ment"
      ],
      [
        "▁corn",
        "er"
      ],
      [
        "▁n",
        "on"
      ],
      [
        "▁tow",
        "ard"
      ],
      [
        "▁h",
        "is"
      ],
      [
        "t",
        "ai"
      ],
      [
        "▁su",
        "ff"
      ],
      [
        "▁don",
        "e"
      ],
      [
        "▁s",
        "erv"
      ],
      [
        "▁wi",
        "fe"
      ],
      [
        "▁j",
        "uly"
      ],
      [
        "o",
        "f"
      ],
      [
        "▁litt",
        "le"
      ],
      [
        "▁he",
        "alth"
      ],
      [
        "▁c",
        "ulture"
      ],
      [
        "▁",
        "\""
      ],
      [
        "ic",
        "h"
      ],
      [
        "▁po",
        "li"
      ],
      [
        "oo",
        "ds"
      ],
      [
        "m",
        "it"
      ],
      [
        "▁h",
        "ouse"
      ],
      [
        "▁co",
        "mb"
      ],
      [
        "ur",
        "es"
      ],
      [
        "▁impro",
        "ve"
      ],
      [
        "▁per",
        "iod"
      ],
      [
        "▁h",
        "e"
      ],
      [
        "▁c",
        "ake"
      ],
      [
        "en",
        "ess"
      ],
      [
        "▁b",
        "om"
      ],
      [
        "▁m",
        "em"
      ],
      [
        "est",
        "ed"
      ],
      [
        "▁pro",
        "gr"
      ],
      [
        "▁env",
        "iron"
      ],
      [
        "▁r",
        "ates"
      ],
      [
        "▁p",
        "as"
      ],
      [
        "▁st",
        "op"
      ],
      [
        "▁consid",
        "er"
      ],
      [
        "▁en",
        "c"
      ],
      [
        "▁fl",
        "ying"
      ],
      [
        "▁",
        "_"
      ],
      [
        "▁sh",
        "ape"
      ],
      [
        "▁s",
        "e"
      ],
      [
        "▁rememb",
        "er"
      ],
      [
        "o",
        "le"
      ],
      [
        "▁v",
        "ac"
      ],
      [
        "▁see",
        "ing"
      ],
      [
        "▁thou",
        "gh"
      ],
      [
        "▁inclu",
        "des"
      ],
      [
        "▁rep",
        "air"
      ],
      [
        "z",
        "z"
      ],
      [
        "▁p",
        "i"
      ],
      [
        "▁?",
        "????"
      ],
      [
        "▁bor",
        "n"
      ],
      [
        "o",
        "ught"
      ],
      [
        "▁b",
        "un"
      ],
      [
        "▁sp",
        "oke"
      ],
      [
        "▁follow",
        "ed"
      ],
      [
        "▁sp",
        "ace"
      ],
      [
        "▁the",
        "ory"
      ],
      [
        "▁tw",
        "o"
      ],
      [
        "▁man",
        "ag"
      ],
      [
        "▁t",
        "ook"
      ],
      [
        "▁",
        "ri"
      ],
      [
        "i",
        "qu"
      ],
      [
        "----",
        "--"
      ],
      [
        "▁f",
        "ut"
      ],
      [
        "o",
        "int"
      ],
      [
        "▁sh",
        "ip"
      ],
      [
        "▁sn",
        "ake"
      ],
      [
        "▁wr",
        "it"
      ],
      [
        "▁hel",
        "d"
      ],
      [
        "▁jo",
        "kes"
      ],
      [
        "----------------",
        "----------------"
      ],
      [
        "▁s",
        "le"
      ],
      [
        "v",
        "ement"
      ],
      [
        "▁for",
        "m"
      ],
      [
        "▁what",
        "ever"
      ],
      [
        "▁d",
        "e"
      ],
      [
        "▁car",
        "rying"
      ],
      [
        "▁f",
        "o"
      ],
      [
        "▁h",
        "our"
      ],
      [
        "▁lo",
        "an"
      ],
      [
        "▁n",
        "ew"
      ],
      [
        "▁m",
        "er"
      ],
      [
        "▁a",
        "ll"
      ],
      [
        "▁wom",
        "an"
      ],
      [
        "as",
        "t"
      ],
      [
        "▁an",
        "n"
      ],
      [
        "al",
        "u"
      ],
      [
        "▁",
        "ir"
      ],
      [
        "▁mid",
        "dle"
      ],
      [
        "▁lear",
        "ned"
      ],
      [
        "▁l",
        "uck"
      ],
      [
        "▁fi",
        "le"
      ],
      [
        "▁s",
        "our"
      ],
      [
        "id",
        "ing"
      ],
      [
        "▁s",
        "il"
      ],
      [
        "▁ques",
        "tion"
      ],
      [
        "▁det",
        "er"
      ],
      [
        "▁experien",
        "ce"
      ],
      [
        "▁a",
        "par"
      ],
      [
        "c",
        "on"
      ],
      [
        "▁",
        "cha"
      ],
      [
        "▁rem",
        "ain"
      ],
      [
        "▁ad",
        "op"
      ],
      [
        "ol",
        "es"
      ],
      [
        "▁ap",
        "ril"
      ],
      [
        "▁c",
        "li"
      ],
      [
        "▁ju",
        "ice"
      ],
      [
        "▁pl",
        "ate"
      ],
      [
        "g",
        "le"
      ],
      [
        "▁l",
        "ines"
      ],
      [
        "if",
        "ied"
      ],
      [
        "er",
        "ate"
      ],
      [
        "▁a",
        "n"
      ],
      [
        "▁al",
        "l"
      ],
      [
        "ol",
        "d"
      ],
      [
        "▁tr",
        "ying"
      ],
      [
        "i",
        "tions"
      ],
      [
        "▁deter",
        "m"
      ],
      [
        "a",
        "q"
      ],
      [
        "▁conn",
        "ection"
      ],
      [
        "z",
        "ation"
      ],
      [
        "▁part",
        "ners"
      ],
      [
        "▁f",
        "l"
      ],
      [
        "▁di",
        "ff"
      ],
      [
        "▁l",
        "os"
      ],
      [
        "▁m",
        "inus"
      ],
      [
        "▁m",
        "ust"
      ],
      [
        "▁re",
        "f"
      ],
      [
        "on",
        "s"
      ],
      [
        "▁proble",
        "ms"
      ],
      [
        "▁f",
        "an"
      ],
      [
        "▁in",
        "c"
      ],
      [
        "▁ev",
        "ening"
      ],
      [
        "▁wor",
        "ks"
      ],
      [
        "▁m",
        "ach"
      ],
      [
        "▁e",
        "c"
      ],
      [
        "▁se",
        "em"
      ],
      [
        "▁an",
        "al"
      ],
      [
        "m",
        "al"
      ],
      [
        "▁m",
        "other"
      ],
      [
        "▁pro",
        "s"
      ],
      [
        "▁h",
        "oney"
      ],
      [
        "▁pur",
        "ch"
      ],
      [
        "is",
        "ting"
      ],
      [
        "▁val",
        "ue"
      ],
      [
        "▁th",
        "ir"
      ],
      [
        "▁air",
        "craft"
      ],
      [
        "t",
        "ures"
      ],
      [
        "▁bir",
        "ds"
      ],
      [
        "▁belie",
        "ved"
      ],
      [
        "▁s",
        "ame"
      ],
      [
        "▁bar",
        "n"
      ],
      [
        "▁a",
        "ct"
      ],
      [
        "▁c",
        "am"
      ],
      [
        "ens",
        "e"
      ],
      [
        "▁tic",
        "ket"
      ],
      [
        "ec",
        "es"
      ],
      [
        "????????",
        "????????"
      ],
      [
        "▁c",
        "ri"
      ],
      [
        "▁trou",
        "ble"
      ],
      [
        "▁re",
        "le"
      ],
      [
        "c",
        "h"
      ],
      [
        "um",
        "my"
      ],
      [
        "▁coup",
        "le"
      ],
      [
        "▁",
        "v"
      ],
      [
        "▁c",
        "os"
      ],
      [
        "▁i",
        "f"
      ],
      [
        "▁cost",
        "s"
      ],
      [
        "▁imp",
        "ort"
      ],
      [
        "▁f",
        "oc"
      ],
      [
        "▁soldi",
        "ers"
      ],
      [
        "▁ind",
        "ic"
      ],
      [
        "▁bre",
        "ad"
      ],
      [
        "▁me",
        "ans"
      ],
      [
        "for",
        "med"
      ],
      [
        "▁d",
        "ist"
      ],
      [
        "u",
        "t"
      ],
      [
        "▁r",
        "el"
      ],
      [
        "▁ab",
        "out"
      ],
      [
        "▁bo",
        "om"
      ],
      [
        "▁sc",
        "ience"
      ],
      [
        "f",
        "l"
      ],
      [
        "ur",
        "ity"
      ],
      [
        "o",
        "ut"
      ],
      [
        "an",
        "d"
      ],
      [
        "v",
        "en"
      ],
      [
        "i",
        "z"
      ],
      [
        "i",
        "r"
      ],
      [
        "ac",
        "h"
      ],
      [
        "as",
        "ing"
      ],
      [
        "▁mo",
        "on"
      ],
      [
        "▁for",
        "g"
      ],
      [
        "lo",
        "w"
      ],
      [
        "▁’",
        "m"
      ],
      [
        "▁ch",
        "eck"
      ],
      [
        "▁cons",
        "tit"
      ],
      [
        "i",
        "th"
      ],
      [
        "▁r",
        "at"
      ],
      [
        "amb",
        "ment"
      ],
      [
        "▁writ",
        "ing"
      ],
      [
        "▁regard",
        "s"
      ],
      [
        "▁los",
        "t"
      ],
      [
        "u",
        "mp"
      ],
      [
        "es",
        "s"
      ],
      [
        "▁pres",
        "ident"
      ],
      [
        "t",
        "ure"
      ],
      [
        "j",
        "www"
      ],
      [
        "▁wil",
        "d"
      ],
      [
        "ce",
        "ss"
      ],
      [
        "u",
        "led"
      ],
      [
        "ll",
        "ing"
      ],
      [
        "▁bac",
        "k"
      ],
      [
        "▁e",
        "uro"
      ],
      [
        "!",
        "?"
      ],
      [
        "▁bulld",
        "ozer"
      ],
      [
        "▁li",
        "ving"
      ],
      [
        "▁tre",
        "es"
      ],
      [
        "st",
        "op"
      ],
      [
        "t",
        "ors"
      ],
      [
        "▁w",
        "ould"
      ],
      [
        "▁sh",
        "o"
      ],
      [
        "o",
        "ur"
      ],
      [
        "▁mount",
        "ain"
      ],
      [
        "m",
        "b"
      ],
      [
        "▁",
        "id"
      ],
      [
        "▁res",
        "earch"
      ],
      [
        "▁ball",
        "oon"
      ],
      [
        "▁b",
        "ear"
      ],
      [
        "it",
        "t"
      ],
      [
        "▁for",
        "th"
      ],
      [
        "▁hear",
        "t"
      ],
      [
        "▁h",
        "ur"
      ],
      [
        "▁pl",
        "ay"
      ],
      [
        "▁conce",
        "pt"
      ],
      [
        "s",
        "s"
      ],
      [
        "▁en",
        "sure"
      ],
      [
        "v",
        "ers"
      ],
      [
        "▁produc",
        "tion"
      ],
      [
        "▁w",
        "ish"
      ],
      [
        "i",
        "ds"
      ],
      [
        "▁hund",
        "reds"
      ],
      [
        "uc",
        "k"
      ],
      [
        "▁bus",
        "iness"
      ],
      [
        "▁a",
        "b"
      ],
      [
        "i",
        "es"
      ],
      [
        "▁",
        "up"
      ],
      [
        "ab",
        "le"
      ],
      [
        "▁rel",
        "ations"
      ],
      [
        "i",
        "ation"
      ],
      [
        "m",
        "s"
      ],
      [
        "i",
        "d"
      ],
      [
        "or",
        "ity"
      ],
      [
        "it",
        "led"
      ],
      [
        "▁ne",
        "ed"
      ],
      [
        "a",
        "m"
      ],
      [
        "▁h",
        "ow"
      ],
      [
        "ro",
        "om"
      ],
      [
        "▁o",
        "ne"
      ],
      [
        "▁cloth",
        "es"
      ],
      [
        "o",
        "p"
      ],
      [
        "▁wait",
        "ing"
      ],
      [
        "us",
        "t"
      ],
      [
        "▁d",
        "oor"
      ],
      [
        "oo",
        "l"
      ],
      [
        "▁a",
        "s"
      ],
      [
        "-",
        "m"
      ],
      [
        "▁p",
        "a"
      ],
      [
        "at",
        "ion"
      ],
      [
        "▁win",
        "ter"
      ],
      [
        "um",
        "ents"
      ],
      [
        "▁requi",
        "re"
      ],
      [
        "▁develop",
        "ing"
      ],
      [
        "lic",
        "ations"
      ],
      [
        "▁repres",
        "ent"
      ],
      [
        "oth",
        "er"
      ],
      [
        "▁.",
        "."
      ],
      [
        "▁w",
        "ild"
      ],
      [
        "g",
        "ether"
      ],
      [
        "▁pic",
        "ture"
      ],
      [
        "it",
        "her"
      ],
      [
        "▁s",
        "p"
      ],
      [
        "▁ins",
        "ide"
      ],
      [
        "it",
        "ion"
      ],
      [
        "▁sle",
        "ep"
      ],
      [
        "▁----",
        "=="
      ],
      [
        "▁s",
        "’"
      ],
      [
        "▁m",
        "us"
      ],
      [
        "▁",
        "<"
      ],
      [
        "▁l",
        "et"
      ],
      [
        "a",
        "ke"
      ],
[...]
