{
  "version": "1.0",
  "truncation": null,
  "padding": null,
  "added_tokens": [
    {
      "id": 5439,
      "content": "[PAD]",
      "single_word": false,
      "lstrip": false,
      "rstrip": false,
      "normalized": false,
      "special": true
    },
    {
      "id": 6166,
      "content": "[UNK]",
      "single_word": false,
      "lstrip": false,
      "rstrip": false,
      "normalized": false,
      "special": true
    },
    {
      "id": 6607,
      "content": "[SEP]",
      "single_word": false,
      "lstrip": false,
      "rstrip": false,
      "normalized": false,
      "special": true
    },
    {
      "id": 10705,
      "content": "[CLS]",
      "single_word": false,
      "lstrip": false,
      "rstrip": false,
      "normalized": false,
      "special": true
    },
    {
      "id": 13263,
      "content": "[MASK]",
      "single_word": false,
      "lstrip": false,
      "rstrip": false,
      "normalized": false,
      "special": true
    }
  ],
  "normalizer": {
    "type": "Sequence",
    "normalizers": [
      {
        "type": "NFD"
      },
      {
        "type": "Lowercase"
      },
      {
        "type": "StripAccents"
      }
    ]
  },
  "pre_tokenizer": {
    "type": "Sequence",
    "pretokenizers": [
      {
        "type": "Metaspace",
        "replacement": "▁",
        "prepend_scheme": "always",
        "split": true
      }
    ]
  },
  "post_processor": {
    "type": "TemplateProcessing",
    "single": [
      {
        "SpecialToken": {
          "id": "[CLS]",
          "type_id": 0
        }
      },
      {
        "Sequence": {
          "id": "A",
          "type_id": 0
        }
      },
      {
        "SpecialToken": {
          "id": "[SEP]",
          "type_id": 0
        }
      }
    ],
    "pair": [
      {
        "SpecialToken": {
          "id": "[CLS]",
          "type_id": 0
        }
      },
      {
        "Sequence": {
          "id": "A",
          "type_id": 0
        }
      },
      {
        "SpecialToken": {
          "id": "[SEP]",
          "type_id": 0
        }
      },
      {
        "Sequence": {
          "id": "B",
          "type_id": 1
        }
      },
      {
        "SpecialToken": {
          "id": "[SEP]",
          "type_id": 1
        }
      }
    ],
    "special_tokens": {
      "[CLS]": {
        "id": "[CLS]",
        "ids": [
          10705
        ],
        "tokens": [
          "[CLS]"
        ]
      },
      "[SEP]": {
        "id": "[SEP]",
        "ids": [
          6607
        ],
        "tokens": [
          "[SEP]"
        ]
      }
    }
  },
  "decoder": {
    "type": "Metaspace",
    "replacement": "▁",
    "prepend_scheme": "always",
    "split": true
  },
  "model": {
    "type": "BPE",
    "dropout": null,
    "unk_token": "[UNK]",
    "continuing_subword_prefix": null,
    "end_of_word_suffix": null,
    "fuse_unk": false,
    "byte_fallback": false,
    "ignore_merges": false,
    "vocab": {
      "▁imple": 0,
      "apolis": 1,
      "▁rapporte": 2,
      "▁pri": 3,
      "▁reinforces": 4,
      "▁wakes": 5,
      "▁exchang": 6,
      "▁winking": 7,
      "▁shape": 8,
      "▁calc": 9,
      "▁inequ": 10,
      "▁meals": 11,
      "▁doctors": 12,
      "▁interpretations": 13,
      "urop": 14,
      "▁relax": 15,
      "▁cartoons": 16,
      "▁preferences": 17,
      "▁checkerspot": 18,
      "▁afters": 19,
      "▁altered": 20,
      "ler": 21,
      "ads": 22,
      "▁rober": 23,
      "▁credibility": 24,
      "▁names": 25,
      "▁specimens": 26,
      "▁apost": 27,
      "▁headed": 28,
      "▁sniff": 29,
      "ieth": 30,
      "▁ancestry": 31,
      "▁wording": 32,
      "oc": 33,
      "lav": 34,
      "isco": 35,
      "▁loose": 36,
      "▁overwhelmed": 37,
      "erating": 38,
      "▁math": 39,
      "▁schedul": 40,
      "▁mermaid": 41,
      "▁wheelchair": 42,
      "▁abstract": 43,
      "▁stuck": 44,
      "▁against": 45,
      "▁mich": 46,
      "▁becomes": 47,
      "▁pivotchart": 48,
      "▁theodorus": 49,
      "▁great": 50,
      "▁least": 51,
      "eted": 52,
      "ece": 53,
      "▁discount": 54,
      "▁fee": 55,
      "version": 56,
      "kers": 57,
      "▁kins": 58,
      "▁players": 59,
      "▁describing": 60,
      "!!!": 61,
      "▁specified": 62,
      "▁relates": 63,
      "▁expansion": 64,
      "▁ros": 65,
      "▁loud": 66,
      "encies": 67,
      "▁reconsider": 68,
      "▁spices": 69,
      "ective": 70,
      "▁23": 71,
      "▁comprehension": 72,
      "▁young": 73,
      "▁overc": 74,
      "▁corn": 75,
      "pp": 76,
      "nia": 77,
      "alsa": 78,
      "elle": 79,
      "fficial": 80,
      "▁plane": 81,
      "------------": 82,
      "▁defeated": 83,
      "▁lingerie": 84,
      "▁had": 85,
      "▁susp": 86,
      "▁platted": 87,
      "▁neo": 88,
      "▁greeting": 89,
      "▁leaders": 90,
      "▁chilling": 91,
      "▁seiz": 92,
      "▁wounds": 93,
      "▁empty": 94,
      "▁dislike": 95,
      "▁guid": 96,
      "icit": 97,
      "▁uniform": 98,
      "▁clinics": 99,
      "ract": 100,
      "▁apprec": 101,
      "▁ag": 102,
      "ization": 103,
      "imated": 104,
      "▁responsibility": 105,
      "▁borne": 106,
      "▁influenced": 107,
      "▁secur": 108,
      "▁squeeze": 109,
      "▁modified": 110,
      "▁blessings": 111,
      "▁chicken": 112,
      "▁sanctuary": 113,
      "▁letting": 114,
      "▁strut": 115,
      "ince": 116,
      "▁format": 117,
      "▁paul": 118,
      "▁handful": 119,
      "▁peppers": 120,
      "▁nov": 121,
      "▁dilemmas": 122,
      "▁cloud": 123,
      "ly": 124,
      "▁last": 125,
      "▁visit": 126,
      "▁outwe": 127,
      "▁shut": 128,
      "ru": 129,
      "▁ranger": 130,
      "oked": 131,
      "▁inspector": 132,
      "▁presents": 133,
      "▁mosquitoes": 134,
      "▁mike": 135,
      "eef": 136,
      "▁500": 137,
      "ps": 138,
      "▁she": 139,
      "loyed": 140,
      "▁hamb": 141,
      "▁rape": 142,
      "▁tugged": 143,
      "▁origin": 144,
      "▁likelihood": 145,
      "▁techniqu": 146,
      "▁confirmed": 147,
      "▁yacht": 148,
      "▁completely": 149,
      "tops": 150,
      "▁again": 151,
      "▁told": 152,
      "▁oc": 153,
      "▁papers": 154,
      "iency": 155,
      "▁founders": 156,
      "▁haven": 157,
      "▁biologists": 158,
      "▁fortunes": 159,
      "▁youtu": 160,
      "▁embargo": 161,
      "▁struck": 162,
      "▁hi": 163,
      "▁tack": 164,
      "▁absorbed": 165,
      "▁****": 166,
      "▁dis": 167,
      "titions": 168,
      "▁seesaw": 169,
      "▁charged": 170,
      "ns": 171,
      "▁grandpar": 172,
      "▁conse": 173,
      "▁containers": 174,
      "&b": 175,
      "▁believes": 176,
      "▁stip": 177,
      "▁taiwan": 178,
      "▁wander": 179,
      "▁icing": 180,
      "▁pit": 181,
      "▁favorites": 182,
      "▁intending": 183,
      "▁continued": 184,
      "imarily": 185,
      "atter": 186,
      "ained": 187,
      "llow": 188,
      "▁insert": 189,
      "▁nobody": 190,
      "▁varied": 191,
      "▁demonstration": 192,
      "▁manner": 193,
      "r": 194,
      "ager": 195,
      "▁whil": 196,
      "▁indi": 197,
      "▁pup": 198,
      "▁bell": 199,
      "lions": 200,
      "▁substance": 201,
      "▁bloo": 202,
      "▁regional": 203,
      "▁microsoft": 204,
      "▁involved": 205,
      "▁wilt": 206,
      "▁official": 207,
      "▁recr": 208,
      "▁file": 209,
      "▁driving": 210,
      "▁chall": 211,
      "▁pillars": 212,
      "friends": 213,
      "▁chill": 214,
      "▁organism": 215,
      "▁garden": 216,
      "▁not": 217,
      "▁translations": 218,
      "▁aun": 219,
      "vel": 220,
      "▁tha": 221,
      "lled": 222,
      "che": 223,
      "amati": 224,
      "ue": 225,
      "▁quaffle": 226,
      "▁withdraw": 227,
      "▁lin": 228,
      "▁organiz": 229,
      "▁teenager": 230,
      "▁consultation": 231,
      "▁sunk": 232,
      "▁laugh": 233,
      "▁straw": 234,
      "▁launching": 235,
      "▁)": 236,
      "▁159": 237,
      "▁kung": 238,
      "rism": 239,
      "▁interrupted": 240,
      "band": 241,
      "▁sul": 242,
      "▁them": 243,
      "▁ex": 244,
      "▁dishes": 245,
      "▁blades": 246,
      "anced": 247,
      "▁.!": 248,
      "forcement": 249,
      "▁coordinator": 250,
      "▁designated": 251,
      "kka": 252,
      "▁farm": 253,
      "▁interpret": 254,
      "▁rug": 255,
      "w": 256,
      "▁lip": 257,
      "▁fallen": 258,
      "▁idiot": 259,
      "ge": 260,
      "▁wondering": 261,
      "▁dedicated": 262,
      "rus": 263,
      "▁gas": 264,
      "▁fung": 265,
      "▁dough": 266,
      "▁lion": 267,
      "▁aim": 268,
      "▁taxes": 269,
      "▁chat": 270,
      "▁convey": 271,
      "▁debate": 272,
      "▁exclaimed": 273,
      "▁rabbit": 274,
      "▁bringing": 275,
      "▁examine": 276,
      "▁hasid": 277,
      "▁batteries": 278,
      "▁stroke": 279,
      "g.": 280,
      "ess": 281,
      "▁story": 282,
      "▁organ": 283,
      "sequently": 284,
      "form": 285,
      "cery": 286,
      "▁fa": 287,
      "▁temple": 288,
      "▁oozing": 289,
      "▁pewter": 290,
      "ise": 291,
      "ways": 292,
      "um": 293,
      "ax": 294,
      "▁into": 295,
      "ocks": 296,
      "▁wh": 297,
      "▁case": 298,
      "▁hundred": 299,
      "▁broken": 300,
      "▁phenom": 301,
      "-house": 302,
      "▁regularly": 303,
      "▁calend": 304,
      "giveness": 305,
      "vd": 306,
      "fish": 307,
      "▁observers": 308,
      "▁majority": 309,
      "ey": 310,
      "iologist": 311,
      "▁sow": 312,
      "▁legend": 313,
      "▁=": 314,
      "▁cosplay": 315,
      "▁accomplish": 316,
      "▁scenes": 317,
      "▁lear": 318,
      "▁persuading": 319,
      "▁foreign": 320,
      "▁coupled": 321,
      "urt": 322,
      "▁nerv": 323,
      "aws": 324,
      "▁intr": 325,
      "▁fumes": 326,
      "▁activ": 327,
      "pent": 328,
      "wh": 329,
      "tee": 330,
      "▁state": 331,
      "▁perhap": 332,
      "▁know": 333,
      "▁writing": 334,
      "▁tons": 335,
      "ately": 336,
      "▁flex": 337,
      "ihow": 338,
      "▁proc": 339,
      "▁transporting": 340,
      "yalty": 341,
      "▁listing": 342,
      "▁substances": 343,
      "estone": 344,
      "▁duckies": 345,
      "▁slid": 346,
      "▁rall": 347,
      "▁psychology": 348,
      "▁equi": 349,
      "▁ba": 350,
      "gin": 351,
      "▁encounters": 352,
      "▁achievements": 353,
      "▁drugs": 354,
      "▁elastic": 355,
      "uma": 356,
      "▁sh": 357,
      "▁worst": 358,
      "ih": 359,
      "▁buddies": 360,
      "▁estimates": 361,
      "▁cockati": 362,
      "▁arises": 363,
      "▁forget": 364,
      "acted": 365,
      "▁soccer": 366,
      "enti": 367,
      "▁muggle": 368,
      "▁municipalities": 369,
      "▁charging": 370,
      "▁chocol": 371,
      "xim": 372,
      "▁monasteries": 373,
      "▁halls": 374,
      ".5": 375,
      "formed": 376,
      "▁fifth": 377,
      "▁encoun": 378,
      "▁engineer": 379,
      "▁joke": 380,
      "ounts": 381,
      "▁first": 382,
      "▁farce": 383,
      "▁ladybug": 384,
      "▁receiver": 385,
      "▁commercial": 386,
      "sd": 387,
      "▁journals": 388,
      "▁kh": 389,
      "♥": 390,
      "▁estate": 391,
      "▁blows": 392,
      "▁accumulating": 393,
      "▁sav": 394,
      "▁iq": 395,
      "▁mechan": 396,
      "▁conve": 397,
      "▁vowed": 398,
      "▁responsibilities": 399,
      "▁insulation": 400,
      "▁professors": 401,
      "▁festival": 402,
      "enet": 403,
      "▁buyer": 404,
      "▁sleepy": 405,
      "'d": 406,
      "▁negligence": 407,
      "▁bathroom": 408,
      "▁camel": 409,
      "tition": 410,
      "atched": 411,
      "▁property": 412,
      "▁pockets": 413,
      "▁p&l": 414,
      "▁identi": 415,
      "▁clear": 416,
      "▁pledged": 417,
      "▁vow": 418,
      "▁instinct": 419,
      "▁openness": 420,
      "▁clauses": 421,
      "▁inning": 422,
      "▁clicked": 423,
      "aun": 424,
      "▁letters": 425,
      "▁institution": 426,
      "▁romances": 427,
      "worm": 428,
      "▁catast": 429,
      "rosp": 430,
      "zac": 431,
      "▁scratched": 432,
      "▁antiques": 433,
      "▁tre": 434,
      "▁all": 435,
      "▁modernity": 436,
      "▁nerve": 437,
      "▁ev": 438,
      "▁innov": 439,
      "▁memory": 440,
      "rands": 441,
      "▁renovation": 442,
      "▁role": 443,
      "pping": 444,
      "lo": 445,
      "▁beer": 446,
      "▁genres": 447,
      "▁january": 448,
      "▁cli": 449,
      "▁?????": 450,
      "▁talks": 451,
      "▁grumbles": 452,
      "▁t3i": 453,
      "▁response": 454,
      "▁tiles": 455,
      "port": 456,
      "▁detect": 457,
      "▁challenged": 458,
      "▁victorians": 459,
      "▁adjustment": 460,
      "lids": 461,
      "▁kills": 462,
      "oads": 463,
      "▁flowing": 464,
      "▁arrogance": 465,
      "▁forgotten": 466,
      "▁amazing": 467,
      "▁spoke": 468,
      "▁bible": 469,
      "▁am": 470,
      "▁observer": 471,
      "▁d700": 472,
      "▁equity": 473,
      "▁become": 474,
      "▁aged": 475,
      "▁believed": 476,
      "▁1991": 477,
      "▁interventions": 478,
      "▁unem": 479,
      "▁standing": 480,
      "ene": 481,
      "aved": 482,
      "▁airline": 483,
      "inist": 484,
      "▁affection": 485,
      "▁income": 486,
      "▁arrest": 487,
      "alt": 488,
      "▁soot": 489,
      "▁cred": 490,
      "▁alcoho": 491,
      "▁urging": 492,
      "▁subsidi": 493,
      "▁resembled": 494,
      "▁histories": 495,
      "fr": 496,
      "▁mish": 497,
      "ace": 498,
      "▁foc": 499,
      "▁entails": 500,
      "▁anger": 501,
      "▁foreigners": 502,
      "uel": 503,
      "▁wrec": 504,
      "▁washing": 505,
      "▁bul": 506,
      "▁propping": 507,
      "▁physician": 508,
      "▁surpr": 509,
      "ilter": 510,
      "▁rum": 511,
      "▁dere": 512,
      "ured": 513,
      "▁influ": 514,
      "▁grams": 515,
      "▁invented": 516,
      "▁stinging": 517,
      "▁evap": 518,
      "gatory": 519,
      "nding": 520,
      "▁align": 521,
      "inations": 522,
      "tax": 523,
      "▁debtors": 524,
      "▁federation": 525,
      "▁hass": 526,
      "▁lottery": 527,
      "▁lands": 528,
      "▁recording": 529,
      "▁sof": 530,
      "▁kinematics": 531,
      "▁gesture": 532,
      "ticoat": 533,
      "▁participation": 534,
      "▁sacrificed": 535,
      "▁bicycles": 536,
      "▁restrictions": 537,
      "▁mes": 538,
      "ops": 539,
      "▁airl": 540,
      "▁queries": 541,
      "▁;": 542,
      "ronic": 543,
      "▁reserved": 544,
      "▁bbq": 545,
      "▁hairdresser": 546,
      "▁sheet": 547,
      "uce": 548,
      "▁cowboy": 549,
      "▁byp": 550,
      "alization": 551,
      "▁compete": 552,
      "▁regimes": 553,
      "▁referring": 554,
      "▁buz": 555,
      "▁chapters": 556,
      "ο": 557,
      "ang": 558,
      "idge": 559,
      "▁possessed": 560,
      "at": 561,
      "ach": 562,
      "▁seas": 563,
      "▁flour": 564,
      "▁comp.sources.un": 565,
      "▁customizing": 566,
      "▁boards": 567,
      "▁rhinoceros": 568,
      "▁gasped": 569,
      "fuge": 570,
      "▁forum": 571,
      "▁apparently": 572,
      "▁arti": 573,
      "▁magn": 574,
      "mare": 575,
      "▁crepe": 576,
      "▁ribs": 577,
      "omed": 578,
      "▁access": 579,
      "▁wound": 580,
      "▁exaggerated": 581,
      "▁committ": 582,
      "▁tomato": 583,
      "▁sky": 584,
      "▁planting": 585,
      "▁destroy": 586,
      "▁criticized": 587,
      "▁harmonisation": 588,
      "en": 589,
      "▁patterns": 590,
      "uggle": 591,
      "▁educate": 592,
      "rol": 593,
      "▁n’t": 594,
      "▁del": 595,
      "tively": 596,
      "▁color": 597,
      "▁runner": 598,
      "table": 599,
      "ell": 600,
      "ature": 601,
      "▁lying": 602,
      "▁congregation": 603,
      "▁wizard": 604,
      "▁yrs": 605,
      "▁enter": 606,
      "otyp": 607,
      "▁booking": 608,
      "workers": 609,
      "▁delay": 610,
      "▁prisoners": 611,
      "▁california": 612,
      "ives": 613,
      "▁customers": 614,
      "▁suspect": 615,
      "▁tasted": 616,
      "ment": 617,
      "▁ways": 618,
      "▁pairs": 619,
      "▁meowing": 620,
      "au": 621,
      "▁compelling": 622,
      "▁hem": 623,
      "▁court": 624,
      "▁third": 625,
      "▁talent": 626,
      "▁taco": 627,
      "▁collects": 628,
      "▁peaceful": 629,
      "▁wear": 630,
      "50s": 631,
      "▁figure": 632,
      "▁chim": 633,
      "▁sweater": 634,
      "ender": 635,
      "ball": 636,
      "▁special": 637,
      "▁liabilities": 638,
      "cil": 639,
      "▁rejects": 640,
      "▁ringlets": 641,
      "▁refri": 642,
      "▁greatly": 643,
      "▁moves": 644,
      "▁birdie": 645,
      "▁discont": 646,
      "▁silic": 647,
      "▁winter": 648,
      "ial": 649,
      "▁b.": 650,
      "▁pas": 651,
      "ne": 652,
      "▁adam": 653,
      "▁wonderful": 654,
      "▁matt": 655,
      "▁agencies": 656,
      "▁competitiveness": 657,
      "▁doll": 658,
      "▁some": 659,
      "▁licenses": 660,
      "▁evacuate": 661,
      "▁takes": 662,
      "▁nook": 663,
      "anged": 664,
      "▁reportedly": 665,
      "▁miam": 666,
      "▁cluster": 667,
      "ualize": 668,
      "ind": 669,
      "ocks.pdf": 670,
      "▁phen": 671,
      "▁fasc": 672,
      "▁60's": 673,
      "▁transit": 674,
      "▁deteriorated": 675,
      "▁buzzer": 676,
      "▁leash": 677,
      "stit": 678,
      "▁whereas": 679,
      "▁draw": 680,
      "▁scratching": 681,
      "▁pony": 682,
      "▁regime": 683,
      "▁rush": 684,
      "▁dwibbling": 685,
      "uties": 686,
      "▁bounced": 687,
      "▁blame": 688,
      "▁tumbling": 689,
      "aria": 690,
      "▁heaven": 691,
      "▁islands": 692,
      "▁weakening": 693,
      "eralize": 694,
      "▁ans": 695,
      "▁jumped": 696,
      "▁mesh": 697,
      "▁vegetation": 698,
      "orter": 699,
      "rality": 700,
      "▁crest": 701,
      "▁kitt": 702,
      "▁update": 703,
      "▁freezing": 704,
      "hension": 705,
      "▁appreciate": 706,
      "▁proponents": 707,
      "▁cookies": 708,
      "power": 709,
      "▁nephew": 710,
      "▁adult": 711,
      "▁asser": 712,
      "▁germ": 713,
      "▁allig": 714,
      "▁europe": 715,
      "▁stampede": 716,
      "▁arrival": 717,
      "▁ome": 718,
      "▁plague": 719,
      "▁facility": 720,
      "▁mist": 721,
      "▁winner": 722,
      "▁roared": 723,
      "▁banana": 724,
      "▁data": 725,
      "ere": 726,
      "▁legs": 727,
      "▁clam": 728,
      "▁changes": 729,
      "▁prev": 730,
      "▁doc": 731,
      "▁professionals": 732,
      "epad": 733,
      "▁personal": 734,
      "▁threatened": 735,
      "▁its": 736,
      "▁resched": 737,
      "▁objec": 738,
      "▁bites": 739,
      "▁race": 740,
      "eak": 741,
      "▁dictionary": 742,
      "▁climber": 743,
      "ourage": 744,
      "tt": 745,
      "▁interpretation": 746,
      "ries": 747,
      "▁exhaus": 748,
      "-6": 749,
      "▁coff": 750,
      "▁muffs": 751,
      "ressing": 752,
      "▁80's": 753,
      "▁nature": 754,
      "▁could": 755,
      "sus": 756,
      "▁delicious": 757,
      "▁virt": 758,
      "▁tol": 759,
      "▁tem": 760,
      "▁outside": 761,
      "co": 762,
      "▁five": 763,
      "▁session": 764,
      "▁baseball": 765,
      "▁structures": 766,
      "▁meter": 767,
      "▁cuis": 768,
      "▁wives": 769,
      "come": 770,
      "▁military": 771,
      "▁partnerships": 772,
      "lib": 773,
      "▁combination": 774,
      "▁dam": 775,
      "-president": 776,
      "nik": 777,
      "▁increasing": 778,
      "ε": 779,
      "▁broc": 780,
      "▁emotions": 781,
      "▁rolling": 782,
      "tc": 783,
      "▁capture": 784,
      "▁build": 785,
      "▁repay": 786,
      "▁posted": 787,
      "▁ori": 788,
      "dd": 789,
      "▁beliefs": 790,
      "▁bpd": 791,
      "▁sounding": 792,
      "▁aug": 793,
      "▁bes": 794,
      "of": 795,
      "▁api": 796,
      "cle": 797,
      "▁poli": 798,
      "▁dancing": 799,
      "▁modify": 800,
      "▁envis": 801,
      "▁swear": 802,
      "▁art": 803,
      "ario": 804,
      "▁italy": 805,
      "▁vib": 806,
      "▁notions": 807,
      "arch": 808,
      "ime": 809,
      "▁proposals": 810,
      "▁ink": 811,
      "ards": 812,
      "xce": 813,
      "▁liberty": 814,
      "ellow": 815,
      "▁shatter": 816,
      "yer": 817,
      "essness": 818,
      "▁hiking": 819,
      "ril": 820,
      "▁organis": 821,
      "▁handle": 822,
      "gn": 823,
      "▁ripped": 824,
      "▁hurting": 825,
      "▁rounds": 826,
      "▁solved": 827,
      "▁bouts": 828,
      "▁seamst": 829,
      "▁showed": 830,
      "ctor": 831,
      "▁comfortable": 832,
      "▁astronauts": 833,
      "▁defining": 834,
      "eman": 835,
      "▁otherwise": 836,
      "▁ps": 837,
      "▁badge": 838,
      "▁swede": 839,
      "▁gel": 840,
      "▁sash": 841,
      "okes": 842,
      "▁addition": 843,
      "sing": 844,
      "▁positions": 845,
      "▁penc": 846,
      "▁interjection": 847,
      "▁tipt": 848,
      "▁permission": 849,
      "▁methodology": 850,
      "▁interested": 851,
      "▁isl": 852,
      "ifted": 853,
      "▁obstacle": 854,
      "ionary": 855,
      "▁glowstick": 856,
      "ishing": 857,
      "▁fet": 858,
      "▁deter": 859,
      "▁needed": 860,
      "▁appellants": 861,
      "▁determine": 862,
      "▁cro": 863,
      "▁ladder": 864,
      "bee": 865,
      "ay": 866,
      "▁uncover": 867,
      "▁breaking": 868,
      "ists": 869,
      "▁sym": 870,
      "▁poems": 871,
      "▁cact": 872,
      "ough": 873,
      "▁incl": 874,
      "▁assignment": 875,
      "▁duty": 876,
      "▁gym": 877,
      "entally": 878,
      "▁supp": 879,
      "▁fuels": 880,
      "▁bord": 881,
      "▁raffle": 882,
      "▁charlie": 883,
      "▁shrimp": 884,
      "▁invitation": 885,
      "▁pyram": 886,
      "dam": 887,
      "▁reve": 888,
      "▁willingness": 889,
      "▁pirate": 890,
      "▁invested": 891,
      "ver": 892,
      "▁squirrels": 893,
      "▁stad": 894,
      "▁snail": 895,
      "▁scholarship": 896,
      "▁---=": 897,
      "ayed": 898,
      "▁dined": 899,
      "▁chimed": 900,
      "▁generates": 901,
      "▁powder": 902,
      "gue": 903,
      "▁surge": 904,
      "▁catches": 905,
      "dge": 906,
      "▁totes": 907,
      "▁supper": 908,
      "▁individ": 909,
      "▁separation": 910,
      "▁analy": 911,
      "istency": 912,
      "enerate": 913,
      "iam": 914,
      "▁layer": 915,
      "wik": 916,
      "▁creating": 917,
      "▁alarms": 918,
      "ources": 919,
      "▁miners": 920,
      "▁identifying": 921,
      "▁commands": 922,
      "▁raisin": 923,
      "owled": 924,
      "▁gall": 925,
      "hee": 926,
      "▁label": 927,
      "uit": 928,
      "▁fash": 929,
      "dles": 930,
      "▁fuel": 931,
      "▁invoice": 932,
      "▁cia": 933,
      "ive": 934,
      "▁clinic": 935,
      "▁stopover": 936,
      "▁sadness": 937,
      "▁inclined": 938,
      "▁spikes": 939,
      "inctions": 940,
      "lem": 941,
      "▁belongs": 942,
      "urity": 943,
      "▁twenty": 944,
      "etown": 945,
      "▁extremists": 946,
      "▁tech": 947,
      "alked": 948,
      "gers": 949,
      "iciary": 950,
      "▁t+re": 951,
      "▁emer": 952,
      "▁lower": 953,
      "being": 954,
      "oured": 955,
      "▁crack": 956,
      "▁absorbing": 957,
      "▁concerns": 958,
      "▁ideation": 959,
      "bil": 960,
      "▁past": 961,
      "▁delic": 962,
      "▁fact": 963,
      "▁bunk": 964,
      "▁elect": 965,
      "▁robe": 966,
      "▁inviting": 967,
      "▁alley": 968,
      "▁dollie": 969,
      "▁bachel": 970,
      "▁flicke": 971,
      "▁tutorial": 972,
      "▁comedy": 973,
      "▁respects": 974,
      "▁fre": 975,
      "▁lease": 976,
      "▁earthworms": 977,
      "▁appropriate": 978,
      "▁metal": 979,
      "▁celebrities": 980,
      "▁lever": 981,
      "▁cave": 982,
      "▁nonstop": 983,
      "▁mid": 984,
      "▁fathers": 985,
      "ayal": 986,
      "onishment": 987,
      "▁probability": 988,
      "▁moo": 989,
      "eason": 990,
      "▁drugstore": 991,
      "unks": 992,
      "▁prison": 993,
      "ory": 994,
      "erates": 995,
      "▁afford": 996,
      "gmented": 997,
      "▁chequ": 998,
      "▁disciples": 999,
      "▁equival": 1000,
      "girl": 1001,
      "▁partnership": 1002,
      "eor": 1003,
      "pop": 1004,
      "▁subd": 1005,
      "ys": 1006,
      "▁mess": 1007,
      "▁soliloqu": 1008,
      "comm": 1009,
      "▁coll": 1010,
      "▁bitters": 1011,
      "usted": 1012,
      "▁shame": 1013,
      "▁abomination": 1014,
      "▁ceiling": 1015,
      "▁asyl": 1016,
      "▁reactions": 1017,
      "▁beyond": 1018,
      "▁parake": 1019,
      "▁sql": 1020,
      "▁courses": 1021,
      "ez": 1022,
      "▁raising": 1023,
      "cepted": 1024,
      "keness": 1025,
      "▁cri": 1026,
      "▁talk": 1027,
      "▁reapp": 1028,
      "▁tac": 1029,
      "▁unions": 1030,
      "operation": 1031,
      "ient": 1032,
      "▁fusions": 1033,
      "▁command": 1034,
      "▁wrong": 1035,
      "aff": 1036,
      "▁discover": 1037,
      "▁match": 1038,
      "#693": 1039,
      "▁say": 1040,
      "▁holders": 1041,
      "astic": 1042,
      "▁unfortunately": 1043,
      "▁warranty": 1044,
      "▁securities": 1045,
      "▁invest": 1046,
      "kness": 1047,
      "dre": 1048,
      "▁dinos": 1049,
      "ʊ": 1050,
      "▁spots": 1051,
      "▁banners": 1052,
      "▁denying": 1053,
      "res": 1054,
      "▁confl": 1055,
      "▁airport": 1056,
      "▁comments": 1057,
      "arism": 1058,
      "▁disadvant": 1059,
      "ili": 1060,
      "▁mystery": 1061,
      "▁magicians": 1062,
      "▁assump": 1063,
      ".org": 1064,
      "▁questioning": 1065,
      "ond": 1066,
      "▁congressman": 1067,
      "▁inches": 1068,
      "▁glance": 1069,
      "▁activities": 1070,
      "▁senti": 1071,
      "enties": 1072,
      "▁streak": 1073,
      "▁flicked": 1074,
      "▁highest": 1075,
      "▁monkey": 1076,
      "▁vegetables": 1077,
      "▁encouraging": 1078,
      "▁jury": 1079,
      "▁dpr": 1080,
      "▁hybri": 1081,
      "▁ads": 1082,
      "raid": 1083,
      "▁roar": 1084,
      "▁everything": 1085,
      "▁puzzle": 1086,
      "▁oppose": 1087,
      "▁arsen": 1088,
      "iz": 1089,
      "bra": 1090,
      "▁pond": 1091,
      "▁nons": 1092,
      "tly": 1093,
      "▁anticip": 1094,
      "but": 1095,
      "▁probably": 1096,
      "▁sa": 1097,
      "▁daring": 1098,
      "▁repa": 1099,
      "▁subsid": 1100,
      "▁ken": 1101,
      "▁a": 1102,
      "rehension": 1103,
      "▁value": 1104,
      "kle": 1105,
      "ide": 1106,
      "▁mids": 1107,
      "▁demons": 1108,
      "▁drool": 1109,
      "▁just": 1110,
      "▁flats": 1111,
      "ruc": 1112,
      "▁hose": 1113,
      "angled": 1114,
      "▁fol": 1115,
      "▁rather": 1116,
      "▁&": 1117,
      "▁block": 1118,
      "iversary": 1119,
      "▁must": 1120,
      "▁pg": 1121,
      "▁doughnuts": 1122,
      "▁schedules": 1123,
      "ation": 1124,
      "▁persons": 1125,
      "▁chatting": 1126,
      "▁rope": 1127,
      "▁empan": 1128,
      "▁oh": 1129,
      "▁_______": 1130,
      "▁involvement": 1131,
      "orum": 1132,
      "▁balzac": 1133,
      "ux": 1134,
      "iration": 1135,
      "▁controls": 1136,
      "▁entities": 1137,
      "▁display": 1138,
      "▁appalled": 1139,
      "▁tiss": 1140,
      "bster": 1141,
      "▁christi": 1142,
      "teries": 1143,
      "ouses": 1144,
      "▁toes": 1145,
      "▁nerves": 1146,
      "▁prevail": 1147,
      "pple": 1148,
      "▁capsules": 1149,
      "▁ever": 1150,
      "▁daily": 1151,
      "▁behavior": 1152,
      "▁collection": 1153,
      "icking": 1154,
      "▁jeans": 1155,
      "▁scrutiny": 1156,
      "▁preach": 1157,
      "▁bus": 1158,
      "▁constructed": 1159,
      "▁util": 1160,
      "▁detective": 1161,
      "▁q": 1162,
      "orted": 1163,
      "volutionary": 1164,
      "▁orig": 1165,
      "eless": 1166,
      "▁provide": 1167,
      "▁def": 1168,
      "▁flicker": 1169,
      "▁compatibility": 1170,
      "▁enclosure": 1171,
      "▁stations": 1172,
      "▁orchestrated": 1173,
      "▁cites": 1174,
      "▁obsession": 1175,
      ".com": 1176,
      "ea": 1177,
      "keep": 1178,
      "▁sco": 1179,
      "▁cloth": 1180,
      "umption": 1181,
      "▁grandpa": 1182,
      "-class": 1183,
      "▁hair": 1184,
      "▁glow": 1185,
      "▁civilization": 1186,
      "▁colleges": 1187,
      "▁isolated": 1188,
      "▁rhinoc": 1189,
      "▁excellent": 1190,
      "▁puss": 1191,
      "▁forb": 1192,
      "▁poin": 1193,
      "bs": 1194,
      "▁layers": 1195,
      "▁documents": 1196,
      "▁procrast": 1197,
      "▁discretion": 1198,
      "▁gras": 1199,
      "▁okay": 1200,
      "▁decl": 1201,
      "▁video": 1202,
      "▁worlds": 1203,
      "arized": 1204,
      "▁gallop": 1205,
      "▁courtyard": 1206,
      "▁uniformity": 1207,
      "adrons": 1208,
      "▁recurring": 1209,
      "▁refugees": 1210,
      "▁pear": 1211,
      "▁coined": 1212,
      "▁chameleon": 1213,
      "▁hut": 1214,
      "▁shells": 1215,
      "▁respected": 1216,
      "ults": 1217,
      "▁dock": 1218,
      "▁craft": 1219,
      "▁debr": 1220,
      "▁seller": 1221,
      "▁investigations": 1222,
      "▁railroad": 1223,
      "▁licen": 1224,
      "▁ethics": 1225,
      "▁resear": 1226,
      "▁tresp": 1227,
      "▁?": 1228,
      "▁nude": 1229,
      "▁profit": 1230,
      "▁down": 1231,
      "uro": 1232,
      "▁somewh": 1233,
      "▁move": 1234,
      "▁picnic": 1235,
      "▁hospitals": 1236,
      "has": 1237,
      "▁nightlife": 1238,
      "▁beetles": 1239,
      "▁denti": 1240,
      "▁transmitter": 1241,
      "▁equation": 1242,
      "▁notion": 1243,
      "▁bookst": 1244,
      "▁steamer": 1245,
      "▁strong": 1246,
      "▁emptiness": 1247,
      "▁connected": 1248,
      "▁tails": 1249,
      "▁entering": 1250,
      "awing": 1251,
      "▁homeopath": 1252,
      "▁dear": 1253,
      "▁abundance": 1254,
      "▁18": 1255,
      "▁once": 1256,
      "▁asle": 1257,
      "▁dare": 1258,
      "▁finds": 1259,
      "sent": 1260,
      "▁provoke": 1261,
      "▁subform": 1262,
      "▁evaluate": 1263,
      "▁woud": 1264,
      "edness": 1265,
      "ybod": 1266,
      "oala": 1267,
      "als": 1268,
      "▁ten": 1269,
      "▁snow": 1270,
      "▁billions": 1271,
      "eli": 1272,
      "▁sperm": 1273,
      "ctuation": 1274,
      "▁improv": 1275,
      "▁realized": 1276,
      "▁fat": 1277,
      "▁glimpse": 1278,
      "ter": 1279,
      "aries": 1280,
      "▁practices": 1281,
      "▁contrary": 1282,
      "▁beams": 1283,
      "▁appreciation": 1284,
      "pin": 1285,
      "▁experiencing": 1286,
      "▁feedback": 1287,
      "▁sand": 1288,
      "istence": 1289,
      "▁sk": 1290,
      "▁17": 1291,
      "▁guacamole": 1292,
      "▁basically": 1293,
      "▁exh": 1294,
      "▁31": 1295,
      "▁ecosystem": 1296,
      "rong": 1297,
      "▁wil": 1298,
      "▁campaign": 1299,
      "▁kil": 1300,
      "ilities": 1301,
      "▁sweat": 1302,
      "▁diction": 1303,
      "▁coincidence": 1304,
      "in'": 1305,
      "▁marty": 1306,
      "▁comed": 1307,
      "▁12": 1308,
      "▁quar": 1309,
      "▁ren": 1310,
      "▁harmonica": 1311,
      "eled": 1312,
      "▁populated": 1313,
      "▁sunlight": 1314,
      "▁drawn": 1315,
      "▁answers": 1316,
      "▁rud": 1317,
      "▁veteran": 1318,
      "alizations": 1319,
      "ceed": 1320,
      "▁tick": 1321,
      "▁stirrup": 1322,
      "++": 1323,
      "00": 1324,
      "▁regist": 1325,
      "▁scholars": 1326,
      "▁practice": 1327,
      "▁albeit": 1328,
      "▁sectors": 1329,
      "formity": 1330,
      "▁waving": 1331,
      "▁penny": 1332,
      "ribution": 1333,
      "▁assaulted": 1334,
      "▁loc": 1335,
      "▁bin": 1336,
      "▁heav": 1337,
      "▁city": 1338,
      "gy": 1339,
      "▁medical": 1340,
      "inea": 1341,
      "driver": 1342,
      "uling": 1343,
      "▁disrupt": 1344,
      "itled": 1345,
      "▁curved": 1346,
      "umps": 1347,
      "▁accustomed": 1348,
      "▁quickly": 1349,
      "ukes": 1350,
      "▁glue": 1351,
      "▁doctrine": 1352,
      "▁paired": 1353,
      "struc": 1354,
      "▁sor": 1355,
      "ange": 1356,
      "fo": 1357,
      "▁firms": 1358,
      "▁wires": 1359,
      "▁exile": 1360,
      "▁diagn": 1361,
      "▁vol": 1362,
      "▁bears": 1363,
      "tigr": 1364,
      "▁what": 1365,
      "▁ignorance": 1366,
      "▁prisoner": 1367,
      "▁'m": 1368,
      "▁aircraft": 1369,
      "▁har": 1370,
      "▁farrier": 1371,
      "▁divers": 1372,
      "▁ancest": 1373,
      "▁spacecraft": 1374,
      "▁supplier": 1375,
      "▁accumulated": 1376,
      "▁beck": 1377,
      "▁kiw": 1378,
      "▁athe": 1379,
      "tirely": 1380,
      "bees": 1381,
      "▁constr": 1382,
      "▁watering": 1383,
      "------->": 1384,
      "drops": 1385,
      "▁leader": 1386,
      "0": 1387,
      "▁salads": 1388,
      "▁broadcast": 1389,
      "▁ip": 1390,
      "jections": 1391,
      "▁dar": 1392,
      "agg": 1393,
      "hind": 1394,
      "educ": 1395,
      "-mem": 1396,
      "▁cider": 1397,
      "▁dreamed": 1398,
      "▁medal": 1399,
      "▁imprison": 1400,
      "rits": 1401,
      "▁esc": 1402,
      "alet": 1403,
      "ument": 1404,
      "ping": 1405,
      "▁sar": 1406,
      "▁gardens": 1407,
      "81-1.doc": 1408,
      "▁constituencies": 1409,
      "▁completion": 1410,
      "▁cleaner": 1411,
      "▁aspir": 1412,
      "▁counties": 1413,
      "▁struc": 1414,
      "pa": 1415,
      "▁h": 1416,
      "igorate": 1417,
      "▁entrance": 1418,
      "iel": 1419,
      "▁retiring": 1420,
      "▁co-founder": 1421,
      "▁thawed": 1422,
      "isms": 1423,
      "▁greatness": 1424,
      "▁lost": 1425,
      "wi": 1426,
      "▁camping": 1427,
      "ography": 1428,
      "▁diaper": 1429,
      "▁keeping": 1430,
      "▁required": 1431,
      "pre": 1432,
      "▁unto": 1433,
      "att": 1434,
      "▁’’": 1435,
      "▁sleeve": 1436,
      "▁failure": 1437,
      "▁circus": 1438,
      "▁risking": 1439,
      "▁entrep": 1440,
      "▁grand": 1441,
      "▁picks": 1442,
      "▁bakes": 1443,
      "ystem": 1444,
      "▁advises": 1445,
      "▁yellow": 1446,
      "▁balloons": 1447,
      "▁kings": 1448,
      "▁inter": 1449,
      "ye": 1450,
      "▁spea": 1451,
      "▁wit": 1452,
      "▁desk": 1453,
      "▁responses": 1454,
      "load": 1455,
      "▁salons": 1456,
      "ression": 1457,
      "▁characteristics": 1458,
      "ade": 1459,
      "8": 1460,
      "▁rfp": 1461,
      "▁tens": 1462,
      "▁crayon": 1463,
      "▁manufacturing": 1464,
      "▁dissolved": 1465,
      "▁relation": 1466,
      "▁totally": 1467,
      "ych": 1468,
      "▁feeds": 1469,
      "▁thanx": 1470,
      "▁mails": 1471,
      "▁altogether": 1472,
      "▁prosp": 1473,
      "▁nav": 1474,
      "▁py": 1475,
      "▁final": 1476,
      "▁199": 1477,
      "▁fall": 1478,
      "▁negoti": 1479,
      "▁trained": 1480,
      "▁t": 1481,
      ".pd": 1482,
      "▁allocated": 1483,
      "▁traced": 1484,
      "▁labyrinth": 1485,
      "▁family": 1486,
      "▁religious": 1487,
      "▁enovate": 1488,
      "▁successor": 1489,
      "osen": 1490,
      "▁went": 1491,
      "apers": 1492,
      "▁mous": 1493,
      "▁umbrella": 1494,
      "▁corruption": 1495,
      "▁entree": 1496,
      "2": 1497,
      "▁methods": 1498,
      "▁pyr": 1499,
      "ully": 1500,
      "”": 1501,
      "▁organizations": 1502,
      "▁program": 1503,
      "▁treasure": 1504,
      "▁although": 1505,
      "not": 1506,
      "mem": 1507,
      "▁amendments": 1508,
      "▁blowing": 1509,
      "▁cer": 1510,
      "▁succeed": 1511,
      "▁accommod": 1512,
      "▁dies": 1513,
      "▁questionnaire": 1514,
      "▁hostages": 1515,
      "attered": 1516,
      "▁lord": 1517,
      "▁santorum": 1518,
      "7h": 1519,
      "▁tickets": 1520,
      "esome": 1521,
      "▁warmth": 1522,
      "▁semantics": 1523,
      "tally": 1524,
      "ises": 1525,
      "▁substit": 1526,
      "▁certainty": 1527,
      "vail": 1528,
      "lent": 1529,
      "▁brooms": 1530,
      "▁assured": 1531,
      "▁stub": 1532,
      "▁pdt": 1533,
      "peare": 1534,
      "▁itself": 1535,
      "▁coc": 1536,
      "fi": 1537,
      "sid": 1538,
      "▁major": 1539,
      "iri": 1540,
      "vo": 1541,
      "▁slightly": 1542,
      "▁wonders": 1543,
      "▁civ": 1544,
      "▁secret": 1545,
      "▁marble": 1546,
      "▁attendance": 1547,
      "elped": 1548,
      "▁newark": 1549,
      "alks": 1550,
      "▁to": 1551,
      "▁cric": 1552,
      "▁ferries": 1553,
      "▁puts": 1554,
      "▁weak": 1555,
      "▁gaze": 1556,
      "▁rib": 1557,
      "▁tic": 1558,
      "essions": 1559,
      "▁jet": 1560,
      "▁observe": 1561,
      "▁betta": 1562,
      "▁play+ground": 1563,
      "▁itsy": 1564,
      "▁real": 1565,
      "▁gdp": 1566,
      "illed": 1567,
      "▁vomit": 1568,
      "▁weekday": 1569,
      "igg": 1570,
      "rited": 1571,
      "▁progression": 1572,
      "▁scri": 1573,
      "▁mashing": 1574,
      "▁east": 1575,
      "▁creatures": 1576,
      "▁shore": 1577,
      "▁prosperity": 1578,
      "usts": 1579,
      "▁pseudonym": 1580,
      "▁il": 1581,
      "▁remed": 1582,
      "struction": 1583,
      "▁exploding": 1584,
      "▁jelly": 1585,
      "▁cheese": 1586,
      "▁independence": 1587,
      "▁ducked": 1588,
      "▁dominance": 1589,
      "▁bean": 1590,
      "▁thy": 1591,
      "▁reduced": 1592,
      "▁tower": 1593,
      "▁estimated": 1594,
      "▁realists": 1595,
      "▁cuffs": 1596,
      "▁killings": 1597,
      "eed": 1598,
      "pathy": 1599,
      "▁twirl": 1600,
      "▁ranges": 1601,
      "▁expense": 1602,
      "▁knee": 1603,
      "dled": 1604,
      "▁can": 1605,
      "reach": 1606,
      "▁qualify": 1607,
      "▁childhood": 1608,
      "amic": 1609,
      "ensity": 1610,
      "▁doing": 1611,
      "▁warning": 1612,
      "▁voters": 1613,
      "▁determ": 1614,
      "▁symphony": 1615,
      "▁asc": 1616,
      "▁strain": 1617,
      "▁neigh": 1618,
      "▁conservatives": 1619,
      "▁cafeteria": 1620,
      "▁saucepan": 1621,
      "ours": 1622,
      "▁soybean": 1623,
      "▁lisa_": 1624,
      "bre": 1625,
      "▁fullness": 1626,
      "▁popped": 1627,
      "egr": 1628,
      "unction": 1629,
      "▁alt.animals.f": 1630,
      "▁ze": 1631,
      "▁bowls": 1632,
      "▁recorder": 1633,
      "▁kangaroo": 1634,
      "▁pie": 1635,
      "▁textbook": 1636,
      "ild": 1637,
      "▁treat": 1638,
      "▁thres": 1639,
      "▁language": 1640,
      "▁football": 1641,
      "▁priv": 1642,
      "▁despite": 1643,
      "??": 1644,
      "apanese": 1645,
      "▁183": 1646,
      "▁died": 1647,
      "▁celebrations": 1648,
      "▁dealer": 1649,
      "▁exploring": 1650,
      "▁---": 1651,
      "▁winds": 1652,
      "ean": 1653,
      "▁chand": 1654,
      "text": 1655,
      "▁oil": 1656,
      "▁spilling": 1657,
      "▁contam": 1658,
      "▁socialist": 1659,
      "▁tarmac": 1660,
      "ressive": 1661,
      "▁scissors": 1662,
      "▁three": 1663,
      "▁attractions": 1664,
      "▁recruiting": 1665,
      "▁faces": 1666,
      "owl": 1667,
      "▁shirts": 1668,
      "▁poverty": 1669,
      "▁belonged": 1670,
      "▁islam": 1671,
      "▁pray": 1672,
      "▁shov": 1673,
      "[": 1674,
      "▁axis": 1675,
      "▁ship": 1676,
      "▁cabin": 1677,
      "▁announcing": 1678,
      "▁rights": 1679,
      "▁hometown": 1680,
      "moil": 1681,
      "▁wal": 1682,
      "▁rider": 1683,
      "▁homosexuality": 1684,
      "bq": 1685,
      "yro": 1686,
      "▁danger": 1687,
      "▁monopoly": 1688,
      "▁suggests": 1689,
      "▁editor": 1690,
      "▁sun": 1691,
      "▁imperialism": 1692,
      "<": 1693,
      "velled": 1694,
      "▁apprentice": 1695,
      "▁argues": 1696,
      "artiality": 1697,
      "as": 1698,
      "▁horn": 1699,
      "ject": 1700,
      "▁s’": 1701,
      "▁concluded": 1702,
      "▁landed": 1703,
      "▁horror": 1704,
      "▁listings": 1705,
      "▁fig": 1706,
      "▁divor": 1707,
      "▁alco": 1708,
      "mented": 1709,
      "0s": 1710,
      "▁chas": 1711,
      "▁mind": 1712,
      "ease": 1713,
      "▁nutrition": 1714,
      "&d": 1715,
      "▁codependency": 1716,
      ".l": 1717,
      "▁proceeded": 1718,
      "-up": 1719,
      "▁yesterday": 1720,
      "▁recognized": 1721,
      "▁mr.": 1722,
      "▁murder": 1723,
      "anza": 1724,
      "▁departure": 1725,
      "▁licensor": 1726,
      "by": 1727,
      "rous": 1728,
      "▁notebook": 1729,
      "▁reduce": 1730,
      "tiqu": 1731,
      "▁posts": 1732,
      "▁tex": 1733,
      "eats": 1734,
      "▁uma": 1735,
      "cod": 1736,
      "itting": 1737,
      "▁perio": 1738,
      "▁dashed": 1739,
      "▁oakland": 1740,
      "ray": 1741,
      "▁sme": 1742,
      "▁partner": 1743,
      "▁fisheries": 1744,
      "▁exaggeration": 1745,
      "▁people": 1746,
      "▁cleaning": 1747,
      "▁confir": 1748,
      "atus": 1749,
      "ticip": 1750,
      "▁perfectly": 1751,
      "▁wether": 1752,
      "▁jum": 1753,
      "▁amm": 1754,
      "ooks": 1755,
      "▁hospital": 1756,
      "▁cere": 1757,
      "▁pat": 1758,
      "▁respon": 1759,
      "tically": 1760,
      "▁happened": 1761,
      "▁patter": 1762,
      "▁series": 1763,
      "▁sewed": 1764,
      "▁pretext": 1765,
      "▁elu": 1766,
      "▁remark": 1767,
      "▁robo": 1768,
      "▁samples": 1769,
      "▁tummy": 1770,
      "▁sunglasses": 1771,
      "osis": 1772,
      "▁spe": 1773,
      "▁buffet": 1774,
      "eres": 1775,
      "anim": 1776,
      "▁priority": 1777,
      "▁dangling": 1778,
      "▁blood": 1779,
      "▁smoke": 1780,
      "▁villages": 1781,
      "▁horsemen": 1782,
      "▁introduce": 1783,
      "unh": 1784,
      "▁ourselves": 1785,
      "▁farms": 1786,
      "▁swa": 1787,
      "▁cult": 1788,
      "▁economics": 1789,
      "▁roman": 1790,
      "▁fail": 1791,
      "▁shots": 1792,
      "▁sophie": 1793,
      "▁pigs": 1794,
      "▁financing": 1795,
      "▁concer": 1796,
      "▁harness": 1797,
      "▁cruelty": 1798,
      "▁thr": 1799,
      "▁relationships": 1800,
      "▁hard": 1801,
      "▁seafood": 1802,
      "▁carnival": 1803,
      "▁battles": 1804,
      "liferation": 1805,
      "▁squealer": 1806,
      "dict": 1807,
      "▁restriction": 1808,
      "▁proof": 1809,
      "▁thirty": 1810,
      "bows": 1811,
      "nch": 1812,
      "▁landing": 1813,
      "▁represents": 1814,
      "▁near": 1815,
      "▁captured": 1816,
      "▁abund": 1817,
      "▁mutants": 1818,
      "▁mr": 1819,
      "boat": 1820,
      "▁ol": 1821,
      "timate": 1822,
      "▁preference": 1823,
      "▁dash": 1824,
      "▁tav": 1825,
      "▁diplomacy": 1826,
      "▁shopping": 1827,
      "▁assassinated": 1828,
      "ano": 1829,
      "▁waffle": 1830,
      "ocked": 1831,
      "▁70's": 1832,
      "▁forth": 1833,
      "▁current": 1834,
      "chie": 1835,
      "yg": 1836,
      "ibb": 1837,
      "▁groups": 1838,
      "▁categ": 1839,
      "▁buildings": 1840,
      "▁governance": 1841,
      "▁quinn": 1842,
      ".m": 1843,
      "▁civili": 1844,
      "▁zinc": 1845,
      "▁inv": 1846,
      "▁ask": 1847,
      "pses": 1848,
      "▁mitchell": 1849,
      "▁rig": 1850,
      "pendent": 1851,
      "▁immensity": 1852,
      "▁eta": 1853,
      "▁glaze": 1854,
      "ork": 1855,
      "ilight": 1856,
      "▁dan": 1857,
      "truck": 1858,
      "plan": 1859,
      "▁spore": 1860,
      "▁vanish": 1861,
      "▁originally": 1862,
      "▁carvings": 1863,
      "▁fount": 1864,
      "▁disturb": 1865,
      "▁delta": 1866,
      "ot": 1867,
      "laim": 1868,
      "▁aud": 1869,
      "▁tamed": 1870,
      "▁hay": 1871,
      "▁ethnicity": 1872,
      "▁server": 1873,
      "▁objective": 1874,
      "ipping": 1875,
      "▁nutrients": 1876,
      "▁accessing": 1877,
      "▁sit": 1878,
      "▁magazine": 1879,
      "▁occur": 1880,
      "▁claims": 1881,
      "▁cliff": 1882,
      "▁management": 1883,
      "yst": 1884,
      ":0": 1885,
      "▁lego": 1886,
      "▁utilities": 1887,
      "▁bent": 1888,
      "▁at": 1889,
      "▁endeavor": 1890,
      "▁identified": 1891,
      "▁necessarily": 1892,
      "▁signed": 1893,
      "▁metascience": 1894,
      "▁neighbours": 1895,
      "erned": 1896,
      "▁greet": 1897,
      "iments": 1898,
      "abit": 1899,
      "▁spa": 1900,
      "rof": 1901,
      "▁buys": 1902,
      "▁rabb": 1903,
      "ther": 1904,
      "izing": 1905,
      "▁click": 1906,
      "imore": 1907,
      "par": 1908,
      "▁core": 1909,
      "▁frequ": 1910,
      "▁mba": 1911,
      "▁capit": 1912,
      "▁temples": 1913,
      "▁cutted": 1914,
      "▁dict": 1915,
      "▁acts": 1916,
      "▁equip": 1917,
      "weight": 1918,
      "nis": 1919,
      "▁prep": 1920,
      "▁outlets": 1921,
      "▁esteem": 1922,
      "asc": 1923,
      "▁detroit": 1924,
      "▁dip": 1925,
      "yone": 1926,
      "▁(": 1927,
      "▁univer": 1928,
      "▁pige": 1929,
      "▁hills": 1930,
      "▁half": 1931,
      "▁database": 1932,
      "▁few": 1933,
      "lications": 1934,
      "ancers": 1935,
      "enny": 1936,
      "▁carve": 1937,
      "aland": 1938,
      "▁martyrs": 1939,
      "▁frames": 1940,
      "▁failures": 1941,
      "▁tuned": 1942,
      "▁tutor": 1943,
      "▁anybody": 1944,
      "▁tags": 1945,
      "op": 1946,
      "erman": 1947,
      "▁appoint": 1948,
      "elag": 1949,
      "dbit": 1950,
      "▁horse": 1951,
      "▁mans": 1952,
      "▁commented": 1953,
      "▁presence": 1954,
      "▁v": 1955,
      "▁upside": 1956,
      "????????????????": 1957,
      "▁visits": 1958,
      "inu": 1959,
      "▁formed": 1960,
      "▁mutation": 1961,
      "▁citing": 1962,
      "lection": 1963,
      "▁foam": 1964,
      "▁saddle": 1965,
      "▁derivatives": 1966,
      "▁stepping": 1967,
      "▁await": 1968,
      "▁solution": 1969,
      "▁fath": 1970,
      "▁collaborations": 1971,
      "▁forms": 1972,
      "icks": 1973,
      "▁fed": 1974,
      "▁hugging": 1975,
      "▁composed": 1976,
      "▁foreground": 1977,
      "▁tanks": 1978,
      "▁predators": 1979,
      "ale": 1980,
      "▁reinfor": 1981,
      "▁shower": 1982,
      "usters": 1983,
      "▁warran": 1984,
      "▁pizzas": 1985,
      "▁dresser": 1986,
      "reated": 1987,
      "▁grow": 1988,
      "agement": 1989,
      "▁201": 1990,
      "uty": 1991,
      "▁tripped": 1992,
      "▁mailed": 1993,
      "▁exce": 1994,
      "cri": 1995,
      "▁dragon": 1996,
      "▁tyr": 1997,
      "▁shud": 1998,
      "fer": 1999,
      "▁insects": 2000,
      "-life": 2001,
      "▁patch": 2002,
      "▁hover": 2003,
      "▁oppression": 2004,
      "▁versus": 2005,
      "▁adver": 2006,
      "▁boule": 2007,
      "▁hack": 2008,
      "estic": 2009,
      "▁hallway": 2010,
      "▁stimuli": 2011,
      "arks": 2012,
      "ari": 2013,
      "▁ii": 2014,
      "▁turnout": 2015,
      "▁denied": 2016,
      "▁requirement": 2017,
      "▁cert": 2018,
      "▁geared": 2019,
      "olution": 2020,
      "▁cds": 2021,
      "ait": 2022,
      "▁==----": 2023,
      "▁fac": 2024,
      "'etat": 2025,
      "▁treatments": 2026,
      "▁fitness": 2027,
      "▁disease": 2028,
      "▁doggie": 2029,
      ".3": 2030,
      "▁suppose": 2031,
      "▁fitting": 2032,
      "▁noting": 2033,
      "66-1.doc": 2034,
      "8th": 2035,
      "▁bridges": 2036,
      "▁cell": 2037,
      "iqu": 2038,
      "▁distr": 2039,
      "osite": 2040,
      "▁expanding": 2041,
      "▁nar": 2042,
      "▁commit": 2043,
      "▁glancing": 2044,
      "▁companies": 2045,
      "▁monies": 2046,
      "▁frightened": 2047,
      "▁experiment": 2048,
      "▁explore": 2049,
      "▁laura": 2050,
      "▁panel": 2051,
      "oy": 2052,
      "▁confidante": 2053,
      "ambment": 2054,
      "▁living": 2055,
      "lly": 2056,
      "▁backpack": 2057,
      "ba": 2058,
      "▁shadow": 2059,
      "asm": 2060,
      "▁linger": 2061,
      "▁knights": 2062,
      "(": 2063,
      "▁hats": 2064,
      "▁jar": 2065,
      "▁pets": 2066,
      "▁revolves": 2067,
      "▁ty": 2068,
      "ri": 2069,
      "▁ingredients": 2070,
      "eline": 2071,
      "▁party": 2072,
      "set": 2073,
      "**********************************": 2074,
      "▁advertising": 2075,
      "elessness": 2076,
      "onin": 2077,
      "▁yogurt": 2078,
      "▁foundation": 2079,
      "▁confirming": 2080,
      "▁behin": 2081,
      "ific": 2082,
      "▁held": 2083,
      "▁enj": 2084,
      "▁reopen": 2085,
      "where": 2086,
      "▁suck": 2087,
      "uct": 2088,
      "▁gotted": 2089,
      "utic": 2090,
      "▁patient": 2091,
      "▁quality": 2092,
      "▁orders": 2093,
      "▁inquiry": 2094,
      "▁roo": 2095,
      "▁bowf": 2096,
      "▁librarian": 2097,
      "---------------": 2098,
      "▁contacts": 2099,
      "▁evening": 2100,
      "▁dow": 2101,
      "elf": 2102,
      "▁record": 2103,
      "▁ignoring": 2104,
      "!!!!": 2105,
      "▁divide": 2106,
      "lium": 2107,
      "▁directors": 2108,
      "▁autofilter": 2109,
      "▁feature": 2110,
      "▁noses": 2111,
      "▁univers": 2112,
      "rial": 2113,
      "▁manufacturers": 2114,
      "▁punch": 2115,
      "▁monologue": 2116,
      "▁possibly": 2117,
      "▁limited": 2118,
      "▁fallout": 2119,
      "▁solicit": 2120,
      "inqu": 2121,
      "ategy": 2122,
      "▁san": 2123,
      "▁fle": 2124,
      "▁banging": 2125,
      "▁balances": 2126,
      "terations": 2127,
      "▁blueberry": 2128,
      "prints": 2129,
      "▁crawling": 2130,
      "▁bans": 2131,
      "▁u": 2132,
      "▁call": 2133,
      "▁gram": 2134,
      "▁2002": 2135,
      "▁flu": 2136,
      "▁neolog": 2137,
      "▁dignit": 2138,
      "▁bumble": 2139,
      "▁affliction": 2140,
      "▁span": 2141,
      "ility": 2142,
      "▁summaries": 2143,
      "thes": 2144,
      "▁hol": 2145,
      "▁describ": 2146,
      "▁haul": 2147,
      "iated": 2148,
      "▁marriages": 2149,
      "▁&am": 2150,
      "▁chinese": 2151,
      "ibility": 2152,
      "▁orientation": 2153,
      "▁criminals": 2154,
      "▁sake": 2155,
      "oise": 2156,
      "ded": 2157,
      "▁bludgers": 2158,
      "3n": 2159,
      "▁consum": 2160,
      "bers": 2161,
      "▁eb": 2162,
      "▁drawer": 2163,
      "▁whist": 2164,
      "▁obtained": 2165,
      "▁recon": 2166,
      "@": 2167,
      "▁coloni": 2168,
      "▁peace": 2169,
      "▁.?": 2170,
      "▁conduct": 2171,
      "▁melted": 2172,
      "▁1960s": 2173,
      "77": 2174,
      "▁myth": 2175,
      "gues": 2176,
      "03": 2177,
      "▁functions": 2178,
      "▁ideals": 2179,
      "▁cooked": 2180,
      "▁gene": 2181,
      "▁nest": 2182,
      "▁aph": 2183,
      "▁eaters": 2184,
      "▁sure": 2185,
      "nament": 2186,
      "▁fragments": 2187,
      "▁cocktail": 2188,
      "erd": 2189,
      "▁competence": 2190,
      "unct": 2191,
      "▁nailed": 2192,
      "▁future": 2193,
      "▁retirement": 2194,
      "ainability": 2195,
      "uter": 2196,
      "▁lymph": 2197,
      "tw": 2198,
      "oyment": 2199,
      "▁favorite": 2200,
      "▁gloves": 2201,
      "▁fanc": 2202,
      "▁gon": 2203,
      "▁pitches": 2204,
      "tch": 2205,
      "▁stumbled": 2206,
      "▁agreements": 2207,
      "inding": 2208,
      "▁lift": 2209,
      "▁stability": 2210,
      "▁resp": 2211,
      "ukee": 2212,
      "▁scarf": 2213,
      "bat": 2214,
      "ears": 2215,
      "▁repairs": 2216,
      "ibilities": 2217,
      "▁40": 2218,
      "▁gels": 2219,
      "▁comple": 2220,
      "▁scenarios": 2221,
      "▁whilst": 2222,
      "ric": 2223,
      "▁flavor": 2224,
      "▁wait": 2225,
      "▁creates": 2226,
      "nity": 2227,
      "izes": 2228,
      "▁deaths": 2229,
      "ɔ": 2230,
      "ralized": 2231,
      "▁alone": 2232,
      "bus": 2233,
      "▁mixture": 2234,
      "▁cinnamon": 2235,
      "▁dine": 2236,
      "bolism": 2237,
      "▁cincinnati": 2238,
      "▁abroad": 2239,
      "▁poured": 2240,
      "▁prevented": 2241,
      "▁basil": 2242,
      "▁underst": 2243,
      "ino": 2244,
      "▁depth": 2245,
      "▁parole": 2246,
      "vious": 2247,
      "▁depths": 2248,
      "▁specification": 2249,
      "sitive": 2250,
      "▁cries": 2251,
      "erce": 2252,
      "▁differ": 2253,
      "▁rushed": 2254,
      "▁technologies": 2255,
      "▁thwar": 2256,
      "▁racking": 2257,
      "tspots": 2258,
      "dation": 2259,
      "▁rear": 2260,
      "▁spores": 2261,
      "liance": 2262,
      "lusion": 2263,
      "rave": 2264,
      "▁cows": 2265,
      "▁chose": 2266,
      "inning": 2267,
      "▁dudley": 2268,
      "▁chocolates": 2269,
      "ruption": 2270,
      "▁madam": 2271,
      "▁drafts": 2272,
      "mie": 2273,
      "anger": 2274,
      "▁scienti": 2275,
      "▁became": 2276,
      ".m.": 2277,
      "▁co-workers": 2278,
      "▁dripping": 2279,
      "ow": 2280,
      "▁enrongss.xls": 2281,
      "▁diagnosed": 2282,
      "agraph": 2283,
      "▁follows": 2284,
      "▁beings": 2285,
      "inction": 2286,
      "aid": 2287,
      "lier": 2288,
      "▁bathtub": 2289,
      "▁listed": 2290,
      "▁whoo": 2291,
      "▁parked": 2292,
      "▁23rd": 2293,
      "▁palate": 2294,
      "▁functioning": 2295,
      "▁proved": 2296,
      "▁poles": 2297,
      "▁alt.animals.dog": 2298,
      "sed": 2299,
      "▁lest": 2300,
      "▁dry": 2301,
      "▁moor": 2302,
      "▁restruc": 2303,
      "▁ambulance": 2304,
      "▁saw": 2305,
      "▁recipe": 2306,
      "ican": 2307,
      "▁leap": 2308,
      "▁overw": 2309,
      "▁carwash": 2310,
      "▁defin": 2311,
      "▁mi": 2312,
      "▁banan": 2313,
      "▁therapist": 2314,
      "▁mohamed": 2315,
      "▁dil": 2316,
      "▁commodity": 2317,
      "▁minut": 2318,
      "▁ker": 2319,
      "▁uncer": 2320,
      "▁transl": 2321,
      "▁derived": 2322,
      "▁consciousness": 2323,
      "▁flat": 2324,
      "igrants": 2325,
      "▁instance": 2326,
      "▁corporation": 2327,
      "leven": 2328,
      "▁sausages": 2329,
      "▁hosts": 2330,
      "▁associates": 2331,
      "▁fabrications": 2332,
      "▁decided": 2333,
      "▁please": 2334,
      "▁company": 2335,
      "▁years": 2336,
      "▁shuttle": 2337,
      "▁different": 2338,
      "▁mechanics": 2339,
      "▁integrity": 2340,
      "▁international": 2341,
      "aggeration": 2342,
      "▁belon": 2343,
      "▁garlic": 2344,
      "▁rebalancing": 2345,
      "▁profession": 2346,
      "▁stra": 2347,
      "▁wins": 2348,
      "▁be": 2349,
      "▁outcom": 2350,
      "▁category": 2351,
      "▁disliked": 2352,
      "▁humped": 2353,
      "▁protege": 2354,
      "▁renewal": 2355,
      "▁witn": 2356,
      "▁pyjamas": 2357,
      "▁concur": 2358,
      "▁incubator": 2359,
      "erilla": 2360,
      "▁imposing": 2361,
      "▁bedroom": 2362,
      "▁important": 2363,
      "▁pushes": 2364,
      "▁displaying": 2365,
      "▁expressions": 2366,
      "▁bye": 2367,
      "▁cottage": 2368,
      "▁keeps": 2369,
      "look": 2370,
      "alf": 2371,
      "acter": 2372,
      "▁companion": 2373,
      "puts": 2374,
      "ake": 2375,
      "▁agree": 2376,
      "▁contributions": 2377,
      "ky": 2378,
      "light": 2379,
      "▁parade": 2380,
      "▁terrible": 2381,
      "▁sued": 2382,
      "enc": 2383,
      "▁quartile": 2384,
      "▁recovery": 2385,
      "▁looking": 2386,
      "play": 2387,
      "ert": 2388,
      "▁ent": 2389,
      "▁sites": 2390,
      "tained": 2391,
      "rage": 2392,
      "▁superhero": 2393,
      "▁guil": 2394,
      "▁pad": 2395,
      "▁graduating": 2396,
      "|reg": 2397,
      "▁pounded": 2398,
      "act": 2399,
      "▁rece": 2400,
      "▁platter": 2401,
      "▁ostrich": 2402,
      "▁iod": 2403,
      "▁lawy": 2404,
      "pts": 2405,
      "▁insurgents": 2406,
      "▁indianapolis": 2407,
      "▁indicates": 2408,
      "jec": 2409,
      "▁issu": 2410,
      "eda": 2411,
      "▁leot": 2412,
      "▁wednesday": 2413,
      "▁edited": 2414,
      "ension": 2415,
      "amble": 2416,
      "▁think": 2417,
      "▁cigarette": 2418,
      "▁integrate": 2419,
      "▁meantime": 2420,
      "▁demanding": 2421,
      "▁footer": 2422,
      "ites": 2423,
      "▁retention": 2424,
      "▁prec": 2425,
      "ened": 2426,
      "▁hurry": 2427,
      "▁words": 2428,
      "▁attraction": 2429,
      "▁agai": 2430,
      "▁debra": 2431,
      "resp": 2432,
      "▁condemned": 2433,
      "▁outs": 2434,
      "▁guard": 2435,
      "▁bleeding": 2436,
      "▁drug": 2437,
      "▁correspond": 2438,
      "▁sidew": 2439,
      "▁liq": 2440,
      "▁hub": 2441,
      "▁good": 2442,
      "zzer": 2443,
      "▁squash": 2444,
      "gle": 2445,
      "▁pursue": 2446,
      "▁gis": 2447,
      "▁purple": 2448,
      "▁coord": 2449,
      "icts": 2450,
      "▁touched": 2451,
      "▁knocked": 2452,
      "undity": 2453,
      "▁galloping": 2454,
      "ritis": 2455,
      "oder": 2456,
      "▁centuries": 2457,
      "▁nut": 2458,
      "▁sir": 2459,
      "▁nashville": 2460,
      "▁purpose": 2461,
      "cr": 2462,
      "▁documented": 2463,
      "▁sent": 2464,
      "▁prepare": 2465,
      "▁procl": 2466,
      "▁discovery": 2467,
      "▁roam": 2468,
      "▁shook": 2469,
      "▁....................": 2470,
      "▁chew": 2471,
      "▁using": 2472,
      "▁industry": 2473,
      "▁administ": 2474,
      "▁paused": 2475,
      "▁aeros": 2476,
      "▁poor": 2477,
      "▁large": 2478,
      "▁scen": 2479,
      "▁comprom": 2480,
      "▁muse": 2481,
      "▁implementation": 2482,
      "▁placement": 2483,
      "▁--": 2484,
      "▁wid": 2485,
      "▁plants": 2486,
      "sically": 2487,
      "▁significance": 2488,
      "▁repeating": 2489,
      "▁providers": 2490,
      "▁drawers": 2491,
      "▁comprised": 2492,
      "her": 2493,
      "▁embarr": 2494,
      "▁diseas": 2495,
      "▁streets": 2496,
      "▁femora": 2497,
      "▁rod": 2498,
      "▁************************************************": 2499,
      "▁itinerary": 2500,
      "ports": 2501,
      "▁diagr": 2502,
      "▁jih": 2503,
      "▁grants": 2504,
      "cove": 2505,
      "▁ext": 2506,
      "▁fps": 2507,
      "cally": 2508,
      "▁nights": 2509,
      "falls": 2510,
      "▁beaches": 2511,
      "▁tool": 2512,
      "▁amid": 2513,
      "med": 2514,
      "▁bun": 2515,
      "▁yelled": 2516,
      "▁goats": 2517,
      "▁child": 2518,
      "▁kids": 2519,
      "▁citiz": 2520,
      "▁minute": 2521,
      "▁doubt": 2522,
      "▁give": 2523,
      "▁trot": 2524,
      "▁legiti": 2525,
      "apsed": 2526,
      "▁midterms": 2527,
      "▁os": 2528,
      "▁roll": 2529,
      "▁arrog": 2530,
      "▁overs": 2531,
      "▁saying": 2532,
      "▁median": 2533,
      "▁forgot": 2534,
      "owered": 2535,
      "▁mand": 2536,
      "▁4th": 2537,
      "jectory": 2538,
      "aking": 2539,
      "▁den": 2540,
      "aughter": 2541,
      "▁rule": 2542,
      "▁preached": 2543,
      "▁marx": 2544,
      "▁landings": 2545,
      "▁bce": 2546,
      "▁abuse": 2547,
      "▁forwarding": 2548,
      "▁cutter": 2549,
      "▁postp": 2550,
      "▁knowing": 2551,
      "▁occurr": 2552,
      "▁opposite": 2553,
      "fu": 2554,
      "▁geof": 2555,
      "▁substituted": 2556,
      "▁abb": 2557,
      "▁premise": 2558,
      "▁romance": 2559,
      "▁cant": 2560,
      "▁account": 2561,
      "bbed": 2562,
      "tification": 2563,
      "▁kib": 2564,
      "▁works": 2565,
      "▁motives": 2566,
      "▁preorder": 2567,
      "▁admire": 2568,
      "▁ple": 2569,
      "▁sides": 2570,
      "▁surveillance": 2571,
      "▁tab": 2572,
      "▁sugges": 2573,
      "▁context": 2574,
      "▁”": 2575,
      "xing": 2576,
      "▁humus": 2577,
      "ivity": 2578,
      "oul": 2579,
      "▁shakes": 2580,
      "ching": 2581,
      "▁recorded": 2582,
      "▁datash": 2583,
      "▁mornings": 2584,
      "▁known": 2585,
      "▁arrows": 2586,
      "▁sponsored": 2587,
      "▁retailers": 2588,
      "▁deli": 2589,
      "▁inclusion": 2590,
      "▁questionna": 2591,
      "otamus": 2592,
      "▁couch": 2593,
      "iented": 2594,
      "▁outlet": 2595,
      "▁carr": 2596,
      "▁beach": 2597,
      "ima": 2598,
      "▁formation": 2599,
      "▁wallet": 2600,
      "▁reptile": 2601,
      "enas": 2602,
      "ese": 2603,
      "▁counted": 2604,
      "▁ordering": 2605,
      "▁olivia": 2606,
      "▁ruts": 2607,
      "▁lodging": 2608,
      "20s": 2609,
      "▁translate": 2610,
      "▁judgement": 2611,
      "▁phenomenon": 2612,
      "▁google": 2613,
      "▁stap": 2614,
      "▁changing": 2615,
      "▁retired": 2616,
      "ocate": 2617,
      "sh": 2618,
      "▁jo": 2619,
      "▁jack": 2620,
      "▁fi": 2621,
      "yet": 2622,
      "mate": 2623,
      "▁attitude": 2624,
      "▁dialog": 2625,
      "▁patents": 2626,
      "ployment": 2627,
      "▁dick": 2628,
      "▁voy": 2629,
      "date": 2630,
      "28": 2631,
      "▁accel": 2632,
      "eurs": 2633,
      "▁finished": 2634,
      "▁dead": 2635,
      "▁receiving": 2636,
      "://": 2637,
      "▁ration": 2638,
      "▁com": 2639,
      "▁ye": 2640,
      "▁executing": 2641,
      "▁wishes": 2642,
      "▁recognize": 2643,
      "▁fred": 2644,
      "▁remainder": 2645,
      "▁anal": 2646,
      "▁deserve": 2647,
      "cience": 2648,
      "▁emitting": 2649,
      "▁dissemination": 2650,
      "▁doctor": 2651,
      "▁montreal": 2652,
      "▁sequence": 2653,
      "▁fixtures": 2654,
      "▁!!!": 2655,
      "▁overal": 2656,
      "▁airplan": 2657,
      "▁hassle": 2658,
      "ses": 2659,
      "uf": 2660,
      "▁latest": 2661,
      "▁bake": 2662,
      "▁tr": 2663,
      "▁reputation": 2664,
      "▁covering": 2665,
      "▁tore": 2666,
      "▁improvements": 2667,
      "children": 2668,
      "angle": 2669,
      "ansion": 2670,
      ".8": 2671,
      "▁smal": 2672,
      "▁couples": 2673,
      "el": 2674,
      "portun": 2675,
      "▁prevent": 2676,
      "▁forefinger": 2677,
      "▁realist": 2678,
      "ibs": 2679,
      "utes": 2680,
      "▁pests": 2681,
      "hy": 2682,
      "yo": 2683,
      "▁datab": 2684,
      "▁continue": 2685,
      "orts": 2686,
      "▁paper": 2687,
      "ability": 2688,
      "c": 2689,
      "rom": 2690,
      "▁inspection": 2691,
      "▁success": 2692,
      "▁·": 2693,
      "▁missiles": 2694,
      "omend": 2695,
      "▁expertise": 2696,
      "▁zawah": 2697,
      "cul": 2698,
      "aft": 2699,
      "▁previously": 2700,
      "▁smiling": 2701,
      "lico": 2702,
      "▁gently": 2703,
      "▁writ": 2704,
      "ona": 2705,
      "▁untied": 2706,
      "oys": 2707,
      "inct": 2708,
      "▁carefully": 2709,
      "▁operates": 2710,
      "▁coali": 2711,
      "esion": 2712,
      "▁elephant": 2713,
      "tiv": 2714,
      "▁silicone": 2715,
      "odor": 2716,
      "▁organisations": 2717,
      "▁intern": 2718,
      "▁fungi": 2719,
      "▁arrive": 2720,
      "▁chine": 2721,
      "▁basketball": 2722,
      "▁spoons": 2723,
      "▁knit": 2724,
      "iu": 2725,
      "com": 2726,
      "▁dro": 2727,
      "▁statute": 2728,
      "▁complim": 2729,
      "▁lay": 2730,
      "pletely": 2731,
      "▁min": 2732,
      "▁excuses": 2733,
      "▁subjects": 2734,
      "asts": 2735,
      "▁resorts": 2736,
      "chored": 2737,
      "▁lik": 2738,
      "▁airports": 2739,
      "▁prote": 2740,
      "▁player": 2741,
      "▁returned": 2742,
      "▁inquired": 2743,
      "▁technology": 2744,
      "ij": 2745,
      "▁pools": 2746,
      "▁sheltered": 2747,
      "▁stripe": 2748,
      "▁elsewhere": 2749,
      "▁ss": 2750,
      "▁forward": 2751,
      "▁runs": 2752,
      "▁anymore": 2753,
      "▁laun": 2754,
      "▁heck": 2755,
      "keling": 2756,
      "▁intelligence": 2757,
      "▁trip": 2758,
      "▁successfully": 2759,
      "▁hailed": 2760,
      "bing": 2761,
      "▁padalecki": 2762,
      "▁batter": 2763,
      "▁submits": 2764,
      "▁installing": 2765,
      "▁suggesting": 2766,
      "▁focuses": 2767,
      "oice": 2768,
      "akes": 2769,
      "▁deliver": 2770,
      "▁unless": 2771,
      "▁security": 2772,
      "▁shoo": 2773,
      "ern": 2774,
      "urned": 2775,
      "▁squares": 2776,
      "oof": 2777,
      "▁shrap": 2778,
      "▁roc": 2779,
      "uistics": 2780,
      "▁breed": 2781,
      "▁xml": 2782,
      "▁blueberries": 2783,
      "amel": 2784,
      "▁acupunct": 2785,
      "▁airplanes": 2786,
      "ud": 2787,
      "▁bob": 2788,
      "▁reel": 2789,
      "escend": 2790,
      "agging": 2791,
      "▁fulfilled": 2792,
      "pay": 2793,
      "▁initiated": 2794,
      "▁eleven": 2795,
      "▁principles": 2796,
      "▁legacy": 2797,
      "bol": 2798,
      "▁brow": 2799,
      "oss": 2800,
      "▁sponge": 2801,
      "▁truth": 2802,
      "▁straps": 2803,
      "▁cic": 2804,
      "▁ideology": 2805,
      "▁private": 2806,
      "▁prearranged": 2807,
      "▁…": 2808,
      "▁hosting": 2809,
      "▁berth": 2810,
      "▁conf": 2811,
      "▁highly": 2812,
      "oa": 2813,
      "ali": 2814,
      "▁northeast": 2815,
      "agon": 2816,
      "itivity": 2817,
      "▁fishie": 2818,
      "▁groceries": 2819,
      "▁jos": 2820,
      "ner": 2821,
      "▁index": 2822,
      "▁distric": 2823,
      "▁frogg": 2824,
      "thma": 2825,
      "▁2009": 2826,
      "▁pitcher": 2827,
      "▁ne": 2828,
      "▁taxi": 2829,
      "▁stringing": 2830,
      "▁responsible": 2831,
      "▁cle": 2832,
      "leum": 2833,
      "▁mama": 2834,
      "▁alig": 2835,
      "▁merchant": 2836,
      "▁negotiate": 2837,
      "ds": 2838,
      "▁lifting": 2839,
      "pensive": 2840,
      "▁listened": 2841,
      "▁deeds": 2842,
      "▁clos": 2843,
      "▁measures": 2844,
      "▁determination": 2845,
      "▁obe": 2846,
      "▁memorized": 2847,
      "▁:?": 2848,
      "▁grandparents": 2849,
      "▁um": 2850,
      "zai": 2851,
      "aining": 2852,
      "▁swallow": 2853,
      "▁austral": 2854,
      "▁squeezed": 2855,
      "ressed": 2856,
      "▁theft": 2857,
      "▁caring": 2858,
      "▁cures": 2859,
      "pl": 2860,
      "▁complexion": 2861,
      "!?": 2862,
      "▁colony": 2863,
      "ann": 2864,
      "▁mex": 2865,
      "▁om": 2866,
      "▁cam": 2867,
      "illance": 2868,
      "▁superi": 2869,
      "keting": 2870,
      "▁clothes": 2871,
      "▁referencing": 2872,
      "▁repub": 2873,
      "▁dey": 2874,
      "uction": 2875,
      "▁cornflakes": 2876,
      "tone": 2877,
      "▁maniac": 2878,
      "▁ramifications": 2879,
      "orically": 2880,
      "▁descriptions": 2881,
      "▁reason": 2882,
      "▁set": 2883,
      "▁directive": 2884,
      "▁remain": 2885,
      "aki": 2886,
      "▁course": 2887,
      "▁lar": 2888,
      "▁recc": 2889,
      "▁name": 2890,
      "▁barriers": 2891,
      "aring": 2892,
      "▁meow": 2893,
      "▁succumb": 2894,
      "is": 2895,
      "6": 2896,
      "▁nickel": 2897,
      "▁jew": 2898,
      "▁un": 2899,
      "▁alar": 2900,
      "repres": 2901,
      "▁...": 2902,
      "▁killed": 2903,
      "▁governing": 2904,
      "▁conclude": 2905,
      "lder": 2906,
      "▁faun": 2907,
      "▁auction": 2908,
      "▁fixed": 2909,
      "▁enables": 2910,
      "▁replied": 2911,
      "▁quoting": 2912,
      "▁cropdusters": 2913,
      "▁fuzz": 2914,
      "bri": 2915,
      "▁quino": 2916,
      "▁waived": 2917,
      "▁’re": 2918,
      "▁holds": 2919,
      "▁purch": 2920,
      "▁abbre": 2921,
      "▁thumb": 2922,
      "scope": 2923,
      "▁commentaries": 2924,
      "▁hus": 2925,
      "▁putting": 2926,
      "esis": 2927,
      "▁professionalism": 2928,
      "▁tactic": 2929,
      "▁come": 2930,
      "▁driven": 2931,
      "▁classified": 2932,
      "sg": 2933,
      "▁linked": 2934,
      "▁comp.sources": 2935,
      "otte": 2936,
      "▁press": 2937,
      "▁fold": 2938,
      "▁banks": 2939,
      "oll": 2940,
      "▁have": 2941,
      "▁scholar": 2942,
      "▁enemy": 2943,
      "▁closing": 2944,
      "lightly": 2945,
      "▁pir": 2946,
      "ggies": 2947,
      "pri": 2948,
      "▁$$$": 2949,
      "▁perf": 2950,
      "child": 2951,
      "▁supplement": 2952,
      "▁tragicomed": 2953,
      "▁germs": 2954,
      "▁fronti": 2955,
      "▁readers": 2956,
      "ogn": 2957,
      "▁receive": 2958,
      "▁rice": 2959,
      "▁how": 2960,
      "▁loi": 2961,
      "▁streams": 2962,
      "▁bathrooms": 2963,
      "▁brig": 2964,
      "▁bel": 2965,
      "▁furniture": 2966,
      "▁abo": 2967,
      "▁network": 2968,
      "▁inves": 2969,
      "▁anch": 2970,
      "▁wife": 2971,
      "▁contain": 2972,
      "▁packages": 2973,
      "‘": 2974,
      "▁ties": 2975,
      "▁quiet": 2976,
      "lihood": 2977,
      "▁pull": 2978,
      "▁trib": 2979,
      "▁ritual": 2980,
      "▁twentieth": 2981,
      "30s": 2982,
      "▁haste": 2983,
      "▁wag": 2984,
      "▁removal": 2985,
      "▁backside": 2986,
      "mos": 2987,
      "▁i.e.": 2988,
      "▁santa": 2989,
      "▁sapped": 2990,
      "▁spirits": 2991,
      "▁panties": 2992,
      "▁grains": 2993,
      "▁conte": 2994,
      "▁cock": 2995,
      "▁reminder": 2996,
      "▁pled": 2997,
      "▁tolerate": 2998,
      "▁playing": 2999,
      "▁indian": 3000,
      "▁treaty": 3001,
      "old": 3002,
      "known": 3003,
      "▁dislikes": 3004,
      "enance": 3005,
      "▁moment": 3006,
      "▁wails": 3007,
      "▁iodised": 3008,
      "▁res": 3009,
      "ains": 3010,
      "▁poll": 3011,
      "▁rival": 3012,
      "▁filter": 3013,
      "▁jump": 3014,
      "tili": 3015,
      "anity": 3016,
      "▁rapporteur": 3017,
      "▁`": 3018,
      "▁fans": 3019,
      "▁illustration": 3020,
      "▁cre": 3021,
      "▁inn": 3022,
      "▁dign": 3023,
      "▁gentlemen": 3024,
      "▁criminal": 3025,
      "ur": 3026,
      "ledge": 3027,
      "▁institutions": 3028,
      "▁dang": 3029,
      "▁consist": 3030,
      "wom": 3031,
      "ople": 3032,
      "▁ears": 3033,
      "▁skating": 3034,
      "▁pamph": 3035,
      "rectly": 3036,
      "▁patri": 3037,
      "▁co-st": 3038,
      "▁dress": 3039,
      "▁clash": 3040,
      "▁indication": 3041,
      "▁!!!!!!!!!!!!!!!": 3042,
      "▁beware": 3043,
      "▁aftershocks": 3044,
      "inter": 3045,
      "▁dessert": 3046,
      "gencies": 3047,
      "▁concentration": 3048,
      "▁fert": 3049,
      "▁obtain": 3050,
      "clock": 3051,
      "▁sorts": 3052,
      "▁clue": 3053,
      "▁stem": 3054,
      "▁ignor": 3055,
      "▁dim": 3056,
      "▁abbrev": 3057,
      "▁burs": 3058,
      "▁monastery": 3059,
      "▁semester": 3060,
      "▁1970s": 3061,
      "▁replaced": 3062,
      "eets": 3063,
      "½": 3064,
      "▁often": 3065,
      "▁dism": 3066,
      "▁sacrifice": 3067,
      "▁suffix": 3068,
      "▁greatest": 3069,
      "▁mel": 3070,
      "▁aeroplane": 3071,
      "▁proper": 3072,
      "▁settlement": 3073,
      "assing": 3074,
      "▁ontario": 3075,
      "▁contrad": 3076,
      "igate": 3077,
      "▁dazz": 3078,
      "▁curi": 3079,
      "▁warrants": 3080,
      "▁shoulder": 3081,
      "ize": 3082,
      "▁armies": 3083,
      "▁mode": 3084,
      "gging": 3085,
      "▁warn": 3086,
      "▁quart": 3087,
      "gible": 3088,
      "zation": 3089,
      "▁ld2d-#6939": 3090,
      "/200": 3091,
      "▁occ": 3092,
      "▁instruments": 3093,
      "▁cats": 3094,
      "▁centres": 3095,
      "▁statement": 3096,
      "hered": 3097,
      "▁flew": 3098,
      "▁eat-e": 3099,
      "ulture": 3100,
      "▁laur": 3101,
      "▁viewers": 3102,
      "umed": 3103,
      "▁loves": 3104,
      "▁affect": 3105,
      "▁mentioning": 3106,
      "▁tin": 3107,
      "▁attack": 3108,
      "▁contents": 3109,
      "iff": 3110,
      "▁chase": 3111,
      "▁ou": 3112,
      "cles": 3113,
      "▁conviction": 3114,
      "▁essay": 3115,
      "▁fake": 3116,
      "▁references": 3117,
      "▁relevant": 3118,
      "▁longing": 3119,
      "urch": 3120,
      "▁servant": 3121,
      "▁claim": 3122,
      "▁----": 3123,
      "rims": 3124,
      "▁digest": 3125,
      "▁tablets": 3126,
      "chang": 3127,
      "▁leverage": 3128,
      "▁athletes": 3129,
      "--------": 3130,
      "▁rifle": 3131,
      "▁identification": 3132,
      "▁prosecutor": 3133,
      "▁ran": 3134,
      "rim": 3135,
      "▁flashing": 3136,
      "`s": 3137,
      "▁ridden": 3138,
      "▁scene": 3139,
      "gl": 3140,
      "▁tur": 3141,
      "▁his": 3142,
      "▁crying": 3143,
      "off": 3144,
      "▁certificates": 3145,
      "▁jeep": 3146,
      "▁pop": 3147,
      "ories": 3148,
      "▁bos": 3149,
      "eting": 3150,
      "▁hat": 3151,
      "▁managers": 3152,
      "bt": 3153,
      "wic": 3154,
      "▁ppl": 3155,
      "▁curric": 3156,
      "▁syrup": 3157,
      "▁separate": 3158,
      "▁assumption": 3159,
      "eri": 3160,
      "53": 3161,
      "rils": 3162,
      "▁tenth": 3163,
      "▁mummy": 3164,
      "▁amending": 3165,
      "▁register": 3166,
      "▁steward": 3167,
      "▁specim": 3168,
      "▁bones": 3169,
      "iots": 3170,
      "ocracy": 3171,
      "▁bordered": 3172,
      "ients": 3173,
      "▁tou": 3174,
      "▁receip": 3175,
      "ations": 3176,
      "▁dimension": 3177,
      "▁gre": 3178,
      "▁hierarchy": 3179,
      "▁ad": 3180,
      "▁greetings": 3181,
      "▁observation": 3182,
      "▁neighbour": 3183,
      "▁magistr": 3184,
      "▁oxygen": 3185,
      "ə": 3186,
      "▁bandaid": 3187,
      "▁cincinn": 3188,
      "atches": 3189,
      "▁door": 3190,
      "unch": 3191,
      "▁theodor": 3192,
      "arian": 3193,
      "▁shed": 3194,
      "tit": 3195,
      "achers": 3196,
      "rics": 3197,
      "ottable": 3198,
      "▁mum": 3199,
      "▁cyclone": 3200,
      "lees": 3201,
      "▁necessity": 3202,
      "▁infected": 3203,
      "▁ended": 3204,
      "▁stole": 3205,
      "▁july": 3206,
      "▁swap": 3207,
      "▁beater": 3208,
      "▁homeopathy": 3209,
      "****************": 3210,
      "▁applic": 3211,
      "olve": 3212,
      "▁crab": 3213,
      "▁gallery": 3214,
      "▁entered": 3215,
      "▁various": 3216,
      "ically": 3217,
      "oir": 3218,
      "▁vo": 3219,
      "hr": 3220,
      "▁acqu": 3221,
      "-sh": 3222,
      "usions": 3223,
      "▁engaging": 3224,
      "▁penet": 3225,
      "ecess": 3226,
      "gor": 3227,
      "▁nt": 3228,
      "▁manatees": 3229,
      "▁proced": 3230,
      "▁futures": 3231,
      "▁declined": 3232,
      "ackened": 3233,
      "ol": 3234,
      "ula": 3235,
      "▁planet": 3236,
      "▁ensuring": 3237,
      "▁conting": 3238,
      "▁merry": 3239,
      "▁mir": 3240,
      "met": 3241,
      "▁kidney": 3242,
      "pants": 3243,
      "▁calories": 3244,
      "▁copying": 3245,
      "▁bodies": 3246,
      "-be": 3247,
      "▁pac": 3248,
      "▁sout": 3249,
      "▁hierarch": 3250,
      "▁piled": 3251,
      "▁outbre": 3252,
      "▁lawn": 3253,
      "▁hist": 3254,
      "▁crews": 3255,
      "▁activists": 3256,
      "▁atrocities": 3257,
      "▁supplies": 3258,
      "▁brushing": 3259,
      "▁editing": 3260,
      "sure": 3261,
      "▁clips": 3262,
      "▁seconds": 3263,
      "bac": 3264,
      "▁artworld": 3265,
      "▁bronze": 3266,
      "▁plenty": 3267,
      "▁occupy": 3268,
      "▁bucket": 3269,
      "▁lend": 3270,
      "▁nuc": 3271,
      "▁acorn": 3272,
      "▁hovered": 3273,
      "▁payers": 3274,
      "arently": 3275,
      "▁personally": 3276,
      "▁ai": 3277,
      "▁understanding": 3278,
      "put": 3279,
      "▁journey": 3280,
      "▁doubts": 3281,
      "▁aggregate": 3282,
      "▁expanded": 3283,
      "▁policymakers": 3284,
      "▁nap": 3285,
      "ticks": 3286,
      "▁smoked": 3287,
      "▁smells": 3288,
      "▁uvb": 3289,
      "▁nipple": 3290,
      "▁tal": 3291,
      "▁publicly": 3292,
      "▁searching": 3293,
      "eap": 3294,
      "rons": 3295,
      "▁thumbs": 3296,
      "▁scenery": 3297,
      "▁candid": 3298,
      "▁volume": 3299,
      "ements": 3300,
      "▁v02": 3301,
      "▁appl": 3302,
      "▁pre-": 3303,
      "▁disint": 3304,
      "▁becuse": 3305,
      "▁surface": 3306,
      "▁auto": 3307,
      "▁clarity": 3308,
      "▁cleanup": 3309,
      "inos": 3310,
      "▁grad": 3311,
      "▁au": 3312,
      "▁temp": 3313,
      "▁discontent": 3314,
      "▁shipped": 3315,
      "▁curs": 3316,
      "▁evil": 3317,
      "yon": 3318,
      "▁florida": 3319,
      "1st": 3320,
      "▁fill": 3321,
      "▁symbolizes": 3322,
      "tedly": 3323,
      "▁jose": 3324,
      "av": 3325,
      "▁solving": 3326,
      "▁cpi": 3327,
      "aly": 3328,
      "asis": 3329,
      "ad": 3330,
      "▁sheriff": 3331,
      "▁committed": 3332,
      "▁homes": 3333,
      "cuff": 3334,
      "▁depar": 3335,
      "anting": 3336,
      "▁weapons": 3337,
      "ilosoph": 3338,
      "▁requi": 3339,
      "▁outlined": 3340,
      "▁forest": 3341,
      "vil": 3342,
      "▁scaring": 3343,
      "▁flops": 3344,
      "▁ignored": 3345,
      "▁busy": 3346,
      "ero": 3347,
      "inking": 3348,
      "▁pursu": 3349,
      "▁vehic": 3350,
      "▁shelter": 3351,
      "▁delete": 3352,
      "▁1.": 3353,
      "▁added": 3354,
      "▁25": 3355,
      "▁tonight": 3356,
      "▁enterpr": 3357,
      "▁pancakes": 3358,
      "words": 3359,
      "▁shipping": 3360,
      "how": 3361,
      "vert": 3362,
      "▁immigrants": 3363,
      "ati": 3364,
      "▁require": 3365,
      "▁brand": 3366,
      "erview": 3367,
      "▁similarities": 3368,
      "▁defeat": 3369,
      "▁belly": 3370,
      "more": 3371,
      "asi": 3372,
      "▁inch": 3373,
      "▁oak": 3374,
      "▁acqui": 3375,
      "▁antibio": 3376,
      "▁based": 3377,
      "rate": 3378,
      "▁hand": 3379,
      "▁bub": 3380,
      "▁offense": 3381,
      "▁asks": 3382,
      "▁guarante": 3383,
      "▁mentioned": 3384,
      "▁glam": 3385,
      "▁grammar": 3386,
      "▁stev": 3387,
      "▁cow": 3388,
      "igious": 3389,
      "▁crises": 3390,
      "▁everywhere": 3391,
      "ota": 3392,
      "▁evaluator": 3393,
      "▁kim": 3394,
      "▁unles": 3395,
      "▁scope": 3396,
      "rows": 3397,
      "▁disappeared": 3398,
      "town": 3399,
      "▁himself": 3400,
      "▁sen": 3401,
      "▁lemon": 3402,
      "▁briefing": 3403,
      "▁neuroscience": 3404,
      "itters": 3405,
      "▁conflict": 3406,
      "▁sometimes": 3407,
      "▁vict": 3408,
      "▁dys": 3409,
      "▁firstly": 3410,
      "▁breast": 3411,
      "▁lunche": 3412,
      "bod": 3413,
      "▁ray": 3414,
      "▁vintage": 3415,
      "▁hardship": 3416,
      "▁treatment": 3417,
      "▁apol": 3418,
      "▁philadelphia": 3419,
      "enumber": 3420,
      "lessness": 3421,
      "▁largely": 3422,
      "▁sequ": 3423,
      "▁headband": 3424,
      "▁cover": 3425,
      "▁blues": 3426,
      "pics": 3427,
      "tity": 3428,
      "▁doggy": 3429,
      "urbs": 3430,
      "▁ansi-": 3431,
      "▁chunk": 3432,
      "▁beating": 3433,
      "lement": 3434,
      "▁alarm": 3435,
      "▁enabling": 3436,
      "it": 3437,
      "▁arm": 3438,
      "eakers": 3439,
      "▁farewell": 3440,
      "▁rect": 3441,
      "▁championship": 3442,
      "▁grip": 3443,
      "▁toys": 3444,
      "ml": 3445,
      "▁beginners": 3446,
      "▁conn": 3447,
      "▁locations": 3448,
      "ership": 3449,
      "▁scientific": 3450,
      "▁johnson": 3451,
      "on": 3452,
      "▁body": 3453,
      "▁less": 3454,
      "▁basic": 3455,
      "ghts": 3456,
      "▁everyone": 3457,
      "▁represent": 3458,
      "▁baking": 3459,
      "▁copy": 3460,
      "con": 3461,
      "▁observed": 3462,
      "▁volunteer": 3463,
      "▁rentals": 3464,
      "▁nurs": 3465,
      "▁gnome": 3466,
      "▁squir": 3467,
      "▁cooking": 3468,
      "▁leaning": 3469,
      "▁rainbow": 3470,
      "▁prints": 3471,
      "▁prompted": 3472,
      "rill": 3473,
      "19": 3474,
      "▁medic": 3475,
      "imum": 3476,
      "▁boil": 3477,
      "ily": 3478,
      "▁saddam": 3479,
      "omin": 3480,
      "▁scientists": 3481,
      "rect": 3482,
      "▁decor": 3483,
      "▁orn": 3484,
      "▁obt": 3485,
      "ouring": 3486,
      "ict": 3487,
      "▁rememb": 3488,
      "irts": 3489,
      "▁smelled": 3490,
      "orized": 3491,
      "▁>>": 3492,
      "▁fil": 3493,
      "▁percentiles": 3494,
      "▁disl": 3495,
      "▁convince": 3496,
      "▁inqui": 3497,
      "▁councillors": 3498,
      "▁sum": 3499,
      "▁husband": 3500,
      "▁frow": 3501,
      "▁makers": 3502,
      "▁mater": 3503,
      "▁etiquette": 3504,
      "food": 3505,
      "aming": 3506,
      "▁overcome": 3507,
      "▁peek": 3508,
      "▁pages": 3509,
      "▁novelist": 3510,
      "▁handkerchiefs": 3511,
      "▁fighting": 3512,
      "▁tunnel": 3513,
      "asted": 3514,
      "▁bothered": 3515,
      "umin": 3516,
      "lla": 3517,
      "iring": 3518,
      "▁childcare": 3519,
      "opard": 3520,
      "▁assessed": 3521,
      "▁langu": 3522,
      "▁exit": 3523,
      "-te": 3524,
      "▁communities": 3525,
      "timately": 3526,
      "▁products": 3527,
      "▁nervous": 3528,
      "▁suspension": 3529,
      "ouncing": 3530,
      "▁russian": 3531,
      "▁fulfill": 3532,
      "▁invasion": 3533,
      "▁barking": 3534,
      "▁shortly": 3535,
      "▁100": 3536,
      "ologies": 3537,
      "▁colour": 3538,
      "attering": 3539,
      "ssive": 3540,
      "▁monit": 3541,
      "▁preferred": 3542,
      "inn": 3543,
      "▁rockets": 3544,
      "▁dancer": 3545,
      "▁ages": 3546,
      "▁buggy": 3547,
      "uation": 3548,
      "▁topper": 3549,
      "▁2015": 3550,
      "▁frenzy": 3551,
      "▁alphabets": 3552,
      "atly": 3553,
      "▁luminol": 3554,
      "▁slippers": 3555,
      "▁grown": 3556,
      "▁melting": 3557,
      "otto": 3558,
      "▁becom": 3559,
      "ligence": 3560,
      "▁make": 3561,
      "ything": 3562,
      "▁1": 3563,
      "▁catch": 3564,
      "tainty": 3565,
      "▁lantern": 3566,
      "icantly": 3567,
      "▁deep": 3568,
      "▁dependency": 3569,
      "▁pager": 3570,
      "▁abandoned": 3571,
      "▁angle": 3572,
      "▁vary": 3573,
      "▁resisted": 3574,
      "▁stopovers": 3575,
      "omes": 3576,
      "▁equal": 3577,
      "▁enriched": 3578,
      "▁hu": 3579,
      "▁winters": 3580,
      "▁supers": 3581,
      "▁department": 3582,
      "▁advice": 3583,
      "▁dominated": 3584,
      "ellers": 3585,
      "▁plotted": 3586,
      "▁vill": 3587,
      "▁wired": 3588,
      "cape": 3589,
      "▁cfls": 3590,
      "▁restored": 3591,
      "rel": 3592,
      "iner": 3593,
      "▁teachers": 3594,
      "▁thyro": 3595,
      "h": 3596,
      "▁offers": 3597,
      "▁killing": 3598,
      "▁charge": 3599,
      "ber": 3600,
      "▁lose": 3601,
      "▁drops": 3602,
      "5": 3603,
      "▁coded": 3604,
      "▁policy": 3605,
      "▁pl": 3606,
      "▁id": 3607,
      "▁adj": 3608,
      "▁go's": 3609,
      "▁fluff": 3610,
      "▁processor": 3611,
      "▁attemp": 3612,
      "▁disney": 3613,
      "▁slang": 3614,
      "▁consideration": 3615,
      "▁accomm": 3616,
      "▁knives": 3617,
      "▁tendency": 3618,
      "▁maker": 3619,
      "iece": 3620,
      "ine": 3621,
      "▁wasted": 3622,
      "▁pastels": 3623,
      "▁reside": 3624,
      "▁reconciliation": 3625,
      "areness": 3626,
      "▁ancestors": 3627,
      "▁boiled": 3628,
      "▁him": 3629,
      "▁sati": 3630,
      "▁ap": 3631,
      "▁send": 3632,
      "back": 3633,
      "▁stat": 3634,
      "aced": 3635,
      "led": 3636,
      "▁change": 3637,
      "-98": 3638,
      "▁incorp": 3639,
      "▁turns": 3640,
      "▁measured": 3641,
      "olutions": 3642,
      "for": 3643,
      "▁fos": 3644,
      "▁wild": 3645,
      "▁keep": 3646,
      "▁afternoon": 3647,
      "▁railway": 3648,
      "▁necess": 3649,
      "▁sleeping": 3650,
      "▁revenues": 3651,
      "▁adjusted": 3652,
      "▁cand": 3653,
      "▁occasionally": 3654,
      "king": 3655,
      ".v": 3656,
      "▁typically": 3657,
      "▁victims": 3658,
      "▁alerts": 3659,
      "▁tokyo": 3660,
      "▁squeal": 3661,
      "▁leisure": 3662,
      "▁merits": 3663,
      "▁bias": 3664,
      "▁businessmen": 3665,
      "▁n't": 3666,
      "▁religion": 3667,
      "▁members": 3668,
      "▁shift": 3669,
      "▁dating": 3670,
      "▁redes": 3671,
      "▁warm": 3672,
      "aint": 3673,
      "tices": 3674,
      "▁inhabit": 3675,
      "▁fairy": 3676,
      "▁deepen": 3677,
      "▁gazing": 3678,
      "▁aggre": 3679,
      "▁reindeer": 3680,
      "gu": 3681,
      "anese": 3682,
      "inny": 3683,
      "▁disclose": 3684,
      "▁martyr": 3685,
      "▁referend": 3686,
      "iting": 3687,
      "▁business": 3688,
      "▁spice": 3689,
      "▁sri": 3690,
      "▁transforms": 3691,
      "ington": 3692,
      "▁sympt": 3693,
      "▁euros": 3694,
      "▁representatives": 3695,
      "▁shuff": 3696,
      "▁desire": 3697,
      "▁finals": 3698,
      "ride": 3699,
      "▁vs": 3700,
      "▁yourselves": 3701,
      "▁designs": 3702,
      "▁stagg": 3703,
      "or": 3704,
      "▁towed": 3705,
      "▁exam": 3706,
      "-sm": 3707,
      "ting": 3708,
      "▁immersed": 3709,
      "▁10": 3710,
      "▁seem": 3711,
      "arth": 3712,
      "oin": 3713,
      "grated": 3714,
      "▁mood": 3715,
      "ta": 3716,
      "▁albe": 3717,
      "lication": 3718,
      "▁advisors": 3719,
      "▁broadcasts": 3720,
      "▁ciac": 3721,
      "▁debris": 3722,
      "rid": 3723,
      "▁expires": 3724,
      "▁symbols": 3725,
      "lights": 3726,
      "leon": 3727,
      "▁boo": 3728,
      "▁expel": 3729,
      "city": 3730,
      "ian": 3731,
      "▁output": 3732,
      "▁bi": 3733,
      "▁coconut": 3734,
      "▁boosting": 3735,
      "▁morphology": 3736,
      "▁consulted": 3737,
      "▁western": 3738,
      "▁war": 3739,
      "arize": 3740,
      "▁diale": 3741,
      "▁sel": 3742,
      "ed": 3743,
      "ply": 3744,
      "▁encouraged": 3745,
      "▁explanation": 3746,
      "▁blaze": 3747,
      "▁pimple": 3748,
      "val": 3749,
      "▁rarely": 3750,
      "▁hund": 3751,
      "▁heater": 3752,
      "▁beginning": 3753,
      "r.": 3754,
      "▁pedicure": 3755,
      "▁tickles": 3756,
      "road": 3757,
      "▁’s": 3758,
      "▁shad": 3759,
      "▁dinosaurs": 3760,
      "▁renew": 3761,
      "▁hav": 3762,
      "▁pledge": 3763,
      "tibility": 3764,
      "▁sensor": 3765,
      "▁flowers": 3766,
      "▁mhm": 3767,
      "▁northern": 3768,
      "▁sant": 3769,
      "▁programming": 3770,
      "▁grandmother": 3771,
      "▁ve": 3772,
      "ashes": 3773,
      "▁because": 3774,
      "▁trading": 3775,
      "...@": 3776,
      "▁starving": 3777,
      "▁annex": 3778,
      "▁nightcl": 3779,
      "▁segment": 3780,
      "▁fourth": 3781,
      "▁reef": 3782,
      "fire": 3783,
      "utors": 3784,
      "▁hey": 3785,
      "▁sal": 3786,
      "-and": 3787,
      "▁ver": 3788,
      "▁transform": 3789,
      "▁uva": 3790,
      "top": 3791,
      "arranged": 3792,
      "▁temperature": 3793,
      "▁enjoy": 3794,
      "nic": 3795,
      "▁appreciated": 3796,
      "▁consortium": 3797,
      "▁revol": 3798,
      "▁louds": 3799,
      "▁took": 3800,
      "oly": 3801,
      "advant": 3802,
      "▁prefecture": 3803,
      "▁dsl": 3804,
      "▁accommodations": 3805,
      "▁judged": 3806,
      "arly": 3807,
      "▁cross": 3808,
      "▁badly": 3809,
      "aks": 3810,
      "▁sampling": 3811,
      "▁david": 3812,
      "▁subpo": 3813,
      "▁superiority": 3814,
      "▁ruin": 3815,
      "▁co": 3816,
      "▁considers": 3817,
      "▁diff": 3818,
      "▁jungle": 3819,
      "▁shrunk": 3820,
      "▁dolph": 3821,
      "▁miti": 3822,
      "▁during": 3823,
      "▁locking": 3824,
      "▁northwest": 3825,
      "▁tested": 3826,
      "ling": 3827,
      "▁disappointment": 3828,
      "▁engage": 3829,
      "▁scrub": 3830,
      "▁electron": 3831,
      "▁dest": 3832,
      "▁hum": 3833,
      "▁monks": 3834,
      "ainder": 3835,
      "arked": 3836,
      "▁occurs": 3837,
      "▁particip": 3838,
      "▁ch": 3839,
      "▁gives": 3840,
      "▁throwing": 3841,
      "▁threw": 3842,
      "ograph": 3843,
      "▁teasing": 3844,
      "▁yawning": 3845,
      "ommerce": 3846,
      "▁wings": 3847,
      "▁pork": 3848,
      "aman": 3849,
      "▁blacklined": 3850,
      "ketch": 3851,
      "▁curves": 3852,
      "▁sisal": 3853,
      "▁sp": 3854,
      "▁industr": 3855,
      "▁destro": 3856,
      "▁directly": 3857,
      "▁fan": 3858,
      "▁however": 3859,
      "▁cust": 3860,
      "ission": 3861,
      "▁browsers": 3862,
      "▁components": 3863,
      "os": 3864,
      "▁chap": 3865,
      "▁wigg": 3866,
      "▁legos": 3867,
      "▁pover": 3868,
      "ʃ": 3869,
      "▁encour": 3870,
      "-h": 3871,
      "▁tod": 3872,
      "▁fam": 3873,
      "▁compar": 3874,
      "▁depend": 3875,
      "▁novell": 3876,
      "iciate": 3877,
      "▁anemones": 3878,
      "▁eas": 3879,
      "▁preventing": 3880,
      "▁enab": 3881,
      "▁ju": 3882,
      "▁fab": 3883,
      "▁average": 3884,
      "▁qu": 3885,
      "▁lent": 3886,
      "▁miseries": 3887,
      "▁hesitation": 3888,
      "▁specific": 3889,
      "agn": 3890,
      "▁lights": 3891,
      "ribb": 3892,
      "▁ssh": 3893,
      "▁xfer": 3894,
      "▁cin": 3895,
      "▁acceler": 3896,
      "inting": 3897,
      "ghted": 3898,
      "▁sue": 3899,
      "▁simpli": 3900,
      "▁folder": 3901,
      "▁ripping": 3902,
      "ummy": 3903,
      "▁right": 3904,
      "▁headline": 3905,
      "▁clust": 3906,
      "eos": 3907,
      "▁guiding": 3908,
      "ce": 3909,
      "eness": 3910,
      "my": 3911,
      "▁suited": 3912,
      "▁machine": 3913,
      "▁engineering": 3914,
      "▁fec": 3915,
      "head": 3916,
      "▁welf": 3917,
      "▁volati": 3918,
      "▁kilomet": 3919,
      "▁on": 3920,
      "▁attrition": 3921,
      "lan": 3922,
      "use": 3923,
      "▁tors": 3924,
      "▁hunt": 3925,
      "▁memo": 3926,
      "hikii": 3927,
      "▁preparedness": 3928,
      "rier": 3929,
      "▁tips": 3930,
      "lete": 3931,
      "▁laser": 3932,
      "▁stored": 3933,
      "▁represented": 3934,
      "▁worrying": 3935,
      "▁candies": 3936,
      "▁edges": 3937,
      "▁responds": 3938,
      "ice": 3939,
      "bands": 3940,
      "▁galax": 3941,
      "▁lets": 3942,
      "▁refus": 3943,
      "▁curriculum": 3944,
      "▁japanese": 3945,
      "hib": 3946,
      "▁concession": 3947,
      ":30": 3948,
      "▁administr": 3949,
      "▁suggestion": 3950,
      "▁legislation": 3951,
      "structed": 3952,
      "▁emphasize": 3953,
      "▁belief": 3954,
      "▁disability": 3955,
      "▁notice": 3956,
      "▁iron": 3957,
      "▁grid": 3958,
      "▁motivation": 3959,
      "▁singles": 3960,
      "▁breakdown": 3961,
      "phis": 3962,
      "▁naming": 3963,
      "▁embrace": 3964,
      "▁flush": 3965,
      "▁chin": 3966,
      "▁30th": 3967,
      "▁stylesheet": 3968,
      "▁careful": 3969,
      "▁.....": 3970,
      "▁route": 3971,
      "▁era": 3972,
      "▁gulf": 3973,
      "▁spect": 3974,
      "▁lumin": 3975,
      "▁mob": 3976,
      "hu": 3977,
      "▁cradle": 3978,
      "▁sorrow": 3979,
      "▁wednesdays": 3980,
      "aponize": 3981,
      "▁gunfire": 3982,
      "▁introduces": 3983,
      "glar": 3984,
      "▁attempting": 3985,
      "▁coup": 3986,
      "▁borrowers": 3987,
      "+room": 3988,
      "▁inspired": 3989,
      "▁crosses": 3990,
      "▁said": 3991,
      "▁pecking": 3992,
      "▁interceptor": 3993,
      "▁employment": 3994,
      "▁ang": 3995,
      "▁arrang": 3996,
      "▁neg": 3997,
      "▁correc": 3998,
      "▁cutting": 3999,
      "▁experience": 4000,
      "▁translating": 4001,
      "▁supporter": 4002,
      "▁domain": 4003,
      "▁friendly": 4004,
      "▁discoveries": 4005,
      "ff": 4006,
      "cope": 4007,
      "▁messaging": 4008,
      "▁ab": 4009,
      "ipl": 4010,
      "times": 4011,
      "▁computers": 4012,
      "▁banner": 4013,
      "▁teacher": 4014,
      "ounced": 4015,
      "▁monitoring": 4016,
      "▁periods": 4017,
      "▁extradited": 4018,
      "▁behaviors": 4019,
      "erals": 4020,
      "▁brass": 4021,
      "▁in": 4022,
      "▁steak": 4023,
      "▁shrew": 4024,
      "▁pleased": 4025,
      "ums": 4026,
      "orp": 4027,
      "▁cannon": 4028,
      "ometer": 4029,
      "▁coordin": 4030,
      "▁fever": 4031,
      "▁pee": 4032,
      "▁trafficking": 4033,
      "▁away": 4034,
      "▁shaped": 4035,
      "otions": 4036,
      "▁verifies": 4037,
      "▁sli": 4038,
      "aulted": 4039,
      "▁expectancy": 4040,
      "▁conferen": 4041,
      "μ": 4042,
      "▁lan": 4043,
      "▁sympathizers": 4044,
      "▁fairs": 4045,
      "▁vote": 4046,
      "▁bounds": 4047,
      "inges": 4048,
      "▁confidence": 4049,
      "▁drilling": 4050,
      "▁oops": 4051,
      "▁secession": 4052,
      "▁hopes": 4053,
      "▁code": 4054,
      "ows": 4055,
      "▁mumbled": 4056,
      "▁refused": 4057,
      "▁crap": 4058,
      "nesday": 4059,
      "▁memoir": 4060,
      "▁margin": 4061,
      "ette": 4062,
      "▁princip": 4063,
      "▁targets": 4064,
      "▁protocol": 4065,
      "▁relevance": 4066,
      "arraf": 4067,
      "ft": 4068,
      "▁archbish": 4069,
      "tionally": 4070,
      "▁quite": 4071,
      "▁establish": 4072,
      "▁revers": 4073,
      "▁fare": 4074,
      "▁colonization": 4075,
      "▁!!!!": 4076,
      "▁retrie": 4077,
      "▁screams": 4078,
      "▁flor": 4079,
      "▁image": 4080,
      "atibility": 4081,
      "▁fishing": 4082,
      "▁refund": 4083,
      "aging": 4084,
      "▁napkins": 4085,
      "▁cooperation": 4086,
      "▁baptised": 4087,
      "▁pe": 4088,
      "▁paraphr": 4089,
      "▁econom": 4090,
      "▁posture": 4091,
      "fications": 4092,
      "▁spoken": 4093,
      "▁funeral": 4094,
      "▁continents": 4095,
      "▁relations": 4096,
      "vised": 4097,
      "▁congratulations": 4098,
      "cki": 4099,
      "▁applications": 4100,
      "ented": 4101,
      "▁forbidden": 4102,
      "ile": 4103,
      "▁slide": 4104,
      "▁'ve": 4105,
      "▁points": 4106,
      "▁pumped": 4107,
      "▁web": 4108,
      "▁flea": 4109,
      "hirt": 4110,
      "▁scoot": 4111,
      "▁meeting": 4112,
      "▁slipped": 4113,
      "▁phr": 4114,
      "▁lawyer": 4115,
      "▁hydrogen": 4116,
      "▁plaque": 4117,
      "pite": 4118,
      "▁bec": 4119,
      "cc": 4120,
      "▁values": 4121,
      "▁bits": 4122,
      "▁locked": 4123,
      "▁stared": 4124,
      "amet": 4125,
      "▁exac": 4126,
      "▁er": 4127,
      "▁environment": 4128,
      "▁chapter": 4129,
      "▁imp": 4130,
      "▁suppressed": 4131,
      "eignty": 4132,
      "▁yogh": 4133,
      "▁br": 4134,
      "▁almon": 4135,
      "▁rn": 4136,
      "unge": 4137,
      "▁announcement": 4138,
      "▁03": 4139,
      "▁adverts": 4140,
      "▁transfers": 4141,
      "▁brains": 4142,
      "▁ferocity": 4143,
      "▁cups": 4144,
      "▁undermine": 4145,
      "▁26": 4146,
      "▁regulations": 4147,
      "▁flop": 4148,
      "▁warming": 4149,
      "▁reception": 4150,
      "iches": 4151,
      "een": 4152,
      "▁miracle": 4153,
      "onated": 4154,
      "libility": 4155,
      "▁located": 4156,
      "▁rescue": 4157,
      "▁accidents": 4158,
      "▁mweta": 4159,
      "▁smo": 4160,
      "▁example": 4161,
      "▁flows": 4162,
      "▁festiv": 4163,
      "▁sailing": 4164,
      "▁nose": 4165,
      "nered": 4166,
      "▁sing": 4167,
      "▁factory": 4168,
      "▁trades": 4169,
      "rough": 4170,
      "▁opposition": 4171,
      "▁enjoys": 4172,
      "▁fro": 4173,
      "▁rack": 4174,
      "▁stealing": 4175,
      "▁survive": 4176,
      "▁waved": 4177,
      "▁paradise": 4178,
      "▁powers": 4179,
      "▁broccoli": 4180,
      "y": 4181,
      "ots": 4182,
      "▁temper": 4183,
      "▁oven": 4184,
      "▁collaboration": 4185,
      "▁pandemic": 4186,
      "▁let": 4187,
      "otograp": 4188,
      "▁fault": 4189,
      "uge": 4190,
      "▁soy": 4191,
      "ear": 4192,
      "▁freshman": 4193,
      "▁rejected": 4194,
      "▁instructed": 4195,
      "▁nurse": 4196,
      "ifically": 4197,
      "▁exist": 4198,
      "▁occasion": 4199,
      "▁mines": 4200,
      "rax": 4201,
      "▁packet": 4202,
      "ers": 4203,
      "▁reimb": 4204,
      "les": 4205,
      "rying": 4206,
      "ngth": 4207,
      "▁co-": 4208,
      "dies": 4209,
      "▁dictatorship": 4210,
      "▁environ": 4211,
      "▁women": 4212,
      "herence": 4213,
      "▁opponents": 4214,
      "▁enlargement": 4215,
      "▁appeti": 4216,
      "▁p.": 4217,
      "▁opportunity": 4218,
      "▁incentive": 4219,
      "▁anim": 4220,
      "▁act": 4221,
      "▁concerning": 4222,
      "▁[": 4223,
      "▁pret": 4224,
      "▁crayons": 4225,
      "▁song": 4226,
      "▁willing": 4227,
      "▁trunks": 4228,
      "▁diego": 4229,
      "▁fuck": 4230,
      "▁height": 4231,
      "▁dri": 4232,
      "fort": 4233,
      "▁mechanisms": 4234,
      "cial": 4235,
      "▁categories": 4236,
      "alia": 4237,
      "▁transmittal": 4238,
      "▁tolerance": 4239,
      "▁hauling": 4240,
      "/0": 4241,
      "▁de": 4242,
      "▁bravery": 4243,
      "ielder": 4244,
      "▁listen": 4245,
      "▁reint": 4246,
      "-8": 4247,
      "oves": 4248,
      "▁movements": 4249,
      "▁gir": 4250,
      "▁raccoon": 4251,
      "oot": 4252,
      "althy": 4253,
      "▁rul": 4254,
      "▁glows": 4255,
      "▁illust": 4256,
      "▁tournament": 4257,
      "nh": 4258,
      "▁epc": 4259,
      "▁human": 4260,
      "▁entertainment": 4261,
      "▁screen": 4262,
      "ʒ": 4263,
      "▁times": 4264,
      "orders": 4265,
      "▁stakes": 4266,
      "▁fut": 4267,
      "'s": 4268,
      "▁actually": 4269,
      "▁expressing": 4270,
      "unition": 4271,
      "▁infant": 4272,
      "▁notepad": 4273,
      "▁pasted": 4274,
      "▁immunity": 4275,
      "▁mart": 4276,
      "▁joh": 4277,
      "▁built": 4278,
      "iron": 4279,
      "▁distribution": 4280,
      "▁j": 4281,
      "▁volcano": 4282,
      "▁welc": 4283,
      "ause": 4284,
      "▁offered": 4285,
      "▁surprise": 4286,
      "omic": 4287,
      "jected": 4288,
      "▁stadium": 4289,
      "▁drinks": 4290,
      "▁webs": 4291,
      "▁harmonised": 4292,
      "erc": 4293,
      "▁replacement": 4294,
      "don": 4295,
      "▁oz": 4296,
      "x": 4297,
      "▁spl": 4298,
      "▁dissatisfaction": 4299,
      "▁mam": 4300,
      "▁affecting": 4301,
      "▁helpful": 4302,
      "▁cocoa": 4303,
      "▁inside": 4304,
      "▁realization": 4305,
      "ecuted": 4306,
      "▁senses": 4307,
      "▁adoles": 4308,
      "▁vess": 4309,
      "▁hospitality": 4310,
      "2d-": 4311,
      "▁raised": 4312,
      "houses": 4313,
      "2b": 4314,
      "▁consequences": 4315,
      "▁tele": 4316,
      "=": 4317,
      "ighth": 4318,
      "▁centers": 4319,
      "ants": 4320,
      "irus": 4321,
      "▁hutch": 4322,
      "i-": 4323,
      "▁mitch": 4324,
      "▁weasel": 4325,
      "▁laughter": 4326,
      "▁testing": 4327,
      "▁voting": 4328,
      "▁stone": 4329,
      "▁communications": 4330,
      "▁don": 4331,
      "▁spokesman": 4332,
      "▁prospects": 4333,
      "rep": 4334,
      "▁father": 4335,
      "▁mic": 4336,
      "▁mos": 4337,
      "bug": 4338,
      "▁cuz": 4339,
      "▁max": 4340,
      "▁migrated": 4341,
      "4": 4342,
      "▁disperse": 4343,
      "▁slowed": 4344,
      "▁whatever": 4345,
      "▁particularly": 4346,
      "▁si": 4347,
      "ptian": 4348,
      "iced": 4349,
      "6-1.xls": 4350,
      "▁commission": 4351,
      "▁gifts": 4352,
      "▁excer": 4353,
      "▁audience": 4354,
      "singly": 4355,
      "▁behaviour": 4356,
      "▁ret": 4357,
      "▁aper": 4358,
      "▁eated": 4359,
      "▁disag": 4360,
      "ential": 4361,
      "▁fifty": 4362,
      "▁initially": 4363,
      "▁anyone": 4364,
      "▁boot": 4365,
      "▁wolf": 4366,
      "▁inputs": 4367,
      "▁rules": 4368,
      "▁crieth": 4369,
      "▁mothers": 4370,
      "▁direct": 4371,
      "▁ech": 4372,
      "▁pi": 4373,
      "▁tourism": 4374,
      "rates": 4375,
      "oil": 4376,
      "46": 4377,
      "▁facebook": 4378,
      "▁if": 4379,
      "▁interesting": 4380,
      "▁e": 4381,
      "iet": 4382,
      "▁assoc": 4383,
      "chair": 4384,
      "(s": 4385,
      "▁mounds": 4386,
      "time": 4387,
      "▁greater": 4388,
      "▁sheep": 4389,
      "▁artillery": 4390,
      "land": 4391,
      "▁extrem": 4392,
      "rely": 4393,
      "ademic": 4394,
      "▁television": 4395,
      "verage": 4396,
      "▁bond": 4397,
      "▁drizz": 4398,
      "▁chased": 4399,
      "▁noon": 4400,
      "▁youtube": 4401,
      "▁mountain": 4402,
      "▁tracking": 4403,
      "▁scrambled": 4404,
      "▁rattled": 4405,
      "▁flee": 4406,
      "▁luck": 4407,
      "▁use": 4408,
      "▁announce": 4409,
      "mal": 4410,
      "liness": 4411,
      "▁posting": 4412,
      "▁employee": 4413,
      "▁structured": 4414,
      "▁ankle": 4415,
      "▁ice-cre": 4416,
      "▁attributes": 4417,
      "▁convin": 4418,
      "▁teaches": 4419,
      "wide": 4420,
      "ignation": 4421,
      "▁9": 4422,
      "▁defended": 4423,
      "▁pur": 4424,
      "▁shoe": 4425,
      "907": 4426,
      "▁whenever": 4427,
      "dering": 4428,
      "▁wig": 4429,
      "umber": 4430,
      "▁justify": 4431,
      "orting": 4432,
      "ishment": 4433,
      "ooked": 4434,
      "enda": 4435,
      "▁!!!?": 4436,
      "▁paramet": 4437,
      "▁midd": 4438,
      "oint": 4439,
      "▁african": 4440,
      "▁lat": 4441,
      "▁warehouse": 4442,
      "very": 4443,
      "▁|--------+----------------------->": 4444,
      "▁happen": 4445,
      "▁prefer": 4446,
      "ished": 4447,
      "▁quantity": 4448,
      "▁ld2d-#693": 4449,
      "▁guardian": 4450,
      "▁x33907": 4451,
      "ci": 4452,
      "▁fair": 4453,
      "commerce": 4454,
      "▁universities": 4455,
      "▁pean": 4456,
      "▁arrivals": 4457,
      "▁possess": 4458,
      "▁elev": 4459,
      "tions": 4460,
      "ais": 4461,
      "outh": 4462,
      "▁ho": 4463,
      "▁straight": 4464,
      "ossing": 4465,
      "▁mentality": 4466,
      "▁bulb": 4467,
      "▁method": 4468,
      "▁defend": 4469,
      "▁thwarted": 4470,
      "g": 4471,
      "▁continent": 4472,
      "▁lavatory": 4473,
      "--------+----------------": 4474,
      "moon": 4475,
      "▁attendant": 4476,
      "▁developments": 4477,
      "▁cells": 4478,
      "isti": 4479,
      "▁very": 4480,
      "▁far": 4481,
      "▁,": 4482,
      "erance": 4483,
      "▁mentions": 4484,
      "▁level": 4485,
      "▁principal": 4486,
      "▁exploration": 4487,
      "▁failing": 4488,
      "geted": 4489,
      "▁board": 4490,
      "▁pencil": 4491,
      "here": 4492,
      "tiality": 4493,
      "▁consent": 4494,
      "rit": 4495,
      "kles": 4496,
      "▁age": 4497,
      "▁reveal": 4498,
      "ectively": 4499,
      "▁explaining": 4500,
      "▁envelope": 4501,
      "ria": 4502,
      "▁like": 4503,
      "23": 4504,
      "▁than": 4505,
      "▁shout": 4506,
      "▁tractor": 4507,
      "▁almond": 4508,
      "ounted": 4509,
      "▁email": 4510,
      "▁judg": 4511,
      "antics": 4512,
      "▁poke": 4513,
      "▁skit": 4514,
      "▁none": 4515,
      "▁trac": 4516,
      "eal": 4517,
      "▁amazed": 4518,
      "▁overtures": 4519,
      "▁acquis": 4520,
      "▁knew": 4521,
      "▁tsunami": 4522,
      "▁stret": 4523,
      "▁seats": 4524,
      "gie": 4525,
      "▁percentile": 4526,
      "▁proposing": 4527,
      "▁imper": 4528,
      "▁gastroenter": 4529,
      "▁milks": 4530,
      "▁[...": 4531,
      "▁paths": 4532,
      "▁waiver": 4533,
      "▁finishing": 4534,
      "▁breasts": 4535,
      "▁manti": 4536,
      "isting": 4537,
      "ffle": 4538,
      "▁promise": 4539,
      "▁teddy": 4540,
      "▁instructor": 4541,
      "▁concent": 4542,
      "▁twisted": 4543,
      "▁salt": 4544,
      "▁trying": 4545,
      "▁winging": 4546,
      "▁300": 4547,
      "▁dail": 4548,
      "▁obsf": 4549,
      "bernation": 4550,
      "art": 4551,
      "▁compel": 4552,
      "▁smoothie": 4553,
      "▁portr": 4554,
      "▁circles": 4555,
      "▁summoned": 4556,
      "▁demanded": 4557,
      "▁w": 4558,
      "▁wind": 4559,
      "nel": 4560,
      "▁ursula": 4561,
      "▁circumference": 4562,
      "itated": 4563,
      "▁vitamin": 4564,
      "cret": 4565,
      "▁tenure": 4566,
      "▁discovered": 4567,
      "▁pocketbook": 4568,
      "▁squirter": 4569,
      "nair": 4570,
      "▁recip": 4571,
      "▁arrives": 4572,
      "▁professional": 4573,
      "▁philosoph": 4574,
      "▁particle": 4575,
      "▁bop": 4576,
      "▁berry": 4577,
      "▁lacking": 4578,
      "▁net": 4579,
      "▁dempse": 4580,
      "eding": 4581,
      "▁compass": 4582,
      "scrib": 4583,
      "hhu": 4584,
      "▁transported": 4585,
      "▁loo": 4586,
      "▁lifeboats": 4587,
      "▁suspicion": 4588,
      "rets": 4589,
      "▁resentment": 4590,
      "▁clashes": 4591,
      "-m": 4592,
      "▁bee": 4593,
      "▁labels": 4594,
      "titude": 4595,
      "udge": 4596,
      "▁publications": 4597,
      "▁welfare": 4598,
      "▁chefs": 4599,
      "▁lot": 4600,
      "▁embr": 4601,
      "▁guaranteeing": 4602,
      "▁landscapes": 4603,
      "▁stupid": 4604,
      "▁execution": 4605,
      "▁pass": 4606,
      "arily": 4607,
      "▁trigger": 4608,
      "oration": 4609,
      "▁abol": 4610,
      "▁intercep": 4611,
      "▁utterance": 4612,
      "▁discussions": 4613,
      "ulars": 4614,
      "▁printing": 4615,
      "▁efficiency": 4616,
      "hing": 4617,
      "▁tennis": 4618,
      "▁qual": 4619,
      "▁blamed": 4620,
      "ral": 4621,
      "▁setoff": 4622,
      "▁smith": 4623,
      "▁resist": 4624,
      "▁barbeque": 4625,
      "▁nowhere": 4626,
      "▁stayed": 4627,
      "▁cd": 4628,
      "ables": 4629,
      "▁dogg": 4630,
      "▁silence": 4631,
      "▁ensure": 4632,
      "▁alt.animals.d": 4633,
      "▁doorstep": 4634,
      "▁appetite": 4635,
      "98": 4636,
      "▁manners": 4637,
      "▁through": 4638,
      "▁appointees": 4639,
      "▁ecommerce": 4640,
      "▁flooding": 4641,
      "▁clar": 4642,
      "▁transforming": 4643,
      "▁conspiracy": 4644,
      "▁birthday": 4645,
      "20": 4646,
      "ptions": 4647,
      "▁condem": 4648,
      "ference": 4649,
      "▁symptoms": 4650,
      "▁spear": 4651,
      "▁investments": 4652,
      "ust": 4653,
      "▁recre": 4654,
      "▁spacetime": 4655,
      "▁rumbling": 4656,
      "▁repl": 4657,
      "▁cured": 4658,
      "▁inhab": 4659,
      "▁hotels": 4660,
      "▁dipping": 4661,
      "▁entity": 4662,
      "▁hamas": 4663,
      "▁beans": 4664,
      "▁filed": 4665,
      "▁engine": 4666,
      "arities": 4667,
      "▁likeness": 4668,
      "▁!!!!!!!!!!": 4669,
      "▁vodka": 4670,
      "▁twins": 4671,
      "▁counterfeit": 4672,
      ".un": 4673,
      "▁forums": 4674,
      "ething": 4675,
      "▁hy": 4676,
      "▁carry": 4677,
      "▁citation": 4678,
      "▁lips": 4679,
      "▁forwarded": 4680,
      "▁advertise": 4681,
      "▁profits": 4682,
      "▁skill": 4683,
      "▁candles": 4684,
      "▁oriented": 4685,
      "▁produc": 4686,
      "▁grocer": 4687,
      "▁feel": 4688,
      "▁mor": 4689,
      "▁resize": 4690,
      "cing": 4691,
      "▁teasp": 4692,
      "ored": 4693,
      "estim": 4694,
      "▁boundaries": 4695,
      "ortment": 4696,
      "eterm": 4697,
      "▁enjoyment": 4698,
      "▁hibernation": 4699,
      "▁techn": 4700,
      "▁fracture": 4701,
      "▁opposed": 4702,
      "▁reward": 4703,
      "▁building": 4704,
      "ettes": 4705,
      "ideration": 4706,
      "▁beyon": 4707,
      "▁fence": 4708,
      "▁retaliation": 4709,
      "inth": 4710,
      "pe": 4711,
      "case": 4712,
      "▁debut": 4713,
      "omb": 4714,
      "▁selections": 4715,
      "▁skills": 4716,
      "▁rag": 4717,
      "▁pew": 4718,
      "▁drinking": 4719,
      "▁background": 4720,
      "▁sweep": 4721,
      "▁experimenting": 4722,
      "essed": 4723,
      "bby": 4724,
      "▁army": 4725,
      "▁travellers": 4726,
      "▁digital": 4727,
      "▁newspapers": 4728,
      "▁utility": 4729,
      "▁vice-president": 4730,
      "▁llc": 4731,
      "▁deposited": 4732,
      "▁conquer": 4733,
      "▁strip": 4734,
      "asp": 4735,
      "▁diss": 4736,
      "▁90s": 4737,
      "ti": 4738,
      "▁unrave": 4739,
      "orm": 4740,
      "▁taste": 4741,
      "rem": 4742,
      "▁resulted": 4743,
      "file": 4744,
      "▁dryer": 4745,
      "▁crossed": 4746,
      "rent": 4747,
      "▁weakness": 4748,
      "urally": 4749,
      "▁period": 4750,
      "▁boats": 4751,
      "▁premium": 4752,
      "▁pyramid": 4753,
      "▁remaining": 4754,
      "▁rise": 4755,
      "▁up": 4756,
      "ably": 4757,
      "▁chronic": 4758,
      "roleum": 4759,
      "▁he": 4760,
      "▁impression": 4761,
      "▁tablet": 4762,
      "▁drafting": 4763,
      "▁stems": 4764,
      "▁toe": 4765,
      "▁local": 4766,
      "umn": 4767,
      "ley": 4768,
      "amples": 4769,
      "ortions": 4770,
      "▁vendors": 4771,
      "▁curb": 4772,
      "▁provinces": 4773,
      "▁violating": 4774,
      "▁girlfriend": 4775,
      "▁seattle": 4776,
      "▁helmet": 4777,
      "acters": 4778,
      "we": 4779,
      "-th": 4780,
      "idence": 4781,
      "▁karen": 4782,
      "▁pest": 4783,
      "▁senate": 4784,
      "▁ld2d-#6933": 4785,
      "▁variables": 4786,
      "▁facing": 4787,
      "▁details": 4788,
      "▁licked": 4789,
      "▁ansi": 4790,
      "▁sacrifices": 4791,
      "▁victor": 4792,
      "▁seized": 4793,
      "ratic": 4794,
      "▁2003": 4795,
      "aph": 4796,
      "▁28": 4797,
      "▁boys": 4798,
      "▁nuts": 4799,
      "river": 4800,
      "▁kippers": 4801,
      "ents": 4802,
      "thers": 4803,
      "▁reminds": 4804,
      "immer": 4805,
      "▁coffee": 4806,
      "▁zawahiri": 4807,
      "continent": 4808,
      "science": 4809,
      "▁publish": 4810,
      "ec": 4811,
      "▁courage": 4812,
      "▁ministry": 4813,
      "▁heart": 4814,
      "▁defines": 4815,
      "▁qualified": 4816,
      "▁fraction": 4817,
      "▁operating": 4818,
      "▁puzz": 4819,
      "▁sequences": 4820,
      "▁temperatures": 4821,
      "▁explanations": 4822,
      "▁occasions": 4823,
      "cest": 4824,
      "▁bom": 4825,
      "rowed": 4826,
      "▁hijackers": 4827,
      "▁awww": 4828,
      "▁other": 4829,
      "▁pick": 4830,
      "out": 4831,
      "▁aa": 4832,
      "▁depart": 4833,
      "▁grandchildren": 4834,
      "▁associ": 4835,
      "ont": 4836,
      "▁sket": 4837,
      "▁error": 4838,
      "▁horrible": 4839,
      "▁clerks": 4840,
      "▁hambur": 4841,
      "▁lingu": 4842,
      "'re": 4843,
      "▁coordinated": 4844,
      "lists": 4845,
      "▁arrange": 4846,
      "rael": 4847,
      "▁track": 4848,
      "▁versions": 4849,
      "▁revenge": 4850,
      "▁devoted": 4851,
      "▁topic": 4852,
      "▁departs": 4853,
      "▁vacc": 4854,
      "▁bran": 4855,
      "▁difference": 4856,
      "epted": 4857,
      "yroc": 4858,
      "idency": 4859,
      "????": 4860,
      "wash": 4861,
      "▁accept": 4862,
      "▁genes": 4863,
      "hed": 4864,
      "▁formula": 4865,
      "▁scored": 4866,
      "rich": 4867,
      "essional": 4868,
      "▁contemp": 4869,
      "▁marbles": 4870,
      "wor": 4871,
      "▁factor": 4872,
      "ls": 4873,
      "▁burning": 4874,
      "▁popup": 4875,
      "▁fyi": 4876,
      "▁co2": 4877,
      "ma": 4878,
      "abb": 4879,
      "ensions": 4880,
      "▁intensity": 4881,
      "▁traveled": 4882,
      "▁mature": 4883,
      "▁dropped": 4884,
      "▁read": 4885,
      "▁william": 4886,
      "▁warnings": 4887,
      "▁cit": 4888,
      "▁te": 4889,
      "▁barrier": 4890,
      "esses": 4891,
      "▁resident": 4892,
      "▁gave": 4893,
      "water": 4894,
      "▁woke": 4895,
      "phia": 4896,
      "appy": 4897,
      "▁india": 4898,
      "▁contact": 4899,
      "▁---------------------------------": 4900,
      "▁hiss": 4901,
      "zza": 4902,
      "hibited": 4903,
      "ightening": 4904,
      "▁collector": 4905,
      "▁pavement": 4906,
      "iently": 4907,
      "▁pride": 4908,
      "▁followers": 4909,
      "▁complaining": 4910,
      "yards": 4911,
      "▁supported": 4912,
      "▁attempted": 4913,
      "ulturation": 4914,
      ".0": 4915,
      "▁cameras": 4916,
      "▁disagre": 4917,
      "ible": 4918,
      "tige": 4919,
      "▁collec": 4920,
      "▁bice": 4921,
      "▁tricks": 4922,
      "▁catholic": 4923,
      "▁preserving": 4924,
      "nt": 4925,
      "hop": 4926,
      "(s)": 4927,
      "▁exercised": 4928,
      "▁office": 4929,
      ";": 4930,
      "craft": 4931,
      "ton": 4932,
      "▁leaf": 4933,
      "▁characteris": 4934,
      "group": 4935,
      "▁yog": 4936,
      "▁dna": 4937,
      "▁analyzed": 4938,
      "ume": 4939,
      "▁shrug": 4940,
      "point": 4941,
      "▁bug": 4942,
      "cept": 4943,
      "▁27": 4944,
      "▁spy": 4945,
      "▁pay": 4946,
      "▁product": 4947,
      "antiation": 4948,
      "▁ukraine": 4949,
      "cuz": 4950,
      "isd": 4951,
      "▁wax": 4952,
      "dose": 4953,
      "▁stages": 4954,
      "▁performance": 4955,
      "▁enters": 4956,
      "itude": 4957,
      "▁sci": 4958,
      "▁strive": 4959,
      "angling": 4960,
      "▁instit": 4961,
      "▁ld2d-#69366-1.doc": 4962,
      "▁participant": 4963,
      "▁tantrums": 4964,
      "oth": 4965,
      "▁dynam": 4966,
      "elty": 4967,
      "▁contractor": 4968,
      "▁climbed": 4969,
      "▁hotline": 4970,
      "▁dallas": 4971,
      "▁portrait": 4972,
      "▁rub": 4973,
      "tles": 4974,
      "rors": 4975,
      "▁scheme": 4976,
      "gan": 4977,
      "▁traveler": 4978,
      "▁madness": 4979,
      "▁abst": 4980,
      "▁ast": 4981,
      "▁privacy": 4982,
      "anny": 4983,
      "▁lime": 4984,
      "▁folds": 4985,
      "▁dignity": 4986,
      "▁leave": 4987,
      "▁deleted": 4988,
      "▁thi": 4989,
      "ments": 4990,
      "oices": 4991,
      "▁avenues": 4992,
      "writer": 4993,
      "▁python": 4994,
      "enity": 4995,
      "▁polic": 4996,
      "ecution": 4997,
      "▁archit": 4998,
      "▁disappointed": 4999,
      "▁ming": 5000,
      "▁accusing": 5001,
      "▁pressures": 5002,
      "esday": 5003,
      "▁dr": 5004,
      "▁plag": 5005,
      "▁shrie": 5006,
      "▁aggravated": 5007,
      "▁officers": 5008,
      "▁headquarters": 5009,
      "▁handkerchief": 5010,
      "▁crude": 5011,
      "ypically": 5012,
      "▁hugged": 5013,
      "▁april": 5014,
      "▁uhh": 5015,
      "▁couple": 5016,
      "▁overth": 5017,
      "pins": 5018,
      "ssibly": 5019,
      "▁smart": 5020,
      "▁instr": 5021,
      "thritis": 5022,
      "▁wants": 5023,
      "▁laws": 5024,
      "ondon": 5025,
      "▁happ": 5026,
      "▁old": 5027,
      "▁steve": 5028,
      "▁ground": 5029,
      "▁explode": 5030,
      "▁imprisoned": 5031,
      "▁chewed": 5032,
      "▁ambassad": 5033,
      "▁collaborate": 5034,
      "icide": 5035,
      "▁disgorgement": 5036,
      "▁med": 5037,
      "▁authorship": 5038,
      "▁crept": 5039,
      "are": 5040,
      "▁-----------------------------------------------------------------------": 5041,
      "sts": 5042,
      "ickened": 5043,
      "acks": 5044,
      "▁space": 5045,
      "▁portions": 5046,
      "•": 5047,
      "bish": 5048,
      "▁_____": 5049,
      "▁tric": 5050,
      "▁solve": 5051,
      "▁secure": 5052,
      "▁mule": 5053,
      "▁[...]": 5054,
      "▁profess": 5055,
      "▁paperwork": 5056,
      "▁crump": 5057,
      "▁circular": 5058,
      "▁merely": 5059,
      "▁yields": 5060,
      "▁expl": 5061,
      "asa": 5062,
      "▁luna": 5063,
      "onsumers": 5064,
      "▁hated": 5065,
      "iful": 5066,
      "iss": 5067,
      "▁damn": 5068,
      "▁histor": 5069,
      "ustr": 5070,
      "tsbur": 5071,
      "ences": 5072,
      "▁heights": 5073,
      "▁displacement": 5074,
      "▁env": 5075,
      "▁musicians": 5076,
      "▁3": 5077,
      "▁prin": 5078,
      "▁employees": 5079,
      "▁integration": 5080,
      "▁airplane": 5081,
      "▁preparing": 5082,
      "▁testim": 5083,
      "▁coin": 5084,
      "▁qualifications": 5085,
      "sters": 5086,
      "▁vial": 5087,
      "▁passport": 5088,
      "▁corridors": 5089,
      "▁establishment": 5090,
      "mpl": 5091,
      "▁stamp": 5092,
      "wardness": 5093,
      "▁exper": 5094,
      "▁twenties": 5095,
      "▁gord": 5096,
      "▁global": 5097,
      "▁cut": 5098,
      "▁films": 5099,
      "▁shr": 5100,
      "aliation": 5101,
      "▁resili": 5102,
      "links": 5103,
      "▁sched": 5104,
      "▁transp": 5105,
      "thing": 5106,
      "▁bach": 5107,
      "▁input": 5108,
      "▁hoping": 5109,
      "▁lu": 5110,
      "▁av": 5111,
      "▁misfortune": 5112,
      "==": 5113,
      "▁ackn": 5114,
      "▁altern": 5115,
      "7": 5116,
      "▁love": 5117,
      "▁updating": 5118,
      "ok": 5119,
      "▁bless": 5120,
      "▁justice": 5121,
      "eers": 5122,
      "▁footage": 5123,
      "▁reaff": 5124,
      "▁bro": 5125,
      "▁adh": 5126,
      "▁comp.sources.unix": 5127,
      "▁passion": 5128,
      "▁asthma": 5129,
      "fess": 5130,
      "icing": 5131,
      "▁pho": 5132,
      "anded": 5133,
      "▁chartered": 5134,
      "▁renewed": 5135,
      "se": 5136,
      "▁should": 5137,
      "▁correspondence": 5138,
      "▁spine": 5139,
      "▁38": 5140,
      "mals": 5141,
      "▁scrap": 5142,
      "▁agre": 5143,
      "tilation": 5144,
      "▁sorry": 5145,
      "▁stationed": 5146,
      "▁disconnec": 5147,
      "alling": 5148,
      "▁negotiated": 5149,
      "held": 5150,
      "▁videoc": 5151,
      "enex": 5152,
      "▁wond": 5153,
      "▁screws": 5154,
      "▁soaked": 5155,
      "▁owes": 5156,
      "▁friendship": 5157,
      "▁styrofoam": 5158,
      "▁oblig": 5159,
      "lin": 5160,
      "▁pipeline": 5161,
      "▁beak": 5162,
      "▁appeared": 5163,
      "▁stickerbirds": 5164,
      "▁degu": 5165,
      "adel": 5166,
      "▁thieves": 5167,
      "dotes": 5168,
      "ainly": 5169,
      "ding": 5170,
      "▁tip": 5171,
      "▁charles": 5172,
      "oom": 5173,
      "▁circumstances": 5174,
      "acting": 5175,
      "agle": 5176,
      "▁bother": 5177,
      "▁hurts": 5178,
      "▁binoc": 5179,
      "’t": 5180,
      "▁connections": 5181,
      "pos": 5182,
      "▁mathema": 5183,
      "▁justification": 5184,
      "utching": 5185,
      "▁ele": 5186,
      "irs": 5187,
      "▁orphan": 5188,
      "▁labour": 5189,
      "▁rain": 5190,
      "▁compos": 5191,
      "▁emperor": 5192,
      "▁recommended": 5193,
      "▁under": 5194,
      "iousness": 5195,
      "▁24": 5196,
      "qual": 5197,
      "7-1.doc": 5198,
      "▁lap": 5199,
      "▁woods": 5200,
      "▁plate": 5201,
      "▁scrape": 5202,
      "uate": 5203,
      "▁feeding": 5204,
      "▁accuses": 5205,
      "▁adults": 5206,
      "▁upgr": 5207,
      "▁exacerb": 5208,
      "etus": 5209,
      "▁pitch": 5210,
      "▁revis": 5211,
      "▁fing": 5212,
      "▁guerrillas": 5213,
      "▁does": 5214,
      "▁nationalities": 5215,
      "activity": 5216,
      "n": 5217,
      "▁injury": 5218,
      "▁dav": 5219,
      "imp": 5220,
      "ples": 5221,
      "▁will": 5222,
      "▁dusting": 5223,
      "▁{": 5224,
      "▁selected": 5225,
      "▁policing": 5226,
      "▁stress": 5227,
      "▁disappear": 5228,
      "▁reduces": 5229,
      "▁grain": 5230,
      "▁15th": 5231,
      "phone": 5232,
      "eeled": 5233,
      "▁expect": 5234,
      "▁gathering": 5235,
      "▁clubs": 5236,
      "▁fell": 5237,
      "▁improved": 5238,
      "▁glu": 5239,
      "ominated": 5240,
      "▁lawyers": 5241,
      "▁initial": 5242,
      "▁strainer": 5243,
      "fin": 5244,
      "▁remember": 5245,
      "▁protected": 5246,
      "▁limous": 5247,
      "▁hur": 5248,
      "uj": 5249,
      "▁midter": 5250,
      "▁eval": 5251,
      "▁savi": 5252,
      "ilos": 5253,
      "▁tracked": 5254,
      "▁revision": 5255,
      "▁left": 5256,
      "▁advisor": 5257,
      "▁promotion": 5258,
      "▁habitat": 5259,
      "eu": 5260,
      "▁ac": 5261,
      "▁flung": 5262,
      "▁celeb": 5263,
      "▁mushroom": 5264,
      "▁ste": 5265,
      "▁area": 5266,
      "rs": 5267,
      "▁variation": 5268,
      "▁vio": 5269,
      "▁rumor": 5270,
      "▁everyday": 5271,
      "ou": 5272,
      "▁morning": 5273,
      "▁crust": 5274,
      "▁transactions": 5275,
      "▁liability": 5276,
      "wise": 5277,
      "ody": 5278,
      "▁limestone": 5279,
      "oleum": 5280,
      "oon": 5281,
      "▁sighed": 5282,
      "▁conducted": 5283,
      "atures": 5284,
      "▁following": 5285,
      "▁eastern": 5286,
      "▁delhi": 5287,
      "nesses": 5288,
      "▁customize": 5289,
      "▁bounces": 5290,
      "▁reaching": 5291,
      "ins": 5292,
      "▁watch": 5293,
      "-in": 5294,
      "▁enem": 5295,
      "▁refunds": 5296,
      "und": 5297,
      "▁http": 5298,
      "▁starfighter": 5299,
      "▁journ": 5300,
      "▁before": 5301,
      "irt": 5302,
      "aning": 5303,
      "attle": 5304,
      "olis": 5305,
      "▁barn": 5306,
      "▁remarks": 5307,
      "▁pending": 5308,
      "▁lectures": 5309,
      "▁squirt": 5310,
      "▁faculty": 5311,
      "▁wailing": 5312,
      "▁pills": 5313,
      "▁paste": 5314,
      "▁dra": 5315,
      "▁feather": 5316,
      "▁excellence": 5317,
      "rowave": 5318,
      "cut": 5319,
      "▁wildlife": 5320,
      "▁fish": 5321,
      "▁reintroduced": 5322,
      "▁ballot": 5323,
      "wan": 5324,
      "▁flirt": 5325,
      "▁laborers": 5326,
      "▁witnessed": 5327,
      "▁ketchup": 5328,
      "▁playw": 5329,
      "▁persistence": 5330,
      "▁payments": 5331,
      "ov": 5332,
      "pres": 5333,
      "▁ins": 5334,
      "▁touch": 5335,
      "▁peel": 5336,
      "▁rewar": 5337,
      "▁murderer": 5338,
      "]": 5339,
      "▁assessing": 5340,
      "▁twelve": 5341,
      "▁looks": 5342,
      "▁parti": 5343,
      "▁detractors": 5344,
      "▁initiation": 5345,
      "▁pair": 5346,
      "▁sup": 5347,
      "▁evaluation": 5348,
      "▁cord": 5349,
      "▁symbol": 5350,
      "▁researchers": 5351,
      "tims": 5352,
      "▁neverth": 5353,
      "emark": 5354,
      "▁rescued": 5355,
      "????????????????????????????????": 5356,
      "▁pricing": 5357,
      "▁learned": 5358,
      "▁here": 5359,
      "▁seated": 5360,
      "▁june": 5361,
      "▁adaptation": 5362,
      "▁borrowed": 5363,
      "▁neighboring": 5364,
      "▁struggle": 5365,
      "▁intention": 5366,
      "▁taper": 5367,
      "▁unic": 5368,
      "▁portraits": 5369,
      "▁dived": 5370,
      "onent": 5371,
      "▁columbus": 5372,
      "▁focusing": 5373,
      "▁top": 5374,
      "enix": 5375,
      "▁pow": 5376,
      "▁relief": 5377,
      "$": 5378,
      "▁197": 5379,
      "▁offici": 5380,
      "inging": 5381,
      "▁support": 5382,
      "▁start": 5383,
      "▁sweetie": 5384,
      "▁expressed": 5385,
      ":1": 5386,
      "et": 5387,
      "▁submitted": 5388,
      "stop": 5389,
      "onge": 5390,
      "▁nightclubs": 5391,
      "▁requires": 5392,
      "▁scheduled": 5393,
      "▁census": 5394,
      "▁fest": 5395,
      "▁etc.": 5396,
      "wering": 5397,
      "▁intolerance": 5398,
      "▁phrases": 5399,
      "▁coach": 5400,
      "▁continues": 5401,
      "▁honesty": 5402,
      "▁partic": 5403,
      "tte": 5404,
      "▁contacted": 5405,
      "▁crime": 5406,
      "▁allow": 5407,
      "▁battling": 5408,
      "egration": 5409,
      "▁mayonna": 5410,
      "▁mobil": 5411,
      "▁tribes": 5412,
      "▁emissions": 5413,
      "▁fry": 5414,
      "▁barrel": 5415,
      "▁undermining": 5416,
      "▁gag": 5417,
      "▁interests": 5418,
      "enings": 5419,
      "amation": 5420,
      "▁implem": 5421,
      "v": 5422,
      "▁houses": 5423,
      "▁cart": 5424,
      "▁elk": 5425,
      "▁searches": 5426,
      "▁accomplished": 5427,
      "nec": 5428,
      "▁alternatives": 5429,
      "▁pile": 5430,
      "▁researching": 5431,
      "▁toast": 5432,
      "▁uses": 5433,
      "▁fighter": 5434,
      "▁disli": 5435,
      "▁marshmall": 5436,
      "▁solem": 5437,
      "▁staying": 5438,
      "[PAD]": 5439,
      "▁eczema": 5440,
      "▁83n": 5441,
      "mon": 5442,
      "▁arab": 5443,
      "onic": 5444,
      "dens": 5445,
      "▁yelling": 5446,
      "▁accumulation": 5447,
      "▁rides": 5448,
      "aping": 5449,
      "▁opening": 5450,
      "▁rome": 5451,
      "▁continuing": 5452,
      "▁lisa": 5453,
      "▁available": 5454,
      "▁robot": 5455,
      "▁aw": 5456,
      "▁hitting": 5457,
      "akistan": 5458,
      "▁nostrils": 5459,
      "▁photographs": 5460,
      "▁75": 5461,
      "▁1830s": 5462,
      "itis": 5463,
      "▁horsie": 5464,
      "▁citizens": 5465,
      "uten": 5466,
      "▁gtee": 5467,
      "▁congratulate": 5468,
      "▁persuaded": 5469,
      "reation": 5470,
      "▁carrot": 5471,
      "▁killer": 5472,
      "▁raced": 5473,
      "▁programs": 5474,
      "▁surpl": 5475,
      "▁travelers": 5476,
      "▁volunteers": 5477,
      "▁wiz": 5478,
      "▁tells": 5479,
      "uits": 5480,
      "▁fears": 5481,
      "▁francisco": 5482,
      "▁survived": 5483,
      "▁mute": 5484,
      "inews": 5485,
      "▁reviews": 5486,
      "▁stories": 5487,
      "aucr": 5488,
      "▁opinion": 5489,
      "ursed": 5490,
      "▁dirt": 5491,
      "▁persever": 5492,
      "ubs": 5493,
      "▁restricted": 5494,
      "▁adopting": 5495,
      "▁together": 5496,
      "ement": 5497,
      "▁pion": 5498,
      "▁validity": 5499,
      "will": 5500,
      "▁principle": 5501,
      "run": 5502,
      "▁syria": 5503,
      "▁upd": 5504,
      "▁malnutrition": 5505,
      "▁bunnies": 5506,
      "▁relying": 5507,
      "▁bead": 5508,
      "▁guardsmen": 5509,
      "▁establishments": 5510,
      "aser": 5511,
      "▁integr": 5512,
      "▁buds": 5513,
      "▁banknote": 5514,
      "▁club": 5515,
      "▁n-": 5516,
      "icated": 5517,
      "▁megawatt": 5518,
      "▁overr": 5519,
      "▁goose": 5520,
      "▁soldiers": 5521,
      "▁distingu": 5522,
      "enail": 5523,
      "mes": 5524,
      "▁20th": 5525,
      "▁friendliness": 5526,
      "-for": 5527,
      "▁kn": 5528,
      "▁see": 5529,
      "▁london": 5530,
      "▁salespeople": 5531,
      "▁shrim": 5532,
      "▁malls": 5533,
      "▁animation": 5534,
      "stream": 5535,
      "▁appliances": 5536,
      "tially": 5537,
      "▁picking": 5538,
      "▁conj": 5539,
      "▁re-elected": 5540,
      "▁look": 5541,
      "▁never": 5542,
      "▁funds": 5543,
      "▁investigated": 5544,
      "▁gripped": 5545,
      "▁acclaimed": 5546,
      "jects": 5547,
      "▁thousand": 5548,
      "▁erase": 5549,
      "▁standardisation": 5550,
      "▁ankles": 5551,
      "▁groom": 5552,
      "▁vali": 5553,
      "impl": 5554,
      "▁defendant": 5555,
      "enade": 5556,
      "oprop": 5557,
      "▁wildcard": 5558,
      "▁consequ": 5559,
      "▁beast": 5560,
      "▁breeding": 5561,
      "▁bushes": 5562,
      "▁spreadsheet": 5563,
      "▁13": 5564,
      "▁stup": 5565,
      "▁argued": 5566,
      "ant": 5567,
      "ils": 5568,
      "ration": 5569,
      "▁acquaint": 5570,
      "▁che": 5571,
      "▁pin": 5572,
      "▁broad": 5573,
      "▁considered": 5574,
      "boys": 5575,
      "uting": 5576,
      "▁governments": 5577,
      "▁potential": 5578,
      "▁trad": 5579,
      "▁days": 5580,
      "40s": 5581,
      "iry": 5582,
      "iliar": 5583,
      "▁traged": 5584,
      "▁dining": 5585,
      "▁contr": 5586,
      "▁as": 5587,
      "▁onions": 5588,
      "▁pointed": 5589,
      "▁tracks": 5590,
      "▁end": 5591,
      "▁technician": 5592,
      "bles": 5593,
      "etition": 5594,
      "93": 5595,
      "▁actions": 5596,
      "view": 5597,
      "pub": 5598,
      "&": 5599,
      "▁impossible": 5600,
      "▁filters": 5601,
      "▁deny": 5602,
      "ilization": 5603,
      "▁percentage": 5604,
      "enth": 5605,
      "▁conflic": 5606,
      "▁harmony": 5607,
      "bur": 5608,
      "▁dorm": 5609,
      "▁cat-fl": 5610,
      "erve": 5611,
      "▁trait": 5612,
      "ema": 5613,
      "▁terr": 5614,
      "▁aust": 5615,
      "ysical": 5616,
      "-w": 5617,
      "▁august": 5618,
      "▁hed": 5619,
      "▁em": 5620,
      "▁physics": 5621,
      "esy": 5622,
      "▁weap": 5623,
      "es": 5624,
      "▁ic": 5625,
      "▁sneak": 5626,
      "izz": 5627,
      "▁explained": 5628,
      "▁invol": 5629,
      "ientific": 5630,
      "▁assortment": 5631,
      "▁obst": 5632,
      "▁locomotive": 5633,
      "isure": 5634,
      "▁trucks": 5635,
      "aded": 5636,
      "elt": 5637,
      "▁train": 5638,
      "tainly": 5639,
      "▁dc": 5640,
      "v.": 5641,
      "▁indeed": 5642,
      "unds": 5643,
      "▁anno": 5644,
      "▁drowning": 5645,
      "▁immediately": 5646,
      "▁comparisons": 5647,
      "▁rim": 5648,
      "▁applying": 5649,
      "▁opera": 5650,
      "▁simplicity": 5651,
      "▁needles": 5652,
      "▁filmed": 5653,
      "▁loans": 5654,
      "▁go": 5655,
      "▁stated": 5656,
      "▁chip": 5657,
      "▁compounds": 5658,
      "▁goodness": 5659,
      "ith": 5660,
      "▁twi": 5661,
      "esty": 5662,
      "▁laundry": 5663,
      "#6": 5664,
      "▁-----------------------------------------------------------------": 5665,
      "▁poster": 5666,
      "▁gates": 5667,
      "▁bounded": 5668,
      "▁verge": 5669,
      "▁ri": 5670,
      "▁bath+room": 5671,
      "?": 5672,
      "▁danced": 5673,
      "▁hid": 5674,
      "ix": 5675,
      "▁hide": 5676,
      "orded": 5677,
      "▁rel": 5678,
      "▁spells": 5679,
      "▁beginner": 5680,
      "▁safe": 5681,
      "enoc": 5682,
      "▁morn": 5683,
      "ieve": 5684,
      "▁mother": 5685,
      "▁writings": 5686,
      "▁forecast": 5687,
      "orie": 5688,
      "▁surrounded": 5689,
      "▁attach": 5690,
      "▁kent": 5691,
      "▁neighbors": 5692,
      "▁count": 5693,
      "▁satisfy": 5694,
      "▁conserv": 5695,
      "▁correct": 5696,
      "▁customs": 5697,
      "▁hon": 5698,
      "▁traff": 5699,
      "▁kitten": 5700,
      "▁detention": 5701,
      "▁print": 5702,
      "▁delight": 5703,
      "▁**": 5704,
      "▁reforms": 5705,
      "▁scream": 5706,
      "▁possibility": 5707,
      "ares": 5708,
      "▁potato": 5709,
      "▁promising": 5710,
      "ipelag": 5711,
      "▁alignment": 5712,
      "▁encourage": 5713,
      "▁tasting": 5714,
      "…": 5715,
      "▁spir": 5716,
      "ugg": 5717,
      "▁breach": 5718,
      "loqu": 5719,
      "▁1999": 5720,
      "▁casual": 5721,
      "▁called": 5722,
      "▁asking": 5723,
      "▁departures": 5724,
      "ensus": 5725,
      "▁related": 5726,
      "▁terms": 5727,
      "▁unf": 5728,
      "▁several": 5729,
      "▁chairman": 5730,
      "▁town": 5731,
      "▁pupp": 5732,
      "▁taught": 5733,
      "▁cases": 5734,
      "▁hockey": 5735,
      "▁slides": 5736,
      "▁paint": 5737,
      "ipped": 5738,
      "▁journal": 5739,
      "get": 5740,
      "▁spaces": 5741,
      "▁compound": 5742,
      "▁bump": 5743,
      "identally": 5744,
      "edience": 5745,
      "▁sword": 5746,
      "macy": 5747,
      "aneously": 5748,
      "phology": 5749,
      "▁chains": 5750,
      "▁tri": 5751,
      "inks": 5752,
      "▁branch": 5753,
      "stair": 5754,
      "▁donkey": 5755,
      "▁perfection": 5756,
      "▁common": 5757,
      "▁sculp": 5758,
      "ocated": 5759,
      "yed": 5760,
      "▁accuracy": 5761,
      "▁cass": 5762,
      "ificant": 5763,
      "▁responded": 5764,
      "▁china": 5765,
      "▁ce": 5766,
      "#'s": 5767,
      "▁proportion": 5768,
      "▁denom": 5769,
      "wn": 5770,
      "30": 5771,
      "▁impl": 5772,
      "▁costumes": 5773,
      "▁#'s": 5774,
      "▁title": 5775,
      "▁stops": 5776,
      "▁games": 5777,
      "stered": 5778,
      "▁outf": 5779,
      "apes": 5780,
      "▁blaming": 5781,
      "▁spider": 5782,
      "▁marking": 5783,
      "▁burden": 5784,
      "▁varying": 5785,
      "▁places": 5786,
      "▁bachelor": 5787,
      "▁cas": 5788,
      "▁kiss": 5789,
      "▁ak": 5790,
      "rist": 5791,
      "▁difficult": 5792,
      "▁additional": 5793,
      "tiles": 5794,
      "▁incentives": 5795,
      "▁pp": 5796,
      "▁crowds": 5797,
      "▁dollars": 5798,
      "▁chores": 5799,
      "▁daycare": 5800,
      "▁y": 5801,
      "▁obl": 5802,
      "▁novella": 5803,
      "ico": 5804,
      "▁fired": 5805,
      "▁negotiation": 5806,
      "▁doctr": 5807,
      "▁negotiating": 5808,
      "▁recover": 5809,
      "▁bon": 5810,
      "entials": 5811,
      "▁wire": 5812,
      "▁addresses": 5813,
      "▁clutching": 5814,
      "▁brothers": 5815,
      "▁sugar": 5816,
      "▁subj": 5817,
      "▁wrestle": 5818,
      "▁forgiven": 5819,
      "▁earthqu": 5820,
      "▁summer": 5821,
      "!!!!!!!!": 5822,
      "▁evolving": 5823,
      "▁radi": 5824,
      "function": 5825,
      "istribution": 5826,
      "▁transferred": 5827,
      "▁free": 5828,
      "▁behind": 5829,
      "unic": 5830,
      "▁something": 5831,
      "▁ris": 5832,
      "l": 5833,
      "▁arguments": 5834,
      "▁fellows": 5835,
      "▁flav": 5836,
      "bbing": 5837,
      "▁advis": 5838,
      "▁highlighted": 5839,
      "▁headaches": 5840,
      "▁cartoon": 5841,
      "▁sick": 5842,
      "▁belie": 5843,
      "▁sharing": 5844,
      "▁compelled": 5845,
      "▁national": 5846,
      "▁mal": 5847,
      "▁ordered": 5848,
      "▁damage": 5849,
      "▁08": 5850,
      "ider": 5851,
      "▁blow": 5852,
      "▁courts": 5853,
      "_re": 5854,
      "ah": 5855,
      "▁characters": 5856,
      "▁reinforcing": 5857,
      "▁generate": 5858,
      "kets": 5859,
      "▁porch": 5860,
      "▁payroll": 5861,
      "▁picked": 5862,
      "▁casting": 5863,
      "▁room": 5864,
      "▁fishes": 5865,
      "▁alias": 5866,
      "▁steal": 5867,
      "▁intrud": 5868,
      "▁jean": 5869,
      "▁drow": 5870,
      "cedent": 5871,
      "▁disintegration": 5872,
      "▁sab": 5873,
      "▁thought": 5874,
      "▁worked": 5875,
      "▁cleaned": 5876,
      "▁licensed": 5877,
      "▁fundament": 5878,
      "▁dwar": 5879,
      "▁ticket": 5880,
      "lando": 5881,
      "▁swung": 5882,
      "▁regulated": 5883,
      "▁blind": 5884,
      "▁granddaughter": 5885,
      "▁witness": 5886,
      "ful": 5887,
      "-": 5888,
      "▁inability": 5889,
      "even": 5890,
      "▁dismissed": 5891,
      "▁indignation": 5892,
      "▁single": 5893,
      "▁vehicle": 5894,
      "▁reassure": 5895,
      "▁intrigu": 5896,
      "7.doc": 5897,
      "mac": 5898,
      "▁bared": 5899,
      "▁reference": 5900,
      "oes": 5901,
      "▁armed": 5902,
      "▁minerals": 5903,
      "▁popular": 5904,
      "▁dots": 5905,
      "▁merit": 5906,
      "▁girl": 5907,
      "▁manipulating": 5908,
      "▁bookstore": 5909,
      "+": 5910,
      "gged": 5911,
      "▁assert": 5912,
      "▁monday": 5913,
      "▁famous": 5914,
      "▁facilitating": 5915,
      "field": 5916,
      "▁chips": 5917,
      "▁registration": 5918,
      "cling": 5919,
      "▁schemas": 5920,
      "▁prot": 5921,
      "▁amer": 5922,
      "▁anc": 5923,
      "▁plug": 5924,
      "lish": 5925,
      "inus": 5926,
      "▁control": 5927,
      "gation": 5928,
      "▁ach": 5929,
      "▁myce": 5930,
      "iture": 5931,
      "▁educated": 5932,
      "▁accur": 5933,
      "▁discomfort": 5934,
      "▁lur": 5935,
      "▁oper": 5936,
      "▁interior": 5937,
      "▁chame": 5938,
      "▁gu": 5939,
      "▁kaoshikii": 5940,
      "▁enh": 5941,
      "▁spanking": 5942,
      "▁fri": 5943,
      "▁|": 5944,
      "▁conflicts": 5945,
      "▁wrapped": 5946,
      "*": 5947,
      ".co": 5948,
      "letes": 5949,
      "▁snapped": 5950,
      "▁booth": 5951,
      "gings": 5952,
      "▁mould": 5953,
      "▁sexual": 5954,
      "▁monarchy": 5955,
      "▁nud": 5956,
      "▁reaffirm": 5957,
      "▁fy0": 5958,
      "issors": 5959,
      "acket": 5960,
      "▁operation": 5961,
      "▁helicopter": 5962,
      "▁dall": 5963,
      "▁patron": 5964,
      "▁rati": 5965,
      "sical": 5966,
      "▁jets": 5967,
      "▁junk": 5968,
      "▁owned": 5969,
      "▁tires": 5970,
      "▁********": 5971,
      "fp": 5972,
      "▁enterprises": 5973,
      "▁pic": 5974,
      "▁wears": 5975,
      "ae": 5976,
      "–": 5977,
      "▁harp": 5978,
      "aper": 5979,
      "erry": 5980,
      "rived": 5981,
      "xal": 5982,
      "▁refl": 5983,
      "▁worsh": 5984,
      "night": 5985,
      "▁memor": 5986,
      "phab": 5987,
      "▁dispar": 5988,
      "▁torch": 5989,
      "▁utilize": 5990,
      "▁europeans": 5991,
      "-o": 5992,
      "▁mosque": 5993,
      "▁adding": 5994,
      "▁fisher": 5995,
      "▁mexican": 5996,
      "▁episode": 5997,
      "▁that": 5998,
      "▁numerous": 5999,
      "▁chic": 6000,
      "eared": 6001,
      "tag": 6002,
      "▁worshippers": 6003,
      "▁investing": 6004,
      "▁considerations": 6005,
      "▁submar": 6006,
      "▁fug": 6007,
      "▁deception": 6008,
      "▁cab": 6009,
      "▁strength": 6010,
      "▁fit": 6011,
      "▁tobac": 6012,
      "▁resolve": 6013,
      "▁girls": 6014,
      "▁snowboard": 6015,
      "▁teen": 6016,
      "▁experien": 6017,
      "faced": 6018,
      "olunte": 6019,
      "oner": 6020,
      "▁gl": 6021,
      "medi": 6022,
      "▁lack": 6023,
      "istry": 6024,
      "▁amidst": 6025,
      "▁som": 6026,
      "▁nyl": 6027,
      "osity": 6028,
      "▁joined": 6029,
      "▁machinery": 6030,
      "▁massage": 6031,
      "veland": 6032,
      "▁flights": 6033,
      "▁frost": 6034,
      "▁hardness": 6035,
      "ra": 6036,
      "▁chees": 6037,
      "▁commun": 6038,
      "▁reins": 6039,
      "eine": 6040,
      "enment": 6041,
      "alities": 6042,
      "▁–": 6043,
      "▁put": 6044,
      "▁proclaim": 6045,
      "▁quinoa": 6046,
      "▁disco": 6047,
      "²": 6048,
      "▁glamosh": 6049,
      "▁moth": 6050,
      "▁initiative": 6051,
      "▁page": 6052,
      "▁inher": 6053,
      "▁eliminated": 6054,
      "▁sou": 6055,
      "▁scores": 6056,
      "▁silkies": 6057,
      "ocol": 6058,
      "▁gotten": 6059,
      "ier": 6060,
      "▁transformed": 6061,
      "▁newsgroup": 6062,
      "▁publishing": 6063,
      "▁advantages": 6064,
      "tp": 6065,
      "▁destiny": 6066,
      "▁quarter": 6067,
      "▁proceedings": 6068,
      "dly": 6069,
      "▁prel": 6070,
      "▁refugee": 6071,
      "▁thoughts": 6072,
      "▁fled": 6073,
      "▁excluded": 6074,
      "▁null": 6075,
      "▁arts": 6076,
      "▁paddistocks": 6077,
      "▁invite": 6078,
      "▁adapt": 6079,
      "▁bees": 6080,
      "▁patrons": 6081,
      "▁conclusion": 6082,
      "▁archipelag": 6083,
      "▁fir": 6084,
      "▁place": 6085,
      "▁outcomes": 6086,
      "▁jwww": 6087,
      "▁artists": 6088,
      "▁lugg": 6089,
      "▁mitigated": 6090,
      "▁ego": 6091,
      "acing": 6092,
      "iliation": 6093,
      "anx": 6094,
      "▁hardly": 6095,
      "igh": 6096,
      "esame": 6097,
      "▁licens": 6098,
      "▁pounds": 6099,
      "▁facilitated": 6100,
      "▁non": 6101,
      "▁pollution": 6102,
      "▁weeds": 6103,
      "▁six": 6104,
      "▁site": 6105,
      "▁moham": 6106,
      "vening": 6107,
      "▁cir": 6108,
      "▁attem": 6109,
      "▁owls": 6110,
      "▁overt": 6111,
      "▁tighten": 6112,
      "oras": 6113,
      "▁tensions": 6114,
      "q": 6115,
      "▁thanks": 6116,
      "▁truly": 6117,
      "▁hesitate": 6118,
      "lift": 6119,
      ".n": 6120,
      "▁agreed": 6121,
      "▁geomet": 6122,
      "▁airlines": 6123,
      "▁exceed": 6124,
      "▁05": 6125,
      "▁deputy": 6126,
      "selve": 6127,
      "aked": 6128,
      "▁claws": 6129,
      "▁reasoned": 6130,
      "ct": 6131,
      "▁defence": 6132,
      "▁grinning": 6133,
      "39": 6134,
      "▁smuggling": 6135,
      "▁natural": 6136,
      "dle": 6137,
      "œ": 6138,
      "▁fungus": 6139,
      "▁consistency": 6140,
      "▁viewed": 6141,
      "▁hearing": 6142,
      "▁calm": 6143,
      "▁celebrated": 6144,
      "y0": 6145,
      "ran": 6146,
      "uted": 6147,
      "idered": 6148,
      "▁waterfalls": 6149,
      "▁sac": 6150,
      "ributing": 6151,
      "▁society": 6152,
      "▁mexico": 6153,
      "stall": 6154,
      "▁parts": 6155,
      "▁foo": 6156,
      "▁custom": 6157,
      "▁oxy": 6158,
      "▁compares": 6159,
      "▁blender": 6160,
      "▁dealt": 6161,
      "▁specializing": 6162,
      "-qu": 6163,
      "ogh": 6164,
      "▁ind": 6165,
      "[UNK]": 6166,
      "▁ladies": 6167,
      "▁extension": 6168,
      "▁anticipating": 6169,
      "▁tablespoon": 6170,
      "▁constantly": 6171,
      "mentation": 6172,
      "war": 6173,
      "▁finalizing": 6174,
      "▁currently": 6175,
      "▁tail": 6176,
      "▁entire": 6177,
      "▁direc": 6178,
      "▁encompass": 6179,
      "dity": 6180,
      "▁rulers": 6181,
      "▁grounded": 6182,
      "▁waited": 6183,
      "▁inventory": 6184,
      "▁denoted": 6185,
      "▁wed": 6186,
      "▁upon": 6187,
      "▁mimic": 6188,
      "▁bang": 6189,
      "▁produces": 6190,
      "▁quit": 6191,
      "▁reprinted": 6192,
      "oring": 6193,
      "▁sale": 6194,
      "ept": 6195,
      "▁outro": 6196,
      "▁jig": 6197,
      "▁ruled": 6198,
      "enger": 6199,
      "▁sounds": 6200,
      "▁event": 6201,
      "▁warfare": 6202,
      "▁tap": 6203,
      "▁feathers": 6204,
      "▁tooth": 6205,
      "▁receipt": 6206,
      "he": 6207,
      "ased": 6208,
      "▁talents": 6209,
      "▁campaigns": 6210,
      "▁palet": 6211,
      "▁defense": 6212,
      "▁snap": 6213,
      "▁gift": 6214,
      "olves": 6215,
      "im": 6216,
      "▁students": 6217,
      "▁sett": 6218,
      "▁judge": 6219,
      "▁included": 6220,
      "▁pronunciation": 6221,
      "▁gnomes": 6222,
      "▁sph": 6223,
      "▁hissed": 6224,
      "▁alb": 6225,
      "llified": 6226,
      "▁ingenuity": 6227,
      "eral": 6228,
      "▁aut": 6229,
      "▁respondents": 6230,
      "▁vulner": 6231,
      "▁compassion": 6232,
      "▁painted": 6233,
      "▁centi": 6234,
      "▁musician": 6235,
      "ł": 6236,
      "▁e-m": 6237,
      "▁lions": 6238,
      "▁reporting": 6239,
      "▁ahead": 6240,
      "▁directives": 6241,
      "▁grape": 6242,
      "▁d": 6243,
      "▁running": 6244,
      "▁annotated": 6245,
      "▁mud": 6246,
      "▁zeitgeist": 6247,
      "lands": 6248,
      "▁organizing": 6249,
      "▁repurp": 6250,
      "erable": 6251,
      "▁snitch": 6252,
      "▁grader": 6253,
      "obyl": 6254,
      "▁eyeb": 6255,
      "▁fountain": 6256,
      "▁hormone": 6257,
      "▁roles": 6258,
      "▁lag": 6259,
      "▁scanning": 6260,
      "▁enchil": 6261,
      "▁drawstring": 6262,
      "wife": 6263,
      "▁effective": 6264,
      "▁motorc": 6265,
      "▁drying": 6266,
      "▁thanking": 6267,
      "▁cris": 6268,
      "▁diver": 6269,
      "ilt": 6270,
      "▁ger": 6271,
      "▁prov": 6272,
      "▁consequence": 6273,
      "▁….": 6274,
      "▁lott": 6275,
      "▁proceeds": 6276,
      "▁understands": 6277,
      "▁ree": 6278,
      "▁female": 6279,
      "anoma": 6280,
      "huh": 6281,
      "▁dy": 6282,
      "rums": 6283,
      "▁dome": 6284,
      "-c": 6285,
      "alk": 6286,
      "kind": 6287,
      "▁levels": 6288,
      "▁deer": 6289,
      "▁lightning": 6290,
      "▁range": 6291,
      "atten": 6292,
      "fares": 6293,
      "ogel": 6294,
      "aud": 6295,
      "▁chief": 6296,
      "▁skitt": 6297,
      "arking": 6298,
      "ighter": 6299,
      "▁neglected": 6300,
      "▁creature": 6301,
      "▁labor": 6302,
      "▁broker": 6303,
      "▁moisture": 6304,
      "▁paws": 6305,
      "▁permits": 6306,
      "▁productivity": 6307,
      "▁throu": 6308,
      "▁peanuts": 6309,
      "▁connectionfile": 6310,
      "▁secon": 6311,
      "lev": 6312,
      "ning": 6313,
      "▁chair": 6314,
      "eds": 6315,
      "▁constituency": 6316,
      "▁bit": 6317,
      "▁disciplines": 6318,
      "▁meth": 6319,
      "▁buy": 6320,
      "▁risk": 6321,
      "▁intercepted": 6322,
      "▁nope": 6323,
      "▁tubes": 6324,
      "▁": 6325,
      "▁beneath": 6326,
      "▁demonstrates": 6327,
      "▁insul": 6328,
      "▁corner": 6329,
      "▁prere": 6330,
      "▁bull": 6331,
      "▁....": 6332,
      "▁compli": 6333,
      "ɛ": 6334,
      "▁compensate": 6335,
      "wrec": 6336,
      "▁saved": 6337,
      "▁fluid": 6338,
      "10": 6339,
      "▁---------------------------------------------------------------------------": 6340,
      "▁acquisition": 6341,
      "▁truths": 6342,
      "▁securing": 6343,
      "▁implied": 6344,
      "za": 6345,
      "▁stroller": 6346,
      "▁colon": 6347,
      "▁connec": 6348,
      "▁choices": 6349,
      "esity": 6350,
      "anne": 6351,
      "erv": 6352,
      "goti": 6353,
      "▁realise": 6354,
      "▁ess": 6355,
      "ufact": 6356,
      "▁knight": 6357,
      "▁forever": 6358,
      "▁biod": 6359,
      "▁balcony": 6360,
      "overed": 6361,
      "▁prob": 6362,
      "▁alas": 6363,
      "▁sees": 6364,
      "▁sque": 6365,
      "▁servings": 6366,
      "inary": 6367,
      "ʻ": 6368,
      "igned": 6369,
      "▁baltimore": 6370,
      "▁th": 6371,
      "▁playwright": 6372,
      "▁popcorn": 6373,
      "an": 6374,
      "ami": 6375,
      "▁corners": 6376,
      "▁bells": 6377,
      "ures": 6378,
      "▁nasa": 6379,
      "▁mil": 6380,
      "▁attorn": 6381,
      "▁boyfriend": 6382,
      ".ve": 6383,
      "eys": 6384,
      "▁soli": 6385,
      "▁moaned": 6386,
      "▁mainly": 6387,
      "▁founding": 6388,
      "▁conspir": 6389,
      "▁technique": 6390,
      "flies": 6391,
      "▁koala": 6392,
      "▁repe": 6393,
      "▁prototype": 6394,
      "▁term": 6395,
      "▁extent": 6396,
      "raged": 6397,
      "▁hh": 6398,
      "▁colonel": 6399,
      "eric": 6400,
      "rif": 6401,
      "▁curtain": 6402,
      "▁propose": 6403,
      "▁phone": 6404,
      "▁musharraf": 6405,
      "▁symph": 6406,
      "rite": 6407,
      "utionary": 6408,
      "▁vanished": 6409,
      "▁certificate": 6410,
      "ois": 6411,
      "▁moonlight": 6412,
      "▁exception": 6413,
      "▁interviews": 6414,
      "ias": 6415,
      "ort": 6416,
      "▁rec": 6417,
      "eriously": 6418,
      "▁starts": 6419,
      "▁phys": 6420,
      "▁p.m.": 6421,
      "▁it's": 6422,
      "▁multiply": 6423,
      "▁sm": 6424,
      "▁disclaim": 6425,
      "▁fal": 6426,
      "▁pulls": 6427,
      "▁electric": 6428,
      "▁screwdriver": 6429,
      "▁pursued": 6430,
      "▁approximately": 6431,
      "ifies": 6432,
      "▁asserted": 6433,
      "▁youth": 6434,
      "▁.........": 6435,
      "derst": 6436,
      "▁school": 6437,
      "▁restaurant": 6438,
      "iety": 6439,
      "▁chocolate": 6440,
      "▁bleachers": 6441,
      "▁calculations": 6442,
      "▁scam": 6443,
      "alls": 6444,
      "▁bay": 6445,
      "▁panorama": 6446,
      "▁bite": 6447,
      "▁ecosystems": 6448,
      "▁stood": 6449,
      "▁trump": 6450,
      "▁candidates": 6451,
      "▁manufactured": 6452,
      "▁domest": 6453,
      "/1": 6454,
      "▁prey": 6455,
      "▁tatt": 6456,
      "-pos": 6457,
      "▁playwrights": 6458,
      "▁bill": 6459,
      "▁infinity": 6460,
      "▁transmitted": 6461,
      "ird": 6462,
      "▁join": 6463,
      "aster": 6464,
      "nst": 6465,
      "igration": 6466,
      "▁cos": 6467,
      "▁sleeves": 6468,
      "rition": 6469,
      "▁8": 6470,
      "▁mare": 6471,
      "agers": 6472,
      "▁devised": 6473,
      "▁shovel": 6474,
      "▁designed": 6475,
      "di": 6476,
      "▁lean": 6477,
      "▁processing": 6478,
      "▁beverage": 6479,
      "▁colours": 6480,
      "▁damp": 6481,
      "▁pregnancy": 6482,
      "▁packs": 6483,
      "▁blizzard": 6484,
      "▁masts": 6485,
      "asses": 6486,
      "mall": 6487,
      "▁suspected": 6488,
      "▁dotted": 6489,
      "▁lighted": 6490,
      "▁destruction": 6491,
      "▁eco": 6492,
      "▁designer": 6493,
      "osm": 6494,
      "asing": 6495,
      "▁power": 6496,
      "▁hel": 6497,
      "ght": 6498,
      "▁note": 6499,
      "▁rot": 6500,
      "▁discon": 6501,
      "waukee": 6502,
      "▁gravity": 6503,
      "rie": 6504,
      "▁hams": 6505,
      "▁being": 6506,
      "▁availability": 6507,
      "▁injection": 6508,
      "▁freely": 6509,
      "▁imported": 6510,
      "▁mul": 6511,
      "▁sod": 6512,
      "▁transfer": 6513,
      "▁transaction": 6514,
      "▁uprising": 6515,
      "▁**********": 6516,
      "tings": 6517,
      "▁accelerated": 6518,
      "lite": 6519,
      "▁ornament": 6520,
      "▁engineers": 6521,
      "▁jeff": 6522,
      "▁managing": 6523,
      "▁nec": 6524,
      "▁they": 6525,
      "aroo": 6526,
      "▁articles": 6527,
      "▁buttered": 6528,
      "▁dust": 6529,
      "ersion": 6530,
      "ainted": 6531,
      "vily": 6532,
      "agr": 6533,
      "▁symbolism": 6534,
      "▁elder": 6535,
      "▁reverence": 6536,
      "▁eyes": 6537,
      "▁reven": 6538,
      "▁volley": 6539,
      "ove": 6540,
      "▁ail": 6541,
      "▁mer": 6542,
      "tal": 6543,
      "umulation": 6544,
      "▁remembered": 6545,
      "▁deed": 6546,
      "▁unique": 6547,
      "▁pakistan": 6548,
      "▁figures": 6549,
      "▁islets": 6550,
      "▁satel": 6551,
      "▁motive": 6552,
      "▁concert": 6553,
      "▁mask": 6554,
      "▁frosting": 6555,
      "▁constitute": 6556,
      "▁eight": 6557,
      "▁2004": 6558,
      "▁muscles": 6559,
      "▁columns": 6560,
      "▁engagement": 6561,
      "▁hind": 6562,
      "▁stabilization": 6563,
      "▁tools": 6564,
      "▁intervention": 6565,
      "▁worker": 6566,
      "onference": 6567,
      "▁anth": 6568,
      "▁vlog": 6569,
      "▁dove": 6570,
      "mping": 6571,
      "▁underm": 6572,
      "▁telephones": 6573,
      "▁tire": 6574,
      "▁four": 6575,
      "▁att": 6576,
      "▁drift": 6577,
      "▁ending": 6578,
      "▁lif": 6579,
      "urn": 6580,
      "▁craving": 6581,
      "▁wiring": 6582,
      "▁waterways": 6583,
      "▁appearance": 6584,
      "▁sauc": 6585,
      "▁kar": 6586,
      "▁aims": 6587,
      "▁angel": 6588,
      "▁80": 6589,
      "▁advoc": 6590,
      "▁governor": 6591,
      "▁cooker": 6592,
      "zations": 6593,
      "▁yiddish": 6594,
      "▁bird": 6595,
      "ging": 6596,
      "▁industrialist": 6597,
      "▁!!": 6598,
      "▁widely": 6599,
      "▁flower": 6600,
      "▁whales": 6601,
      "▁divisions": 6602,
      "▁angels": 6603,
      "▁attracting": 6604,
      "▁ld2d-#69345": 6605,
      "▁disenfranch": 6606,
      "[SEP]": 6607,
      "▁bright": 6608,
      "▁fore": 6609,
      "▁themes": 6610,
      "▁banking": 6611,
      "▁reviewed": 6612,
      "▁missed": 6613,
      "▁library": 6614,
      "▁fastened": 6615,
      "▁hr": 6616,
      "▁enfor": 6617,
      "▁caught": 6618,
      "onally": 6619,
      "▁exa": 6620,
      "omer": 6621,
      "icked": 6622,
      "▁gloom": 6623,
      "▁41": 6624,
      "▁france": 6625,
      "ando": 6626,
      "▁nickname": 6627,
      "▁cried": 6628,
      "▁withdrawing": 6629,
      "▁electricity": 6630,
      "▁slip": 6631,
      "▁continuation": 6632,
      "▁dursleys": 6633,
      "pes": 6634,
      "▁mant": 6635,
      "▁caf": 6636,
      "▁eyebrows": 6637,
      "ucking": 6638,
      "▁sst": 6639,
      "▁mis": 6640,
      "▁header": 6641,
      "▁bew": 6642,
      "▁podc": 6643,
      "▁hype": 6644,
      "ut": 6645,
      "lation": 6646,
      "▁leg": 6647,
      "▁----==": 6648,
      "▁disper": 6649,
      "▁whispered": 6650,
      "▁mat": 6651,
      "rupt": 6652,
      "▁bureaucracy": 6653,
      "icult": 6654,
      "▁aqu": 6655,
      "▁cans": 6656,
      "▁posters": 6657,
      "▁killers": 6658,
      "ucker": 6659,
      "▁prim": 6660,
      "▁yr": 6661,
      "▁musical": 6662,
      "▁museums": 6663,
      "▁en": 6664,
      "▁manif": 6665,
      "▁heavy": 6666,
      "▁laptop": 6667,
      "▁jokes": 6668,
      "▁bounce": 6669,
      "▁nail": 6670,
      "▁establishing": 6671,
      "ither": 6672,
      "▁blown": 6673,
      "▁masterpieces": 6674,
      "▁hacking": 6675,
      "▁resour": 6676,
      "titudes": 6677,
      "▁sheds": 6678,
      "▁mac": 6679,
      "▁impress": 6680,
      "▁house": 6681,
      "▁compensation": 6682,
      "▁choke": 6683,
      "▁mo": 6684,
      "si": 6685,
      "▁photographers": 6686,
      "▁exiled": 6687,
      "3i": 6688,
      "▁compromise": 6689,
      "'clock": 6690,
      "▁vietnam": 6691,
      "▁ammunition": 6692,
      "roll": 6693,
      "ame": 6694,
      "▁panted": 6695,
      "▁touching": 6696,
      "▁nip": 6697,
      "-b": 6698,
      "lities": 6699,
      "▁ob": 6700,
      "▁import": 6701,
      "▁drive": 6702,
      "▁boasts": 6703,
      "most": 6704,
      "▁staircase": 6705,
      "90s": 6706,
      "otive": 6707,
      "down": 6708,
      "▁british": 6709,
      "iversity": 6710,
      "▁labelled": 6711,
      "▁teh": 6712,
      "▁charity": 6713,
      "▁aversion": 6714,
      "ects": 6715,
      "▁ki": 6716,
      "▁bench": 6717,
      "awed": 6718,
      "▁gigg": 6719,
      "lut": 6720,
      "▁terrorists": 6721,
      "▁markers": 6722,
      "▁strings": 6723,
      "▁mired": 6724,
      "▁promp": 6725,
      "▁prospect": 6726,
      "▁kitchen": 6727,
      "▁cann": 6728,
      "▁conditioning": 6729,
      "iked": 6730,
      "▁karma": 6731,
      "▁hen": 6732,
      "zes": 6733,
      "gins": 6734,
      "▁wikis": 6735,
      "▁mmbt": 6736,
      "▁across": 6737,
      "▁edit": 6738,
      "▁remains": 6739,
      "▁flaw": 6740,
      "▁llms": 6741,
      "▁muttered": 6742,
      "owers": 6743,
      "▁mpg": 6744,
      "▁donkeys": 6745,
      "▁making": 6746,
      "ankie": 6747,
      "▁infrastructure": 6748,
      "crib": 6749,
      "▁rivers": 6750,
      "▁sweeping": 6751,
      "▁uphold": 6752,
      "▁clair": 6753,
      "▁maw": 6754,
      "ternoon": 6755,
      "ator": 6756,
      "▁zip": 6757,
      "isons": 6758,
      "▁wagon": 6759,
      "▁rough": 6760,
      "ister": 6761,
      "▁workmanship": 6762,
      "▁opened": 6763,
      "mpath": 6764,
      "fic": 6765,
      "▁premises": 6766,
      "▁downtown": 6767,
      "▁valuing": 6768,
      "▁earth": 6769,
      "▁dialogue": 6770,
      "▁fin": 6771,
      "▁artich": 6772,
      "ghetti": 6773,
      "▁orchest": 6774,
      "▁districts": 6775,
      "▁distraction": 6776,
      "▁entry": 6777,
      "▁crew": 6778,
      "▁uneas": 6779,
      "▁integrated": 6780,
      "▁pleasant": 6781,
      "▁controlling": 6782,
      "position": 6783,
      "▁cele": 6784,
      "rating": 6785,
      "▁memphis": 6786,
      "▁figured": 6787,
      "inery": 6788,
      "▁aband": 6789,
      "▁awaiting": 6790,
      "▁jam": 6791,
      "▁used": 6792,
      "▁license": 6793,
      "▁veto": 6794,
      "▁aer": 6795,
      "▁folding": 6796,
      "▁lump": 6797,
      "▁limitations": 6798,
      "▁examples": 6799,
      "▁insight": 6800,
      "▁gut": 6801,
      "▁streamed": 6802,
      "erb": 6803,
      "▁purchased": 6804,
      "▁optim": 6805,
      "▁contexts": 6806,
      "▁distances": 6807,
      "em": 6808,
      "▁potatoes": 6809,
      "▁disorders": 6810,
      "▁nobility": 6811,
      "cillas": 6812,
      "▁ped": 6813,
      "aged": 6814,
      "▁guards": 6815,
      "▁tofu": 6816,
      "cp": 6817,
      "▁30": 6818,
      "▁advancement": 6819,
      "▁science": 6820,
      "▁sniffed": 6821,
      "▁cavity": 6822,
      "▁weekdays": 6823,
      "▁auster": 6824,
      "▁hab": 6825,
      "▁hoc": 6826,
      "▁coupon": 6827,
      "▁incapac": 6828,
      "▁financ": 6829,
      "▁wel": 6830,
      "▁travel": 6831,
      "▁counterfeiting": 6832,
      "▁laughs": 6833,
      "▁cashout": 6834,
      "gency": 6835,
      "rise": 6836,
      "▁created": 6837,
      "▁alligator": 6838,
      "▁screamed": 6839,
      "▁fame": 6840,
      "▁oli": 6841,
      "▁acknowledge": 6842,
      "uses": 6843,
      "▁discl": 6844,
      "▁calling": 6845,
      "▁enculturation": 6846,
      "▁ammon": 6847,
      "▁soils": 6848,
      "▁select": 6849,
      "▁pail": 6850,
      "▁throughout": 6851,
      "iates": 6852,
      "▁lon": 6853,
      "▁pudding": 6854,
      "6-1.doc": 6855,
      "under": 6856,
      "▁her": 6857,
      "▁run": 6858,
      "▁stick": 6859,
      "gate": 6860,
      "▁challen": 6861,
      "▁***": 6862,
      "▁switched": 6863,
      "▁eh": 6864,
      "▁sink": 6865,
      "▁document": 6866,
      "▁attending": 6867,
      "▁dung": 6868,
      "▁exchanged": 6869,
      "▁baker": 6870,
      "▁remembers": 6871,
      "▁disgor": 6872,
      "yan": 6873,
      "earch": 6874,
      "▁subs": 6875,
      "▁plastic": 6876,
      "pse": 6877,
      "▁decrease": 6878,
      "▁advert": 6879,
      "▁zombie": 6880,
      "▁timed": 6881,
      "pit": 6882,
      "list": 6883,
      "▁migrants": 6884,
      "▁aboard": 6885,
      "▁gentleman": 6886,
      "▁life": 6887,
      "▁enterprise": 6888,
      "-boat": 6889,
      "▁origins": 6890,
      "▁referred": 6891,
      "▁verse": 6892,
      "▁abbreviation": 6893,
      "▁peeing": 6894,
      "▁depicts": 6895,
      "▁procedures": 6896,
      "▁worse": 6897,
      "▁praised": 6898,
      "ulse": 6899,
      "▁nonsense": 6900,
      "▁sister": 6901,
      "▁squashed": 6902,
      "▁queue": 6903,
      "orities": 6904,
      "-en": 6905,
      "▁ding": 6906,
      "▁shine": 6907,
      "▁discre": 6908,
      "book": 6909,
      "▁provides": 6910,
      "▁spos": 6911,
      "▁pud": 6912,
      "/he": 6913,
      "▁answer": 6914,
      "▁internet": 6915,
      "▁abolished": 6916,
      "▁with": 6917,
      "▁surrender": 6918,
      "▁pestic": 6919,
      "edings": 6920,
      "▁offer": 6921,
      "rab": 6922,
      "▁staff": 6923,
      "▁describes": 6924,
      "▁testified": 6925,
      "▁hole": 6926,
      "la": 6927,
      "▁compared": 6928,
      "ely": 6929,
      "▁benefit": 6930,
      "oma": 6931,
      "▁checking": 6932,
      "onut": 6933,
      "▁uk": 6934,
      "▁funded": 6935,
      "tered": 6936,
      "▁pu": 6937,
      "▁grilled": 6938,
      "▁independ": 6939,
      "▁wanted": 6940,
      "▁obs": 6941,
      "▁tand": 6942,
      "maid": 6943,
      "▁ought": 6944,
      "▁trailer": 6945,
      "▁landscape": 6946,
      "▁consi": 6947,
      "pily": 6948,
      "▁manuscri": 6949,
      "rift": 6950,
      "▁thom": 6951,
      "▁planted": 6952,
      "uz": 6953,
      "▁flakes": 6954,
      "▁plot": 6955,
      "▁lop": 6956,
      "▁lungs": 6957,
      "▁dentist": 6958,
      "▁businessman": 6959,
      "▁mow": 6960,
      "▁whale": 6961,
      "pol": 6962,
      "▁liking": 6963,
      "▁det": 6964,
      "▁drove": 6965,
      "▁qua": 6966,
      "▁hate": 6967,
      "▁ashes": 6968,
      "▁matter": 6969,
      "▁bou": 6970,
      "▁habits": 6971,
      "▁bucks": 6972,
      "▁cherries": 6973,
      "▁cashier": 6974,
      "▁dire": 6975,
      "▁50": 6976,
      "▁continental": 6977,
      "▁motel": 6978,
      "j": 6979,
      "▁sandwiches": 6980,
      "▁so": 6981,
      "afe": 6982,
      "▁hards": 6983,
      "▁equals": 6984,
      "▁reasons": 6985,
      "gence": 6986,
      "▁diesel": 6987,
      "▁post": 6988,
      "▁investigation": 6989,
      "▁cat": 6990,
      "▁afraid": 6991,
      "ulator": 6992,
      "icke": 6993,
      "cence": 6994,
      "▁slave": 6995,
      "▁tug": 6996,
      "▁conform": 6997,
      "▁bulldozer": 6998,
      "▁sunday": 6999,
      "ic": 7000,
      "ium": 7001,
      "▁fresh": 7002,
      "▁strategy": 7003,
      "▁subst": 7004,
      "▁head": 7005,
      "▁descended": 7006,
      "▁cubism": 7007,
      "▁try": 7008,
      "▁pasta": 7009,
      "▁weaponize": 7010,
      "iation": 7011,
      "▁ons": 7012,
      "▁reserv": 7013,
      "▁trustee": 7014,
      "▁embedded": 7015,
      "▁fashion": 7016,
      "▁accepting": 7017,
      "▁flattered": 7018,
      "▁declaration": 7019,
      "ounces": 7020,
      "▁hostess": 7021,
      "▁tru": 7022,
      "▁impro": 7023,
      "▁autof": 7024,
      "amping": 7025,
      "▁agent": 7026,
      "▁colleagues": 7027,
      "▁savings": 7028,
      "umped": 7029,
      "▁surp": 7030,
      ".htm": 7031,
      "▁rental": 7032,
      "▁implicated": 7033,
      "▁floated": 7034,
      "row": 7035,
      "▁subjected": 7036,
      "oughly": 7037,
      "▁$": 7038,
      "▁tam": 7039,
      "▁carpenter": 7040,
      "▁declar": 7041,
      "▁define": 7042,
      "▁curry": 7043,
      "work": 7044,
      "▁bib": 7045,
      "▁dollar": 7046,
      "▁reaches": 7047,
      "cha": 7048,
      "oft": 7049,
      "▁ascending": 7050,
      "▁group": 7051,
      "▁charl": 7052,
      "▁terrorism": 7053,
      "22": 7054,
      "ø": 7055,
      "ounded": 7056,
      "▁ath": 7057,
      "alg": 7058,
      "▁incre": 7059,
      "▁hym": 7060,
      "hiki": 7061,
      "▁front": 7062,
      "▁civet": 7063,
      "▁inherited": 7064,
      "▁mosqu": 7065,
      "▁rapidly": 7066,
      "▁strateg": 7067,
      "▁signals": 7068,
      "▁window": 7069,
      "▁why": 7070,
      "▁ali": 7071,
      "▁councill": 7072,
      "▁boiler": 7073,
      "▁jenn": 7074,
      "▁legislature": 7075,
      "▁specifications": 7076,
      "oph": 7077,
      "▁rains": 7078,
      "▁renting": 7079,
      "▁donated": 7080,
      "▁models": 7081,
      "▁salvation": 7082,
      "▁workout": 7083,
      "ependency": 7084,
      "▁x3-98": 7085,
      "orist": 7086,
      "▁neoc": 7087,
      "▁intellectuals": 7088,
      "sides": 7089,
      "▁one": 7090,
      "ini": 7091,
      "▁toll": 7092,
      "▁masterpi": 7093,
      "▁missing": 7094,
      "sp": 7095,
      "▁america": 7096,
      "▁provider": 7097,
      "▁paragraph": 7098,
      "▁row": 7099,
      "▁protesting": 7100,
      "▁radiation": 7101,
      "▁training": 7102,
      "▁brings": 7103,
      "ectiveness": 7104,
      "adder": 7105,
      "asel": 7106,
      "▁initiatives": 7107,
      "tures": 7108,
      "▁online": 7109,
      "▁admissions": 7110,
      "▁converting": 7111,
      "▁whistle": 7112,
      "▁veget": 7113,
      "▁muscle": 7114,
      ":3": 7115,
      "▁suite": 7116,
      "▁accountant": 7117,
      "▁extr": 7118,
      "▁passing": 7119,
      "▁enti": 7120,
      "alizing": 7121,
      "▁logo": 7122,
      "ppled": 7123,
      "▁notch": 7124,
      "▁oatmeal": 7125,
      "▁hook": 7126,
      "ocrats": 7127,
      "▁alth": 7128,
      "▁tum": 7129,
      "cl": 7130,
      "▁obligations": 7131,
      "▁l": 7132,
      "▁astride": 7133,
      "▁privile": 7134,
      "▁news": 7135,
      "▁swept": 7136,
      "▁golden": 7137,
      "▁transcri": 7138,
      "▁planets": 7139,
      "▁garbage": 7140,
      "▁proceeding": 7141,
      "▁pamp": 7142,
      "▁kidding": 7143,
      "▁motorcycle": 7144,
      "▁waf": 7145,
      "▁original": 7146,
      "▁indicated": 7147,
      "▁flags": 7148,
      "tingu": 7149,
      "▁nodes": 7150,
      "▁insurgency": 7151,
      "mar": 7152,
      "▁total": 7153,
      "▁wrinkles": 7154,
      "ackets": 7155,
      "▁trademark": 7156,
      "-l": 7157,
      "▁buses": 7158,
      "erving": 7159,
      "▁billion": 7160,
      "▁eating": 7161,
      "▁written": 7162,
      "itive": 7163,
      "▁ocean": 7164,
      "▁ted": 7165,
      "▁internship": 7166,
      "▁meat": 7167,
      "▁exposure": 7168,
      "prisingly": 7169,
      "▁writers": 7170,
      "▁clumps": 7171,
      "▁rising": 7172,
      "▁burned": 7173,
      "▁reserve": 7174,
      "austed": 7175,
      "inence": 7176,
      "▁sang": 7177,
      "▁intake": 7178,
      "▁americ": 7179,
      "▁archive": 7180,
      "rest": 7181,
      "aissance": 7182,
      "orkers": 7183,
      "▁triv": 7184,
      "▁associate": 7185,
      "▁tall": 7186,
      "▁skipping": 7187,
      "▁amounts": 7188,
      "▁contributes": 7189,
      "ces": 7190,
      "gance": 7191,
      "▁illness": 7192,
      "ology": 7193,
      "anistan": 7194,
      "▁enrolled": 7195,
      "▁manual": 7196,
      "▁tunnels": 7197,
      "▁biologist": 7198,
      "▁provision": 7199,
      "▁battle": 7200,
      "board": 7201,
      "▁sam": 7202,
      "atry": 7203,
      "unc": 7204,
      "▁timer": 7205,
      "ug": 7206,
      "▁tant": 7207,
      "orated": 7208,
      "tted": 7209,
      "aic": 7210,
      "▁radio": 7211,
      "▁artic": 7212,
      "▁corporations": 7213,
      "▁males": 7214,
      "eteria": 7215,
      "▁parachute": 7216,
      "bie": 7217,
      "▁sonnets": 7218,
      "unciation": 7219,
      "itz": 7220,
      "▁crane": 7221,
      "terness": 7222,
      "▁beaver": 7223,
      "▁nano": 7224,
      "▁agony": 7225,
      "▁woman": 7226,
      "▁struggling": 7227,
      "mas": 7228,
      "▁hanging": 7229,
      "ortly": 7230,
      "▁waive": 7231,
      "▁vision": 7232,
      "▁ske": 7233,
      "▁tacoma": 7234,
      "▁belt": 7235,
      "mally": 7236,
      "▁thous": 7237,
      "▁becoming": 7238,
      "▁qaeda": 7239,
      "▁hor": 7240,
      "▁envelopes": 7241,
      "gets": 7242,
      "ones": 7243,
      "▁pedic": 7244,
      "▁scale": 7245,
      "▁chasers": 7246,
      "▁tried": 7247,
      "▁dial": 7248,
      "▁separating": 7249,
      "▁bri": 7250,
      "▁farming": 7251,
      "..": 7252,
      "▁sting": 7253,
      "▁assets": 7254,
      "▁tragedies": 7255,
      "raved": 7256,
      "▁st.": 7257,
      "▁reads": 7258,
      "▁approxim": 7259,
      "▁removed": 7260,
      "ether": 7261,
      "ulating": 7262,
      "reds": 7263,
      "▁prestige": 7264,
      "▁vets": 7265,
      "▁pushing": 7266,
      "aints": 7267,
      "▁arri": 7268,
      "pped": 7269,
      "pd": 7270,
      "▁plunged": 7271,
      "▁die": 7272,
      ".uk": 7273,
      "▁))": 7274,
      "▁declarations": 7275,
      "▁warned": 7276,
      "▁participating": 7277,
      "▁pollut": 7278,
      "ι": 7279,
      "action": 7280,
      "▁ski": 7281,
      "ger": 7282,
      "▁!": 7283,
      "▁geometry": 7284,
      "▁diagram": 7285,
      "▁trou": 7286,
      "▁stay": 7287,
      "▁maybe": 7288,
      "erate": 7289,
      "reg": 7290,
      "gen": 7291,
      "▁proceed": 7292,
      "inars": 7293,
      "hakes": 7294,
      "umes": 7295,
      "▁exclu": 7296,
      "▁cat-flap": 7297,
      "▁defeats": 7298,
      "▁peanut": 7299,
      "so": 7300,
      "▁intriguing": 7301,
      "pan": 7302,
      "ved": 7303,
      "▁releasing": 7304,
      "▁expectation": 7305,
      "▁marshes": 7306,
      "iddish": 7307,
      "▁increased": 7308,
      "▁orbit": 7309,
      "oneering": 7310,
      "▁pocket": 7311,
      "▁footst": 7312,
      "▁fate": 7313,
      "ujah": 7314,
      "▁frequented": 7315,
      "▁reclaimed": 7316,
      "▁ours": 7317,
      "▁rene": 7318,
      "▁anchored": 7319,
      "sually": 7320,
      "▁isd": 7321,
      "▁convictions": 7322,
      "osystem": 7323,
      "enron.com": 7324,
      "▁retain": 7325,
      "▁servers": 7326,
      "▁possession": 7327,
      "▁mys": 7328,
      "▁food": 7329,
      "▁dud": 7330,
      "read": 7331,
      "▁wiggleworm": 7332,
      "▁addressed": 7333,
      "aca": 7334,
      "▁signal": 7335,
      "▁soldi": 7336,
      "æ": 7337,
      "tering": 7338,
      "▁ports": 7339,
      "▁kettle": 7340,
      "▁asset": 7341,
      "______": 7342,
      "▁ign": 7343,
      "▁capability": 7344,
      "▁dates": 7345,
      "▁ear": 7346,
      "▁beetle": 7347,
      "goround": 7348,
      "▁yo": 7349,
      "▁corpor": 7350,
      "berry": 7351,
      "▁trous": 7352,
      "▁owe": 7353,
      "▁hall": 7354,
      "tai": 7355,
      "▁brown": 7356,
      "▁study": 7357,
      "▁marrying": 7358,
      "▁embraced": 7359,
      "une": 7360,
      "▁sec": 7361,
      "▁inhabitants": 7362,
      "▁alphab": 7363,
      "▁mining": 7364,
      "▁encl": 7365,
      "▁guaranty": 7366,
      "▁objections": 7367,
      "▁seal": 7368,
      "▁mosquito": 7369,
      "right": 7370,
      "▁comb": 7371,
      "ife": 7372,
      "▁clean": 7373,
      "▁advertis": 7374,
      "▁litter": 7375,
      "▁mathematics": 7376,
      "▁drag": 7377,
      "mly": 7378,
      "reat": 7379,
      "▁transmission": 7380,
      "piles": 7381,
      "lig": 7382,
      "▁accent": 7383,
      "▁oct": 7384,
      "ghting": 7385,
      "▁awards": 7386,
      "▁bring": 7387,
      "▁dr.": 7388,
      "abilities": 7389,
      "▁deprived": 7390,
      "▁iraq": 7391,
      "▁photos": 7392,
      "▁enron.xls": 7393,
      "▁jigsaw": 7394,
      "▁fund": 7395,
      "▁maint": 7396,
      "▁alternates": 7397,
      "▁loot": 7398,
      "▁alik": 7399,
      "▁peroxide": 7400,
      "▁cabins": 7401,
      "▁attracted": 7402,
      "▁symmet": 7403,
      "▁enemies": 7404,
      "▁frontier": 7405,
      "▁sarah": 7406,
      "▁general": 7407,
      "▁dose": 7408,
      "poon": 7409,
      "▁luncheon": 7410,
      "▁reservation": 7411,
      "▁perfume": 7412,
      "igating": 7413,
      "▁headmaster": 7414,
      "▁halloween": 7415,
      "chester": 7416,
      "▁mont": 7417,
      "▁millennium": 7418,
      "ness": 7419,
      "▁performed": 7420,
      "▁federal": 7421,
      "resses": 7422,
      "▁fli": 7423,
      "▁ryan": 7424,
      "▁worried": 7425,
      "▁awaited": 7426,
      "▁colle": 7427,
      "▁industri": 7428,
      "▁besides": 7429,
      "▁dand": 7430,
      "▁browser": 7431,
      "auts": 7432,
      "chen": 7433,
      "▁concepts": 7434,
      "▁comment": 7435,
      "ooded": 7436,
      "▁breakthrough": 7437,
      "▁conforms": 7438,
      "ashing": 7439,
      "▁marri": 7440,
      "▁ozone": 7441,
      "▁shortage": 7442,
      "▁line": 7443,
      "▁soap": 7444,
      "▁trave": 7445,
      "▁financed": 7446,
      "▁heel": 7447,
      "onto": 7448,
      "▁diseases": 7449,
      "▁conferences": 7450,
      "▁undertaken": 7451,
      "▁existed": 7452,
      "▁mostly": 7453,
      "▁relativ": 7454,
      "▁apologize": 7455,
      "▁wood": 7456,
      "▁diapers": 7457,
      "▁determining": 7458,
      "▁spi": 7459,
      "▁ultrasounds": 7460,
      "organ": 7461,
      "▁re": 7462,
      "▁along": 7463,
      "▁raining": 7464,
      "▁kinds": 7465,
      "9th": 7466,
      "icion": 7467,
      "▁scare": 7468,
      "▁constitutions": 7469,
      "▁reimbursed": 7470,
      "▁happy": 7471,
      "▁pim": 7472,
      "4-1.doc": 7473,
      "▁mim": 7474,
      "▁polar": 7475,
      "▁wikinews": 7476,
      "selves": 7477,
      "▁trash": 7478,
      "▁ferry": 7479,
      "▁clin": 7480,
      "till": 7481,
      "▁visitor": 7482,
      "▁bar": 7483,
      "▁communication": 7484,
      "ville": 7485,
      "▁refin": 7486,
      "hol": 7487,
      "acture": 7488,
      "▁spit": 7489,
      "▁events": 7490,
      "▁cous": 7491,
      "▁merc": 7492,
      "▁roads": 7493,
      "▁blade": 7494,
      "loaded": 7495,
      "▁transportation": 7496,
      "▁thinks": 7497,
      "▁risks": 7498,
      "▁compounded": 7499,
      "▁yaw": 7500,
      "▁aught": 7501,
      "▁climbing": 7502,
      "▁slu": 7503,
      "▁holding": 7504,
      "▁roof": 7505,
      "▁~": 7506,
      "▁ecodesign": 7507,
      "▁apply": 7508,
      "ification": 7509,
      "▁deteri": 7510,
      "▁ll": 7511,
      "entralized": 7512,
      "▁occupation": 7513,
      "edicated": 7514,
      "▁specialists": 7515,
      "▁inversion": 7516,
      "▁viewpoints": 7517,
      "▁regarded": 7518,
      "▁swim": 7519,
      "▁trav": 7520,
      "▁dlc": 7521,
      "▁antiqu": 7522,
      "40": 7523,
      "▁discip": 7524,
      "▁echo": 7525,
      "▁ton": 7526,
      "▁compliment": 7527,
      "▁microns": 7528,
      "▁intranet": 7529,
      "iv": 7530,
      "unking": 7531,
      "▁rags": 7532,
      "ats": 7533,
      "le": 7534,
      "▁par": 7535,
      "enef": 7536,
      "▁shoulders": 7537,
      "▁peas": 7538,
      "hs": 7539,
      "▁pinning": 7540,
      "▁fuse": 7541,
      "ty": 7542,
      "▁loved": 7543,
      "onym": 7544,
      "▁dwww": 7545,
      "▁mouth": 7546,
      "▁those": 7547,
      "▁consid": 7548,
      "igr": 7549,
      "▁diving": 7550,
      "▁appro": 7551,
      "▁shines": 7552,
      "▁adv": 7553,
      "▁mon": 7554,
      "▁recently": 7555,
      "▁screw": 7556,
      "▁numb": 7557,
      "▁discour": 7558,
      "▁fridge": 7559,
      "▁today": 7560,
      "epend": 7561,
      "▁chan": 7562,
      "▁get": 7563,
      "▁producer": 7564,
      "▁parakeet": 7565,
      "▁warranties": 7566,
      "uncture": 7567,
      "▁equality": 7568,
      "▁euro": 7569,
      "▁restri": 7570,
      "▁receptionist": 7571,
      "▁riding": 7572,
      "▁difficulty": 7573,
      "▁jurisdiction": 7574,
      "▁postc": 7575,
      "h-": 7576,
      "▁yourself": 7577,
      "▁influence": 7578,
      "▁practicing": 7579,
      "▁involving": 7580,
      "▁user": 7581,
      "▁cool": 7582,
      "▁mile": 7583,
      "▁fiction": 7584,
      "▁jus": 7585,
      "▁autob": 7586,
      "▁reviewer": 7587,
      "obs": 7588,
      "▁shade": 7589,
      "▁geography": 7590,
      "▁inform": 7591,
      "▁lipsticks": 7592,
      "▁collateral": 7593,
      "▁government": 7594,
      "▁subscrib": 7595,
      "ack": 7596,
      "unately": 7597,
      "▁rat": 7598,
      "▁distinguishes": 7599,
      "emic": 7600,
      "▁melt": 7601,
      "▁horsesho": 7602,
      "▁from": 7603,
      "▁challenges": 7604,
      "▁standards": 7605,
      "▁legisl": 7606,
      "▁tag": 7607,
      "▁approach": 7608,
      "anda": 7609,
      "▁these": 7610,
      "augh": 7611,
      "▁walnuts": 7612,
      "ato": 7613,
      "▁publishers": 7614,
      "▁tit": 7615,
      "▁meets": 7616,
      "▁answering": 7617,
      "ee": 7618,
      "anish": 7619,
      "▁genius": 7620,
      "▁intel": 7621,
      "▁hunting": 7622,
      "▁ny": 7623,
      "ordination": 7624,
      "▁bow": 7625,
      "▁liquor": 7626,
      "uela": 7627,
      "▁cracked": 7628,
      "▁tacos": 7629,
      "▁resulting": 7630,
      "▁nation": 7631,
      "▁recommend": 7632,
      "▁highlighting": 7633,
      "▁lith": 7634,
      "wards": 7635,
      "duc": 7636,
      "▁tiny": 7637,
      "▁tinkle": 7638,
      "▁sweet": 7639,
      "ified": 7640,
      "▁tribe": 7641,
      "▁racism": 7642,
      "/2": 7643,
      "▁blurred": 7644,
      "▁iss": 7645,
      "▁refineries": 7646,
      "nd": 7647,
      "▁draws": 7648,
      "▁theater": 7649,
      "▁tipped": 7650,
      "▁perceptions": 7651,
      "cre": 7652,
      "▁augmented": 7653,
      "tm": 7654,
      "▁poc": 7655,
      "▁intend": 7656,
      "▁thing": 7657,
      "▁decide": 7658,
      "▁bak": 7659,
      "▁manufacturer": 7660,
      "dened": 7661,
      "▁possesses": 7662,
      "ip": 7663,
      "ews": 7664,
      "▁incorporates": 7665,
      "ensive": 7666,
      "▁nevertheless": 7667,
      "ald": 7668,
      "▁credited": 7669,
      "▁°": 7670,
      "▁bases": 7671,
      "▁evaluated": 7672,
      "▁indicator": 7673,
      "outu": 7674,
      "▁bone": 7675,
      "▁feels": 7676,
      "▁voyage": 7677,
      "▁coding": 7678,
      "▁mild": 7679,
      "▁rep": 7680,
      "▁purse": 7681,
      "▁cho": 7682,
      "▁crystal": 7683,
      "▁controversy": 7684,
      "loth": 7685,
      "▁mrs.": 7686,
      "issions": 7687,
      "▁intentions": 7688,
      "▁pancake": 7689,
      "▁agric": 7690,
      "aul": 7691,
      "▁’d": 7692,
      "▁tables": 7693,
      "▁emerged": 7694,
      "▁representing": 7695,
      "ishes": 7696,
      "▁already": 7697,
      "▁rocks": 7698,
      "▁dude": 7699,
      "▁fog": 7700,
      "▁01": 7701,
      "▁statements": 7702,
      "▁preparation": 7703,
      "▁basis": 7704,
      "▁exists": 7705,
      "▁modification": 7706,
      "▁plaintiffs": 7707,
      "▁uhoh": 7708,
      "▁reproduced": 7709,
      "▁/": 7710,
      "fec": 7711,
      "▁crowd": 7712,
      "rights": 7713,
      "bably": 7714,
      "▁craw": 7715,
      "▁censor": 7716,
      "ularity": 7717,
      "▁month": 7718,
      "▁medium": 7719,
      "grader": 7720,
      "▁businesses": 7721,
      "▁best": 7722,
      "▁environmental": 7723,
      "▁team": 7724,
      "▁speed": 7725,
      "yn": 7726,
      "oking": 7727,
      "▁heroes": 7728,
      "▁malf": 7729,
      "45": 7730,
      "▁occurrence": 7731,
      "▁conversation": 7732,
      "▁est": 7733,
      "yl": 7734,
      "▁technical": 7735,
      "orating": 7736,
      "▁generations": 7737,
      "▁but": 7738,
      "▁anything": 7739,
      "▁interview": 7740,
      "▁pretended": 7741,
      "▁endorse": 7742,
      "▁anticipate": 7743,
      "▁opens": 7744,
      "ig": 7745,
      "▁territory": 7746,
      "▁outsiders": 7747,
      "▁aro": 7748,
      "orry": 7749,
      "▁caterpill": 7750,
      "▁flic": 7751,
      "▁world": 7752,
      "▁significant": 7753,
      "▁canes": 7754,
      "▁troubled": 7755,
      "▁t.v.": 7756,
      "▁bore": 7757,
      "▁capitalism": 7758,
      "▁alt": 7759,
      "▁originating": 7760,
      "▁triumph": 7761,
      "▁predictors": 7762,
      "▁supply": 7763,
      "▁tasks": 7764,
      "▁horns": 7765,
      "▁virus": 7766,
      "▁contracts": 7767,
      "lic": 7768,
      "▁pastor": 7769,
      "arters": 7770,
      "▁necks": 7771,
      "▁neighbor": 7772,
      "▁assure": 7773,
      "cross": 7774,
      "▁agenda": 7775,
      "▁curtains": 7776,
      "▁spoon": 7777,
      "▁framed": 7778,
      "▁whites": 7779,
      "▁caused": 7780,
      "▁revival": 7781,
      "▁vide": 7782,
      "emporary": 7783,
      "vers": 7784,
      "ua": 7785,
      "▁......": 7786,
      "cessful": 7787,
      "▁economic": 7788,
      "▁enacting": 7789,
      "▁o'clock": 7790,
      "▁unity": 7791,
      "▁chang": 7792,
      "ael": 7793,
      "ously": 7794,
      "hole": 7795,
      "olerance": 7796,
      "▁tot": 7797,
      "▁tell": 7798,
      "▁modem": 7799,
      "▁wip": 7800,
      "▁taun": 7801,
      "▁decree": 7802,
      "▁ruling": 7803,
      "pack": 7804,
      "ple": 7805,
      "▁chlor": 7806,
      "mer": 7807,
      "rogen": 7808,
      "▁visitors": 7809,
      "▁broadc": 7810,
      "chest": 7811,
      "▁disorder": 7812,
      "alog": 7813,
      "1-1.doc": 7814,
      "ici": 7815,
      "▁uni": 7816,
      "icate": 7817,
      "▁’": 7818,
      "▁buttons": 7819,
      "man": 7820,
      "enly": 7821,
      "▁coordinate": 7822,
      "▁death": 7823,
      "▁tv": 7824,
      "▁economists": 7825,
      "▁ruins": 7826,
      "▁pdf": 7827,
      "▁pizza": 7828,
      "▁sauce": 7829,
      "▁usurp": 7830,
      "ressor": 7831,
      "▁speaks": 7832,
      "▁turb": 7833,
      "ele": 7834,
      "▁rebels": 7835,
      "rection": 7836,
      "riendly": 7837,
      "▁kept": 7838,
      "▁slice": 7839,
      "▁hull": 7840,
      "mit": 7841,
      "▁tonnes": 7842,
      "▁congress": 7843,
      "▁gestured": 7844,
      "▁are": 7845,
      "▁heartland": 7846,
      "erful": 7847,
      "▁among": 7848,
      "000": 7849,
      "▁launch": 7850,
      "sets": 7851,
      "▁skip": 7852,
      "▁universe": 7853,
      "▁magic": 7854,
      "▁desktop": 7855,
      "▁lessons": 7856,
      "inoc": 7857,
      "▁big": 7858,
      "zer": 7859,
      "nown": 7860,
      "▁racing": 7861,
      "▁estim": 7862,
      "▁skiing": 7863,
      "▁follow": 7864,
      "▁developer": 7865,
      "ived": 7866,
      "▁pentagon": 7867,
      "▁$$": 7868,
      "▁shove": 7869,
      "▁book": 7870,
      "bow": 7871,
      "▁mailings": 7872,
      "▁autonomy": 7873,
      "ters": 7874,
      "▁kansas": 7875,
      "▁november": 7876,
      "▁poison": 7877,
      "▁maintains": 7878,
      "▁trauma": 7879,
      ".p": 7880,
      "▁pies": 7881,
      "▁cau": 7882,
      "▁rabbits": 7883,
      "▁overchar": 7884,
      "ura": 7885,
      "▁applause": 7886,
      "▁descendants": 7887,
      "▁wreck": 7888,
      "▁lots": 7889,
      "▁stillman": 7890,
      "▁translates": 7891,
      "▁lobster": 7892,
      "▁displayed": 7893,
      "▁prerequis": 7894,
      "▁stickers": 7895,
      "▁linguistics": 7896,
      "▁delivering": 7897,
      "▁covers": 7898,
      "▁fleeing": 7899,
      "▁advisers": 7900,
      "▁sketchbook": 7901,
      "▁sucked": 7902,
      "uster": 7903,
      "▁ti": 7904,
      "men": 7905,
      "rolled": 7906,
      "▁full": 7907,
      "arity": 7908,
      "▁bred": 7909,
      "▁knoc": 7910,
      "▁wager": 7911,
      "▁reproduc": 7912,
      "▁families": 7913,
      "▁emerging": 7914,
      "▁railways": 7915,
      "▁concerned": 7916,
      "▁2000": 7917,
      "▁ensures": 7918,
      "▁canopy": 7919,
      "inity": 7920,
      "▁uncovered": 7921,
      "rick": 7922,
      "vision": 7923,
      "▁harvesting": 7924,
      "vated": 7925,
      "▁composition": 7926,
      "▁scar": 7927,
      "▁demands": 7928,
      "antom": 7929,
      "▁wors": 7930,
      "▁yoghurt": 7931,
      "▁poa": 7932,
      "▁cond": 7933,
      "▁do": 7934,
      "lics": 7935,
      "sst": 7936,
      "▁zealand": 7937,
      "derstand": 7938,
      "ifications": 7939,
      "▁freight": 7940,
      "loying": 7941,
      "▁lou": 7942,
      "▁cheapest": 7943,
      "▁pel": 7944,
      "▁communicated": 7945,
      "▁collecting": 7946,
      "ages": 7947,
      "emination": 7948,
      "oke": 7949,
      "▁spons": 7950,
      "▁organized": 7951,
      "▁paints": 7952,
      "gre": 7953,
      "ialize": 7954,
      "▁anx": 7955,
      "▁dist": 7956,
      "▁wounded": 7957,
      "alidated": 7958,
      "▁-----------------": 7959,
      "▁monkeys": 7960,
      "▁'": 7961,
      "▁pursuing": 7962,
      "ring": 7963,
      "▁cook": 7964,
      "tie": 7965,
      "▁2011": 7966,
      "▁received": 7967,
      "▁minimum": 7968,
      "inism": 7969,
      "▁insult": 7970,
      "ropriate": 7971,
      "▁relating": 7972,
      "▁jun": 7973,
      "▁noone": 7974,
      "▁likes": 7975,
      "▁robes": 7976,
      "▁proble": 7977,
      "▁pointing": 7978,
      "▁punishment": 7979,
      "▁gone": 7980,
      "▁underground": 7981,
      "▁firetruck": 7982,
      "▁molec": 7983,
      "▁root": 7984,
      "orage": 7985,
      "▁extre": 7986,
      "tive": 7987,
      "tite": 7988,
      "▁reproduction": 7989,
      "▁cy": 7990,
      "▁perce": 7991,
      "▁complained": 7992,
      "▁tugging": 7993,
      "▁controlled": 7994,
      "oxide": 7995,
      "▁rated": 7996,
      "▁melanoma": 7997,
      "▁objects": 7998,
      "formation": 7999,
      "tling": 8000,
      "▁knot": 8001,
      "▁libraries": 8002,
      "▁cage": 8003,
      "▁alleged": 8004,
      "▁b": 8005,
      "▁stare": 8006,
      "ming": 8007,
      "▁explos": 8008,
      "assad": 8009,
      "▁concerts": 8010,
      "▁live": 8011,
      "▁asp": 8012,
      "▁coins": 8013,
      "▁aunt": 8014,
      "eem": 8015,
      "▁council": 8016,
      "▁housing": 8017,
      "▁bugs": 8018,
      "▁gap": 8019,
      "▁compet": 8020,
      "ails": 8021,
      "▁wheat": 8022,
      "ints": 8023,
      "’s": 8024,
      "▁no": 8025,
      "▁washington": 8026,
      "▁ed": 8027,
      "▁draped": 8028,
      "▁ignore": 8029,
      "▁cabbage": 8030,
      "porter": 8031,
      "▁actor": 8032,
      "▁hundreds": 8033,
      "▁mouse": 8034,
      "▁tickling": 8035,
      "▁generation": 8036,
      "edge": 8037,
      "utation": 8038,
      "▁acceptance": 8039,
      "▁circulation": 8040,
      "▁shelt": 8041,
      "▁spo": 8042,
      "maries": 8043,
      "▁sensing": 8044,
      "▁bid": 8045,
      "▁gained": 8046,
      "▁complete": 8047,
      "▁cromer": 8048,
      "▁valued": 8049,
      "▁offic": 8050,
      "▁device": 8051,
      "rr": 8052,
      "▁eggs": 8053,
      "▁sympath": 8054,
      "▁demonstrate": 8055,
      "keeping": 8056,
      "▁counterfe": 8057,
      "▁skys": 8058,
      "▁helicopters": 8059,
      "▁http://www": 8060,
      "▁pioneer": 8061,
      "▁it": 8062,
      "umph": 8063,
      "▁authors": 8064,
      "inate": 8065,
      "▁insect": 8066,
      "▁quest": 8067,
      "▁sid": 8068,
      "▁camp": 8069,
      "▁operator": 8070,
      "▁legitimacy": 8071,
      "unity": 8072,
      "www": 8073,
      "▁roms": 8074,
      "▁palace": 8075,
      "▁rom": 8076,
      "▁pill": 8077,
      "▁markup": 8078,
      "qu": 8079,
      "▁drink": 8080,
      "▁tar": 8081,
      "▁toaster": 8082,
      "▁beep": 8083,
      "rations": 8084,
      "▁came": 8085,
      "▁flourishing": 8086,
      "alding": 8087,
      "oks": 8088,
      "▁scub": 8089,
      "gr": 8090,
      "▁pointer": 8091,
      "▁heading": 8092,
      "▁fles": 8093,
      "▁decre": 8094,
      "▁reflected": 8095,
      "lings": 8096,
      "▁mantra": 8097,
      "angut": 8098,
      "▁philadel": 8099,
      "▁flossing": 8100,
      "▁referee": 8101,
      "▁underlined": 8102,
      "through": 8103,
      "▁col": 8104,
      "▁finding": 8105,
      "loading": 8106,
      "▁silk": 8107,
      "▁prem": 8108,
      "▁pencils": 8109,
      "▁accust": 8110,
      "▁short": 8111,
      "ivid": 8112,
      "▁presidents": 8113,
      "▁coastline": 8114,
      "▁climate": 8115,
      "▁pressed": 8116,
      "icle": 8117,
      "▁date": 8118,
      "▁favor": 8119,
      "▁treati": 8120,
      "▁impris": 8121,
      "▁goat": 8122,
      "▁outl": 8123,
      "▁recovered": 8124,
      "▁quiddit": 8125,
      "▁well": 8126,
      "▁lasts": 8127,
      "▁pens": 8128,
      "▁04": 8129,
      "▁stairs": 8130,
      "gry": 8131,
      "▁buckets": 8132,
      "▁neither": 8133,
      "▁deficit": 8134,
      "liflower": 8135,
      "whether": 8136,
      "▁rift": 8137,
      "cup": 8138,
      "▁flying": 8139,
      "▁measure": 8140,
      "▁mount": 8141,
      "▁neighbourhood": 8142,
      "▁menti": 8143,
      "▁scott": 8144,
      "▁determined": 8145,
      "▁feared": 8146,
      "our": 8147,
      "▁finalize": 8148,
      "▁toile": 8149,
      "ashed": 8150,
      "▁programme": 8151,
      "▁bern": 8152,
      "bal": 8153,
      "▁desert": 8154,
      "▁acupuncturist": 8155,
      "▁revealed": 8156,
      "▁iraqi": 8157,
      "itage": 8158,
      "▁le": 8159,
      "ination": 8160,
      "▁teams": 8161,
      "idden": 8162,
      "▁shock": 8163,
      "▁pra": 8164,
      "▁elite": 8165,
      "▁subscribe": 8166,
      "riend": 8167,
      "▁visibility": 8168,
      "▁cane": 8169,
      "▁pen": 8170,
      "▁phenomena": 8171,
      "▁explain": 8172,
      "▁parak": 8173,
      "zy": 8174,
      "▁found": 8175,
      "ssi": 8176,
      "inated": 8177,
      "▁hyper": 8178,
      "▁congestion": 8179,
      "▁mad": 8180,
      "▁turn": 8181,
      "▁digging": 8182,
      "▁easy": 8183,
      "yp": 8184,
      "▁fruit": 8185,
      "▁waves": 8186,
      "▁treatise": 8187,
      "ked": 8188,
      "▁glad": 8189,
      "▁fiel": 8190,
      "▁established": 8191,
      "▁graduate": 8192,
      "▁commem": 8193,
      "▁discouraged": 8194,
      "▁meg": 8195,
      "▁described": 8196,
      "▁corpus": 8197,
      "▁warr": 8198,
      "▁spilled": 8199,
      "▁bail": 8200,
      "mission": 8201,
      "▁nick": 8202,
      "▁discourse": 8203,
      "▁outcome": 8204,
      "iistocks": 8205,
      "orying": 8206,
      "▁indul": 8207,
      "cinn": 8208,
      "▁plots": 8209,
      "▁biked": 8210,
      "chem": 8211,
      "▁having": 8212,
      "▁soc": 8213,
      "▁residents": 8214,
      "▁gar": 8215,
      "ead": 8216,
      "▁pil": 8217,
      "▁puppet": 8218,
      "▁beef": 8219,
      "▁recognised": 8220,
      "▁franc": 8221,
      "/2000": 8222,
      "▁negot": 8223,
      "▁storms": 8224,
      "▁filling": 8225,
      "▁bunch": 8226,
      "chief": 8227,
      "3": 8228,
      "▁optionality": 8229,
      "urities": 8230,
      "▁pattern": 8231,
      "▁acceding": 8232,
      "▁gast": 8233,
      "etter": 8234,
      "▁estimate": 8235,
      "su": 8236,
      "▁length": 8237,
      "▁blanket": 8238,
      "▁behalf": 8239,
      "▁const": 8240,
      "▁thin": 8241,
      "▁masters": 8242,
      "▁fights": 8243,
      "▁labeled": 8244,
      "ouse": 8245,
      "▁roughness": 8246,
      "▁definitions": 8247,
      "▁jap": 8248,
      "uring": 8249,
      "▁emb": 8250,
      "▁position": 8251,
      "▁issues": 8252,
      "▁extending": 8253,
      "▁acupuncture": 8254,
      "▁country": 8255,
      "▁knowledge": 8256,
      "ety": 8257,
      "▁breakfast": 8258,
      "▁reluct": 8259,
      "▁joining": 8260,
      "ugh": 8261,
      "▁house-": 8262,
      "▁b&b": 8263,
      "▁interference": 8264,
      "ign": 8265,
      "tiveness": 8266,
      "▁toured": 8267,
      "uator": 8268,
      "idn": 8269,
      "▁enjambment": 8270,
      "▁gazed": 8271,
      "▁offensive": 8272,
      "▁luxury": 8273,
      "▁environments": 8274,
      "▁independent": 8275,
      "▁spending": 8276,
      "▁ache": 8277,
      "ays": 8278,
      "▁gets": 8279,
      "▁administrations": 8280,
      "▁stepped": 8281,
      "inned": 8282,
      "▁treated": 8283,
      "▁visiting": 8284,
      "▁eol": 8285,
      "▁humor": 8286,
      "▁shared": 8287,
      "▁cler": 8288,
      "▁jingle": 8289,
      "▁soil": 8290,
      "▁tomorrow": 8291,
      "ulsion": 8292,
      "▁sailors": 8293,
      "60": 8294,
      "▁collections": 8295,
      "▁men": 8296,
      "▁errors": 8297,
      "eries": 8298,
      "fights": 8299,
      "▁2013": 8300,
      "▁sto": 8301,
      "▁quartiles": 8302,
      "▁deadline": 8303,
      "▁encompasses": 8304,
      "▁kittens": 8305,
      "▁hea": 8306,
      "▁passed": 8307,
      "▁therapy": 8308,
      "▁formal": 8309,
      "▁developers": 8310,
      "artment": 8311,
      "▁defendants": 8312,
      "▁allowance": 8313,
      "lear": 8314,
      "▁waning": 8315,
      "asters": 8316,
      "▁israeli": 8317,
      "▁wiped": 8318,
      "▁sculpt": 8319,
      "▁billi": 8320,
      "▁tush": 8321,
      "gery": 8322,
      "▁attain": 8323,
      "ww": 8324,
      "▁describe": 8325,
      "▁walking": 8326,
      "▁calls": 8327,
      "▁george": 8328,
      "▁squee": 8329,
      "ales": 8330,
      "▁humanities": 8331,
      "ie": 8332,
      "eks": 8333,
      "uropean": 8334,
      "porte": 8335,
      "▁!!!!!!!!!!!!!!!!!!!": 8336,
      "▁sections": 8337,
      "▁shakespeare": 8338,
      "▁da": 8339,
      "▁imbalances": 8340,
      "▁barret": 8341,
      "▁fortune": 8342,
      "▁flatten": 8343,
      "e": 8344,
      "▁sect": 8345,
      "▁quan": 8346,
      "▁borrow": 8347,
      "▁michelle": 8348,
      "▁vers": 8349,
      "▁laid": 8350,
      "▁tro": 8351,
      "▁troub": 8352,
      "▁settled": 8353,
      "▁knows": 8354,
      "care": 8355,
      "▁alongside": 8356,
      "▁card": 8357,
      "▁varieties": 8358,
      "lying": 8359,
      "▁insist": 8360,
      "▁hear": 8361,
      "▁lust": 8362,
      "▁influx": 8363,
      "48": 8364,
      "▁coat": 8365,
      "▁suffer": 8366,
      "eachment": 8367,
      "▁misfort": 8368,
      "paths": 8369,
      "▁red": 8370,
      "▁targ": 8371,
      "▁wasp": 8372,
      "▁bars": 8373,
      "lished": 8374,
      "▁smeared": 8375,
      "▁survey": 8376,
      "▁ceo": 8377,
      "▁provoking": 8378,
      "▁leggings": 8379,
      "▁undergo": 8380,
      "if": 8381,
      "awn": 8382,
      "▁bitsy": 8383,
      "▁back": 8384,
      "entil": 8385,
      "▁adopted": 8386,
      "▁boing": 8387,
      "▁projected": 8388,
      "▁theories": 8389,
      "▁imbalance": 8390,
      "onav": 8391,
      "world": 8392,
      "ron": 8393,
      "▁blinked": 8394,
      "tress": 8395,
      "▁tour": 8396,
      "▁hairs": 8397,
      "▁ro": 8398,
      "▁tw": 8399,
      "▁sticks": 8400,
      "▁appealed": 8401,
      "▁antip": 8402,
      "▁forg": 8403,
      "▁tup": 8404,
      "▁stirrups": 8405,
      "▁-------------------------------------------------": 8406,
      "▁repaid": 8407,
      "▁scuba": 8408,
      "▁signoff": 8409,
      "▁whit": 8410,
      "▁n": 8411,
      "▁key": 8412,
      "▁return": 8413,
      "▁manager": 8414,
      "copes": 8415,
      "a-": 8416,
      "▁married": 8417,
      "▁jewelry": 8418,
      "▁bubble": 8419,
      "minate": 8420,
      "ually": 8421,
      "▁momma": 8422,
      "▁studying": 8423,
      "uated": 8424,
      "arians": 8425,
      "ustice": 8426,
      "▁biz": 8427,
      "erved": 8428,
      "▁mapping": 8429,
      "▁compl": 8430,
      "earance": 8431,
      "▁gaining": 8432,
      "▁treating": 8433,
      "onds": 8434,
      "▁soared": 8435,
      "▁que": 8436,
      "ular": 8437,
      "▁tries": 8438,
      "▁matching": 8439,
      "mental": 8440,
      "aned": 8441,
      "▁credit": 8442,
      "▁zeitge": 8443,
      "▁swirling": 8444,
      "▁creation": 8445,
      "▁rbi": 8446,
      "▁baked": 8447,
      "▁organisation": 8448,
      "aled": 8449,
      "▁unicorn": 8450,
      "ground": 8451,
      "▁fist": 8452,
      "box": 8453,
      "▁malaria": 8454,
      "ober": 8455,
      "▁artworks": 8456,
      "igma": 8457,
      "▁surgeons": 8458,
      "▁progress": 8459,
      "▁economy": 8460,
      "³": 8461,
      "▁comparing": 8462,
      "▁spilt": 8463,
      "▁etc": 8464,
      "▁interp": 8465,
      "utiny": 8466,
      "▁tds": 8467,
      "▁query": 8468,
      "o.": 8469,
      "raph": 8470,
      "▁savages": 8471,
      "▁own": 8472,
      "▁argument": 8473,
      "▁day": 8474,
      "▁princess": 8475,
      "”s": 8476,
      "▁spirited": 8477,
      "▁vi": 8478,
      "▁famili": 8479,
      "urance": 8480,
      "▁potty": 8481,
      "▁main": 8482,
      "▁underlying": 8483,
      "▁capital": 8484,
      "▁swallowed": 8485,
      "▁almost": 8486,
      "ablish": 8487,
      "nutrition": 8488,
      "tail": 8489,
      "▁necklace": 8490,
      "▁rudeness": 8491,
      "▁twin": 8492,
      "▁adjustments": 8493,
      "▁onion": 8494,
      "▁scramb": 8495,
      "▁mineral": 8496,
      "entions": 8497,
      "p": 8498,
      "▁impeachment": 8499,
      "▁ramp": 8500,
      "▁mommy": 8501,
      "▁gambling": 8502,
      "▁drew": 8503,
      "▁approved": 8504,
      "▁community": 8505,
      "-f": 8506,
      "▁emotion": 8507,
      "oving": 8508,
      "unes": 8509,
      "▁shelves": 8510,
      "▁regar": 8511,
      "▁mezza": 8512,
      "▁muss": 8513,
      "▁resistance": 8514,
      "▁manipulate": 8515,
      "erately": 8516,
      "▁reign": 8517,
      "▁fireplaces": 8518,
      "▁caboose": 8519,
      "▁ar": 8520,
      "erences": 8521,
      "▁colored": 8522,
      "▁dog": 8523,
      "▁restrict": 8524,
      "▁compiling": 8525,
      "rush": 8526,
      "▁yep": 8527,
      "▁ball": 8528,
      "▁communic": 8529,
      "▁realize": 8530,
      "▁muffin": 8531,
      "▁orangut": 8532,
      "▁styrof": 8533,
      "▁european": 8534,
      "▁overalls": 8535,
      "▁slime": 8536,
      "▁lover": 8537,
      "▁facilities": 8538,
      "▁htt": 8539,
      "▁stays": 8540,
      "▁horr": 8541,
      "▁carbon": 8542,
      "▁hyd": 8543,
      "▁banj": 8544,
      "▁buc": 8545,
      "▁buyers": 8546,
      "▁mathematicians": 8547,
      "▁celebration": 8548,
      "▁push": 8549,
      "▁grasp": 8550,
      "flow": 8551,
      "▁miles": 8552,
      "▁pajamas": 8553,
      "▁guest": 8554,
      "▁cough": 8555,
      "▁destinations": 8556,
      "alizes": 8557,
      "▁priest": 8558,
      "▁’m": 8559,
      "▁saves": 8560,
      "▁alert": 8561,
      "ical": 8562,
      "dler": 8563,
      "▁hun": 8564,
      "▁message": 8565,
      "▁s-": 8566,
      "ater": 8567,
      "olation": 8568,
      "▁recruited": 8569,
      "oundings": 8570,
      "▁toronto": 8571,
      "▁sculpture": 8572,
      "▁=---": 8573,
      "ams": 8574,
      "▁soldier": 8575,
      "▁centre": 8576,
      "istocks": 8577,
      "▁gaps": 8578,
      "▁grant": 8579,
      "itioned": 8580,
      "▁sover": 8581,
      "▁kang": 8582,
      "▁wo": 8583,
      "▁successful": 8584,
      "▁lb": 8585,
      "▁performances": 8586,
      "▁i": 8587,
      "▁spill": 8588,
      "▁compens": 8589,
      "▁targeted": 8590,
      "angu": 8591,
      "oe": 8592,
      "▁ge": 8593,
      "uggles": 8594,
      "▁source": 8595,
      "named": 8596,
      "ya": 8597,
      "▁datasheets": 8598,
      "▁witches": 8599,
      "▁crib": 8600,
      "▁suspended": 8601,
      "por": 8602,
      "stances": 8603,
      "alism": 8604,
      "▁initi": 8605,
      "gg": 8606,
      "▁sled": 8607,
      "▁fulf": 8608,
      "▁expelling": 8609,
      "▁approval": 8610,
      "▁transport": 8611,
      "▁angeles": 8612,
      "▁narrative": 8613,
      "▁su": 8614,
      "▁camps": 8615,
      "▁l2": 8616,
      "round": 8617,
      "▁participate": 8618,
      "▁hidden": 8619,
      "▁specials": 8620,
      "▁protests": 8621,
      "ians": 8622,
      "works": 8623,
      "▁kleenex": 8624,
      "▁constit": 8625,
      "▁resting": 8626,
      "▁edward": 8627,
      "un": 8628,
      "ford": 8629,
      "▁omission": 8630,
      "▁empt": 8631,
      "▁plat": 8632,
      "▁formality": 8633,
      "▁padd": 8634,
      "▁niece": 8635,
      "▁barely": 8636,
      "enting": 8637,
      "▁gogg": 8638,
      "iginal": 8639,
      "▁laptops": 8640,
      "▁cruise": 8641,
      "▁chosen": 8642,
      "▁charter": 8643,
      "▁dur": 8644,
      "▁joy": 8645,
      "lism": 8646,
      "ies": 8647,
      "▁highligh": 8648,
      "▁gn": 8649,
      "ick": 8650,
      "▁grandma": 8651,
      "▁marshmallow": 8652,
      "▁escaped": 8653,
      "xth": 8654,
      "▁assemble": 8655,
      "avery": 8656,
      "▁service": 8657,
      "▁recreate": 8658,
      "peakers": 8659,
      "nut": 8660,
      "▁viability": 8661,
      "er": 8662,
      "▁cropd": 8663,
      "▁attacked": 8664,
      "▁ribbon": 8665,
      "▁satisf": 8666,
      "▁chris": 8667,
      "▁bottles": 8668,
      "afts": 8669,
      "▁convergence": 8670,
      "bi": 8671,
      "anized": 8672,
      "▁sucks": 8673,
      "▁vit": 8674,
      "imb": 8675,
      "▁consu": 8676,
      "▁blocks": 8677,
      "▁ranked": 8678,
      "▁coalition": 8679,
      "ceived": 8680,
      "▁baggage": 8681,
      "tics": 8682,
      "ineered": 8683,
      "▁threat": 8684,
      "▁restoration": 8685,
      "▁allies": 8686,
      "▁honour": 8687,
      "ouch": 8688,
      "▁agrees": 8689,
      "▁leaves": 8690,
      "▁embarrass": 8691,
      "olding": 8692,
      "▁dolls": 8693,
      "▁extremely": 8694,
      "▁attaining": 8695,
      "▁contribution": 8696,
      "▁presentation": 8697,
      "essment": 8698,
      "▁shepherd": 8699,
      "▁beaters": 8700,
      "fighter": 8701,
      "▁bowling": 8702,
      "▁wite": 8703,
      "▁frozen": 8704,
      "eces": 8705,
      "▁italian": 8706,
      "▁delivery": 8707,
      "▁electr": 8708,
      "▁weapon": 8709,
      "uly": 8710,
      "▁investig": 8711,
      "▁rip": 8712,
      "▁discom": 8713,
      "▁dvd": 8714,
      "▁individual": 8715,
      "▁moral": 8716,
      "▁knots": 8717,
      "▁biodiversity": 8718,
      "▁countries": 8719,
      "▁broth": 8720,
      "▁advanced": 8721,
      "▁achieving": 8722,
      "▁writed": 8723,
      "▁clothespin": 8724,
      "▁freezer": 8725,
      "▁storm": 8726,
      "-of-": 8727,
      "▁accommodation": 8728,
      "▁tun": 8729,
      "▁media": 8730,
      "lik": 8731,
      "▁bo": 8732,
      "▁sound": 8733,
      "▁conclu": 8734,
      "▁quarters": 8735,
      "▁terminated": 8736,
      "▁titles": 8737,
      "▁recent": 8738,
      "ders": 8739,
      "▁historians": 8740,
      "▁obtaining": 8741,
      "▁bonus": 8742,
      "▁sailor": 8743,
      "▁handker": 8744,
      "▁interv": 8745,
      "▁dece": 8746,
      "▁transferring": 8747,
      "ore": 8748,
      "▁bicycle": 8749,
      "urs": 8750,
      "▁biting": 8751,
      "▁falled": 8752,
      "▁poodle": 8753,
      "onsum": 8754,
[...]
