{
  "version": "1.0",
  "truncation": null,
  "padding": null,
  "added_tokens": [
    {
      "id": 6529,
      "content": "[PAD]",
      "single_word": false,
      "lstrip": false,
      "rstrip": false,
      "normalized": false,
      "special": true
    },
    {
      "id": 7687,
      "content": "[MASK]",
      "single_word": false,
      "lstrip": false,
      "rstrip": false,
      "normalized": false,
      "special": true
    },
    {
      "id": 7865,
      "content": "[UNK]",
      "single_word": false,
      "lstrip": false,
      "rstrip": false,
      "normalized": false,
      "special": true
    },
    {
      "id": 12888,
      "content": "[CLS]",
      "single_word": false,
      "lstrip": false,
      "rstrip": false,
      "normalized": false,
      "special": true
    },
    {
      "id": 13320,
      "content": "[SEP]",
      "single_word": false,
      "lstrip": false,
      "rstrip": false,
      "normalized": false,
      "special": true
    }
  ],
  "normalizer": {
    "type": "Sequence",
    "normalizers": [
      {
        "type": "NFD"
      },
      {
        "type": "Lowercase"
      },
      {
        "type": "StripAccents"
      }
    ]
  },
  "pre_tokenizer": {
    "type": "Sequence",
    "pretokenizers": [
      {
        "type": "Metaspace",
        "replacement": "▁",
        "prepend_scheme": "always",
        "split": true
      }
    ]
  },
  "post_processor": {
    "type": "TemplateProcessing",
    "single": [
      {
        "SpecialToken": {
          "id": "[CLS]",
          "type_id": 0
        }
      },
      {
        "Sequence": {
          "id": "A",
          "type_id": 0
        }
      },
      {
        "SpecialToken": {
          "id": "[SEP]",
          "type_id": 0
        }
      }
    ],
    "pair": [
      {
        "SpecialToken": {
          "id": "[CLS]",
          "type_id": 0
        }
      },
      {
        "Sequence": {
          "id": "A",
          "type_id": 0
        }
      },
      {
        "SpecialToken": {
          "id": "[SEP]",
          "type_id": 0
        }
      },
      {
        "Sequence": {
          "id": "B",
          "type_id": 1
        }
      },
      {
        "SpecialToken": {
          "id": "[SEP]",
          "type_id": 1
        }
      }
    ],
    "special_tokens": {
      "[CLS]": {
        "id": "[CLS]",
        "ids": [
          12888
        ],
        "tokens": [
          "[CLS]"
        ]
      },
      "[SEP]": {
        "id": "[SEP]",
        "ids": [
          13320
        ],
        "tokens": [
          "[SEP]"
        ]
      }
    }
  },
  "decoder": {
    "type": "Metaspace",
    "replacement": "▁",
    "prepend_scheme": "always",
    "split": true
  },
  "model": {
    "type": "BPE",
    "dropout": null,
    "unk_token": "[UNK]",
    "continuing_subword_prefix": null,
    "end_of_word_suffix": null,
    "fuse_unk": false,
    "byte_fallback": false,
    "ignore_merges": false,
    "vocab": {
      "!!!!!!!!": 0,
      "iss": 1,
      "▁candy": 2,
      "▁contested": 3,
      "▁threats": 4,
      "ming": 5,
      "▁rude": 6,
      "ensity": 7,
      "▁squirt": 8,
      "▁scand": 9,
      "▁slipped": 10,
      "itate": 11,
      "▁guaranteeing": 12,
      "▁cognition": 13,
      "▁chat": 14,
      "▁curriculum": 15,
      "orum": 16,
      "40": 17,
      "▁introduc": 18,
      "izz": 19,
      "▁allocated": 20,
      "▁circles": 21,
      "▁interv": 22,
      "▁there": 23,
      "▁trafficking": 24,
      "▁ecosystems": 25,
      "▁date": 26,
      "▁circum": 27,
      "▁twirl": 28,
      "▁passages": 29,
      "▁realities": 30,
      "▁dies": 31,
      "▁ec": 32,
      "▁involved": 33,
      "▁quit": 34,
      "▁ha": 35,
      "▁must": 36,
      "holds": 37,
      "mates": 38,
      "▁proble": 39,
      "▁airplan": 40,
      "▁tells": 41,
      "▁boots": 42,
      "▁perce": 43,
      "▁form": 44,
      "eu": 45,
      ".c": 46,
      "▁beck": 47,
      "lder": 48,
      "▁conventions": 49,
      "timate": 50,
      "▁forgotten": 51,
      "▁areas": 52,
      "▁thomas": 53,
      "▁scorp": 54,
      "▁odds": 55,
      "ensus": 56,
      "look": 57,
      "▁resources": 58,
      "▁whistle": 59,
      "▁recommended": 60,
      "▁dome": 61,
      "▁q": 62,
      "ived": 63,
      "▁morcillas": 64,
      "▁paint": 65,
      "▁joining": 66,
      "tly": 67,
      "▁pun": 68,
      "▁provocation": 69,
      "▁wanted": 70,
      "▁wasp": 71,
      "▁ego": 72,
      "▁football": 73,
      "loaded": 74,
      "▁establish": 75,
      "▁appears": 76,
      "▁advisor": 77,
      "▁fueled": 78,
      "▁pounce": 79,
      "▁futures": 80,
      "▁acupuncturist": 81,
      "▁affiliate": 82,
      "▁accumulation": 83,
      "▁subscribed": 84,
      "▁guidelines": 85,
      "▁grandd": 86,
      "▁grants": 87,
      "▁created": 88,
      "▁bathroom": 89,
      "▁lest": 90,
      "wide": 91,
      "▁wedding": 92,
      "▁generates": 93,
      "in'": 94,
      "▁thanx": 95,
      "▁negligence": 96,
      "▁wait": 97,
      "waves": 98,
      "▁voters": 99,
      "cross": 100,
      "cked": 101,
      "olunte": 102,
      "▁laundry": 103,
      "▁commerce": 104,
      "▁worksheet": 105,
      "▁old": 106,
      "▁deed": 107,
      "ulum": 108,
      "▁buy": 109,
      "▁sinking": 110,
      "▁map": 111,
      "▁iran": 112,
      "▁well": 113,
      "▁watch": 114,
      "asel": 115,
      "▁employees": 116,
      "▁replication": 117,
      "▁suff": 118,
      "▁childhood": 119,
      "▁gaining": 120,
      "▁squ": 121,
      "orying": 122,
      "▁pile": 123,
      ".6": 124,
      "▁y": 125,
      "▁israelis": 126,
      "gown": 127,
      "90": 128,
      "▁daily": 129,
      "▁exceeded": 130,
      "one": 131,
      "▁bench": 132,
      "cape": 133,
      "bster": 134,
      "▁merry": 135,
      "aire": 136,
      "▁cham": 137,
      "▁transmed": 138,
      "▁answering": 139,
      "▁bankruptcy": 140,
      "▁hm": 141,
      "▁triumph": 142,
      "▁spend": 143,
      "▁buc": 144,
      "▁input": 145,
      "▁dynamics": 146,
      "▁u": 147,
      "hing": 148,
      "▁charlie": 149,
      "keeping": 150,
      "▁ammunition": 151,
      "▁headed": 152,
      "▁abundance": 153,
      "▁postage": 154,
      "▁central": 155,
      "inction": 156,
      "▁!!!?": 157,
      "▁gives": 158,
      "▁gallon": 159,
      "▁fig": 160,
      "▁x36": 161,
      "▁wonderful": 162,
      "▁indian": 163,
      "▁once": 164,
      "▁uva": 165,
      "▁hard": 166,
      "▁practices": 167,
      "▁promises": 168,
      "▁mar": 169,
      "▁invention": 170,
      "onstr": 171,
      "▁#'s": 172,
      "avor": 173,
      "tsbur": 174,
      "▁stub": 175,
      "iration": 176,
      "400": 177,
      "▁rip": 178,
      "▁belts": 179,
      "▁commits": 180,
      "▁oblig": 181,
      "▁popup": 182,
      "▁felt": 183,
      "espan": 184,
      "ier": 185,
      "▁excitement": 186,
      "▁finance": 187,
      "▁waterway": 188,
      "▁ra": 189,
      "▁obstacle": 190,
      ".h": 191,
      "▁rescued": 192,
      "▁labeled": 193,
      "---": 194,
      "▁blows": 195,
      "cin": 196,
      "▁driver": 197,
      "▁identify": 198,
      "▁donkey": 199,
      "▁memorial": 200,
      "▁fail": 201,
      "▁plug": 202,
      "▁fairs": 203,
      "▁will": 204,
      "▁spons": 205,
      "▁amendment": 206,
      "▁capit": 207,
      "▁contrad": 208,
      "aling": 209,
      "▁sir": 210,
      "▁tamed": 211,
      "▁busted": 212,
      "▁golden": 213,
      "▁with": 214,
      "ributed": 215,
      "▁const": 216,
      "▁commission": 217,
      "▁upside": 218,
      "▁first": 219,
      "▁inscri": 220,
      "▁diesel": 221,
      "▁reind": 222,
      "▁forward": 223,
      "▁trees": 224,
      "▁pushes": 225,
      "▁gogg": 226,
      "▁hasid": 227,
      "....": 228,
      "▁mid-": 229,
      "escend": 230,
      "▁outcome": 231,
      "▁papers": 232,
      "▁management": 233,
      "osis": 234,
      "ally": 235,
      "▁coinc": 236,
      "▁cradle": 237,
      "▁mistakes": 238,
      "▁tying": 239,
      "▁dime": 240,
      "ging": 241,
      "▁conduct": 242,
      "▁...................": 243,
      "▁histories": 244,
      "▁wai": 245,
      "osure": 246,
      "▁indic": 247,
      "▁varied": 248,
      "▁ever": 249,
      "▁distributed": 250,
      "▁dried": 251,
      "▁reserve": 252,
      "▁boy": 253,
      "ocrats": 254,
      "▁disappear": 255,
      "▁prophet": 256,
      "▁sometimes": 257,
      "▁subjected": 258,
      "▁clues": 259,
      "hood": 260,
      "▁intrud": 261,
      "▁partnership": 262,
      "round": 263,
      "▁motive": 264,
      "▁info": 265,
      "▁gast": 266,
      "ble": 267,
      "▁tum": 268,
      "▁appellants": 269,
      "▁pillars": 270,
      "▁incubation": 271,
      "▁facilitated": 272,
      "establish": 273,
      "az": 274,
      "ans": 275,
      "▁forehead": 276,
      "▁nut": 277,
      "▁sudd": 278,
      "▁radar": 279,
      "oam": 280,
      "▁racking": 281,
      "▁continent": 282,
      "woo": 283,
      "▁outc": 284,
      "▁applause": 285,
      "▁said": 286,
      "▁demon": 287,
      "▁bop": 288,
      "▁inn": 289,
      "▁obtained": 290,
      "▁dimension": 291,
      "▁mat": 292,
      "▁inves": 293,
      "▁cfl": 294,
      "odge": 295,
      "▁habits": 296,
      "▁caves": 297,
      "lc": 298,
      "▁oil": 299,
      "▁control": 300,
      "▁tacoma": 301,
      "▁bec": 302,
      "▁tires": 303,
      "essional": 304,
      "▁jobs": 305,
      "▁support": 306,
      "▁transmedia": 307,
      "▁fully": 308,
      "▁reality": 309,
      "science": 310,
      "▁enjoyed": 311,
      "▁advoc": 312,
      "▁dlc": 313,
      "▁tickles": 314,
      "▁alleged": 315,
      "▁tril": 316,
      "▁darkness": 317,
      "words": 318,
      "3i": 319,
      "▁councill": 320,
      "enuity": 321,
      "urbs": 322,
      "▁sentiment": 323,
      "ings": 324,
      "▁known": 325,
      "ures": 326,
      "elines": 327,
      "▁soldier": 328,
      "'et": 329,
      "▁playroom": 330,
      "▁funds": 331,
      "▁********************************": 332,
      "rid": 333,
      "▁ray": 334,
      "▁pur": 335,
      "ect": 336,
      "▁generals": 337,
      "▁singles": 338,
      "id": 339,
      "▁kleenex": 340,
      "▁boasts": 341,
      "▁tragedies": 342,
      "▁useful": 343,
      "▁grf": 344,
      "nered": 345,
      "legation": 346,
      "omend": 347,
      "▁divid": 348,
      "▁enrolled": 349,
      "▁endorsed": 350,
      "▁shiny": 351,
      "▁foreigner": 352,
      "▁approxim": 353,
      "atter": 354,
      "lled": 355,
      "end": 356,
      "▁cushion": 357,
      "▁prot": 358,
      "▁draw": 359,
      "▁canopy": 360,
      "▁winters": 361,
      "▁lean": 362,
      "▁hovered": 363,
      "▁party": 364,
      "▁blood": 365,
      "▁emphasize": 366,
      "▁silicone": 367,
      "▁nuis": 368,
      "▁abilities": 369,
      "▁surroundings": 370,
      "ini": 371,
      "▁wipe": 372,
      "▁maintains": 373,
      "▁organizing": 374,
      "▁editing": 375,
      "▁equip": 376,
      "ix": 377,
      "gest": 378,
      "▁thom": 379,
      "erence": 380,
      "▁campaign": 381,
      "▁scan": 382,
      "▁ice": 383,
      "▁programs": 384,
      "▁phone": 385,
      "▁dud": 386,
      "loy": 387,
      "▁soft": 388,
      "▁updates": 389,
      "idate": 390,
      "▁muttering": 391,
      "▁militias": 392,
      "▁rough": 393,
      "▁banknote": 394,
      "▁server": 395,
      "”": 396,
      "▁mister": 397,
      "▁arising": 398,
      "▁bon": 399,
      "▁courtyard": 400,
      "elped": 401,
      "▁abbreviation": 402,
      "most": 403,
      "▁bigger": 404,
      "tion": 405,
      "lite": 406,
      "▁gent": 407,
      "fro": 408,
      "▁encompass": 409,
      "▁dip": 410,
      "▁blamed": 411,
      "memb": 412,
      "▁starting": 413,
      "▁egyptian": 414,
      "onom": 415,
      "▁window": 416,
      "▁examination": 417,
      "▁transpar": 418,
      "▁paints": 419,
      "▁grease": 420,
      "▁song": 421,
      "▁ukra": 422,
      "▁scored": 423,
      "osite": 424,
      "▁impress": 425,
      "▁mm": 426,
      "▁rap": 427,
      "▁become": 428,
      "▁refunds": 429,
      "▁worshippers": 430,
      "▁modification": 431,
      "anx": 432,
      "▁enh": 433,
      "▁devoted": 434,
      "▁developing": 435,
      "▁filed": 436,
      "step": 437,
      "▁kim": 438,
      "▁geometries": 439,
      "▁flour": 440,
      "▁banned": 441,
      "▁refugee": 442,
      "▁align": 443,
      "▁fligh": 444,
      "▁autumn": 445,
      "irling": 446,
      "▁sim": 447,
      "▁limitations": 448,
      "▁lion": 449,
      "▁preci": 450,
      "▁wolves": 451,
      "fo": 452,
      "▁criminal": 453,
      "▁prel": 454,
      "▁prob": 455,
      "▁airline": 456,
      "▁atrocities": 457,
      "▁jury": 458,
      "▁associated": 459,
      "▁payers": 460,
      "▁strength": 461,
      "▁rising": 462,
      "▁sources": 463,
      "▁commissioned": 464,
      "▁possessions": 465,
      "nic": 466,
      "▁badge": 467,
      "▁sheltered": 468,
      "▁painting": 469,
      "▁does": 470,
      "il": 471,
      "▁satisfaction": 472,
      "▁chronic": 473,
      "▁sued": 474,
      "ything": 475,
      "▁calculated": 476,
      "▁realised": 477,
      "coon": 478,
      "▁booking": 479,
      "▁analy": 480,
      "▁grade": 481,
      "▁dipping": 482,
      "porter": 483,
      "▁ask": 484,
      "▁districts": 485,
      "▁schedule": 486,
      "wom": 487,
      "rie": 488,
      "arr": 489,
      "▁lil": 490,
      "bees": 491,
      "▁encouraged": 492,
      "▁artich": 493,
      "ify": 494,
      "▁positioning": 495,
      "▁cures": 496,
      "drops": 497,
      "▁globe": 498,
      "▁dialing": 499,
      "▁interpre": 500,
      "▁assert": 501,
      "▁kiss": 502,
      "▁read": 503,
      "▁spanning": 504,
      "▁profession": 505,
      "▁quartile": 506,
      "▁mc": 507,
      "oleum": 508,
      "▁myce": 509,
      "▁extremist": 510,
      "▁clothes": 511,
      "▁mood": 512,
      "ological": 513,
      "▁proposals": 514,
      "▁misc": 515,
      "▁illusion": 516,
      "▁bri": 517,
      "ium": 518,
      "▁stic": 519,
      "▁-----": 520,
      "▁bulldozer": 521,
      "▁tracks": 522,
      "thern": 523,
      "▁ob": 524,
      "gregation": 525,
      "put": 526,
      "onies": 527,
      "▁satisfy": 528,
      "▁looming": 529,
      "▁hospital": 530,
      "▁transp": 531,
      "▁wished": 532,
      "ius": 533,
      "▁rn": 534,
      "▁mud": 535,
      "▁lod": 536,
      "▁waf": 537,
      "--------+----------------": 538,
      "▁baking": 539,
      "▁delhi": 540,
      "▁hun": 541,
      "▁homeland": 542,
      "▁alter": 543,
      "etic": 544,
      "▁forever": 545,
      "▁reached": 546,
      "▁overwhel": 547,
      "sically": 548,
      "▁boosting": 549,
      "▁received": 550,
      "ulate": 551,
      "▁sunlight": 552,
      "st": 553,
      "6th": 554,
      "▁wifi": 555,
      "▁pecking": 556,
      "fl": 557,
      "-n": 558,
      "▁delta": 559,
      "▁prolon": 560,
      "▁reside": 561,
      "▁dna": 562,
      "▁amounts": 563,
      "▁surrounded": 564,
      "▁cycl": 565,
      "▁tide": 566,
      "▁gam": 567,
      "'s": 568,
      "▁consumers": 569,
      "scope": 570,
      "▁glimpse": 571,
      "▁alth": 572,
      "oplane": 573,
      "▁straps": 574,
      "ensions": 575,
      "▁stunk": 576,
      "▁refus": 577,
      "▁proceeding": 578,
      "▁phd": 579,
      "▁stickers": 580,
      "▁implications": 581,
      "▁fundamentalists": 582,
      "▁communicated": 583,
      "▁hous": 584,
      "▁encourages": 585,
      "▁shrubs": 586,
      "▁rank": 587,
      "▁thirtieth": 588,
      "80s": 589,
      "▁cruelty": 590,
      "▁painter": 591,
      "▁n": 592,
      "▁stopping": 593,
      "▁cap": 594,
      "▁bias": 595,
      "overs": 596,
      "hero": 597,
      "▁facilitate": 598,
      "▁solicit": 599,
      "▁highest": 600,
      "▁limb": 601,
      "▁'ll": 602,
      "▁shrie": 603,
      "itives": 604,
      "▁signoff": 605,
      "▁dr": 606,
      "▁meth": 607,
      "ghetti": 608,
      "▁call": 609,
      "▁undermine": 610,
      "▁crossed": 611,
      "inating": 612,
      "hen": 613,
      "▁spect": 614,
      "▁vial": 615,
      "faced": 616,
      "▁await": 617,
      "▁[...]": 618,
      "▁using": 619,
      "▁arsen": 620,
      "▁fabrications": 621,
      "▁tanker": 622,
      "icted": 623,
      "▁beneath": 624,
      "▁infr": 625,
      "▁hardship": 626,
      "▁pulling": 627,
      "▁farm": 628,
      "▁cinema": 629,
      "▁concerns": 630,
      "▁wilderness": 631,
      "▁learners": 632,
      "▁fruits": 633,
      "eding": 634,
      "▁fantastic": 635,
      "▁exile": 636,
      "▁communic": 637,
      "▁beetle": 638,
      "▁chin": 639,
      "▁turntable": 640,
      "▁introduce": 641,
      "▁credit": 642,
      "ignation": 643,
      "cove": 644,
      "erious": 645,
      "▁methods": 646,
      "etown": 647,
      "▁classified": 648,
      "▁scrub": 649,
      "avery": 650,
      "▁fetch": 651,
      "▁gel": 652,
      "▁dodge": 653,
      "▁hopes": 654,
      "▁bot": 655,
      "▁panted": 656,
      "ry": 657,
      "a-": 658,
      "ph": 659,
      "▁points": 660,
      "▁patents": 661,
      "▁lan": 662,
      "equ": 663,
      "jamas": 664,
      "▁analysts": 665,
      "▁elu": 666,
      "▁locomotive": 667,
      "▁stuffed": 668,
      "▁legos": 669,
      "▁insulation": 670,
      "▁mrs.": 671,
      "▁megawatt": 672,
      "▁teaspoons": 673,
      "▁americans": 674,
      "▁phenomena": 675,
      "▁pse": 676,
      "ς": 677,
      "▁scar": 678,
      "▁advancing": 679,
      "▁preserv": 680,
      "..": 681,
      "pen": 682,
      "▁sav": 683,
      "▁lif": 684,
      "▁destiny": 685,
      "▁popped": 686,
      "val": 687,
      "▁potato": 688,
      "▁tort": 689,
      "te": 690,
      "rection": 691,
      "▁eighteen": 692,
      "▁bore": 693,
      "▁effectiveness": 694,
      "▁chase": 695,
      "atched": 696,
      "▁alphabet": 697,
      "▁ill": 698,
      "▁arguing": 699,
      "▁deeds": 700,
      "▁escaped": 701,
      "▁adults": 702,
      "▁rbi": 703,
      "▁ensu": 704,
      "ointed": 705,
      "alling": 706,
      "▁animals": 707,
      "▁drugstore": 708,
      "▁sque": 709,
      "ends": 710,
      "rep": 711,
      "▁lb": 712,
      "ayed": 713,
      "▁thirds": 714,
      "▁bird": 715,
      "▁conte": 716,
      "ns": 717,
      "▁setoff": 718,
      "▁tresp": 719,
      "▁mothers": 720,
      "liament": 721,
      "▁agency": 722,
      "edia": 723,
      "▁showing": 724,
      "▁differential": 725,
      "ned": 726,
      "▁mercy": 727,
      "▁tribes": 728,
      "▁cd": 729,
      "mental": 730,
      "▁cia": 731,
      "▁login": 732,
      "▁pilot": 733,
      "▁declining": 734,
      "▁trap": 735,
      "▁spices": 736,
      "ench": 737,
      "▁tastes": 738,
      "▁sleepy": 739,
      "▁excel": 740,
      "▁oo": 741,
      "oss": 742,
      "iate": 743,
      "pherd": 744,
      "▁alternative": 745,
      "▁accum": 746,
      "▁operative": 747,
      "▁extending": 748,
      "▁ki": 749,
      "ef": 750,
      "rims": 751,
      "▁stare": 752,
      "▁gasped": 753,
      "▁visitor": 754,
      "▁charged": 755,
      "▁assigned": 756,
      "▁l2": 757,
      "▁excer": 758,
      "▁ice-cre": 759,
      "▁sandwiches": 760,
      "ention": 761,
      "▁determ": 762,
      "▁freak": 763,
      "▁recc": 764,
      "▁overalls": 765,
      "▁conqu": 766,
      "▁repurp": 767,
      "ativeness": 768,
      "ketch": 769,
      "▁tribe": 770,
      "▁attacking": 771,
      "▁plenty": 772,
      "▁garlic": 773,
      "▁unit": 774,
      "▁alt.": 775,
      "oh": 776,
      "▁mess": 777,
      "▁bay": 778,
      "▁veto": 779,
      "▁milit": 780,
      "▁pret": 781,
      "erred": 782,
      "▁novelists": 783,
      "illance": 784,
      "▁comment": 785,
      "▁alas": 786,
      "rong": 787,
      "ama": 788,
      "▁recreate": 789,
      "ghting": 790,
      "▁dispatched": 791,
      "▁sunshine": 792,
      "▁offici": 793,
      "▁conducting": 794,
      "▁denom": 795,
      "▁youn": 796,
      "eren": 797,
      "▁i.e.": 798,
      "▁chairs": 799,
      "▁messages": 800,
      "olation": 801,
      "uggle": 802,
      "▁resc": 803,
      "▁respects": 804,
      "▁co": 805,
      "▁across": 806,
      "▁hamsters": 807,
      "▁finishing": 808,
      "aki": 809,
      "▁appe": 810,
      "als": 811,
      "▁proceedings": 812,
      "ocado": 813,
      "▁demanding": 814,
      "▁fountain": 815,
      "▁beating": 816,
      "plus": 817,
      "▁arise": 818,
      "▁tenth": 819,
      "icating": 820,
      "egr": 821,
      "▁regulate": 822,
      "utor": 823,
      "rition": 824,
      "▁lime": 825,
      "▁whoo": 826,
      "▁scoop": 827,
      "▁lids": 828,
      "▁confessed": 829,
      "sical": 830,
      "scrib": 831,
      "utter": 832,
      "▁constituency": 833,
      "▁interpretations": 834,
      "▁ded": 835,
      "▁sle": 836,
      "▁twist": 837,
      "▁hosting": 838,
      "▁die": 839,
      "▁mug": 840,
      "ourse": 841,
      "rant": 842,
      "▁reint": 843,
      "▁biting": 844,
      "idence": 845,
      "▁yellow": 846,
      "▁demonstration": 847,
      "▁ce": 848,
      "amic": 849,
      "▁neighbor": 850,
      "▁thir": 851,
      "acity": 852,
      "▁candidate": 853,
      "▁ger": 854,
      "▁schedules": 855,
      "▁collec": 856,
      "▁aspirations": 857,
      "▁reluctance": 858,
      "ders": 859,
      "▁commodity": 860,
      "centi": 861,
      "▁debtors": 862,
      "▁chemicals": 863,
      "rec": 864,
      "ame": 865,
      "▁son": 866,
      "rors": 867,
      "▁mill": 868,
      "▁pdt": 869,
      "ables": 870,
      "▁idiots": 871,
      "▁fisher": 872,
      "▁marie": 873,
      "▁cass": 874,
      "▁parti": 875,
      "lic": 876,
      "▁squirrel": 877,
      "▁tantrums": 878,
      "▁recre": 879,
      "▁moor": 880,
      "▁dined": 881,
      "uted": 882,
      "▁project": 883,
      "▁exposure": 884,
      "▁peanuts": 885,
      "▁staring": 886,
      "▁concentrate": 887,
      "▁methodology": 888,
      "▁schools": 889,
      "▁steve": 890,
      "▁labelled": 891,
      "titions": 892,
      "▁noth": 893,
      "ickened": 894,
      "▁ey": 895,
      "ree": 896,
      "anese": 897,
      "irm": 898,
      "nched": 899,
      "▁dolph": 900,
      "▁orch": 901,
      "▁here": 902,
      "ctly": 903,
      "iots": 904,
      "ationed": 905,
      "▁floated": 906,
      "sel": 907,
      "▁orchestra": 908,
      "▁any": 909,
      "▁fixed": 910,
      "▁eei": 911,
      "▁bus": 912,
      "▁appointees": 913,
      "▁acquis": 914,
      "lier": 915,
      "mac": 916,
      "▁studio": 917,
      "vest": 918,
      "▁boston": 919,
      "▁threw": 920,
      "▁wrong": 921,
      "uals": 922,
      "▁minutes": 923,
      "▁currently": 924,
      "▁wish": 925,
      "▁bless": 926,
      "ination": 927,
      "▁eigh": 928,
      "etition": 929,
      "▁remed": 930,
      "▁markets": 931,
      "▁transportation": 932,
      "inars": 933,
      "vened": 934,
      "ilities": 935,
      "▁creations": 936,
      "▁scre": 937,
      "▁prevailing": 938,
      "orating": 939,
      "▁assumed": 940,
      "▁sword": 941,
      "derstand": 942,
      "▁tower": 943,
      "▁comply": 944,
      "▁4th": 945,
      "▁sketch": 946,
      "lig": 947,
      "uity": 948,
      "▁grandmas": 949,
      "▁labels": 950,
      "▁wisd": 951,
      "▁hab": 952,
      "▁mir": 953,
      "▁facebook": 954,
      "▁las": 955,
      "▁exit": 956,
      "▁dragon": 957,
      "▁vend": 958,
      "▁prof": 959,
      "cont": 960,
      "ttp": 961,
      "ower": 962,
      "▁separated": 963,
      "▁contracts": 964,
      "▁compensate": 965,
      "goround": 966,
      "▁courage": 967,
      "▁equally": 968,
      "▁median": 969,
      "▁‘’": 970,
      "▁initi": 971,
      "▁proposes": 972,
      "itt": 973,
      "▁reap": 974,
      "▁tul": 975,
      "entially": 976,
      "▁complaints": 977,
      "▁permits": 978,
      "▁tanks": 979,
      "▁formed": 980,
      "▁acronym": 981,
      "▁procession": 982,
      "▁fr": 983,
      "▁simply": 984,
      "▁aim": 985,
      "▁hones": 986,
      "▁dash": 987,
      "▁master": 988,
      "iliation": 989,
      "▁tossed": 990,
      "ouses": 991,
      "ateral": 992,
      "▁load": 993,
      "▁counters": 994,
      "yday": 995,
      "▁subscribers": 996,
      "estiv": 997,
      "▁cau": 998,
      "ak": 999,
      "▁dirt": 1000,
      "▁grown": 1001,
      "▁hastened": 1002,
      "uk": 1003,
      "▁withdrawing": 1004,
      "otape": 1005,
      "=----": 1006,
      "rote": 1007,
      "▁policeman": 1008,
      "ror": 1009,
      "▁gran": 1010,
      "issance": 1011,
      "▁greetings": 1012,
      "▁he": 1013,
      "...@": 1014,
      "time": 1015,
      "▁maize": 1016,
      "▁governor": 1017,
      "▁lacked": 1018,
      "unt": 1019,
      "▁speech": 1020,
      "rust": 1021,
      "erce": 1022,
      "▁loss": 1023,
      "▁foreigners": 1024,
      "▁spaces": 1025,
      "▁roo": 1026,
      "▁rapids": 1027,
      "▁policymakers": 1028,
      "▁condition": 1029,
      "▁candidates": 1030,
      "▁counted": 1031,
      "▁blades": 1032,
      "ience": 1033,
      "ences": 1034,
      "▁goods": 1035,
      "▁affirm": 1036,
      "▁relevant": 1037,
      "tige": 1038,
      "▁consi": 1039,
      "▁summoned": 1040,
      "▁kitchen": 1041,
      "educ": 1042,
      "▁captain": 1043,
      "▁ach": 1044,
      ".": 1045,
      "▁recruited": 1046,
      "▁os": 1047,
      "▁sentence": 1048,
      "▁shive": 1049,
      "pful": 1050,
      "▁descend": 1051,
      "▁political": 1052,
      "▁breaks": 1053,
      "ecut": 1054,
      "leon": 1055,
      "▁corrected": 1056,
      "▁satisf": 1057,
      "▁hotdogs": 1058,
      "▁flavors": 1059,
      "▁underwear": 1060,
      "oration": 1061,
      "▁curled": 1062,
      "▁6th": 1063,
      "▁breakf": 1064,
      "▁benefited": 1065,
      "▁leverage": 1066,
      "▁18": 1067,
      "▁oneself": 1068,
      "z": 1069,
      "'etat": 1070,
      "▁incubator": 1071,
      "▁sush": 1072,
      "▁bu": 1073,
      "▁legs": 1074,
      "▁dest": 1075,
      "pair": 1076,
      "▁british": 1077,
      "enfranch": 1078,
      "▁sauc": 1079,
      "▁fores": 1080,
      "▁single": 1081,
      "▁orange": 1082,
      "▁innov": 1083,
      "▁seen": 1084,
      "▁explosives": 1085,
      "▁root": 1086,
      "▁rumbling": 1087,
      "▁concern": 1088,
      "▁6": 1089,
      "}": 1090,
      "▁threatens": 1091,
      "struction": 1092,
      "atories": 1093,
      "▁vic": 1094,
      "▁fisheries": 1095,
      "▁mult": 1096,
      "66-1.doc": 1097,
      "▁kicking": 1098,
      "▁describes": 1099,
      "▁fifty": 1100,
      "ppled": 1101,
      "tially": 1102,
      "▁numbers": 1103,
      "▁giraffe": 1104,
      "oring": 1105,
      "▁wails": 1106,
      "ips": 1107,
      "▁component": 1108,
      "▁chest": 1109,
      "▁consisted": 1110,
      "ounds": 1111,
      "it": 1112,
      "▁floor": 1113,
      "▁califor": 1114,
      "▁technologies": 1115,
      "▁mostly": 1116,
      "▁zoo": 1117,
      "▁probe": 1118,
      "▁steak": 1119,
      "ised": 1120,
      "zz": 1121,
      "▁shrew": 1122,
      "▁appropri": 1123,
      "▁deputy": 1124,
      "iat": 1125,
      "▁aimed": 1126,
      "▁accessing": 1127,
      "▁needles": 1128,
      "imited": 1129,
      "▁greek": 1130,
      "▁instit": 1131,
      "text": 1132,
      "ukes": 1133,
      "▁dorm": 1134,
      "▁greatness": 1135,
      "▁flashing": 1136,
      "▁somehow": 1137,
      "▁h": 1138,
      "▁facing": 1139,
      "60's": 1140,
      "opes": 1141,
      "▁wreck": 1142,
      "he": 1143,
      "cake": 1144,
      "▁glu": 1145,
      "▁losing": 1146,
      "▁hors": 1147,
      "▁choke": 1148,
      "enerate": 1149,
      "gence": 1150,
      "▁memo": 1151,
      "▁luggage": 1152,
      "▁accordance": 1153,
      "aj": 1154,
      "▁slavery": 1155,
      "▁p.m": 1156,
      "▁bud": 1157,
      "▁orient": 1158,
      "▁sophie": 1159,
      "▁popularity": 1160,
      "▁centr": 1161,
      "▁dey": 1162,
      "▁plot": 1163,
      "ington": 1164,
      "▁browser": 1165,
      "alisation": 1166,
      "▁harmonised": 1167,
      "▁grain": 1168,
      "lo": 1169,
      "▁pip": 1170,
      "▁locking": 1171,
      "▁championship": 1172,
      "▁holes": 1173,
      "▁been": 1174,
      "▁ga": 1175,
      "▁danger": 1176,
      "▁lotos": 1177,
      "▁cans": 1178,
      "tain": 1179,
      "▁firing": 1180,
      "▁wiggle": 1181,
      "▁vacuum": 1182,
      "▁ther": 1183,
      "▁suffix": 1184,
      "ced": 1185,
      "ngth": 1186,
      "▁injuries": 1187,
      "▁impossible": 1188,
      "turing": 1189,
      "▁nowhere": 1190,
      "▁tug": 1191,
      "▁locals": 1192,
      "grow": 1193,
      "▁confirming": 1194,
      "▁fumes": 1195,
      "ids": 1196,
      "▁cornfl": 1197,
      "▁archive": 1198,
      "oint": 1199,
      "▁today": 1200,
      "▁lady": 1201,
      "▁sailors": 1202,
      "▁entirely": 1203,
      "▁innovation": 1204,
      "hee": 1205,
      "nuts": 1206,
      "▁lectures": 1207,
      "▁amazing": 1208,
      "▁tra": 1209,
      "▁liq": 1210,
      "▁dump": 1211,
      "vement": 1212,
      "▁ashes": 1213,
      "▁cloth": 1214,
      "▁aids": 1215,
      "▁tog": 1216,
      "tibility": 1217,
      "▁sector": 1218,
      "ria": 1219,
      "▁bankn": 1220,
      ",": 1221,
      "▁header": 1222,
      "▁shoo": 1223,
      "pour": 1224,
      "▁municip": 1225,
      "▁private": 1226,
      "▁course": 1227,
      "▁scientist": 1228,
      "▁stuff": 1229,
      "▁watched": 1230,
      "▁intolerance": 1231,
      "▁redeem": 1232,
      "▁finalizing": 1233,
      "▁tand": 1234,
      "▁deal": 1235,
      "▁sco": 1236,
      "▁alread": 1237,
      "▁hundreds": 1238,
      "enef": 1239,
      "▁recording": 1240,
      "▁temperatures": 1241,
      "enna": 1242,
      "▁cruise": 1243,
      "▁explore": 1244,
      "ism": 1245,
      "▁print": 1246,
      "▁ens": 1247,
      "▁attorney": 1248,
      "ones": 1249,
      "▁meowing": 1250,
      "▁picking": 1251,
      "▁giving": 1252,
      "▁governance": 1253,
      "▁devised": 1254,
      "▁speaks": 1255,
      "dron": 1256,
      "▁often": 1257,
      "▁molecules": 1258,
      "▁dominate": 1259,
      "▁api": 1260,
      "rested": 1261,
      "▁ration": 1262,
      "▁anger": 1263,
      "▁fears": 1264,
      "▁limestone": 1265,
      "▁side": 1266,
      "▁band": 1267,
      "ically": 1268,
      "▁attracted": 1269,
      "▁hiss": 1270,
      "▁health": 1271,
      "▁magic": 1272,
      "plet": 1273,
      "▁nec": 1274,
      "▁citing": 1275,
      "inent": 1276,
      "▁pill": 1277,
      "▁balloons": 1278,
      "arco": 1279,
      "▁gang": 1280,
      "▁disperse": 1281,
      "▁proc": 1282,
      "▁astronauts": 1283,
      "▁subscrib": 1284,
      "łodz": 1285,
      "▁enemy": 1286,
      "▁squeak": 1287,
      "dle": 1288,
      "▁pretended": 1289,
      "▁aversion": 1290,
      "cess": 1291,
      "▁la": 1292,
      "liance": 1293,
      "▁breach": 1294,
      "▁aspir": 1295,
      "▁mushroom": 1296,
      "▁already": 1297,
      "▁engine": 1298,
      "▁consorti": 1299,
      "▁damaged": 1300,
      "▁devising": 1301,
      "▁dangerous": 1302,
      "▁colour": 1303,
      "▁consultation": 1304,
      "▁spite": 1305,
      "▁fund": 1306,
      "▁15": 1307,
      "▁coat": 1308,
      "▁faun": 1309,
      "▁mo": 1310,
      "▁trick": 1311,
      "▁hats": 1312,
      "bit": 1313,
      "▁haircut": 1314,
      "▁distributing": 1315,
      "▁infuse": 1316,
      "▁assoc": 1317,
      "▁protege": 1318,
      "▁reflects": 1319,
      "mentation": 1320,
      "▁”": 1321,
      "▁taxi": 1322,
      "imizing": 1323,
      "▁ranging": 1324,
      "▁traced": 1325,
      "▁stung": 1326,
      "▁requesting": 1327,
      "▁snake": 1328,
      "▁shrimp": 1329,
      "▁urged": 1330,
      "▁grabbing": 1331,
      "▁fre": 1332,
      "▁profile": 1333,
      "▁fold": 1334,
      "▁donate": 1335,
      "▁increase": 1336,
      "▁attending": 1337,
      "ily": 1338,
      "quet": 1339,
      "▁witches": 1340,
      "ames": 1341,
      "▁cro": 1342,
      "tigr": 1343,
      "▁situations": 1344,
      "▁doll": 1345,
      "▁investig": 1346,
      "▁concent": 1347,
      "▁reh": 1348,
      "sts": 1349,
      "▁un": 1350,
      "▁extinction": 1351,
      "▁numbered": 1352,
      "▁buyer": 1353,
      "▁stret": 1354,
      "▁helic": 1355,
      "▁marty": 1356,
      "▁traveling": 1357,
      "ademic": 1358,
      "▁posted": 1359,
      "▁jer": 1360,
      "▁nationalities": 1361,
      "▁parachute": 1362,
      "▁dol": 1363,
      "φ": 1364,
      "ternoon": 1365,
      "▁tasks": 1366,
      "eat": 1367,
      "ectiveness": 1368,
      "▁marrying": 1369,
      "▁submitted": 1370,
      "▁holiday": 1371,
      "▁wagging": 1372,
      "un": 1373,
      "▁reintroduction": 1374,
      "▁settlements": 1375,
      "ythm": 1376,
      "lar": 1377,
      "▁sk": 1378,
      "▁t+re": 1379,
      "▁monkeys": 1380,
      "▁norms": 1381,
      "▁dress": 1382,
      "▁uses": 1383,
      "▁juice": 1384,
      "ustice": 1385,
      "u": 1386,
      "▁insul": 1387,
      "▁totes": 1388,
      "▁termin": 1389,
      "hy": 1390,
      "▁attitudes": 1391,
      "▁aggression": 1392,
      "▁progression": 1393,
      "▁headset": 1394,
      "▁savages": 1395,
      "▁snowing": 1396,
      "▁henry": 1397,
      "▁econom": 1398,
      "▁pausing": 1399,
      "▁indicated": 1400,
      "▁islets": 1401,
      "▁rained": 1402,
      "▁twice": 1403,
      "olding": 1404,
      "▁agreeing": 1405,
      "▁blues": 1406,
      "oughly": 1407,
      "▁clients": 1408,
      "puts": 1409,
      "unami": 1410,
      "▁blankets": 1411,
      "▁manners": 1412,
      "▁marshes": 1413,
      "▁restaur": 1414,
      "▁orig": 1415,
      "olve": 1416,
      "oly": 1417,
      "▁professional": 1418,
      "▁quiddit": 1419,
      "amel": 1420,
      "▁centuries": 1421,
      "▁persp": 1422,
      "zers": 1423,
      "▁element": 1424,
      "▁comments": 1425,
      "dre": 1426,
      "▁saves": 1427,
      "pir": 1428,
      "▁lunchtime": 1429,
      "mplified": 1430,
      "▁discourse": 1431,
      "▁manuscri": 1432,
      "▁buggy": 1433,
      "▁marketing": 1434,
      "▁posts": 1435,
      "▁60's": 1436,
      "▁spacetime": 1437,
      "▁ssh": 1438,
      "▁500": 1439,
      "▁shrouded": 1440,
      "ront": 1441,
      "▁temper": 1442,
      "▁mystery": 1443,
      "▁quad": 1444,
      "boats": 1445,
      "▁stap": 1446,
      "yards": 1447,
      "gie": 1448,
      "▁aspiration": 1449,
      "▁beverage": 1450,
      "mb": 1451,
      "▁count": 1452,
      "yed": 1453,
      "▁muscles": 1454,
      "▁ships": 1455,
      "▁jurisd": 1456,
      "eman": 1457,
      "▁wiel": 1458,
      "▁conv": 1459,
      "▁dep": 1460,
      "▁mwh": 1461,
      "▁chips": 1462,
      "▁email": 1463,
      "▁bub": 1464,
      "▁potential": 1465,
      "▁dine": 1466,
      "▁pleas": 1467,
      "▁appeal": 1468,
      "alc": 1469,
      "▁chasers": 1470,
      "▁booked": 1471,
      "▁neither": 1472,
      "▁complaint": 1473,
      "▁boarding": 1474,
      "▁transf": 1475,
      "▁vod": 1476,
      "▁striking": 1477,
      "▁math": 1478,
      "▁pati": 1479,
      "▁track": 1480,
      "▁accuracy": 1481,
      "▁partnerships": 1482,
      "▁atlan": 1483,
      "▁nursery": 1484,
      "▁epm": 1485,
      "▁real": 1486,
      "▁specim": 1487,
      "▁subway": 1488,
      "▁pattern": 1489,
      "▁blanket": 1490,
      "emb": 1491,
      "▁scient": 1492,
      "▁command": 1493,
      "▁want": 1494,
      "▁war": 1495,
      "▁takeoffs": 1496,
      ".com/": 1497,
      "▁let": 1498,
      "▁fragments": 1499,
      "▁rock": 1500,
      "▁artic": 1501,
      "▁ur": 1502,
      "uah": 1503,
      "▁judgment": 1504,
      "▁silver": 1505,
      "&": 1506,
      "▁tod": 1507,
      "piece": 1508,
      "▁shipment": 1509,
      "▁bust": 1510,
      "▁worship": 1511,
      "▁communicate": 1512,
      "▁honesty": 1513,
      "▁pel": 1514,
      "▁dying": 1515,
      "▁skipping": 1516,
      "▁secur": 1517,
      "▁relating": 1518,
      "▁intermed": 1519,
      "no": 1520,
      "▁sub": 1521,
      "▁prayers": 1522,
      "▁constr": 1523,
      "▁collab": 1524,
      "▁worked": 1525,
      "igorate": 1526,
      "▁conviction": 1527,
      "▁conformity": 1528,
      "▁machine": 1529,
      "▁logic": 1530,
      "▁detail": 1531,
      "▁defender": 1532,
      "▁dragged": 1533,
      "tive": 1534,
      "▁x33907": 1535,
      "▁apolog": 1536,
      "▁squeal": 1537,
      "▁hypnotized": 1538,
      "▁freezer": 1539,
      "▁dick": 1540,
      "sm": 1541,
      "▁developers": 1542,
      "▁emission": 1543,
      "▁technician": 1544,
      "▁foo": 1545,
      "▁stim": 1546,
      "▁collap": 1547,
      "unic": 1548,
      "▁pedic": 1549,
      "▁you": 1550,
      "ois": 1551,
      "▁faculty": 1552,
      "▁magazine": 1553,
      "▁invested": 1554,
      "▁corners": 1555,
      "▁resume": 1556,
      "▁activities": 1557,
      "▁licen": 1558,
      "▁hr": 1559,
      "▁massac": 1560,
      "▁priorities": 1561,
      "▁slave": 1562,
      "▁=": 1563,
      "uggles": 1564,
      "ru": 1565,
      "rol": 1566,
      "▁illusions": 1567,
      "▁medal": 1568,
      "▁remains": 1569,
      "p": 1570,
      "▁dri": 1571,
      "▁lions": 1572,
      "▁after": 1573,
      "▁gots": 1574,
      "▁world": 1575,
      "▁....................": 1576,
      "▁rule": 1577,
      "▁changed": 1578,
      "erest": 1579,
      "▁pajamas": 1580,
      "▁creates": 1581,
      "▁magnet": 1582,
      "iance": 1583,
      "▁cabb": 1584,
      "▁emit": 1585,
      "▁blinked": 1586,
      "▁star": 1587,
      "▁lingerie": 1588,
      "▁units": 1589,
      "▁satur": 1590,
      "▁pew": 1591,
      "▁hills": 1592,
      "▁product": 1593,
      "▁expressing": 1594,
      "▁presence": 1595,
      "▁publications": 1596,
      "▁confron": 1597,
      "jecting": 1598,
      "uring": 1599,
      "bs": 1600,
      "▁instance": 1601,
      "▁segment": 1602,
      "ending": 1603,
      "▁depths": 1604,
      "atives": 1605,
      "▁inhabitants": 1606,
      "▁select": 1607,
      "ocratic": 1608,
      "▁eu": 1609,
      "▁somewh": 1610,
      "▁high": 1611,
      "▁guerr": 1612,
      "▁calories": 1613,
      "▁doc": 1614,
      "▁prop": 1615,
      "▁passing": 1616,
      "▁equals": 1617,
      "▁big": 1618,
      "min": 1619,
      "▁ribbon": 1620,
      "ian": 1621,
      "▁textbook": 1622,
      "▁emitting": 1623,
      "▁generali": 1624,
      "▁marry": 1625,
      "▁attempted": 1626,
      "hin": 1627,
      "▁expect": 1628,
      "cakes": 1629,
      "▁advice": 1630,
      "▁awesome": 1631,
      "▁jealousy": 1632,
      "▁approach": 1633,
      ".8": 1634,
      "▁found": 1635,
      "▁million": 1636,
      "▁themselves": 1637,
      "▁rates": 1638,
      "▁sharks": 1639,
      "▁writings": 1640,
      "▁hated": 1641,
      "▁souls": 1642,
      "▁cutted": 1643,
      "▁undermining": 1644,
      "▁islands": 1645,
      "▁|": 1646,
      "▁turboprop": 1647,
      "umbs": 1648,
      "▁rom": 1649,
      "▁ago": 1650,
      "▁produc": 1651,
      "▁enfor": 1652,
      "▁obsc": 1653,
      "▁flap": 1654,
      "▁anticipating": 1655,
      "▁creatures": 1656,
      "▁challenged": 1657,
      "▁involving": 1658,
      "▁cuc": 1659,
      "▁clean": 1660,
      "▁----------------------------------------------------------------------": 1661,
      "▁click": 1662,
      "▁accord": 1663,
      "ondon": 1664,
      "▁chall": 1665,
      "unc": 1666,
      "ł": 1667,
      "▁scrape": 1668,
      "▁water": 1669,
      "cillas": 1670,
      "▁spy": 1671,
      "▁bachel": 1672,
      "▁advise": 1673,
      "pes": 1674,
      "▁screen": 1675,
      "▁shame": 1676,
      "▁tipt": 1677,
      "▁jaw": 1678,
      "berry": 1679,
      "▁ρ": 1680,
      "▁vide": 1681,
      "▁accounts": 1682,
      "▁discount": 1683,
      "▁treating": 1684,
      "▁stethoscope": 1685,
      "etti": 1686,
      "▁altitude": 1687,
      "▁scary": 1688,
      "▁within": 1689,
      "▁fi": 1690,
      "▁overlook": 1691,
      "▁zip": 1692,
      "arc": 1693,
      "inny": 1694,
      "uate": 1695,
      "▁retrieve": 1696,
      "▁survivors": 1697,
      "▁distribution": 1698,
      "▁artist": 1699,
      "▁craft": 1700,
      "▁cattle": 1701,
      "liability": 1702,
      "▁80's": 1703,
      "ribb": 1704,
      "▁ecommerce": 1705,
      "▁delivery": 1706,
      "ians": 1707,
      "very": 1708,
      "▁201": 1709,
      "▁cla": 1710,
      "▁thumb": 1711,
      "▁denied": 1712,
      "▁economists": 1713,
      "▁package": 1714,
      "▁poo": 1715,
      "▁imbal": 1716,
      "▁spring": 1717,
      "▁km": 1718,
      "▁accommodation": 1719,
      "rd": 1720,
      "▁injection": 1721,
      "aying": 1722,
      "owering": 1723,
      "▁perhap": 1724,
      "▁martyrs": 1725,
      "▁praise": 1726,
      "▁tiles": 1727,
      "▁spin": 1728,
      "▁dose": 1729,
      "▁sushi": 1730,
      "▁index": 1731,
      "▁flops": 1732,
      "▁portraits": 1733,
      "▁mer": 1734,
      "▁seasons": 1735,
      "▁squared": 1736,
      "▁constantly": 1737,
      "▁yoghurt": 1738,
      "▁makeup": 1739,
      "owned": 1740,
      "▁calculate": 1741,
      "▁justify": 1742,
      "▁nineteenth": 1743,
      "▁aa": 1744,
      "▁laughter": 1745,
      "ay": 1746,
      "▁pamph": 1747,
      "▁wiring": 1748,
      "▁journ": 1749,
      "maries": 1750,
      "▁loc": 1751,
      "yalty": 1752,
      "▁monopoly": 1753,
      "▁toile": 1754,
      "▁assassination": 1755,
      "ο": 1756,
      "ici": 1757,
      "▁com": 1758,
      "▁components": 1759,
      "▁textile": 1760,
      "eda": 1761,
      "▁beds": 1762,
      "▁withdrew": 1763,
      "under": 1764,
      "▁yogh": 1765,
      "▁sculp": 1766,
      "▁phon": 1767,
      "▁south": 1768,
      "▁rapidly": 1769,
      "▁caution": 1770,
      "oma": 1771,
      "▁brows": 1772,
      "▁visu": 1773,
      "▁headband": 1774,
      "▁identification": 1775,
      "▁pas": 1776,
      "▁worsh": 1777,
      "▁coded": 1778,
      "ym": 1779,
      "▁conjunction": 1780,
      "ptian": 1781,
      "▁til": 1782,
      "▁chan": 1783,
      "▁gone": 1784,
      "▁countries": 1785,
      "▁sti": 1786,
      "▁sty": 1787,
      "▁judgments": 1788,
      "ingness": 1789,
      "times": 1790,
      "▁purple": 1791,
      "▁barking": 1792,
      "▁stadium": 1793,
      "▁continental": 1794,
      "▁adm": 1795,
      "obia": 1796,
      "gencies": 1797,
      "chief": 1798,
      "▁whose": 1799,
      "▁meets": 1800,
      "engers": 1801,
      "▁lib": 1802,
      "▁preferred": 1803,
      "--": 1804,
      "▁acceler": 1805,
      "utors": 1806,
      "▁gym": 1807,
      "▁=---": 1808,
      "hirt": 1809,
      "▁childcare": 1810,
      "▁receiving": 1811,
      "ε": 1812,
      "▁gri": 1813,
      "▁tiger": 1814,
      "▁excluding": 1815,
      "hf": 1816,
      "ergy": 1817,
      "ern": 1818,
      "▁cuffs": 1819,
      "ters": 1820,
      "▁glass": 1821,
      "▁artworks": 1822,
      "▁lunche": 1823,
      "▁ridden": 1824,
      "▁studies": 1825,
      "▁minimum": 1826,
      "por": 1827,
      "▁literature": 1828,
      "▁dance": 1829,
      "▁enthusiasts": 1830,
      "▁protocol": 1831,
      "▁legisl": 1832,
      "▁planning": 1833,
      "ooling": 1834,
      "zen": 1835,
      "▁houses": 1836,
      "▁neighbors": 1837,
      "▁197": 1838,
      "aed": 1839,
      "▁mute": 1840,
      "▁saucepan": 1841,
      "▁ready": 1842,
      "▁vol": 1843,
      "▁got": 1844,
      "▁nearly": 1845,
      "▁vitamin": 1846,
      "phology": 1847,
      "ev": 1848,
      "▁who's": 1849,
      "▁civilization": 1850,
      "▁registered": 1851,
      "▁deficit": 1852,
      "▁ev": 1853,
      "▁waited": 1854,
      "▁saddam": 1855,
      "▁eng": 1856,
      "▁encouraging": 1857,
      "▁node": 1858,
      "ipl": 1859,
      "▁capacities": 1860,
      "▁pulls": 1861,
      "▁weak": 1862,
      "▁confiscated": 1863,
      "os": 1864,
      "cel": 1865,
      "▁channe": 1866,
      "iod": 1867,
      "ibb": 1868,
      "lent": 1869,
      "▁pivotchart": 1870,
      "▁chief": 1871,
      "▁mish": 1872,
      "ate": 1873,
      "▁accomplishments": 1874,
      "▁pro": 1875,
      "▁ink": 1876,
      "▁encourage": 1877,
      "▁lied": 1878,
      "/1": 1879,
      "▁swaying": 1880,
      "▁request": 1881,
      "▁dug": 1882,
      "▁lawn": 1883,
      "▁quino": 1884,
      "ne": 1885,
      "ros": 1886,
      "▁fa": 1887,
      "▁intercepted": 1888,
      "▁weasley": 1889,
      "orned": 1890,
      "▁biked": 1891,
      "nies": 1892,
      "▁unable": 1893,
      "▁historians": 1894,
      "sc": 1895,
      "▁woman": 1896,
      "▁achie": 1897,
      "▁tem": 1898,
      "▁unf": 1899,
      "▁mature": 1900,
      "▁completed": 1901,
      "▁aven": 1902,
      "idity": 1903,
      "ek": 1904,
      "iders": 1905,
      "▁medic": 1906,
      "▁wondering": 1907,
      "▁killed": 1908,
      "▁blame": 1909,
      "▁bleeding": 1910,
      "▁jurisdictions": 1911,
      "▁mini": 1912,
      "▁wines": 1913,
      "oster": 1914,
      "▁failure": 1915,
      "esp": 1916,
      "▁presidents": 1917,
      "▁hoped": 1918,
      "▁orchestrated": 1919,
      "▁beauty": 1920,
      "▁hang": 1921,
      "▁panda": 1922,
      "▁`": 1923,
      "ples": 1924,
      "▁regain": 1925,
      "waukee": 1926,
      "5": 1927,
      "▁dancing": 1928,
      "▁past": 1929,
      "▁shar": 1930,
      "▁corporation": 1931,
      "▁rhinoceros": 1932,
      "▁tile": 1933,
      "tern": 1934,
      "▁lick": 1935,
      "▁disney": 1936,
      "▁becoming": 1937,
      "ring": 1938,
      "▁judging": 1939,
      "▁famili": 1940,
      "▁teasing": 1941,
      "▁flo": 1942,
      "▁buses": 1943,
      "▁phones": 1944,
      "▁argues": 1945,
      "tained": 1946,
      "▁important": 1947,
      "▁mold": 1948,
      "▁smuggling": 1949,
      "▁ang": 1950,
      "▁convergence": 1951,
      "▁symbol": 1952,
      "▁wake": 1953,
      "▁nat": 1954,
      "ullness": 1955,
      "▁greenhouse": 1956,
      "▁electron": 1957,
      "▁spec": 1958,
      "▁intensity": 1959,
      "▁staff": 1960,
      "▁generally": 1961,
      "ors": 1962,
      "▁multi": 1963,
      "phab": 1964,
      "▁bulb": 1965,
      "▁vow": 1966,
      "▁invent": 1967,
      "ears": 1968,
      "▁anchored": 1969,
      "▁highlights": 1970,
      "▁preventing": 1971,
      "uter": 1972,
      "hakes": 1973,
      "▁refer": 1974,
      "▁atmos": 1975,
      "▁whatever": 1976,
      "▁ceo": 1977,
      "▁exploited": 1978,
      "▁warrant": 1979,
      "umble": 1980,
      "▁oatmeal": 1981,
      "▁diagr": 1982,
      "enade": 1983,
      "▁faced": 1984,
      "alecki": 1985,
      "ocation": 1986,
      "▁1920s": 1987,
      "▁reserved": 1988,
      "▁controversy": 1989,
      "▁archbishop": 1990,
      "▁feeding": 1991,
      "46": 1992,
      "▁thanking": 1993,
      "▁mow": 1994,
      "▁doing": 1995,
      "▁arms": 1996,
      "▁lip": 1997,
      "▁drawn": 1998,
      "▁takes": 1999,
      "re": 2000,
      "ash": 2001,
      "iency": 2002,
      "▁commerc": 2003,
      "▁ama": 2004,
      "▁hearings": 2005,
      "▁oct": 2006,
      "▁scoring": 2007,
      "▁seed": 2008,
      "▁oils": 2009,
      "empor": 2010,
      "▁rid": 2011,
      "▁place": 2012,
      "▁knitting": 2013,
      "▁violation": 2014,
      "▁stif": 2015,
      "dly": 2016,
      "tics": 2017,
      "rovers": 2018,
      "▁phase": 2019,
      "▁ramifications": 2020,
      "▁wrongdoing": 2021,
      "▁billion": 2022,
      "page": 2023,
      "-in": 2024,
      "inator": 2025,
      "▁arrange": 2026,
      "tiality": 2027,
      "▁characteris": 2028,
      "▁rein": 2029,
      "▁frogg": 2030,
      "ody": 2031,
      "/2005": 2032,
      "▁scientific": 2033,
      "eos": 2034,
      "▁nume": 2035,
      "▁commem": 2036,
      "▁television": 2037,
      "ton": 2038,
      "▁forgiven": 2039,
      "ene": 2040,
      "position": 2041,
      "▁firm": 2042,
      "▁specified": 2043,
      "▁harvest": 2044,
      "art": 2045,
      "▁mig": 2046,
      "aces": 2047,
      "alculation": 2048,
      "▁fuzz": 2049,
      "▁teeth": 2050,
      "▁wh": 2051,
      "▁afric": 2052,
      "abb": 2053,
      "cially": 2054,
      "▁johnson": 2055,
      "▁spiders": 2056,
      "▁convictions": 2057,
      "▁swee": 2058,
      "▁holds": 2059,
      "▁bric": 2060,
      "aucr": 2061,
      "▁telephone": 2062,
      "den": 2063,
      "▁planets": 2064,
      "▁jur": 2065,
      "▁welfare": 2066,
      "lin": 2067,
      "lics": 2068,
      "▁dvd": 2069,
      "▁jigsaw": 2070,
      "▁assemb": 2071,
      "▁cats": 2072,
      "▁generalizability": 2073,
      "▁microscope": 2074,
      "▁poured": 2075,
      "/200": 2076,
      "cause": 2077,
      "▁hailed": 2078,
      "▁shut": 2079,
      "artment": 2080,
      "▁retirement": 2081,
      "▁hyd": 2082,
      "▁discussion": 2083,
      "▁pockets": 2084,
      "ages": 2085,
      "rying": 2086,
      "▁coin": 2087,
      "▁models": 2088,
      "▁asking": 2089,
      "▁hem": 2090,
      "ura": 2091,
      "▁containing": 2092,
      "ogel": 2093,
      "▁corpora": 2094,
      "▁cookies": 2095,
      "▁regular": 2096,
      "▁ca": 2097,
      "▁hide": 2098,
      "▁seeds": 2099,
      "▁purpos": 2100,
      "▁households": 2101,
      "▁thre": 2102,
      "▁debated": 2103,
      "▁investigating": 2104,
      "▁spirit": 2105,
      "▁grandpa": 2106,
      "▁computing": 2107,
      "▁pron": 2108,
      "▁worries": 2109,
      "▁som": 2110,
      "estone": 2111,
      "izes": 2112,
      "▁vegetables": 2113,
      "▁gates": 2114,
      "▁agencies": 2115,
      "▁bib": 2116,
      "▁solution": 2117,
      "▁duration": 2118,
      "▁rival": 2119,
      "▁waiver": 2120,
      "ari": 2121,
      "▁truths": 2122,
      "ibilities": 2123,
      "▁avoidance": 2124,
      "▁test": 2125,
      "++": 2126,
      "▁ruler": 2127,
      "imore": 2128,
      "▁under": 2129,
      "▁transformed": 2130,
      "▁workforce": 2131,
      "▁curr": 2132,
      "▁federation": 2133,
      "▁considerations": 2134,
      "▁theat": 2135,
      "▁dram": 2136,
      "▁formality": 2137,
      "▁implementing": 2138,
      "▁forefinger": 2139,
      "▁rob": 2140,
      "▁dinosaurs": 2141,
      "▁tidbit": 2142,
      "rently": 2143,
      "▁rental": 2144,
      "▁plate": 2145,
      "▁increasingly": 2146,
      "▁traders": 2147,
      "▁pills": 2148,
      "▁influenced": 2149,
      "▁windows": 2150,
      "pathy": 2151,
      "▁alt.animals.dog": 2152,
      "▁clothing": 2153,
      "▁holt": 2154,
      "▁blew": 2155,
      "town": 2156,
      "▁assump": 2157,
      "▁files": 2158,
      "▁tips": 2159,
      "▁paramet": 2160,
      "onated": 2161,
      "%": 2162,
      "▁deposit": 2163,
      "ver": 2164,
      "vation": 2165,
      "▁teenagers": 2166,
      "ye": 2167,
      "▁muggles": 2168,
      "▁01": 2169,
      "▁dongle": 2170,
      "▁maximum": 2171,
      "▁recognized": 2172,
      "▁agai": 2173,
      "▁female": 2174,
      "ender": 2175,
      "fer": 2176,
      "temp": 2177,
      "▁archit": 2178,
      "▁borrowers": 2179,
      "iciate": 2180,
      "▁defin": 2181,
      "▁me": 2182,
      "▁b2b": 2183,
      "▁id": 2184,
      "▁olive": 2185,
      "▁scene": 2186,
      "ifications": 2187,
      "▁fy0": 2188,
      "vious": 2189,
      "▁rejection": 2190,
      "▁symbolism": 2191,
      "▁ding": 2192,
      "▁waters": 2193,
      "▁meetings": 2194,
      "aid": 2195,
      "▁nud": 2196,
      "▁leon": 2197,
      "ted": 2198,
      "▁relatively": 2199,
      "▁russ": 2200,
      "▁detroit": 2201,
      "▁reptile": 2202,
      "▁bathtub": 2203,
      "▁programme": 2204,
      "quently": 2205,
      "lees": 2206,
      "▁wound": 2207,
      "▁indianapolis": 2208,
      "▁ny": 2209,
      "xth": 2210,
      "arism": 2211,
      "93": 2212,
      "▁particular": 2213,
      "▁dh": 2214,
      "▁sympathize": 2215,
      "▁wide": 2216,
      "▁reported": 2217,
      "comp": 2218,
      "▁stop": 2219,
      "▁missed": 2220,
      "▁profit": 2221,
      "▁extra": 2222,
      "▁association": 2223,
      "▁waitresses": 2224,
      "▁suggest": 2225,
      "uttered": 2226,
      "aissance": 2227,
      "▁uhhuh": 2228,
      "▁expression": 2229,
      ".v": 2230,
      "▁such": 2231,
      "attered": 2232,
      "▁fos": 2233,
      "▁clattering": 2234,
      "▁sweater": 2235,
      "urities": 2236,
      "▁dynam": 2237,
      "▁lives": 2238,
      "▁animation": 2239,
      "▁behavi": 2240,
      "▁mother": 2241,
      "▁pretending": 2242,
      "▁itself": 2243,
      "▁diale": 2244,
      "velled": 2245,
      "▁patent": 2246,
      "▁still": 2247,
      "▁bear": 2248,
      "▁var": 2249,
      "▁intervention": 2250,
      "▁slices": 2251,
      "▁concepts": 2252,
      "▁alt": 2253,
      "▁yourself": 2254,
      "▁modified": 2255,
      "▁tuned": 2256,
      "atures": 2257,
      "▁alternatives": 2258,
      "▁second-class": 2259,
      "▁pedicure": 2260,
      "▁parliament": 2261,
      "▁accust": 2262,
      "ield": 2263,
      "▁dive": 2264,
      "▁fash": 2265,
      "enda": 2266,
      "▁compete": 2267,
      "▁bubbles": 2268,
      "▁fount": 2269,
      "▁ballerina": 2270,
      "kness": 2271,
      "▁besides": 2272,
      "▁scenes": 2273,
      "ka": 2274,
      "▁vote": 2275,
      "lief": 2276,
      "▁shopping": 2277,
      "▁meeting": 2278,
      "▁suicide": 2279,
      "ucks": 2280,
      "-------": 2281,
      "▁unh": 2282,
      "alet": 2283,
      "▁charl": 2284,
      "▁coordination": 2285,
      "▁eval": 2286,
      "▁youtube": 2287,
      "▁robots": 2288,
      "▁retain": 2289,
      "▁lots": 2290,
      "▁from": 2291,
      "lism": 2292,
      "▁marshmallow": 2293,
      "-r": 2294,
      "▁jews": 2295,
      "▁words": 2296,
      "▁seat": 2297,
      "▁persuading": 2298,
      "▁remembered": 2299,
      "hunt": 2300,
      "▁bill": 2301,
      "▁differing": 2302,
      "▁pixies": 2303,
      "▁fir": 2304,
      "▁drum": 2305,
      "▁eleven": 2306,
      "▁stall": 2307,
      "▁highlighted": 2308,
      "▁thanks": 2309,
      "▁shines": 2310,
      "gate": 2311,
      "amole": 2312,
      "ields": 2313,
      "ck": 2314,
      "▁bits": 2315,
      "ach": 2316,
      "ust": 2317,
      "▁coup": 2318,
      "▁assessing": 2319,
      "▁taxes": 2320,
      "▁hoof": 2321,
      "▁bean": 2322,
      "▁leash": 2323,
      "orted": 2324,
      "isal": 2325,
      "▁photograph": 2326,
      "▁municipalities": 2327,
      "▁succeeded": 2328,
      "rectly": 2329,
      "▁peric": 2330,
      "▁vowed": 2331,
      "▁provide": 2332,
      "▁tame": 2333,
      "▁celebrity": 2334,
      "▁burn": 2335,
      "▁antenna": 2336,
      "itates": 2337,
      "▁shippers": 2338,
      "▁plugged": 2339,
      "▁democracy": 2340,
      "▁superseding": 2341,
      "▁sperm": 2342,
      "▁balancing": 2343,
      "▁votes": 2344,
      "flies": 2345,
      "ected": 2346,
      "▁lent": 2347,
      "▁burden": 2348,
      "▁fostering": 2349,
      "▁charco": 2350,
      "▁pa": 2351,
      "▁160": 2352,
      "▁flexibility": 2353,
      "▁contained": 2354,
      "▁feel": 2355,
      "▁feet": 2356,
      "▁generation": 2357,
      "▁sy": 2358,
      "▁ribbons": 2359,
      "activity": 2360,
      "elled": 2361,
      "mped": 2362,
      "abit": 2363,
      "▁barrel": 2364,
      "angers": 2365,
      "▁assault": 2366,
      "ct": 2367,
      "▁bil": 2368,
      "▁grapes": 2369,
      "▁masts": 2370,
      "▁cooking": 2371,
      "▁location": 2372,
      "enties": 2373,
      "▁acorn": 2374,
      "▁workmanship": 2375,
      "▁junk": 2376,
      "▁trunk": 2377,
      "▁preached": 2378,
      "au": 2379,
      "iece": 2380,
      "▁fur": 2381,
      "▁dism": 2382,
      "ese": 2383,
      "▁enthusi": 2384,
      "▁therefore": 2385,
      "ron": 2386,
      "▁melanoma": 2387,
      "▁mod": 2388,
      "tiation": 2389,
      "unge": 2390,
      "▁aggregate": 2391,
      "▁pittsburgh": 2392,
      "▁angel": 2393,
      "▁mobil": 2394,
      "kle": 2395,
      "▁relying": 2396,
      "▁smells": 2397,
      "▁get": 2398,
      "oll": 2399,
      "ʒ": 2400,
      "▁hole": 2401,
      "▁‘": 2402,
      "▁olives": 2403,
      "arely": 2404,
      "▁pocketbook": 2405,
      "▁rests": 2406,
      "estern": 2407,
      "▁store": 2408,
      "▁spilling": 2409,
      "▁anywhere": 2410,
      "0s": 2411,
      "▁fung": 2412,
      "▁shade": 2413,
      "▁accessibility": 2414,
      "▁reopen": 2415,
      "▁flavor": 2416,
      "▁23rd": 2417,
      "usted": 2418,
      "▁bunk": 2419,
      "▁castle": 2420,
      "▁magazines": 2421,
      "▁method": 2422,
      "▁warhol": 2423,
      "ival": 2424,
      "▁dogs": 2425,
      "acture": 2426,
      "▁quiz": 2427,
      "stly": 2428,
      "▁seller": 2429,
      "▁cease": 2430,
      "▁categories": 2431,
      "▁taxpay": 2432,
      "▁wrapped": 2433,
      "▁circ": 2434,
      "▁cream": 2435,
      "▁teaspoon": 2436,
      "enc": 2437,
      "▁pir": 2438,
      "agn": 2439,
      "▁s": 2440,
      "▁yarns": 2441,
      "▁pay": 2442,
      "▁necktie": 2443,
      "▁precedent": 2444,
      "▁mam": 2445,
      "und": 2446,
      "▁dry": 2447,
      "▁vali": 2448,
      "▁flew": 2449,
      "▁explaining": 2450,
      "▁commander": 2451,
      "▁search": 2452,
      "▁sake": 2453,
      "▁dotted": 2454,
      "▁frontier": 2455,
      "acter": 2456,
      "▁washing": 2457,
      "==": 2458,
      "▁prospect": 2459,
      "ch": 2460,
      "ression": 2461,
      "▁assumptions": 2462,
      "▁collector": 2463,
      "ω": 2464,
      "▁lower": 2465,
      "osing": 2466,
      "▁released": 2467,
      "▁assass": 2468,
      ".consumers": 2469,
      "▁fries": 2470,
      "▁wad": 2471,
      "▁connected": 2472,
      "pond": 2473,
      "iked": 2474,
      "▁harmonisation": 2475,
      "▁weapon": 2476,
      "▁poa": 2477,
      "▁habit": 2478,
      "▁shone": 2479,
      "▁mesh": 2480,
      "▁subpoenas": 2481,
      "▁nation": 2482,
      "▁orchest": 2483,
      "▁jul": 2484,
      "▁partner": 2485,
      "ulation": 2486,
      "▁cabinet": 2487,
      "▁husbands": 2488,
      "▁conditioning": 2489,
      "▁ecology": 2490,
      "▁cavity": 2491,
      "tification": 2492,
      "▁impeachment": 2493,
      "▁novelty": 2494,
      "▁dung": 2495,
      "▁dem": 2496,
      "▁sailing": 2497,
      "iction": 2498,
      "▁endeav": 2499,
      "aos": 2500,
      "aulted": 2501,
      "▁tiny": 2502,
      "stances": 2503,
      "▁jud": 2504,
      "▁stuttering": 2505,
      "▁20": 2506,
      "▁persu": 2507,
      "▁aun": 2508,
      "▁generations": 2509,
      "▁card": 2510,
      "ounts": 2511,
      "▁refres": 2512,
      "▁discus": 2513,
      "▁rattled": 2514,
      "▁contributed": 2515,
      "gets": 2516,
      "▁explan": 2517,
      "▁doorstep": 2518,
      "▁ro": 2519,
      "esting": 2520,
      "▁relation": 2521,
      "▁websites": 2522,
      "▁tech": 2523,
      "▁null": 2524,
      "▁minus": 2525,
      "▁bandage": 2526,
      "nect": 2527,
      "▁inclu": 2528,
      "▁emerging": 2529,
      "idated": 2530,
      "▁narr": 2531,
      "hance": 2532,
      "▁understood": 2533,
      "yo": 2534,
      "▁ladies": 2535,
      "orit": 2536,
      "▁dangling": 2537,
      "▁mortality": 2538,
      "▁scenarios": 2539,
      "▁asle": 2540,
      "▁paths": 2541,
      "▁bearing": 2542,
      "▁sheep": 2543,
      "▁wel": 2544,
      "▁pros": 2545,
      "▁talking": 2546,
      "▁controvers": 2547,
      "urop": 2548,
      "ithstanding": 2549,
      "ato": 2550,
      "▁makes": 2551,
      "▁remain": 2552,
      "ectors": 2553,
      "▁inspector": 2554,
      "▁declined": 2555,
      ".p": 2556,
      "mercial": 2557,
      "▁declared": 2558,
      "▁assumption": 2559,
      "▁slugs": 2560,
      "▁bounce": 2561,
      "qu": 2562,
      "▁nutrition": 2563,
      "1": 2564,
      "▁isl": 2565,
      "▁walls": 2566,
      "atches": 2567,
      "▁trading": 2568,
      "eling": 2569,
      "▁dominance": 2570,
      "▁statute": 2571,
      "▁motives": 2572,
      "icate": 2573,
      "ock": 2574,
      "4th": 2575,
      "▁bunnies": 2576,
      "▁assignment": 2577,
      "▁launch": 2578,
      "▁wiped": 2579,
      "▁regar": 2580,
      "!!!": 2581,
      "-wood": 2582,
      "▁bouts": 2583,
      "▁nerve": 2584,
      "▁appearance": 2585,
      "oir": 2586,
      "▁fathers": 2587,
      "gle": 2588,
      "▁cakes": 2589,
      "▁hav": 2590,
      "▁subsidi": 2591,
      "▁forth": 2592,
      "▁tutor": 2593,
      "ords": 2594,
      "▁calculations": 2595,
      "▁accommodate": 2596,
      "▁ability": 2597,
      "▁uncle": 2598,
      "▁collected": 2599,
      "▁childbirth": 2600,
      "fu": 2601,
      "▁difficulty": 2602,
      "og": 2603,
      "▁nail": 2604,
      "po": 2605,
      "▁speaking": 2606,
      "▁summer": 2607,
      "▁apartment": 2608,
      "▁beaches": 2609,
      "▁sprouts": 2610,
      "▁desc": 2611,
      "▁flossing": 2612,
      "▁carried": 2613,
      "af": 2614,
      "▁forums": 2615,
      "▁grew": 2616,
      "▁instructor": 2617,
      "▁healthy": 2618,
      "▁commercial": 2619,
      "antic": 2620,
      "▁bap": 2621,
      "▁ten": 2622,
      "▁periods": 2623,
      "▁sue": 2624,
      "▁capt": 2625,
      "▁subpo": 2626,
      "▁mysteries": 2627,
      "▁helmet": 2628,
      "▁chem": 2629,
      "asm": 2630,
      "▁reflecting": 2631,
      "▁ideals": 2632,
      "▁confid": 2633,
      "ger": 2634,
      "▁tramp": 2635,
      "▁sensing": 2636,
      "gins": 2637,
      "▁propos": 2638,
      "▁swe": 2639,
      "oof": 2640,
      "▁uma": 2641,
      "▁administrator": 2642,
      "▁disease": 2643,
      "▁blaze": 2644,
      "▁checked": 2645,
      "▁ants": 2646,
      "▁bedroom": 2647,
      "▁gram": 2648,
      "▁functions": 2649,
      "▁hos": 2650,
      "▁cor": 2651,
      "▁uncovered": 2652,
      "▁see": 2653,
      "▁neighborhood": 2654,
      "▁chrom": 2655,
      "▁carve": 2656,
      "roph": 2657,
      "▁coerce": 2658,
      "▁foul": 2659,
      "▁chi": 2660,
      "▁ben": 2661,
      "@enron.com": 2662,
      "lifish": 2663,
      "▁overall": 2664,
      "ography": 2665,
      "▁bleachers": 2666,
      "▁starters": 2667,
      "▁joh": 2668,
      "▁visa": 2669,
      "/0": 2670,
      "▁outbreak": 2671,
      "west": 2672,
      "▁uneas": 2673,
      "▁rewarded": 2674,
      "thold": 2675,
      "▁exclusion": 2676,
      "▁emailed": 2677,
      "▁careers": 2678,
      "▁dil": 2679,
      "▁pover": 2680,
      "▁divorce": 2681,
      "▁prosec": 2682,
      "▁fallout": 2683,
      "▁ai": 2684,
      "▁dancer": 2685,
      "▁container": 2686,
      "amet": 2687,
      "▁array": 2688,
      "lec": 2689,
      "▁lands": 2690,
      "fess": 2691,
      "▁bumped": 2692,
      "▁tearing": 2693,
      "▁salads": 2694,
      "▁pri": 2695,
      "son": 2696,
      "▁trends": 2697,
      "▁option": 2698,
      "tak": 2699,
      "▁response": 2700,
      "▁carwash": 2701,
      "▁located": 2702,
      "▁obtaining": 2703,
      "▁publication": 2704,
      "ration": 2705,
      "dam": 2706,
      "▁pumpkin": 2707,
      "▁bom": 2708,
      "▁congratulations": 2709,
      "▁innovations": 2710,
      "▁minority": 2711,
      "▁arrows": 2712,
      "▁congratulate": 2713,
      "▁loves": 2714,
      "▁seizures": 2715,
      "ientific": 2716,
      "appy": 2717,
      "▁immigration": 2718,
      "pre": 2719,
      "▁teaching": 2720,
      "▁grinder": 2721,
      "▁pins": 2722,
      "▁spilled": 2723,
      "▁dad": 2724,
      "▁ide": 2725,
      "▁spent": 2726,
      "▁preven": 2727,
      "▁excl": 2728,
      "▁public": 2729,
      "ills": 2730,
      "▁possibilities": 2731,
      "▁focus": 2732,
      "▁mice": 2733,
      "▁underneath": 2734,
      "▁associate": 2735,
      "▁lux": 2736,
      "anism": 2737,
      "▁eff": 2738,
      "▁lisa_": 2739,
      "▁disclaimer": 2740,
      "▁mare": 2741,
      "▁opera": 2742,
      "▁imbalance": 2743,
      "argo": 2744,
      "▁hesitate": 2745,
      "keeper": 2746,
      "▁mimic": 2747,
      "▁reasons": 2748,
      "▁hed": 2749,
      "▁seek": 2750,
      "e": 2751,
      "▁curator": 2752,
      "▁metering": 2753,
      "ud": 2754,
      "▁towns": 2755,
      "▁renovation": 2756,
      "▁nons": 2757,
      "manship": 2758,
      "grader": 2759,
      "▁clause": 2760,
      "▁luck": 2761,
      "▁subd": 2762,
      "▁rage": 2763,
      "▁minds": 2764,
      "▁disl": 2765,
      "▁homeopathy": 2766,
      "ark": 2767,
      "▁manufacturing": 2768,
      "▁campus": 2769,
      "▁dining": 2770,
      "atees": 2771,
      "sually": 2772,
      "▁trouble": 2773,
      "asley": 2774,
      "ili": 2775,
      "▁section": 2776,
      "▁exce": 2777,
      "▁sexuality": 2778,
      "uff": 2779,
      "▁pouring": 2780,
      "▁tolerance": 2781,
      "▁secretary": 2782,
      "enture": 2783,
      "▁vets": 2784,
      "▁operate": 2785,
      "▁correl": 2786,
      "-f": 2787,
      "ersion": 2788,
      "fare": 2789,
      "▁trucks": 2790,
      "▁frag": 2791,
      "▁lur": 2792,
      "▁temperature": 2793,
      "▁spore": 2794,
      "▁prin": 2795,
      "▁shipped": 2796,
      "▁sequence": 2797,
      "▁revised": 2798,
      "▁accuses": 2799,
      "▁properties": 2800,
      "▁homosex": 2801,
      "lists": 2802,
      "▁government": 2803,
      "▁collabor": 2804,
      "▁threatening": 2805,
      "▁military": 2806,
      "▁adv": 2807,
      "duction": 2808,
      "erating": 2809,
      "▁corp": 2810,
      "ano": 2811,
      "▁while": 2812,
      "▁grandpar": 2813,
      "▁protections": 2814,
      "▁formulate": 2815,
      "▁her": 2816,
      "eli": 2817,
      "isure": 2818,
      "▁citizen": 2819,
      "▁temple": 2820,
      "▁notepad": 2821,
      "­": 2822,
      "▁syrup": 2823,
      "▁ones": 2824,
      "▁nationality": 2825,
      "▁failures": 2826,
      "▁whee": 2827,
      "▁enhance": 2828,
      "▁nightlife": 2829,
      "▁approximation": 2830,
      "▁diseas": 2831,
      "▁ship": 2832,
      "▁torti": 2833,
      "▁sleeps": 2834,
      "oa": 2835,
      "▁metro": 2836,
      "▁ancestors": 2837,
      "▁understands": 2838,
      "▁rivers": 2839,
      "▁approval": 2840,
      "▁concl": 2841,
      "▁prevail": 2842,
      "▁liking": 2843,
      "▁themes": 2844,
      "▁committ": 2845,
      "sul": 2846,
      "ature": 2847,
      "▁...............": 2848,
      "irt": 2849,
      "▁care": 2850,
      "▁hit": 2851,
      "children": 2852,
      "▁applic": 2853,
      "▁midter": 2854,
      "entil": 2855,
      "ires": 2856,
      "gust": 2857,
      "▁cases": 2858,
      "fs": 2859,
      "lication": 2860,
      "▁pride": 2861,
      "▁wee": 2862,
      "▁bike": 2863,
      "rel": 2864,
      "▁camera": 2865,
      "▁cereal": 2866,
      "▁organ": 2867,
      "▁insp": 2868,
      "▁cents": 2869,
      "▁p.s.": 2870,
      "osity": 2871,
      "▁workout": 2872,
      "ihow": 2873,
      "▁soups": 2874,
      "▁ld2d-#69366-1.doc": 2875,
      "bio": 2876,
      "▁resear": 2877,
      "irs": 2878,
      "▁sauce": 2879,
      "▁conn": 2880,
      "esity": 2881,
      "ɔ": 2882,
      "▁outliers": 2883,
      "▁possibility": 2884,
      "▁securities": 2885,
      "▁outfits": 2886,
      "▁n't": 2887,
      "▁banks": 2888,
      "▁lessons": 2889,
      "▁300": 2890,
      "▁suspended": 2891,
      "▁credence": 2892,
      "▁makers": 2893,
      "▁adoles": 2894,
      "▁item": 2895,
      "▁ena": 2896,
      "+": 2897,
      "ober": 2898,
      "▁combination": 2899,
      "▁repres": 2900,
      "▁argued": 2901,
      "▁magn": 2902,
      "▁chec": 2903,
      "▁conserv": 2904,
      "▁reject": 2905,
      "▁sus": 2906,
      "otal": 2907,
      "unately": 2908,
      "▁pickle": 2909,
      "▁sup": 2910,
      "▁subject": 2911,
      "▁laugh": 2912,
      "▁estim": 2913,
      "tspots": 2914,
      "▁fighting": 2915,
      "▁ge": 2916,
      "▁securing": 2917,
      "▁tries": 2918,
      "ously": 2919,
      "▁colleag": 2920,
      "rowed": 2921,
      "▁killing": 2922,
      "▁interfaces": 2923,
      "ing": 2924,
      "ruc": 2925,
      "▁chased": 2926,
      "▁trave": 2927,
      "▁designer": 2928,
      "▁aviation": 2929,
      "▁billions": 2930,
      "▁llms": 2931,
      "▁oper": 2932,
      "oving": 2933,
      "▁envelope": 2934,
      "▁farming": 2935,
      "▁em": 2936,
      "▁insight": 2937,
      "fully": 2938,
      "py": 2939,
      "aged": 2940,
      "▁possess": 2941,
      "▁twa": 2942,
      "▁recipe": 2943,
      "▁blowing": 2944,
      "▁melting": 2945,
      "ralized": 2946,
      "▁umb": 2947,
      "▁emper": 2948,
      "▁groups": 2949,
      "dering": 2950,
      "▁grim": 2951,
      "▁**********": 2952,
      "▁mapping": 2953,
      "▁shel": 2954,
      "x": 2955,
      "▁friend": 2956,
      "ace": 2957,
      "▁prototyp": 2958,
      "▁thinking": 2959,
      "▁opposition": 2960,
      "▁student": 2961,
      "▁colleague": 2962,
      "▁living": 2963,
      "▁spikes": 2964,
      "fortable": 2965,
      "▁andaman": 2966,
      "▁departs": 2967,
      "▁topic": 2968,
      "▁recorder": 2969,
      "▁hippopotamus": 2970,
      "▁tough": 2971,
      "▁masters": 2972,
      "gl": 2973,
      "geration": 2974,
      "▁those": 2975,
      "▁exploration": 2976,
      "▁tyr": 2977,
      "▁suggesting": 2978,
      "tr": 2979,
      "▁charcoal": 2980,
      "▁thrift": 2981,
      "jection": 2982,
      "▁sett": 2983,
      "ound": 2984,
      "aks": 2985,
      "utiny": 2986,
      "▁rac": 2987,
      "▁monit": 2988,
      "eted": 2989,
      "▁suppl": 2990,
      "▁episodes": 2991,
      "▁desir": 2992,
      "▁chandeliers": 2993,
      "▁adapted": 2994,
      "▁stev": 2995,
      "bolism": 2996,
      "▁principles": 2997,
      "child": 2998,
      "▁frequ": 2999,
      "▁gosh": 3000,
      "▁noontime": 3001,
      "▁łodz": 3002,
      "▁researching": 3003,
      "▁layer": 3004,
      "icomed": 3005,
      "▁**": 3006,
      "ci": 3007,
      "red": 3008,
      "▁bell": 3009,
      "ething": 3010,
      "▁gastroenteritis": 3011,
      "inking": 3012,
      "ager": 3013,
      "lions": 3014,
      "▁cyclone": 3015,
      "▁mim": 3016,
      "▁states": 3017,
      "ity": 3018,
      "▁limous": 3019,
      "▁motiv": 3020,
      "ession": 3021,
      "mos": 3022,
      "▁mummy": 3023,
      "lem": 3024,
      "▁scrambled": 3025,
      "▁coordinated": 3026,
      "▁longer": 3027,
      "▁oak": 3028,
      "anting": 3029,
      "▁queen": 3030,
      ".d": 3031,
      "▁therap": 3032,
      "▁knoc": 3033,
      "j": 3034,
      "▁risk": 3035,
      "▁ac": 3036,
      "▁colors": 3037,
      "▁hydrogen": 3038,
      "▁grains": 3039,
      "▁scooped": 3040,
      "▁trajectory": 3041,
      "▁altogether": 3042,
      "▁2003": 3043,
      "▁disenfranch": 3044,
      "▁perio": 3045,
      "▁waving": 3046,
      "▁jingle": 3047,
      "▁princip": 3048,
      "▁prepared": 3049,
      "▁lighting": 3050,
      "▁retrospect": 3051,
      "row": 3052,
      "▁pounds": 3053,
      "▁foods": 3054,
      "▁famous": 3055,
      "ur": 3056,
      "▁sandal": 3057,
      "▁working": 3058,
      "▁diseases": 3059,
      "▁sunken": 3060,
      "▁succession": 3061,
      "▁judge": 3062,
      "▁handing": 3063,
      "▁transforming": 3064,
      "▁ld2d-#69345-1.doc": 3065,
      "▁wea": 3066,
      "▁fac": 3067,
      "▁distric": 3068,
      "▁avenue": 3069,
      "▁bulld": 3070,
      "▁guarantee": 3071,
      "▁kay": 3072,
      "▁st": 3073,
      "▁operation": 3074,
      "▁anatomy": 3075,
      "▁absorbed": 3076,
      "fficial": 3077,
      "▁statistics": 3078,
      "▁contributions": 3079,
      "ored": 3080,
      "▁resili": 3081,
      "▁dialects": 3082,
      "▁ducks": 3083,
      "orkers": 3084,
      "▁femur": 3085,
      "▁election": 3086,
      "uration": 3087,
      "▁counterparty": 3088,
      "azed": 3089,
      "▁outro": 3090,
      "▁persuade": 3091,
      "▁trip": 3092,
      "▁testing": 3093,
      "▁recalled": 3094,
      "▁kinds": 3095,
      "▁fl": 3096,
      "▁chocolate": 3097,
      "▁jealous": 3098,
      "pots": 3099,
      "▁everywhere": 3100,
      "▁player": 3101,
      "▁removal": 3102,
      "▁gda": 3103,
      "▁bags": 3104,
      "mes": 3105,
      "▁claim": 3106,
      "sand": 3107,
      "▁init": 3108,
      "▁prejud": 3109,
      "▁dragons": 3110,
      "▁exercised": 3111,
      "▁vio": 3112,
      "▁treated": 3113,
      "▁restricted": 3114,
      "▁arch": 3115,
      "▁ep": 3116,
      "▁repetition": 3117,
      "▁material": 3118,
      "▁milwaukee": 3119,
      "▁sport": 3120,
      "▁deteriorate": 3121,
      "-th": 3122,
      "▁bounced": 3123,
      "▁formatting": 3124,
      "▁oxy": 3125,
      "aganda": 3126,
      "▁horses": 3127,
      "6-1.xls": 3128,
      "▁royalist": 3129,
      "▁buyers": 3130,
      "▁-----------------------------------------------------------------------": 3131,
      "whether": 3132,
      "▁till": 3133,
      "▁lets": 3134,
      "▁recru": 3135,
      "09": 3136,
      "▁better": 3137,
      "▁pref": 3138,
      "▁mathematics": 3139,
      "▁drums": 3140,
      "▁protection": 3141,
      "▁right": 3142,
      "▁pd": 3143,
      "▁sh": 3144,
      "ropriate": 3145,
      "zability": 3146,
      "▁sust": 3147,
      "▁alcoholism": 3148,
      "▁hamas": 3149,
      "rayed": 3150,
      "-98": 3151,
      "#": 3152,
      "▁envir": 3153,
      "▁merits": 3154,
      "▁hum": 3155,
      "▁landscapes": 3156,
      "being": 3157,
      "arture": 3158,
      "uldron": 3159,
      "dler": 3160,
      "foli": 3161,
      "▁loved": 3162,
      "▁peanut": 3163,
      "▁pakistan": 3164,
      "▁leaning": 3165,
      "▁stretch": 3166,
      "▁berries": 3167,
      "▁pages": 3168,
      "▁victorians": 3169,
      "▁brains": 3170,
      "▁finding": 3171,
      "self": 3172,
      "kka": 3173,
      "▁boom": 3174,
      "fin": 3175,
      "ands": 3176,
      "isons": 3177,
      "▁screws": 3178,
      "acy": 3179,
      "▁settle": 3180,
      "▁mercury": 3181,
      "▁pennies": 3182,
      "uttering": 3183,
      "tic": 3184,
      "▁peninsula": 3185,
      "▁deb": 3186,
      "▁lawsuit": 3187,
      "▁promote": 3188,
      "▁leave": 3189,
      "▁fallen": 3190,
      "▁recreating": 3191,
      "▁analyses": 3192,
      "▁hing": 3193,
      "▁comedy": 3194,
      "▁guarantees": 3195,
      "bri": 3196,
      "▁fire": 3197,
      "grated": 3198,
      "▁casting": 3199,
      "▁expectations": 3200,
      "70's": 3201,
      "▁uth": 3202,
      "▁scul": 3203,
      "▁trou": 3204,
      "▁phenomenon": 3205,
      "▁phen": 3206,
      "▁introducing": 3207,
      "▁cared": 3208,
      "▁fight": 3209,
      "▁mistake": 3210,
      "▁monologue": 3211,
      "▁boot": 3212,
      "herence": 3213,
      "essing": 3214,
      "▁masterpi": 3215,
      "▁proven": 3216,
      "ighten": 3217,
      "▁forb": 3218,
      "▁nightclubs": 3219,
      "▁title": 3220,
      "▁shirts": 3221,
      "alizing": 3222,
      "ax": 3223,
      "ovate": 3224,
      "▁environment": 3225,
      "▁negotiation": 3226,
      "onym": 3227,
      "▁resour": 3228,
      "▁bottle": 3229,
      "▁nos": 3230,
      "▁tables": 3231,
      "▁contributes": 3232,
      "tes": 3233,
      "bles": 3234,
      "food": 3235,
      "▁bacter": 3236,
      "▁instant": 3237,
      "▁exchang": 3238,
      "▁bicycles": 3239,
      "▁pipeline": 3240,
      "▁cheeks": 3241,
      "▁pyth": 3242,
      "▁offer": 3243,
      "▁confused": 3244,
      "▁teleph": 3245,
      "▁procr": 3246,
      "▁bail": 3247,
      "▁ballet": 3248,
      "▁birds": 3249,
      "▁pigs": 3250,
      "▁symptoms": 3251,
      "▁organisations": 3252,
      "▁kangaroo": 3253,
      "▁sash": 3254,
      "▁sorr": 3255,
      "▁fal": 3256,
      "▁rig": 3257,
      "▁lawyer": 3258,
      "▁matt": 3259,
      "▁drove": 3260,
      "vings": 3261,
      "▁condem": 3262,
      "▁'": 3263,
      "▁edition": 3264,
      "▁uncover": 3265,
      "▁incap": 3266,
      "▁matches": 3267,
      "rib": 3268,
      "▁self": 3269,
      "eared": 3270,
      "▁regional": 3271,
      "▁destroy": 3272,
      "uel": 3273,
      "▁propped": 3274,
      "edience": 3275,
      "▁comparing": 3276,
      "▁smooth": 3277,
      "▁canes": 3278,
      "▁astride": 3279,
      "▁combine": 3280,
      "▁repl": 3281,
      "▁eol": 3282,
      "▁dust": 3283,
      "▁judged": 3284,
      "ford": 3285,
      "▁cosplay": 3286,
      "▁alarms": 3287,
      "▁definitely": 3288,
      "▁vintage": 3289,
      "▁black": 3290,
      "▁pall": 3291,
      "▁visibility": 3292,
      "▁bulletin": 3293,
      "▁criticized": 3294,
      "eine": 3295,
      "▁sol": 3296,
      "▁off": 3297,
      "▁discussing": 3298,
      "▁ban": 3299,
      "▁decor": 3300,
      "▁knives": 3301,
      "▁screams": 3302,
      "▁questionna": 3303,
      "▁compressor": 3304,
      "▁ag": 3305,
      "ster": 3306,
      "acket": 3307,
      "zai": 3308,
      "entieth": 3309,
      "▁keeping": 3310,
      "▁midnight": 3311,
      "▁hours": 3312,
      "tainly": 3313,
      "ording": 3314,
      "ogging": 3315,
      "orama": 3316,
      "ital": 3317,
      "▁shine": 3318,
      "omer": 3319,
      "▁ss": 3320,
      "▁likelihood": 3321,
      "▁sky": 3322,
      "▁weekdays": 3323,
      "▁dark": 3324,
      "nec": 3325,
      "▁deriv": 3326,
      "▁austral": 3327,
      "▁target": 3328,
      "▁reccomend": 3329,
      "▁celebr": 3330,
      "▁2004": 3331,
      "▁need": 3332,
      "▁scrap": 3333,
      "▁exhibited": 3334,
      "▁vi": 3335,
      "▁gained": 3336,
      "anded": 3337,
      "ackened": 3338,
      "▁nickname": 3339,
      "▁ambul": 3340,
      "▁other": 3341,
      "30": 3342,
      "▁disrup": 3343,
      "inter": 3344,
      "▁covered": 3345,
      "▁clarify": 3346,
      "erely": 3347,
      "▁mixed": 3348,
      "▁equation": 3349,
      "▁appetizers": 3350,
      "▁phr": 3351,
      "▁blog": 3352,
      "▁cab": 3353,
      "▁imm": 3354,
      "▁parakeets": 3355,
      "▁thus": 3356,
      "▁wives": 3357,
      "▁rentals": 3358,
      "▁interrupted": 3359,
      "▁scen": 3360,
      "▁enjoyment": 3361,
      "▁requ": 3362,
      "▁edward": 3363,
      "▁reef": 3364,
      "▁older": 3365,
      "▁skys": 3366,
      "▁resembled": 3367,
      "▁puff": 3368,
      "//": 3369,
      "ssi": 3370,
      ".xls": 3371,
      "iac": 3372,
      "▁christi": 3373,
      "▁fear": 3374,
      "▁usb": 3375,
      "▁pyram": 3376,
      "uddled": 3377,
      "▁heated": 3378,
      "**********************************": 3379,
      "▁attemp": 3380,
      "▁connecting": 3381,
      "▁consensus": 3382,
      "▁too": 3383,
      "mately": 3384,
      "▁instructions": 3385,
      "▁withdrawn": 3386,
      "▁max": 3387,
      "lights": 3388,
      "ewing": 3389,
      "▁spos": 3390,
      "▁exped": 3391,
      "al": 3392,
      "arded": 3393,
      "▁punchline": 3394,
      "▁councillors": 3395,
      "dity": 3396,
      "▁buildings": 3397,
      "tish": 3398,
      "ologies": 3399,
      "▁americ": 3400,
      "▁slow": 3401,
      "▁decline": 3402,
      "▁yay": 3403,
      "▁starfighter": 3404,
      "▁texts": 3405,
      "▁rain": 3406,
      "titudes": 3407,
      "▁pollut": 3408,
      "▁asser": 3409,
      "▁70s": 3410,
      "umed": 3411,
      "usement": 3412,
      "▁statement": 3413,
      "▁string": 3414,
      "▁robber": 3415,
      "▁foss": 3416,
      "▁exchanged": 3417,
      "aked": 3418,
      "▁swa": 3419,
      "▁anthrop": 3420,
      "eg": 3421,
      "ulture": 3422,
      "▁programmes": 3423,
      "▁smoke": 3424,
      "▁processor": 3425,
      "▁acclaimed": 3426,
      "here": 3427,
      "▁smoked": 3428,
      "▁bob": 3429,
      "▁lav": 3430,
      "▁gd": 3431,
      "▁prevention": 3432,
      "▁hate": 3433,
      "action": 3434,
      "▁league": 3435,
      "▁radicals": 3436,
      "▁cleanup": 3437,
      "ab": 3438,
      "flower": 3439,
      "▁treats": 3440,
      "▁wizard": 3441,
      "▁disappointment": 3442,
      "▁negotiations": 3443,
      "▁manor": 3444,
      "▁~": 3445,
      "▁case": 3446,
      "▁alliance": 3447,
      "▁submarine": 3448,
      "▁relieved": 3449,
      "▁commentators": 3450,
      "▁proximity": 3451,
      "▁coupled": 3452,
      "sters": 3453,
      "ued": 3454,
      "▁round": 3455,
      "orth": 3456,
      "▁bou": 3457,
      "▁language": 3458,
      "▁products": 3459,
      "▁unity": 3460,
      "▁super": 3461,
      "▁sliding": 3462,
      "atitude": 3463,
      "▁moustache": 3464,
      "▁lavatory": 3465,
      "▁toof": 3466,
      "otes": 3467,
      "▁patience": 3468,
      "▁tending": 3469,
      "▁european": 3470,
      "▁paradise": 3471,
      "▁gold": 3472,
      "ush": 3473,
      "▁total": 3474,
      "▁trays": 3475,
      "▁fares": 3476,
      "veland": 3477,
      "ql": 3478,
      "▁collections": 3479,
      "▁intr": 3480,
      "uned": 3481,
      "▁tip": 3482,
      "cell": 3483,
      "▁invest": 3484,
      "entralized": 3485,
      "▁ech": 3486,
      "▁tun": 3487,
      "▁dollar": 3488,
      "▁ankle": 3489,
      "▁then": 3490,
      "kering": 3491,
      "ety": 3492,
      "▁squeezed": 3493,
      "onation": 3494,
      "▁assistance": 3495,
      "▁backup": 3496,
      "▁played": 3497,
      "▁lem": 3498,
      "▁unrave": 3499,
      "▁indulged": 3500,
      "ning": 3501,
      "▁fires": 3502,
      "▁passed": 3503,
      "▁fiance": 3504,
      "▁newsgroups": 3505,
      "asses": 3506,
      "que": 3507,
      "▁admire": 3508,
      "▁investigate": 3509,
      "▁shared": 3510,
      "uling": 3511,
      "wife": 3512,
      "▁foot": 3513,
      "▁jam": 3514,
      "▁drag": 3515,
      "-mem": 3516,
      "ular": 3517,
      "▁plates": 3518,
      "▁buns": 3519,
      "▁backs": 3520,
      "60": 3521,
      "▁marks": 3522,
      "▁pool": 3523,
      "ilar": 3524,
      "▁expel": 3525,
      "▁pens": 3526,
      "▁ts": 3527,
      "▁caff": 3528,
      "ride": 3529,
      "▁pizza": 3530,
      "▁repub": 3531,
      "▁pleasant": 3532,
      "▁laughs": 3533,
      "▁tor": 3534,
      "▁comet": 3535,
      "?": 3536,
      "uncture": 3537,
      "▁clubs": 3538,
      "▁acquired": 3539,
      "▁autobiography": 3540,
      "▁emergency": 3541,
      "▁sucked": 3542,
      "▁qui": 3543,
      "usts": 3544,
      "▁written": 3545,
      "▁burst": 3546,
      "▁wearing": 3547,
      "th": 3548,
      "▁american": 3549,
      "▁i": 3550,
      "bi": 3551,
      "▁demonstrates": 3552,
      "▁youtu": 3553,
      "▁establishing": 3554,
      "uzz": 3555,
      "itating": 3556,
      "liness": 3557,
      "eal": 3558,
      "▁theater": 3559,
      "▁ultras": 3560,
      "▁lear": 3561,
      "▁variety": 3562,
      "▁agreements": 3563,
      "▁equal": 3564,
      "▁compos": 3565,
      "mie": 3566,
      "lications": 3567,
      "▁ornament": 3568,
      "▁hurried": 3569,
      "ankie": 3570,
      "▁x3-98": 3571,
      "▁enem": 3572,
      "_": 3573,
      "▁kar": 3574,
      "▁manufacturer": 3575,
      "▁cock": 3576,
      "ency": 3577,
      "emporary": 3578,
      "▁flat": 3579,
      "▁dish": 3580,
      "▁rope": 3581,
      "cret": 3582,
      "▁young": 3583,
      "tally": 3584,
      "▁boo": 3585,
      "▁cand": 3586,
      "ounded": 3587,
      "bre": 3588,
      "▁yiddish": 3589,
      "▁smiling": 3590,
      "▁discrim": 3591,
      "▁lifted": 3592,
      "▁tam": 3593,
      "▁session": 3594,
      "▁conditions": 3595,
      "ants": 3596,
      "▁rack": 3597,
      "▁messing": 3598,
      "oat": 3599,
      "eks": 3600,
      "▁goats": 3601,
      "▁pandemic": 3602,
      "▁hund": 3603,
      "▁frozen": 3604,
      "▁every": 3605,
      "▁virus": 3606,
      "iciary": 3607,
      "▁stomachs": 3608,
      "▁shaped": 3609,
      "▁whether": 3610,
      "ortly": 3611,
      "▁inno": 3612,
      "▁pac": 3613,
      "▁guitar": 3614,
      "enom": 3615,
      "▁abs": 3616,
      "▁pre-": 3617,
      "▁essence": 3618,
      "▁tsunami": 3619,
      "▁cry": 3620,
      "estic": 3621,
      "ielder": 3622,
      "▁1830s": 3623,
      "▁gro": 3624,
      "▁oink": 3625,
      "▁merely": 3626,
      "▁conference": 3627,
      "gs": 3628,
      "▁since": 3629,
      "rophy": 3630,
      "▁rumors": 3631,
      "▁otherwise": 3632,
      "iated": 3633,
      "sa": 3634,
      "▁bucks": 3635,
      "▁inte": 3636,
      "▁adult": 3637,
      "▁shortly": 3638,
      "arranged": 3639,
      "▁weekend": 3640,
      "▁ladder": 3641,
      "▁witnessed": 3642,
      "▁positions": 3643,
      "▁extension": 3644,
      "▁waived": 3645,
      "ine": 3646,
      "▁gestured": 3647,
      "▁artill": 3648,
      "copes": 3649,
      "▁scratched": 3650,
      "▁lens": 3651,
      "ugee": 3652,
      "▁week": 3653,
      "▁detective": 3654,
      "▁chewed": 3655,
      "▁perm": 3656,
      "▁attributed": 3657,
      "ι": 3658,
      "▁fug": 3659,
      "▁disgust": 3660,
      "▁destination": 3661,
      "\"": 3662,
      "▁liquidation": 3663,
      "▁rabb": 3664,
      "adas": 3665,
      "▁restriction": 3666,
      "alising": 3667,
      "wardness": 3668,
      "▁references": 3669,
      "▁facil": 3670,
      "oscope": 3671,
      "▁cosmos": 3672,
      "▁ham": 3673,
      "▁musicians": 3674,
      "▁scri": 3675,
      "▁cooker": 3676,
      "ht": 3677,
      "▁point": 3678,
      "▁m": 3679,
      "▁perfec": 3680,
      "dit": 3681,
      "▁dived": 3682,
      "▁crest": 3683,
      "ustration": 3684,
      "▁boil": 3685,
      "▁actors": 3686,
      "▁england": 3687,
      "▁drug": 3688,
      "▁wednesday": 3689,
      "▁confine": 3690,
      "▁organizations": 3691,
      "▁divide": 3692,
      "▁nonstop": 3693,
      "▁civilizations": 3694,
      "▁administration": 3695,
      "▁ignored": 3696,
      "▁corpus": 3697,
      "ologists": 3698,
      "▁legislature": 3699,
      "▁tasted": 3700,
      "▁show": 3701,
      "▁recipient": 3702,
      "ɑ": 3703,
      "▁thought": 3704,
      "▁fertilizer": 3705,
      "▁sheet": 3706,
      "▁appreciated": 3707,
      "▁ve": 3708,
      ",000": 3709,
      "▁financ": 3710,
      "▁wrestle": 3711,
      "▁power": 3712,
      "▁balcony": 3713,
      "▁shortage": 3714,
      "▁tablet": 3715,
      "▁mode": 3716,
      "▁soda": 3717,
      "▁poses": 3718,
      "▁stripe": 3719,
      "▁barriers": 3720,
      "▁kicked": 3721,
      "kton": 3722,
      "▁laughing": 3723,
      "▁fee": 3724,
      "▁mouse": 3725,
      "▁urge": 3726,
      "▁******************************************************************": 3727,
      "▁kins": 3728,
      "▁harm": 3729,
      "▁belly": 3730,
      "▁depends": 3731,
      "▁pupp": 3732,
      "▁assuming": 3733,
      "▁payments": 3734,
      "▁inject": 3735,
      "▁zawahiri": 3736,
      "▁sne": 3737,
      "▁clay": 3738,
      "▁mouf": 3739,
      "▁argue": 3740,
      "▁worst": 3741,
      "▁width": 3742,
      "▁relativ": 3743,
      "▁ears": 3744,
      "▁stranger": 3745,
      "▁palace": 3746,
      "#693": 3747,
      "▁crush": 3748,
      "▁stood": 3749,
      "ves": 3750,
      "▁memory": 3751,
      "▁communications": 3752,
      "▁carrier": 3753,
      "licity": 3754,
      "rich": 3755,
      "▁sighed": 3756,
      "▁soli": 3757,
      "ceptions": 3758,
      "▁marshmall": 3759,
      "▁warl": 3760,
      "ogn": 3761,
      "-3": 3762,
      "▁supermarket": 3763,
      "▁glowing": 3764,
      "▁audio": 3765,
      "▁chewing": 3766,
      "▁opt": 3767,
      "▁bol": 3768,
      "ount": 3769,
      "▁’re": 3770,
      "▁outbre": 3771,
      "▁pancake": 3772,
      "▁inclined": 3773,
      "augh": 3774,
      "▁interval": 3775,
      "▁book": 3776,
      "▁publishers": 3777,
      "▁ver": 3778,
      "om": 3779,
      "▁sakes": 3780,
      "▁ranger": 3781,
      "▁countryside": 3782,
      "ghts": 3783,
      "▁sucks": 3784,
      "▁establishments": 3785,
      "▁bin": 3786,
      "▁skip": 3787,
      "▁ordered": 3788,
      "face": 3789,
      "aste": 3790,
      "egration": 3791,
      "pl": 3792,
      "▁staircase": 3793,
      "▁fraud": 3794,
      "▁empathy": 3795,
      "@": 3796,
      "▁locks": 3797,
      "▁necess": 3798,
      "▁sac": 3799,
      "▁slammed": 3800,
      "▁territory": 3801,
      "▁anyway": 3802,
      "▁voices": 3803,
      "uc": 3804,
      "▁requi": 3805,
      "▁tig": 3806,
      "▁orph": 3807,
      "▁dom": 3808,
      "▁apologize": 3809,
      "▁bod": 3810,
      "▁stores": 3811,
      "▁slide": 3812,
      "▁restr": 3813,
      "▁roots": 3814,
      "▁membership": 3815,
      "▁horsesho": 3816,
      "▁sail": 3817,
      "▁children": 3818,
      "▁sp": 3819,
      "ative": 3820,
      "▁considering": 3821,
      "▁bok": 3822,
      "▁ascertain": 3823,
      "ece": 3824,
      "▁switch": 3825,
      "▁losses": 3826,
      "▁disorders": 3827,
      "▁wishing": 3828,
      "ico": 3829,
      "▁dempse": 3830,
      "▁loop": 3831,
      "▁experts": 3832,
      "▁aware": 3833,
      "ʁ": 3834,
      "▁recog": 3835,
      "▁museums": 3836,
      "mbol": 3837,
      "▁calm": 3838,
      "▁lookout": 3839,
      "▁pasture": 3840,
      "▁throws": 3841,
      "▁businessmen": 3842,
      "irts": 3843,
      "▁sailor": 3844,
      "▁afraid": 3845,
      "▁enacting": 3846,
      "▁urs": 3847,
      "▁decree": 3848,
      "▁driveway": 3849,
      "▁traffick": 3850,
      "▁imported": 3851,
      "▁dere": 3852,
      "eless": 3853,
      "▁intersection": 3854,
      "▁dead": 3855,
      "ieth": 3856,
      "aps": 3857,
      "uth": 3858,
      "xfer": 3859,
      "ase": 3860,
      "▁dign": 3861,
      "▁composition": 3862,
      "▁tickle": 3863,
      "▁grow": 3864,
      "▁bought": 3865,
      "▁obsession": 3866,
      "▁him": 3867,
      "mented": 3868,
      "▁skitt": 3869,
      "franch": 3870,
      "▁harry": 3871,
      "▁discharge": 3872,
      "▁doubts": 3873,
      "▁month": 3874,
      "▁rotating": 3875,
      "▁clo": 3876,
      "▁.....": 3877,
      "▁perceptions": 3878,
      "▁apost": 3879,
      "iny": 3880,
      "▁applied": 3881,
      "▁rely": 3882,
      "count": 3883,
      "▁sheets": 3884,
      "▁refl": 3885,
      "▁least": 3886,
      "▁greet": 3887,
      "▁pin": 3888,
      "▁circus": 3889,
      "▁dates": 3890,
      "▁reserves": 3891,
      "▁main": 3892,
      "▁lollipop": 3893,
      "▁verif": 3894,
      "urp": 3895,
      "igate": 3896,
      "▁tablespoon": 3897,
      "▁occurrence": 3898,
      "kn": 3899,
      "▁outlined": 3900,
      "n": 3901,
      "▁horsemen": 3902,
      "▁ped": 3903,
      "ivid": 3904,
      "bus": 3905,
      "▁ppl": 3906,
      "▁personal": 3907,
      "▁hub": 3908,
      "▁ideology": 3909,
      "▁!!!": 3910,
      "▁bra": 3911,
      "achment": 3912,
      "okes": 3913,
      "▁conducted": 3914,
      "▁executing": 3915,
      "olly": 3916,
      "teries": 3917,
      "azz": 3918,
      "mely": 3919,
      "inate": 3920,
      "▁none": 3921,
      "▁minerals": 3922,
      "▁declarations": 3923,
      "▁ele": 3924,
      "▁starred": 3925,
      "▁boule": 3926,
      "▁twenty": 3927,
      "▁sticking": 3928,
      "▁hidden": 3929,
      "▁iss": 3930,
      "▁interpreted": 3931,
      "▁checkout": 3932,
      "▁discl": 3933,
      "▁collects": 3934,
      "▁traged": 3935,
      "▁begun": 3936,
      "▁lantern": 3937,
      "▁mirror": 3938,
      "urday": 3939,
      "anc": 3940,
      "------": 3941,
      "▁glaze": 3942,
      "▁burrow": 3943,
      "▁polaroids": 3944,
      "▁sie": 3945,
      "▁referencing": 3946,
      "▁offset": 3947,
      "▁determination": 3948,
      "▁dividing": 3949,
      "wrec": 3950,
      "▁supply": 3951,
      "▁vest": 3952,
      "▁functioning": 3953,
      "▁sometime": 3954,
      "▁gather": 3955,
      "▁spind": 3956,
      "▁was": 3957,
      "▁director": 3958,
      "▁fork": 3959,
      "▁dangers": 3960,
      "▁notebook": 3961,
      "▁maintained": 3962,
      "▁molec": 3963,
      "▁tai": 3964,
      "▁cer": 3965,
      "▁play+": 3966,
      "atisfaction": 3967,
      "dotes": 3968,
      "▁forget": 3969,
      "▁runner": 3970,
      "▁meow": 3971,
      "▁pitches": 3972,
      "▁democratic": 3973,
      "▁revisions": 3974,
      "▁squirted": 3975,
      "▁specifies": 3976,
      "ag": 3977,
      "▁societies": 3978,
      "▁moment": 3979,
      "▁application": 3980,
      "▁alert": 3981,
      "▁'ve": 3982,
      "▁reactions": 3983,
      "mar": 3984,
      "▁learning": 3985,
      "▁patrons": 3986,
      "ts": 3987,
      "▁affili": 3988,
      "▁resolved": 3989,
      "▁collage": 3990,
      "acting": 3991,
      "▁pair": 3992,
      "▁cash": 3993,
      "ituting": 3994,
      "▁smaller": 3995,
      "med": 3996,
      "▁migrated": 3997,
      "oods": 3998,
      "▁turned": 3999,
      "▁starts": 4000,
      "perity": 4001,
      "tops": 4002,
      "▁uk": 4003,
      "▁pillow": 4004,
      "▁corruption": 4005,
      "▁curric": 4006,
      "▁narrative": 4007,
      "▁sept": 4008,
      ".m": 4009,
      "▁specifically": 4010,
      "iling": 4011,
      "▁snack": 4012,
      "▁cocoa": 4013,
      "▁knife": 4014,
      "xal": 4015,
      "▁sacrifices": 4016,
      "▁distractions": 4017,
      "▁modem": 4018,
      "ukee": 4019,
      "▁immigrants": 4020,
      "gged": 4021,
      "▁stopovers": 4022,
      "▁pines": 4023,
      "ology": 4024,
      "▁poison": 4025,
      "▁imposed": 4026,
      "▁quick": 4027,
      "▁foll": 4028,
      "▁waiters": 4029,
      "▁heard": 4030,
      "auts": 4031,
      "▁poc": 4032,
      "ality": 4033,
      "▁aer": 4034,
      "▁u.": 4035,
      "ras": 4036,
      "▁maintenance": 4037,
      "▁precisely": 4038,
      "cr": 4039,
      "▁cropd": 4040,
      "▁roof": 4041,
      "ij": 4042,
      "▁destroyed": 4043,
      "▁ticket": 4044,
      "▁motel": 4045,
      "ateg": 4046,
      "▁prefect": 4047,
      "▁moon": 4048,
      "▁cough": 4049,
      "▁prefecture": 4050,
      "iti": 4051,
      "▁disreg": 4052,
      "▁kg": 4053,
      "minated": 4054,
      "▁on": 4055,
      "▁cars": 4056,
      "▁]": 4057,
      "▁michelle": 4058,
      "▁fulf": 4059,
      "▁stolen": 4060,
      "▁owes": 4061,
      "ged": 4062,
      "▁contract": 4063,
      "▁uhhu": 4064,
      "▁2005": 4065,
      "▁transcri": 4066,
      "▁contemp": 4067,
      "portun": 4068,
      "▁frame": 4069,
      "▁wrap": 4070,
      "▁possession": 4071,
      "ivia": 4072,
      "inally": 4073,
      "▁incom": 4074,
      "▁spike": 4075,
      "▁reaches": 4076,
      "known": 4077,
      "▁totally": 4078,
      "h": 4079,
      "▁fungi": 4080,
      "▁receptionist": 4081,
      "▁detected": 4082,
      "aping": 4083,
      "▁relationships": 4084,
      "gging": 4085,
      "▁treati": 4086,
      "▁zoom": 4087,
      "▁by": 4088,
      "ping": 4089,
      "▁cross": 4090,
      "uls": 4091,
      "▁honey": 4092,
      "▁’ve": 4093,
      "▁mis": 4094,
      "▁mexican": 4095,
      "land": 4096,
      "orized": 4097,
      "▁solved": 4098,
      "▁fool": 4099,
      "igration": 4100,
      "▁whom": 4101,
      "▁tv": 4102,
      "▁flood": 4103,
      "▁millions": 4104,
      "ung": 4105,
      "▁conse": 4106,
      "▁define": 4107,
      "▁validity": 4108,
      "▁later": 4109,
      "▁bor": 4110,
      "▁worse": 4111,
      "▁professors": 4112,
      "▁syn": 4113,
      "ialize": 4114,
      "▁sorrow": 4115,
      "▁assuring": 4116,
      "▁port": 4117,
      "▁time": 4118,
      "▁closet": 4119,
      "dents": 4120,
      "▁traveler": 4121,
      "▁debate": 4122,
      "▁twin": 4123,
      "▁daring": 4124,
      "▁columb": 4125,
      "▁explanation": 4126,
      "rint": 4127,
      "▁pr": 4128,
      "▁nights": 4129,
      "▁essay": 4130,
      "▁carefully": 4131,
      "▁skit": 4132,
      "ind": 4133,
      "▁america": 4134,
      "riendly": 4135,
      "????": 4136,
      "itical": 4137,
      "▁anth": 4138,
      "▁balance": 4139,
      "▁controls": 4140,
      "itality": 4141,
      "▁shop": 4142,
      "eces": 4143,
      "crif": 4144,
      "▁recip": 4145,
      "ray": 4146,
      "▁restri": 4147,
      "▁fart": 4148,
      "▁postc": 4149,
      "▁ad": 4150,
      "idden": 4151,
      "▁dye": 4152,
      "imated": 4153,
      "▁towels": 4154,
      "▁cens": 4155,
      "▁respecting": 4156,
      "mals": 4157,
      "bb": 4158,
      "▁plaque": 4159,
      "icked": 4160,
      "▁staying": 4161,
      "▁sidew": 4162,
      "▁olds": 4163,
      "▁tighten": 4164,
      "▁revis": 4165,
      "▁depart": 4166,
      "▁perceive": 4167,
      "▁pav": 4168,
      "▁parents": 4169,
      "▁concentrating": 4170,
      "umped": 4171,
      "▁existence": 4172,
      "▁geof": 4173,
      "▁underlined": 4174,
      "▁surv": 4175,
      "lib": 4176,
      "▁tub": 4177,
      "▁1991": 4178,
      "▁rises": 4179,
      "▁administered": 4180,
      "care": 4181,
      "▁pittsbur": 4182,
      "▁before": 4183,
      "▁mayonna": 4184,
      "▁posting": 4185,
      "▁cursor": 4186,
      "ased": 4187,
      "▁joined": 4188,
      "▁last": 4189,
      "▁resulting": 4190,
      "▁lettuce": 4191,
      "▁chosen": 4192,
      "▁unless": 4193,
      "▁ski": 4194,
      "pd": 4195,
      "▁cat-fl": 4196,
      "▁standing": 4197,
      "▁peppers": 4198,
      "▁wear": 4199,
      "▁tokyo": 4200,
      "…": 4201,
      "▁volatilities": 4202,
      "▁champagne": 4203,
      "▁stretching": 4204,
      "▁addressed": 4205,
      "▁period": 4206,
      "▁sear": 4207,
      "▁enjoying": 4208,
      "▁proficiency": 4209,
      "▁loaded": 4210,
      "ertain": 4211,
      "▁ear": 4212,
      "▁priv": 4213,
      "▁curtains": 4214,
      "▁provoking": 4215,
      "▁sod": 4216,
      "urr": 4217,
      "▁poll": 4218,
      "ess": 4219,
      "▁mor": 4220,
      "▁ly": 4221,
      "▁related": 4222,
      "▁nuts": 4223,
      "▁alcoho": 4224,
      "▁drool": 4225,
      "▁pranks": 4226,
      "enix": 4227,
      "zing": 4228,
      "▁samp": 4229,
      "▁earthquake": 4230,
      "alled": 4231,
      "▁consideration": 4232,
      "▁geomet": 4233,
      "icular": 4234,
      "ril": 4235,
      "▁committed": 4236,
      "▁smelled": 4237,
      "▁kaoshikii": 4238,
      "▁mant": 4239,
      "▁aper": 4240,
      "▁code": 4241,
      "▁travellers": 4242,
      "▁searches": 4243,
      "▁nailed": 4244,
      "▁20th": 4245,
      "▁ap": 4246,
      "▁quinoa": 4247,
      "formity": 4248,
      "alding": 4249,
      "▁cance": 4250,
      "▁progress": 4251,
      "▁canned": 4252,
      "▁joking": 4253,
      "ulators": 4254,
      "enet": 4255,
      "▁free": 4256,
      "▁basic": 4257,
      "▁compiling": 4258,
      "▁ph": 4259,
      "▁club": 4260,
      "ven": 4261,
      "corn": 4262,
      "▁younger": 4263,
      "▁sunsh": 4264,
      "ester": 4265,
      "anger": 4266,
      "chn": 4267,
      "▁colleges": 4268,
      "▁dow": 4269,
      "▁toilet": 4270,
      "▁trauma": 4271,
      "▁splash": 4272,
      "ape": 4273,
      "▁cares": 4274,
      "▁heightened": 4275,
      "tings": 4276,
      "▁eyeb": 4277,
      "▁paired": 4278,
      "▁coupon": 4279,
      "▁referee": 4280,
      "▁experim": 4281,
      "▁stead": 4282,
      "▁japan": 4283,
      "kins": 4284,
      "▁flags": 4285,
      "▁law": 4286,
      "▁unfortunately": 4287,
      "▁sleep": 4288,
      "olved": 4289,
      "▁funeral": 4290,
      "▁attempting": 4291,
      "▁cric": 4292,
      "▁arab": 4293,
      "▁divers": 4294,
      "▁imbalances": 4295,
      "▁glad": 4296,
      "▁handled": 4297,
      "--------": 4298,
      "▁elastic": 4299,
      "▁germ": 4300,
      "▁photo": 4301,
      "▁macaroni": 4302,
      "inus": 4303,
      "ooks": 4304,
      "▁rights": 4305,
      "uscri": 4306,
      "▁p.": 4307,
      "▁needed": 4308,
      "▁summit": 4309,
      "▁watching": 4310,
      "▁coupons": 4311,
      "▁liver": 4312,
      "ably": 4313,
      "ving": 4314,
      "▁accepted": 4315,
      "▁vine": 4316,
      "▁rhinoc": 4317,
      "▁drinking": 4318,
      "co": 4319,
      "▁stealing": 4320,
      "▁muttered": 4321,
      "▁16": 4322,
      "▁copying": 4323,
      "▁14": 4324,
      "▁biology": 4325,
      "▁hostages": 4326,
      "▁sc": 4327,
      "nch": 4328,
      "▁foster": 4329,
      "antics": 4330,
      "▁kn": 4331,
      "▁lightning": 4332,
      "▁incorporated": 4333,
      "▁candid": 4334,
      "ea": 4335,
      "▁resilience": 4336,
      "▁hill": 4337,
      "alism": 4338,
      "▁reinforcing": 4339,
      "▁ov": 4340,
      "▁clue": 4341,
      "▁eas": 4342,
      "–": 4343,
      "▁mornings": 4344,
      "▁yog": 4345,
      "▁steth": 4346,
      "▁dedicated": 4347,
      "▁strip": 4348,
      "ville": 4349,
      "▁bottles": 4350,
      "▁avoiding": 4351,
      "fil": 4352,
      "▁investors": 4353,
      "aponize": 4354,
      "▁lesson": 4355,
      "48": 4356,
      "▁sight": 4357,
      "▁migr": 4358,
      "▁korea": 4359,
      "▁resorts": 4360,
      "▁nose": 4361,
      "▁significant": 4362,
      "▁sout": 4363,
      "oked": 4364,
      "▁expelling": 4365,
      "▁clutching": 4366,
      "▁graduates": 4367,
      "▁tail": 4368,
      "oes": 4369,
      "▁b/c": 4370,
      "▁vig": 4371,
      "▁trickle": 4372,
      "ults": 4373,
      "▁pies": 4374,
      "▁ansi-": 4375,
      "▁fields": 4376,
      "▁buckets": 4377,
      "▁doz": 4378,
      "▁fronti": 4379,
      "▁mantis": 4380,
      "▁beard": 4381,
      "oise": 4382,
      "▁tac": 4383,
      "ecuted": 4384,
      "▁italian": 4385,
      "imum": 4386,
      "▁waiter": 4387,
      "▁genitals": 4388,
      "▁corn": 4389,
      "▁aftershocks": 4390,
      "▁butterfly": 4391,
      "▁wav": 4392,
      "▁comfortable": 4393,
      "▁relics": 4394,
      "▁recordings": 4395,
      "▁regime": 4396,
      "▁addiction": 4397,
      "▁beep": 4398,
      "▁mand": 4399,
      "ophobia": 4400,
      "▁bag": 4401,
      "▁mater": 4402,
      "▁illust": 4403,
      "▁manif": 4404,
      "▁finalize": 4405,
      "▁burping": 4406,
      "uch": 4407,
      "▁jew": 4408,
      "▁vessel": 4409,
      "▁crump": 4410,
      "▁eb": 4411,
      "icious": 4412,
      "▁breakfast": 4413,
      "▁regions": 4414,
      "▁agree": 4415,
      "▁shift": 4416,
      "▁in": 4417,
      "lers": 4418,
      "point": 4419,
      "▁volcano": 4420,
      "▁stayed": 4421,
      "▁likely": 4422,
      "▁sons": 4423,
      "ost": 4424,
      "▁buff": 4425,
      "▁cem": 4426,
      "▁kiw": 4427,
      "met": 4428,
      "▁j": 4429,
      "▁number": 4430,
      "▁wilt": 4431,
      "▁alleg": 4432,
      "vated": 4433,
      "ective": 4434,
      "▁meas": 4435,
      "▁realise": 4436,
      "gues": 4437,
      "▁add": 4438,
      "▁belongs": 4439,
      "▁refrigerator": 4440,
      "▁drift": 4441,
      "▁highlight": 4442,
      "field": 4443,
      "-6": 4444,
      "▁returned": 4445,
      "▁hands": 4446,
      "others": 4447,
      "▁order": 4448,
      ".2": 4449,
      "▁documents": 4450,
      "ipelag": 4451,
      "ference": 4452,
      "▁dusting": 4453,
      "▁skimmer": 4454,
      "lly": 4455,
      "▁hometown": 4456,
      "▁break": 4457,
      "▁expenses": 4458,
      "▁crave": 4459,
      "▁nin": 4460,
      "unes": 4461,
      "▁stampede": 4462,
      "▁toward": 4463,
      "▁lawy": 4464,
      "pend": 4465,
      "▁attempts": 4466,
      "▁insects": 4467,
      "nel": 4468,
      "erable": 4469,
      "▁about": 4470,
      "▁’": 4471,
      "ees": 4472,
      "reated": 4473,
      "▁wins": 4474,
      "ctor": 4475,
      "▁trivia": 4476,
      "▁bridges": 4477,
      "▁update": 4478,
      "operation": 4479,
      "oxide": 4480,
      "▁chand": 4481,
      "▁ir": 4482,
      "wering": 4483,
      "▁composed": 4484,
      "▁p": 4485,
      "ec": 4486,
      "▁necklace": 4487,
      "▁pract": 4488,
      "▁referenced": 4489,
      "▁followers": 4490,
      "▁engineering": 4491,
      "▁sacrificed": 4492,
      "▁engineers": 4493,
      "eenth": 4494,
      "▁trav": 4495,
      "▁bound": 4496,
      "▁poor": 4497,
      "▁proceeded": 4498,
      "viously": 4499,
      "ticks": 4500,
      "▁tens": 4501,
      "▁lu": 4502,
      "uator": 4503,
      "▁veg": 4504,
      "▁oops": 4505,
      "▁cond": 4506,
      "▁aston": 4507,
      "▁prisoners": 4508,
      "tie": 4509,
      "▁porch": 4510,
      "ioration": 4511,
      "▁blacks": 4512,
      "▁expiration": 4513,
      "▁depend": 4514,
      "▁leggings": 4515,
      "▁gle": 4516,
      "▁special": 4517,
      "▁guards": 4518,
      "▁bait": 4519,
      "▁previously": 4520,
      "uster": 4521,
      "cil": 4522,
      "▁enjoys": 4523,
      "▁distract": 4524,
      "▁queso": 4525,
      "▁barber": 4526,
      "▁---------------------------------": 4527,
      "▁southeast": 4528,
      "▁trained": 4529,
      "▁nav": 4530,
      "tering": 4531,
      "▁occurs": 4532,
      "▁daniel": 4533,
      "▁beaver": 4534,
      "▁occupies": 4535,
      "▁abcs": 4536,
      "di": 4537,
      "▁neverth": 4538,
      "itation": 4539,
      "▁75": 4540,
      "▁queue": 4541,
      "▁dated": 4542,
      "▁atop": 4543,
      "aven": 4544,
      "▁gisb": 4545,
      "▁united": 4546,
      "▁http://www": 4547,
      "▁unles": 4548,
      "▁swimming": 4549,
      "▁computers": 4550,
      "▁canvas": 4551,
      "ailed": 4552,
      "▁ideation": 4553,
      "▁elbows": 4554,
      "▁explain": 4555,
      "▁exception": 4556,
      "▁flex": 4557,
      "▁safe": 4558,
      "▁highl": 4559,
      "▁interventions": 4560,
      "▁abandoned": 4561,
      "$": 4562,
      "head": 4563,
      "▁twisted": 4564,
      "▁assured": 4565,
      "dose": 4566,
      "▁imagined": 4567,
      "/2001": 4568,
      "▁engines": 4569,
      "▁proph": 4570,
      "/2000": 4571,
      "▁normally": 4572,
      "▁resistance": 4573,
      "imed": 4574,
      "▁enriched": 4575,
      "▁compelled": 4576,
      "▁called": 4577,
      "eign": 4578,
      "▁tariff": 4579,
      "▁chicken": 4580,
      "▁independent": 4581,
      "▁dare": 4582,
      "▁s’": 4583,
      "▁opportunity": 4584,
      "▁jihadis": 4585,
      "▁standards": 4586,
      "▁ours": 4587,
      "▁prosp": 4588,
      "▁reimb": 4589,
      "▁indeed": 4590,
      "▁flee": 4591,
      "▁naming": 4592,
      "▁landm": 4593,
      "▁helping": 4594,
      "ening": 4595,
      "▁factory": 4596,
      "▁warn": 4597,
      "▁jellyfish": 4598,
      "▁paperwork": 4599,
      "lings": 4600,
      "▁linguistics": 4601,
      "▁fishes": 4602,
      "ums": 4603,
      "▁debut": 4604,
      "▁options": 4605,
      "▁females": 4606,
      "▁magnitude": 4607,
      "▁wants": 4608,
      "▁pig": 4609,
      "▁skiing": 4610,
      "ominated": 4611,
      "▁readers": 4612,
      "enail": 4613,
      "▁av": 4614,
      "▁wol": 4615,
      "▁o": 4616,
      "▁format": 4617,
      "▁disp": 4618,
      "▁pronunciation": 4619,
      "▁face": 4620,
      "▁respected": 4621,
      "▁peeling": 4622,
      "▁draping": 4623,
      "▁treaties": 4624,
      "▁pand": 4625,
      "urn": 4626,
      "▁knowing": 4627,
      "▁defendant": 4628,
      "▁pseudonym": 4629,
      "▁victor": 4630,
      "girl": 4631,
      "▁joint": 4632,
      "ections": 4633,
      "ero": 4634,
      "▁job": 4635,
      "▁jazz": 4636,
      "▁whereas": 4637,
      "▁going": 4638,
      "▁loving": 4639,
      "reach": 4640,
      "ense": 4641,
      "▁monarch": 4642,
      "▁brought": 4643,
      "oval": 4644,
      "worm": 4645,
      "▁adhering": 4646,
      "vp": 4647,
      "▁continued": 4648,
      "▁ethnic": 4649,
      "sl": 4650,
      "▁premium": 4651,
      "▁oz": 4652,
      "rar": 4653,
      "▁implied": 4654,
      "▁recommendation": 4655,
      "▁wand": 4656,
      "ez": 4657,
      "ucker": 4658,
      "▁mmbtu": 4659,
      "▁anyone": 4660,
      "▁facilities": 4661,
      "▁reas": 4662,
      "▁limited": 4663,
      "▁average": 4664,
      "alty": 4665,
      "▁successor": 4666,
      "enly": 4667,
      "▁ab": 4668,
      "▁mov": 4669,
      "▁tongue": 4670,
      "▁kill": 4671,
      "▁swap": 4672,
      "▁tit": 4673,
      "▁everybody": 4674,
      "▁destruction": 4675,
      "▁candle": 4676,
      "▁cit": 4677,
      "▁flung": 4678,
      "▁runway": 4679,
      "▁deposition": 4680,
      "▁martyr": 4681,
      "▁russia": 4682,
      "▁hire": 4683,
      "▁treatments": 4684,
      "erview": 4685,
      "▁trumpets": 4686,
      "aca": 4687,
      "▁export": 4688,
      "ortment": 4689,
      "▁behaviour": 4690,
      "▁restaurant": 4691,
      "book": 4692,
      "▁copyrighted": 4693,
      "ana": 4694,
      "▁money": 4695,
      "▁sweeping": 4696,
      "▁jwww": 4697,
      "▁constitu": 4698,
      "▁rapporteur": 4699,
      "esame": 4700,
      "▁alerts": 4701,
      "▁percentile": 4702,
      "▁family": 4703,
      "▁sting": 4704,
      "▁representative": 4705,
      "amation": 4706,
      "▁nodded": 4707,
      "▁chili": 4708,
      "▁lat": 4709,
      "▁thi": 4710,
      "bow": 4711,
      "moon": 4712,
      "▁nature": 4713,
      "inqu": 4714,
      "▁exa": 4715,
      "▁heritage": 4716,
      "▁during": 4717,
      "fir": 4718,
      "20s": 4719,
      "▁dpr": 4720,
      "▁leisure": 4721,
      "▁tha": 4722,
      "ently": 4723,
      "tions": 4724,
      "elt": 4725,
      "▁tomatoes": 4726,
      "▁vulnerability": 4727,
      "▁questionnaire": 4728,
      "▁superv": 4729,
      "▁transmitter": 4730,
      "ro": 4731,
      "▁beginning": 4732,
      "▁incub": 4733,
      "▁champ": 4734,
      "oard": 4735,
      "apes": 4736,
      "▁converted": 4737,
      "▁oppose": 4738,
      "▁theropods": 4739,
      "▁stre": 4740,
      "▁sandwic": 4741,
      "▁relevance": 4742,
      "▁rode": 4743,
      "▁apprec": 4744,
      "▁strut": 4745,
      "down": 4746,
      "ican": 4747,
      "▁california": 4748,
      "▁construc": 4749,
      "▁cage": 4750,
      "▁receive": 4751,
      "▁interjection": 4752,
      "▁dam": 4753,
      "▁sofa": 4754,
      "▁likeness": 4755,
      "nown": 4756,
      "▁trend": 4757,
      "▁voted": 4758,
      "▁bunny": 4759,
      "▁translating": 4760,
      "▁dill": 4761,
      "▁discouraging": 4762,
      "▁peer": 4763,
      "▁ferocity": 4764,
      "▁larg": 4765,
      "▁fleeing": 4766,
      "▁regularly": 4767,
      "▁april": 4768,
      "▁balances": 4769,
      "▁febr": 4770,
      "onds": 4771,
      "▁funny": 4772,
      "▁gesture": 4773,
      "aust": 4774,
      "▁imp": 4775,
      "▁sure": 4776,
      "marked": 4777,
      "▁ow": 4778,
      "▁4": 4779,
      "▁audit": 4780,
      "▁seg": 4781,
      "▁highlighting": 4782,
      "liflower": 4783,
      "▁marx": 4784,
      "▁welc": 4785,
      "lico": 4786,
      "▁kilometres": 4787,
      "▁bice": 4788,
      "▁feeds": 4789,
      "▁scienti": 4790,
      "pi": 4791,
      "▁imper": 4792,
      "▁engaging": 4793,
      "onic": 4794,
      "▁rapporte": 4795,
      "entally": 4796,
      "▁respons": 4797,
      "▁charlotte": 4798,
      "weight": 4799,
      "till": 4800,
      "▁uploads": 4801,
      "▁aff": 4802,
      "▁crimin": 4803,
      "▁notw": 4804,
      "▁witnesses": 4805,
      "▁reach": 4806,
      "erco": 4807,
      "!!": 4808,
      "▁autof": 4809,
      "▁award": 4810,
      "▁puzzle": 4811,
      "▁!!!!!!!!!!!!!!!": 4812,
      "▁acc": 4813,
      "▁brings": 4814,
      "▁scub": 4815,
      "▁hom": 4816,
      "▁motor": 4817,
      "▁thigh": 4818,
      "▁hip": 4819,
      "▁image": 4820,
      "ogue": 4821,
      "▁sank": 4822,
      "ieve": 4823,
      "ilize": 4824,
      "▁pointed": 4825,
      "writ": 4826,
      "ctuary": 4827,
      "▁collateral": 4828,
      "▁congr": 4829,
      "▁locked": 4830,
      "▁choo": 4831,
      ".m.": 4832,
      "|": 4833,
      "ets": 4834,
      "▁size": 4835,
      "▁hatred": 4836,
      "▁minn": 4837,
      "akes": 4838,
      "▁london": 4839,
      "▁cr": 4840,
      "▁shouting": 4841,
      "▁upd": 4842,
      "▁preoc": 4843,
      "▁mous": 4844,
      "igma": 4845,
      "ocked": 4846,
      "▁arrive": 4847,
      "▁ackn": 4848,
      "sal": 4849,
      "▁eleph": 4850,
      "▁penins": 4851,
      "▁advanced": 4852,
      "▁messed": 4853,
      "▁bul": 4854,
      "▁buttered": 4855,
      "▁contin": 4856,
      "▁army": 4857,
      "▁gover": 4858,
      "▁door": 4859,
      "▁ske": 4860,
      "▁departments": 4861,
      "▁tap": 4862,
      "▁expand": 4863,
      "▁relate": 4864,
      "uit": 4865,
      "▁covers": 4866,
      "▁healing": 4867,
      "▁manual": 4868,
      "▁baby": 4869,
      "▁consortium": 4870,
      "▁host": 4871,
      "▁grandma": 4872,
      "rial": 4873,
      "cl": 4874,
      "▁nar": 4875,
      "▁lie": 4876,
      "▁credited": 4877,
      "▁europeans": 4878,
      "▁sets": 4879,
      "▁criticism": 4880,
      "▁teh": 4881,
      "▁cleveland": 4882,
      "ays": 4883,
      "▁tickling": 4884,
      "ive": 4885,
      "▁accustomed": 4886,
      "▁bid": 4887,
      "▁travelling": 4888,
      "▁acres": 4889,
      "▁25": 4890,
      "yth": 4891,
      "▁promising": 4892,
      "▁….": 4893,
      "▁grasp": 4894,
      "▁fedayeen": 4895,
      "▁gnomes": 4896,
      "▁ancestry": 4897,
      "neys": 4898,
      "lect": 4899,
      "iam": 4900,
      "▁airport": 4901,
      "▁gradu": 4902,
      "▁murdered": 4903,
      "▁unde": 4904,
      "erve": 4905,
      "▁objec": 4906,
      "vir": 4907,
      "▁@": 4908,
      "▁threat": 4909,
      "ely": 4910,
      "▁paws": 4911,
      "▁penalties": 4912,
      "eeds": 4913,
      "▁nice": 4914,
      "b": 4915,
      "▁neolog": 4916,
      "▁physician": 4917,
      "▁kissed": 4918,
      "▁boards": 4919,
      "named": 4920,
      "understanding": 4921,
      "▁advances": 4922,
      "▁abo": 4923,
      "ges": 4924,
      "overing": 4925,
      "▁glow": 4926,
      "flow": 4927,
      "++++": 4928,
      "▁obesity": 4929,
      "▁defeated": 4930,
      "▁figure": 4931,
      "▁reminder": 4932,
      "▁but": 4933,
      "▁heyday": 4934,
      "▁afternoon": 4935,
      "▁as400": 4936,
      "▁gain": 4937,
      "▁sewed": 4938,
      "▁scheme": 4939,
      "▁lengths": 4940,
      "nif": 4941,
      "▁handle": 4942,
      "__": 4943,
      "▁proceed": 4944,
      "****************": 4945,
      "▁editions": 4946,
      "ds": 4947,
      "▁peaceful": 4948,
      "▁denver": 4949,
      "▁vice-president": 4950,
      "itters": 4951,
      "▁handful": 4952,
      "▁schema": 4953,
      "▁&amp;": 4954,
      "▁ringing": 4955,
      "▁rats": 4956,
      "▁deserves": 4957,
      "/ps": 4958,
      "▁elev": 4959,
      "▁conver": 4960,
      "▁lisa": 4961,
      "usters": 4962,
      "ito": 4963,
      "▁22nd": 4964,
      "▁accomplish": 4965,
      "▁shower": 4966,
      "▁attached": 4967,
      "▁legal": 4968,
      "▁intercon": 4969,
      "▁person": 4970,
      "▁combining": 4971,
      "▁mop": 4972,
      "▁bombed": 4973,
      "▁restored": 4974,
      "▁shipping": 4975,
      "▁inven": 4976,
      "▁clouds": 4977,
      "▁aggr": 4978,
      "▁athe": 4979,
      "▁20s": 4980,
      "▁parole": 4981,
      "▁observing": 4982,
      "▁and": 4983,
      "▁stair": 4984,
      "ard": 4985,
      "▁phot": 4986,
      "▁sidewalk": 4987,
      "▁vice": 4988,
      "lift": 4989,
      "▁ribs": 4990,
      "gel": 4991,
      "huh": 4992,
      "▁neg": 4993,
      "▁grades": 4994,
      "urity": 4995,
      "▁blinking": 4996,
      "▁celebration": 4997,
      "ounced": 4998,
      "'d": 4999,
      "▁beginner": 5000,
      "▁’ll": 5001,
      "▁feeling": 5002,
      "▁footage": 5003,
      "▁supports": 5004,
      "▁victims": 5005,
      "▁uhh": 5006,
      "oot": 5007,
      "fp": 5008,
      "▁interceptor": 5009,
      "▁dock": 5010,
      "▁merit": 5011,
      "▁squeeze": 5012,
      "▁amended": 5013,
      "▁drinks": 5014,
      "▁terrorist": 5015,
      "dd": 5016,
      "▁weeks": 5017,
      "▁performances": 5018,
      "▁administer": 5019,
      "▁painted": 5020,
      "ok": 5021,
      "▁mattress": 5022,
      "hment": 5023,
      "▁detractors": 5024,
      "ain": 5025,
      "▁investment": 5026,
      "▁flies": 5027,
      "▁path": 5028,
      "▁follows": 5029,
      "entiality": 5030,
      "▁twel": 5031,
      "³": 5032,
      "▁sorry": 5033,
      "▁guard": 5034,
      "▁bowl": 5035,
      "▁pet": 5036,
      "▁described": 5037,
      "▁authorized": 5038,
      "▁sow": 5039,
      "▁hates": 5040,
      "▁rented": 5041,
      "▁whe": 5042,
      "arked": 5043,
      "▁superiority": 5044,
      "▁episode": 5045,
      "▁buck": 5046,
      "▁obligations": 5047,
      "ordination": 5048,
      "▁leads": 5049,
      "▁lec": 5050,
      "▁dealer": 5051,
      "ight": 5052,
      "▁yards": 5053,
      "▁looks": 5054,
      "▁speed": 5055,
      "▁hundred": 5056,
      "▁shake": 5057,
      "▁shirt": 5058,
      "▁trust": 5059,
      "▁datasheet": 5060,
      "▁inh": 5061,
      "ugged": 5062,
      "▁tablets": 5063,
      "▁rfp": 5064,
      "iliar": 5065,
      "▁numerous": 5066,
      "▁skin": 5067,
      "▁decre": 5068,
      "▁password": 5069,
      "anized": 5070,
      "▁originate": 5071,
      "0th": 5072,
      "nation": 5073,
      "▁profess": 5074,
      "▁mohammed": 5075,
      "fran": 5076,
      "▁gazed": 5077,
      "▁penc": 5078,
      "▁hotel": 5079,
      "▁etiquette": 5080,
      "uation": 5081,
      "▁misfortune": 5082,
      "cessful": 5083,
      "aint": 5084,
      "▁hur": 5085,
      "▁demonstrated": 5086,
      "akers": 5087,
      "alancing": 5088,
      "enger": 5089,
      "▁friends": 5090,
      "▁displayed": 5091,
      "▁incomes": 5092,
      "▁plur": 5093,
      "▁budgie": 5094,
      "uments": 5095,
      "uild": 5096,
      "▁guaran": 5097,
      "▁waive": 5098,
      "▁antibiotics": 5099,
      "iet": 5100,
      "▁pick": 5101,
      "cer": 5102,
      "▁warming": 5103,
      "awah": 5104,
      "▁ri": 5105,
      "▁bartender": 5106,
      "▁edge": 5107,
      "▁racket": 5108,
      "▁relax": 5109,
      "▁text": 5110,
      "▁sm": 5111,
      "go": 5112,
      "▁conduc": 5113,
      "▁elevator": 5114,
      "▁aggreg": 5115,
      "cts": 5116,
      "▁poems": 5117,
      "▁barbe": 5118,
      "▁theatre": 5119,
      "▁dursleys": 5120,
      "▁despite": 5121,
      "cope": 5122,
      "▁electricity": 5123,
      "▁pencils": 5124,
      "▁roar": 5125,
      "▁annex": 5126,
      "aggeration": 5127,
      "▁retal": 5128,
      "▁danny": 5129,
      "▁grill": 5130,
      "▁co-f": 5131,
      "▁protecting": 5132,
      "▁>>": 5133,
      "▁charity": 5134,
      "ure": 5135,
      "▁easily": 5136,
      "▁bce": 5137,
      "▁usually": 5138,
      "▁attorneys": 5139,
      "▁labour": 5140,
      "▁simple": 5141,
      "hole": 5142,
      "▁suggestions": 5143,
      "▁’s": 5144,
      "▁injured": 5145,
      "▁granddaughter": 5146,
      "2b": 5147,
      "▁lever": 5148,
      "▁voy": 5149,
      "icantly": 5150,
      "lee": 5151,
      "▁sacrifice": 5152,
      "▁politics": 5153,
      "ys": 5154,
      "▁broaden": 5155,
      "▁poetry": 5156,
      "▁interp": 5157,
      "▁factions": 5158,
      "▁pinch": 5159,
      "-pos": 5160,
      "7-1.doc": 5161,
      "-m": 5162,
      "77": 5163,
      "▁cutter": 5164,
      "alize": 5165,
      "▁estimated": 5166,
      "▁mr": 5167,
      "ticoat": 5168,
      "▁amazed": 5169,
      "▁occ": 5170,
      "word": 5171,
      "▁rushed": 5172,
      "inal": 5173,
      "▁defended": 5174,
      "▁own": 5175,
      "▁council": 5176,
      "assed": 5177,
      "▁nobody": 5178,
      "▁clearly": 5179,
      "▁destro": 5180,
      "▁cube": 5181,
      "▁genes": 5182,
      "▁cuckoo": 5183,
      "chant": 5184,
      "▁stalls": 5185,
      "▁terror": 5186,
      "asters": 5187,
      "ishment": 5188,
      "▁vodka": 5189,
      "▁stressed": 5190,
      "▁waning": 5191,
      "▁clin": 5192,
      "▁picket": 5193,
      "▁ann": 5194,
      "▁pant": 5195,
      "▁patient": 5196,
      "▁pentagon": 5197,
      "▁prosecutors": 5198,
      "▁bord": 5199,
      "▁recon": 5200,
      "▁recommendations": 5201,
      "▁thumbs": 5202,
      "▁chemist": 5203,
      "iness": 5204,
      "▁cited": 5205,
      "▁tsar": 5206,
      "ustr": 5207,
      "▁appreciation": 5208,
      "▁yach": 5209,
      "dain": 5210,
      "▁farmer": 5211,
      "▁stress": 5212,
      "▁threatened": 5213,
      "▁pavement": 5214,
      "▁ensured": 5215,
      "▁museum": 5216,
      "▁boycott": 5217,
      "▁credentials": 5218,
      "▁obviously": 5219,
      "▁values": 5220,
      "▁por": 5221,
      "▁procedure": 5222,
      "▁seaman": 5223,
      "▁boing": 5224,
      "▁stickerbirds": 5225,
      "▁monitor": 5226,
      "▁histor": 5227,
      "▁undert": 5228,
      "▁stationery": 5229,
      "arrassment": 5230,
      "of": 5231,
      "mon": 5232,
      "▁migration": 5233,
      "23": 5234,
      "▁include": 5235,
      "▁gath": 5236,
      "▁stomach": 5237,
      "▁commands": 5238,
      "▁insult": 5239,
      "▁exac": 5240,
      "▁cell": 5241,
      "volutionary": 5242,
      "▁toronto": 5243,
      "▁tunnels": 5244,
      "lightly": 5245,
      "▁appropriations": 5246,
      "▁bli": 5247,
      "▁valu": 5248,
      "▁marriage": 5249,
      "▁identifies": 5250,
      "▁legiti": 5251,
      "oder": 5252,
      "▁b.": 5253,
      "bra": 5254,
      "▁ak47": 5255,
      "▁alt.animals.cat": 5256,
      "tices": 5257,
      "▁bye": 5258,
      "rop": 5259,
      "▁killings": 5260,
      "▁22": 5261,
      "▁future": 5262,
      "▁responses": 5263,
      "▁major": 5264,
      "▁skirt": 5265,
      "rived": 5266,
      "aughter": 5267,
      "▁supper": 5268,
      "-w": 5269,
      "ural": 5270,
      "od": 5271,
      "▁pollution": 5272,
      "▁waves": 5273,
      "▁symbolizes": 5274,
      "▁ket": 5275,
      "▁gloom": 5276,
      "▁which": 5277,
      "▁approaches": 5278,
      "▁symbols": 5279,
      "▁neighb": 5280,
      "ata": 5281,
      "▁rin": 5282,
      "▁excited": 5283,
      "▁heart": 5284,
      "▁orientation": 5285,
      "▁broadcast": 5286,
      "▁rocks": 5287,
      "▁psychology": 5288,
      "▁ethics": 5289,
      "▁bitm": 5290,
      "vert": 5291,
      "▁productivity": 5292,
      "▁burbank": 5293,
      "osm": 5294,
      "rum": 5295,
      "spite": 5296,
      "▁riding": 5297,
      "bby": 5298,
      "▁surp": 5299,
      "▁dr.": 5300,
      "▁enclosure": 5301,
      "____": 5302,
      "adsheet": 5303,
      "▁outlets": 5304,
      "▁correct": 5305,
      "▁blueberries": 5306,
      "▁installing": 5307,
      "gated": 5308,
      "unh": 5309,
      "▁rgds": 5310,
      "▁sand": 5311,
      "▁grab": 5312,
      "▁_": 5313,
      "-19": 5314,
      "▁told": 5315,
      "▁waved": 5316,
      "▁anticip": 5317,
      "▁calling": 5318,
      "ativity": 5319,
      "▁everyone": 5320,
      "heet": 5321,
      "▁plain": 5322,
      "ball": 5323,
      "▁peop": 5324,
      "▁physics": 5325,
      "▁iodised": 5326,
      ".com": 5327,
      "▁prayer": 5328,
      "▁flown": 5329,
      "▁always": 5330,
      "▁getting": 5331,
      "▁nt": 5332,
      "▁fourth": 5333,
      "ipped": 5334,
      "▁stone": 5335,
      "▁supplement": 5336,
      "▁lacking": 5337,
      "▁sen": 5338,
      "ported": 5339,
      "▁flav": 5340,
      "▁strike": 5341,
      "▁squir": 5342,
      "ord": 5343,
      "▁im": 5344,
      "▁everything": 5345,
      "▁doughnut": 5346,
      "erate": 5347,
      "▁notch": 5348,
      "▁easter": 5349,
      "erti": 5350,
      "ios": 5351,
      "▁prize": 5352,
      "av": 5353,
      "▁bun": 5354,
      "▁comes": 5355,
      "▁creativity": 5356,
      "▁tim": 5357,
      "▁muffin": 5358,
      "ied": 5359,
      "▁cha": 5360,
      "arraf": 5361,
      "▁pled": 5362,
      "▁squirrels": 5363,
      "▁reve": 5364,
      "▁surrounding": 5365,
      "▁alt.animals": 5366,
      "▁inch": 5367,
      "ica": 5368,
      "▁authorship": 5369,
      "▁thous": 5370,
      "▁may": 5371,
      "▁!!!!!!!": 5372,
      "▁arbit": 5373,
      "ument": 5374,
      "▁growing": 5375,
      "▁rust": 5376,
      "▁taun": 5377,
      "▁teach": 5378,
      "▁fate": 5379,
      "▁scribb": 5380,
      "▁conting": 5381,
      "ittering": 5382,
      "enas": 5383,
      "▁th": 5384,
      "▁pop": 5385,
      "▁boat": 5386,
      "▁talk": 5387,
      "▁walnuts": 5388,
      "▁hierarch": 5389,
      "▁our": 5390,
      "▁homeopath": 5391,
      "▁speci": 5392,
      "▁fer": 5393,
      "▁hor": 5394,
      "rism": 5395,
      "ources": 5396,
      "▁chalkboard": 5397,
      "tile": 5398,
      "▁particip": 5399,
      "▁vs.": 5400,
      "▁solve": 5401,
      "▁reflection": 5402,
      "▁advertis": 5403,
      "▁7th": 5404,
      "▁than": 5405,
      "▁prepay": 5406,
      "▁pull": 5407,
      "▁unc": 5408,
      "▁moreau": 5409,
      "oice": 5410,
      "▁louis": 5411,
      "▁worrying": 5412,
      "▁listening": 5413,
      "▁reviewer": 5414,
      "▁p.m.": 5415,
      "▁moonlight": 5416,
      "▁property": 5417,
      "▁uv": 5418,
      "▁weakened": 5419,
      "ann": 5420,
      "▁dating": 5421,
      "▁crickets": 5422,
      "etery": 5423,
      "▁valued": 5424,
      "▁keyboard": 5425,
      "asting": 5426,
      "▁workshops": 5427,
      "ikh": 5428,
      "▁offense": 5429,
      "ade": 5430,
      "3": 5431,
      "ronic": 5432,
      "▁accept": 5433,
      "▁connect": 5434,
      "bers": 5435,
      "la": 5436,
      "▁sized": 5437,
      "tered": 5438,
      "▁becom": 5439,
      "▁man-": 5440,
      "▁end": 5441,
      "sets": 5442,
      "▁huge": 5443,
      "eth": 5444,
      "▁move": 5445,
      "▁passage": 5446,
      "▁ld2d-": 5447,
      "ooped": 5448,
      "▁competing": 5449,
      "▁parakeet": 5450,
      "ioned": 5451,
      "▁preparedness": 5452,
      "▁cropdusters": 5453,
      "▁---=": 5454,
      "▁appease": 5455,
      "inema": 5456,
      "▁des": 5457,
      "▁prere": 5458,
      "▁married": 5459,
      "▁clip": 5460,
      "iently": 5461,
      "▁walnut": 5462,
      "▁filtering": 5463,
      "atements": 5464,
      "▁cig": 5465,
      "▁....": 5466,
      "▁grabbed": 5467,
      "▁shove": 5468,
      "▁analyze": 5469,
      "`": 5470,
      "▁official": 5471,
      "▁incen": 5472,
      "iring": 5473,
      "▁bath+room": 5474,
      "igious": 5475,
      "▁tray": 5476,
      "▁winds": 5477,
      "▁rece": 5478,
      "▁steward": 5479,
      "medi": 5480,
      "▁distortions": 5481,
      "▁cancelled": 5482,
      "▁mhm": 5483,
      "vised": 5484,
      "▁cleared": 5485,
      "▁missile": 5486,
      "▁meanings": 5487,
      "▁expert": 5488,
      "▁nonsense": 5489,
      "▁tucked": 5490,
      "▁jump": 5491,
      "▁crap": 5492,
      "ehouse": 5493,
      "▁springs": 5494,
      "alks": 5495,
      "▁entering": 5496,
      "▁passion": 5497,
      "mus": 5498,
      "▁rod": 5499,
      "▁petticoat": 5500,
      "ber": 5501,
      "▁sin": 5502,
      "▁carn": 5503,
      "▁conflicts": 5504,
      "locked": 5505,
      "▁sph": 5506,
      "▁knows": 5507,
      "eel": 5508,
      "▁bic": 5509,
      "▁modernity": 5510,
      "mmed": 5511,
      "mall": 5512,
      "gue": 5513,
      "▁builds": 5514,
      "erc": 5515,
      "▁pretext": 5516,
      "▁proclaimed": 5517,
      "7th": 5518,
      "unds": 5519,
      "-of-": 5520,
      "function": 5521,
      "isti": 5522,
      "▁occupation": 5523,
      "▁overs": 5524,
      "ress": 5525,
      "▁audiences": 5526,
      "eralism": 5527,
      "loying": 5528,
      "ug": 5529,
      "▁gun": 5530,
      "▁elephant": 5531,
      "ners": 5532,
      "▁wiggleworm": 5533,
      "▁reversion": 5534,
      "▁leg": 5535,
      "▁reel": 5536,
      "orded": 5537,
      "▁platted": 5538,
      "▁cooperate": 5539,
      "▁did": 5540,
      "▁default": 5541,
      "ond": 5542,
      "▁acquisition": 5543,
      "▁clar": 5544,
      "▁affection": 5545,
      "▁notify": 5546,
      "▁frosting": 5547,
      "awing": 5548,
      "▁dischar": 5549,
      "▁albeit": 5550,
      "▁artists": 5551,
      "▁mosques": 5552,
      "▁curtain": 5553,
      "▁sought": 5554,
      "▁discoveries": 5555,
      "▁cray": 5556,
      "▁starve": 5557,
      "▁occurr": 5558,
      "▁civil": 5559,
      "oops": 5560,
      "▁comprised": 5561,
      "▁appalled": 5562,
      "▁rav": 5563,
      "edly": 5564,
      "fri": 5565,
      "workers": 5566,
      "▁pretend": 5567,
      "alidated": 5568,
      "dr": 5569,
      "▁donkeys": 5570,
      "▁rebalancing": 5571,
      "len": 5572,
      "▁cleaning": 5573,
      "stache": 5574,
      "ined": 5575,
      "▁monster": 5576,
      "umulation": 5577,
      "▁mails": 5578,
      "▁k": 5579,
      "▁friendly": 5580,
      "ded": 5581,
      "▁motivation": 5582,
      "▁absorbing": 5583,
      "▁jet": 5584,
      "bon": 5585,
      "▁late": 5586,
      "▁inciting": 5587,
      "hether": 5588,
      "▁acceptance": 5589,
      "▁sou": 5590,
      "▁2010": 5591,
      "▁murderers": 5592,
      "▁forwarded": 5593,
      "▁endured": 5594,
      "wa": 5595,
      "isters": 5596,
      "ressing": 5597,
      "▁uns": 5598,
      "▁craw": 5599,
      "pace": 5600,
      "▁cust": 5601,
      "▁senate": 5602,
      "▁coordinate": 5603,
      "bands": 5604,
      "▁proposing": 5605,
      "▁mutil": 5606,
      "▁mmbt": 5607,
      "▁luminol": 5608,
      "bie": 5609,
      "▁transferring": 5610,
      "▁surround": 5611,
      "▁says": 5612,
      "▁helped": 5613,
      "▁festival": 5614,
      "▁congrat": 5615,
      "vals": 5616,
      "▁predicted": 5617,
      "▁prec": 5618,
      "▁stand": 5619,
      "▁networks": 5620,
      "▁prototypes": 5621,
      "▁large": 5622,
      "▁minut": 5623,
      "▁offering": 5624,
      "▁buckled": 5625,
      "▁der": 5626,
      "▁english": 5627,
      "▁squee": 5628,
      "▁cake": 5629,
      "ength": 5630,
      "▁leaves": 5631,
      "▁decisions": 5632,
      "▁wording": 5633,
      "▁concerts": 5634,
      "porte": 5635,
      "▁viability": 5636,
      "▁envelop": 5637,
      "▁she": 5638,
      "▁procedures": 5639,
      "▁tails": 5640,
      "dles": 5641,
      "▁viet": 5642,
      "quil": 5643,
      "▁stockings": 5644,
      "▁car": 5645,
      "▁galloping": 5646,
      "▁checking": 5647,
      "lla": 5648,
      "▁prove": 5649,
      "▁opp": 5650,
      "▁observ": 5651,
      "ulator": 5652,
      "2d-": 5653,
      "▁fastened": 5654,
      "▁sponge": 5655,
      "▁pent": 5656,
      "▁spa": 5657,
      "atom": 5658,
      "▁ultrasounds": 5659,
      "▁selection": 5660,
      "king": 5661,
      "▁montreal": 5662,
      "▁although": 5663,
      "▁contro": 5664,
      "▁suggests": 5665,
      "▁gra": 5666,
      "qui": 5667,
      "▁spoon": 5668,
      "▁banjo": 5669,
      "▁sheik": 5670,
      "▁wrest": 5671,
      "don": 5672,
      "▁non-": 5673,
      "ifying": 5674,
      "▁happiness": 5675,
      "▁collar": 5676,
      "me": 5677,
      "▁friday": 5678,
      "▁de": 5679,
      "goti": 5680,
      "▁passenger": 5681,
      "▁mule": 5682,
      "|reg": 5683,
      "▁ansi": 5684,
      "▁typically": 5685,
      "▁ontario": 5686,
      "▁|--------+----------------------->": 5687,
      "▁exceed": 5688,
      "▁notwithstanding": 5689,
      "▁hi": 5690,
      "▁colle": 5691,
      "▁backed": 5692,
      "▁tors": 5693,
      "▁fresh": 5694,
      "▁receipt": 5695,
      "▁scent": 5696,
      "▁wrongdo": 5697,
      "▁improvement": 5698,
      "utes": 5699,
      "▁modes": 5700,
      "wood": 5701,
      "tone": 5702,
      "----------------": 5703,
      "eers": 5704,
      "▁mit": 5705,
      "ainability": 5706,
      "▁circumstances": 5707,
      "▁que": 5708,
      "anim": 5709,
      "▁exports": 5710,
      "▁intervals": 5711,
      "▁occurring": 5712,
      "▁jelly": 5713,
      "▁tempura": 5714,
      "▁served": 5715,
      "▁transformation": 5716,
      "t": 5717,
      "7h": 5718,
      "▁prevented": 5719,
      "▁hook": 5720,
      "▁frequented": 5721,
      "▁183": 5722,
      "▁nap": 5723,
      "▁reference": 5724,
      "iousness": 5725,
      "ainly": 5726,
      "▁mask": 5727,
      "chair": 5728,
      "iddit": 5729,
      "iced": 5730,
      "▁sits": 5731,
      "▁milks": 5732,
      "▁defines": 5733,
      "▁minneapolis": 5734,
      "▁urgency": 5735,
      "▁easi": 5736,
      "▁mids": 5737,
      "usion": 5738,
      "afts": 5739,
      "▁plunged": 5740,
      "ovation": 5741,
      "▁placed": 5742,
      "▁smoothie": 5743,
      "▁customize": 5744,
      "▁remark": 5745,
      "▁banner": 5746,
      "▁rate": 5747,
      "▁cockatiel": 5748,
      "▁penalty": 5749,
      "▁nyl": 5750,
      "▁envelopes": 5751,
      "▁wages": 5752,
      "ooked": 5753,
      "pec": 5754,
      "mail": 5755,
      "▁observe": 5756,
      "▁targets": 5757,
      "▁charges": 5758,
      "▁giant": 5759,
      "▁payroll": 5760,
      "▁claws": 5761,
      "▁resist": 5762,
      "night": 5763,
      "▁ethnicity": 5764,
      "▁security": 5765,
      "▁siz": 5766,
      "▁rusted": 5767,
      "ick": 5768,
      "so": 5769,
      "▁certainly": 5770,
      "▁int": 5771,
      "▁system": 5772,
      "▁pit": 5773,
      "▁pen": 5774,
      "▁tugging": 5775,
      "tims": 5776,
      "▁hour": 5777,
      "▁bew": 5778,
      "▁forearm": 5779,
      "▁hens": 5780,
      "▁burial": 5781,
      "▁nano": 5782,
      "▁shields": 5783,
      "▁afghanistan": 5784,
      "▁even": 5785,
      "▁reduction": 5786,
      "▁enrong": 5787,
      "alist": 5788,
      "▁fri": 5789,
      "▁construction": 5790,
      "▁smo": 5791,
      "▁tup": 5792,
      "antiation": 5793,
      "iversity": 5794,
      "▁video": 5795,
      "▁suspect": 5796,
      "▁float": 5797,
      "elag": 5798,
      "▁supplied": 5799,
      "otated": 5800,
      "eop": 5801,
      "▁breed": 5802,
      "▁dependency": 5803,
      "▁consciousness": 5804,
      "▁st.": 5805,
      "▁depar": 5806,
      "▁buddy": 5807,
      "▁hold": 5808,
      "▁true": 5809,
      "▁key": 5810,
      "▁hiring": 5811,
      "▁elephants": 5812,
      "▁inversion": 5813,
      "▁playing": 5814,
      "▁cir": 5815,
      "▁thin": 5816,
      "▁zeitgeist": 5817,
      "▁travelled": 5818,
      "▁kept": 5819,
      "▁disintegration": 5820,
      "▁coal": 5821,
      "oid": 5822,
      "▁veggies": 5823,
      "▁collaborated": 5824,
      "1-1.doc": 5825,
      "▁tulsa": 5826,
      "▁u.s.": 5827,
      "▁doub": 5828,
      "▁heavens": 5829,
      "▁enters": 5830,
      "age": 5831,
      "▁folks": 5832,
      "asy": 5833,
      "▁apple": 5834,
      "▁stopped": 5835,
      "▁charge": 5836,
      "▁bush": 5837,
      "▁firstly": 5838,
      "▁midterms": 5839,
      "44": 5840,
      "▁syria": 5841,
      "erarch": 5842,
      "ocracy": 5843,
      "arities": 5844,
      "▁cos": 5845,
      "▁suffered": 5846,
      "▁spoke": 5847,
      "tc": 5848,
      "▁mind": 5849,
      "▁climate": 5850,
      "▁guest": 5851,
      "▁convention": 5852,
      "chang": 5853,
      "▁tobac": 5854,
      "▁oppos": 5855,
      "▁mid": 5856,
      "▁collaboration": 5857,
      "itivity": 5858,
      "▁consequ": 5859,
      "▁wailing": 5860,
      "ounter": 5861,
      "▁prev": 5862,
      "gings": 5863,
      "▁extrad": 5864,
      "▁german": 5865,
      "▁brown": 5866,
      "iving": 5867,
      "▁attr": 5868,
      "elle": 5869,
      "▁fingers": 5870,
      "▁article": 5871,
      "▁fiction": 5872,
      "▁onto": 5873,
      "▁vendors": 5874,
      "▁erase": 5875,
      "▁salvation": 5876,
      "▁len": 5877,
      "▁vomit": 5878,
      "▁completion": 5879,
      "▁chap": 5880,
      "▁channel": 5881,
      "▁thyroid": 5882,
      "▁smugg": 5883,
      "▁volunteer": 5884,
      "▁aught": 5885,
      "mem": 5886,
      "ania": 5887,
      "ebook": 5888,
      "▁contexts": 5889,
      "▁abstract": 5890,
      "▁flaw": 5891,
      "▁backside": 5892,
      "▁poster": 5893,
      "mally": 5894,
      "▁recovered": 5895,
      "aq": 5896,
      "▁ath": 5897,
      "inctions": 5898,
      "▁varying": 5899,
      "pg": 5900,
      "▁identifying": 5901,
      "aic": 5902,
      "▁regulation": 5903,
      "▁sneakers": 5904,
      "yond": 5905,
      "▁·": 5906,
      "▁nanny": 5907,
      "▁experien": 5908,
      "▁embass": 5909,
      "▁flea": 5910,
      "▁coincidence": 5911,
      "▁obst": 5912,
      "uction": 5913,
      "▁8": 5914,
      "▁mosquitoes": 5915,
      "▁tasting": 5916,
      "amas": 5917,
      "▁storing": 5918,
      "sen": 5919,
      "▁orders": 5920,
      "pp": 5921,
      "▁dict": 5922,
      "▁rendered": 5923,
      "le": 5924,
      "▁chunk": 5925,
      "▁catches": 5926,
      "agie": 5927,
      "▁exclaim": 5928,
      "cha": 5929,
      "ley": 5930,
      "▁queries": 5931,
      "orate": 5932,
      "▁ven": 5933,
      "▁ought": 5934,
      "▁diaper": 5935,
      "ticians": 5936,
      "▁amid": 5937,
      "▁reaching": 5938,
      "▁incurred": 5939,
      "esh": 5940,
      "▁bat": 5941,
      "▁complement": 5942,
      "▁sugg": 5943,
      "▁podc": 5944,
      "▁referend": 5945,
      "▁dozens": 5946,
      "▁cod": 5947,
      "ile": 5948,
      "▁development": 5949,
      "▁announce": 5950,
      "▁liked": 5951,
      "▁specify": 5952,
      "▁judgement": 5953,
      "yalist": 5954,
      "▁mul": 5955,
      "ortion": 5956,
      "▁suspicion": 5957,
      "▁alto": 5958,
      "▁praised": 5959,
      "▁effects": 5960,
      "▁shif": 5961,
      "assment": 5962,
      "▁locomotion": 5963,
      "▁silkie": 5964,
      "▁finances": 5965,
      "▁proves": 5966,
      "isions": 5967,
      "lear": 5968,
      "▁dots": 5969,
      "▁asked": 5970,
      "▁registration": 5971,
      "d": 5972,
      "▁exiled": 5973,
      "▁whis": 5974,
      "▁cat-flap": 5975,
      "▁spell": 5976,
      "▁grip": 5977,
      "▁protein": 5978,
      "▁mus": 5979,
      "▁suburbs": 5980,
      "▁good": 5981,
      "▁counter": 5982,
      "ership": 5983,
      "ressor": 5984,
      "517": 5985,
      "▁tro": 5986,
      "▁-----------------------------------------------------------------": 5987,
      "itement": 5988,
      "!!!!": 5989,
      "▁scissors": 5990,
      "▁prestige": 5991,
      "▁chequ": 5992,
      "respond": 5993,
      "▁eliminated": 5994,
      "▁octop": 5995,
      "▁mailing": 5996,
      "▁supers": 5997,
      "nets": 5998,
      "▁grocery": 5999,
      "▁tendency": 6000,
      "▁soil": 6001,
      "▁°": 6002,
      "▁enrongss.xls": 6003,
      "tax": 6004,
      "▁writ": 6005,
      "▁nursies": 6006,
      "▁rome": 6007,
      "▁crop": 6008,
      "▁founder": 6009,
      "▁cerem": 6010,
      "▁pending": 6011,
      "▁heights": 6012,
      "armacy": 6013,
      "ctuation": 6014,
      "▁cri": 6015,
      "▁considered": 6016,
      "▁pictures": 6017,
      "▁defense": 6018,
      "▁pipe": 6019,
      "▁hind": 6020,
      "▁referring": 6021,
      "lization": 6022,
      "▁changes": 6023,
      "▁canc": 6024,
      "▁volati": 6025,
      "veral": 6026,
      "▁wondered": 6027,
      "▁caus": 6028,
      "▁overchar": 6029,
      "▁napkin": 6030,
      "ularly": 6031,
      "▁commiss": 6032,
      "▁stun": 6033,
      "▁derived": 6034,
      "get": 6035,
      "▁shark": 6036,
      ".r": 6037,
      "hm": 6038,
      "▁bent": 6039,
      "▁repressed": 6040,
      "▁slam": 6041,
      "lement": 6042,
      "▁verify": 6043,
      "▁illustrate": 6044,
      "▁curve": 6045,
      "▁resolution": 6046,
      "▁markers": 6047,
      "ycling": 6048,
      "▁no.": 6049,
      "▁stock": 6050,
      "-president": 6051,
      "▁confrontation": 6052,
      "inental": 6053,
      "iencies": 6054,
      "erb": 6055,
      "▁struck": 6056,
      "▁whit": 6057,
      "▁slime": 6058,
      "▁laura": 6059,
      "▁pud": 6060,
      "▁fits": 6061,
      "▁echo": 6062,
      "oneering": 6063,
      "▁hopefully": 6064,
      "▁commons": 6065,
      "▁1960s": 6066,
      "esis": 6067,
      "▁network": 6068,
      "▁amidst": 6069,
      "▁finds": 6070,
      "▁males": 6071,
      "▁tr": 6072,
      "▁fever": 6073,
      "▁slowly": 6074,
      "▁diagn": 6075,
      "▁liquid": 6076,
      "enses": 6077,
      "anks": 6078,
      "actor": 6079,
      "▁chatting": 6080,
      "▁sweep": 6081,
      "0": 6082,
      "▁e-mail": 6083,
      "°": 6084,
      "▁scholar": 6085,
      "▁http://www.": 6086,
      "▁desired": 6087,
      "▁************************************************": 6088,
      "▁characterized": 6089,
      "▁equity": 6090,
      "ultural": 6091,
      "▁we": 6092,
      "’": 6093,
      "▁momma": 6094,
      "▁yrs": 6095,
      "▁exter": 6096,
      "▁shores": 6097,
      "▁sort": 6098,
      "▁receives": 6099,
      "icke": 6100,
      "▁beeper": 6101,
      "▁ambition": 6102,
      "sted": 6103,
      "▁evacuate": 6104,
      "▁blocks": 6105,
      "▁baker": 6106,
      "▁sat": 6107,
      "▁restrictions": 6108,
      "▁unic": 6109,
      "▁donated": 6110,
      "-1.doc": 6111,
      "▁temples": 6112,
      "day": 6113,
      "▁hypnosis": 6114,
      "▁aristocrats": 6115,
      "ability": 6116,
      "▁flic": 6117,
      "▁create": 6118,
      "▁shit": 6119,
      "▁ou": 6120,
      "▁xml": 6121,
      "▁ducked": 6122,
      "▁swept": 6123,
      "▁jason": 6124,
      "awatt": 6125,
      "ocrat": 6126,
      "▁surviving": 6127,
      "▁cele": 6128,
      "ought": 6129,
      "▁waffles": 6130,
      "▁sell": 6131,
      "▁es": 6132,
      "cial": 6133,
      "▁metaph": 6134,
      "▁flourishing": 6135,
      ".0": 6136,
      "ressive": 6137,
      "▁sweet": 6138,
      "▁fem": 6139,
      "▁transparency": 6140,
      "▁koala": 6141,
      "overy": 6142,
      "itting": 6143,
      "▁pericles": 6144,
      "▁kib": 6145,
      "▁conversations": 6146,
      "▁ok": 6147,
      "▁bears": 6148,
      "▁principle": 6149,
      "▁levels": 6150,
      "▁internet": 6151,
      "▁feature": 6152,
      "▁relates": 6153,
      "▁recipients": 6154,
      "▁eliminate": 6155,
      "tow": 6156,
      "▁shaking": 6157,
      "orders": 6158,
      "▁miss": 6159,
      "▁social": 6160,
      "▁features": 6161,
      "▁benefits": 6162,
      "▁pension": 6163,
      "▁perpet": 6164,
      "hea": 6165,
      "▁advancement": 6166,
      "▁novelist": 6167,
      "▁hey": 6168,
      "▁governments": 6169,
      "▁resisted": 6170,
      "▁associ": 6171,
      "▁debt": 6172,
      "atme": 6173,
      "person": 6174,
      "▁conclu": 6175,
      "▁dando": 6176,
      "▁resulted": 6177,
      "▁hiking": 6178,
      "▁consume": 6179,
      "▁displaced": 6180,
      "▁berth": 6181,
      "-st": 6182,
      "▁delayed": 6183,
      "▁bottoms": 6184,
      "▁quiet": 6185,
      "▁eated": 6186,
      "eeing": 6187,
      "▁novel": 6188,
      "▁liter": 6189,
      "▁glare": 6190,
      "▁baptised": 6191,
      "▁caught": 6192,
      "roll": 6193,
      "▁fought": 6194,
      "▁go": 6195,
      "▁polaro": 6196,
      "▁currents": 6197,
      "▁'m": 6198,
      "▁rati": 6199,
      "angled": 6200,
      "▁proud": 6201,
      "▁discover": 6202,
      "▁anthropologist": 6203,
      "▁inquired": 6204,
      "pletely": 6205,
      "▁furs": 6206,
      "▁violence": 6207,
      "▁misfort": 6208,
      "▁list": 6209,
      "▁newspaper": 6210,
      "▁cott": 6211,
      "stood": 6212,
      "▁carbon": 6213,
      "▁curb": 6214,
      "▁privileges": 6215,
      "▁leader": 6216,
      "▁waffle": 6217,
      "▁families": 6218,
      "l": 6219,
      "ury": 6220,
      "▁vanish": 6221,
      "▁lott": 6222,
      "▁firewood": 6223,
      "▁win": 6224,
      "▁raid": 6225,
      "hhu": 6226,
      "▁creep": 6227,
      "▁artworld": 6228,
      "▁front": 6229,
      "▁pressure": 6230,
      "▁flower": 6231,
      "▁carries": 6232,
      "▁spo": 6233,
      "▁scaven": 6234,
      "ulses": 6235,
      "▁contribution": 6236,
      "▁barrette": 6237,
      "▁winking": 6238,
      "bar": 6239,
      "▁hardness": 6240,
      "▁india": 6241,
      "▁factor": 6242,
      "▁ident": 6243,
      "▁salesman": 6244,
      "▁based": 6245,
      "▁adjust": 6246,
      "▁beef": 6247,
      "▁extended": 6248,
      "▁shyness": 6249,
      "▁cycles": 6250,
      "orie": 6251,
      "▁moreover": 6252,
      "▁regist": 6253,
      "angu": 6254,
      "▁poop": 6255,
      "yard": 6256,
      "▁rated": 6257,
      "▁disliked": 6258,
      "igital": 6259,
      "▁dilemma": 6260,
      "▁struggle": 6261,
      "to": 6262,
      "entures": 6263,
      "rusted": 6264,
      "▁filled": 6265,
      "▁staple": 6266,
      "▁doggie": 6267,
      "▁thx": 6268,
      "rave": 6269,
      "▁appropriate": 6270,
      "▁constructed": 6271,
      "▁llc": 6272,
      "load": 6273,
      "▁plays": 6274,
      "▁shorts": 6275,
      "▁hambur": 6276,
      "iating": 6277,
      "▁crashed": 6278,
      "▁sut": 6279,
      "▁gamb": 6280,
      "▁weeds": 6281,
      "▁playwrights": 6282,
      "▁cultures": 6283,
      "▁becomes": 6284,
      "▁meat": 6285,
      "▁claims": 6286,
      "irst": 6287,
      "▁colon": 6288,
      "▁----==": 6289,
      "▁snakes": 6290,
      "▁primarily": 6291,
      "▁enchil": 6292,
      "▁rolling": 6293,
      "▁silk": 6294,
      "▁pail": 6295,
      "▁reinfor": 6296,
      "▁factors": 6297,
      "▁structure": 6298,
      "▁handker": 6299,
      "▁muse": 6300,
      "▁loose": 6301,
      "▁ken": 6302,
      "eph": 6303,
      "▁aro": 6304,
      "iki": 6305,
      "dress": 6306,
      "▁salinity": 6307,
      "▁arrang": 6308,
      "▁horrors": 6309,
      "▁landed": 6310,
      "▁comfor": 6311,
      "▁sustainability": 6312,
      "▁abb": 6313,
      "▁encompassing": 6314,
      "arm": 6315,
      "▁colours": 6316,
      "▁cat": 6317,
      "▁toast": 6318,
      "pt": 6319,
      "▁ends": 6320,
      "▁fat": 6321,
      "▁sheriff": 6322,
      "▁crops": 6323,
      "▁moder": 6324,
      "▁alone": 6325,
      "▁cav": 6326,
      "▁brass": 6327,
      "▁emphas": 6328,
      "▁basil": 6329,
      "▁competi": 6330,
      "▁remod": 6331,
      "▁postp": 6332,
      "▁chocolates": 6333,
      "essness": 6334,
      "fting": 6335,
      "▁evolving": 6336,
      "▁bending": 6337,
      "stop": 6338,
      "ibs": 6339,
      "mping": 6340,
      "gage": 6341,
      "▁incredibly": 6342,
      "▁petersburg": 6343,
      "▁walks": 6344,
      "otion": 6345,
      "uistics": 6346,
      "▁took": 6347,
      "▁subs": 6348,
      "▁26": 6349,
      "▁stroll": 6350,
      "▁...": 6351,
      "▁letters": 6352,
      "▁displacement": 6353,
      "▁70": 6354,
      "struc": 6355,
      "▁divor": 6356,
      "ishes": 6357,
      "▁micros": 6358,
      "▁resource": 6359,
      "▁bi": 6360,
      "cling": 6361,
      "▁reservation": 6362,
      "gation": 6363,
      "▁anthrax": 6364,
      "▁appointed": 6365,
      "▁v02": 6366,
      "▁visited": 6367,
      "▁abused": 6368,
      "99": 6369,
      "▁toured": 6370,
      "▁address": 6371,
      "▁done": 6372,
      "▁captured": 6373,
      "▁wore": 6374,
      "▁roofs": 6375,
      "▁figures": 6376,
      "▁opens": 6377,
      "▁deleted": 6378,
      "em": 6379,
      "▁ebbed": 6380,
      "▁acupunct": 6381,
      "▁hea": 6382,
      "▁scenar": 6383,
      "▁newark": 6384,
      "▁performed": 6385,
      "▁guerrillas": 6386,
      "▁decade": 6387,
      "▁gcp": 6388,
      "▁li": 6389,
      "▁crust": 6390,
      "▁vernon": 6391,
      "▁crushing": 6392,
      "▁report": 6393,
      "▁p.s": 6394,
      "▁predict": 6395,
      "▁homosexuality": 6396,
      "▁procl": 6397,
      "▁constitutions": 6398,
      "▁diplomacy": 6399,
      "▁disagre": 6400,
      "▁cried": 6401,
      "▁python": 6402,
      "▁forbidden": 6403,
      "▁court": 6404,
      "aties": 6405,
      "led": 6406,
      "▁somebody": 6407,
      "erness": 6408,
      "▁maker": 6409,
      "keness": 6410,
      "▁goat": 6411,
      "pically": 6412,
      "▁january": 6413,
      "▁underp": 6414,
      "▁provisions": 6415,
      "▁origins": 6416,
      "▁cow": 6417,
      "▁monaster": 6418,
      "▁stro": 6419,
      "▁county": 6420,
      "▁si": 6421,
      "▁sparks": 6422,
      "▁pursued": 6423,
      "▁flatbread": 6424,
      "▁transforms": 6425,
      "▁alle": 6426,
      "▁fights": 6427,
      "▁photographer": 6428,
      "▁each": 6429,
      "▁spawn": 6430,
      "▁tran": 6431,
      "▁marginalized": 6432,
      "▁wor": 6433,
      "▁flatten": 6434,
      "thma": 6435,
      "▁conflict": 6436,
      "▁euro": 6437,
      "▁attended": 6438,
      "▁lamb": 6439,
      "▁strawberries": 6440,
      "▁home": 6441,
      "tling": 6442,
      "▁poli": 6443,
      "9th": 6444,
      "▁fam": 6445,
      "▁october": 6446,
      "▁realism": 6447,
      "tition": 6448,
      "ws": 6449,
      "▁intake": 6450,
      "▁pushing": 6451,
      "bish": 6452,
      "▁promoting": 6453,
      "▁demands": 6454,
      "▁seeker": 6455,
      "▁disappearance": 6456,
      "▁deserted": 6457,
      "▁sniff": 6458,
      "-be": 6459,
      "▁peters": 6460,
      "erns": 6461,
      "oney": 6462,
      "ution": 6463,
      "▁amb": 6464,
      "at": 6465,
      "▁reportedly": 6466,
      "cp": 6467,
      "gement": 6468,
      "iqu": 6469,
      "▁split": 6470,
      "▁writing": 6471,
      "▁natur": 6472,
      "▁protects": 6473,
      "▁screens": 6474,
      "▁jo": 6475,
      "▁rect": 6476,
      "▁shad": 6477,
      "rands": 6478,
      "rics": 6479,
      "▁modern": 6480,
      "hind": 6481,
      "adel": 6482,
      "▁complex": 6483,
      "▁profic": 6484,
      "▁mates": 6485,
      "▁cockati": 6486,
      "▁qualified": 6487,
      "▁turb": 6488,
      "lying": 6489,
      "▁facilitating": 6490,
      "eously": 6491,
      "onents": 6492,
      "▁appren": 6493,
      "▁spoons": 6494,
      "▁flights": 6495,
      "▁death": 6496,
      "▁04": 6497,
      "oose": 6498,
      "▁extend": 6499,
      "adrons": 6500,
      "awed": 6501,
      "low": 6502,
      "▁hamb": 6503,
      "▁sled": 6504,
      "▁debr": 6505,
      "▁caf": 6506,
      "▁impacts": 6507,
      "▁hears": 6508,
      "▁output": 6509,
      "▁radiation": 6510,
      "▁bran": 6511,
      "▁asks": 6512,
      "▁skill": 6513,
      "▁buddies": 6514,
      "▁cart": 6515,
      "▁surgery": 6516,
      "▁strangers": 6517,
      "▁tournament": 6518,
      "▁spending": 6519,
      "ino": 6520,
      "▁evaluator": 6521,
      "▁ruts": 6522,
      "▁fris": 6523,
      "▁prizes": 6524,
      "▁willow": 6525,
      "ando": 6526,
      "▁atheists": 6527,
      "▁website": 6528,
      "[PAD]": 6529,
      "ales": 6530,
      "▁ecodes": 6531,
      "▁kung": 6532,
      "ych": 6533,
      "▁hobby": 6534,
      "▁rit": 6535,
      "▁sculpt": 6536,
      "▁nip": 6537,
      "▁convicts": 6538,
      "▁crimes": 6539,
      "▁attack": 6540,
      "igated": 6541,
      "▁flooring": 6542,
      "▁bureaucr": 6543,
      "▁figured": 6544,
      "▁wobblers": 6545,
      "▁pilg": 6546,
      "iation": 6547,
      "▁senti": 6548,
      "▁childbir": 6549,
      "▁consumerism": 6550,
      "raf": 6551,
      "▁revolves": 6552,
      "ributing": 6553,
      "▁great": 6554,
      "▁long": 6555,
      "▁reliability": 6556,
      "orts": 6557,
      "tit": 6558,
      "auce": 6559,
      "▁t.v": 6560,
      "▁goals": 6561,
      "▁philadelphia": 6562,
      "▁compass": 6563,
      "▁congregation": 6564,
      "▁gazing": 6565,
      "▁exper": 6566,
      "ment": 6567,
      "▁genius": 6568,
      "▁epidemic": 6569,
      "▁formal": 6570,
      "cosm": 6571,
      "▁fridge": 6572,
      "▁rum": 6573,
      "lines": 6574,
      "▁hamp": 6575,
      "▁grape": 6576,
      "▁reluct": 6577,
      "ionary": 6578,
      "▁tempt": 6579,
      "▁intending": 6580,
      "▁monk": 6581,
      "▁lee": 6582,
      "▁insisted": 6583,
      "▁'s": 6584,
      "▁soul": 6585,
      "▁opposed": 6586,
      "▁arres": 6587,
      "▁kil": 6588,
      "▁definitions": 6589,
      "▁mosque": 6590,
      "▁haven": 6591,
      "erole": 6592,
      "fall": 6593,
      "ply": 6594,
      "▁theory": 6595,
      "▁baked": 6596,
      "▁intercept": 6597,
      "▁objectives": 6598,
      "date": 6599,
      "sing": 6600,
      "▁plaintiffs": 6601,
      "▁sender": 6602,
      "▁fluids": 6603,
      "▁nite": 6604,
      "▁depending": 6605,
      "▁re": 6606,
      "▁cous": 6607,
      "nt": 6608,
      "▁attitude": 6609,
      "antom": 6610,
      "dened": 6611,
      "▁prints": 6612,
      "▁muffs": 6613,
      "▁enjo": 6614,
      "▁december": 6615,
      "▁removed": 6616,
      "yn": 6617,
      "▁misunderstanding": 6618,
      "▁mal": 6619,
      "▁telephones": 6620,
      "▁privacy": 6621,
      "▁freezing": 6622,
      "ut": 6623,
      "29": 6624,
      "▁trailer": 6625,
      "▁cane": 6626,
      "▁ivory": 6627,
      "▁wig": 6628,
      "▁rent": 6629,
      "jud": 6630,
      "▁glove": 6631,
      "amping": 6632,
      "atograph": 6633,
      "▁crushed": 6634,
      "▁steamer": 6635,
      "▁dealing": 6636,
      "▁into": 6637,
      "▁l": 6638,
      "▁campaigns": 6639,
      "▁whereabouts": 6640,
      "▁china": 6641,
      "▁technique": 6642,
      "▁frightened": 6643,
      "moil": 6644,
      "▁70's": 6645,
      "▁most": 6646,
      "kles": 6647,
      "▁ecli": 6648,
      "asion": 6649,
      "▁church": 6650,
      "▁alt.animals.": 6651,
      "▁mech": 6652,
      "▁signs": 6653,
      "▁stations": 6654,
      "▁ate": 6655,
      "structed": 6656,
      "▁footst": 6657,
      "▁surface": 6658,
      "▁customs": 6659,
      "▁tricycle": 6660,
      "▁cook": 6661,
      "▁masks": 6662,
      "▁t.v.": 6663,
      "▁irritation": 6664,
      "▁autofilter": 6665,
      "▁claimed": 6666,
      "own": 6667,
      "atch": 6668,
      "▁house-": 6669,
      "inence": 6670,
      "▁niece": 6671,
      "▁veranda": 6672,
      "▁horr": 6673,
      "▁confidence": 6674,
      "▁posters": 6675,
      "▁roosters": 6676,
      "▁jean": 6677,
      "▁shoulder": 6678,
      "▁goose": 6679,
      "adle": 6680,
      "▁adoption": 6681,
      "▁unfold": 6682,
      "▁limits": 6683,
      "▁approximately": 6684,
      "▁awards": 6685,
      "▁alignment": 6686,
      "▁recons": 6687,
      "17": 6688,
      "▁rules": 6689,
      "▁$$$": 6690,
      "ingle": 6691,
      "▁commanders": 6692,
      "▁duckie": 6693,
      "▁musician": 6694,
      "▁suppressed": 6695,
      "/he": 6696,
      "▁convince": 6697,
      "▁flourish": 6698,
      "▁plight": 6699,
      "▁flir": 6700,
      "81-1.doc": 6701,
      "▁wilson": 6702,
      "▁paper": 6703,
      "▁steph": 6704,
      "▁dis": 6705,
      "▁them": 6706,
      "▁clashes": 6707,
      "▁perspectives": 6708,
      "▁these": 6709,
      "▁v": 6710,
      "▁continuation": 6711,
      "▁soils": 6712,
      "keting": 6713,
      "▁burning": 6714,
      "▁discuss": 6715,
      "assing": 6716,
      "▁philosophy": 6717,
      "▁pony": 6718,
      "▁falls": 6719,
      "▁australia": 6720,
      "adder": 6721,
      "▁fert": 6722,
      "▁acted": 6723,
      "kets": 6724,
      "▁ensure": 6725,
      "formed": 6726,
      "rets": 6727,
      "▁disob": 6728,
      "▁ft": 6729,
      "▁takeoff": 6730,
      "pancy": 6731,
      "itoring": 6732,
      "▁purchase": 6733,
      "▁altar": 6734,
      "▁extradition": 6735,
      "▁http": 6736,
      "▁daughters": 6737,
      "▁hairs": 6738,
      "igation": 6739,
      "▁mathematicians": 6740,
      "▁introduction": 6741,
      "▁pot": 6742,
      "▁ignore": 6743,
      "▁coach": 6744,
      "▁renewal": 6745,
      "lam": 6746,
      "▁curlers": 6747,
      "▁cost": 6748,
      "▁suggestion": 6749,
      "▁wounded": 6750,
      "▁selecting": 6751,
      "yer": 6752,
      "▁send": 6753,
      "▁realized": 6754,
      "▁careful": 6755,
      "▁faith": 6756,
      "▁efficiency": 6757,
      "▁reveals": 6758,
      "▁below": 6759,
      "▁flush": 6760,
      "gy": 6761,
      "orea": 6762,
      "▁appla": 6763,
      "▁beside": 6764,
      "▁virt": 6765,
      "▁staged": 6766,
      "per": 6767,
      "▁rescue": 6768,
      "▁appear": 6769,
      "▁sit": 6770,
      "▁gum": 6771,
      "▁religious": 6772,
      "▁recruit": 6773,
      "▁july": 6774,
      "ruption": 6775,
      "▁unfort": 6776,
      "▁inst": 6777,
      "▁hunt": 6778,
      "▁embassy": 6779,
      "atus": 6780,
      "▁celeb": 6781,
      "▁knew": 6782,
      "▁snapped": 6783,
      "erts": 6784,
      "▁stupid": 6785,
      "▁stocks": 6786,
      "▁clarification": 6787,
      "leenex": 6788,
      "▁2013": 6789,
      "▁insist": 6790,
      "riers": 6791,
      "▁fle": 6792,
      "▁gaze": 6793,
      "▁hut": 6794,
      "▁officials": 6795,
      "▁embarr": 6796,
      "▁deception": 6797,
      "▁return": 6798,
      "▁ltte": 6799,
      "iff": 6800,
      "▁puss": 6801,
      "ik": 6802,
      "tirely": 6803,
      "▁par": 6804,
      "▁champions": 6805,
      "▁collectors": 6806,
      "▁guar": 6807,
      "▁piece": 6808,
      "▁yesterday": 6809,
      "inted": 6810,
      "▁download": 6811,
      "▁concerning": 6812,
      "▁calculation": 6813,
      "▁ingredients": 6814,
      "▁costume": 6815,
      "▁needle": 6816,
      "▁pow": 6817,
      "▁sympath": 6818,
      "▁stands": 6819,
      "▁simp": 6820,
      "▁quite": 6821,
      "▁office": 6822,
      "▁tons": 6823,
      "my": 6824,
      "▁experiments": 6825,
      "▁resched": 6826,
      "tee": 6827,
      "▁authorization": 6828,
      "▁alt.animals.d": 6829,
      "enn": 6830,
      "▁audiobooks": 6831,
      "▁invented": 6832,
      "▁_______": 6833,
      "ner": 6834,
      "▁emer": 6835,
      "▁shelter": 6836,
      "▁notes": 6837,
      "▁attachments": 6838,
      "ises": 6839,
      "▁fab": 6840,
      "idge": 6841,
      "▁karma": 6842,
      "▁reads": 6843,
      "▁distingu": 6844,
      "▁bases": 6845,
      "▁positive": 6846,
      "▁observations": 6847,
      "places": 6848,
      "▁?!": 6849,
      "▁omission": 6850,
      "eur": 6851,
      "▁import": 6852,
      "▁wing": 6853,
      "▁overlooked": 6854,
      "▁immensity": 6855,
      "▁escape": 6856,
      "▁fuck": 6857,
      "ong": 6858,
      "aming": 6859,
      "ainder": 6860,
      "▁interesting": 6861,
      "▁community": 6862,
      "▁columbus": 6863,
      "▁bloss": 6864,
      "▁having": 6865,
      "fts": 6866,
      "loyed": 6867,
      "▁snatched": 6868,
      "▁streak": 6869,
      "y": 6870,
      "▁compounded": 6871,
      "▁probably": 6872,
      "▁eye": 6873,
      "▁compli": 6874,
      "▁lying": 6875,
      "h-": 6876,
      "ou": 6877,
      "▁financial": 6878,
      "▁ld": 6879,
      "▁rodents": 6880,
      "▁all": 6881,
      "▁story": 6882,
      "▁monies": 6883,
      "▁-----------------": 6884,
      "▁bree": 6885,
      "▁pound": 6886,
      "▁designated": 6887,
      "▁novels": 6888,
      "▁touched": 6889,
      "bows": 6890,
      "▁deterioration": 6891,
      "igh": 6892,
      "▁leaned": 6893,
      "▁intrigued": 6894,
      "▁tupper": 6895,
      "▁enhanced": 6896,
      "▁environ": 6897,
      "▁signal": 6898,
      "▁ram": 6899,
      "▁sweats": 6900,
      "--------------------------------": 6901,
      "eti": 6902,
      "▁structures": 6903,
      "hua": 6904,
      "or": 6905,
      "▁appealed": 6906,
      "nd": 6907,
      "▁flooding": 6908,
      "ude": 6909,
      "▁credibility": 6910,
      "▁imprisonment": 6911,
      "(count": 6912,
      "enoc": 6913,
      "▁income": 6914,
      "ll": 6915,
      "enings": 6916,
      "▁tricks": 6917,
      "▁spit": 6918,
      "austed": 6919,
      "▁schemes": 6920,
      "▁dancers": 6921,
      "hip": 6922,
      "mare": 6923,
      "▁where": 6924,
      "▁never": 6925,
      "ati": 6926,
      "ex": 6927,
      "▁consid": 6928,
      "essions": 6929,
      "▁approached": 6930,
      "▁himself": 6931,
      "▁balt": 6932,
      "rick": 6933,
      "▁dinner": 6934,
      "wik": 6935,
      "▁seriously": 6936,
      "alt": 6937,
      "▁nutrients": 6938,
      "▁schem": 6939,
      "▁discour": 6940,
      "urs": 6941,
      "erately": 6942,
      "▁land": 6943,
      "▁inspired": 6944,
      "▁rebel": 6945,
      "▁instinct": 6946,
      "▁embarrassment": 6947,
      "ilos": 6948,
      "▁spea": 6949,
      "ecution": 6950,
      "ounters": 6951,
      "▁symmet": 6952,
      "▁fin": 6953,
      "▁diet": 6954,
      "▁ropes": 6955,
      "▁congressman": 6956,
      "-1": 6957,
      "▁providers": 6958,
      "ause": 6959,
      "▁admit": 6960,
      "aft": 6961,
      "▁beings": 6962,
      "▁crack": 6963,
      "▁behave": 6964,
      "code": 6965,
      "▁wether": 6966,
      "▁failed": 6967,
      "▁formation": 6968,
      "▁sizz": 6969,
      "▁topper": 6970,
      "▁lith": 6971,
      "▁augmented": 6972,
      "derst": 6973,
      "▁island": 6974,
      "▁tragicomed": 6975,
      "▁spe": 6976,
      "ware": 6977,
      "▁spells": 6978,
      "90's": 6979,
      "▁founded": 6980,
      "▁writers": 6981,
      "olt": 6982,
      "▁an": 6983,
      "br": 6984,
      "▁balls": 6985,
      "▁nails": 6986,
      "▁cousins": 6987,
      "▁goes": 6988,
      "▁sees": 6989,
      "▁vib": 6990,
      "mble": 6991,
      "▁ginger": 6992,
      "▁masterpieces": 6993,
      "▁swit": 6994,
      "▁wheat": 6995,
      "▁cycle": 6996,
      "▁anticipated": 6997,
      "▁farrier": 6998,
      "anged": 6999,
      "▁potatoes": 7000,
      "lord": 7001,
      "▁scholarship": 7002,
      "keys": 7003,
      "ows": 7004,
      "cul": 7005,
      "▁david": 7006,
      "▁substance": 7007,
      "▁sneak": 7008,
      "▁co-founder": 7009,
      "▁mailings": 7010,
      "▁agriculture": 7011,
      "▁enchiladas": 7012,
      "▁deny": 7013,
      "▁replied": 7014,
      "oul": 7015,
      "▁willing": 7016,
      "raph": 7017,
      "▁raise": 7018,
      "▁towering": 7019,
      "▁white": 7020,
      "leade": 7021,
      "▁evil": 7022,
      "anges": 7023,
      "▁whipped": 7024,
      "▁fantasy": 7025,
      "res": 7026,
      "▁flesh": 7027,
      "▁shout": 7028,
      "atory": 7029,
      "▁dais": 7030,
      "inist": 7031,
      "▁hand": 7032,
      "▁2009": 7033,
      "omes": 7034,
      "▁develop": 7035,
      "▁diagram": 7036,
      "dayeen": 7037,
      "aroni": 7038,
      "▁measure": 7039,
      "oup": 7040,
      "▁nove": 7041,
      "chen": 7042,
      "ific": 7043,
      "▁sea": 7044,
      "▁throw": 7045,
      "atnot": 7046,
      "▁when": 7047,
      "▁oath": 7048,
      "▁rating": 7049,
      "♥": 7050,
      "▁plat": 7051,
      "▁remn": 7052,
      "▁habitat": 7053,
      "▁bar": 7054,
      "▁serves": 7055,
      "▁bounds": 7056,
      "mbing": 7057,
      "▁generate": 7058,
      "▁fas": 7059,
      "icially": 7060,
      "▁acknowledge": 7061,
      "▁emperor": 7062,
      "atic": 7063,
      "▁offic": 7064,
      "▁articles": 7065,
      "▁shun": 7066,
      "▁airlines": 7067,
      "º": 7068,
      "▁welcomed": 7069,
      "▁neigh": 7070,
      "▁peace": 7071,
      "▁litt": 7072,
      "▁thyro": 7073,
      "▁mart": 7074,
      "▁cas": 7075,
      "β": 7076,
      "ellers": 7077,
      "▁brushed": 7078,
      "▁busses": 7079,
      "▁highway": 7080,
      "reneurs": 7081,
      "▁negative": 7082,
      "▁?!?": 7083,
      "▁complaining": 7084,
      "▁vict": 7085,
      "▁battling": 7086,
      "▁submits": 7087,
      "▁hideout": 7088,
      "▁trans": 7089,
      "▁expos": 7090,
      "▁implemented": 7091,
      "▁offended": 7092,
      "▁sealed": 7093,
      "▁awareness": 7094,
      "▁repairs": 7095,
      "▁clinging": 7096,
      "▁crisis": 7097,
      "▁helicop": 7098,
      "▁pooping": 7099,
      "▁drama": 7100,
      "▁pouch": 7101,
      "▁jacket": 7102,
      "▁one": 7103,
      "izing": 7104,
      "▁correlation": 7105,
      "ien": 7106,
      "▁bed": 7107,
      "▁posed": 7108,
      "▁chocol": 7109,
      "oc": 7110,
      "ped": 7111,
      "▁lounge": 7112,
      "▁suck": 7113,
      "▁spouting": 7114,
      "▁fol": 7115,
      "ablish": 7116,
      "▁bludgers": 7117,
      "▁bake": 7118,
      "-o": 7119,
      "]": 7120,
      "▁borrow": 7121,
      "▁wells": 7122,
      "▁drink": 7123,
      "+re": 7124,
      "tism": 7125,
      "▁urine": 7126,
      "▁barrels": 7127,
      "▁untill": 7128,
      "▁through": 7129,
      "▁salary": 7130,
      "▁heat": 7131,
      "▁bos": 7132,
      "▁manufact": 7133,
      "▁caps": 7134,
      "▁very": 7135,
      "fics": 7136,
      "▁retention": 7137,
      "▁hu": 7138,
      "▁ar": 7139,
      "▁antibio": 7140,
      "▁disapp": 7141,
      "▁hurt": 7142,
      "▁specific": 7143,
      "▁aboard": 7144,
      "▁revolution": 7145,
      "▁pork": 7146,
      "▁alley": 7147,
      "▁acquire": 7148,
      "▁temp": 7149,
      "fed": 7150,
      "erer": 7151,
      "▁beak": 7152,
      "edness": 7153,
      "▁flunking": 7154,
      "▁fucking": 7155,
      "▁pipes": 7156,
      "ai": 7157,
      "▁headquarters": 7158,
      "▁feelings": 7159,
      "abouts": 7160,
      "▁transfers": 7161,
      "▁passengers": 7162,
      "▁warfare": 7163,
      "onin": 7164,
      "uised": 7165,
      "▁asset": 7166,
      "▁sur": 7167,
      "▁trash": 7168,
      "▁--": 7169,
      "▁damage": 7170,
      "thes": 7171,
      "▁mur": 7172,
      "▁soon": 7173,
      "▁decades": 7174,
      "▁2015": 7175,
      "liances": 7176,
      "▁dogg": 7177,
      "▁identi": 7178,
      "▁tampa": 7179,
      "▁distortion": 7180,
      "pted": 7181,
      "▁arr": 7182,
      "▁surge": 7183,
      "▁matters": 7184,
      "▁memories": 7185,
      "▁portrait": 7186,
      "▁ori": 7187,
      "▁prohibited": 7188,
      "▁necessarily": 7189,
      "fing": 7190,
      "▁document": 7191,
      "inning": 7192,
      "uties": 7193,
      "▁theodor": 7194,
      "▁contacted": 7195,
      "▁combines": 7196,
      "argy": 7197,
      "▁rub": 7198,
      "▁assemble": 7199,
      "▁ehr": 7200,
      "keling": 7201,
      "▁crayons": 7202,
      "ease": 7203,
      "▁give": 7204,
      "house": 7205,
      "arily": 7206,
      "▁angeles": 7207,
      "▁visits": 7208,
      "vision": 7209,
      "ifies": 7210,
      "▁locom": 7211,
      "▁mist": 7212,
      "▁snitch": 7213,
      "▁elect": 7214,
      "▁outl": 7215,
      "▁preparation": 7216,
      "name": 7217,
      "stit": 7218,
      "▁zone": 7219,
      "▁particularly": 7220,
      "▁weakening": 7221,
      "▁lowered": 7222,
      "▁billi": 7223,
      "▁horn": 7224,
      "man": 7225,
      "▁sleeping": 7226,
      "▁earthworms": 7227,
      "▁published": 7228,
      "▁outcomes": 7229,
      "▁dre": 7230,
      "▁tush": 7231,
      "▁reintroduced": 7232,
      "▁floating": 7233,
      "▁reasonable": 7234,
      "zes": 7235,
      "▁screwdriver": 7236,
      "▁socialist": 7237,
      "▁permitted": 7238,
      "▁folded": 7239,
      "▁participating": 7240,
      "oads": 7241,
      "▁state": 7242,
      "▁corporations": 7243,
      "'t": 7244,
      "▁(count": 7245,
      "▁reproducibility": 7246,
      "▁glance": 7247,
      "▁frank": 7248,
      "awn": 7249,
      "▁herd": 7250,
      "▁disconnec": 7251,
      "▁catast": 7252,
      "▁forbidding": 7253,
      "olence": 7254,
      "▁cris": 7255,
      "▁wik": 7256,
      "ret": 7257,
      "▁necessity": 7258,
      "▁current": 7259,
      "▁crash": 7260,
      "▁tric": 7261,
      "inery": 7262,
      "▁tiss": 7263,
      "▁bind": 7264,
      "iously": 7265,
      "▁woken": 7266,
      "capes": 7267,
      "leys": 7268,
      "▁mechanism": 7269,
      "▁eaten": 7270,
      "▁boxes": 7271,
      "▁referred": 7272,
      "alis": 7273,
      "▁plotted": 7274,
      "group": 7275,
      "iddish": 7276,
      "▁conges": 7277,
      "70": 7278,
      "et": 7279,
      "▁crooks": 7280,
      "▁melt": 7281,
      "▁equ": 7282,
      "▁caused": 7283,
      "▁sang": 7284,
      "▁examples": 7285,
      "opath": 7286,
      "▁forcing": 7287,
      "▁requirements": 7288,
      "▁review": 7289,
      "jo": 7290,
      "▁mweta": 7291,
      "ding": 7292,
      "▁shed": 7293,
      "▁rulers": 7294,
      "▁pays": 7295,
      "▁drowning": 7296,
      "▁maked": 7297,
      "▁granted": 7298,
      "▁laborers": 7299,
      "▁wr": 7300,
      "▁cluster": 7301,
      "▁beyon": 7302,
      "▁parent": 7303,
      "▁channels": 7304,
      "▁obl": 7305,
      "▁butt": 7306,
      "▁unemployment": 7307,
      "▁constit": 7308,
      "iot": 7309,
      "▁interacting": 7310,
      "ered": 7311,
      "▁exactly": 7312,
      "▁climb": 7313,
      "▁vacc": 7314,
      "▁accent": 7315,
      "▁spelling": 7316,
      "ms": 7317,
      "▁hallway": 7318,
      "cro": 7319,
      "▁equi": 7320,
      "ilight": 7321,
      "▁replaced": 7322,
      "▁celebrating": 7323,
      "udge": 7324,
      "▁propri": 7325,
      "▁poverty": 7326,
      "▁cheap": 7327,
      "▁stab": 7328,
      "▁patients": 7329,
      "cca": 7330,
      "▁design": 7331,
      "▁cells": 7332,
      "alk": 7333,
      "▁refin": 7334,
      "on": 7335,
      "▁closely": 7336,
      "key": 7337,
      "▁bottom": 7338,
      "▁for": 7339,
      "▁thunder": 7340,
      "▁tube": 7341,
      "▁knees": 7342,
      "▁yelled": 7343,
      "▁yea": 7344,
      "▁lunch": 7345,
      "▁.!": 7346,
      "▁sleeves": 7347,
      "▁mba": 7348,
      "▁functionality": 7349,
      "eys": 7350,
      "▁mwe": 7351,
      "eeled": 7352,
      "▁lit": 7353,
      "▁toll": 7354,
      "▁academ": 7355,
      "read": 7356,
      "▁installation": 7357,
      "▁tears": 7358,
      ".co": 7359,
      "▁sst": 7360,
      "▁halloween": 7361,
      "▁enri": 7362,
      "▁hormone": 7363,
      "▁prospects": 7364,
      "▁wrinkles": 7365,
      "nocentrism": 7366,
      "▁fut": 7367,
      "▁fry": 7368,
      "alised": 7369,
      "▁ter": 7370,
      "▁cuck": 7371,
      "▁how": 7372,
      "▁forgot": 7373,
      "▁mot": 7374,
      "▁translation": 7375,
      "omet": 7376,
      "▁liber": 7377,
      "▁accident": 7378,
      "▁substant": 7379,
      "▁events": 7380,
      "▁covering": 7381,
      "-cre": 7382,
      "▁waist": 7383,
      "use": 7384,
      "▁eur": 7385,
      "▁breasts": 7386,
      "▁price": 7387,
      "tyard": 7388,
      "▁teddy": 7389,
      "▁sponsored": 7390,
      "▁log": 7391,
      "▁buz": 7392,
      "▁pup": 7393,
      "▁interfere": 7394,
      "▁skittles": 7395,
      "▁pour": 7396,
      "by": 7397,
      "▁elsewhere": 7398,
      "▁institutions": 7399,
      "▁subsid": 7400,
      "▁fireplace": 7401,
      "ogh": 7402,
      "▁gown": 7403,
      "▁brainw": 7404,
      "▁datasheets": 7405,
      "▁mexico": 7406,
      "▁summary": 7407,
      "-y": 7408,
      "▁crosst": 7409,
      "▁surr": 7410,
      "books": 7411,
      "▁transporting": 7412,
      "▁exacerb": 7413,
      "friends": 7414,
      "▁fours": 7415,
      "▁arrives": 7416,
      "nh": 7417,
      "▁bump": 7418,
      "▁twenties": 7419,
      "light": 7420,
      "-fl": 7421,
      "53": 7422,
      "▁delay": 7423,
      "▁kitt": 7424,
      "▁raccoon": 7425,
      "▁vast": 7426,
      "▁demons": 7427,
      "▁standardisation": 7428,
      "▁injury": 7429,
      "70s": 7430,
      "▁supple": 7431,
      "▁rall": 7432,
      "ault": 7433,
      "▁bir": 7434,
      "▁tear": 7435,
      "▁device": 7436,
      "rage": 7437,
      "▁fall": 7438,
      "▁il": 7439,
      "▁compares": 7440,
      "▁festivals": 7441,
      "▁chor": 7442,
      "ependency": 7443,
      "▁usurp": 7444,
      "▁data": 7445,
      "atively": 7446,
      "▁propose": 7447,
      "▁generators": 7448,
      "▁competence": 7449,
      "▁murder": 7450,
      "▁inde": 7451,
      "rect": 7452,
      "▁locations": 7453,
      "idding": 7454,
      "dict": 7455,
      "▁used": 7456,
      "yst": 7457,
      "▁islamic": 7458,
      "▁imagination": 7459,
      "▁exaggerated": 7460,
      "▁gtc": 7461,
      "inian": 7462,
      "▁athletes": 7463,
      "▁packages": 7464,
      "▁overc": 7465,
      "▁decide": 7466,
      "▁spreadsheet": 7467,
      "▁starvation": 7468,
      "ˈ": 7469,
      "▁radio": 7470,
      "▁intentions": 7471,
      "▁respondents": 7472,
      "▁mouth": 7473,
      "▁enterprise": 7474,
      "▁users": 7475,
      "▁laund": 7476,
      "▁bure": 7477,
      "▁pond": 7478,
      "-sh": 7479,
      "▁fec": 7480,
      "▁western": 7481,
      "▁colony": 7482,
      "lan": 7483,
      "▁tracking": 7484,
      "▁regulated": 7485,
      "▁reass": 7486,
      "▁light": 7487,
      "ite": 7488,
      "▁manatees": 7489,
      "▁informed": 7490,
      "erates": 7491,
      "ere": 7492,
      "▁uti": 7493,
      "aced": 7494,
      "▁managers": 7495,
      "erings": 7496,
      "▁{": 7497,
      "▁hoping": 7498,
      "▁sings": 7499,
      "ook": 7500,
      "▁chickens": 7501,
      "▁walking": 7502,
      "app": 7503,
      "▁causing": 7504,
      "▁james": 7505,
      "▁bron": 7506,
      "▁q1": 7507,
      "▁respec": 7508,
      "▁railway": 7509,
      "▁astronom": 7510,
      "angle": 7511,
      "▁browsers": 7512,
      "▁isol": 7513,
      "▁obsf": 7514,
      "otamus": 7515,
      "▁bagels": 7516,
      "▁scratch": 7517,
      "▁betw": 7518,
      "▁sor": 7519,
      "▁out": 7520,
      "▁shadow": 7521,
      "ernobyl": 7522,
      "▁lowest": 7523,
      "erished": 7524,
      "▁accur": 7525,
      "icult": 7526,
      "▁arriving": 7527,
      "orter": 7528,
      "▁guaranteed": 7529,
      "liers": 7530,
      "▁flocked": 7531,
      "fitting": 7532,
      "▁borders": 7533,
      "▁cabbage": 7534,
      "ils": 7535,
      "▁videoc": 7536,
      "▁environments": 7537,
      "▁hunger": 7538,
      "▁dair": 7539,
      "ception": 7540,
      "▁camping": 7541,
      "▁ya": 7542,
      "▁remembering": 7543,
      "▁briefcase": 7544,
      "▁capitalism": 7545,
      "▁practicing": 7546,
      "▁chapters": 7547,
      "ogy": 7548,
      "▁holder": 7549,
      "▁drawstring": 7550,
      "▁september": 7551,
      "▁wrote": 7552,
      "▁inherited": 7553,
      "▁fading": 7554,
      "▁simulation": 7555,
      "▁conclusion": 7556,
      "▁expanded": 7557,
      "▁referr": 7558,
      "▁identities": 7559,
      "▁hack": 7560,
      "▁preserved": 7561,
      "▁disobedience": 7562,
      "undity": 7563,
      "90s": 7564,
      "▁field": 7565,
      "▁pack": 7566,
      "▁retrie": 7567,
      "▁malnutrition": 7568,
      "▁residents": 7569,
      "erland": 7570,
      "▁ignor": 7571,
      "▁commissioner": 7572,
      "will": 7573,
      "▁proved": 7574,
      "▁watered": 7575,
      "▁dishwash": 7576,
      "▁reply": 7577,
      "▁pee": 7578,
      "sst": 7579,
      "prisingly": 7580,
      "▁linked": 7581,
      "▁arrangements": 7582,
      "▁alb": 7583,
      "▁block": 7584,
      "▁four": 7585,
      "▁barn": 7586,
      "▁engineer": 7587,
      "▁gord": 7588,
      "▁imperialism": 7589,
      "▁fracture": 7590,
      "▁dinosaur": 7591,
      "▁grant": 7592,
      "▁transition": 7593,
      "▁set": 7594,
      "▁perhaps": 7595,
      "outs": 7596,
      "▁anem": 7597,
      "▁penet": 7598,
      "▁invite": 7599,
      "▁hairsty": 7600,
      "▁shrap": 7601,
      "▁abandon": 7602,
      "▁piggie": 7603,
      "▁strive": 7604,
      "terness": 7605,
      "▁coast": 7606,
      "▁pager": 7607,
      "▁byebye": 7608,
      "lor": 7609,
      "uv": 7610,
      "▁commit": 7611,
      "aution": 7612,
      "ozer": 7613,
      "▁meet": 7614,
      "▁declar": 7615,
      "▁team": 7616,
      "▁sailed": 7617,
      "▁mention": 7618,
      "▁norm": 7619,
      "ointment": 7620,
      "▁stating": 7621,
      "liferation": 7622,
      "▁cashout": 7623,
      "tiveness": 7624,
      "ren": 7625,
      "▁questioned": 7626,
      "utching": 7627,
      "▁revive": 7628,
      "▁analyzed": 7629,
      "▁signed": 7630,
      "▁doubt": 7631,
      "▁crocod": 7632,
      "▁ling": 7633,
      "▁jenn": 7634,
      "▁spir": 7635,
      "▁forwarding": 7636,
      "▁coloni": 7637,
      "ancers": 7638,
      "▁register": 7639,
      "▁phenomen": 7640,
      "▁signing": 7641,
      "▁screaming": 7642,
      "agement": 7643,
      "ctions": 7644,
      "▁research": 7645,
      "cony": 7646,
      "▁orphan": 7647,
      "▁specialists": 7648,
      "▁bbq": 7649,
      "▁refuge": 7650,
      "▁up": 7651,
      "▁attrib": 7652,
      "▁twelve": 7653,
      "▁sum": 7654,
      "▁lun": 7655,
      "ima": 7656,
      "eav": 7657,
      "▁aqu": 7658,
      "▁submarines": 7659,
      "▁intern": 7660,
      "ign": 7661,
      "▁geometry": 7662,
      "▁sights": 7663,
      "▁lymph": 7664,
      "enron": 7665,
      "▁critics": 7666,
      "▁desk": 7667,
      "▁38": 7668,
      "▁renewed": 7669,
      "▁spayed": 7670,
      "▁phil": 7671,
      "▁bund": 7672,
      "▁definition": 7673,
      "bug": 7674,
      "▁glancing": 7675,
      "▁repeating": 7676,
      "fe": 7677,
      "▁mountains": 7678,
      "▁destruc": 7679,
      "▁licenses": 7680,
      "▁doctors": 7681,
      "▁sixties": 7682,
      "▁layover": 7683,
      "▁grumb": 7684,
      "▁worms": 7685,
      "▁burger": 7686,
      "[MASK]": 7687,
      "▁char": 7688,
      "bing": 7689,
      "▁crit": 7690,
      "orated": 7691,
      "▁citizens": 7692,
      "inding": 7693,
      "pics": 7694,
      "▁importance": 7695,
      "forcement": 7696,
      "▁deer": 7697,
      "▁flats": 7698,
      "▁undertaken": 7699,
      "ways": 7700,
      "▁gas": 7701,
      "▁vs": 7702,
      "cover": 7703,
      "▁erected": 7704,
      "▁publish": 7705,
      "▁being": 7706,
      "▁thurs": 7707,
      "▁ridic": 7708,
      "▁name": 7709,
      "▁experienced": 7710,
      "▁sticks": 7711,
      "▁led": 7712,
      "▁science": 7713,
      "▁raisin": 7714,
      "etro": 7715,
      "▁actor": 7716,
      "▁procrastination": 7717,
      "▁finals": 7718,
      "▁deregulation": 7719,
      "itive": 7720,
      "▁recovering": 7721,
      "▁sal": 7722,
      "▁chine": 7723,
      "▁length": 7724,
      "▁day": 7725,
      "▁teles": 7726,
      "▁neuro": 7727,
      "▁napkins": 7728,
      "▁expects": 7729,
      "▁manuf": 7730,
      "▁bunch": 7731,
      "▁boiler": 7732,
      "▁planet": 7733,
      "▁treas": 7734,
      "▁arises": 7735,
      "ocate": 7736,
      "▁cherished": 7737,
      "ri": 7738,
      "▁lack": 7739,
      "asi": 7740,
      "▁yelling": 7741,
      "▁shuttle": 7742,
      "▁ignoring": 7743,
      "▁per": 7744,
      "▁deficiency": 7745,
      "▁tre": 7746,
      "▁vehicle": 7747,
      "▁fertili": 7748,
      "▁routine": 7749,
      "▁…": 7750,
      "▁disciplines": 7751,
      "▁aver": 7752,
      "chest": 7753,
      "▁reconstr": 7754,
      "▁motorc": 7755,
      "▁rows": 7756,
      "▁doctor": 7757,
      "rush": 7758,
      "▁vet": 7759,
      ".net": 7760,
      "olis": 7761,
      "▁motivated": 7762,
      "inct": 7763,
      "▁domain": 7764,
      "▁category": 7765,
      "▁member": 7766,
      "▁radi": 7767,
      "▁smeared": 7768,
      "cery": 7769,
      "▁forecast": 7770,
      "▁topics": 7771,
      "mber": 7772,
      "▁dope": 7773,
      "ition": 7774,
      "▁che": 7775,
      "▁smal": 7776,
      "mit": 7777,
      "▁schedul": 7778,
      "tician": 7779,
      "▁fortunes": 7780,
      "▁morality": 7781,
      "▁censor": 7782,
      "▁soph": 7783,
      "outu": 7784,
      "▁defence": 7785,
      "▁favoured": 7786,
      "velop": 7787,
      "▁retail": 7788,
      "▁s/he": 7789,
      "▁spinning": 7790,
      "▁danced": 7791,
      "▁nook": 7792,
      "▁augmentation": 7793,
      "▁origin": 7794,
      "▁manti": 7795,
      "▁femora": 7796,
      "▁cincinnati": 7797,
      "▁frow": 7798,
      "▁lar": 7799,
      "▁discrimination": 7800,
      "oom": 7801,
      "▁experiencing": 7802,
      "▁haste": 7803,
      "▁delive": 7804,
      "unction": 7805,
      "rier": 7806,
      "acked": 7807,
      "▁ourselves": 7808,
      "▁fox": 7809,
      "”s": 7810,
      "onishment": 7811,
      "ence": 7812,
      "▁tot": 7813,
      "▁rhy": 7814,
      "▁induced": 7815,
      "nis": 7816,
      "▁awa": 7817,
      "▁hamm": 7818,
      "ert": 7819,
      "▁babies": 7820,
      "airs": 7821,
      "▁participate": 7822,
      "inary": 7823,
      "▁recall": 7824,
      "▁grandmother": 7825,
      "▁kittens": 7826,
      "▁experiment": 7827,
      "▁neighboring": 7828,
      "▁french": 7829,
      "▁flicker": 7830,
      "▁mom": 7831,
      "▁ho": 7832,
      "▁economy": 7833,
      "▁leap": 7834,
      "▁basis": 7835,
      "▁salsa": 7836,
      "a": 7837,
      "▁beatles": 7838,
      "▁authors": 7839,
      "pants": 7840,
      "gible": 7841,
      "▁welcome": 7842,
      "▁cont": 7843,
      "▁shrim": 7844,
      "▁bees": 7845,
      "▁fing": 7846,
      "▁deposited": 7847,
      "▁kang": 7848,
      "▁installed": 7849,
      "▁candles": 7850,
      "▁massage": 7851,
      "ensive": 7852,
      "▁kid": 7853,
      "▁grace": 7854,
      "▁funnel": 7855,
      "▁subst": 7856,
      "▁cider": 7857,
      "▁squirter": 7858,
      "▁survey": 7859,
      "▁clown": 7860,
      "▁valuing": 7861,
      "▁stepping": 7862,
      "▁[": 7863,
      "▁marble": 7864,
      "[UNK]": 7865,
      "▁moun": 7866,
      "▁achieve": 7867,
      "▁yester": 7868,
      "ake": 7869,
      "▁hungry": 7870,
      "▁laser": 7871,
      "uten": 7872,
      "irus": 7873,
      "▁able": 7874,
      "▁guests": 7875,
      "▁comprom": 7876,
      "▁assisting": 7877,
      "▁stays": 7878,
      "▁partners": 7879,
      "backs": 7880,
      "mp": 7881,
      "▁timed": 7882,
      "▁responds": 7883,
      "ado": 7884,
      "▁hards": 7885,
      "eness": 7886,
      "▁boost": 7887,
      "▁timer": 7888,
      "ork": 7889,
      "▁harmon": 7890,
      "wear": 7891,
      "v.": 7892,
      "▁drill": 7893,
      "▁w/": 7894,
      "▁might": 7895,
      "▁/": 7896,
      "▁singing": 7897,
      "▁scr": 7898,
      "▁speculation": 7899,
      "▁cottage": 7900,
      "▁philosopher": 7901,
      "iciency": 7902,
      "▁indicate": 7903,
      "inkle": 7904,
      "▁wors": 7905,
      "▁coll": 7906,
      "ivity": 7907,
      "▁reproduction": 7908,
      "ops": 7909,
      "▁improved": 7910,
      "▁ascending": 7911,
      "▁sniffed": 7912,
      "▁authorities": 7913,
      "▁saw": 7914,
      "▁straw": 7915,
      "▁examining": 7916,
      "▁consulted": 7917,
      "verage": 7918,
      "▁israel": 7919,
      "▁......": 7920,
      "▁refusing": 7921,
      "▁e-": 7922,
      "▁liqu": 7923,
      "the": 7924,
      "chup": 7925,
      "▁grandfather": 7926,
      "inded": 7927,
      "▁concrete": 7928,
      "▁rul": 7929,
      "▁pleased": 7930,
      "▁elections": 7931,
      "▁charles": 7932,
      "▁ic": 7933,
      "ightening": 7934,
      "▁bur": 7935,
      "pan": 7936,
      "▁bosom": 7937,
      "gon": 7938,
      "▁lemon": 7939,
      "sh": 7940,
      "▁clarity": 7941,
      "▁guit": 7942,
      "▁ambulances": 7943,
      "▁gift": 7944,
      "lie": 7945,
      "▁luxury": 7946,
      "▁'re": 7947,
      "▁sounding": 7948,
      "wic": 7949,
      "▁substit": 7950,
      "acks": 7951,
      "door": 7952,
      "ary": 7953,
      "▁completely": 7954,
      "▁louds": 7955,
      "▁manage": 7956,
      "▁met": 7957,
      "▁[...": 7958,
      "▁soc": 7959,
      "▁wite": 7960,
      "vant": 7961,
      "▁carp": 7962,
      "▁norton": 7963,
      "▁disappointed": 7964,
      "▁disclose": 7965,
      "▁mayonnaise": 7966,
      "▁collaborate": 7967,
      "▁transfer": 7968,
      "▁ail": 7969,
      "rella": 7970,
      "▁harmony": 7971,
      "asa": 7972,
      "▁square": 7973,
      "▁movement": 7974,
      "▁journalist": 7975,
      "▁transferred": 7976,
      "▁top": 7977,
      "istem": 7978,
      "▁exe": 7979,
      "dbit": 7980,
      "▁cocktail": 7981,
      "issing": 7982,
      "▁bothered": 7983,
      "-p": 7984,
      "ady": 7985,
      "▁pra": 7986,
      "▁enable": 7987,
      "▁secession": 7988,
      "▁isd": 7989,
      "dges": 7990,
      "▁victory": 7991,
      "nels": 7992,
      "▁direct": 7993,
      "lut": 7994,
      "ations": 7995,
      "version": 7996,
      "rup": 7997,
      "▁possible": 7998,
      "oks": 7999,
      "▁zeitge": 8000,
      "eak": 8001,
      "epad": 8002,
      "▁'em": 8003,
      "▁“": 8004,
      "inks": 8005,
      "lds": 8006,
      "▁al": 8007,
      "ometer": 8008,
      "▁cam": 8009,
      "▁construct": 8010,
      "▁repeat": 8011,
      "▁trusted": 8012,
      "▁gdp": 8013,
      "orities": 8014,
      "▁assure": 8015,
      "▁allow": 8016,
      "▁ment": 8017,
      "▁rains": 8018,
      "▁berry": 8019,
      "phia": 8020,
      "▁turmoil": 8021,
      "▁nipple": 8022,
      "fares": 8023,
      "▁sanctuary": 8024,
      "pping": 8025,
      "▁affected": 8026,
      "▁founders": 8027,
      "▁counterfe": 8028,
      "▁hippop": 8029,
      "▁fence": 8030,
      "$t": 8031,
      "▁fly": 8032,
      "▁1999": 8033,
      "▁licensor": 8034,
      "ouncing": 8035,
      "▁nuclear": 8036,
      "▁seats": 8037,
      "▁jokes": 8038,
      "ssibly": 8039,
      "▁aggre": 8040,
      "ports": 8041,
      "▁according": 8042,
      "▁games": 8043,
      "œ": 8044,
      "epend": 8045,
      "▁hero": 8046,
      "▁named": 8047,
      "gry": 8048,
      "oodle": 8049,
      "▁motorcycle": 8050,
      "▁sunglasses": 8051,
      "▁pinky": 8052,
      "▁what": 8053,
      "▁stories": 8054,
      "▁electr": 8055,
      "<": 8056,
      "▁sounds": 8057,
      "ical": 8058,
      "▁swede": 8059,
      "▁mechanics": 8060,
      "▁disability": 8061,
      "ery": 8062,
      "▁ret": 8063,
      "▁images": 8064,
      "▁updated": 8065,
      "▁jumped": 8066,
      "▁ceiling": 8067,
      "▁source": 8068,
      "▁suited": 8069,
      "▁toys": 8070,
      "▁recovery": 8071,
      "▁crab": 8072,
      "ala": 8073,
      "▁photograp": 8074,
      "▁paying": 8075,
      "▁shakes": 8076,
      "▁developed": 8077,
      "▁crosses": 8078,
      "▁seeing": 8079,
      "bscrib": 8080,
      "▁conclude": 8081,
      "▁broadc": 8082,
      "▁reaffirm": 8083,
      "▁9th": 8084,
      "▁emiss": 8085,
      "▁belie": 8086,
      "▁adopt": 8087,
      "▁retained": 8088,
      "▁prices": 8089,
      "▁no": 8090,
      "▁retire": 8091,
      "uality": 8092,
      "▁landings": 8093,
      "▁wife": 8094,
      "▁resize": 8095,
      "▁talked": 8096,
      "itic": 8097,
      "▁streets": 8098,
      "▁dropping": 8099,
      "libility": 8100,
      "▁terrain": 8101,
      "▁apply": 8102,
      "ob": 8103,
      "▁excepted": 8104,
      "▁preparing": 8105,
      "▁earth": 8106,
      "▁answers": 8107,
      "▁tattoo": 8108,
      "▁swung": 8109,
      "▁bitsy": 8110,
      "▁transmit": 8111,
      "▁thrive": 8112,
      "▁obtain": 8113,
      "▁twentieth": 8114,
      "edge": 8115,
      "▁amendments": 8116,
      "▁hoops": 8117,
      "burg": 8118,
      "▁31": 8119,
      "▁awaited": 8120,
      "erted": 8121,
      "▁strol": 8122,
      "3rd": 8123,
      "vity": 8124,
      "▁shudder": 8125,
      "▁emails": 8126,
      "▁raging": 8127,
      "iety": 8128,
      "▁naima": 8129,
      "▁gigg": 8130,
      "advant": 8131,
      "▁cloud": 8132,
      "▁fluff": 8133,
      "pa": 8134,
      "▁interf": 8135,
      "our": 8136,
      "rophe": 8137,
      "▁c": 8138,
      "▁l'": 8139,
      "▁moose": 8140,
      "▁defined": 8141,
      "▁pec": 8142,
      "▁toss": 8143,
      "▁selected": 8144,
      "fuge": 8145,
      "lish": 8146,
      "ufact": 8147,
      "▁cruises": 8148,
      "▁catalog": 8149,
      "▁tab": 8150,
      "▁watering": 8151,
      "tually": 8152,
      "▁cur": 8153,
      "am": 8154,
      "▁rose": 8155,
      "astic": 8156,
      "▁conform": 8157,
      "▁furniture": 8158,
      "▁bad": 8159,
      "▁nickel": 8160,
      "▁proof": 8161,
      "▁impression": 8162,
      "▁proponents": 8163,
      "▁bakes": 8164,
      "▁logo": 8165,
      "▁embed": 8166,
      "▁complete": 8167,
      "▁reminded": 8168,
      "▁struggling": 8169,
      "▁amongst": 8170,
      "singly": 8171,
      "int": 8172,
      "▁percentage": 8173,
      "▁sacrif": 8174,
      "istribution": 8175,
      "▁waterways": 8176,
      "icul": 8177,
      "▁physi": 8178,
      "ane": 8179,
      "▁tattoos": 8180,
      "mometer": 8181,
      "▁bookst": 8182,
      "ʃ": 8183,
      "keep": 8184,
      "ww": 8185,
      "▁cuts": 8186,
      "▁thousand": 8187,
      "anistan": 8188,
      "▁polic": 8189,
      "▁lanterns": 8190,
      "▁honor": 8191,
      "▁seemed": 8192,
      "▁darn": 8193,
      "▁verse": 8194,
      "▁widely": 8195,
      "▁styrof": 8196,
      "▁viewpoints": 8197,
      "▁guardian": 8198,
      "‘": 8199,
      "▁pricing": 8200,
      "righted": 8201,
      "19": 8202,
      "/2": 8203,
      "▁revenue": 8204,
      "▁eee": 8205,
      "▁herbs": 8206,
      "▁disparities": 8207,
      "▁conforms": 8208,
      "stall": 8209,
      "eb": 8210,
      "eem": 8211,
      "urch": 8212,
      "uries": 8213,
      "▁executive": 8214,
      "tiles": 8215,
      "▁op": 8216,
      "▁arrog": 8217,
      "-off": 8218,
      "▁vlog": 8219,
      "▁dissolved": 8220,
      "▁something": 8221,
      "▁referendum": 8222,
      "▁redistribution": 8223,
      "▁his": 8224,
      "▁llm": 8225,
      "▁hot": 8226,
      "▁deprived": 8227,
      "▁nod": 8228,
      "▁representations": 8229,
      "▁actually": 8230,
      "▁chinese": 8231,
      "▁cool": 8232,
      "ground": 8233,
      "utin": 8234,
      "idn": 8235,
      "▁blow": 8236,
      "▁occas": 8237,
      "▁lined": 8238,
      "▁personality": 8239,
      "▁reproduc": 8240,
      "▁opportun": 8241,
      "▁veins": 8242,
      "ney": 8243,
      "men": 8244,
      "▁coincides": 8245,
      "▁initially": 8246,
      "vol": 8247,
      "▁keeps": 8248,
      "▁cows": 8249,
      "▁feels": 8250,
      "▁degrees": 8251,
      "rew": 8252,
      "▁opponent": 8253,
      "aving": 8254,
      "▁ninet": 8255,
      "lant": 8256,
      "▁approved": 8257,
      "▁negoti": 8258,
      "▁tunnel": 8259,
      "▁humor": 8260,
      "▁troubled": 8261,
      "▁nothing": 8262,
      "▁donor": 8263,
      "▁chalk": 8264,
      "▁flop": 8265,
      "yone": 8266,
      "▁leading": 8267,
      "▁greeted": 8268,
      "▁far": 8269,
      "▁commemorated": 8270,
      "▁vanished": 8271,
      "▁soy": 8272,
      "▁circular": 8273,
      "▁scuba": 8274,
      "▁calls": 8275,
      "tick": 8276,
      "ank": 8277,
      "▁tofu": 8278,
      "▁chrome": 8279,
      "(s)": 8280,
      "isting": 8281,
      "▁thoughts": 8282,
      "▁projecting": 8283,
      "▁40": 8284,
      "tery": 8285,
      "▁gathered": 8286,
      "▁pace": 8287,
      "▁preserve": 8288,
      "▁silkies": 8289,
      "▁directive": 8290,
      "fi": 8291,
      "▁ministers": 8292,
      "arking": 8293,
      "▁melted": 8294,
      "▁helicopters": 8295,
      "▁avoided": 8296,
      "▁ingred": 8297,
      "fect": 8298,
      "▁pie": 8299,
      "▁mass": 8300,
      "vet": 8301,
      "▁resu": 8302,
      "▁heads": 8303,
      "▁appearing": 8304,
      "0's": 8305,
      "enment": 8306,
      "▁seminars": 8307,
      "▁traveled": 8308,
      "eed": 8309,
      "arks": 8310,
      "ting": 8311,
      "▁integr": 8312,
      "▁patter": 8313,
      "▁contractor": 8314,
      "▁sausages": 8315,
      "▁authority": 8316,
      "sitive": 8317,
      "aw": 8318,
      "▁concluded": 8319,
      "ly": 8320,
      "cking": 8321,
      "▁shack": 8322,
      "........": 8323,
      "▁helpful": 8324,
      "▁therapy": 8325,
      "isf": 8326,
      "▁decrease": 8327,
      "bed": 8328,
      "acles": 8329,
      "▁retraction": 8330,
      "▁denying": 8331,
      "▁quaffle": 8332,
      "▁yeah": 8333,
      "▁therapist": 8334,
      "▁enough": 8335,
      "▁ital": 8336,
      "▁bible": 8337,
      "organ": 8338,
      "▁pang": 8339,
      "ement": 8340,
      "▁cler": 8341,
      "▁populations": 8342,
      "▁maw": 8343,
      "▁explo": 8344,
      "▁help": 8345,
      "lf": 8346,
      "▁brushing": 8347,
      "aches": 8348,
      "ractors": 8349,
      "▁describe": 8350,
      "▁wandered": 8351,
      "▁would": 8352,
      "▁hop": 8353,
      "atos": 8354,
      "▁helps": 8355,
      "▁federal": 8356,
      "▁wow": 8357,
      "▁opin": 8358,
      "▁islamists": 8359,
      "▁surplus": 8360,
      "▁global": 8361,
      "▁worried": 8362,
      "▁arrested": 8363,
      "up": 8364,
      "erent": 8365,
      "ility": 8366,
      "oala": 8367,
      "▁almond": 8368,
      "æ": 8369,
      "boy": 8370,
      "▁declaring": 8371,
      "aria": 8372,
      "▁dus": 8373,
      "▁business": 8374,
      "'": 8375,
      "letter": 8376,
      "▁prod": 8377,
      "▁rep": 8378,
      "▁hashtag": 8379,
      "▁stored": 8380,
      "▁hauling": 8381,
      "ided": 8382,
      "▁driving": 8383,
      "▁dar": 8384,
      "▁28": 8385,
      "▁plan": 8386,
      "bat": 8387,
      "hiki": 8388,
      "▁live": 8389,
      "and": 8390,
      "▁powers": 8391,
      "▁quotes": 8392,
      "▁absolut": 8393,
      "▁august": 8394,
      "▁content": 8395,
      "▁aside": 8396,
      "▁became": 8397,
      "▁hung": 8398,
      "tainty": 8399,
      "▁flag": 8400,
      "▁perf": 8401,
      "osh": 8402,
      "ither": 8403,
      "▁thro": 8404,
      "▁dear": 8405,
      "▁succumb": 8406,
      "▁mpg": 8407,
      "▁2014": 8408,
      "▁reflected": 8409,
      "▁30th": 8410,
      "▁scott": 8411,
      "ass": 8412,
      "craft": 8413,
      "▁ron": 8414,
      "▁diss": 8415,
      "▁sens": 8416,
      "▁_____": 8417,
      "▁liability": 8418,
      "▁adver": 8419,
      "▁architect": 8420,
      "▁fitness": 8421,
      "▁attractions": 8422,
      "▁activ": 8423,
      "estab": 8424,
      "▁learned": 8425,
      "path": 8426,
      "▁revol": 8427,
      "▁humped": 8428,
      "▁allig": 8429,
      "▁recorded": 8430,
      "▁finger": 8431,
      "▁coconut": 8432,
      "▁reminds": 8433,
      "▁swinging": 8434,
      "+bee": 8435,
      "▁switched": 8436,
      "▁exem": 8437,
      "▁saus": 8438,
      "erina": 8439,
      "▁apar": 8440,
      "▁so": 8441,
      "▁vince": 8442,
      "▁rhino": 8443,
      "clo": 8444,
      "▁realization": 8445,
      "water": 8446,
      "▁creative": 8447,
      "▁ale": 8448,
      "▁march": 8449,
      "▁concre": 8450,
      "▁measures": 8451,
      "▁abstr": 8452,
      "biting": 8453,
      "▁romances": 8454,
      "▁greatly": 8455,
      "▁explained": 8456,
      "▁alar": 8457,
      "▁organized": 8458,
      "▁databases": 8459,
      "-e": 8460,
      "agged": 8461,
      "▁guilty": 8462,
      "ized": 8463,
      "▁viol": 8464,
      "ig": 8465,
      "▁vis": 8466,
      "▁rejects": 8467,
      "▁fair": 8468,
      "▁erec": 8469,
      "▁!.": 8470,
      "▁favour": 8471,
      "loqu": 8472,
      "▁cooperation": 8473,
      "derstanding": 8474,
      "cup": 8475,
      "▁hoax": 8476,
      "rest": 8477,
      "utions": 8478,
      "▁bookstore": 8479,
      "▁gotted": 8480,
      "▁doom": 8481,
      "▁knights": 8482,
      "▁wheelchair": 8483,
      "▁yawning": 8484,
      "ario": 8485,
      "▁season": 8486,
      "ali": 8487,
      "▁astr": 8488,
      "▁estab": 8489,
      "▁former": 8490,
      "rops": 8491,
      "▁ak": 8492,
      "itage": 8493,
      "▁openness": 8494,
      "▁wild": 8495,
      "▁influ": 8496,
      "▁tire": 8497,
      "▁pole": 8498,
      "▁qualifications": 8499,
      "▁accepting": 8500,
      "▁disgorgement": 8501,
      "▁intervening": 8502,
      "▁citation": 8503,
      "▁hasidim": 8504,
      "tiqu": 8505,
      "ant": 8506,
      "▁active": 8507,
      "ighter": 8508,
      "▁invites": 8509,
      "▁explor": 8510,
      "▁versus": 8511,
      "▁outcom": 8512,
      "▁attrition": 8513,
      "▁commentaries": 8514,
      "▁columns": 8515,
      "▁thri": 8516,
      "▁towed": 8517,
      "inched": 8518,
      "▁solem": 8519,
      "rent": 8520,
      "▁freedoms": 8521,
      "ep": 8522,
      "etes": 8523,
      "entic": 8524,
      "ize": 8525,
      "rosp": 8526,
      "▁iraq": 8527,
      "gen": 8528,
      "▁mike": 8529,
      "agre": 8530,
      "▁.......": 8531,
      "▁elbow": 8532,
      "▁applications": 8533,
      "▁targeting": 8534,
      "▁headache": 8535,
      "▁uneasiness": 8536,
      "▁calculating": 8537,
      "▁hal": 8538,
      "▁cafeteria": 8539,
      "▁;": 8540,
      "ascience": 8541,
      "▁soci": 8542,
      "ed": 8543,
      "▁are": 8544,
      "▁anc": 8545,
      "▁absence": 8546,
      "▁fortune": 8547,
      "▁t3i": 8548,
      "▁scanning": 8549,
      "ffic": 8550,
      "▁jus": 8551,
      "eline": 8552,
      "▁burs": 8553,
      "kating": 8554,
      "▁ciac": 8555,
      "▁agre": 8556,
      "ca": 8557,
      "alization": 8558,
      "▁if": 8559,
      "▁cds": 8560,
      "▁educated": 8561,
      "▁cannon": 8562,
      "▁kent": 8563,
      "▁oc": 8564,
      "▁kingdom": 8565,
      "▁disagree": 8566,
      "▁hello": 8567,
      "▁sched": 8568,
      "▁expire": 8569,
      "▁evaluate": 8570,
      "arding": 8571,
      "▁tomato": 8572,
      "▁majority": 8573,
      "▁realize": 8574,
      "▁leot": 8575,
      "▁amm": 8576,
      "(s": 8577,
      "▁stirrups": 8578,
      "▁infinity": 8579,
      "▁seeking": 8580,
      "stal": 8581,
      "▁conve": 8582,
      "olds": 8583,
      "asted": 8584,
      "▁clash": 8585,
      "▁vegetable": 8586,
      "▁repaired": 8587,
      "▁straightened": 8588,
      "neath": 8589,
      "▁cabins": 8590,
      "▁enculturation": 8591,
      "▁morphology": 8592,
      "▁posture": 8593,
      "ocentrism": 8594,
      "▁promise": 8595,
      "▁successfully": 8596,
      "▁ranch": 8597,
      "▁general": 8598,
      "▁heaven": 8599,
      ".l": 8600,
      "r": 8601,
      "ear": 8602,
      "▁accountant": 8603,
      "▁cauldron": 8604,
      "▁inscriptions": 8605,
      "▁entrance": 8606,
      "▁leaf": 8607,
      "▁accomm": 8608,
      "cers": 8609,
      "rowave": 8610,
      "▁items": 8611,
      "▁qua": 8612,
      "▁transl": 8613,
      "▁wang": 8614,
      "▁x33": 8615,
      "ratic": 8616,
      "▁ranked": 8617,
      "▁airports": 8618,
      "▁serving": 8619,
      "▁appointment": 8620,
      "▁planted": 8621,
      "▁role": 8622,
      "ces": 8623,
      "ses": 8624,
      "▁damn": 8625,
      "fications": 8626,
      "▁broad": 8627,
      "▁assassinated": 8628,
      "▁sensation": 8629,
      "pts": 8630,
      "▁shakespeare": 8631,
      "▁tele": 8632,
      "erved": 8633,
      "▁lope": 8634,
      "▁kitty": 8635,
      "▁until": 8636,
      "▁ground": 8637,
      "▁wangs": 8638,
      "tt": 8639,
      "▁inv": 8640,
      "▁pyr": 8641,
      "are": 8642,
      "▁deadline": 8643,
      "▁manufactured": 8644,
      "▁sifted": 8645,
      ".htm": 8646,
      "▁romance": 8647,
      "▁amount": 8648,
      "▁tourism": 8649,
      "▁distance": 8650,
      "▁possibly": 8651,
      "utionary": 8652,
      "fact": 8653,
      "▁seas": 8654,
      "▁stamp": 8655,
      "▁gaps": 8656,
      "▁chaps": 8657,
      "▁domest": 8658,
      "ysical": 8659,
      "▁consequences": 8660,
      "rinted": 8661,
      "▁fx": 8662,
      "▁dal": 8663,
      "erm": 8664,
      "▁collection": 8665,
      "▁roughness": 8666,
      "▁mine": 8667,
      "▁critters": 8668,
      "▁rout": 8669,
      "▁convicted": 8670,
      "00": 8671,
      "▁programming": 8672,
      "kin": 8673,
      "berries": 8674,
      "▁sugges": 8675,
      "acing": 8676,
      "▁indi": 8677,
      "▁egy": 8678,
      "▁centre": 8679,
      "anza": 8680,
      "▁withdraw": 8681,
      "▁torn": 8682,
      "▁di": 8683,
      "▁stated": 8684,
      "▁chas": 8685,
      "▁midd": 8686,
      "case": 8687,
      "▁reindeer": 8688,
      "er": 8689,
      "onut": 8690,
      "ooding": 8691,
      "ives": 8692,
      "for": 8693,
      "▁browse": 8694,
      "▁range": 8695,
      "▁involves": 8696,
      "ated": 8697,
      "-of": 8698,
      "▁imprisoned": 8699,
      "▁tents": 8700,
      "▁unique": 8701,
      "▁stakes": 8702,
      "▁outside": 8703,
      "▁interview": 8704,
      "enance": 8705,
      "▁demanded": 8706,
      "▁terrorists": 8707,
      "▁earthquakes": 8708,
      "ope": 8709,
      "ip": 8710,
      "▁govern": 8711,
      "▁worm": 8712,
      "▁appell": 8713,
      "▁confirms": 8714,
      "▁buttons": 8715,
      "▁br": 8716,
      "▁their": 8717,
      "▁salad": 8718,
      "▁connections": 8719,
      "▁cages": 8720,
      "▁meter": 8721,
      "▁post": 8722,
      "tles": 8723,
      "▁ench": 8724,
      "▁dishes": 8725,
      "▁secretaries": 8726,
      "▁people": 8727,
      "ul": 8728,
      "▁3": 8729,
      "▁revival": 8730,
      "▁space": 8731,
      "ild": 8732,
      "iates": 8733,
      "▁ii": 8734,
      "rous": 8735,
      "▁crow": 8736,
      "▁spr": 8737,
      "avi": 8738,
      "▁miles": 8739,
      "▁islam": 8740,
      "v": 8741,
      "▁vietnam": 8742,
      "▁layers": 8743,
      "!?": 8744,
      "▁obligation": 8745,
      "▁pu": 8746,
      "uma": 8747,
      "▁delays": 8748,
      "▁protesting": 8749,
      "▁bowf": 8750,
      "▁neighbours": 8751,
      "39": 8752,
      "▁techniqu": 8753,
      "▁anything": 8754,
      "ashed": 8755,
      "troduc": 8756,
      "▁clicked": 8757,
      "▁declaration": 8758,
      "▁:?": 8759,
      "ast": 8760,
      "▁underlying": 8761,
      ".st": 8762,
      "▁epis": 8763,
      "▁counties": 8764,
      "▁nibb": 8765,
[...]
