{
  "version": "1.0",
  "truncation": null,
  "padding": null,
  "added_tokens": [
    {
      "id": 2603,
      "content": "[SEP]",
      "single_word": false,
      "lstrip": false,
      "rstrip": false,
      "normalized": false,
      "special": true
    },
    {
      "id": 4293,
      "content": "[MASK]",
      "single_word": false,
      "lstrip": false,
      "rstrip": false,
      "normalized": false,
      "special": true
    },
    {
      "id": 6379,
      "content": "[UNK]",
      "single_word": false,
      "lstrip": false,
      "rstrip": false,
      "normalized": false,
      "special": true
    },
    {
      "id": 8857,
      "content": "[PAD]",
      "single_word": false,
      "lstrip": false,
      "rstrip": false,
      "normalized": false,
      "special": true
    },
    {
      "id": 10302,
      "content": "[CLS]",
      "single_word": false,
      "lstrip": false,
      "rstrip": false,
      "normalized": false,
      "special": true
    }
  ],
  "normalizer": {
    "type": "Sequence",
    "normalizers": [
      {
        "type": "NFD"
      },
      {
        "type": "Lowercase"
      },
      {
        "type": "StripAccents"
      }
    ]
  },
  "pre_tokenizer": {
    "type": "Sequence",
    "pretokenizers": [
      {
        "type": "Metaspace",
        "replacement": "▁",
        "prepend_scheme": "always",
        "split": true
      }
    ]
  },
  "post_processor": {
    "type": "TemplateProcessing",
    "single": [
      {
        "SpecialToken": {
          "id": "[CLS]",
          "type_id": 0
        }
      },
      {
        "Sequence": {
          "id": "A",
          "type_id": 0
        }
      },
      {
        "SpecialToken": {
          "id": "[SEP]",
          "type_id": 0
        }
      }
    ],
    "pair": [
      {
        "SpecialToken": {
          "id": "[CLS]",
          "type_id": 0
        }
      },
      {
        "Sequence": {
          "id": "A",
          "type_id": 0
        }
      },
      {
        "SpecialToken": {
          "id": "[SEP]",
          "type_id": 0
        }
      },
      {
        "Sequence": {
          "id": "B",
          "type_id": 1
        }
      },
      {
        "SpecialToken": {
          "id": "[SEP]",
          "type_id": 1
        }
      }
    ],
    "special_tokens": {
      "[CLS]": {
        "id": "[CLS]",
        "ids": [
          10302
        ],
        "tokens": [
          "[CLS]"
        ]
      },
      "[SEP]": {
        "id": "[SEP]",
        "ids": [
          2603
        ],
        "tokens": [
          "[SEP]"
        ]
      }
    }
  },
  "decoder": {
    "type": "Metaspace",
    "replacement": "▁",
    "prepend_scheme": "always",
    "split": true
  },
  "model": {
    "type": "BPE",
    "dropout": null,
    "unk_token": "[UNK]",
    "continuing_subword_prefix": null,
    "end_of_word_suffix": null,
    "fuse_unk": false,
    "byte_fallback": false,
    "ignore_merges": false,
    "vocab": {
      "▁hills": 0,
      "▁prefer": 1,
      "▁benef": 2,
      "▁dish": 3,
      "liability": 4,
      "▁moved": 5,
      "▁cabins": 6,
      "▁blessings": 7,
      "▁grapes": 8,
      "▁particles": 9,
      "▁filing": 10,
      "iance": 11,
      "▁folding": 12,
      "▁agreement": 13,
      "ding": 14,
      "▁consorti": 15,
      "son": 16,
      "▁winds": 17,
      "jwww": 18,
      "▁abilities": 19,
      "▁spears": 20,
      "iri": 21,
      ".0": 22,
      "▁california": 23,
      "▁twin": 24,
      "▁chanting": 25,
      "lim": 26,
      "▁introduce": 27,
      "▁violation": 28,
      "▁pancake": 29,
      "▁hav": 30,
      "ainability": 31,
      "▁ske": 32,
      "▁hamas": 33,
      "▁functionality": 34,
      "▁bait": 35,
      "oes": 36,
      "▁quiddit": 37,
      "▁telling": 38,
      "▁dinos": 39,
      "▁afford": 40,
      "▁grounded": 41,
      "▁stol": 42,
      "▁advancement": 43,
      "▁bec": 44,
      "▁knoc": 45,
      "▁printed": 46,
      "▁p.m.": 47,
      "▁sanctuary": 48,
      "▁exagg": 49,
      "▁camp": 50,
      "▁graduates": 51,
      "▁gods": 52,
      "▁conferen": 53,
      "46": 54,
      "▁ext": 55,
      "ggies": 56,
      "▁roman": 57,
      "▁sometime": 58,
      "▁modes": 59,
      "▁horsie": 60,
      "▁portrait": 61,
      "▁kinematics": 62,
      "▁wildlife": 63,
      "▁spl": 64,
      "▁accommodation": 65,
      "▁suppl": 66,
      "▁everybody": 67,
      "run": 68,
      "▁abandoned": 69,
      "is": 70,
      "▁backup": 71,
      "▁alarm": 72,
      "▁producer": 73,
      "ks": 74,
      "▁repairs": 75,
      "▁sustain": 76,
      "inary": 77,
      "▁chinese": 78,
      "▁penc": 79,
      "▁gunfire": 80,
      "▁accel": 81,
      "g": 82,
      "▁tattoo": 83,
      "▁whereabouts": 84,
      "▁aim": 85,
      "alth": 86,
      "▁millennium": 87,
      "▁converted": 88,
      "moon": 89,
      "▁headquarters": 90,
      "aganda": 91,
      "▁lumin": 92,
      "ment": 93,
      "▁relig": 94,
      "▁structures": 95,
      "▁author": 96,
      "▁immensity": 97,
      "▁downloaded": 98,
      "oe": 99,
      "▁raised": 100,
      "▁plur": 101,
      "wi": 102,
      "▁doctorate": 103,
      "▁acted": 104,
      "▁happens": 105,
      "▁plaster": 106,
      "▁neigh": 107,
      "▁manners": 108,
      "▁elephant": 109,
      "▁francisco": 110,
      "▁frogg": 111,
      "oam": 112,
      "▁cultural": 113,
      "▁alterations": 114,
      "▁walk": 115,
      "▁report": 116,
      "▁highlights": 117,
      "▁complained": 118,
      "▁fringes": 119,
      "▁precisely": 120,
      "▁dwell": 121,
      "▁saving": 122,
      "▁ted": 123,
      "▁cpa": 124,
      "▁unc": 125,
      "▁conges": 126,
      "▁compet": 127,
      "▁symptoms": 128,
      "▁succeeded": 129,
      "▁secret": 130,
      "▁apartment": 131,
      "▁shrunk": 132,
      "▁fash": 133,
      "ages": 134,
      "vers": 135,
      "▁types": 136,
      "▁seal": 137,
      "▁di": 138,
      "▁cau": 139,
      "▁smooth": 140,
      "▁filled": 141,
      "▁disappointment": 142,
      "▁manuf": 143,
      "▁cruise": 144,
      "▁trip": 145,
      "▁pun": 146,
      "▁entity": 147,
      "▁updates": 148,
      "▁financing": 149,
      "▁tokyo": 150,
      "▁bearing": 151,
      "▁sweats": 152,
      "aining": 153,
      "tingu": 154,
      "▁histor": 155,
      "▁amazed": 156,
      "▁paper": 157,
      "▁fungi": 158,
      "▁illness": 159,
      "aying": 160,
      "ooped": 161,
      "▁tru": 162,
      "mission": 163,
      "ught": 164,
      "▁fill": 165,
      "▁percentile": 166,
      "▁vietnam": 167,
      "▁carrier": 168,
      "▁socks": 169,
      "▁arrested": 170,
      "▁behaviour": 171,
      "▁bumped": 172,
      "bi": 173,
      "▁hones": 174,
      "▁nashville": 175,
      "▁substant": 176,
      "bish": 177,
      "▁directly": 178,
      "ifying": 179,
      "till": 180,
      "stances": 181,
      "▁populations": 182,
      "▁golf": 183,
      "▁lifting": 184,
      "▁summoned": 185,
      "▁search": 186,
      "▁occupying": 187,
      "▁workmanship": 188,
      "▁soap": 189,
      "▁lim": 190,
      "▁spite": 191,
      "▁chips": 192,
      "▁cauldron": 193,
      "▁repe": 194,
      "▁vot": 195,
      "om": 196,
      "▁mess": 197,
      "▁indicated": 198,
      "▁this": 199,
      "▁injury": 200,
      "▁lan": 201,
      "▁reop": 202,
      "xfer": 203,
      "▁anywhere": 204,
      "arked": 205,
      "▁explo": 206,
      "▁keyboard": 207,
      "▁sakes": 208,
      "▁elements": 209,
      "▁luna": 210,
      ".7": 211,
      "▁formed": 212,
      "▁leash": 213,
      "▁snail": 214,
      "tit": 215,
      "▁driver": 216,
      "▁update": 217,
      "atched": 218,
      "▁e": 219,
      "di": 220,
      "▁knots": 221,
      "▁adopted": 222,
      "▁attempting": 223,
      "▁notified": 224,
      "▁&amp;": 225,
      "lies": 226,
      "200": 227,
      "ver": 228,
      "file": 229,
      "▁discour": 230,
      "▁intercon": 231,
      "libility": 232,
      "▁buildings": 233,
      "▁americ": 234,
      "▁alley": 235,
      "▁sl": 236,
      "▁york": 237,
      "▁fly": 238,
      "▁fully": 239,
      "▁candle": 240,
      "▁transferred": 241,
      "▁retrieve": 242,
      "ok": 243,
      "▁hired": 244,
      "▁trading": 245,
      "erved": 246,
      "▁neighbours": 247,
      "▁fitting": 248,
      "▁coins": 249,
      "▁perceive": 250,
      "▁sle": 251,
      "herence": 252,
      "▁call": 253,
      "ological": 254,
      "▁plugged": 255,
      "▁tragedy": 256,
      "▁thwar": 257,
      "▁vast": 258,
      "ints": 259,
      "ago": 260,
      "▁apart": 261,
      "▁stup": 262,
      "▁united": 263,
      "▁tampa": 264,
      "▁cheeks": 265,
      "ene": 266,
      "▁head": 267,
      "ilize": 268,
      "▁disobedience": 269,
      "▁wom": 270,
      "mental": 271,
      "▁argues": 272,
      "log": 273,
      "▁writing": 274,
      "▁seed": 275,
      "hoods": 276,
      "ington": 277,
      "enex": 278,
      "▁beneath": 279,
      "▁treatment": 280,
      "▁redes": 281,
      "igating": 282,
      "▁incompetence": 283,
      "overing": 284,
      "▁scrub": 285,
      "▁mare": 286,
      "ometer": 287,
      "▁peoples": 288,
      "amet": 289,
      "▁therapist": 290,
      "inqu": 291,
      "▁thinked": 292,
      "▁pounce": 293,
      "▁deserve": 294,
      "▁cant": 295,
      "▁incident": 296,
      "ssible": 297,
      "▁limited": 298,
      "▁around": 299,
      "▁courtyard": 300,
      "▁novelty": 301,
      "fication": 302,
      "▁dro": 303,
      "▁expired": 304,
      "▁monaster": 305,
      "▁accord": 306,
      "▁peel": 307,
      "kness": 308,
      "bra": 309,
      "▁hm": 310,
      "erve": 311,
      "▁licensor": 312,
      "▁opposed": 313,
      "▁ensu": 314,
      "▁underp": 315,
      "bolism": 316,
      "hocks": 317,
      "▁habit": 318,
      "▁wishes": 319,
      "atic": 320,
      "upled": 321,
      "ither": 322,
      "gation": 323,
      "ounce": 324,
      "▁fas": 325,
      "▁flip": 326,
      "alism": 327,
      "uate": 328,
      "▁structured": 329,
      "▁listing": 330,
      "▁caf": 331,
      "▁resisted": 332,
      "▁den": 333,
      "ce": 334,
      "▁eighteen": 335,
      "▁altering": 336,
      "▁pud": 337,
      "ions": 338,
      "-a": 339,
      "▁discip": 340,
      "liament": 341,
      "▁premise": 342,
      "▁battles": 343,
      "▁outside": 344,
      "▁tumbled": 345,
      "▁added": 346,
      "vail": 347,
      "▁froggy": 348,
      "ws": 349,
      "▁kippers": 350,
      "▁regulations": 351,
      "▁experts": 352,
      "▁silkies": 353,
      "▁counterfe": 354,
      "▁digest": 355,
      "▁photograp": 356,
      "▁dram": 357,
      "▁started": 358,
      "▁then": 359,
      "▁employer": 360,
      "uistics": 361,
      "▁beard": 362,
      "▁notic": 363,
      "▁islands": 364,
      "▁drain": 365,
      "▁ep": 366,
      "▁bother": 367,
      "▁library": 368,
      "ulars": 369,
      "▁marry": 370,
      "▁magnitude": 371,
      "awatt": 372,
      "▁describing": 373,
      "cr": 374,
      "cling": 375,
      "▁infrastruc": 376,
      "00": 377,
      "▁|--------+----------------": 378,
      "▁connecting": 379,
      "▁existence": 380,
      "▁flats": 381,
      "▁way": 382,
      "▁breath": 383,
      "▁nations": 384,
      "▁troops": 385,
      "▁cosplay": 386,
      "▁keeping": 387,
      "▁alcoho": 388,
      "▁1920s": 389,
      "day": 390,
      "▁raped": 391,
      "▁walked": 392,
      "▁prominence": 393,
      "▁sick": 394,
      "issed": 395,
      "▁forefinger": 396,
      "▁swa": 397,
      "ific": 398,
      "▁no.": 399,
      "arred": 400,
      "▁skin": 401,
      "▁requires": 402,
      "umb": 403,
      "ashington": 404,
      "▁cool": 405,
      "▁ens": 406,
      "▁unit": 407,
      "▁iq": 408,
      "▁chicks": 409,
      "▁gord": 410,
      "▁arise": 411,
      "zer": 412,
      "▁bureaucracy": 413,
      "▁mill": 414,
      "▁black": 415,
      "ptian": 416,
      "▁sty": 417,
      "ointment": 418,
      "▁gaps": 419,
      "▁helpers": 420,
      "▁sheds": 421,
      "▁challenges": 422,
      "▁astronom": 423,
      "//": 424,
      "▁pitcher": 425,
      "▁aw": 426,
      "▁insect": 427,
      "▁tank": 428,
      "erb": 429,
      "▁acknowled": 430,
      "wood": 431,
      "▁especially": 432,
      "▁complexion": 433,
      "▁bath": 434,
      "▁elev": 435,
      "▁holiday": 436,
      "um": 437,
      "▁referr": 438,
      "ture": 439,
      "▁processed": 440,
      "▁captain": 441,
      "▁peeing": 442,
      "▁contains": 443,
      "▁buff": 444,
      "▁adds": 445,
      "▁slipped": 446,
      "enter": 447,
      "▁banned": 448,
      "uration": 449,
      "▁arrive": 450,
      "▁purchase": 451,
      "osystem": 452,
      "▁batch": 453,
      "▁non": 454,
      "▁biograph": 455,
      "boys": 456,
      "▁shut": 457,
      "leration": 458,
      "▁famous": 459,
      "▁conced": 460,
      "se": 461,
      "icular": 462,
      "aws": 463,
      "▁investigation": 464,
      "che": 465,
      "17": 466,
      "▁duties": 467,
      "▁pipes": 468,
      "hibited": 469,
      "▁hideout": 470,
      "▁grains": 471,
      "aced": 472,
      "▁flops": 473,
      "alu": 474,
      "mercial": 475,
      "▁cheating": 476,
      "▁registration": 477,
      "ruptions": 478,
      "▁taiwan": 479,
      "▁peeling": 480,
      "▁girls": 481,
      "▁widely": 482,
      "tt": 483,
      "▁junk": 484,
      "alising": 485,
      "ε": 486,
      "poon": 487,
      "▁toe": 488,
      ".h": 489,
      "blic": 490,
      "łodz": 491,
      "▁rum": 492,
      "▁bunk": 493,
      "lds": 494,
      "uropean": 495,
      "▁reasonable": 496,
      "ups": 497,
      "anes": 498,
      "ape": 499,
      "▁anybody": 500,
      "▁!!!!!!!!!!!": 501,
      "arians": 502,
      "uncture": 503,
      "▁reintroduction": 504,
      "▁coord": 505,
      "▁requi": 506,
      "ressor": 507,
      "anch": 508,
      "▁metering": 509,
      "▁superv": 510,
      "▁shel": 511,
      "▁bottle": 512,
      "▁particle": 513,
      "ν": 514,
      "▁ic": 515,
      "▁consensus": 516,
      "unks": 517,
      "▁horizon": 518,
      "▁garbage": 519,
      "▁superiority": 520,
      "-in": 521,
      "▁smuggling": 522,
      "▁state": 523,
      "▁attorneys": 524,
      "▁dedicated": 525,
      "▁tanker": 526,
      "c": 527,
      "ds": 528,
      "▁spaces": 529,
      "▁radi": 530,
      "▁costumes": 531,
      "▁mathematicians": 532,
      "▁building": 533,
      "▁attrition": 534,
      "▁closet": 535,
      "▁patch": 536,
      "▁rolling": 537,
      "▁fragilities": 538,
      "▁scr": 539,
      "▁guarant": 540,
      "▁echo": 541,
      "▁under": 542,
      "ition": 543,
      "▁police": 544,
      "▁bars": 545,
      "▁submitted": 546,
      "ainder": 547,
      "▁rage": 548,
      "▁streamed": 549,
      "▁lik": 550,
      "awn": 551,
      "▁thanks": 552,
      "▁saturday": 553,
      "liance": 554,
      "action": 555,
      "▁participated": 556,
      "▁prejud": 557,
      "▁generations": 558,
      "▁puffs": 559,
      "▁ba": 560,
      "▁difficul": 561,
      "▁eight": 562,
      "-p": 563,
      "▁stood": 564,
      "▁flavor": 565,
      "▁adoles": 566,
      "▁adv": 567,
      "8": 568,
      "acks": 569,
      "worm": 570,
      "vard": 571,
      "itivity": 572,
      "▁cer": 573,
      "▁mor": 574,
      "ured": 575,
      "▁lod": 576,
      "▁peanut": 577,
      "▁exploration": 578,
      "▁evil": 579,
      "▁disconnect": 580,
      "leon": 581,
      "▁reign": 582,
      "▁improved": 583,
      "ht": 584,
      "etown": 585,
      "▁bits": 586,
      "ainted": 587,
      "▁enters": 588,
      "▁wildcard": 589,
      "orrow": 590,
      "▁contin": 591,
      "▁goals": 592,
      "▁customer": 593,
      "imore": 594,
      "▁hearts": 595,
      "▁dipped": 596,
      "ucked": 597,
      "▁monitor": 598,
      "▁fabrications": 599,
      "▁mutants": 600,
      "▁sidewalk": 601,
      "▁second-class": 602,
      "ortant": 603,
      "lut": 604,
      "▁solving": 605,
      "▁six": 606,
      "▁demonstrated": 607,
      "very": 608,
      "▁leaders": 609,
      "▁sets": 610,
      "▁achieve": 611,
      "▁intervals": 612,
      "▁grammar": 613,
      "▁hated": 614,
      "line": 615,
      "▁hi": 616,
      "acies": 617,
      "operation": 618,
      "▁reliability": 619,
      "rich": 620,
      "over": 621,
      "▁housed": 622,
      "▁colony": 623,
      "▁brown": 624,
      "▁crosst": 625,
      "5": 626,
      "▁exchang": 627,
      "▁sacrifice": 628,
      "▁recurring": 629,
      "▁gentlemen": 630,
      "iveness": 631,
      "▁riding": 632,
      "▁theodor": 633,
      "▁bi": 634,
      "▁tds": 635,
      "▁steward": 636,
      "▁sad": 637,
      "por": 638,
      "here": 639,
      "▁manner": 640,
      "▁tremb": 641,
      "▁cabbage": 642,
      "▁threshold": 643,
      "▁bed": 644,
      "▁advance": 645,
      "▁mixture": 646,
      "▁emission": 647,
      "▁happ": 648,
      "alous": 649,
      "▁bonus": 650,
      "▁marshmallow": 651,
      "▁condemned": 652,
      "ocated": 653,
      "▁corp": 654,
      "▁preference": 655,
      "▁lig": 656,
      "▁arabs": 657,
      "▁strengthened": 658,
      "tocks.pdf": 659,
      "▁like": 660,
      "▁u.s.": 661,
      "▁referred": 662,
      "play": 663,
      "▁muscle": 664,
      "ators": 665,
      "▁fug": 666,
      "▁laugh": 667,
      "▁calf": 668,
      "▁lo": 669,
      "▁precision": 670,
      "▁owls": 671,
      "▁fle": 672,
      "▁patrons": 673,
      ".com": 674,
      "▁nationality": 675,
      "▁chrom": 676,
      "▁ess": 677,
      "▁tast": 678,
      "▁wrinkles": 679,
      "▁inde": 680,
      "jections": 681,
      "ually": 682,
      "▁'": 683,
      "▁los": 684,
      "▁shouted": 685,
      "▁ehr": 686,
      "sd": 687,
      "▁flooring": 688,
      "▁frame": 689,
      "ots": 690,
      "▁il": 691,
      "▁cabin": 692,
      "uli": 693,
      "▁unde": 694,
      "▁starfighter": 695,
      "▁syn": 696,
      "▁devices": 697,
      "▁farmer": 698,
      "▁en": 699,
      "▁messed": 700,
      "▁equipped": 701,
      "▁passengers": 702,
      "▁pot": 703,
      "▁street": 704,
      "▁staff": 705,
      "▁topic": 706,
      "▁quoted": 707,
      "▁runner": 708,
      "=----": 709,
      "▁prov": 710,
      ":": 711,
      "▁meth": 712,
      "▁increasingly": 713,
      "▁py": 714,
      "ribb": 715,
      "▁scream": 716,
      "▁miam": 717,
      "▁fault": 718,
      "▁picket": 719,
      "▁return": 720,
      "porter": 721,
      "more": 722,
      "▁underneath": 723,
      "▁ambulances": 724,
      "▁liquidation": 725,
      "▁initiation": 726,
      "▁omission": 727,
      "woo": 728,
      "nered": 729,
      "▁183": 730,
      "▁capital": 731,
      "▁analys": 732,
      "▁appreciated": 733,
      "▁$$$": 734,
      "isation": 735,
      "▁figured": 736,
      "▁fishing": 737,
      "▁youtu": 738,
      "▁sp": 739,
      "tered": 740,
      "eks": 741,
      "▁arab": 742,
      "▁chimney": 743,
      "▁seven": 744,
      "▁holt": 745,
      "ouring": 746,
      "▁comment": 747,
      "lipop": 748,
      "▁satellite": 749,
      "▁commenced": 750,
      "▁see": 751,
      "▁spilling": 752,
      "▁images": 753,
      "otal": 754,
      "▁separated": 755,
      "nd": 756,
      "ory": 757,
      "▁locomotion": 758,
      "▁characterized": 759,
      "▁tablets": 760,
      "▁distorts": 761,
      "oise": 762,
      "appy": 763,
      "▁sank": 764,
      "▁narrowed": 765,
      "▁lil": 766,
      "ycle": 767,
      "▁beers": 768,
      "store": 769,
      "▁tickle": 770,
      "understanding": 771,
      "!": 772,
      "▁binoc": 773,
      "▁suggesting": 774,
      "▁predators": 775,
      "▁passage": 776,
      "▁pay": 777,
      "aft": 778,
      "…": 779,
      "▁uti": 780,
      "enment": 781,
      "▁afters": 782,
      "▁sym": 783,
      "not": 784,
      "▁engineered": 785,
      "▁deepen": 786,
      "acket": 787,
      "ums": 788,
      "▁certificate": 789,
      "▁france": 790,
      "▁payroll": 791,
      "▁contributions": 792,
      "▁excuse": 793,
      "▁ferry": 794,
      "▁derivatives": 795,
      "▁yarns": 796,
      "▁confirmation": 797,
      "▁stacked": 798,
      "▁inside": 799,
      "olving": 800,
      "ub": 801,
      "▁whole": 802,
      "▁coffee": 803,
      "ances": 804,
      "▁declaration": 805,
      "hea": 806,
      "subscrib": 807,
      "▁drivers": 808,
      "▁apartments": 809,
      "▁bib": 810,
      "rop": 811,
      "onsumers": 812,
      "▁swirling": 813,
      "eric": 814,
      "step": 815,
      "▁halls": 816,
      "▁provide": 817,
      "▁times": 818,
      "▁resembled": 819,
      "▁underlined": 820,
      "▁bur": 821,
      "ugs": 822,
      "▁levels": 823,
      "▁tweeted": 824,
      "▁leather": 825,
      "▁generals": 826,
      "▁crowd": 827,
      "▁valuing": 828,
      "enoc": 829,
      "▁priorit": 830,
      "owering": 831,
      "ocks.pdf": 832,
      "▁drew": 833,
      "▁promoting": 834,
      "▁manufacturer": 835,
      "legation": 836,
      "▁repub": 837,
      "▁intake": 838,
      "▁tem": 839,
      "▁evacuated": 840,
      "▁terminated": 841,
      "▁liberals": 842,
      "ensive": 843,
      "▁oak": 844,
      "▁dr.": 845,
      "▁surgeon": 846,
      "rew": 847,
      "▁battling": 848,
      "▁creators": 849,
      "argy": 850,
      "▁wether": 851,
      "anged": 852,
      "▁importing": 853,
      "anks": 854,
      "▁newsgroups": 855,
      "▁piano": 856,
      "▁glimpse": 857,
      "ields": 858,
      "uss": 859,
      "▁doz": 860,
      "▁trucks": 861,
      "▁quad": 862,
      "▁metascience": 863,
      "+": 864,
      "▁diet": 865,
      "▁puppet": 866,
      "▁repurp": 867,
      "pres": 868,
      "▁waterway": 869,
      "---------------": 870,
      "▁ro": 871,
      "eats": 872,
      "▁chip": 873,
      "▁snitch": 874,
      "▁wealth": 875,
      "▁vince": 876,
      "▁practices": 877,
      "▁airlines": 878,
      "▁fem": 879,
      "▁histories": 880,
      "erts": 881,
      "▁tended": 882,
      "▁dose": 883,
      "zed": 884,
      "▁falling": 885,
      "▁pyjamas": 886,
      "▁pa": 887,
      "▁energy": 888,
      "▁copyright": 889,
      "▁fostering": 890,
      "▁early": 891,
      "▁pref": 892,
      "▁maintaining": 893,
      "▁inflation": 894,
      "▁communicate": 895,
      "▁bow": 896,
      "▁quickly": 897,
      "▁cafe": 898,
      "▁reptile": 899,
      "▁antip": 900,
      "▁etc": 901,
      "▁mous": 902,
      "▁filed": 903,
      "▁yaw": 904,
      "arely": 905,
      "▁actress": 906,
      "lace": 907,
      "▁quan": 908,
      "▁flee": 909,
      "▁omitted": 910,
      "duction": 911,
      "▁barrels": 912,
      "▁attached": 913,
      "gold": 914,
      "▁shrap": 915,
      "itations": 916,
      "tow": 917,
      "▁damp": 918,
      "nec": 919,
      "▁lines": 920,
      "▁hell": 921,
      "▁yiddish": 922,
      "▁chang": 923,
      "▁fixed": 924,
      "pi": 925,
      "▁or": 926,
      "▁curb": 927,
      "▁titles": 928,
      "ensus": 929,
      "uro": 930,
      "▁lollipop": 931,
      "at": 932,
      "▁began": 933,
      "▁augmentation": 934,
      "▁immedi": 935,
      "▁forums": 936,
      "▁wondering": 937,
      "aroni": 938,
      "▁deleted": 939,
      "▁abol": 940,
      "▁principles": 941,
      "▁infant": 942,
      "edness": 943,
      "ric": 944,
      "▁dealt": 945,
      "▁bartender": 946,
      "▁stayed": 947,
      "▁fount": 948,
      "▁meal": 949,
      "isture": 950,
      "▁total": 951,
      "▁kid": 952,
      "▁investigations": 953,
      "▁twice": 954,
      "▁qualified": 955,
      "▁switched": 956,
      "ilter": 957,
      "▁tempura": 958,
      "▁doom": 959,
      "▁inqu": 960,
      "▁waived": 961,
      "▁young": 962,
      "▁myth": 963,
      "▁recogn": 964,
      "▁cognition": 965,
      "▁options": 966,
      "▁slang": 967,
      "▁definition": 968,
      "erving": 969,
      "tiation": 970,
      "nect": 971,
      "▁mask": 972,
      "▁needles": 973,
      "▁scope": 974,
      "▁glaze": 975,
      "▁courtesy": 976,
      "icted": 977,
      "▁watching": 978,
      "▁absorbed": 979,
      "▁atlanta": 980,
      "▁nar": 981,
      "▁initial": 982,
      "▁fung": 983,
      "▁restaur": 984,
      "▁electric": 985,
      "▁fallen": 986,
      "▁transcri": 987,
      "▁notebook": 988,
      "▁outro": 989,
      "▁theater": 990,
      "agers": 991,
      "etro": 992,
      "illas": 993,
      "sing": 994,
      "▁stim": 995,
      "▁exe": 996,
      "in": 997,
      "▁belie": 998,
      "▁pills": 999,
      "▁claiming": 1000,
      "red": 1001,
      "estic": 1002,
      "▁dair": 1003,
      "▁amendments": 1004,
      "ime": 1005,
      "▁anatomy": 1006,
      "▁burs": 1007,
      "▁appearance": 1008,
      "ilities": 1009,
      "▁initiatives": 1010,
      "▁pivottable": 1011,
      "▁rope": 1012,
      "▁rhy": 1013,
      "▁interconnect": 1014,
      "ounds": 1015,
      "@": 1016,
      "▁ebbed": 1017,
      "alidated": 1018,
      "oration": 1019,
      "▁underm": 1020,
      "▁salary": 1021,
      "▁olives": 1022,
      "hakes": 1023,
      "comm": 1024,
      "▁airports": 1025,
      "▁shorts": 1026,
      "▁las": 1027,
      "anny": 1028,
      "▁double": 1029,
      "▁driven": 1030,
      "▁engine": 1031,
      "▁seattle": 1032,
      "▁spot": 1033,
      "▁nav": 1034,
      "▁sunburn": 1035,
      "▁ansi": 1036,
      "enc": 1037,
      "▁organis": 1038,
      "ancing": 1039,
      "▁grands": 1040,
      "rav": 1041,
      "aven": 1042,
      "▁pre-": 1043,
      "▁yards": 1044,
      "▁smell": 1045,
      "▁removed": 1046,
      "assed": 1047,
      "▁green": 1048,
      "▁truck": 1049,
      "▁wiggle": 1050,
      "pers": 1051,
      "keep": 1052,
      "▁witn": 1053,
      "▁engaging": 1054,
      "▁copied": 1055,
      "▁foreigners": 1056,
      "▁best": 1057,
      "▁succ": 1058,
      "▁inquiries": 1059,
      "▁adop": 1060,
      "▁rais": 1061,
      "▁reviewer": 1062,
      "▁collabor": 1063,
      "▁bited": 1064,
      "ists": 1065,
      "ativity": 1066,
      "▁nineteenth": 1067,
      "▁sold": 1068,
      "▁sou": 1069,
      "+----------------": 1070,
      "▁plans": 1071,
      "backs": 1072,
      "▁threat": 1073,
      "▁w/": 1074,
      "▁facilitate": 1075,
      "▁flush": 1076,
      "waves": 1077,
      "▁rectangle": 1078,
      "▁prim": 1079,
      "falls": 1080,
      "espan": 1081,
      "▁envoy": 1082,
      "▁refriger": 1083,
      "▁mechanics": 1084,
      "▁needs": 1085,
      "▁triv": 1086,
      "asts": 1087,
      "▁harmony": 1088,
      "▁asylum": 1089,
      "▁bam": 1090,
      "▁ti": 1091,
      "▁stung": 1092,
      "▁link": 1093,
      "lium": 1094,
      "▁arrangement": 1095,
      "▁guardsmen": 1096,
      "vp": 1097,
      "ing": 1098,
      "▁motorist": 1099,
      "▁lord": 1100,
      "▁monologue": 1101,
      "6": 1102,
      "▁lids": 1103,
      "▁influenced": 1104,
      "▁ranks": 1105,
      "awing": 1106,
      "▁somewhere": 1107,
      "▁deeply": 1108,
      "▁pit": 1109,
      "▁publishing": 1110,
      "▁tiles": 1111,
      "▁accumulated": 1112,
      "▁federation": 1113,
      "▁quit": 1114,
      "▁budget": 1115,
      "▁marbles": 1116,
      "acking": 1117,
      "▁crossed": 1118,
      "▁diplomats": 1119,
      "▁before": 1120,
      "▁interested": 1121,
      "mped": 1122,
      "▁mow": 1123,
      "▁l2": 1124,
      "▁hook": 1125,
      "▁dance": 1126,
      "▁159": 1127,
      "ario": 1128,
      "▁biology": 1129,
      "▁sector": 1130,
      "▁recipe": 1131,
      "▁revisions": 1132,
      "▁ducks": 1133,
      "▁puss": 1134,
      "▁baked": 1135,
      "▁cact": 1136,
      "▁rags": 1137,
      "▁styrofoam": 1138,
      "▁greatly": 1139,
      "▁hair": 1140,
      "▁republic": 1141,
      "▁apar": 1142,
      "▁planning": 1143,
      "▁arguments": 1144,
      "orea": 1145,
      "oughly": 1146,
      "▁trainers": 1147,
      "▁politicians": 1148,
      "▁lev": 1149,
      "▁searches": 1150,
      "▁causing": 1151,
      "▁must": 1152,
      "▁capture": 1153,
      "▁control": 1154,
      "on": 1155,
      "orying": 1156,
      "▁language": 1157,
      "▁watered": 1158,
      "▁riders": 1159,
      "▁sailor": 1160,
      "▁deliveries": 1161,
      "▁surrender": 1162,
      "▁tales": 1163,
      "eu": 1164,
      "▁midter": 1165,
      "▁generating": 1166,
      "▁airlin": 1167,
      "▁yep": 1168,
      "man": 1169,
      "▁example": 1170,
      "▁rumors": 1171,
      "▁cultures": 1172,
      "▁uniforms": 1173,
      "▁largely": 1174,
      "▁descri": 1175,
      "umble": 1176,
      "gn": 1177,
      "▁highlighting": 1178,
      "▁merchant": 1179,
      "▁collaboration": 1180,
      "▁fores": 1181,
      "▁korea": 1182,
      "ss": 1183,
      "▁alt.": 1184,
      "itis": 1185,
      "tains": 1186,
      "ressive": 1187,
      "▁dangerous": 1188,
      "▁walls": 1189,
      "tis": 1190,
      "▁imprisoned": 1191,
      "▁4th": 1192,
      "▁scam": 1193,
      "▁renting": 1194,
      "ik": 1195,
      "▁esc": 1196,
      "eal": 1197,
      "▁helmet": 1198,
      "▁foots": 1199,
      "▁d'": 1200,
      "▁geared": 1201,
      "▁donkey": 1202,
      "hment": 1203,
      "▁values": 1204,
      "▁exploited": 1205,
      "▁dr": 1206,
      "▁solution": 1207,
      "id": 1208,
      "▁any": 1209,
      "▁effort": 1210,
      "▁embarked": 1211,
      "▁welf": 1212,
      "▁conservatives": 1213,
      "▁giraffe": 1214,
      "gie": 1215,
      "▁interview": 1216,
      "▁honesty": 1217,
      "▁pec": 1218,
      "▁active": 1219,
      "▁attraction": 1220,
      "▁retrieval": 1221,
      "▁deficiency": 1222,
      "agn": 1223,
      "establish": 1224,
      "yalty": 1225,
      "▁stuttering": 1226,
      "▁ppl": 1227,
      "ve": 1228,
      "▁stealing": 1229,
      "▁collateral": 1230,
      "▁worn": 1231,
      "ivers": 1232,
      "raph": 1233,
      "▁zawahiri": 1234,
      "▁screamed": 1235,
      "▁beetles": 1236,
      "aded": 1237,
      "erished": 1238,
      "▁inj": 1239,
      "▁23rd": 1240,
      "▁jus": 1241,
      "▁trapped": 1242,
      "▁antiquity": 1243,
      "▁attributed": 1244,
      "▁ar": 1245,
      "▁economic": 1246,
      "▁pil": 1247,
      "▁co-st": 1248,
      "▁temp": 1249,
      "▁marching": 1250,
      "▁squash": 1251,
      "▁perfection": 1252,
      "▁asked": 1253,
      "▁provision": 1254,
      "▁insul": 1255,
      "▁ought": 1256,
      "▁matter": 1257,
      "▁prolon": 1258,
      "ictions": 1259,
      "▁throwing": 1260,
      "mm": 1261,
      "▁contract": 1262,
      "▁light": 1263,
      "▁rating": 1264,
      "▁confisc": 1265,
      "▁ug": 1266,
      "▁died": 1267,
      "▁movement": 1268,
      "▁subscri": 1269,
      "▁substantiation": 1270,
      "▁mean": 1271,
      "▁ec": 1272,
      "▁educ": 1273,
      "▁homosexuality": 1274,
      "icking": 1275,
      "oat": 1276,
      "▁motel": 1277,
      "anced": 1278,
      "▁t+re": 1279,
      "▁currently": 1280,
      "▁starts": 1281,
      "▁crocod": 1282,
      "ous": 1283,
      "▁declare": 1284,
      "aph": 1285,
      "▁climber": 1286,
      "▁fr": 1287,
      "▁grader": 1288,
      "▁extract": 1289,
      "▁struggled": 1290,
      "▁unfortunately": 1291,
      "▁win": 1292,
      "ano": 1293,
      "ements": 1294,
      "▁conducting": 1295,
      "▁visualization": 1296,
      "▁cups": 1297,
      "▁accessories": 1298,
      "▁houston": 1299,
      "ali": 1300,
      "▁fundam": 1301,
      "▁monopoly": 1302,
      "▁woman": 1303,
      "▁engagement": 1304,
      "▁(": 1305,
      "illance": 1306,
      "qu": 1307,
      "▁skis": 1308,
      "▁linger": 1309,
      "▁celebrities": 1310,
      "▁stole": 1311,
      "egration": 1312,
      "▁doll": 1313,
      "▁shines": 1314,
      "▁rust": 1315,
      "▁physical": 1316,
      "▁sti": 1317,
      "hi": 1318,
      "▁enthusiasts": 1319,
      "▁disappeared": 1320,
      "▁volunteer": 1321,
      "▁skirt": 1322,
      "▁cashier": 1323,
      "way": 1324,
      "ness": 1325,
      "▁watched": 1326,
      "▁oven": 1327,
      "▁harmonisation": 1328,
      "▁poison": 1329,
      "edia": 1330,
      "▁revolves": 1331,
      "▁remed": 1332,
      "▁relevance": 1333,
      "inity": 1334,
      "▁embarr": 1335,
      "▁hot": 1336,
      "▁flatbread": 1337,
      "▁dry": 1338,
      "▁wallet": 1339,
      "▁kills": 1340,
      "▁flicked": 1341,
      "▁wint": 1342,
      "ital": 1343,
      "▁victory": 1344,
      "[": 1345,
      "▁doc": 1346,
      "esy": 1347,
      "▁trends": 1348,
      "▁lur": 1349,
      "▁succeed": 1350,
      "▁he": 1351,
      "▁inviting": 1352,
      "itting": 1353,
      "▁sa": 1354,
      "▁eliminated": 1355,
      "▁occur": 1356,
      "icating": 1357,
      "ardised": 1358,
      "▁lick": 1359,
      "▁cracked": 1360,
      "▁predator": 1361,
      "▁horror": 1362,
      "▁sss": 1363,
      "▁completing": 1364,
      "▁lieutenant": 1365,
      "▁category": 1366,
      "ented": 1367,
      "▁signals": 1368,
      "▁grocery": 1369,
      "▁wages": 1370,
      "inkles": 1371,
      "▁aftermath": 1372,
      "amping": 1373,
      "▁charcoal": 1374,
      "▁end": 1375,
      "▁doctors": 1376,
      "▁domains": 1377,
      "▁gives": 1378,
      "▁booked": 1379,
      "▁wizard": 1380,
      "▁sharing": 1381,
      "▁bludgers": 1382,
      "▁forbidding": 1383,
      "kating": 1384,
      "▁oposs": 1385,
      "▁continues": 1386,
      "▁hardship": 1387,
      "▁laun": 1388,
      "▁flourish": 1389,
      "aser": 1390,
      "ʒ": 1391,
      "▁congrat": 1392,
      "▁behin": 1393,
      "▁curric": 1394,
      "▁industries": 1395,
      "▁effects": 1396,
      "▁integrity": 1397,
      "▁garb": 1398,
      "▁prin": 1399,
      "▁mandate": 1400,
      ".net": 1401,
      "▁spirit": 1402,
      "▁veto": 1403,
      "▁samp": 1404,
      "inned": 1405,
      "▁regulate": 1406,
      "▁lid": 1407,
      "▁distract": 1408,
      "▁vehicle": 1409,
      "▁reversion": 1410,
      "▁ensuring": 1411,
      "obs": 1412,
      "▁hence": 1413,
      "asses": 1414,
      "▁stared": 1415,
      "▁exac": 1416,
      "▁geometries": 1417,
      "tery": 1418,
      "or": 1419,
      "#": 1420,
      "ters": 1421,
      "▁wind": 1422,
      "sst": 1423,
      "▁gleaming": 1424,
      "udes": 1425,
      "▁brushed": 1426,
      "▁300": 1427,
      "▁stand": 1428,
      "▁stepped": 1429,
      "▁photo": 1430,
      "▁personality": 1431,
      "▁soy": 1432,
      "▁circular": 1433,
      "▁spelling": 1434,
      "▁layer": 1435,
      "sent": 1436,
      "▁stir": 1437,
      "▁trigger": 1438,
      "▁date": 1439,
      "▁fallout": 1440,
      "▁aun": 1441,
      "▁instrument": 1442,
      "▁richard": 1443,
      "▁headed": 1444,
      "▁standardisation": 1445,
      "oneering": 1446,
      "▁examining": 1447,
      "ati": 1448,
      "▁tuesday": 1449,
      "▁mutation": 1450,
      "▁is": 1451,
      "▁tush": 1452,
      "▁extre": 1453,
      "ectiveness": 1454,
      "ative": 1455,
      "▁labels": 1456,
      "▁rain": 1457,
      "▁inquiry": 1458,
      "▁ivory": 1459,
      "▁d2": 1460,
      "▁disclose": 1461,
      "ump": 1462,
      "-1.xls": 1463,
      "tias": 1464,
      "roc": 1465,
      "▁alt": 1466,
      "▁mes": 1467,
      "▁reduction": 1468,
      "▁offers": 1469,
      "▁mounted": 1470,
      "atory": 1471,
      "▁disgust": 1472,
      "▁24": 1473,
      "▁sleeps": 1474,
      "iciency": 1475,
      "▁transpar": 1476,
      "▁forefront": 1477,
      "ple": 1478,
      "▁...................": 1479,
      "ratic": 1480,
      "ogging": 1481,
      "illed": 1482,
      "▁mapped": 1483,
      "▁wel": 1484,
      "▁separ": 1485,
      "▁hurried": 1486,
      "▁panted": 1487,
      "▁200": 1488,
      "▁coherence": 1489,
      "▁inventory": 1490,
      "▁yellow": 1491,
      "▁continents": 1492,
      "▁2006": 1493,
      "▁consider": 1494,
      "▁year": 1495,
      "▁toys": 1496,
      "▁diaper": 1497,
      "▁bin": 1498,
      "▁isolated": 1499,
      "▁laur": 1500,
      "▁disease": 1501,
      "▁rush": 1502,
      "▁colleagues": 1503,
      "▁qu": 1504,
      "▁grandfather": 1505,
      "▁refinery": 1506,
      "▁accomplish": 1507,
      "arize": 1508,
      "▁kids": 1509,
      ">": 1510,
      "▁info": 1511,
      "]": 1512,
      "▁aging": 1513,
      "city": 1514,
      "/c": 1515,
      "▁phenomen": 1516,
      "▁strong": 1517,
      "reach": 1518,
      "▁conject": 1519,
      "alculation": 1520,
      "▁stroke": 1521,
      "ocracy": 1522,
      "▁occurr": 1523,
      "▁o'clock": 1524,
      "ighb": 1525,
      "▁finding": 1526,
      "▁flying": 1527,
      "ated": 1528,
      "dation": 1529,
      "cake": 1530,
      "▁interceptor": 1531,
      "▁mull": 1532,
      "▁image": 1533,
      "▁distingu": 1534,
      "▁emotions": 1535,
      "▁dinosaur": 1536,
      "jected": 1537,
      "▁revis": 1538,
      "ibs": 1539,
      "▁furs": 1540,
      "▁acts": 1541,
      "▁ants": 1542,
      "▁traveling": 1543,
      "▁advisor": 1544,
      "▁,?": 1545,
      "tied": 1546,
      "▁reconstr": 1547,
      "ilization": 1548,
      "▁something": 1549,
      "▁nuis": 1550,
      "▁drop": 1551,
      "▁turns": 1552,
      "▁appetite": 1553,
      "▁orchestra": 1554,
      "▁sectors": 1555,
      "nosis": 1556,
      "-h": 1557,
      "▁perhaps": 1558,
      "▁ta": 1559,
      "▁mist": 1560,
      "▁david": 1561,
      "▁shame": 1562,
      "▁youn": 1563,
      "ains": 1564,
      "gins": 1565,
      "▁champions": 1566,
      "▁buys": 1567,
      "▁locom": 1568,
      "▁campaigns": 1569,
      "▁=": 1570,
      "▁contacting": 1571,
      "▁puts": 1572,
      "▁his": 1573,
      "▁sticks": 1574,
      "▁r": 1575,
      "▁sash": 1576,
      "▁nibb": 1577,
      "▁crises": 1578,
      "a": 1579,
      "▁sugar": 1580,
      "assad": 1581,
      "aved": 1582,
      "▁columbus": 1583,
      "dain": 1584,
      "▁shirt": 1585,
      "▁garage": 1586,
      "▁sunsh": 1587,
      "▁waive": 1588,
      "▁horsemen": 1589,
      "▁recite": 1590,
      "▁fa": 1591,
      "▁means": 1592,
      "▁authority": 1593,
      "▁marsh": 1594,
      "atures": 1595,
      "▁breakf": 1596,
      "▁hammer": 1597,
      "▁sweat": 1598,
      "ayed": 1599,
      "▁megawatt": 1600,
      "▁squashed": 1601,
      "▁norton": 1602,
      "pon": 1603,
      "▁broken": 1604,
      "▁absorbing": 1605,
      "▁salinity": 1606,
      "▁redistribution": 1607,
      "▁disint": 1608,
      "▁lingu": 1609,
      "▁warran": 1610,
      "▁correctly": 1611,
      "▁penalty": 1612,
      "!?": 1613,
      "▁background": 1614,
      "▁launch": 1615,
      "▁designated": 1616,
      "▁toast": 1617,
      "▁ups": 1618,
      "▁winking": 1619,
      "▁boats": 1620,
      "▁obedience": 1621,
      "▁kh": 1622,
      "▁viol": 1623,
      "▁national": 1624,
      "▁will": 1625,
      "times": 1626,
      "▁rank": 1627,
      "▁distribution": 1628,
      "▁capac": 1629,
      "▁advis": 1630,
      "▁rape": 1631,
      "▁suggested": 1632,
      "ague": 1633,
      "head": 1634,
      "ignment": 1635,
      "▁versus": 1636,
      "▁independ": 1637,
      "▁trumpets": 1638,
      "ench": 1639,
      "▁response": 1640,
      "▁alto": 1641,
      "▁read": 1642,
      "▁fact": 1643,
      "itters": 1644,
      "▁neoc": 1645,
      "▁soul": 1646,
      "▁facil": 1647,
      "mitted": 1648,
      "▁share": 1649,
      "▁moment": 1650,
      "ch": 1651,
      "▁guaranty": 1652,
      "▁lose": 1653,
      "▁louds": 1654,
      "▁shyness": 1655,
      "▁fucking": 1656,
      "▁licen": 1657,
      "▁tents": 1658,
      "▁bandaid": 1659,
      "▁testimony": 1660,
      "▁wool": 1661,
      "▁gam": 1662,
      "▁towards": 1663,
      "▁meters": 1664,
      "▁lunch": 1665,
      "▁seller": 1666,
      "▁anchored": 1667,
      "▁blame": 1668,
      "▁kg": 1669,
      "unte": 1670,
      "▁caus": 1671,
      "__": 1672,
      "engers": 1673,
      "ports": 1674,
      "▁undertake": 1675,
      "▁establishment": 1676,
      "▁excepted": 1677,
      "▁suddenly": 1678,
      "▁relatively": 1679,
      "▁asking": 1680,
      "▁eee": 1681,
      "egr": 1682,
      "▁crackers": 1683,
      "▁pastels": 1684,
      "▁hibernation": 1685,
      "olutions": 1686,
      "▁nove": 1687,
      "▁tackle": 1688,
      "▁dol": 1689,
      "▁believe": 1690,
      "▁bookst": 1691,
      "▁employee": 1692,
      "▁represents": 1693,
      "▁wandering": 1694,
      "▁nuc": 1695,
      "ache": 1696,
      "▁staircase": 1697,
      "▁recommends": 1698,
      "▁homeopathy": 1699,
      "▁compromise": 1700,
      "▁fet": 1701,
      "▁sensitivity": 1702,
      "▁concern": 1703,
      "▁publications": 1704,
      "▁prisoner": 1705,
      "itional": 1706,
      "▁given": 1707,
      "aa": 1708,
      "atitude": 1709,
      "▁pub": 1710,
      "▁traffick": 1711,
      "fing": 1712,
      "▁boycott": 1713,
      "▁lip": 1714,
      "apes": 1715,
      "rinted": 1716,
      "▁showed": 1717,
      "▁mummy": 1718,
      "▁liquid": 1719,
      "▁difficulties": 1720,
      "▁suffered": 1721,
      "▁intervening": 1722,
      "▁affirm": 1723,
      "▁christ": 1724,
      "aria": 1725,
      "zas": 1726,
      "▁many": 1727,
      "arian": 1728,
      "▁clerics": 1729,
      "▁staged": 1730,
      "▁gift": 1731,
      "▁raffle": 1732,
      "▁boots": 1733,
      "▁subsidi": 1734,
      "▁gum": 1735,
      "▁basketball": 1736,
      "▁cinema": 1737,
      "▁submits": 1738,
      "▁hidden": 1739,
      "ployment": 1740,
      ".m": 1741,
      "▁incl": 1742,
      "erman": 1743,
      "▁laundry": 1744,
      "▁provisions": 1745,
      "▁russian": 1746,
      "▁rin": 1747,
      "▁vehicles": 1748,
      "▁=---": 1749,
      "▁popular": 1750,
      "▁thawed": 1751,
      "▁attic": 1752,
      "ugh": 1753,
      "others": 1754,
      "▁death": 1755,
      "▁breathing": 1756,
      "ituting": 1757,
      "es": 1758,
      "gues": 1759,
      "▁canc": 1760,
      "▁disag": 1761,
      "▁airplane": 1762,
      "ba": 1763,
      "ical": 1764,
      "▁-----------------------------------------------------------------": 1765,
      "▁contro": 1766,
      "▁sigh": 1767,
      "duc": 1768,
      "erely": 1769,
      "▁ukra": 1770,
      "▁retal": 1771,
      "▁resources": 1772,
      "▁noted": 1773,
      "▁soft": 1774,
      "math": 1775,
      "▁pg": 1776,
      "▁majority": 1777,
      "▁packed": 1778,
      "▁predicted": 1779,
      "ission": 1780,
      "▁whil": 1781,
      "ineered": 1782,
      "▁shipment": 1783,
      "▁saus": 1784,
      "▁fu": 1785,
      "▁integrate": 1786,
      "▁biologists": 1787,
      "▁tall": 1788,
      "--------": 1789,
      "owled": 1790,
      "▁obligations": 1791,
      "▁stret": 1792,
      "▁calculate": 1793,
      "▁oppression": 1794,
      "feration": 1795,
      "▁identi": 1796,
      "ll": 1797,
      "ron": 1798,
      "▁servers": 1799,
      "▁viewpoints": 1800,
      "▁poli": 1801,
      "▁abs": 1802,
      "▁frid": 1803,
      "▁folio": 1804,
      "▁company": 1805,
      "▁hiking": 1806,
      "pp": 1807,
      "▁processes": 1808,
      "▁bleachers": 1809,
      "rophe": 1810,
      "bur": 1811,
      "amb": 1812,
      "▁supporters": 1813,
      "▁cider": 1814,
      "▁matching": 1815,
      "▁curves": 1816,
      "▁supporting": 1817,
      "inking": 1818,
      "▁overlooked": 1819,
      "ap": 1820,
      "▁ld2d-#69345-1.doc": 1821,
      "▁aboard": 1822,
      "▁fairs": 1823,
      "▁chaps": 1824,
      "ech": 1825,
      "ork": 1826,
      "tilation": 1827,
      "▁convince": 1828,
      "rights": 1829,
      "▁companions": 1830,
      "dre": 1831,
      "ength": 1832,
      "▁monster": 1833,
      "▁expected": 1834,
      "rr": 1835,
      "▁assume": 1836,
      "▁scribb": 1837,
      "stall": 1838,
      "will": 1839,
      "▁tradition": 1840,
      "▁belon": 1841,
      "▁pound": 1842,
      "ional": 1843,
      "▁november": 1844,
      "▁featured": 1845,
      "iv": 1846,
      "rist": 1847,
      "▁now": 1848,
      "▁gisb": 1849,
      "▁deleg": 1850,
      "▁xfer": 1851,
      "▁cri": 1852,
      "▁matched": 1853,
      "▁budgets": 1854,
      "▁qualities": 1855,
      "▁guidance": 1856,
      "▁warehouse": 1857,
      "agne": 1858,
      "▁critic": 1859,
      "▁makers": 1860,
      "▁trunk": 1861,
      "tics": 1862,
      "▁hurting": 1863,
      "ess": 1864,
      "▁bunny": 1865,
      "iency": 1866,
      "▁feared": 1867,
      "▁withdraw": 1868,
      "▁disintegration": 1869,
      "▁encomp": 1870,
      "▁ensure": 1871,
      "hunt": 1872,
      "▁mexican": 1873,
      "mented": 1874,
      "▁diving": 1875,
      "▁ropes": 1876,
      "▁returning": 1877,
      "vd": 1878,
      "▁according": 1879,
      "bt": 1880,
      "▁kissing": 1881,
      "▁foss": 1882,
      "▁surrounded": 1883,
      "▁prev": 1884,
      ".5": 1885,
      "▁affect": 1886,
      "▁awards": 1887,
      "▁underlying": 1888,
      "▁system": 1889,
      "-6": 1890,
      "▁production": 1891,
      "▁2015": 1892,
      "▁remedies": 1893,
      "ocrat": 1894,
      "▁split": 1895,
      "▁wren": 1896,
      "▁tort": 1897,
      "ishes": 1898,
      "ris": 1899,
      "▁asset": 1900,
      "▁technician": 1901,
      "▁’": 1902,
      "▁bid": 1903,
      "▁sop": 1904,
      "inations": 1905,
      "▁autonomy": 1906,
      "alized": 1907,
      "▁wheels": 1908,
      "▁parked": 1909,
      "▁disapp": 1910,
      "▁positive": 1911,
      "▁novelists": 1912,
      "▁accelerated": 1913,
      "▁anim": 1914,
      "▁negotiations": 1915,
      "▁plate": 1916,
      "▁twenty": 1917,
      "▁adam": 1918,
      "outs": 1919,
      "▁---=": 1920,
      "▁tools": 1921,
      "▁simpli": 1922,
      "▁purch": 1923,
      "▁wrestle": 1924,
      "▁increasing": 1925,
      "▁indianapolis": 1926,
      "▁shrapnel": 1927,
      "keeping": 1928,
      "iders": 1929,
      "pped": 1930,
      "▁barrel": 1931,
      "▁politician": 1932,
      "▁sculpt": 1933,
      "▁august": 1934,
      "▁professionals": 1935,
      "▁airport": 1936,
      "▁wik": 1937,
      "aults": 1938,
      "lik": 1939,
      "ography": 1940,
      "▁resolved": 1941,
      "orama": 1942,
      "▁dog": 1943,
      "▁mute": 1944,
      "▁hamburger": 1945,
      "astic": 1946,
      "▁bicycle": 1947,
      "▁swaying": 1948,
      "▁although": 1949,
      "▁beaters": 1950,
      "▁cleaners": 1951,
      "▁war": 1952,
      "▁neighboring": 1953,
      "▁barrette": 1954,
      "nets": 1955,
      "▁commerce": 1956,
      "▁flags": 1957,
      "▁setoff": 1958,
      "▁crooks": 1959,
      "_": 1960,
      "cles": 1961,
      "▁genes": 1962,
      "▁attend": 1963,
      "▁systems": 1964,
      "▁patter": 1965,
      "leys": 1966,
      "▁connects": 1967,
      "▁assumes": 1968,
      "tured": 1969,
      "▁cir": 1970,
      "ogue": 1971,
      "▁dvd": 1972,
      "▁discount": 1973,
      "▁provin": 1974,
      "▁outbre": 1975,
      "imited": 1976,
      "▁emperor": 1977,
      "▁duel": 1978,
      "igned": 1979,
      "▁administrator": 1980,
      "▁description": 1981,
      "▁python": 1982,
      "▁bible": 1983,
      "cel": 1984,
      "otated": 1985,
      "▁described": 1986,
      "▁exclaim": 1987,
      "▁gathering": 1988,
      "▁operation": 1989,
      "▁knees": 1990,
      "▁prototyp": 1991,
      "▁summaries": 1992,
      "▁dwibbling": 1993,
      "▁mini": 1994,
      "▁herself": 1995,
      "▁!": 1996,
      "▁stupid": 1997,
      "▁agents": 1998,
      "▁define": 1999,
      "▁dating": 2000,
      "▁prosperity": 2001,
      "▁chasing": 2002,
      "▁controvers": 2003,
      "tician": 2004,
      "▁only": 2005,
      "▁beauty": 2006,
      "▁insist": 2007,
      "roph": 2008,
      "▁humanities": 2009,
      "▁tran": 2010,
      "▁tooth": 2011,
      "▁stev": 2012,
      "▁hind": 2013,
      "▁benefit": 2014,
      "ulators": 2015,
      "▁customers": 2016,
      "▁understood": 2017,
      "▁ignorance": 2018,
      "▁d.": 2019,
      "▁rhymes": 2020,
      "▁dreamed": 2021,
      "code": 2022,
      "▁manager": 2023,
      "▁pixel": 2024,
      "ketch": 2025,
      "x": 2026,
      "▁wiel": 2027,
      "▁adjust": 2028,
      "igate": 2029,
      "▁deposition": 2030,
      "▁collections": 2031,
      "▁solidarity": 2032,
      "80": 2033,
      "▁names": 2034,
      "▁october": 2035,
      "▁que": 2036,
      "▁instance": 2037,
      "v": 2038,
      "▁fri": 2039,
      "▁pancakes": 2040,
      "ya": 2041,
      "▁parliament": 2042,
      "▁west": 2043,
      "▁database": 2044,
      "▁played": 2045,
      "▁politics": 2046,
      "▁chess": 2047,
      "▁cann": 2048,
      "▁2001": 2049,
      "▁ranch": 2050,
      "▁me": 2051,
      "▁down": 2052,
      "ues": 2053,
      "▁structure": 2054,
      "▁syria": 2055,
      "▁travels": 2056,
      "▁nationalities": 2057,
      "▁scoop": 2058,
      "iciate": 2059,
      "▁fascination": 2060,
      "▁refus": 2061,
      "▁starters": 2062,
      "▁closed": 2063,
      "▁click": 2064,
      "iet": 2065,
      "▁sunglasses": 2066,
      "ghting": 2067,
      "arding": 2068,
      "▁tube": 2069,
      "▁remaining": 2070,
      "▁queso": 2071,
      "life": 2072,
      "▁warmth": 2073,
      "▁departures": 2074,
      "▁styrof": 2075,
      "inoc": 2076,
      "▁rebels": 2077,
      "▁drill": 2078,
      "cent": 2079,
      "dler": 2080,
      "yone": 2081,
      "▁conflicts": 2082,
      "▁cust": 2083,
      "▁toss": 2084,
      "▁flir": 2085,
      "▁schem": 2086,
      "▁radiation": 2087,
      "book": 2088,
      "▁cart": 2089,
      "▁delta": 2090,
      "▁armaments": 2091,
      "ves": 2092,
      "▁mary": 2093,
      "▁rumbling": 2094,
      "▁ambassad": 2095,
      "▁sound": 2096,
      "▁torture": 2097,
      "▁foisted": 2098,
      "▁traged": 2099,
      "▁release": 2100,
      "▁pirate": 2101,
      "▁jig": 2102,
      "▁bub": 2103,
      "iful": 2104,
      "ea": 2105,
      "most": 2106,
      "▁fungus": 2107,
      "▁expects": 2108,
      "▁easing": 2109,
      "ouds": 2110,
      "▁grandma": 2111,
      "aming": 2112,
      "▁broad": 2113,
      "4-1.doc": 2114,
      "▁disper": 2115,
      "▁whom": 2116,
      "words": 2117,
      "▁rbi": 2118,
      "▁criminal": 2119,
      "ias": 2120,
      "▁marketers": 2121,
      "▁resist": 2122,
      "▁reaction": 2123,
      "xal": 2124,
      "▁electricity": 2125,
      "▁shelf": 2126,
      "▁boyfriend": 2127,
      "▁pyr": 2128,
      "▁heard": 2129,
      "▁mind": 2130,
      "▁strike": 2131,
      "▁devote": 2132,
      "iciary": 2133,
      "▁perm": 2134,
      "▁valley": 2135,
      "▁surprise": 2136,
      "▁donor": 2137,
      "▁maybe": 2138,
      "▁texas": 2139,
      "▁commissioner": 2140,
      "▁paw": 2141,
      "▁cloth": 2142,
      "▁yelling": 2143,
      "enings": 2144,
      "▁voters": 2145,
      "▁lasts": 2146,
      "▁responsibility": 2147,
      "▁ops": 2148,
      "▁discussions": 2149,
      "earch": 2150,
      "cod": 2151,
      "impl": 2152,
      "▁locking": 2153,
      "▁stad": 2154,
      "▁rows": 2155,
      "▁axis": 2156,
      "os": 2157,
      "▁autof": 2158,
      "▁fan": 2159,
      "▁ver": 2160,
      "▁done": 2161,
      "oved": 2162,
      "▁mids": 2163,
      "▁peter": 2164,
      "▁cen": 2165,
      "▁muttered": 2166,
      "▁casualties": 2167,
      "▁student": 2168,
      "▁painted": 2169,
      "▁someone": 2170,
      "▁|": 2171,
      "dd": 2172,
      "▁init": 2173,
      "▁avo": 2174,
      "▁frequented": 2175,
      "▁taco": 2176,
      "▁exaggerated": 2177,
      "▁sav": 2178,
      "▁minding": 2179,
      "ight": 2180,
      "▁reported": 2181,
      "▁supper": 2182,
      "ada": 2183,
      "▁tup": 2184,
      "▁current": 2185,
      "▁considers": 2186,
      "▁single": 2187,
      "▁alik": 2188,
      "▁tomb": 2189,
      "ed": 2190,
      "▁chart": 2191,
      "1": 2192,
      "▁easi": 2193,
      "▁significance": 2194,
      "▁recr": 2195,
      "▁servants": 2196,
      "▁liver": 2197,
      "▁rebuil": 2198,
      "iistocks": 2199,
      "▁eyes": 2200,
      "oring": 2201,
      "▁reflect": 2202,
      "pin": 2203,
      "ont": 2204,
      "▁abst": 2205,
      "▁fli": 2206,
      "▁login": 2207,
      "▁overs": 2208,
      "▁nut": 2209,
      "▁scholar": 2210,
      "▁lanes": 2211,
      "▁yrs": 2212,
      "▁tan": 2213,
      "▁counter": 2214,
      "▁sup": 2215,
      "▁mechan": 2216,
      "erful": 2217,
      "▁toward": 2218,
      "▁workforce": 2219,
      "bri": 2220,
      "▁1000": 2221,
      "▁communic": 2222,
      "▁ann": 2223,
      "▁road": 2224,
      "sex": 2225,
      "▁skittles": 2226,
      "▁examined": 2227,
      "▁jap": 2228,
      "asion": 2229,
      "mail": 2230,
      "▁bowls": 2231,
      "▁bol": 2232,
      "hance": 2233,
      "▁discoveries": 2234,
      "▁am": 2235,
      "▁defined": 2236,
      "▁pending": 2237,
      "▁imag": 2238,
      "aled": 2239,
      "side": 2240,
      "▁husbands": 2241,
      "inds": 2242,
      "singly": 2243,
      "▁when": 2244,
      "▁investig": 2245,
      "▁apron": 2246,
      "▁bott": 2247,
      "▁ip": 2248,
      "▁acup": 2249,
      "▁apol": 2250,
      "▁microphone": 2251,
      "isf": 2252,
      "▁proclaimed": 2253,
      "▁busted": 2254,
      "▁handled": 2255,
      "▁jackets": 2256,
      "▁facet": 2257,
      "sour": 2258,
      "▁ye": 2259,
      "rite": 2260,
      "own": 2261,
      "inkle": 2262,
      "▁tortilla": 2263,
      "gmented": 2264,
      "▁consumerism": 2265,
      "▁cereal": 2266,
      "▁grants": 2267,
      "▁fin": 2268,
      "▁mum": 2269,
      "▁understands": 2270,
      "▁but": 2271,
      "▁cle": 2272,
      "▁sailed": 2273,
      "▁cors": 2274,
      "▁sides": 2275,
      "▁sustainability": 2276,
      "▁asp": 2277,
      "▁snowboard": 2278,
      "gue": 2279,
      "▁streets": 2280,
      "▁appointment": 2281,
      "▁mercury": 2282,
      "ropriate": 2283,
      "ɑ": 2284,
      "▁cake": 2285,
      "▁organization": 2286,
      "▁sausages": 2287,
      "▁tricycle": 2288,
      "▁kidn": 2289,
      "▁ally": 2290,
      "▁marks": 2291,
      "▁caring": 2292,
      "▁bap": 2293,
      "▁copy": 2294,
      "urt": 2295,
      "▁wording": 2296,
      "pful": 2297,
      "▁dictate": 2298,
      "▁array": 2299,
      "usement": 2300,
      "▁hams": 2301,
      "▁neither": 2302,
      "▁~": 2303,
      "▁trend": 2304,
      "▁recovered": 2305,
      "eck": 2306,
      "▁effectiveness": 2307,
      "osity": 2308,
      "ologies": 2309,
      "▁revers": 2310,
      "iness": 2311,
      "▁bowf": 2312,
      "▁manuscri": 2313,
      "amp": 2314,
      "▁kicking": 2315,
      "ticians": 2316,
      "▁incorporates": 2317,
      "▁message": 2318,
      "▁ey": 2319,
      "ever": 2320,
      "▁challenge": 2321,
      "▁hoops": 2322,
      "icate": 2323,
      "▁manor": 2324,
      "▁scores": 2325,
      "ority": 2326,
      "▁relates": 2327,
      "▁notw": 2328,
      "▁misfortune": 2329,
      "ctuation": 2330,
      "▁counseling": 2331,
      "igated": 2332,
      "master": 2333,
      "▁legitimacy": 2334,
      "▁postponed": 2335,
      "ute": 2336,
      "owed": 2337,
      "▁contacted": 2338,
      "▁simplicity": 2339,
      "▁keeps": 2340,
      "alised": 2341,
      "eenth": 2342,
      "▁governments": 2343,
      "ares": 2344,
      "▁intrud": 2345,
      "▁paintings": 2346,
      "keting": 2347,
      "ovation": 2348,
      "tc": 2349,
      "dom": 2350,
      "▁santa": 2351,
      "▁ingred": 2352,
      "outh": 2353,
      "ien": 2354,
      "▁fing": 2355,
      "▁celebrations": 2356,
      "▁podcast": 2357,
      "▁.........": 2358,
      "▁adapting": 2359,
      "▁chall": 2360,
      "▁evolved": 2361,
      "▁brass": 2362,
      "▁praise": 2363,
      "▁bugs": 2364,
      "▁allows": 2365,
      "esthe": 2366,
      "▁cuts": 2367,
      "▁sophie": 2368,
      "▁seem": 2369,
      "ging": 2370,
      "lus": 2371,
      "inism": 2372,
      "▁++++": 2373,
      "▁interval": 2374,
      "▁hip": 2375,
      "▁horse": 2376,
      "▁waves": 2377,
      "ter": 2378,
      "een": 2379,
      "lear": 2380,
      "▁july": 2381,
      "ling": 2382,
      "▁stolen": 2383,
      "▁magaz": 2384,
      "▁recover": 2385,
      "▁yo": 2386,
      "▁shrew": 2387,
      "▁staying": 2388,
      "▁mwh": 2389,
      "▁reduc": 2390,
      "▁indust": 2391,
      "▁root": 2392,
      "▁neck": 2393,
      "▁effected": 2394,
      "ipped": 2395,
      "²": 2396,
      "▁cage": 2397,
      "▁establishments": 2398,
      "▁chapter": 2399,
      "▁perme": 2400,
      "▁celebr": 2401,
      "▁persists": 2402,
      "▁dusting": 2403,
      "▁uh": 2404,
      "▁priority": 2405,
      "▁engaged": 2406,
      "▁tele": 2407,
      "▁jews": 2408,
      "▁gratitude": 2409,
      "---": 2410,
      "▁broaden": 2411,
      "▁tre": 2412,
      "▁centre": 2413,
      "▁avail": 2414,
      "▁giant": 2415,
      "▁vodka": 2416,
      "▁cent": 2417,
      "▁lamb": 2418,
      "▁pel": 2419,
      "▁construction": 2420,
      "dens": 2421,
      "▁rent": 2422,
      "▁storage": 2423,
      "▁carolina": 2424,
      "▁scare": 2425,
      "▁imbalance": 2426,
      "rality": 2427,
      "▁tearing": 2428,
      "iliar": 2429,
      "▁gene": 2430,
      "▁melted": 2431,
      "▁cy": 2432,
      "▁sink": 2433,
      "ious": 2434,
      "▁madness": 2435,
      "▁well": 2436,
      "esting": 2437,
      "▁gard": 2438,
      "▁quote": 2439,
      "▁journey": 2440,
      "coon": 2441,
      "▁gtee": 2442,
      "▁glad": 2443,
      "▁likeness": 2444,
      "▁yoyo": 2445,
      "▁hop": 2446,
      "▁po": 2447,
      "▁modified": 2448,
      "▁&": 2449,
      "▁prayers": 2450,
      "▁bleed": 2451,
      "▁shrouded": 2452,
      "▁realize": 2453,
      "▁scub": 2454,
      "▁hal": 2455,
      "abb": 2456,
      "▁iraqi": 2457,
      "▁adj": 2458,
      "rs": 2459,
      "▁oatme": 2460,
      "▁beatles": 2461,
      "▁if": 2462,
      "▁populated": 2463,
      "▁******************************************************************": 2464,
      "▁departments": 2465,
      "▁doorman": 2466,
      "ending": 2467,
      "▁substituted": 2468,
      "▁enough": 2469,
      "▁signoff": 2470,
      "▁antenna": 2471,
      "▁freezing": 2472,
      "aic": 2473,
      "▁subj": 2474,
      "▁conservation": 2475,
      "▁display": 2476,
      "▁admired": 2477,
      "▁finished": 2478,
      "▁steam": 2479,
      "▁formal": 2480,
      "▁b/": 2481,
      "▁phd": 2482,
      "isms": 2483,
      "eded": 2484,
      "ointed": 2485,
      "▁robes": 2486,
      "▁thrive": 2487,
      "▁dripping": 2488,
      "▁discre": 2489,
      "chie": 2490,
      "▁jud": 2491,
      "▁water": 2492,
      "▁rider": 2493,
      "-off": 2494,
      "-fe": 2495,
      "ision": 2496,
      "▁disclaimer": 2497,
      "▁vessels": 2498,
      "ml": 2499,
      "onds": 2500,
      "▁borrowers": 2501,
      "▁marrying": 2502,
      "▁rates": 2503,
      "▁hamsters": 2504,
      "▁tamed": 2505,
      "▁weight": 2506,
      "▁reaffirm": 2507,
      "▁sev": 2508,
      "board": 2509,
      "▁remembering": 2510,
      "icious": 2511,
      "▁epc": 2512,
      "▁mur": 2513,
      "▁voc": 2514,
      "ives": 2515,
      "▁plaintiff": 2516,
      "▁center": 2517,
      "tivity": 2518,
      "▁....": 2519,
      "▁accomplished": 2520,
      "▁prize": 2521,
      "▁uv": 2522,
      "▁output": 2523,
      "▁aud": 2524,
      "▁parameters": 2525,
      "chest": 2526,
      "▁bread": 2527,
      "▁ign": 2528,
      "raid": 2529,
      "ugging": 2530,
      "oard": 2531,
      "▁assemble": 2532,
      "▁anatom": 2533,
      "ne": 2534,
      "▁chemistry": 2535,
      "▁wrest": 2536,
      "ices": 2537,
      "ri": 2538,
      "▁payers": 2539,
      "▁disl": 2540,
      "▁tripped": 2541,
      "ecut": 2542,
      "▁htt": 2543,
      "thes": 2544,
      "erating": 2545,
      "▁artists": 2546,
      "▁bricks": 2547,
      "itic": 2548,
      "▁achie": 2549,
      "itation": 2550,
      "▁israeli": 2551,
      "▁chase": 2552,
      "▁disb": 2553,
      "▁reportedly": 2554,
      "▁chat": 2555,
      "▁contractor": 2556,
      "▁demanded": 2557,
      "▁man": 2558,
      "▁conventions": 2559,
      "▁innov": 2560,
      "▁inputs": 2561,
      "utching": 2562,
      "ull": 2563,
      "ru": 2564,
      "▁acqui": 2565,
      "▁interact": 2566,
      "▁dese": 2567,
      "▁properties": 2568,
      "chair": 2569,
      "ort": 2570,
      "▁pigs": 2571,
      "▁restrictions": 2572,
      "▁v02": 2573,
      "▁cycles": 2574,
      "▁favor": 2575,
      "pping": 2576,
      "▁clin": 2577,
      "400": 2578,
      "▁entering": 2579,
      "utionary": 2580,
      "▁bell": 2581,
      "zation": 2582,
      "▁motive": 2583,
      "▁scientific": 2584,
      "▁rel": 2585,
      "▁dreams": 2586,
      "▁annex": 2587,
      "▁initiative": 2588,
      "▁pregn": 2589,
      "▁aband": 2590,
      "▁grf": 2591,
      "▁leaning": 2592,
      "▁regim": 2593,
      "teries": 2594,
      "▁sliding": 2595,
      "▁tired": 2596,
      "ward": 2597,
      "▁rate": 2598,
      "▁except": 2599,
      "▁hobby": 2600,
      "▁advances": 2601,
      "▁untied": 2602,
      "[SEP]": 2603,
      "▁row": 2604,
      "▁besides": 2605,
      "▁mail": 2606,
      "▁seating": 2607,
      "anim": 2608,
      "▁blowing": 2609,
      "▁toof": 2610,
      "▁gallon": 2611,
      "tiff": 2612,
      "▁fab": 2613,
      "▁dal": 2614,
      "chup": 2615,
      "▁2014": 2616,
      "▁drugs": 2617,
      "▁characteristics": 2618,
      "▁syrup": 2619,
      "▁sessions": 2620,
      "▁candles": 2621,
      "▁unic": 2622,
      "▁varieties": 2623,
      "▁actors": 2624,
      "vices": 2625,
      "ruary": 2626,
      "iti": 2627,
      "ternoon": 2628,
      "edings": 2629,
      "arch": 2630,
      "wardness": 2631,
      "ault": 2632,
      "▁league": 2633,
      "gown": 2634,
      "oozing": 2635,
      "▁outliers": 2636,
      "▁buyers": 2637,
      "▁popsicle": 2638,
      "▁imprison": 2639,
      "▁directing": 2640,
      "fos": 2641,
      "ner": 2642,
      "▁beep": 2643,
      "▁meet": 2644,
      "izing": 2645,
      "▁soils": 2646,
      "encies": 2647,
      "▁certific": 2648,
      "▁mouths": 2649,
      "▁writer": 2650,
      "▁summit": 2651,
      "▁promised": 2652,
      "aring": 2653,
      "▁weake": 2654,
      "▁pieces": 2655,
      "enience": 2656,
      "▁cia": 2657,
      "▁yiel": 2658,
      "nas": 2659,
      "▁auth": 2660,
      "▁sc": 2661,
      "▁concerns": 2662,
      "▁stage": 2663,
      "▁somebody": 2664,
      "▁attr": 2665,
      "▁exa": 2666,
      "▁chalkboard": 2667,
      "▁q": 2668,
      "▁contractors": 2669,
      "bbed": 2670,
      "ope": 2671,
      "▁thigh": 2672,
      "▁visits": 2673,
      "▁vod": 2674,
      "troduc": 2675,
      "▁pseudonym": 2676,
      "▁hierarch": 2677,
      "▁declined": 2678,
      "▁effective": 2679,
      "▁charl": 2680,
      "▁memor": 2681,
      "▁galois": 2682,
      "▁manufactured": 2683,
      "▁crust": 2684,
      "▁deployment": 2685,
      "▁communication": 2686,
      "vern": 2687,
      "▁mesh": 2688,
      "llation": 2689,
      "▁mounds": 2690,
      "▁pho": 2691,
      "▁ahead": 2692,
      "▁eu": 2693,
      "▁health": 2694,
      "ame": 2695,
      "▁paradig": 2696,
      "cuz": 2697,
      "▁beet": 2698,
      "▁simulation": 2699,
      "▁hauled": 2700,
      "phone": 2701,
      "▁yogh": 2702,
      "uits": 2703,
      "▁lie": 2704,
      "▁___________": 2705,
      "▁distinction": 2706,
      "▁wallpaper": 2707,
      "▁waist": 2708,
      "▁pocket": 2709,
      "▁ourselves": 2710,
      "▁detroit": 2711,
      "▁apost": 2712,
      "▁sandals": 2713,
      "▁answered": 2714,
      "▁muscles": 2715,
      ")": 2716,
      "▁application": 2717,
      "▁tuna": 2718,
      "▁administ": 2719,
      "▁worse": 2720,
      "card": 2721,
      "▁pod": 2722,
      "oder": 2723,
      "▁rac": 2724,
      "pri": 2725,
      "oud": 2726,
      "▁responds": 2727,
      "dbit": 2728,
      "▁exam": 2729,
      "▁loud": 2730,
      "▁burb": 2731,
      "ogy": 2732,
      "▁representation": 2733,
      "▁rhythm": 2734,
      "▁founder": 2735,
      "▁frontier": 2736,
      "writer": 2737,
      "▁won": 2738,
      "ici": 2739,
      "▁misunderstanding": 2740,
      "zen": 2741,
      "▁partly": 2742,
      "▁balls": 2743,
      "▁cures": 2744,
      "▁surplus": 2745,
      "▁weekday": 2746,
      "▁work": 2747,
      "▁cheese": 2748,
      "▁beside": 2749,
      "▁should": 2750,
      "ill": 2751,
      "crif": 2752,
      "▁del": 2753,
      "istence": 2754,
      "▁darkness": 2755,
      "▁1970s": 2756,
      "▁groceries": 2757,
      "ason": 2758,
      "▁machinery": 2759,
      "▁fred": 2760,
      "▁answers": 2761,
      "▁using": 2762,
      "▁hostages": 2763,
      "▁impacts": 2764,
      "points": 2765,
      "▁fundamental": 2766,
      "▁hatred": 2767,
      "▁too": 2768,
      "▁dirty": 2769,
      "▁x3-9890": 2770,
      "▁stop": 2771,
      "▁insulation": 2772,
      "▁acquaint": 2773,
      "▁ursula": 2774,
      "▁weekend": 2775,
      "▁stickerbirds": 2776,
      "▁wager": 2777,
      "ulate": 2778,
      "▁blurred": 2779,
      "▁arrayed": 2780,
      "▁paints": 2781,
      "▁forever": 2782,
      "▁credence": 2783,
      "▁o": 2784,
      "▁dh": 2785,
      "uit": 2786,
      "kind": 2787,
      "▁receives": 2788,
      "vated": 2789,
      "▁fresh": 2790,
      "....": 2791,
      "▁cycle": 2792,
      "▁emper": 2793,
      "▁°": 2794,
      "▁prem": 2795,
      "▁introduction": 2796,
      "cessarily": 2797,
      "warded": 2798,
      "▁marking": 2799,
      "▁hospitals": 2800,
      "▁contend": 2801,
      "loth": 2802,
      "▁bulbs": 2803,
      "▁job": 2804,
      "▁gripped": 2805,
      "▁proved": 2806,
      "▁totally": 2807,
      "berry": 2808,
      "▁shoes": 2809,
      "▁cupcakes": 2810,
      "ystem": 2811,
      "▁county": 2812,
      "▁diarr": 2813,
      "riendly": 2814,
      "lla": 2815,
      "▁environments": 2816,
      "▁appointments": 2817,
      "▁pony": 2818,
      "▁rob": 2819,
      "▁hasid": 2820,
      "▁hashtag": 2821,
      "▁supp": 2822,
      "▁ag": 2823,
      "7h": 2824,
      "▁winging": 2825,
      "prisingly": 2826,
      "▁blud": 2827,
      "▁dais": 2828,
      "▁karma": 2829,
      "▁circulation": 2830,
      "▁entirely": 2831,
      "dron": 2832,
      "▁instr": 2833,
      "no": 2834,
      "erilla": 2835,
      "cross": 2836,
      "grated": 2837,
      "▁patron": 2838,
      "▁zeitgeist": 2839,
      "▁penn": 2840,
      "f-": 2841,
      "▁shout": 2842,
      "▁revenge": 2843,
      "thritis": 2844,
      "eed": 2845,
      "▁glanced": 2846,
      "▁val": 2847,
      "lete": 2848,
      "▁containers": 2849,
      "▁timing": 2850,
      "▁dip": 2851,
      "▁subst": 2852,
      "ig": 2853,
      "▁jurisd": 2854,
      "▁admir": 2855,
      "▁encourage": 2856,
      "-o": 2857,
      "▁mhm": 2858,
      "▁filtering": 2859,
      "▁moors": 2860,
      "▁60's": 2861,
      "enture": 2862,
      "▁isda": 2863,
      "▁persp": 2864,
      "ypically": 2865,
      "ply": 2866,
      "▁leaves": 2867,
      "▁stretched": 2868,
      "manship": 2869,
      "▁spill": 2870,
      "de": 2871,
      "owing": 2872,
      "▁ld2d-#6939": 2873,
      "▁luminol": 2874,
      "▁approaches": 2875,
      "▁fligh": 2876,
      "▁safety": 2877,
      "▁paired": 2878,
      "▁rendered": 2879,
      "▁germs": 2880,
      "▁provoke": 2881,
      "▁shouting": 2882,
      "▁abandon": 2883,
      "▁substance": 2884,
      "▁attachment": 2885,
      "▁judge": 2886,
      "▁chem": 2887,
      "▁admissions": 2888,
      "▁magazines": 2889,
      "▁museum": 2890,
      "ributing": 2891,
      "▁bared": 2892,
      "▁age": 2893,
      "▁back": 2894,
      "iation": 2895,
      "gor": 2896,
      "▁required": 2897,
      "▁resilience": 2898,
      "▁secrets": 2899,
      "▁anc": 2900,
      "50s": 2901,
      "▁wisd": 2902,
      "▁wandered": 2903,
      "▁mature": 2904,
      "▁fantasy": 2905,
      "▁kind": 2906,
      "▁principle": 2907,
      "▁audiences": 2908,
      "▁chewed": 2909,
      "ecess": 2910,
      "▁mechanism": 2911,
      "▁jet": 2912,
      "▁breaking": 2913,
      "▁indeed": 2914,
      "▁passing": 2915,
      "▁cyclones": 2916,
      "▁terrain": 2917,
      "▁graduating": 2918,
      "▁restric": 2919,
      "▁profic": 2920,
      "▁crashed": 2921,
      "▁ena": 2922,
      "cessfully": 2923,
      "▁dus": 2924,
      "▁cuffs": 2925,
      "▁expl": 2926,
      "▁intr": 2927,
      "▁deadbol": 2928,
      "▁layover": 2929,
      "▁rice": 2930,
      "▁immediately": 2931,
      "▁form": 2932,
      "000": 2933,
      "bio": 2934,
      "▁hotdog": 2935,
      "ely": 2936,
      "▁ears": 2937,
      "▁incorporated": 2938,
      "▁eyeb": 2939,
      "▁sol": 2940,
      "eas": 2941,
      "▁ties": 2942,
      "sive": 2943,
      "illa": 2944,
      "▁exhaus": 2945,
      "▁yourselves": 2946,
      "▁chronic": 2947,
      "▁leaving": 2948,
      "uten": 2949,
      "odor": 2950,
      "▁ascending": 2951,
      "▁martyr": 2952,
      "▁mov": 2953,
      "▁sections": 2954,
      "▁shape": 2955,
      "▁establish": 2956,
      "▁ri": 2957,
      "▁develops": 2958,
      "▁slammed": 2959,
      "aked": 2960,
      "ack": 2961,
      "▁spread": 2962,
      "▁sci": 2963,
      "▁determine": 2964,
      "▁orchestrated": 2965,
      "▁case": 2966,
      "▁lives": 2967,
      "▁ribbons": 2968,
      "oops": 2969,
      "iff": 2970,
      "▁childbir": 2971,
      "▁prel": 2972,
      "top": 2973,
      "/": 2974,
      "ashing": 2975,
      "▁brainw": 2976,
      "▁creations": 2977,
      "▁cooked": 2978,
      "▁benefited": 2979,
      "▁airplanes": 2980,
      "rant": 2981,
      "▁phantom": 2982,
      "½": 2983,
      "▁identified": 2984,
      "▁libr": 2985,
      "issing": 2986,
      "aling": 2987,
      "▁scar": 2988,
      "▁vitamin": 2989,
      "▁jewel": 2990,
      "▁28": 2991,
      "umin": 2992,
      "▁carn": 2993,
      "▁personally": 2994,
      "▁rec": 2995,
      "▁practice": 2996,
      "▁hummus": 2997,
      "▁frozen": 2998,
      "usting": 2999,
      "▁half": 3000,
      "▁generali": 3001,
      "▁bases": 3002,
      "▁judgement": 3003,
      "▁astride": 3004,
      "▁individ": 3005,
      "▁develop": 3006,
      "ocks": 3007,
      "▁corporation": 3008,
      "onin": 3009,
      "arily": 3010,
      "ue": 3011,
      "▁treatise": 3012,
      "▁mel": 3013,
      "▁tossed": 3014,
      "▁cages": 3015,
      "onut": 3016,
      "▁meanings": 3017,
      "▁ind": 3018,
      "▁distraction": 3019,
      "▁reimb": 3020,
      "▁rabbi": 3021,
      "▁conse": 3022,
      "▁muffs": 3023,
      "▁gd": 3024,
      "▁uses": 3025,
      "▁imple": 3026,
      "▁biz": 3027,
      "▁distric": 3028,
      "▁shores": 3029,
      "▁assembly": 3030,
      "▁arrival": 3031,
      "▁accumulate": 3032,
      "▁injured": 3033,
      "▁abcs": 3034,
      "▁audit": 3035,
      "▁moreover": 3036,
      "▁advised": 3037,
      "▁trick": 3038,
      "▁geography": 3039,
      "▁peroxide": 3040,
      "▁terror": 3041,
      "▁india": 3042,
      "▁knife": 3043,
      "▁tariff": 3044,
      "▁equivalence": 3045,
      "ses": 3046,
      "tm": 3047,
      "aun": 3048,
      "cial": 3049,
      "▁designed": 3050,
      "otted": 3051,
      "▁cl": 3052,
      "▁quiz": 3053,
      "▁lettuce": 3054,
      "▁exists": 3055,
      "▁hus": 3056,
      "▁addiction": 3057,
      "▁grumble": 3058,
      "/he": 3059,
      "▁wishing": 3060,
      "▁emergency": 3061,
      "▁islets": 3062,
      "▁forehead": 3063,
      "▁simpl": 3064,
      "▁recommend": 3065,
      "▁managed": 3066,
      "▁mouf": 3067,
      "▁unicorn": 3068,
      "ortly": 3069,
      "ately": 3070,
      "▁honey": 3071,
      "▁tubes": 3072,
      "▁virtue": 3073,
      "▁gap": 3074,
      "tise": 3075,
      "▁prospect": 3076,
      "xts": 3077,
      "▁add": 3078,
      "tainly": 3079,
      "ival": 3080,
      "▁fireplaces": 3081,
      "loyed": 3082,
      "ouse": 3083,
      "▁teeth": 3084,
      "▁maw": 3085,
      "▁motorcycle": 3086,
      "▁stuff": 3087,
      "▁dessert": 3088,
      "▁tile": 3089,
      "▁allegations": 3090,
      "▁pains": 3091,
      "ades": 3092,
      "▁persuaded": 3093,
      "▁grave": 3094,
      "▁compatibility": 3095,
      "▁newark": 3096,
      "70's": 3097,
      "▁launched": 3098,
      "▁silkie": 3099,
      "ians": 3100,
      "arc": 3101,
      "named": 3102,
      "ules": 3103,
      "ectors": 3104,
      "works": 3105,
      "▁clues": 3106,
      "ane": 3107,
      "▁faun": 3108,
      "ept": 3109,
      "œ": 3110,
      "▁assisting": 3111,
      "▁reminds": 3112,
      "▁opponent": 3113,
      "▁firstly": 3114,
      "▁hackers": 3115,
      "!!": 3116,
      "▁cance": 3117,
      "▁flipped": 3118,
      "▁quinoa": 3119,
      "▁fedayeen": 3120,
      "▁citizen": 3121,
      "ader": 3122,
      "rush": 3123,
      "▁embr": 3124,
      "▁decisions": 3125,
      "▁burrow": 3126,
      "writ": 3127,
      "▁accuses": 3128,
      "▁debut": 3129,
      "▁motto": 3130,
      "▁household": 3131,
      "▁behave": 3132,
      "atry": 3133,
      "▁oct": 3134,
      "▁steak": 3135,
      "▁shipped": 3136,
      "▁bab": 3137,
      "▁bureaucr": 3138,
      "▁sculp": 3139,
      "▁distinguishes": 3140,
      "▁experiences": 3141,
      "▁repos": 3142,
      "▁rud": 3143,
      "kets": 3144,
      "omend": 3145,
      "▁italy": 3146,
      "▁lungs": 3147,
      "▁telephone": 3148,
      "▁flew": 3149,
      "▁handle": 3150,
      "▁amid": 3151,
      "▁bothered": 3152,
      "▁sha": 3153,
      "▁crave": 3154,
      "▁characteris": 3155,
      "▁mir": 3156,
      "▁effect": 3157,
      "▁orlando": 3158,
      "▁opening": 3159,
      "▁opin": 3160,
      "▁comedy": 3161,
      "rived": 3162,
      ".2": 3163,
      "▁rotation": 3164,
      "▁curse": 3165,
      "eria": 3166,
      "▁spos": 3167,
      "▁crack": 3168,
      "epted": 3169,
      "▁screen": 3170,
      "▁terr": 3171,
      "▁customizing": 3172,
      "▁all": 3173,
      "▁separating": 3174,
      "▁p.m": 3175,
      "mor": 3176,
      "▁editor": 3177,
      "▁temper": 3178,
      "▁waiting": 3179,
      "▁buying": 3180,
      "tification": 3181,
      "▁appell": 3182,
      "▁sought": 3183,
      "▁futures": 3184,
      "▁between": 3185,
      "ong": 3186,
      "yl": 3187,
      "▁penalties": 3188,
      "6-1.doc": 3189,
      "▁aug": 3190,
      "▁continue": 3191,
      "▁privile": 3192,
      "nam": 3193,
      "▁recognize": 3194,
      "ash": 3195,
      "▁playing": 3196,
      "ot": 3197,
      "gry": 3198,
      "▁murdered": 3199,
      "emark": 3200,
      "▁nin": 3201,
      "▁steal": 3202,
      "ours": 3203,
      "▁shirts": 3204,
      "▁direction": 3205,
      "sal": 3206,
      "zai": 3207,
      "-cl": 3208,
      "▁bitmap": 3209,
      "agging": 3210,
      "nia": 3211,
      "▁target": 3212,
      "▁noone": 3213,
      "ignation": 3214,
      "▁consumers": 3215,
      "▁backing": 3216,
      "▁committ": 3217,
      "▁quarter": 3218,
      "▁jihad": 3219,
      "ibility": 3220,
      "▁expelling": 3221,
      "tor": 3222,
      "▁skitt": 3223,
      "rib": 3224,
      "▁gets": 3225,
      "▁thirds": 3226,
      "▁atrophy": 3227,
      "rusted": 3228,
      "▁shock": 3229,
      "fights": 3230,
      "atch": 3231,
      "old": 3232,
      "▁shudder": 3233,
      "▁rapidly": 3234,
      "▁photographer": 3235,
      "▁defeated": 3236,
      "▁pep": 3237,
      "rax": 3238,
      "ung": 3239,
      "▁designer": 3240,
      "▁convicts": 3241,
      "▁ball": 3242,
      "arco": 3243,
      "ptions": 3244,
      "▁commissioners": 3245,
      "▁sisters": 3246,
      "▁russians": 3247,
      "▁tell": 3248,
      "▁queen": 3249,
      "▁brushing": 3250,
      "making": 3251,
      "▁pennies": 3252,
      "▁video": 3253,
      "▁threatened": 3254,
      "▁businessman": 3255,
      "▁fellow": 3256,
      "▁’re": 3257,
      "▁reintroduced": 3258,
      "▁monit": 3259,
      "▁2004": 3260,
      "▁observation": 3261,
      "dress": 3262,
      "raf": 3263,
      "▁intercep": 3264,
      "▁reconciliation": 3265,
      "▁vaccines": 3266,
      "uela": 3267,
      "▁blessed": 3268,
      "▁wound": 3269,
      "▁offic": 3270,
      "▁roms": 3271,
      "▁sack": 3272,
      "▁bankn": 3273,
      "▁emerged": 3274,
      "▁obtained": 3275,
      "▁concentration": 3276,
      "▁accordance": 3277,
      "▁supplies": 3278,
      "▁dark": 3279,
      "▁?": 3280,
      "▁remains": 3281,
      "ration": 3282,
      "iqu": 3283,
      "▁expiration": 3284,
      "▁reside": 3285,
      "▁convers": 3286,
      "▁adhering": 3287,
      "▁cradle": 3288,
      "erate": 3289,
      "icing": 3290,
      "▁vit": 3291,
      "eeze": 3292,
      "fe": 3293,
      "▁sph": 3294,
      "▁biographers": 3295,
      "gan": 3296,
      "▁19": 3297,
      "▁legend": 3298,
      "▁dallas": 3299,
      "▁momm": 3300,
      "ties": 3301,
      "▁functions": 3302,
      "▁lights": 3303,
      "▁history": 3304,
      "▁preci": 3305,
      "▁rooms": 3306,
      "▁sag": 3307,
      "▁inequality": 3308,
      "▁throw": 3309,
      "▁imagine": 3310,
      "▁posting": 3311,
      "▁keys": 3312,
      "▁shrimp": 3313,
      "▁traced": 3314,
      "▁avoid": 3315,
      "▁videoc": 3316,
      "▁stability": 3317,
      "▁inscri": 3318,
      "▁penis": 3319,
      "▁rude": 3320,
      "▁dow": 3321,
      "▁pan-d": 3322,
      "ials": 3323,
      "▁combine": 3324,
      "▁assumptions": 3325,
      "▁uhh": 3326,
      "▁reads": 3327,
      "▁transition": 3328,
      "▁discontent": 3329,
      "▁tsar": 3330,
      "ye": 3331,
      "▁surviving": 3332,
      "▁manufactur": 3333,
      "▁contested": 3334,
      "ius": 3335,
      "▁tatt": 3336,
      "▁grace": 3337,
      "▁petroleum": 3338,
      "▁salt": 3339,
      "▁prompted": 3340,
      "iously": 3341,
      "▁af": 3342,
      "boy": 3343,
      "▁tennis": 3344,
      "▁basil": 3345,
      "▁float": 3346,
      "▁hesitate": 3347,
      "▁clothes": 3348,
      "▁servings": 3349,
      "▁shortly": 3350,
      "▁centuries": 3351,
      "▁regain": 3352,
      "▁books": 3353,
      "▁enemies": 3354,
      "tili": 3355,
      "▁substit": 3356,
      "▁manipulating": 3357,
      "▁dived": 3358,
      "▁consult": 3359,
      "▁existed": 3360,
      "ucker": 3361,
      "▁”": 3362,
      "▁moun": 3363,
      "▁helpful": 3364,
      "yc": 3365,
      "▁ld2d-": 3366,
      "pted": 3367,
      "▁countries": 3368,
      "▁featuring": 3369,
      "▁trouble": 3370,
      "wise": 3371,
      "▁lengths": 3372,
      "isal": 3373,
      "ental": 3374,
      "▁wink": 3375,
      ".p": 3376,
      "▁bachel": 3377,
      "▁alth": 3378,
      "▁actions": 3379,
      "▁tex": 3380,
      "tern": 3381,
      "▁whilst": 3382,
      "umber": 3383,
      "itates": 3384,
      "istr": 3385,
      "▁curr": 3386,
      "▁slid": 3387,
      "▁custom": 3388,
      "ucks": 3389,
      "ement": 3390,
      "eap": 3391,
      "iction": 3392,
      "rim": 3393,
      "▁collects": 3394,
      "▁term": 3395,
      "▁peak": 3396,
      "▁mm": 3397,
      "▁train": 3398,
      "▁hotel": 3399,
      "▁butter": 3400,
      ".co": 3401,
      "▁machines": 3402,
      "▁recovering": 3403,
      "arr": 3404,
      "▁dynam": 3405,
      "▁tugging": 3406,
      "▁rather": 3407,
      "▁i.e.": 3408,
      "▁mig": 3409,
      "▁expel": 3410,
      "h-": 3411,
      "ogh": 3412,
      "3": 3413,
      "▁conte": 3414,
      "▁protocol": 3415,
      "▁instructors": 3416,
      "er": 3417,
      "▁fishes": 3418,
      "▁criminals": 3419,
      "▁saved": 3420,
      "łod": 3421,
      "▁cropdusters": 3422,
      "hone": 3423,
      "▁avenue": 3424,
      "▁83n": 3425,
      "▁fleeing": 3426,
      "▁freely": 3427,
      "▁coordination": 3428,
      "44": 3429,
      "▁ice": 3430,
      "▁wang": 3431,
      "▁banging": 3432,
      "▁economies": 3433,
      "asel": 3434,
      "▁tro": 3435,
      "alg": 3436,
      "elped": 3437,
      "nesses": 3438,
      "▁techn": 3439,
      "▁carve": 3440,
      "ca": 3441,
      "▁themselves": 3442,
      "▁warming": 3443,
      "▁tal": 3444,
      "urance": 3445,
      "▁president": 3446,
      "▁'ve": 3447,
      "▁sudd": 3448,
      "▁diale": 3449,
      "▁blueberries": 3450,
      "▁dup": 3451,
      "▁duty": 3452,
      "▁strol": 3453,
      "▁ready": 3454,
      "▁contrast": 3455,
      "scrib": 3456,
      "▁chris": 3457,
      "▁tolerance": 3458,
      "tag": 3459,
      "▁alone": 3460,
      "▁handed": 3461,
      "▁spouting": 3462,
      "ole": 3463,
      "ora": 3464,
      "▁remembered": 3465,
      "▁offense": 3466,
      "▁tragicomed": 3467,
      "▁ignor": 3468,
      "▁muse": 3469,
      "▁doctr": 3470,
      "rets": 3471,
      "▁altern": 3472,
      "▁enron.xls": 3473,
      "rition": 3474,
      "▁crosses": 3475,
      "▁volume": 3476,
      "tur": 3477,
      "▁profile": 3478,
      "▁approximation": 3479,
      "osh": 3480,
      "▁deprived": 3481,
      "erm": 3482,
      "▁situated": 3483,
      "▁lacks": 3484,
      "vel": 3485,
      "und": 3486,
      "▁um": 3487,
      "▁coast": 3488,
      "▁ski": 3489,
      "▁faced": 3490,
      "▁cheat": 3491,
      "▁jigsaw": 3492,
      "▁imm": 3493,
      "▁task": 3494,
      "ologue": 3495,
      "▁innovations": 3496,
      "▁ostrich": 3497,
      "▁scrambled": 3498,
      "cessful": 3499,
      "▁exchange": 3500,
      "▁disagre": 3501,
      "▁saf": 3502,
      "▁portra": 3503,
      "▁nud": 3504,
      "ined": 3505,
      "▁military": 3506,
      "▁truly": 3507,
      "lightly": 3508,
      "▁getting": 3509,
      "“": 3510,
      "ify": 3511,
      "ialism": 3512,
      "▁bombing": 3513,
      "+room": 3514,
      "olog": 3515,
      "▁necks": 3516,
      "▁commentary": 3517,
      "ngth": 3518,
      "▁depending": 3519,
      "utions": 3520,
      "▁re-elected": 3521,
      "▁funerals": 3522,
      "▁dollars": 3523,
      "▁cour": 3524,
      "----------------": 3525,
      "▁conve": 3526,
      "▁rewards": 3527,
      "▁owned": 3528,
      "$t": 3529,
      "vened": 3530,
      "▁destinations": 3531,
      "▁doo": 3532,
      "▁volumes": 3533,
      "▁examination": 3534,
      "▁wipe": 3535,
      "ł": 3536,
      "▁bright": 3537,
      "▁elder": 3538,
      "atically": 3539,
      "vious": 3540,
      "▁associate": 3541,
      "▁dictionary": 3542,
      "▁sand": 3543,
      "▁observe": 3544,
      "▁teething": 3545,
      "▁distr": 3546,
      "▁say": 3547,
      "▁bands": 3548,
      "ovate": 3549,
      "▁heels": 3550,
      "ck": 3551,
      "▁lotos": 3552,
      ".c": 3553,
      "urch": 3554,
      "ification": 3555,
      "▁fulf": 3556,
      "▁approached": 3557,
      "40s": 3558,
      "▁bombed": 3559,
      "▁relations": 3560,
      "▁initiate": 3561,
      "▁elephants": 3562,
      "▁enri": 3563,
      "▁tickles": 3564,
      "thing": 3565,
      "cul": 3566,
      "▁ships": 3567,
      "enger": 3568,
      "lished": 3569,
      "▁trauma": 3570,
      "▁meals": 3571,
      "▁interrup": 3572,
      "iologist": 3573,
      "▁finances": 3574,
      "▁9": 3575,
      "▁philosopher": 3576,
      "▁supports": 3577,
      "ocating": 3578,
      "▁fork": 3579,
      "▁targ": 3580,
      "▁overflow": 3581,
      "▁%": 3582,
      "▁pea": 3583,
      "▁moral": 3584,
      "▁therefore": 3585,
      "▁llms": 3586,
      "▁e-mail": 3587,
      "lling": 3588,
      "▁matches": 3589,
      "▁pressures": 3590,
      "▁agric": 3591,
      "▁appreciation": 3592,
      ".n": 3593,
      "hy": 3594,
      "▁it's": 3595,
      "acts": 3596,
      "▁p.s": 3597,
      "▁blending": 3598,
      "▁ground": 3599,
      "▁royalist": 3600,
      "▁nt": 3601,
      "▁covered": 3602,
      "▁receive": 3603,
      "▁resolution": 3604,
      "▁approximately": 3605,
      "▁over": 3606,
      "▁emerging": 3607,
      "▁reality": 3608,
      "▁bridge": 3609,
      "ham": 3610,
      "▁phone": 3611,
      "▁science": 3612,
      "▁celeb": 3613,
      "oster": 3614,
      "▁reactions": 3615,
      "▁committed": 3616,
      "▁shop": 3617,
      "▁phoenix": 3618,
      "idly": 3619,
      "▁capt": 3620,
      "▁stone": 3621,
      "▁conquest": 3622,
      "▁bees": 3623,
      "▁dough": 3624,
      "▁monies": 3625,
      "▁pursued": 3626,
      "▁channe": 3627,
      "▁b&b": 3628,
      "▁municip": 3629,
      "ns": 3630,
      "▁acknowledging": 3631,
      "▁traveled": 3632,
      "▁spanish": 3633,
      "▁resolve": 3634,
      "▁mitchell": 3635,
      "▁entry": 3636,
      "▁pleasant": 3637,
      "▁heroes": 3638,
      "▁fraud": 3639,
      "links": 3640,
      "ersion": 3641,
      "▁kitt": 3642,
      "▁fund": 3643,
      "▁everything": 3644,
      "▁illustrate": 3645,
      "▁method": 3646,
      "▁ra": 3647,
      "▁engineering": 3648,
      "ails": 3649,
      "▁elbows": 3650,
      "'clock": 3651,
      "▁transporting": 3652,
      "▁boasts": 3653,
      "▁ex": 3654,
      "eav": 3655,
      "▁reconc": 3656,
      "▁dilem": 3657,
      "▁dissemination": 3658,
      "▁fre": 3659,
      "orth": 3660,
      "▁prep": 3661,
      "▁apprec": 3662,
      "▁adap": 3663,
      "▁enjoyment": 3664,
      "▁frustration": 3665,
      "hirts": 3666,
      "gies": 3667,
      "▁choke": 3668,
      "▁warn": 3669,
      "▁owl": 3670,
      "oy": 3671,
      "▁true": 3672,
      "atograph": 3673,
      "look": 3674,
      "▁including": 3675,
      "nation": 3676,
      "▁hero": 3677,
      "▁memories": 3678,
      "▁middle": 3679,
      "▁orange": 3680,
      "▁mic": 3681,
      "neath": 3682,
      "tuce": 3683,
      "▁realities": 3684,
      "▁weaponize": 3685,
      "▁travelling": 3686,
      "▁gates": 3687,
      "▁possess": 3688,
      "▁cottage": 3689,
      "▁superseding": 3690,
      "▁weakness": 3691,
      "▁pres": 3692,
      "aid": 3693,
      "alks": 3694,
      "▁quidditch": 3695,
      "▁somewhat": 3696,
      "▁instructed": 3697,
      "▁targeted": 3698,
      "eys": 3699,
      "▁cooperation": 3700,
      "▁love": 3701,
      "▁attach": 3702,
      "▁assortment": 3703,
      "▁llm": 3704,
      "▁eaten": 3705,
      "ething": 3706,
      "▁busy": 3707,
      "▁evidence": 3708,
      "▁white": 3709,
      "▁agency": 3710,
      "▁furnished": 3711,
      "jud": 3712,
      "▁fixtures": 3713,
      "▁compound": 3714,
      "▁chasers": 3715,
      "▁empty": 3716,
      "▁uvb": 3717,
      "▁expressed": 3718,
      "▁tugged": 3719,
      "mmed": 3720,
      "▁trousers": 3721,
      "▁males": 3722,
      "▁libraries": 3723,
      "▁kang": 3724,
      "erv": 3725,
      "▁identify": 3726,
      "▁kins": 3727,
      "▁cow": 3728,
      "▁pretended": 3729,
      "▁wednesdays": 3730,
      "oking": 3731,
      "▁7th": 3732,
      "▁tower": 3733,
      "friend": 3734,
      "▁racket": 3735,
      "isc": 3736,
      "▁trot": 3737,
      "▁compli": 3738,
      "bow": 3739,
      "▁amm": 3740,
      "▁seconds": 3741,
      "▁tam": 3742,
      "▁quack": 3743,
      "▁writed": 3744,
      "gings": 3745,
      "▁pride": 3746,
      "▁preorder": 3747,
      "▁specify": 3748,
      "▁posture": 3749,
      "▁offering": 3750,
      "aul": 3751,
      "▁doing": 3752,
      "▁driving": 3753,
      "▁ripping": 3754,
      "▁limous": 3755,
      "▁spre": 3756,
      "▁injustice": 3757,
      "▁sit": 3758,
      "▁gambling": 3759,
      "▁eczema": 3760,
      "▁meets": 3761,
      "▁quest": 3762,
      "▁7": 3763,
      "▁discomfort": 3764,
      "▁whiff": 3765,
      "chen": 3766,
      "▁audiobooks": 3767,
      "attle": 3768,
      "erview": 3769,
      "▁pimple": 3770,
      "▁alerts": 3771,
      "alization": 3772,
      "▁improvements": 3773,
      "▁approx": 3774,
      "▁cred": 3775,
      "▁fris": 3776,
      "▁climbing": 3777,
      "▁nap": 3778,
      "bees": 3779,
      "uations": 3780,
      "▁voices": 3781,
      "uum": 3782,
      "▁emitting": 3783,
      "▁importance": 3784,
      "▁interior": 3785,
      "rif": 3786,
      "▁proble": 3787,
      "ala": 3788,
      "▁dri": 3789,
      "▁voted": 3790,
      "▁posted": 3791,
      "▁daytime": 3792,
      "▁applies": 3793,
      "elag": 3794,
      "▁hotline": 3795,
      "pot": 3796,
      "▁deserves": 3797,
      "▁appreciate": 3798,
      "▁dope": 3799,
      "▁sale": 3800,
      "39": 3801,
      "ership": 3802,
      "▁commodity": 3803,
      "rie": 3804,
      "elly": 3805,
      "▁kilomet": 3806,
      "▁stressed": 3807,
      "▁restricted": 3808,
      "▁ruined": 3809,
      "▁interjection": 3810,
      "▁cuc": 3811,
      "ified": 3812,
      "eralize": 3813,
      "▁'re": 3814,
      "▁conjunction": 3815,
      "eline": 3816,
      "▁editing": 3817,
      "▁scaven": 3818,
      "▁regar": 3819,
      "▁orn": 3820,
      "▁knowledge": 3821,
      "▁moves": 3822,
      "▁barb": 3823,
      "▁miles": 3824,
      "▁entrep": 3825,
      "▁diseases": 3826,
      "▁represented": 3827,
      "▁nowhere": 3828,
      "▁e.g.": 3829,
      "▁kittens": 3830,
      "▁awesome": 3831,
      "▁probably": 3832,
      "oala": 3833,
      "▁personal": 3834,
      "▁adopt": 3835,
      "▁wakes": 3836,
      "▁drizz": 3837,
      "▁indignation": 3838,
      "▁density": 3839,
      "▁emer": 3840,
      "▁num": 3841,
      "mar": 3842,
      "▁deal": 3843,
      "▁fail": 3844,
      "▁conde": 3845,
      "▁tourism": 3846,
      "▁hiring": 3847,
      "▁spots": 3848,
      "▁flood": 3849,
      "load": 3850,
      "▁records": 3851,
      "▁anyway": 3852,
      "▁itinerary": 3853,
      "tte": 3854,
      "▁ashes": 3855,
      "▁handles": 3856,
      "~": 3857,
      "▁lots": 3858,
      "▁belly": 3859,
      "▁corpor": 3860,
      "▁broker": 3861,
      "goti": 3862,
      "▁shuff": 3863,
      "tity": 3864,
      "▁missing": 3865,
      "▁pressure": 3866,
      "▁4": 3867,
      "▁calls": 3868,
      "▁identifies": 3869,
      "▁flooded": 3870,
      "****": 3871,
      "eling": 3872,
      "▁entered": 3873,
      "▁fair": 3874,
      "▁attacks": 3875,
      "▁satel": 3876,
      "▁admin": 3877,
      "▁specializing": 3878,
      "▁first": 3879,
      "▁notwithstanding": 3880,
      "▁sel": 3881,
      "▁dried": 3882,
      "ana": 3883,
      "▁pyth": 3884,
      "▁represent": 3885,
      "▁credited": 3886,
      "▁alig": 3887,
      "▁citizens": 3888,
      "▁reporting": 3889,
      "▁racking": 3890,
      "▁tiss": 3891,
      "cularly": 3892,
      "makers": 3893,
      "orities": 3894,
      "▁ship": 3895,
      "▁nursery": 3896,
      "▁urging": 3897,
      "tsbur": 3898,
      "obyl": 3899,
      "rolled": 3900,
      "▁drills": 3901,
      "ery": 3902,
      "els": 3903,
      "inny": 3904,
      "▁clue": 3905,
      "▁departing": 3906,
      "▁jo": 3907,
      "unct": 3908,
      "▁comple": 3909,
      "▁looked": 3910,
      "▁humanity": 3911,
      "▁gath": 3912,
      "butz": 3913,
      "ffective": 3914,
      "▁harp": 3915,
      "dened": 3916,
      "▁suck": 3917,
      "▁pipeline": 3918,
      "▁theat": 3919,
      "▁southeast": 3920,
      "▁comp.sources.unix": 3921,
      "▁wasting": 3922,
      "lections": 3923,
      "eaker": 3924,
      "ritis": 3925,
      "ctions": 3926,
      "▁interviewed": 3927,
      "adel": 3928,
      "▁mayonna": 3929,
      "▁operations": 3930,
      "▁bou": 3931,
      "▁were": 3932,
      "▁coincidence": 3933,
      "▁confused": 3934,
      "▁wellbeing": 3935,
      "▁persistence": 3936,
      "▁pickle": 3937,
      "char": 3938,
      "ger": 3939,
      "▁class": 3940,
      "▁completely": 3941,
      "crib": 3942,
      "▁cabinet": 3943,
      "▁undermine": 3944,
      "▁:": 3945,
      "issions": 3946,
      "▁damaged": 3947,
      "▁unfold": 3948,
      "unction": 3949,
      "▁canopy": 3950,
      "▁comp.s": 3951,
      "▁s&": 3952,
      "▁sto": 3953,
      "iked": 3954,
      "ruptc": 3955,
      "▁alert": 3956,
      "▁gle": 3957,
      "▁joint": 3958,
      "piles": 3959,
      "▁linguistics": 3960,
      "▁avoiding": 3961,
      "bone": 3962,
      "▁strut": 3963,
      "enity": 3964,
      "emen": 3965,
      "▁nuisance": 3966,
      "▁controversy": 3967,
      "▁about": 3968,
      "▁ancest": 3969,
      "▁election": 3970,
      "▁beaches": 3971,
      "▁spind": 3972,
      "ros": 3973,
      "<": 3974,
      "ost": 3975,
      "ew": 3976,
      "▁gon": 3977,
      "▁range": 3978,
      "▁signature": 3979,
      "▁reservations": 3980,
      "▁proced": 3981,
      "ghted": 3982,
      "▁popup": 3983,
      "▁pix": 3984,
      "▁went": 3985,
      "▁seg": 3986,
      "▁evolve": 3987,
      "▁relics": 3988,
      "▁hamp": 3989,
      "▁langu": 3990,
      "▁potential": 3991,
      "▁comfor": 3992,
      "▁loun": 3993,
      "????": 3994,
      "tors": 3995,
      "▁tears": 3996,
      "▁fruit": 3997,
      "tein": 3998,
      "▁baker": 3999,
      "ujah": 4000,
      "g.": 4001,
      "▁bum": 4002,
      "▁months": 4003,
      "▁charlie": 4004,
      "▁fer": 4005,
      "aca": 4006,
      "▁seamst": 4007,
      "inges": 4008,
      "▁occasions": 4009,
      "▁publicly": 4010,
      "▁width": 4011,
      "▁demonstration": 4012,
      "▁alt.animals.cat": 4013,
      "▁displacement": 4014,
      "▁abroad": 4015,
      "▁scand": 4016,
      "▁-----": 4017,
      "▁dots": 4018,
      "▁childcare": 4019,
      "▁authorship": 4020,
      "▁bookstore": 4021,
      "▁soon": 4022,
      "▁aer": 4023,
      "rops": 4024,
      "rities": 4025,
      "▁explan": 4026,
      "▁reinforcing": 4027,
      "▁stress": 4028,
      "▁slept": 4029,
      "▁weakening": 4030,
      "▁rally": 4031,
      "▁auster": 4032,
      "▁respecting": 4033,
      "▁paris": 4034,
      "▁mineral": 4035,
      "-en": 4036,
      "▁patients": 4037,
      "▁landed": 4038,
      "▁feels": 4039,
      "agraph": 4040,
      "text": 4041,
      "▁kidding": 4042,
      "▁requirement": 4043,
      "▁i.e": 4044,
      "▁drafting": 4045,
      "▁cara": 4046,
      "etic": 4047,
      "▁screams": 4048,
      "▁influx": 4049,
      "lan": 4050,
      "aments": 4051,
      "▁twentieth": 4052,
      "▁rescue": 4053,
      "▁autobiography": 4054,
      "▁silver": 4055,
      "▁places": 4056,
      "▁warhol": 4057,
      "erings": 4058,
      "ously": 4059,
      "▁hoc": 4060,
      "arks": 4061,
      "(s)": 4062,
      "▁staring": 4063,
      "▁triumph": 4064,
      "▁neighbourhood": 4065,
      "▁nothing": 4066,
      "▁constit": 4067,
      "placement": 4068,
      "▁wednesday": 4069,
      "ema": 4070,
      "22": 4071,
      "▁yoy": 4072,
      "▁ranked": 4073,
      "▁behind": 4074,
      "▁fish": 4075,
      "▁tax": 4076,
      "▁killers": 4077,
      "liness": 4078,
      "▁ide": 4079,
      "▁explode": 4080,
      "med": 4081,
      "▁factory": 4082,
      "▁ones": 4083,
      "onym": 4084,
      "▁dependency": 4085,
      "▁05": 4086,
      "chant": 4087,
      "▁inversion": 4088,
      "▁compel": 4089,
      "ights": 4090,
      "▁era": 4091,
      "▁jer": 4092,
      "▁families": 4093,
      "▁crab": 4094,
      "▁allocated": 4095,
      "▁restri": 4096,
      "gery": 4097,
      "▁composed": 4098,
      "▁build": 4099,
      "▁consc": 4100,
      "iented": 4101,
      "uddled": 4102,
      "angut": 4103,
      "▁obsc": 4104,
      "y0": 4105,
      "▁smile": 4106,
      "▁favorites": 4107,
      "▁clothespin": 4108,
      "under": 4109,
      "▁dav": 4110,
      "vailable": 4111,
      "▁concre": 4112,
      "▁hospitality": 4113,
      "▁fasc": 4114,
      "▁ancestors": 4115,
      "▁crushed": 4116,
      "▁octopus": 4117,
      "▁commons": 4118,
      "▁regarded": 4119,
      "▁drank": 4120,
      "hension": 4121,
      "▁lips": 4122,
      "▁turkey": 4123,
      "▁dock": 4124,
      "eness": 4125,
      "▁cali": 4126,
      "phie": 4127,
      "ended": 4128,
      "acted": 4129,
      "▁labour": 4130,
      "▁assuming": 4131,
      "▁revealed": 4132,
      "▁directors": 4133,
      "▁falls": 4134,
      "▁librarians": 4135,
      "▁tug": 4136,
      "▁20s": 4137,
      "▁developer": 4138,
      "▁court": 4139,
      "▁sett": 4140,
      "▁involving": 4141,
      "ish": 4142,
      "▁hash": 4143,
      "▁23": 4144,
      "ograph": 4145,
      "▁struggle": 4146,
      "ophobia": 4147,
      "▁soybean": 4148,
      "▁edges": 4149,
      "▁fps": 4150,
      "▁capitalism": 4151,
      "▁aspirations": 4152,
      "ld": 4153,
      "▁bitsy": 4154,
      "ency": 4155,
      "▁extending": 4156,
      "isl": 4157,
      "*": 4158,
      "gging": 4159,
      "▁mba": 4160,
      "▁stif": 4161,
      "▁insurg": 4162,
      "▁face": 4163,
      "▁finish": 4164,
      "▁upd": 4165,
      "▁no": 4166,
      "oung": 4167,
      "▁stair": 4168,
      "▁symphony": 4169,
      ".s": 4170,
      "lips": 4171,
      "hood": 4172,
      "▁sust": 4173,
      "▁disli": 4174,
      "▁talking": 4175,
      "▁panting": 4176,
      "▁recieve": 4177,
      "anized": 4178,
      ".v": 4179,
      "ors": 4180,
      "▁headache": 4181,
      "▁harmonica": 4182,
      "▁mention": 4183,
      "▁mam": 4184,
      "▁been": 4185,
      "▁occurrence": 4186,
      "▁swap": 4187,
      "▁&am": 4188,
      "▁caff": 4189,
      "▁mul": 4190,
      "▁mode": 4191,
      "ex": 4192,
      "▁enchil": 4193,
      "▁earthqu": 4194,
      "cott": 4195,
      "▁predict": 4196,
      "▁jurisdiction": 4197,
      "▁insisted": 4198,
      "▁justify": 4199,
      "▁curs": 4200,
      "▁masterpieces": 4201,
      "▁waste": 4202,
      "▁organisations": 4203,
      "▁dep": 4204,
      "▁income": 4205,
      "▁tr": 4206,
      "▁snatched": 4207,
      "laim": 4208,
      "tyard": 4209,
      "▁dilemmas": 4210,
      "-3": 4211,
      "▁performing": 4212,
      "▁stones": 4213,
      "▁kick": 4214,
      "▁confirmed": 4215,
      "▁novella": 4216,
      "▁crude": 4217,
      "▁washed": 4218,
      "▁heavy": 4219,
      "▁putted": 4220,
      "▁oper": 4221,
      "▁puzzle": 4222,
      "▁chu": 4223,
      "ini": 4224,
      "uled": 4225,
      "▁wave": 4226,
      "▁told": 4227,
      "▁pizza": 4228,
      "▁prere": 4229,
      "titions": 4230,
      "▁oils": 4231,
      "▁opportun": 4232,
      "▁sequence": 4233,
      "▁whales": 4234,
      "▁fuse": 4235,
      "▁caused": 4236,
      "▁situations": 4237,
      "▁tai": 4238,
      "▁trigg": 4239,
      "▁underst": 4240,
      "▁decree": 4241,
      "▁philosophy": 4242,
      "▁mant": 4243,
      "▁dynamics": 4244,
      "capes": 4245,
      "▁tog": 4246,
      "itt": 4247,
      "lee": 4248,
      "▁arriving": 4249,
      "▁farrier": 4250,
      "▁assessed": 4251,
      "▁visitor": 4252,
      "unition": 4253,
      "▁sid": 4254,
      "▁dinner": 4255,
      "▁solem": 4256,
      "▁artworks": 4257,
      "▁mapping": 4258,
      "▁comprom": 4259,
      "osm": 4260,
      "band": 4261,
      "▁suppressed": 4262,
      "▁hailed": 4263,
      "ober": 4264,
      "▁summ": 4265,
      "▁ridic": 4266,
      "▁puppy": 4267,
      "▁two": 4268,
      "▁i": 4269,
      "▁dando": 4270,
      "pite": 4271,
      "▁ltte": 4272,
      "aly": 4273,
      "▁incen": 4274,
      "inating": 4275,
      "ave": 4276,
      "▁nip": 4277,
      "iac": 4278,
      "idate": 4279,
      "ascience": 4280,
      "▁trav": 4281,
      "▁suggestions": 4282,
      "▁cham": 4283,
      "▁1991": 4284,
      "▁landlord": 4285,
      "▁extent": 4286,
      "▁dand": 4287,
      "▁shepherd": 4288,
      "▁recognised": 4289,
      "liflower": 4290,
      "▁binoculars": 4291,
      "rors": 4292,
      "[MASK]": 4293,
      "▁repaid": 4294,
      "▁pall": 4295,
      "▁artworld": 4296,
      "▁finger": 4297,
      "onic": 4298,
      "▁timed": 4299,
      "▁smeared": 4300,
      "ese": 4301,
      "▁tel": 4302,
      "alc": 4303,
      "▁plastic": 4304,
      "▁qaeda": 4305,
      "▁mh": 4306,
      "▁fixing": 4307,
      "-cre": 4308,
      "▁suspension": 4309,
      "uz": 4310,
      "▁mort": 4311,
      "0s": 4312,
      "▁endeavor": 4313,
      "▁milk": 4314,
      "▁laptops": 4315,
      "▁doubt": 4316,
      "▁stakes": 4317,
      "▁poems": 4318,
      "▁excl": 4319,
      "▁studio": 4320,
      "▁warranty": 4321,
      "▁headline": 4322,
      "▁says": 4323,
      "▁buyer": 4324,
      "▁violating": 4325,
      "▁orphan": 4326,
      "▁mug": 4327,
      "▁efficient": 4328,
      "ruption": 4329,
      "▁cold": 4330,
      "ousness": 4331,
      "▁detained": 4332,
      "▁cherished": 4333,
      "adm": 4334,
      "▁teachers": 4335,
      "ilar": 4336,
      "▁ome": 4337,
      "▁rise": 4338,
      "▁confidentiality": 4339,
      "ity": 4340,
      "▁jihadis": 4341,
      "▁derived": 4342,
      "thers": 4343,
      "▁scrap": 4344,
      "▁hairs": 4345,
      "▁topper": 4346,
      "▁oink": 4347,
      "▁dispatch": 4348,
      "▁shops": 4349,
      "▁outcom": 4350,
      "ication": 4351,
      "▁medicine": 4352,
      "▁gang": 4353,
      "▁progression": 4354,
      "▁oli": 4355,
      "▁tou": 4356,
      "eeds": 4357,
      "▁artich": 4358,
      "▁sixth": 4359,
      "eng": 4360,
      "▁tolerate": 4361,
      "uis": 4362,
      "inter": 4363,
      "cre": 4364,
      "ization": 4365,
      "▁overcome": 4366,
      "▁dime": 4367,
      "cl": 4368,
      "▁oatmeal": 4369,
      "▁olds": 4370,
      "▁menu": 4371,
      "oods": 4372,
      "▁sky": 4373,
      "▁acquire": 4374,
      "▁gogg": 4375,
      "▁good": 4376,
      "inery": 4377,
      "▁announcing": 4378,
      "▁dialing": 4379,
      "zac": 4380,
      "▁rattled": 4381,
      "▁daughter": 4382,
      "▁coali": 4383,
      "▁deteriorated": 4384,
      "▁anthrax": 4385,
      "▁sweater": 4386,
      "▁pregnancy": 4387,
      "-1.doc": 4388,
      "▁porch": 4389,
      "▁displays": 4390,
      "wit": 4391,
      "▁roared": 4392,
      "▁tankers": 4393,
      "ress": 4394,
      "▁cost": 4395,
      "vements": 4396,
      "▁institution": 4397,
      "▁[...]": 4398,
      "aggeration": 4399,
      "▁observing": 4400,
      "ilosoph": 4401,
      "▁inno": 4402,
      "omination": 4403,
      "▁bulb": 4404,
      "itch": 4405,
      "▁forest": 4406,
      "▁africa": 4407,
      "xic": 4408,
      "▁justification": 4409,
      "▁volati": 4410,
      "▁moaned": 4411,
      "ield": 4412,
      "▁kibbutz": 4413,
      "▁spine": 4414,
      "holes": 4415,
      "▁console": 4416,
      "▁conscience": 4417,
      "'et": 4418,
      "▁applic": 4419,
      "▁count": 4420,
      "▁play+": 4421,
      "▁09": 4422,
      "ful": 4423,
      "▁associations": 4424,
      "▁follow": 4425,
      "▁doggie": 4426,
      "▁explains": 4427,
      "▁makes": 4428,
      "▁tin": 4429,
      "▁sig": 4430,
      "▁wreck": 4431,
      "bs": 4432,
      "▁astronauts": 4433,
      "▁promises": 4434,
      "▁roam": 4435,
      "▁draping": 4436,
      "▁eff": 4437,
      "▁treaties": 4438,
      "lication": 4439,
      "▁explaining": 4440,
      "lled": 4441,
      "▁gloves": 4442,
      "▁guil": 4443,
      "▁drawer": 4444,
      "▁alleg": 4445,
      "aties": 4446,
      "70": 4447,
      "olerance": 4448,
      "▁physician": 4449,
      "▁mass": 4450,
      "ney": 4451,
      "ecks": 4452,
      "▁parade": 4453,
      "▁miami": 4454,
      "▁heaven": 4455,
      "▁colonies": 4456,
      "▁creative": 4457,
      "▁alligator": 4458,
      "faction": 4459,
      "▁willingness": 4460,
      "▁it": 4461,
      "▁game": 4462,
      "▁fuzz": 4463,
      "▁physi": 4464,
      "gulation": 4465,
      "▁ben": 4466,
      "▁stirring": 4467,
      "▁hu": 4468,
      "whether": 4469,
      "▁infinity": 4470,
      "▁invite": 4471,
      "▁du": 4472,
      "▁cash": 4473,
      "▁requiring": 4474,
      "▁nat": 4475,
      "tile": 4476,
      "▁misery": 4477,
      "▁scen": 4478,
      "▁extinction": 4479,
      "ieties": 4480,
      "ta": 4481,
      "▁furn": 4482,
      "able": 4483,
      "bol": 4484,
      "-d": 4485,
      "ece": 4486,
      "sically": 4487,
      "▁taper": 4488,
      "cin": 4489,
      "▁schedules": 4490,
      "iel": 4491,
      "▁commentators": 4492,
      "▁resul": 4493,
      "▁larg": 4494,
      "▁fourth": 4495,
      "▁package": 4496,
      "▁hanging": 4497,
      "▁considerations": 4498,
      "▁classroom": 4499,
      "▁increase": 4500,
      "▁quick": 4501,
      "ia": 4502,
      "olunte": 4503,
      "ance": 4504,
      "▁disperse": 4505,
      "▁cigar": 4506,
      "copes": 4507,
      "▁tim": 4508,
      "me": 4509,
      "▁william": 4510,
      "inging": 4511,
      "▁buffet": 4512,
      "▁acquis": 4513,
      "iron": 4514,
      "▁wounded": 4515,
      "▁mom": 4516,
      "▁compensate": 4517,
      "▁floor": 4518,
      "▁pool": 4519,
      "▁thousand": 4520,
      "itled": 4521,
      "▁spear": 4522,
      "▁priorities": 4523,
      "▁judges": 4524,
      "▁sour": 4525,
      "▁pencils": 4526,
      "▁inh": 4527,
      "▁cigarettes": 4528,
      "▁bend": 4529,
      "▁context": 4530,
      "▁attacking": 4531,
      "▁cooker": 4532,
      "▁prote": 4533,
      "▁fluid": 4534,
      "▁bladder": 4535,
      "eet": 4536,
      "▁thumb": 4537,
      "▁mit": 4538,
      "▁prop": 4539,
      "op": 4540,
      "▁identifying": 4541,
      "asp": 4542,
      "▁sentence": 4543,
      "▁everywhere": 4544,
      "▁extend": 4545,
      "▁bounded": 4546,
      "▁extremist": 4547,
      "ertainly": 4548,
      "ings": 4549,
      "▁cat": 4550,
      "▁lions": 4551,
      "▁styling": 4552,
      "▁’d": 4553,
      "ix": 4554,
      "▁sleeves": 4555,
      "▁surren": 4556,
      "▁speech": 4557,
      "rows": 4558,
      "▁regions": 4559,
      "ondad": 4560,
      "▁dang": 4561,
      "andon": 4562,
      "▁achieving": 4563,
      "▁swear": 4564,
      "▁bumble": 4565,
      "owl": 4566,
      "▁governing": 4567,
      "▁ate": 4568,
      "▁infected": 4569,
      "yn": 4570,
      "▁liabilities": 4571,
      "▁chin": 4572,
      "▁permission": 4573,
      "▁coupons": 4574,
      "▁gcp": 4575,
      "oxide": 4576,
      "veland": 4577,
      "▁jam": 4578,
      "hus": 4579,
      "rup": 4580,
      "▁com": 4581,
      "▁mornings": 4582,
      "ulse": 4583,
      "▁regarding": 4584,
      "▁fighting": 4585,
      "rid": 4586,
      "▁defense": 4587,
      "▁mines": 4588,
      "▁recommending": 4589,
      "▁gown": 4590,
      "rou": 4591,
      "▁pretend": 4592,
      "▁submit": 4593,
      "▁placement": 4594,
      "▁mark": 4595,
      "▁inhabitants": 4596,
      "▁raising": 4597,
      "right": 4598,
      "▁liked": 4599,
      "▁impl": 4600,
      "▁friendship": 4601,
      "▁oversight": 4602,
      "▁resentment": 4603,
      "▁discussed": 4604,
      "▁weather": 4605,
      "▁introduc": 4606,
      "▁bray": 4607,
      "▁marx": 4608,
      "▁sun": 4609,
      "▁computing": 4610,
      "▁ju": 4611,
      "usion": 4612,
      "eres": 4613,
      "▁guid": 4614,
      "sul": 4615,
      "▁taping": 4616,
      "▁bang": 4617,
      "▁move": 4618,
      "▁dealing": 4619,
      "-": 4620,
      "▁never": 4621,
      "▁arrives": 4622,
      "otive": 4623,
      "▁lisa": 4624,
      "▁laughs": 4625,
      "▁abstract": 4626,
      "ina": 4627,
      "alling": 4628,
      "▁lasting": 4629,
      "▁manuscript": 4630,
      "▁watch": 4631,
      "▁quite": 4632,
      "phis": 4633,
      "▁compiling": 4634,
      "▁tv": 4635,
      "▁hey": 4636,
      "▁lec": 4637,
      "ww": 4638,
      "▁administr": 4639,
      "▁beings": 4640,
      "▁ru": 4641,
      "▁chec": 4642,
      "▁forwarded": 4643,
      "urning": 4644,
      "cend": 4645,
      "▁collection": 4646,
      "▁jih": 4647,
      "flower": 4648,
      "ur": 4649,
      "▁le": 4650,
      "▁champagne": 4651,
      "▁everyone": 4652,
      "▁deny": 4653,
      "ateral": 4654,
      "eared": 4655,
      "▁our": 4656,
      "▁kung": 4657,
      "▁accounting": 4658,
      "orec": 4659,
      "▁blaming": 4660,
      "▁awarded": 4661,
      "▁framed": 4662,
      "▁meowing": 4663,
      "▁contam": 4664,
      "lane": 4665,
      "▁danced": 4666,
      "yi": 4667,
      "▁install": 4668,
      "▁delivering": 4669,
      "▁glu": 4670,
      "▁recommended": 4671,
      "▁foreign": 4672,
      "▁infr": 4673,
      "▁leadership": 4674,
      "▁present": 4675,
      "▁nailed": 4676,
      "▁20": 4677,
      "▁appro": 4678,
      "48": 4679,
      "▁duckies": 4680,
      "▁coat": 4681,
      "▁relevant": 4682,
      "▁movements": 4683,
      "▁nuts": 4684,
      "▁citi": 4685,
      "ens": 4686,
      "ef": 4687,
      "ingly": 4688,
      "ock": 4689,
      "▁lawsuit": 4690,
      "▁sunb": 4691,
      "▁tapering": 4692,
      "907": 4693,
      "▁political": 4694,
      "▁hun": 4695,
      "▁horsesho": 4696,
      "▁signing": 4697,
      "low": 4698,
      "ighed": 4699,
      "▁complaint": 4700,
      "▁champ": 4701,
      "▁epistem": 4702,
      "▁worksh": 4703,
      "▁waiver": 4704,
      "▁markers": 4705,
      "'": 4706,
      "▁malf": 4707,
      ".g.": 4708,
      "▁flu": 4709,
      "▁dollar": 4710,
      "▁heavens": 4711,
      "terations": 4712,
      "ressing": 4713,
      "▁deficit": 4714,
      "▁protects": 4715,
      "▁parish": 4716,
      "▁stars": 4717,
      "▁waterways": 4718,
      "vely": 4719,
      "▁souls": 4720,
      "▁chand": 4721,
      "hu": 4722,
      "▁": 4723,
      "▁macaroni": 4724,
      "inent": 4725,
      "▁buttons": 4726,
      "eously": 4727,
      "▁jwww": 4728,
      "▁ang": 4729,
      "▁ax": 4730,
      "▁anem": 4731,
      "▁interviews": 4732,
      "▁displaying": 4733,
      "iki": 4734,
      "▁argue": 4735,
      "urr": 4736,
      "▁genres": 4737,
      "▁redesigning": 4738,
      "▁comparing": 4739,
      "▁rubber": 4740,
      "atches": 4741,
      "▁logo": 4742,
      "agie": 4743,
      "▁chlor": 4744,
      "▁envir": 4745,
      "▁arranging": 4746,
      "▁fast": 4747,
      "inated": 4748,
      "ythm": 4749,
      "gal": 4750,
      "▁drives": 4751,
      "bernation": 4752,
      "▁tonight": 4753,
      "▁salesman": 4754,
      "▁badly": 4755,
      "one": 4756,
      "▁step": 4757,
      "▁leave": 4758,
      "▁intriguing": 4759,
      "ffic": 4760,
      "▁alphabets": 4761,
      "▁theories": 4762,
      "▁monsters": 4763,
      "▁refineries": 4764,
      "▁permitted": 4765,
      "▁cursor": 4766,
      "▁iss": 4767,
      "▁collaborated": 4768,
      "▁allowance": 4769,
      "▁trunks": 4770,
      "▁swimming": 4771,
      "▁messing": 4772,
      "▁naturalist": 4773,
      "▁unders": 4774,
      "▁microscope": 4775,
      "ashes": 4776,
      "▁fuck": 4777,
      "asionally": 4778,
      "▁spreadsheet": 4779,
      "▁civil": 4780,
      "▁side": 4781,
      "▁aggregate": 4782,
      "▁allig": 4783,
      "inence": 4784,
      "▁behalf": 4785,
      "▁wondered": 4786,
      "▁plight": 4787,
      "▁refri": 4788,
      "▁tighten": 4789,
      "▁grade": 4790,
      "▁tame": 4791,
      "ian": 4792,
      "▁bite": 4793,
      "▁counting": 4794,
      "eriff": 4795,
      "▁bef": 4796,
      "▁selected": 4797,
      "▁cleaned": 4798,
      "oul": 4799,
      "▁hole": 4800,
      "▁evenings": 4801,
      "▁pretense": 4802,
      "▁hire": 4803,
      "▁affairs": 4804,
      "▁paddistocks": 4805,
      "nce": 4806,
      "▁necessary": 4807,
      "▁bloo": 4808,
      "▁concur": 4809,
      "▁theropods": 4810,
      "▁bench": 4811,
      "▁cal": 4812,
      "▁commanders": 4813,
      "▁relationship": 4814,
      "▁referendum": 4815,
      "▁palet": 4816,
      "ican": 4817,
      "▁guessed": 4818,
      "friends": 4819,
      "▁sixties": 4820,
      "▁ab": 4821,
      "▁mas": 4822,
      "▁audience": 4823,
      "avery": 4824,
      "▁cop": 4825,
      "▁extr": 4826,
      "▁univer": 4827,
      "▁c": 4828,
      "fu": 4829,
      "▁exp": 4830,
      "▁cookie": 4831,
      "▁vio": 4832,
      "▁tur": 4833,
      "▁responded": 4834,
      "uc": 4835,
      "▁threatening": 4836,
      "▁returned": 4837,
      "ister": 4838,
      "▁guar": 4839,
      "▁dall": 4840,
      "▁miti": 4841,
      "he": 4842,
      "▁eggy": 4843,
      "▁speaking": 4844,
      "▁s-": 4845,
      "▁gel": 4846,
      "▁speakers": 4847,
      "▁basic": 4848,
      "▁provided": 4849,
      "worms": 4850,
      "▁unloading": 4851,
      "uality": 4852,
      "▁howled": 4853,
      "▁conformity": 4854,
      "▁rid": 4855,
      "▁birth": 4856,
      "▁taught": 4857,
      "▁manip": 4858,
      "▁welcome": 4859,
      "imum": 4860,
      "▁shark": 4861,
      "▁debts": 4862,
      "▁downtown": 4863,
      "▁zone": 4864,
      "utation": 4865,
      "▁gear": 4866,
      "▁ins": 4867,
      "alation": 4868,
      "▁welfare": 4869,
      "▁remnants": 4870,
      "▁disney": 4871,
      "▁extremely": 4872,
      "oys": 4873,
      "(count": 4874,
      "▁what": 4875,
      "▁av": 4876,
      "▁pyramid": 4877,
      "itge": 4878,
      "loying": 4879,
      "▁noise": 4880,
      "▁corruption": 4881,
      "inals": 4882,
      "▁warranties": 4883,
      "▁calories": 4884,
      "▁window": 4885,
      "▁experim": 4886,
      "▁becom": 4887,
      "ansas": 4888,
      "ak": 4889,
      "don": 4890,
      "▁overt": 4891,
      ".st": 4892,
      "▁nation": 4893,
      "▁met": 4894,
      "▁heritage": 4895,
      "▁marginalized": 4896,
      "▁camel": 4897,
      "▁eating": 4898,
      "????????????????": 4899,
      "aponize": 4900,
      "inction": 4901,
      "▁begin": 4902,
      "oof": 4903,
      "▁dot": 4904,
      "▁crosstab": 4905,
      "▁overal": 4906,
      "▁m": 4907,
      "vity": 4908,
      "▁licked": 4909,
      "▁essay": 4910,
      "▁sque": 4911,
      "▁glo": 4912,
      "▁leon": 4913,
      "▁complications": 4914,
      "▁obstacles": 4915,
      "▁failed": 4916,
      "▁brig": 4917,
      "▁handker": 4918,
      "dering": 4919,
      "▁merrygoround": 4920,
      "ict": 4921,
      "▁pact": 4922,
      "power": 4923,
      "▁distractions": 4924,
      "▁shortage": 4925,
      "▁friendly": 4926,
      "▁tens": 4927,
      "▁emotion": 4928,
      "▁thinks": 4929,
      "fficient": 4930,
      "▁disob": 4931,
      "▁crash": 4932,
      "▁modernity": 4933,
      "▁perspectives": 4934,
      "▁rim": 4935,
      "▁measures": 4936,
      "▁ports": 4937,
      "ods": 4938,
      "▁lantern": 4939,
      "ientific": 4940,
      "ption": 4941,
      "▁theirs": 4942,
      "▁201": 4943,
      "▁novel": 4944,
      "▁collec": 4945,
      "▁opt": 4946,
      "▁umbrella": 4947,
      "au": 4948,
      "▁int": 4949,
      "resp": 4950,
      "▁80": 4951,
      "▁revol": 4952,
      "▁magic": 4953,
      "hh": 4954,
      "▁alongside": 4955,
      "▁pled": 4956,
      "ili": 4957,
      "▁funny": 4958,
      "▁becoming": 4959,
      "uised": 4960,
      "▁week": 4961,
      "▁mystery": 4962,
      "omatically": 4963,
      "▁agent": 4964,
      "▁loans": 4965,
      "▁blink": 4966,
      "▁browser": 4967,
      "▁parents": 4968,
      "iol": 4969,
      "▁witnessed": 4970,
      "▁stagg": 4971,
      "ception": 4972,
      "▁por": 4973,
      "where": 4974,
      "▁blanket": 4975,
      "▁battle": 4976,
      "istem": 4977,
      "▁openness": 4978,
      "▁atop": 4979,
      "▁realized": 4980,
      "▁clan": 4981,
      "pes": 4982,
      "▁mild": 4983,
      "▁correct": 4984,
      "▁bone": 4985,
      "▁artwork": 4986,
      "▁download": 4987,
      "▁third": 4988,
      "▁gains": 4989,
      "▁sponge": 4990,
      "▁defended": 4991,
      "unes": 4992,
      "▁automobile": 4993,
      "▁perhap": 4994,
      "▁eye": 4995,
      "▁puppets": 4996,
      "▁flashing": 4997,
      "▁illusions": 4998,
      "▁wrec": 4999,
      "▁mosquito": 5000,
      "ship": 5001,
      "▁strip": 5002,
      "-up": 5003,
      "▁convenience": 5004,
      "dents": 5005,
      "hib": 5006,
      "▁individuals": 5007,
      "▁appliances": 5008,
      "▁remainder": 5009,
      "▁cherry": 5010,
      "▁highlighted": 5011,
      "oyment": 5012,
      "▁x33": 5013,
      "▁comparisons": 5014,
      "▁st": 5015,
      "▁attendance": 5016,
      "▁oxy": 5017,
      "weight": 5018,
      "▁invented": 5019,
      "▁serve": 5020,
      "▁include": 5021,
      "▁loyalty": 5022,
      "▁jelly": 5023,
      "▁indian": 5024,
      "ighth": 5025,
      "▁vend": 5026,
      "▁es": 5027,
      "▁stretching": 5028,
      "▁ree": 5029,
      "▁ages": 5030,
      "▁pulled": 5031,
      "inct": 5032,
      "▁ruler": 5033,
      "▁clerks": 5034,
      "▁frequent": 5035,
      "▁ranges": 5036,
      "▁researchers": 5037,
      "▁input": 5038,
      "▁grinning": 5039,
      "alizing": 5040,
      "▁sings": 5041,
      "▁discovery": 5042,
      "▁experiment": 5043,
      "ø": 5044,
      "▁recognition": 5045,
      "ore": 5046,
      "▁ideals": 5047,
      "▁butterflies": 5048,
      "▁presence": 5049,
      "▁collaborate": 5050,
      "▁depos": 5051,
      "irst": 5052,
      "icantly": 5053,
      "**": 5054,
      "▁during": 5055,
      "▁journalist": 5056,
      "▁dentist": 5057,
      "▁mercy": 5058,
      "vening": 5059,
      "nity": 5060,
      "▁crieth": 5061,
      "bb": 5062,
      "▁nope": 5063,
      "tives": 5064,
      "▁turnout": 5065,
      "jecting": 5066,
      "▁rails": 5067,
      "▁screw": 5068,
      "▁anoth": 5069,
      "▁rapporte": 5070,
      "▁upload": 5071,
      "▁guarantee": 5072,
      "pill": 5073,
      "▁cornfl": 5074,
      "ortions": 5075,
      "▁mentality": 5076,
      "▁steps": 5077,
      "▁bridges": 5078,
      "▁salon": 5079,
      "▁sworn": 5080,
      "-1": 5081,
      "▁change": 5082,
      "earance": 5083,
      "▁thrift": 5084,
      "▁retiring": 5085,
      "▁banan": 5086,
      "▁altered": 5087,
      "▁kissed": 5088,
      "▁cros": 5089,
      "▁joining": 5090,
      "gg": 5091,
      "▁cand": 5092,
      "▁shakespeare": 5093,
      "▁stap": 5094,
      "▁islamist": 5095,
      "▁virt": 5096,
      "▁mim": 5097,
      "lar": 5098,
      "▁vote": 5099,
      "▁obe": 5100,
      "kin": 5101,
      "▁space": 5102,
      "▁ob": 5103,
      "▁ssh": 5104,
      "▁mumbled": 5105,
      "ade": 5106,
      "▁preserved": 5107,
      "▁attrib": 5108,
      "▁demonstrations": 5109,
      "▁bounds": 5110,
      "sually": 5111,
      "▁dresser": 5112,
      "▁florida": 5113,
      "▁w": 5114,
      "ticism": 5115,
      "irl": 5116,
      "▁trial": 5117,
      "▁circum": 5118,
      "usts": 5119,
      "▁combining": 5120,
      "▁usb": 5121,
      "▁shoo": 5122,
      "▁conforms": 5123,
      "▁squirted": 5124,
      "▁·": 5125,
      "▁duck": 5126,
      "▁sneeze": 5127,
      "▁ratings": 5128,
      "bit": 5129,
      "▁seaman": 5130,
      "▁submarines": 5131,
      "▁defend": 5132,
      "▁own": 5133,
      "▁ost": 5134,
      "▁supported": 5135,
      "▁cannon": 5136,
      "▁ability": 5137,
      "▁ownership": 5138,
      "▁advise": 5139,
      "▁pines": 5140,
      "spite": 5141,
      "umption": 5142,
      "ravated": 5143,
      "▁acceler": 5144,
      "ching": 5145,
      "▁hood": 5146,
      "▁bord": 5147,
      "kly": 5148,
      "▁.?": 5149,
      "▁emp": 5150,
      "rough": 5151,
      "▁stick": 5152,
      "▁incurred": 5153,
      "▁scored": 5154,
      "▁der": 5155,
      "▁shots": 5156,
      "▁exce": 5157,
      "▁others": 5158,
      "▁'s": 5159,
      "▁depend": 5160,
      "▁realist": 5161,
      "▁asserted": 5162,
      "▁altitude": 5163,
      "▁german": 5164,
      "▁bund": 5165,
      "▁breakdown": 5166,
      "º": 5167,
      "▁outcome": 5168,
      "▁fishie": 5169,
      "▁judgment": 5170,
      "▁army": 5171,
      "▁interacting": 5172,
      "▁prepare": 5173,
      "▁registered": 5174,
      "▁advers": 5175,
      "▁---------------------------------------------------------------------": 5176,
      "▁fiction": 5177,
      "▁further": 5178,
      "▁speculation": 5179,
      "▁equity": 5180,
      "sh": 5181,
      "gic": 5182,
      "ym": 5183,
      "▁enacting": 5184,
      "ult": 5185,
      "▁received": 5186,
      ";": 5187,
      "▁prison": 5188,
      "agement": 5189,
      "▁de": 5190,
      "▁dorm": 5191,
      "▁flocked": 5192,
      "▁failure": 5193,
      "quis": 5194,
      "▁maker": 5195,
      "ultural": 5196,
      "▁pops": 5197,
      "▁fant": 5198,
      "▁trump": 5199,
      "▁asser": 5200,
      "▁pdf": 5201,
      "▁parachute": 5202,
      "aff": 5203,
      "▁supermar": 5204,
      "oving": 5205,
      "owners": 5206,
      "▁mankind": 5207,
      "▁sits": 5208,
      "▁indic": 5209,
      "▁compares": 5210,
      "aissance": 5211,
      "▁mexico": 5212,
      "▁p.": 5213,
      "▁argument": 5214,
      "▁uva": 5215,
      "▁196": 5216,
      "▁accept": 5217,
      "▁advantage": 5218,
      "▁mostly": 5219,
      "▁ring": 5220,
      "▁null": 5221,
      "▁foc": 5222,
      "-l": 5223,
      "▁snake": 5224,
      "otions": 5225,
      "▁18": 5226,
      "▁broccoli": 5227,
      "▁ration": 5228,
      "▁dail": 5229,
      "▁underwear": 5230,
      "▁coinc": 5231,
      "▁adjusted": 5232,
      "▁citing": 5233,
      "ass": 5234,
      "▁found": 5235,
      "------": 5236,
      "==": 5237,
      "▁tells": 5238,
      "▁tantrums": 5239,
      "▁rene": 5240,
      "ied": 5241,
      "▁by": 5242,
      "▁wander": 5243,
      "▁collect": 5244,
      "▁hosts": 5245,
      "▁welc": 5246,
      "▁specials": 5247,
      "yro": 5248,
      "tles": 5249,
      "▁enculturation": 5250,
      "▁schema": 5251,
      "▁scribble": 5252,
      "▁robo": 5253,
      ":5": 5254,
      "▁tunnel": 5255,
      "▁trees": 5256,
      "▁forgiven": 5257,
      "uls": 5258,
      "▁flexibility": 5259,
      "▁stic": 5260,
      "▁continu": 5261,
      "▁suffering": 5262,
      "▁gravity": 5263,
      "▁medium": 5264,
      "▁family": 5265,
      "uzz": 5266,
      "▁yog": 5267,
      "▁outsiders": 5268,
      "▁sighed": 5269,
      "▁sandwic": 5270,
      "▁upside": 5271,
      "▁advantages": 5272,
      "▁pe": 5273,
      "▁arrange": 5274,
      "▁tested": 5275,
      "▁darn": 5276,
      "▁amer": 5277,
      "▁ireland": 5278,
      "▁rises": 5279,
      "▁twi": 5280,
      "▁succession": 5281,
      "▁birthday": 5282,
      "▁belongs": 5283,
      "anded": 5284,
      "enas": 5285,
      "pses": 5286,
      "▁priest": 5287,
      "▁rest": 5288,
      "▁cats": 5289,
      "unc": 5290,
      "▁screws": 5291,
      "timately": 5292,
      "▁invention": 5293,
      "▁locked": 5294,
      "▁treaty": 5295,
      "▁scri": 5296,
      "▁danny": 5297,
      "▁engineers": 5298,
      "▁there": 5299,
      "bo": 5300,
      "▁kit": 5301,
      "ient": 5302,
      "▁shad": 5303,
      "wn": 5304,
      "▁comp": 5305,
      "▁demon": 5306,
      "▁craft": 5307,
      "ination": 5308,
      "s.": 5309,
      "▁strain": 5310,
      "▁hes": 5311,
      "▁portions": 5312,
      "▁divide": 5313,
      "rovers": 5314,
      "ari": 5315,
      "asa": 5316,
      "ouble": 5317,
      "ract": 5318,
      "▁grand": 5319,
      "▁projecting": 5320,
      "▁2009": 5321,
      "ted": 5322,
      "▁endeav": 5323,
      "▁confron": 5324,
      "▁---": 5325,
      "uity": 5326,
      "▁indicator": 5327,
      "nocentrism": 5328,
      "▁originally": 5329,
      "▁scramb": 5330,
      "erates": 5331,
      "rog": 5332,
      "▁spacecraft": 5333,
      "▁one": 5334,
      "▁bad": 5335,
      "▁enl": 5336,
      "▁rot": 5337,
      "▁bic": 5338,
      "eterm": 5339,
      "▁interpreted": 5340,
      "▁temperatures": 5341,
      "ek": 5342,
      "▁detractors": 5343,
      "▁needle": 5344,
      "argo": 5345,
      "▁lens": 5346,
      "ɛ": 5347,
      "▁sur": 5348,
      "▁play+ground": 5349,
      "▁implement": 5350,
      "▁witch": 5351,
      "▁_____": 5352,
      "▁glancing": 5353,
      "▁nick": 5354,
      "▁folds": 5355,
      "▁computer": 5356,
      "▁rushed": 5357,
      "▁citations": 5358,
      "▁savi": 5359,
      "ro": 5360,
      "▁identities": 5361,
      "▁preven": 5362,
      "oked": 5363,
      "▁surviv": 5364,
      "inks": 5365,
      "▁n-": 5366,
      "▁inhab": 5367,
      "▁transferring": 5368,
      "▁season": 5369,
      "▁mweta": 5370,
      "▁hugging": 5371,
      "▁pressed": 5372,
      "▁negotiating": 5373,
      "▁subform": 5374,
      "▁hybri": 5375,
      "▁london": 5376,
      "▁rad": 5377,
      "▁spo": 5378,
      "p": 5379,
      "▁fuel": 5380,
      "▁agai": 5381,
      "▁deputy": 5382,
      "▁consu": 5383,
      "▁rental": 5384,
      "▁underw": 5385,
      "ude": 5386,
      "▁emb": 5387,
      "▁conclude": 5388,
      "▁pointed": 5389,
      "▁economy": 5390,
      "▁writings": 5391,
      "▁’s": 5392,
      "▁traders": 5393,
      "▁layers": 5394,
      "▁combination": 5395,
      "▁marketing": 5396,
      "▁cheer": 5397,
      "09": 5398,
      "▁worry": 5399,
      "▁buck": 5400,
      "▁charity": 5401,
      "▁poster": 5402,
      "▁deployed": 5403,
      "idic": 5404,
      "▁cat-flap": 5405,
      "▁candidate": 5406,
      "▁evac": 5407,
      "▁banj": 5408,
      "▁implemented": 5409,
      "▁e-m": 5410,
      "▁themes": 5411,
      "ville": 5412,
      "▁bunch": 5413,
      "entil": 5414,
      "▁folded": 5415,
      "aned": 5416,
      "▁duration": 5417,
      "▁snowing": 5418,
      "▁cup": 5419,
      "ivity": 5420,
      "ulf": 5421,
      "▁strawberry": 5422,
      "rayed": 5423,
      "▁prestige": 5424,
      "▁obtaining": 5425,
      "▁adver": 5426,
      "▁recording": 5427,
      "▁1990s": 5428,
      "▁rescued": 5429,
      "▁suspended": 5430,
      "▁percent": 5431,
      "▁opera": 5432,
      "▁recomm": 5433,
      "▁luv": 5434,
      "▁chair": 5435,
      "▁vitam": 5436,
      "▁rfp": 5437,
      "▁agencies": 5438,
      "▁mid-": 5439,
      "▁necessarily": 5440,
      "▁translations": 5441,
      "▁hill": 5442,
      "▁eng": 5443,
      "▁characteristic": 5444,
      "▁mike": 5445,
      "▁google": 5446,
      "▁seized": 5447,
      "eting": 5448,
      "▁loo": 5449,
      "▁librarian": 5450,
      "▁traditions": 5451,
      "▁warning": 5452,
      "▁vendors": 5453,
      "▁vehic": 5454,
      "▁table": 5455,
      "▁hassle": 5456,
      "▁require": 5457,
      "▁evaluation": 5458,
      "▁particip": 5459,
      "▁results": 5460,
      "▁resulted": 5461,
      "▁beyond": 5462,
      "▁guitar": 5463,
      "▁pp": 5464,
      "▁origin": 5465,
      "▁level": 5466,
      "▁databases": 5467,
      "▁birds": 5468,
      "▁pla": 5469,
      "▁performances": 5470,
      "▁forwarding": 5471,
      "▁psychology": 5472,
      "▁voting": 5473,
      "idency": 5474,
      "▁wat": 5475,
      "▁heights": 5476,
      "▁chill": 5477,
      "irited": 5478,
      "▁killer": 5479,
      "cat": 5480,
      "▁cuckoo": 5481,
      "▁post": 5482,
      "▁version": 5483,
      "▁p&l": 5484,
      "▁residence": 5485,
      "▁abandonment": 5486,
      "▁episode": 5487,
      "▁teasing": 5488,
      "▁clock": 5489,
      "▁star": 5490,
      "▁tours": 5491,
      "▁verge": 5492,
      "▁concluded": 5493,
      "▁exit": 5494,
      "▁cutting": 5495,
      "▁soup": 5496,
      "90s": 5497,
      "▁belonged": 5498,
      "▁former": 5499,
      "▁kiw": 5500,
      "▁hab": 5501,
      "▁petersburg": 5502,
      "▁tape": 5503,
      "▁gi": 5504,
      "▁fled": 5505,
      "▁embarrass": 5506,
      "▁mer": 5507,
      "▁enlargement": 5508,
      "▁operate": 5509,
      "ections": 5510,
      "▁flirting": 5511,
      "▁slowed": 5512,
      "achers": 5513,
      "▁endor": 5514,
      "▁documents": 5515,
      "19": 5516,
      "▁accomplishment": 5517,
      "▁sequences": 5518,
      "▁canned": 5519,
      "▁providers": 5520,
      "▁poor": 5521,
      "ite": 5522,
      "▁fit": 5523,
      "▁ask": 5524,
      "▁sue": 5525,
      "▁urine": 5526,
      "▁text.htm": 5527,
      "▁users": 5528,
      "▁artill": 5529,
      "▁equally": 5530,
      "ince": 5531,
      "▁flea": 5532,
      "▁encour": 5533,
      "▁hon": 5534,
      "▁murders": 5535,
      "▁master": 5536,
      "▁statements": 5537,
      "▁manipulate": 5538,
      "▁discrim": 5539,
      "ils": 5540,
      "▁id": 5541,
      "▁ts": 5542,
      "▁intellect": 5543,
      "▁..": 5544,
      "nels": 5545,
      "▁friendships": 5546,
      "▁along": 5547,
      "▁passion": 5548,
      "▁distortions": 5549,
      "▁sst": 5550,
      "▁horm": 5551,
      "fa": 5552,
      "▁pulls": 5553,
      "▁card": 5554,
      "▁ease": 5555,
      "▁fath": 5556,
      "▁tacoma": 5557,
      "▁excer": 5558,
      "▁trusted": 5559,
      "onna": 5560,
      "eep": 5561,
      "raved": 5562,
      "▁nite": 5563,
      "enty": 5564,
      "▁guard": 5565,
      "▁neologism": 5566,
      "▁mashed": 5567,
      "paste": 5568,
      "-and": 5569,
      "na": 5570,
      "▁grabbing": 5571,
      "▁erup": 5572,
      "▁determination": 5573,
      "▁charm": 5574,
      "nh": 5575,
      "▁stating": 5576,
      "▁diction": 5577,
      "▁eagle": 5578,
      "emb": 5579,
      "▁viet": 5580,
      "pt": 5581,
      "▁instructions": 5582,
      "-y": 5583,
      "▁attitudes": 5584,
      "▁disenfranch": 5585,
      "▁procedure": 5586,
      "▁arr": 5587,
      "▁strategy": 5588,
      "▁mired": 5589,
      "ounder": 5590,
      "ential": 5591,
      "▁debtors": 5592,
      "ews": 5593,
      "struc": 5594,
      "▁doughnut": 5595,
      "fl": 5596,
      "▁monarch": 5597,
      "merce": 5598,
      "▁goes": 5599,
      "▁intelligence": 5600,
      "▁mand": 5601,
      "▁pledged": 5602,
      "▁plane": 5603,
      "▁ail": 5604,
      "▁plague": 5605,
      "▁datasheets": 5606,
      "otamus": 5607,
      "olds": 5608,
      "▁lifted": 5609,
      "▁reopen": 5610,
      "gai": 5611,
      "▁mirror": 5612,
      "rogen": 5613,
      "▁through": 5614,
      "▁booking": 5615,
      "▁successfully": 5616,
      "▁nost": 5617,
      "rics": 5618,
      "▁suff": 5619,
      "▁hope": 5620,
      "▁banks": 5621,
      "oom": 5622,
      "▁chick": 5623,
      "ceed": 5624,
      "immer": 5625,
      "▁reducing": 5626,
      "▁cream": 5627,
      "flow": 5628,
      "▁shares": 5629,
      "▁lun": 5630,
      "▁rejected": 5631,
      "▁tow": 5632,
      "ceptions": 5633,
      "nis": 5634,
      "▁washing": 5635,
      "▁intolerance": 5636,
      "▁magazine": 5637,
      "▁though": 5638,
      "▁neolog": 5639,
      "onde": 5640,
      "▁mindset": 5641,
      "ialization": 5642,
      "▁rubble": 5643,
      "gr": 5644,
      "▁truth": 5645,
      "▁acquired": 5646,
      "enda": 5647,
      "▁managers": 5648,
      "▁nine": 5649,
      "▁losses": 5650,
      "▁twins": 5651,
      "▁programmes": 5652,
      "gged": 5653,
      "▁dil": 5654,
      "▁prove": 5655,
      "▁vice-president": 5656,
      "elf": 5657,
      "▁rov": 5658,
      "▁peric": 5659,
      "▁towns": 5660,
      "▁michelle": 5661,
      "▁dragged": 5662,
      "▁testament": 5663,
      "▁embraced": 5664,
      "com": 5665,
      "▁guys": 5666,
      "quil": 5667,
      "▁internship": 5668,
      "▁worshippers": 5669,
      "▁lea": 5670,
      "▁drow": 5671,
      "acle": 5672,
      "▁females": 5673,
      "▁humped": 5674,
      "we": 5675,
      "▁midst": 5676,
      "▁skipping": 5677,
      "▁daring": 5678,
      "▁rig": 5679,
      "▁analysts": 5680,
      "▁realization": 5681,
      "▁gently": 5682,
      "lando": 5683,
      "▁british": 5684,
      "both": 5685,
      "▁yelled": 5686,
      "petence": 5687,
      "▁referee": 5688,
      "▁sugges": 5689,
      "▁bottom": 5690,
      "▁drilling": 5691,
      "▁embargo": 5692,
      "▁crime": 5693,
      "-w": 5694,
      "keeper": 5695,
      "▁knee": 5696,
      "ependency": 5697,
      "▁perception": 5698,
      "▁law": 5699,
      "▁record": 5700,
      "▁prayer": 5701,
      "yroc": 5702,
      "organ": 5703,
      "▁ml": 5704,
      "▁counterpar": 5705,
      "ued": 5706,
      "▁electr": 5707,
      "▁pear": 5708,
      "children": 5709,
      "▁publishers": 5710,
      "▁intervention": 5711,
      "▁plaintiffs": 5712,
      "▁approve": 5713,
      "▁reversal": 5714,
      "▁ty": 5715,
      "▁extra": 5716,
      "▁arts": 5717,
      "▁migrant": 5718,
      "reed": 5719,
      "▁quali": 5720,
      "▁station": 5721,
      "▁status": 5722,
      "aur": 5723,
      "▁risk": 5724,
      "▁enemy": 5725,
      "▁gotted": 5726,
      "▁wrapped": 5727,
      "▁ecology": 5728,
      "▁taxes": 5729,
      "une": 5730,
      "▁running": 5731,
      "▁assured": 5732,
      "velled": 5733,
      "▁tab": 5734,
      "issors": 5735,
      "▁vow": 5736,
      "vement": 5737,
      "▁seiz": 5738,
      "▁agreed": 5739,
      "▁weapon": 5740,
      "▁dys": 5741,
      "▁evaluated": 5742,
      "▁fo": 5743,
      "org": 5744,
      "▁assault": 5745,
      "▁hydrogen": 5746,
      "▁sales": 5747,
      "▁greetings": 5748,
      "▁smashed": 5749,
      "▁poke": 5750,
      "▁hunt": 5751,
      "oitation": 5752,
      "▁island": 5753,
      "▁assoc": 5754,
      "if": 5755,
      "kn": 5756,
      "use": 5757,
      "thold": 5758,
      "▁narr": 5759,
      "erences": 5760,
      "▁transformed": 5761,
      "▁controllers": 5762,
      "/200": 5763,
      "dle": 5764,
      "▁equip": 5765,
      "▁catch": 5766,
      "▁univers": 5767,
      "to": 5768,
      "ury": 5769,
      "atisfaction": 5770,
      "▁phrases": 5771,
      "amps": 5772,
      "▁revived": 5773,
      "ords": 5774,
      "▁twel": 5775,
      "entralized": 5776,
      "▁encompass": 5777,
      "▁trag": 5778,
      "ream": 5779,
      "▁selling": 5780,
      "▁pumped": 5781,
      "▁overcharges": 5782,
      "ligence": 5783,
      "▁enjoying": 5784,
      "▁concert": 5785,
      "▁dun": 5786,
      "▁information": 5787,
      "▁vision": 5788,
      "▁verse": 5789,
      "▁descend": 5790,
      "erog": 5791,
      "▁equ": 5792,
      "▁austral": 5793,
      "▁directive": 5794,
      "arrassment": 5795,
      "▁hairdresser": 5796,
      "▁pestic": 5797,
      "ickness": 5798,
      "▁temples": 5799,
      "0's": 5800,
      "iries": 5801,
      "enef": 5802,
      "▁hurts": 5803,
      "▁cherries": 5804,
      "rophy": 5805,
      "do": 5806,
      "eteria": 5807,
      "▁reas": 5808,
      "uring": 5809,
      "▁e-commerce": 5810,
      "▁artic": 5811,
      "sm": 5812,
      "▁hay": 5813,
      "▁masts": 5814,
      "▁philadelphia": 5815,
      "ience": 5816,
      "▁clips": 5817,
      "▁someth": 5818,
      "▁europe": 5819,
      "▁common": 5820,
      "▁carbon": 5821,
      "uah": 5822,
      "▁breakthrough": 5823,
      "▁a": 5824,
      "▁bat": 5825,
      "▁prizes": 5826,
      "▁doorway": 5827,
      "mly": 5828,
      "▁longing": 5829,
      "▁dilemma": 5830,
      "▁producing": 5831,
      "▁depends": 5832,
      "▁stories": 5833,
      "▁stampede": 5834,
      "igh": 5835,
      "▁aust": 5836,
      "▁landings": 5837,
      "▁investment": 5838,
      "▁break": 5839,
      "▁landscapes": 5840,
      "▁monitoring": 5841,
      "ph": 5842,
      "rison": 5843,
      "inars": 5844,
      "▁strawberries": 5845,
      "▁procr": 5846,
      "▁panic": 5847,
      "▁waf": 5848,
      "▁tool": 5849,
      "▁crawl": 5850,
      "▁bicycles": 5851,
      "kering": 5852,
      "▁ev": 5853,
      "▁currency": 5854,
      "▁set": 5855,
      "orm": 5856,
      "▁disciples": 5857,
      "▁shakes": 5858,
      "▁certificates": 5859,
      "▁lifeboats": 5860,
      "▁directed": 5861,
      "▁attracted": 5862,
      "▁messages": 5863,
      "▁sounded": 5864,
      "▁formulate": 5865,
      "▁offended": 5866,
      "▁lasted": 5867,
      "▁telescope": 5868,
      "abit": 5869,
      "bye": 5870,
      "▁breed": 5871,
      "▁liability": 5872,
      "wik": 5873,
      "▁]": 5874,
      "▁perceived": 5875,
      "lites": 5876,
      "▁melting": 5877,
      "▁grav": 5878,
      "▁every": 5879,
      "▁trash": 5880,
      "▁dictatorship": 5881,
      "▁aunt": 5882,
      "▁rejects": 5883,
      "eef": 5884,
      "▁previous": 5885,
      "▁markup": 5886,
      "▁particular": 5887,
      "iece": 5888,
      "hered": 5889,
      "▁specifics": 5890,
      "▁hockey": 5891,
      "chn": 5892,
      "▁loan": 5893,
      "ike": 5894,
      "▁bure": 5895,
      "▁explain": 5896,
      "▁incom": 5897,
      "owers": 5898,
      "▁diapers": 5899,
      "▁payments": 5900,
      "▁made": 5901,
      "▁cease": 5902,
      "▁belt": 5903,
      "keys": 5904,
      "▁muffin": 5905,
      "▁stuffed": 5906,
      "▁lobby": 5907,
      "▁soldiers": 5908,
      "▁right": 5909,
      "onom": 5910,
      "▁quality": 5911,
      "▁cm": 5912,
      "▁blizz": 5913,
      "▁chandeli": 5914,
      "▁coincides": 5915,
      "▁pity": 5916,
      "▁music": 5917,
      "▁pd": 5918,
      "▁repeating": 5919,
      "▁magn": 5920,
      "▁alar": 5921,
      "▁lyrics": 5922,
      "▁forgotten": 5923,
      "▁send": 5924,
      "▁slope": 5925,
      "▁contrad": 5926,
      "▁urgency": 5927,
      "▁markets": 5928,
      "▁trans": 5929,
      "|": 5930,
      "▁fate": 5931,
      "▁memoir": 5932,
      "ulturation": 5933,
      "▁disappointed": 5934,
      "▁mou": 5935,
      "paper": 5936,
      "▁suicide": 5937,
      "▁homework": 5938,
      "version": 5939,
      "ploy": 5940,
      "actions": 5941,
      "▁kansas": 5942,
      "▁afflic": 5943,
      "inding": 5944,
      "atter": 5945,
      "▁lion": 5946,
      "ursed": 5947,
      "▁school": 5948,
      "▁wiki": 5949,
      "▁highl": 5950,
      "▁humor": 5951,
      "▁bump": 5952,
      "▁locks": 5953,
      "▁invo": 5954,
      "ior": 5955,
      "idity": 5956,
      "tride": 5957,
      "▁setup": 5958,
      "▁l/c": 5959,
      "▁spit": 5960,
      "▁'em": 5961,
      "▁mult": 5962,
      "▁packet": 5963,
      "▁spanning": 5964,
      "▁steve": 5965,
      "▁bounce": 5966,
      "asters": 5967,
      "▁sampling": 5968,
      "iu": 5969,
      "▁qa": 5970,
      "esis": 5971,
      "▁did": 5972,
      "irc": 5973,
      "▁feather": 5974,
      "ount": 5975,
      "▁crystallite": 5976,
      "ided": 5977,
      "▁colleague": 5978,
      "▁recieved": 5979,
      "▁glam": 5980,
      "▁steph": 5981,
      "▁woo": 5982,
      "▁talents": 5983,
      "▁officials": 5984,
      "esses": 5985,
      "▁guilty": 5986,
      "▁relative": 5987,
      "ations": 5988,
      "▁linked": 5989,
      "rd": 5990,
      "▁murderers": 5991,
      "▁ever": 5992,
      "▁landm": 5993,
      "enron.com": 5994,
      "▁targeting": 5995,
      "▁frog": 5996,
      "▁witness": 5997,
      "▁lag": 5998,
      "fort": 5999,
      "▁packs": 6000,
      "rection": 6001,
      "▁horses": 6002,
      "▁chan": 6003,
      "▁nor": 6004,
      "▁technology": 6005,
      "▁propaganda": 6006,
      "▁profit": 6007,
      "▁sneak": 6008,
      "▁ordering": 6009,
      "▁dill": 6010,
      "epend": 6011,
      "born": 6012,
      "ov": 6013,
      "▁slippers": 6014,
      "umes": 6015,
      "▁endorse": 6016,
      "▁hards": 6017,
      "▁go's": 6018,
      "▁guaranteed": 6019,
      "fir": 6020,
      "▁pussy": 6021,
      "cepted": 6022,
      "▁planet": 6023,
      "▁commerc": 6024,
      "▁fire": 6025,
      "▁waited": 6026,
      "▁circus": 6027,
      "▁implies": 6028,
      "▁exped": 6029,
      "▁accomplishments": 6030,
      "oads": 6031,
      "are": 6032,
      "▁things": 6033,
      "▁viewers": 6034,
      "▁wiggleworm": 6035,
      "▁communicated": 6036,
      "▁farm": 6037,
      "▁signed": 6038,
      "▁accomp": 6039,
      "mem": 6040,
      "▁rocked": 6041,
      "▁walking": 6042,
      "▁returns": 6043,
      "ernobyl": 6044,
      "▁withdrawing": 6045,
      "▁wailing": 6046,
      "▁jaw": 6047,
      "▁lower": 6048,
      "▁$$": 6049,
      "▁hearing": 6050,
      "▁ad": 6051,
      "▁harry": 6052,
      "▁offspring": 6053,
      "▁bapt": 6054,
      "▁mentioning": 6055,
      "▁george": 6056,
      "▁.": 6057,
      "▁hoagie": 6058,
      "▁friday": 6059,
      "▁extradition": 6060,
      "xim": 6061,
      "▁paragraph": 6062,
      "▁milks": 6063,
      "▁management": 6064,
      "▁generators": 6065,
      "li": 6066,
      "▁biodiversity": 6067,
      "▁municipality": 6068,
      "▁aeroplane": 6069,
      "▁necess": 6070,
      "▁tacos": 6071,
      "-boat": 6072,
      "▁pouring": 6073,
      "▁stopped": 6074,
      "▁withdrawn": 6075,
      "rano": 6076,
      "▁compete": 6077,
      "▁attention": 6078,
      "▁dpr": 6079,
      "▁decided": 6080,
      "▁picks": 6081,
      "▁actor": 6082,
      "rely": 6083,
      "▁shower": 6084,
      "▁rebel": 6085,
      "namon": 6086,
      "▁cush": 6087,
      "9": 6088,
      "▁dsl": 6089,
      "▁mister": 6090,
      "▁offici": 6091,
      "▁holds": 6092,
      "▁tactics": 6093,
      "anted": 6094,
      "▁sew": 6095,
      "yr": 6096,
      "bac": 6097,
      "▁struc": 6098,
      "▁boo": 6099,
      "ieth": 6100,
      "▁wilt": 6101,
      "▁pair": 6102,
      "dered": 6103,
      "▁moo": 6104,
      "▁yesterday": 6105,
      "▁searching": 6106,
      "imated": 6107,
      "east": 6108,
      "▁pretending": 6109,
      "▁bom": 6110,
      "▁treat": 6111,
      "▁doors": 6112,
      "▁inject": 6113,
      "▁fridge": 6114,
      "▁photographers": 6115,
      "▁ken": 6116,
      "▁incapac": 6117,
      "▁collecting": 6118,
      "st": 6119,
      "lights": 6120,
      "▁litt": 6121,
      "osed": 6122,
      "▁games": 6123,
      "▁rom": 6124,
      "▁confid": 6125,
      "▁doggy": 6126,
      "stair": 6127,
      "▁changed": 6128,
      "▁buckets": 6129,
      "▁lady": 6130,
      "▁knit": 6131,
      "perc": 6132,
      "▁line": 6133,
      "▁flow": 6134,
      "▁evening": 6135,
      "▁courses": 6136,
      "▁stumbled": 6137,
      "ook": 6138,
      "▁cracker": 6139,
      "▁repres": 6140,
      "▁displaced": 6141,
      "▁colle": 6142,
      "▁retired": 6143,
      "awled": 6144,
      "▁spice": 6145,
      "▁cran": 6146,
      "▁rece": 6147,
      "▁violence": 6148,
      "▁code": 6149,
      "▁claim": 6150,
      "▁cous": 6151,
      "▁soldier": 6152,
      ".un": 6153,
      "▁leap": 6154,
      "▁sketch": 6155,
      "▁exacerb": 6156,
      "▁charged": 6157,
      "▁understanding": 6158,
      "istor": 6159,
      "▁2000": 6160,
      "▁store": 6161,
      "▁gender": 6162,
      "▁militants": 6163,
      "▁devising": 6164,
      "▁sk": 6165,
      "▁rack": 6166,
      "▁less": 6167,
      "bands": 6168,
      "▁crush": 6169,
      "▁location": 6170,
      "odge": 6171,
      "▁teasp": 6172,
      "▁cert": 6173,
      "iddit": 6174,
      "▁psychologist": 6175,
      "▁wou": 6176,
      "▁pasta": 6177,
      "▁criticized": 6178,
      "▁grocer": 6179,
      "af": 6180,
      "▁chores": 6181,
      "▁flung": 6182,
      "▁refers": 6183,
      "▁governance": 6184,
      "▁asia": 6185,
      "▁anno": 6186,
      "▁micro": 6187,
      "cil": 6188,
      "▁tot": 6189,
      "▁ou": 6190,
      "▁consideration": 6191,
      "iments": 6192,
      "▁aver": 6193,
      "▁graduated": 6194,
      "▁draped": 6195,
      "ret": 6196,
      "▁shapes": 6197,
      "▁footer": 6198,
      "▁bucks": 6199,
      "zza": 6200,
      "▁suppose": 6201,
      "▁ginger": 6202,
      "▁earthworms": 6203,
      "▁beck": 6204,
      "▁girl": 6205,
      "▁wolves": 6206,
      "▁bee": 6207,
      "▁surpl": 6208,
      "▁replied": 6209,
      "..": 6210,
      "lu": 6211,
      "raction": 6212,
      "▁raging": 6213,
      "hua": 6214,
      "▁standards": 6215,
      "▁bring": 6216,
      "▁pract": 6217,
      "otte": 6218,
      "▁provocation": 6219,
      "▁dominated": 6220,
      "▁daddy": 6221,
      "▁bron": 6222,
      "▁palest": 6223,
      "▁reading": 6224,
      "%": 6225,
      "▁obt": 6226,
      "▁idea": 6227,
      "▁obligation": 6228,
      "▁illust": 6229,
      "ray": 6230,
      "▁bern": 6231,
      "▁planting": 6232,
      "▁attacked": 6233,
      "ito": 6234,
      "▁motiv": 6235,
      "▁organisation": 6236,
      "▁varies": 6237,
      "▁confine": 6238,
      "▁patents": 6239,
      "▁overc": 6240,
      "▁archbish": 6241,
      "ighted": 6242,
      "▁want": 6243,
      "▁factor": 6244,
      "igma": 6245,
      "▁particularly": 6246,
      "▁introduced": 6247,
      "▁inspire": 6248,
      "▁transform": 6249,
      "cle": 6250,
      "lands": 6251,
      "▁aerogel": 6252,
      "aceful": 6253,
      "▁shit": 6254,
      "▁contemp": 6255,
      "lities": 6256,
      "▁totes": 6257,
      "▁bs": 6258,
      "▁restored": 6259,
      "▁four": 6260,
      "▁hardly": 6261,
      "ax": 6262,
      "▁parties": 6263,
      "▁displayed": 6264,
      "▁lived": 6265,
      "pr": 6266,
      "▁k": 6267,
      "hip": 6268,
      "▁cromer": 6269,
      "▁prototypes": 6270,
      "▁aft": 6271,
      "ends": 6272,
      "peakers": 6273,
      "▁representations": 6274,
      "▁cc": 6275,
      "ars": 6276,
      "▁dad": 6277,
      "ocado": 6278,
      "ybody": 6279,
      "▁t.v": 6280,
      "▁fy0": 6281,
      "ants": 6282,
      "▁expertise": 6283,
      "▁religion": 6284,
      "ancers": 6285,
      "▁co": 6286,
      "w": 6287,
      "rial": 6288,
      "▁founded": 6289,
      "kles": 6290,
      "▁fren": 6291,
      "ɔ": 6292,
      "▁shells": 6293,
      "▁skip": 6294,
      "▁wear": 6295,
      "fi": 6296,
      "▁assessment": 6297,
      "▁pension": 6298,
      "idence": 6299,
      "▁denying": 6300,
      "▁wiring": 6301,
      "▁shar": 6302,
      "▁learners": 6303,
      "▁pas": 6304,
      "stache": 6305,
      "▁denial": 6306,
      "▁renewed": 6307,
      "▁prices": 6308,
      "▁phot": 6309,
      "▁damage": 6310,
      "fts": 6311,
      "▁soccer": 6312,
      "▁noises": 6313,
      "▁gallop": 6314,
      "▁thieves": 6315,
      "▁equation": 6316,
      "ulses": 6317,
      "▁rodents": 6318,
      "▁rev": 6319,
      "▁night": 6320,
      "▁horiz": 6321,
      "▁hr": 6322,
      "▁respect": 6323,
      "▁cents": 6324,
      "te": 6325,
      "▁daily": 6326,
      "▁ren": 6327,
      "auc": 6328,
      "▁reproduc": 6329,
      "▁experien": 6330,
      "▁ble": 6331,
      "▁responses": 6332,
      "▁referencing": 6333,
      "▁bac": 6334,
      "▁pericles": 6335,
      "▁offer": 6336,
      "▁alphab": 6337,
      "▁ratify": 6338,
      "▁underground": 6339,
      "▁pumping": 6340,
      "▁str": 6341,
      "▁worker": 6342,
      "▁purposes": 6343,
      "▁sifted": 6344,
      "ool": 6345,
      "▁coordinator": 6346,
      "acy": 6347,
      "▁autumn": 6348,
      "=": 6349,
      "▁philosoph": 6350,
      "▁podc": 6351,
      "▁pivotch": 6352,
      "▁misconception": 6353,
      "▁communications": 6354,
      "▁def": 6355,
      "istocks": 6356,
      "be": 6357,
      "▁al": 6358,
      "▁conclusion": 6359,
      "▁weekends": 6360,
      "▁dashed": 6361,
      "▁haste": 6362,
      "▁full": 6363,
      "orti": 6364,
      "▁gained": 6365,
      "▁otherwise": 6366,
      "▁hung": 6367,
      "▁plotted": 6368,
      "▁cooperating": 6369,
      "▁coming": 6370,
      "▁motion": 6371,
      "▁earliest": 6372,
      "orts": 6373,
      "▁hymn": 6374,
      "▁seam": 6375,
      "erole": 6376,
      "▁cic": 6377,
      "▁cele": 6378,
      "[UNK]": 6379,
      "▁being": 6380,
      "▁municipalities": 6381,
      "tically": 6382,
      "her": 6383,
      "hold": 6384,
      "▁charter": 6385,
      "▁grams": 6386,
      "▁teach": 6387,
      "▁coalition": 6388,
      "▁padalecki": 6389,
      "▁flunking": 6390,
      "▁ozone": 6391,
      "▁theft": 6392,
      "▁headmaster": 6393,
      "ern": 6394,
      "▁envis": 6395,
      "▁happened": 6396,
      "▁pav": 6397,
      "▁commercial": 6398,
      "▁consist": 6399,
      "▁continuing": 6400,
      "▁recreate": 6401,
      "▁hate": 6402,
      "▁major": 6403,
      "▁incorp": 6404,
      "▁elevator": 6405,
      "▁hack": 6406,
      "▁pouch": 6407,
      "orates": 6408,
      "▁complex": 6409,
      "▁policymakers": 6410,
      "▁reviewed": 6411,
      "rar": 6412,
      "▁sus": 6413,
      "▁areas": 6414,
      "▁harmonised": 6415,
      "▁plots": 6416,
      "▁assist": 6417,
      "▁numerous": 6418,
      "▁etiquette": 6419,
      "utin": 6420,
      "zability": 6421,
      "▁texts": 6422,
      "r.": 6423,
      "▁manuscripts": 6424,
      "▁privilege": 6425,
      "ooding": 6426,
      "▁else": 6427,
      "▁presents": 6428,
      "▁highway": 6429,
      "▁aristocrats": 6430,
      "tainty": 6431,
      "inal": 6432,
      "▁trying": 6433,
      "mate": 6434,
      "ibilities": 6435,
      "▁shot": 6436,
      "cape": 6437,
      "▁guiding": 6438,
      "▁weeks": 6439,
      "▁manif": 6440,
      "▁wasted": 6441,
      "▁vo": 6442,
      "off": 6443,
      "▁height": 6444,
      "hap": 6445,
      "▁10": 6446,
      "ensity": 6447,
      "▁'d": 6448,
      "ily": 6449,
      "▁1": 6450,
      "▁consumption": 6451,
      "▁teenagers": 6452,
      "▁disclaim": 6453,
      "plan": 6454,
      "▁showing": 6455,
      "olis": 6456,
      "▁weasel": 6457,
      "▁served": 6458,
      "▁transmedia": 6459,
      "▁trader": 6460,
      "geration": 6461,
      "eces": 6462,
      "▁closing": 6463,
      "▁celebrating": 6464,
      "▁flowed": 6465,
      "▁refres": 6466,
      "▁high": 6467,
      "▁ki": 6468,
      "gu": 6469,
      "tieth": 6470,
      "▁01": 6471,
      "emination": 6472,
      "▁pursue": 6473,
      "▁tul": 6474,
      "▁centi": 6475,
      "lity": 6476,
      "▁till": 6477,
      "▁appe": 6478,
      "▁throws": 6479,
      "▁inhabit": 6480,
      "▁removes": 6481,
      "▁tonn": 6482,
      "▁lifesty": 6483,
      "▁reconstruction": 6484,
      "bness": 6485,
      "▁resistance": 6486,
      "▁struggling": 6487,
      "▁arti": 6488,
      "▁transf": 6489,
      "▁plaque": 6490,
      "▁trade": 6491,
      "▁***": 6492,
      "▁facing": 6493,
      "eros": 6494,
      "▁putting": 6495,
      "vest": 6496,
      "▁limbs": 6497,
      "▁visited": 6498,
      "▁booth": 6499,
      "urring": 6500,
      "mal": 6501,
      "▁wheat": 6502,
      "▁flakes": 6503,
      "onies": 6504,
      "ick": 6505,
      "▁exchanged": 6506,
      "▁dawn": 6507,
      "ping": 6508,
      "fications": 6509,
      "▁just": 6510,
      "▁pockets": 6511,
      "▁femur": 6512,
      "oney": 6513,
      "▁dursleys": 6514,
      "▁foot": 6515,
      "▁nude": 6516,
      "arded": 6517,
      "▁seesaw": 6518,
      "▁ducked": 6519,
      "▁volatilities": 6520,
      "▁38": 6521,
      "▁andaman": 6522,
      "▁troubles": 6523,
      "▁stimulating": 6524,
      "elle": 6525,
      "ellow": 6526,
      "▁past": 6527,
      "▁tickets": 6528,
      "▁hedge": 6529,
      "▁metro": 6530,
      "▁tic": 6531,
      "▁cray": 6532,
      "▁consume": 6533,
      "▁occas": 6534,
      "▁stud": 6535,
      "iew": 6536,
      "▁)": 6537,
      "▁arising": 6538,
      "lico": 6539,
      "▁entourage": 6540,
      "▁judiciary": 6541,
      "ufact": 6542,
      "▁retail": 6543,
      "▁tattoos": 6544,
      "mpl": 6545,
      "▁instruc": 6546,
      "`": 6547,
      "b": 6548,
      "▁modify": 6549,
      "▁gordon": 6550,
      "▁dude": 6551,
      "▁attem": 6552,
      "▁une": 6553,
      "▁multi": 6554,
      "cillas": 6555,
      "ooked": 6556,
      "▁analogy": 6557,
      "▁office": 6558,
      "▁struck": 6559,
      "-room": 6560,
      "▁conj": 6561,
      "▁woud": 6562,
      "iration": 6563,
      "▁reminder": 6564,
      "▁comet": 6565,
      "▁portrayal": 6566,
      "▁breathe": 6567,
      "▁maximum": 6568,
      "eeper": 6569,
      "▁righthold": 6570,
      "ouch": 6571,
      "20": 6572,
      "▁memory": 6573,
      "▁forget": 6574,
      "▁crump": 6575,
      "▁disability": 6576,
      "▁fell": 6577,
      "ad": 6578,
      "▁perfect": 6579,
      "▁14": 6580,
      "▁rabbit": 6581,
      "▁collaborations": 6582,
      "▁exhib": 6583,
      "▁conn": 6584,
      "▁promotion": 6585,
      "▁sonnets": 6586,
      "▁sunshine": 6587,
      "▁refund": 6588,
      "▁intrigu": 6589,
      "ession": 6590,
      "▁nightclubs": 6591,
      "▁stabbed": 6592,
      "roll": 6593,
      "▁america": 6594,
      "assment": 6595,
      "▁towel": 6596,
      "▁cooperate": 6597,
      "other": 6598,
      "▁clerk": 6599,
      "▁frow": 6600,
      "▁however": 6601,
      "dayeen": 6602,
      "3rd": 6603,
      "▁younger": 6604,
      "▁lowest": 6605,
      "▁test": 6606,
      "▁modules": 6607,
      "▁settings": 6608,
      "▁fertili": 6609,
      "iots": 6610,
      "▁bake": 6611,
      "▁spect": 6612,
      "ateg": 6613,
      "▁appellants": 6614,
      "ip": 6615,
      "▁tastes": 6616,
      "▁off": 6617,
      "▁rinsed": 6618,
      "kka": 6619,
      "▁!!!!": 6620,
      "▁silk": 6621,
      "▁motivation": 6622,
      "tub": 6623,
      "ped": 6624,
      "althy": 6625,
      "▁sort": 6626,
      "pletely": 6627,
      "▁diagn": 6628,
      "▁sitting": 6629,
      "▁proud": 6630,
      "▁dy": 6631,
      "▁imper": 6632,
      "▁geomet": 6633,
      "▁glare": 6634,
      "asley": 6635,
      "▁accep": 6636,
      "▁soda": 6637,
      "▁elapsed": 6638,
      "qually": 6639,
      "▁starve": 6640,
      "▁spores": 6641,
      "▁ray": 6642,
      "▁dancing": 6643,
      "▁wad": 6644,
      "uts": 6645,
      "▁original": 6646,
      "▁piled": 6647,
      "unami": 6648,
      "▁combines": 6649,
      "▁mr.": 6650,
      "▁hosting": 6651,
      "▁defic": 6652,
      "▁harmon": 6653,
      "▁entrance": 6654,
      "locked": 6655,
      "tiality": 6656,
      "▁homes": 6657,
      "▁domest": 6658,
      "mbing": 6659,
      "▁silly": 6660,
      "++++": 6661,
      "▁affected": 6662,
      "▁airl": 6663,
      "▁elastic": 6664,
      "▁sch": 6665,
      "▁confront": 6666,
      "icked": 6667,
      "▁anal": 6668,
      "per": 6669,
      "▁insp": 6670,
      "▁nutrients": 6671,
      "▁view": 6672,
      "ida": 6673,
      "▁breast": 6674,
      "▁scul": 6675,
      "oned": 6676,
      "▁alas": 6677,
      "essional": 6678,
      "▁strengthening": 6679,
      "bug": 6680,
      "▁dire": 6681,
      "ritation": 6682,
      "▁bagels": 6683,
      "▁finds": 6684,
      "▁ent": 6685,
      "▁comfortable": 6686,
      "▁cocktail": 6687,
      "!!!!!!!!": 6688,
      "anish": 6689,
      "▁different": 6690,
      "ease": 6691,
      "▁takeoffs": 6692,
      "▁officers": 6693,
      "▁rod": 6694,
      "▁congestion": 6695,
      "bie": 6696,
      "ble": 6697,
      "▁joking": 6698,
      "▁fodder": 6699,
      "▁analysis": 6700,
      "▁22nd": 6701,
      "apanese": 6702,
      "▁shared": 6703,
      "13": 6704,
      "▁reflects": 6705,
      "for": 6706,
      "kins": 6707,
      "▁pron": 6708,
      "▁partners": 6709,
      "▁vint": 6710,
      "▁refl": 6711,
      "▁pager": 6712,
      "uries": 6713,
      "inus": 6714,
      "▁audio": 6715,
      "places": 6716,
      "hel": 6717,
      "vo": 6718,
      "▁additional": 6719,
      "▁negot": 6720,
      "▁uncertainty": 6721,
      "▁opportunity": 6722,
      "▁rh": 6723,
      "▁rated": 6724,
      "▁chicago": 6725,
      "la": 6726,
      "fted": 6727,
      "▁cuck": 6728,
      "▁prevailing": 6729,
      "▁pardon": 6730,
      "▁wall": 6731,
      "ton": 6732,
      "▁surprises": 6733,
      "▁investigate": 6734,
      "arl": 6735,
      "▁your": 6736,
      "▁wa": 6737,
      "▁wings": 6738,
      "macy": 6739,
      "▁protested": 6740,
      "▁punishment": 6741,
      "▁university": 6742,
      "▁26": 6743,
      "▁activists": 6744,
      "happ": 6745,
      "▁lope": 6746,
      "▁appearing": 6747,
      "▁dinnertime": 6748,
      "▁beater": 6749,
      "atme": 6750,
      "▁goo": 6751,
      "oli": 6752,
      "▁professor": 6753,
      "▁hometown": 6754,
      "▁execute": 6755,
      "▁defe": 6756,
      "izes": 6757,
      "▁produc": 6758,
      "▁sent": 6759,
      "▁gotten": 6760,
      "▁ads": 6761,
      "▁nostrils": 6762,
      "▁mac": 6763,
      "▁princess": 6764,
      "▁concerts": 6765,
      "▁higher": 6766,
      "▁soci": 6767,
      "▁********************************": 6768,
      "▁planted": 6769,
      "▁sorry": 6770,
      "▁obl": 6771,
      "ker": 6772,
      "▁laund": 6773,
      "▁heck": 6774,
      "▁permit": 6775,
      "▁!!": 6776,
      "▁the": 6777,
      "▁screwdriver": 6778,
      "iot": 6779,
      "eriously": 6780,
      "bal": 6781,
      "▁medal": 6782,
      "▁investigated": 6783,
      "ities": 6784,
      "▁ron": 6785,
      "▁valuation": 6786,
      "▁pleas": 6787,
      "utes": 6788,
      "▁shipping": 6789,
      "▁stroll": 6790,
      "▁calculations": 6791,
      "▁onions": 6792,
      "▁textile": 6793,
      "ients": 6794,
      "sible": 6795,
      "▁margin": 6796,
      "▁breach": 6797,
      "▁policies": 6798,
      "▁than": 6799,
      "mates": 6800,
      ".doc": 6801,
      "foli": 6802,
      "▁cyc": 6803,
      "▁negotiate": 6804,
      "▁disorders": 6805,
      "etti": 6806,
      "▁km": 6807,
      "▁appropriations": 6808,
      "▁stationery": 6809,
      "▁buds": 6810,
      "▁efficiency": 6811,
      "▁visitors": 6812,
      "ample": 6813,
      "▁photos": 6814,
      "▁championship": 6815,
      "pd": 6816,
      "▁tumbling": 6817,
      "▁************************************************": 6818,
      "▁scan": 6819,
      "dity": 6820,
      "grader": 6821,
      "▁whoever": 6822,
      "▁govern": 6823,
      "▁tends": 6824,
      "us": 6825,
      "ede": 6826,
      "▁either": 6827,
      "▁fearing": 6828,
      "uction": 6829,
      "▁lobster": 6830,
      "▁iran": 6831,
      "ticoat": 6832,
      "▁hose": 6833,
      "80s": 6834,
      "ases": 6835,
      "▁subsid": 6836,
      "▁lipsticks": 6837,
      "read": 6838,
      "▁renovation": 6839,
      "▁halves": 6840,
      "urp": 6841,
      "▁powers": 6842,
      "▁somehow": 6843,
      "▁transmitter": 6844,
      "▁chemicals": 6845,
      "raw": 6846,
      "▁interfere": 6847,
      "▁pizzas": 6848,
      "▁sizes": 6849,
      "▁trips": 6850,
      "▁econom": 6851,
      "▁--": 6852,
      "▁tray": 6853,
      "▁bbq": 6854,
      "▁couples": 6855,
      "▁grandpar": 6856,
      "-te": 6857,
      "▁living": 6858,
      "▁orbit": 6859,
      "▁opinions": 6860,
      "▁bombs": 6861,
      "-cent": 6862,
      "oma": 6863,
      "▁roots": 6864,
      "▁burbank": 6865,
      "kes": 6866,
      "▁answering": 6867,
      "urities": 6868,
      "▁clou": 6869,
      "▁sne": 6870,
      "imp": 6871,
      "▁bounced": 6872,
      "▁cincinn": 6873,
      "▁crafts": 6874,
      "ears": 6875,
      "▁positioning": 6876,
      "▁50": 6877,
      "▁printer": 6878,
      "▁days": 6879,
      "▁decade": 6880,
      "erns": 6881,
      "▁concrete": 6882,
      "▁waking": 6883,
      "mas": 6884,
      "▁penny": 6885,
      "▁spider": 6886,
      "▁assaulted": 6887,
      "▁extradited": 6888,
      "▁musical": 6889,
      "▁recru": 6890,
      "▁sailors": 6891,
      "▁bless": 6892,
      "loaded": 6893,
      "--": 6894,
      "▁beds": 6895,
      "elty": 6896,
      "▁drawers": 6897,
      "▁dc": 6898,
      "▁constitute": 6899,
      "▁developed": 6900,
      "▁cav": 6901,
      "▁counterfeiting": 6902,
      "ays": 6903,
      "▁married": 6904,
      "▁dignit": 6905,
      "▁city": 6906,
      "ott": 6907,
      "▁heads": 6908,
      "▁squirrels": 6909,
      "cuff": 6910,
      "▁25": 6911,
      "ect": 6912,
      "▁financial": 6913,
      "▁pain": 6914,
      "esaw": 6915,
      "▁karen": 6916,
      "▁plat": 6917,
      "aire": 6918,
      "agon": 6919,
      "ge": 6920,
      "▁routine": 6921,
      "erc": 6922,
      "▁islamists": 6923,
      "▁edward": 6924,
      "▁angels": 6925,
      "▁screwed": 6926,
      "▁funeral": 6927,
      "▁faded": 6928,
      "teen": 6929,
      "air": 6930,
      "ou": 6931,
      "▁regular": 6932,
      "▁ali": 6933,
      "▁?!?": 6934,
      "▁remn": 6935,
      "▁enables": 6936,
      "▁stro": 6937,
      "▁pulse": 6938,
      "▁aspect": 6939,
      "resident": 6940,
      "▁fun": 6941,
      "▁feet": 6942,
      "▁pat": 6943,
      "▁pollution": 6944,
      "aped": 6945,
      "▁neighborhood": 6946,
      "▁rear": 6947,
      "inian": 6948,
      "▁spi": 6949,
      "▁loc": 6950,
      "▁fyi": 6951,
      "▁fus": 6952,
      "▁wee": 6953,
      "▁na": 6954,
      "▁unless": 6955,
      "▁directions": 6956,
      "▁connec": 6957,
      "▁produce": 6958,
      "arters": 6959,
      "▁route": 6960,
      "▁achievement": 6961,
      "▁punctuation": 6962,
      "▁facul": 6963,
      "▁award": 6964,
      "▁wedding": 6965,
      "forcement": 6966,
      "▁ramifications": 6967,
      "▁authorities": 6968,
      "▁freezer": 6969,
      "▁billing": 6970,
      "▁apolog": 6971,
      "rael": 6972,
      "▁phenomenon": 6973,
      "▁pi": 6974,
      "▁handkerchief": 6975,
      "idding": 6976,
      "righted": 6977,
      "▁going": 6978,
      "alsa": 6979,
      "cro": 6980,
      "▁students": 6981,
      "▁raisin": 6982,
      "eeing": 6983,
      "eur": 6984,
      "▁masterpi": 6985,
      "▁chairs": 6986,
      "▁legiti": 6987,
      "▁beginning": 6988,
      "ami": 6989,
      "sec": 6990,
      "iality": 6991,
      "▁cpi": 6992,
      "▁coined": 6993,
      "▁))": 6994,
      "▁dou": 6995,
      "ebook": 6996,
      "▁laser": 6997,
      "alis": 6998,
      "▁almon": 6999,
      "▁diver": 7000,
      "anges": 7001,
      "▁confirms": 7002,
      "▁frosting": 7003,
      "▁sooner": 7004,
      "▁into": 7005,
      "▁jun": 7006,
      "▁chequ": 7007,
      "▁silicone": 7008,
      "▁animation": 7009,
      "▁elections": 7010,
      "idemic": 7011,
      "▁invasion": 7012,
      "▁mitch": 7013,
      "ecuted": 7014,
      "▁guidelines": 7015,
      "uffs": 7016,
      "4th": 7017,
      "▁merits": 7018,
      "▁focus": 7019,
      "▁stores": 7020,
      "llified": 7021,
      "▁husband": 7022,
      "▁participate": 7023,
      "▁origins": 7024,
      "▁assisted": 7025,
      "▁butt": 7026,
      "▁cher": 7027,
      "▁bathtub": 7028,
      "▁waved": 7029,
      "▁nose": 7030,
      "iture": 7031,
      "▁earth": 7032,
      "▁forb": 7033,
      "▁promising": 7034,
      "▁forwar": 7035,
      "▁backside": 7036,
      "▁take": 7037,
      "▁socialist": 7038,
      "▁copyrighted": 7039,
      "▁vs.": 7040,
      "▁seafood": 7041,
      "▁songs": 7042,
      "▁fashion": 7043,
      "▁uhhuh": 7044,
      "il": 7045,
      "▁owners": 7046,
      "▁eaters": 7047,
      "▁refin": 7048,
      "▁folder": 7049,
      "py": 7050,
      "▁up": 7051,
      "▁accuracy": 7052,
      "▁wounds": 7053,
      "atees": 7054,
      "▁article": 7055,
      "▁postures": 7056,
      "▁prosecutor": 7057,
      "▁bulldozer": 7058,
      "▁wife": 7059,
      "▁changes": 7060,
      "istan": 7061,
      "▁absolutely": 7062,
      "ection": 7063,
      "▁amending": 7064,
      "▁coc": 7065,
      "▁dw": 7066,
      "▁fam": 7067,
      "▁administered": 7068,
      "eries": 7069,
      "igg": 7070,
      "enron": 7071,
      "▁division": 7072,
      "ulsion": 7073,
      "▁peop": 7074,
      "▁burning": 7075,
      "▁additionality": 7076,
      "▁seas": 7077,
      "▁thru": 7078,
      "▁glasses": 7079,
      "▁snacks": 7080,
      "▁pillars": 7081,
      "nically": 7082,
      "▁conserv": 7083,
      "▁affects": 7084,
      "▁ai": 7085,
      "▁three": 7086,
      "urop": 7087,
      "hen": 7088,
      "▁producers": 7089,
      "▁eat": 7090,
      "ributed": 7091,
      "▁hypnotized": 7092,
      "ete": 7093,
      "▁publicity": 7094,
      "▁piggie": 7095,
      "▁criteria": 7096,
      "▁knights": 7097,
      "▁men": 7098,
      "▁nanny": 7099,
      "▁.....": 7100,
      "▁counters": 7101,
      "▁contempl": 7102,
      "▁upon": 7103,
      "▁debt": 7104,
      "▁expressing": 7105,
      "aulted": 7106,
      "▁nights": 7107,
      "▁device": 7108,
      "▁ids": 7109,
      "▁compass": 7110,
      "▁fir": 7111,
      "▁ld2d-#69366-1.doc": 7112,
      "▁gaining": 7113,
      "le": 7114,
      "▁beginners": 7115,
      "get": 7116,
      "▁hardware": 7117,
      "fin": 7118,
      "▁reply": 7119,
      "▁hug": 7120,
      "▁bounces": 7121,
      "2b": 7122,
      "▁resemb": 7123,
      "phia": 7124,
      "▁robotics": 7125,
      "▁ste": 7126,
      "▁bug": 7127,
      "▁tobacco": 7128,
      "▁spore": 7129,
      "▁countryside": 7130,
      "▁sheep": 7131,
      "▁non-": 7132,
      "▁unfort": 7133,
      "celer": 7134,
      "▁institutes": 7135,
      "erated": 7136,
      "▁burger": 7137,
      "▁ride": 7138,
      "ronym": 7139,
      "ette": 7140,
      "▁oneself": 7141,
      "▁posts": 7142,
      "▁uprising": 7143,
      "▁differential": 7144,
      "▁slugs": 7145,
      "▁gave": 7146,
      "▁gul": 7147,
      "▁ch": 7148,
      "bil": 7149,
      "▁insight": 7150,
      "pend": 7151,
      "▁questionnaires": 7152,
      "▁fours": 7153,
      "▁can": 7154,
      "ree": 7155,
      "▁nomination": 7156,
      "▁climbed": 7157,
      "▁industry": 7158,
      "rating": 7159,
      "iography": 7160,
      "▁tipped": 7161,
      "ved": 7162,
      "▁displ": 7163,
      "______": 7164,
      "▁compr": 7165,
      "▁meant": 7166,
      "▁firing": 7167,
      "▁garden": 7168,
      "▁picnic": 7169,
      "▁sanctions": 7170,
      "▁dress": 7171,
      "▁paint": 7172,
      "▁antiqu": 7173,
      "bons": 7174,
      "▁rebalancing": 7175,
      "cence": 7176,
      "▁episodes": 7177,
      "even": 7178,
      "▁crops": 7179,
      "riage": 7180,
      "▁mys": 7181,
      "▁tomatoes": 7182,
      "▁tables": 7183,
      "▁imperialism": 7184,
      "▁lack": 7185,
      "led": 7186,
      "▁bran": 7187,
      "▁hyper": 7188,
      "▁scrape": 7189,
      "cret": 7190,
      "▁berry": 7191,
      "▁resorts": 7192,
      "▁hoof": 7193,
      "ecution": 7194,
      "kle": 7195,
      "▁ascertain": 7196,
      "oner": 7197,
      "ivia": 7198,
      "▁injuries": 7199,
      "▁soil": 7200,
      "erted": 7201,
      "▁fusions": 7202,
      "▁yea": 7203,
      "▁carol": 7204,
      "▁concession": 7205,
      "▁mod": 7206,
      "ath": 7207,
      "▁gnome": 7208,
      "▁differing": 7209,
      "▁title": 7210,
      "▁distribute": 7211,
      "▁bulletin": 7212,
      "▁internet": 7213,
      "▁bears": 7214,
      "▁farmers": 7215,
      "▁spanking": 7216,
      "▁rhinoceros": 7217,
      "▁japan": 7218,
      "▁tracked": 7219,
      "ected": 7220,
      "▁market": 7221,
      "▁russia": 7222,
      "www": 7223,
      "▁repressed": 7224,
      "▁-----------------": 7225,
      "▁accepted": 7226,
      ":0": 7227,
      "▁unh": 7228,
      "light": 7229,
      "gible": 7230,
      "▁ans": 7231,
      "▁territ": 7232,
      "▁trains": 7233,
      "▁drawn": 7234,
      "▁lead": 7235,
      "▁pol": 7236,
      "▁commod": 7237,
      "▁negotiated": 7238,
      "▁spirited": 7239,
      "▁mil": 7240,
      "▁bedroom": 7241,
      "▁irony": 7242,
      "olves": 7243,
      "▁whit": 7244,
      "erti": 7245,
      "▁sub": 7246,
      "▁tie": 7247,
      "str": 7248,
      "itish": 7249,
      "▁liq": 7250,
      "▁stained": 7251,
      "▁spring": 7252,
      "▁long": 7253,
      "▁holes": 7254,
      "▁poss": 7255,
      "cony": 7256,
      "▁lacking": 7257,
      "▁repeat": 7258,
      "enders": 7259,
      "▁produces": 7260,
      "▁halt": 7261,
      "uties": 7262,
      "▁surp": 7263,
      "▁swinging": 7264,
      "▁next": 7265,
      "▁parak": 7266,
      "▁rifle": 7267,
      "▁sheltered": 7268,
      "lid": 7269,
      "▁surve": 7270,
      "▁appoint": 7271,
      "▁locomotive": 7272,
      "▁datab": 7273,
      "tened": 7274,
      "unity": 7275,
      "olation": 7276,
      "▁tomato": 7277,
      "cinn": 7278,
      "fo": 7279,
      "▁contributing": 7280,
      "mometer": 7281,
      "▁expanding": 7282,
      ".ht": 7283,
      "▁burst": 7284,
      "by": 7285,
      "▁networks": 7286,
      "▁vice": 7287,
      "▁indicating": 7288,
      "▁discrimination": 7289,
      "▁stored": 7290,
      "▁activity": 7291,
      "▁counterfeit": 7292,
      "-b": 7293,
      "▁engage": 7294,
      "▁renewal": 7295,
      "▁spending": 7296,
      "▁advises": 7297,
      "▁intends": 7298,
      "rella": 7299,
      "wan": 7300,
      "▁proves": 7301,
      "ilos": 7302,
      "▁submission": 7303,
      "▁cigarette": 7304,
      "▁salad": 7305,
      "▁genius": 7306,
      "▁vess": 7307,
      "▁profits": 7308,
      "▁imp": 7309,
      "”s": 7310,
      "▁welcom": 7311,
      "aughters": 7312,
      "▁mine": 7313,
      "▁orig": 7314,
      "▁1960s": 7315,
      "▁fuss": 7316,
      "erent": 7317,
      "▁creation": 7318,
      "▁flown": 7319,
      "▁tone": 7320,
      "oleum": 7321,
      "▁impress": 7322,
      "▁spout": 7323,
      "▁kingdom": 7324,
      "▁filling": 7325,
      "▁pledge": 7326,
      "▁scammers": 7327,
      "▁thanking": 7328,
      "▁fifteen": 7329,
      "omes": 7330,
      "▁urge": 7331,
      "▁repeated": 7332,
      "▁lying": 7333,
      "▁swung": 7334,
      "▁reject": 7335,
      "▁magistr": 7336,
      "▁‘’": 7337,
      "▁opp": 7338,
      "▁barely": 7339,
      "▁paying": 7340,
      "▁squeal": 7341,
      "▁weighed": 7342,
      "▁sql": 7343,
      "▁mothers": 7344,
      "▁victor": 7345,
      "▁cited": 7346,
      "▁releasing": 7347,
      "▁predictors": 7348,
      "▁borne": 7349,
      "▁portrayed": 7350,
      "▁frag": 7351,
      "▁forgive": 7352,
      "▁vis": 7353,
      "ive": 7354,
      "cup": 7355,
      "inema": 7356,
      "▁signific": 7357,
      "▁introducing": 7358,
      "▁pilgrim": 7359,
      "▁civili": 7360,
      "▁pang": 7361,
      "▁conflic": 7362,
      "▁carro": 7363,
      "▁sof": 7364,
      "elt": 7365,
      "▁concentrating": 7366,
      ":00": 7367,
      "▁seats": 7368,
      "ic": 7369,
      "▁hypnosis": 7370,
      "▁had": 7371,
      "▁encoun": 7372,
      "▁runs": 7373,
      "▁leaps": 7374,
      "commerce": 7375,
      "▁cock": 7376,
      "▁sunk": 7377,
      "▁mountain": 7378,
      "▁advisers": 7379,
      "–": 7380,
      "▁tiny": 7381,
      "▁outcomes": 7382,
      "▁ukraine": 7383,
      "ources": 7384,
      "▁upset": 7385,
      "▁reform": 7386,
      "▁prefecture": 7387,
      "▁employers": 7388,
      "ademic": 7389,
      "▁ecommerce": 7390,
      "orded": 7391,
      "ooks": 7392,
      "▁mus": 7393,
      "▁scattered": 7394,
      "▁corpus": 7395,
      "let": 7396,
      "▁kangaroo": 7397,
      "ace": 7398,
      "▁exec": 7399,
      "▁manual": 7400,
      "▁bigger": 7401,
      "▁hens": 7402,
      "▁criticism": 7403,
      "▁chatting": 7404,
      "▁priced": 7405,
      "▁vali": 7406,
      "▁deciding": 7407,
      "3i": 7408,
      "▁private": 7409,
      "▁dest": 7410,
      "▁onto": 7411,
      "▁imposing": 7412,
      "▁tactic": 7413,
      "▁bathrooms": 7414,
      "ests": 7415,
      "▁usually": 7416,
      "hee": 7417,
      "▁distur": 7418,
      "▁mix": 7419,
      "▁outlined": 7420,
      "▁vib": 7421,
      "isters": 7422,
      "▁lump": 7423,
      "▁stethoscope": 7424,
      "▁outfit": 7425,
      "▁nuclear": 7426,
      "▁millions": 7427,
      "▁balloon": 7428,
      "▁yawning": 7429,
      "coli": 7430,
      "asis": 7431,
      "▁treats": 7432,
      "▁sign": 7433,
      "▁fronti": 7434,
      "▁marshes": 7435,
      "▁cfl": 7436,
      "▁fever": 7437,
      "▁concentrate": 7438,
      "▁aggression": 7439,
      "▁relate": 7440,
      "▁abuse": 7441,
      "▁lawy": 7442,
      "▁letters": 7443,
      "▁??": 7444,
      "▁listening": 7445,
      "▁thought": 7446,
      "▁lego": 7447,
      "▁scenery": 7448,
      "▁ethics": 7449,
      "istency": 7450,
      "▁hur": 7451,
      "▁mob": 7452,
      "▁worth": 7453,
      "nch": 7454,
      "▁extrem": 7455,
      "▁discouraging": 7456,
      "▁hive": 7457,
      "▁brings": 7458,
      "ifications": 7459,
      "▁gosh": 7460,
      "▁eats": 7461,
      "▁ld2d-#69345": 7462,
      "▁time": 7463,
      "▁summary": 7464,
      "▁encl": 7465,
      "▁equipment": 7466,
      "▁challenged": 7467,
      "▁inspection": 7468,
      "▁recreating": 7469,
      "▁fundament": 7470,
      "▁band": 7471,
      "▁appeal": 7472,
      "▁bard": 7473,
      "▁brooms": 7474,
      "▁aversion": 7475,
      "▁clap": 7476,
      "▁http": 7477,
      "▁vel": 7478,
      "▁beyon": 7479,
      "▁cel": 7480,
      "tiveness": 7481,
      "▁persu": 7482,
      "sets": 7483,
      "▁milit": 7484,
      "▁contradict": 7485,
      "derstanding": 7486,
      "▁cha": 7487,
      "▁li": 7488,
      "ado": 7489,
      "▁boundaries": 7490,
      "rupt": 7491,
      "▁bart": 7492,
      "▁ss": 7493,
      "imarily": 7494,
      "▁interface": 7495,
      "group": 7496,
      "▁parti": 7497,
      "▁auction": 7498,
      "dotes": 7499,
      "▁big": 7500,
      "▁tear": 7501,
      "▁moments": 7502,
      "▁servant": 7503,
      "▁crying": 7504,
      "▁gut": 7505,
      "ambment": 7506,
      "▁meditation": 7507,
      "▁rub": 7508,
      "▁adverts": 7509,
      "▁fluids": 7510,
      "▁dishwash": 7511,
      "▁logic": 7512,
      "▁condem": 7513,
      "▁taxpay": 7514,
      "▁jingle": 7515,
      "ind": 7516,
      "ʻ": 7517,
      "▁autofilter": 7518,
      "▁moder": 7519,
      "▁calculating": 7520,
      "▁turn": 7521,
      "▁classified": 7522,
      "▁appease": 7523,
      "▁followed": 7524,
      "oting": 7525,
      "▁pet": 7526,
      "▁eigh": 7527,
      "▁occupies": 7528,
      "▁forg": 7529,
      "rty": 7530,
      "▁lust": 7531,
      "▁drive": 7532,
      "▁!!!?": 7533,
      "▁tha": 7534,
      "▁stickerbir": 7535,
      "▁entertain": 7536,
      "▁heightened": 7537,
      "▁himself": 7538,
      "workers": 7539,
      "▁holders": 7540,
      "▁magician": 7541,
      "▁minneapolis": 7542,
      "▁routes": 7543,
      "▁dischar": 7544,
      "▁divor": 7545,
      "▁immer": 7546,
      "aurs": 7547,
      "▁supplied": 7548,
      "▁stomachs": 7549,
      "▁conduc": 7550,
      "▁toy": 7551,
      "rise": 7552,
      "▁ideation": 7553,
      "▁foul": 7554,
      "▁pillow": 7555,
      "mbered": 7556,
      "▁pie": 7557,
      "▁jack": 7558,
      "▁genitals": 7559,
      "▁nana": 7560,
      "ych": 7561,
      "▁perf": 7562,
      "cer": 7563,
      "▁vets": 7564,
      "▁peppers": 7565,
      "▁divorce": 7566,
      "▁happen": 7567,
      "▁destroyed": 7568,
      "▁cleveland": 7569,
      "▁cotton": 7570,
      "▁motivated": 7571,
      "▁recorded": 7572,
      "▁kip": 7573,
      "ice": 7574,
      "▁eastern": 7575,
      "▁advertis": 7576,
      "▁travelers": 7577,
      "▁believing": 7578,
      "lessly": 7579,
      ":30": 7580,
      "▁padd": 7581,
      "orp": 7582,
      "icks": 7583,
      "▁glove": 7584,
      "▁shine": 7585,
      "▁planned": 7586,
      "▁self-": 7587,
      "▁vulner": 7588,
      "▁appropriate": 7589,
      "opath": 7590,
      "▁lab": 7591,
      "▁2012": 7592,
      "▁aeros": 7593,
      "▁passes": 7594,
      "$": 7595,
      "▁tech": 7596,
      "▁contained": 7597,
      "▁tracks": 7598,
      "naires": 7599,
      "▁arranged": 7600,
      "▁vomiting": 7601,
      "▁wav": 7602,
      "▁compensation": 7603,
      "ced": 7604,
      "▁irritation": 7605,
      "igrate": 7606,
      "▁thirtieth": 7607,
      "▁billi": 7608,
      "glar": 7609,
      "▁bent": 7610,
      "▁earli": 7611,
      "▁song": 7612,
      "▁healthy": 7613,
      "▁reserved": 7614,
      "▁cartoons": 7615,
      "amole": 7616,
      "int": 7617,
      "▁variation": 7618,
      "▁taking": 7619,
      "▁respon": 7620,
      "▁book": 7621,
      "loy": 7622,
      "▁quart": 7623,
      "▁possessed": 7624,
      "▁defendants": 7625,
      "'s": 7626,
      "drops": 7627,
      "▁aph": 7628,
      "ann": 7629,
      "▁mar": 7630,
      "▁dur": 7631,
      "▁detail": 7632,
      "aks": 7633,
      "▁mi": 7634,
      "ero": 7635,
      "▁moreau": 7636,
      "▁tail": 7637,
      "▁inform": 7638,
      "rited": 7639,
      "▁departs": 7640,
      "▁vi": 7641,
      "▁whether": 7642,
      "▁rejection": 7643,
      "▁materials": 7644,
      "▁legal": 7645,
      "▁surrounding": 7646,
      "ald": 7647,
      "▁veteran": 7648,
      "▁jurisdictions": 7649,
      "▁foll": 7650,
      "▁extension": 7651,
      "▁compos": 7652,
      "▁baggage": 7653,
      "▁boston": 7654,
      "ando": 7655,
      "lant": 7656,
      "▁exhaustion": 7657,
      "▁collapse": 7658,
      "ec": 7659,
      "▁merc": 7660,
      "▁rap": 7661,
      "▁hol": 7662,
      "umps": 7663,
      "▁deer": 7664,
      "▁toystore": 7665,
      "heat": 7666,
      "▁languages": 7667,
      "----": 7668,
      "ullness": 7669,
      "▁pinch": 7670,
      "orated": 7671,
      "▁clown": 7672,
      "oss": 7673,
      "▁teef": 7674,
      "▁pandemic": 7675,
      "▁charging": 7676,
      "▁ingredients": 7677,
      "▁seems": 7678,
      "#693": 7679,
      "▁bel": 7680,
      "▁boy": 7681,
      "▁jerk": 7682,
      "adas": 7683,
      "▁senti": 7684,
      "▁unions": 7685,
      "▁news": 7686,
      "r": 7687,
      "▁apprentice": 7688,
      "water": 7689,
      "ion": 7690,
      "▁pretty": 7691,
      "▁spawn": 7692,
      "▁fix": 7693,
      "▁constituency": 7694,
      "▁alphabet": 7695,
      "▁variability": 7696,
      "▁power": 7697,
      "▁transmitted": 7698,
      "▁funded": 7699,
      "▁modification": 7700,
      "▁civilization": 7701,
      "▁joy": 7702,
      "▁symbolizes": 7703,
      "▁receip": 7704,
      "/ps": 7705,
      "bility": 7706,
      "uggle": 7707,
      "▁headlines": 7708,
      "▁fest": 7709,
      "▁mortgage": 7710,
      "▁money": 7711,
      "▁missed": 7712,
      "▁reflecting": 7713,
      "▁bringing": 7714,
      "▁bottles": 7715,
      "▁inv": 7716,
      "▁hungry": 7717,
      "▁remain": 7718,
      "▁experience": 7719,
      "▁rolled": 7720,
      "▁clinking": 7721,
      "▁circle": 7722,
      "▁backs": 7723,
      "ange": 7724,
      "mer": 7725,
      "▁rings": 7726,
      "aust": 7727,
      "▁bit": 7728,
      "▁transaction": 7729,
      "ooth": 7730,
      "▁investors": 7731,
      "▁b/c": 7732,
      "▁accounts": 7733,
      "▁congressman": 7734,
      "▁har": 7735,
      "▁boing": 7736,
      "▁resignation": 7737,
      "▁dined": 7738,
      "▁fulfill": 7739,
      "udge": 7740,
      "▁house-": 7741,
      "▁jar": 7742,
      "▁expense": 7743,
      "▁uniformity": 7744,
      "▁wolf": 7745,
      "uded": 7746,
      "▁febr": 7747,
      "▁luck": 7748,
      "▁housing": 7749,
      "▁subjected": 7750,
      "▁spr": 7751,
      "girl": 7752,
      "▁country": 7753,
      "▁loves": 7754,
      "▁january": 7755,
      "▁naturalism": 7756,
      "▁lb": 7757,
      "▁discrepancy": 7758,
      "unately": 7759,
      "▁durs": 7760,
      "▁nobility": 7761,
      "▁sheriff": 7762,
      "▁reporter": 7763,
      "ghetti": 7764,
      "▁attendees": 7765,
      "▁try": 7766,
      "▁detected": 7767,
      "▁faces": 7768,
      "▁diversity": 7769,
      "yan": 7770,
      "▁operating": 7771,
      "acter": 7772,
      "bod": 7773,
      "▁agriculture": 7774,
      "▁contrib": 7775,
      "▁biting": 7776,
      "finger": 7777,
      "▁snakes": 7778,
      "▁moth": 7779,
      "▁wite": 7780,
      "▁dignity": 7781,
      "▁tablespoon": 7782,
      "▁monarchy": 7783,
      "▁remove": 7784,
      "apping": 7785,
      "▁drained": 7786,
      "▁punch": 7787,
      "ois": 7788,
      "wash": 7789,
      "▁nig": 7790,
      "▁on": 7791,
      "▁gin": 7792,
      "▁sout": 7793,
      "▁doctrine": 7794,
      "▁democratic": 7795,
      "mely": 7796,
      "▁cheers": 7797,
      "▁fal": 7798,
      "▁twist": 7799,
      "als": 7800,
      "▁yes": 7801,
      "▁chief": 7802,
      "▁minority": 7803,
      "tices": 7804,
      "▁thous": 7805,
      "▁threatens": 7806,
      "bled": 7807,
      "▁waning": 7808,
      "▁thurs": 7809,
      "▁waiters": 7810,
      "▁insult": 7811,
      "▁river": 7812,
      "cki": 7813,
      "▁microwave": 7814,
      "▁orient": 7815,
      "opoly": 7816,
      "▁earned": 7817,
      "▁installing": 7818,
      "▁grain": 7819,
      "▁save": 7820,
      "▁heating": 7821,
      "▁resource": 7822,
      "▁nest": 7823,
      "▁suit": 7824,
      "▁assump": 7825,
      "▁document": 7826,
      "▁whe": 7827,
      "▁grounds": 7828,
      "▁trous": 7829,
      "φ": 7830,
      "▁sep": 7831,
      "▁survival": 7832,
      "▁unt": 7833,
      "▁reccomend": 7834,
      "▁symmet": 7835,
      "▁obtain": 7836,
      "och": 7837,
      "▁“": 7838,
      "▁indul": 7839,
      "▁yay": 7840,
      "▁an": 7841,
      "nel": 7842,
      "▁moham": 7843,
      "▁recruitment": 7844,
      "▁altar": 7845,
      "bean": 7846,
      "▁sculptures": 7847,
      "▁owner": 7848,
      "eda": 7849,
      "’t": 7850,
      "▁appalled": 7851,
      "▁paradise": 7852,
      "person": 7853,
      "▁resili": 7854,
      "▁stairs": 7855,
      "▁films": 7856,
      "▁companion": 7857,
      "▁disgor": 7858,
      "lement": 7859,
      "▁jul": 7860,
      "▁coin": 7861,
      "▁currents": 7862,
      "▁corrected": 7863,
      "app": 7864,
      "ularity": 7865,
      "▁findings": 7866,
      "▁shack": 7867,
      "▁originated": 7868,
      "oin": 7869,
      "▁gaze": 7870,
      "moil": 7871,
      "▁!!!!!!": 7872,
      "ons": 7873,
      "▁harm": 7874,
      "81-1.doc": 7875,
      "▁barriers": 7876,
      "▁fitness": 7877,
      "gle": 7878,
      "▁denti": 7879,
      "▁cp": 7880,
      "▁ballerina": 7881,
      "▁wal": 7882,
      "▁comprehension": 7883,
      "▁geof": 7884,
      "▁bra": 7885,
      "▁turb": 7886,
      ",": 7887,
      "gen": 7888,
      "ift": 7889,
      "▁bet": 7890,
      "▁carriage": 7891,
      "lying": 7892,
      "▁scenarios": 7893,
      "illing": 7894,
      "▁liber": 7895,
      "▁promoted": 7896,
      "▁remember": 7897,
      "▁balancing": 7898,
      "ribute": 7899,
      "hol": 7900,
      "oodle": 7901,
      "▁gar": 7902,
      "▁carrying": 7903,
      "▁emptiness": 7904,
      "▁mathematician": 7905,
      "ush": 7906,
      "▁generate": 7907,
      "▁policeman": 7908,
      "(s": 7909,
      "▁decision": 7910,
      "▁envelop": 7911,
      "▁birthdays": 7912,
      "▁nect": 7913,
      "rong": 7914,
      "▁sensing": 7915,
      "▁years": 7916,
      "▁argued": 7917,
      "▁succumb": 7918,
      "▁datash": 7919,
      "▁charco": 7920,
      "▁detective": 7921,
      "▁focused": 7922,
      "imately": 7923,
      "uri": 7924,
      "omed": 7925,
      "nish": 7926,
      "eak": 7927,
      "▁male": 7928,
      "sid": 7929,
      "▁zip": 7930,
      "▁managing": 7931,
      "▁biologist": 7932,
      "▁invent": 7933,
      "▁gda": 7934,
      "▁desired": 7935,
      "▁billion": 7936,
      "▁mut": 7937,
      "▁tidbit": 7938,
      "▁chefs": 7939,
      "▁confirm": 7940,
      "▁round": 7941,
      "▁resident": 7942,
      "▁und": 7943,
      "▁whose": 7944,
      "▁wage": 7945,
      "front": 7946,
      "▁intermed": 7947,
      "yon": 7948,
      "▁amendment": 7949,
      "▁disasters": 7950,
      "itude": 7951,
      "▁divers": 7952,
      "▁pixies": 7953,
      "▁helped": 7954,
      "▁uncover": 7955,
      "ational": 7956,
      "▁be": 7957,
      "▁percentiles": 7958,
      "▁prevents": 7959,
      "▁greenhouse": 7960,
      "▁insur": 7961,
      "▁deliver": 7962,
      "▁trail": 7963,
      "▁enabling": 7964,
      "▁soared": 7965,
      "▁capacity": 7966,
      "ς": 7967,
      "enna": 7968,
      "enn": 7969,
      "▁brick": 7970,
      "▁joh": 7971,
      "▁dying": 7972,
      "▁mma": 7973,
      "etus": 7974,
      "▁section": 7975,
      "▁sleep": 7976,
      "▁censor": 7977,
      "time": 7978,
      "tively": 7979,
      "▁tric": 7980,
      "olve": 7981,
      "▁room": 7982,
      "ulator": 7983,
      "▁troub": 7984,
      "▁sails": 7985,
      "▁text": 7986,
      "▁lamp": 7987,
      "▁considered": 7988,
      "hiki": 7989,
      "▁safe": 7990,
      "▁sw": 7991,
      "an": 7992,
      "▁without": 7993,
      "▁question": 7994,
      "▁vintage": 7995,
      "▁squirter": 7996,
      "▁mentions": 7997,
      "▁colonization": 7998,
      "▁n": 7999,
      "onally": 8000,
      "nuts": 8001,
      "▁13": 8002,
      "▁fulfilled": 8003,
      "entieth": 8004,
      "anda": 8005,
      "▁exem": 8006,
      "▁released": 8007,
      "ft": 8008,
      "▁among": 8009,
      "▁attendant": 8010,
      "▁lift": 8011,
      "▁entire": 8012,
      "▁antibiotics": 8013,
      "ote": 8014,
      "+work": 8015,
      "▁stra": 8016,
      "▁specified": 8017,
      "▁probe": 8018,
      "▁chains": 8019,
      "▁wells": 8020,
      "♥": 8021,
      "isti": 8022,
      "rates": 8023,
      "▁projected": 8024,
      "▁cry": 8025,
      "▁agre": 8026,
      "▁trust": 8027,
      "▁notion": 8028,
      "10": 8029,
      "▁players": 8030,
      "▁passport": 8031,
      "ihow": 8032,
      "orting": 8033,
      "▁learning": 8034,
      "▁killed": 8035,
      "▁joined": 8036,
      "▁sut": 8037,
      "▁saint": 8038,
      "loqu": 8039,
      "▁brooding": 8040,
      "▁uth": 8041,
      "▁attn": 8042,
      "▁bush": 8043,
      "▁stillman": 8044,
      "fro": 8045,
      "▁cowboys": 8046,
      "▁anyone": 8047,
      "mic": 8048,
      "▁accessing": 8049,
      "▁discouraged": 8050,
      "▁optionality": 8051,
      "▁reap": 8052,
      "▁affiliate": 8053,
      "▁april": 8054,
      "------->": 8055,
      "sus": 8056,
      "▁metaphors": 8057,
      "▁checkout": 8058,
      "▁retailers": 8059,
      "▁cleaner": 8060,
      "▁coconut": 8061,
      "▁temple": 8062,
      "antly": 8063,
      "▁spend": 8064,
      "▁event": 8065,
      "+c": 8066,
      "▁framework": 8067,
      "▁nyl": 8068,
      "ans": 8069,
      "▁schedul": 8070,
      "arism": 8071,
      "▁pose": 8072,
      "▁em": 8073,
      "▁ut": 8074,
      "pace": 8075,
      "▁simp": 8076,
      "▁rests": 8077,
      "▁desire": 8078,
      "▁initiated": 8079,
      "▁hugged": 8080,
      "acles": 8081,
      "inded": 8082,
      "▁shoot": 8083,
      "▁purchasing": 8084,
      "uses": 8085,
      "°": 8086,
      "▁intention": 8087,
      "▁abandoning": 8088,
      "▁imagined": 8089,
      "▁replacing": 8090,
      "▁lacked": 8091,
      "▁encounter": 8092,
      "dge": 8093,
      "ales": 8094,
      "▁acorn": 8095,
      "----------": 8096,
      "uttered": 8097,
      "mo": 8098,
      "▁enjo": 8099,
      "▁gover": 8100,
      "▁casting": 8101,
      "▁occurred": 8102,
      "▁asc": 8103,
      "▁looming": 8104,
      "▁sandwiches": 8105,
      "▁looking": 8106,
      "ilight": 8107,
      "▁tw": 8108,
      "asted": 8109,
      "ategy": 8110,
      "▁base": 8111,
      "ean": 8112,
      "▁pamp": 8113,
      "irs": 8114,
      "father": 8115,
      "orn": 8116,
      "men": 8117,
      "▁comb": 8118,
      "▁defin": 8119,
      "▁demonstrate": 8120,
      "▁neighb": 8121,
      "▁carpenter": 8122,
      "▁cont": 8123,
      "▁enrolled": 8124,
      "▁directives": 8125,
      "▁throughout": 8126,
      "▁15th": 8127,
      "▁accommodations": 8128,
      "▁possibility": 8129,
      "et": 8130,
      "▁sprink": 8131,
      "47": 8132,
      "tially": 8133,
      "▁accused": 8134,
      "▁usurp": 8135,
      "▁dangling": 8136,
      "▁leverage": 8137,
      "▁90": 8138,
      "nament": 8139,
      "fitting": 8140,
      "▁lawn": 8141,
      "▁pests": 8142,
      "▁edit": 8143,
      "▁co-founder": 8144,
      "▁satisf": 8145,
      "▁weakened": 8146,
      "▁9th": 8147,
      "▁mex": 8148,
      "▁blinking": 8149,
      "icide": 8150,
      "▁ruin": 8151,
      "▁ruins": 8152,
      "▁cluster": 8153,
      "▁session": 8154,
      "▁color": 8155,
      "▁limits": 8156,
      "gether": 8157,
      "▁distortion": 8158,
      "▁jan": 8159,
      "ban": 8160,
      "▁cartoon": 8161,
      "anger": 8162,
      "▁monastery": 8163,
      "60's": 8164,
      "▁mosqu": 8165,
      "▁ac": 8166,
      "▁drafted": 8167,
      "▁pavement": 8168,
      "▁exchanges": 8169,
      "▁butterfly": 8170,
      "tim": 8171,
      "▁depths": 8172,
      "▁stocks": 8173,
      "science": 8174,
      "▁waving": 8175,
      "uild": 8176,
      "▁overview": 8177,
      "affle": 8178,
      "▁enchiladas": 8179,
      "▁bus": 8180,
      "▁emph": 8181,
      "▁pens": 8182,
      "ouses": 8183,
      "▁union": 8184,
      "ould": 8185,
      "▁blood": 8186,
      "ills": 8187,
      "▁mills": 8188,
      "▁limestone": 8189,
      "zations": 8190,
      "▁sculpture": 8191,
      "oices": 8192,
      "▁gag": 8193,
      "▁missions": 8194,
      "▁conferences": 8195,
      "▁fluff": 8196,
      "▁units": 8197,
      "-life": 8198,
      "▁intended": 8199,
      "▁dodge": 8200,
      "▁latest": 8201,
      "▁program": 8202,
      "xth": 8203,
      "iles": 8204,
      "▁swee": 8205,
      "▁strugg": 8206,
      "▁whale": 8207,
      "▁numbness": 8208,
      "res": 8209,
      "cade": 8210,
      "▁reasoned": 8211,
      "aries": 8212,
      "▁greatness": 8213,
      "▁coordinated": 8214,
      "tually": 8215,
      "activity": 8216,
      "▁serves": 8217,
      "▁spoken": 8218,
      "▁territory": 8219,
      "▁identity": 8220,
      "▁exercised": 8221,
      "▁wines": 8222,
      "structed": 8223,
      "▁volcano": 8224,
      "▁#'s": 8225,
      "▁sauc": 8226,
      "▁haf": 8227,
      "▁nurse": 8228,
      "▁grill": 8229,
      "▁various": 8230,
      "▁swing": 8231,
      "▁om": 8232,
      "mon": 8233,
      "▁shovel": 8234,
      "▁chunk": 8235,
      "▁stickers": 8236,
      "ankie": 8237,
      "ulture": 8238,
      "▁donation": 8239,
      "▁hacking": 8240,
      "▁reached": 8241,
      "▁reviewing": 8242,
      "mble": 8243,
      "qui": 8244,
      "▁;": 8245,
      "▁often": 8246,
      "▁assassination": 8247,
      "▁satisfaction": 8248,
      "▁operative": 8249,
      "▁scarf": 8250,
      "▁wr": 8251,
      "▁vide": 8252,
      "▁wood": 8253,
      "▁dates": 8254,
      "▁grass": 8255,
      "identally": 8256,
      "▁peas": 8257,
      "▁economics": 8258,
      "▁wangs": 8259,
      "ighter": 8260,
      "▁scient": 8261,
      "ighten": 8262,
      "round": 8263,
      "ly": 8264,
      "▁presenting": 8265,
      "ving": 8266,
      "▁flash": 8267,
      "ais": 8268,
      "▁techniques": 8269,
      "▁rented": 8270,
      "▁grad": 8271,
      "▁novelist": 8272,
      ".6": 8273,
      "▁gastroenteritis": 8274,
      "u": 8275,
      "▁minds": 8276,
      "▁lunchtime": 8277,
      "▁teacher": 8278,
      "▁already": 8279,
      "▁gold": 8280,
      "▁co-workers": 8281,
      "▁deported": 8282,
      "▁regulated": 8283,
      "ergy": 8284,
      "▁declar": 8285,
      "▁diplomacy": 8286,
      "▁popped": 8287,
      "▁spaced": 8288,
      "▁was": 8289,
      "▁gastroenter": 8290,
      "tite": 8291,
      "▁browse": 8292,
      "▁least": 8293,
      "minate": 8294,
      "▁wow": 8295,
      "how": 8296,
      "▁child": 8297,
      "▁grow": 8298,
      "ang": 8299,
      "▁exporting": 8300,
      "▁blocks": 8301,
      "4": 8302,
      "mit": 8303,
      "▁remind": 8304,
      "▁pig": 8305,
      "arming": 8306,
      "▁offered": 8307,
      "▁contracted": 8308,
      "▁tragedies": 8309,
      "erence": 8310,
      "marked": 8311,
      "derstand": 8312,
      "▁cans": 8313,
      "▁phrase": 8314,
      "▁laptop": 8315,
      "▁exc": 8316,
      "keness": 8317,
      "▁poles": 8318,
      "▁woken": 8319,
      "▁clo": 8320,
      "▁objective": 8321,
      "▁pul": 8322,
      "▁scheduled": 8323,
      "aos": 8324,
      "29": 8325,
      "▁philadel": 8326,
      "▁procrast": 8327,
      "▁meeting": 8328,
      "▁hunger": 8329,
      "▁repay": 8330,
      "▁dotted": 8331,
      "▁shrubs": 8332,
      "▁absolut": 8333,
      "ounters": 8334,
      "▁cancelled": 8335,
      "▁t.v.": 8336,
      "pring": 8337,
      "▁flo": 8338,
      "▁foreigner": 8339,
      "-pos": 8340,
      "▁splash": 8341,
      ".pdf": 8342,
      "▁weap": 8343,
      "▁glass": 8344,
      "▁looks": 8345,
      "▁raining": 8346,
      "▁palace": 8347,
      "actor": 8348,
      "▁tendencies": 8349,
      "▁ridden": 8350,
      "▁legos": 8351,
      "formation": 8352,
      "▁regret": 8353,
      "▁examples": 8354,
      "▁romances": 8355,
      "▁shov": 8356,
      "lder": 8357,
      "▁tar": 8358,
      "▁fac": 8359,
      "▁experimenting": 8360,
      "'etat": 8361,
      "aed": 8362,
      "real": 8363,
      "▁tourist": 8364,
      "ologists": 8365,
      "ially": 8366,
      "▁banking": 8367,
      "holds": 8368,
      "▁issue": 8369,
      "▁brains": 8370,
      "▁expulsion": 8371,
      "▁loving": 8372,
      "leading": 8373,
      "▁hamster": 8374,
      "▁fur": 8375,
      "▁desert": 8376,
      "▁possibilities": 8377,
      "▁nephew": 8378,
      "ps": 8379,
      "▁skiing": 8380,
      "▁problems": 8381,
      "▁destruction": 8382,
      "”": 8383,
      "▁prospects": 8384,
      "room": 8385,
      ".8": 8386,
      "▁analyze": 8387,
      "cs": 8388,
      "▁accomm": 8389,
      "▁chances": 8390,
      "▁spaw": 8391,
      "▁pitches": 8392,
      "tle": 8393,
      "▁supporter": 8394,
      "ticks": 8395,
      "▁agony": 8396,
      "▁sweet": 8397,
      "▁‘": 8398,
      "▁ministry": 8399,
      "▁promise": 8400,
      "▁nurs": 8401,
      "▁bun": 8402,
      "▁press": 8403,
      "▁revision": 8404,
      "ribution": 8405,
      "▁blind": 8406,
      "ograp": 8407,
      "ellers": 8408,
      "ributes": 8409,
      "▁solve": 8410,
      "▁gri": 8411,
      "pop": 8412,
      "▁situation": 8413,
      "▁anger": 8414,
      "▁tasting": 8415,
      "▁mould": 8416,
      "▁inability": 8417,
      "▁flesh": 8418,
      "ome": 8419,
      "▁meas": 8420,
      "▁relatives": 8421,
      "▁banjo": 8422,
      "▁ambition": 8423,
      "▁zombie": 8424,
      "▁rulers": 8425,
      "▁scholarship": 8426,
      "pically": 8427,
      "▁assassinated": 8428,
      "▁rudeness": 8429,
      "▁disse": 8430,
      "▁clar": 8431,
      "▁vessel": 8432,
      "▁features": 8433,
      "▁slaves": 8434,
      "▁27": 8435,
      "ural": 8436,
      "▁formality": 8437,
      "but": 8438,
      "iod": 8439,
      "lite": 8440,
      "▁lol": 8441,
      "ifies": 8442,
      "▁foreground": 8443,
      "equ": 8444,
      "▁explained": 8445,
      "▁commission": 8446,
      "ipp": 8447,
      "▁hyp": 8448,
      "▁lemon": 8449,
      "▁60": 8450,
      "-time": 8451,
      "oundings": 8452,
      "astruc": 8453,
      "ler": 8454,
      "▁subjects": 8455,
      "igation": 8456,
      "▁veranda": 8457,
      "▁problem": 8458,
      "▁---------------------------------------------------------------------------": 8459,
      "▁enrongss.xls": 8460,
      "▁environment": 8461,
      "▁moon": 8462,
      "▁she": 8463,
      "▁gun": 8464,
      "▁s’": 8465,
      "▁dick": 8466,
      "▁miseries": 8467,
      "▁endanger": 8468,
      "▁d700": 8469,
      "▁consum": 8470,
      "▁immigrants": 8471,
      "driver": 8472,
      "▁stall": 8473,
      "▁sched": 8474,
      "▁purchases": 8475,
      "/2000": 8476,
      "opes": 8477,
      "ening": 8478,
      "▁dial": 8479,
      "▁picture": 8480,
      "▁concept": 8481,
      "all": 8482,
      "▁convictions": 8483,
      "unt": 8484,
      "▁cord": 8485,
      "▁spokes": 8486,
      "▁cowboy": 8487,
      "ieve": 8488,
      "▁rasp": 8489,
      "▁belts": 8490,
      "▁excluding": 8491,
      "▁combined": 8492,
      "▁wing": 8493,
      "minated": 8494,
      "▁postp": 8495,
      "▁dump": 8496,
      "adder": 8497,
      "▁tol": 8498,
      "olic": 8499,
      "cking": 8500,
      "▁satisfy": 8501,
      "▁veget": 8502,
      "▁playwrights": 8503,
      "▁prey": 8504,
      "ql": 8505,
      "▁pige": 8506,
      "▁pronunciation": 8507,
      "▁web": 8508,
      "vert": 8509,
      "▁queue": 8510,
      "▁birdie": 8511,
      "9th": 8512,
      "ino": 8513,
      "▁ontario": 8514,
      "▁escape": 8515,
      "▁upgrade": 8516,
      "▁fert": 8517,
      "▁commands": 8518,
      "itz": 8519,
      "▁progr": 8520,
      "▁art": 8521,
      "▁''": 8522,
      "-th": 8523,
      "▁costs": 8524,
      "ust": 8525,
      "▁penet": 8526,
      "▁per": 8527,
      "▁trave": 8528,
      "gate": 8529,
      "edly": 8530,
      "▁south": 8531,
      "▁purpose": 8532,
      "▁humus": 8533,
      "▁discussion": 8534,
      "▁peters": 8535,
      "▁sucked": 8536,
      "▁visit": 8537,
      "▁categories": 8538,
      "oming": 8539,
      "▁tensions": 8540,
      "▁bok": 8541,
      "lect": 8542,
      "▁uk": 8543,
      "arities": 8544,
      "▁joke": 8545,
      "▁asthma": 8546,
      "▁positions": 8547,
      "▁nato": 8548,
      "▁blogger": 8549,
      "▁cyp": 8550,
      "▁balances": 8551,
      "▁settled": 8552,
      "▁commemorated": 8553,
      "▁baking": 8554,
      "▁compared": 8555,
      "▁campus": 8556,
      "▁crane": 8557,
      "▁container": 8558,
      "obia": 8559,
      "ffle": 8560,
      "▁neo": 8561,
      "▁etc.": 8562,
      "700": 8563,
      "▁place": 8564,
      "▁arms": 8565,
      "▁taste": 8566,
      "▁puzz": 8567,
      "▁surgery": 8568,
      "▁harness": 8569,
      "▁char": 8570,
      "earm": 8571,
      "▁owing": 8572,
      "▁varying": 8573,
      "set": 8574,
      "▁blower": 8575,
      "tiqu": 8576,
      "▁makeup": 8577,
      "▁atmosphere": 8578,
      "▁separation": 8579,
      "▁wigg": 8580,
      "▁colour": 8581,
      "atibility": 8582,
      "▁scholars": 8583,
      "▁scoot": 8584,
      "▁fighter": 8585,
      "▁ladies": 8586,
      "▁scared": 8587,
      "▁skys": 8588,
      "▁solutions": 8589,
      "▁grapp": 8590,
      "▁proposes": 8591,
      "▁ink": 8592,
      "vas": 8593,
      "thma": 8594,
      "▁roadgrader": 8595,
      "?": 8596,
      "▁tramp": 8597,
      "▁sensor": 8598,
      "isted": 8599,
      "ulum": 8600,
      "tish": 8601,
      "03": 8602,
      "▁nylon": 8603,
      "▁polic": 8604,
      "tw": 8605,
      "▁enterprise": 8606,
      "count": 8607,
      "▁position": 8608,
      "▁snap": 8609,
      "▁spin": 8610,
      "▁tricks": 8611,
      "▁necessity": 8612,
      "▁inquired": 8613,
      "▁inciting": 8614,
      "known": 8615,
      "▁barret": 8616,
      "▁archipelago": 8617,
      "▁holidays": 8618,
      "▁another": 8619,
      "nding": 8620,
      "▁artillery": 8621,
      "▁votes": 8622,
      "▁shiny": 8623,
      "▁expect": 8624,
      "▁gym": 8625,
      "▁sara": 8626,
      "▁conversation": 8627,
      "▁g": 8628,
      "▁activ": 8629,
      "▁catches": 8630,
      "▁cleared": 8631,
      "▁geometry": 8632,
      "▁prot": 8633,
      "ena": 8634,
      "▁buz": 8635,
      "7th": 8636,
      "▁boot": 8637,
      "▁caves": 8638,
      "▁merry": 8639,
      "▁bakes": 8640,
      "isco": 8641,
      "azed": 8642,
      "▁attempt": 8643,
      "▁intranet": 8644,
      "pent": 8645,
      "▁letter": 8646,
      "▁concent": 8647,
      "▁households": 8648,
      "▁homeland": 8649,
      "▁intensity": 8650,
      "▁my": 8651,
      "▁listed": 8652,
      "▁lou": 8653,
      "▁patri": 8654,
      "▁ramp": 8655,
      "lish": 8656,
      "▁reservation": 8657,
      "▁bob": 8658,
      "erer": 8659,
      "▁flav": 8660,
      "▁disconnec": 8661,
      "▁(count": 8662,
      "▁groups": 8663,
      "▁packages": 8664,
      "▁aisle": 8665,
      "▁column": 8666,
      "itement": 8667,
      "rims": 8668,
      "▁goose": 8669,
      "▁clause": 8670,
      "▁warr": 8671,
      "▁worlds": 8672,
      "acity": 8673,
      "▁preced": 8674,
      "uling": 8675,
      "▁partner": 8676,
      "▁eleph": 8677,
      "▁http://": 8678,
      "▁explosives": 8679,
      "ominated": 8680,
      "fr": 8681,
      "uting": 8682,
      "▁opportunities": 8683,
      "▁ideology": 8684,
      "▁plays": 8685,
      "▁observ": 8686,
      "ugged": 8687,
      "▁association": 8688,
      "▁chap": 8689,
      "string": 8690,
      "onsum": 8691,
      "▁illustration": 8692,
      "▁pictures": 8693,
      "▁errors": 8694,
      "▁napkin": 8695,
      "▁workers": 8696,
      "▁unles": 8697,
      "▁pent": 8698,
      "▁!!!!!!!!!!!!!!!": 8699,
      "▁commitments": 8700,
      "▁galloping": 8701,
      "▁grey": 8702,
      "μ": 8703,
      "▁treasure": 8704,
      "▁melt": 8705,
      "resent": 8706,
      "stit": 8707,
      "▁create": 8708,
      "▁snack": 8709,
      "▁incap": 8710,
      "aper": 8711,
      "▁improvement": 8712,
      "▁became": 8713,
      "▁hostess": 8714,
      "▁doughnuts": 8715,
      "-of": 8716,
      "ber": 8717,
      "▁muff": 8718,
      "▁respected": 8719,
      "▁att": 8720,
      "▁reel": 8721,
      "▁clinics": 8722,
      "▁spirits": 8723,
      "eg": 8724,
      "▁f": 8725,
      "▁smal": 8726,
      "▁ciac": 8727,
      "▁conditioning": 8728,
      "▁gentle": 8729,
      "▁resume": 8730,
      "▁mosques": 8731,
      "rep": 8732,
      "▁twelve": 8733,
      "tax": 8734,
      "▁aspiration": 8735,
      "place": 8736,
      "▁survey": 8737,
      "▁undergo": 8738,
      "▁deed": 8739,
      "uates": 8740,
      "▁knives": 8741,
      "▁vegas": 8742,
      "▁admire": 8743,
      "▁licensed": 8744,
      "▁evacuation": 8745,
      "arraf": 8746,
      ".html": 8747,
      "▁barn": 8748,
      "▁residents": 8749,
      "▁note": 8750,
      "▁dialogue": 8751,
      "▁creating": 8752,
      "▁qual": 8753,
      "▁morphology": 8754,
      "▁hed": 8755,
      "▁quaffle": 8756,
      "▁expressions": 8757,
      "▁trailer": 8758,
      "nif": 8759,
      "▁radar": 8760,
      "▁service": 8761,
      "assing": 8762,
      "▁recorder": 8763,
      "riend": 8764,
      "▁absence": 8765,
      "▁lesion": 8766,
[...]
