{
  "version": "1.0",
  "truncation": null,
  "padding": null,
  "added_tokens": [
    {
      "id": 760,
      "content": "[SEP]",
      "single_word": false,
      "lstrip": false,
      "rstrip": false,
      "normalized": false,
      "special": true
    },
    {
      "id": 3071,
      "content": "[CLS]",
      "single_word": false,
      "lstrip": false,
      "rstrip": false,
      "normalized": false,
      "special": true
    },
    {
      "id": 12195,
      "content": "[UNK]",
      "single_word": false,
      "lstrip": false,
      "rstrip": false,
      "normalized": false,
      "special": true
    },
    {
      "id": 13443,
      "content": "[MASK]",
      "single_word": false,
      "lstrip": false,
      "rstrip": false,
      "normalized": false,
      "special": true
    },
    {
      "id": 14179,
      "content": "[PAD]",
      "single_word": false,
      "lstrip": false,
      "rstrip": false,
      "normalized": false,
      "special": true
    }
  ],
  "normalizer": {
    "type": "Sequence",
    "normalizers": [
      {
        "type": "NFD"
      },
      {
        "type": "Lowercase"
      },
      {
        "type": "StripAccents"
      }
    ]
  },
  "pre_tokenizer": {
    "type": "Sequence",
    "pretokenizers": [
      {
        "type": "Metaspace",
        "replacement": "▁",
        "prepend_scheme": "always",
        "split": true
      }
    ]
  },
  "post_processor": {
    "type": "TemplateProcessing",
    "single": [
      {
        "SpecialToken": {
          "id": "[CLS]",
          "type_id": 0
        }
      },
      {
        "Sequence": {
          "id": "A",
          "type_id": 0
        }
      },
      {
        "SpecialToken": {
          "id": "[SEP]",
          "type_id": 0
        }
      }
    ],
    "pair": [
      {
        "SpecialToken": {
          "id": "[CLS]",
          "type_id": 0
        }
      },
      {
        "Sequence": {
          "id": "A",
          "type_id": 0
        }
      },
      {
        "SpecialToken": {
          "id": "[SEP]",
          "type_id": 0
        }
      },
      {
        "Sequence": {
          "id": "B",
          "type_id": 1
        }
      },
      {
        "SpecialToken": {
          "id": "[SEP]",
          "type_id": 1
        }
      }
    ],
    "special_tokens": {
      "[CLS]": {
        "id": "[CLS]",
        "ids": [
          3071
        ],
        "tokens": [
          "[CLS]"
        ]
      },
      "[SEP]": {
        "id": "[SEP]",
        "ids": [
          760
        ],
        "tokens": [
          "[SEP]"
        ]
      }
    }
  },
  "decoder": {
    "type": "Metaspace",
    "replacement": "▁",
    "prepend_scheme": "always",
    "split": true
  },
  "model": {
    "type": "WordPiece",
    "unk_token": "[UNK]",
    "continuing_subword_prefix": "##",
    "max_input_chars_per_word": 100,
    "vocab": {
      "▁wite": 0,
      "▁helpers": 1,
      "▁text": 2,
      "▁trials": 3,
      "▁taxi": 4,
      "▁jih": 5,
      "▁embarr": 6,
      "▁tribulation": 7,
      "##ase": 8,
      "▁dvd": 9,
      "▁advertising": 10,
      "▁fried": 11,
      "▁candy": 12,
      "▁codes": 13,
      "▁future": 14,
      "▁protocol": 15,
      "##gg": 16,
      "▁vac": 17,
      "▁immigrants": 18,
      "▁souls": 19,
      "##io": 20,
      "▁loans": 21,
      "▁anch": 22,
      "##ories": 23,
      "▁polic": 24,
      "▁reop": 25,
      "▁killers": 26,
      "▁camping": 27,
      "▁defining": 28,
      "▁struggling": 29,
      "▁lessons": 30,
      "▁withdrawn": 31,
      "▁face": 32,
      "##appy": 33,
      "##jects": 34,
      "▁buyer": 35,
      "▁negotiations": 36,
      "##corn": 37,
      "▁al": 38,
      "▁editions": 39,
      "▁dev": 40,
      "▁cockati": 41,
      "##ocked": 42,
      "▁sew": 43,
      "▁tonsils": 44,
      "▁eol": 45,
      "▁&": 46,
      "##ird": 47,
      "##693": 48,
      "▁evac": 49,
      "▁resources": 50,
      "▁tiny": 51,
      "##uah": 52,
      "▁determine": 53,
      "▁approved": 54,
      "▁manufact": 55,
      "▁nephew": 56,
      "▁bath+room": 57,
      "▁decisions": 58,
      "▁promising": 59,
      "##inars": 60,
      "▁damp": 61,
      "▁imagination": 62,
      "▁mi": 63,
      "▁subst": 64,
      "▁busy": 65,
      "▁equipment": 66,
      "▁politics": 67,
      "##idden": 68,
      "▁punched": 69,
      "##amble": 70,
      "▁spin": 71,
      "▁sign": 72,
      "▁ld2d-#6933": 73,
      "##ip": 74,
      "##ort": 75,
      "##cont": 76,
      "▁secrets": 77,
      "▁tol": 78,
      "##dain": 79,
      "▁asia": 80,
      "##er": 81,
      "▁concl": 82,
      "▁cott": 83,
      "▁impacts": 84,
      "##ved": 85,
      "▁cape": 86,
      "▁obstacles": 87,
      "▁sash": 88,
      "▁favorite": 89,
      "▁tul": 90,
      "▁bib": 91,
      "▁breakfasts": 92,
      "▁excell": 93,
      "##able": 94,
      "##inus": 95,
      "##bb": 96,
      "##ousness": 97,
      "▁samp": 98,
      "▁sled": 99,
      "##cakes": 100,
      "▁toll": 101,
      "▁shares": 102,
      "▁crossings": 103,
      "▁hull": 104,
      "▁carn": 105,
      "##thritis": 106,
      "##s)": 107,
      "▁stethoscope": 108,
      "▁stroll": 109,
      "▁animal": 110,
      "▁collapse": 111,
      "##ctuary": 112,
      "▁appl": 113,
      "##uum": 114,
      "▁artillery": 115,
      "▁alerts": 116,
      "##erv": 117,
      "▁story": 118,
      "▁recipients": 119,
      "▁defeated": 120,
      "##ras": 121,
      "##emporary": 122,
      "▁bern": 123,
      "▁aut": 124,
      "▁inhabit": 125,
      "▁context": 126,
      "▁advice": 127,
      "▁committ": 128,
      "##tured": 129,
      "▁fanc": 130,
      "▁respect": 131,
      "▁brain": 132,
      "d": 133,
      "▁23": 134,
      "▁twisted": 135,
      "▁plugged": 136,
      "##ers": 137,
      "##ority": 138,
      "▁developers": 139,
      "##ithstanding": 140,
      "▁change": 141,
      "▁expressions": 142,
      "##end": 143,
      "##erably": 144,
      "##entic": 145,
      "▁potty": 146,
      "▁associations": 147,
      "▁murders": 148,
      "▁alcohol": 149,
      "▁proclaim": 150,
      "▁famili": 151,
      "##utiful": 152,
      "▁melted": 153,
      "▁exter": 154,
      "▁per": 155,
      "##night": 156,
      "▁alternatives": 157,
      "▁considering": 158,
      "▁concent": 159,
      "##all": 160,
      "##bern": 161,
      "▁claiming": 162,
      "▁techn": 163,
      "▁pimple": 164,
      "▁setup": 165,
      "##gate": 166,
      "▁endeavor": 167,
      "▁agriculture": 168,
      "▁as400": 169,
      "▁scanning": 170,
      "##ap": 171,
      "##ensive": 172,
      "##ract": 173,
      "##ither": 174,
      "▁killings": 175,
      "▁mailman": 176,
      "▁{": 177,
      "▁deadline": 178,
      "▁volunteer": 179,
      "▁lig": 180,
      "▁exhibits": 181,
      "▁look": 182,
      "##lu": 183,
      "▁espec": 184,
      "▁argues": 185,
      "▁compel": 186,
      "▁enterpr": 187,
      "▁heavens": 188,
      "##tially": 189,
      "·": 190,
      "##mar": 191,
      "##code": 192,
      "▁float": 193,
      "##led": 194,
      "▁att": 195,
      "▁recon": 196,
      "▁islets": 197,
      "▁density": 198,
      "##cessfully": 199,
      "##ε": 200,
      "▁fishermen": 201,
      "▁headband": 202,
      "▁aircraft": 203,
      "▁poo": 204,
      "▁specializing": 205,
      "##are": 206,
      "▁steth": 207,
      "##alk": 208,
      "▁discre": 209,
      "▁forgotten": 210,
      "▁plots": 211,
      "▁functioning": 212,
      "▁inst": 213,
      "▁hit": 214,
      "▁petition": 215,
      "▁remaining": 216,
      "▁pretext": 217,
      "▁liquor": 218,
      "▁emotion": 219,
      "▁january": 220,
      "▁century": 221,
      "##omed": 222,
      "▁accelerated": 223,
      "##enience": 224,
      "##urch": 225,
      "▁strap": 226,
      "▁entourage": 227,
      "▁agrees": 228,
      "▁bells": 229,
      "▁outlined": 230,
      "▁thous": 231,
      "▁deserted": 232,
      "▁gro": 233,
      "▁fragments": 234,
      "▁der": 235,
      "▁yacht": 236,
      "▁susp": 237,
      "▁extra": 238,
      "▁hummus": 239,
      "▁bigger": 240,
      "▁now": 241,
      "6": 242,
      "##omore": 243,
      "▁run": 244,
      "▁location": 245,
      "▁affected": 246,
      "▁beaches": 247,
      "##ones": 248,
      "▁inscriptions": 249,
      "##ake": 250,
      "▁mort": 251,
      "▁viet": 252,
      "▁03": 253,
      "▁lem": 254,
      "▁simp": 255,
      "▁chin": 256,
      "▁regim": 257,
      "▁uneas": 258,
      "▁senses": 259,
      "▁uhoh": 260,
      "▁event": 261,
      "▁disapp": 262,
      "▁vitamin": 263,
      "▁must": 264,
      "▁lever": 265,
      "▁cabbage": 266,
      "▁great": 267,
      "▁writed": 268,
      "▁coordination": 269,
      "▁represented": 270,
      "▁pilgrim": 271,
      "▁comprehension": 272,
      "▁price": 273,
      "▁ov": 274,
      "▁cornflakes": 275,
      "▁neg": 276,
      "▁ai": 277,
      "##liability": 278,
      "##’": 279,
      "▁ld2d-": 280,
      "▁magnitude": 281,
      "▁addressed": 282,
      "▁champ": 283,
      "▁attractions": 284,
      "▁bee": 285,
      "##unged": 286,
      "▁few": 287,
      "##ise": 288,
      "##aman": 289,
      "##oala": 290,
      "▁his": 291,
      "##bout": 292,
      "▁cope": 293,
      "▁attracting": 294,
      "▁god": 295,
      "▁advisor": 296,
      "##rowave": 297,
      "▁church": 298,
      "▁physi": 299,
      "▁encompass": 300,
      "▁straps": 301,
      "▁grammar": 302,
      "##eces": 303,
      "▁arthritis": 304,
      "▁danger": 305,
      "##[": 306,
      "##ex": 307,
      "▁cens": 308,
      "##onishment": 309,
      "▁l'": 310,
      "▁avoidance": 311,
      "##itters": 312,
      "▁gone": 313,
      "▁dip": 314,
      "▁predators": 315,
      "##art": 316,
      "▁hotel": 317,
      "##ali": 318,
      "##ights": 319,
      "▁olive": 320,
      "##ce": 321,
      "▁test": 322,
      "▁covered": 323,
      "##arked": 324,
      "▁although": 325,
      "▁salesman": 326,
      "▁steam": 327,
      "▁lab": 328,
      "▁bund": 329,
      "▁wager": 330,
      "▁stead": 331,
      "##otions": 332,
      "▁abandoning": 333,
      "##ith": 334,
      "▁wall": 335,
      "▁faded": 336,
      "##gs": 337,
      "▁empan": 338,
      "##enna": 339,
      "##oes": 340,
      "▁tortilla": 341,
      "▁diaper": 342,
      "▁proc": 343,
      "▁luggage": 344,
      "##etown": 345,
      "▁guaranty": 346,
      "▁bureaucr": 347,
      "▁supposed": 348,
      "▁santa": 349,
      "▁gathering": 350,
      "▁force": 351,
      "##ename": 352,
      "▁peppers": 353,
      "▁videoc": 354,
      "▁antiquity": 355,
      "▁smal": 356,
      "▁amounts": 357,
      "▁leading": 358,
      "▁debris": 359,
      "▁streng": 360,
      "▁htm": 361,
      "▁lotos": 362,
      "▁legisl": 363,
      "##-8": 364,
      "▁horizon": 365,
      "▁playw": 366,
      "##cer": 367,
      "##science": 368,
      "##tarian": 369,
      "▁catholic": 370,
      "▁mpg": 371,
      "▁civili": 372,
      "##ightly": 373,
      "▁collect": 374,
      "##rd": 375,
      "##fect": 376,
      "▁balloons": 377,
      "##anda": 378,
      "▁receipt": 379,
      "##hin": 380,
      "##alog": 381,
      "▁neoc": 382,
      "▁statement": 383,
      "▁equally": 384,
      "▁rot": 385,
      "▁insurg": 386,
      "##ouble": 387,
      "▁november": 388,
      "▁ya": 389,
      "▁1960s": 390,
      "▁deemed": 391,
      "▁rarely": 392,
      "##rough": 393,
      "▁demonstrated": 394,
      "▁urgency": 395,
      "▁requiring": 396,
      "▁wheelchair": 397,
      "▁listen": 398,
      "▁match": 399,
      "▁undert": 400,
      "▁refineries": 401,
      "##--------+----------------": 402,
      "▁interp": 403,
      "▁booking": 404,
      "▁fut": 405,
      "##ular": 406,
      "▁furnace": 407,
      ">": 408,
      "▁afterwards": 409,
      "▁environment": 410,
      "▁smart": 411,
      "▁gave": 412,
      "▁this": 413,
      "▁changes": 414,
      "▁cleric": 415,
      "▁bash": 416,
      "▁roc": 417,
      "▁peek": 418,
      "r": 419,
      "▁your": 420,
      "▁vacc": 421,
      "▁gun": 422,
      "▁studied": 423,
      "▁notch": 424,
      "▁readers": 425,
      "▁achievement": 426,
      "▁sensitivity": 427,
      "▁danny": 428,
      "##ologist": 429,
      "▁reviewer": 430,
      "▁dand": 431,
      "▁pec": 432,
      "##tings": 433,
      "▁compan": 434,
      "##room": 435,
      "▁nationalities": 436,
      "▁persons": 437,
      "##stall": 438,
      "▁critic": 439,
      "▁apprehension": 440,
      "▁fair": 441,
      "##erable": 442,
      "##ales": 443,
      "▁slam": 444,
      "▁terms": 445,
      "##nus": 446,
      "▁grow": 447,
      "▁liberals": 448,
      "##ibb": 449,
      "##its": 450,
      "##ts": 451,
      "▁decor": 452,
      "▁dilemmas": 453,
      "▁granddaughter": 454,
      "▁isd": 455,
      "##ech": 456,
      "▁advised": 457,
      "▁mentions": 458,
      "##rise": 459,
      "▁postage": 460,
      "##+work": 461,
      "▁enchil": 462,
      "▁vice": 463,
      "▁uniformity": 464,
      "##vices": 465,
      "##nh": 466,
      "▁federalism": 467,
      "##paths": 468,
      "▁listing": 469,
      "▁amendments": 470,
      "▁cried": 471,
      "▁muscle": 472,
      "▁ones": 473,
      "▁stro": 474,
      "▁deported": 475,
      "▁st": 476,
      "▁completed": 477,
      "▁reject": 478,
      "##ean": 479,
      "##zers": 480,
      "##ronic": 481,
      "##oral": 482,
      "##ogn": 483,
      "▁pressure": 484,
      "▁earned": 485,
      "▁period": 486,
      "▁_______": 487,
      "▁sneeze": 488,
      "▁boasts": 489,
      "▁documenting": 490,
      "▁state": 491,
      "▁behaviour": 492,
      "▁disintegration": 493,
      "▁orph": 494,
      "▁apost": 495,
      "▁!!!": 496,
      "##fficient": 497,
      "▁fix": 498,
      "▁knows": 499,
      "▁packing": 500,
      "##ke": 501,
      "▁processes": 502,
      "▁dresses": 503,
      "▁glasses": 504,
      "▁tickles": 505,
      "▁succeed": 506,
      "▁i.e": 507,
      "▁burned": 508,
      "▁.?": 509,
      "▁month": 510,
      "▁plane": 511,
      "##onna": 512,
      "▁clients": 513,
      "▁coupled": 514,
      "##ug": 515,
      "##iss": 516,
      "▁spine": 517,
      "▁skip": 518,
      "##enti": 519,
      "▁swing": 520,
      "▁obligation": 521,
      "▁overflow": 522,
      "▁persuade": 523,
      "▁deployment": 524,
      "▁fast": 525,
      "▁theat": 526,
      "▁listed": 527,
      "▁volleyball": 528,
      "▁gal": 529,
      "▁phrases": 530,
      "▁interference": 531,
      "▁belief": 532,
      "##itely": 533,
      "##pec": 534,
      "▁exchanged": 535,
      "##rid": 536,
      "▁decl": 537,
      "▁concepts": 538,
      "▁equip": 539,
      "▁tablet": 540,
      "▁makes": 541,
      "##uil": 542,
      "▁shiny": 543,
      "##907": 544,
      "▁underwear": 545,
      "▁risk": 546,
      "▁bonds": 547,
      "▁shrapnel": 548,
      "▁anthrop": 549,
      "##btu": 550,
      "▁entertainment": 551,
      "ł": 552,
      "▁surviv": 553,
      "▁instrument": 554,
      ";": 555,
      "##ture": 556,
      "▁common": 557,
      "▁propose": 558,
      "▁customize": 559,
      "▁introduce": 560,
      "##dict": 561,
      "▁attain": 562,
      "##version": 563,
      "##iddish": 564,
      "▁manuscri": 565,
      "▁horiz": 566,
      "▁concrete": 567,
      "▁sl": 568,
      "##aus": 569,
      "##entials": 570,
      "▁interests": 571,
      "##perc": 572,
      "▁priced": 573,
      "##points": 574,
      "##off": 575,
      "▁locom": 576,
      "▁somewhat": 577,
      "▁pion": 578,
      "▁ruined": 579,
      "▁pasture": 580,
      "▁chess": 581,
      "##med": 582,
      "▁worrying": 583,
      "▁introducing": 584,
      "▁singer": 585,
      "▁operating": 586,
      "##anne": 587,
      "▁schedule": 588,
      "▁puppet": 589,
      "##eline": 590,
      "▁radiation": 591,
      "▁delivery": 592,
      "▁six": 593,
      "##ssible": 594,
      "▁treas": 595,
      "▁queen": 596,
      "▁becom": 597,
      "▁nails": 598,
      "▁rebuil": 599,
      "▁nation": 600,
      "▁thinked": 601,
      "▁visu": 602,
      "##urs": 603,
      "##arco": 604,
      "▁runs": 605,
      "▁daytime": 606,
      "▁executing": 607,
      "▁kills": 608,
      "▁rank": 609,
      "▁valuing": 610,
      "▁seizures": 611,
      "▁trump": 612,
      "##ellow": 613,
      "▁!": 614,
      "▁wikinews": 615,
      "▁ans": 616,
      "##chn": 617,
      "▁sailors": 618,
      "##uting": 619,
      "▁aristocracy": 620,
      "▁cocktail": 621,
      "##and": 622,
      "▁scaring": 623,
      "▁shyness": 624,
      "▁planning": 625,
      "▁normally": 626,
      "▁cy": 627,
      "▁prey": 628,
      "▁the": 629,
      "▁shower": 630,
      "▁23rd": 631,
      "▁coali": 632,
      "▁ahead": 633,
      "▁scored": 634,
      "▁carbon": 635,
      "▁nud": 636,
      "##acters": 637,
      "▁situation": 638,
      "##cape": 639,
      "▁co-": 640,
      "##ews": 641,
      "▁petroleum": 642,
      "##ipelag": 643,
      "▁vers": 644,
      "▁bears": 645,
      "##ulf": 646,
      "▁ramp": 647,
      "▁action": 648,
      "▁ling": 649,
      "$": 650,
      "▁posters": 651,
      "##ply": 652,
      "▁spill": 653,
      "▁sworn": 654,
      "▁sailing": 655,
      "▁mich": 656,
      "▁pamph": 657,
      "▁evolve": 658,
      "▁nig": 659,
      "##ugging": 660,
      "##urop": 661,
      "##omach": 662,
      "▁dictators": 663,
      "▁resignation": 664,
      "▁princess": 665,
      "▁ultras": 666,
      "▁jail": 667,
      "▁enj": 668,
      "▁appropri": 669,
      "##tt": 670,
      "▁concert": 671,
      "▁maize": 672,
      "▁compressor": 673,
      "▁impose": 674,
      "▁endeav": 675,
      "▁facilitate": 676,
      "▁gda": 677,
      "▁explosives": 678,
      "▁ep": 679,
      "▁opponent": 680,
      "##estiv": 681,
      "▁editing": 682,
      "▁heard": 683,
      "▁issued": 684,
      "▁disturb": 685,
      "▁intends": 686,
      "▁teasing": 687,
      "▁prefecture": 688,
      "▁folks": 689,
      "▁[...]": 690,
      "##oom": 691,
      "▁searches": 692,
      "▁websites": 693,
      "▁b&b": 694,
      "▁bid": 695,
      "▁urine": 696,
      "▁servant": 697,
      "▁wiped": 698,
      "▁charge": 699,
      "▁deficit": 700,
      "##bly": 701,
      "##ortment": 702,
      "▁repeated": 703,
      "▁takeoff": 704,
      "▁raced": 705,
      "▁absorbing": 706,
      "▁gag": 707,
      "▁prac": 708,
      "▁testing": 709,
      "▁grace": 710,
      "##mometer": 711,
      "▁irr": 712,
      "▁farewell": 713,
      "##gencies": 714,
      "##enger": 715,
      "▁declining": 716,
      "##apanese": 717,
      "▁draft": 718,
      "▁neighbourhood": 719,
      "▁dedication": 720,
      "▁ice": 721,
      "▁oath": 722,
      "▁glamosh": 723,
      "▁loop": 724,
      "##od": 725,
      "▁vietnam": 726,
      "##till": 727,
      "▁claims": 728,
      "##inking": 729,
      "▁cows": 730,
      "▁driveway": 731,
      "▁demonstrations": 732,
      "▁eco": 733,
      "▁trad": 734,
      "▁educate": 735,
      "▁derived": 736,
      "##unition": 737,
      "▁!?!": 738,
      "▁distractions": 739,
      "▁speci": 740,
      "▁skipping": 741,
      "▁decision": 742,
      "▁robots": 743,
      "##.v.": 744,
      "▁feared": 745,
      "▁experi": 746,
      "▁cons": 747,
      "##des": 748,
      "##hel": 749,
      "▁cen": 750,
      "##epend": 751,
      "▁middle": 752,
      "##irus": 753,
      "##asionally": 754,
      "▁retention": 755,
      "▁manatees": 756,
      "▁loc": 757,
      "▁protects": 758,
      "##nec": 759,
      "[SEP]": 760,
      "##et": 761,
      "▁oops": 762,
      "▁live": 763,
      "##ang": 764,
      "▁carnival": 765,
      "▁fry": 766,
      "▁ok": 767,
      "▁exactly": 768,
      "▁contacts": 769,
      "▁squirt": 770,
      "▁balanced": 771,
      "▁refrigerator": 772,
      "##kins": 773,
      "▁disint": 774,
      "##tub": 775,
      "▁ancestors": 776,
      "▁registration": 777,
      "▁includ": 778,
      "▁boil": 779,
      "▁contributions": 780,
      "▁itsy": 781,
      "▁analyzed": 782,
      "▁believes": 783,
      "▁madness": 784,
      "▁salute": 785,
      "▁protected": 786,
      "##gulation": 787,
      "▁tok": 788,
      "▁generators": 789,
      "▁woke": 790,
      "▁province": 791,
      "▁trails": 792,
      "▁attributes": 793,
      "▁wonderful": 794,
      "▁yesterday": 795,
      "##eeze": 796,
      "▁session": 797,
      "▁play": 798,
      "▁dine": 799,
      "▁answering": 800,
      "▁submitted": 801,
      "▁ridic": 802,
      "▁bach": 803,
      "##inging": 804,
      "▁grandfather": 805,
      "▁sacrificed": 806,
      "##tish": 807,
      "▁hay": 808,
      "▁gentlemen": 809,
      "▁pocketbook": 810,
      "##erc": 811,
      "▁standards": 812,
      "▁hous": 813,
      "##rew": 814,
      "##uls": 815,
      "##ada": 816,
      "▁bless": 817,
      "▁sock": 818,
      "▁lid": 819,
      "##essment": 820,
      "▁texas": 821,
      "▁read": 822,
      "▁putting": 823,
      "▁affairs": 824,
      "▁carrier": 825,
      "▁squeeze": 826,
      "▁mister": 827,
      "##el": 828,
      "▁crane": 829,
      "▁luminol": 830,
      "##irl": 831,
      "▁***": 832,
      "▁observed": 833,
      "▁summer": 834,
      "▁ri": 835,
      "▁cube": 836,
      "##ough": 837,
      "▁equals": 838,
      "▁hospitals": 839,
      "##oph": 840,
      "▁funds": 841,
      "▁established": 842,
      "▁team": 843,
      "▁vice-president": 844,
      "▁maintains": 845,
      "▁capsules": 846,
      "▁du": 847,
      "##quis": 848,
      "▁ventures": 849,
      "▁oils": 850,
      "▁const": 851,
      "▁defence": 852,
      "▁endorsed": 853,
      "▁canned": 854,
      "▁chronic": 855,
      "▁chequ": 856,
      "▁wandering": 857,
      "▁pop": 858,
      "▁appeared": 859,
      "▁tactic": 860,
      "##ranch": 861,
      "▁magazines": 862,
      "▁ons": 863,
      "▁jenn": 864,
      "▁impossible": 865,
      "▁fount": 866,
      "▁miles": 867,
      "##by": 868,
      "3": 869,
      "▁que": 870,
      "##elty": 871,
      "▁accessibility": 872,
      "##fire": 873,
      "##ont": 874,
      "▁preced": 875,
      "##ieve": 876,
      "▁lev": 877,
      "▁score": 878,
      "▁neighborhood": 879,
      "##itge": 880,
      "▁adoption": 881,
      "##riting": 882,
      "▁encompasses": 883,
      "▁stupid": 884,
      "##lee": 885,
      "##ictions": 886,
      "▁persuaded": 887,
      "▁updating": 888,
      "▁je": 889,
      "▁a.m.": 890,
      "▁newark": 891,
      "▁planes": 892,
      "▁budgie": 893,
      "▁20s": 894,
      "##lists": 895,
      "▁beaver": 896,
      "▁vaccines": 897,
      "##ł": 898,
      "▁taiwan": 899,
      "##vening": 900,
      "▁truths": 901,
      "##glar": 902,
      "▁advert": 903,
      "▁promise": 904,
      "▁simpl": 905,
      "##ests": 906,
      "##ild": 907,
      "▁dump": 908,
      "##æ": 909,
      "▁tks": 910,
      "##inds": 911,
      "▁photographers": 912,
      "##knowled": 913,
      "▁treasure": 914,
      "▁pants": 915,
      "▁restric": 916,
      "▁recre": 917,
      "▁returns": 918,
      "▁contributing": 919,
      "▁being": 920,
      "##attering": 921,
      "▁jurisdiction": 922,
      "▁ski": 923,
      "▁near": 924,
      "##ull": 925,
      "▁sensation": 926,
      "▁connec": 927,
      "▁invoices": 928,
      "▁hutch": 929,
      "▁stepped": 930,
      "▁bathrooms": 931,
      "##nia": 932,
      "▁drowning": 933,
      "▁comfor": 934,
      "▁tattoos": 935,
      "##200": 936,
      "▁choo": 937,
      "▁sucks": 938,
      "▁riding": 939,
      "##yn": 940,
      "▁poet": 941,
      "##ondad": 942,
      "▁closed": 943,
      "##-boat": 944,
      "▁succeeded": 945,
      "▁daniel": 946,
      "▁hoops": 947,
      "▁equi": 948,
      "▁se": 949,
      "▁ascertain": 950,
      "▁comprom": 951,
      "▁requirement": 952,
      "▁programming": 953,
      "▁convin": 954,
      "▁retaliation": 955,
      "##og": 956,
      "▁sofa": 957,
      "▁dazz": 958,
      "▁bent": 959,
      "▁lik": 960,
      "▁********************************": 961,
      "▁clauses": 962,
      "▁mule": 963,
      "▁difficul": 964,
      "▁toystore": 965,
      "##tened": 966,
      "▁embass": 967,
      "▁transmission": 968,
      "▁shrunk": 969,
      "##lf": 970,
      "▁encour": 971,
      "##raid": 972,
      "▁german": 973,
      "▁histor": 974,
      "▁bitsy": 975,
      "▁explo": 976,
      "▁toddler": 977,
      "▁divorce": 978,
      "▁hire": 979,
      "▁logic": 980,
      "##tis": 981,
      "▁bir": 982,
      "##90's": 983,
      "##tle": 984,
      "▁17": 985,
      "▁pitcher": 986,
      "▁lines": 987,
      "▁nov": 988,
      "▁rhymes": 989,
      "▁thoug": 990,
      "▁indignation": 991,
      "##ions": 992,
      "##ler": 993,
      "▁imposed": 994,
      "▁overt": 995,
      "▁quino": 996,
      "▁previous": 997,
      "▁propos": 998,
      "▁ingred": 999,
      "▁estimate": 1000,
      "▁laid": 1001,
      "▁nite": 1002,
      "▁canopy": 1003,
      "▁styrofoam": 1004,
      "▁progression": 1005,
      "▁referee": 1006,
      "▁sket": 1007,
      "▁tankers": 1008,
      "▁los": 1009,
      "▁tel": 1010,
      "##enron.com": 1011,
      "▁guarantee": 1012,
      "▁occupied": 1013,
      "▁pas": 1014,
      "▁racing": 1015,
      "▁uphold": 1016,
      "##place": 1017,
      "##eting": 1018,
      "▁everyday": 1019,
      "▁gym": 1020,
      "##ach": 1021,
      "▁considered": 1022,
      "##arding": 1023,
      "▁discouraging": 1024,
      "▁places": 1025,
      "##tspots": 1026,
      "▁sesame": 1027,
      "▁journey": 1028,
      "##oleum": 1029,
      "▁handker": 1030,
      "##ovation": 1031,
      "▁recommends": 1032,
      "▁counter": 1033,
      "##lished": 1034,
      "▁bu": 1035,
      "##emb": 1036,
      "##dened": 1037,
      "▁service": 1038,
      "▁it's": 1039,
      "##rested": 1040,
      "##enity": 1041,
      "▁donkey": 1042,
      "▁clicked": 1043,
      "▁waterfalls": 1044,
      "##ual": 1045,
      "▁sunglasses": 1046,
      "▁whoo": 1047,
      "▁incomes": 1048,
      "##ene": 1049,
      "▁convey": 1050,
      "▁resolution": 1051,
      "▁helped": 1052,
      "▁ll": 1053,
      "▁mul": 1054,
      "##eenth": 1055,
      "▁marks": 1056,
      "▁names": 1057,
      "▁foreigner": 1058,
      "##hibited": 1059,
      "▁minneapolis": 1060,
      "▁things": 1061,
      "▁tended": 1062,
      "▁begins": 1063,
      "▁perfect": 1064,
      "▁justification": 1065,
      "▁console": 1066,
      "##ders": 1067,
      "▁asked": 1068,
      "##igorate": 1069,
      "▁cush": 1070,
      "##oo": 1071,
      "▁))": 1072,
      "##pring": 1073,
      "▁directives": 1074,
      "▁excellent": 1075,
      "▁divor": 1076,
      "▁urge": 1077,
      "▁analy": 1078,
      "▁sulf": 1079,
      "##esses": 1080,
      "▁imp": 1081,
      "▁counterfeiting": 1082,
      "▁somehow": 1083,
      "▁hundreds": 1084,
      "▁bound": 1085,
      "▁councill": 1086,
      "##inted": 1087,
      "▁integrity": 1088,
      "▁hippopotamus": 1089,
      "##atter": 1090,
      "▁headaches": 1091,
      "▁wandered": 1092,
      "▁identified": 1093,
      "▁tur": 1094,
      "▁amidst": 1095,
      "{": 1096,
      "▁set": 1097,
      "##erate": 1098,
      "##ired": 1099,
      "▁envir": 1100,
      "##phis": 1101,
      "▁produce": 1102,
      "##essing": 1103,
      "▁belongs": 1104,
      "##azz": 1105,
      "▁homeopath": 1106,
      "▁reduced": 1107,
      "▁apolog": 1108,
      "▁mac": 1109,
      "##rectly": 1110,
      "▁tighten": 1111,
      "##atedly": 1112,
      "▁shoes": 1113,
      "▁structure": 1114,
      "▁europe": 1115,
      "▁unloading": 1116,
      "▁dope": 1117,
      "▁padd": 1118,
      "▁absorb": 1119,
      "##set": 1120,
      "▁gaming": 1121,
      "▁melting": 1122,
      "▁morphology": 1123,
      "▁wildcard": 1124,
      "▁reservation": 1125,
      "▁dh": 1126,
      "▁pre-": 1127,
      "▁king": 1128,
      "▁possibly": 1129,
      "##elped": 1130,
      "▁seafood": 1131,
      "▁suspicion": 1132,
      "##ellers": 1133,
      "▁branch": 1134,
      "▁allowing": 1135,
      "▁arab": 1136,
      "▁nothing": 1137,
      "▁dese": 1138,
      "▁simple": 1139,
      "▁axis": 1140,
      "##enders": 1141,
      "▁python": 1142,
      "##ro": 1143,
      "▁moreau": 1144,
      "▁draping": 1145,
      "▁whereas": 1146,
      "▁contrast": 1147,
      "▁instruc": 1148,
      "▁highlight": 1149,
      "▁statute": 1150,
      "▁airport": 1151,
      "▁browser": 1152,
      "##ybod": 1153,
      "▁health": 1154,
      "▁drift": 1155,
      "▁nanny": 1156,
      "▁gd": 1157,
      "▁notebook": 1158,
      "▁emphas": 1159,
      "▁smeared": 1160,
      "▁fris": 1161,
      "▁fascination": 1162,
      "▁erup": 1163,
      "▁university": 1164,
      "▁mass": 1165,
      "▁land": 1166,
      "▁º": 1167,
      "▁diego": 1168,
      "##overy": 1169,
      "▁forms": 1170,
      "▁crawl": 1171,
      "▁mine": 1172,
      "▁fol": 1173,
      "▁central": 1174,
      "▁homes": 1175,
      "▁wav": 1176,
      "▁festival": 1177,
      "▁share": 1178,
      "▁representation": 1179,
      "▁autumn": 1180,
      "▁width": 1181,
      "▁profic": 1182,
      "##-in": 1183,
      "▁remarked": 1184,
      "p": 1185,
      "▁assets": 1186,
      "##bs": 1187,
      "▁australia": 1188,
      "##‘": 1189,
      "##entally": 1190,
      "▁addition": 1191,
      "##ebook": 1192,
      "▁diale": 1193,
      "▁makeup": 1194,
      "▁arr": 1195,
      "##tern": 1196,
      "▁here": 1197,
      "▁corruption": 1198,
      "▁gates": 1199,
      "▁bump": 1200,
      "▁shrug": 1201,
      "▁invested": 1202,
      "##<": 1203,
      "▁children": 1204,
      "▁studying": 1205,
      "β": 1206,
      "▁earn": 1207,
      "##μ": 1208,
      "▁towns": 1209,
      "▁soy": 1210,
      "▁hol": 1211,
      "▁desire": 1212,
      "▁clean": 1213,
      "▁limits": 1214,
      "▁reimbursed": 1215,
      "▁parachute": 1216,
      "##-pos": 1217,
      "▁ow": 1218,
      "▁flir": 1219,
      "▁pleased": 1220,
      "▁port": 1221,
      "##ream": 1222,
      "▁literature": 1223,
      "##gr": 1224,
      "▁+": 1225,
      "▁gardens": 1226,
      "##rec": 1227,
      "▁advanced": 1228,
      "▁undergo": 1229,
      "▁allowance": 1230,
      "▁bitmap": 1231,
      "▁batteries": 1232,
      "▁rising": 1233,
      "##scrib": 1234,
      "▁staple": 1235,
      "##osen": 1236,
      "##rm": 1237,
      "▁values": 1238,
      "##ief": 1239,
      "▁cave": 1240,
      "▁ink": 1241,
      "▁dissatisfaction": 1242,
      "▁proceeding": 1243,
      "▁subscrib": 1244,
      "▁procr": 1245,
      "▁centi": 1246,
      "▁stub": 1247,
      "³": 1248,
      "##iv": 1249,
      "▁crushing": 1250,
      "##the": 1251,
      "▁probability": 1252,
      "▁datab": 1253,
      "▁recommending": 1254,
      "##uck": 1255,
      "▁demands": 1256,
      "▁astron": 1257,
      "▁reward": 1258,
      "##ier": 1259,
      "##res": 1260,
      "▁abstr": 1261,
      "##ur": 1262,
      "▁pirate": 1263,
      "▁cav": 1264,
      "▁penis": 1265,
      "▁08": 1266,
      "▁mailing": 1267,
      "▁rests": 1268,
      "▁!!!!!!!!!!!!!!!": 1269,
      "##erry": 1270,
      "▁eee": 1271,
      "▁dragged": 1272,
      "▁writer": 1273,
      "▁glancing": 1274,
      "##icians": 1275,
      "##ei": 1276,
      "▁cavity": 1277,
      "▁husband": 1278,
      "▁vlog": 1279,
      "▁remainder": 1280,
      "##pins": 1281,
      "##piles": 1282,
      "##atitude": 1283,
      "▁pean": 1284,
      "▁bounced": 1285,
      "▁reference": 1286,
      "##9th": 1287,
      "▁degu": 1288,
      "##ision": 1289,
      "▁myth": 1290,
      "▁foie": 1291,
      "##bably": 1292,
      "##90": 1293,
      "▁approximation": 1294,
      "▁amending": 1295,
      "▁sin": 1296,
      "▁troops": 1297,
      "##tirely": 1298,
      "▁monitor": 1299,
      "##ounters": 1300,
      "##gible": 1301,
      "▁advise": 1302,
      "▁coin": 1303,
      "▁bronze": 1304,
      "▁contain": 1305,
      "▁proper": 1306,
      "▁inspired": 1307,
      "▁noted": 1308,
      "▁article": 1309,
      "▁motorc": 1310,
      "▁bludgers": 1311,
      "▁grade": 1312,
      "▁undertaken": 1313,
      "##-e": 1314,
      "▁herd": 1315,
      "▁tastes": 1316,
      "▁construc": 1317,
      "▁wonder": 1318,
      "▁judging": 1319,
      "##uistics": 1320,
      "▁injustice": 1321,
      "▁corn": 1322,
      "▁russians": 1323,
      "▁shirt": 1324,
      "▁included": 1325,
      "▁favorites": 1326,
      "▁exem": 1327,
      "▁invoked": 1328,
      "▁hydrogen": 1329,
      "▁rebels": 1330,
      "▁transforming": 1331,
      "##p;": 1332,
      "▁sinus": 1333,
      "##alg": 1334,
      "▁turns": 1335,
      "▁correctly": 1336,
      "##oy": 1337,
      "▁monuments": 1338,
      "▁bans": 1339,
      "▁elimination": 1340,
      "“": 1341,
      "▁peric": 1342,
      "▁cant": 1343,
      "▁mean": 1344,
      "▁prog": 1345,
      "##inos": 1346,
      "▁communicate": 1347,
      "▁spank": 1348,
      "##...": 1349,
      "▁stops": 1350,
      "▁responsibilities": 1351,
      "▁progress": 1352,
      "##ors": 1353,
      "▁arsen": 1354,
      "##av": 1355,
      "##ady": 1356,
      "##pped": 1357,
      "▁kib": 1358,
      "▁immedi": 1359,
      "▁successfully": 1360,
      "▁title": 1361,
      "##ounted": 1362,
      "▁appearing": 1363,
      "##ued": 1364,
      "▁business": 1365,
      "▁valley": 1366,
      "##ecting": 1367,
      "▁asser": 1368,
      "▁parts": 1369,
      "▁represent": 1370,
      "▁core": 1371,
      "▁pige": 1372,
      "▁belonged": 1373,
      "▁noise": 1374,
      "▁mechanisms": 1375,
      "▁quidditch": 1376,
      "▁filters": 1377,
      "▁doom": 1378,
      "##olly": 1379,
      "▁guess": 1380,
      "▁connecting": 1381,
      "##lessly": 1382,
      "▁robes": 1383,
      "▁exploding": 1384,
      "##??": 1385,
      "▁spores": 1386,
      "▁david": 1387,
      "▁cred": 1388,
      "▁orientation": 1389,
      "##ards": 1390,
      "▁replication": 1391,
      "##ned": 1392,
      "▁delicious": 1393,
      "▁shun": 1394,
      "▁bred": 1395,
      "▁goodbye": 1396,
      "▁analys": 1397,
      "▁purple": 1398,
      "▁retrie": 1399,
      "▁locker": 1400,
      "##opard": 1401,
      "▁expert": 1402,
      "▁sect": 1403,
      "▁dresser": 1404,
      "##flow": 1405,
      "##itish": 1406,
      "▁a": 1407,
      "##hikii": 1408,
      "▁scared": 1409,
      "▁legacy": 1410,
      "▁mob": 1411,
      "▁tower": 1412,
      "▁erected": 1413,
      "▁commem": 1414,
      "▁placing": 1415,
      "▁travelled": 1416,
      "##tias": 1417,
      "▁organize": 1418,
      "▁oink": 1419,
      "▁gotted": 1420,
      "▁who": 1421,
      "▁mounds": 1422,
      "##-life": 1423,
      "▁filing": 1424,
      "▁reintroduc": 1425,
      "▁viewpoints": 1426,
      "▁sensing": 1427,
      "##ateral": 1428,
      "##ater": 1429,
      "▁stationed": 1430,
      "▁obt": 1431,
      "##inger": 1432,
      "▁nationality": 1433,
      "▁kidn": 1434,
      "##mped": 1435,
      "##fortable": 1436,
      "▁courses": 1437,
      "▁politicians": 1438,
      "▁pest": 1439,
      "▁root": 1440,
      "▁hid": 1441,
      "▁supers": 1442,
      "▁tim": 1443,
      "▁ups": 1444,
      "▁complex": 1445,
      "##co": 1446,
      "▁administration": 1447,
      "##nament": 1448,
      "▁regulated": 1449,
      "##uro": 1450,
      "▁flirting": 1451,
      "▁curlers": 1452,
      "▁olivia": 1453,
      "▁freezing": 1454,
      "▁..........": 1455,
      "▁association": 1456,
      "▁treati": 1457,
      "▁scheduled": 1458,
      "##^": 1459,
      "▁cc": 1460,
      "▁leap": 1461,
      "▁aff": 1462,
      "▁b2b": 1463,
      "##loth": 1464,
      "▁pri": 1465,
      "▁termination": 1466,
      "▁between": 1467,
      "▁aug": 1468,
      "y": 1469,
      "▁comed": 1470,
      "▁cloud": 1471,
      "▁exaggeration": 1472,
      "##merce": 1473,
      "##rab": 1474,
      "▁dinosaur": 1475,
      "▁exception": 1476,
      "▁conditioning": 1477,
      "##ys": 1478,
      "▁tav": 1479,
      "▁nasa": 1480,
      "##ump": 1481,
      "##!!!!": 1482,
      "##ins": 1483,
      "▁valuation": 1484,
      "▁tickets": 1485,
      "##ffle": 1486,
      "##urist": 1487,
      "▁healing": 1488,
      "▁alter": 1489,
      "##rong": 1490,
      "▁discomfort": 1491,
      "▁sk": 1492,
      "▁rescued": 1493,
      "▁ang": 1494,
      "##sal": 1495,
      "▁pamp": 1496,
      "▁hacking": 1497,
      "▁daughter": 1498,
      "▁wednesdays": 1499,
      "▁visited": 1500,
      "▁inning": 1501,
      "##ken": 1502,
      "▁duties": 1503,
      "▁esteem": 1504,
      "▁sp": 1505,
      "▁dipl": 1506,
      "▁roman": 1507,
      "▁british": 1508,
      "▁candles": 1509,
      "▁competition": 1510,
      "##unami": 1511,
      "▁shepherd": 1512,
      "▁eaters": 1513,
      "▁referring": 1514,
      "▁twin": 1515,
      "▁blows": 1516,
      "##ord": 1517,
      "▁distance": 1518,
      "▁cabinet": 1519,
      "▁hh": 1520,
      "▁publicly": 1521,
      "##asc": 1522,
      "▁ratify": 1523,
      "▁boost": 1524,
      "▁electron": 1525,
      "▁lawsuit": 1526,
      "##cinn": 1527,
      "▁factor": 1528,
      "▁predict": 1529,
      "▁hon": 1530,
      "▁metascience": 1531,
      "▁y": 1532,
      "▁ki": 1533,
      "▁plotted": 1534,
      "▁administer": 1535,
      "▁assassinated": 1536,
      "##ature": 1537,
      "▁noises": 1538,
      "▁inspire": 1539,
      "▁partnership": 1540,
      "##urn": 1541,
      "##.p": 1542,
      "##aned": 1543,
      "▁components": 1544,
      "▁yaw": 1545,
      "▁sad": 1546,
      "▁substituted": 1547,
      "▁coo": 1548,
      "▁mathematicians": 1549,
      "##unity": 1550,
      "▁receip": 1551,
      "▁70s": 1552,
      "▁accessing": 1553,
      "##eakers": 1554,
      "▁tig": 1555,
      "##ruary": 1556,
      "▁pat": 1557,
      "▁transported": 1558,
      "##eph": 1559,
      "▁bure": 1560,
      "▁kit": 1561,
      "##ternoon": 1562,
      "5": 1563,
      "▁fabrications": 1564,
      "▁hum": 1565,
      "▁lettuce": 1566,
      "▁yoga": 1567,
      "▁in": 1568,
      "▁streak": 1569,
      "▁varying": 1570,
      "▁engineered": 1571,
      "▁concerns": 1572,
      "▁burger": 1573,
      "▁nice": 1574,
      "▁traffic": 1575,
      "▁annoy": 1576,
      "##anged": 1577,
      "▁dryer": 1578,
      "▁joh": 1579,
      "▁guerr": 1580,
      "##ure": 1581,
      "▁answer": 1582,
      "▁eyebrows": 1583,
      "▁wash": 1584,
      "▁textbook": 1585,
      "##rabb": 1586,
      "▁escaped": 1587,
      "▁reduces": 1588,
      "##unking": 1589,
      "▁exists": 1590,
      "▁remembers": 1591,
      "▁pink": 1592,
      "▁derivatives": 1593,
      "▁stup": 1594,
      "##ration": 1595,
      "▁myce": 1596,
      "▁beverage": 1597,
      "▁term": 1598,
      "▁conviction": 1599,
      "##book": 1600,
      "##ilight": 1601,
      "▁jig": 1602,
      "▁balloon": 1603,
      "▁hunt": 1604,
      "▁led": 1605,
      "▁holder": 1606,
      "▁insur": 1607,
      "▁persuading": 1608,
      "##nutrition": 1609,
      "▁harmony": 1610,
      "▁violating": 1611,
      "##oster": 1612,
      "##.l.c": 1613,
      "▁profess": 1614,
      "▁knit": 1615,
      "##tone": 1616,
      "▁****": 1617,
      "▁ide": 1618,
      "▁horns": 1619,
      "##lete": 1620,
      "▁ess": 1621,
      "▁exhaus": 1622,
      "▁cheese": 1623,
      "▁arm": 1624,
      "##selves": 1625,
      "▁untied": 1626,
      "▁cheating": 1627,
      "▁attrition": 1628,
      "▁farmers": 1629,
      "▁salaries": 1630,
      "▁chu": 1631,
      "▁backed": 1632,
      "▁basically": 1633,
      "▁fa": 1634,
      "▁perfume": 1635,
      "▁exceptions": 1636,
      "▁regime": 1637,
      "▁lime": 1638,
      "▁fin": 1639,
      "▁auth": 1640,
      "▁o'clock": 1641,
      "▁gl": 1642,
      "▁russ": 1643,
      "▁dy": 1644,
      "▁departments": 1645,
      "▁sch": 1646,
      "▁variables": 1647,
      "▁activities": 1648,
      "▁italian": 1649,
      "##ama": 1650,
      "▁neuro": 1651,
      "▁travelers": 1652,
      "##ened": 1653,
      "▁cla": 1654,
      "▁positive": 1655,
      "▁commanders": 1656,
      "▁ozone": 1657,
      "▁stopping": 1658,
      "▁issues": 1659,
      "▁spring": 1660,
      "##ville": 1661,
      "##idge": 1662,
      "##elected": 1663,
      "▁ship": 1664,
      "▁interpret": 1665,
      "▁pops": 1666,
      "▁strolled": 1667,
      "▁mend": 1668,
      "▁hairdress": 1669,
      "##eb": 1670,
      "▁feet": 1671,
      "##uation": 1672,
      "▁controlled": 1673,
      "▁involving": 1674,
      "##enture": 1675,
      "▁easier": 1676,
      "▁dun": 1677,
      "##spec": 1678,
      "▁bees": 1679,
      "##being": 1680,
      "▁paraphr": 1681,
      "##unh": 1682,
      "▁manufacturers": 1683,
      "▁ment": 1684,
      "▁skill": 1685,
      "▁exagg": 1686,
      "▁scrape": 1687,
      "##uction": 1688,
      "▁devote": 1689,
      "▁room": 1690,
      "▁believe": 1691,
      "▁lungs": 1692,
      "▁sympt": 1693,
      "▁dwar": 1694,
      "▁horror": 1695,
      "▁place": 1696,
      "▁invo": 1697,
      "▁creations": 1698,
      "##velled": 1699,
      "▁costumes": 1700,
      "▁stickerbir": 1701,
      "▁fertilizer": 1702,
      "##son": 1703,
      "▁yourselves": 1704,
      "▁occupy": 1705,
      "##ects": 1706,
      "▁acupunct": 1707,
      "▁raging": 1708,
      "▁ann": 1709,
      "##itt": 1710,
      "▁offset": 1711,
      "▁circumference": 1712,
      "▁tat": 1713,
      "b": 1714,
      "▁modification": 1715,
      "▁fan": 1716,
      "▁car": 1717,
      "▁showing": 1718,
      "▁okay": 1719,
      "▁alright": 1720,
      "##chie": 1721,
      "▁substances": 1722,
      "▁awards": 1723,
      "▁barges": 1724,
      "##dent": 1725,
      "▁spread": 1726,
      "##outs": 1727,
      "▁smells": 1728,
      "##tie": 1729,
      "▁pretty": 1730,
      "##reds": 1731,
      "▁light": 1732,
      "▁avenues": 1733,
      "##aying": 1734,
      "▁envelope": 1735,
      "▁frogg": 1736,
      "##adm": 1737,
      "▁journal": 1738,
      "▁subject": 1739,
      "##ive": 1740,
      "##ative": 1741,
      "##ico": 1742,
      "▁approached": 1743,
      "▁soap": 1744,
      "▁grandparents": 1745,
      "##eteria": 1746,
      "##ad": 1747,
      "▁bookstore": 1748,
      "▁earthworms": 1749,
      "▁eigh": 1750,
      "▁dis": 1751,
      "▁holds": 1752,
      "▁skin": 1753,
      "##aroni": 1754,
      "▁enjambment": 1755,
      "▁stations": 1756,
      "▁conden": 1757,
      "▁riches": 1758,
      "▁seconds": 1759,
      "##omas": 1760,
      "##formed": 1761,
      "▁por": 1762,
      "##ivers": 1763,
      "##iented": 1764,
      "▁papers": 1765,
      "▁affili": 1766,
      "▁deserve": 1767,
      "▁mmbtu": 1768,
      "##com": 1769,
      "▁missing": 1770,
      "▁insights": 1771,
      "▁rewarded": 1772,
      "▁firing": 1773,
      "▁insect": 1774,
      "▁might": 1775,
      "▁delays": 1776,
      "▁agre": 1777,
      "▁entirely": 1778,
      "##itates": 1779,
      "▁scale": 1780,
      "▁ballerina": 1781,
      "▁punch": 1782,
      "##aints": 1783,
      "##yon": 1784,
      "▁cro": 1785,
      "▁scoring": 1786,
      "▁roared": 1787,
      "▁2004": 1788,
      "▁such": 1789,
      "##ulators": 1790,
      "▁subscribe": 1791,
      "##auts": 1792,
      "##ist": 1793,
      "▁friendships": 1794,
      "▁fest": 1795,
      "▁description": 1796,
      "▁brushing": 1797,
      "##iciate": 1798,
      "▁ships": 1799,
      "▁scholars": 1800,
      "▁self-": 1801,
      "▁grease": 1802,
      "▁lamb": 1803,
      "##but": 1804,
      "▁europeans": 1805,
      "▁amend": 1806,
      "##wardness": 1807,
      "▁tran": 1808,
      "▁shelves": 1809,
      "▁world": 1810,
      "##oss": 1811,
      "▁psychologist": 1812,
      "▁plaintiffs": 1813,
      "▁summoned": 1814,
      "##ally": 1815,
      "▁artists": 1816,
      "▁grands": 1817,
      "##cre": 1818,
      "##arian": 1819,
      "▁venture": 1820,
      "##erally": 1821,
      "##ite": 1822,
      "##vals": 1823,
      "▁eng": 1824,
      "▁guy": 1825,
      "▁training": 1826,
      "▁warning": 1827,
      "##inence": 1828,
      "▁greatest": 1829,
      "▁proce": 1830,
      "▁curator": 1831,
      "▁fif": 1832,
      "▁junk": 1833,
      "▁cuisine": 1834,
      "▁renewal": 1835,
      "▁soaked": 1836,
      "▁autonomy": 1837,
      "##agre": 1838,
      "▁pictures": 1839,
      "▁china": 1840,
      "▁peer": 1841,
      "▁normal": 1842,
      "##butz": 1843,
      "▁philosophers": 1844,
      "##tively": 1845,
      "▁finish": 1846,
      "▁welcomed": 1847,
      "▁regard": 1848,
      "▁options": 1849,
      "▁mystery": 1850,
      "▁----==": 1851,
      "▁reli": 1852,
      "▁duckies": 1853,
      "##as": 1854,
      "▁frustration": 1855,
      "▁epc": 1856,
      "##fil": 1857,
      "##77": 1858,
      "##oras": 1859,
      "##ere": 1860,
      "▁announced": 1861,
      "▁dislike": 1862,
      "▁harb": 1863,
      "▁skis": 1864,
      "▁structures": 1865,
      "##ters": 1866,
      "##.consumers": 1867,
      "▁airline": 1868,
      "▁client": 1869,
      "▁caf": 1870,
      "▁bend": 1871,
      "##v": 1872,
      "▁relief": 1873,
      "▁d.": 1874,
      "▁evening": 1875,
      "▁registered": 1876,
      "▁doctor": 1877,
      "##alt": 1878,
      "▁wiring": 1879,
      "##foli": 1880,
      "##ufact": 1881,
      "▁browse": 1882,
      "▁sucked": 1883,
      "##tibility": 1884,
      "▁tripped": 1885,
      "##iots": 1886,
      "▁time": 1887,
      "▁torch": 1888,
      "▁contains": 1889,
      "▁meters": 1890,
      "▁exporting": 1891,
      "▁hates": 1892,
      "##olving": 1893,
      "▁knocked": 1894,
      "▁occupation": 1895,
      "##ceptions": 1896,
      "▁abbreviation": 1897,
      "▁qualities": 1898,
      "▁ramifications": 1899,
      "▁rene": 1900,
      "▁guerrillas": 1901,
      "##come": 1902,
      "▁bew": 1903,
      "▁foods": 1904,
      "▁considerations": 1905,
      "▁applause": 1906,
      "▁extending": 1907,
      "▁tempt": 1908,
      "▁particip": 1909,
      "▁hub": 1910,
      "▁vis": 1911,
      "##ogh": 1912,
      "▁pulls": 1913,
      "▁null": 1914,
      "##ortions": 1915,
      "▁dove": 1916,
      "▁initiatives": 1917,
      "▁leggings": 1918,
      "▁heaven": 1919,
      "##tedly": 1920,
      "▁censor": 1921,
      "##ycling": 1922,
      "▁generated": 1923,
      "▁terrain": 1924,
      "▁extre": 1925,
      "▁exposure": 1926,
      "▁drives": 1927,
      "▁repairs": 1928,
      "##ivity": 1929,
      "▁commitment": 1930,
      "▁provoking": 1931,
      "▁safe": 1932,
      "▁wheel": 1933,
      "c": 1934,
      "▁france": 1935,
      "▁illustrate": 1936,
      "▁lav": 1937,
      "##ghts": 1938,
      "▁widely": 1939,
      "▁choices": 1940,
      "▁dentist": 1941,
      "▁expense": 1942,
      "▁start": 1943,
      "▁seem": 1944,
      "##tur": 1945,
      "▁crystallite": 1946,
      "▁limited": 1947,
      "▁knew": 1948,
      "▁waive": 1949,
      "▁ours": 1950,
      "▁mezza": 1951,
      "▁mild": 1952,
      "▁princip": 1953,
      "▁futures": 1954,
      "▁flexibility": 1955,
      "▁surroundings": 1956,
      "▁jumps": 1957,
      "▁gtc": 1958,
      "##pent": 1959,
      "▁selections": 1960,
      "▁menu": 1961,
      "▁hear": 1962,
      "▁intriguing": 1963,
      "##vious": 1964,
      "##rael": 1965,
      "▁thirty": 1966,
      "▁fore": 1967,
      "▁infected": 1968,
      "▁grad": 1969,
      "▁fun": 1970,
      "▁exports": 1971,
      "▁entree": 1972,
      "▁interrup": 1973,
      "##itate": 1974,
      "▁fulf": 1975,
      "▁valued": 1976,
      "▁aboard": 1977,
      "▁focusing": 1978,
      "▁pickle": 1979,
      "▁respondents": 1980,
      "▁fodder": 1981,
      "▁objective": 1982,
      "▁discrim": 1983,
      "▁surpl": 1984,
      "▁comp.s": 1985,
      "▁bell": 1986,
      "##'": 1987,
      "##sul": 1988,
      "▁lucky": 1989,
      "▁reminder": 1990,
      "##rick": 1991,
      "##iating": 1992,
      "##ables": 1993,
      "##ange": 1994,
      "##>": 1995,
      "##anded": 1996,
      "▁pursu": 1997,
      "▁surround": 1998,
      "▁discussion": 1999,
      "▁tas": 2000,
      "▁gul": 2001,
      "##ole": 2002,
      "##mare": 2003,
      "##icks": 2004,
      "▁ingenuity": 2005,
      "##ould": 2006,
      "##45": 2007,
      "##rates": 2008,
      "▁cic": 2009,
      "▁sight": 2010,
      "##ruptc": 2011,
      "▁highest": 2012,
      "▁sixth": 2013,
      "▁remn": 2014,
      "##cially": 2015,
      "▁durs": 2016,
      "▁organisations": 2017,
      "▁banknote": 2018,
      "▁affiliate": 2019,
      "##atnot": 2020,
      "▁functionality": 2021,
      "▁201": 2022,
      "▁enfor": 2023,
      "##hf": 2024,
      "▁avocado": 2025,
      "##illed": 2026,
      "##titude": 2027,
      "▁wells": 2028,
      "▁shipped": 2029,
      "##ware": 2030,
      "▁drugstore": 2031,
      "▁paid": 2032,
      "##ugg": 2033,
      "▁stakes": 2034,
      "▁variability": 2035,
      "##inals": 2036,
      "▁clerks": 2037,
      "▁dream": 2038,
      "▁ect": 2039,
      "##pp": 2040,
      "▁van": 2041,
      "▁x3-9890": 2042,
      "▁cartoon": 2043,
      "##07.doc": 2044,
      "▁uhh": 2045,
      "▁''": 2046,
      "▁appointees": 2047,
      "▁printing": 2048,
      "##oug": 2049,
      "▁accounting": 2050,
      "▁opening": 2051,
      "▁indicators": 2052,
      "##onstr": 2053,
      "~": 2054,
      "▁teleph": 2055,
      "▁clarify": 2056,
      "▁build": 2057,
      "▁even": 2058,
      "▁table": 2059,
      "▁sanctions": 2060,
      "▁buffet": 2061,
      "▁grid": 2062,
      "▁cincinn": 2063,
      "▁refuse": 2064,
      "##tige": 2065,
      "▁creates": 2066,
      "▁pittsburgh": 2067,
      "▁licensed": 2068,
      "▁losing": 2069,
      "▁exacerb": 2070,
      "▁dallas": 2071,
      "▁everyone": 2072,
      "▁incubator": 2073,
      "▁allegations": 2074,
      "##mon": 2075,
      "▁chor": 2076,
      "##eor": 2077,
      "▁release": 2078,
      "##bish": 2079,
      "▁mushroom": 2080,
      "▁trade": 2081,
      "##ycle": 2082,
      "▁sql": 2083,
      "▁reporter": 2084,
      "▁par": 2085,
      "##oneering": 2086,
      "▁labyr": 2087,
      "▁meals": 2088,
      "▁phone": 2089,
      "▁reind": 2090,
      "▁stalls": 2091,
      "▁cond": 2092,
      "##zema": 2093,
      "▁lope": 2094,
      "▁backpack": 2095,
      "▁fence": 2096,
      "▁introduces": 2097,
      "##owned": 2098,
      "▁eat-e": 2099,
      "##-war": 2100,
      "▁analyses": 2101,
      "▁education": 2102,
      "##ulated": 2103,
      "▁fam": 2104,
      "##2d-": 2105,
      "▁dim": 2106,
      "##pse": 2107,
      "▁withdrawing": 2108,
      "▁nonstop": 2109,
      "▁traced": 2110,
      "##aic": 2111,
      "▁organisation": 2112,
      "▁female": 2113,
      "▁five": 2114,
      "▁intolerance": 2115,
      "▁shows": 2116,
      "▁quan": 2117,
      "▁contrib": 2118,
      "##jectory": 2119,
      "▁adjo": 2120,
      "▁basic": 2121,
      "##υ": 2122,
      "▁reflects": 2123,
      "▁preparedness": 2124,
      "##lev": 2125,
      "▁slow": 2126,
      "▁poverty": 2127,
      "▁facts": 2128,
      "▁race": 2129,
      "##raph": 2130,
      "##icion": 2131,
      "▁musicians": 2132,
      "▁assumption": 2133,
      "▁barbeque": 2134,
      "▁silic": 2135,
      "▁thousands": 2136,
      "▁instructor": 2137,
      "##mal": 2138,
      "##essed": 2139,
      "▁states": 2140,
      "▁direct": 2141,
      "▁demonstration": 2142,
      "▁weekdays": 2143,
      "▁thanks": 2144,
      "▁mar": 2145,
      "##ighter": 2146,
      "##asis": 2147,
      "▁m": 2148,
      "▁emph": 2149,
      "##rop": 2150,
      "▁char": 2151,
      "▁stall": 2152,
      "▁treatment": 2153,
      "▁snow": 2154,
      "▁folio": 2155,
      "##sour": 2156,
      "##iversary": 2157,
      "▁twe": 2158,
      "▁without": 2159,
      "▁fitting": 2160,
      "▁sticker": 2161,
      "▁border": 2162,
      "▁70's": 2163,
      "▁involved": 2164,
      "▁poem": 2165,
      "▁modernity": 2166,
      "##.7": 2167,
      "▁cash": 2168,
      "▁won": 2169,
      "▁seed": 2170,
      "▁trail": 2171,
      "▁cub": 2172,
      "▁coincidence": 2173,
      "##”": 2174,
      "##arely": 2175,
      "▁unemployment": 2176,
      "▁with": 2177,
      "▁d'": 2178,
      "##me": 2179,
      "▁stores": 2180,
      "▁row": 2181,
      "½": 2182,
      "▁bur": 2183,
      "##gown": 2184,
      "##-up": 2185,
      "▁eyes": 2186,
      "▁testim": 2187,
      "##erned": 2188,
      "▁emperor": 2189,
      "▁tested": 2190,
      "▁picnic": 2191,
      "##ans": 2192,
      "▁adding": 2193,
      "▁discrepancy": 2194,
      "▁resc": 2195,
      "▁aggregate": 2196,
      "▁mouth": 2197,
      "▁contemp": 2198,
      "▁orchestra": 2199,
      "▁administr": 2200,
      "##60's": 2201,
      "▁maniac": 2202,
      "##rigu": 2203,
      "##pherd": 2204,
      "##orry": 2205,
      "##abouts": 2206,
      "▁discussed": 2207,
      "##kes": 2208,
      "▁fronti": 2209,
      "▁ltte": 2210,
      "▁tricks": 2211,
      "▁hound": 2212,
      "▁records": 2213,
      "▁oo": 2214,
      "##tsbur": 2215,
      "##ionary": 2216,
      "▁container": 2217,
      "▁trips": 2218,
      "▁giraffe": 2219,
      "▁acknowledge": 2220,
      "##idated": 2221,
      "▁recieve": 2222,
      "▁cinema": 2223,
      "▁uk": 2224,
      "##ell": 2225,
      "▁–": 2226,
      "##zability": 2227,
      "▁newsgroups": 2228,
      "##eff": 2229,
      "▁criticized": 2230,
      "▁depth": 2231,
      "▁appro": 2232,
      "▁milk": 2233,
      "▁territ": 2234,
      "##nets": 2235,
      "▁enter": 2236,
      "##oplane": 2237,
      "▁keyboard": 2238,
      "▁gathered": 2239,
      "##self": 2240,
      "##cling": 2241,
      "▁snip": 2242,
      "▁princ": 2243,
      "▁activity": 2244,
      "▁fe": 2245,
      "▁zipper": 2246,
      "▁ax": 2247,
      "##nity": 2248,
      "=": 2249,
      "##olerance": 2250,
      "##rem": 2251,
      "▁celebrity": 2252,
      "▁fading": 2253,
      "▁objec": 2254,
      "▁sidew": 2255,
      "▁deleted": 2256,
      "▁clou": 2257,
      "▁occupying": 2258,
      "##ten": 2259,
      "▁stationery": 2260,
      "##ainder": 2261,
      "##n": 2262,
      "##orti": 2263,
      "▁array": 2264,
      "▁slu": 2265,
      "▁insp": 2266,
      "▁wrapping": 2267,
      "▁imit": 2268,
      "▁empanadas": 2269,
      "▁ques": 2270,
      "▁copied": 2271,
      "##.e": 2272,
      "▁background": 2273,
      "##text": 2274,
      "##not": 2275,
      "▁halls": 2276,
      "##atted": 2277,
      "▁perhaps": 2278,
      "▁sweater": 2279,
      "▁pu": 2280,
      "▁pins": 2281,
      "▁england": 2282,
      "▁hugging": 2283,
      "▁supporting": 2284,
      "▁4": 2285,
      "▁snatched": 2286,
      "##ult": 2287,
      "##o": 2288,
      "▁greeting": 2289,
      "▁q": 2290,
      "▁pret": 2291,
      "##hi": 2292,
      "##ero": 2293,
      "##eralism": 2294,
      "▁.........": 2295,
      "▁fant": 2296,
      "▁strong": 2297,
      "▁greater": 2298,
      "##isti": 2299,
      "▁operates": 2300,
      "▁humor": 2301,
      "##tra": 2302,
      "▁requesting": 2303,
      "##pill": 2304,
      "▁jumping": 2305,
      "▁mind": 2306,
      "▁gaz": 2307,
      "▁desir": 2308,
      "##attle": 2309,
      "▁sor": 2310,
      "▁tro": 2311,
      "▁scrambled": 2312,
      "▁ir": 2313,
      "##ropriate": 2314,
      "▁&amp;": 2315,
      "▁seeds": 2316,
      "▁obsession": 2317,
      "▁palm": 2318,
      "##isure": 2319,
      "▁classified": 2320,
      "▁customers": 2321,
      "▁ecodes": 2322,
      "!": 2323,
      "▁regarded": 2324,
      "▁participated": 2325,
      "▁disparities": 2326,
      "▁microns": 2327,
      "▁witnesses": 2328,
      "▁heel": 2329,
      "▁began": 2330,
      "▁reproduction": 2331,
      "▁calculating": 2332,
      "▁showed": 2333,
      "▁bottles": 2334,
      "▁engineer": 2335,
      "▁complain": 2336,
      "▁mired": 2337,
      "▁zip": 2338,
      "##waukee": 2339,
      "▁boarding": 2340,
      "##ari": 2341,
      "▁whisper": 2342,
      "##one": 2343,
      "##he": 2344,
      "▁rays": 2345,
      "##ran": 2346,
      "▁helmet": 2347,
      "▁40": 2348,
      "▁syntax": 2349,
      "▁emotions": 2350,
      "▁trousers": 2351,
      "▁enabled": 2352,
      "▁apartments": 2353,
      "##-m": 2354,
      "▁louis": 2355,
      "##ograph": 2356,
      "▁entails": 2357,
      "▁audiobooks": 2358,
      "▁sum": 2359,
      "▁conde": 2360,
      "##ses": 2361,
      "▁kinds": 2362,
      "▁army": 2363,
      "##cat": 2364,
      "▁steve": 2365,
      "▁responded": 2366,
      "##animals": 2367,
      "##ands": 2368,
      "##even": 2369,
      "##ployment": 2370,
      "▁opted": 2371,
      "▁'ve": 2372,
      "▁webs": 2373,
      "##aping": 2374,
      "▁starts": 2375,
      "▁diarr": 2376,
      "##dog": 2377,
      "▁acc": 2378,
      "▁professors": 2379,
      "▁excuses": 2380,
      "▁governments": 2381,
      "▁enjoyed": 2382,
      "▁bosom": 2383,
      "▁mostly": 2384,
      "▁gnome": 2385,
      "▁conscience": 2386,
      "▁kim": 2387,
      "▁caterpillars": 2388,
      "▁supermar": 2389,
      "▁difficulty": 2390,
      "▁crawler": 2391,
      "▁servers": 2392,
      "▁unre": 2393,
      "##rection": 2394,
      "▁tugging": 2395,
      "▁pester": 2396,
      "▁experien": 2397,
      "▁autob": 2398,
      "##amps": 2399,
      "##fr": 2400,
      "##ideration": 2401,
      "▁fashion": 2402,
      "▁principles": 2403,
      "▁matt": 2404,
      "▁use": 2405,
      "▁depart": 2406,
      "▁purse": 2407,
      "▁accomplishment": 2408,
      "▁remove": 2409,
      "##uce": 2410,
      "▁products": 2411,
      "▁adhering": 2412,
      "##ucks": 2413,
      "##amati": 2414,
      "##ctions": 2415,
      "▁meets": 2416,
      "##rite": 2417,
      "▁dash": 2418,
      "##egration": 2419,
      "▁prop": 2420,
      "▁sustainability": 2421,
      "##inqu": 2422,
      "▁finalize": 2423,
      "▁lol": 2424,
      "##uator": 2425,
      "▁savi": 2426,
      "▁clarification": 2427,
      "##estab": 2428,
      "▁contractor": 2429,
      "##------": 2430,
      "▁emer": 2431,
      "▁phoned": 2432,
      "▁upgrade": 2433,
      "▁crocod": 2434,
      "▁shar": 2435,
      "▁fullness": 2436,
      "▁cancelled": 2437,
      "##group": 2438,
      "##laim": 2439,
      "▁denied": 2440,
      "▁prototyp": 2441,
      "▁gigg": 2442,
      "▁be": 2443,
      "▁themselves": 2444,
      "▁eb": 2445,
      "▁squared": 2446,
      "▁loo": 2447,
      "▁14": 2448,
      "▁sex": 2449,
      "▁truth": 2450,
      "##itch": 2451,
      "▁merchant": 2452,
      "▁credentials": 2453,
      "▁nursery": 2454,
      "##ceived": 2455,
      "▁sweat": 2456,
      "▁replacing": 2457,
      "▁wide": 2458,
      "▁trust": 2459,
      "▁outcom": 2460,
      "▁doz": 2461,
      "##bean": 2462,
      "▁ids": 2463,
      "▁reconc": 2464,
      "##les": 2465,
      "▁holders": 2466,
      "▁sounds": 2467,
      "▁customer": 2468,
      "##iel": 2469,
      "▁levels": 2470,
      "##eda": 2471,
      "▁sc": 2472,
      "▁authors": 2473,
      "▁society": 2474,
      "▁airlines": 2475,
      "▁cin": 2476,
      "##afe": 2477,
      "▁shouted": 2478,
      "▁tele": 2479,
      "##ol": 2480,
      "▁secession": 2481,
      "▁telephones": 2482,
      "▁foss": 2483,
      "▁america": 2484,
      "▁liabilities": 2485,
      "##oise": 2486,
      "##illance": 2487,
      "▁underground": 2488,
      "▁containing": 2489,
      "##friends": 2490,
      "▁apprentice": 2491,
      "##get": 2492,
      "##ffective": 2493,
      "▁shed": 2494,
      "▁drow": 2495,
      "##di": 2496,
      "##sting": 2497,
      "##3i": 2498,
      "##fore": 2499,
      "▁ger": 2500,
      "##agg": 2501,
      "##—": 2502,
      "▁mayonnaise": 2503,
      "▁oneself": 2504,
      "▁anatomy": 2505,
      "▁ton": 2506,
      "▁tv": 2507,
      "▁rises": 2508,
      "##ustration": 2509,
      "##nly": 2510,
      "▁weight": 2511,
      "▁christi": 2512,
      "##imb": 2513,
      "##otated": 2514,
      "▁alt.animals.d": 2515,
      "▁blonde": 2516,
      "▁pilgrims": 2517,
      "▁bo": 2518,
      "▁align": 2519,
      "##7-1.doc": 2520,
      "▁scenarios": 2521,
      "▁preci": 2522,
      "▁tooth": 2523,
      "##wrec": 2524,
      "▁chang": 2525,
      "▁*": 2526,
      "▁martyrs": 2527,
      "▁flooded": 2528,
      "##ini": 2529,
      "▁looks": 2530,
      "▁expire": 2531,
      "▁wildlife": 2532,
      "▁apron": 2533,
      "▁homosex": 2534,
      "▁clues": 2535,
      "▁clock": 2536,
      "##ooped": 2537,
      "##imited": 2538,
      "▁aimed": 2539,
      "▁cuck": 2540,
      "▁courtesy": 2541,
      "##nages": 2542,
      "▁according": 2543,
      "▁rebalancing": 2544,
      "##copes": 2545,
      "]": 2546,
      "##–": 2547,
      "##gers": 2548,
      "▁entrance": 2549,
      "##cessful": 2550,
      "▁moustache": 2551,
      "▁island": 2552,
      "▁confidante": 2553,
      "▁prepare": 2554,
      "▁bank": 2555,
      "▁success": 2556,
      "▁voices": 2557,
      "▁freedoms": 2558,
      "##lipop": 2559,
      "##isl": 2560,
      "##sts": 2561,
      "##kets": 2562,
      "▁jihad": 2563,
      "▁mist": 2564,
      "▁div": 2565,
      "▁exist": 2566,
      "▁wording": 2567,
      "##aved": 2568,
      "▁eliminated": 2569,
      "▁detail": 2570,
      "▁anth": 2571,
      "##pi": 2572,
      "▁intercon": 2573,
      "▁twa": 2574,
      "##sl": 2575,
      "##iness": 2576,
      "##:/": 2577,
      "##==": 2578,
      "##kating": 2579,
      "##fort": 2580,
      "##arming": 2581,
      "▁floated": 2582,
      "▁occas": 2583,
      "▁guaranteed": 2584,
      "▁dish": 2585,
      "▁destiny": 2586,
      "##---": 2587,
      "▁unit": 2588,
      "▁hanged": 2589,
      "▁comedy": 2590,
      "##__": 2591,
      "▁feelings": 2592,
      "▁coming": 2593,
      "##tw": 2594,
      "▁printer": 2595,
      "▁therap": 2596,
      "▁highlighting": 2597,
      "▁mm": 2598,
      "▁resist": 2599,
      "##ommerce": 2600,
      "▁clin": 2601,
      "▁guards": 2602,
      "▁referral": 2603,
      "▁winter": 2604,
      "##berry": 2605,
      "##ending": 2606,
      "▁download": 2607,
      "▁travel": 2608,
      "▁penet": 2609,
      "▁thank": 2610,
      "##-house": 2611,
      "▁menti": 2612,
      "▁punishment": 2613,
      "▁arrange": 2614,
      "##ational": 2615,
      "▁producers": 2616,
      "##lions": 2617,
      "##bee": 2618,
      "▁crime": 2619,
      "▁mold": 2620,
      "▁workmanship": 2621,
      "##alists": 2622,
      "▁court": 2623,
      "▁outlets": 2624,
      "▁ar": 2625,
      "v": 2626,
      "▁fourth": 2627,
      "##mem": 2628,
      "##arraf": 2629,
      "▁punchline": 2630,
      "▁barn": 2631,
      "▁scient": 2632,
      "##inks": 2633,
      "##ayed": 2634,
      "▁wailing": 2635,
      "▁spre": 2636,
      "▁courts": 2637,
      "▁wishing": 2638,
      "▁cooker": 2639,
      "▁narrowed": 2640,
      "▁duration": 2641,
      "▁dropped": 2642,
      "##xth": 2643,
      "##temp": 2644,
      "▁discus": 2645,
      "▁away": 2646,
      "▁hippop": 2647,
      "▁evap": 2648,
      "▁featuring": 2649,
      "▁spacetime": 2650,
      "##rella": 2651,
      "##ement": 2652,
      "▁hu": 2653,
      "▁missile": 2654,
      "▁reception": 2655,
      "▁mish": 2656,
      "▁opposed": 2657,
      "▁adam": 2658,
      "▁dram": 2659,
      "▁observation": 2660,
      "##ulations": 2661,
      "▁lee": 2662,
      "##uated": 2663,
      "▁jihadis": 2664,
      "##antics": 2665,
      "▁cooperate": 2666,
      "▁motiv": 2667,
      "▁smiled": 2668,
      "##merged": 2669,
      "##fications": 2670,
      "##okes": 2671,
      "▁learners": 2672,
      "▁west": 2673,
      "▁ambulances": 2674,
      "▁descriptions": 2675,
      "▁’ll": 2676,
      "▁failures": 2677,
      "##ases": 2678,
      "▁waves": 2679,
      "▁preferences": 2680,
      "▁neolog": 2681,
      "##oween": 2682,
      "##lling": 2683,
      "▁permitted": 2684,
      "▁deliver": 2685,
      "▁spe": 2686,
      "##gues": 2687,
      "##pol": 2688,
      "▁cos": 2689,
      "▁ear": 2690,
      "▁invented": 2691,
      "##ette": 2692,
      "▁tds": 2693,
      "##ora": 2694,
      "##ʻ": 2695,
      "▁florida": 2696,
      "▁bum": 2697,
      "##assing": 2698,
      "▁assist": 2699,
      "##bag": 2700,
      "▁resembled": 2701,
      "##tile": 2702,
      "▁motion": 2703,
      "▁consc": 2704,
      "▁shade": 2705,
      "▁rais": 2706,
      "▁pilgrimage": 2707,
      "▁temptation": 2708,
      "▁travels": 2709,
      "▁reviews": 2710,
      "▁communications": 2711,
      "▁dissolved": 2712,
      "##ourn": 2713,
      "▁neocons": 2714,
      "##uations": 2715,
      "##urt": 2716,
      "##idity": 2717,
      "##ires": 2718,
      "##overed": 2719,
      "##----------": 2720,
      "▁attach": 2721,
      "▁sources": 2722,
      "##ario": 2723,
      "▁remain": 2724,
      "##-st": 2725,
      "▁wish": 2726,
      "▁nail": 2727,
      "▁veranda": 2728,
      "▁each": 2729,
      "▁cognition": 2730,
      "▁subscribed": 2731,
      "▁cable": 2732,
      "▁d2": 2733,
      "▁...............": 2734,
      "▁buys": 2735,
      "▁drive": 2736,
      "▁revision": 2737,
      "▁’’": 2738,
      "##ully": 2739,
      "▁20": 2740,
      "▁poin": 2741,
      "▁fung": 2742,
      "##iot": 2743,
      "▁spend": 2744,
      "▁kangaroo": 2745,
      "##onde": 2746,
      "▁headmaster": 2747,
      "▁applies": 2748,
      "##ology": 2749,
      "##oin": 2750,
      "▁butt": 2751,
      "▁billion": 2752,
      "▁referencing": 2753,
      "▁taliban": 2754,
      "▁lasts": 2755,
      "▁stre": 2756,
      "▁enclosure": 2757,
      "##portun": 2758,
      "▁ml": 2759,
      "##vet": 2760,
      "▁thinking": 2761,
      "▁compli": 2762,
      "▁arrivals": 2763,
      "▁retirement": 2764,
      "▁video": 2765,
      "▁htt": 2766,
      "▁fist": 2767,
      "▁mould": 2768,
      "##eep": 2769,
      "▁ostrich": 2770,
      "##ways": 2771,
      "##plet": 2772,
      "##za": 2773,
      "▁formation": 2774,
      "##odder": 2775,
      "▁hoo": 2776,
      "##len": 2777,
      "##use": 2778,
      "▁2010": 2779,
      "▁descended": 2780,
      "▁midd": 2781,
      "▁curves": 2782,
      "▁recoll": 2783,
      "##action": 2784,
      "▁stars": 2785,
      "▁compl": 2786,
      "##ain": 2787,
      "▁federal": 2788,
      "▁header": 2789,
      "▁behin": 2790,
      "▁civil": 2791,
      "▁hours": 2792,
      "##aroo": 2793,
      "##yard": 2794,
      "▁oversight": 2795,
      "▁opinions": 2796,
      "▁librarians": 2797,
      "▁thunder": 2798,
      "▁factors": 2799,
      "▁jo": 2800,
      "▁admit": 2801,
      "▁circles": 2802,
      "▁folk": 2803,
      "##erco": 2804,
      "▁taxpay": 2805,
      "▁selling": 2806,
      "▁----": 2807,
      "##ct": 2808,
      "▁p.": 2809,
      "▁current": 2810,
      "##tigr": 2811,
      "▁specify": 2812,
      "##ested": 2813,
      "##eav": 2814,
      "▁pillars": 2815,
      "▁vel": 2816,
      "▁quad": 2817,
      "▁starvation": 2818,
      "▁draws": 2819,
      "▁blueberries": 2820,
      "▁s’": 2821,
      "##iring": 2822,
      "▁shakespeare": 2823,
      "▁seems": 2824,
      "▁modes": 2825,
      "▁indication": 2826,
      "▁bowl": 2827,
      "▁flying": 2828,
      "##ir": 2829,
      "##em": 2830,
      "##icking": 2831,
      "ɛ": 2832,
      "▁helping": 2833,
      "▁ro": 2834,
      "▁converting": 2835,
      "▁saucepan": 2836,
      "▁correlation": 2837,
      "▁dictionary": 2838,
      "▁cincinnati": 2839,
      "▁incentive": 2840,
      "##rowed": 2841,
      "▁preorder": 2842,
      "▁civ": 2843,
      "##aw": 2844,
      "##ute": 2845,
      "▁attraction": 2846,
      "##dayeen": 2847,
      "##helf": 2848,
      "▁tournament": 2849,
      "▁vince": 2850,
      "▁dwell": 2851,
      "▁laughed": 2852,
      "▁burn": 2853,
      "▁asses": 2854,
      "▁decide": 2855,
      "▁modified": 2856,
      "▁renting": 2857,
      "▁jim": 2858,
      "▁draw": 2859,
      "▁explore": 2860,
      "##pathy": 2861,
      "##thin": 2862,
      "##hib": 2863,
      "▁shore": 2864,
      "▁mut": 2865,
      "##nam": 2866,
      "▁drowned": 2867,
      "▁compromise": 2868,
      "[": 2869,
      "▁uncover": 2870,
      "##enix": 2871,
      "##ugged": 2872,
      "▁ground": 2873,
      "▁nomination": 2874,
      "▁anti": 2875,
      "▁curric": 2876,
      "▁received": 2877,
      "▁curb": 2878,
      "▁korea": 2879,
      "##erely": 2880,
      "▁athens": 2881,
      "▁poll": 2882,
      "▁lifetime": 2883,
      "▁meats": 2884,
      "##itated": 2885,
      "▁motives": 2886,
      "▁publicity": 2887,
      "▁excel": 2888,
      "▁since": 2889,
      "##.m.": 2890,
      "▁banners": 2891,
      "▁masterpi": 2892,
      "##equ": 2893,
      "▁childcare": 2894,
      "▁controversy": 2895,
      "▁wren": 2896,
      "▁intersection": 2897,
      "▁reluctance": 2898,
      "##ligibility": 2899,
      "▁issuing": 2900,
      "##ighb": 2901,
      "▁tuna": 2902,
      "▁washing": 2903,
      "▁moth": 2904,
      "▁troub": 2905,
      "##affle": 2906,
      "▁noting": 2907,
      "▁nt": 2908,
      "▁michael": 2909,
      "▁crises": 2910,
      "▁governance": 2911,
      "▁affliction": 2912,
      "▁mag": 2913,
      "▁september": 2914,
      "▁ambassad": 2915,
      "▁hd": 2916,
      "▁idiot": 2917,
      "▁phenomen": 2918,
      "▁worksh": 2919,
      "▁constitu": 2920,
      "▁sadness": 2921,
      "▁inc": 2922,
      "##nding": 2923,
      "##assment": 2924,
      "▁recreate": 2925,
      "##ver": 2926,
      "▁łodz": 2927,
      "▁whisp": 2928,
      "▁stick": 2929,
      "▁wishes": 2930,
      "▁********": 2931,
      "▁prem": 2932,
      "▁vul": 2933,
      "▁tofu": 2934,
      "▁enough": 2935,
      "▁titled": 2936,
      "▁nav": 2937,
      "▁kidding": 2938,
      "##ancers": 2939,
      "▁beard": 2940,
      "##eason": 2941,
      "▁picket": 2942,
      "▁area": 2943,
      "▁honour": 2944,
      "▁doughnuts": 2945,
      "▁`s": 2946,
      "▁judiciary": 2947,
      "▁mil": 2948,
      "▁rescue": 2949,
      "▁gives": 2950,
      "##.pd": 2951,
      "▁tidbit": 2952,
      "▁agg": 2953,
      "▁abbre": 2954,
      "▁adorned": 2955,
      "▁alt.animals.": 2956,
      "▁shown": 2957,
      "##d-": 2958,
      "##arded": 2959,
      "▁clubs": 2960,
      "▁settled": 2961,
      "##isture": 2962,
      "▁productivity": 2963,
      "▁banana": 2964,
      "▁lod": 2965,
      "##rely": 2966,
      "##hunt": 2967,
      "▁celebrating": 2968,
      "▁poss": 2969,
      "▁opinion": 2970,
      "▁pilots": 2971,
      "##resses": 2972,
      "▁cited": 2973,
      "▁linger": 2974,
      "▁shorts": 2975,
      "##card": 2976,
      "▁falling": 2977,
      "▁networks": 2978,
      "▁wig": 2979,
      "▁ter": 2980,
      "▁competence": 2981,
      "▁express": 2982,
      "▁provision": 2983,
      "▁matching": 2984,
      "##ons": 2985,
      "▁plat": 2986,
      "▁assigned": 2987,
      "▁stuck": 2988,
      "▁transmittal": 2989,
      "▁interfaces": 2990,
      "▁technology": 2991,
      "##uling": 2992,
      "##/ps": 2993,
      "▁spice": 2994,
      "▁kind": 2995,
      "▁maple": 2996,
      "▁clar": 2997,
      "▁grandd": 2998,
      "##ansion": 2999,
      "##ually": 3000,
      "##ec": 3001,
      "▁hey": 3002,
      "▁ownership": 3003,
      "▁foisted": 3004,
      "▁notepad": 3005,
      "▁sheep": 3006,
      "##raw": 3007,
      "▁democracy": 3008,
      "##tise": 3009,
      "▁crab": 3010,
      "▁secret": 3011,
      "▁sits": 3012,
      "▁mimic": 3013,
      "##rib": 3014,
      "##ude": 3015,
      "▁covering": 3016,
      "▁frogs": 3017,
      "▁transmit": 3018,
      "▁called": 3019,
      "▁learned": 3020,
      "##ato": 3021,
      "▁nume": 3022,
      "##hone": 3023,
      "##worm": 3024,
      "▁irritation": 3025,
      "▁satisf": 3026,
      "▁removal": 3027,
      "▁liquid": 3028,
      "▁sacrifice": 3029,
      "▁angels": 3030,
      "▁intention": 3031,
      "▁mins": 3032,
      "▁ceremony": 3033,
      "##bac": 3034,
      "▁defendants": 3035,
      "##²": 3036,
      "▁purposes": 3037,
      "##yc": 3038,
      "▁furth": 3039,
      "▁part": 3040,
      "▁important": 3041,
      "▁weeks": 3042,
      "▁million": 3043,
      "▁ducks": 3044,
      "▁evacuated": 3045,
      "▁alligator": 3046,
      "▁tresp": 3047,
      "▁profit": 3048,
      "▁experim": 3049,
      "▁charlotte": 3050,
      "▁bleachers": 3051,
      "▁coordinated": 3052,
      "▁attachments": 3053,
      "##orama": 3054,
      "▁requi": 3055,
      "##stop": 3056,
      "▁reflecting": 3057,
      "▁trauma": 3058,
      "▁draped": 3059,
      "▁employment": 3060,
      "▁correl": 3061,
      "▁transparency": 3062,
      "▁arriving": 3063,
      "▁destination": 3064,
      "▁hoped": 3065,
      "▁mou": 3066,
      "##int": 3067,
      "▁special": 3068,
      "▁soci": 3069,
      "▁#": 3070,
      "[CLS]": 3071,
      "▁campaign": 3072,
      "▁dinners": 3073,
      "▁regimes": 3074,
      "▁horsesho": 3075,
      "▁macaroni": 3076,
      "##eats": 3077,
      "▁transf": 3078,
      "▁boat": 3079,
      "▁treated": 3080,
      "▁updates": 3081,
      "▁detention": 3082,
      "▁glow": 3083,
      "▁applied": 3084,
      "▁strateg": 3085,
      "▁remnants": 3086,
      "▁professionals": 3087,
      "##thers": 3088,
      "▁inves": 3089,
      "▁aft": 3090,
      "▁dies": 3091,
      "▁worlds": 3092,
      "▁reads": 3093,
      "###693": 3094,
      "##jec": 3095,
      "▁thrive": 3096,
      "##ted": 3097,
      "▁trajectory": 3098,
      "▁during": 3099,
      "▁stories": 3100,
      "##bol": 3101,
      "▁furnished": 3102,
      "▁pricing": 3103,
      "##gance": 3104,
      "##/c": 3105,
      "##iful": 3106,
      "▁method": 3107,
      "▁prospects": 3108,
      "▁exce": 3109,
      "##eapolis": 3110,
      "▁lesson": 3111,
      "▁hack": 3112,
      "▁mic": 3113,
      "▁sail": 3114,
      "▁vern": 3115,
      "▁tou": 3116,
      "##pin": 3117,
      "▁fighting": 3118,
      "▁roles": 3119,
      "##nd": 3120,
      "▁line": 3121,
      "▁?!?": 3122,
      "##ring": 3123,
      "▁subj": 3124,
      "▁substant": 3125,
      "▁p.m.": 3126,
      "##cers": 3127,
      "▁hasidim": 3128,
      "##vily": 3129,
      "▁dilem": 3130,
      "▁flee": 3131,
      "▁past": 3132,
      "▁seventh": 3133,
      "▁hones": 3134,
      "##ant": 3135,
      "##ackened": 3136,
      "▁relations": 3137,
      "▁arguments": 3138,
      "▁chiro": 3139,
      "▁chores": 3140,
      "##eeds": 3141,
      "▁stuttering": 3142,
      "▁wink": 3143,
      "▁glows": 3144,
      "##alizes": 3145,
      "##anese": 3146,
      "▁chalk": 3147,
      "##ghetti": 3148,
      "▁meant": 3149,
      "##leenex": 3150,
      "##king": 3151,
      "▁stay": 3152,
      "▁sounded": 3153,
      "▁sailor": 3154,
      "▁grandpar": 3155,
      "##kle": 3156,
      "##huh": 3157,
      "##orating": 3158,
      "▁manti": 3159,
      "▁french": 3160,
      "##riage": 3161,
      "j": 3162,
      "▁volunte": 3163,
      "▁microphone": 3164,
      "▁continents": 3165,
      "##ces": 3166,
      "▁yiel": 3167,
      "##ocrat": 3168,
      "▁warhol": 3169,
      "▁power": 3170,
      "▁************************************************": 3171,
      "▁messages": 3172,
      "▁incident": 3173,
      "##olds": 3174,
      "▁flav": 3175,
      "▁octopus": 3176,
      "▁ug": 3177,
      "▁threat": 3178,
      "##rupt": 3179,
      "##arks": 3180,
      "▁roms": 3181,
      "▁aught": 3182,
      "##uct": 3183,
      "▁orbit": 3184,
      "▁submit": 3185,
      "▁congratulate": 3186,
      "▁pot": 3187,
      "▁sailed": 3188,
      "±": 3189,
      "▁mesh": 3190,
      "##fer": 3191,
      "▁occurred": 3192,
      "▁tales": 3193,
      "▁overcome": 3194,
      "▁ops": 3195,
      "##issed": 3196,
      "##mie": 3197,
      "▁superv": 3198,
      "▁coastline": 3199,
      "##iqu": 3200,
      "▁amazing": 3201,
      "##bi": 3202,
      "▁investigating": 3203,
      "▁displaced": 3204,
      "##eously": 3205,
      "##oard": 3206,
      "▁dav": 3207,
      "▁scaven": 3208,
      "▁etiqu": 3209,
      "▁estimated": 3210,
      "▁reconstr": 3211,
      "▁assisting": 3212,
      "▁scratching": 3213,
      "▁protein": 3214,
      "▁quotes": 3215,
      "▁dwww": 3216,
      "##..": 3217,
      "▁youth": 3218,
      "▁sexual": 3219,
      "▁coordin": 3220,
      "▁fisheries": 3221,
      "▁canc": 3222,
      "▁saturday": 3223,
      "▁hook": 3224,
      "▁bleeding": 3225,
      "▁preserv": 3226,
      "▁characteristic": 3227,
      "▁tucked": 3228,
      "##ability": 3229,
      "▁arrows": 3230,
      "▁coupons": 3231,
      "▁generation": 3232,
      "##ʁ": 3233,
      "▁viewing": 3234,
      "▁football": 3235,
      "▁decre": 3236,
      "▁boiler": 3237,
      "▁glance": 3238,
      "▁nickname": 3239,
      "▁accustomed": 3240,
      "▁fed": 3241,
      "##ativ": 3242,
      "##ching": 3243,
      "##owing": 3244,
      "##enoc": 3245,
      "▁wou": 3246,
      "▁kar": 3247,
      "##unch": 3248,
      "▁harry": 3249,
      "▁swit": 3250,
      "##iate": 3251,
      "▁sponsored": 3252,
      "▁ration": 3253,
      "▁weap": 3254,
      "▁aversion": 3255,
      "##pot": 3256,
      "▁sat": 3257,
      "▁200": 3258,
      "▁pyr": 3259,
      "▁blood": 3260,
      "##liness": 3261,
      "▁patch": 3262,
      "▁les": 3263,
      "▁defend": 3264,
      "▁pursuing": 3265,
      "##step": 3266,
      "▁shive": 3267,
      "▁manufacturer": 3268,
      "▁celebr": 3269,
      "▁hr": 3270,
      "##ade": 3271,
      "▁flooring": 3272,
      "▁senti": 3273,
      "▁universe": 3274,
      "##ges": 3275,
      "▁hometown": 3276,
      "▁net": 3277,
      "▁facilitating": 3278,
      "▁exhaustion": 3279,
      "##iated": 3280,
      "▁domain": 3281,
      "▁grandm": 3282,
      "▁tomato": 3283,
      "▁horn": 3284,
      "▁gamb": 3285,
      "##!": 3286,
      "▁beg": 3287,
      "##ounced": 3288,
      "▁sid": 3289,
      "▁strength": 3290,
      "&": 3291,
      "▁somewhere": 3292,
      "▁ye": 3293,
      "##ots": 3294,
      "▁cpa": 3295,
      "▁cerem": 3296,
      "▁emper": 3297,
      "▁complained": 3298,
      "▁ecosystem": 3299,
      "▁flat": 3300,
      "▁nap": 3301,
      "▁bedroom": 3302,
      "▁stat": 3303,
      "##erished": 3304,
      "▁thinks": 3305,
      "##t": 3306,
      "▁cont": 3307,
      "▁experts": 3308,
      "▁newspapers": 3309,
      "▁death": 3310,
      "##ij": 3311,
      "##isal": 3312,
      "▁reduc": 3313,
      "##ha": 3314,
      "▁striking": 3315,
      "##hirt": 3316,
      "▁thyroid": 3317,
      "▁frames": 3318,
      "##pics": 3319,
      "▁mermaid": 3320,
      "▁diff": 3321,
      "▁upstairs": 3322,
      "##itis": 3323,
      "▁commons": 3324,
      "▁dock": 3325,
      "##loqu": 3326,
      "##ocation": 3327,
      "▁wings": 3328,
      "▁gin": 3329,
      "▁cohes": 3330,
      "▁stung": 3331,
      "▁museums": 3332,
      "##ails": 3333,
      "▁presence": 3334,
      "▁circulate": 3335,
      "▁fles": 3336,
      "▁porch": 3337,
      "▁infl": 3338,
      "▁proxim": 3339,
      "▁conforms": 3340,
      "##oices": 3341,
      "▁claim": 3342,
      "##ulating": 3343,
      "▁syrup": 3344,
      "▁ign": 3345,
      "##ummy": 3346,
      "##lik": 3347,
      "▁initial": 3348,
      "▁soared": 3349,
      "▁convention": 3350,
      "▁urs": 3351,
      "##ida": 3352,
      "▁duck": 3353,
      "▁regards": 3354,
      "▁stock": 3355,
      "##onent": 3356,
      "▁para": 3357,
      "▁cat-flap": 3358,
      "▁memphis": 3359,
      "▁difference": 3360,
      "▁erec": 3361,
      "▁flash": 3362,
      "##rights": 3363,
      "▁congratulations": 3364,
      "##ether": 3365,
      "▁mankind": 3366,
      "▁bomb": 3367,
      "▁inquiry": 3368,
      "▁shaped": 3369,
      "##lihood": 3370,
      "##als": 3371,
      "▁combining": 3372,
      "▁negotiated": 3373,
      "▁complement": 3374,
      "▁spikes": 3375,
      "▁childbir": 3376,
      "▁sudd": 3377,
      "▁conspir": 3378,
      "##-cl": 3379,
      "▁equation": 3380,
      "▁trans": 3381,
      "▁asset": 3382,
      "▁faculty": 3383,
      "▁liber": 3384,
      "##ticip": 3385,
      "▁empty": 3386,
      "##aucr": 3387,
      "▁depends": 3388,
      "▁inclu": 3389,
      "▁harbor": 3390,
      "▁economy": 3391,
      "▁beating": 3392,
      "▁schedul": 3393,
      "##haki": 3394,
      "▁settlements": 3395,
      "▁pine": 3396,
      "▁admissions": 3397,
      "▁peter": 3398,
      "▁strengthening": 3399,
      "▁bagels": 3400,
      "▁documented": 3401,
      "▁peanuts": 3402,
      "▁breast": 3403,
      "##lization": 3404,
      "##elt": 3405,
      "##liament": 3406,
      "▁encompassing": 3407,
      "▁olives": 3408,
      "▁cru": 3409,
      "▁awareness": 3410,
      "▁assuring": 3411,
      "##ctive": 3412,
      "▁°": 3413,
      "▁nerves": 3414,
      "▁oper": 3415,
      "##est": 3416,
      "▁ox": 3417,
      "▁accomp": 3418,
      "##0's": 3419,
      "▁reaff": 3420,
      "▁terr": 3421,
      "##ause": 3422,
      "▁soup": 3423,
      "▁snitch": 3424,
      "▁chatting": 3425,
      "▁demonstr": 3426,
      "▁consist": 3427,
      "▁pound": 3428,
      "##ingle": 3429,
      "##eros": 3430,
      "##erious": 3431,
      "##bblers": 3432,
      "##ical": 3433,
      "▁error": 3434,
      "##81": 3435,
      "▁slee": 3436,
      "▁daycare": 3437,
      "▁cuz": 3438,
      "▁treaties": 3439,
      "▁d": 3440,
      "▁arrv.": 3441,
      "▁weaponize": 3442,
      "▁exc": 3443,
      "▁ul": 3444,
      "▁spike": 3445,
      "▁memorial": 3446,
      "##alized": 3447,
      "##op": 3448,
      "▁laugh": 3449,
      "▁game": 3450,
      "▁!!!!!!!": 3451,
      "▁curve": 3452,
      "▁installed": 3453,
      "▁vic": 3454,
      "▁accusing": 3455,
      "▁....": 3456,
      "▁thri": 3457,
      "##20s": 3458,
      "##unks": 3459,
      "▁dall": 3460,
      "##fri": 3461,
      "▁western": 3462,
      "▁for": 3463,
      "▁nurse": 3464,
      "▁embedded": 3465,
      "▁than": 3466,
      "▁perceptions": 3467,
      "##ivated": 3468,
      "▁interviewers": 3469,
      "▁owing": 3470,
      "▁contempl": 3471,
      "##raved": 3472,
      "▁cath": 3473,
      "▁joint": 3474,
      "▁schools": 3475,
      "▁meditation": 3476,
      "▁simplicity": 3477,
      "▁adopt": 3478,
      "▁stacked": 3479,
      "▁obtaining": 3480,
      "▁gentle": 3481,
      "▁houston": 3482,
      "▁diseas": 3483,
      "▁byebye": 3484,
      "▁maw": 3485,
      "▁transcri": 3486,
      "▁eating": 3487,
      "▁whoever": 3488,
      "▁uneasiness": 3489,
      "##172": 3490,
      "▁blower": 3491,
      "▁surgery": 3492,
      "##atos": 3493,
      "▁wins": 3494,
      "##resent": 3495,
      "▁result": 3496,
      "##onym": 3497,
      "▁smaller": 3498,
      "▁four": 3499,
      "##eal": 3500,
      "▁package": 3501,
      "▁medic": 3502,
      "▁co-f": 3503,
      "▁fold": 3504,
      "▁tuned": 3505,
      "▁lunch": 3506,
      "▁disagree": 3507,
      "▁occur": 3508,
      "▁escape": 3509,
      "##angers": 3510,
      "▁heck": 3511,
      "##inal": 3512,
      "##hop": 3513,
      "▁tying": 3514,
      "▁100": 3515,
      "▁permission": 3516,
      "▁whole": 3517,
      "▁forbidden": 3518,
      "▁instructed": 3519,
      "▁dignitaries": 3520,
      "▁propped": 3521,
      "▁furniture": 3522,
      "##sely": 3523,
      "▁misery": 3524,
      "##anie": 3525,
      "▁busted": 3526,
      "▁br": 3527,
      "##angled": 3528,
      "▁toured": 3529,
      "▁stand": 3530,
      "▁paramet": 3531,
      "##uff": 3532,
      "##esting": 3533,
      "▁v02": 3534,
      "▁forwarded": 3535,
      "▁anticip": 3536,
      "▁ontario": 3537,
      "▁blizzard": 3538,
      "▁cargo": 3539,
      "▁ma": 3540,
      "▁?????": 3541,
      "▁goose": 3542,
      "##orities": 3543,
      "▁income": 3544,
      "▁micros": 3545,
      "▁tiger": 3546,
      "▁relativ": 3547,
      "▁armies": 3548,
      "▁notify": 3549,
      "##ched": 3550,
      "▁portions": 3551,
      "##antom": 3552,
      "▁visibility": 3553,
      "##arf": 3554,
      "▁sinking": 3555,
      "▁percentiles": 3556,
      "▁natives": 3557,
      "▁accent": 3558,
      "▁financed": 3559,
      "▁bubbles": 3560,
      "▁watered": 3561,
      "▁jack": 3562,
      "##uster": 3563,
      "▁whom": 3564,
      "▁?": 3565,
      "▁compens": 3566,
      "##.html": 3567,
      "▁proposing": 3568,
      "##eat": 3569,
      "▁18": 3570,
      "▁banned": 3571,
      "##lief": 3572,
      "▁priorities": 3573,
      "##ister": 3574,
      "##ence": 3575,
      "▁analysis": 3576,
      "▁conformity": 3577,
      "▁recruitment": 3578,
      "▁l2": 3579,
      "▁moved": 3580,
      "▁matters": 3581,
      "##pre": 3582,
      "▁relics": 3583,
      "▁slipped": 3584,
      "▁interpretations": 3585,
      "▁abused": 3586,
      "▁do": 3587,
      "▁tape": 3588,
      "##ressive": 3589,
      "▁richard": 3590,
      "▁alphabet": 3591,
      "▁year": 3592,
      "▁resize": 3593,
      "▁robber": 3594,
      "▁eated": 3595,
      "▁antiqu": 3596,
      "▁electric": 3597,
      "▁reproduced": 3598,
      "##fp": 3599,
      "▁one": 3600,
      "s": 3601,
      "▁pity": 3602,
      "▁plant": 3603,
      "▁unto": 3604,
      "▁buyers": 3605,
      "▁emphasize": 3606,
      "▁motive": 3607,
      "▁heading": 3608,
      "▁embarrass": 3609,
      "▁pled": 3610,
      "▁luck": 3611,
      "▁conges": 3612,
      "▁steel": 3613,
      "▁llm": 3614,
      "▁seam": 3615,
      "##fting": 3616,
      "▁beat": 3617,
      "▁momma": 3618,
      "▁phoenix": 3619,
      "▁transactions": 3620,
      "##franch": 3621,
      "##mo": 3622,
      "##ai": 3623,
      "▁translations": 3624,
      "##stairs": 3625,
      "▁descend": 3626,
      "▁analyze": 3627,
      "▁win": 3628,
      "##erance": 3629,
      "▁jokes": 3630,
      "##eness": 3631,
      "▁wrongdo": 3632,
      "▁producing": 3633,
      "▁suspended": 3634,
      "##alizations": 3635,
      "▁until": 3636,
      "##ely": 3637,
      "▁pumping": 3638,
      "▁rewar": 3639,
      "##loy": 3640,
      "▁cycles": 3641,
      "▁inability": 3642,
      "▁effect": 3643,
      "▁oz": 3644,
      "▁westchester": 3645,
      "##lar": 3646,
      "▁dna": 3647,
      "▁curled": 3648,
      "▁o": 3649,
      "▁stare": 3650,
      "▁pushing": 3651,
      "▁ninet": 3652,
      "▁habitat": 3653,
      "##umb": 3654,
      "##uity": 3655,
      "▁baked": 3656,
      "▁scorp": 3657,
      "##aded": 3658,
      "▁appell": 3659,
      "▁revive": 3660,
      "▁13": 3661,
      "▁chill": 3662,
      "▁loot": 3663,
      "▁firetruck": 3664,
      "▁cact": 3665,
      "▁pairs": 3666,
      "▁pulse": 3667,
      "##orms": 3668,
      "▁takeoffs": 3669,
      "##otyp": 3670,
      "##-class": 3671,
      "▁reliance": 3672,
      "##ivia": 3673,
      "▁!?": 3674,
      "▁edited": 3675,
      "▁knitting": 3676,
      "▁fal": 3677,
      "▁entered": 3678,
      "##amet": 3679,
      "▁food": 3680,
      "▁hamburger": 3681,
      "▁tors": 3682,
      "▁ecodesign": 3683,
      "▁brushed": 3684,
      "▁suddenly": 3685,
      "▁supermarkets": 3686,
      "▁airplane": 3687,
      "▁its": 3688,
      "▁consume": 3689,
      "##icomed": 3690,
      "##ca": 3691,
      "▁house": 3692,
      "▁http://www": 3693,
      "▁weapons": 3694,
      "##bility": 3695,
      "##inance": 3696,
      "▁similarities": 3697,
      "##ugs": 3698,
      "▁stunk": 3699,
      "▁determination": 3700,
      "▁ambition": 3701,
      "▁toothpaste": 3702,
      "▁poses": 3703,
      "▁employ": 3704,
      "▁ta": 3705,
      "▁absence": 3706,
      "▁concess": 3707,
      "▁childbirth": 3708,
      "##mpath": 3709,
      "▁tossed": 3710,
      "▁resting": 3711,
      "##ords": 3712,
      "▁assembled": 3713,
      "▁anemones": 3714,
      "##guard": 3715,
      "##owl": 3716,
      "7": 3717,
      "##....": 3718,
      "▁punctuation": 3719,
      "▁bladder": 3720,
      "▁pension": 3721,
      "▁horsies": 3722,
      "▁muggle": 3723,
      "▁metering": 3724,
      "▁job": 3725,
      "##es": 3726,
      "##rum": 3727,
      "▁guit": 3728,
      "▁adjustments": 3729,
      "▁houses": 3730,
      "▁contractors": 3731,
      "▁committee": 3732,
      "▁furn": 3733,
      "▁ec": 3734,
      "▁files": 3735,
      "▁book": 3736,
      "▁how": 3737,
      "▁deriv": 3738,
      "▁ethnocentrism": 3739,
      "▁jewel": 3740,
      "##ates": 3741,
      "##asts": 3742,
      "▁deepen": 3743,
      "▁asking": 3744,
      "▁hypnosis": 3745,
      "▁hears": 3746,
      "▁acceding": 3747,
      "▁te": 3748,
      "▁muttered": 3749,
      "▁researching": 3750,
      "▁ap": 3751,
      "▁enemy": 3752,
      "▁bombings": 3753,
      "▁buzzer": 3754,
      "##le": 3755,
      "▁label": 3756,
      "▁blinked": 3757,
      "▁symphony": 3758,
      "▁roughness": 3759,
      "▁smell": 3760,
      "##utionary": 3761,
      "▁requests": 3762,
      "##arize": 3763,
      "▁walls": 3764,
      "▁alternates": 3765,
      "▁attachment": 3766,
      "▁rode": 3767,
      "▁meth": 3768,
      "▁generate": 3769,
      "▁masts": 3770,
      "▁yawning": 3771,
      "##osite": 3772,
      "▁bom": 3773,
      "▁spea": 3774,
      "▁investigation": 3775,
      "▁ward": 3776,
      "▁martyr": 3777,
      "##fuge": 3778,
      "▁spacecraft": 3779,
      "▁winters": 3780,
      "▁corridors": 3781,
      "▁matched": 3782,
      "▁romances": 3783,
      "▁accomplished": 3784,
      "▁ak": 3785,
      "▁waving": 3786,
      "##tiqu": 3787,
      "##istribution": 3788,
      "▁dwibbling": 3789,
      "▁swee": 3790,
      "▁submarine": 3791,
      "▁toy": 3792,
      "▁sem": 3793,
      "▁rapidly": 3794,
      "▁foll": 3795,
      "▁knot": 3796,
      "▁able": 3797,
      "▁worked": 3798,
      "▁knock": 3799,
      "##erd": 3800,
      "▁metro": 3801,
      "▁bumped": 3802,
      "##acture": 3803,
      "▁touch": 3804,
      "▁ideals": 3805,
      "▁reintroduction": 3806,
      "▁discussing": 3807,
      "▁happ": 3808,
      "▁ming": 3809,
      "##b": 3810,
      "##ifies": 3811,
      "▁secure": 3812,
      "▁beams": 3813,
      "▁capacity": 3814,
      "##ugh": 3815,
      "##cess": 3816,
      "▁fuss": 3817,
      "▁majority": 3818,
      "##ulture": 3819,
      "##sen": 3820,
      "▁tore": 3821,
      "##raged": 3822,
      "▁interval": 3823,
      "▁possibilities": 3824,
      "▁planet": 3825,
      "▁tile": 3826,
      "▁solved": 3827,
      "▁significance": 3828,
      "▁ther": 3829,
      "▁african": 3830,
      "▁pivotch": 3831,
      "▁declaring": 3832,
      "▁iq": 3833,
      "▁flatten": 3834,
      "▁tells": 3835,
      "▁adapted": 3836,
      "▁shone": 3837,
      "▁licens": 3838,
      "▁attended": 3839,
      "##tiation": 3840,
      "▁offense": 3841,
      "▁trumpets": 3842,
      "▁milwaukee": 3843,
      "▁combined": 3844,
      "▁grandchildren": 3845,
      "##hole": 3846,
      "##hero": 3847,
      "##ial": 3848,
      "##fos": 3849,
      "▁orchestrated": 3850,
      "▁yards": 3851,
      "▁suite": 3852,
      "##emination": 3853,
      "▁rentals": 3854,
      "▁town": 3855,
      "▁consideration": 3856,
      "▁house-": 3857,
      "##il": 3858,
      "▁validity": 3859,
      "##resident": 3860,
      "▁expelling": 3861,
      "▁kilometres": 3862,
      "▁suggesting": 3863,
      "▁distraction": 3864,
      "▁translates": 3865,
      "▁policy": 3866,
      "▁disappeared": 3867,
      "▁after": 3868,
      "▁temp": 3869,
      "##icted": 3870,
      "##umps": 3871,
      "▁wednesday": 3872,
      "▁recommended": 3873,
      "##sible": 3874,
      "▁assemb": 3875,
      "##ica": 3876,
      "▁responds": 3877,
      "##ich": 3878,
      "▁scramb": 3879,
      "▁vict": 3880,
      "▁colored": 3881,
      "▁cre": 3882,
      "▁entities": 3883,
      "##ay": 3884,
      "▁vessels": 3885,
      "##acts": 3886,
      "▁contacting": 3887,
      "▁throu": 3888,
      "▁malf": 3889,
      "▁attaining": 3890,
      "▁scientology": 3891,
      "##30s": 3892,
      "▁sneakers": 3893,
      "▁belon": 3894,
      "▁lodging": 3895,
      "##ilization": 3896,
      "##eling": 3897,
      "▁checked": 3898,
      "##sus": 3899,
      "▁stranger": 3900,
      "▁angles": 3901,
      "▁notified": 3902,
      "▁directly": 3903,
      "▁tribes": 3904,
      "▁farmer": 3905,
      "▁forwarding": 3906,
      "▁@": 3907,
      "▁lesion": 3908,
      "▁advisors": 3909,
      "▁inter": 3910,
      "##l": 3911,
      "▁constit": 3912,
      "##pres": 3913,
      "▁overth": 3914,
      "▁march": 3915,
      "▁skating": 3916,
      "▁keeps": 3917,
      "##our": 3918,
      "▁breaking": 3919,
      "▁erase": 3920,
      "▁manuf": 3921,
      "##ba": 3922,
      "▁presentation": 3923,
      "▁pieces": 3924,
      "▁succession": 3925,
      "▁please": 3926,
      "▁beetle": 3927,
      "▁design": 3928,
      "##ster": 3929,
      "▁posed": 3930,
      "▁tolerance": 3931,
      "##phie": 3932,
      "##lights": 3933,
      "##orts": 3934,
      "▁placed": 3935,
      "▁conf": 3936,
      "▁robotics": 3937,
      "▁farms": 3938,
      "▁legitimacy": 3939,
      "##aper": 3940,
      "▁fabric": 3941,
      "##tition": 3942,
      "▁monarchy": 3943,
      "▁concer": 3944,
      "▁weeds": 3945,
      "▁situations": 3946,
      "##tak": 3947,
      "▁sust": 3948,
      "▁publish": 3949,
      "▁doggies": 3950,
      "##ploy": 3951,
      "▁protect": 3952,
      "▁estimates": 3953,
      "▁terminated": 3954,
      "▁any": 3955,
      "▁teef": 3956,
      "##oon": 3957,
      "▁finding": 3958,
      "▁desert": 3959,
      "▁outfits": 3960,
      "▁tug": 3961,
      "▁moment": 3962,
      "##90s": 3963,
      "##pos": 3964,
      "▁autobiography": 3965,
      "▁ridden": 3966,
      "▁old": 3967,
      "▁mow": 3968,
      "##owed": 3969,
      "▁swallow": 3970,
      "▁minus": 3971,
      "▁them": 3972,
      "▁flour": 3973,
      "▁ranges": 3974,
      "▁prov": 3975,
      "▁machines": 3976,
      "▁expl": 3977,
      "▁gol": 3978,
      "▁linking": 3979,
      "##ile": 3980,
      "▁triv": 3981,
      "##tingu": 3982,
      "▁......": 3983,
      "▁tray": 3984,
      "▁total": 3985,
      "▁miss": 3986,
      "##bed": 3987,
      "▁all": 3988,
      "▁chem": 3989,
      "▁website": 3990,
      "▁luncheon": 3991,
      "▁completing": 3992,
      "##r.": 3993,
      "##umbled": 3994,
      "##aphr": 3995,
      "▁cancellation": 3996,
      "##nch": 3997,
      "▁n’t": 3998,
      "▁leader": 3999,
      "▁cleaners": 4000,
      "▁incentives": 4001,
      "##option": 4002,
      "▁royalist": 4003,
      "▁sar": 4004,
      "▁carvings": 4005,
      "▁bars": 4006,
      "▁generalizability": 4007,
      "▁maintenance": 4008,
      "▁bicycle": 4009,
      "▁banknotes": 4010,
      "##st": 4011,
      "▁-----": 4012,
      "▁seminars": 4013,
      "▁bacter": 4014,
      "▁join": 4015,
      "▁comparisons": 4016,
      "▁integr": 4017,
      "▁jose": 4018,
      "▁know": 4019,
      "▁poles": 4020,
      "▁occasionally": 4021,
      "▁theirs": 4022,
      "##ectives": 4023,
      "▁permits": 4024,
      "▁da": 4025,
      "▁comp": 4026,
      "▁receive": 4027,
      "▁enthusiasm": 4028,
      "##uit": 4029,
      "▁trying": 4030,
      "▁purch": 4031,
      "▁causes": 4032,
      "▁ads": 4033,
      "▁reserves": 4034,
      "▁plaque": 4035,
      "##tionally": 4036,
      "▁forget": 4037,
      "▁boing": 4038,
      "▁dipping": 4039,
      "▁displaying": 4040,
      "▁popsicle": 4041,
      "▁manager": 4042,
      "▁explains": 4043,
      "▁league": 4044,
      "▁store": 4045,
      "▁trunks": 4046,
      "##cell": 4047,
      "▁gtee": 4048,
      "##-b": 4049,
      "▁followed": 4050,
      "##gal": 4051,
      "▁toronto": 4052,
      "▁singles": 4053,
      "▁features": 4054,
      "t": 4055,
      "▁rip": 4056,
      "▁define": 4057,
      "##boy": 4058,
      "▁dissemination": 4059,
      "▁bott": 4060,
      "▁phd": 4061,
      "##zy": 4062,
      "##hus": 4063,
      "▁cric": 4064,
      "▁repaired": 4065,
      "##anted": 4066,
      "##rison": 4067,
      "▁compliance": 4068,
      "▁rhy": 4069,
      "▁preparation": 4070,
      "▁disconnect": 4071,
      "##lies": 4072,
      "▁dir": 4073,
      "▁technologies": 4074,
      "##/2000": 4075,
      "▁courtyard": 4076,
      "▁case": 4077,
      "▁check": 4078,
      "▁pile": 4079,
      "▁borrow": 4080,
      "##lut": 4081,
      "▁trim": 4082,
      "▁thousand": 4083,
      "▁rely": 4084,
      "▁deer": 4085,
      "▁encourage": 4086,
      "▁extent": 4087,
      "▁membership": 4088,
      "▁outro": 4089,
      "##way": 4090,
      "##ais": 4091,
      "▁statistics": 4092,
      "##osure": 4093,
      "##rol": 4094,
      "▁kicking": 4095,
      "▁sprouts": 4096,
      "▁ensured": 4097,
      "▁appease": 4098,
      "##cove": 4099,
      "▁forums": 4100,
      "▁extract": 4101,
      "▁armaments": 4102,
      "▁gods": 4103,
      "##icul": 4104,
      "▁non-": 4105,
      "▁compensate": 4106,
      "##tail": 4107,
      "▁role": 4108,
      "▁aim": 4109,
      "##rest": 4110,
      "##espit": 4111,
      "▁filtering": 4112,
      "##warded": 4113,
      "▁muscles": 4114,
      "▁sewed": 4115,
      "##angu": 4116,
      "##g": 4117,
      "▁bapt": 4118,
      "▁disciples": 4119,
      "▁expos": 4120,
      "##land": 4121,
      "▁bang": 4122,
      "##omp": 4123,
      "▁policeman": 4124,
      "▁exhibited": 4125,
      "▁lottery": 4126,
      "▁molec": 4127,
      "▁doggy": 4128,
      "▁resided": 4129,
      "##ember": 4130,
      "▁jump": 4131,
      "▁emerges": 4132,
      "##rage": 4133,
      "▁writ": 4134,
      "▁ever": 4135,
      "▁sentence": 4136,
      "▁pew": 4137,
      "##ital": 4138,
      "▁tal": 4139,
      "▁turned": 4140,
      "▁leaves": 4141,
      "▁orient": 4142,
      "▁settle": 4143,
      "##ipping": 4144,
      "▁scri": 4145,
      "▁spirit": 4146,
      "▁hatred": 4147,
      "##ectors": 4148,
      "##pa": 4149,
      "▁incap": 4150,
      "▁purpose": 4151,
      "▁guilt": 4152,
      "##.g.": 4153,
      "##eland": 4154,
      "▁cigar": 4155,
      "##eop": 4156,
      "▁collaborations": 4157,
      "▁subs": 4158,
      "▁arres": 4159,
      "##ror": 4160,
      "▁rolled": 4161,
      "##ney": 4162,
      "▁dog": 4163,
      "##?!?": 4164,
      "##iography": 4165,
      "##nation": 4166,
      "▁detained": 4167,
      "▁officers": 4168,
      "▁factory": 4169,
      "▁sizz": 4170,
      "▁revolution": 4171,
      "##ingness": 4172,
      "▁mathema": 4173,
      "▁seating": 4174,
      "▁personal": 4175,
      "▁upside": 4176,
      "##isters": 4177,
      "▁snakes": 4178,
      "▁devil": 4179,
      "▁likeness": 4180,
      "##awing": 4181,
      "▁exch": 4182,
      "▁scand": 4183,
      "▁observations": 4184,
      "▁wheeled": 4185,
      "##ints": 4186,
      "▁parent": 4187,
      "▁gear": 4188,
      "▁has": 4189,
      "▁demon": 4190,
      "▁inhabitants": 4191,
      "##sex": 4192,
      "▁embarked": 4193,
      "▁enterprises": 4194,
      "▁best": 4195,
      "▁constitution": 4196,
      "▁pain": 4197,
      "▁staffed": 4198,
      "▁neither": 4199,
      "▁suspected": 4200,
      "▁uh": 4201,
      "▁end": 4202,
      "▁improvements": 4203,
      "▁trays": 4204,
      "##iciency": 4205,
      "▁doors": 4206,
      "##oming": 4207,
      "▁laptops": 4208,
      "▁thyro": 4209,
      "##heet": 4210,
      "▁bugs": 4211,
      "##igration": 4212,
      "▁biologists": 4213,
      "##ites": 4214,
      "##-p": 4215,
      "▁prototype": 4216,
      "##ft": 4217,
      "▁verifies": 4218,
      "▁counterpar": 4219,
      "▁hauled": 4220,
      "##eys": 4221,
      "▁kaos": 4222,
      ",": 4223,
      "▁terrible": 4224,
      "▁invites": 4225,
      "▁indicator": 4226,
      "▁warrants": 4227,
      "▁recreation": 4228,
      "##subscrib": 4229,
      "▁high": 4230,
      "▁cha": 4231,
      "▁had": 4232,
      "▁holt": 4233,
      "##at": 4234,
      "▁60": 4235,
      "▁fault": 4236,
      "##nik": 4237,
      "▁patients": 4238,
      "##omic": 4239,
      "##lec": 4240,
      "##ighten": 4241,
      "▁afford": 4242,
      "##actor": 4243,
      "▁greetings": 4244,
      "▁twilight": 4245,
      "▁restructuring": 4246,
      "▁mit": 4247,
      "▁dialog": 4248,
      "▁industrialist": 4249,
      "##hether": 4250,
      "▁partnerships": 4251,
      "##mit": 4252,
      "##ction": 4253,
      "##ura": 4254,
      "▁`": 4255,
      "##te": 4256,
      "▁spices": 4257,
      "▁swear": 4258,
      "▁poems": 4259,
      "▁hoc": 4260,
      "▁retailers": 4261,
      "▁fours": 4262,
      "▁notions": 4263,
      "▁militias": 4264,
      "##eri": 4265,
      "▁recip": 4266,
      "##łod": 4267,
      "▁household": 4268,
      "▁sep": 4269,
      "▁pro": 4270,
      "▁rec": 4271,
      "▁daughters": 4272,
      "##erves": 4273,
      "▁attract": 4274,
      "##iet": 4275,
      "##arth": 4276,
      "##front": 4277,
      "▁prisoner": 4278,
      "▁meowing": 4279,
      "▁broke": 4280,
      "▁river": 4281,
      "##rently": 4282,
      "▁pati": 4283,
      "##unk": 4284,
      "▁handkerchief": 4285,
      "▁baby": 4286,
      "▁consensus": 4287,
      "▁bodies": 4288,
      "▁navigation": 4289,
      "▁anno": 4290,
      "▁slugs": 4291,
      "##isions": 4292,
      "▁waffles": 4293,
      "▁tickle": 4294,
      "##usions": 4295,
      "▁wors": 4296,
      "▁columns": 4297,
      "##oved": 4298,
      "▁transmedia": 4299,
      "▁persistence": 4300,
      "##time": 4301,
      "▁suffix": 4302,
      "▁apple": 4303,
      "▁parameters": 4304,
      "##ceutic": 4305,
      "▁users": 4306,
      "##icide": 4307,
      "▁pseudonym": 4308,
      "▁obligations": 4309,
      "▁offered": 4310,
      "##om": 4311,
      "▁provided": 4312,
      "▁ass": 4313,
      "▁p&": 4314,
      "▁wiel": 4315,
      "▁fled": 4316,
      "▁finger": 4317,
      "▁landings": 4318,
      "##qui": 4319,
      "▁directing": 4320,
      "▁moose": 4321,
      "▁burs": 4322,
      "▁spider": 4323,
      "▁wanted": 4324,
      "##yed": 4325,
      "▁confirms": 4326,
      "##page": 4327,
      "▁maintaining": 4328,
      "▁g": 4329,
      "##ye": 4330,
      "▁manual": 4331,
      "▁caves": 4332,
      "##alization": 4333,
      "##ounter": 4334,
      "##respond": 4335,
      "▁adjustment": 4336,
      "▁exploring": 4337,
      "▁guar": 4338,
      "▁scope": 4339,
      "▁hurting": 4340,
      "▁poa": 4341,
      "▁planted": 4342,
      "▁confisc": 4343,
      "▁li": 4344,
      "▁!!!!": 4345,
      "▁rough": 4346,
      "▁acquiring": 4347,
      "▁watch": 4348,
      "▁satellite": 4349,
      "##se": 4350,
      "▁correc": 4351,
      "▁convince": 4352,
      "##iration": 4353,
      "##ther": 4354,
      "##lig": 4355,
      "▁wol": 4356,
      "##la": 4357,
      "▁did": 4358,
      "▁develop": 4359,
      "▁rush": 4360,
      "##?": 4361,
      "▁pittsbur": 4362,
      "▁families": 4363,
      "▁depths": 4364,
      "▁bearing": 4365,
      "▁string": 4366,
      "##ton": 4367,
      "▁notes": 4368,
      "▁fungus": 4369,
      "▁,": 4370,
      "##3n": 4371,
      "##47": 4372,
      "▁adults": 4373,
      "▁converted": 4374,
      "▁cropdusters": 4375,
      "▁profession": 4376,
      "▁invention": 4377,
      "▁outsiders": 4378,
      "##ass": 4379,
      "▁bridges": 4380,
      "##leys": 4381,
      "##iders": 4382,
      "▁stomachs": 4383,
      "▁opposite": 4384,
      "▁consumer": 4385,
      "▁ker": 4386,
      "##chest": 4387,
      "##ities": 4388,
      "▁an": 4389,
      "##mb": 4390,
      "▁main": 4391,
      "▁podcast": 4392,
      "▁struc": 4393,
      "▁laws": 4394,
      "▁attrib": 4395,
      "##argo": 4396,
      "▁certai": 4397,
      "▁advertise": 4398,
      "##adder": 4399,
      "##ek": 4400,
      "▁conserv": 4401,
      "▁whipped": 4402,
      "##}": 4403,
      "##ʒ": 4404,
      "▁gut": 4405,
      "▁secretaries": 4406,
      "▁heating": 4407,
      "##anding": 4408,
      "▁likely": 4409,
      "▁english": 4410,
      "▁plight": 4411,
      "▁slang": 4412,
      "##met": 4413,
      "##licity": 4414,
      "▁cher": 4415,
      "▁conqu": 4416,
      "▁spaw": 4417,
      "▁bap": 4418,
      "▁human": 4419,
      "▁fiction": 4420,
      "##che": 4421,
      "▁perspective": 4422,
      "▁woo": 4423,
      "▁commentary": 4424,
      "▁tipt": 4425,
      "▁expects": 4426,
      "▁stage": 4427,
      "##act": 4428,
      "##eds": 4429,
      "##ustice": 4430,
      "▁arrangement": 4431,
      "##gle": 4432,
      "##ancing": 4433,
      "▁seated": 4434,
      "##aul": 4435,
      "##gold": 4436,
      "▁dec": 4437,
      "▁sponge": 4438,
      "##illas": 4439,
      "▁verify": 4440,
      "▁sculpt": 4441,
      "▁execution": 4442,
      "▁novelty": 4443,
      "▁interro": 4444,
      "▁gastroenter": 4445,
      "▁exile": 4446,
      "▁afghanistan": 4447,
      "▁screaming": 4448,
      "##alous": 4449,
      "▁galleries": 4450,
      "▁overlooked": 4451,
      "▁glanced": 4452,
      "##oney": 4453,
      "▁concern": 4454,
      "##oring": 4455,
      "▁abandoned": 4456,
      "▁lym": 4457,
      "▁outcome": 4458,
      "▁elbow": 4459,
      "▁but": 4460,
      "▁-----------------": 4461,
      "##bye": 4462,
      "▁expect": 4463,
      "▁euros": 4464,
      "▁hel": 4465,
      "##mes": 4466,
      "##yp": 4467,
      "##lem": 4468,
      "▁circum": 4469,
      "▁reass": 4470,
      "▁nipple": 4471,
      "##ale": 4472,
      "▁pull": 4473,
      "▁suffer": 4474,
      "▁entitled": 4475,
      "▁po": 4476,
      "▁talk": 4477,
      "▁chimney": 4478,
      "”": 4479,
      "▁incen": 4480,
      "▁actress": 4481,
      "▁physics": 4482,
      "▁screams": 4483,
      "▁goss": 4484,
      "▁indian": 4485,
      "▁connected": 4486,
      "▁horrible": 4487,
      "▁votes": 4488,
      "##uration": 4489,
      "▁grumble": 4490,
      "▁abuse": 4491,
      "##owers": 4492,
      "▁preventing": 4493,
      "▁squadrons": 4494,
      "▁meat": 4495,
      "##ujah": 4496,
      "▁lon": 4497,
      "▁monaster": 4498,
      "##tiff": 4499,
      "▁chandeli": 4500,
      "4": 4501,
      "▁sang": 4502,
      "▁respec": 4503,
      "▁markers": 4504,
      "▁identifying": 4505,
      "##ordination": 4506,
      "##yalty": 4507,
      "▁rid": 4508,
      "▁surveillance": 4509,
      "▁sending": 4510,
      "▁gam": 4511,
      "▁chat": 4512,
      "▁encouraged": 4513,
      "▁obl": 4514,
      "▁committed": 4515,
      "▁consid": 4516,
      "▁purs": 4517,
      "▁bread": 4518,
      "▁el": 4519,
      "##ew": 4520,
      "▁impression": 4521,
      "##rave": 4522,
      "▁mailed": 4523,
      "▁owned": 4524,
      "##cally": 4525,
      "##rities": 4526,
      "▁analogy": 4527,
      "##vely": 4528,
      "▁sausages": 4529,
      "##pite": 4530,
      "▁galois": 4531,
      "##ents": 4532,
      "▁consul": 4533,
      "▁panic": 4534,
      "▁lumin": 4535,
      "▁recommendation": 4536,
      "▁jam": 4537,
      "▁leisure": 4538,
      "▁dogg": 4539,
      "▁charity": 4540,
      "##ssi": 4541,
      "▁bricks": 4542,
      "▁mainland": 4543,
      "▁reprinted": 4544,
      "##educ": 4545,
      "▁butterfl": 4546,
      "##ised": 4547,
      "##overing": 4548,
      "▁meanings": 4549,
      "▁status": 4550,
      "▁rubble": 4551,
      "▁elevators": 4552,
      "▁vet": 4553,
      "▁crept": 4554,
      "▁microsoft": 4555,
      "▁stickerbirds": 4556,
      "##aissance": 4557,
      "▁sump": 4558,
      "▁unem": 4559,
      "▁surren": 4560,
      "▁implemented": 4561,
      "▁seat": 4562,
      "▁scoop": 4563,
      "▁mids": 4564,
      "##bles": 4565,
      "##establish": 4566,
      "▁recovering": 4567,
      "▁ant": 4568,
      "▁front": 4569,
      "##-room": 4570,
      "▁nowhere": 4571,
      "▁ob": 4572,
      "▁niece": 4573,
      "##itage": 4574,
      "▁probably": 4575,
      "▁sof": 4576,
      "▁migrant": 4577,
      "▁wine": 4578,
      "▁sighed": 4579,
      "##ik": 4580,
      "▁religion": 4581,
      "##ading": 4582,
      "▁presidents": 4583,
      "▁subscri": 4584,
      "▁pre": 4585,
      "▁ne": 4586,
      "##erent": 4587,
      "##ues": 4588,
      "▁transformed": 4589,
      "##ids": 4590,
      "▁machinery": 4591,
      "▁ris": 4592,
      "▁scratched": 4593,
      "▁memorized": 4594,
      "▁stink": 4595,
      "##manship": 4596,
      "##leration": 4597,
      "##zed": 4598,
      "▁filling": 4599,
      "▁!!!!!!": 4600,
      "##bal": 4601,
      "▁neighb": 4602,
      "▁conversion": 4603,
      "▁compounded": 4604,
      "▁created": 4605,
      "▁doctors": 4606,
      "▁median": 4607,
      "▁concre": 4608,
      "▁polish": 4609,
      "▁copyrighted": 4610,
      "##ghted": 4611,
      "▁snapped": 4612,
      "▁unions": 4613,
      "▁synthes": 4614,
      "▁portrayed": 4615,
      "ʊ": 4616,
      "▁---------------------------------": 4617,
      "▁accepted": 4618,
      "▁comments": 4619,
      "▁2": 4620,
      "▁harbour": 4621,
      "▁could": 4622,
      "▁gent": 4623,
      "▁heights": 4624,
      "▁enlargement": 4625,
      "▁pal": 4626,
      "▁over": 4627,
      "▁piano": 4628,
      "##de": 4629,
      "▁neighboring": 4630,
      "▁re": 4631,
      "▁bull": 4632,
      "▁lies": 4633,
      "▁voy": 4634,
      "##eny": 4635,
      "##nish": 4636,
      "▁prod": 4637,
      "▁prepay": 4638,
      "##ouch": 4639,
      "▁exposed": 4640,
      "##ose": 4641,
      "▁grandpa": 4642,
      "▁cliff": 4643,
      "##id": 4644,
      "▁nut": 4645,
      "##mates": 4646,
      "▁experimenting": 4647,
      "▁official": 4648,
      "▁tattoo": 4649,
      "▁beware": 4650,
      "▁cat-fl": 4651,
      "▁shippers": 4652,
      "▁loss": 4653,
      "▁intended": 4654,
      "▁guessed": 4655,
      "▁storage": 4656,
      "▁departing": 4657,
      "▁length": 4658,
      "▁intermed": 4659,
      "##alities": 4660,
      "▁paddistocks": 4661,
      "▁swept": 4662,
      "▁designated": 4663,
      "▁coord": 4664,
      "▁mentioned": 4665,
      "▁pastor": 4666,
      "▁least": 4667,
      "▁achieve": 4668,
      "##ner": 4669,
      "▁shatter": 4670,
      "##eration": 4671,
      "▁chasing": 4672,
      "▁await": 4673,
      "▁message": 4674,
      "▁glim": 4675,
      "▁cyc": 4676,
      "▁actor": 4677,
      "##onomy": 4678,
      "▁ρ": 4679,
      "▁recieved": 4680,
      "▁hamas": 4681,
      "▁condem": 4682,
      "▁hitting": 4683,
      "##-mem": 4684,
      "▁cray": 4685,
      "##une": 4686,
      "##innia": 4687,
      "▁themes": 4688,
      "##apse": 4689,
      "▁cent": 4690,
      "▁vacuum": 4691,
      "▁outcomes": 4692,
      "##pots": 4693,
      "▁transformation": 4694,
      "▁tumor": 4695,
      "▁pioneer": 4696,
      "##ulturation": 4697,
      "▁hym": 4698,
      "▁mater": 4699,
      "▁securities": 4700,
      "▁influences": 4701,
      "▁vot": 4702,
      "▁creatures": 4703,
      "##ticism": 4704,
      "▁squir": 4705,
      "▁shame": 4706,
      "▁foot": 4707,
      "▁dslr": 4708,
      "▁neologism": 4709,
      "▁sitting": 4710,
      "▁arrow": 4711,
      "▁knights": 4712,
      "##piece": 4713,
      "##ocrats": 4714,
      "▁embr": 4715,
      "▁grumbles": 4716,
      "▁popular": 4717,
      "▁pray": 4718,
      "##enron": 4719,
      "##aven": 4720,
      "▁depar": 4721,
      "▁email": 4722,
      "##ut": 4723,
      "▁function": 4724,
      "▁black": 4725,
      "▁ferry": 4726,
      "▁frightened": 4727,
      "##tion": 4728,
      "▁rapporte": 4729,
      "##hen": 4730,
      "##uncture": 4731,
      "▁represents": 4732,
      "▁spr": 4733,
      "##hip": 4734,
      "▁helicopters": 4735,
      "##pted": 4736,
      "▁adaptation": 4737,
      "▁mant": 4738,
      "##ginally": 4739,
      "▁expel": 4740,
      "▁alleged": 4741,
      "▁ill": 4742,
      "▁anthrax": 4743,
      "▁purpos": 4744,
      "▁crust": 4745,
      "##mally": 4746,
      "▁band": 4747,
      "▁balances": 4748,
      "▁canvas": 4749,
      "##ketch": 4750,
      "▁whales": 4751,
      "##ized": 4752,
      "##achers": 4753,
      "▁co": 4754,
      "##eign": 4755,
      "##fa": 4756,
      "▁yelling": 4757,
      "▁grim": 4758,
      "##issors": 4759,
      "▁charl": 4760,
      "##ialize": 4761,
      "##enas": 4762,
      "##ron": 4763,
      "▁dates": 4764,
      "▁prolon": 4765,
      "▁starve": 4766,
      "▁locations": 4767,
      "▁deli": 4768,
      "▁fixing": 4769,
      "##enings": 4770,
      "##ender": 4771,
      "▁taxpayers": 4772,
      "▁pang": 4773,
      "▁\"": 4774,
      "##ortion": 4775,
      "▁refriger": 4776,
      "▁heated": 4777,
      "▁record": 4778,
      "▁yea": 4779,
      "▁manage": 4780,
      "##ilosoph": 4781,
      "▁schema": 4782,
      "▁former": 4783,
      "▁migrants": 4784,
      "##ilter": 4785,
      "##iam": 4786,
      "▁contrary": 4787,
      "##vard": 4788,
      "▁pouring": 4789,
      "▁ti": 4790,
      "▁vom": 4791,
      "▁envoy": 4792,
      "▁bat": 4793,
      "▁patents": 4794,
      "▁vegas": 4795,
      "##tices": 4796,
      "##rovers": 4797,
      "▁circumstances": 4798,
      "##enting": 4799,
      "▁spanning": 4800,
      "##ogel": 4801,
      "▁enjoyment": 4802,
      "▁males": 4803,
      "##irst": 4804,
      "▁percentile": 4805,
      "##eem": 4806,
      "▁ruler": 4807,
      "▁enhance": 4808,
      "▁knife": 4809,
      "▁display": 4810,
      "▁target": 4811,
      "▁problem": 4812,
      "▁lea": 4813,
      "▁joking": 4814,
      "▁luxury": 4815,
      "▁und": 4816,
      "▁whose": 4817,
      "▁organization": 4818,
      "##rands": 4819,
      "▁star": 4820,
      "▁glimpse": 4821,
      "▁movies": 4822,
      "▁trash": 4823,
      "▁chame": 4824,
      "▁chocolates": 4825,
      "▁condemned": 4826,
      "▁savages": 4827,
      "▁traveling": 4828,
      "▁chart": 4829,
      "▁girls": 4830,
      "▁policies": 4831,
      "▁flow": 4832,
      "▁founder": 4833,
      "▁characterized": 4834,
      "▁deeply": 4835,
      "▁survive": 4836,
      "▁trusted": 4837,
      "▁physic": 4838,
      "▁pizzas": 4839,
      "▁semi": 4840,
      "▁relig": 4841,
      "▁fruit": 4842,
      "▁evolution": 4843,
      "##ified": 4844,
      "▁kill": 4845,
      "▁proceed": 4846,
      "▁specialization": 4847,
      "▁hairdresser": 4848,
      "##ka": 4849,
      "▁certi": 4850,
      "▁goo": 4851,
      "▁flirt": 4852,
      "▁broken": 4853,
      "▁liqu": 4854,
      "▁chair": 4855,
      "▁ret": 4856,
      "▁pseud": 4857,
      "##tive": 4858,
      "▁etc.": 4859,
      "▁fork": 4860,
      "▁adh": 4861,
      "##saw": 4862,
      "##bees": 4863,
      "▁tatt": 4864,
      "▁patterns": 4865,
      "▁years": 4866,
      "▁d700": 4867,
      "▁dried": 4868,
      "▁freedom": 4869,
      "##keys": 4870,
      "▁genius": 4871,
      "▁ba": 4872,
      "##orld": 4873,
      "▁dodge": 4874,
      "▁mushrooms": 4875,
      "▁twenty": 4876,
      "▁manag": 4877,
      "▁stadium": 4878,
      "▁v": 4879,
      "▁woods": 4880,
      "▁starred": 4881,
      "▁horrors": 4882,
      "▁posts": 4883,
      "##ovate": 4884,
      "▁tear": 4885,
      "▁disclaimer": 4886,
      "▁moreover": 4887,
      "▁mechanic": 4888,
      "▁mashing": 4889,
      "▁ii": 4890,
      "▁post": 4891,
      "▁swe": 4892,
      "▁dance": 4893,
      "▁bio": 4894,
      "##enny": 4895,
      "▁nibb": 4896,
      "▁posting": 4897,
      "▁especially": 4898,
      "##cing": 4899,
      "▁>": 4900,
      "▁bouts": 4901,
      "##orkers": 4902,
      "▁s/he": 4903,
      "▁japanese": 4904,
      "▁greet": 4905,
      "▁specialist": 4906,
      "▁eats": 4907,
      "▁expenses": 4908,
      "▁germs": 4909,
      "▁supporter": 4910,
      "##uates": 4911,
      "##comm": 4912,
      "##ave": 4913,
      "▁gold": 4914,
      "▁continuation": 4915,
      "▁screamed": 4916,
      "▁novella": 4917,
      "▁limous": 4918,
      "▁reluct": 4919,
      "##aser": 4920,
      "▁evaluate": 4921,
      "▁gifts": 4922,
      "▁birthdays": 4923,
      "▁thumbs": 4924,
      "▁ult": 4925,
      "▁childhood": 4926,
      "##apes": 4927,
      "▁sill": 4928,
      "▁attacks": 4929,
      "▁involves": 4930,
      "▁destin": 4931,
      "##ator": 4932,
      "##ulation": 4933,
      "▁acquisition": 4934,
      "▁crooks": 4935,
      "▁forcing": 4936,
      "▁straight": 4937,
      "▁contribution": 4938,
      "▁policymakers": 4939,
      "▁grinning": 4940,
      "##ering": 4941,
      "▁capabilities": 4942,
      "▁probe": 4943,
      "##rops": 4944,
      "▁industry": 4945,
      "##tilation": 4946,
      "▁bi": 4947,
      "▁strawberry": 4948,
      "▁buzz": 4949,
      "▁borders": 4950,
      "##ray": 4951,
      "▁prosec": 4952,
      "▁offer": 4953,
      "##ultural": 4954,
      "##cott": 4955,
      "##mber": 4956,
      "▁commod": 4957,
      "▁di": 4958,
      "▁pup": 4959,
      "▁portrait": 4960,
      "##tions": 4961,
      "▁button": 4962,
      "▁uncovered": 4963,
      "▁drums": 4964,
      "▁inspector": 4965,
      "▁say": 4966,
      "▁squirter": 4967,
      "▁possible": 4968,
      "##ligh": 4969,
      "▁staff": 4970,
      "▁aband": 4971,
      "##letter": 4972,
      "##in": 4973,
      "##ourage": 4974,
      "##**": 4975,
      "▁rise": 4976,
      "▁poodle": 4977,
      "##hu": 4978,
      "▁bron": 4979,
      "▁congregation": 4980,
      "▁greeted": 4981,
      "▁24": 4982,
      "▁squashed": 4983,
      "▁supplies": 4984,
      "▁measured": 4985,
      "▁sender": 4986,
      "▁cherries": 4987,
      "▁attached": 4988,
      "▁disli": 4989,
      "▁authorization": 4990,
      "▁mos": 4991,
      "▁smoked": 4992,
      "▁cosplay": 4993,
      "▁ignorance": 4994,
      "▁congr": 4995,
      "▁lu": 4996,
      "▁down": 4997,
      "▁inflation": 4998,
      "▁controls": 4999,
      "##erb": 5000,
      "▁perfec": 5001,
      "▁heav": 5002,
      "▁announcement": 5003,
      "▁policing": 5004,
      "▁truly": 5005,
      "##less": 5006,
      "▁recurring": 5007,
      "▁vast": 5008,
      "▁kay": 5009,
      "##amel": 5010,
      "##inoc": 5011,
      "▁patrons": 5012,
      "##uh": 5013,
      "▁assass": 5014,
      "▁banan": 5015,
      "▁intelligence": 5016,
      "▁lions": 5017,
      "▁wear": 5018,
      "▁egyptian": 5019,
      "##lessness": 5020,
      "▁treatise": 5021,
      "▁expand": 5022,
      "k": 5023,
      "▁aesthetics": 5024,
      "▁host": 5025,
      "##erred": 5026,
      "▁optim": 5027,
      "▁software": 5028,
      "▁hamster": 5029,
      "▁trucks": 5030,
      "##ooding": 5031,
      "▁purchases": 5032,
      "##ric": 5033,
      "▁enthus": 5034,
      "▁beauty": 5035,
      "▁custom": 5036,
      "##ogging": 5037,
      "##obyl": 5038,
      "▁utility": 5039,
      "▁surrender": 5040,
      "▁islamic": 5041,
      "▁rov": 5042,
      "##enuity": 5043,
      "▁infant": 5044,
      "▁lipsticks": 5045,
      "▁thought": 5046,
      "▁darkness": 5047,
      "##arture": 5048,
      "##tes": 5049,
      "▁smoking": 5050,
      "▁associate": 5051,
      "▁gambling": 5052,
      "▁municipality": 5053,
      "##udge": 5054,
      "##mor": 5055,
      "▁preached": 5056,
      "##onav": 5057,
      "▁mineral": 5058,
      "▁dinos": 5059,
      "▁si": 5060,
      "##backs": 5061,
      "▁thomas": 5062,
      "▁overwhel": 5063,
      "▁conservatives": 5064,
      "▁meet": 5065,
      "▁abs": 5066,
      "▁characteris": 5067,
      "▁supersed": 5068,
      "##dit": 5069,
      "##ateg": 5070,
      "▁renew": 5071,
      "▁destro": 5072,
      "▁domains": 5073,
      "▁opener": 5074,
      "▁pact": 5075,
      "▁plur": 5076,
      "▁oakland": 5077,
      "▁coc": 5078,
      "##eaker": 5079,
      "##phone": 5080,
      "##atme": 5081,
      "▁!!!?": 5082,
      "▁elected": 5083,
      "▁ol": 5084,
      "▁pushed": 5085,
      "▁handled": 5086,
      "▁prints": 5087,
      "▁bad": 5088,
      "##!!!": 5089,
      "▁hood": 5090,
      "##awed": 5091,
      "##ocking": 5092,
      "▁tracked": 5093,
      "▁behavior": 5094,
      "▁bedrooms": 5095,
      "▁em": 5096,
      "▁transp": 5097,
      "▁questionnaires": 5098,
      "▁injection": 5099,
      "▁gratitude": 5100,
      "▁blinking": 5101,
      "##m": 5102,
      "▁cake": 5103,
      "##hension": 5104,
      "▁thx": 5105,
      "▁willingness": 5106,
      "▁recordings": 5107,
      "##arr": 5108,
      "▁topic": 5109,
      "▁charco": 5110,
      "▁wizards": 5111,
      "▁ranger": 5112,
      "▁couple": 5113,
      "##wi": 5114,
      "▁blanket": 5115,
      "▁writings": 5116,
      "▁dang": 5117,
      "##,000": 5118,
      "##ment": 5119,
      "##-th": 5120,
      "▁cookie": 5121,
      "▁sovereignty": 5122,
      "##ently": 5123,
      "▁revised": 5124,
      "##pend": 5125,
      "u": 5126,
      "▁assisted": 5127,
      "##irts": 5128,
      "##--------------------------------": 5129,
      "▁constitute": 5130,
      "▁gee": 5131,
      "▁launched": 5132,
      "▁yeah": 5133,
      "h": 5134,
      "▁sonnets": 5135,
      "▁against": 5136,
      "▁vari": 5137,
      "▁technician": 5138,
      "▁tush": 5139,
      "▁players": 5140,
      "##tiality": 5141,
      "##oyment": 5142,
      "▁onions": 5143,
      "##tally": 5144,
      "##of": 5145,
      "▁certainty": 5146,
      "▁correction": 5147,
      "▁occupies": 5148,
      "▁bef": 5149,
      "▁engaging": 5150,
      "##igate": 5151,
      "##ything": 5152,
      "▁spaced": 5153,
      "▁trag": 5154,
      "▁gulf": 5155,
      "▁omission": 5156,
      "▁avoided": 5157,
      "##lear": 5158,
      "##assad": 5159,
      "##ucker": 5160,
      "##iling": 5161,
      "▁dishwasher": 5162,
      "##unct": 5163,
      "▁intend": 5164,
      "▁sow": 5165,
      "##usting": 5166,
      "▁leather": 5167,
      "▁vehicle": 5168,
      "##ertainly": 5169,
      "▁purchasing": 5170,
      "▁mutants": 5171,
      "▁invited": 5172,
      "▁bible": 5173,
      "▁fig": 5174,
      "▁course": 5175,
      "##ager": 5176,
      "▁shrimp": 5177,
      "▁mechanism": 5178,
      "##ously": 5179,
      "▁ringlets": 5180,
      "▁or": 5181,
      "▁elephants": 5182,
      "▁forum": 5183,
      "▁sunburn": 5184,
      "##organ": 5185,
      "▁inside": 5186,
      "##y": 5187,
      "▁close": 5188,
      "▁homeopathy": 5189,
      "##jections": 5190,
      "▁exercised": 5191,
      "##ford": 5192,
      "▁rotating": 5193,
      "▁plain": 5194,
      "▁x": 5195,
      "▁—": 5196,
      "▁reit": 5197,
      "##lav": 5198,
      "▁pitches": 5199,
      "▁garbage": 5200,
      "▁essentially": 5201,
      "▁rem": 5202,
      "##oc": 5203,
      "▁intake": 5204,
      "▁pose": 5205,
      "▁tapering": 5206,
      "▁jum": 5207,
      "##ukee": 5208,
      "▁resisted": 5209,
      "▁h": 5210,
      "▁independence": 5211,
      "▁sweats": 5212,
      "▁dressed": 5213,
      "▁w/": 5214,
      "▁lobster": 5215,
      "▁investing": 5216,
      "▁report": 5217,
      "▁programmes": 5218,
      "▁shop": 5219,
      "▁devices": 5220,
      "▁fas": 5221,
      "▁scienti": 5222,
      "▁sculptures": 5223,
      "##bbed": 5224,
      "▁achie": 5225,
      "▁procedures": 5226,
      "▁make": 5227,
      "##stream": 5228,
      "##roll": 5229,
      "▁tonight": 5230,
      "▁utterance": 5231,
      "##.htm": 5232,
      "▁solem": 5233,
      "▁differential": 5234,
      "▁trading": 5235,
      "▁compar": 5236,
      "▁bedding": 5237,
      "▁ld2d-#6939": 5238,
      "##tted": 5239,
      "▁poc": 5240,
      "▁earthquake": 5241,
      "▁debts": 5242,
      "##her": 5243,
      "▁gis": 5244,
      "##eur": 5245,
      "▁prayer": 5246,
      "▁marketing": 5247,
      "▁hug": 5248,
      "##chair": 5249,
      "▁dough": 5250,
      "##'re": 5251,
      "▁fug": 5252,
      "##orth": 5253,
      "▁climate": 5254,
      "▁collecting": 5255,
      "▁create": 5256,
      "▁palate": 5257,
      "##immer": 5258,
      "▁controlling": 5259,
      "##berries": 5260,
      "##ag": 5261,
      "▁built": 5262,
      "<": 5263,
      "▁bureaucracy": 5264,
      "▁pouch": 5265,
      "▁works": 5266,
      "▁founders": 5267,
      "##uality": 5268,
      "##ifications": 5269,
      "▁paired": 5270,
      "▁heads": 5271,
      "▁silver": 5272,
      "▁attorneys": 5273,
      "##epad": 5274,
      "##mp": 5275,
      "▁officer": 5276,
      "▁comes": 5277,
      "##_": 5278,
      "▁gest": 5279,
      "▁ignored": 5280,
      "##bq": 5281,
      "▁bush": 5282,
      "▁contact": 5283,
      "▁knowing": 5284,
      "##lers": 5285,
      "▁pretended": 5286,
      "##uts": 5287,
      "▁frequent": 5288,
      "▁sticks": 5289,
      "##ticks": 5290,
      "##7h": 5291,
      "▁ps": 5292,
      "▁crisis": 5293,
      "▁ev": 5294,
      "▁renovation": 5295,
      "▁playroom": 5296,
      "▁may": 5297,
      "▁pump": 5298,
      "▁approach": 5299,
      "##ocks.pdf": 5300,
      "▁dying": 5301,
      "▁discoveries": 5302,
      "##escend": 5303,
      "▁toilet": 5304,
      "▁treaty": 5305,
      "▁gels": 5306,
      "▁buildings": 5307,
      "▁relationship": 5308,
      "▁fights": 5309,
      "▁licenses": 5310,
      "##ing": 5311,
      "▁strikes": 5312,
      "▁reversal": 5313,
      "##elines": 5314,
      "▁stood": 5315,
      "▁numbness": 5316,
      "▁spos": 5317,
      "▁exclu": 5318,
      "▁items": 5319,
      "▁(": 5320,
      "▁spiders": 5321,
      "▁balt": 5322,
      "▁implementing": 5323,
      "##cean": 5324,
      "▁1": 5325,
      "▁yo": 5326,
      "##po": 5327,
      "▁typ": 5328,
      "▁execute": 5329,
      "▁deal": 5330,
      "▁hoping": 5331,
      "##orman": 5332,
      "##fess": 5333,
      "▁scarf": 5334,
      "##uk": 5335,
      "▁abandon": 5336,
      "▁prevent": 5337,
      "▁declar": 5338,
      "▁saying": 5339,
      "▁capture": 5340,
      "▁shad": 5341,
      "▁facebook": 5342,
      "▁engineering": 5343,
      "▁stopped": 5344,
      "▁collapsed": 5345,
      "▁delivering": 5346,
      "▁dictate": 5347,
      "▁combat": 5348,
      "▁compos": 5349,
      "▁crush": 5350,
      "##veyed": 5351,
      "▁bunch": 5352,
      "##itement": 5353,
      "▁israeli": 5354,
      "##goti": 5355,
      "▁thumb": 5356,
      "##ades": 5357,
      "▁restriction": 5358,
      "▁exa": 5359,
      "▁ignor": 5360,
      "▁smile": 5361,
      "##faction": 5362,
      "##uter": 5363,
      "▁day": 5364,
      "▁small": 5365,
      "▁altitude": 5366,
      "##gatory": 5367,
      "f": 5368,
      "▁tourists": 5369,
      "▁enem": 5370,
      "▁cohesion": 5371,
      "▁bombing": 5372,
      "▁train": 5373,
      "▁syria": 5374,
      "▁balance": 5375,
      "▁planting": 5376,
      "▁throat": 5377,
      "▁waiting": 5378,
      "▁vine": 5379,
      "▁pennies": 5380,
      "##ener": 5381,
      "▁proceeds": 5382,
      "▁pall": 5383,
      "▁voting": 5384,
      "▁gripped": 5385,
      "▁cleanup": 5386,
      "▁grabbed": 5387,
      "▁immigration": 5388,
      "##drops": 5389,
      "▁reviewed": 5390,
      "▁wire": 5391,
      "##eti": 5392,
      "▁beach": 5393,
      "▁checks": 5394,
      "▁apart": 5395,
      "▁sho": 5396,
      "▁rob": 5397,
      "##bur": 5398,
      "▁adapt": 5399,
      "##atibility": 5400,
      "▁zinc": 5401,
      "▁hotdog": 5402,
      "▁facilities": 5403,
      "▁moor": 5404,
      "▁william": 5405,
      "▁latest": 5406,
      "▁hockey": 5407,
      "##sing": 5408,
      "▁gloom": 5409,
      "▁results": 5410,
      "▁pros": 5411,
      "▁agents": 5412,
      "##fic": 5413,
      "▁everybody": 5414,
      "▁od": 5415,
      "▁octop": 5416,
      "▁tasting": 5417,
      "▁tor": 5418,
      "▁baggage": 5419,
      "▁isda": 5420,
      "##rils": 5421,
      "▁harmonised": 5422,
      "▁monks": 5423,
      "▁reck": 5424,
      "▁squ": 5425,
      "▁quartiles": 5426,
      "▁hurts": 5427,
      "▁counterfe": 5428,
      "▁nickel": 5429,
      "▁inv": 5430,
      "▁sunk": 5431,
      "▁tugged": 5432,
      "##nis": 5433,
      "▁facet": 5434,
      "▁stimuli": 5435,
      "▁rides": 5436,
      "▁..": 5437,
      "▁refusing": 5438,
      "▁speck": 5439,
      "##scope": 5440,
      "▁ranked": 5441,
      "▁determ": 5442,
      "##aments": 5443,
      "▁interested": 5444,
      "##-of-": 5445,
      "##=": 5446,
      "▁arabs": 5447,
      "▁nana": 5448,
      "##ysical": 5449,
      "▁fuel": 5450,
      "▁acqu": 5451,
      "##ounts": 5452,
      "##4": 5453,
      "##oli": 5454,
      "▁wor": 5455,
      "▁tupper": 5456,
      "▁oatmeal": 5457,
      "▁founding": 5458,
      "▁birthday": 5459,
      "##elly": 5460,
      "▁indi": 5461,
      "##tp": 5462,
      "##affles": 5463,
      "▁sunshine": 5464,
      "##ottable": 5465,
      "▁env": 5466,
      "▁sculp": 5467,
      "▁broccoli": 5468,
      "##ecution": 5469,
      "▁wid": 5470,
      "▁direc": 5471,
      "▁dischar": 5472,
      "▁discont": 5473,
      "▁passes": 5474,
      "▁bottom": 5475,
      "▁experiments": 5476,
      "##xic": 5477,
      "▁alongside": 5478,
      "▁trustee": 5479,
      "##ando": 5480,
      "▁thr": 5481,
      "▁speech": 5482,
      "▁portion": 5483,
      "▁ste": 5484,
      "▁repe": 5485,
      "▁cros": 5486,
      "##ertain": 5487,
      "▁broom": 5488,
      "▁chr": 5489,
      "▁pattern": 5490,
      "##aed": 5491,
      "##://": 5492,
      "▁joining": 5493,
      "▁jurisd": 5494,
      "▁reapp": 5495,
      "▁restricted": 5496,
      "▁dais": 5497,
      "▁denom": 5498,
      "▁dreamed": 5499,
      "▁fits": 5500,
      "▁shoo": 5501,
      "##itical": 5502,
      "▁indulged": 5503,
      "▁ld2d-#693": 5504,
      "▁monday": 5505,
      "▁buses": 5506,
      "##onize": 5507,
      "##storm": 5508,
      "##alation": 5509,
      "▁findings": 5510,
      "##inched": 5511,
      "##icals": 5512,
      "▁needs": 5513,
      "▁proclaimed": 5514,
      "▁smooth": 5515,
      "▁8": 5516,
      "##unte": 5517,
      "▁dare": 5518,
      "▁yourself": 5519,
      "##iri": 5520,
      "▁diet": 5521,
      "##70's": 5522,
      "▁pooping": 5523,
      "▁key": 5524,
      "▁song": 5525,
      "▁radio": 5526,
      "▁mir": 5527,
      "▁provin": 5528,
      "▁defended": 5529,
      "▁produces": 5530,
      "▁format": 5531,
      "▁chef": 5532,
      "▁clip": 5533,
      "▁scrub": 5534,
      "▁suit": 5535,
      "▁waterways": 5536,
      "▁lifted": 5537,
      "##++++": 5538,
      "▁gri": 5539,
      "##log": 5540,
      "▁lect": 5541,
      "▁fend": 5542,
      "##dles": 5543,
      "▁attacking": 5544,
      "##tures": 5545,
      "▁protested": 5546,
      "▁illness": 5547,
      "▁highly": 5548,
      "▁yar": 5549,
      "##eled": 5550,
      "▁suppl": 5551,
      "▁cancel": 5552,
      "##--": 5553,
      "▁pests": 5554,
      "▁sides": 5555,
      "▁similar": 5556,
      "▁carrots": 5557,
      "▁saving": 5558,
      "▁beans": 5559,
      "▁agent": 5560,
      "##tery": 5561,
      "▁spots": 5562,
      "▁so": 5563,
      "▁exploitation": 5564,
      "▁drawer": 5565,
      "▁audiences": 5566,
      "##ghting": 5567,
      "▁separated": 5568,
      "▁recently": 5569,
      "▁sub": 5570,
      "▁1970s": 5571,
      "##mly": 5572,
      "▁encoun": 5573,
      "▁mentality": 5574,
      "▁agreements": 5575,
      "▁long": 5576,
      "##anes": 5577,
      "▁will": 5578,
      "▁maps": 5579,
      "▁interpre": 5580,
      "▁coff": 5581,
      "▁chinese": 5582,
      "▁play+": 5583,
      "##mic": 5584,
      "▁persists": 5585,
      "▁holding": 5586,
      "▁magazine": 5587,
      "▁lids": 5588,
      "▁scott": 5589,
      "▁skills": 5590,
      "##uating": 5591,
      "▁popped": 5592,
      "▁targeting": 5593,
      "▁outwe": 5594,
      "##ret": 5595,
      "▁hosp": 5596,
      "▁organizing": 5597,
      "▁yield": 5598,
      "##50": 5599,
      "▁strol": 5600,
      "##itives": 5601,
      "▁mates": 5602,
      "▁shipping": 5603,
      "▁slid": 5604,
      "##ami": 5605,
      "▁paintings": 5606,
      "▁outl": 5607,
      "▁sme": 5608,
      "▁customs": 5609,
      "▁marking": 5610,
      "▁rap": 5611,
      "▁blueberry": 5612,
      "##aks": 5613,
      "▁prere": 5614,
      "##ley": 5615,
      "▁ecli": 5616,
      "##pletely": 5617,
      "▁rhinoc": 5618,
      "▁powers": 5619,
      "▁crawling": 5620,
      "▁quickly": 5621,
      "##rax": 5622,
      "##ainted": 5623,
      "▁already": 5624,
      "▁beyon": 5625,
      "▁mov": 5626,
      "▁creative": 5627,
      "▁cheek": 5628,
      "▁handles": 5629,
      "▁conjunction": 5630,
      "▁introduc": 5631,
      "▁accum": 5632,
      "##issions": 5633,
      "▁guacamole": 5634,
      "▁judged": 5635,
      "▁baba": 5636,
      "##ham": 5637,
      "▁musharraf": 5638,
      "▁afflic": 5639,
      "▁deserves": 5640,
      "▁rel": 5641,
      "▁offspring": 5642,
      "▁preven": 5643,
      "▁bought": 5644,
      "##bons": 5645,
      "▁setoff": 5646,
      "▁asc": 5647,
      "▁attendance": 5648,
      "▁slavery": 5649,
      "##tag": 5650,
      "▁rag": 5651,
      "▁lean": 5652,
      "▁spilling": 5653,
      "▁muffs": 5654,
      "##row": 5655,
      "▁opponents": 5656,
      "##acity": 5657,
      "▁carrot": 5658,
      "▁tiss": 5659,
      "▁discouraged": 5660,
      "▁safety": 5661,
      "##oundings": 5662,
      "▁vaccine": 5663,
      "▁transmitted": 5664,
      "▁de": 5665,
      "##ru": 5666,
      "▁bottoms": 5667,
      "▁enforcement": 5668,
      "▁managing": 5669,
      "▁geof": 5670,
      "##ault": 5671,
      "▁dess": 5672,
      "##advant": 5673,
      "▁meg": 5674,
      "▁times": 5675,
      "▁collections": 5676,
      "▁shut": 5677,
      "▁known": 5678,
      "##herence": 5679,
      "##emark": 5680,
      "▁bar": 5681,
      "▁bust": 5682,
      "▁transport": 5683,
      "▁emerged": 5684,
      "▁print": 5685,
      "▁rebuild": 5686,
      "▁lord": 5687,
      "▁internship": 5688,
      "▁waitresses": 5689,
      "▁enclosed": 5690,
      "▁switch": 5691,
      "▁lawyers": 5692,
      "##angle": 5693,
      "##/2": 5694,
      "▁flood": 5695,
      "▁bind": 5696,
      "##gence": 5697,
      "▁bos": 5698,
      "▁awa": 5699,
      "▁phenomena": 5700,
      "##www": 5701,
      "▁dolls": 5702,
      "▁coop": 5703,
      "##ove": 5704,
      "##ω": 5705,
      "▁brown": 5706,
      "▁aud": 5707,
      "▁patient": 5708,
      "▁p.s": 5709,
      "▁redeem": 5710,
      "##vest": 5711,
      "##owering": 5712,
      "▁cors": 5713,
      "##lites": 5714,
      "▁strengthen": 5715,
      "▁charging": 5716,
      "▁belie": 5717,
      "▁-": 5718,
      "▁independ": 5719,
      "ι": 5720,
      "▁restaur": 5721,
      "▁confidence": 5722,
      "z": 5723,
      "▁flakes": 5724,
      "▁implies": 5725,
      "▁stret": 5726,
      "##pl": 5727,
      "▁trot": 5728,
      "▁valu": 5729,
      "▁teaches": 5730,
      "▁implementation": 5731,
      "▁30th": 5732,
      "▁union": 5733,
      "▁inequality": 5734,
      "##fts": 5735,
      "▁traders": 5736,
      "▁revenues": 5737,
      "▁yet": 5738,
      "▁altern": 5739,
      "▁farce": 5740,
      "▁sout": 5741,
      "▁stolen": 5742,
      "▁fy0": 5743,
      "▁kick": 5744,
      "▁mr": 5745,
      "▁rewards": 5746,
      "▁describing": 5747,
      "▁another": 5748,
      "▁rats": 5749,
      "▁witn": 5750,
      "##-sh": 5751,
      "##ush": 5752,
      "▁washington": 5753,
      "▁pains": 5754,
      "▁allowed": 5755,
      "▁rumbling": 5756,
      "▁vs.": 5757,
      "▁catalog": 5758,
      "▁rout": 5759,
      "▁sings": 5760,
      "▁sci": 5761,
      "##w": 5762,
      "##ri": 5763,
      "▁waived": 5764,
      "##gin": 5765,
      "▁figured": 5766,
      "▁obe": 5767,
      "##ortant": 5768,
      "▁rev": 5769,
      "▁responses": 5770,
      "▁interrupted": 5771,
      "▁wan": 5772,
      "▁numerous": 5773,
      "##artment": 5774,
      "##real": 5775,
      "▁buy": 5776,
      "▁mel": 5777,
      "▁instinct": 5778,
      "▁became": 5779,
      "▁superseding": 5780,
      "##inkle": 5781,
      "▁nutri": 5782,
      "▁vintage": 5783,
      "##rus": 5784,
      "▁locals": 5785,
      "▁thro": 5786,
      "▁wilderness": 5787,
      "▁beeper": 5788,
      "▁guarant": 5789,
      "▁handle": 5790,
      "▁pollution": 5791,
      "▁delay": 5792,
      "##ption": 5793,
      "▁northeast": 5794,
      "▁reason": 5795,
      "##iries": 5796,
      "▁anthropologist": 5797,
      "▁extremists": 5798,
      "▁favoured": 5799,
      "▁grandma": 5800,
      "▁patter": 5801,
      "▁him": 5802,
      "▁alert": 5803,
      "▁profits": 5804,
      "▁vulnerability": 5805,
      "▁celebration": 5806,
      "▁generations": 5807,
      "##itz": 5808,
      "▁colonization": 5809,
      "▁found": 5810,
      "▁give": 5811,
      "▁rotation": 5812,
      "▁missed": 5813,
      "##oil": 5814,
      "▁link": 5815,
      "▁ut": 5816,
      "▁lasted": 5817,
      "##asing": 5818,
      "▁bus": 5819,
      "▁targ": 5820,
      "##cepted": 5821,
      "▁sweep": 5822,
      "▁.": 5823,
      "▁catast": 5824,
      "▁sample": 5825,
      "##tains": 5826,
      "##izing": 5827,
      "▁citations": 5828,
      "▁eggs": 5829,
      "▁flaw": 5830,
      "▁battling": 5831,
      "▁ori": 5832,
      "▁collaborate": 5833,
      "##atees": 5834,
      "##sive": 5835,
      "▁bananas": 5836,
      "▁parking": 5837,
      "▁nervous": 5838,
      "##eria": 5839,
      "▁passage": 5840,
      "##kles": 5841,
      "▁qa": 5842,
      "##inental": 5843,
      "▁lion": 5844,
      "##sel": 5845,
      "▁happened": 5846,
      "##ication": 5847,
      "▁weakness": 5848,
      "▁targets": 5849,
      "##oma": 5850,
      "▁died": 5851,
      "##den": 5852,
      "▁taste": 5853,
      "▁restruc": 5854,
      "▁sculpture": 5855,
      "##.": 5856,
      "▁anyth": 5857,
      "##etti": 5858,
      "▁solicit": 5859,
      "##ril": 5860,
      "▁surprises": 5861,
      "##urally": 5862,
      "##aint": 5863,
      "▁ethics": 5864,
      "▁indicate": 5865,
      "▁sup": 5866,
      "▁waffle": 5867,
      "▁wad": 5868,
      "▁simply": 5869,
      "▁cotton": 5870,
      "##dress": 5871,
      "▁coincides": 5872,
      "▁duty": 5873,
      "▁newsgroup": 5874,
      "▁arrayed": 5875,
      "##rect": 5876,
      "▁counted": 5877,
      "##centi": 5878,
      "▁smoothie": 5879,
      "▁campus": 5880,
      "##l.c": 5881,
      "▁tags": 5882,
      "##ception": 5883,
      "▁among": 5884,
      "▁told": 5885,
      "##oice": 5886,
      "##prints": 5887,
      "▁installing": 5888,
      "▁puss": 5889,
      "▁hints": 5890,
      "▁updated": 5891,
      "##--------": 5892,
      "▁galax": 5893,
      "▁villages": 5894,
      "▁spot": 5895,
      "##entil": 5896,
      "##wering": 5897,
      "▁painted": 5898,
      "▁active": 5899,
      "##etition": 5900,
      "##cp": 5901,
      "▁clause": 5902,
      "##biting": 5903,
      "##xce": 5904,
      "▁yelled": 5905,
      "▁timing": 5906,
      "▁afric": 5907,
      "w": 5908,
      "▁days": 5909,
      "##ozer": 5910,
      "▁workforce": 5911,
      "▁sector": 5912,
      "▁answered": 5913,
      "##.n": 5914,
      "▁nos": 5915,
      "▁prevention": 5916,
      "▁inclusion": 5917,
      "▁dan": 5918,
      "▁anyway": 5919,
      "▁whiff": 5920,
      "##legation": 5921,
      "▁stim": 5922,
      "▁parti": 5923,
      "▁feature": 5924,
      "▁squeak": 5925,
      "##angling": 5926,
      "▁feels": 5927,
      "▁gift": 5928,
      "▁dramati": 5929,
      "##fran": 5930,
      "##arians": 5931,
      "##file": 5932,
      "▁lawn": 5933,
      "▁fox": 5934,
      "##unds": 5935,
      "▁leaning": 5936,
      "▁insist": 5937,
      "▁cold": 5938,
      "▁scrap": 5939,
      "▁shakes": 5940,
      "##dge": 5941,
      "##ih": 5942,
      "▁standing": 5943,
      "▁ha": 5944,
      "▁almon": 5945,
      "▁dispute": 5946,
      "▁exiled": 5947,
      "▁tanks": 5948,
      "▁interact": 5949,
      "▁echo": 5950,
      "▁threats": 5951,
      "##łodz": 5952,
      "▁lipstick": 5953,
      "▁disadvant": 5954,
      "##ritation": 5955,
      "▁flags": 5956,
      "▁arg": 5957,
      "▁details": 5958,
      "##tied": 5959,
      "##ullness": 5960,
      "▁thwar": 5961,
      "▁karen": 5962,
      "##zz": 5963,
      "##.c": 5964,
      "▁cauldron": 5965,
      "▁commits": 5966,
      "##arly": 5967,
      "▁mad": 5968,
      "▁pse": 5969,
      "▁earli": 5970,
      "▁nuts": 5971,
      "##for": 5972,
      "▁character": 5973,
      "##:3": 5974,
      "▁stretch": 5975,
      "▁hamb": 5976,
      "▁buried": 5977,
      "▁questionnaire": 5978,
      "##arn": 5979,
      "▁713": 5980,
      "▁applic": 5981,
      "▁fill": 5982,
      "▁excl": 5983,
      "▁compete": 5984,
      "▁artill": 5985,
      "▁ed": 5986,
      "##org": 5987,
      "▁pivotchart": 5988,
      "▁harmonisation": 5989,
      "▁borne": 5990,
      "▁doctr": 5991,
      "▁fit": 5992,
      "▁pl": 5993,
      "▁aunt": 5994,
      "##raction": 5995,
      "▁rabbits": 5996,
      "##world": 5997,
      "▁need": 5998,
      "##city": 5999,
      "▁mornings": 6000,
      "##tieth": 6001,
      "##ificant": 6002,
      "##giveness": 6003,
      "▁pepper": 6004,
      "▁puffs": 6005,
      "▁embargo": 6006,
      "##gregation": 6007,
      "##uties": 6008,
      "▁propping": 6009,
      "▁mama": 6010,
      "▁epm": 6011,
      "##chief": 6012,
      "##vas": 6013,
      "▁mare": 6014,
      "##erates": 6015,
      "▁abide": 6016,
      "▁excepted": 6017,
      "▁dug": 6018,
      "▁petersburg": 6019,
      "▁compares": 6020,
      "▁bordered": 6021,
      "▁processor": 6022,
      "▁occurring": 6023,
      "##89": 6024,
      "▁numb": 6025,
      "##d": 6026,
      "▁decade": 6027,
      "##ittering": 6028,
      "▁killing": 6029,
      "##ue": 6030,
      "▁researchers": 6031,
      "▁adjusters": 6032,
      "▁alt": 6033,
      "▁research": 6034,
      "##gust": 6035,
      "▁borrowed": 6036,
      "▁tracking": 6037,
      "▁neighbor": 6038,
      "▁fu": 6039,
      "##phere": 6040,
      "▁reins": 6041,
      "▁varied": 6042,
      "▁packet": 6043,
      "##iff": 6044,
      "▁discom": 6045,
      "▁wrapped": 6046,
      "▁motto": 6047,
      "▁rabbi": 6048,
      "▁quarters": 6049,
      "▁delive": 6050,
      "##ρ": 6051,
      "▁paw": 6052,
      "▁careful": 6053,
      "▁burbank": 6054,
      "##erm": 6055,
      "▁saw": 6056,
      "▁proportion": 6057,
      "▁politician": 6058,
      "##v.": 6059,
      "##rar": 6060,
      "▁ecommerce": 6061,
      "##ety": 6062,
      "▁cance": 6063,
      "▁exerc": 6064,
      "▁dusting": 6065,
      "##50s": 6066,
      "▁foc": 6067,
      "▁overhead": 6068,
      "▁wang": 6069,
      "▁played": 6070,
      "▁panted": 6071,
      "##ritis": 6072,
      "▁accommodation": 6073,
      "▁classroom": 6074,
      "▁wizard": 6075,
      "##ocent": 6076,
      "▁browsers": 6077,
      "##’t": 6078,
      "##amed": 6079,
      "▁reaches": 6080,
      "▁rbi": 6081,
      "##ledge": 6082,
      "▁waterway": 6083,
      "▁counting": 6084,
      "▁meaning": 6085,
      "▁chute": 6086,
      "##amation": 6087,
      "▁arti": 6088,
      ".": 6089,
      "▁equal": 6090,
      "##par": 6091,
      "##ob": 6092,
      "##ople": 6093,
      "##asa": 6094,
      "▁dive": 6095,
      "▁authorities": 6096,
      "0": 6097,
      "##tops": 6098,
      "▁trous": 6099,
      "▁moral": 6100,
      "##rote": 6101,
      "▁participating": 6102,
      "▁copying": 6103,
      "▁mo": 6104,
      "##ining": 6105,
      "##&d": 6106,
      "##alties": 6107,
      "▁retraction": 6108,
      "|": 6109,
      "▁cock": 6110,
      "▁require": 6111,
      "▁jos": 6112,
      "▁rapids": 6113,
      "▁intranet": 6114,
      "##rav": 6115,
      "▁cleveland": 6116,
      "▁protege": 6117,
      "▁required": 6118,
      "##omob": 6119,
      "▁individual": 6120,
      "##iew": 6121,
      "▁plenty": 6122,
      "▁crying": 6123,
      "▁witch": 6124,
      "▁representative": 6125,
      "▁moisture": 6126,
      "▁olds": 6127,
      "▁shud": 6128,
      "▁ak47": 6129,
      "▁yes": 6130,
      "##urbs": 6131,
      "▁reporting": 6132,
      "▁rift": 6133,
      "##ributes": 6134,
      "▁vod": 6135,
      "▁snake": 6136,
      "▁squi": 6137,
      "##cep": 6138,
      "▁origin": 6139,
      "▁decree": 6140,
      "##orying": 6141,
      "##tu": 6142,
      "▁peninsula": 6143,
      "▁push": 6144,
      "▁claimed": 6145,
      "##su": 6146,
      "▁attracted": 6147,
      "##ul": 6148,
      "##tained": 6149,
      "▁beast": 6150,
      "▁---=": 6151,
      "▁sab": 6152,
      "▁tragicomed": 6153,
      "▁immunity": 6154,
      "##igated": 6155,
      "l": 6156,
      "▁theater": 6157,
      "▁implications": 6158,
      "▁mix": 6159,
      "▁afgh": 6160,
      "▁across": 6161,
      "▁bes": 6162,
      "▁good": 6163,
      "▁longer": 6164,
      "▁bre": 6165,
      "▁charged": 6166,
      "▁tum": 6167,
      "▁phot": 6168,
      "▁revenue": 6169,
      "▁chief": 6170,
      "▁crayon": 6171,
      "▁storing": 6172,
      "▁stirrup": 6173,
      "▁ankles": 6174,
      "▁oak": 6175,
      "▁yogurt": 6176,
      "##ocracy": 6177,
      "▁enabling": 6178,
      "▁rules": 6179,
      "▁greatness": 6180,
      "▁process": 6181,
      "▁slides": 6182,
      "▁gir": 6183,
      "▁numbers": 6184,
      "▁hand": 6185,
      "▁alig": 6186,
      "##ament": 6187,
      "##cery": 6188,
      "▁interf": 6189,
      "##atch": 6190,
      "▁conspiracy": 6191,
      "▁tab": 6192,
      "▁delta": 6193,
      "▁cottage": 6194,
      "##driver": 6195,
      "##iginal": 6196,
      "▁sal": 6197,
      "▁campaigns": 6198,
      "▁stan": 6199,
      "▁suff": 6200,
      "▁gradu": 6201,
      "▁reminded": 6202,
      "##ah": 6203,
      "▁tobacco": 6204,
      "▁sie": 6205,
      "▁impro": 6206,
      "▁debr": 6207,
      "▁lbs": 6208,
      "▁network": 6209,
      "▁discovered": 6210,
      "▁accordance": 6211,
      "▁1st": 6212,
      "▁stockings": 6213,
      "▁drawers": 6214,
      "‘": 6215,
      "##ependency": 6216,
      "▁ease": 6217,
      "▁remained": 6218,
      "▁forearm": 6219,
      "▁bail": 6220,
      "▁bankruptcy": 6221,
      "▁hovered": 6222,
      "##osed": 6223,
      "▁october": 6224,
      "▁administered": 6225,
      "##auce": 6226,
      "▁submission": 6227,
      "▁consorti": 6228,
      "▁beings": 6229,
      "▁intercept": 6230,
      "▁traged": 6231,
      "##alled": 6232,
      "▁recyc": 6233,
      "▁2012": 6234,
      "▁catch": 6235,
      "▁person": 6236,
      "▁hash": 6237,
      "▁slime": 6238,
      "▁block": 6239,
      "▁staring": 6240,
      "▁publishing": 6241,
      "▁rud": 6242,
      "▁stroke": 6243,
      "▁annotated": 6244,
      "##odor": 6245,
      "▁10": 6246,
      "▁lower": 6247,
      "##gar": 6248,
      "▁better": 6249,
      "##neath": 6250,
      "▁incub": 6251,
      "▁trait": 6252,
      "▁dress": 6253,
      "▁blended": 6254,
      "▁summ": 6255,
      "##ishment": 6256,
      "##elessness": 6257,
      "▁1980s": 6258,
      "▁altar": 6259,
      "▁previously": 6260,
      "▁understood": 6261,
      "▁underm": 6262,
      "##urp": 6263,
      "▁idiots": 6264,
      "▁tend": 6265,
      "##math": 6266,
      "▁whe": 6267,
      "▁vow": 6268,
      "▁merely": 6269,
      "▁knight": 6270,
      "##irm": 6271,
      "▁takes": 6272,
      "▁signature": 6273,
      "▁libraries": 6274,
      "▁replace": 6275,
      "##nels": 6276,
      "▁emit": 6277,
      "▁spelling": 6278,
      "▁ate": 6279,
      "▁proph": 6280,
      "▁colonel": 6281,
      "▁maint": 6282,
      "##ratic": 6283,
      "##alizing": 6284,
      "▁surrounded": 6285,
      "▁targeted": 6286,
      "▁edit": 6287,
      "▁speakers": 6288,
      "##eded": 6289,
      "▁convinced": 6290,
      "▁assure": 6291,
      "▁survivors": 6292,
      "▁/": 6293,
      "▁dozens": 6294,
      "▁pestic": 6295,
      "▁excited": 6296,
      "▁mitigated": 6297,
      "▁clouds": 6298,
      "▁bead": 6299,
      "▁salon": 6300,
      "▁lets": 6301,
      "▁fundamental": 6302,
      "▁broc": 6303,
      "▁structured": 6304,
      "▁firms": 6305,
      "▁interaction": 6306,
      "▁migr": 6307,
      "▁cashout": 6308,
      "▁expecting": 6309,
      "▁modem": 6310,
      "▁animals": 6311,
      "▁polaro": 6312,
      "▁clic": 6313,
      "▁needles": 6314,
      "▁enchiladas": 6315,
      "▁api": 6316,
      "▁freight": 6317,
      "▁flowers": 6318,
      "▁max": 6319,
      "▁cle": 6320,
      "##boys": 6321,
      "▁interest": 6322,
      "##ition": 6323,
      "##ear": 6324,
      "▁chee": 6325,
      "##cross": 6326,
      "##enn": 6327,
      "•": 6328,
      "▁terrorist": 6329,
      "▁ducked": 6330,
      "▁viewers": 6331,
      "▁contexts": 6332,
      "▁serviced": 6333,
      "▁admiration": 6334,
      "▁socks": 6335,
      "##keep": 6336,
      "##etro": 6337,
      "##esome": 6338,
      "▁headquarters": 6339,
      "▁roo": 6340,
      "##ifying": 6341,
      "##ory": 6342,
      "##aggeration": 6343,
      "▁stra": 6344,
      "##atches": 6345,
      "▁cem": 6346,
      "▁nash": 6347,
      "▁slip": 6348,
      "▁deter": 6349,
      "##ging": 6350,
      "▁stayed": 6351,
      "▁spanking": 6352,
      "▁seized": 6353,
      "▁multipl": 6354,
      "▁stored": 6355,
      "##uals": 6356,
      "▁submarines": 6357,
      "▁techniques": 6358,
      "▁procrastination": 6359,
      "##ven": 6360,
      "▁pledge": 6361,
      "▁admitted": 6362,
      "##thy": 6363,
      "▁developed": 6364,
      "▁addresses": 6365,
      "##pful": 6366,
      "▁conference": 6367,
      "▁operation": 6368,
      "▁acad": 6369,
      "▁implicated": 6370,
      "##ern": 6371,
      "▁fus": 6372,
      "##esion": 6373,
      "▁judgment": 6374,
      "▁art": 6375,
      "▁swim": 6376,
      "▁packs": 6377,
      "▁dances": 6378,
      "▁nearly": 6379,
      "▁refund": 6380,
      "▁filed": 6381,
      "▁palace": 6382,
      "##hic": 6383,
      "##/0": 6384,
      "##nings": 6385,
      "▁prediction": 6386,
      "▁women": 6387,
      "▁steps": 6388,
      "##ois": 6389,
      "##oid": 6390,
      "▁propaganda": 6391,
      "▁snort": 6392,
      "▁weak": 6393,
      "▁resident": 6394,
      "##ibs": 6395,
      "▁psych": 6396,
      "▁isl": 6397,
      "▁request": 6398,
      "▁upload": 6399,
      "▁hij": 6400,
      "▁whispered": 6401,
      "▁crews": 6402,
      "▁moon": 6403,
      "▁inher": 6404,
      "▁colleges": 6405,
      "▁hes": 6406,
      "▁wanting": 6407,
      "##neys": 6408,
      "##af": 6409,
      "▁embed": 6410,
      "▁fool": 6411,
      "▁lego": 6412,
      "##ev": 6413,
      "▁united": 6414,
      "▁puff": 6415,
      "##kness": 6416,
      "▁mouths": 6417,
      "▁convers": 6418,
      "▁discovery": 6419,
      "▁dem": 6420,
      "▁pyramid": 6421,
      "▁germ": 6422,
      "▁stating": 6423,
      "##reneurs": 6424,
      "▁useful": 6425,
      "▁self": 6426,
      "##dose": 6427,
      "▁plunge": 6428,
      "##ontario": 6429,
      "▁hence": 6430,
      "▁graduated": 6431,
      "▁significant": 6432,
      "▁group": 6433,
      "▁visit": 6434,
      "▁rifle": 6435,
      "##enef": 6436,
      "▁nonsense": 6437,
      "##achment": 6438,
      "▁chapter": 6439,
      "▁loads": 6440,
      "##oud": 6441,
      "▁0": 6442,
      "▁empathy": 6443,
      "##rows": 6444,
      "▁9th": 6445,
      "##opy": 6446,
      "▁opposition": 6447,
      "▁absorbed": 6448,
      "▁hairs": 6449,
      "▁aston": 6450,
      "▁hedge": 6451,
      "##faced": 6452,
      "▁haul": 6453,
      "▁surviving": 6454,
      "▁chaos": 6455,
      "▁ske": 6456,
      "##orders": 6457,
      "▁kins": 6458,
      "##-s": 6459,
      "▁gnomes": 6460,
      "##otto": 6461,
      "▁sympath": 6462,
      "##********************************": 6463,
      "▁doo": 6464,
      "▁byp": 6465,
      "▁u.s.": 6466,
      "##thing": 6467,
      "▁hm": 6468,
      "▁egy": 6469,
      "##arized": 6470,
      "▁con": 6471,
      "▁discon": 6472,
      "▁vomit": 6473,
      "▁emitting": 6474,
      "▁~": 6475,
      "▁forming": 6476,
      "▁winds": 6477,
      "▁jealousy": 6478,
      "▁bucks": 6479,
      "▁constitutions": 6480,
      "▁warl": 6481,
      "▁swinging": 6482,
      "▁freak": 6483,
      "▁gunfire": 6484,
      "▁accident": 6485,
      "▁playwrights": 6486,
      "##pan": 6487,
      "▁deteri": 6488,
      "▁seriously": 6489,
      "▁tam": 6490,
      "##kka": 6491,
      "▁herbs": 6492,
      "##(": 6493,
      "▁pent": 6494,
      "▁amongst": 6495,
      "▁clattering": 6496,
      "▁databases": 6497,
      "▁saf": 6498,
      "▁blew": 6499,
      "▁ireland": 6500,
      "##lings": 6501,
      "▁>>": 6502,
      "▁frequently": 6503,
      "▁american": 6504,
      "##where": 6505,
      "▁tin": 6506,
      "'": 6507,
      "##bir": 6508,
      "▁argument": 6509,
      "▁uncertainty": 6510,
      "▁garlic": 6511,
      "##ats": 6512,
      "▁eta": 6513,
      "▁answ": 6514,
      "▁confirm": 6515,
      "▁doub": 6516,
      "▁insurgency": 6517,
      "▁roots": 6518,
      "▁nor": 6519,
      "##ingly": 6520,
      "▁mayor": 6521,
      "▁shelter": 6522,
      "▁caring": 6523,
      "##dbit": 6524,
      "▁sandwic": 6525,
      "▁subd": 6526,
      "▁dipped": 6527,
      "##iked": 6528,
      "##reat": 6529,
      "▁symbols": 6530,
      "▁fem": 6531,
      "##path": 6532,
      "##ect": 6533,
      "▁resemb": 6534,
      "▁mountains": 6535,
      "▁gambit": 6536,
      "▁bright": 6537,
      "▁fish": 6538,
      "▁lighting": 6539,
      "▁=": 6540,
      "▁gravity": 6541,
      "▁evaluator": 6542,
      "▁kil": 6543,
      "▁doughnut": 6544,
      "##tiveness": 6545,
      "##road": 6546,
      "▁base": 6547,
      "▁toile": 6548,
      "##ocks": 6549,
      "▁enthusiasts": 6550,
      "▁lengths": 6551,
      "▁aph": 6552,
      "##nce": 6553,
      "▁cool": 6554,
      "▁wip": 6555,
      "▁lists": 6556,
      "▁compare": 6557,
      "##ss.xls": 6558,
      "▁snail": 6559,
      "##ighted": 6560,
      "▁feat": 6561,
      "▁prepar": 6562,
      "▁prett": 6563,
      "▁war": 6564,
      "##oll": 6565,
      "##operation": 6566,
      "##ieties": 6567,
      "##arrassment": 6568,
      "▁estate": 6569,
      "▁semester": 6570,
      "▁mount": 6571,
      "##alked": 6572,
      "##ouging": 6573,
      "▁pumped": 6574,
      "▁their": 6575,
      "▁universities": 6576,
      "▁cupcakes": 6577,
      "▁possession": 6578,
      "▁reconsider": 6579,
      "▁criticism": 6580,
      "▁vib": 6581,
      "▁misfortune": 6582,
      "▁except": 6583,
      "▁ideas": 6584,
      "▁sss": 6585,
      "##z": 6586,
      "▁sorry": 6587,
      "▁sleeve": 6588,
      "▁reserved": 6589,
      "ɑ": 6590,
      "▁camp": 6591,
      "▁timed": 6592,
      "▁fares": 6593,
      "▁25": 6594,
      "##friend": 6595,
      "▁styling": 6596,
      "▁pounce": 6597,
      "##ate": 6598,
      "▁lawyer": 6599,
      "##:1": 6600,
      "▁coalition": 6601,
      "▁election": 6602,
      "▁buttered": 6603,
      "▁craw": 6604,
      "▁sweetie": 6605,
      "▁images": 6606,
      "▁theodor": 6607,
      "▁val": 6608,
      "▁pasta": 6609,
      "##ee": 6610,
      "▁pip": 6611,
      "▁some": 6612,
      "##aurs": 6613,
      "▁rather": 6614,
      "▁expanding": 6615,
      "▁pursue": 6616,
      "▁operas": 6617,
      "##lie": 6618,
      "▁un": 6619,
      "##phia": 6620,
      "▁ammon": 6621,
      "##****************": 6622,
      "▁sustained": 6623,
      "▁pursuit": 6624,
      "##athers": 6625,
      "▁cell": 6626,
      "▁hatch": 6627,
      "##------------": 6628,
      "▁product": 6629,
      "▁mapping": 6630,
      "▁montreal": 6631,
      "▁d'etat": 6632,
      "▁ga": 6633,
      "▁tech": 6634,
      "▁suc": 6635,
      "▁integ": 6636,
      "▁usually": 6637,
      "▁cart": 6638,
      "▁masses": 6639,
      "##arking": 6640,
      "▁jewelry": 6641,
      "▁date": 6642,
      "▁burst": 6643,
      "▁rocks": 6644,
      "▁farrier": 6645,
      "▁ripped": 6646,
      "##issing": 6647,
      "##ains": 6648,
      "▁assu": 6649,
      "##bread": 6650,
      "▁treating": 6651,
      "▁wax": 6652,
      "##epted": 6653,
      "##ess": 6654,
      "▁9": 6655,
      "▁origins": 6656,
      "▁gazing": 6657,
      "##aliation": 6658,
      "▁vehicles": 6659,
      "▁util": 6660,
      "▁rich": 6661,
      "##aker": 6662,
      "▁vendors": 6663,
      "▁tutor": 6664,
      "##sted": 6665,
      "##lds": 6666,
      "▁.!": 6667,
      "▁weasel": 6668,
      "▁judges": 6669,
      "##ny": 6670,
      "▁openness": 6671,
      "▁want": 6672,
      "▁quart": 6673,
      "##urned": 6674,
      "##asting": 6675,
      "▁loan": 6676,
      "▁proposal": 6677,
      "▁**": 6678,
      "▁confir": 6679,
      "▁copy": 6680,
      "▁vision": 6681,
      "▁owes": 6682,
      "##ua": 6683,
      "▁horsie": 6684,
      "▁championship": 6685,
      "▁anticipate": 6686,
      "##(s)": 6687,
      "##raf": 6688,
      "##omm": 6689,
      "##rosp": 6690,
      "▁fired": 6691,
      "▁neph": 6692,
      "▁underp": 6693,
      "▁wangs": 6694,
      "▁default": 6695,
      "##hol": 6696,
      "▁happiness": 6697,
      "▁repos": 6698,
      "▁silk": 6699,
      "▁coconut": 6700,
      "##ept": 6701,
      "▁counters": 6702,
      "##ook": 6703,
      "▁thef": 6704,
      "▁quoted": 6705,
      "▁artworks": 6706,
      "▁single": 6707,
      "##edness": 6708,
      "▁concentrate": 6709,
      "▁obtained": 6710,
      "▁reader": 6711,
      "▁followers": 6712,
      "##oned": 6713,
      "▁sunlight": 6714,
      "▁textile": 6715,
      "▁scientists": 6716,
      "##°": 6717,
      "▁confused": 6718,
      "▁authority": 6719,
      "▁populations": 6720,
      "▁owns": 6721,
      "▁eagle": 6722,
      "▁athe": 6723,
      "##7.doc": 6724,
      "##ame": 6725,
      "▁squares": 6726,
      "▁poke": 6727,
      "##idn": 6728,
      "▁proposes": 6729,
      "▁successful": 6730,
      "▁...................": 6731,
      "▁unity": 6732,
      "▁shaking": 6733,
      "##oner": 6734,
      "▁tha": 6735,
      "▁history": 6736,
      "▁awarded": 6737,
      "▁traditions": 6738,
      "##mely": 6739,
      "▁i": 6740,
      "▁stove": 6741,
      "▁revival": 6742,
      "▁man": 6743,
      "▁compound": 6744,
      "▁captain": 6745,
      "▁calm": 6746,
      "▁suburbs": 6747,
      "##err": 6748,
      "▁quest": 6749,
      "▁moham": 6750,
      "▁shall": 6751,
      "##dd": 6752,
      "▁==----": 6753,
      "▁fle": 6754,
      "▁assump": 6755,
      "▁pending": 6756,
      "▁lots": 6757,
      "▁transition": 6758,
      "▁evenings": 6759,
      "▁3": 6760,
      "▁sleepy": 6761,
      "▁prizes": 6762,
      "▁convicts": 6763,
      "▁postures": 6764,
      "▁mummy": 6765,
      "▁barrel": 6766,
      "▁thing": 6767,
      "▁phen": 6768,
      "##amb": 6769,
      "▁vide": 6770,
      "##oni": 6771,
      "’": 6772,
      "▁confidentiality": 6773,
      "▁vessel": 6774,
      "▁dimensions": 6775,
      "▁window": 6776,
      "▁visitor": 6777,
      "▁crown": 6778,
      "▁itiner": 6779,
      "▁likes": 6780,
      "▁plag": 6781,
      "##cades": 6782,
      "##zen": 6783,
      "▁landed": 6784,
      "▁chew": 6785,
      "▁lacked": 6786,
      "▁buck": 6787,
      "▁market": 6788,
      "##eel": 6789,
      "##lly": 6790,
      "▁mig": 6791,
      "▁sn": 6792,
      "##ighth": 6793,
      "▁desc": 6794,
      "▁ancest": 6795,
      "▁queue": 6796,
      "▁mortgage": 6797,
      "##enerate": 6798,
      "##anized": 6799,
      "▁flesh": 6800,
      "▁accust": 6801,
      "▁routes": 6802,
      "▁beginners": 6803,
      "▁crack": 6804,
      "▁actors": 6805,
      "▁dots": 6806,
      "▁jur": 6807,
      "▁hambur": 6808,
      "▁imm": 6809,
      "▁dinosaurs": 6810,
      "▁dismissed": 6811,
      "▁tar": 6812,
      "▁ord": 6813,
      "▁badge": 6814,
      "▁lar": 6815,
      "▁leash": 6816,
      "##ting": 6817,
      "##au": 6818,
      "▁inform": 6819,
      "▁spokes": 6820,
      "▁wat": 6821,
      "▁dw": 6822,
      "▁boundaries": 6823,
      "▁grumb": 6824,
      "▁shook": 6825,
      "▁sued": 6826,
      "▁arrival": 6827,
      "▁pit": 6828,
      "▁distorts": 6829,
      "▁alterations": 6830,
      "▁hideout": 6831,
      "▁compelled": 6832,
      "##oft": 6833,
      "▁occasions": 6834,
      "▁conditions": 6835,
      "▁headline": 6836,
      "##uly": 6837,
      "▁obsf": 6838,
      "##quet": 6839,
      "▁tonnes": 6840,
      "▁distribution": 6841,
      "▁pho": 6842,
      "##h": 6843,
      "▁most": 6844,
      "▁fac": 6845,
      "▁media": 6846,
      "▁blue": 6847,
      "▁trained": 6848,
      "▁incorp": 6849,
      "▁crowd": 6850,
      "▁identify": 6851,
      "▁mini": 6852,
      "▁hats": 6853,
      "##ena": 6854,
      "▁flop": 6855,
      "##aze": 6856,
      "▁portra": 6857,
      "▁advancement": 6858,
      "##icated": 6859,
      "▁beaters": 6860,
      "▁collab": 6861,
      "▁establishing": 6862,
      "▁spoons": 6863,
      "▁increases": 6864,
      "▁flashing": 6865,
      "▁stairs": 6866,
      "##ior": 6867,
      "##mented": 6868,
      "▁deep": 6869,
      "▁disobedience": 6870,
      "▁critters": 6871,
      "##children": 6872,
      "▁inspiration": 6873,
      "▁del": 6874,
      "▁arrested": 6875,
      "▁calendar": 6876,
      "▁strainer": 6877,
      "##esthe": 6878,
      "▁thieves": 6879,
      "##br": 6880,
      "▁ensure": 6881,
      "▁sour": 6882,
      "▁appetizers": 6883,
      "##itations": 6884,
      "##|": 6885,
      "▁flown": 6886,
      "▁parish": 6887,
      "▁destruction": 6888,
      "▁subjects": 6889,
      "▁fact": 6890,
      "▁participate": 6891,
      "▁som": 6892,
      "##pace": 6893,
      "▁tabled": 6894,
      "▁joy": 6895,
      "▁citing": 6896,
      "▁billing": 6897,
      "▁malls": 6898,
      "▁legislation": 6899,
      "▁administrations": 6900,
      "##own": 6901,
      "▁weather": 6902,
      "▁hen": 6903,
      "▁departures": 6904,
      "##eriff": 6905,
      "▁na": 6906,
      "▁assassination": 6907,
      "##esis": 6908,
      "▁misc": 6909,
      "▁holes": 6910,
      "▁mouf": 6911,
      "▁religious": 6912,
      "▁nost": 6913,
      "▁itself": 6914,
      "▁lad": 6915,
      "▁circular": 6916,
      "▁teeth": 6917,
      "##icke": 6918,
      "▁wolf": 6919,
      "▁marching": 6920,
      "▁pers": 6921,
      "▁rang": 6922,
      "▁exchanges": 6923,
      "▁originally": 6924,
      "▁said": 6925,
      "▁helic": 6926,
      "##0": 6927,
      "▁kiw": 6928,
      "▁sealed": 6929,
      "▁muffin": 6930,
      "▁rhinoceros": 6931,
      "▁premium": 6932,
      "▁favor": 6933,
      "▁recommend": 6934,
      "▁nightlife": 6935,
      "##olog": 6936,
      "▁apprec": 6937,
      "▁availability": 6938,
      "▁predictors": 6939,
      "▁contested": 6940,
      "▁medal": 6941,
      "##singly": 6942,
      "##eman": 6943,
      "##wit": 6944,
      "▁wheat": 6945,
      "▁week": 6946,
      "▁appropriate": 6947,
      "▁pyth": 6948,
      "▁intercep": 6949,
      "▁penins": 6950,
      "▁diagnosed": 6951,
      "##hy": 6952,
      "▁caus": 6953,
      "▁u.": 6954,
      "▁explan": 6955,
      "▁advantages": 6956,
      "▁drafted": 6957,
      "▁lanterns": 6958,
      "▁yarns": 6959,
      "##spite": 6960,
      "▁scul": 6961,
      "##ibilities": 6962,
      "##boats": 6963,
      "▁ketchup": 6964,
      "##ache": 6965,
      "##-l": 6966,
      "##erts": 6967,
      "▁cfls": 6968,
      "▁clear": 6969,
      "▁seven": 6970,
      "▁anem": 6971,
      "▁photograph": 6972,
      "▁households": 6973,
      "▁dining": 6974,
      "▁disorder": 6975,
      "▁grf": 6976,
      "▁p": 6977,
      "▁glowstick": 6978,
      "ρ": 6979,
      "▁guil": 6980,
      "▁throws": 6981,
      "▁searching": 6982,
      "##keepers": 6983,
      "▁fath": 6984,
      "▁messed": 6985,
      "▁det": 6986,
      "▁arena": 6987,
      "▁sites": 6988,
      "▁behave": 6989,
      "▁sketchbook": 6990,
      "▁trick": 6991,
      "##gill": 6992,
      "▁markup": 6993,
      "##rent": 6994,
      "▁no": 6995,
      "▁reassure": 6996,
      "##inth": 6997,
      "▁goog": 6998,
      "##hhu": 6999,
      "##lying": 7000,
      "##ouk": 7001,
      "▁cuts": 7002,
      "##ased": 7003,
      "▁stabilization": 7004,
      "▁convicted": 7005,
      "▁achieving": 7006,
      "▁refres": 7007,
      "##laimed": 7008,
      "▁signal": 7009,
      "##nosis": 7010,
      "▁disciplines": 7011,
      "▁fores": 7012,
      "▁omitted": 7013,
      "▁toss": 7014,
      "▁deteriorate": 7015,
      "▁pleasure": 7016,
      "##ulator": 7017,
      "▁else": 7018,
      "##iles": 7019,
      "▁google": 7020,
      "▁witness": 7021,
      "##ected": 7022,
      "▁whatnot": 7023,
      "▁yr": 7024,
      "▁meal": 7025,
      "▁answers": 7026,
      "##mm": 7027,
      "▁hated": 7028,
      "▁creativity": 7029,
      "▁fishie": 7030,
      "##isons": 7031,
      "▁responsibility": 7032,
      "▁powder": 7033,
      "▁districts": 7034,
      "▁graduate": 7035,
      "▁brief": 7036,
      "▁obstacle": 7037,
      "▁referend": 7038,
      "##etus": 7039,
      "▁manipulate": 7040,
      "▁evalu": 7041,
      "▁figures": 7042,
      "▁wifi": 7043,
      "##making": 7044,
      "▁yen": 7045,
      "▁temperatures": 7046,
      "##iversity": 7047,
      "▁turnout": 7048,
      "▁anemone": 7049,
      "##rie": 7050,
      "##hocks": 7051,
      "▁cupboard": 7052,
      "▁uti": 7053,
      "▁tire": 7054,
      "▁celeb": 7055,
      "▁plates": 7056,
      "▁repurp": 7057,
      "##dom": 7058,
      "▁diversity": 7059,
      "##order": 7060,
      "▁focus": 7061,
      "▁turning": 7062,
      "##itially": 7063,
      "▁ken": 7064,
      "▁lawy": 7065,
      "▁neigh": 7066,
      "▁nineteenth": 7067,
      "##tite": 7068,
      "▁quaffle": 7069,
      "▁mosquitoes": 7070,
      "▁pul": 7071,
      "▁attem": 7072,
      "##dies": 7073,
      "▁kid": 7074,
      "▁coordinator": 7075,
      "▁diving": 7076,
      "▁stealing": 7077,
      "##lightly": 7078,
      "▁gdp": 7079,
      "##sp": 7080,
      "##espan": 7081,
      "▁ted": 7082,
      "▁misfort": 7083,
      "##olding": 7084,
      "▁cheer": 7085,
      "▁economists": 7086,
      "▁cleaned": 7087,
      "▁tup": 7088,
      "▁coats": 7089,
      "▁starving": 7090,
      "▁ambulance": 7091,
      "##mail": 7092,
      "##ientific": 7093,
      "▁sacrif": 7094,
      "▁pdt": 7095,
      "▁road": 7096,
      "▁stability": 7097,
      "▁moaned": 7098,
      "▁peanut": 7099,
      "▁tens": 7100,
      "▁managers": 7101,
      "##ary": 7102,
      "▁list": 7103,
      "▁living": 7104,
      "##power": 7105,
      "▁intervals": 7106,
      "▁squirted": 7107,
      "▁cm": 7108,
      "##ecess": 7109,
      "▁preview": 7110,
      "▁fec": 7111,
      "▁proud": 7112,
      "▁gentleman": 7113,
      "▁employee": 7114,
      "##orn": 7115,
      "▁larger": 7116,
      "##lic": 7117,
      "##do": 7118,
      "▁misconception": 7119,
      "##places": 7120,
      "▁asylum": 7121,
      "##ained": 7122,
      "##edom": 7123,
      "▁blender": 7124,
      "▁drink": 7125,
      "▁maintain": 7126,
      "##-fl": 7127,
      "▁formula": 7128,
      "▁thirtieth": 7129,
      "▁au": 7130,
      "##ourse": 7131,
      "▁drawstring": 7132,
      "▁cyclone": 7133,
      "▁hors": 7134,
      "##ding": 7135,
      "▁negotiating": 7136,
      "▁particular": 7137,
      "▁channel": 7138,
      "▁wearing": 7139,
      "▁dire": 7140,
      "▁era": 7141,
      "▁nectar": 7142,
      "▁msg": 7143,
      "##stood": 7144,
      "▁boule": 7145,
      "▁sports": 7146,
      "▁existence": 7147,
      "▁evacuation": 7148,
      "▁discharge": 7149,
      "▁contacted": 7150,
      "▁’ve": 7151,
      "▁name": 7152,
      "▁philadelphia": 7153,
      "##cri": 7154,
      "##erved": 7155,
      "▁saint": 7156,
      "##­": 7157,
      "▁sisters": 7158,
      "▁reviewers": 7159,
      "▁mashed": 7160,
      "▁marked": 7161,
      "▁headache": 7162,
      "▁cit": 7163,
      "▁-------------------------------------------------": 7164,
      "##ators": 7165,
      "▁inven": 7166,
      "▁ornament": 7167,
      "▁grave": 7168,
      "##omes": 7169,
      "▁protection": 7170,
      "▁county": 7171,
      "▁transfer": 7172,
      "▁seattle": 7173,
      "▁oven": 7174,
      "▁albeit": 7175,
      "▁hurry": 7176,
      "▁baking": 7177,
      "##ices": 7178,
      "##ati": 7179,
      "▁arrived": 7180,
      "▁broad": 7181,
      "▁fertili": 7182,
      "▁teh": 7183,
      "▁appear": 7184,
      "##lined": 7185,
      "##igital": 7186,
      "▁gender": 7187,
      "##enumber": 7188,
      "▁appeal": 7189,
      "▁hastened": 7190,
      "##i": 7191,
      "##abilities": 7192,
      "##arity": 7193,
      "▁tremb": 7194,
      "##hh": 7195,
      "▁interv": 7196,
      "▁kansas": 7197,
      "▁shirts": 7198,
      "##.d": 7199,
      "▁crow": 7200,
      "▁blown": 7201,
      "▁lift": 7202,
      "▁procl": 7203,
      "▁doorman": 7204,
      "▁bags": 7205,
      "▁awesome": 7206,
      "▁explanations": 7207,
      "▁park": 7208,
      "##vd": 7209,
      "▁pi": 7210,
      "▁swa": 7211,
      "▁prote": 7212,
      "▁swings": 7213,
      "▁limitation": 7214,
      "▁where": 7215,
      "▁cat": 7216,
      "▁identification": 7217,
      "▁expired": 7218,
      "▁equivalence": 7219,
      "▁appeti": 7220,
      "▁usb": 7221,
      "##lifish": 7222,
      "▁supply": 7223,
      "##prisingly": 7224,
      "##rayed": 7225,
      "##oods": 7226,
      "▁strangers": 7227,
      "▁consulted": 7228,
      "▁clos": 7229,
      "▁style": 7230,
      "▁toast": 7231,
      "▁improving": 7232,
      "▁advantage": 7233,
      "▁prize": 7234,
      "▁interior": 7235,
      "▁cannon": 7236,
      "▁consented": 7237,
      "##nocentrism": 7238,
      "▁reign": 7239,
      "▁phase": 7240,
      "▁therapist": 7241,
      "▁fuse": 7242,
      "##ognition": 7243,
      "▁finished": 7244,
      "##view": 7245,
      "▁aggression": 7246,
      "▁abstract": 7247,
      "▁rounds": 7248,
      "▁bas": 7249,
      "##zza": 7250,
      "##dity": 7251,
      "##%": 7252,
      "▁fleeing": 7253,
      "▁undo": 7254,
      "▁killer": 7255,
      "▁infection": 7256,
      "▁thurs": 7257,
      "▁respon": 7258,
      "▁gath": 7259,
      "▁landm": 7260,
      "▁syn": 7261,
      "▁mantra": 7262,
      "##gry": 7263,
      "▁return": 7264,
      "##6": 7265,
      "▁ech": 7266,
      "##yst": 7267,
      "▁cause": 7268,
      "▁alley": 7269,
      "▁quiddit": 7270,
      "▁labeled": 7271,
      "▁badly": 7272,
      "▁batch": 7273,
      "▁flossing": 7274,
      "##-d": 7275,
      "▁curtains": 7276,
      "▁chapters": 7277,
      "##ina": 7278,
      "▁archive": 7279,
      "▁visas": 7280,
      "▁reaching": 7281,
      "▁mart": 7282,
      "▁enrongss.xls": 7283,
      "▁relax": 7284,
      "##otion": 7285,
      "##ino": 7286,
      "▁festivals": 7287,
      "▁curry": 7288,
      "▁prototypes": 7289,
      "▁torn": 7290,
      "▁attempt": 7291,
      "▁beyond": 7292,
      "▁mate": 7293,
      "▁exercise": 7294,
      "▁conferences": 7295,
      "##ark": 7296,
      "▁etiquette": 7297,
      "##ersion": 7298,
      "▁vi": 7299,
      "##gage": 7300,
      "▁voters": 7301,
      "▁drain": 7302,
      "▁realization": 7303,
      "▁pointing": 7304,
      "▁insul": 7305,
      "▁aristocrats": 7306,
      "▁blending": 7307,
      "▁ribs": 7308,
      "▁choke": 7309,
      "▁ride": 7310,
      "▁continent": 7311,
      "▁bullet": 7312,
      "##iously": 7313,
      "▁appealed": 7314,
      "▁attack": 7315,
      "▁busses": 7316,
      "##onal": 7317,
      "##pe": 7318,
      "##lect": 7319,
      "▁students": 7320,
      "##ori": 7321,
      "##iled": 7322,
      "##~": 7323,
      "▁utens": 7324,
      "▁totally": 7325,
      "▁tourism": 7326,
      "▁general": 7327,
      "##ross": 7328,
      "##ugee": 7329,
      "▁cir": 7330,
      "▁pens": 7331,
      "▁aqu": 7332,
      "▁dinner": 7333,
      "▁meow": 7334,
      "▁t.v.": 7335,
      "##ered": 7336,
      "▁shipment": 7337,
      "▁hing": 7338,
      "▁tablets": 7339,
      "▁different": 7340,
      "▁family": 7341,
      "##½": 7342,
      "▁eu": 7343,
      "▁intervening": 7344,
      "▁partners": 7345,
      "##books": 7346,
      "##ural": 7347,
      "▁magic": 7348,
      "▁bulbs": 7349,
      "##80s": 7350,
      "▁garage": 7351,
      "▁audio": 7352,
      "▁oriented": 7353,
      "▁styles": 7354,
      "▁circularisation": 7355,
      "##umbs": 7356,
      "▁assumed": 7357,
      "▁dpr": 7358,
      "▁signed": 7359,
      "##ics": 7360,
      "▁forehead": 7361,
      "▁seiz": 7362,
      "▁blacks": 7363,
      "▁refunds": 7364,
      "▁discl": 7365,
      "▁http": 7366,
      "▁region": 7367,
      "▁tumbled": 7368,
      "▁j": 7369,
      "▁champagne": 7370,
      "##*": 7371,
      "##alancing": 7372,
      "▁shell": 7373,
      "▁asthma": 7374,
      "##iod": 7375,
      "▁corners": 7376,
      "▁dictatorship": 7377,
      "▁officials": 7378,
      "▁sauc": 7379,
      "▁tr": 7380,
      "▁nine": 7381,
      "##ointed": 7382,
      "▁bones": 7383,
      "▁excer": 7384,
      "##8": 7385,
      "▁milieu": 7386,
      "▁elect": 7387,
      "▁turtle": 7388,
      "▁aesthe": 7389,
      "▁hesitate": 7390,
      "▁inqui": 7391,
      "ʒ": 7392,
      "##ito": 7393,
      "▁directed": 7394,
      "▁cities": 7395,
      "##.com/": 7396,
      "▁priest": 7397,
      "▁roughly": 7398,
      "▁operator": 7399,
      "▁photo": 7400,
      "▁communication": 7401,
      "▁pajamas": 7402,
      "▁dol": 7403,
      "##.2": 7404,
      "##erer": 7405,
      "▁fought": 7406,
      "##ful": 7407,
      "▁sale": 7408,
      "▁sympathy": 7409,
      "▁revealed": 7410,
      "▁april": 7411,
      "▁cuis": 7412,
      "##aties": 7413,
      "##ias": 7414,
      "▁margin": 7415,
      "▁flag": 7416,
      "▁mixed": 7417,
      "▁performed": 7418,
      "▁claws": 7419,
      "▁wed": 7420,
      "▁go": 7421,
      "##omet": 7422,
      "▁operators": 7423,
      "##chester": 7424,
      "##asure": 7425,
      "##aches": 7426,
      "▁dollar": 7427,
      "▁blues": 7428,
      "▁govern": 7429,
      "##ya": 7430,
      "▁sought": 7431,
      "▁dey": 7432,
      "▁picked": 7433,
      "▁emb": 7434,
      "##cial": 7435,
      "▁tractor": 7436,
      "▁wai": 7437,
      "▁thie": 7438,
      "▁scribb": 7439,
      "▁'re": 7440,
      "▁designs": 7441,
      "▁very": 7442,
      "▁crosstab": 7443,
      "▁exceed": 7444,
      "▁bited": 7445,
      "▁helicop": 7446,
      "▁artic": 7447,
      "▁jobs": 7448,
      "##ived": 7449,
      "▁llms": 7450,
      "▁thawed": 7451,
      "▁dangling": 7452,
      "▁alone": 7453,
      "▁pp": 7454,
      "▁bab": 7455,
      "▁atmosphere": 7456,
      "##cut": 7457,
      "##load": 7458,
      "##umph": 7459,
      "##a-": 7460,
      "▁possibility": 7461,
      "##rophe": 7462,
      "▁stop": 7463,
      "▁teething": 7464,
      "▁sati": 7465,
      "##ithst": 7466,
      "▁laser": 7467,
      "▁forgiveness": 7468,
      "▁there": 7469,
      "▁plastic": 7470,
      "▁repay": 7471,
      "▁rose": 7472,
      "▁distingu": 7473,
      "##paper": 7474,
      "▁diagram": 7475,
      "##tics": 7476,
      "φ": 7477,
      "▁harm": 7478,
      "▁stev": 7479,
      "▁triumph": 7480,
      "▁fr": 7481,
      "▁++++": 7482,
      "##olve": 7483,
      "▁domest": 7484,
      "##gre": 7485,
      "▁legos": 7486,
      "▁drove": 7487,
      "##lder": 7488,
      "##rial": 7489,
      "▁tack": 7490,
      "##$$": 7491,
      "▁sag": 7492,
      "▁recog": 7493,
      "▁caused": 7494,
      "▁lap": 7495,
      "##“": 7496,
      "▁foster": 7497,
      "▁hund": 7498,
      "##pancy": 7499,
      "##hered": 7500,
      "▁torti": 7501,
      "##lism": 7502,
      "▁sport": 7503,
      "▁cruise": 7504,
      "▁before": 7505,
      "▁pork": 7506,
      "▁crackers": 7507,
      "▁t3i": 7508,
      "▁affirm": 7509,
      "▁http://": 7510,
      "▁roll": 7511,
      "▁rfp": 7512,
      "▁discrimination": 7513,
      "▁gaps": 7514,
      "▁candidate": 7515,
      "▁copies": 7516,
      "##p": 7517,
      "▁sushi": 7518,
      "▁dime": 7519,
      "▁respond": 7520,
      "▁proble": 7521,
      "▁husbands": 7522,
      "##bing": 7523,
      "▁ena": 7524,
      "▁focuses": 7525,
      "▁complaints": 7526,
      "▁elevator": 7527,
      "▁tours": 7528,
      "▁nerv": 7529,
      "##ticoat": 7530,
      "▁aerogel": 7531,
      "▁metaphors": 7532,
      "▁nuisance": 7533,
      "##rist": 7534,
      "##enth": 7535,
      "##iddit": 7536,
      "##pt": 7537,
      "▁secon": 7538,
      "▁improvement": 7539,
      "▁field": 7540,
      "▁mycelium": 7541,
      "▁englishman": 7542,
      "##ota": 7543,
      "▁threw": 7544,
      "▁referr": 7545,
      "▁recons": 7546,
      "▁yrs": 7547,
      "##$": 7548,
      "▁supp": 7549,
      "▁tool": 7550,
      "▁amended": 7551,
      "▁wondered": 7552,
      "##pily": 7553,
      "▁component": 7554,
      "▁commemorated": 7555,
      "▁bubble": 7556,
      "▁abst": 7557,
      "##ils": 7558,
      "##osh": 7559,
      "▁gisb": 7560,
      "▁zeitgeist": 7561,
      "##sters": 7562,
      "##ht": 7563,
      "▁continuing": 7564,
      "##aulted": 7565,
      "##enties": 7566,
      "▁penn": 7567,
      "▁reinfor": 7568,
      "▁composed": 7569,
      "▁humans": 7570,
      "▁carpenter": 7571,
      "▁envelop": 7572,
      "▁bite": 7573,
      "##ti": 7574,
      "▁schedules": 7575,
      "▁nons": 7576,
      "##rier": 7577,
      "▁co2": 7578,
      "▁roofs": 7579,
      "##ality": 7580,
      "▁oli": 7581,
      "▁passenger": 7582,
      "▁concerned": 7583,
      "▁experiences": 7584,
      "▁however": 7585,
      "▁internet": 7586,
      "▁elastic": 7587,
      "▁precision": 7588,
      "▁darn": 7589,
      "▁bce": 7590,
      "▁ou": 7591,
      "▁floor": 7592,
      "▁bub": 7593,
      "▁guidelines": 7594,
      "▁chalkboard": 7595,
      "▁stab": 7596,
      "▁needing": 7597,
      "##ky": 7598,
      "##ants": 7599,
      "▁easi": 7600,
      "▁bankn": 7601,
      "▁wasted": 7602,
      "▁frighten": 7603,
      "▁awaited": 7604,
      "▁underw": 7605,
      "##itioned": 7606,
      "##earing": 7607,
      "▁sle": 7608,
      "##assed": 7609,
      "##ss": 7610,
      "▁belong": 7611,
      "▁grant": 7612,
      "##13": 7613,
      "▁superi": 7614,
      "##rophy": 7615,
      "▁retiring": 7616,
      "▁reality": 7617,
      "▁brow": 7618,
      "##igning": 7619,
      "▁des": 7620,
      "▁super": 7621,
      "▁crop": 7622,
      "▁jew": 7623,
      "##ensity": 7624,
      "▁oppose": 7625,
      "##tism": 7626,
      "##aring": 7627,
      "▁particles": 7628,
      "▁present": 7629,
      "▁side": 7630,
      "▁dancers": 7631,
      "▁separation": 7632,
      "##ieved": 7633,
      "▁goods": 7634,
      "##ample": 7635,
      "▁sigh": 7636,
      "▁truck": 7637,
      "▁inquiries": 7638,
      "▁tiles": 7639,
      "▁bathroom": 7640,
      "▁moo": 7641,
      "▁carolina": 7642,
      "▁program": 7643,
      "▁phones": 7644,
      "▁clam": 7645,
      "▁refused": 7646,
      "▁controvers": 7647,
      "##round": 7648,
      "##port": 7649,
      "▁alarms": 7650,
      "▁sam": 7651,
      "▁seeks": 7652,
      "##.com": 7653,
      "▁thigh": 7654,
      "▁supper": 7655,
      "▁flush": 7656,
      "##porter": 7657,
      "##olic": 7658,
      "##aces": 7659,
      "▁stem": 7660,
      "▁others": 7661,
      "▁collaborated": 7662,
      "▁chance": 7663,
      "##yg": 7664,
      "▁rumors": 7665,
      "▁law": 7666,
      "▁suggested": 7667,
      "▁umb": 7668,
      "##ubs": 7669,
      "▁modules": 7670,
      "▁screwed": 7671,
      "▁premise": 7672,
      "▁infinity": 7673,
      "▁gener": 7674,
      "▁screen": 7675,
      "▁which": 7676,
      "▁pin": 7677,
      "▁prosecutor": 7678,
      "##ises": 7679,
      "▁hosting": 7680,
      "▁definition": 7681,
      "▁paint": 7682,
      "▁bacon": 7683,
      "▁railway": 7684,
      "▁panorama": 7685,
      "##thes": 7686,
      "▁rumor": 7687,
      "▁major": 7688,
      "▁acup": 7689,
      "▁emerge": 7690,
      "▁pussy": 7691,
      "▁shark": 7692,
      "▁compon": 7693,
      "▁veteran": 7694,
      "▁released": 7695,
      "▁drinks": 7696,
      "▁berries": 7697,
      "▁supporters": 7698,
      "▁ideation": 7699,
      "▁memo": 7700,
      "##ores": 7701,
      "##nesday": 7702,
      "##links": 7703,
      "##ination": 7704,
      "##esity": 7705,
      "▁|": 7706,
      "▁lighted": 7707,
      "▁maker": 7708,
      "▁90s": 7709,
      "▁utilities": 7710,
      "▁laundry": 7711,
      "▁ree": 7712,
      "▁pivottable": 7713,
      "▁crave": 7714,
      "▁explain": 7715,
      "▁due": 7716,
      "##cur": 7717,
      "##inations": 7718,
      "▁broadc": 7719,
      "▁drained": 7720,
      "▁composition": 7721,
      "##list": 7722,
      "▁routine": 7723,
      "▁failing": 7724,
      "▁dialects": 7725,
      "▁besides": 7726,
      "▁site": 7727,
      "##entieth": 7728,
      "##cret": 7729,
      "▁arrogance": 7730,
      "##imum": 7731,
      "▁ge": 7732,
      "▁incapac": 7733,
      "▁assaulted": 7734,
      "##inary": 7735,
      "##itivity": 7736,
      "▁voice": 7737,
      "▁cocoa": 7738,
      "##aceful": 7739,
      "▁methods": 7740,
      "▁hoagie": 7741,
      "x": 7742,
      "▁sails": 7743,
      "▁willing": 7744,
      "▁indust": 7745,
      "▁talent": 7746,
      "▁ded": 7747,
      "▁skirts": 7748,
      "##ling": 7749,
      "##field": 7750,
      "▁banner": 7751,
      "▁amaz": 7752,
      "▁influx": 7753,
      "▁remark": 7754,
      "▁agric": 7755,
      "▁unlike": 7756,
      "▁steak": 7757,
      "▁hotels": 7758,
      "▁stopovers": 7759,
      "##yr": 7760,
      "▁trial": 7761,
      "##ilities": 7762,
      "▁military": 7763,
      "##zing": 7764,
      "##ulsion": 7765,
      "##sitive": 7766,
      "▁floating": 7767,
      "▁termin": 7768,
      "▁summit": 7769,
      "▁med": 7770,
      "##nut": 7771,
      "▁proposed": 7772,
      "▁remarks": 7773,
      "▁encounter": 7774,
      "##umes": 7775,
      "­": 7776,
      "▁archbish": 7777,
      "##no": 7778,
      "▁expected": 7779,
      "▁political": 7780,
      "▁asp": 7781,
      "▁increasing": 7782,
      "▁strain": 7783,
      "▁ties": 7784,
      "▁muggles": 7785,
      "▁mothers": 7786,
      "▁christmas": 7787,
      "▁woof": 7788,
      "▁yoghurt": 7789,
      "▁well": 7790,
      "▁grocer": 7791,
      "▁hierarch": 7792,
      "▁changed": 7793,
      "▁cham": 7794,
      "▁mal": 7795,
      "▁remedy": 7796,
      "▁hour": 7797,
      "▁tsar": 7798,
      "▁contr": 7799,
      "##uary": 7800,
      "▁surprised": 7801,
      "▁surve": 7802,
      "▁diesel": 7803,
      "##ald": 7804,
      "o": 7805,
      "▁kleenex": 7806,
      "▁extradited": 7807,
      "▁shelf": 7808,
      "▁shuff": 7809,
      "##anim": 7810,
      "▁22": 7811,
      "▁uni": 7812,
      "##used": 7813,
      "##lace": 7814,
      "▁parach": 7815,
      "▁dam": 7816,
      "▁diversion": 7817,
      "▁grape": 7818,
      "▁circling": 7819,
      "▁specifications": 7820,
      "##aste": 7821,
      "▁‘’": 7822,
      "##tit": 7823,
      "##ona": 7824,
      "▁b.": 7825,
      "▁horses": 7826,
      "▁revers": 7827,
      "▁z": 7828,
      "##ising": 7829,
      "▁shared": 7830,
      "##encing": 7831,
      "œ": 7832,
      "▁easter": 7833,
      "▁declined": 7834,
      "##-te": 7835,
      "▁candle": 7836,
      "▁dollars": 7837,
      "▁anywhere": 7838,
      "▁hotdogs": 7839,
      "##mer": 7840,
      "▁demand": 7841,
      "##gement": 7842,
      "▁waved": 7843,
      "▁num": 7844,
      "▁diner": 7845,
      "##loyed": 7846,
      "##icle": 7847,
      "▁tant": 7848,
      "▁bumble": 7849,
      "▁thrown": 7850,
      "##inate": 7851,
      "▁thirds": 7852,
      "▁featured": 7853,
      "▁offering": 7854,
      "▁activists": 7855,
      "▁casting": 7856,
      "▁sphere": 7857,
      "▁limb": 7858,
      "##kly": 7859,
      "▁deduc": 7860,
      "▁interventions": 7861,
      "▁principal": 7862,
      "▁occurrence": 7863,
      "▁gotten": 7864,
      "▁specifies": 7865,
      "▁addiction": 7866,
      "▁wellbeing": 7867,
      "▁worm": 7868,
      "▁me": 7869,
      "▁reducing": 7870,
      "▁contained": 7871,
      "▁statements": 7872,
      "▁statis": 7873,
      "▁ego": 7874,
      "▁airlin": 7875,
      "##ancy": 7876,
      "▁conducting": 7877,
      "▁pee": 7878,
      "▁dancer": 7879,
      "##ph": 7880,
      "▁bombs": 7881,
      "##ector": 7882,
      "##ania": 7883,
      "▁trou": 7884,
      "##tax": 7885,
      "▁quiz": 7886,
      "▁driver": 7887,
      "##+bee": 7888,
      "▁adopting": 7889,
      "▁crops": 7890,
      "▁painting": 7891,
      "##jud": 7892,
      "▁mor": 7893,
      "▁signs": 7894,
      "▁don": 7895,
      "##amples": 7896,
      "▁26": 7897,
      "##aving": 7898,
      "▁seek": 7899,
      "▁pretend": 7900,
      "▁slices": 7901,
      "▁gots": 7902,
      "▁dri": 7903,
      "▁disrupt": 7904,
      "▁hards": 7905,
      "▁underst": 7906,
      "▁first": 7907,
      "▁settlement": 7908,
      "▁facing": 7909,
      "▁late": 7910,
      "▁rein": 7911,
      "▁giant": 7912,
      "▁morning": 7913,
      "▁sandwich": 7914,
      "▁wakes": 7915,
      "##ailed": 7916,
      "▁average": 7917,
      "▁symbolizes": 7918,
      "▁months": 7919,
      "▁abandonment": 7920,
      "▁basil": 7921,
      "▁battle": 7922,
      "▁cheers": 7923,
      "▁shel": 7924,
      "▁complications": 7925,
      "▁cas": 7926,
      "##ribb": 7927,
      "▁procedure": 7928,
      "▁individ": 7929,
      "▁resolved": 7930,
      "▁canada": 7931,
      "▁ran": 7932,
      "##wood": 7933,
      "▁notice": 7934,
      "##phab": 7935,
      "▁hens": 7936,
      "▁crude": 7937,
      "▁highlights": 7938,
      "▁clothing": 7939,
      "▁dynamics": 7940,
      "▁nip": 7941,
      "▁unicorn": 7942,
      "##alu": 7943,
      "▁illusions": 7944,
      "▁anime": 7945,
      "##-fe": 7946,
      "##ods": 7947,
      "▁support": 7948,
      "▁invoice": 7949,
      "▁t+re": 7950,
      "▁postponed": 7951,
      "##53": 7952,
      "▁remod": 7953,
      "▁public": 7954,
      "▁along": 7955,
      "##ossing": 7956,
      "▁legs": 7957,
      "▁wrest": 7958,
      "##peare": 7959,
      "##.ve": 7960,
      "##sand": 7961,
      "▁unfort": 7962,
      "▁defense": 7963,
      "▁aven": 7964,
      "##700": 7965,
      "▁suggests": 7966,
      "▁starved": 7967,
      "@": 7968,
      "▁deposition": 7969,
      "##oof": 7970,
      "##uddled": 7971,
      "▁baptised": 7972,
      "▁killed": 7973,
      "##ival": 7974,
      "▁chees": 7975,
      "▁specifics": 7976,
      "▁philosoph": 7977,
      "▁hundred": 7978,
      "▁nailed": 7979,
      "▁wasp": 7980,
      "##on": 7981,
      "▁hallway": 7982,
      "▁restored": 7983,
      "▁verb": 7984,
      "▁transmed": 7985,
      "▁landlord": 7986,
      "▁earthqu": 7987,
      "##ante": 7988,
      "▁baff": 7989,
      "▁scent": 7990,
      "▁electricity": 7991,
      "▁satisfy": 7992,
      "▁view": 7993,
      "##aning": 7994,
      "▁assignment": 7995,
      "##ointment": 7996,
      "▁sco": 7997,
      "▁scanned": 7998,
      "▁advertis": 7999,
      "▁imported": 8000,
      "▁defines": 8001,
      "▁2005": 8002,
      "▁resumed": 8003,
      "##flies": 8004,
      "▁consequences": 8005,
      "▁yours": 8006,
      "▁we": 8007,
      "▁antip": 8008,
      "▁fee": 8009,
      "▁boards": 8010,
      "▁initiation": 8011,
      "▁choose": 8012,
      "▁prec": 8013,
      "▁homeland": 8014,
      "▁jerk": 8015,
      "▁dedicated": 8016,
      "▁dist": 8017,
      "▁if": 8018,
      "▁regret": 8019,
      "▁enacting": 8020,
      "▁professionalism": 8021,
      "▁lace": 8022,
      "▁home": 8023,
      "▁progr": 8024,
      "▁relationships": 8025,
      "▁initiate": 8026,
      "▁ex": 8027,
      "▁mixture": 8028,
      "▁walking": 8029,
      "▁certainly": 8030,
      "▁fixtures": 8031,
      "▁tun": 8032,
      "▁illusion": 8033,
      "▁centers": 8034,
      "▁stirrups": 8035,
      "▁forwar": 8036,
      "▁toaster": 8037,
      "##erarch": 8038,
      "▁kent": 8039,
      "▁recipe": 8040,
      "▁footst": 8041,
      "▁iraq": 8042,
      "##ify": 8043,
      "▁insurance": 8044,
      "▁city": 8045,
      "##ø": 8046,
      "▁substance": 8047,
      "▁embarrassment": 8048,
      "##master": 8049,
      "##anks": 8050,
      "▁clothespin": 8051,
      "▁satel": 8052,
      "▁panda": 8053,
      "▁credited": 8054,
      "▁faun": 8055,
      "##rit": 8056,
      "▁contract": 8057,
      "▁marshes": 8058,
      "▁connection": 8059,
      "▁penny": 8060,
      "▁funding": 8061,
      "▁suspension": 8062,
      "##ume": 8063,
      "▁retained": 8064,
      "▁versions": 8065,
      "▁millenn": 8066,
      "##:00": 8067,
      "##uj": 8068,
      "▁biodiversity": 8069,
      "▁anoth": 8070,
      "##ught": 8071,
      "▁explanation": 8072,
      "▁promotion": 8073,
      "▁defe": 8074,
      "▁attacked": 8075,
      "▁designer": 8076,
      "▁courage": 8077,
      "▁drivers": 8078,
      "▁jer": 8079,
      "##goround": 8080,
      "##emen": 8081,
      "▁cover": 8082,
      "▁redesigning": 8083,
      "▁indicates": 8084,
      "▁departs": 8085,
      "▁lifeboats": 8086,
      "##boat": 8087,
      "##uttered": 8088,
      "▁interpreted": 8089,
      "##itation": 8090,
      "▁topper": 8091,
      "▁bl": 8092,
      "##-of": 8093,
      "▁conducted": 8094,
      "▁hoax": 8095,
      "##lla": 8096,
      "▁wake": 8097,
      "▁natur": 8098,
      "▁guiding": 8099,
      "▁reve": 8100,
      "##ious": 8101,
      "▁girl": 8102,
      "##ub": 8103,
      "▁broaden": 8104,
      "▁monsters": 8105,
      "▁enh": 8106,
      "##dered": 8107,
      "▁worries": 8108,
      "▁forced": 8109,
      "▁ld": 8110,
      "▁government": 8111,
      "▁concerning": 8112,
      "##lation": 8113,
      "▁cheeks": 8114,
      "▁encourages": 8115,
      "▁dempse": 8116,
      "▁recruiting": 8117,
      "▁season": 8118,
      "▁regarding": 8119,
      "▁relevant": 8120,
      "##duction": 8121,
      "##li": 8122,
      "▁gate": 8123,
      "▁greek": 8124,
      "▁moh": 8125,
      "##orum": 8126,
      "▁immersion": 8127,
      "▁governor": 8128,
      "▁fine": 8129,
      "▁w": 8130,
      "##ast": 8131,
      "▁booked": 8132,
      "▁rum": 8133,
      "▁extremist": 8134,
      "▁esc": 8135,
      "▁overal": 8136,
      "▁inch": 8137,
      "▁rockets": 8138,
      "▁pursued": 8139,
      "▁bbq": 8140,
      "▁ages": 8141,
      "▁gum": 8142,
      "▁hymn": 8143,
      "▁image": 8144,
      "▁arrang": 8145,
      "▁confl": 8146,
      "▁pancake": 8147,
      "▁denying": 8148,
      "▁cultural": 8149,
      "##45-1.doc": 8150,
      "▁demanded": 8151,
      "##icked": 8152,
      "##ceed": 8153,
      "▁exec": 8154,
      "▁benefited": 8155,
      "▁prevail": 8156,
      "▁hz": 8157,
      "▁removes": 8158,
      "▁sover": 8159,
      "▁embassy": 8160,
      "▁warranty": 8161,
      "▁waited": 8162,
      "▁hot": 8163,
      "▁begun": 8164,
      "▁slippers": 8165,
      "▁corpus": 8166,
      "▁needed": 8167,
      "▁liking": 8168,
      "▁shit": 8169,
      "▁injured": 8170,
      "▁haf": 8171,
      "▁horm": 8172,
      "▁minute": 8173,
      "▁confronted": 8174,
      "▁pm": 8175,
      "▁strike": 8176,
      "##esame": 8177,
      "##olt": 8178,
      "▁stripes": 8179,
      "▁oct": 8180,
      "##eef": 8181,
      "▁revisions": 8182,
      "▁strawberries": 8183,
      "▁stirring": 8184,
      "▁runway": 8185,
      "▁conclusion": 8186,
      "▁spirited": 8187,
      "▁m.": 8188,
      "▁cares": 8189,
      "▁examined": 8190,
      "▁credit": 8191,
      "▁company": 8192,
      "▁pod": 8193,
      "##fted": 8194,
      "▁lecture": 8195,
      "▁permit": 8196,
      "▁chas": 8197,
      "▁28": 8198,
      "▁die": 8199,
      "▁candidates": 8200,
      "▁suspend": 8201,
      "##ounded": 8202,
      "▁tale": 8203,
      "▁pie": 8204,
      "##ares": 8205,
      "▁nuis": 8206,
      "▁scan": 8207,
      "##solut": 8208,
      "▁tu": 8209,
      "▁lun": 8210,
      "▁co-founder": 8211,
      "▁fridge": 8212,
      "▁pale": 8213,
      "▁fracture": 8214,
      "▁chairs": 8215,
      "##ody": 8216,
      "▁lollipop": 8217,
      "▁hea": 8218,
      "▁squeezed": 8219,
      "▁golf": 8220,
      "▁hasid": 8221,
      "▁climber": 8222,
      "▁acceler": 8223,
      "##ography": 8224,
      "▁words": 8225,
      "▁medicine": 8226,
      "▁given": 8227,
      "##inder": 8228,
      "##usts": 8229,
      "▁patri": 8230,
      "▁paragraph": 8231,
      "##bus": 8232,
      "▁brains": 8233,
      "▁contest": 8234,
      "##pen": 8235,
      "##clock": 8236,
      "▁station": 8237,
      "▁lamp": 8238,
      "##lications": 8239,
      "▁mode": 8240,
      "▁atlanta": 8241,
      "▁theft": 8242,
      "▁cosmos": 8243,
      "▁entry": 8244,
      "▁advance": 8245,
      "▁critics": 8246,
      "▁cuckoo": 8247,
      "▁judg": 8248,
      "▁once": 8249,
      "▁chicken": 8250,
      "##rons": 8251,
      "▁memor": 8252,
      "▁reveal": 8253,
      "##uded": 8254,
      "▁backside": 8255,
      "##ced": 8256,
      "▁consortium": 8257,
      "▁sec": 8258,
      "##ict": 8259,
      "▁fos": 8260,
      "##na": 8261,
      "▁chasers": 8262,
      "##teen": 8263,
      "▁incorporates": 8264,
      "▁air": 8265,
      "▁travellers": 8266,
      "▁bowf": 8267,
      "▁overwhelmed": 8268,
      "▁congestion": 8269,
      "▁fitness": 8270,
      "▁poli": 8271,
      "▁hus": 8272,
      "▁pace": 8273,
      "▁popcorn": 8274,
      "##bster": 8275,
      "▁pony": 8276,
      "▁um": 8277,
      "▁investi": 8278,
      "ø": 8279,
      "##inism": 8280,
      "▁graduates": 8281,
      "##asley": 8282,
      "▁threatens": 8283,
      "▁apparently": 8284,
      "▁delighted": 8285,
      "▁gallon": 8286,
      "▁symptoms": 8287,
      "▁cop": 8288,
      "▁chosen": 8289,
      "▁retrosp": 8290,
      "##ox": 8291,
      "▁generally": 8292,
      "##leum": 8293,
      "▁monkey": 8294,
      "▁quality": 8295,
      "▁abo": 8296,
      "▁towards": 8297,
      "##raeli": 8298,
      "▁ath": 8299,
      "##light": 8300,
      "▁volume": 8301,
      "▁red": 8302,
      "a": 8303,
      "▁mot": 8304,
      "##ot": 8305,
      "▁wines": 8306,
      "▁corrected": 8307,
      "▁fucking": 8308,
      "##ud": 8309,
      "▁crit": 8310,
      "▁lanes": 8311,
      "##ery": 8312,
      "▁welfare": 8313,
      "▁citi": 8314,
      "##/200": 8315,
      "▁nations": 8316,
      "▁reveals": 8317,
      "▁opin": 8318,
      "##vern": 8319,
      "▁luna": 8320,
      "▁technique": 8321,
      "▁gli": 8322,
      "##ait": 8323,
      "▁victory": 8324,
      "▁enc": 8325,
      "##vil": 8326,
      "▁iv": 8327,
      "▁providers": 8328,
      "▁shining": 8329,
      "##ury": 8330,
      "▁observ": 8331,
      "▁flu": 8332,
      "▁t": 8333,
      "▁stair": 8334,
      "▁withd": 8335,
      "▁complaint": 8336,
      "▁office": 8337,
      "##grad": 8338,
      "##terness": 8339,
      "▁limousine": 8340,
      "▁exclaimed": 8341,
      "▁angle": 8342,
      "▁backing": 8343,
      "▁distortions": 8344,
      "▁crest": 8345,
      "º": 8346,
      "▁leadership": 8347,
      "##ance": 8348,
      "▁murder": 8349,
      "▁cakes": 8350,
      "##ason": 8351,
      "##lics": 8352,
      "▁next": 8353,
      "▁wisdom": 8354,
      "▁betta": 8355,
      "##key": 8356,
      "##uty": 8357,
      "▁conduct": 8358,
      "▁walked": 8359,
      "▁question": 8360,
      "##inian": 8361,
      "##46": 8362,
      "▁mull": 8363,
      "▁related": 8364,
      "##eks": 8365,
      "▁towel": 8366,
      "▁fires": 8367,
      "▁symbolism": 8368,
      "##ink": 8369,
      "▁rocked": 8370,
      "▁capt": 8371,
      "▁type": 8372,
      "▁nature": 8373,
      "+": 8374,
      "▁adjusting": 8375,
      "▁miti": 8376,
      "▁below": 8377,
      "##fin": 8378,
      "▁constituency": 8379,
      "▁laying": 8380,
      "##eterm": 8381,
      "▁catches": 8382,
      "▁b/c": 8383,
      "▁besid": 8384,
      "▁explaining": 8385,
      "▁grounded": 8386,
      "▁newspaper": 8387,
      "▁switched": 8388,
      "##ainability": 8389,
      "▁exclaim": 8390,
      "▁notion": 8391,
      "##force": 8392,
      "▁lounge": 8393,
      "##through": 8394,
      "▁chili": 8395,
      "▁web": 8396,
      "##avor": 8397,
      "▁bug": 8398,
      "▁equival": 8399,
      "##ickness": 8400,
      "▁hard": 8401,
      "▁been": 8402,
      "▁huh": 8403,
      "▁care": 8404,
      "##derstand": 8405,
      "▁cases": 8406,
      "##inges": 8407,
      "##aly": 8408,
      "▁pres": 8409,
      "▁downloaded": 8410,
      "▁pig": 8411,
      "##ioration": 8412,
      "▁errors": 8413,
      "▁preferred": 8414,
      "▁cursor": 8415,
      "▁gasped": 8416,
      "▁prom": 8417,
      "▁paul": 8418,
      "▁morality": 8419,
      "##rition": 8420,
      "▁attempts": 8421,
      "▁complete": 8422,
      "##dges": 8423,
      "##5-1.doc": 8424,
      "▁enterprise": 8425,
      "▁deeds": 8426,
      "##uc": 8427,
      "▁aeroplane": 8428,
      "▁international": 8429,
      "▁pea": 8430,
      "▁blades": 8431,
      "▁pandemic": 8432,
      "▁aware": 8433,
      "▁checking": 8434,
      "▁lat": 8435,
      "▁ey": 8436,
      "▁mediation": 8437,
      "##lier": 8438,
      "▁dressing": 8439,
      "▁russian": 8440,
      "▁soda": 8441,
      "▁documentation": 8442,
      "▁third": 8443,
      "▁cameras": 8444,
      "▁carries": 8445,
      "##yone": 8446,
      "▁breakfast": 8447,
      "##ocating": 8448,
      "▁fert": 8449,
      "▁deliveries": 8450,
      "##70": 8451,
      "##ust": 8452,
      "▁prompted": 8453,
      "▁news": 8454,
      "▁checkers": 8455,
      "▁coverage": 8456,
      "▁hostess": 8457,
      "##elf": 8458,
      "▁money": 8459,
      "##bon": 8460,
      "▁lantern": 8461,
      "##unc": 8462,
      "##oun": 8463,
      "##ensus": 8464,
      "▁versus": 8465,
      "▁reservations": 8466,
      "##orit": 8467,
      "▁brought": 8468,
      "▁frame": 8469,
      "▁rocket": 8470,
      "▁sunday": 8471,
      "▁accuracy": 8472,
      "▁emiss": 8473,
      "▁atop": 8474,
      "##ulars": 8475,
      "▁femora": 8476,
      "##ket": 8477,
      "▁jacket": 8478,
      "▁pays": 8479,
      "▁miscon": 8480,
      "##uss": 8481,
      "▁tacoma": 8482,
      "υ": 8483,
      "##liance": 8484,
      "▁bits": 8485,
      "▁movie": 8486,
      "##vert": 8487,
      "##mers": 8488,
      "▁trigg": 8489,
      "▁philosophy": 8490,
      "▁chanting": 8491,
      "▁198": 8492,
      "##ql": 8493,
      "##areness": 8494,
      "##ire": 8495,
      "▁occup": 8496,
      "##box": 8497,
      "▁tit": 8498,
      "##ported": 8499,
      "▁regain": 8500,
      "▁freezer": 8501,
      "▁pad": 8502,
      "▁labels": 8503,
      "▁prosp": 8504,
      "##ogue": 8505,
      "▁hassle": 8506,
      "▁scen": 8507,
      "▁cutter": 8508,
      "▁flicker": 8509,
      "▁films": 8510,
      "▁influence": 8511,
      "▁goodness": 8512,
      "▁underlying": 8513,
      "▁geomet": 8514,
      "▁layer": 8515,
      "▁stip": 8516,
      "##usion": 8517,
      "▁emp": 8518,
      "##uring": 8519,
      "##alidated": 8520,
      "##.rabb": 8521,
      "▁falled": 8522,
      "▁creep": 8523,
      "▁advis": 8524,
      "##ials": 8525,
      "##dr": 8526,
      "▁fren": 8527,
      "▁achieved": 8528,
      "▁fir": 8529,
      "▁victims": 8530,
      "##ath": 8531,
      "##aign": 8532,
      "▁resour": 8533,
      "▁litt": 8534,
      "▁ultimately": 8535,
      "▁chi": 8536,
      "▁renewed": 8537,
      "##cuse": 8538,
      "##+re": 8539,
      "▁antibio": 8540,
      "▁sword": 8541,
      "▁reel": 8542,
      "▁birds": 8543,
      "##rical": 8544,
      "▁neglected": 8545,
      "▁came": 8546,
      "▁focused": 8547,
      "▁speed": 8548,
      "▁characteristics": 8549,
      "▁checkout": 8550,
      "▁cherry": 8551,
      "##enty": 8552,
      "▁vegetables": 8553,
      "▁sol": 8554,
      "##umption": 8555,
      "▁intr": 8556,
      "▁lifestyle": 8557,
      "▁mom": 8558,
      "▁roses": 8559,
      "▁stressed": 8560,
      "▁cia": 8561,
      "▁about": 8562,
      "▁mys": 8563,
      "##ax": 8564,
      "▁specialists": 8565,
      "▁not": 8566,
      "##itial": 8567,
      "▁spilled": 8568,
      "▁kilometers": 8569,
      "##;": 8570,
      "##erated": 8571,
      "▁storms": 8572,
      "▁expectation": 8573,
      "▁licking": 8574,
      "##hs": 8575,
      "▁fog": 8576,
      "##adel": 8577,
      "##tainty": 8578,
      "▁rainbow": 8579,
      "▁biked": 8580,
      "▁juice": 8581,
      "▁camer": 8582,
      "▁comb": 8583,
      "▁comple": 8584,
      "▁debate": 8585,
      "▁explained": 8586,
      "##oth": 8587,
      "##70s": 8588,
      "##ower": 8589,
      "##eeled": 8590,
      "▁effective": 8591,
      "▁should": 8592,
      "▁barrels": 8593,
      "##ux": 8594,
      "▁frosting": 8595,
      "##oxide": 8596,
      "▁employer": 8597,
      "▁clearly": 8598,
      "▁scenar": 8599,
      "▁drying": 8600,
      "▁loved": 8601,
      "▁foreground": 8602,
      "▁entering": 8603,
      "▁citizens": 8604,
      "##opes": 8605,
      "▁low": 8606,
      "▁hill": 8607,
      "▁degree": 8608,
      "##agne": 8609,
[...]
