{
  "version": "1.0",
  "truncation": null,
  "padding": null,
  "added_tokens": [
    {
      "id": 4843,
      "content": "[SEP]",
      "single_word": false,
      "lstrip": false,
      "rstrip": false,
      "normalized": false,
      "special": true
    },
    {
      "id": 7971,
      "content": "[UNK]",
      "single_word": false,
      "lstrip": false,
      "rstrip": false,
      "normalized": false,
      "special": true
    },
    {
      "id": 10016,
      "content": "[MASK]",
      "single_word": false,
      "lstrip": false,
      "rstrip": false,
      "normalized": false,
      "special": true
    },
    {
      "id": 13160,
      "content": "[PAD]",
      "single_word": false,
      "lstrip": false,
      "rstrip": false,
      "normalized": false,
      "special": true
    },
    {
      "id": 13362,
      "content": "[CLS]",
      "single_word": false,
      "lstrip": false,
      "rstrip": false,
      "normalized": false,
      "special": true
    }
  ],
  "normalizer": {
    "type": "Sequence",
    "normalizers": [
      {
        "type": "NFD"
      },
      {
        "type": "Lowercase"
      },
      {
        "type": "StripAccents"
      }
    ]
  },
  "pre_tokenizer": {
    "type": "Sequence",
    "pretokenizers": [
      {
        "type": "Metaspace",
        "replacement": "▁",
        "prepend_scheme": "always",
        "split": true
      }
    ]
  },
  "post_processor": {
    "type": "TemplateProcessing",
    "single": [
      {
        "SpecialToken": {
          "id": "[CLS]",
          "type_id": 0
        }
      },
      {
        "Sequence": {
          "id": "A",
          "type_id": 0
        }
      },
      {
        "SpecialToken": {
          "id": "[SEP]",
          "type_id": 0
        }
      }
    ],
    "pair": [
      {
        "SpecialToken": {
          "id": "[CLS]",
          "type_id": 0
        }
      },
      {
        "Sequence": {
          "id": "A",
          "type_id": 0
        }
      },
      {
        "SpecialToken": {
          "id": "[SEP]",
          "type_id": 0
        }
      },
      {
        "Sequence": {
          "id": "B",
          "type_id": 1
        }
      },
      {
        "SpecialToken": {
          "id": "[SEP]",
          "type_id": 1
        }
      }
    ],
    "special_tokens": {
      "[CLS]": {
        "id": "[CLS]",
        "ids": [
          13362
        ],
        "tokens": [
          "[CLS]"
        ]
      },
      "[SEP]": {
        "id": "[SEP]",
        "ids": [
          4843
        ],
        "tokens": [
          "[SEP]"
        ]
      }
    }
  },
  "decoder": {
    "type": "Metaspace",
    "replacement": "▁",
    "prepend_scheme": "always",
    "split": true
  },
  "model": {
    "type": "WordPiece",
    "unk_token": "[UNK]",
    "continuing_subword_prefix": "##",
    "max_input_chars_per_word": 100,
    "vocab": {
      "▁controls": 0,
      "▁shed": 1,
      "▁solidarity": 2,
      "▁sails": 3,
      "##ivated": 4,
      "▁translation": 5,
      "▁complex": 6,
      "▁deleg": 7,
      "▁translations": 8,
      "▁excuses": 9,
      "##essness": 10,
      "▁punched": 11,
      "▁assassinated": 12,
      "▁wealth": 13,
      "##ouds": 14,
      "▁traveler": 15,
      "▁backyard": 16,
      "▁tracks": 17,
      "##nered": 18,
      "▁astride": 19,
      "▁broker": 20,
      "▁participated": 21,
      "▁sch": 22,
      "##fl": 23,
      "▁squares": 24,
      "▁anx": 25,
      "##lem": 26,
      "▁aim": 27,
      "▁attention": 28,
      "##ouring": 29,
      "▁shrunk": 30,
      "▁farmers": 31,
      "▁limous": 32,
      "▁planted": 33,
      "##otted": 34,
      "▁flunking": 35,
      "▁stays": 36,
      "▁charity": 37,
      "▁noone": 38,
      "##will": 39,
      "▁blaming": 40,
      "▁inst": 41,
      "▁general": 42,
      "▁tex": 43,
      "▁repres": 44,
      "▁ran": 45,
      "▁turning": 46,
      "##oning": 47,
      "##tilation": 48,
      "##ions": 49,
      "▁owing": 50,
      "##edly": 51,
      "▁observance": 52,
      "▁rid": 53,
      "▁lady": 54,
      "▁body": 55,
      "##icing": 56,
      "##portedly": 57,
      "▁tv": 58,
      "▁columbus": 59,
      "##????????": 60,
      "▁vaccine": 61,
      "▁person": 62,
      "##mie": 63,
      "##hone": 64,
      "▁producers": 65,
      "##iat": 66,
      "▁intranet": 67,
      "▁cha": 68,
      "▁relevant": 69,
      "##el": 70,
      "##mp": 71,
      "##aks": 72,
      "▁taxpay": 73,
      "▁sexual": 74,
      "##ona": 75,
      "▁omission": 76,
      "▁biodiversity": 77,
      "▁preceded": 78,
      "▁cheer": 79,
      "▁acts": 80,
      "##iel": 81,
      "▁foll": 82,
      "▁fallen": 83,
      "▁pec": 84,
      "##operation": 85,
      "▁dots": 86,
      "▁dragon": 87,
      "▁targ": 88,
      "▁cast": 89,
      "▁spells": 90,
      "▁display": 91,
      "##orist": 92,
      "##erit": 93,
      "▁blueberries": 94,
      "▁om": 95,
      "▁admit": 96,
      "##etti": 97,
      "▁foisted": 98,
      "▁pizzas": 99,
      "▁forever": 100,
      "▁donation": 101,
      "##gal": 102,
      "▁simply": 103,
      "▁receiving": 104,
      "▁chief": 105,
      "▁cleaner": 106,
      "▁channel": 107,
      "##ements": 108,
      "▁literally": 109,
      "s": 110,
      "##raph": 111,
      "▁beater": 112,
      "▁moves": 113,
      "▁anem": 114,
      "▁reaffirm": 115,
      "▁stimulating": 116,
      "##eno": 117,
      "▁thinker": 118,
      "##riers": 119,
      "##alists": 120,
      "▁suffered": 121,
      "▁on": 122,
      "▁difficul": 123,
      "▁city": 124,
      "▁suck": 125,
      "▁qualify": 126,
      "▁plain": 127,
      "▁gar": 128,
      "##apping": 129,
      "##kly": 130,
      "▁maw": 131,
      "##eti": 132,
      "##ticks": 133,
      "▁exaggeration": 134,
      "▁mechanics": 135,
      "##-cre": 136,
      "▁mili": 137,
      "▁hamm": 138,
      "▁exams": 139,
      "▁imit": 140,
      "##-fl": 141,
      "▁identifying": 142,
      "##mpath": 143,
      "▁ingred": 144,
      "▁headlines": 145,
      "▁shall": 146,
      "##yard": 147,
      "▁empan": 148,
      "▁academ": 149,
      "▁favor": 150,
      "▁deep": 151,
      "##tition": 152,
      "▁insp": 153,
      "▁unit": 154,
      "▁leg": 155,
      "▁fligh": 156,
      "▁dogs": 157,
      "##osity": 158,
      "▁customize": 159,
      "▁sto": 160,
      "▁corpus": 161,
      "▁stalls": 162,
      "▁ha": 163,
      "▁emerges": 164,
      "▁friendliness": 165,
      "##erted": 166,
      "##inn": 167,
      "▁pu": 168,
      "m": 169,
      "▁bricks": 170,
      "▁downloaded": 171,
      "▁pop": 172,
      "▁car": 173,
      "▁prosp": 174,
      "▁grows": 175,
      "▁calif": 176,
      "▁optionality": 177,
      "▁diss": 178,
      "▁swede": 179,
      "▁foul": 180,
      "▁older": 181,
      "▁haste": 182,
      "▁group": 183,
      "▁furn": 184,
      "▁outside": 185,
      "##ade": 186,
      "▁formed": 187,
      "▁experiences": 188,
      "##ires": 189,
      "##mble": 190,
      "##ergy": 191,
      "▁procedures": 192,
      "▁fighter": 193,
      "##ump": 194,
      "▁took": 195,
      "▁breeze": 196,
      "▁pursu": 197,
      "▁1970s": 198,
      "▁wants": 199,
      "▁dispatch": 200,
      "▁bones": 201,
      "▁hoped": 202,
      "▁tell": 203,
      "##oring": 204,
      "▁inde": 205,
      "▁cent": 206,
      "▁tours": 207,
      "▁ruin": 208,
      "##ounds": 209,
      "▁slime": 210,
      "▁steal": 211,
      "▁busy": 212,
      "▁chalk": 213,
      "▁___________": 214,
      "▁abolished": 215,
      "▁enthusi": 216,
      "▁bells": 217,
      "▁citation": 218,
      "##flow": 219,
      "▁traged": 220,
      "▁denial": 221,
      "▁seiz": 222,
      "▁tast": 223,
      "##keepers": 224,
      "▁??": 225,
      "▁infl": 226,
      "▁received": 227,
      "▁ts": 228,
      "##unes": 229,
      "▁salesman": 230,
      "##tiality": 231,
      "▁debtors": 232,
      "##+bee": 233,
      "ε": 234,
      "▁biograph": 235,
      "##ema": 236,
      "▁alert": 237,
      "▁treasure": 238,
      "##izers": 239,
      "▁4th": 240,
      "▁merit": 241,
      "▁hoax": 242,
      "▁valued": 243,
      "▁about": 244,
      "##inent": 245,
      "##-s": 246,
      "▁too": 247,
      "▁negotiations": 248,
      "▁ships": 249,
      "##ians": 250,
      "##iginal": 251,
      "▁burping": 252,
      "▁pedic": 253,
      "▁scott": 254,
      "▁-": 255,
      "▁coc": 256,
      "▁satisf": 257,
      "##inal": 258,
      "▁satisfied": 259,
      "▁conjunction": 260,
      "▁refres": 261,
      "▁nonstop": 262,
      "▁holiday": 263,
      "##4-1.doc": 264,
      "##ually": 265,
      "▁circular": 266,
      "▁judges": 267,
      "▁slowed": 268,
      "##...": 269,
      "▁heading": 270,
      "▁celebr": 271,
      "▁highly": 272,
      "▁blankets": 273,
      "##val": 274,
      "▁dinosaur": 275,
      "##ners": 276,
      "▁foo": 277,
      "##ive": 278,
      "▁artwork": 279,
      "▁quotes": 280,
      "▁console": 281,
      "▁exceptions": 282,
      "▁monsters": 283,
      "▁respons": 284,
      "##ha": 285,
      "##ish": 286,
      "##ucked": 287,
      "▁faun": 288,
      "▁dolphin": 289,
      "##ator": 290,
      "▁tac": 291,
      "▁proceeds": 292,
      "▁knowing": 293,
      "##imate": 294,
      "▁swung": 295,
      "▁stumbled": 296,
      "##ime": 297,
      "▁autob": 298,
      "▁b&b": 299,
      "##ide": 300,
      "##reat": 301,
      "▁declining": 302,
      "▁downtown": 303,
      "##ival": 304,
      "##antom": 305,
      "##awing": 306,
      "▁mech": 307,
      "▁comparisons": 308,
      "▁old": 309,
      "▁alphab": 310,
      "▁blonde": 311,
      "▁rank": 312,
      "▁releasing": 313,
      "▁cookie": 314,
      "▁diarr": 315,
      "▁bending": 316,
      "▁software": 317,
      "▁scientific": 318,
      "▁guaranty": 319,
      "▁manti": 320,
      "▁bridges": 321,
      "▁yellow": 322,
      "▁justification": 323,
      "▁weekday": 324,
      "##’": 325,
      "▁wagging": 326,
      "▁recent": 327,
      "▁generals": 328,
      "▁replied": 329,
      "▁dresses": 330,
      "▁newsgroup": 331,
      "##aki": 332,
      "▁cig": 333,
      "▁variation": 334,
      "▁syria": 335,
      "▁pressure": 336,
      "▁supermarket": 337,
      "▁analysts": 338,
      "##ught": 339,
      "▁cocoa": 340,
      "##ili": 341,
      "▁overr": 342,
      "▁gigg": 343,
      "▁reintroduced": 344,
      "▁rinsed": 345,
      "▁lettuce": 346,
      "▁accessibility": 347,
      "▁octopus": 348,
      "▁starved": 349,
      "▁strengthened": 350,
      "▁fairy": 351,
      "##isted": 352,
      "▁plots": 353,
      "▁amidst": 354,
      "▁tourist": 355,
      "▁heaven": 356,
      "▁cens": 357,
      "▁ser": 358,
      "▁advanced": 359,
      "5": 360,
      "▁moonlight": 361,
      "▁espec": 362,
      "▁analys": 363,
      "▁welcomed": 364,
      "▁sphere": 365,
      "▁sequences": 366,
      "▁date": 367,
      "##–": 368,
      "▁models": 369,
      "▁raccoon": 370,
      "▁deserves": 371,
      "▁itiner": 372,
      "##rella": 373,
      "▁initiate": 374,
      "▁shatter": 375,
      "▁appease": 376,
      "▁blizzard": 377,
      "▁stakes": 378,
      "▁factions": 379,
      "▁extrad": 380,
      "##+----------------": 381,
      "##liament": 382,
      "▁pan-dem": 383,
      "▁eyebrows": 384,
      "▁manufacturing": 385,
      "▁artworks": 386,
      "##mmed": 387,
      "▁highl": 388,
      "▁walls": 389,
      "▁fries": 390,
      "##pack": 391,
      "##²": 392,
      "##ycling": 393,
      "▁boule": 394,
      "▁pension": 395,
      "▁lion": 396,
      "##issed": 397,
      "▁mistake": 398,
      "▁worker": 399,
      "▁bran": 400,
      "▁anime": 401,
      "▁doub": 402,
      "▁immensity": 403,
      "▁doo": 404,
      "▁pinky": 405,
      "▁emer": 406,
      "▁efficient": 407,
      "▁persistence": 408,
      "##macy": 409,
      "##rous": 410,
      "▁ancestry": 411,
      "▁giraff": 412,
      "▁truth": 413,
      "▁soup": 414,
      "▁spaces": 415,
      "▁spite": 416,
      "▁sprouts": 417,
      "▁pronunciation": 418,
      "##tiqu": 419,
      "▁cartoon": 420,
      "##ukes": 421,
      "▁lol": 422,
      "##houses": 423,
      "▁militants": 424,
      "▁adop": 425,
      "▁upset": 426,
      "▁<": 427,
      "▁both": 428,
      "##writ": 429,
      "▁interesting": 430,
      "▁folder": 431,
      "▁undermine": 432,
      "▁recyc": 433,
      "▁tutorial": 434,
      "▁collec": 435,
      "##dity": 436,
      "▁contained": 437,
      "▁must": 438,
      "▁bye": 439,
      "▁uncover": 440,
      "▁eggs": 441,
      "▁toys": 442,
      "##adle": 443,
      "##opes": 444,
      "▁monit": 445,
      "▁kansas": 446,
      "▁dando": 447,
      "##urs": 448,
      "##works": 449,
      "▁reg": 450,
      "▁bush": 451,
      "▁hood": 452,
      "▁vaccines": 453,
      "▁fyi": 454,
      "▁bos": 455,
      "▁18": 456,
      "▁ice": 457,
      "##thers": 458,
      "##affle": 459,
      "▁fired": 460,
      "▁founded": 461,
      "▁texts": 462,
      "▁pumped": 463,
      "▁atmosphere": 464,
      "##spec": 465,
      "x": 466,
      "▁conj": 467,
      "▁surprise": 468,
      "▁***": 469,
      "##ract": 470,
      "##ve": 471,
      "▁rum": 472,
      "▁marshmallow": 473,
      "▁toof": 474,
      "##ups": 475,
      "##aph": 476,
      "##tt": 477,
      "▁crickets": 478,
      "▁hoagie": 479,
      "▁specimens": 480,
      "▁lopez": 481,
      "##llified": 482,
      "▁cognition": 483,
      "▁“": 484,
      "▁tells": 485,
      "▁cures": 486,
      "▁dissolved": 487,
      "##uge": 488,
      "##ative": 489,
      "▁princ": 490,
      "▁sponge": 491,
      "##ple": 492,
      "##xed": 493,
      "▁birthday": 494,
      "▁its": 495,
      "▁mich": 496,
      "▁prevent": 497,
      "##people": 498,
      "▁assu": 499,
      "▁harp": 500,
      "##ucker": 501,
      "▁foreground": 502,
      "▁deleted": 503,
      "▁waitress": 504,
      "▁feathers": 505,
      "##row": 506,
      "▁-----------------": 507,
      "▁nig": 508,
      "▁guests": 509,
      "▁quiet": 510,
      "##y0": 511,
      "▁tel": 512,
      "▁stealing": 513,
      "▁,": 514,
      "##riate": 515,
      "▁thou": 516,
      "##erc": 517,
      "▁sure": 518,
      "▁indi": 519,
      "##ressing": 520,
      "▁plaque": 521,
      "▁flattered": 522,
      "▁wife": 523,
      "▁them": 524,
      "##lips": 525,
      "##orities": 526,
      "▁census": 527,
      "▁discont": 528,
      "▁chandeli": 529,
      "▁falled": 530,
      "▁usually": 531,
      "▁document": 532,
      "▁miracle": 533,
      "▁munic": 534,
      "##.e": 535,
      "▁nipple": 536,
      "▁men": 537,
      "##abit": 538,
      "##iety": 539,
      "##de": 540,
      "##ashington": 541,
      "▁retain": 542,
      "▁damn": 543,
      "##orized": 544,
      "▁writ": 545,
      "▁novell": 546,
      "##eared": 547,
      "▁breaks": 548,
      "##rophe": 549,
      "##asc": 550,
      "##th": 551,
      "▁escape": 552,
      "▁delta": 553,
      "▁measurements": 554,
      "▁transform": 555,
      "▁4": 556,
      "▁brick": 557,
      "▁underp": 558,
      "##sically": 559,
      "▁interests": 560,
      "##under": 561,
      "▁agency": 562,
      "##uil": 563,
      "▁ribs": 564,
      "##estiv": 565,
      "▁kippers": 566,
      "▁fun": 567,
      "▁hero": 568,
      "▁helicopter": 569,
      "▁opportunity": 570,
      "▁puppy": 571,
      "##land": 572,
      "##-8": 573,
      "##ball": 574,
      "▁willingness": 575,
      "▁nud": 576,
      "▁diet": 577,
      "##asts": 578,
      "▁temp": 579,
      "▁student": 580,
      "▁limits": 581,
      "##00": 582,
      "▁mathematicians": 583,
      "##chn": 584,
      "##...@": 585,
      "▁champagne": 586,
      "▁gasped": 587,
      "▁smooth": 588,
      "##ery": 589,
      "##ascience": 590,
      "▁stand": 591,
      "ο": 592,
      "▁laura": 593,
      "▁dair": 594,
      "▁preoc": 595,
      "##edness": 596,
      "##iz": 597,
      "▁steth": 598,
      "##roenter": 599,
      "▁!?": 600,
      "▁virt": 601,
      "##-fe": 602,
      "▁appeared": 603,
      "▁launched": 604,
      "▁foreigners": 605,
      "▁wheels": 606,
      "##ina": 607,
      "▁hym": 608,
      "▁nowhere": 609,
      "##bat": 610,
      "▁guard": 611,
      "▁dimin": 612,
      "##waves": 613,
      "▁delicious": 614,
      "▁appalled": 615,
      "▁spy": 616,
      "▁bet": 617,
      "##ruptc": 618,
      "##iddish": 619,
      "▁tiles": 620,
      "▁infected": 621,
      "##eurs": 622,
      "▁beaten": 623,
      "▁caring": 624,
      "▁echo": 625,
      "▁step": 626,
      "▁west": 627,
      "▁everywhere": 628,
      "▁obtain": 629,
      "▁fut": 630,
      "##ass": 631,
      "▁demonstration": 632,
      "▁boat": 633,
      "▁dow": 634,
      "▁ld2d-#69345": 635,
      "▁mostly": 636,
      "##cret": 637,
      "▁slam": 638,
      "▁smo": 639,
      "▁sub": 640,
      "▁booked": 641,
      "▁admiration": 642,
      "▁toured": 643,
      "##azz": 644,
      "▁prov": 645,
      "▁yrs": 646,
      "▁spotted": 647,
      "▁abused": 648,
      "▁beautiful": 649,
      "##ed": 650,
      "##onated": 651,
      "▁rest": 652,
      "##sting": 653,
      "▁----------------------------------------------------------------------": 654,
      "##auce": 655,
      "▁'ll": 656,
      "##phis": 657,
      "##ocol": 658,
      "▁odds": 659,
      "##6-1.doc": 660,
      "▁joking": 661,
      "▁burrow": 662,
      "▁prepared": 663,
      "▁codependency": 664,
      "##łod": 665,
      "▁communicate": 666,
      "▁novelty": 667,
      "▁–": 668,
      "▁sal": 669,
      "▁intriguing": 670,
      "▁wandering": 671,
      "▁circulation": 672,
      "▁ink": 673,
      "▁congregation": 674,
      "##ially": 675,
      "▁ripped": 676,
      "▁-----------------------------------------------------------------------": 677,
      "▁qual": 678,
      "##70": 679,
      "##fort": 680,
      "▁stretching": 681,
      "▁enab": 682,
      "▁concur": 683,
      "##ginally": 684,
      "▁shuff": 685,
      "▁pillars": 686,
      "▁adorned": 687,
      "##atme": 688,
      "▁resp": 689,
      "##rets": 690,
      "▁appar": 691,
      "▁gaze": 692,
      "▁tunnels": 693,
      "▁parent": 694,
      "##ks": 695,
      "▁emerge": 696,
      "▁soul": 697,
      "▁online": 698,
      "▁conver": 699,
      "##ental": 700,
      "▁spa": 701,
      "##ortly": 702,
      "▁amazing": 703,
      "▁contract": 704,
      "▁instruments": 705,
      "▁extinction": 706,
      "##izz": 707,
      "▁noontime": 708,
      "▁alt.animals.d": 709,
      "▁mile": 710,
      "▁argued": 711,
      "##dam": 712,
      "▁russ": 713,
      ",": 714,
      "▁koala": 715,
      "▁gtee": 716,
      "▁prosecutor": 717,
      "##ibility": 718,
      "##izes": 719,
      "▁sweeping": 720,
      "▁respon": 721,
      "▁his": 722,
      "##osure": 723,
      "##owing": 724,
      "▁aft": 725,
      "▁thrown": 726,
      "##els": 727,
      "##47": 728,
      "▁sati": 729,
      "##hu": 730,
      "▁dive": 731,
      "▁byebye": 732,
      "##0's": 733,
      "▁cartoons": 734,
      "▁violence": 735,
      "▁tendencies": 736,
      "##irm": 737,
      "▁communication": 738,
      "▁cameras": 739,
      "▁pardon": 740,
      "▁lend": 741,
      "▁raised": 742,
      "▁poetry": 743,
      "▁legal": 744,
      "▁rul": 745,
      "▁earthqu": 746,
      "▁dispute": 747,
      "▁click": 748,
      "##ellow": 749,
      "##order": 750,
      "▁is": 751,
      "▁category": 752,
      "▁driveway": 753,
      "▁political": 754,
      "▁slowly": 755,
      "­": 756,
      "▁disconnect": 757,
      "▁1st": 758,
      "▁crooks": 759,
      "##pec": 760,
      "▁beck": 761,
      "▁platted": 762,
      "▁wrote": 763,
      "▁omn": 764,
      "▁isolated": 765,
      "##adsheet": 766,
      "▁mater": 767,
      "▁recite": 768,
      "▁money": 769,
      "##igious": 770,
      "▁calf": 771,
      "▁veget": 772,
      "##erta": 773,
      "▁freight": 774,
      "▁peas": 775,
      "▁basis": 776,
      "▁consideration": 777,
      "▁reit": 778,
      "▁without": 779,
      "▁works": 780,
      "▁deprived": 781,
      "▁finalize": 782,
      "▁enjoyment": 783,
      "▁proud": 784,
      "▁string": 785,
      "▁weeds": 786,
      "▁horsesho": 787,
      "▁another": 788,
      "▁tide": 789,
      "##iots": 790,
      "▁hardware": 791,
      "▁balloons": 792,
      "▁disaster": 793,
      "▁sections": 794,
      "▁realized": 795,
      "▁democratic": 796,
      "##ips": 797,
      "▁competi": 798,
      "▁:?": 799,
      "▁enjoyed": 800,
      "▁processor": 801,
      "▁broadc": 802,
      "▁shun": 803,
      "▁chris": 804,
      "▁synthes": 805,
      "▁infrastruc": 806,
      "▁flap": 807,
      "▁bead": 808,
      "▁noise": 809,
      "▁mayor": 810,
      "▁astronom": 811,
      "▁sculpture": 812,
      "▁john": 813,
      "##ici": 814,
      "▁pain": 815,
      "▁composition": 816,
      "▁timed": 817,
      "▁reject": 818,
      "▁stomachs": 819,
      "▁default": 820,
      "▁throat": 821,
      "▁vis": 822,
      "▁although": 823,
      "▁turkey": 824,
      "▁whist": 825,
      "▁assigned": 826,
      "▁2010": 827,
      "▁guys": 828,
      "##erarch": 829,
      "▁condition": 830,
      "▁spike": 831,
      "▁loi": 832,
      "▁including": 833,
      "##-w": 834,
      "##ssi": 835,
      "##ingle": 836,
      "▁visu": 837,
      "▁fixtures": 838,
      "▁descri": 839,
      "▁chefs": 840,
      "##driver": 841,
      "▁succeed": 842,
      "▁striking": 843,
      "▁worry": 844,
      "▁convictions": 845,
      "▁treatise": 846,
      "▁questionnaire": 847,
      "▁technology": 848,
      "▁abs": 849,
      "▁attic": 850,
      "##ei": 851,
      "▁forefinger": 852,
      "▁interference": 853,
      "▁pakistan": 854,
      "##ectiveness": 855,
      "▁revol": 856,
      "▁donkey": 857,
      "▁cry": 858,
      "▁ranked": 859,
      "▁am": 860,
      "▁presented": 861,
      "▁dead": 862,
      "##elag": 863,
      "▁marrying": 864,
      "▁licked": 865,
      "##reds": 866,
      "▁ur": 867,
      "##enses": 868,
      "▁compr": 869,
      "▁revised": 870,
      "▁interpretations": 871,
      "##ll": 872,
      "▁despite": 873,
      "▁already": 874,
      "▁shark": 875,
      "▁dreamed": 876,
      "▁twins": 877,
      "▁fabrications": 878,
      "▁nickname": 879,
      "▁battle": 880,
      "▁miscon": 881,
      "▁cupcakes": 882,
      "▁equ": 883,
      "▁moving": 884,
      "▁reduc": 885,
      "##lly": 886,
      "▁homes": 887,
      "▁count": 888,
      "▁locomotive": 889,
      "##nut": 890,
      "▁bounces": 891,
      "▁mull": 892,
      "▁whit": 893,
      "##hic": 894,
      "▁elim": 895,
      "ɑ": 896,
      "▁lasting": 897,
      "▁battling": 898,
      "##asses": 899,
      "▁northeast": 900,
      "▁shining": 901,
      "▁mac": 902,
      "▁concluding": 903,
      "▁sparks": 904,
      "##ok": 905,
      "##aly": 906,
      "##person": 907,
      "▁ministry": 908,
      "##enly": 909,
      "##lands": 910,
      "▁waffle": 911,
      "▁muse": 912,
      "▁sends": 913,
      "▁pir": 914,
      "▁idiot": 915,
      "▁imposed": 916,
      "▁customizing": 917,
      "▁delay": 918,
      "▁scale": 919,
      "▁reaching": 920,
      "##ican": 921,
      "▁loved": 922,
      "▁cider": 923,
      "▁killing": 924,
      "▁awards": 925,
      "▁ma": 926,
      "▁sixth": 927,
      "▁male": 928,
      "▁bottle": 929,
      "▁towns": 930,
      "##imately": 931,
      "##maid": 932,
      "▁pouch": 933,
      "▁muttered": 934,
      "▁stands": 935,
      "▁purple": 936,
      "▁stud": 937,
      "▁section": 938,
      "▁bart": 939,
      "▁ton": 940,
      "##:00": 941,
      "▁counterfeiting": 942,
      "##acks": 943,
      "▁attem": 944,
      "▁opponent": 945,
      "▁heels": 946,
      "##ux": 947,
      "▁tires": 948,
      "▁oatmeal": 949,
      "▁spir": 950,
      "▁protections": 951,
      "▁fab": 952,
      "▁playroom": 953,
      "▁dollie": 954,
      "▁whee": 955,
      "▁crews": 956,
      "##lav": 957,
      "▁br": 958,
      "▁affairs": 959,
      "▁serving": 960,
      "##3n": 961,
      "▁themselves": 962,
      "##nch": 963,
      "##orders": 964,
      "▁anti": 965,
      "▁appears": 966,
      "▁soap": 967,
      "▁motiv": 968,
      "▁pat": 969,
      "##onym": 970,
      "##ius": 971,
      "▁ev": 972,
      "▁programmes": 973,
      "##uts": 974,
      "▁slippers": 975,
      "▁staffed": 976,
      "▁envoy": 977,
      "▁cin": 978,
      "▁bounds": 979,
      "▁analyses": 980,
      "▁extension": 981,
      "▁championship": 982,
      "##apanese": 983,
      "▁?????": 984,
      "▁emotion": 985,
      "▁`": 986,
      "▁saviour": 987,
      "##writer": 988,
      "##arized": 989,
      "▁rin": 990,
      "##ak": 991,
      "▁dine": 992,
      "▁wiggleworm": 993,
      "##ick": 994,
      "▁lib": 995,
      "▁hear": 996,
      "▁existed": 997,
      "▁beginner": 998,
      "##ena": 999,
      "##gatory": 1000,
      "▁roo": 1001,
      "▁twice": 1002,
      "▁laund": 1003,
      "▁orchest": 1004,
      "▁add": 1005,
      "▁possessed": 1006,
      "▁massac": 1007,
      "##cedent": 1008,
      "▁cockati": 1009,
      "▁statements": 1010,
      "ə": 1011,
      "▁snows": 1012,
      "▁viewers": 1013,
      "▁television": 1014,
      "▁think": 1015,
      "##cel": 1016,
      "##lu": 1017,
      "▁informed": 1018,
      "▁drowning": 1019,
      "▁obsf": 1020,
      "##ca": 1021,
      "▁inclusion": 1022,
      "▁kinematics": 1023,
      "▁?!?": 1024,
      "▁mounds": 1025,
      "##step": 1026,
      "##17": 1027,
      "▁particle": 1028,
      "▁tens": 1029,
      "##iddit": 1030,
      "▁seafood": 1031,
      "▁fren": 1032,
      "##antiation": 1033,
      "▁rowing": 1034,
      "##ottable": 1035,
      "▁researchers": 1036,
      "▁od": 1037,
      "▁departure": 1038,
      "▁doggy": 1039,
      "▁rat": 1040,
      "▁guidelines": 1041,
      "▁absorb": 1042,
      "▁sleepy": 1043,
      "▁gaz": 1044,
      "▁sinus": 1045,
      "##istor": 1046,
      "▁relig": 1047,
      "▁connecting": 1048,
      "▁reservation": 1049,
      "▁protests": 1050,
      "▁labels": 1051,
      "##7-1.doc": 1052,
      "▁block": 1053,
      "▁five": 1054,
      "▁companion": 1055,
      "▁discipline": 1056,
      "▁philadel": 1057,
      "▁spos": 1058,
      "##boy": 1059,
      "▁drawstring": 1060,
      "▁tok": 1061,
      "▁ap": 1062,
      "▁gov": 1063,
      "▁decades": 1064,
      "##org": 1065,
      "▁load": 1066,
      "##uh": 1067,
      "▁famous": 1068,
      "▁imbalance": 1069,
      "▁descriptions": 1070,
      "▁reapp": 1071,
      "▁answering": 1072,
      "▁bandaid": 1073,
      "▁magician": 1074,
      "##ioned": 1075,
      "▁olives": 1076,
      "▁prototype": 1077,
      "##rist": 1078,
      "▁mum": 1079,
      "▁rumors": 1080,
      "▁prey": 1081,
      "▁teeth": 1082,
      "▁assumptions": 1083,
      "▁attempted": 1084,
      "▁bulldozer": 1085,
      "▁administr": 1086,
      "▁gates": 1087,
      "▁expectancy": 1088,
      "▁tokyo": 1089,
      "##cking": 1090,
      "▁magnet": 1091,
      "##tain": 1092,
      "▁oils": 1093,
      "##finger": 1094,
      "##titions": 1095,
      "▁yesterday": 1096,
      "▁inscri": 1097,
      "##loth": 1098,
      "▁rasp": 1099,
      "##cessarily": 1100,
      "▁setting": 1101,
      "##rehension": 1102,
      "▁natural": 1103,
      "##aties": 1104,
      "▁exercise": 1105,
      "▁entry": 1106,
      "##ception": 1107,
      "##eration": 1108,
      "▁operated": 1109,
      "▁gazed": 1110,
      "##ament": 1111,
      "▁negotiating": 1112,
      "##ecting": 1113,
      "▁nuis": 1114,
      "##alth": 1115,
      "▁mutil": 1116,
      "##not": 1117,
      "▁spinning": 1118,
      "▁replaced": 1119,
      "##ust": 1120,
      "##rism": 1121,
      "▁consult": 1122,
      "▁crops": 1123,
      "▁adds": 1124,
      "▁regulate": 1125,
      "▁flooring": 1126,
      "▁disliked": 1127,
      "##ugg": 1128,
      "▁steamer": 1129,
      "▁marketers": 1130,
      "▁retrospect": 1131,
      "▁fac": 1132,
      "##zing": 1133,
      "▁nylon": 1134,
      "▁shines": 1135,
      "##hs": 1136,
      "▁bull": 1137,
      "▁meowing": 1138,
      "▁travellers": 1139,
      "##aw": 1140,
      "▁subscribers": 1141,
      "##ason": 1142,
      "▁ld2d-#6939": 1143,
      "▁entirely": 1144,
      "▁transmit": 1145,
      "▁basic": 1146,
      "▁enrongss.xls": 1147,
      "▁famili": 1148,
      "##enc": 1149,
      "▁confir": 1150,
      "▁expression": 1151,
      "▁falls": 1152,
      "▁illustration": 1153,
      "▁gpa": 1154,
      "▁hung": 1155,
      "▁orph": 1156,
      "▁organiz": 1157,
      "▁mr.": 1158,
      "##90": 1159,
      "##len": 1160,
      "▁diagram": 1161,
      "##osing": 1162,
      "▁american": 1163,
      "▁salt": 1164,
      "▁seeing": 1165,
      "▁******************************************************************": 1166,
      "▁ancestors": 1167,
      "▁http://www": 1168,
      "##opath": 1169,
      "▁liquor": 1170,
      "▁incen": 1171,
      "##stairs": 1172,
      "##t": 1173,
      "▁cere": 1174,
      "▁babies": 1175,
      "▁uma": 1176,
      "##utiny": 1177,
      "▁wed": 1178,
      "##ression": 1179,
      "▁pros": 1180,
      "▁longing": 1181,
      "▁lotos": 1182,
      "##ct": 1183,
      "▁orient": 1184,
      "▁withdrawing": 1185,
      "##ondad": 1186,
      "##.doc": 1187,
      "▁spinach": 1188,
      "▁cinema": 1189,
      "##gue": 1190,
      "▁interpretation": 1191,
      "##ycle": 1192,
      "▁hesitation": 1193,
      "▁nashville": 1194,
      "▁tip": 1195,
      "▁more": 1196,
      "##13": 1197,
      "▁reproduc": 1198,
      "##wards": 1199,
      "▁insight": 1200,
      "##itage": 1201,
      "▁engineering": 1202,
      "▁just": 1203,
      "▁spray": 1204,
      "##ket": 1205,
      "##ging": 1206,
      "##uct": 1207,
      "▁gon": 1208,
      "##icomed": 1209,
      "##ateral": 1210,
      "##elle": 1211,
      "▁kilometres": 1212,
      "##xce": 1213,
      "##'t": 1214,
      "▁pops": 1215,
      "##ply": 1216,
      "##ock": 1217,
      "▁background": 1218,
      "▁advancement": 1219,
      "▁homeland": 1220,
      "▁garden": 1221,
      "▁myth": 1222,
      "▁displayed": 1223,
      "f": 1224,
      "▁ecodesign": 1225,
      "▁poet": 1226,
      "▁ld2d-#693": 1227,
      "▁align": 1228,
      "##ovation": 1229,
      "▁ankle": 1230,
      "##ients": 1231,
      "##aven": 1232,
      "##ugged": 1233,
      "▁worst": 1234,
      "##chie": 1235,
      "▁sad": 1236,
      "▁accomplishment": 1237,
      "▁executive": 1238,
      "▁fire": 1239,
      "▁advertis": 1240,
      "##ru": 1241,
      "▁crawl": 1242,
      "##rums": 1243,
      "##eline": 1244,
      "▁sketch": 1245,
      "▁fri": 1246,
      "▁mi": 1247,
      "▁because": 1248,
      "▁missed": 1249,
      "▁tale": 1250,
      "▁oppose": 1251,
      "▁curric": 1252,
      "##****": 1253,
      "▁1980s": 1254,
      "▁guiding": 1255,
      "▁accuracy": 1256,
      "▁enclosure": 1257,
      "##piece": 1258,
      "▁proposed": 1259,
      "▁overalls": 1260,
      "▁hij": 1261,
      "▁increased": 1262,
      "▁lineatus": 1263,
      "##-------": 1264,
      "##arters": 1265,
      "▁pd": 1266,
      "▁regarded": 1267,
      "▁limestone": 1268,
      "▁sentences": 1269,
      "▁cel": 1270,
      "##cause": 1271,
      "▁people": 1272,
      "▁organisation": 1273,
      "##acked": 1274,
      "▁extremist": 1275,
      "##where": 1276,
      "▁displays": 1277,
      "▁ruled": 1278,
      "##itioned": 1279,
      "##ather": 1280,
      "##aria": 1281,
      "▁retaliation": 1282,
      "▁infection": 1283,
      "▁somewh": 1284,
      "▁cupboard": 1285,
      "▁technologies": 1286,
      "▁graduates": 1287,
      "▁wisdom": 1288,
      "|": 1289,
      "▁illust": 1290,
      "▁indicator": 1291,
      "▁ais": 1292,
      "##=": 1293,
      "##orkers": 1294,
      "▁seem": 1295,
      "▁lace": 1296,
      "##ived": 1297,
      "▁iodine": 1298,
      "▁fireplace": 1299,
      "▁judge": 1300,
      "##ination": 1301,
      "▁agrees": 1302,
      "▁whoo": 1303,
      "▁prin": 1304,
      "▁available": 1305,
      "##cat": 1306,
      "▁scuba": 1307,
      "▁construction": 1308,
      "▁aught": 1309,
      "▁agreeing": 1310,
      "▁license": 1311,
      "▁broom": 1312,
      "▁occasionally": 1313,
      "##os": 1314,
      "▁faced": 1315,
      "▁alligator": 1316,
      "▁region": 1317,
      "▁considered": 1318,
      "##/c": 1319,
      "▁disasters": 1320,
      "▁authorities": 1321,
      "▁crayons": 1322,
      "##pir": 1323,
      "▁handling": 1324,
      "▁finally": 1325,
      "▁bod": 1326,
      "▁directives": 1327,
      "##but": 1328,
      "▁individuals": 1329,
      "##ati": 1330,
      "▁letters": 1331,
      "▁neighbourhood": 1332,
      "▁sliding": 1333,
      "##erate": 1334,
      "▁adjusting": 1335,
      "##perc": 1336,
      "▁glancing": 1337,
      "▁wheeled": 1338,
      "▁armaments": 1339,
      "▁parish": 1340,
      "▁glim": 1341,
      "▁stip": 1342,
      "##irst": 1343,
      "▁cc": 1344,
      "▁aph": 1345,
      "▁realize": 1346,
      "▁ignorance": 1347,
      "▁pixies": 1348,
      "i": 1349,
      "▁officers": 1350,
      "▁math": 1351,
      "▁tand": 1352,
      "▁shouting": 1353,
      "▁easter": 1354,
      "▁resour": 1355,
      "▁eczema": 1356,
      "▁speculation": 1357,
      "##ali": 1358,
      "▁collab": 1359,
      "##sely": 1360,
      "▁sizes": 1361,
      "▁pound": 1362,
      "##ategy": 1363,
      "##time": 1364,
      "▁oozing": 1365,
      "##imited": 1366,
      "##ratic": 1367,
      "▁teef": 1368,
      "▁sailors": 1369,
      "▁notice": 1370,
      "▁bankruptc": 1371,
      "▁buffet": 1372,
      "##hi": 1373,
      "##ailed": 1374,
      "▁spanish": 1375,
      "▁bli": 1376,
      "▁france": 1377,
      "##ogging": 1378,
      "##erings": 1379,
      "▁apparently": 1380,
      "▁baby": 1381,
      "##ulations": 1382,
      "▁reas": 1383,
      "▁ambul": 1384,
      "##veral": 1385,
      "##fares": 1386,
      "##icking": 1387,
      "▁usurp": 1388,
      "▁possesses": 1389,
      "##irs": 1390,
      "▁ours": 1391,
      "▁traff": 1392,
      "▁infuse": 1393,
      "▁reaction": 1394,
      "▁itself": 1395,
      "▁symbol": 1396,
      "▁producing": 1397,
      "▁schedul": 1398,
      "▁cust": 1399,
      "▁isl": 1400,
      "##ations": 1401,
      "▁cared": 1402,
      "▁grounded": 1403,
      "▁ect": 1404,
      "▁victim": 1405,
      "##itting": 1406,
      "##-life": 1407,
      "▁---------------------------------------------------------------------": 1408,
      "▁cup": 1409,
      "##ief": 1410,
      "▁palm": 1411,
      "▁capit": 1412,
      "▁hotdogs": 1413,
      "▁tom": 1414,
      "▁accused": 1415,
      "▁toothpaste": 1416,
      "▁drinking": 1417,
      "##agged": 1418,
      "##ls": 1419,
      "▁tor": 1420,
      "▁scissors": 1421,
      "▁disregard": 1422,
      "▁heart": 1423,
      "▁struc": 1424,
      "▁insights": 1425,
      "##dents": 1426,
      "▁essay": 1427,
      "▁stocks": 1428,
      "▁yourselves": 1429,
      "▁sewed": 1430,
      "▁agg": 1431,
      "##gill": 1432,
      "##ans": 1433,
      "▁policymakers": 1434,
      "▁assign": 1435,
      "▁mob": 1436,
      "▁preferred": 1437,
      "##ets": 1438,
      "▁****": 1439,
      "▁berries": 1440,
      "##way": 1441,
      "##fos": 1442,
      "▁consistency": 1443,
      "▁accompanied": 1444,
      "▁filmed": 1445,
      "▁caterpillars": 1446,
      "▁islam": 1447,
      "##ertain": 1448,
      "▁dough": 1449,
      "▁hip": 1450,
      "▁associ": 1451,
      "▁attachments": 1452,
      "▁embargo": 1453,
      "##tax": 1454,
      "##ley": 1455,
      "▁motives": 1456,
      "▁ostrich": 1457,
      "▁rav": 1458,
      "▁entity": 1459,
      "##encies": 1460,
      "▁degre": 1461,
      "▁ports": 1462,
      "▁carpet": 1463,
      "##ess": 1464,
      "##pay": 1465,
      "▁moder": 1466,
      "##uff": 1467,
      "▁users": 1468,
      "##ignment": 1469,
      "▁give": 1470,
      "▁despair": 1471,
      "▁influenced": 1472,
      "##ufact": 1473,
      "▁ruts": 1474,
      "▁fol": 1475,
      "▁browsers": 1476,
      "▁jewelry": 1477,
      "▁beneath": 1478,
      "▁wip": 1479,
      ";": 1480,
      "▁swim": 1481,
      "▁flex": 1482,
      "▁overthrow": 1483,
      "##pan": 1484,
      "▁9th": 1485,
      "▁interjection": 1486,
      "▁sweep": 1487,
      "##tification": 1488,
      "▁movement": 1489,
      "▁lik": 1490,
      "▁shov": 1491,
      "▁cyclone": 1492,
      "##........": 1493,
      "▁planes": 1494,
      "▁tod": 1495,
      "▁kidn": 1496,
      "▁dese": 1497,
      "##essed": 1498,
      "##igh": 1499,
      "▁consorti": 1500,
      "##edings": 1501,
      "##==": 1502,
      "##cer": 1503,
      "##ill": 1504,
      "▁with": 1505,
      "▁jurisdiction": 1506,
      "▁pose": 1507,
      "▁counted": 1508,
      "▁chan": 1509,
      "##rusted": 1510,
      "▁ter": 1511,
      "▁children": 1512,
      "▁wifi": 1513,
      "▁ph": 1514,
      "##ω": 1515,
      "▁export": 1516,
      "▁amm": 1517,
      "##olation": 1518,
      "▁israeli": 1519,
      "##ctly": 1520,
      "▁bowf": 1521,
      "▁dancers": 1522,
      "▁councillors": 1523,
      "▁husband": 1524,
      "β": 1525,
      "▁miam": 1526,
      "##rew": 1527,
      "▁scaring": 1528,
      "▁curtains": 1529,
      "##idding": 1530,
      "##vening": 1531,
      "▁inno": 1532,
      "▁calendar": 1533,
      "##mor": 1534,
      "▁firm": 1535,
      "▁seamst": 1536,
      "##usion": 1537,
      "▁folk": 1538,
      "▁pan": 1539,
      "▁rhy": 1540,
      "▁canes": 1541,
      "▁gas": 1542,
      "▁cape": 1543,
      "▁success": 1544,
      "▁hairdresser": 1545,
      "##atten": 1546,
      "##pet": 1547,
      "▁modes": 1548,
      "▁stub": 1549,
      "##ice": 1550,
      "▁hidden": 1551,
      "▁overc": 1552,
      "▁travelers": 1553,
      "▁units": 1554,
      "▁discussions": 1555,
      "▁smugg": 1556,
      "▁dope": 1557,
      "▁encoun": 1558,
      "##ateg": 1559,
      "▁conforms": 1560,
      "##-sh": 1561,
      "▁highest": 1562,
      "▁woud": 1563,
      "e": 1564,
      "▁however": 1565,
      "▁try": 1566,
      "##cing": 1567,
      "▁loading": 1568,
      "▁running": 1569,
      "▁trainers": 1570,
      "▁encomp": 1571,
      "##orp": 1572,
      "▁certificates": 1573,
      "▁assuming": 1574,
      "▁fringes": 1575,
      "▁'d": 1576,
      "▁singing": 1577,
      "▁eagle": 1578,
      "##ograph": 1579,
      "▁setup": 1580,
      "##read": 1581,
      "▁telling": 1582,
      "▁submits": 1583,
      "▁hype": 1584,
      "▁detractors": 1585,
      "▁noses": 1586,
      "▁vomiting": 1587,
      "▁coloni": 1588,
      "##yb": 1589,
      "▁wea": 1590,
      "##eet": 1591,
      "▁welf": 1592,
      "▁gym": 1593,
      "▁cause": 1594,
      "##giveness": 1595,
      "▁silkie": 1596,
      "##pill": 1597,
      "##ition": 1598,
      "##dock": 1599,
      "▁visits": 1600,
      "▁regions": 1601,
      "▁refus": 1602,
      "▁evolving": 1603,
      "▁pattern": 1604,
      "▁scenario": 1605,
      "##ained": 1606,
      "▁talked": 1607,
      "▁plot": 1608,
      "▁chips": 1609,
      "▁thieves": 1610,
      "▁rough": 1611,
      "▁options": 1612,
      "▁patience": 1613,
      "▁oh": 1614,
      "▁edges": 1615,
      "▁recover": 1616,
      "▁persp": 1617,
      "##iny": 1618,
      "▁soldiers": 1619,
      "▁design": 1620,
      "▁mixture": 1621,
      "▁purse": 1622,
      "▁employed": 1623,
      "▁birdie": 1624,
      "##arians": 1625,
      "▁updating": 1626,
      "▁father": 1627,
      "▁incub": 1628,
      "▁roast": 1629,
      "▁extradited": 1630,
      "▁chasing": 1631,
      "▁delive": 1632,
      "▁stages": 1633,
      "▁authors": 1634,
      "▁tri": 1635,
      "##sl": 1636,
      "▁unf": 1637,
      "▁ree": 1638,
      "##opard": 1639,
      "##oween": 1640,
      "▁charlie": 1641,
      "▁riding": 1642,
      "▁pockets": 1643,
      "▁ought": 1644,
      "▁henry": 1645,
      "▁mim": 1646,
      "▁bans": 1647,
      "▁dentist": 1648,
      "##chored": 1649,
      "▁extremely": 1650,
      "##inea": 1651,
      "▁baseball": 1652,
      "▁expensive": 1653,
      "▁unre": 1654,
      "##8": 1655,
      "▁declarations": 1656,
      "▁bakes": 1657,
      "▁chas": 1658,
      "▁occur": 1659,
      "▁taken": 1660,
      "▁inc": 1661,
      "▁carolina": 1662,
      "##onna": 1663,
      "▁au": 1664,
      "▁pregnancy": 1665,
      "▁stuffed": 1666,
      "▁solution": 1667,
      "##ˈ": 1668,
      "▁limited": 1669,
      "▁instant": 1670,
      "▁displaying": 1671,
      "▁ribbon": 1672,
      "##let": 1673,
      "▁volunteer": 1674,
      "▁intended": 1675,
      "▁pile": 1676,
      "▁anxiety": 1677,
      "▁indicated": 1678,
      "##alt": 1679,
      "▁pairs": 1680,
      "▁protecting": 1681,
      "▁denying": 1682,
      "▁her": 1683,
      "##rong": 1684,
      "▁competing": 1685,
      "##rality": 1686,
      "▁regulation": 1687,
      "▁chaps": 1688,
      "▁trickle": 1689,
      "▁developer": 1690,
      "##icks": 1691,
      "▁expectation": 1692,
      "▁tacos": 1693,
      "▁figure": 1694,
      "▁yiel": 1695,
      "▁interact": 1696,
      "##men": 1697,
      "▁die": 1698,
      "▁carry": 1699,
      "▁religious": 1700,
      "▁temper": 1701,
      "##yn": 1702,
      "##ystem": 1703,
      "##ressor": 1704,
      "##ectives": 1705,
      "▁professionals": 1706,
      "▁french": 1707,
      "▁memories": 1708,
      "##eep": 1709,
      "▁free": 1710,
      "▁spectrum": 1711,
      "▁yours": 1712,
      "▁prospect": 1713,
      "▁amendments": 1714,
      "▁hive": 1715,
      "▁detroit": 1716,
      "▁brows": 1717,
      "##ossible": 1718,
      "▁streak": 1719,
      "##6th": 1720,
      "▁mediation": 1721,
      "▁visa": 1722,
      "▁ehrm": 1723,
      "▁continental": 1724,
      "##ble": 1725,
      "▁ber": 1726,
      "##eats": 1727,
      "▁slumped": 1728,
      "▁ex": 1729,
      "▁details": 1730,
      "▁calling": 1731,
      "▁length": 1732,
      "▁ginger": 1733,
      "▁germany": 1734,
      "▁replacing": 1735,
      "##ising": 1736,
      "▁mistakes": 1737,
      "▁cope": 1738,
      "##so": 1739,
      "##run": 1740,
      "##pi": 1741,
      "##oke": 1742,
      "▁rit": 1743,
      "▁envelop": 1744,
      "▁extradition": 1745,
      "▁louis": 1746,
      "▁mailing": 1747,
      "▁modules": 1748,
      "▁blind": 1749,
      "▁linking": 1750,
      "##zed": 1751,
      "▁emph": 1752,
      "▁remain": 1753,
      "▁chess": 1754,
      "▁wit": 1755,
      "##nik": 1756,
      "▁stringing": 1757,
      "▁according": 1758,
      "▁digest": 1759,
      "▁sant": 1760,
      "▁nar": 1761,
      "▁hoping": 1762,
      "##bo": 1763,
      "▁tile": 1764,
      "##ario": 1765,
      "▁affirm": 1766,
      "▁sang": 1767,
      "▁signs": 1768,
      "▁invo": 1769,
      "▁fed": 1770,
      "▁pecking": 1771,
      "▁futures": 1772,
      "▁throu": 1773,
      "▁prefer": 1774,
      "▁vehicle": 1775,
      "##ence": 1776,
      "▁referendum": 1777,
      "▁soybean": 1778,
      "▁contested": 1779,
      "##anch": 1780,
      "▁minut": 1781,
      "##ledge": 1782,
      "▁shut": 1783,
      "##top": 1784,
      "##uling": 1785,
      "##anish": 1786,
      "▁center": 1787,
      "▁uva": 1788,
      "▁funeral": 1789,
      "▁foc": 1790,
      "##ptions": 1791,
      "▁discouraging": 1792,
      "▁plag": 1793,
      "▁wails": 1794,
      "▁mummy": 1795,
      "##born": 1796,
      "▁tripped": 1797,
      "##6": 1798,
      "▁proficiency": 1799,
      "##yalty": 1800,
      "▁ship": 1801,
      "##hf": 1802,
      "▁scre": 1803,
      "▁misery": 1804,
      "▁maybe": 1805,
      "▁coach": 1806,
      "##!!!": 1807,
      "▁shocked": 1808,
      "▁golf": 1809,
      "▁by": 1810,
      "##lit": 1811,
      "##ini": 1812,
      "▁treating": 1813,
      "▁told": 1814,
      "▁located": 1815,
      "##oth": 1816,
      "▁heater": 1817,
      "▁coat": 1818,
      "▁residents": 1819,
      "▁intrud": 1820,
      "▁dev": 1821,
      "▁coconut": 1822,
      "##aps": 1823,
      "▁d2": 1824,
      "▁effects": 1825,
      "▁v02": 1826,
      "▁defin": 1827,
      "▁label": 1828,
      "##gre": 1829,
      "▁storm": 1830,
      "##liance": 1831,
      "▁needing": 1832,
      "##ologue": 1833,
      "▁lighting": 1834,
      "▁mrs": 1835,
      "##hol": 1836,
      "▁angel": 1837,
      "▁net": 1838,
      "▁det": 1839,
      "##•": 1840,
      "▁countrymen": 1841,
      "▁marshmall": 1842,
      "▁roms": 1843,
      "▁al": 1844,
      "##itic": 1845,
      "▁captured": 1846,
      "▁bud": 1847,
      "▁inspire": 1848,
      "▁ballet": 1849,
      "▁combination": 1850,
      "▁whistle": 1851,
      "▁pretext": 1852,
      "▁categories": 1853,
      "▁drinks": 1854,
      "##oner": 1855,
      "▁tugging": 1856,
      "▁shrapnel": 1857,
      "▁contexts": 1858,
      "▁flo": 1859,
      "▁wav": 1860,
      "▁accepting": 1861,
      "▁nominated": 1862,
      "▁profess": 1863,
      "▁cleaning": 1864,
      "##itude": 1865,
      "▁differences": 1866,
      "##hed": 1867,
      "▁crap": 1868,
      "##ortions": 1869,
      "▁abcs": 1870,
      "▁pump": 1871,
      "▁dried": 1872,
      "▁pers": 1873,
      "▁sme": 1874,
      "##acle": 1875,
      "▁psychology": 1876,
      "▁wave": 1877,
      "##asi": 1878,
      "▁banj": 1879,
      "##bur": 1880,
      "▁sports": 1881,
      "▁tos": 1882,
      "▁thanking": 1883,
      "##anne": 1884,
      "##ocation": 1885,
      "▁chinese": 1886,
      "##cts": 1887,
      "▁prog": 1888,
      "##yroc": 1889,
      "▁managing": 1890,
      "▁jeep": 1891,
      "▁tie": 1892,
      "##----------": 1893,
      "##onents": 1894,
      "▁departures": 1895,
      "▁subscribe": 1896,
      "##-in": 1897,
      "##gulation": 1898,
      "##ightly": 1899,
      "▁year": 1900,
      "▁strengthen": 1901,
      "▁waist": 1902,
      "▁quickly": 1903,
      "▁minn": 1904,
      "▁hid": 1905,
      "▁ride": 1906,
      "##onin": 1907,
      "▁widely": 1908,
      "##ultural": 1909,
      "##eeds": 1910,
      "▁p.": 1911,
      "##lessness": 1912,
      "▁resilience": 1913,
      "##jud": 1914,
      "##--------": 1915,
      "▁conclusion": 1916,
      "▁o'clock": 1917,
      "▁dignit": 1918,
      "▁desir": 1919,
      "▁worries": 1920,
      "▁libr": 1921,
      "▁marks": 1922,
      "▁intellect": 1923,
      "▁''": 1924,
      "▁requires": 1925,
      "▁guessed": 1926,
      "▁undertaken": 1927,
      "▁contributing": 1928,
      "▁contrib": 1929,
      "▁intran": 1930,
      "▁flav": 1931,
      "▁completed": 1932,
      "▁efficiency": 1933,
      "##vily": 1934,
      "▁sperm": 1935,
      "##name": 1936,
      "▁disciples": 1937,
      "##outu": 1938,
      "##iew": 1939,
      "▁amounts": 1940,
      "▁david": 1941,
      "▁infections": 1942,
      "▁mult": 1943,
      "##ς": 1944,
      "##&": 1945,
      "▁tankers": 1946,
      "▁roles": 1947,
      "▁auction": 1948,
      "▁’": 1949,
      "▁and": 1950,
      "▁cookies": 1951,
      "▁vernon": 1952,
      "▁dude": 1953,
      "▁tips": 1954,
      "▁pressed": 1955,
      "▁does": 1956,
      "▁actress": 1957,
      "▁alley": 1958,
      "##ook": 1959,
      "▁war": 1960,
      "▁pictures": 1961,
      "▁avo": 1962,
      "▁paul": 1963,
      "##ities": 1964,
      "▁mathematics": 1965,
      "▁beetles": 1966,
      "▁governor": 1967,
      "##aked": 1968,
      "▁rac": 1969,
      "##worms": 1970,
      "▁graves": 1971,
      "▁spe": 1972,
      "▁calculations": 1973,
      "▁banners": 1974,
      "▁partner": 1975,
      "##elessness": 1976,
      "▁vern": 1977,
      "▁environmental": 1978,
      "▁sighed": 1979,
      "##ature": 1980,
      "##edicated": 1981,
      "▁warning": 1982,
      "▁concluded": 1983,
      "▁interviewed": 1984,
      "▁aer": 1985,
      "##omp": 1986,
      "▁deli": 1987,
      "▁pion": 1988,
      "▁example": 1989,
      "▁vlog": 1990,
      "▁updates": 1991,
      "▁obedience": 1992,
      "##ouging": 1993,
      "▁mids": 1994,
      "##awed": 1995,
      "▁higher": 1996,
      "ʊ": 1997,
      "▁weake": 1998,
      "▁snitch": 1999,
      "▁moral": 2000,
      "▁hamb": 2001,
      "▁yoga": 2002,
      "▁bathroom": 2003,
      "##apped": 2004,
      "▁houston": 2005,
      "##bri": 2006,
      "##amps": 2007,
      "##ocracy": 2008,
      "▁creating": 2009,
      "▁airplan": 2010,
      "▁budgie": 2011,
      "▁settle": 2012,
      "▁kiss": 2013,
      "▁westchester": 2014,
      "▁volcano": 2015,
      "▁lawn": 2016,
      "▁waitresses": 2017,
      "▁shrug": 2018,
      "##%": 2019,
      "▁disclaimer": 2020,
      "▁provide": 2021,
      "▁luxury": 2022,
      "##20s": 2023,
      "▁flight": 2024,
      "▁psychologist": 2025,
      "▁murdered": 2026,
      "▁phone": 2027,
      "▁halt": 2028,
      "##old": 2029,
      "▁suffer": 2030,
      "▁always": 2031,
      "▁flicker": 2032,
      "▁construc": 2033,
      "▁these": 2034,
      "▁patent": 2035,
      "##clo": 2036,
      "▁drafting": 2037,
      "▁yoy": 2038,
      "▁residence": 2039,
      "##friends": 2040,
      "▁scary": 2041,
      "▁arrives": 2042,
      "##ifies": 2043,
      "▁settlements": 2044,
      "▁rubble": 2045,
      "▁flush": 2046,
      "▁str": 2047,
      "##ease": 2048,
      "▁chase": 2049,
      "▁world": 2050,
      "▁embraced": 2051,
      "##cano": 2052,
      "▁survival": 2053,
      "▁instinct": 2054,
      "▁theirs": 2055,
      "▁prett": 2056,
      "▁freezing": 2057,
      "##:1": 2058,
      "▁text": 2059,
      "##holds": 2060,
      "▁demonstrations": 2061,
      "▁turned": 2062,
      "▁ups": 2063,
      "##being": 2064,
      "▁smiling": 2065,
      "##tered": 2066,
      "▁grains": 2067,
      "▁runner": 2068,
      "▁representing": 2069,
      "##lik": 2070,
      "##ides": 2071,
      "▁session": 2072,
      "▁breed": 2073,
      "▁orn": 2074,
      "▁applying": 2075,
      "▁colonies": 2076,
      "▁swaying": 2077,
      "▁between": 2078,
      "▁6": 2079,
      "▁crystallite": 2080,
      "▁dropped": 2081,
      "▁best": 2082,
      "##overy": 2083,
      "▁administration": 2084,
      "▁lisa": 2085,
      "▁detention": 2086,
      "##@enron.com": 2087,
      "▁theories": 2088,
      "##assment": 2089,
      "##ength": 2090,
      "▁squeak": 2091,
      "##.": 2092,
      "▁hes": 2093,
      "▁cafeteria": 2094,
      "▁waf": 2095,
      "##angut": 2096,
      "##k": 2097,
      "▁erec": 2098,
      "▁ent": 2099,
      "▁actions": 2100,
      "▁dr.": 2101,
      "▁temple": 2102,
      "▁bloo": 2103,
      "▁publicly": 2104,
      "▁markup": 2105,
      "▁new": 2106,
      "##ord": 2107,
      "▁rise": 2108,
      "▁books": 2109,
      "##opy": 2110,
      "##bster": 2111,
      "▁swinging": 2112,
      "▁determin": 2113,
      "▁mand": 2114,
      "▁imple": 2115,
      "▁bach": 2116,
      "▁_______": 2117,
      "▁scienti": 2118,
      "##ney": 2119,
      "▁eliminated": 2120,
      "▁who's": 2121,
      "##ines": 2122,
      "##teries": 2123,
      "▁heritage": 2124,
      "##etown": 2125,
      "▁withdrew": 2126,
      "▁administ": 2127,
      "▁fertilizer": 2128,
      "▁colon": 2129,
      "▁recon": 2130,
      "▁votes": 2131,
      "▁site": 2132,
      "▁tin": 2133,
      "▁facilitated": 2134,
      "▁aper": 2135,
      "▁interest": 2136,
      "##olding": 2137,
      "▁advance": 2138,
      "▁jellyfish": 2139,
      "▁model": 2140,
      "▁jackets": 2141,
      "##ificant": 2142,
      "▁acting": 2143,
      "##ens": 2144,
      "▁intercep": 2145,
      "##3rd": 2146,
      "▁1920s": 2147,
      "▁blowing": 2148,
      "▁hospitals": 2149,
      "▁celebrities": 2150,
      "##oozing": 2151,
      "▁forbidding": 2152,
      "##iol": 2153,
      "▁verse": 2154,
      "▁absor": 2155,
      "##uries": 2156,
      "▁san": 2157,
      "▁accomplished": 2158,
      "▁subd": 2159,
      "▁marshes": 2160,
      "##ites": 2161,
      "▁tracking": 2162,
      "##oid": 2163,
      "##oom": 2164,
      "▁mouthful": 2165,
      "▁act": 2166,
      "##eap": 2167,
      "▁garlic": 2168,
      "##anity": 2169,
      "##don": 2170,
      "##egr": 2171,
      "▁slide": 2172,
      "▁responses": 2173,
      "▁buddy": 2174,
      "▁tamed": 2175,
      "##ould": 2176,
      "##oking": 2177,
      "##lected": 2178,
      "▁sneakers": 2179,
      "▁berry": 2180,
      "▁suc": 2181,
      "##fe": 2182,
      "##ked": 2183,
      "▁pupp": 2184,
      "▁???": 2185,
      "##ocado": 2186,
      "##ead": 2187,
      "▁pinkies": 2188,
      "▁indication": 2189,
      "▁spent": 2190,
      "▁mechanic": 2191,
      "▁makes": 2192,
      "▁trails": 2193,
      "##ds": 2194,
      "##merce": 2195,
      "▁wrestle": 2196,
      "▁accommod": 2197,
      "##rived": 2198,
      "▁hate": 2199,
      "##fter": 2200,
      "▁newsgroups": 2201,
      "##we": 2202,
      "##wash": 2203,
      "▁pot": 2204,
      "▁candle": 2205,
      "▁invite": 2206,
      "▁essentially": 2207,
      "▁commit": 2208,
      "▁belly": 2209,
      "▁wisd": 2210,
      "▁implied": 2211,
      "##lings": 2212,
      "▁simulation": 2213,
      "▁neither": 2214,
      "▁horiz": 2215,
      "▁10": 2216,
      "▁acquisition": 2217,
      "▁snowboard": 2218,
      "##rus": 2219,
      "▁mathema": 2220,
      "▁ai": 2221,
      "##oh": 2222,
      "▁necessarily": 2223,
      "▁impression": 2224,
      "##ashed": 2225,
      "▁purch": 2226,
      "##cases": 2227,
      "▁hinds": 2228,
      "▁stirrup": 2229,
      "##esy": 2230,
      "##ision": 2231,
      "##boats": 2232,
      "▁monarchy": 2233,
      "▁lym": 2234,
      "▁explosions": 2235,
      "##?": 2236,
      "▁wad": 2237,
      "##velled": 2238,
      "▁entered": 2239,
      "▁ties": 2240,
      "▁salvation": 2241,
      "▁panic": 2242,
      "▁third": 2243,
      "▁will": 2244,
      "▁behin": 2245,
      "▁encompass": 2246,
      "▁vig": 2247,
      "▁edward": 2248,
      "▁classroom": 2249,
      "▁zeitgeist": 2250,
      "▁preparing": 2251,
      "##aroni": 2252,
      "▁unfort": 2253,
      "▁#": 2254,
      "▁hi": 2255,
      "▁lunchtime": 2256,
      "▁photography": 2257,
      "▁did": 2258,
      "▁sne": 2259,
      "▁problems": 2260,
      "▁cal": 2261,
      "▁proven": 2262,
      "▁charged": 2263,
      "▁quaffle": 2264,
      "▁mwe": 2265,
      "▁waited": 2266,
      "▁thous": 2267,
      "▁robin": 2268,
      "▁adjusters": 2269,
      "▁zinc": 2270,
      "▁rides": 2271,
      "▁margin": 2272,
      "▁characters": 2273,
      "▁trained": 2274,
      "▁continents": 2275,
      "##ning": 2276,
      "▁conspir": 2277,
      "▁character": 2278,
      "##}": 2279,
      "▁plenty": 2280,
      "▁glue": 2281,
      "▁x33907": 2282,
      "▁flir": 2283,
      "▁jur": 2284,
      "▁pet": 2285,
      "##ato": 2286,
      "▁advantage": 2287,
      "▁behind": 2288,
      "▁dist": 2289,
      "▁legitimacy": 2290,
      "##pp": 2291,
      "▁noon": 2292,
      "▁opinion": 2293,
      "▁priest": 2294,
      "▁dam": 2295,
      "▁ocean": 2296,
      "▁reader": 2297,
      "▁supplier": 2298,
      "▁components": 2299,
      "▁mission": 2300,
      "▁strong": 2301,
      "▁mails": 2302,
      "##ico": 2303,
      "▁information": 2304,
      "##ost": 2305,
      "##char": 2306,
      "##tains": 2307,
      "▁borrow": 2308,
      "▁uphold": 2309,
      "▁truths": 2310,
      "▁stings": 2311,
      "##phab": 2312,
      "▁eight": 2313,
      "▁faces": 2314,
      "##orie": 2315,
      "▁estimates": 2316,
      "##itement": 2317,
      "##entil": 2318,
      "▁manifest": 2319,
      "▁healthy": 2320,
      "▁investors": 2321,
      "▁timing": 2322,
      "##even": 2323,
      "▁substant": 2324,
      "▁kitchen": 2325,
      "##has": 2326,
      "▁discussed": 2327,
      "▁]": 2328,
      "▁pred": 2329,
      "##olis": 2330,
      "•": 2331,
      "▁congratulate": 2332,
      "▁thinked": 2333,
      "##ss.xls": 2334,
      "▁excitement": 2335,
      "▁ti": 2336,
      "▁tarmac": 2337,
      "▁main": 2338,
      "▁drew": 2339,
      "▁emper": 2340,
      "##grader": 2341,
      "▁disli": 2342,
      "▁ages": 2343,
      "▁stra": 2344,
      "##lions": 2345,
      "▁vote": 2346,
      "##olutions": 2347,
      "##oof": 2348,
      "▁$": 2349,
      "▁team": 2350,
      "▁onions": 2351,
      "▁pastor": 2352,
      "##uc": 2353,
      "##ex": 2354,
      "▁findings": 2355,
      "▁marketing": 2356,
      "▁careers": 2357,
      "▁significant": 2358,
      "▁microphone": 2359,
      "▁chine": 2360,
      "▁brand": 2361,
      "##pos": 2362,
      "▁taking": 2363,
      "▁wore": 2364,
      "▁trunk": 2365,
      "▁emphasis": 2366,
      "▁visited": 2367,
      "##vers": 2368,
      "##fer": 2369,
      "▁register": 2370,
      "▁quar": 2371,
      "##eriously": 2372,
      "▁cheapest": 2373,
      "▁least": 2374,
      "##lipop": 2375,
      "##n": 2376,
      "▁restruc": 2377,
      "▁americans": 2378,
      "▁beard": 2379,
      "##itially": 2380,
      "##cuff": 2381,
      "▁instruc": 2382,
      "▁defend": 2383,
      "▁virtue": 2384,
      "▁boss": 2385,
      "▁specials": 2386,
      "▁layer": 2387,
      "▁authorship": 2388,
      "▁firewood": 2389,
      "▁doorway": 2390,
      "##9th": 2391,
      "▁list": 2392,
      "▁supple": 2393,
      "▁believed": 2394,
      "▁buggy": 2395,
      "▁rats": 2396,
      "##onference": 2397,
      "▁brain": 2398,
      "##-f": 2399,
      "▁archipelago": 2400,
      "▁attach": 2401,
      "##iti": 2402,
      "▁colle": 2403,
      "▁decided": 2404,
      "▁packed": 2405,
      "▁frost": 2406,
      "▁remedies": 2407,
      "▁christmas": 2408,
      "##uss": 2409,
      "##ularity": 2410,
      "▁pony": 2411,
      "▁edition": 2412,
      "▁sentence": 2413,
      "▁depos": 2414,
      "▁categ": 2415,
      "▁trading": 2416,
      "▁merry": 2417,
      "▁accidents": 2418,
      "▁concerts": 2419,
      "▁mil": 2420,
      "▁dilemma": 2421,
      "##ports": 2422,
      "▁screws": 2423,
      "▁mas": 2424,
      "##nia": 2425,
      "▁ashes": 2426,
      "##ecutive": 2427,
      "##rands": 2428,
      "▁chairman": 2429,
      "▁deter": 2430,
      "##utors": 2431,
      "▁still": 2432,
      "▁masks": 2433,
      "▁ethnic": 2434,
      "▁african": 2435,
      "##f-": 2436,
      "▁tsar": 2437,
      "▁district": 2438,
      "▁darn": 2439,
      "▁injuries": 2440,
      "▁landscapes": 2441,
      "##eem": 2442,
      "▁airline": 2443,
      "##pily": 2444,
      "##dog": 2445,
      "##enience": 2446,
      "▁articles": 2447,
      "##cr": 2448,
      "▁licensor": 2449,
      "▁valuation": 2450,
      "▁scr": 2451,
      "▁overtures": 2452,
      "▁stare": 2453,
      "##namon": 2454,
      "▁muggle": 2455,
      "▁regrets": 2456,
      "▁bananas": 2457,
      "▁sculpt": 2458,
      "▁intersection": 2459,
      "▁tem": 2460,
      "##otyp": 2461,
      "▁inven": 2462,
      "▁root": 2463,
      "▁judging": 2464,
      "▁observed": 2465,
      "▁guit": 2466,
      "##jects": 2467,
      "▁minimum": 2468,
      "##ractions": 2469,
      "▁monies": 2470,
      "▁encourages": 2471,
      "##ient": 2472,
      "##iliation": 2473,
      "▁senses": 2474,
      "▁forget": 2475,
      "▁present": 2476,
      "▁shops": 2477,
      "▁characteris": 2478,
      "▁corporation": 2479,
      "▁postp": 2480,
      "▁evaluated": 2481,
      "▁twenties": 2482,
      "##mit": 2483,
      "▁lit": 2484,
      "##orter": 2485,
      "▁mothers": 2486,
      "##______": 2487,
      "▁determining": 2488,
      "##iron": 2489,
      "▁engineers": 2490,
      "▁suggest": 2491,
      "▁curves": 2492,
      "▁nightclubs": 2493,
      "▁battles": 2494,
      "##igorate": 2495,
      "▁retreat": 2496,
      "▁lecture": 2497,
      "▁grad": 2498,
      "##ng": 2499,
      "▁ferries": 2500,
      "##gy": 2501,
      "▁shoot": 2502,
      "##ilar": 2503,
      "▁containers": 2504,
      "▁marking": 2505,
      "▁comprised": 2506,
      "##ο": 2507,
      "##levant": 2508,
      "▁commemorated": 2509,
      "▁motive": 2510,
      "▁thousand": 2511,
      "▁lasted": 2512,
      "##lift": 2513,
      "▁evil": 2514,
      "▁dancer": 2515,
      "▁abroad": 2516,
      "▁discouraged": 2517,
      "▁great": 2518,
      "▁instructions": 2519,
      "##forcement": 2520,
      "▁intensity": 2521,
      "▁abe": 2522,
      "▁driven": 2523,
      "▁worshippers": 2524,
      "##stache": 2525,
      "▁inject": 2526,
      "▁creature": 2527,
      "▁exchange": 2528,
      "▁criminals": 2529,
      "▁suspect": 2530,
      "▁documenting": 2531,
      "▁travelled": 2532,
      "##rap": 2533,
      "▁format": 2534,
      "▁disconnec": 2535,
      "##icion": 2536,
      "▁editors": 2537,
      "##lled": 2538,
      "▁ment": 2539,
      "▁grasp": 2540,
      "▁monitor": 2541,
      "##tieth": 2542,
      "▁th": 2543,
      "▁airl": 2544,
      "▁dipping": 2545,
      "##lism": 2546,
      "##erry": 2547,
      "▁perceptions": 2548,
      "▁twilight": 2549,
      "##rical": 2550,
      "##sd": 2551,
      "▁evaluating": 2552,
      "▁islamists": 2553,
      "##ont": 2554,
      "▁hotel": 2555,
      "▁stock": 2556,
      "##un": 2557,
      "▁empt": 2558,
      "##erential": 2559,
      "▁alerts": 2560,
      "▁girls": 2561,
      "▁enforcement": 2562,
      "▁stabilization": 2563,
      "##asy": 2564,
      "▁mes": 2565,
      "##rep": 2566,
      "▁finds": 2567,
      "▁offspring": 2568,
      "▁tow": 2569,
      "▁argue": 2570,
      "▁moon": 2571,
      "▁routine": 2572,
      "▁neglected": 2573,
      "▁enem": 2574,
      "▁darkness": 2575,
      "▁declaring": 2576,
      "##ior": 2577,
      "▁bachelor": 2578,
      "▁underlined": 2579,
      "##rs": 2580,
      "▁flies": 2581,
      "▁dail": 2582,
      "▁needle": 2583,
      "▁raise": 2584,
      "##uk": 2585,
      "##sure": 2586,
      "▁awarded": 2587,
      "▁traders": 2588,
      "▁removes": 2589,
      "▁biologist": 2590,
      "▁panted": 2591,
      "##aults": 2592,
      "▁gag": 2593,
      "▁lieuten": 2594,
      "▁upstairs": 2595,
      "▁gn": 2596,
      "##umped": 2597,
      "##iner": 2598,
      "▁accustomed": 2599,
      "▁&amp;": 2600,
      "▁mary": 2601,
      "▁sket": 2602,
      "##inkles": 2603,
      "▁parliament": 2604,
      "▁frequency": 2605,
      "▁expanded": 2606,
      "▁cross": 2607,
      "##low": 2608,
      "▁xml": 2609,
      "▁became": 2610,
      "υ": 2611,
      "▁canopy": 2612,
      "▁persever": 2613,
      "##eteria": 2614,
      "▁proceeding": 2615,
      "▁appell": 2616,
      "▁western": 2617,
      "▁blending": 2618,
      "▁envir": 2619,
      "▁results": 2620,
      "▁neverth": 2621,
      "▁luck": 2622,
      "##-1.doc": 2623,
      "▁establishments": 2624,
      "[": 2625,
      "##-3": 2626,
      "▁reassure": 2627,
      "▁wellbeing": 2628,
      "##point": 2629,
      "▁things": 2630,
      "##--": 2631,
      "▁promises": 2632,
      "▁consequence": 2633,
      "▁buck": 2634,
      "▁frequent": 2635,
      "▁voting": 2636,
      "▁reviews": 2637,
      "▁sushi": 2638,
      "▁swimming": 2639,
      "▁current": 2640,
      "▁protesting": 2641,
      "▁memorized": 2642,
      "##ules": 2643,
      "▁guardsmen": 2644,
      "##uration": 2645,
      "g": 2646,
      "▁yawning": 2647,
      "▁eu": 2648,
      "▁queso": 2649,
      "▁lieutenant": 2650,
      "▁constr": 2651,
      "▁weasley": 2652,
      "▁yach": 2653,
      "##ate": 2654,
      "▁delivered": 2655,
      "▁bean": 2656,
      "##pancy": 2657,
      "▁commanders": 2658,
      "▁controvers": 2659,
      "▁phenomena": 2660,
      "##rition": 2661,
      "##ias": 2662,
      "▁intends": 2663,
      "▁jwww": 2664,
      "▁y": 2665,
      "▁dep": 2666,
      "▁choosing": 2667,
      "▁lesion": 2668,
      "▁s": 2669,
      "##asion": 2670,
      "##ala": 2671,
      "▁curb": 2672,
      "▁cd": 2673,
      "▁spice": 2674,
      "##s": 2675,
      "▁working": 2676,
      "▁surgeons": 2677,
      "▁hopes": 2678,
      "▁exist": 2679,
      "▁anth": 2680,
      "▁verdict": 2681,
      "##rd": 2682,
      "##acters": 2683,
      "▁mend": 2684,
      "▁afters": 2685,
      "##hield": 2686,
      "▁wond": 2687,
      "##ider": 2688,
      "▁enable": 2689,
      "##ressions": 2690,
      "▁charcoal": 2691,
      "▁cru": 2692,
      "▁opted": 2693,
      "##alks": 2694,
      "▁defic": 2695,
      "##dly": 2696,
      "▁compel": 2697,
      "▁degree": 2698,
      "▁played": 2699,
      "##ane": 2700,
      "▁threatening": 2701,
      "▁hovered": 2702,
      "▁approval": 2703,
      "▁option": 2704,
      "▁equip": 2705,
      "▁altered": 2706,
      "▁motivation": 2707,
      "▁spr": 2708,
      "▁standardisation": 2709,
      "▁spilling": 2710,
      "##inched": 2711,
      "▁normally": 2712,
      "##kin": 2713,
      "##tern": 2714,
      "▁weeks": 2715,
      "▁upgr": 2716,
      "▁ukra": 2717,
      "▁case": 2718,
      "##itched": 2719,
      "▁belie": 2720,
      "▁coinc": 2721,
      "##dom": 2722,
      "▁happened": 2723,
      "▁grams": 2724,
      "##etus": 2725,
      "##ile": 2726,
      "▁flossing": 2727,
      "▁compared": 2728,
      "##ad": 2729,
      "▁merits": 2730,
      "▁ingenuity": 2731,
      "##tingu": 2732,
      "▁unic": 2733,
      "▁plate": 2734,
      "▁gender": 2735,
      "##nair": 2736,
      "▁indicate": 2737,
      "##angled": 2738,
      "▁econ": 2739,
      "▁expects": 2740,
      "▁happiness": 2741,
      "▁admissions": 2742,
      "▁conditioning": 2743,
      "##09": 2744,
      "▁arrow": 2745,
      "▁russians": 2746,
      "▁par": 2747,
      "##qui": 2748,
      "##bac": 2749,
      "##tically": 2750,
      "##rations": 2751,
      "▁member": 2752,
      "▁elev": 2753,
      "##tili": 2754,
      "##ghetti": 2755,
      "▁candidates": 2756,
      "▁mushrooms": 2757,
      "##eeze": 2758,
      "##:30": 2759,
      "▁syn": 2760,
      "##ata": 2761,
      "▁labyrinth": 2762,
      "▁replication": 2763,
      "▁greeted": 2764,
      "##geted": 2765,
      "▁servings": 2766,
      "▁latest": 2767,
      "▁stick": 2768,
      "▁concent": 2769,
      "▁respected": 2770,
      "▁plug": 2771,
      "▁prevailing": 2772,
      "▁sh": 2773,
      "▁apolog": 2774,
      "▁birthdays": 2775,
      "▁comply": 2776,
      "##ipp": 2777,
      "▁analy": 2778,
      "▁controversy": 2779,
      "▁.....": 2780,
      "##ott": 2781,
      "▁strol": 2782,
      "▁pittsburgh": 2783,
      "▁hippopotamus": 2784,
      "▁exp": 2785,
      "▁zeitge": 2786,
      "▁whom": 2787,
      "▁dwibbling": 2788,
      "▁coding": 2789,
      "▁abundance": 2790,
      "▁arrange": 2791,
      "▁dishes": 2792,
      "▁madam": 2793,
      "▁whatnot": 2794,
      "▁greeting": 2795,
      "▁baba": 2796,
      "▁dessert": 2797,
      "▁educated": 2798,
      "▁gazing": 2799,
      "▁outcom": 2800,
      "▁town": 2801,
      "▁generates": 2802,
      "▁transit": 2803,
      "▁clutching": 2804,
      "▁forec": 2805,
      "▁israel": 2806,
      "##.l.c": 2807,
      "▁exce": 2808,
      "▁novelist": 2809,
      "##struction": 2810,
      "▁romances": 2811,
      "▁hauling": 2812,
      "▁roc": 2813,
      "##hing": 2814,
      "▁senti": 2815,
      "##oads": 2816,
      "▁collects": 2817,
      "▁input": 2818,
      "▁typ": 2819,
      "▁gl": 2820,
      "▁progress": 2821,
      "▁banned": 2822,
      "▁welfare": 2823,
      "▁clin": 2824,
      "##entures": 2825,
      "▁segment": 2826,
      "▁aversion": 2827,
      "▁mailings": 2828,
      "##ward": 2829,
      "##tein": 2830,
      "##undity": 2831,
      "##vements": 2832,
      "▁rulers": 2833,
      "▁instructors": 2834,
      "▁effectiveness": 2835,
      "##tted": 2836,
      "▁provocation": 2837,
      "▁water": 2838,
      "▁fairs": 2839,
      "▁explain": 2840,
      "▁decade": 2841,
      "▁handkerchief": 2842,
      "▁washing": 2843,
      "▁g": 2844,
      "▁defendants": 2845,
      "▁opt": 2846,
      "▁po": 2847,
      "▁wow": 2848,
      "▁importing": 2849,
      "▁beating": 2850,
      "▁phantom": 2851,
      "▁goodbye": 2852,
      "▁history": 2853,
      "▁bic": 2854,
      "##ori": 2855,
      "▁cell": 2856,
      "▁11": 2857,
      "▁superiority": 2858,
      "▁leverage": 2859,
      "▁patri": 2860,
      "▁drafted": 2861,
      "▁plight": 2862,
      "▁whereas": 2863,
      "▁targeted": 2864,
      "▁amend": 2865,
      "▁notch": 2866,
      "▁dealer": 2867,
      "▁geomet": 2868,
      "▁cass": 2869,
      "▁hab": 2870,
      "##lection": 2871,
      "▁resolution": 2872,
      "▁endured": 2873,
      "##wit": 2874,
      "##p": 2875,
      "##ronym": 2876,
      "▁bred": 2877,
      "ˈ": 2878,
      "▁chall": 2879,
      "▁enabling": 2880,
      "▁thres": 2881,
      "▁compare": 2882,
      "##-": 2883,
      "▁fixing": 2884,
      "##ences": 2885,
      "▁philosophy": 2886,
      "▁novels": 2887,
      "▁physician": 2888,
      "▁hairs": 2889,
      "▁scorp": 2890,
      "▁extending": 2891,
      "▁rounds": 2892,
      "##bbed": 2893,
      "▁nuts": 2894,
      "▁alterations": 2895,
      "##udes": 2896,
      "▁charges": 2897,
      "▁continuation": 2898,
      "▁relativism": 2899,
      "##reation": 2900,
      "▁disrupt": 2901,
      "▁currency": 2902,
      "##stair": 2903,
      "##faction": 2904,
      "▁fantasy": 2905,
      "▁geometries": 2906,
      "▁confidentiality": 2907,
      "▁consider": 2908,
      "▁sear": 2909,
      "▁northern": 2910,
      "▁screwed": 2911,
      "##>": 2912,
      "##res": 2913,
      "▁selections": 2914,
      "▁mathematician": 2915,
      "##nly": 2916,
      "▁entities": 2917,
      "▁flaw": 2918,
      "▁ringing": 2919,
      "▁join": 2920,
      "##pre": 2921,
      "▁pedicure": 2922,
      "▁sensation": 2923,
      "▁tresp": 2924,
      "▁fy0": 2925,
      "▁peak": 2926,
      "▁attrib": 2927,
      "▁reveal": 2928,
      "▁descended": 2929,
      "▁disagree": 2930,
      "##arn": 2931,
      "▁spain": 2932,
      "▁2014": 2933,
      "##ortant": 2934,
      "##ringing": 2935,
      "##uj": 2936,
      "▁tomato": 2937,
      "▁curve": 2938,
      "▁retrieve": 2939,
      "##ithst": 2940,
      "##aker": 2941,
      "▁makeup": 2942,
      "▁var": 2943,
      "▁sticker": 2944,
      "##iversity": 2945,
      "▁fusions": 2946,
      "##aulted": 2947,
      "▁explained": 2948,
      "▁liter": 2949,
      "##³": 2950,
      "▁claws": 2951,
      "##itial": 2952,
      "▁charl": 2953,
      "▁looked": 2954,
      "##uli": 2955,
      "▁łodz": 2956,
      "▁av": 2957,
      "▁confronted": 2958,
      "▁radiation": 2959,
      "▁une": 2960,
      "▁create": 2961,
      "##icious": 2962,
      "▁cooperating": 2963,
      "▁watch": 2964,
      "▁page": 2965,
      "▁quality": 2966,
      "▁disease": 2967,
      "▁strawberries": 2968,
      "▁velocity": 2969,
      "▁maintain": 2970,
      "▁force": 2971,
      "▁motorc": 2972,
      "▁foreigner": 2973,
      "##rage": 2974,
      "▁casual": 2975,
      "▁cap": 2976,
      "##gues": 2977,
      "▁touching": 2978,
      "▁ontario": 2979,
      "##itivity": 2980,
      "▁magazines": 2981,
      "▁archbish": 2982,
      "▁moth": 2983,
      "▁ankles": 2984,
      "▁sover": 2985,
      "▁penn": 2986,
      "▁truck": 2987,
      "##osm": 2988,
      "▁blooming": 2989,
      "▁sand": 2990,
      "▁originally": 2991,
      "▁thurs": 2992,
      "▁sid": 2993,
      "▁lifted": 2994,
      "##ros": 2995,
      "▁playw": 2996,
      "▁aunt": 2997,
      "▁engaging": 2998,
      "▁reverence": 2999,
      "##py": 3000,
      "##enty": 3001,
      "▁rudeness": 3002,
      "▁implem": 3003,
      "▁ju": 3004,
      "##fitting": 3005,
      "▁saved": 3006,
      "##up": 3007,
      "▁abb": 3008,
      "▁behavior": 3009,
      "▁throw": 3010,
      "▁uncer": 3011,
      "▁sor": 3012,
      "▁locals": 3013,
      "▁crust": 3014,
      "▁proper": 3015,
      "▁damages": 3016,
      "▁inter": 3017,
      "▁outcome": 3018,
      "▁pilots": 3019,
      "▁fuzz": 3020,
      "▁revived": 3021,
      "▁transp": 3022,
      "##alising": 3023,
      "##07.doc": 3024,
      "▁reimbursed": 3025,
      "▁attempting": 3026,
      "##orts": 3027,
      "▁listings": 3028,
      "▁chem": 3029,
      "▁biz": 3030,
      "▁away": 3031,
      "▁shores": 3032,
      "▁lighted": 3033,
      "▁boy": 3034,
      "▁accumulated": 3035,
      "▁little": 3036,
      "▁testim": 3037,
      "▁d'etat": 3038,
      "▁cycles": 3039,
      "##ecution": 3040,
      "▁implying": 3041,
      "##ban": 3042,
      "▁ra": 3043,
      "▁associate": 3044,
      "p": 3045,
      "▁kind": 3046,
      "▁enables": 3047,
      "▁elu": 3048,
      "##gance": 3049,
      "##ued": 3050,
      "▁parakeets": 3051,
      "▁freshman": 3052,
      "▁librarians": 3053,
      "▁contributions": 3054,
      "▁clo": 3055,
      "▁orlando": 3056,
      "##log": 3057,
      "▁refuge": 3058,
      "▁court": 3059,
      "▁sets": 3060,
      "▁frogs": 3061,
      "▁clips": 3062,
      "▁citing": 3063,
      "▁hatred": 3064,
      "▁challenge": 3065,
      "▁toystore": 3066,
      "▁trafficking": 3067,
      "▁binoculars": 3068,
      "▁torture": 3069,
      "▁wangs": 3070,
      "##asure": 3071,
      "▁went": 3072,
      "▁calc": 3073,
      "▁supposed": 3074,
      "▁cuckoo": 3075,
      "▁cans": 3076,
      "##ativeness": 3077,
      "##ud": 3078,
      "▁writers": 3079,
      "▁stylesheet": 3080,
      "▁refri": 3081,
      "##ectors": 3082,
      "▁deterioration": 3083,
      "▁train": 3084,
      "▁accompan": 3085,
      "▁businesses": 3086,
      "▁compares": 3087,
      "##ewing": 3088,
      "▁pang": 3089,
      "▁secrets": 3090,
      "▁toe": 3091,
      "▁hu": 3092,
      "▁writes": 3093,
      "▁nationals": 3094,
      "▁hummus": 3095,
      "##-98": 3096,
      "▁chang": 3097,
      "▁speed": 3098,
      "▁1.": 3099,
      "▁individual": 3100,
      "##utes": 3101,
      "##&d": 3102,
      "▁risk": 3103,
      "##urn": 3104,
      "▁copyrighted": 3105,
      "▁finance": 3106,
      "##oney": 3107,
      "▁printing": 3108,
      "##iction": 3109,
      "▁bureaucracy": 3110,
      "▁lodging": 3111,
      "▁reacted": 3112,
      "▁overcharges": 3113,
      "##oleum": 3114,
      "▁fellow": 3115,
      "▁struggled": 3116,
      "##dened": 3117,
      "▁ssh": 3118,
      "▁fairly": 3119,
      "▁agencies": 3120,
      "▁wizards": 3121,
      "▁monastery": 3122,
      "##anded": 3123,
      "▁handkerchiefs": 3124,
      "##ante": 3125,
      "▁transmed": 3126,
      "▁tort": 3127,
      "▁balcony": 3128,
      "▁trainer": 3129,
      "▁labeled": 3130,
      "▁phil": 3131,
      "▁felt": 3132,
      "▁meat": 3133,
      "▁enjambment": 3134,
      "##inter": 3135,
      "▁sound": 3136,
      "▁chiro": 3137,
      "▁watching": 3138,
      "##omes": 3139,
      "▁belonged": 3140,
      "##awn": 3141,
      "▁login": 3142,
      "▁nose": 3143,
      "▁watered": 3144,
      "##isting": 3145,
      "▁misconception": 3146,
      "▁!?!": 3147,
      "▁wikinews": 3148,
      "##usions": 3149,
      "▁sheep": 3150,
      "##oc": 3151,
      "▁bicycle": 3152,
      "▁trib": 3153,
      "▁experts": 3154,
      "▁wasted": 3155,
      "▁barges": 3156,
      "▁identification": 3157,
      "▁totes": 3158,
      "##erti": 3159,
      "▁billion": 3160,
      "▁stood": 3161,
      "▁humans": 3162,
      "▁prefect": 3163,
      "▁during": 3164,
      "▁wiz": 3165,
      "▁dramati": 3166,
      "##yg": 3167,
      "##ople": 3168,
      "▁newark": 3169,
      "▁meow": 3170,
      "▁vince": 3171,
      "▁exerc": 3172,
      "##uding": 3173,
      "▁structured": 3174,
      "▁voyage": 3175,
      "▁cm": 3176,
      "▁amaz": 3177,
      "##que": 3178,
      "##action": 3179,
      "▁yo": 3180,
      "▁persecution": 3181,
      "▁ant": 3182,
      "##hole": 3183,
      "▁crocod": 3184,
      "##vir": 3185,
      "▁loc": 3186,
      "▁saddam": 3187,
      "▁moreover": 3188,
      "##ologist": 3189,
      "▁germ": 3190,
      "##rty": 3191,
      "##.un": 3192,
      "##ept": 3193,
      "##akes": 3194,
      "▁component": 3195,
      "##illing": 3196,
      "##tle": 3197,
      "_": 3198,
      "##ues": 3199,
      "▁assure": 3200,
      "▁emergency": 3201,
      "▁inquiry": 3202,
      "▁skirts": 3203,
      "▁vess": 3204,
      "▁assortment": 3205,
      "▁forgiveness": 3206,
      "▁winging": 3207,
      "▁asses": 3208,
      "▁inscriptions": 3209,
      "▁den": 3210,
      "▁postures": 3211,
      "##otes": 3212,
      "▁********": 3213,
      "▁device": 3214,
      "▁secure": 3215,
      "▁satisfy": 3216,
      "▁ethnocentrism": 3217,
      "▁tossed": 3218,
      "▁ld2d-#69345-1.doc": 3219,
      "▁handker": 3220,
      "▁rinse": 3221,
      "##h": 3222,
      "▁scientists": 3223,
      "▁speak": 3224,
      "▁gap": 3225,
      "▁refers": 3226,
      "##etition": 3227,
      "▁evaluator": 3228,
      "▁selecting": 3229,
      "▁attraction": 3230,
      "▁vic": 3231,
      "##itical": 3232,
      "▁trials": 3233,
      "▁engine": 3234,
      "▁achie": 3235,
      "##etro": 3236,
      "▁finished": 3237,
      "▁bpd": 3238,
      "▁mysteries": 3239,
      "▁voters": 3240,
      "▁knows": 3241,
      "##activity": 3242,
      "▁incompetence": 3243,
      "▁itsy": 3244,
      "▁relatives": 3245,
      "▁recc": 3246,
      "▁headache": 3247,
      "▁touched": 3248,
      "▁attack": 3249,
      "▁private": 3250,
      "##ude": 3251,
      "##oma": 3252,
      "##esses": 3253,
      "▁sailor": 3254,
      "▁technician": 3255,
      "##pping": 3256,
      "▁toronto": 3257,
      "▁~": 3258,
      "▁eff": 3259,
      "▁intellectuals": 3260,
      "▁move": 3261,
      "##:3": 3262,
      "▁washington": 3263,
      "▁tack": 3264,
      "▁burs": 3265,
      "##cut": 3266,
      "▁at": 3267,
      "▁ivory": 3268,
      "##ville": 3269,
      "▁jobs": 3270,
      "▁passion": 3271,
      "▁ecommerce": 3272,
      "▁init": 3273,
      "##orage": 3274,
      "▁confiscated": 3275,
      "▁reh": 3276,
      "▁walks": 3277,
      "##guard": 3278,
      "▁emphas": 3279,
      "▁overt": 3280,
      "##ym": 3281,
      "▁gloom": 3282,
      "▁censor": 3283,
      "▁fundamentalists": 3284,
      "▁vanished": 3285,
      "▁70's": 3286,
      "▁bak": 3287,
      "##hirt": 3288,
      "▁theater": 3289,
      "▁happ": 3290,
      "▁removing": 3291,
      "##907": 3292,
      "▁ppl": 3293,
      "▁worksh": 3294,
      "▁spi": 3295,
      "▁meeting": 3296,
      "▁polar": 3297,
      "▁temples": 3298,
      "▁documented": 3299,
      "▁din": 3300,
      "▁solve": 3301,
      "##ifted": 3302,
      "▁recomm": 3303,
      "{": 3304,
      "▁inspection": 3305,
      "▁abilities": 3306,
      "▁oxygen": 3307,
      "▁robert": 3308,
      "▁uvb": 3309,
      "▁network": 3310,
      "▁funny": 3311,
      "##actor": 3312,
      "▁cor": 3313,
      "##7th": 3314,
      "▁wearing": 3315,
      "##tied": 3316,
      "▁pac": 3317,
      "▁!!!!!!!!!!!": 3318,
      "##feration": 3319,
      "▁permit": 3320,
      "▁youtu": 3321,
      "▁habit": 3322,
      "▁donor": 3323,
      "▁country": 3324,
      "▁apartments": 3325,
      "▁room": 3326,
      "▁compensation": 3327,
      "##enting": 3328,
      "▁tribes": 3329,
      "▁nothing": 3330,
      "##oster": 3331,
      "▁wite": 3332,
      "▁puzz": 3333,
      "▁hugged": 3334,
      "▁dwww": 3335,
      "▁jets": 3336,
      "▁cancelled": 3337,
      "▁appro": 3338,
      "▁punch": 3339,
      "▁trait": 3340,
      "▁union": 3341,
      "▁medical": 3342,
      "?": 3343,
      "##yl": 3344,
      "▁stream": 3345,
      "▁explanation": 3346,
      "▁emotions": 3347,
      "##beit": 3348,
      "▁silic": 3349,
      "▁lest": 3350,
      "▁er": 3351,
      "##angu": 3352,
      "▁outfits": 3353,
      "▁alcohol": 3354,
      "▁glance": 3355,
      "▁ahead": 3356,
      "▁farrier": 3357,
      "▁vari": 3358,
      "##enna": 3359,
      "▁heated": 3360,
      "▁freezer": 3361,
      "▁befor": 3362,
      "▁marty": 3363,
      "▁reply": 3364,
      "▁effect": 3365,
      "▁grf": 3366,
      "▁bucks": 3367,
      "▁arch": 3368,
      "##in'": 3369,
      "▁resisted": 3370,
      "##enex": 3371,
      "##vised": 3372,
      "▁spine": 3373,
      "▁clerk": 3374,
      "$": 3375,
      "##utions": 3376,
      "º": 3377,
      "▁twin": 3378,
      "▁----==": 3379,
      "##ey": 3380,
      "▁condem": 3381,
      "▁verifies": 3382,
      "▁imbalances": 3383,
      "▁neighborhood": 3384,
      "▁habitat": 3385,
      "▁strut": 3386,
      "▁skis": 3387,
      "▁tricycle": 3388,
      "▁ne": 3389,
      "▁formality": 3390,
      "▁penis": 3391,
      "##aries": 3392,
      "▁regret": 3393,
      "▁seekers": 3394,
      "##for": 3395,
      "▁jer": 3396,
      "##ady": 3397,
      "▁gentle": 3398,
      "▁clar": 3399,
      "▁hardly": 3400,
      "##gan": 3401,
      "▁delete": 3402,
      "▁incubator": 3403,
      "##ɛ": 3404,
      "▁im": 3405,
      "▁cos": 3406,
      "▁savings": 3407,
      "▁eliminate": 3408,
      "▁rebuil": 3409,
      "▁teles": 3410,
      "▁tackle": 3411,
      "▁you": 3412,
      "▁serious": 3413,
      "▁shields": 3414,
      "##uting": 3415,
      "▁endeavor": 3416,
      "##5": 3417,
      "▁purpose": 3418,
      "▁comparison": 3419,
      "##-r": 3420,
      "▁help": 3421,
      "##door": 3422,
      "▁autobiography": 3423,
      "▁granted": 3424,
      "##ror": 3425,
      "▁embassy": 3426,
      "▁remembers": 3427,
      "▁someone": 3428,
      "▁jus": 3429,
      "##inning": 3430,
      "▁trail": 3431,
      "▁stars": 3432,
      "▁supplement": 3433,
      "▁alongside": 3434,
      "▁disag": 3435,
      "##sid": 3436,
      "▁ess": 3437,
      "##ular": 3438,
      "▁accomplish": 3439,
      "▁draw": 3440,
      "▁pale": 3441,
      "▁quiz": 3442,
      "▁graduating": 3443,
      "▁waiter": 3444,
      "##agle": 3445,
      "▁build": 3446,
      "##ically": 3447,
      "▁slipped": 3448,
      "▁tearing": 3449,
      "▁80's": 3450,
      "▁betta": 3451,
      "##terness": 3452,
      "▁dat": 3453,
      "▁zomb": 3454,
      "##abilities": 3455,
      "▁matters": 3456,
      "▁variety": 3457,
      "▁waving": 3458,
      "▁destination": 3459,
      "▁ext": 3460,
      "▁pige": 3461,
      "▁mon": 3462,
      "▁apple": 3463,
      "##uments": 3464,
      "▁wines": 3465,
      "##force": 3466,
      "▁dw": 3467,
      "▁196": 3468,
      "##mem": 3469,
      "▁counter-": 3470,
      "▁dashed": 3471,
      "▁salads": 3472,
      "▁que": 3473,
      "▁fastened": 3474,
      "##respond": 3475,
      "▁frag": 3476,
      "##ta": 3477,
      "▁wand": 3478,
      "##amation": 3479,
      "##2b": 3480,
      "##cin": 3481,
      "▁fins": 3482,
      "##ary": 3483,
      "▁constitutes": 3484,
      "▁burger": 3485,
      "▁relics": 3486,
      "▁financ": 3487,
      "▁troops": 3488,
      "▁warrant": 3489,
      "##ist": 3490,
      "▁huh": 3491,
      "▁sheet": 3492,
      "▁grown": 3493,
      "▁colleag": 3494,
      "##dge": 3495,
      "▁avenues": 3496,
      "▁facet": 3497,
      "▁boom": 3498,
      "##ede": 3499,
      "▁wh": 3500,
      "▁loun": 3501,
      "▁burst": 3502,
      "##ded": 3503,
      "▁orange": 3504,
      "▁situations": 3505,
      "▁deemed": 3506,
      "##ename": 3507,
      "##!!!!": 3508,
      "##uv": 3509,
      "##pathy": 3510,
      "▁ly": 3511,
      "▁gir": 3512,
      "▁seeking": 3513,
      "▁wears": 3514,
      "##yc": 3515,
      "▁enterprises": 3516,
      "▁counterfe": 3517,
      "▁accord": 3518,
      "##er": 3519,
      "##inity": 3520,
      "##vas": 3521,
      "▁kissed": 3522,
      "▁relation": 3523,
      "##enny": 3524,
      "▁ce": 3525,
      "▁alle": 3526,
      "▁anim": 3527,
      "▁cells": 3528,
      "▁religion": 3529,
      "▁outcomes": 3530,
      "▁sunsh": 3531,
      "##road": 3532,
      "##itates": 3533,
      "▁uni": 3534,
      "##0th": 3535,
      "▁worms": 3536,
      "##night": 3537,
      "▁evalu": 3538,
      "▁ceo": 3539,
      "▁circumstances": 3540,
      "▁leave": 3541,
      "▁continues": 3542,
      "▁fans": 3543,
      "##mers": 3544,
      "▁neck": 3545,
      "▁purchase": 3546,
      "▁monster": 3547,
      "▁differing": 3548,
      "##aping": 3549,
      "▁paper": 3550,
      "▁remains": 3551,
      "▁ringlets": 3552,
      "▁pean": 3553,
      "##leade": 3554,
      "▁directed": 3555,
      "##arded": 3556,
      "▁disper": 3557,
      "▁oven": 3558,
      "▁vali": 3559,
      "▁introduc": 3560,
      "▁judgement": 3561,
      "▁wou": 3562,
      "▁thwarted": 3563,
      "▁bubbles": 3564,
      "▁conflicts": 3565,
      "##irt": 3566,
      "▁pausing": 3567,
      "▁feature": 3568,
      "▁suns": 3569,
      "▁exhaus": 3570,
      "▁ladybug": 3571,
      "▁series": 3572,
      "▁projects": 3573,
      "▁surrounding": 3574,
      "▁inches": 3575,
      "▁establish": 3576,
      "▁settlement": 3577,
      "▁grandma": 3578,
      "▁thigh": 3579,
      "##oun": 3580,
      "▁department": 3581,
      "▁stayed": 3582,
      "▁misfort": 3583,
      "▁prosperity": 3584,
      "▁gol": 3585,
      "▁ignoring": 3586,
      "##ights": 3587,
      "▁contain": 3588,
      "▁losing": 3589,
      "▁demanded": 3590,
      "##laim": 3591,
      "▁ske": 3592,
      "##ooding": 3593,
      "▁browse": 3594,
      "▁philadelphia": 3595,
      "▁revenue": 3596,
      "▁weight": 3597,
      "▁imagination": 3598,
      "▁stability": 3599,
      "▁specialist": 3600,
      "▁family": 3601,
      "▁oxy": 3602,
      "##aution": 3603,
      "▁curr": 3604,
      "=": 3605,
      "▁fr": 3606,
      "▁attached": 3607,
      "##$t": 3608,
      "▁relativ": 3609,
      "##awatt": 3610,
      "▁hing": 3611,
      "▁molec": 3612,
      "▁gast": 3613,
      "▁flags": 3614,
      "▁bard": 3615,
      "##using": 3616,
      "▁fil": 3617,
      "▁treat": 3618,
      "▁observing": 3619,
      "▁fuel": 3620,
      "▁approximation": 3621,
      "▁reach": 3622,
      "##year": 3623,
      "▁strategies": 3624,
      "▁fores": 3625,
      "▁mad": 3626,
      "▁cigar": 3627,
      "▁hust": 3628,
      "▁bathrooms": 3629,
      "▁mod": 3630,
      "##oxide": 3631,
      "##by": 3632,
      "▁whales": 3633,
      "▁psycho": 3634,
      "▁rivers": 3635,
      "▁accumulating": 3636,
      "▁abo": 3637,
      "##dens": 3638,
      "##stant": 3639,
      "##put": 3640,
      "▁critters": 3641,
      "▁squashed": 3642,
      "▁sie": 3643,
      "▁receipt": 3644,
      "▁alig": 3645,
      "▁wires": 3646,
      "▁window": 3647,
      "▁client": 3648,
      "▁smeared": 3649,
      "▁availability": 3650,
      "##food": 3651,
      "▁rod": 3652,
      "▁outf": 3653,
      "▁pilgrimage": 3654,
      "▁disobedience": 3655,
      "▁transporting": 3656,
      "▁operas": 3657,
      "##oa": 3658,
      "▁similar": 3659,
      "##kers": 3660,
      "##tee": 3661,
      "▁distractions": 3662,
      "##ffective": 3663,
      "##ihow": 3664,
      "▁pants": 3665,
      "▁rope": 3666,
      "▁robes": 3667,
      "##fortable": 3668,
      "▁discount": 3669,
      "▁showed": 3670,
      "▁rbi": 3671,
      "▁termination": 3672,
      "▁dee": 3673,
      "##ointment": 3674,
      "##erco": 3675,
      "▁wired": 3676,
      "##orted": 3677,
      "##inoc": 3678,
      "▁forgive": 3679,
      "▁lec": 3680,
      "##bon": 3681,
      "▁animal": 3682,
      "▁greek": 3683,
      "▁urgency": 3684,
      "▁container": 3685,
      "▁ld": 3686,
      "▁lent": 3687,
      "▁cherry": 3688,
      "▁enhanced": 3689,
      "▁wish": 3690,
      "▁pron": 3691,
      "▁institutions": 3692,
      "▁wanting": 3693,
      "▁hearing": 3694,
      "##her": 3695,
      "##.c": 3696,
      "▁courage": 3697,
      "▁lacking": 3698,
      "▁‘’": 3699,
      "▁corpora": 3700,
      "▁emails": 3701,
      "##90s": 3702,
      "▁butterflies": 3703,
      "▁instrument": 3704,
      "▁delighted": 3705,
      "▁pests": 3706,
      "▁strugg": 3707,
      "▁imper": 3708,
      "##unciation": 3709,
      "▁exception": 3710,
      "▁afflic": 3711,
      "▁occurred": 3712,
      "▁sk": 3713,
      "▁conviction": 3714,
      "▁glow": 3715,
      "▁treated": 3716,
      "▁alar": 3717,
      "▁activ": 3718,
      "▁enthusiasm": 3719,
      "▁joining": 3720,
      "▁bulletin": 3721,
      "▁otherwise": 3722,
      "▁magn": 3723,
      "##aland": 3724,
      "##cil": 3725,
      "##03": 3726,
      "##ge": 3727,
      "▁equival": 3728,
      "▁excellent": 3729,
      "▁replacement": 3730,
      "▁pick": 3731,
      "▁cen": 3732,
      "▁gin": 3733,
      "▁mr": 3734,
      "▁scam": 3735,
      "▁equal": 3736,
      "▁rags": 3737,
      "▁ops": 3738,
      "##faced": 3739,
      "##troduc": 3740,
      "▁layover": 3741,
      "▁verb": 3742,
      "▁trou": 3743,
      "▁romance": 3744,
      "▁excell": 3745,
      "##is": 3746,
      "▁followed": 3747,
      "▁falling": 3748,
      "▁paste": 3749,
      "▁polaroids": 3750,
      "▁talents": 3751,
      "##set": 3752,
      "▁hr": 3753,
      "▁changing": 3754,
      "##father": 3755,
      "▁circum": 3756,
      "▁femur": 3757,
      "▁polic": 3758,
      "▁hel": 3759,
      "##ner": 3760,
      "▁quite": 3761,
      "▁breast": 3762,
      "▁staged": 3763,
      "▁sometimes": 3764,
      "▁doctors": 3765,
      "▁aqu": 3766,
      "##am": 3767,
      "▁pix": 3768,
      "▁oak": 3769,
      "▁weak": 3770,
      "▁interf": 3771,
      "▁aspir": 3772,
      "##owar": 3773,
      "▁seven": 3774,
      "▁fas": 3775,
      "▁training": 3776,
      "▁sounds": 3777,
      "▁um": 3778,
      "##mare": 3779,
      "▁underneath": 3780,
      "▁compounds": 3781,
      "▁cli": 3782,
      "▁guarant": 3783,
      "##in": 3784,
      "▁mins": 3785,
      "▁transfers": 3786,
      "##fact": 3787,
      "▁grocery": 3788,
      "▁impose": 3789,
      "▁he": 3790,
      "##gged": 3791,
      "##amas": 3792,
      "▁parti": 3793,
      "▁cropdusters": 3794,
      "▁anywhere": 3795,
      "▁liq": 3796,
      "##ouch": 3797,
      "▁bug": 3798,
      "▁cycle": 3799,
      "##sex": 3800,
      "##reg": 3801,
      "▁turbine": 3802,
      "▁interior": 3803,
      "##alizing": 3804,
      "▁lon": 3805,
      "##hocks": 3806,
      "▁spears": 3807,
      "▁percentiles": 3808,
      "##anoma": 3809,
      "▁commod": 3810,
      "##iated": 3811,
      "##cuse": 3812,
      "▁stations": 3813,
      "▁stol": 3814,
      "##atograph": 3815,
      "##loyed": 3816,
      "▁pulled": 3817,
      "##btu": 3818,
      "▁poin": 3819,
      "▁incom": 3820,
      "##uggles": 3821,
      "##off": 3822,
      "▁fishes": 3823,
      "##issing": 3824,
      "▁mosquito": 3825,
      "▁lungs": 3826,
      "##oint": 3827,
      "##/2001": 3828,
      "##ac": 3829,
      "▁rely": 3830,
      "▁reinfor": 3831,
      "▁nut": 3832,
      "▁retal": 3833,
      "##apers": 3834,
      "▁gold": 3835,
      "##pers": 3836,
      "▁expertise": 3837,
      "▁cracker": 3838,
      "▁producer": 3839,
      "▁demonstrated": 3840,
      "▁pp": 3841,
      "▁nationalities": 3842,
      "▁assistance": 3843,
      "▁woman": 3844,
      "▁happen": 3845,
      "▁tag": 3846,
      "▁designed": 3847,
      "▁streams": 3848,
      "▁impulses": 3849,
      "##ishing": 3850,
      "▁different": 3851,
      "▁impulse": 3852,
      "▁barbe": 3853,
      "▁mus": 3854,
      "▁brings": 3855,
      "##tit": 3856,
      "▁incredibly": 3857,
      "##rogen": 3858,
      "▁halls": 3859,
      "▁parade": 3860,
      "##umulation": 3861,
      "▁glad": 3862,
      "▁oil": 3863,
      "▁ic": 3864,
      "▁additional": 3865,
      "▁obl": 3866,
      "▁simp": 3867,
      "▁completing": 3868,
      "▁special": 3869,
      "▁critic": 3870,
      "##ucks": 3871,
      "▁leaned": 3872,
      "▁divorce": 3873,
      "▁following": 3874,
      "▁sandwic": 3875,
      "▁soils": 3876,
      "▁someth": 3877,
      "▁pin": 3878,
      "▁assessment": 3879,
      "##par": 3880,
      "▁almost": 3881,
      "▁assessing": 3882,
      "▁hungry": 3883,
      "▁publish": 3884,
      "▁nons": 3885,
      "▁cuffs": 3886,
      "▁crept": 3887,
      "##ecks": 3888,
      "##ends": 3889,
      "▁surplus": 3890,
      "▁nations": 3891,
      "##most": 3892,
      "▁torch": 3893,
      "▁compos": 3894,
      "##leys": 3895,
      "▁canned": 3896,
      "##zzer": 3897,
      "▁dictatorship": 3898,
      "##zen": 3899,
      "▁dolls": 3900,
      "▁=": 3901,
      "▁squirter": 3902,
      "▁ass": 3903,
      "##ict": 3904,
      "##berries": 3905,
      "▁vol": 3906,
      "▁en": 3907,
      "▁shaped": 3908,
      "▁disagre": 3909,
      "▁sweet": 3910,
      "▁man-": 3911,
      "▁sci": 3912,
      "▁appearance": 3913,
      "##-year": 3914,
      "▁tro": 3915,
      "▁thi": 3916,
      "▁grinning": 3917,
      "##erb": 3918,
      "▁cott": 3919,
      "▁heights": 3920,
      "##ote": 3921,
      "▁encompassing": 3922,
      "▁chilling": 3923,
      "##lization": 3924,
      "▁buddies": 3925,
      "▁borne": 3926,
      "▁irony": 3927,
      "▁introducing": 3928,
      "▁b/c": 3929,
      "▁fragilities": 3930,
      "▁pigs": 3931,
      "▁hh": 3932,
      "▁chapters": 3933,
      "▁color": 3934,
      "▁mechan": 3935,
      "##inction": 3936,
      "▁packet": 3937,
      "▁analyst": 3938,
      "▁son": 3939,
      "▁electric": 3940,
      "##armacy": 3941,
      "▁threat": 3942,
      "▁cheating": 3943,
      "▁judg": 3944,
      "▁openness": 3945,
      "##inu": 3946,
      "▁celebration": 3947,
      "##-sm": 3948,
      "▁undert": 3949,
      "▁rein": 3950,
      "▁characterized": 3951,
      "##fs": 3952,
      "▁kinds": 3953,
      "##aughter": 3954,
      "▁atlan": 3955,
      "▁distraction": 3956,
      "▁haze": 3957,
      "▁deployment": 3958,
      "▁sender": 3959,
      "▁gripped": 3960,
      "▁aisle": 3961,
      "##ged": 3962,
      "▁fallout": 3963,
      "▁uti": 3964,
      "▁only": 3965,
      "▁dram": 3966,
      "▁fall": 3967,
      "##4": 3968,
      "▁bombed": 3969,
      "▁colonel": 3970,
      "▁hash": 3971,
      "▁beware": 3972,
      "▁sout": 3973,
      "##overs": 3974,
      "▁volleyball": 3975,
      "▁bent": 3976,
      "##9": 3977,
      "▁for": 3978,
      "##tially": 3979,
      "▁))": 3980,
      "▁eastern": 3981,
      "▁veterans": 3982,
      "▁sticking": 3983,
      "##acamole": 3984,
      "##xts": 3985,
      "▁tried": 3986,
      "▁seconds": 3987,
      "▁cotton": 3988,
      "▁fishie": 3989,
      "▁exec": 3990,
      "▁output": 3991,
      "▁bait": 3992,
      "##sel": 3993,
      "▁able": 3994,
      "##hin": 3995,
      "▁absolutely": 3996,
      "▁boys": 3997,
      "##ilization": 3998,
      "##lined": 3999,
      "▁servants": 4000,
      "##bern": 4001,
      "##ule": 4002,
      "▁phenom": 4003,
      "▁implement": 4004,
      "##-boat": 4005,
      "▁dick": 4006,
      "##scrib": 4007,
      "▁transforming": 4008,
      "##arc": 4009,
      "▁rewarded": 4010,
      "▁puss": 4011,
      "▁consumerism": 4012,
      "▁terrible": 4013,
      "##/2000": 4014,
      "▁surround": 4015,
      "▁sister": 4016,
      "##aled": 4017,
      "▁ld2d-": 4018,
      "▁conduct": 4019,
      "▁facilitate": 4020,
      "▁aggression": 4021,
      "▁dang": 4022,
      "##ects": 4023,
      "▁agriculture": 4024,
      "▁occupation": 4025,
      "▁uprising": 4026,
      "▁sut": 4027,
      "▁sudd": 4028,
      "▁simpli": 4029,
      "▁logo": 4030,
      "▁brooding": 4031,
      "▁neologism": 4032,
      "▁joh": 4033,
      "##ceptions": 4034,
      "##enn": 4035,
      "▁!.": 4036,
      "▁province": 4037,
      "▁transmitter": 4038,
      "▁fix": 4039,
      "##oli": 4040,
      "##udge": 4041,
      "▁discharge": 4042,
      "▁embr": 4043,
      "▁politician": 4044,
      "▁fa": 4045,
      "▁beg": 4046,
      "##emporary": 4047,
      "▁pit": 4048,
      "##eps": 4049,
      "▁preface": 4050,
      "##atements": 4051,
      "##rabb": 4052,
      "▁overlooked": 4053,
      "▁nobility": 4054,
      "▁systems": 4055,
      "▁surprised": 4056,
      "▁bottom": 4057,
      "▁animals": 4058,
      "▁purchases": 4059,
      "▁imprison": 4060,
      "▁folds": 4061,
      "▁rift": 4062,
      "▁may": 4063,
      "▁motorist": 4064,
      "▁politicians": 4065,
      "▁enthusiasts": 4066,
      "▁partic": 4067,
      "▁pant": 4068,
      "▁shiny": 4069,
      "##isons": 4070,
      "▁cool": 4071,
      "##g.": 4072,
      "▁chickens": 4073,
      "▁pussy": 4074,
      "▁[": 4075,
      "##dotes": 4076,
      "##ourage": 4077,
      "▁repairs": 4078,
      "▁overcome": 4079,
      "▁conquest": 4080,
      "##.2": 4081,
      "▁bump": 4082,
      "▁radi": 4083,
      "▁defender": 4084,
      "▁bookst": 4085,
      "▁patrons": 4086,
      "▁adver": 4087,
      "▁muffs": 4088,
      "##chen": 4089,
      "##goti": 4090,
      "▁bul": 4091,
      "▁************************************************": 4092,
      "##ched": 4093,
      "▁occas": 4094,
      "##paths": 4095,
      "▁fully": 4096,
      "▁a.m.": 4097,
      "▁procedure": 4098,
      "▁deeds": 4099,
      "▁lions": 4100,
      "▁vot": 4101,
      "▁utterance": 4102,
      "▁camer": 4103,
      "▁behaviour": 4104,
      "##foli": 4105,
      "▁accum": 4106,
      "##mping": 4107,
      "▁fear": 4108,
      "▁reproduced": 4109,
      "▁drivers": 4110,
      "▁dissatisfaction": 4111,
      "▁promise": 4112,
      "▁ding": 4113,
      "▁finishing": 4114,
      "##bility": 4115,
      "##ss": 4116,
      "▁total": 4117,
      "##ordination": 4118,
      "▁publicity": 4119,
      "▁burden": 4120,
      "▁altering": 4121,
      "▁girl": 4122,
      "▁soli": 4123,
      "▁nearly": 4124,
      "▁mode": 4125,
      "▁refund": 4126,
      "##loaded": 4127,
      "▁administer": 4128,
      "▁frenzy": 4129,
      "##ioration": 4130,
      "▁affiliate": 4131,
      "▁volunteers": 4132,
      "▁newspaper": 4133,
      "##ertainly": 4134,
      "▁brought": 4135,
      "##cl": 4136,
      "▁grabbing": 4137,
      "▁asking": 4138,
      "▁understood": 4139,
      "##rou": 4140,
      "##ainly": 4141,
      "▁'": 4142,
      "▁equation": 4143,
      "▁norms": 4144,
      "▁preven": 4145,
      "▁cities": 4146,
      "##.rabb": 4147,
      "▁apost": 4148,
      "##ag": 4149,
      "▁umb": 4150,
      "▁zoo": 4151,
      "▁sidewalk": 4152,
      "▁loss": 4153,
      "▁legality": 4154,
      "▁blow": 4155,
      "▁reflects": 4156,
      "▁clouds": 4157,
      "▁largest": 4158,
      "▁emerged": 4159,
      "▁renew": 4160,
      "▁raining": 4161,
      "▁wang": 4162,
      "▁conform": 4163,
      "▁execu": 4164,
      "▁tugged": 4165,
      "▁quit": 4166,
      "##fics": 4167,
      "▁hunger": 4168,
      "##als": 4169,
      "##olt": 4170,
      "##form": 4171,
      "▁paw": 4172,
      "▁exagg": 4173,
      "##riting": 4174,
      "▁sophie": 4175,
      "▁squir": 4176,
      "▁mhm": 4177,
      "##auts": 4178,
      "▁fragments": 4179,
      "▁become": 4180,
      "▁lyrics": 4181,
      "▁stadium": 4182,
      "▁peters": 4183,
      "▁shirts": 4184,
      "▁disappeared": 4185,
      "▁debr": 4186,
      "▁-------------------------------------------------": 4187,
      "▁weekend": 4188,
      "##lc": 4189,
      "▁uniform": 4190,
      "▁phenomenon": 4191,
      "▁polish": 4192,
      "▁adh": 4193,
      "▁confused": 4194,
      "##ielder": 4195,
      "▁tuesday": 4196,
      "▁cr": 4197,
      "▁paws": 4198,
      "▁partners": 4199,
      "▁qua": 4200,
      "▁over": 4201,
      "▁bench": 4202,
      "▁resched": 4203,
      "▁citi": 4204,
      "▁communic": 4205,
      "▁mesh": 4206,
      "##ections": 4207,
      "▁aristocrats": 4208,
      "▁americ": 4209,
      "▁disappointed": 4210,
      "▁miss": 4211,
      "▁mal": 4212,
      "▁system": 4213,
      "▁sheriff": 4214,
      "▁indianapolis": 4215,
      "▁flatten": 4216,
      "▁smoking": 4217,
      "▁grinder": 4218,
      "##duc": 4219,
      "▁accommodate": 4220,
      "▁domains": 4221,
      "##porter": 4222,
      "▁styrofoam": 4223,
      "▁crushing": 4224,
      "‘": 4225,
      "##ppled": 4226,
      "##truck": 4227,
      "▁vowed": 4228,
      "▁password": 4229,
      "##ieve": 4230,
      "▁ball": 4231,
      "▁helping": 4232,
      "##eak": 4233,
      "▁enacted": 4234,
      "##xal": 4235,
      "▁winking": 4236,
      "▁detained": 4237,
      "##oration": 4238,
      "##hether": 4239,
      "##edge": 4240,
      "▁hypnosis": 4241,
      "##tally": 4242,
      "▁counterfeit": 4243,
      "##icts": 4244,
      "##se": 4245,
      "##side": 4246,
      "▁bounced": 4247,
      "▁amusement": 4248,
      "##elped": 4249,
      "▁bottoms": 4250,
      "▁sunglasses": 4251,
      "▁identify": 4252,
      "▁rig": 4253,
      "▁plastic": 4254,
      "▁popular": 4255,
      "▁practicing": 4256,
      "▁fug": 4257,
      "▁climb": 4258,
      "##ctor": 4259,
      "▁noting": 4260,
      "▁mud": 4261,
      "▁coordinated": 4262,
      "▁dolph": 4263,
      "##ou": 4264,
      "▁'s": 4265,
      "##uations": 4266,
      "▁conversations": 4267,
      "▁trot": 4268,
      "▁possible": 4269,
      "▁retrieval": 4270,
      "##iv": 4271,
      "##hiki": 4272,
      "▁teachers": 4273,
      "▁erup": 4274,
      "▁noticed": 4275,
      "▁sailed": 4276,
      "▁patient": 4277,
      "▁sunset": 4278,
      "▁midterms": 4279,
      "▁whereabouts": 4280,
      "##aded": 4281,
      "##usters": 4282,
      "▁sport": 4283,
      "▁supply": 4284,
      "▁capacities": 4285,
      "##itters": 4286,
      "▁arguing": 4287,
      "▁rushed": 4288,
      "##light": 4289,
      "▁disse": 4290,
      "▁tobac": 4291,
      "▁educate": 4292,
      "▁properly": 4293,
      "▁restrict": 4294,
      "▁symphony": 4295,
      "##amed": 4296,
      "▁stall": 4297,
      "##tives": 4298,
      "##lo": 4299,
      "▁billi": 4300,
      "▁bond": 4301,
      "▁three": 4302,
      "▁aerated": 4303,
      "▁guess": 4304,
      "▁squadrons": 4305,
      "##lar": 4306,
      "ɛ": 4307,
      "▁licen": 4308,
      "▁belts": 4309,
      "▁anticipate": 4310,
      "▁destruc": 4311,
      "▁nor": 4312,
      "▁supporter": 4313,
      "▁glimpse": 4314,
      "▁tug": 4315,
      "▁belt": 4316,
      "##llow": 4317,
      "▁disp": 4318,
      "▁exiled": 4319,
      "##ancers": 4320,
      "▁dec": 4321,
      "▁flat": 4322,
      "▁stomach": 4323,
      "▁females": 4324,
      "▁changed": 4325,
      "##uled": 4326,
      "▁insec": 4327,
      "▁staff": 4328,
      "##ez": 4329,
      "▁halloween": 4330,
      "▁creatures": 4331,
      "▁sapped": 4332,
      "▁sitting": 4333,
      "▁catch": 4334,
      "▁thro": 4335,
      "▁yes": 4336,
      "▁patterns": 4337,
      "##otw": 4338,
      "▁|--------+----------------": 4339,
      "▁selection": 4340,
      "▁semantics": 4341,
      "▁attain": 4342,
      "▁tribe": 4343,
      "▁ing": 4344,
      "##ativ": 4345,
      "▁ranger": 4346,
      "▁lab": 4347,
      "▁outc": 4348,
      "##0": 4349,
      "▁rained": 4350,
      "▁lips": 4351,
      "▁iraq": 4352,
      "▁press": 4353,
      "▁besid": 4354,
      "▁out": 4355,
      "▁sorts": 4356,
      "▁lets": 4357,
      "##ony": 4358,
      "▁organizations": 4359,
      "▁observe": 4360,
      "▁consol": 4361,
      "▁types": 4362,
      "▁specim": 4363,
      "▁visas": 4364,
      "##fess": 4365,
      "##usement": 4366,
      "▁immigrants": 4367,
      "▁hundreds": 4368,
      "##hy": 4369,
      "▁picket": 4370,
      "▁lay": 4371,
      "▁bowl": 4372,
      "▁ling": 4373,
      "▁outs": 4374,
      "▁doors": 4375,
      "▁semi": 4376,
      "▁abuse": 4377,
      "▁explode": 4378,
      "▁mixing": 4379,
      "▁broad": 4380,
      "▁infrastructure": 4381,
      "▁probe": 4382,
      "▁questioning": 4383,
      "▁fleet": 4384,
      "▁motivated": 4385,
      "▁vendors": 4386,
      "##atively": 4387,
      "▁gulf": 4388,
      "▁iq": 4389,
      "▁astronauts": 4390,
      "##erful": 4391,
      "##umbs": 4392,
      "▁holders": 4393,
      "##ophobia": 4394,
      "##rently": 4395,
      "▁bre": 4396,
      "▁gun": 4397,
      "##bles": 4398,
      "▁co-": 4399,
      "▁heavy": 4400,
      "▁october": 4401,
      "▁island": 4402,
      "##eat": 4403,
      "▁condemned": 4404,
      "##hment": 4405,
      "▁jap": 4406,
      "▁olive": 4407,
      "▁direc": 4408,
      "▁catast": 4409,
      "##aa": 4410,
      "▁levels": 4411,
      "▁mosqu": 4412,
      "▁tiny": 4413,
      "▁reclaimed": 4414,
      "▁confidence": 4415,
      "▁bef": 4416,
      "▁patron": 4417,
      "▁stranger": 4418,
      "▁natur": 4419,
      "▁sop": 4420,
      "▁pos": 4421,
      "##uted": 4422,
      "▁decree": 4423,
      "##itish": 4424,
      "##olving": 4425,
      "▁distribute": 4426,
      "##,": 4427,
      "▁want": 4428,
      "▁lower": 4429,
      "▁altogether": 4430,
      "▁hang": 4431,
      "▁tragedy": 4432,
      "▁rome": 4433,
      "▁party": 4434,
      "▁defe": 4435,
      "##icians": 4436,
      "▁stored": 4437,
      "▁i.e.": 4438,
      "▁highlight": 4439,
      "▁refugees": 4440,
      "▁scand": 4441,
      "##asp": 4442,
      "▁lookout": 4443,
      "▁pools": 4444,
      "▁enough": 4445,
      "▁paints": 4446,
      "##ligibility": 4447,
      "▁magaz": 4448,
      "▁sm": 4449,
      "▁s’": 4450,
      "##marked": 4451,
      "▁analyzed": 4452,
      "▁published": 4453,
      "▁recons": 4454,
      "▁lod": 4455,
      "##gate": 4456,
      "▁repa": 4457,
      "##uched": 4458,
      "▁recommending": 4459,
      "▁cub": 4460,
      "▁abol": 4461,
      "##ancer": 4462,
      "▁board": 4463,
      "##otamus": 4464,
      "▁diale": 4465,
      "▁young": 4466,
      "##ef": 4467,
      "▁pity": 4468,
      "▁vest": 4469,
      "▁symptoms": 4470,
      "▁exchanged": 4471,
      "▁personal": 4472,
      "▁turmoil": 4473,
      "▁apply": 4474,
      "▁assassination": 4475,
      "##ower": 4476,
      "▁dialogue": 4477,
      "▁melt": 4478,
      "▁contam": 4479,
      "▁your": 4480,
      "##cest": 4481,
      "▁orientation": 4482,
      "▁baked": 4483,
      "▁gre": 4484,
      "▁capture": 4485,
      "▁elbow": 4486,
      "##/0": 4487,
      "▁hailed": 4488,
      "▁muss": 4489,
      "##oughly": 4490,
      "▁simple": 4491,
      "▁critics": 4492,
      "▁eei": 4493,
      "##lets": 4494,
      "##weight": 4495,
      "▁malaria": 4496,
      "▁arises": 4497,
      "▁mentioned": 4498,
      "▁toes": 4499,
      "▁considerations": 4500,
      "▁pleased": 4501,
      "##enumber": 4502,
      "▁tomb": 4503,
      "##inary": 4504,
      "▁st.": 4505,
      "▁kiw": 4506,
      "▁lee": 4507,
      "▁reserves": 4508,
      "##utter": 4509,
      "▁snort": 4510,
      "▁brooms": 4511,
      "##ix": 4512,
      "▁territ": 4513,
      "▁carrots": 4514,
      "▁preached": 4515,
      "▁upgrade": 4516,
      "##oam": 4517,
      "▁staring": 4518,
      "▁notify": 4519,
      "▁acclaimed": 4520,
      "▁api": 4521,
      "▁topic": 4522,
      "##asingly": 4523,
      "##ension": 4524,
      "▁escaped": 4525,
      "▁e-": 4526,
      "▁d": 4527,
      "▁a": 4528,
      "▁receip": 4529,
      "▁mouths": 4530,
      "▁drift": 4531,
      "▁objections": 4532,
      "▁involved": 4533,
      "▁nutrition": 4534,
      "▁devised": 4535,
      "▁consultation": 4536,
      "##eria": 4537,
      "▁layers": 4538,
      "▁rapporteur": 4539,
      "▁cle": 4540,
      "▁manual": 4541,
      "##roduc": 4542,
      "▁pav": 4543,
      "▁earthworms": 4544,
      "▁computing": 4545,
      "▁mig": 4546,
      "##90's": 4547,
      "▁orchestra": 4548,
      "##pple": 4549,
      "▁u.s.": 4550,
      "▁goss": 4551,
      "▁headmaster": 4552,
      "##nies": 4553,
      "▁lacks": 4554,
      "##adas": 4555,
      "##verage": 4556,
      "▁plants": 4557,
      "##tices": 4558,
      "▁necks": 4559,
      "▁skirt": 4560,
      "▁submarine": 4561,
      "##ties": 4562,
      "▁ro": 4563,
      "▁regarding": 4564,
      "##atted": 4565,
      "▁erected": 4566,
      "▁ordered": 4567,
      "▁elite": 4568,
      "▁climbed": 4569,
      "▁barrel": 4570,
      "▁poss": 4571,
      "▁panel": 4572,
      "▁offered": 4573,
      "▁injury": 4574,
      "▁&am": 4575,
      "▁urging": 4576,
      "▁wiki": 4577,
      "▁hut": 4578,
      "▁neigh": 4579,
      "▁firing": 4580,
      "##gether": 4581,
      "▁fried": 4582,
      "▁grap": 4583,
      "▁angels": 4584,
      "▁loads": 4585,
      "▁vine": 4586,
      "▁barking": 4587,
      "##ortment": 4588,
      "##zer": 4589,
      "▁deadbol": 4590,
      "▁plugged": 4591,
      "▁decline": 4592,
      "▁uncovered": 4593,
      "▁formal": 4594,
      "▁bible": 4595,
      "▁ruined": 4596,
      "##*": 4597,
      "▁teaspoons": 4598,
      "▁bill": 4599,
      "▁proceeded": 4600,
      "▁consumer": 4601,
      "▁eaters": 4602,
      "▁acceptance": 4603,
      "▁alcoho": 4604,
      "▁lacked": 4605,
      "##kes": 4606,
      "##cape": 4607,
      "▁crying": 4608,
      "▁continuing": 4609,
      "▁winters": 4610,
      "▁incomes": 4611,
      "▁capt": 4612,
      "▁potato": 4613,
      "##rovers": 4614,
      "##ernobyl": 4615,
      "##derst": 4616,
      "▁professors": 4617,
      "▁guaranteeing": 4618,
      "▁can": 4619,
      "▁interv": 4620,
      "▁clock": 4621,
      "▁lectures": 4622,
      "##utic": 4623,
      "▁passcode": 4624,
      "▁speaker": 4625,
      "▁pamph": 4626,
      "##xic": 4627,
      "##ety": 4628,
      "##‘": 4629,
      "▁;": 4630,
      "##aceful": 4631,
      "##tocks.pdf": 4632,
      "▁dog": 4633,
      "▁niece": 4634,
      "▁excellence": 4635,
      "##aponize": 4636,
      "##ifications": 4637,
      "▁eggy": 4638,
      "▁whites": 4639,
      "▁examination": 4640,
      "▁law": 4641,
      "▁concer": 4642,
      "▁conte": 4643,
      "##atis": 4644,
      "▁lists": 4645,
      "▁duel": 4646,
      "▁paradig": 4647,
      "▁wa": 4648,
      "▁recognised": 4649,
      "▁retired": 4650,
      "▁da": 4651,
      "▁hards": 4652,
      "▁performances": 4653,
      "##wik": 4654,
      "▁achieve": 4655,
      "▁evenings": 4656,
      "▁glare": 4657,
      "▁log": 4658,
      "▁vomit": 4659,
      "▁starfighter": 4660,
      "##ooth": 4661,
      "▁wonderful": 4662,
      "▁mass": 4663,
      "▁laptop": 4664,
      "▁congestion": 4665,
      "▁sussex": 4666,
      "##omore": 4667,
      "##fighter": 4668,
      "▁avoiding": 4669,
      "▁concentrating": 4670,
      "▁toaster": 4671,
      "▁last": 4672,
      "▁appren": 4673,
      "##-up": 4674,
      "▁hz": 4675,
      "▁hot": 4676,
      "▁unity": 4677,
      "▁/": 4678,
      "▁padd": 4679,
      "▁revival": 4680,
      "▁scramb": 4681,
      "▁eated": 4682,
      "z": 4683,
      "▁fitness": 4684,
      "▁swee": 4685,
      "▁slope": 4686,
      "▁memphis": 4687,
      "▁pursued": 4688,
      "▁quantity": 4689,
      "▁tolerate": 4690,
      "▁pleas": 4691,
      "▁horsemen": 4692,
      "##resent": 4693,
      "▁compound": 4694,
      "##arm": 4695,
      "##pri": 4696,
      "##ington": 4697,
      "##ns": 4698,
      "▁mask": 4699,
      "▁follows": 4700,
      "▁comput": 4701,
      "▁feather": 4702,
      "▁struggling": 4703,
      "▁713": 4704,
      "▁judiciary": 4705,
      "▁some": 4706,
      "▁communications": 4707,
      "▁stained": 4708,
      "▁attractions": 4709,
      "▁generali": 4710,
      "▁overchar": 4711,
      "▁featured": 4712,
      "▁ear": 4713,
      "▁jumping": 4714,
      "▁stan": 4715,
      "▁flops": 4716,
      "##oat": 4717,
      "▁replace": 4718,
      "##onomy": 4719,
      "▁dome": 4720,
      "▁chemistry": 4721,
      "▁get": 4722,
      "▁thread": 4723,
      "▁route": 4724,
      "▁stolen": 4725,
      "▁table": 4726,
      "▁tenth": 4727,
      "▁napkins": 4728,
      "##ody": 4729,
      "▁collectors": 4730,
      "▁proved": 4731,
      "##mes": 4732,
      "▁swap": 4733,
      "▁burbank": 4734,
      "▁lop": 4735,
      "▁pranks": 4736,
      "▁slightly": 4737,
      "##arr": 4738,
      "▁pic": 4739,
      "▁procession": 4740,
      "▁run": 4741,
      "##uator": 4742,
      "##urities": 4743,
      "▁bar": 4744,
      "▁inhab": 4745,
      "▁protocol": 4746,
      "▁mentioning": 4747,
      "▁bartender": 4748,
      "##erina": 4749,
      "▁weekdays": 4750,
      "##mar": 4751,
      "▁fraud": 4752,
      "▁symbols": 4753,
      "▁around": 4754,
      "▁waiters": 4755,
      "▁brief": 4756,
      "▁classes": 4757,
      "▁donated": 4758,
      "▁connections": 4759,
      "▁hamp": 4760,
      "▁particular": 4761,
      "##ant": 4762,
      "▁against": 4763,
      "▁dism": 4764,
      "▁lisa_": 4765,
      "▁25": 4766,
      "▁de": 4767,
      "▁tar": 4768,
      "##stem": 4769,
      "▁data": 4770,
      "▁regional": 4771,
      "▁sp": 4772,
      "▁ambulance": 4773,
      "▁gosh": 4774,
      "▁kil": 4775,
      "▁guinea": 4776,
      "▁tele": 4777,
      "▁dismissed": 4778,
      "▁incorporate": 4779,
      "▁upd": 4780,
      "▁bedroom": 4781,
      "##ech": 4782,
      "▁inciting": 4783,
      "▁nerves": 4784,
      "▁households": 4785,
      "▁everybody": 4786,
      "▁altern": 4787,
      "▁patients": 4788,
      "▁spayed": 4789,
      "▁idea": 4790,
      "▁cer": 4791,
      "▁suff": 4792,
      "▁bugs": 4793,
      "▁persists": 4794,
      "▁cham": 4795,
      "##ology": 4796,
      "▁shift": 4797,
      "##ale": 4798,
      "▁licking": 4799,
      "▁icing": 4800,
      "##lees": 4801,
      "##gu": 4802,
      "##card": 4803,
      "▁experienced": 4804,
      "##oops": 4805,
      "▁civilization": 4806,
      "▁representative": 4807,
      "▁oops": 4808,
      "##iating": 4809,
      "▁font": 4810,
      "▁agre": 4811,
      "▁favoured": 4812,
      "▁vehicles": 4813,
      "##-l": 4814,
      "▁indeed": 4815,
      "##ears": 4816,
      "▁trusted": 4817,
      "##earance": 4818,
      "▁prel": 4819,
      "▁countries": 4820,
      "▁marriage": 4821,
      "▁rect": 4822,
      "▁engineer": 4823,
      "##oving": 4824,
      "▁sorry": 4825,
      "##ething": 4826,
      "##mall": 4827,
      "▁repressed": 4828,
      "▁prohibited": 4829,
      "▁relations": 4830,
      "▁°": 4831,
      "▁york": 4832,
      "▁record": 4833,
      "##storm": 4834,
      "##ounters": 4835,
      "▁'m": 4836,
      "##keys": 4837,
      "##dr": 4838,
      "▁fit": 4839,
      "▁fodder": 4840,
      "▁pumping": 4841,
      "▁lbs": 4842,
      "[SEP]": 4843,
      "▁jam": 4844,
      "##6-1.xls": 4845,
      "▁---=": 4846,
      "▁oppos": 4847,
      "##ensus": 4848,
      "▁strategy": 4849,
      "▁sacrifices": 4850,
      "▁tapping": 4851,
      "▁sweats": 4852,
      "▁tone": 4853,
      "##em": 4854,
      "##inned": 4855,
      "▁where": 4856,
      "##afe": 4857,
      "▁mortality": 4858,
      "##bol": 4859,
      "▁conqu": 4860,
      "▁admir": 4861,
      "▁sar": 4862,
      "##ignation": 4863,
      "▁shooting": 4864,
      "▁deriv": 4865,
      "▁exhibit": 4866,
      "▁transport": 4867,
      "##ords": 4868,
      "▁rocket": 4869,
      "▁tur": 4870,
      "##chant": 4871,
      "▁leadership": 4872,
      "▁unions": 4873,
      "▁merrygoround": 4874,
      "##rib": 4875,
      "▁benefited": 4876,
      "▁wren": 4877,
      "##son": 4878,
      "▁cutting": 4879,
      "##utching": 4880,
      "▁bord": 4881,
      "▁anymore": 4882,
      "▁furs": 4883,
      "▁dresser": 4884,
      "▁dictionary": 4885,
      "▁cosplay": 4886,
      "▁manner": 4887,
      "▁coins": 4888,
      "▁si": 4889,
      "##tes": 4890,
      "▁podc": 4891,
      "##atory": 4892,
      "▁beams": 4893,
      "▁text.htm": 4894,
      "▁were": 4895,
      "##laimed": 4896,
      "▁prim": 4897,
      "##υ": 4898,
      "##uch": 4899,
      "▁credited": 4900,
      "▁tul": 4901,
      "▁exam": 4902,
      "##lished": 4903,
      "▁albeit": 4904,
      "▁crave": 4905,
      "▁gover": 4906,
      "##aint": 4907,
      "##ify": 4908,
      "▁rating": 4909,
      "▁punctuation": 4910,
      "##ee": 4911,
      "##unic": 4912,
      "##c": 4913,
      "▁disclose": 4914,
      "▁grants": 4915,
      "##ren": 4916,
      "▁chill": 4917,
      "▁foss": 4918,
      "▁hide": 4919,
      "▁dirt": 4920,
      "▁juice": 4921,
      "▁committed": 4922,
      "##river": 4923,
      "▁provided": 4924,
      "▁advant": 4925,
      "▁stre": 4926,
      "▁everyone": 4927,
      "▁sew": 4928,
      "▁sunlight": 4929,
      "▁distorts": 4930,
      "▁occurs": 4931,
      "▁offended": 4932,
      "##ently": 4933,
      "▁il": 4934,
      "▁embarr": 4935,
      "▁ecosystems": 4936,
      "##if": 4937,
      "▁streets": 4938,
      "##ruc": 4939,
      "▁auth": 4940,
      "▁snap": 4941,
      "▁airplanes": 4942,
      "▁upload": 4943,
      "▁bitters": 4944,
      "▁altar": 4945,
      "▁aspects": 4946,
      "▁covering": 4947,
      "##anie": 4948,
      "▁las": 4949,
      "##ales": 4950,
      "▁autonomy": 4951,
      "▁preheat": 4952,
      "▁builds": 4953,
      "▁possibilities": 4954,
      "##bean": 4955,
      "▁equipment": 4956,
      "▁pennies": 4957,
      "▁machine": 4958,
      "▁springs": 4959,
      "▁misc": 4960,
      "▁goodness": 4961,
      "▁invasion": 4962,
      "▁disgust": 4963,
      "▁opened": 4964,
      "▁mechanisms": 4965,
      "▁collaborated": 4966,
      "##alties": 4967,
      "▁ownership": 4968,
      "▁then": 4969,
      "▁nav": 4970,
      "▁langu": 4971,
      "##tspots": 4972,
      "▁ratify": 4973,
      "▁congr": 4974,
      "##r": 4975,
      "▁vs.": 4976,
      "▁keep": 4977,
      "##arrassment": 4978,
      "▁developments": 4979,
      "▁musical": 4980,
      "▁or": 4981,
      "##mb": 4982,
      "▁successor": 4983,
      "▁profile": 4984,
      "▁sending": 4985,
      "▁drives": 4986,
      "▁recr": 4987,
      "▁mut": 4988,
      "▁!!!!!!": 4989,
      "##resp": 4990,
      "##oves": 4991,
      "▁glit": 4992,
      "▁expense": 4993,
      "▁end": 4994,
      "##ference": 4995,
      "▁bordered": 4996,
      "▁advised": 4997,
      "▁deal": 4998,
      "▁experim": 4999,
      "—": 5000,
      "▁quartile": 5001,
      "▁shelves": 5002,
      "▁sued": 5003,
      "##function": 5004,
      "▁creative": 5005,
      "▁pyth": 5006,
      "▁datab": 5007,
      "▁preparedness": 5008,
      "##ying": 5009,
      "▁mou": 5010,
      "▁sandal": 5011,
      "▁lope": 5012,
      "##ba": 5013,
      "▁revision": 5014,
      "▁detective": 5015,
      "▁rings": 5016,
      "▁jerk": 5017,
      "##ribb": 5018,
      "##tiff": 5019,
      "▁dates": 5020,
      "▁varieties": 5021,
      "##eren": 5022,
      "▁bullet": 5023,
      "▁mart": 5024,
      "▁lust": 5025,
      "##eav": 5026,
      "▁friends": 5027,
      "▁play": 5028,
      "##ait": 5029,
      "##alizes": 5030,
      "▁chosen": 5031,
      "▁position": 5032,
      "▁unfortunately": 5033,
      "##h-": 5034,
      "▁stole": 5035,
      "▁ver": 5036,
      "##2d-": 5037,
      "##si": 5038,
      "##onal": 5039,
      "▁holes": 5040,
      "##oneering": 5041,
      "▁claims": 5042,
      "▁restaur": 5043,
      "▁founder": 5044,
      "##edom": 5045,
      "▁causes": 5046,
      "▁chased": 5047,
      "▁adventure": 5048,
      "▁transition": 5049,
      "▁und": 5050,
      "##ribution": 5051,
      "▁pause": 5052,
      "▁occupies": 5053,
      "▁japan": 5054,
      "##vals": 5055,
      "##tion": 5056,
      "##ording": 5057,
      "##rities": 5058,
      "▁benef": 5059,
      "▁voice": 5060,
      "▁solid": 5061,
      "▁kicked": 5062,
      "▁tinkle": 5063,
      "▁smoke": 5064,
      "▁sou": 5065,
      "▁well": 5066,
      "##oo": 5067,
      "▁reminder": 5068,
      "##fting": 5069,
      "▁attendees": 5070,
      "▁absorbing": 5071,
      "▁embarrassment": 5072,
      "▁hijackers": 5073,
      "▁predators": 5074,
      "##store": 5075,
      "▁zawah": 5076,
      "▁measures": 5077,
      "▁racing": 5078,
      "##aq": 5079,
      "▁fading": 5080,
      "▁mortgage": 5081,
      "▁labour": 5082,
      "##[": 5083,
      "▁fireman": 5084,
      "▁se": 5085,
      "▁luncheon": 5086,
      "##odes": 5087,
      "▁accomp": 5088,
      "##hero": 5089,
      "##rave": 5090,
      "▁edited": 5091,
      "▁clinic": 5092,
      "▁house-": 5093,
      "##istry": 5094,
      "##cony": 5095,
      "▁firetruck": 5096,
      "▁services": 5097,
      "▁ruler": 5098,
      "▁eats": 5099,
      "▁erase": 5100,
      "▁kept": 5101,
      "##unition": 5102,
      "▁faded": 5103,
      "▁expel": 5104,
      "▁chic": 5105,
      "##tarian": 5106,
      "▁skittles": 5107,
      "##sul": 5108,
      "▁seed": 5109,
      "▁recommendations": 5110,
      "▁salespeople": 5111,
      "▁dipl": 5112,
      "##izing": 5113,
      "##understanding": 5114,
      "▁lem": 5115,
      "▁apartment": 5116,
      "▁yoyo": 5117,
      "▁pleasant": 5118,
      "▁preci": 5119,
      "▁htt": 5120,
      "▁learn": 5121,
      "▁helps": 5122,
      "##ardised": 5123,
      "▁numbness": 5124,
      "▁involvement": 5125,
      "▁mor": 5126,
      "▁jelly": 5127,
      "▁assume": 5128,
      "▁enj": 5129,
      "▁printed": 5130,
      "▁urged": 5131,
      "##.p": 5132,
      "▁napkin": 5133,
      "▁ultras": 5134,
      "##press": 5135,
      "▁alphabet": 5136,
      "##entions": 5137,
      "▁filing": 5138,
      "##astruc": 5139,
      "▁timer": 5140,
      "##omb": 5141,
      "##pit": 5142,
      "▁horm": 5143,
      "##alised": 5144,
      "▁grew": 5145,
      "▁testament": 5146,
      "##nown": 5147,
      "▁crepe": 5148,
      "▁nurse": 5149,
      "▁asser": 5150,
      "##yme": 5151,
      "▁midd": 5152,
      "##ool": 5153,
      "▁notebook": 5154,
      "▁submit": 5155,
      "▁pep": 5156,
      "▁missions": 5157,
      "▁stay": 5158,
      "##iver": 5159,
      "▁death": 5160,
      "▁arri": 5161,
      "▁titles": 5162,
      "▁deny": 5163,
      "▁correc": 5164,
      "##outh": 5165,
      "▁thus": 5166,
      "▁news": 5167,
      "▁pay": 5168,
      "▁oneself": 5169,
      "▁designs": 5170,
      "▁civilians": 5171,
      "▁pressures": 5172,
      "▁complim": 5173,
      "##-for": 5174,
      "▁drank": 5175,
      "▁mitch": 5176,
      "▁opponents": 5177,
      "▁ama": 5178,
      "##iments": 5179,
      "▁costumes": 5180,
      "▁direction": 5181,
      "▁20": 5182,
      "▁suggestion": 5183,
      "▁sculp": 5184,
      "▁budget": 5185,
      "##lec": 5186,
      "▁notion": 5187,
      "▁jigsaw": 5188,
      "##pg": 5189,
      "▁realities": 5190,
      "▁ar": 5191,
      "▁bat": 5192,
      "▁obligations": 5193,
      "##uality": 5194,
      "▁slid": 5195,
      "▁dry": 5196,
      "##ellers": 5197,
      "▁make": 5198,
      "▁wee": 5199,
      "▁reins": 5200,
      "▁discrepancy": 5201,
      "##sets": 5202,
      "▁couples": 5203,
      "▁outsiders": 5204,
      "▁dialects": 5205,
      "▁feeds": 5206,
      "▁diving": 5207,
      "▁pancakes": 5208,
      "▁plus": 5209,
      "▁all": 5210,
      "##bled": 5211,
      "▁depending": 5212,
      "▁determination": 5213,
      "▁tai": 5214,
      "##oala": 5215,
      "▁flourishing": 5216,
      "▁yr": 5217,
      "##/he": 5218,
      "▁courtesy": 5219,
      "##ached": 5220,
      "▁symbolizes": 5221,
      "▁banana": 5222,
      "##imed": 5223,
      "▁circles": 5224,
      "▁repetition": 5225,
      "▁apologize": 5226,
      "▁comp": 5227,
      "▁bri": 5228,
      "▁signific": 5229,
      "▁pow": 5230,
      "##ilities": 5231,
      "##ticians": 5232,
      "▁manatees": 5233,
      "##enef": 5234,
      "▁stores": 5235,
      "▁phones": 5236,
      "##”s": 5237,
      "▁ena": 5238,
      "▁type": 5239,
      "▁affected": 5240,
      "▁refl": 5241,
      "▁proph": 5242,
      "▁again": 5243,
      "▁represents": 5244,
      "▁whale": 5245,
      "▁relationships": 5246,
      "▁drums": 5247,
      "▁refugee": 5248,
      "##memb": 5249,
      "▁combining": 5250,
      "▁sugges": 5251,
      "▁skit": 5252,
      "▁implemented": 5253,
      "##nocentrism": 5254,
      "▁chewed": 5255,
      "▁laser": 5256,
      "▁hambur": 5257,
      "▁organize": 5258,
      "▁symbolism": 5259,
      "▁appear": 5260,
      "▁datasheet": 5261,
      "##gery": 5262,
      "▁transf": 5263,
      "▁dealt": 5264,
      "▁aboard": 5265,
      "▁doctrine": 5266,
      "▁grapes": 5267,
      "▁magistr": 5268,
      "▁posture": 5269,
      "▁sust": 5270,
      "▁podcast": 5271,
      "▁rabb": 5272,
      "▁exac": 5273,
      "▁anything": 5274,
      "▁terr": 5275,
      "▁hams": 5276,
      "##arities": 5277,
      "▁tragicomed": 5278,
      "▁federal": 5279,
      "▁heel": 5280,
      "▁joe": 5281,
      "▁eval": 5282,
      "##les": 5283,
      "▁harbour": 5284,
      "▁assump": 5285,
      "▁sank": 5286,
      "##hrm": 5287,
      "▁doctorate": 5288,
      "##enas": 5289,
      "##ance": 5290,
      "▁conducted": 5291,
      "▁sacrificed": 5292,
      "▁neo": 5293,
      "##uring": 5294,
      "##av": 5295,
      "▁cubism": 5296,
      "##-d": 5297,
      "▁rom": 5298,
      "##iography": 5299,
      "##ography": 5300,
      "##1-1.doc": 5301,
      "▁gathering": 5302,
      "▁farce": 5303,
      "##idemic": 5304,
      "▁victor": 5305,
      "▁perspectives": 5306,
      "▁shakes": 5307,
      "▁privile": 5308,
      "▁official": 5309,
      "▁joined": 5310,
      "▁resembled": 5311,
      "▁locker": 5312,
      "▁coun": 5313,
      "▁that": 5314,
      "▁palace": 5315,
      "▁brig": 5316,
      "▁palate": 5317,
      "▁sandwiches": 5318,
      "▁beginning": 5319,
      "▁actor": 5320,
      "▁subject": 5321,
      "▁abbreviation": 5322,
      "▁tabled": 5323,
      "##fran": 5324,
      "▁wolf": 5325,
      "▁director": 5326,
      "▁robot": 5327,
      "▁empanadas": 5328,
      "▁left": 5329,
      "▁hack": 5330,
      "##agre": 5331,
      "##dayeen": 5332,
      "▁thank": 5333,
      "##liability": 5334,
      "▁rall": 5335,
      "▁dispar": 5336,
      "▁identities": 5337,
      "##inded": 5338,
      "▁stripes": 5339,
      "##/200": 5340,
      "▁tra": 5341,
      "▁crossing": 5342,
      "▁settled": 5343,
      "▁spell": 5344,
      "▁199": 5345,
      "▁bladder": 5346,
      "▁thanx": 5347,
      "▁scammers": 5348,
      "▁husbands": 5349,
      "▁whether": 5350,
      "▁archbishop": 5351,
      "▁draws": 5352,
      "▁lever": 5353,
      "▁fulfill": 5354,
      "##orms": 5355,
      "##lace": 5356,
      "▁bapt": 5357,
      "▁documentation": 5358,
      "▁management": 5359,
      "▁mezza": 5360,
      "▁sel": 5361,
      "▁taxes": 5362,
      "▁bombings": 5363,
      "▁norm": 5364,
      "##inance": 5365,
      "▁sunk": 5366,
      "▁commem": 5367,
      "▁glass": 5368,
      "▁almon": 5369,
      "▁12": 5370,
      "▁purpos": 5371,
      "▁describe": 5372,
      "▁centre": 5373,
      "##timate": 5374,
      "##gown": 5375,
      "▁chocol": 5376,
      "▁sweetie": 5377,
      "##|": 5378,
      "##cle": 5379,
      "▁stampede": 5380,
      "##uah": 5381,
      "##ame": 5382,
      "▁persu": 5383,
      "▁participating": 5384,
      "##en": 5385,
      "▁confidante": 5386,
      "▁cod": 5387,
      "##eli": 5388,
      "▁sample": 5389,
      "▁elk": 5390,
      "▁gallery": 5391,
      "▁crossed": 5392,
      "▁vegas": 5393,
      "▁push": 5394,
      "▁low": 5395,
      "▁porch": 5396,
      "##+room": 5397,
      "##ograp": 5398,
      "▁negative": 5399,
      "▁occupying": 5400,
      "##oting": 5401,
      "▁fare": 5402,
      "▁peanuts": 5403,
      "▁march": 5404,
      "μ": 5405,
      "▁transferred": 5406,
      "▁ta": 5407,
      "▁milks": 5408,
      "##erious": 5409,
      "##ght": 5410,
      "▁employ": 5411,
      "##ysical": 5412,
      "##man": 5413,
      "▁six": 5414,
      "▁investig": 5415,
      "▁retrosp": 5416,
      "▁along": 5417,
      "▁restriction": 5418,
      "▁website": 5419,
      "▁shelf": 5420,
      "##thes": 5421,
      "▁crack": 5422,
      "▁plaster": 5423,
      "▁kilometers": 5424,
      "▁districts": 5425,
      "▁provoked": 5426,
      "##use": 5427,
      "▁approached": 5428,
      "##eled": 5429,
      "##pse": 5430,
      "▁postage": 5431,
      "##ger": 5432,
      "##nesday": 5433,
      "▁grades": 5434,
      "▁tended": 5435,
      "▁e-m": 5436,
      "▁index": 5437,
      "▁soccer": 5438,
      "▁jug": 5439,
      "▁micros": 5440,
      "▁labor": 5441,
      "▁overal": 5442,
      "▁tum": 5443,
      "▁interactions": 5444,
      "▁poles": 5445,
      "▁pumpkin": 5446,
      "▁sustained": 5447,
      "▁spect": 5448,
      "##aus": 5449,
      "▁horrors": 5450,
      "▁defended": 5451,
      "▁arti": 5452,
      "▁suppressed": 5453,
      "▁colony": 5454,
      "▁ribbons": 5455,
      "▁garbage": 5456,
      "▁displaced": 5457,
      "##making": 5458,
      "▁guil": 5459,
      "##science": 5460,
      "▁include": 5461,
      "▁breakthrough": 5462,
      "▁7": 5463,
      "##rof": 5464,
      "▁military": 5465,
      "▁grass": 5466,
      "▁rapids": 5467,
      "##ind": 5468,
      "▁mineral": 5469,
      "##nament": 5470,
      "▁carnival": 5471,
      "▁answers": 5472,
      "▁lap": 5473,
      "▁cancel": 5474,
      "##page": 5475,
      "▁civ": 5476,
      "▁cries": 5477,
      "##encing": 5478,
      "▁tempt": 5479,
      "▁evolution": 5480,
      "▁pretend": 5481,
      "##ooks": 5482,
      "##keeper": 5483,
      "▁dark": 5484,
      "▁exter": 5485,
      "##lusion": 5486,
      "▁initiated": 5487,
      "▁liking": 5488,
      "▁mexican": 5489,
      "▁voc": 5490,
      "▁pledged": 5491,
      "▁tribulation": 5492,
      "##cosm": 5493,
      "1": 5494,
      "▁austral": 5495,
      "▁null": 5496,
      "▁locks": 5497,
      "##falls": 5498,
      "▁haircut": 5499,
      "▁appointed": 5500,
      "##&b": 5501,
      "▁deb": 5502,
      "▁scanned": 5503,
      "▁salaries": 5504,
      "▁ensures": 5505,
      "▁thomas": 5506,
      "▁malls": 5507,
      "##erished": 5508,
      "##inging": 5509,
      "▁connect": 5510,
      "##uated": 5511,
      "▁diff": 5512,
      "▁techniqu": 5513,
      "▁claim": 5514,
      "##ternoon": 5515,
      "▁expect": 5516,
      "▁fourth": 5517,
      "▁watering": 5518,
      "▁mont": 5519,
      "##lation": 5520,
      "▁accessing": 5521,
      "##gel": 5522,
      "##********************************": 5523,
      "##acture": 5524,
      "▁hosting": 5525,
      "▁flashing": 5526,
      "▁hus": 5527,
      "▁standards": 5528,
      "▁dil": 5529,
      "▁inte": 5530,
      "▁mood": 5531,
      "▁predicted": 5532,
      "##umph": 5533,
      "▁dun": 5534,
      "▁mapping": 5535,
      "##mon": 5536,
      "##enter": 5537,
      "##ault": 5538,
      "▁thirty": 5539,
      "##-th": 5540,
      "##copes": 5541,
      "▁courses": 5542,
      "▁features": 5543,
      "▁conve": 5544,
      "▁iraqi": 5545,
      "▁,?": 5546,
      "▁deck": 5547,
      "▁distributing": 5548,
      "▁seems": 5549,
      "▁calculating": 5550,
      "▁ethnicity": 5551,
      "▁atrocities": 5552,
      "▁bouts": 5553,
      "ł": 5554,
      "▁exploding": 5555,
      "▁public": 5556,
      "▁update": 5557,
      "▁decre": 5558,
      "▁incorporated": 5559,
      "##gar": 5560,
      "▁geography": 5561,
      "▁capability": 5562,
      "▁robots": 5563,
      "▁entrep": 5564,
      "▁quest": 5565,
      "▁tucked": 5566,
      "▁non": 5567,
      "▁vac": 5568,
      "##acking": 5569,
      "▁vow": 5570,
      "##pe": 5571,
      "▁physi": 5572,
      "##olved": 5573,
      "▁stab": 5574,
      "▁names": 5575,
      "▁immersed": 5576,
      "##eeing": 5577,
      "▁goes": 5578,
      "##unting": 5579,
      "▁fake": 5580,
      "▁spons": 5581,
      "▁goo": 5582,
      "▁buildings": 5583,
      "▁correctly": 5584,
      "▁production": 5585,
      "##umbling": 5586,
      "▁folio": 5587,
      "▁invoices": 5588,
      "##scope": 5589,
      "▁adam": 5590,
      "▁volume": 5591,
      "▁benefits": 5592,
      "▁constit": 5593,
      "▁humanities": 5594,
      "▁greetings": 5595,
      "▁marie": 5596,
      "▁compensate": 5597,
      "▁real": 5598,
      "▁irritation": 5599,
      "▁weap": 5600,
      "##ationed": 5601,
      "##ize": 5602,
      "▁backside": 5603,
      "▁celebrating": 5604,
      "▁pavement": 5605,
      "▁iron": 5606,
      "▁camera": 5607,
      "▁transmission": 5608,
      "▁fx": 5609,
      "##aurs": 5610,
      "▁clust": 5611,
      "▁credentials": 5612,
      "▁regist": 5613,
      "##ills": 5614,
      "##vd": 5615,
      "##pop": 5616,
      "▁reflection": 5617,
      "##10": 5618,
      "##emb": 5619,
      "▁childhood": 5620,
      "▁spots": 5621,
      "##oral": 5622,
      "▁soups": 5623,
      "▁divided": 5624,
      "##tiles": 5625,
      "▁spring": 5626,
      "▁optim": 5627,
      "▁afghanistan": 5628,
      "##eakers": 5629,
      "##tions": 5630,
      "▁stic": 5631,
      "▁fat": 5632,
      "##ways": 5633,
      "##wi": 5634,
      "▁diagnosed": 5635,
      "▁desire": 5636,
      "▁column": 5637,
      "▁ind": 5638,
      "▁waning": 5639,
      "▁clause": 5640,
      "▁remainder": 5641,
      "##aire": 5642,
      "▁hire": 5643,
      "▁reforms": 5644,
      "▁loan": 5645,
      "▁0": 5646,
      "▁annex": 5647,
      "▁collections": 5648,
      "▁compet": 5649,
      "▁consent": 5650,
      "▁os": 5651,
      "▁underm": 5652,
      "##act": 5653,
      "▁freedom": 5654,
      "▁shone": 5655,
      "▁christi": 5656,
      "▁elements": 5657,
      "##pres": 5658,
      "##list": 5659,
      "▁forms": 5660,
      "▁convenience": 5661,
      "▁companions": 5662,
      "##agon": 5663,
      "▁follow": 5664,
      "▁p.m": 5665,
      "▁converting": 5666,
      "▁doggie": 5667,
      "##erd": 5668,
      "▁looks": 5669,
      "▁distortion": 5670,
      "▁flic": 5671,
      "▁but": 5672,
      "▁brass": 5673,
      "▁poses": 5674,
      "▁hats": 5675,
      "##istribution": 5676,
      "▁whoever": 5677,
      "▁municipalities": 5678,
      "##bir": 5679,
      "▁ech": 5680,
      "▁subsid": 5681,
      "▁sect": 5682,
      "▁channels": 5683,
      "▁disappointment": 5684,
      "▁less": 5685,
      "▁attracted": 5686,
      "▁rober": 5687,
      "▁stared": 5688,
      "▁interviews": 5689,
      "▁immunity": 5690,
      "▁existing": 5691,
      "▁arsen": 5692,
      "▁difficulties": 5693,
      "▁safety": 5694,
      "▁licenses": 5695,
      "▁recurring": 5696,
      "▁joke": 5697,
      "æ": 5698,
      "▁anticipated": 5699,
      "▁issu": 5700,
      "▁smuggling": 5701,
      "▁nevertheless": 5702,
      "▁animation": 5703,
      "▁vice-president": 5704,
      "▁federalism": 5705,
      "##rigu": 5706,
      "▁hitting": 5707,
      "▁boing": 5708,
      "▁dest": 5709,
      "▁formats": 5710,
      "▁madness": 5711,
      "▁trespass": 5712,
      "▁religions": 5713,
      "▁gras": 5714,
      "##cence": 5715,
      "▁departs": 5716,
      "▁endorse": 5717,
      "▁fro": 5718,
      "▁okay": 5719,
      "▁tweeted": 5720,
      "▁depend": 5721,
      "▁necess": 5722,
      "▁dri": 5723,
      "▁clothes": 5724,
      "▁difficult": 5725,
      "▁coali": 5726,
      "##pins": 5727,
      "▁full": 5728,
      "##veland": 5729,
      "▁proc": 5730,
      "##titude": 5731,
      "▁knocked": 5732,
      "▁refusing": 5733,
      "▁times": 5734,
      "▁fireplaces": 5735,
      "▁bachel": 5736,
      "▁likeness": 5737,
      "▁sing": 5738,
      "▁du": 5739,
      "▁fashion": 5740,
      "▁transmedia": 5741,
      "▁guided": 5742,
      "▁tournament": 5743,
      "▁ang": 5744,
      "▁chair": 5745,
      "▁bunch": 5746,
      "##itled": 5747,
      "##umble": 5748,
      "▁happening": 5749,
      "▁dodge": 5750,
      "▁appreciated": 5751,
      "##/2": 5752,
      "▁community": 5753,
      "▁obviously": 5754,
      "▁ov": 5755,
      "##ape": 5756,
      "##)": 5757,
      "##dit": 5758,
      "▁computer": 5759,
      "▁cleric": 5760,
      "##ho": 5761,
      "▁guidance": 5762,
      "▁enriched": 5763,
      "▁’’": 5764,
      "▁sat": 5765,
      "▁somehow": 5766,
      "##xim": 5767,
      "▁opportun": 5768,
      "▁harmonisation": 5769,
      "▁ripping": 5770,
      "▁rub": 5771,
      "##alding": 5772,
      "▁clumps": 5773,
      "▁buds": 5774,
      "▁vary": 5775,
      "##ih": 5776,
      "▁item": 5777,
      "##nched": 5778,
      "##repres": 5779,
      "▁love": 5780,
      "##ticoat": 5781,
      "▁summaries": 5782,
      "▁reindeer": 5783,
      "▁verge": 5784,
      "▁strap": 5785,
      "▁dall": 5786,
      "▁escaping": 5787,
      "▁suddenly": 5788,
      "▁modification": 5789,
      "▁month": 5790,
      "▁limb": 5791,
      "▁ultimately": 5792,
      "▁do": 5793,
      "▁regar": 5794,
      "▁studies": 5795,
      "▁respect": 5796,
      "##tic": 5797,
      "▁supporting": 5798,
      "▁camps": 5799,
      "▁shelt": 5800,
      "##eg": 5801,
      "▁focuses": 5802,
      "▁payers": 5803,
      "##”": 5804,
      "▁amendment": 5805,
      "▁myself": 5806,
      "▁wind": 5807,
      "▁canc": 5808,
      "##bness": 5809,
      "▁sensing": 5810,
      "##ketch": 5811,
      "▁aimed": 5812,
      "▁forgotten": 5813,
      "▁deed": 5814,
      "▁bee": 5815,
      "▁slang": 5816,
      "##nosis": 5817,
      "##amet": 5818,
      "##rie": 5819,
      "▁react": 5820,
      "▁financing": 5821,
      "▁leaving": 5822,
      "▁pandemic": 5823,
      "##atches": 5824,
      "##ummy": 5825,
      "##amples": 5826,
      "##yer": 5827,
      "▁came": 5828,
      "##nec": 5829,
      "▁ed": 5830,
      "▁gloves": 5831,
      "▁warn": 5832,
      "▁therapist": 5833,
      "▁c": 5834,
      "▁deaths": 5835,
      "▁tup": 5836,
      "▁campaigns": 5837,
      "##pletely": 5838,
      "▁oper": 5839,
      "▁begun": 5840,
      "▁pasta": 5841,
      "▁wol": 5842,
      "▁naming": 5843,
      "▁recognize": 5844,
      "##entials": 5845,
      "▁allig": 5846,
      "▁sl": 5847,
      "##oes": 5848,
      "▁editions": 5849,
      "▁polaro": 5850,
      "▁hearings": 5851,
      "##ulum": 5852,
      "▁reviewers": 5853,
      "##oir": 5854,
      "▁scholars": 5855,
      "##nowled": 5856,
      "▁cowboy": 5857,
      "▁investigating": 5858,
      "▁convince": 5859,
      "▁fec": 5860,
      "##vel": 5861,
      "▁bone": 5862,
      "##essions": 5863,
      "▁confirmed": 5864,
      "▁commentary": 5865,
      "▁induced": 5866,
      "▁horizon": 5867,
      "▁cases": 5868,
      "▁travelling": 5869,
      "▁60": 5870,
      "▁handles": 5871,
      "▁surprisingly": 5872,
      "##tors": 5873,
      "▁tant": 5874,
      "▁compl": 5875,
      "##oted": 5876,
      "##igating": 5877,
      "▁banner": 5878,
      "##able": 5879,
      "▁applied": 5880,
      "##rise": 5881,
      "▁appointees": 5882,
      "▁conservation": 5883,
      "▁contacting": 5884,
      "##anim": 5885,
      "▁sealed": 5886,
      "▁upon": 5887,
      "▁numb": 5888,
      "▁alto": 5889,
      "##ung": 5890,
      "▁biologists": 5891,
      "▁villages": 5892,
      "##ploy": 5893,
      "##igr": 5894,
      "▁cow": 5895,
      "▁solved": 5896,
      "##apolis": 5897,
      "##itation": 5898,
      "▁un": 5899,
      "▁self": 5900,
      "▁met": 5901,
      "▁point": 5902,
      "▁radio": 5903,
      "##elled": 5904,
      "▁urine": 5905,
      "▁destin": 5906,
      "##ky": 5907,
      "▁fast": 5908,
      "##iance": 5909,
      "##do": 5910,
      "▁uncle": 5911,
      "▁blurred": 5912,
      "##ica": 5913,
      "▁stuck": 5914,
      "▁prepare": 5915,
      "▁coin": 5916,
      "▁expand": 5917,
      "▁stems": 5918,
      "##aser": 5919,
      "▁ruins": 5920,
      "▁basket": 5921,
      "▁flowed": 5922,
      "▁compliments": 5923,
      "▁rev": 5924,
      "##rors": 5925,
      "▁lift": 5926,
      "▁exe": 5927,
      "▁sources": 5928,
      "▁linen": 5929,
      "▁acknowledged": 5930,
      "##artiality": 5931,
      "▁later": 5932,
      "▁dealing": 5933,
      "##urity": 5934,
      "▁reass": 5935,
      "▁assembled": 5936,
      "▁organization": 5937,
      "▁codes": 5938,
      "▁audiences": 5939,
      "##attering": 5940,
      "▁filtered": 5941,
      "▁episode": 5942,
      "▁schools": 5943,
      "▁dire": 5944,
      "▁sarah": 5945,
      "▁disappear": 5946,
      "##ara": 5947,
      "##ox": 5948,
      "##ector": 5949,
      "▁exch": 5950,
      "▁wing": 5951,
      "▁max": 5952,
      "▁something": 5953,
      "▁spl": 5954,
      "▁dreams": 5955,
      "▁parad": 5956,
      "##lite": 5957,
      "▁muff": 5958,
      "▁historians": 5959,
      "▁rele": 5960,
      "▁flats": 5961,
      "##β": 5962,
      "▁twisted": 5963,
      "▁sisal": 5964,
      "##ugee": 5965,
      "▁legislation": 5966,
      "▁quan": 5967,
      "##ino": 5968,
      "▁thru": 5969,
      "▁distr": 5970,
      "▁pills": 5971,
      "▁legos": 5972,
      "▁galax": 5973,
      "##otte": 5974,
      "▁reputation": 5975,
      "##ull": 5976,
      "▁portions": 5977,
      "##amping": 5978,
      "##ding": 5979,
      "▁batter": 5980,
      "▁sensitivity": 5981,
      "▁)": 5982,
      "▁rebels": 5983,
      "▁deregulation": 5984,
      "##umn": 5985,
      "▁iod": 5986,
      "▁viet": 5987,
      "▁supers": 5988,
      "▁volley": 5989,
      "▁karen": 5990,
      "▁hissed": 5991,
      "▁trav": 5992,
      "▁movements": 5993,
      "▁cas": 5994,
      "▁dece": 5995,
      "▁forwar": 5996,
      "▁purchasing": 5997,
      "▁youth": 5998,
      "▁activist": 5999,
      "▁no": 6000,
      "##locked": 6001,
      "▁arrog": 6002,
      "▁finals": 6003,
      "##cup": 6004,
      "▁cash": 6005,
      "▁contribution": 6006,
      "▁2003": 6007,
      "▁sug": 6008,
      "▁ident": 6009,
      "##erves": 6010,
      "▁improve": 6011,
      "▁scan": 6012,
      "▁strangers": 6013,
      "##ε": 6014,
      "##obyl": 6015,
      "▁fiction": 6016,
      "▁alt.animals.cat": 6017,
      "▁curled": 6018,
      "##keling": 6019,
      "▁generally": 6020,
      "▁stupid": 6021,
      "▁presidents": 6022,
      "▁hy": 6023,
      "▁identity": 6024,
      "▁etc.": 6025,
      "▁fend": 6026,
      "▁computers": 6027,
      "▁atlanta": 6028,
      "##ole": 6029,
      "▁sli": 6030,
      "▁sectors": 6031,
      "▁entourage": 6032,
      "##lids": 6033,
      "▁shoe": 6034,
      "▁mild": 6035,
      "▁release": 6036,
      "##through": 6037,
      "▁musharraf": 6038,
      "▁excluded": 6039,
      "##otated": 6040,
      "▁comedy": 6041,
      "▁comple": 6042,
      "▁x": 6043,
      "ʃ": 6044,
      "▁yarns": 6045,
      "##erance": 6046,
      "▁fist": 6047,
      "▁ann": 6048,
      "##eer": 6049,
      "▁manners": 6050,
      "▁descendants": 6051,
      "##red": 6052,
      "▁beyond": 6053,
      "▁murder": 6054,
      "##ptian": 6055,
      "▁reop": 6056,
      "##glasses": 6057,
      "▁flung": 6058,
      "▁{": 6059,
      "##as": 6060,
      "▁typically": 6061,
      "▁lost": 6062,
      "▁alt.animals.": 6063,
      "##aucr": 6064,
      "▁reck": 6065,
      "▁name": 6066,
      "▁broth": 6067,
      "▁carve": 6068,
      "▁most": 6069,
      "▁thirds": 6070,
      "▁consented": 6071,
      "▁commun": 6072,
      "##liness": 6073,
      "##an": 6074,
      "▁sovereignty": 6075,
      "##00s": 6076,
      "▁friend": 6077,
      "▁jealousy": 6078,
      "▁coming": 6079,
      "##iot": 6080,
      "▁forum": 6081,
      "▁gaining": 6082,
      "▁shapes": 6083,
      "▁hos": 6084,
      "▁towels": 6085,
      "▁shame": 6086,
      "##ume": 6087,
      "##nings": 6088,
      "##ebook": 6089,
      "▁phd": 6090,
      "##igation": 6091,
      "▁derrick": 6092,
      "▁aircraft": 6093,
      "▁3": 6094,
      "▁grow": 6095,
      "▁pre": 6096,
      "▁box": 6097,
      "▁competition": 6098,
      "##mly": 6099,
      "▁launching": 6100,
      "▁mini": 6101,
      "▁piz": 6102,
      "▁presents": 6103,
      "▁trouble": 6104,
      "▁|": 6105,
      "▁santorum": 6106,
      "▁confine": 6107,
      "▁photograp": 6108,
      "##ois": 6109,
      "▁ate": 6110,
      "▁prison": 6111,
      "##ound": 6112,
      "##anks": 6113,
      "▁glove": 6114,
      "▁got": 6115,
      "▁letter": 6116,
      "▁masterpieces": 6117,
      "▁clauses": 6118,
      "▁frosting": 6119,
      "▁foundation": 6120,
      "▁insert": 6121,
      "##lies": 6122,
      "▁drafts": 6123,
      "▁homeopath": 6124,
      "##flies": 6125,
      "▁x33": 6126,
      "▁substituted": 6127,
      "▁prec": 6128,
      "▁breathing": 6129,
      "##uction": 6130,
      "▁affecting": 6131,
      "▁saying": 6132,
      "##ulate": 6133,
      "##grad": 6134,
      "▁oc": 6135,
      "▁buses": 6136,
      "▁transparency": 6137,
      "▁reservations": 6138,
      "▁m.": 6139,
      "▁wet": 6140,
      "▁wager": 6141,
      "▁instr": 6142,
      "▁o": 6143,
      "▁sugg": 6144,
      "▁vitamin": 6145,
      "##nus": 6146,
      "##+": 6147,
      "½": 6148,
      "▁fasc": 6149,
      "##l.c": 6150,
      "▁barret": 6151,
      "▁commentators": 6152,
      "▁mumbled": 6153,
      "▁growing": 6154,
      "▁showing": 6155,
      "▁lamb": 6156,
      "##franch": 6157,
      "▁radicals": 6158,
      "▁arranged": 6159,
      "##ress": 6160,
      "▁takeoff": 6161,
      "▁cooperate": 6162,
      "▁technical": 6163,
      "▁hal": 6164,
      "▁afric": 6165,
      "##case": 6166,
      "##liances": 6167,
      "▁moham": 6168,
      "▁hull": 6169,
      "▁convergence": 6170,
      "▁meantime": 6171,
      "▁lea": 6172,
      "▁shovel": 6173,
      "▁roared": 6174,
      "▁pounce": 6175,
      "▁mitigated": 6176,
      "▁land": 6177,
      "##asa": 6178,
      "▁perm": 6179,
      "▁spending": 6180,
      "▁republic": 6181,
      "▁forb": 6182,
      "▁fin": 6183,
      "▁varied": 6184,
      "▁lav": 6185,
      "▁herself": 6186,
      "##itals": 6187,
      "▁activity": 6188,
      "▁heavens": 6189,
      "##lete": 6190,
      "▁like": 6191,
      "▁nonsense": 6192,
      "▁bigger": 6193,
      "▁width": 6194,
      "▁15": 6195,
      "▁kitty": 6196,
      "▁larg": 6197,
      "▁considering": 6198,
      "▁wake": 6199,
      "▁terrorist": 6200,
      "▁70s": 6201,
      "##irling": 6202,
      "▁imprisonment": 6203,
      "▁share": 6204,
      "▁stripe": 6205,
      "##peare": 6206,
      "▁zero": 6207,
      "##cope": 6208,
      "##overn": 6209,
      "##liflower": 6210,
      "▁passengers": 6211,
      "##tedly": 6212,
      "##inking": 6213,
      "▁vegetation": 6214,
      "▁dined": 6215,
      "▁organisations": 6216,
      "▁repos": 6217,
      "▁departing": 6218,
      "##riage": 6219,
      "▁ri": 6220,
      "▁host": 6221,
      "##ightened": 6222,
      "▁reflect": 6223,
      "▁restrictions": 6224,
      "▁beauty": 6225,
      "▁picnic": 6226,
      "▁auster": 6227,
      "▁sour": 6228,
      "##rab": 6229,
      "##urning": 6230,
      "▁environments": 6231,
      "▁brains": 6232,
      "▁pact": 6233,
      "▁imprisoned": 6234,
      "▁shit": 6235,
      "▁videoc": 6236,
      "▁secretaries": 6237,
      "▁alumin": 6238,
      "##ope": 6239,
      "▁na": 6240,
      "##airs": 6241,
      "▁dash": 6242,
      "▁hub": 6243,
      "▁find": 6244,
      "▁surviv": 6245,
      "▁reality": 6246,
      "▁sucks": 6247,
      "▁concepts": 6248,
      "▁regimes": 6249,
      "▁dinos": 6250,
      "##vard": 6251,
      "▁border": 6252,
      "##lics": 6253,
      "##kering": 6254,
      "▁charter": 6255,
      "##eas": 6256,
      "▁distorted": 6257,
      "▁mentality": 6258,
      "▁conducting": 6259,
      "▁invent": 6260,
      "▁hiding": 6261,
      "▁x3": 6262,
      "▁childcare": 6263,
      "▁compliment": 6264,
      "▁proof": 6265,
      "##zas": 6266,
      "▁offensive": 6267,
      "▁helicop": 6268,
      "▁momma": 6269,
      "▁uncertainty": 6270,
      "▁endeav": 6271,
      "▁speech": 6272,
      "▁ail": 6273,
      "▁disint": 6274,
      "▁revolution": 6275,
      "##-qu": 6276,
      "##ras": 6277,
      "▁police": 6278,
      "▁attend": 6279,
      "▁gardens": 6280,
      "▁praise": 6281,
      "▁dissemination": 6282,
      "▁expiration": 6283,
      "▁horns": 6284,
      "▁i": 6285,
      "▁lasts": 6286,
      "▁islamic": 6287,
      "▁signed": 6288,
      "##ped": 6289,
      "▁ki": 6290,
      "#": 6291,
      "▁soldi": 6292,
      "▁walnut": 6293,
      "▁discip": 6294,
      "▁here": 6295,
      "▁matt": 6296,
      "▁tastes": 6297,
      "##keep": 6298,
      "▁spend": 6299,
      "##esome": 6300,
      "▁co": 6301,
      "▁prayer": 6302,
      "▁el": 6303,
      "▁fountain": 6304,
      "▁shoo": 6305,
      "▁bands": 6306,
      "▁squeeze": 6307,
      "▁approxim": 6308,
      "##word": 6309,
      "##west": 6310,
      "▁socialist": 6311,
      "▁featuring": 6312,
      "▁resulting": 6313,
      "##cro": 6314,
      "▁hairsty": 6315,
      "▁hay": 6316,
      "▁haven": 6317,
      "▁fundament": 6318,
      "##oured": 6319,
      "▁subform": 6320,
      "##obs": 6321,
      "▁movie": 6322,
      "▁hur": 6323,
      "▁underlying": 6324,
      "▁fork": 6325,
      "▁won": 6326,
      "##------": 6327,
      "##.m.": 6328,
      "▁doctor": 6329,
      "▁rockets": 6330,
      "▁iss": 6331,
      "▁magazine": 6332,
      "##rims": 6333,
      "▁carol": 6334,
      "▁dvd": 6335,
      "▁fact": 6336,
      "##e": 6337,
      "▁teach": 6338,
      "▁percenti": 6339,
      "##head": 6340,
      "##asel": 6341,
      "▁curi": 6342,
      "▁adjustments": 6343,
      "▁spilled": 6344,
      "##velop": 6345,
      "##za": 6346,
      "▁bunk": 6347,
      "##ulses": 6348,
      "▁successful": 6349,
      "▁stethoscope": 6350,
      "▁renewed": 6351,
      "▁kit": 6352,
      "▁te": 6353,
      "▁down": 6354,
      "▁reads": 6355,
      "▁tickles": 6356,
      "##bar": 6357,
      "▁school": 6358,
      "▁web": 6359,
      "▁exclu": 6360,
      "▁discourse": 6361,
      "##eapolis": 6362,
      "##legation": 6363,
      "##oy": 6364,
      "##ult": 6365,
      "▁above": 6366,
      "##pants": 6367,
      "▁propose": 6368,
      "##bee": 6369,
      "▁tsunami": 6370,
      "▁theat": 6371,
      "▁hotline": 6372,
      "▁recommend": 6373,
      "##bers": 6374,
      "▁peacekeepers": 6375,
      "▁messed": 6376,
      "▁entrance": 6377,
      "▁explos": 6378,
      "▁bring": 6379,
      "▁wor": 6380,
      "▁minding": 6381,
      "▁grandd": 6382,
      "##pon": 6383,
      "##urr": 6384,
      "▁chewing": 6385,
      "▁curs": 6386,
      "▁wakes": 6387,
      "▁prophet": 6388,
      "##esame": 6389,
      "##tc": 6390,
      "▁ordering": 6391,
      "▁monitoring": 6392,
      "##rate": 6393,
      "▁highlights": 6394,
      "▁knitting": 6395,
      "##sand": 6396,
      "##antly": 6397,
      "▁apart": 6398,
      "##asis": 6399,
      "▁savi": 6400,
      "▁blower": 6401,
      "##gging": 6402,
      "▁dere": 6403,
      "▁rains": 6404,
      "▁blueberry": 6405,
      "▁revisions": 6406,
      "##uz": 6407,
      "▁nato": 6408,
      "▁fal": 6409,
      "▁search": 6410,
      "##lando": 6411,
      "▁concess": 6412,
      "▁stat": 6413,
      "##gins": 6414,
      "##omm": 6415,
      "▁reserv": 6416,
      "▁dol": 6417,
      "##ibilities": 6418,
      "▁europe": 6419,
      "▁effective": 6420,
      "##inate": 6421,
      "##poon": 6422,
      "##thing": 6423,
      "▁riders": 6424,
      "▁disgor": 6425,
      "▁mimic": 6426,
      "▁gravity": 6427,
      "▁overwhel": 6428,
      "▁ability": 6429,
      "▁insur": 6430,
      "▁adap": 6431,
      "▁wag": 6432,
      "▁hap": 6433,
      "▁wai": 6434,
      "▁prejudice": 6435,
      "▁surrender": 6436,
      "▁monument": 6437,
      "▁counters": 6438,
      "▁farms": 6439,
      "▁periods": 6440,
      "##ives": 6441,
      "▁diversion": 6442,
      "▁citizen": 6443,
      "##tity": 6444,
      "▁bleeding": 6445,
      "▁tame": 6446,
      "##vices": 6447,
      "##nesses": 6448,
      "▁wizard": 6449,
      "▁round": 6450,
      "▁eye": 6451,
      "▁paramet": 6452,
      "##oard": 6453,
      "▁ligaments": 6454,
      "▁folded": 6455,
      "▁industries": 6456,
      "▁smell": 6457,
      "##quis": 6458,
      "▁ali": 6459,
      "▁=---": 6460,
      "▁apron": 6461,
      "##athers": 6462,
      "▁cath": 6463,
      "▁unicorn": 6464,
      "▁rode": 6465,
      "##-te": 6466,
      "▁arthritis": 6467,
      "▁identi": 6468,
      "##cept": 6469,
      "▁intelligence": 6470,
      "▁obt": 6471,
      "##mer": 6472,
      "▁gtc": 6473,
      "▁flipping": 6474,
      "▁03": 6475,
      "▁collect": 6476,
      "▁promp": 6477,
      "▁enl": 6478,
      "▁vib": 6479,
      "▁howled": 6480,
      "##raved": 6481,
      "▁cats": 6482,
      "▁imported": 6483,
      "▁glowstick": 6484,
      "▁ros": 6485,
      "##orying": 6486,
      "▁interface": 6487,
      "##vious": 6488,
      "▁broken": 6489,
      "##.x": 6490,
      "▁van": 6491,
      "##ads": 6492,
      "▁contractors": 6493,
      "▁represent": 6494,
      "▁squ": 6495,
      "▁prol": 6496,
      "▁medic": 6497,
      "▁discovered": 6498,
      "##utor": 6499,
      "▁columns": 6500,
      "##ent": 6501,
      "##ode": 6502,
      "##cott": 6503,
      "##awah": 6504,
      "▁tramp": 6505,
      "##unami": 6506,
      "▁unique": 6507,
      "▁vulner": 6508,
      "▁flee": 6509,
      "▁deserve": 6510,
      "▁humanity": 6511,
      "▁immigration": 6512,
      "▁continent": 6513,
      "▁banknotes": 6514,
      "▁glanced": 6515,
      "▁dynamics": 6516,
      "##empor": 6517,
      "##porte": 6518,
      "▁uploads": 6519,
      "▁climber": 6520,
      "##ares": 6521,
      "##unk": 6522,
      "▁beginners": 6523,
      "▁arrv.": 6524,
      "▁editor": 6525,
      "▁organizing": 6526,
      "▁operator": 6527,
      "##avi": 6528,
      "▁….": 6529,
      "▁spore": 6530,
      "▁switched": 6531,
      "▁hones": 6532,
      "▁guarantee": 6533,
      "##isc": 6534,
      "##gr": 6535,
      "▁cows": 6536,
      "##turing": 6537,
      "▁introduced": 6538,
      "▁tenure": 6539,
      "##ath": 6540,
      "##urned": 6541,
      "▁grain": 6542,
      "▁trees": 6543,
      "▁bridge": 6544,
      "▁yard": 6545,
      "▁has": 6546,
      "▁chunk": 6547,
      "##hen": 6548,
      "##date": 6549,
      "▁provider": 6550,
      "▁takes": 6551,
      "▁flea": 6552,
      "##pen": 6553,
      "▁gotten": 6554,
      "##enade": 6555,
      "▁recommends": 6556,
      "▁acknowledging": 6557,
      "a": 6558,
      "▁custom": 6559,
      "##numb": 6560,
      "▁barn": 6561,
      "▁business": 6562,
      "▁appetite": 6563,
      "##wan": 6564,
      "▁club": 6565,
      "##bil": 6566,
      "▁weekends": 6567,
      "▁agai": 6568,
      "▁lowered": 6569,
      "▁ax": 6570,
      "▁be": 6571,
      "##lds": 6572,
      "▁outlet": 6573,
      "▁hare": 6574,
      "▁bodies": 6575,
      "▁pivotch": 6576,
      "▁predictors": 6577,
      "▁holds": 6578,
      "▁ric": 6579,
      "▁gis": 6580,
      "##mpl": 6581,
      "##onation": 6582,
      "▁neighbours": 6583,
      "▁elect": 6584,
      "▁balloon": 6585,
      "##ith": 6586,
      "▁topper": 6587,
      "▁styling": 6588,
      "▁sponsored": 6589,
      "▁submarines": 6590,
      "▁tank": 6591,
      "##uel": 6592,
      "##vail": 6593,
      "##ading": 6594,
      "▁champ": 6595,
      "##ounces": 6596,
      "+": 6597,
      "▁fulf": 6598,
      "##ades": 6599,
      "▁---": 6600,
      "##idate": 6601,
      "##cross": 6602,
      "▁provin": 6603,
      "##ree": 6604,
      "▁dogg": 6605,
      "##oscope": 6606,
      "##sp": 6607,
      "▁title": 6608,
      "▁supports": 6609,
      "▁jo": 6610,
      "▁restr": 6611,
      "##thold": 6612,
      "▁collage": 6613,
      "##rier": 6614,
      "▁broc": 6615,
      "▁parameters": 6616,
      "▁adviser": 6617,
      "▁boston": 6618,
      "▁yaw": 6619,
      "▁chat": 6620,
      "▁del": 6621,
      "##righted": 6622,
      "▁cam": 6623,
      "##f": 6624,
      "▁plant": 6625,
      "▁liquid": 6626,
      "##down": 6627,
      "##ending": 6628,
      "▁hardness": 6629,
      "▁tidbit": 6630,
      "##lessly": 6631,
      "##ored": 6632,
      "▁asserted": 6633,
      "▁spear": 6634,
      "##ifically": 6635,
      "▁quino": 6636,
      "▁tub": 6637,
      "▁prisoners": 6638,
      "▁ago": 6639,
      "▁favorites": 6640,
      "##veyed": 6641,
      "▁courtyard": 6642,
      "▁troubles": 6643,
      "▁!!!": 6644,
      "▁giants": 6645,
      "▁guarante": 6646,
      "▁thwar": 6647,
      "▁evap": 6648,
      "▁airport": 6649,
      "▁spout": 6650,
      "▁mat": 6651,
      "##ating": 6652,
      "▁appreciate": 6653,
      "##liday": 6654,
      "▁solutions": 6655,
      "▁achievement": 6656,
      "▁wr": 6657,
      "▁mother": 6658,
      "##asing": 6659,
      "▁mom": 6660,
      "##istocks": 6661,
      "▁beaches": 6662,
      "▁application": 6663,
      "▁dress": 6664,
      "##elling": 6665,
      "▁revenge": 6666,
      "##earing": 6667,
      "▁worlds": 6668,
      "▁cro": 6669,
      "▁cabb": 6670,
      "▁sit": 6671,
      "▁lollipop": 6672,
      "▁registered": 6673,
      "▁environment": 6674,
      "▁dra": 6675,
      "▁boards": 6676,
      "▁charco": 6677,
      "##ilarities": 6678,
      "▁propane": 6679,
      "##ι": 6680,
      "##gers": 6681,
      "▁similarities": 6682,
      "▁infinity": 6683,
      "▁diversity": 6684,
      "##leon": 6685,
      "ʁ": 6686,
      "▁ward": 6687,
      "▁learning": 6688,
      "##____": 6689,
      "▁eating": 6690,
      "▁offset": 6691,
      "##imb": 6692,
      "▁chocolate": 6693,
      "▁turtle": 6694,
      "▁wagon": 6695,
      "▁inhabit": 6696,
      "▁chr": 6697,
      "▁22nd": 6698,
      "▁grabbed": 6699,
      "▁appropriations": 6700,
      "▁excepted": 6701,
      "▁operations": 6702,
      "▁fortunes": 6703,
      "▁sus": 6704,
      "▁dy": 6705,
      "▁repurp": 6706,
      "▁di": 6707,
      "▁february": 6708,
      "▁pilgrims": 6709,
      "▁thinking": 6710,
      "▁scient": 6711,
      "▁judgment": 6712,
      "▁p&l": 6713,
      "▁wheelchair": 6714,
      "▁had": 6715,
      "▁raging": 6716,
      "▁sector": 6717,
      "▁exhibits": 6718,
      "▁businessmen": 6719,
      "##isti": 6720,
      "▁conde": 6721,
      "▁daring": 6722,
      "##cell": 6723,
      "▁chicken": 6724,
      "▁distribution": 6725,
      "##assed": 6726,
      "▁lump": 6727,
      "▁emptiness": 6728,
      "▁debts": 6729,
      "▁teaching": 6730,
      "##chester": 6731,
      "##eeper": 6732,
      "▁attributed": 6733,
      "##uties": 6734,
      "▁hospital": 6735,
      "▁she": 6736,
      "##obia": 6737,
      "▁embarrass": 6738,
      "▁recre": 6739,
      "▁stret": 6740,
      "▁cleared": 6741,
      "##nt": 6742,
      "▁instead": 6743,
      "▁when": 6744,
      "##plet": 6745,
      "▁say": 6746,
      "▁positions": 6747,
      "▁kleenex": 6748,
      "▁memorial": 6749,
      "▁maintains": 6750,
      "▁families": 6751,
      "##ob": 6752,
      "▁appearing": 6753,
      "▁!!!!!!!!!!!!!!!": 6754,
      "▁story": 6755,
      "▁invest": 6756,
      "▁explosives": 6757,
      "▁first": 6758,
      "##eef": 6759,
      "▁beach": 6760,
      "▁mornings": 6761,
      "▁rust": 6762,
      "▁teenagers": 6763,
      "▁top": 6764,
      "##orrow": 6765,
      "▁silly": 6766,
      "▁careful": 6767,
      "##aroo": 6768,
      "▁legiti": 6769,
      "▁tints": 6770,
      "▁worked": 6771,
      "▁copies": 6772,
      "▁tricks": 6773,
      "▁emb": 6774,
      "▁enterpr": 6775,
      "▁reluctance": 6776,
      "##nding": 6777,
      "▁reconstr": 6778,
      "▁pati": 6779,
      "▁enc": 6780,
      "##raged": 6781,
      "▁payroll": 6782,
      "▁translates": 6783,
      "▁cre": 6784,
      "##aign": 6785,
      "##ins": 6786,
      "▁videos": 6787,
      "▁ded": 6788,
      "##backs": 6789,
      "##ighed": 6790,
      "▁couch": 6791,
      "▁saint": 6792,
      "▁ath": 6793,
      "▁county": 6794,
      "▁matches": 6795,
      "▁....................": 6796,
      "▁wild": 6797,
      "▁!!!!!!!!!!!!!": 6798,
      "▁no.": 6799,
      "▁circularisation": 6800,
      "▁laborers": 6801,
      "▁stabbed": 6802,
      "▁medium": 6803,
      "▁experi": 6804,
      "▁seg": 6805,
      "▁windows": 6806,
      "▁sev": 6807,
      "##stances": 6808,
      "▁astr": 6809,
      "▁pe": 6810,
      "▁chanting": 6811,
      "▁197": 6812,
      "▁wondering": 6813,
      "▁july": 6814,
      "▁coerce": 6815,
      "▁as": 6816,
      "##pful": 6817,
      "▁tool": 6818,
      "▁satisfaction": 6819,
      "▁mall": 6820,
      "▁span": 6821,
      "##-p": 6822,
      "▁pencil": 6823,
      "▁cerem": 6824,
      "##xing": 6825,
      "▁thunder": 6826,
      "▁spin": 6827,
      "##cont": 6828,
      "▁drugstore": 6829,
      "##des": 6830,
      "▁clients": 6831,
      "▁industrialist": 6832,
      "▁d.": 6833,
      "▁milit": 6834,
      "##atures": 6835,
      "▁beverage": 6836,
      "▁rhythm": 6837,
      "▁lu": 6838,
      "##`": 6839,
      "▁fluids": 6840,
      "▁electron": 6841,
      "▁degrees": 6842,
      "##rectly": 6843,
      "▁|--------+----------------------->": 6844,
      "▁dav": 6845,
      "▁tit": 6846,
      "▁corp": 6847,
      "▁impact": 6848,
      "##ogh": 6849,
      "▁protect": 6850,
      "▁liked": 6851,
      "▁australia": 6852,
      "##jectory": 6853,
      "▁dolphins": 6854,
      "##saw": 6855,
      "▁drug": 6856,
      "▁·": 6857,
      "▁subs": 6858,
      "▁meters": 6859,
      "##ada": 6860,
      "##otion": 6861,
      "▁logic": 6862,
      "##ieved": 6863,
      "▁cray": 6864,
      "##fing": 6865,
      "##pics": 6866,
      "##www": 6867,
      "▁dc": 6868,
      "▁aw": 6869,
      "²": 6870,
      "▁dipped": 6871,
      "##cess": 6872,
      "▁defeats": 6873,
      "▁requ": 6874,
      "▁integration": 6875,
      "##az": 6876,
      "▁cincinnati": 6877,
      "##uty": 6878,
      "##roc": 6879,
      "▁byp": 6880,
      "##ituting": 6881,
      "▁enacting": 6882,
      "▁price": 6883,
      "##---------------": 6884,
      "▁avenue": 6885,
      "##es": 6886,
      "▁economists": 6887,
      "▁location": 6888,
      "▁enjoys": 6889,
      "▁anemone": 6890,
      "▁phen": 6891,
      "▁carro": 6892,
      "▁sweat": 6893,
      "▁postc": 6894,
      "##x": 6895,
      "▁adopted": 6896,
      "▁guerr": 6897,
      "▁considers": 6898,
      "▁---------------------------------": 6899,
      "##affles": 6900,
      "▁extract": 6901,
      "##ober": 6902,
      "##akers": 6903,
      "##ization": 6904,
      "▁wives": 6905,
      "##eff": 6906,
      "▁advertise": 6907,
      "▁craving": 6908,
      "##glar": 6909,
      "▁deserted": 6910,
      "▁pastels": 6911,
      "▁dangers": 6912,
      "##ion": 6913,
      "▁studio": 6914,
      "##ises": 6915,
      "▁knew": 6916,
      "▁reportedly": 6917,
      "▁gra": 6918,
      "▁sakes": 6919,
      "▁manipulating": 6920,
      "▁sump": 6921,
      "▁2006": 6922,
      "▁starvation": 6923,
      "▁secur": 6924,
      "▁heyday": 6925,
      "▁horr": 6926,
      "▁demon": 6927,
      "▁resorts": 6928,
      "▁sharing": 6929,
      "▁piled": 6930,
      "▁forecast": 6931,
      "▁rabbits": 6932,
      "▁north": 6933,
      "▁belief": 6934,
      "##uates": 6935,
      "▁accusing": 6936,
      "▁vacc": 6937,
      "▁borrowers": 6938,
      "▁renewal": 6939,
      "▁intercepted": 6940,
      "▁fisher": 6941,
      "##omob": 6942,
      "▁housed": 6943,
      "##ommerce": 6944,
      "▁judgments": 6945,
      "▁oatme": 6946,
      "▁obstacle": 6947,
      "##merged": 6948,
      "▁demand": 6949,
      "▁ensuring": 6950,
      "##te": 6951,
      "▁yen": 6952,
      "##vant": 6953,
      "▁petition": 6954,
      "##rils": 6955,
      "##s)": 6956,
      "▁framed": 6957,
      "##------->": 6958,
      "##rote": 6959,
      "▁begins": 6960,
      "▁parking": 6961,
      "▁debris": 6962,
      "▁carr": 6963,
      "▁dand": 6964,
      "▁gf": 6965,
      "▁trigg": 6966,
      "▁pushing": 6967,
      "##eted": 6968,
      "▁parake": 6969,
      "▁bea": 6970,
      "##iles": 6971,
      "▁sorrow": 6972,
      "▁sunday": 6973,
      "▁prefecture": 6974,
      "▁melanoma": 6975,
      "▁abandonment": 6976,
      "##ocratic": 6977,
      "##atedly": 6978,
      "▁task": 6979,
      "▁adding": 6980,
      "▁reading": 6981,
      "▁gambit": 6982,
      "▁chronic": 6983,
      "▁seaman": 6984,
      "▁spelling": 6985,
      "▁nick": 6986,
      "▁picked": 6987,
      "▁post": 6988,
      "##oup": 6989,
      "▁implementing": 6990,
      "##ays": 6991,
      "▁grandmother": 6992,
      "▁aesthe": 6993,
      "▁teething": 6994,
      "▁horsie": 6995,
      "▁liqu": 6996,
      "##ability": 6997,
      "▁inequality": 6998,
      "▁lanterns": 6999,
      "▁refineries": 7000,
      "▁developed": 7001,
      "▁glasses": 7002,
      "▁ale": 7003,
      "▁sco": 7004,
      "▁recalled": 7005,
      "▁soak": 7006,
      "▁outlined": 7007,
      "▁principle": 7008,
      "▁calculated": 7009,
      "##agg": 7010,
      "▁liabilities": 7011,
      "▁chand": 7012,
      "▁walnuts": 7013,
      "▁bitsy": 7014,
      "##nancy": 7015,
      "▁stating": 7016,
      "▁freedoms": 7017,
      "##ited": 7018,
      "##.d.": 7019,
      "▁advert": 7020,
      "▁word": 7021,
      "`": 7022,
      "▁reli": 7023,
      "▁investment": 7024,
      "▁lev": 7025,
      "▁obs": 7026,
      "##ough": 7027,
      "▁bunnies": 7028,
      "▁sharks": 7029,
      "▁avoided": 7030,
      "▁forming": 7031,
      "▁chrome": 7032,
      "##dness": 7033,
      "▁need": 7034,
      "▁drying": 7035,
      "▁aggre": 7036,
      "##uttering": 7037,
      "▁exploitation": 7038,
      "▁probably": 7039,
      "##abb": 7040,
      "▁counsel": 7041,
      "▁candid": 7042,
      "▁salsa": 7043,
      "▁fluff": 7044,
      "▁complete": 7045,
      "▁macaroni": 7046,
      "▁shakespeare": 7047,
      "##irts": 7048,
      "▁righ": 7049,
      "▁screw": 7050,
      "▁ps": 7051,
      "▁creations": 7052,
      "▁stair": 7053,
      "▁negotiation": 7054,
      "▁wills": 7055,
      "▁decl": 7056,
      "▁19": 7057,
      "##mally": 7058,
      "##ty": 7059,
      "▁surpr": 7060,
      "##um": 7061,
      "▁dro": 7062,
      "##imum": 7063,
      "▁jack": 7064,
      "▁homeopathy": 7065,
      "▁comm": 7066,
      "##ythm": 7067,
      "##loying": 7068,
      "▁course": 7069,
      "##tsbur": 7070,
      "▁equity": 7071,
      "▁arranging": 7072,
      "##ication": 7073,
      "▁fanc": 7074,
      "▁peek": 7075,
      "▁rack": 7076,
      "▁thyro": 7077,
      "▁cabbage": 7078,
      "##^": 7079,
      "▁herd": 7080,
      "▁pad": 7081,
      "▁accountant": 7082,
      "▁med": 7083,
      "▁products": 7084,
      "##aring": 7085,
      "▁lose": 7086,
      "▁railroad": 7087,
      "▁jew": 7088,
      "▁injection": 7089,
      "▁lin": 7090,
      "▁dated": 7091,
      "▁awa": 7092,
      "▁questioned": 7093,
      "##ons": 7094,
      "▁recipient": 7095,
      "▁conf": 7096,
      "▁orbit": 7097,
      "▁ens": 7098,
      "##unc": 7099,
      "▁equally": 7100,
      "▁weighed": 7101,
      "▁chu": 7102,
      "▁sooner": 7103,
      "▁score": 7104,
      "▁sense": 7105,
      "▁sst": 7106,
      "▁publication": 7107,
      "▁nice": 7108,
      "▁loses": 7109,
      "▁lengths": 7110,
      "▁crystal": 7111,
      "▁documents": 7112,
      "##dibly": 7113,
      "▁cook": 7114,
      "##ittering": 7115,
      "▁shorts": 7116,
      "▁passport": 7117,
      "##lut": 7118,
      "##umes": 7119,
      "##illed": 7120,
      "▁mushroom": 7121,
      "▁adopting": 7122,
      "▁google": 7123,
      "▁sesame": 7124,
      "##d-": 7125,
      "▁scored": 7126,
      "▁lymph": 7127,
      "▁tolerance": 7128,
      "##oft": 7129,
      "##oll": 7130,
      "▁records": 7131,
      "▁itinerary": 7132,
      "▁pulls": 7133,
      "##gor": 7134,
      "##ried": 7135,
      "▁desktop": 7136,
      "▁tops": 7137,
      "▁sisters": 7138,
      "##lin": 7139,
      "▁durs": 7140,
      "▁viewed": 7141,
      "▁green": 7142,
      "▁excuse": 7143,
      "▁amending": 7144,
      "▁bookstore": 7145,
      "▁elimination": 7146,
      "▁assass": 7147,
      "▁seeds": 7148,
      "##-class": 7149,
      "▁related": 7150,
      "##eces": 7151,
      "▁laughter": 7152,
      "▁updated": 7153,
      "▁presumed": 7154,
      "##app": 7155,
      "▁airports": 7156,
      "##arg": 7157,
      "##inny": 7158,
      "▁player": 7159,
      "▁bites": 7160,
      "▁valley": 7161,
      "##uly": 7162,
      "##dies": 7163,
      "▁tumbled": 7164,
      "▁mish": 7165,
      "▁night": 7166,
      "▁characteristic": 7167,
      "▁u": 7168,
      "▁dollars": 7169,
      "▁sens": 7170,
      "▁bulld": 7171,
      "▁suppl": 7172,
      "▁facil": 7173,
      "▁participant": 7174,
      "▁soph": 7175,
      "▁motto": 7176,
      "▁neolog": 7177,
      "▁scri": 7178,
      "▁approve": 7179,
      "▁warrants": 7180,
      "▁attitude": 7181,
      "##ann": 7182,
      "▁assist": 7183,
      "▁forearm": 7184,
      "▁confirming": 7185,
      "▁donate": 7186,
      "▁treaty": 7187,
      "▁schem": 7188,
      "▁curry": 7189,
      "▁respects": 7190,
      "▁spacecraft": 7191,
      "▁places": 7192,
      "▁bop": 7193,
      "▁terrorists": 7194,
      "▁quack": 7195,
      "▁cour": 7196,
      "▁datasheets": 7197,
      "▁eng": 7198,
      "▁plotted": 7199,
      "▁bitmap": 7200,
      "▁taliban": 7201,
      "▁proponents": 7202,
      "▁artill": 7203,
      "▁lifeboats": 7204,
      "▁mouse": 7205,
      "▁est": 7206,
      "##ague": 7207,
      "▁hurting": 7208,
      "##itional": 7209,
      "▁redes": 7210,
      "##nh": 7211,
      "▁meats": 7212,
      "▁waterway": 7213,
      "▁promised": 7214,
      "▁william": 7215,
      "▁amazed": 7216,
      "▁satel": 7217,
      "▁alleg": 7218,
      "▁ignor": 7219,
      "##acts": 7220,
      "▁absolut": 7221,
      "▁tree": 7222,
      "▁aggravated": 7223,
      "▁matched": 7224,
      "##ories": 7225,
      "▁such": 7226,
      "##ective": 7227,
      "▁pieces": 7228,
      "##eless": 7229,
      "▁needs": 7230,
      "##very": 7231,
      "##entiality": 7232,
      "▁pajamas": 7233,
      "▁wast": 7234,
      "▁descend": 7235,
      "##eding": 7236,
      "##-e": 7237,
      "▁propos": 7238,
      "##corn": 7239,
      "▁relying": 7240,
      "▁hunt": 7241,
      "##int": 7242,
      "##·": 7243,
      "▁parole": 7244,
      "▁shore": 7245,
      "##rison": 7246,
      "##isture": 7247,
      "##body": 7248,
      "▁write": 7249,
      "▁boundaries": 7250,
      "▁storms": 7251,
      "##oss": 7252,
      "▁contrary": 7253,
      "▁reintroduction": 7254,
      "▁reserved": 7255,
      "▁personality": 7256,
      "▁transcri": 7257,
      "##isms": 7258,
      "▁cornfl": 7259,
      "▁earthquake": 7260,
      "##ssive": 7261,
      "##vern": 7262,
      "▁rap": 7263,
      "##wise": 7264,
      "▁proclaim": 7265,
      "##ck": 7266,
      "▁recru": 7267,
      "▁referral": 7268,
      "##-be": 7269,
      "▁analyze": 7270,
      "▁mar": 7271,
      "##he": 7272,
      "▁roadside": 7273,
      "##version": 7274,
      "##rush": 7275,
      "▁sneeze": 7276,
      "▁exit": 7277,
      "▁fingers": 7278,
      "▁ve": 7279,
      "▁penalties": 7280,
      "▁destro": 7281,
      "▁final": 7282,
      "▁putted": 7283,
      "##.pd": 7284,
      "##ening": 7285,
      "##ished": 7286,
      "▁buz": 7287,
      "▁kitten": 7288,
      "▁invoice": 7289,
      "▁removal": 7290,
      "▁auto": 7291,
      "▁:": 7292,
      "▁muttering": 7293,
      "##ria": 7294,
      "##ross": 7295,
      "##olly": 7296,
      "▁coop": 7297,
      "▁drawn": 7298,
      "##hap": 7299,
      "##pendent": 7300,
      "##its": 7301,
      "##ocking": 7302,
      "##uild": 7303,
      "##cs": 7304,
      "▁paraphr": 7305,
      "##elf": 7306,
      "##rim": 7307,
      "▁foreign": 7308,
      "▁ladies": 7309,
      "▁grounds": 7310,
      "##geration": 7311,
      "▁syrup": 7312,
      "▁accent": 7313,
      "▁pestic": 7314,
      "▁skull": 7315,
      "▁suggested": 7316,
      "##sters": 7317,
      "▁scene": 7318,
      "▁mailman": 7319,
      "▁occupy": 7320,
      "▁rectangle": 7321,
      "▁wages": 7322,
      "▁trapped": 7323,
      "▁mate": 7324,
      "▁inves": 7325,
      "▁cau": 7326,
      "▁veteran": 7327,
      "##sus": 7328,
      "▁facility": 7329,
      "▁playing": 7330,
      "##-c": 7331,
      "##ro": 7332,
      "▁negoti": 7333,
      "▁wine": 7334,
      "##une": 7335,
      "▁civet": 7336,
      "▁shipment": 7337,
      "▁require": 7338,
      "##rows": 7339,
      "▁buttons": 7340,
      "▁beeper": 7341,
      "▁reported": 7342,
      "▁earlier": 7343,
      "▁physical": 7344,
      "##.v.": 7345,
      "##ece": 7346,
      "▁impeachment": 7347,
      "▁traveling": 7348,
      "▁parak": 7349,
      "▁lucky": 7350,
      "▁struggle": 7351,
      "▁bath": 7352,
      "▁pl": 7353,
      "▁look": 7354,
      "▁foot": 7355,
      "▁assault": 7356,
      "▁surveys": 7357,
      "▁kingdom": 7358,
      "▁intake": 7359,
      "##tr": 7360,
      "▁bust": 7361,
      "##-mem": 7362,
      "##orld": 7363,
      "▁!!": 7364,
      "▁&": 7365,
      "▁cove": 7366,
      "▁gem": 7367,
      "##orate": 7368,
      "▁pizza": 7369,
      "▁frogg": 7370,
      "▁meets": 7371,
      "▁jewel": 7372,
      "##cakes": 7373,
      "▁cock": 7374,
      "▁pending": 7375,
      "##are": 7376,
      "##ash": 7377,
      "▁jumps": 7378,
      "▁resignation": 7379,
      "▁env": 7380,
      "▁wording": 7381,
      "▁bloss": 7382,
      "▁promoted": 7383,
      "▁reaff": 7384,
      "##illa": 7385,
      "▁bosom": 7386,
      "▁batch": 7387,
      "▁peroxide": 7388,
      "▁waiver": 7389,
      "▁birds": 7390,
      "▁poodle": 7391,
      "▁entrepreneurs": 7392,
      "##lam": 7393,
      "▁transported": 7394,
      "##inkle": 7395,
      "##imated": 7396,
      "##-of": 7397,
      "▁nove": 7398,
      "▁promote": 7399,
      "▁turns": 7400,
      "▁fever": 7401,
      "▁emission": 7402,
      "▁dining": 7403,
      "▁hurt": 7404,
      "▁persuading": 7405,
      "##ci": 7406,
      "▁pimple": 7407,
      "▁hundred": 7408,
      "##aments": 7409,
      "▁reminds": 7410,
      "▁enemy": 7411,
      "##go": 7412,
      "##agr": 7413,
      "▁acquis": 7414,
      "##.htm": 7415,
      "▁fostering": 7416,
      "▁unles": 7417,
      "▁s/he": 7418,
      "##king": 7419,
      "▁traffick": 7420,
      "▁territory": 7421,
      "▁greet": 7422,
      "▁planting": 7423,
      "##ocr": 7424,
      "▁rebalancing": 7425,
      "##30": 7426,
      "▁resili": 7427,
      "▁trumpets": 7428,
      "▁easier": 7429,
      "##ters": 7430,
      "##alty": 7431,
      "▁defence": 7432,
      "▁speakers": 7433,
      "##iod": 7434,
      "▁untied": 7435,
      "▁illness": 7436,
      "▁assumption": 7437,
      "▁gestured": 7438,
      "▁sinking": 7439,
      "##gregation": 7440,
      "▁quarters": 7441,
      "▁recall": 7442,
      "▁philosopher": 7443,
      "▁awareness": 7444,
      "▁blinking": 7445,
      "##icul": 7446,
      "##enix": 7447,
      "▁parach": 7448,
      "▁outlets": 7449,
      "▁prizes": 7450,
      "▁account": 7451,
      "▁les": 7452,
      "▁subjected": 7453,
      "##eos": 7454,
      "▁charm": 7455,
      "▁reimb": 7456,
      "##itoring": 7457,
      "▁ven": 7458,
      "##otal": 7459,
      "▁fill": 7460,
      "▁asylum": 7461,
      "##isure": 7462,
      "▁snakes": 7463,
      "▁embed": 7464,
      "##iistocks": 7465,
      "##ete": 7466,
      "##ado": 7467,
      "▁twe": 7468,
      "▁contr": 7469,
      "▁thef": 7470,
      "##erably": 7471,
      "##acket": 7472,
      "▁authority": 7473,
      "▁links": 7474,
      "▁contacts": 7475,
      "▁tyr": 7476,
      "▁clinging": 7477,
      ":": 7478,
      "▁governments": 7479,
      "##ification": 7480,
      "##ighth": 7481,
      "▁sho": 7482,
      "▁wounds": 7483,
      "▁whole": 7484,
      "4": 7485,
      "▁adj": 7486,
      "##.ht": 7487,
      "▁occurrence": 7488,
      "▁carwash": 7489,
      "##assad": 7490,
      "▁jenn": 7491,
      "▁blink": 7492,
      "##erely": 7493,
      "▁cfls": 7494,
      "▁statue": 7495,
      "▁directly": 7496,
      "▁ancest": 7497,
      "▁jacket": 7498,
      "▁demands": 7499,
      "▁interventions": 7500,
      "▁hit": 7501,
      "▁defining": 7502,
      "▁confrontation": 7503,
      "▁subscrib": 7504,
      "##_re": 7505,
      "▁soared": 7506,
      "##aste": 7507,
      "▁conges": 7508,
      "##amus": 7509,
      "▁crowd": 7510,
      "▁lur": 7511,
      "▁disparities": 7512,
      "▁orchestrated": 7513,
      "##uscri": 7514,
      "▁warnings": 7515,
      "##unks": 7516,
      "##ub": 7517,
      "▁compassion": 7518,
      "##best": 7519,
      "▁compan": 7520,
      "▁lounge": 7521,
      "▁ye": 7522,
      "▁app": 7523,
      "##ician": 7524,
      "##mited": 7525,
      "▁harness": 7526,
      "▁metering": 7527,
      "▁compelling": 7528,
      "##ounce": 7529,
      "▁strike": 7530,
      "##ural": 7531,
      "▁directions": 7532,
      "▁columb": 7533,
      "▁tru": 7534,
      "▁ger": 7535,
      "▁atroc": 7536,
      "▁condemn": 7537,
      "▁placing": 7538,
      "##-and": 7539,
      "##aganda": 7540,
      "##it": 7541,
      "▁elevator": 7542,
      "▁tic": 7543,
      "▁mos": 7544,
      "▁stagg": 7545,
      "▁variability": 7546,
      "▁crown": 7547,
      "##erog": 7548,
      "▁proclaimed": 7549,
      "▁saf": 7550,
      "▁22": 7551,
      "##pr": 7552,
      "##to": 7553,
      "▁hutch": 7554,
      "▁monkeys": 7555,
      "▁yog": 7556,
      "▁steel": 7557,
      "▁distributed": 7558,
      "▁soil": 7559,
      "▁styles": 7560,
      "▁surface": 7561,
      "▁hasidim": 7562,
      "▁bs": 7563,
      "▁influ": 7564,
      "▁skies": 7565,
      "▁doz": 7566,
      "▁explo": 7567,
      "▁retraction": 7568,
      "##ince": 7569,
      "▁suffering": 7570,
      "##struc": 7571,
      "▁feed": 7572,
      "▁teaspoon": 7573,
      "##stream": 7574,
      "▁lottery": 7575,
      "##erilla": 7576,
      "▁start": 7577,
      "##oop": 7578,
      "▁[...]": 7579,
      "##rar": 7580,
      "▁evolve": 7581,
      "▁snack": 7582,
      "##rust": 7583,
      "▁forefront": 7584,
      "▁interrup": 7585,
      "▁stad": 7586,
      "##ute": 7587,
      "▁guards": 7588,
      "▁museums": 7589,
      "▁helmet": 7590,
      "▁spoons": 7591,
      "▁carn": 7592,
      "##60's": 7593,
      "▁rejected": 7594,
      "▁control": 7595,
      "▁consum": 7596,
      "▁owl": 7597,
      "▁inning": 7598,
      "▁creep": 7599,
      "##uropean": 7600,
      "▁found": 7601,
      "▁gang": 7602,
      "▁calculation": 7603,
      "▁ep": 7604,
      "▁fir": 7605,
      "▁complaining": 7606,
      "▁offer": 7607,
      "▁coordination": 7608,
      "▁peop": 7609,
      "▁ench": 7610,
      "▁subway": 7611,
      "▁bag": 7612,
      "▁principles": 7613,
      "##lections": 7614,
      "▁kitt": 7615,
      "▁due": 7616,
      "▁dem": 7617,
      "▁millenn": 7618,
      "▁fresh": 7619,
      "▁farmer": 7620,
      "▁attacking": 7621,
      "▁yogh": 7622,
      "▁disability": 7623,
      "▁pyr": 7624,
      "▁teleph": 7625,
      "▁hind": 7626,
      "▁remained": 7627,
      "##eine": 7628,
      "▁`s": 7629,
      "▁recruiting": 7630,
      "##orm": 7631,
      "▁prospects": 7632,
      "▁horse": 7633,
      "▁rel": 7634,
      "▁04": 7635,
      "▁justice": 7636,
      "▁oposs": 7637,
      "▁laundry": 7638,
      "▁pins": 7639,
      "▁dignitaries": 7640,
      "▁ad": 7641,
      "▁respecting": 7642,
      "▁trace": 7643,
      "▁profits": 7644,
      "##rant": 7645,
      "▁customers": 7646,
      "▁rolled": 7647,
      "▁proce": 7648,
      "▁jar": 7649,
      "▁chef": 7650,
      "##idered": 7651,
      "▁bou": 7652,
      "▁rattled": 7653,
      "▁importance": 7654,
      "▁silk": 7655,
      "▁smile": 7656,
      "▁adm": 7657,
      "▁grit": 7658,
      "▁yogurt": 7659,
      "▁colleges": 7660,
      "▁obligation": 7661,
      "##oplane": 7662,
      "▁vacuum": 7663,
      "▁gen": 7664,
      "▁texas": 7665,
      "▁backed": 7666,
      "##ari": 7667,
      "▁gisb": 7668,
      "##ah": 7669,
      "▁climbing": 7670,
      "▁raped": 7671,
      "##umps": 7672,
      "▁humor": 7673,
      "▁bedrooms": 7674,
      "▁techn": 7675,
      "▁associates": 7676,
      "##cinn": 7677,
      "▁reptile": 7678,
      "▁rene": 7679,
      "▁bap": 7680,
      "▁staircase": 7681,
      "##stood": 7682,
      "▁copied": 7683,
      "##erent": 7684,
      "▁fox": 7685,
      "▁bab": 7686,
      "▁dempse": 7687,
      "▁grace": 7688,
      "▁handed": 7689,
      "##cove": 7690,
      "##cers": 7691,
      "▁stillman": 7692,
      "▁river": 7693,
      "▁stopping": 7694,
      "▁drops": 7695,
      "▁lease": 7696,
      "▁emperor": 7697,
      "##rest": 7698,
      "▁returns": 7699,
      "▁rendered": 7700,
      "▁malf": 7701,
      "▁sash": 7702,
      "▁catalog": 7703,
      "▁rested": 7704,
      "▁ped": 7705,
      "▁candy": 7706,
      "▁mills": 7707,
      "▁ratings": 7708,
      "▁gamb": 7709,
      "▁economies": 7710,
      "▁antiqu": 7711,
      "▁jurisd": 7712,
      "▁exclaim": 7713,
      "##ave": 7714,
      "▁fires": 7715,
      "▁next": 7716,
      "▁arrangements": 7717,
      "▁dill": 7718,
      "▁limitation": 7719,
      "▁fine": 7720,
      "▁rot": 7721,
      "▁con": 7722,
      "▁proceed": 7723,
      "▁handle": 7724,
      "▁charge": 7725,
      "##anced": 7726,
      "▁hed": 7727,
      "▁fishing": 7728,
      "▁muggles": 7729,
      "▁fled": 7730,
      "##ansas": 7731,
      "▁offers": 7732,
      "##;": 7733,
      "▁counc": 7734,
      "▁geor": 7735,
      "##ores": 7736,
      "▁africa": 7737,
      "▁wall": 7738,
      "▁show": 7739,
      "▁nasa": 7740,
      "▁shot": 7741,
      "▁instructor": 7742,
      "▁therop": 7743,
      "▁nutri": 7744,
      "▁ammunition": 7745,
      "▁scrub": 7746,
      "▁memoir": 7747,
      "##hee": 7748,
      "▁meth": 7749,
      "▁violation": 7750,
      "##inger": 7751,
      "▁congratulations": 7752,
      "▁merchant": 7753,
      "##inars": 7754,
      "▁lanes": 7755,
      "▁aside": 7756,
      "##letes": 7757,
      "▁buzz": 7758,
      "▁percent": 7759,
      "##ods": 7760,
      "▁paid": 7761,
      "▁umbrella": 7762,
      "▁vend": 7763,
      "▁hoops": 7764,
      "▁till": 7765,
      "▁examine": 7766,
      "▁receive": 7767,
      "▁ted": 7768,
      "##olence": 7769,
      "▁charles": 7770,
      "##port": 7771,
      "▁curse": 7772,
      "▁flights": 7773,
      "▁flatbread": 7774,
      "▁form": 7775,
      "▁conceived": 7776,
      "▁comment": 7777,
      "##dish": 7778,
      "▁newsp": 7779,
      "▁seattle": 7780,
      "▁discrim": 7781,
      "##position": 7782,
      "▁boost": 7783,
      "▁described": 7784,
      "##ainder": 7785,
      "▁ey": 7786,
      "##day": 7787,
      "▁veto": 7788,
      "▁exactly": 7789,
      "▁come": 7790,
      "▁event": 7791,
      "▁fortune": 7792,
      "▁deteri": 7793,
      "▁guar": 7794,
      "▁yelled": 7795,
      "▁stories": 7796,
      "▁cy": 7797,
      "▁frozen": 7798,
      "▁analogy": 7799,
      "##cp": 7800,
      "##y": 7801,
      "▁neighbors": 7802,
      "▁mm": 7803,
      "▁torti": 7804,
      "▁re": 7805,
      "##iss": 7806,
      "▁thie": 7807,
      "##zz": 7808,
      "▁realise": 7809,
      "▁sunken": 7810,
      "##aed": 7811,
      "▁lim": 7812,
      "▁cauldron": 7813,
      "▁gone": 7814,
      "▁throws": 7815,
      "▁zip": 7816,
      "▁cir": 7817,
      "##ause": 7818,
      "##adder": 7819,
      "##information": 7820,
      "▁gam": 7821,
      "▁strain": 7822,
      "▁bowling": 7823,
      "▁shower": 7824,
      "##ark": 7825,
      "##liers": 7826,
      "▁anthropologist": 7827,
      "▁grid": 7828,
      "##://": 7829,
      "▁alth": 7830,
      "▁princess": 7831,
      "▁income": 7832,
      "▁survivors": 7833,
      "▁willow": 7834,
      "▁receiver": 7835,
      "##°": 7836,
      "##heat": 7837,
      "▁globe": 7838,
      "▁entire": 7839,
      "▁panting": 7840,
      "##tirely": 7841,
      "▁wool": 7842,
      "▁elevators": 7843,
      "▁certific": 7844,
      "▁mant": 7845,
      "y": 7846,
      "▁cupcake": 7847,
      "▁greatness": 7848,
      "▁pro": 7849,
      "▁neighborhoods": 7850,
      "▁gogg": 7851,
      "▁set": 7852,
      "##ire": 7853,
      "▁enchil": 7854,
      "▁obliged": 7855,
      "▁tumbling": 7856,
      "▁sill": 7857,
      "##jections": 7858,
      "▁soldier": 7859,
      "▁after": 7860,
      "▁nights": 7861,
      "▁fabric": 7862,
      "▁casualties": 7863,
      "▁qualities": 7864,
      "▁lesson": 7865,
      "▁harbor": 7866,
      "▁fuck": 7867,
      "▁establishment": 7868,
      "…": 7869,
      "##dation": 7870,
      "▁sett": 7871,
      "##ulators": 7872,
      "▁resume": 7873,
      "▁reinforcing": 7874,
      "▁flew": 7875,
      "▁reversal": 7876,
      "▁paragraph": 7877,
      "▁audience": 7878,
      "##tias": 7879,
      "▁totally": 7880,
      "##uter": 7881,
      "▁performed": 7882,
      "##box": 7883,
      "▁addresses": 7884,
      "▁disl": 7885,
      "▁recieved": 7886,
      "##inos": 7887,
      "▁liver": 7888,
      "##lord": 7889,
      "▁himself": 7890,
      "##me": 7891,
      "▁aver": 7892,
      "▁hierarchy": 7893,
      "##edience": 7894,
      "▁disney": 7895,
      "▁planned": 7896,
      "▁exploring": 7897,
      "##elines": 7898,
      "▁plaintiffs": 7899,
      "▁coll": 7900,
      "▁telephone": 7901,
      "▁horn": 7902,
      "▁owns": 7903,
      "##ority": 7904,
      "▁singles": 7905,
      "##phere": 7906,
      "▁mark": 7907,
      "▁deciding": 7908,
      "▁banjo": 7909,
      "##dbit": 7910,
      "▁needles": 7911,
      "▁lith": 7912,
      "▁cultures": 7913,
      "##zes": 7914,
      "▁fumes": 7915,
      "▁soda": 7916,
      "▁monologue": 7917,
      "▁recording": 7918,
      "▁resigned": 7919,
      "▁groom": 7920,
      "▁scheduled": 7921,
      "▁ghost": 7922,
      "▁tanks": 7923,
      "▁gda": 7924,
      "##orman": 7925,
      "▁manag": 7926,
      "▁into": 7927,
      "##ages": 7928,
      "▁delivery": 7929,
      "▁witness": 7930,
      "▁landm": 7931,
      "▁it's": 7932,
      "▁states": 7933,
      "▁afterwards": 7934,
      "##onstr": 7935,
      "##uf": 7936,
      "##ings": 7937,
      "##lling": 7938,
      "▁diseases": 7939,
      "▁coast": 7940,
      "▁chances": 7941,
      "##overing": 7942,
      "▁perfect": 7943,
      "▁senators": 7944,
      "▁produc": 7945,
      "▁squash": 7946,
      "▁encouraged": 7947,
      "▁manufactur": 7948,
      "▁eyes": 7949,
      "##erole": 7950,
      "▁differential": 7951,
      "▁atop": 7952,
      "##ual": 7953,
      "▁crosstab": 7954,
      "##ber": 7955,
      "##lites": 7956,
      "▁asked": 7957,
      "▁conference": 7958,
      "▁proposals": 7959,
      "▁closing": 7960,
      "##art": 7961,
      "▁testified": 7962,
      "▁screams": 7963,
      "ν": 7964,
      "▁insulation": 7965,
      "##eenth": 7966,
      "▁realizing": 7967,
      "▁pains": 7968,
      "▁enters": 7969,
      "▁remove": 7970,
      "[UNK]": 7971,
      "▁sold": 7972,
      "▁hosp": 7973,
      "▁aims": 7974,
      "▁blessed": 7975,
      "▁consc": 7976,
      "▁clothespin": 7977,
      "##ivers": 7978,
      "▁airplane": 7979,
      "▁crib": 7980,
      "▁blocks": 7981,
      "▁announce": 7982,
      "▁ign": 7983,
      "##ack": 7984,
      "▁pipeline": 7985,
      "▁skill": 7986,
      "▁assaulted": 7987,
      "▁queries": 7988,
      "▁stink": 7989,
      "##temp": 7990,
      "##ga": 7991,
      "##ipl": 7992,
      "▁communities": 7993,
      "▁voices": 7994,
      "▁casting": 7995,
      "▁adapted": 7996,
      "▁explains": 7997,
      "▁ursula": 7998,
      "▁haul": 7999,
      "▁ask": 8000,
      "▁pink": 8001,
      "▁sculptures": 8002,
      "##enoc": 8003,
      "▁middle": 8004,
      "##ogel": 8005,
      "▁spacetime": 8006,
      "▁lumin": 8007,
      "▁seventh": 8008,
      "▁hold": 8009,
      "▁revers": 8010,
      "▁cuis": 8011,
      "▁raced": 8012,
      "▁detail": 8013,
      "▁diplomats": 8014,
      "▁restric": 8015,
      "##uded": 8016,
      "##rid": 8017,
      "▁incorp": 8018,
      "▁acknowled": 8019,
      "▁jews": 8020,
      "▁colours": 8021,
      "##arred": 8022,
      "▁spit": 8023,
      "▁scrap": 8024,
      "▁homework": 8025,
      "##łodz": 8026,
      "##aca": 8027,
      "▁assemble": 8028,
      "▁relates": 8029,
      "##imore": 8030,
      "▁nos": 8031,
      "▁removed": 8032,
      "▁hurried": 8033,
      "##issance": 8034,
      "▁ebbed": 8035,
      "##itz": 8036,
      "▁haf": 8037,
      "▁jeans": 8038,
      "##med": 8039,
      "##leration": 8040,
      "▁weakened": 8041,
      "##ighted": 8042,
      "▁locations": 8043,
      "▁burn": 8044,
      "▁chili": 8045,
      "▁comedian": 8046,
      "▁mould": 8047,
      "▁wal": 8048,
      "▁distric": 8049,
      "▁comes": 8050,
      "▁perio": 8051,
      "▁serv": 8052,
      "▁conn": 8053,
      "▁transformation": 8054,
      "▁27": 8055,
      "▁linked": 8056,
      "▁contracts": 8057,
      "##itely": 8058,
      "##iful": 8059,
      "▁destinations": 8060,
      "▁chimney": 8061,
      "##/ps": 8062,
      "▁civili": 8063,
      "▁disappearance": 8064,
      "▁evacuated": 8065,
      "▁cold": 8066,
      "▁lunche": 8067,
      "▁stockings": 8068,
      "▁attemp": 8069,
      "##wn": 8070,
      "▁poll": 8071,
      "▁views": 8072,
      "▁burb": 8073,
      "▁billing": 8074,
      "##il": 8075,
      "▁prof": 8076,
      "▁diagn": 8077,
      "▁experiencing": 8078,
      "▁wells": 8079,
      "▁charging": 8080,
      "▁former": 8081,
      "▁miseries": 8082,
      "##rop": 8083,
      "##enment": 8084,
      "▁chute": 8085,
      "▁buttered": 8086,
      "▁cashout": 8087,
      "▁emp": 8088,
      "▁maple": 8089,
      "▁skipping": 8090,
      "▁attendant": 8091,
      "▁pretending": 8092,
      "##gencies": 8093,
      "▁envelope": 8094,
      "##care": 8095,
      "▁envis": 8096,
      "▁policy": 8097,
      "##abouts": 8098,
      "▁eur": 8099,
      "▁warming": 8100,
      "##œ": 8101,
      "▁hammer": 8102,
      "▁vod": 8103,
      "▁craft": 8104,
      "##ze": 8105,
      "▁jean": 8106,
      "##itch": 8107,
      "##bby": 8108,
      "##sa": 8109,
      "##roleum": 8110,
      "▁crises": 8111,
      "▁tim": 8112,
      "▁phys": 8113,
      "▁bathtub": 8114,
      "##istic": 8115,
      "▁accomm": 8116,
      "▁ambulances": 8117,
      "▁acqui": 8118,
      "▁connectionfile": 8119,
      "▁aro": 8120,
      "▁mice": 8121,
      "▁intentions": 8122,
      "##hance": 8123,
      "▁booking": 8124,
      "▁arise": 8125,
      "##ases": 8126,
      "▁calorie": 8127,
      "▁fish": 8128,
      "▁rever": 8129,
      "▁twa": 8130,
      "▁k": 8131,
      "##raid": 8132,
      "▁packages": 8133,
      "▁referee": 8134,
      "▁sunshine": 8135,
      "▁investigate": 8136,
      "##id": 8137,
      "##formity": 8138,
      "##ugging": 8139,
      "##ug": 8140,
      "▁farm": 8141,
      "##ming": 8142,
      "▁seizures": 8143,
      "▁gdp": 8144,
      "▁exercised": 8145,
      "##dges": 8146,
      "▁self-": 8147,
      "▁ache": 8148,
      "▁mug": 8149,
      "▁!!!!": 8150,
      "▁forbidden": 8151,
      "▁bes": 8152,
      "▁avoid": 8153,
      "▁have": 8154,
      "▁1830s": 8155,
      "##ambment": 8156,
      "##crib": 8157,
      "▁essence": 8158,
      "▁depends": 8159,
      "##omin": 8160,
      "##…": 8161,
      "##urring": 8162,
      "▁returning": 8163,
      "▁attrition": 8164,
      "▁brightness": 8165,
      "▁visualization": 8166,
      "##warded": 8167,
      "▁book": 8168,
      "▁pursuing": 8169,
      "▁drow": 8170,
      "▁knee": 8171,
      "▁jurisdictions": 8172,
      "▁investigations": 8173,
      "▁affect": 8174,
      "▁obtained": 8175,
      "##iches": 8176,
      "▁cleaners": 8177,
      "▁w": 8178,
      "▁impossible": 8179,
      "##odor": 8180,
      "▁’d": 8181,
      "▁lid": 8182,
      "##tish": 8183,
      "▁scream": 8184,
      "##orti": 8185,
      "▁lou": 8186,
      "▁nude": 8187,
      "▁initially": 8188,
      "▁unfold": 8189,
      "##uary": 8190,
      "▁lott": 8191,
      "##hr": 8192,
      "##iness": 8193,
      "▁ag": 8194,
      "▁absorbed": 8195,
      "▁fighting": 8196,
      "▁citations": 8197,
      "▁sag": 8198,
      "▁bro": 8199,
      "▁prob": 8200,
      "▁bath+room": 8201,
      "##sent": 8202,
      "▁path": 8203,
      "▁sched": 8204,
      "▁separation": 8205,
      "▁reint": 8206,
      "▁scared": 8207,
      "▁sweater": 8208,
      "▁cutter": 8209,
      "▁survive": 8210,
      "▁photographer": 8211,
      "▁prevention": 8212,
      "##mely": 8213,
      "##ny": 8214,
      "▁encounter": 8215,
      "▁through": 8216,
      "▁apar": 8217,
      "##??": 8218,
      "##ater": 8219,
      "▁frustration": 8220,
      "▁ital": 8221,
      "▁compon": 8222,
      "##sible": 8223,
      "▁supported": 8224,
      "▁immersion": 8225,
      "▁adoption": 8226,
      "▁elder": 8227,
      "▁season": 8228,
      "##hood": 8229,
      "▁technique": 8230,
      "▁obsession": 8231,
      "##erates": 8232,
      "▁aging": 8233,
      "##eri": 8234,
      "##hind": 8235,
      "▁rented": 8236,
      "▁nodes": 8237,
      "##ork": 8238,
      "##come": 8239,
      "▁resumed": 8240,
      "▁counterpar": 8241,
      "▁report": 8242,
      "▁lick": 8243,
      "▁roosters": 8244,
      "##ints": 8245,
      "▁scattered": 8246,
      "▁sil": 8247,
      "▁procr": 8248,
      "##espan": 8249,
      "▁conditions": 8250,
      "▁manufact": 8251,
      "▁healing": 8252,
      "##tie": 8253,
      "▁discom": 8254,
      "▁regim": 8255,
      "▁east": 8256,
      "##hea": 8257,
      "▁authorization": 8258,
      "▁measure": 8259,
      "▁fer": 8260,
      "##itt": 8261,
      "▁surgery": 8262,
      "▁steak": 8263,
      "▁daytime": 8264,
      "▁incl": 8265,
      "▁fedayeen": 8266,
      "▁limitations": 8267,
      "▁scent": 8268,
      "##terations": 8269,
      "▁grumbles": 8270,
      "▁wishes": 8271,
      "▁23rd": 8272,
      "▁biting": 8273,
      "▁rumor": 8274,
      "##alidated": 8275,
      "▁wilderness": 8276,
      "▁industry": 8277,
      "▁sw": 8278,
      "▁lot": 8279,
      "##lier": 8280,
      "▁abund": 8281,
      "▁tran": 8282,
      "▁ideology": 8283,
      "▁n": 8284,
      "▁bice": 8285,
      "^": 8286,
      "▁managers": 8287,
      "ς": 8288,
      "▁ring": 8289,
      "▁sally": 8290,
      "▁pine": 8291,
      "##ership": 8292,
      "▁capsules": 8293,
      "▁5": 8294,
      "▁probability": 8295,
      "▁reporter": 8296,
      "▁refrigerator": 8297,
      "▁insect": 8298,
      "▁tush": 8299,
      "▁belongs": 8300,
      "▁ventures": 8301,
      "▁priv": 8302,
      "##.xls": 8303,
      "▁seminars": 8304,
      "▁bce": 8305,
      "▁obtaining": 8306,
      "▁crop": 8307,
      "▁notwithstanding": 8308,
      "##tured": 8309,
      "▁backup": 8310,
      "▁insist": 8311,
      "##(": 8312,
      "▁issue": 8313,
      "▁jig": 8314,
      "▁administrations": 8315,
      "##=----": 8316,
      "▁punchline": 8317,
      "<": 8318,
      "##1": 8319,
      "▁engaged": 8320,
      "▁crush": 8321,
      "▁aged": 8322,
      "▁raisin": 8323,
      "##bolism": 8324,
      "▁thri": 8325,
      "▁fee": 8326,
      "##rel": 8327,
      "▁rim": 8328,
      "▁nineteenth": 8329,
      "##ders": 8330,
      "▁pen": 8331,
      "▁notions": 8332,
      "▁drawers": 8333,
      "##worm": 8334,
      "##ourse": 8335,
      "▁greenhouse": 8336,
      "▁bureaucr": 8337,
      "▁integ": 8338,
      "▁don": 8339,
      "o": 8340,
      "▁cleaned": 8341,
      "▁waive": 8342,
      "▁memor": 8343,
      "▁hurts": 8344,
      "▁product": 8345,
      "▁conquer": 8346,
      "▁sympt": 8347,
      "▁blacklined": 8348,
      "▁rhymes": 8349,
      "▁earliest": 8350,
      "▁others": 8351,
      "▁pack": 8352,
      "▁stir": 8353,
      "▁foie": 8354,
      "▁eol": 8355,
      "▁fright": 8356,
      "▁mobil": 8357,
      "▁cpi": 8358,
      "▁tracked": 8359,
      "▁musician": 8360,
      "▁recreation": 8361,
      "▁paths": 8362,
      "##ounded": 8363,
      "▁construct": 8364,
      "▁sc": 8365,
      "▁branch": 8366,
      "▁flowing": 8367,
      "▁distortions": 8368,
      "▁titled": 8369,
      "▁national": 8370,
      "▁crime": 8371,
      "▁enterprise": 8372,
      "▁game": 8373,
      "##chup": 8374,
      "##rouded": 8375,
      "##lock": 8376,
      "▁workforce": 8377,
      "▁many": 8378,
      "##iency": 8379,
      "##-19": 8380,
      "##ocity": 8381,
      "##000": 8382,
      "▁stimuli": 8383,
      "▁longer": 8384,
      "##**********************************": 8385,
      "▁experiments": 8386,
      "▁pilgrim": 8387,
      "▁notified": 8388,
      "##ml": 8389,
      "▁custom-house": 8390,
      "▁hors": 8391,
      "▁commerc": 8392,
      "##aned": 8393,
      "▁him": 8394,
      "▁wik": 8395,
      "##uddled": 8396,
      "##friend": 8397,
      "▁bringing": 8398,
      "▁brothers": 8399,
      "▁fearing": 8400,
      "▁ref": 8401,
      "##titudes": 8402,
      "▁commitment": 8403,
      "▁interview": 8404,
      "▁ads": 8405,
      "##ister": 8406,
      "▁souls": 8407,
      "▁pa": 8408,
      "▁overwhelmed": 8409,
      "▁interval": 8410,
      "▁mike": 8411,
      "▁loot": 8412,
      "▁direct": 8413,
      "##jected": 8414,
      "▁expansion": 8415,
      "##well": 8416,
      "▁pass": 8417,
      "▁extern": 8418,
      "▁bomb": 8419,
      "##mest": 8420,
      "##con": 8421,
      "##ard": 8422,
      "▁photos": 8423,
      "##idity": 8424,
      "##ij": 8425,
      "##i-": 8426,
      "##berry": 8427,
      "▁lock": 8428,
      "▁pointing": 8429,
      "##engers": 8430,
      "▁reproducibility": 8431,
      "▁capitalism": 8432,
      "▁intrigu": 8433,
      "##ur": 8434,
      "▁check": 8435,
      "▁hence": 8436,
      "▁rude": 8437,
      "▁man": 8438,
      "▁concert": 8439,
      "##esty": 8440,
      "▁rag": 8441,
      "▁chest": 8442,
      "##upled": 8443,
      "▁theory": 8444,
      "▁menti": 8445,
      "##bug": 8446,
      "▁should": 8447,
      "##view": 8448,
      "▁oath": 8449,
      "▁accep": 8450,
      "▁ple": 8451,
      "▁spaghetti": 8452,
      "▁dud": 8453,
      "##fr": 8454,
      "▁thoughts": 8455,
      "▁demonstrates": 8456,
      "▁veins": 8457,
      "##inally": 8458,
      "▁chicago": 8459,
      "##mitted": 8460,
      "▁richard": 8461,
      "▁frontier": 8462,
      "▁adjo": 8463,
      "##istence": 8464,
      "u": 8465,
      "▁nuc": 8466,
      "##22": 8467,
      "▁underw": 8468,
      "▁butterfl": 8469,
      "▁enclosed": 8470,
      "▁reaches": 8471,
      "▁selected": 8472,
      "▁invented": 8473,
      "▁attempts": 8474,
      "▁festivals": 8475,
      "▁reliance": 8476,
      "▁asyl": 8477,
      "▁jump": 8478,
      "▁enri": 8479,
      "▁procrast": 8480,
      "▁squirt": 8481,
      "##per": 8482,
      "▁nin": 8483,
      "▁race": 8484,
      "▁thrive": 8485,
      "##gold": 8486,
      "▁prosecution": 8487,
      "##erving": 8488,
      "##quil": 8489,
      "▁securing": 8490,
      "▁blessings": 8491,
      "▁nuisance": 8492,
      "▁b/": 8493,
      "▁cat": 8494,
      "▁cheeks": 8495,
      "▁concern": 8496,
      "##gai": 8497,
      "##ictions": 8498,
      "▁cav": 8499,
      "▁pret": 8500,
      "▁der": 8501,
      "▁film": 8502,
      "▁so": 8503,
      "▁comb": 8504,
      "▁pirates": 8505,
      "▁substit": 8506,
      "▁supermarkets": 8507,
      "▁spo": 8508,
      "▁genitals": 8509,
      "▁chame": 8510,
      "▁castle": 8511,
      "##ret": 8512,
      "##ants": 8513,
      "##pub": 8514,
      "▁antenna": 8515,
      "▁viewing": 8516,
      "▁nationality": 8517,
      "▁going": 8518,
      "▁b": 8519,
      "##yan": 8520,
      "##esp": 8521,
      "▁dream": 8522,
      "##umbled": 8523,
      "##mas": 8524,
      "▁!!!!!!!!!!": 8525,
      "▁bel": 8526,
      "▁peanut": 8527,
      "##tery": 8528,
      "##alisation": 8529,
      "▁dorm": 8530,
      "▁ski": 8531,
      "▁audio": 8532,
      "▁exped": 8533,
      "##dles": 8534,
      "##vet": 8535,
      "▁penc": 8536,
      "##kle": 8537,
      "▁soot": 8538,
      "▁cooked": 8539,
      "##oud": 8540,
      "▁truly": 8541,
      "▁guerrillas": 8542,
      "##ests": 8543,
      "##att": 8544,
      "##ucking": 8545,
      "▁bu": 8546,
      "##ense": 8547,
      "▁reflected": 8548,
      "▁strengthening": 8549,
      "##sour": 8550,
      "##45": 8551,
      "▁scope": 8552,
      "▁speck": 8553,
      "▁preparation": 8554,
      "##????????????????": 8555,
      "▁king": 8556,
      "▁millions": 8557,
      "▁concl": 8558,
      "▁revenues": 8559,
      "##enuity": 8560,
      "▁legisl": 8561,
      "▁cocktail": 8562,
      "▁merely": 8563,
      "▁tattoos": 8564,
      "▁scoring": 8565,
      "▁trial": 8566,
      "▁tot": 8567,
      "▁propped": 8568,
      "▁indic": 8569,
      "▁two": 8570,
      "▁protected": 8571,
      "▁learners": 8572,
      "##erer": 8573,
      "##ption": 8574,
      "▁contents": 8575,
      "▁fares": 8576,
      "▁coo": 8577,
      "▁guilt": 8578,
      "▁schemes": 8579,
      "▁rapidly": 8580,
      "▁preserve": 8581,
      "▁establishing": 8582,
      "▁thursday": 8583,
      "▁dis": 8584,
      "##ect": 8585,
      "▁split": 8586,
      "▁prevail": 8587,
      "▁smart": 8588,
      "▁inquired": 8589,
      "▁consciousness": 8590,
      "▁worn": 8591,
      "▁gle": 8592,
[...]
