{
  "version": "1.0",
  "truncation": null,
  "padding": null,
  "added_tokens": [
    {
      "id": 1114,
      "content": "[UNK]",
      "single_word": false,
      "lstrip": false,
      "rstrip": false,
      "normalized": false,
      "special": true
    },
    {
      "id": 1615,
      "content": "[MASK]",
      "single_word": false,
      "lstrip": false,
      "rstrip": false,
      "normalized": false,
      "special": true
    },
    {
      "id": 8482,
      "content": "[CLS]",
      "single_word": false,
      "lstrip": false,
      "rstrip": false,
      "normalized": false,
      "special": true
    },
    {
      "id": 11330,
      "content": "[SEP]",
      "single_word": false,
      "lstrip": false,
      "rstrip": false,
      "normalized": false,
      "special": true
    },
    {
      "id": 12158,
      "content": "[PAD]",
      "single_word": false,
      "lstrip": false,
      "rstrip": false,
      "normalized": false,
      "special": true
    }
  ],
  "normalizer": {
    "type": "Sequence",
    "normalizers": [
      {
        "type": "NFD"
      },
      {
        "type": "Lowercase"
      },
      {
        "type": "StripAccents"
      }
    ]
  },
  "pre_tokenizer": {
    "type": "Sequence",
    "pretokenizers": [
      {
        "type": "Metaspace",
        "replacement": "▁",
        "prepend_scheme": "always",
        "split": true
      }
    ]
  },
  "post_processor": {
    "type": "TemplateProcessing",
    "single": [
      {
        "SpecialToken": {
          "id": "[CLS]",
          "type_id": 0
        }
      },
      {
        "Sequence": {
          "id": "A",
          "type_id": 0
        }
      },
      {
        "SpecialToken": {
          "id": "[SEP]",
          "type_id": 0
        }
      }
    ],
    "pair": [
      {
        "SpecialToken": {
          "id": "[CLS]",
          "type_id": 0
        }
      },
      {
        "Sequence": {
          "id": "A",
          "type_id": 0
        }
      },
      {
        "SpecialToken": {
          "id": "[SEP]",
          "type_id": 0
        }
      },
      {
        "Sequence": {
          "id": "B",
          "type_id": 1
        }
      },
      {
        "SpecialToken": {
          "id": "[SEP]",
          "type_id": 1
        }
      }
    ],
    "special_tokens": {
      "[CLS]": {
        "id": "[CLS]",
        "ids": [
          8482
        ],
        "tokens": [
          "[CLS]"
        ]
      },
      "[SEP]": {
        "id": "[SEP]",
        "ids": [
          11330
        ],
        "tokens": [
          "[SEP]"
        ]
      }
    }
  },
  "decoder": {
    "type": "Metaspace",
    "replacement": "▁",
    "prepend_scheme": "always",
    "split": true
  },
  "model": {
    "type": "Unigram",
    "unk_id": 1114,
    "vocab": [
      [
        "▁ivory",
        -10.689914674184644
      ],
      [
        "▁prosecute",
        -11.458764221318269
      ],
      [
        "igg",
        -12.685534681946189
      ],
      [
        "▁post",
        -7.878502570412043
      ],
      [
        "▁quest",
        -10.347505463394782
      ],
      [
        "tz",
        -8.87761071742614
      ],
      [
        "propri",
        -8.566125619264229
      ],
      [
        "▁wr",
        -11.708920600388389
      ],
      [
        "▁pric",
        -9.603675705281892
      ],
      [
        "▁newsgroup",
        -10.49152364424671
      ],
      [
        "unk",
        -12.638987039581608
      ],
      [
        "promise",
        -13.76976280121357
      ],
      [
        "▁background",
        -8.887222763346678
      ],
      [
        "▁grandmother",
        -8.202466229537057
      ],
      [
        "q",
        -9.58572768326007
      ],
      [
        "▁prob",
        -5.886808177766353
      ],
      [
        "▁move",
        -6.640303779448729
      ],
      [
        "▁grain",
        -9.536128138630984
      ],
      [
        "▁layer",
        -10.350120020368768
      ],
      [
        "▁reha",
        -12.011551954621089
      ],
      [
        "▁arrow",
        -9.096790134695848
      ],
      [
        "▁into",
        -10.412886970497018
      ],
      [
        "▁george",
        -6.781171824155518
      ],
      [
        "▁release",
        -8.105118794128881
      ],
      [
        "▁arrest",
        -9.02482456647259
      ],
      [
        "▁quali",
        -12.589928895285803
      ],
      [
        "▁cor",
        -10.749413686738622
      ],
      [
        "ould",
        -11.074749521755503
      ],
      [
        "▁grand",
        -9.623452027568234
      ],
      [
        "appen",
        -13.383296095900588
      ],
      [
        "al",
        -7.165407135913336
      ],
      [
        "ine",
        -10.178659188625435
      ],
      [
        "▁concentrat",
        -10.758539073044473
      ],
      [
        "▁super",
        -7.831467730482739
      ],
      [
        "▁congress",
        -9.946184152169943
      ],
      [
        "ficial",
        -8.841469198734021
      ],
      [
        "▁head",
        -6.650466492583852
      ],
      [
        "▁chairman",
        -9.85018370181184
      ],
      [
        "▁supersed",
        -9.869360950619363
      ],
      [
        "▁fresh",
        -10.50154538243678
      ],
      [
        "ize",
        -10.507291583548534
      ],
      [
        "mals",
        -12.15224841522742
      ],
      [
        "▁how",
        -3.9468069168529585
      ],
      [
        "▁trie",
        -7.719057135202351
      ],
      [
        "tues",
        -12.1865074987564
      ],
      [
        "hes",
        -13.2536395611446
      ],
      [
        "▁westerner",
        -11.823545345920031
      ],
      [
        "▁bur",
        -10.932804930669953
      ],
      [
        "▁capt",
        -13.030468450980152
      ],
      [
        "▁protest",
        -9.534081895430205
      ],
      [
        "▁debutan",
        -11.797799039526224
      ],
      [
        "▁stronge",
        -8.950146080141256
      ],
      [
        "online",
        -8.749406999574331
      ],
      [
        "▁dive",
        -12.689422565787856
      ],
      [
        "tel",
        -6.390730603715606
      ],
      [
        "▁half",
        -8.740826070765207
      ],
      [
        "▁blurr",
        -10.63355714758253
      ],
      [
        "▁coloni",
        -10.764754888105097
      ],
      [
        "▁book",
        -6.463781992232559
      ],
      [
        "▁origin",
        -8.940877074688899
      ],
      [
        "flow",
        -10.567663795375564
      ],
      [
        "▁bib",
        -10.06971338438722
      ],
      [
        "lf",
        -11.199065031434
      ],
      [
        "▁appe",
        -13.828885682502568
      ],
      [
        "▁cup",
        -7.521682879664078
      ],
      [
        "▁)",
        -8.967339649659891
      ],
      [
        "ndi",
        -11.725704864417658
      ],
      [
        "▁re",
        -7.249817865199452
      ],
      [
        "abou",
        -8.011008626944378
      ],
      [
        "▁blin",
        -12.732187393581304
      ],
      [
        "▁tiptoe",
        -10.939953555674036
      ],
      [
        "▁children",
        -7.017507488644836
      ],
      [
        "▁memorial",
        -10.324126332162475
      ],
      [
        "▁spre",
        -11.92641670941597
      ],
      [
        "▁strut",
        -12.420011896171884
      ],
      [
        "{",
        -11.810278406305976
      ],
      [
        "stirr",
        -12.28544871194109
      ],
      [
        "▁sway",
        -9.869892786801692
      ],
      [
        "own",
        -10.46591813096114
      ],
      [
        "▁atheis",
        -10.940240792930641
      ],
      [
        "▁ferri",
        -11.21843134302585
      ],
      [
        "rank",
        -8.979148090616182
      ],
      [
        "▁specification",
        -9.947579162974133
      ],
      [
        "draw",
        -11.672862997787204
      ],
      [
        "▁dea",
        -11.505207162389922
      ],
      [
        "▁prayer",
        -9.755986628909687
      ],
      [
        "no",
        -6.835868329799126
      ],
      [
        "ow",
        -10.59600381348684
      ],
      [
        "▁push",
        -7.134800138392693
      ],
      [
        "▁hind",
        -10.943740860876652
      ],
      [
        "cloth",
        -11.013650356331393
      ],
      [
        "▁nectarine",
        -11.273294756325084
      ],
      [
        "river",
        -12.117633814908139
      ],
      [
        "▁pizza",
        -8.202275232138575
      ],
      [
        "cum",
        -12.109432871698822
      ],
      [
        "▁wagin",
        -12.32488497244999
      ],
      [
        "▁av",
        -6.077044743235184
      ],
      [
        "ot",
        -10.878220697849821
      ],
      [
        "ut",
        -10.56696934815741
      ],
      [
        "▁spirit",
        -8.849776359993832
      ],
      [
        "▁athen",
        -8.07694340831553
      ],
      [
        "▁subscri",
        -9.882600660849604
      ],
      [
        "ov",
        -8.666308487738302
      ],
      [
        "▁po",
        -7.826023911263647
      ],
      [
        "llness",
        -10.93344783583854
      ],
      [
        "▁increas",
        -12.667110140504244
      ],
      [
        "equen",
        -12.777063618927844
      ],
      [
        "▁lind",
        -8.646663439148837
      ],
      [
        "▁plague",
        -11.459133131094742
      ],
      [
        "▁ours",
        -11.444714850985516
      ],
      [
        "▁rely",
        -9.145980370528957
      ],
      [
        "▁quer",
        -8.412450019221675
      ],
      [
        "▁success",
        -8.426858743832414
      ],
      [
        "▁impos",
        -8.03507248876517
      ],
      [
        "▁sanct",
        -10.20889628439504
      ],
      [
        "icate",
        -11.433134378937758
      ],
      [
        "son",
        -11.926039698717645
      ],
      [
        "hi",
        -11.63109495670714
      ],
      [
        "eli",
        -8.437919479759561
      ],
      [
        "warm",
        -11.3751739593531
      ],
      [
        "▁di",
        -9.109167418298744
      ],
      [
        "▁highe",
        -7.676130664473138
      ],
      [
        "▁four",
        -11.656413255506022
      ],
      [
        "▁response",
        -7.803604107352536
      ],
      [
        "-wa",
        -11.664597319223608
      ],
      [
        "▁souvenir",
        -11.773238255582603
      ],
      [
        "cule",
        -11.146323236848149
      ],
      [
        "gator",
        -10.30250809702601
      ],
      [
        "cker",
        -10.943710185217597
      ],
      [
        "tonin",
        -11.78416878506439
      ],
      [
        "▁foo",
        -11.66848919734773
      ],
      [
        "▁halt",
        -10.672903277357474
      ],
      [
        "▁evacuat",
        -11.7252813705067
      ],
      [
        "per",
        -9.697416804939591
      ],
      [
        "▁complet",
        -8.985568840142712
      ],
      [
        "▁declin",
        -10.48108522121559
      ],
      [
        "oodle",
        -9.717468420174638
      ],
      [
        "▁superst",
        -11.57793978835037
      ],
      [
        "▁trea",
        -12.841919395511697
      ],
      [
        "▁democrat",
        -7.7140240841918475
      ],
      [
        "▁bill",
        -7.873931900599555
      ],
      [
        "▁blacks",
        -12.394055526811432
      ],
      [
        "ay",
        -10.276524336441142
      ],
      [
        "▁mansion",
        -11.865669678827478
      ],
      [
        "constitution",
        -8.68751065953169
      ],
      [
        "▁",
        -1.4271932053481233
      ],
      [
        "▁tri",
        -10.358521777521727
      ],
      [
        "▁pe",
        -7.653575341127877
      ],
      [
        "▁colon",
        -10.124573333109675
      ],
      [
        "▁suggestion",
        -8.688598123620068
      ],
      [
        "member",
        -10.790463183338373
      ],
      [
        "▁gun",
        -8.232078290272987
      ],
      [
        "▁improv",
        -11.273180822120594
      ],
      [
        "▁core",
        -9.52053851671184
      ],
      [
        "▁tycoon",
        -11.773249666208448
      ],
      [
        "▁orla",
        -7.2059885835753175
      ],
      [
        "▁bill",
        -8.244021501517164
      ],
      [
        "smith",
        -8.87520463945089
      ],
      [
        "▁enlarge",
        -11.675042734425105
      ],
      [
        "▁misfortune",
        -10.939950145267304
      ],
      [
        "▁designer",
        -9.768460725518304
      ],
      [
        "as",
        -11.369758831743916
      ],
      [
        "▁spec",
        -8.91096170366148
      ],
      [
        "_",
        -5.201045034743488
      ],
      [
        "▁augment",
        -10.375393417984494
      ],
      [
        "▁alt.animals.c",
        -11.055720517449522
      ],
      [
        "wid",
        -12.421049275637149
      ],
      [
        "▁beds",
        -10.906400032900475
      ],
      [
        "te",
        -7.071888424677393
      ],
      [
        "▁trauma",
        -10.489988393579981
      ],
      [
        "▁paris",
        -7.2632016687549665
      ],
      [
        "▁conference",
        -10.9587313552676
      ],
      [
        "lion",
        -10.886405763091158
      ],
      [
        "▁people",
        -11.458733699726519
      ],
      [
        "▁slap",
        -12.456072562561175
      ],
      [
        "ock",
        -6.949752816097767
      ],
      [
        "▁collect",
        -7.953103109768134
      ],
      [
        "che",
        -11.960837310637286
      ],
      [
        "ind",
        -8.429079748863852
      ],
      [
        "--------------",
        -9.810432193692524
      ],
      [
        "hoop",
        -10.977196262808912
      ],
      [
        "▁bar",
        -10.05648783414817
      ],
      [
        "▁perspective",
        -9.39567665896039
      ],
      [
        "▁credi",
        -11.578498324613536
      ],
      [
        "norm",
        -8.911915037673422
      ],
      [
        "▁photo",
        -8.632147451989086
      ],
      [
        "▁limb",
        -9.29794097847633
      ],
      [
        "▁touch",
        -7.580939470623513
      ],
      [
        "▁sold",
        -8.854102639208472
      ],
      [
        "▁increas",
        -8.53900235210116
      ],
      [
        "▁bangladesh",
        -8.88934859970136
      ],
      [
        "igator",
        -9.088023251123804
      ],
      [
        "▁mash",
        -10.426853426740696
      ],
      [
        "▁ginggo",
        -11.773324033448878
      ],
      [
        "kill",
        -11.523855138674847
      ],
      [
        "▁shuttle",
        -9.755585933453496
      ],
      [
        "▁type",
        -6.96605899856015
      ],
      [
        "▁shel",
        -8.974684019918165
      ],
      [
        "▁helicopter",
        -9.395635991207396
      ],
      [
        "ca",
        -8.771865620995449
      ],
      [
        "lause",
        -10.767449149847028
      ],
      [
        "▁coupl",
        -12.649548271295718
      ],
      [
        "▁grandma",
        -9.524682707260776
      ],
      [
        "▁peter",
        -6.870955470039081
      ],
      [
        "ladder",
        -10.862065103719518
      ],
      [
        "ush",
        -10.684228455752043
      ],
      [
        "▁undertak",
        -12.262009973033889
      ],
      [
        "▁programme",
        -11.458725623696708
      ],
      [
        "identi",
        -8.914902397177777
      ],
      [
        "con",
        -10.041296391670732
      ],
      [
        ")",
        -10.48990488798249
      ],
      [
        "structure",
        -12.248675689760534
      ],
      [
        "▁killi",
        -11.716952034777506
      ],
      [
        "tical",
        -11.92759504866092
      ],
      [
        "produce",
        -12.575586262722734
      ],
      [
        "▁threaten",
        -8.917157554625366
      ],
      [
        "▁out",
        -9.53554766593308
      ],
      [
        "▁preacher",
        -10.939956208767597
      ],
      [
        "▁import",
        -8.688300990536511
      ],
      [
        "ry",
        -7.145100294647382
      ],
      [
        "like",
        -8.617602280843219
      ],
      [
        "▁drift",
        -10.943168433876759
      ],
      [
        "▁procr",
        -11.8090750444883
      ],
      [
        "▁recess",
        -12.18643142590539
      ],
      [
        "▁form",
        -7.229122621167228
      ],
      [
        "▁victor",
        -9.634994188372172
      ],
      [
        "▁sweat",
        -10.638237969398299
      ],
      [
        "▁cin",
        -10.157588754628804
      ],
      [
        "▁prof",
        -7.238375070861989
      ],
      [
        "ble",
        -10.530511159994715
      ],
      [
        "▁yoyo",
        -9.945827867270534
      ],
      [
        "▁allerg",
        -11.273621860096844
      ],
      [
        "r",
        -6.214075330236206
      ],
      [
        "▁frid",
        -9.293243911368
      ],
      [
        "▁hook",
        -10.4627487044045
      ],
      [
        "horizo",
        -12.774424161776647
      ],
      [
        "sa",
        -11.322730172469772
      ],
      [
        "“",
        -6.491662973714449
      ],
      [
        "▁reference",
        -8.480109567306302
      ],
      [
        "ia",
        -7.044474574176756
      ],
      [
        "d",
        -8.02655417968824
      ],
      [
        "rsed",
        -11.053916195218566
      ],
      [
        "of",
        -8.026473360529637
      ],
      [
        "umber",
        -12.877579313467283
      ],
      [
        "/",
        -11.20763530558339
      ],
      [
        "o",
        -6.147997236814882
      ],
      [
        "▁carb",
        -11.128715256438728
      ],
      [
        "▁handle",
        -9.727358655695339
      ],
      [
        "▁comp.sources.",
        -10.689904925465097
      ],
      [
        "biograph",
        -10.851483490161977
      ],
      [
        "▁kidnapp",
        -10.958726178160614
      ],
      [
        "fill",
        -11.355194037317581
      ],
      [
        "▁exist",
        -8.588449079906928
      ],
      [
        "i",
        -4.958782707846554
      ],
      [
        "▁probabilit",
        -10.489996732417112
      ],
      [
        "▁space",
        -7.173637911613658
      ],
      [
        "life",
        -9.071346437163726
      ],
      [
        "▁hook",
        -10.528118167021825
      ],
      [
        "▁waste",
        -9.124935399848116
      ],
      [
        "▁advertise",
        -10.233018183635329
      ],
      [
        "▁poor",
        -6.827153171806246
      ],
      [
        "▁branch",
        -11.998299472046634
      ],
      [
        "▁pink",
        -8.229312250389574
      ],
      [
        "▁programmer",
        -12.2988531018254
      ],
      [
        "▁lur",
        -12.486336987580371
      ],
      [
        "▁tendenc",
        -10.055432927056108
      ],
      [
        "▁plain",
        -11.297303437490946
      ],
      [
        "arrange",
        -12.340257251859294
      ],
      [
        "▁bes",
        -7.768491441059008
      ],
      [
        "lonel",
        -12.530476496461983
      ],
      [
        "▁rough",
        -8.551598761038338
      ],
      [
        "st",
        -8.625963840068753
      ],
      [
        "▁fit",
        -7.675468551801042
      ],
      [
        "▁vary",
        -9.359706773186014
      ],
      [
        "▁torrent",
        -11.773309323209226
      ],
      [
        "where",
        -9.151435274764282
      ],
      [
        "▁fore",
        -8.98491620033311
      ],
      [
        "▁mini",
        -10.99014287639174
      ],
      [
        "▁initiative",
        -8.815618867769002
      ],
      [
        "▁16",
        -5.674082561475753
      ],
      [
        "▁waive",
        -9.53930967014865
      ],
      [
        "acco",
        -11.328339147083003
      ],
      [
        "▁customiz",
        -9.744777574649882
      ],
      [
        "▁user",
        -7.922769755766023
      ],
      [
        "▁jo",
        -8.048320156449357
      ],
      [
        "▁minist",
        -8.452821465938648
      ],
      [
        "▁dra",
        -8.813894255420443
      ],
      [
        "▁b",
        -8.653977413552017
      ],
      [
        "bo",
        -11.241528047934572
      ],
      [
        "▁spor",
        -12.453209448260724
      ],
      [
        "men",
        -8.37551400982814
      ],
      [
        "▁thank",
        -6.685448103446489
      ],
      [
        "▁marri",
        -8.755539691901694
      ],
      [
        "▁manufacture",
        -10.211414166369446
      ],
      [
        "▁paragraph",
        -9.76606056333037
      ],
      [
        "g",
        -5.086823106981542
      ],
      [
        "y",
        -4.19304666083936
      ],
      [
        "ening",
        -11.526065198464607
      ],
      [
        "▁hall",
        -8.28283908688302
      ],
      [
        "▁sala",
        -12.527237917500923
      ],
      [
        "tom",
        -10.502204382773382
      ],
      [
        "▁broomstick",
        -10.940001829166345
      ],
      [
        "▁prepayment",
        -11.273546952938595
      ],
      [
        "▁bedroom",
        -8.661050574088472
      ],
      [
        "▁stag",
        -13.260388934724661
      ],
      [
        "▁residence",
        -10.18632831878907
      ],
      [
        "▁exact",
        -7.130971277767781
      ],
      [
        "▁bunn",
        -8.606342525407833
      ],
      [
        "▁why",
        -4.973704831338078
      ],
      [
        "v",
        -8.86102835240629
      ],
      [
        "▁metro",
        -8.890512238753542
      ],
      [
        "▁uniform",
        -9.458025448171398
      ],
      [
        "▁close",
        -9.463172932684817
      ],
      [
        "▁graveyard",
        -11.773823105213404
      ],
      [
        "ward",
        -12.770648023231953
      ],
      [
        "driver",
        -9.721282188294449
      ],
      [
        "▁attack",
        -7.962155350530788
      ],
      [
        "t",
        -3.4258600649643967
      ],
      [
        "▁micron",
        -10.783968184052174
      ],
      [
        "▁egg",
        -7.880770289419002
      ],
      [
        "▁augu",
        -7.748266778890756
      ],
      [
        "korea",
        -7.720141021545693
      ],
      [
        "▁canape",
        -11.773653979859759
      ],
      [
        "▁science",
        -8.217354337862405
      ],
      [
        "▁attendan",
        -11.630007775747169
      ],
      [
        "▁zoom",
        -11.458727045935465
      ],
      [
        "▁graduate",
        -9.47447746086141
      ],
      [
        "▁level",
        -7.2906322342151615
      ],
      [
        "▁third",
        -9.103594419905308
      ],
      [
        "▁appeti",
        -11.202656766158889
      ],
      [
        "▁endure",
        -10.262424684064626
      ],
      [
        "odu",
        -11.97893851558923
      ],
      [
        "revision",
        -11.635339438833519
      ],
      [
        "▁peanut",
        -8.658916968370956
      ],
      [
        "▁masque",
        -11.774430282896917
      ],
      [
        "▁al",
        -9.65270150401551
      ],
      [
        "▁right",
        -5.1005143013985395
      ],
      [
        "imate",
        -12.487890035315672
      ],
      [
        "▁cigar",
        -10.690107150538008
      ],
      [
        "8",
        -4.553569007344787
      ],
      [
        "▁exclude",
        -10.441509310747433
      ],
      [
        "▁frown",
        -10.6265895858662
      ],
      [
        "ive",
        -9.33634883122361
      ],
      [
        "nish",
        -12.416246959708788
      ],
      [
        "▁flee",
        -10.98157081085025
      ],
      [
        "rick",
        -8.876743836031508
      ],
      [
        "▁imbalance",
        -10.489923906372917
      ],
      [
        "tray",
        -12.746551481530544
      ],
      [
        "▁grocer",
        -10.153901960249042
      ],
      [
        "▁alr",
        -5.228749683775931
      ],
      [
        "conven",
        -12.734238256923048
      ],
      [
        "pla",
        -9.608600268345942
      ],
      [
        "econ",
        -9.797493051880517
      ],
      [
        "en-for",
        -12.80660441171214
      ],
      [
        "nnis",
        -11.13236217449294
      ],
      [
        "palestinians",
        -8.687436656246314
      ],
      [
        "▁score",
        -9.174898047653443
      ],
      [
        "ra",
        -8.370555854804971
      ],
      [
        "are",
        -8.68488695920757
      ],
      [
        "▁amus",
        -10.62733728247659
      ],
      [
        "▁face",
        -8.031543205840347
      ],
      [
        "▁ash",
        -12.282255662360233
      ],
      [
        "▁juggl",
        -11.458772198902304
      ],
      [
        "▁craft",
        -10.545440599955187
      ],
      [
        "º",
        -11.273238221315822
      ],
      [
        "▁part",
        -6.00607986887265
      ],
      [
        "tifie",
        -13.82423830871195
      ],
      [
        "▁organiz",
        -12.760516672246123
      ],
      [
        "▁im",
        -8.742284964328043
      ],
      [
        "nate",
        -13.698996517315436
      ],
      [
        "lust",
        -11.394116757660672
      ],
      [
        "▁prox",
        -11.803157458527776
      ],
      [
        "money",
        -12.823835701711216
      ],
      [
        "▁chrom",
        -10.33389944442734
      ],
      [
        "▁magn",
        -10.813882209138482
      ],
      [
        "▁gal",
        -8.760894731335892
      ],
      [
        "▁priv",
        -12.709096708213371
      ],
      [
        "▁reali",
        -11.989902490694616
      ],
      [
        "lope",
        -11.020604031785313
      ],
      [
        "lunder",
        -12.267978443004603
      ],
      [
        "▁issu",
        -10.119700466224014
      ],
      [
        "as",
        -7.194088110937
      ],
      [
        "▁sue",
        -8.538466605104793
      ],
      [
        "cue",
        -12.408425624130597
      ],
      [
        "▁protection",
        -8.2024062380668
      ],
      [
        "▁reduce",
        -8.267613503121149
      ],
      [
        "▁dragg",
        -9.154571963846962
      ],
      [
        "▁hands",
        -7.653048427068458
      ],
      [
        "▁start",
        -8.164510247724277
      ],
      [
        "▁packet",
        -10.492067682213895
      ],
      [
        "▁over-",
        -11.780491533062088
      ],
      [
        "▁activist",
        -10.497421952179861
      ],
      [
        "▁haircut",
        -9.595821595975401
      ],
      [
        "▁finishe",
        -8.079018015374686
      ],
      [
        "proc",
        -11.59515362100013
      ],
      [
        "tw",
        -7.269763765037249
      ],
      [
        "▁crusade",
        -11.773568681360302
      ],
      [
        "holes",
        -10.231843753730486
      ],
      [
        "▁cash",
        -8.410967071348512
      ],
      [
        "▁crumbl",
        -11.378566987764277
      ],
      [
        "▁fit",
        -9.633317121058706
      ],
      [
        "d-",
        -7.703659643226237
      ],
      [
        "▁jog",
        -10.97655107589832
      ],
      [
        "▁graz",
        -11.46112017422467
      ],
      [
        "▁chain",
        -9.293362748380346
      ],
      [
        "ve",
        -8.736942800002197
      ],
      [
        "birth",
        -10.546122838498842
      ],
      [
        "▁shrug",
        -12.5099151484513
      ],
      [
        "zone",
        -9.74182072802225
      ],
      [
        "▁we",
        -5.969460857835287
      ],
      [
        "▁found",
        -8.773743516303433
      ],
      [
        "▁su",
        -8.152853670093483
      ],
      [
        "[",
        -6.162592258851914
      ],
      [
        "niversa",
        -10.270643949518591
      ],
      [
        "▁engag",
        -9.627667754802872
      ],
      [
        "en",
        -6.148540717910841
      ],
      [
        "▁river",
        -8.090330104877932
      ],
      [
        "c",
        -11.925660239071421
      ],
      [
        "▁disgu",
        -10.64398206241502
      ],
      [
        "ails",
        -12.391266840340556
      ],
      [
        "di",
        -8.690586142430135
      ],
      [
        "▁lo",
        -7.0040974518798675
      ],
      [
        "▁forth",
        -7.988309909754861
      ],
      [
        "▁bust",
        -10.18119452908353
      ],
      [
        "l",
        -3.0945094295258793
      ],
      [
        "your",
        -7.282301018614932
      ],
      [
        "oot",
        -10.638484927662859
      ],
      [
        "▁commissioner",
        -8.896838249590106
      ],
      [
        "▁contribute",
        -8.721181520426633
      ],
      [
        "on",
        -8.1917012505937
      ],
      [
        "an",
        -6.199226132788651
      ],
      [
        "ckles",
        -12.090520996694382
      ],
      [
        "ha",
        -9.035947903990632
      ],
      [
        "ifica",
        -8.291738545728773
      ],
      [
        "▁cater",
        -10.960397376761328
      ],
      [
        "▁dislike",
        -9.747636602870681
      ],
      [
        "▁firm",
        -8.508222602148178
      ],
      [
        "▁foi",
        -11.32058574482511
      ],
      [
        "▁bee",
        -8.710592654957152
      ],
      [
        "▁smok",
        -10.063808772236563
      ],
      [
        "▁proper",
        -7.637566247573738
      ],
      [
        "▁land",
        -8.482368756490763
      ],
      [
        "▁customi",
        -12.484525132769063
      ],
      [
        "▁disclaim",
        -11.462267789159672
      ],
      [
        "▁stran",
        -12.540096210982473
      ],
      [
        "agg",
        -13.04940863694985
      ],
      [
        "▁subsidi",
        -11.767471685286985
      ],
      [
        "ul",
        -11.779300943834246
      ],
      [
        "▁b",
        -8.44884647445999
      ],
      [
        "▁rename",
        -10.628866428241622
      ],
      [
        "▁harmoni",
        -9.587828032365806
      ],
      [
        "▁sister",
        -8.003868665099326
      ],
      [
        "▁quick",
        -6.745647669671999
      ],
      [
        "es",
        -5.8536356452418445
      ],
      [
        "secute",
        -12.070799575112392
      ],
      [
        "edict",
        -12.456600432283294
      ],
      [
        "ly",
        -6.04520852120544
      ],
      [
        "eating",
        -9.326087453784256
      ],
      [
        "▁influ",
        -11.437982597790057
      ],
      [
        "▁moor",
        -10.556168171522936
      ],
      [
        "▁balance",
        -8.669132626048718
      ],
      [
        "!!!!!!!!!!!!!!!!",
        -11.398152869348259
      ],
      [
        "▁chee",
        -9.700073215219318
      ],
      [
        "▁crepe",
        -10.940401749158385
      ],
      [
        "▁heel",
        -9.097677508277645
      ],
      [
        "su",
        -8.669011440796117
      ],
      [
        "▁indicat",
        -10.170808393863947
      ],
      [
        "▁uph",
        -12.993401849067373
      ],
      [
        "▁exist",
        -7.503767107828424
      ],
      [
        "quarter",
        -9.655533178468916
      ],
      [
        "▁shortc",
        -12.652500959460836
      ],
      [
        "cuba",
        -11.27589014705704
      ],
      [
        "gue",
        -10.924752878066306
      ],
      [
        "a",
        -10.36027840626602
      ],
      [
        "▁assume",
        -8.180302739335136
      ],
      [
        "▁flie",
        -11.310321640935806
      ],
      [
        "▁breath",
        -8.891083838013964
      ],
      [
        "elt",
        -12.683947390538178
      ],
      [
        "▁las",
        -12.684244057588874
      ],
      [
        "ache",
        -11.04154312443983
      ],
      [
        "▁override",
        -10.959138156899225
      ],
      [
        "reme",
        -8.271054429287775
      ],
      [
        "▁gee",
        -12.194127039165068
      ],
      [
        "▁analyz",
        -11.06259850187168
      ],
      [
        "til",
        -7.784555654766264
      ],
      [
        "▁banana",
        -7.850241357174095
      ],
      [
        "uni",
        -10.9721184248622
      ],
      [
        "rizon",
        -8.73394345956947
      ],
      [
        "▁fart",
        -10.97448456577021
      ],
      [
        "......",
        -13.08817150327664
      ],
      [
        "▁believ",
        -10.259451890156276
      ],
      [
        "▁inspector",
        -10.323936303705947
      ],
      [
        "author",
        -12.283515478834033
      ],
      [
        "▁inf",
        -11.345216859226978
      ],
      [
        "▁trumpet",
        -10.689906944630359
      ],
      [
        "▁chip",
        -9.287383996794771
      ],
      [
        "▁pump",
        -9.874935981298302
      ],
      [
        "front",
        -9.838124573628022
      ],
      [
        "ide",
        -9.660735838609888
      ],
      [
        "▁force",
        -8.89770119965588
      ],
      [
        "▁princes",
        -12.728507710034231
      ],
      [
        "sleep",
        -11.48923138636585
      ],
      [
        "▁re-",
        -8.721355501734267
      ],
      [
        "▁40",
        -6.6565469213511435
      ],
      [
        "▁pursuit",
        -10.323377147752705
      ],
      [
        "▁due",
        -10.256424161862894
      ],
      [
        "otto",
        -11.895820753485701
      ],
      [
        "bles",
        -8.35751510088154
      ],
      [
        "▁lace",
        -11.950704281177654
      ],
      [
        "▁m",
        -6.457115228975116
      ],
      [
        "▁glow",
        -9.67868386879415
      ],
      [
        "peck",
        -10.417938703846302
      ],
      [
        "▁e",
        -7.996946345375493
      ],
      [
        "▁territor",
        -8.630558710646353
      ],
      [
        "▁inheritance",
        -11.273238758412697
      ],
      [
        "s",
        -2.856836203130574
      ],
      [
        "▁dwelling",
        -11.27718255132606
      ],
      [
        "ffere",
        -13.733637080791258
      ],
      [
        "▁radio",
        -9.190879537121777
      ],
      [
        "▁outlook",
        -11.773925295549393
      ],
      [
        "ation",
        -5.989723169161357
      ],
      [
        "▁wr",
        -11.456728045680489
      ],
      [
        "▁justify",
        -10.176005862372051
      ],
      [
        "▁damn",
        -9.227687236554834
      ],
      [
        "▁divorce",
        -10.939905107196424
      ],
      [
        "adventure",
        -12.555479655501285
      ],
      [
        "▁migrant",
        -9.760531997951958
      ],
      [
        "reign",
        -10.426554609238739
      ],
      [
        "▁addition",
        -8.2814604691631
      ],
      [
        "▁13",
        -6.263667675102136
      ],
      [
        "▁identit",
        -9.016190338644286
      ],
      [
        "▁depict",
        -9.869001380755442
      ],
      [
        "▁broad",
        -7.998462488971848
      ],
      [
        "▁smok",
        -9.686364113328171
      ],
      [
        "▁brigad",
        -12.698015290018345
      ],
      [
        "▁extract",
        -10.958786493804366
      ],
      [
        "▁800",
        -7.735225124743469
      ],
      [
        "cut",
        -10.581990512418892
      ],
      [
        "▁coming",
        -11.001228392754395
      ],
      [
        "▁spectr",
        -11.049593313214967
      ],
      [
        "▁spin",
        -9.968969027101274
      ],
      [
        "olation",
        -11.674155460647366
      ],
      [
        "▁iso",
        -11.878772216872578
      ],
      [
        "▁olde",
        -7.975169562832761
      ],
      [
        "▁decade",
        -8.131334412794684
      ],
      [
        "r",
        -4.205444117082512
      ],
      [
        "▁extrem",
        -12.727095946774071
      ],
      [
        "▁somewh",
        -7.838931967341778
      ],
      [
        "▁stop",
        -6.638462490604868
      ],
      [
        "sept",
        -9.019880579845758
      ],
      [
        "▁mingle",
        -10.988608212319129
      ],
      [
        "ever",
        -6.0073375635282105
      ],
      [
        "▁twist",
        -9.28344110355502
      ],
      [
        "▁live",
        -12.011645317634548
      ],
      [
        "▁extra",
        -12.468694884251308
      ],
      [
        "wed",
        -12.348611215435065
      ],
      [
        "'",
        -2.6782468275802227
      ],
      [
        "▁wid",
        -10.392659782141198
      ],
      [
        "fi",
        -8.088029578901324
      ],
      [
        "ing",
        -4.779772680984797
      ],
      [
        "▁excell",
        -6.7968984467651445
      ],
      [
        "▁18",
        -5.485808363114372
      ],
      [
        "bsidia",
        -12.868669034356694
      ],
      [
        "▁thread",
        -9.673008396337304
      ],
      [
        "▁health",
        -7.744407798891499
      ],
      [
        "▁estate",
        -9.95053532741509
      ],
      [
        "▁hills",
        -10.686569305062411
      ],
      [
        "▁journal",
        -9.01943954143051
      ],
      [
        "▁folk",
        -8.891029667455841
      ],
      [
        "▁optimize",
        -11.458814787491649
      ],
      [
        "▁charge",
        -7.853354768533049
      ],
      [
        "▁hoora",
        -8.90806272157636
      ],
      [
        "▁arch-",
        -11.774171584628943
      ],
      [
        "▁bottl",
        -11.64646245289965
      ],
      [
        "▁elite",
        -10.691602481678936
      ],
      [
        "ell",
        -8.488196824400344
      ],
      [
        "cend",
        -12.07243808745216
      ],
      [
        "▁please",
        -8.564434024630248
      ],
      [
        "wonder",
        -13.159045854187923
      ],
      [
        "stain",
        -10.722892244239983
      ],
      [
        "▁turtle",
        -9.457741240689232
      ],
      [
        "▁mor",
        -10.524647663837543
      ],
      [
        "▁quadr",
        -12.363963328117306
      ],
      [
        "ll",
        -7.831638582495885
      ],
      [
        "▁artichoke",
        -10.939904889911878
      ],
      [
        "▁dime",
        -10.949662113156773
      ],
      [
        "▁subject",
        -7.959234897008399
      ],
      [
        "▁conver",
        -10.26334077020191
      ],
      [
        "▁satisfy",
        -9.63482029804836
      ],
      [
        "▁polic",
        -9.4719562034721
      ],
      [
        "▁ansi-",
        -8.379378494561038
      ],
      [
        "t",
        -2.591311722972385
      ],
      [
        "▁bell",
        -8.61945761622783
      ],
      [
        "wh",
        -10.931662549423878
      ],
      [
        "represent",
        -13.133123378672
      ],
      [
        "times",
        -8.869412531279686
      ],
      [
        "▁sta",
        -9.810259084892621
      ],
      [
        "▁confer",
        -11.4625981193475
      ],
      [
        "▁benefit",
        -8.68921933497451
      ],
      [
        "▁hos",
        -11.001603416641508
      ],
      [
        "▁west",
        -7.364491912356218
      ],
      [
        "▁meal",
        -7.556733245216847
      ],
      [
        "▁miner",
        -11.426992464933369
      ],
      [
        "▁r",
        -9.969176708666446
      ],
      [
        "▁cane",
        -10.518565084559839
      ],
      [
        "astro",
        -11.40941954362918
      ],
      [
        "▁craftsm",
        -11.516814023258439
      ],
      [
        "rearrange",
        -11.790105594226002
      ],
      [
        "▁skitt",
        -10.998875321044842
      ],
      [
        "uffer",
        -12.903980470718082
      ],
      [
        "▁make-",
        -11.500847243673325
      ],
      [
        "-a-",
        -12.620117289335601
      ],
      [
        "and",
        -5.689257157948816
      ],
      [
        "▁ve",
        -11.902709906128011
      ],
      [
        "▁impact",
        -8.318645166054484
      ],
      [
        "▁disabilit",
        -9.67445379532555
      ],
      [
        "stage",
        -12.523054129521686
      ],
      [
        "▁village",
        -9.178831566700104
      ],
      [
        "▁sled",
        -10.936614875416424
      ],
      [
        "tions",
        -12.828436404114996
      ],
      [
        "▁fat",
        -7.679120712889976
      ],
      [
        "▁extra",
        -10.312779204884329
      ],
      [
        "▁smack",
        -10.958761714101747
      ],
      [
        "ul",
        -11.033015983255467
      ],
      [
        "▁for",
        -8.263639775010422
      ],
      [
        "▁sod",
        -10.213325887194207
      ],
      [
        "▁ran",
        -7.978711642626029
      ],
      [
        "▁radi",
        -9.344888299817967
      ],
      [
        "▁depth",
        -9.755493372062485
      ],
      [
        "▁anne",
        -8.762116569350315
      ],
      [
        "▁shri",
        -10.426813182543976
      ],
      [
        "▁emulat",
        -11.458737311905606
      ],
      [
        "pick",
        -12.291011160499409
      ],
      [
        "ts",
        -13.777480956780607
      ],
      [
        "▁flood",
        -10.177454305959017
      ],
      [
        "▁d",
        -6.582039109497375
      ],
      [
        "▁shoul",
        -5.182621289545295
      ],
      [
        "▁curl",
        -10.433978993793176
      ],
      [
        "▁anima",
        -12.1295217169002
      ],
      [
        "ester",
        -12.12396643904958
      ],
      [
        "p",
        -7.066816683755824
      ],
      [
        "▁attention",
        -7.580836541490258
      ],
      [
        "▁scramble",
        -10.446661496406358
      ],
      [
        "born",
        -8.955840068694501
      ],
      [
        "▁league",
        -10.693661239446108
      ],
      [
        "iquit",
        -12.797214131174647
      ],
      [
        "▁r",
        -9.695794754223133
      ],
      [
        "▁exam",
        -9.336724126758124
      ],
      [
        "▁chai",
        -12.628828586964843
      ],
      [
        "ovid",
        -12.79363286030702
      ],
      [
        "▁17",
        -11.347858545429844
      ],
      [
        "▁sor",
        -11.2241342047943
      ],
      [
        "ball",
        -10.48814541215298
      ],
      [
        "▁rai",
        -11.62512541162677
      ],
      [
        "▁enviro",
        -12.77323138402701
      ],
      [
        "▁uni",
        -8.075029178804023
      ],
      [
        "page",
        -10.366910459128393
      ],
      [
        "▁ent",
        -13.73432215191593
      ],
      [
        "5",
        -10.202537105225124
      ],
      [
        "inche",
        -12.45241942544732
      ],
      [
        "▁bound",
        -9.29915380952337
      ],
      [
        "▁buffet",
        -10.940449047498609
      ],
      [
        "▁hamm",
        -11.319540875347588
      ],
      [
        "gear",
        -12.831521213300451
      ],
      [
        "▁twirl",
        -9.868804640226257
      ],
      [
        "▁constraint",
        -11.273273018529384
      ],
      [
        "▁wipe",
        -8.779911817932993
      ],
      [
        "▁desir",
        -11.742933213599017
      ],
      [
        "▁christen",
        -11.45872565331883
      ],
      [
        "▁vent",
        -12.08328775556062
      ],
      [
        "▁innovat",
        -11.459421341808843
      ],
      [
        "▁hope",
        -6.850381843185085
      ],
      [
        "▁blood",
        -8.88841293054746
      ],
      [
        "▁on",
        -5.361902469050708
      ],
      [
        ".com",
        -6.826641828781152
      ],
      [
        "▁marr",
        -8.344179040642352
      ],
      [
        "▁convenience",
        -10.069467464810026
      ],
      [
        "▁22",
        -10.490087162443437
      ],
      [
        "gate",
        -13.684399381989135
      ],
      [
        "▁wren",
        -12.433945351825516
      ],
      [
        "▁bait",
        -10.519992910513892
      ],
      [
        "ehouse",
        -11.187899598849338
      ],
      [
        "▁version",
        -8.232219169003454
      ],
      [
        "▁has",
        -5.672018519169682
      ],
      [
        "▁sympathizer",
        -10.93991012381378
      ],
      [
        "enem",
        -12.491306506691618
      ],
      [
        "▁catholic",
        -10.68990498989314
      ],
      [
        "▁cutt",
        -8.866731514576035
      ],
      [
        "▁sanit",
        -11.001376918625647
      ],
      [
        "▁drums",
        -11.15551395485286
      ],
      [
        "doo",
        -11.451784989885073
      ],
      [
        "▁salar",
        -9.876664274996937
      ],
      [
        "weapon",
        -11.430308856839833
      ],
      [
        "uls",
        -12.673566066309446
      ],
      [
        "isda",
        -9.81622881300422
      ],
      [
        "▁their",
        -5.253175569214527
      ],
      [
        "▁man",
        -6.292499675396728
      ],
      [
        "▁capture",
        -9.024939351066113
      ],
      [
        "▁doggie",
        -7.610773880648632
      ],
      [
        "▁jingle",
        -10.324142070022758
      ],
      [
        "▁exa",
        -10.75337214650166
      ],
      [
        "▁quantif",
        -11.458761463074346
      ],
      [
        "pertur",
        -12.187763705858622
      ],
      [
        "▁prepare",
        -7.995917764946754
      ],
      [
        "tab",
        -10.595185687278525
      ],
      [
        "▁arab",
        -9.610765303365273
      ],
      [
        "▁ya",
        -8.767015878714982
      ],
      [
        "▁pimple",
        -10.180511922937333
      ],
      [
        "----------------",
        -8.720621540620428
      ],
      [
        "row",
        -10.378284293134403
      ],
      [
        "▁adher",
        -10.78762004185267
      ],
      [
        "▁sha",
        -7.984547637263843
      ],
      [
        "ac",
        -7.160388903002505
      ],
      [
        "▁was",
        -6.010289631052778
      ],
      [
        "▁identify",
        -8.689334217799146
      ],
      [
        "▁archiv",
        -12.739257526956036
      ],
      [
        "▁shovel",
        -11.540900356522641
      ],
      [
        "▁basic",
        -7.651982902971502
      ],
      [
        "6.8",
        -8.017908716821642
      ],
      [
        "▁crude",
        -10.184019841684396
      ],
      [
        "▁wai",
        -10.420366247014256
      ],
      [
        "▁imp",
        -11.796427200653072
      ],
      [
        "▁wit",
        -13.183105345520417
      ],
      [
        "card",
        -10.020564706761949
      ],
      [
        "back",
        -9.129340063380724
      ],
      [
        "iteration",
        -11.78187629272863
      ],
      [
        "▁hope",
        -8.979295819010217
      ],
      [
        "▁mor",
        -5.345130170783908
      ],
      [
        "▁electric",
        -8.139933260520376
      ],
      [
        "▁programme",
        -7.9280658163115
      ],
      [
        "▁apr",
        -7.877193718819188
      ],
      [
        "right",
        -7.391738418087057
      ],
      [
        "▁excite",
        -9.744419735341996
      ],
      [
        "▁memorize",
        -10.625426217963572
      ],
      [
        "▁california",
        -7.008845010886846
      ],
      [
        "▁depiction",
        -10.939924672509585
      ],
      [
        "hu",
        -10.708984645358603
      ],
      [
        "▁iron",
        -11.459078267273279
      ],
      [
        "▁compose",
        -9.919159873909146
      ],
      [
        "▁loo",
        -11.304770083841829
      ],
      [
        "▁conservation",
        -10.490864417097884
      ],
      [
        "▁clas",
        -10.67734630783682
      ],
      [
        "lib",
        -12.327829003568935
      ],
      [
        "co",
        -10.244617530655786
      ],
      [
        "ine",
        -7.742409514085935
      ],
      [
        "▁rap",
        -11.667773224124275
      ],
      [
        "ast",
        -8.347550842574387
      ],
      [
        "▁preten",
        -10.185626472174484
      ],
      [
        "i",
        -4.785587726083073
      ],
      [
        "▁exact",
        -8.3021903511834
      ],
      [
        "▁dramatist",
        -11.774270181031813
      ],
      [
        "wbo",
        -12.810206248481382
      ],
      [
        "▁splash",
        -10.958736273218793
      ],
      [
        "▁comment",
        -7.7884049885152
      ],
      [
        "flect",
        -12.329302429905296
      ],
      [
        "production",
        -10.758947201584597
      ],
      [
        "▁translat",
        -9.89342678835189
      ],
      [
        "bru",
        -8.799314608587817
      ],
      [
        "fare",
        -9.066898210751338
      ],
      [
        "ome",
        -6.109716119437731
      ],
      [
        "▁twi",
        -10.298013448818802
      ],
      [
        "▁dand",
        -12.099691319529498
      ],
      [
        "▁utensil",
        -11.273238354529468
      ],
      [
        "ent",
        -10.006690739437325
      ],
      [
        "▁ru",
        -11.183530574308485
      ],
      [
        "▁bewilder",
        -11.458726085686715
      ],
      [
        "▁skill",
        -10.048525489855358
      ],
      [
        "▁russia",
        -7.618708357732328
      ],
      [
        "▁refrig",
        -12.773295489892025
      ],
      [
        "`",
        -11.770631529841472
      ],
      [
        "▁motorcycl",
        -12.710442707148568
      ],
      [
        "▁hol",
        -10.48713402676507
      ],
      [
        "▁blast",
        -10.75059571803057
      ],
      [
        "vict",
        -12.459280057623097
      ],
      [
        "▁achievement",
        -9.001090918005046
      ],
      [
        "smith",
        -11.604820023773105
      ],
      [
        "elis",
        -10.695302531281516
      ],
      [
        "▁ass",
        -9.316524138411612
      ],
      [
        "▁convention",
        -9.45824550001243
      ],
      [
        "fic",
        -8.248341248449556
      ],
      [
        "der",
        -12.560644650932696
      ],
      [
        "▁diamond",
        -11.773287365347645
      ],
      [
        "▁deduct",
        -10.635057096251737
      ],
      [
        "▁slipp",
        -10.346942668688207
      ],
      [
        "que",
        -8.898310833484867
      ],
      [
        "tant",
        -10.987386353457923
      ],
      [
        "▁picnic",
        -9.94602809131198
      ],
      [
        "▁stew",
        -11.78526297130211
      ],
      [
        "very",
        -8.143274354969591
      ],
      [
        "▁alt",
        -9.487612630453468
      ],
      [
        "les",
        -10.53822267409521
      ],
      [
        "▁social",
        -6.614955515202298
      ],
      [
        "▁allegation",
        -10.323964665943203
      ],
      [
        "▁writh",
        -11.79738719353864
      ],
      [
        "struct",
        -8.78618707125484
      ],
      [
        "▁pixie",
        -10.323336678667678
      ],
      [
        "▁driv",
        -7.581844739198957
      ],
      [
        "marry",
        -12.16201424075338
      ],
      [
        "▁deci",
        -11.385392324841801
      ],
      [
        "▁ld2d-#693",
        -9.724436662520883
      ],
      [
        "▁stock",
        -8.60180464961929
      ],
      [
        "▁kik",
        -10.968587484398528
      ],
      [
        "11",
        -7.465024666749704
      ],
      [
        "ulse",
        -11.953991915353225
      ],
      [
        "ah",
        -6.5261127444782705
      ],
      [
        "▁lever",
        -10.793766194200199
      ],
      [
        "▁legi",
        -8.41232019307709
      ],
      [
        "ariti",
        -12.079808809468396
      ],
      [
        "▁dilut",
        -12.053201259958566
      ],
      [
        "!!!!!",
        -11.849555816551455
      ],
      [
        "ty",
        -6.311295321318533
      ],
      [
        "▁death",
        -7.31387149606776
      ],
      [
        "▁jumb",
        -12.069335727519642
      ],
      [
        "▁barr",
        -11.061785543932618
      ],
      [
        "▁ip",
        -8.33862642892695
      ],
      [
        "▁lb",
        -10.049595650972275
      ],
      [
        "▁new",
        -5.576189449017814
      ],
      [
        "▁repair",
        -9.288645750649827
      ],
      [
        "▁unif",
        -12.263419379456753
      ],
      [
        "▁objectiv",
        -11.518477797814278
      ],
      [
        "▁mono",
        -10.234602016853627
      ],
      [
        "▁ch",
        -8.447274922755058
      ],
      [
        "▁vice",
        -9.692539807610677
      ],
      [
        "actor",
        -11.404123457251325
      ],
      [
        "alism",
        -9.922377974157449
      ],
      [
        "▁slum",
        -10.93503368115338
      ],
      [
        "▁best",
        -5.572959491080885
      ],
      [
        "▁w.",
        -8.817102326982933
      ],
      [
        "hab",
        -12.479297487820638
      ],
      [
        "z",
        -8.474407620128483
      ],
      [
        "▁ply",
        -11.905675717405236
      ],
      [
        "route",
        -12.468707691998864
      ],
      [
        "kle",
        -11.018312937680763
      ],
      [
        "▁def",
        -11.271273190683125
      ],
      [
        "▁patro",
        -10.961788350352471
      ],
      [
        "▁sort",
        -10.191882726997171
      ],
      [
        "▁drink",
        -8.003145371128067
      ],
      [
        "▁hinder",
        -10.958917641288277
      ],
      [
        "▁bathe",
        -11.666911889553589
      ],
      [
        "4",
        -12.653795411026692
      ],
      [
        "pott",
        -11.28461293256926
      ],
      [
        "▁petition",
        -10.590917247148688
      ],
      [
        "window",
        -11.281995339390175
      ],
      [
        "▁ke",
        -10.9669963874515
      ],
      [
        "▁statement",
        -8.254858334354724
      ],
      [
        "rate",
        -9.627194773452135
      ],
      [
        "▁glu",
        -10.06386345682719
      ],
      [
        "▁portfolio",
        -11.773818677446846
      ],
      [
        "▁difficult",
        -8.602876504054217
      ],
      [
        "as",
        -11.492868777477808
      ],
      [
        "urse",
        -11.50912691273227
      ],
      [
        "a",
        -3.730887411176009
      ],
      [
        "discover",
        -13.435159050789819
      ],
      [
        "it",
        -8.568534187761829
      ],
      [
        "ove",
        -9.598664508273355
      ],
      [
        "▁blood",
        -8.339393517935303
      ],
      [
        "team",
        -12.119869240197076
      ],
      [
        "scat",
        -11.480244162096684
      ],
      [
        "▁church",
        -7.970711372483725
      ],
      [
        "o",
        -1.7235607545640583
      ],
      [
        "▁challenge",
        -9.903584821016157
      ],
      [
        "▁baghdad",
        -8.751361734165386
      ],
      [
        "umption",
        -11.779837078099286
      ],
      [
        "▁uh",
        -11.519265493247671
      ],
      [
        "taiwan",
        -8.373460665874118
      ],
      [
        "▁chem",
        -11.338626872971977
      ],
      [
        "ti",
        -9.238483674494448
      ],
      [
        "▁rattlesnake",
        -11.773258928294428
      ],
      [
        "▁restrain",
        -10.959718847391551
      ],
      [
        "rate",
        -7.566553718926961
      ],
      [
        "▁ignor",
        -10.005287557910993
      ],
      [
        "▁consultan",
        -12.79485588392324
      ],
      [
        "▁slo",
        -12.56306604892435
      ],
      [
        "▁construct",
        -9.750349557429862
      ],
      [
        "uster",
        -11.13484064847063
      ],
      [
        "rah",
        -8.96714969686829
      ],
      [
        "▁cheque",
        -10.940087732511554
      ],
      [
        "▁suppose",
        -7.33864174470321
      ],
      [
        "h",
        -3.294768851479734
      ],
      [
        "▁sigh",
        -10.151819997786745
      ],
      [
        "▁remi",
        -10.346925976582007
      ],
      [
        "lativ",
        -8.53672055218997
      ],
      [
        "▁env",
        -11.663292871897259
      ],
      [
        "volut",
        -8.705670340632794
      ],
      [
        "▁preconception",
        -11.773684629348622
      ],
      [
        "▁jud",
        -12.597238170489529
      ],
      [
        "r",
        -9.881310152285408
      ],
      [
        "▁give",
        -5.251596077870293
      ],
      [
        "▁increase",
        -7.819773319320149
      ],
      [
        "jo",
        -12.705555210323366
      ],
      [
        "▁hole",
        -8.025201042018933
      ],
      [
        "▁language",
        -6.962798351709503
      ],
      [
        "rs",
        -8.447066570614682
      ],
      [
        "▁rac",
        -9.70075510218944
      ],
      [
        "▁polar",
        -12.789110040302285
      ],
      [
        "▁quarte",
        -12.861920098629394
      ],
      [
        "▁check",
        -8.264553467287518
      ],
      [
        "▁bl",
        -7.670897830267579
      ],
      [
        "▁back-",
        -12.68800443798343
      ],
      [
        "pit",
        -12.154131745855365
      ],
      [
        "▁media",
        -8.126518657635042
      ],
      [
        "▁doct",
        -10.505406337345125
      ],
      [
        "▁in",
        -4.970792382408093
      ],
      [
        "▁dream",
        -8.583057975467803
      ],
      [
        "▁collar",
        -10.065888012238652
      ],
      [
        "interpretation",
        -12.54386049381462
      ],
      [
        "brace",
        -11.496587035190322
      ],
      [
        "▁waste",
        -9.00156466950341
      ],
      [
        "libr",
        -11.860701051620822
      ],
      [
        "▁father",
        -11.459555863519647
      ],
      [
        "▁shin",
        -9.889384735954986
      ],
      [
        "▁415",
        -8.180771653188197
      ],
      [
        "▁dark",
        -6.90249271216322
      ],
      [
        "ssor",
        -10.178124532335026
      ],
      [
        "▁bal",
        -10.702784049364046
      ],
      [
        "▁hub",
        -10.332679164874493
      ],
      [
        "tu",
        -9.94532096285396
      ],
      [
        "ar",
        -7.490341792618619
      ],
      [
        "aster",
        -13.168153247606174
      ],
      [
        "▁medicine",
        -8.885587275814311
      ],
      [
        "yo",
        -13.477506734468584
      ],
      [
        "▁none",
        -9.70526889188054
      ],
      [
        "▁raccoon",
        -10.180381658066043
      ],
      [
        "fax",
        -12.343267606709404
      ],
      [
        "celeration",
        -11.768454954455738
      ],
      [
        "▁lexico",
        -11.773243300167046
      ],
      [
        "▁implicate",
        -10.17540080547015
      ],
      [
        "-fou",
        -12.822576378006335
      ],
      [
        "▁vulnerabilit",
        -10.489904888892548
      ],
      [
        "▁graduat",
        -12.38716785005873
      ],
      [
        "▁dere",
        -10.651207635020583
      ],
      [
        "war",
        -8.664395347764186
      ],
      [
        "▁uni",
        -9.14014574213494
      ],
      [
        "nvas",
        -10.245598734525405
      ],
      [
        "number",
        -10.633596839197054
      ],
      [
        "▁whe",
        -10.364538209245891
      ],
      [
        "▁genius",
        -9.672336116347264
      ],
      [
        "fight",
        -12.528317199473056
      ],
      [
        "▁exclaim",
        -10.011733413715644
      ],
      [
        "quino",
        -8.779177159805705
      ],
      [
        "▁science",
        -8.53925588838101
      ],
      [
        "▁deli",
        -8.933498924876666
      ],
      [
        "▁evaluate",
        -9.962341700948702
      ],
      [
        "▁endow",
        -11.466097583416248
      ],
      [
        "four",
        -8.162111098210765
      ],
      [
        "▁smo",
        -11.589661949146773
      ],
      [
        "▁polite",
        -11.776011560786872
      ],
      [
        "▁ge",
        -11.28570937102551
      ],
      [
        "jor",
        -8.757880878979257
      ],
      [
        "election",
        -11.75467730794933
      ],
      [
        "▁ind",
        -8.842148822643834
      ],
      [
        "viole",
        -8.503638558884582
      ],
      [
        "generalization",
        -12.639829069884252
      ],
      [
        "andy",
        -8.500200177357831
      ],
      [
        "heat",
        -10.909330257659867
      ],
      [
        "▁sen",
        -11.033939141688835
      ],
      [
        "▁prioriti",
        -10.693417247426051
      ],
      [
        "k",
        -4.9696005187939205
      ],
      [
        "▁educat",
        -8.544448979604532
      ],
      [
        "▁nost",
        -10.574259850244495
      ],
      [
        "▁surface",
        -11.519452354742773
      ],
      [
        "ate",
        -9.368745381801352
      ],
      [
        "▁try",
        -5.699561699790409
      ],
      [
        "r",
        -5.4322971977959815
      ],
      [
        "▁vacation",
        -11.458736368785699
      ],
      [
        "▁pleas",
        -9.40483316034737
      ],
      [
        "ming",
        -11.965143410742439
      ],
      [
        "▁wi",
        -9.007041050919737
      ],
      [
        "▁ser",
        -7.635217641626142
      ],
      [
        "▁josh",
        -8.616664919683464
      ],
      [
        "▁pati",
        -12.096696666243304
      ],
      [
        "▁wish",
        -7.590511462557424
      ],
      [
        "▁har",
        -8.702449984832002
      ],
      [
        "ary",
        -8.962632082047392
      ],
      [
        "_",
        -4.773377875289404
      ],
      [
        "▁stamp",
        -10.691057573699249
      ],
      [
        "▁stewardess",
        -11.774534577050119
      ],
      [
        "train",
        -11.159031146089205
      ],
      [
        "▁influence",
        -9.142093804611847
      ],
      [
        "nalise",
        -12.453257980124054
      ],
      [
        "uck",
        -8.133278658023226
      ],
      [
        "▁smooth",
        -9.734346849495914
      ],
      [
        "▁den",
        -9.685768327294873
      ],
      [
        "▁sure",
        -7.88818404366309
      ],
      [
        "▁distinguish",
        -9.556022176177768
      ],
      [
        "som",
        -12.718045653824428
      ],
      [
        "▁hel",
        -11.749984563000982
      ],
      [
        "uh",
        -11.526855385807533
      ],
      [
        "▁wha",
        -13.091211433496149
      ],
      [
        "^",
        -12.810278406305976
      ],
      [
        "▁fine",
        -11.262270520884073
      ],
      [
        "▁younge",
        -8.36751820915536
      ],
      [
        "▁skull",
        -10.489915407868907
      ],
      [
        "▁design",
        -8.26674546974375
      ],
      [
        "haki",
        -11.773441087827212
      ],
      [
        "▁ban",
        -10.25948981599108
      ],
      [
        "▁alter",
        -11.304461476052012
      ],
      [
        "scient",
        -12.672495545864196
      ],
      [
        "▁gen",
        -8.924991774692455
      ],
      [
        "▁za",
        -8.893843439733502
      ],
      [
        "▁valid",
        -10.492933932073017
      ],
      [
        "▁tricycle",
        -10.690149670426795
      ],
      [
        "▁eclipse",
        -11.273335834172183
      ],
      [
        "▁denote",
        -10.176412575760246
      ],
      [
        "▁judg",
        -10.071392158918407
      ],
      [
        "▁x36",
        -11.273330600860742
      ],
      [
        "▁role",
        -7.74271721583972
      ],
      [
        "▁undertake",
        -9.547930132674638
      ],
      [
        "ear",
        -11.971278924146118
      ],
      [
        "▁jan",
        -7.905588765754274
      ],
      [
        "▁sigh",
        -11.78028889025272
      ],
      [
        "bid",
        -12.421003272020144
      ],
      [
        "▁neocon",
        -12.504207221434495
      ],
      [
        "▁paddistocksh",
        -10.939905104503351
      ],
      [
        "▁approximate",
        -11.458725623448814
      ],
      [
        "com",
        -11.022896261647505
      ],
      [
        "▁ambassador",
        -10.939904888393894
      ],
      [
        "47",
        -8.088239764492307
      ],
      [
        "▁street",
        -7.817149434523229
      ],
      [
        "▁170",
        -8.196312612443624
      ],
      [
        "▁beginner",
        -10.489905153091858
      ],
      [
        "▁over",
        -8.492208141243934
      ],
      [
        "▁fasten",
        -10.375568191364788
      ],
      [
        "butter",
        -12.348373530600508
      ],
      [
        "▁clear",
        -7.455924141981425
      ],
      [
        "▁improv",
        -8.765723976381787
      ],
      [
        "▁laud",
        -11.523371755060518
      ],
      [
        "awah",
        -8.061104799145513
      ],
      [
        "▁acc",
        -8.65599519659119
      ],
      [
        "▁sump",
        -10.084760981576363
      ],
      [
        "▁cleric",
        -10.055418132431889
      ],
      [
        "▁rating",
        -10.094382670135058
      ],
      [
        "▁mo",
        -6.386859315429376
      ],
      [
        "▁pet",
        -10.950689188716085
      ],
      [
        "▁god",
        -7.15099595577349
      ],
      [
        "▁figure",
        -8.200549725684937
      ],
      [
        "▁equal",
        -9.44085675564732
      ],
      [
        "▁franc",
        -11.775524136381877
      ],
      [
        "▁vera",
        -12.64686034619211
      ],
      [
        "he",
        -6.877013255523378
      ],
      [
        "▁scor",
        -11.19387253091459
      ],
      [
        "▁coil",
        -11.356543286730187
      ],
      [
        "▁innkeeper",
        -11.273252653580279
      ],
      [
        "ny",
        -8.961470442677223
      ],
      [
        "▁decide",
        -7.1256742126874455
      ],
      [
        "▁creator",
        -10.709302939196505
      ],
      [
        "rself",
        -10.493759088762307
      ],
      [
        "ses",
        -12.24356076108323
      ],
      [
        "▁chapter",
        -8.961022277630903
      ],
      [
        "▁ranch",
        -10.950370889545832
      ],
      [
        "tenant",
        -12.86009776461081
      ],
      [
        "▁he",
        -5.355777969941404
      ],
      [
        "▁sights",
        -10.018649160674833
      ],
      [
        "wha",
        -11.428549959890994
      ],
      [
        "▁reveal",
        -8.538070794943604
      ],
      [
        "▁del",
        -11.106536868484003
      ],
      [
        "▁ben",
        -11.127093167159392
      ],
      [
        "▁very",
        -4.371071920638461
      ],
      [
        "▁th",
        -9.224844137328521
      ],
      [
        "clusion",
        -11.02108950806565
      ],
      [
        "▁province",
        -9.84637300440329
      ],
      [
        "fall",
        -10.380079650271687
      ],
      [
        "▁run",
        -8.743874739877516
      ],
      [
        "▁boo",
        -11.004743243563265
      ],
      [
        "ex",
        -10.825429464747643
      ],
      [
        "▁dro",
        -11.672426462524172
      ],
      [
        "▁socialist",
        -10.692382099537685
      ],
      [
        "▁lotus",
        -11.847094183844613
      ],
      [
        "example",
        -12.715279488427452
      ],
      [
        "▁evalu",
        -12.467511306120585
      ],
      [
        "▁wing",
        -9.384897173207051
      ],
      [
        "admissi",
        -12.815916303349217
      ],
      [
        ",000",
        -5.495299463876596
      ],
      [
        "uvr",
        -12.667371949744458
      ],
      [
        "▁pudd",
        -9.966322295867435
      ],
      [
        "▁convert",
        -8.916979657935837
      ],
      [
        "ept",
        -7.217695514232073
      ],
      [
        "ettle",
        -11.608207446141337
      ],
      [
        "or",
        -7.55738700913084
      ],
      [
        "mi",
        -10.325189490361732
      ],
      [
        "▁choice",
        -8.081367984023448
      ],
      [
        "▁flatte",
        -11.444575987080423
      ],
      [
        "▁underpinn",
        -11.465338665381937
      ],
      [
        "ide",
        -10.675129494301862
      ],
      [
        "▁boo",
        -7.492860224272917
      ],
      [
        "▁restaurant",
        -7.417692095980393
      ],
      [
        "▁fluid",
        -9.755466248895644
      ],
      [
        "m",
        -5.88316037159336
      ],
      [
        "▁wa",
        -9.240034987883696
      ],
      [
        "▁new",
        -4.7645933626070915
      ],
      [
        "h-",
        -8.278533145245685
      ],
      [
        "itor",
        -11.78254499304376
      ],
      [
        "▁stu",
        -7.8063665800430275
      ],
      [
        "▁message",
        -7.634018981510935
      ],
      [
        "▁pancake",
        -9.457973755445025
      ],
      [
        "▁avo",
        -11.835713888106548
      ],
      [
        "▁regular",
        -11.774164640520674
      ],
      [
        "▁swirl",
        -10.175406740353349
      ],
      [
        "▁clothes",
        -7.840557229103513
      ],
      [
        "▁strike",
        -9.286713033849582
      ],
      [
        "▁shove",
        -10.398867040825184
      ],
      [
        "▁crea",
        -10.597251084756808
      ],
      [
        "▁ooz",
        -10.75961585141122
      ],
      [
        "▁tole",
        -11.62852476767096
      ],
      [
        "ir",
        -11.95034171450305
      ],
      [
        "▁ty",
        -11.998214915210841
      ],
      [
        "▁mille",
        -11.059359798295535
      ],
      [
        "▁squ",
        -10.78007212079788
      ],
      [
        "dere",
        -12.71953191630599
      ],
      [
        "▁cpi",
        -11.295097704707626
      ],
      [
        "▁div",
        -10.721929211675489
      ],
      [
        "z",
        -6.815512705175174
      ],
      [
        "itu",
        -10.232156479585667
      ],
      [
        "vast",
        -7.990380720071707
      ],
      [
        "[UNK]",
        0.0
      ],
      [
        "▁psychologist",
        -10.941045740662563
      ],
      [
        "an",
        -6.60307352696869
      ],
      [
        "lic",
        -11.218495195317336
      ],
      [
        "▁upheaval",
        -11.273238224830571
      ],
      [
        "countries",
        -7.296462778844241
      ],
      [
        "▁pac",
        -12.501920185866485
      ],
      [
        "lo",
        -13.426031748043664
      ],
      [
        "arit",
        -9.736257330795427
      ],
      [
        "tie",
        -12.01117464829142
      ],
      [
        "▁scree",
        -11.768894127902012
      ],
      [
        "▁dig",
        -7.768620976451955
      ],
      [
        "variation",
        -12.590659151745982
      ],
      [
        "illa",
        -9.449636167199625
      ],
      [
        "▁wink",
        -9.892214193836713
      ],
      [
        "▁deep",
        -12.541490340809633
      ],
      [
        "▁nationalist",
        -11.794457252911762
      ],
      [
        "▁advent",
        -12.778824205645284
      ],
      [
        "▁ev",
        -9.787196567609959
      ],
      [
        "woul",
        -7.186489786394996
      ],
      [
        "▁fa",
        -8.841715752257661
      ],
      [
        "wer",
        -11.739771808151605
      ],
      [
        "▁evacuate",
        -9.702572845947564
      ],
      [
        "vit",
        -10.067265822524924
      ],
      [
        "▁close",
        -7.11502240079139
      ],
      [
        "ade",
        -8.973463613444238
      ],
      [
        "ania",
        -8.531460689612443
      ],
      [
        "▁rock",
        -8.873109837806574
      ],
      [
        "▁dream",
        -8.880148528208505
      ],
      [
        "▁affiliate",
        -10.707501419558557
      ],
      [
        "▁confess",
        -10.375410754466792
      ],
      [
        "▁raid",
        -10.516207023691686
      ],
      [
        "rag",
        -12.42697529363346
      ],
      [
        "▁hun",
        -11.913028083423328
      ],
      [
        "▁finding",
        -9.132147048818396
      ],
      [
        "▁bet",
        -8.494679605789246
      ],
      [
        "▁dread",
        -11.22386601987737
      ],
      [
        "▁comb",
        -10.52175565700534
      ],
      [
        "▁hold",
        -9.186584137048934
      ],
      [
        "▁...",
        -9.238424474979164
      ],
      [
        "pri",
        -8.28579986636531
      ],
      [
        "▁transmitt",
        -10.327129026618026
      ],
      [
        "▁ap",
        -8.127609042448702
      ],
      [
        "▁refiner",
        -10.078684498804057
      ],
      [
        "rruption",
        -10.497123241685365
      ],
      [
        "▁ei",
        -9.044221690611844
      ],
      [
        "▁discuss",
        -7.343250401243637
      ],
      [
        "▁avenue",
        -10.180423618138963
      ],
      [
        "▁legal",
        -11.477061644225614
      ],
      [
        "ire",
        -11.939713548005173
      ],
      [
        "r.",
        -10.249297113433288
      ],
      [
        "ask",
        -9.977614852147653
      ],
      [
        "▁ra",
        -8.401367810982183
      ],
      [
        "▁clause",
        -9.75640303685518
      ],
      [
        "d",
        -11.061985573933999
      ],
      [
        "▁sl",
        -9.644130469898581
      ],
      [
        "▁producti",
        -12.641733552606963
      ],
      [
        "▁montr",
        -8.317744571260306
      ],
      [
        "▁donation",
        -9.4584231431323
      ],
      [
        "tend",
        -11.697571659895495
      ],
      [
        "▁objective",
        -8.89603430032431
      ],
      [
        "▁immigra",
        -9.88461925695492
      ],
      [
        "▁handi",
        -11.92829495717851
      ],
      [
        "▁chocolate",
        -8.29850225645947
      ],
      [
        "▁mitch",
        -7.957420835656264
      ],
      [
        "▁an",
        -9.820616148417278
      ],
      [
        "▁dismisse",
        -10.088871863079307
      ],
      [
        "▁organis",
        -11.198838422595184
      ],
      [
        "▁che",
        -8.11942795497131
      ],
      [
        "▁chunk",
        -10.940060600918832
      ],
      [
        "▁explo",
        -11.080067678952908
      ],
      [
        "igger",
        -12.637533982027973
      ],
      [
        "▁guardia",
        -8.821842342320574
      ],
      [
        "▁curi",
        -11.364901441817702
      ],
      [
        "▁bec",
        -3.613577850939203
      ],
      [
        "▁install",
        -8.573909449201338
      ],
      [
        "▁corrupt",
        -11.458725748919456
      ],
      [
        "▁glowe",
        -12.025551151782588
      ],
      [
        "bulb",
        -12.443426386172995
      ],
      [
        "▁bobb",
        -12.612195735888644
      ],
      [
        "▁po",
        -11.093817889014609
      ],
      [
        "▁yrs",
        -11.604780316889176
      ],
      [
        "tation",
        -8.424141455088362
      ],
      [
        "pen",
        -9.82866443501418
      ],
      [
        "compete",
        -12.75723368463165
      ],
      [
        "mutation",
        -9.397708150112663
      ],
      [
        "▁contain",
        -7.666122745033119
      ],
      [
        "▁launch",
        -8.712884229565555
      ],
      [
        "▁great",
        -10.948572917860242
      ],
      [
        "forest",
        -12.592028106395855
      ],
      [
        "ca",
        -9.554308594660705
      ],
      [
        "▁grow",
        -7.907490227422229
      ],
      [
        "▁mission",
        -8.852657980379128
      ],
      [
        "▁normal",
        -11.40661350842888
      ],
      [
        "▁im",
        -8.148807457189191
      ],
      [
        "ian",
        -6.0764278226503095
      ],
      [
        "▁daughter",
        -8.039297838248519
      ],
      [
        "▁purchas",
        -9.333087003983131
      ],
      [
        "▁country",
        -6.877329436870177
      ],
      [
        "utilize",
        -10.625463411992387
      ],
      [
        "vacu",
        -10.061146267605958
      ],
      [
        "▁ap",
        -8.946868135636084
      ],
      [
        "serv",
        -12.88785399358967
      ],
      [
        "▁provider",
        -9.84636914944487
      ],
      [
        "▁undergo",
        -10.378246383432204
      ],
      [
        "$",
        -11.380685289420022
      ],
      [
        "yout",
        -11.009352760246419
      ],
      [
        "▁investigation",
        -9.458105270611673
      ],
      [
        "rect",
        -12.72875976407844
      ],
      [
        "▁custom",
        -9.081274969876445
      ],
      [
        "▁150",
        -7.824479385051818
      ],
      [
        "▁context",
        -8.474541872629535
      ],
      [
        "recommend",
        -12.156260319216466
      ],
      [
        "▁fore",
        -12.037865385111909
      ],
      [
        "ery",
        -9.95941703608919
      ],
      [
        "▁fer",
        -8.952609290450795
      ],
      [
        "vention",
        -9.748394474544408
      ],
      [
        "▁wishe",
        -10.189281587511436
      ],
      [
        "▁stagger",
        -10.958828837059231
      ],
      [
        "▁passion",
        -9.46448117737368
      ],
      [
        "▁ups",
        -13.603280558827025
      ],
      [
        "tra",
        -8.249145485616928
      ],
      [
        "▁effect",
        -7.6028105787289055
      ],
      [
        "terroris",
        -12.569277867723176
      ],
      [
        "▁suitcase",
        -9.395739891970878
      ],
      [
        "▁harden",
        -11.459143677170001
      ],
      [
        "▁blank",
        -10.942984007877184
      ],
      [
        "(",
        -4.690054248533107
      ],
      [
        "▁obligation",
        -9.672608918041444
      ],
      [
        "▁long",
        -10.72007700084245
      ],
      [
        "due",
        -7.28851969435859
      ],
      [
        "▁weigh",
        -10.635314890418734
      ],
      [
        "side",
        -7.369361114905498
      ],
      [
        "ive",
        -5.025022787645253
      ],
      [
        "▁thi",
        -11.928049434957762
      ],
      [
        "▁fun",
        -7.0666474588122075
      ],
      [
        "▁nephew",
        -9.595565555475888
      ],
      [
        "▁1.",
        -8.06220790214843
      ],
      [
        "▁under",
        -9.090134984827277
      ],
      [
        "stack",
        -12.675078547056131
      ],
      [
        "personaliz",
        -12.41488574446664
      ],
      [
        "noram",
        -11.540257315064855
      ],
      [
        "▁donna",
        -8.728485479836605
      ],
      [
        "▁weav",
        -12.361813852548666
      ],
      [
        "▁stimulat",
        -10.175392293971926
      ],
      [
        "ado",
        -9.638975043158752
      ],
      [
        "▁surrender",
        -10.689913540095993
      ],
      [
        "▁deteriorat",
        -11.01797744989361
      ],
      [
        "▁intru",
        -11.990641692084575
      ],
      [
        "▁af",
        -7.921499307680733
      ],
      [
        "▁soc",
        -8.698566430622957
      ],
      [
        "▁hik",
        -10.118774196630977
      ],
      [
        "▁councillor",
        -10.69004006497484
      ],
      [
        "▁maje",
        -11.29758845225666
      ],
      [
        "▁juror",
        -11.277313091402572
      ],
      [
        "line",
        -8.746739938429302
      ],
      [
        "▁designate",
        -9.748247220992132
      ],
      [
        "▁quarr",
        -12.80510873410495
      ],
      [
        "up",
        -8.61674309158935
      ],
      [
        "▁bombing",
        -9.687172233442963
      ],
      [
        "▁of",
        -5.372005060076645
      ],
      [
        "▁blue",
        -9.77368541757523
      ],
      [
        "▁deploy",
        -9.293957825282968
      ],
      [
        "▁dsl",
        -10.52306637714506
      ],
      [
        "comprehensi",
        -8.255614438222084
      ],
      [
        "▁deter",
        -10.95282666737145
      ],
      [
        "ers",
        -8.863334231704634
      ],
      [
        "national",
        -11.710421349696485
      ],
      [
        "▁towel",
        -8.922585978459233
      ],
      [
        "tastic",
        -7.836222454254486
      ],
      [
        "▁distortion",
        -9.846482767852912
      ],
      [
        "▁brows",
        -11.758076052113594
      ],
      [
        "alway",
        -9.667967932832331
      ],
      [
        "entil",
        -11.87127684135269
      ],
      [
        "ception",
        -11.434093907926414
      ],
      [
        "nutri",
        -11.043643915988836
      ],
      [
        "gar",
        -10.02430443526572
      ],
      [
        "▁bidd",
        -11.467274269357796
      ],
      [
        "gni",
        -12.865406870985739
      ],
      [
        "▁destr",
        -12.744643798873145
      ],
      [
        "bowl",
        -12.203665751333945
      ],
      [
        "persed",
        -12.473845873286445
      ],
      [
        "▁frogg",
        -11.27403053046959
      ],
      [
        "ug",
        -11.480272706785092
      ],
      [
        "▁so",
        -3.7744192074049634
      ],
      [
        "▁innocen",
        -12.754824469043616
      ],
      [
        "▁trust",
        -8.121345029439361
      ],
      [
        "us",
        -8.503979686221008
      ],
      [
        "▁complexi",
        -11.839974771585759
      ],
      [
        "pot",
        -13.499084229332578
      ],
      [
        "espondenc",
        -12.77337192209232
      ],
      [
        "▁carn",
        -11.292858150066607
      ],
      [
        "pillar",
        -11.15978386775221
      ],
      [
        "▁e",
        -7.922500136761247
      ],
      [
        "▁flatten",
        -10.96795236992276
      ],
      [
        "▁whole",
        -9.255243269559283
      ],
      [
        "group",
        -8.523363548867987
      ],
      [
        "obes",
        -11.713650096273714
      ],
      [
        "▁magne",
        -10.98848860291848
      ],
      [
        "ed",
        -4.3347423109077265
      ],
      [
        "itude",
        -10.554894065670284
      ],
      [
        "▁st",
        -9.70613933354561
      ],
      [
        "▁server",
        -8.787108804760745
      ],
      [
        "ednes",
        -10.028602591111877
      ],
      [
        "▁guilt",
        -9.945732341854741
      ],
      [
        "ibrate",
        -12.459006695059669
      ],
      [
        "▁ideal",
        -10.84458086298723
      ],
      [
        "▁yield",
        -10.055587670713962
      ],
      [
        "▁offend",
        -9.745583010098876
      ],
      [
        "▁easie",
        -7.606695090531068
      ],
      [
        "▁effe",
        -8.498075812823592
      ],
      [
        "mission",
        -9.461557433764792
      ],
      [
        "▁warp",
        -10.632310877106509
      ],
      [
        "▁south",
        -7.944482221653959
      ],
      [
        "▁consistent",
        -8.996516396791892
      ],
      [
        "▁referr",
        -8.883806051214275
      ],
      [
        "▁since",
        -7.934695465107254
      ],
      [
        "ault",
        -10.017689957595639
      ],
      [
        "▁brain",
        -10.962840961094752
      ],
      [
        "war",
        -11.344579628136454
      ],
      [
        "icles",
        -7.7660415402050855
      ],
      [
        "▁dom",
        -8.508771283202908
      ],
      [
        "▁doubt",
        -9.444180129155395
      ],
      [
        "♥",
        -12.810278406305976
      ],
      [
        "ice",
        -8.50575078177991
      ],
      [
        "?!?!",
        -12.176023693039138
      ],
      [
        "tude",
        -11.9068466113072
      ],
      [
        "cycle",
        -12.331414108401365
      ],
      [
        "eman",
        -12.983628275007725
      ],
      [
        "▁signal",
        -9.969560408441588
      ],
      [
        "▁alt.animals.f",
        -12.82787610347656
      ],
      [
        "ar",
        -9.38103595699485
      ],
      [
        "▁ben",
        -7.650880592374428
      ],
      [
        "▁lower",
        -7.7163377428889
      ],
      [
        "▁wow",
        -6.018175054576849
      ],
      [
        "▁form",
        -7.094141228294397
      ],
      [
        "‘",
        -9.32263420951717
      ],
      [
        "▁a",
        -5.967256489737387
      ],
      [
        "▁identifie",
        -8.504044139166487
      ],
      [
        "▁voca",
        -11.965421001011716
      ],
      [
        "▁bypass",
        -11.45874532650748
      ],
      [
        "▁verifie",
        -10.375418645198057
      ],
      [
        "whi",
        -12.327535299766522
      ],
      [
        "▁bang",
        -10.134044518423815
      ],
      [
        "thma",
        -11.342052681658792
      ],
      [
        "-o",
        -13.815758241094926
      ],
      [
        "▁vo",
        -8.76560085400109
      ],
      [
        "▁doorknob",
        -11.77323824998432
      ],
      [
        "▁11/29/",
        -8.077802986029326
      ],
      [
        "▁balanc",
        -11.791902672568025
      ],
      [
        "▁simil",
        -10.692619160273301
      ],
      [
        "▁economi",
        -9.767436928579544
      ],
      [
        "▁pickle",
        -10.180805003780344
      ],
      [
        "ext",
        -7.384595250247742
      ],
      [
        "▁quick",
        -7.724878777853267
      ],
      [
        "▁operation",
        -8.40648373948252
      ],
      [
        "▁arabi",
        -11.654290761501478
      ],
      [
        "▁riso",
        -12.622621966817862
      ],
      [
        "▁hav",
        -4.47068279899715
      ],
      [
        "equit",
        -12.608525293561037
      ],
      [
        "▁rediscover",
        -11.461628668357633
      ],
      [
        "▁silkie",
        -9.605609372641208
      ],
      [
        "▁blot",
        -11.55961904414313
      ],
      [
        "conveni",
        -12.291589293298706
      ],
      [
        "mina",
        -9.592494346156599
      ],
      [
        "thank",
        -12.526097132015131
      ],
      [
        "d",
        -5.9477191613994504
      ],
      [
        "tte",
        -8.33574884813713
      ],
      [
        "▁valu",
        -8.673911650113023
      ],
      [
        "▁stab",
        -11.059358229552211
      ],
      [
        "▁requirement",
        -8.148900803841759
      ],
      [
        "▁shine",
        -10.254725073612573
      ],
      [
        "▁descen",
        -11.849794409996614
      ],
      [
        "ent",
        -5.270498460199944
      ],
      [
        "vide",
        -12.524465980223038
      ],
      [
        "▁neglect",
        -10.625394981969581
      ],
      [
        "▁mistress",
        -11.274274422846688
      ],
      [
        "▁lodg",
        -10.499915905256039
      ],
      [
        "▁remark",
        -9.758327908940744
      ],
      [
        "▁ea",
        -11.081006371053912
      ],
      [
        "▁rearrange",
        -11.568980243048705
      ],
      [
        "▁perpet",
        -12.458768170745595
      ],
      [
        "gant",
        -8.758087245915043
      ],
      [
        "l",
        -8.214727387657476
      ],
      [
        "▁favorite",
        -9.000963066555068
      ],
      [
        "▁blizzard",
        -10.939904892914413
      ],
      [
        "oyment",
        -11.28767655508391
      ],
      [
        "▁r",
        -8.142366563006792
      ],
      [
        "politic",
        -12.517304557283811
      ],
      [
        "ries",
        -9.01955432984858
      ],
      [
        "n",
        -11.31025614719772
      ],
      [
        "stocks",
        -10.695434541382031
      ],
      [
        "▁fla",
        -11.820368485465849
      ],
      [
        "▁determin",
        -10.216452930014658
      ],
      [
        "▁t",
        -9.633413585186847
      ],
      [
        "omp",
        -13.051220133697194
      ],
      [
        "▁bank",
        -8.868554342408231
      ],
      [
        "what",
        -7.801290938444229
      ],
      [
        "payer",
        -10.839119313031034
      ],
      [
        "thesi",
        -10.962387010087607
      ],
      [
        "▁her",
        -10.297070253012619
      ],
      [
        "▁nove",
        -8.81417404855966
      ],
      [
        "▁advisor",
        -10.056070419781681
      ],
      [
        "▁55",
        -7.91227191075213
      ],
      [
        "▁affair",
        -8.749777430992225
      ],
      [
        "▁captain",
        -9.67243583661241
      ],
      [
        "-------",
        -13.306664066647068
      ],
      [
        "▁oversee",
        -11.46737677385162
      ],
      [
        "dust",
        -11.529450086905996
      ],
      [
        "▁pour",
        -8.070754748925946
      ],
      [
        "▁freez",
        -9.373485835187363
      ],
      [
        "tour",
        -11.99623141648534
      ],
      [
        "-smoker",
        -12.519668957803113
      ],
      [
        "ensure",
        -13.731412774209478
      ],
      [
        "▁remed",
        -10.324057865826312
      ],
      [
        "▁agree",
        -7.253405628739583
      ],
      [
        "t.",
        -11.848771535697455
      ],
      [
        "▁insult",
        -10.625399601414458
      ],
      [
        "hone",
        -10.968646525565584
      ],
      [
        "p",
        -7.867165043582133
      ],
      [
        "▁surpass",
        -10.958749149590945
      ],
      [
        "continue",
        -11.13283148209722
      ],
      [
        "made",
        -10.120059527937936
      ],
      [
        "▁official",
        -8.16627635265981
      ],
      [
        "▁grappl",
        -11.365972249375469
      ],
      [
        "face",
        -11.411189893170633
      ],
      [
        "shima",
        -8.712955792332206
      ],
      [
        "▁gleam",
        -11.774021922972521
      ],
      [
        "▁hand",
        -6.56696640154705
      ],
      [
        "gram",
        -12.436277661491355
      ],
      [
        "cat",
        -10.291165953640707
      ],
      [
        "▁resonate",
        -11.458920608766546
      ],
      [
        "▁snow",
        -8.485608213939331
      ],
      [
        "▁shad",
        -11.685882619115588
      ],
      [
        "rch",
        -11.598045447666909
      ],
      [
        "▁picket",
        -11.274536691350322
      ],
      [
        "▁fam",
        -9.822208931646745
      ],
      [
        "igni",
        -12.547873334468665
      ],
      [
        "▁respons",
        -11.91313232793853
      ],
      [
        "were",
        -7.167827169458954
      ],
      [
        "▁all",
        -8.625360221387684
      ],
      [
        "▁guide",
        -10.114764973786704
      ],
      [
        "▁marionette",
        -11.773238545577744
      ],
      [
        "asses",
        -10.924313072677087
      ],
      [
        "▁week",
        -6.418783308561766
      ],
      [
        "mean",
        -10.691352949278098
      ],
      [
        "▁ad",
        -8.756897780902783
      ],
      [
        "▁biologist",
        -10.336368488191843
      ],
      [
        "▁liner",
        -12.167965172006374
      ],
      [
        "▁ladder",
        -9.099963327764012
      ],
      [
        "▁equi",
        -10.20330677329892
      ],
      [
        "dog",
        -11.232187755796165
      ],
      [
        "usb",
        -11.48042427616016
      ],
      [
        "▁up-",
        -11.778346563359799
      ],
      [
        "cell",
        -11.764160130290703
      ],
      [
        "force",
        -13.298141922029394
      ],
      [
        "▁whi",
        -7.9186955548608084
      ],
      [
        "▁fight",
        -8.53013505982129
      ],
      [
        "▁regula",
        -7.559224744930404
      ],
      [
        "▁all",
        -7.233537423515028
      ],
      [
        "omes",
        -12.88331294064893
      ],
      [
        "elier",
        -12.822206306795135
      ],
      [
        "ross",
        -9.910799731087128
      ],
      [
        "▁policy",
        -7.923950273875583
      ],
      [
        "ox",
        -10.694827061043178
      ],
      [
        "▁thick",
        -8.553089991394508
      ],
      [
        "▁jit",
        -10.96428259323099
      ],
      [
        "▁ache",
        -10.924485892039968
      ],
      [
        "ake",
        -11.13787790372848
      ],
      [
        "guard",
        -12.06337883357473
      ],
      [
        "▁boyfriend",
        -9.757303829113809
      ],
      [
        "▁eat",
        -5.6316209781590745
      ],
      [
        "▁bombard",
        -11.458964929141526
      ],
      [
        "▁scan",
        -9.737810668730376
      ],
      [
        "lin",
        -11.77838429586493
      ],
      [
        "xation",
        -12.102498317131834
      ],
      [
        "▁bear",
        -8.442463514443517
      ],
      [
        "▁as",
        -4.879682590360853
      ],
      [
        "▁nat",
        -8.983100514700261
      ],
      [
        "▁sha",
        -12.908225725307972
      ],
      [
        "▁defendant",
        -10.32324042216059
      ],
      [
        "sation",
        -11.844420063281817
      ],
      [
        "abl",
        -5.607246216433183
      ],
      [
        "▁sample",
        -8.529474368502957
      ],
      [
        "▁domestic",
        -11.773332900086157
      ],
      [
        "▁pursu",
        -11.787009547697316
      ],
      [
        "nde",
        -12.04724031496563
      ],
      [
        "operate",
        -12.19807333807505
      ],
      [
        "ematic",
        -10.956496292170822
      ],
      [
        "▁gov",
        -11.789068500195974
      ],
      [
        "▁slu",
        -10.729752058044273
      ],
      [
        "refli",
        -12.47190633786005
      ],
      [
        "▁cat",
        -7.242377166571132
      ],
      [
        "▁ecolog",
        -11.273205235832263
      ],
      [
        "▁intellect",
        -11.773236626314914
      ],
      [
        "▁cease",
        -11.277286001508811
      ],
      [
        "▁help",
        -7.542154408352819
      ],
      [
        "▁ball",
        -7.08794994891733
      ],
      [
        "suppl",
        -12.599495371143247
      ],
      [
        "ge",
        -9.226707958009126
      ],
      [
        "▁dis",
        -7.68685599157579
      ],
      [
        "92",
        -8.8162742016424
      ],
      [
        "▁monaster",
        -10.05728907404228
      ],
      [
        "ock",
        -11.282748040683346
      ],
      [
        "▁guide",
        -9.629260306142
      ],
      [
        "track",
        -11.238836170307053
      ],
      [
        "▁channel",
        -11.458876164502428
      ],
      [
        "vid",
        -10.259031293326384
      ],
      [
        "▁news",
        -7.84378269223095
      ],
      [
        "▁eulog",
        -11.787412057977443
      ],
      [
        "among",
        -10.114427603570839
      ],
      [
        "▁tax",
        -7.914701851740881
      ],
      [
        "▁rome",
        -8.145149091002615
      ],
      [
        "gs",
        -11.23257989789222
      ],
      [
        "▁adversar",
        -11.778359733391138
      ],
      [
        "glass",
        -10.27787576501205
      ],
      [
        "▁hum",
        -9.751480404110405
      ],
      [
        "▁harmonise",
        -10.379349057462107
      ],
      [
        "▁tar",
        -10.99855952697752
      ],
      [
        "ack",
        -11.541919908792288
      ],
      [
        "bie",
        -8.961338916951894
      ],
      [
        "▁south",
        -7.86529325217453
      ],
      [
        "▁sna",
        -12.582096655711181
      ],
      [
        "▁clown",
        -9.395287036420182
      ],
      [
        "born",
        -13.10151901932513
      ],
      [
        "▁evidence",
        -11.458725903089238
      ],
      [
        "ending",
        -9.574264776274756
      ],
      [
        "orrow",
        -7.111495200076467
      ],
      [
        "▁cur",
        -6.97220494149292
      ],
      [
        "▁novelist",
        -9.673745455140859
      ],
      [
        "▁setback",
        -10.94184728257387
      ],
      [
        "▁grenade",
        -11.273275660491091
      ],
      [
        "▁occupie",
        -10.015946637038471
      ],
      [
        "▁o",
        -7.106158376632667
      ],
      [
        "later",
        -8.521443765527096
      ],
      [
        "ous",
        -7.400129012987348
      ],
      [
        "▁economic",
        -6.772570457784908
      ],
      [
        "▁sub",
        -9.632716355258115
      ],
      [
        "▁sword",
        -9.891551452794722
      ],
      [
        "▁breed",
        -9.907383907682286
      ],
      [
        "▁intersect",
        -12.77152854534696
      ],
      [
        "put",
        -9.176596761033803
      ],
      [
        "▁glass",
        -7.622464636839514
      ],
      [
        "▁free",
        -11.230483581492624
      ],
      [
        "underst",
        -12.213834530372775
      ],
      [
        "freez",
        -12.6978331492295
      ],
      [
        "▁dock",
        -10.231555559410157
      ],
      [
        "▁ramp",
        -10.958758907108562
      ],
      [
        "eration",
        -11.283667073365326
      ],
      [
        "ival",
        -8.887353551025726
      ],
      [
        "▁living",
        -8.606385582743833
      ],
      [
        "ter",
        -8.489999955244658
      ],
      [
        "▁seal",
        -9.925181327762346
      ],
      [
        "▁scammer",
        -10.690002329142468
      ],
      [
        "lab",
        -11.762929257516682
      ],
      [
        "unno",
        -12.643571054832101
      ],
      [
        "▁futuri",
        -12.727641967181018
      ],
      [
        "▁civilization",
        -9.59595390297452
      ],
      [
        "▁militar",
        -8.654097909195535
      ],
      [
        "▁sustain",
        -8.631293789912053
      ],
      [
        "▁every",
        -8.925147701771957
      ],
      [
        "▁workshop",
        -10.059563271876044
      ],
      [
        "▁accumulate",
        -9.740560952098114
      ],
      [
        "▁sham",
        -9.300323912076912
      ],
      [
        "▁dand",
        -8.815149696962646
      ],
      [
        "▁kath",
        -8.839823713984172
      ],
      [
        "▁chick",
        -10.08868318531701
      ],
      [
        "creator",
        -12.648894949377414
      ],
      [
        "▁escap",
        -10.709803810610502
      ],
      [
        "▁external",
        -8.674438150845377
      ],
      [
        "▁hock",
        -9.957976075226146
      ],
      [
        "▁d",
        -8.66826635577538
      ],
      [
        "▁mov",
        -10.753389928557777
      ],
      [
        "angar",
        -10.808734276611474
      ],
      [
        "▁com",
        -8.89704595462923
      ],
      [
        "▁proc",
        -12.866322326657277
      ],
      [
        "▁cosplay",
        -10.76318464456115
      ],
      [
        "▁jesu",
        -11.910438466535211
      ],
      [
        "▁guard",
        -8.545701960962214
      ],
      [
        "▁risk",
        -9.094089437034025
      ],
      [
        "▁battl",
        -10.789798519796987
      ],
      [
        "▁oversta",
        -11.687966406747346
      ],
      [
        "▁vig",
        -11.361804259565933
      ],
      [
        "rip",
        -13.042037023450286
      ],
      [
        "æ",
        -12.773238221315822
      ],
      [
        "▁fe",
        -8.562834076647494
      ],
      [
        "▁sme",
        -11.624939379892012
      ],
      [
        "▁67",
        -8.185023713770967
      ],
      [
        "▁ignora",
        -9.846230644914641
      ],
      [
        "ular",
        -8.991954779138592
      ],
      [
        "▁pos",
        -6.272087047022913
      ],
      [
        "▁ja",
        -9.49987441781681
      ],
      [
        "▁brief",
        -10.055246947972256
      ],
      [
        "▁refer",
        -8.213241469647645
      ],
      [
        "ipulation",
        -11.798173859984221
      ],
      [
        "humanit",
        -12.526782178945265
      ],
      [
        "▁site",
        -7.518478616572673
      ],
      [
        "▁swu",
        -9.65185353571191
      ],
      [
        "italize",
        -12.929432723129105
      ],
      [
        "▁lit",
        -8.66688970464416
      ],
      [
        "▁volatilit",
        -10.939904903861267
      ],
      [
        "[MASK]",
        0.0
      ],
      [
        "▁laws",
        -8.862877220151027
      ],
      [
        "uster",
        -12.355556702879706
      ],
      [
        "▁co",
        -9.556969197361926
      ],
      [
        "activit",
        -10.887335191639755
      ],
      [
        "fold",
        -11.329311221714445
      ],
      [
        "▁tha",
        -6.431820319444924
      ],
      [
        "▁restaura",
        -12.773159336601507
      ],
      [
        "ti",
        -5.501925538707063
      ],
      [
        "▁candidate",
        -8.815548141421404
      ],
      [
        "nick",
        -11.505624807160363
      ],
      [
        "▁buy",
        -6.587746264825932
      ],
      [
        "▁multipl",
        -12.456669230893217
      ],
      [
        "▁expos",
        -11.255511476819208
      ],
      [
        "9",
        -4.4437527732875575
      ],
      [
        "cycl",
        -12.849368907232616
      ],
      [
        "nail",
        -11.374019109773862
      ],
      [
        "tance",
        -9.63825922826381
      ],
      [
        "▁atrocit",
        -10.939981095474542
      ],
      [
        "▁wrong",
        -6.889840448844239
      ],
      [
        "ha",
        -6.934556625686796
      ],
      [
        "▁youngster",
        -11.276104500810058
      ],
      [
        "▁report",
        -7.651983678207971
      ],
      [
        "▁spe",
        -11.492324633209325
      ],
      [
        "ener",
        -11.948849010578316
      ],
      [
        "▁react",
        -9.643493041644607
      ],
      [
        "▁sunda",
        -12.722084377914811
      ],
      [
        "▁devi",
        -12.444774810369632
      ],
      [
        "resent",
        -11.3739649203087
      ],
      [
        "▁odara",
        -8.96592564333121
      ],
      [
        "▁base",
        -6.930850999991949
      ],
      [
        "secretary",
        -12.534280523062169
      ],
      [
        "▁climate",
        -8.360823258272308
      ],
      [
        "▁motivation",
        -9.846724417205294
      ],
      [
        "▁fireplace",
        -10.061189001488597
      ],
      [
        "▁spl",
        -11.606906488524203
      ],
      [
        "▁cam",
        -6.278293092448771
      ],
      [
        "▁correspond",
        -10.958728732830176
      ],
      [
        "▁slum",
        -12.811501198624171
      ],
      [
        "hit",
        -11.206993563003529
      ],
      [
        "▁amaze",
        -9.86882489442777
      ],
      [
        "f",
        -7.674786905690743
      ],
      [
        "2",
        -8.598998948936394
      ],
      [
        "thema",
        -12.791264632637038
      ],
      [
        "cour",
        -7.539159453764968
      ],
      [
        "una",
        -11.734241919542082
      ],
      [
        "liv",
        -11.391506761539466
      ],
      [
        "▁observation",
        -9.337421458983359
      ],
      [
        "▁package",
        -9.09114427117484
      ],
      [
        "ta",
        -6.746267748611715
      ],
      [
        "lit",
        -11.065421257410287
      ],
      [
        "▁21",
        -6.2793869892644345
      ],
      [
        "▁undo",
        -10.607936811956868
      ],
      [
        "▁back",
        -8.43778236464935
      ],
      [
        "▁swel",
        -11.784116522908572
      ],
      [
        "▁hip",
        -10.966311224821673
      ],
      [
        "▁term",
        -11.463530585516873
      ],
      [
        "▁tri",
        -8.25020254601136
      ],
      [
        "▁initiat",
        -11.120966038057052
      ],
      [
        "▁agen",
        -9.701982921040855
      ],
      [
        "▁extradite",
        -10.625394309360583
      ],
      [
        "▁analyze",
        -9.71548030644654
      ],
      [
        "-s",
        -12.132725967088756
      ],
      [
        "ern",
        -6.849387477125366
      ],
      [
        "consider",
        -10.409560436766172
      ],
      [
        "▁granddaughter",
        -10.939999625279574
      ],
      [
        "▁prev",
        -7.890641534688376
      ],
      [
        "▁thrill",
        -10.958774338081941
      ],
      [
        "▁resc",
        -11.017793308546274
      ],
      [
        "i",
        -1.9310834849042582
      ],
      [
        "und",
        -12.224573276697852
      ],
      [
        "▁clatter",
        -10.958732721043242
      ],
      [
        "▁pres",
        -8.41671137336538
      ],
      [
        "▁comp.",
        -11.777373013286338
      ],
      [
        "te",
        -9.747775161545748
      ],
      [
        "▁guideline",
        -8.886442932006556
      ],
      [
        "▁thir",
        -11.855585041889366
      ],
      [
        "▁more",
        -4.831757204896697
      ],
      [
        "tuck",
        -8.669650365756599
      ],
      [
        "▁summ",
        -10.59033662189267
      ],
      [
        "▁chin",
        -11.20421329443356
      ],
      [
        "_",
        -4.900921085182438
      ],
      [
        "▁worr",
        -10.587724416161395
      ],
      [
        "▁morta",
        -11.388665581313159
      ],
      [
        "▁kidn",
        -10.984101600500026
      ],
      [
        "▁ma",
        -9.960001483257194
      ],
      [
        "▁membrane",
        -11.773239317012834
      ],
      [
        "n-",
        -7.42919141064054
      ],
      [
        "▁x",
        -8.996731787690084
      ],
      [
        "with",
        -8.456207651682766
      ],
      [
        "▁clog",
        -11.81312003174729
      ],
      [
        "▁portra",
        -10.945794568166919
      ],
      [
        "rab",
        -12.074781119710144
      ],
      [
        "hin",
        -10.355812176309545
      ],
      [
        "shirt",
        -10.986100080817385
      ],
      [
        "▁ital",
        -8.258200858308086
      ],
      [
        "▁estimat",
        -12.715281960504413
      ],
      [
        "▁email",
        -7.544631571990324
      ],
      [
        "scription",
        -12.576514159616416
      ],
      [
        "▁topp",
        -11.528832161144848
      ],
      [
        "▁trail",
        -9.090026894575548
      ],
      [
        "food",
        -10.397954772528095
      ],
      [
        "shor",
        -9.683157785239645
      ],
      [
        "▁lu",
        -11.259851378187369
      ],
      [
        "star",
        -13.623296963931864
      ],
      [
        "▁colonial",
        -12.769120913342253
      ],
      [
        "▁try",
        -10.079926123008649
      ],
      [
        "▁magic",
        -8.725833598649517
      ],
      [
        "entine",
        -11.810368459154166
      ],
      [
        "▁mark",
        -8.708657835276192
      ],
      [
        "ach",
        -11.32161465434035
      ],
      [
        "▁drive",
        -9.284519382482094
      ],
      [
        "▁listen",
        -7.39626607878537
      ],
      [
        "▁pile",
        -9.422239128308492
      ],
      [
        "▁tak",
        -6.717722372292699
      ],
      [
        "thus",
        -7.27974176497364
      ],
      [
        "▁sector",
        -8.339733509037329
      ],
      [
        "▁tub",
        -11.022811390401186
      ],
      [
        "▁co",
        -7.156071974890524
      ],
      [
        "bat",
        -11.808849954109576
      ],
      [
        "'s",
        -8.55314239606154
      ],
      [
        "guis",
        -12.543810400604471
      ],
      [
        "▁process",
        -6.956477902415067
      ],
      [
        "▁trillion",
        -11.773284495805388
      ],
      [
        "▁row",
        -10.632449896446488
      ],
      [
        "am",
        -10.786224155375248
      ],
      [
        "ance",
        -11.496086980958138
      ],
      [
        "▁dish",
        -8.39819245409123
      ],
      [
        "asion",
        -10.091889752300865
      ],
      [
        "hack",
        -10.762165975807862
      ],
      [
        "media",
        -9.910363114369638
      ],
      [
        "rall",
        -8.499926252306789
      ],
      [
        "▁hugg",
        -10.408862894458316
      ],
      [
        "▁revi",
        -12.848306736120634
      ],
      [
        "▁engine",
        -8.7134734826415
      ],
      [
        "fi",
        -10.556573653645748
      ],
      [
        "▁million",
        -8.69538345873893
      ],
      [
        "▁clas",
        -10.966147665897159
      ],
      [
        "putt",
        -13.76820029704494
      ],
      [
        "▁anti-",
        -8.875725104326014
      ],
      [
        "ory",
        -11.45114824394768
      ],
      [
        "ch",
        -8.924606522702707
      ],
      [
        "breeder",
        -10.957006911170456
      ],
      [
        "▁un",
        -9.036505284817565
      ],
      [
        "will",
        -7.214694535384876
      ],
      [
        "▁department",
        -8.36102610194123
      ],
      [
        "t",
        -10.200270897839118
      ],
      [
        "eat",
        -8.359058933190482
      ],
      [
        "▁shape",
        -9.294041601447184
      ],
      [
        "▁curve",
        -10.495058724617806
      ],
      [
        "▁deit",
        -11.422907663114236
      ],
      [
        "▁clo",
        -11.029219302223288
      ],
      [
        "ww",
        -11.076520667939029
      ],
      [
        "▁permit",
        -10.689969253749032
      ],
      [
        "▁dispute",
        -9.946108072676836
      ],
      [
        "▁privat",
        -9.977529835770746
      ],
      [
        "▁hyper",
        -10.957613098388924
      ],
      [
        "▁initial",
        -11.276344050637785
      ],
      [
        "vocation",
        -11.835758083013099
      ],
      [
        "▁polluter",
        -11.299562700281038
      ],
      [
        "▁induce",
        -10.80572455868166
      ],
      [
        "▁201",
        -4.629308400060954
      ],
      [
        "▁exclusi",
        -10.52725481339749
      ],
      [
        "nam",
        -11.246796261251173
      ],
      [
        "y",
        -4.796594636724666
      ],
      [
        "▁replication",
        -8.782361462914606
      ],
      [
        "▁tid",
        -11.32513041177584
      ],
      [
        "s",
        -3.6131603665375165
      ],
      [
        "ization",
        -10.093288099723118
      ],
      [
        "▁diet",
        -9.67760430775865
      ],
      [
        "ous-",
        -11.779974533976803
      ],
      [
        "pin",
        -13.182092437491459
      ],
      [
        "▁begu",
        -8.858236529005222
      ],
      [
        "ad",
        -10.619369818771165
      ],
      [
        "▁gli",
        -12.680259085832995
      ],
      [
        "▁lunchbox",
        -11.787872020928255
      ],
      [
        "▁clothespin",
        -10.940512914989537
      ],
      [
        "op",
        -10.834933069685347
      ],
      [
        "▁five",
        -11.309433173968458
      ],
      [
        "adelphi",
        -5.284187108245265
      ],
      [
        "▁mail",
        -8.428530805405059
      ],
      [
        "ze",
        -8.312436807530911
      ],
      [
        "▁gai",
        -12.66538016991001
      ],
      [
        "fur",
        -12.709947412363052
      ],
      [
        "▁progresse",
        -11.261905867745844
      ],
      [
        "▁pack",
        -8.142426691225264
      ],
      [
        "▁reca",
        -12.752577053478321
      ],
      [
        "▁provoke",
        -9.761884085525988
      ],
      [
        "tl",
        -8.50920686371289
      ],
      [
        "▁canad",
        -8.545422567737948
      ],
      [
        "▁adh",
        -12.013548608549938
      ],
      [
        "sume",
        -12.620606358871541
      ],
      [
        "east",
        -7.505967250504568
      ],
      [
        "▁stan",
        -8.635742599374034
      ],
      [
        "are",
        -6.0074420158852755
      ],
      [
        "friends",
        -12.247270374119783
      ],
      [
        "▁examin",
        -11.784356521932777
      ],
      [
        "▁ma",
        -6.304844418931761
      ],
      [
        "▁salt",
        -6.81085564483486
      ],
      [
        "▁rip",
        -9.553219506168208
      ],
      [
        "amon",
        -10.569478169768761
      ],
      [
        "▁snitch",
        -9.04236582073256
      ],
      [
        "▁mid-20",
        -12.578453177705732
      ],
      [
        "ti",
        -7.94075632283433
      ],
      [
        "▁commit",
        -9.261825638492802
      ],
      [
        "▁weak",
        -12.801091663414105
      ],
      [
        "▁posting",
        -10.353945942856104
      ],
      [
        "▁fulfill",
        -9.642500085794326
      ],
      [
        "▁heav",
        -7.330969987208551
      ],
      [
        "irth",
        -12.023607063647745
      ],
      [
        "▁9",
        -12.789906062974914
      ],
      [
        "gu",
        -12.812334395845994
      ],
      [
        "▁str",
        -10.28308004920849
      ],
      [
        "▁associate",
        -8.574150142076096
      ],
      [
        "operation",
        -8.652364499709357
      ],
      [
        "▁neat",
        -8.45420339063592
      ],
      [
        "harg",
        -11.786586328611435
      ],
      [
        "case",
        -12.111369804309
      ],
      [
        "▁broker",
        -13.270934174252396
      ],
      [
        "▁31",
        -6.916304381332294
      ],
      [
        "▁passage",
        -9.524785044376314
      ],
      [
        "appropriation",
        -12.610837371157642
      ],
      [
        "astin",
        -12.5269625617981
      ],
      [
        "▁wif",
        -7.403964771298578
      ],
      [
        "▁what",
        -4.999866406006407
      ],
      [
        "pe",
        -12.162349167248964
      ],
      [
        "ero",
        -12.752071876173842
      ],
      [
        "lande",
        -12.437091890013582
      ],
      [
        "▁mari",
        -7.872290944246012
      ],
      [
        "mount",
        -11.328585340909575
      ],
      [
        "▁l",
        -8.9065070863131
      ],
      [
        "▁exhibit",
        -9.744631614273729
      ],
      [
        "▁demand",
        -9.042392436821741
      ],
      [
        "never",
        -8.911190488652208
      ],
      [
        "▁stirr",
        -10.061708180234708
      ],
      [
        "▁compel",
        -10.341109751648144
      ],
      [
        "▁dangl",
        -10.375856842531736
      ],
      [
        "▁financial",
        -11.913805881464574
      ],
      [
        "▁grumble",
        -11.273238533788472
      ],
      [
        "▁appeal",
        -10.055444413203707
      ],
      [
        "▁sit",
        -9.839908542689553
      ],
      [
        "▁theme",
        -8.960797348504205
      ],
      [
        "▁masterpiece",
        -10.69106406598766
      ],
      [
        "▁exacerbat",
        -12.112721987021636
      ],
      [
        "▁eas",
        -12.421827182530187
      ],
      [
        "▁pol",
        -10.804340739068891
      ],
      [
        "hell",
        -9.374613562151438
      ],
      [
        "strain",
        -12.143732104393894
      ],
      [
        "▁diploma",
        -10.164162279715546
      ],
      [
        "▁drag",
        -9.756971879213626
      ],
      [
        "m",
        -3.421156060075173
      ],
      [
        "gement",
        -9.601018157834392
      ],
      [
        "▁extremist",
        -10.057109123151896
      ],
      [
        "▁crossing",
        -10.063796355530485
      ],
      [
        "adilla",
        -11.273812789902026
      ],
      [
        "olat",
        -12.070794621467867
      ],
      [
        "▁nightmare",
        -10.180430605575665
      ],
      [
        "▁nin",
        -11.194033647457276
      ],
      [
        "c",
        -4.470036614899309
      ],
      [
        "▁debtor",
        -10.947007744445063
      ],
      [
        "▁clun",
        -11.637628332936673
      ],
      [
        "h",
        -4.366450591382844
      ],
      [
        "▁journalist",
        -10.327943510129254
      ],
      [
        "▁park",
        -7.930236432806556
      ],
      [
        "▁tour",
        -8.624213936699368
      ],
      [
        "lie",
        -11.926210206863956
      ],
      [
        "ude",
        -11.934050817687158
      ],
      [
        "feel",
        -11.258047734466343
      ],
      [
        "▁dash",
        -10.195253487093881
      ],
      [
        "▁clear",
        -11.284198656220008
      ],
      [
        "▁pediatrician",
        -11.773238221279405
      ],
      [
        "▁pi",
        -8.335338817374708
      ],
      [
        "▁polit",
        -8.993206322532291
      ],
      [
        "▁phil",
        -5.25202746557171
      ],
      [
        "▁communication",
        -8.557394658366666
      ],
      [
        "ifica",
        -10.815926138717701
      ],
      [
        "▁sto",
        -10.135799448301418
      ],
      [
        "alti",
        -7.54648076457047
      ],
      [
        "at",
        -6.784203456775904
      ],
      [
        "▁joe",
        -8.171958396323465
      ],
      [
        "▁flu",
        -10.485454426757308
      ],
      [
        "▁queen",
        -10.490662001786884
      ],
      [
        "▁ventur",
        -12.046958627814087
      ],
      [
        "▁nu",
        -10.42808322675228
      ],
      [
        "▁so",
        -8.96708324267529
      ],
      [
        "▁sam",
        -12.521289167439793
      ],
      [
        "cation",
        -11.546171575700942
      ],
      [
        "▁hu",
        -7.4016449185572855
      ],
      [
        "▁envelop",
        -10.958725677509152
      ],
      [
        "hasi",
        -10.187690854339067
      ],
      [
        "▁w",
        -6.298882848285829
      ],
      [
        "des",
        -7.926597819145513
      ],
      [
        "▁explor",
        -9.779672797640773
      ],
      [
        "remain",
        -12.686186664379095
      ],
      [
        "▁fool",
        -10.009721697508247
      ],
      [
        "affe",
        -12.340640645841114
      ],
      [
        "vin",
        -12.53700662176233
      ],
      [
        "beside",
        -11.715294844028275
      ],
      [
        "▁winner",
        -10.490132708424277
      ],
      [
        "voke",
        -10.978590341881706
      ],
      [
        "taliz",
        -11.891074445224287
      ],
      [
        "▁hers",
        -11.553708895953593
      ],
      [
        "▁rec",
        -7.678294893410548
      ],
      [
        "▁got",
        -5.199521392430971
      ],
      [
        "emerg",
        -12.28878720871548
      ],
      [
        "▁facilitate",
        -9.255807223988535
      ],
      [
        "owled",
        -12.386375126797997
      ],
      [
        "test",
        -11.705071043083239
      ],
      [
        "▁ram",
        -10.98218638398967
      ],
      [
        "▁sometime",
        -6.090063230110807
      ],
      [
        "he",
        -9.921670131844175
      ],
      [
        "▁stil",
        -5.179362880414711
      ],
      [
        "▁auth",
        -11.787144973703022
      ],
      [
        "ification",
        -9.804323195113948
      ],
      [
        "lan",
        -8.800779485427608
      ],
      [
        "▁e",
        -12.287137526989687
      ],
      [
        "ze",
        -7.030389614728964
      ],
      [
        "▁opera",
        -10.079226805806746
      ],
      [
        "▁pan",
        -11.497646978224981
      ],
      [
        "alr",
        -9.007948072793095
      ],
      [
        "liance",
        -10.643941901770368
      ],
      [
        "▁procrastinat",
        -10.93990489510935
      ],
      [
        "ffle",
        -11.192215514955548
      ],
      [
        "ge",
        -7.976918852020567
      ],
      [
        "▁pois",
        -11.070801805211996
      ],
      [
        "▁bla",
        -12.66352183441227
      ],
      [
        "▁dep",
        -12.436950373133385
      ],
      [
        "▁patron",
        -9.673556011031584
      ],
      [
        "▁kidnapping",
        -11.77328910927058
      ],
      [
        "safe",
        -12.25108810007065
      ],
      [
        "▁initial",
        -9.744629739606761
      ],
      [
        "▁monument",
        -10.489941805467556
      ],
      [
        "ounce",
        -11.500262422935004
      ],
      [
        "iologist",
        -12.790836874720416
      ],
      [
        "sistenc",
        -11.045781477297552
      ],
      [
        "▁he",
        -8.695014446296593
      ],
      [
        "ded",
        -10.613798642570432
      ],
      [
        "▁sun",
        -7.973576176043491
      ],
      [
        "!!!!!!!!!!!!!",
        -12.159030662584136
      ],
      [
        "▁fingernail",
        -11.775462204997794
      ],
      [
        "▁sport",
        -8.589273587626643
      ],
      [
        "▁sheet",
        -8.479359562198741
      ],
      [
        "▁paint",
        -8.410390060706064
      ],
      [
        "▁see",
        -9.830285130851582
      ],
      [
        "▁quiet",
        -11.306876991365803
      ],
      [
        "▁committment",
        -11.77324375170777
      ],
      [
        "▁kinsm",
        -12.377711919487938
      ],
      [
        "join",
        -11.930710609176188
      ],
      [
        "traction",
        -10.923792516057338
      ],
      [
        "rd",
        -10.82159276799896
      ],
      [
        "▁shift",
        -10.175490223528428
      ],
      [
        "east",
        -8.907656339263566
      ],
      [
        "▁notic",
        -10.303038348871153
      ],
      [
        "▁judgement",
        -10.94767815680319
      ],
      [
        "▁classmate",
        -11.276218984803222
      ],
      [
        "▁nam",
        -9.606888969482533
      ],
      [
        "ntage",
        -12.246306031826869
      ],
      [
        "embarrass",
        -12.271808004272504
      ],
      [
        "▁chat",
        -10.8744522336542
      ],
      [
        "▁soliloqu",
        -10.939904888791265
      ],
      [
        "el",
        -7.022978776406453
      ],
      [
        "head",
        -7.109249811403601
      ],
      [
        "▁wash",
        -9.681176123281515
      ],
      [
        "▁vine",
        -9.905054186198818
      ],
      [
        "cada",
        -11.82507084793451
      ],
      [
        "▁diso",
        -12.225379060828825
      ],
      [
        "▁vegetable",
        -8.782256497067854
      ],
      [
        "▁dre",
        -9.62634252823351
      ],
      [
        "▁hug",
        -9.991274959911895
      ],
      [
        "▁optimi",
        -11.275397112094021
      ],
      [
        "▁water-me",
        -11.77614583541423
      ],
      [
        "▁mater",
        -11.837062460610547
      ],
      [
        "▁interpret",
        -11.770928148624602
      ],
      [
        "audi",
        -8.429152908912693
      ],
      [
        "▁emigrate",
        -11.470770256760712
      ],
      [
        "il",
        -12.076880807285535
      ],
      [
        "▁surviv",
        -9.674227722125458
      ],
      [
        "▁transi",
        -11.339111151919385
      ],
      [
        "▁reme",
        -13.238597859458123
      ],
      [
        "▁representative",
        -9.042786689722734
      ],
      [
        "▁bas",
        -8.497951332467174
      ],
      [
        "▁invo",
        -12.52672947905471
      ],
      [
        "▁pro-",
        -8.772407925019438
      ],
      [
        "umor",
        -13.467052836313018
      ],
      [
        "u",
        -5.226039066423351
      ],
      [
        "▁searche",
        -10.83581030148908
      ],
      [
        "▁sq",
        -7.710816908113083
      ],
      [
        "▁helmet",
        -10.323368097928
      ],
      [
        "once",
        -6.213434230210199
      ],
      [
        "▁champ",
        -10.940200207232404
      ],
      [
        "▁fift",
        -7.892158422901294
      ],
      [
        "virus",
        -11.628502942982891
      ],
      [
        "▁psychiatrist",
        -11.77323822128104
      ],
      [
        "ught",
        -8.207422363822904
      ],
      [
        "filter",
        -11.884792268131305
      ],
      [
        "▁conf",
        -10.06410972927479
      ],
      [
        "▁appro",
        -10.037278287844646
      ],
      [
        "length",
        -12.456300742632228
      ],
      [
        "▁bare",
        -11.304030699987981
      ],
      [
        "tieth",
        -7.971235901375047
      ],
      [
        "rel",
        -7.605816728882767
      ],
      [
        "dogs",
        -10.797442309338217
      ],
      [
        "▁lightn",
        -11.807561870956025
      ],
      [
        "resume",
        -10.38287400397426
      ],
      [
        "mention",
        -13.239363509227084
      ],
      [
        "refer",
        -13.805811766245489
      ],
      [
        "▁experi",
        -12.861465888298572
      ],
      [
        "ce",
        -7.335049452833814
      ],
      [
        "▁hesitat",
        -12.231293577042205
      ],
      [
        "▁gaze",
        -11.88168255035399
      ],
      [
        "▁sixt",
        -10.69072221709317
      ],
      [
        "▁apparition",
        -11.773290576257939
      ],
      [
        "rov",
        -12.021779489429047
      ],
      [
        "▁qui",
        -6.449378746013751
      ],
      [
        "▁office",
        -7.4078300031256905
      ],
      [
        "▁pitche",
        -10.636662948579025
      ],
      [
        "▁vei",
        -12.503992732359226
      ],
      [
        "issu",
        -12.349858965527435
      ],
      [
        "▁reptile",
        -10.489923459548073
      ],
      [
        "front",
        -8.149185109348746
      ],
      [
        "duct",
        -12.4557090145683
      ],
      [
        "▁earth",
        -8.08146730037077
      ],
      [
        "▁whoop",
        -11.280331667339174
      ],
      [
        "unci",
        -10.414186271127987
      ],
      [
        "▁beep",
        -10.639950304872311
      ],
      [
        "▁cra",
        -9.194886320642299
      ],
      [
        "▁model",
        -10.997711720789395
      ],
      [
        "▁ab",
        -8.864086619803423
      ],
      [
        "-thir",
        -12.771767840428275
      ],
      [
        "brew",
        -11.95603549880149
      ],
      [
        "▁wi",
        -8.712068927702958
      ],
      [
        "▁relaxe",
        -13.46903323800876
      ],
      [
        "▁prof",
        -10.325678581192182
      ],
      [
        "▁building",
        -7.897988882917701
      ],
      [
        "▁knights",
        -11.005240802459834
      ],
      [
        "▁16",
        -11.273271105385689
      ],
      [
        "found",
        -10.741834212598295
      ],
      [
        "▁cheape",
        -6.199647512997842
      ],
      [
        "defen",
        -11.614376238856005
      ],
      [
        "▁spore",
        -9.973296617581447
      ],
      [
        "▁prepa",
        -12.368982636589443
      ],
      [
        "▁non",
        -8.674722093820106
      ],
      [
        "ite",
        -11.01993439914959
      ],
      [
        "▁exp",
        -10.367243970403122
      ],
      [
        "x",
        -11.925660239071421
      ],
      [
        "sts",
        -11.461101290167687
      ],
      [
        "▁cropduster",
        -10.939906103075138
      ],
      [
        "▁instructor",
        -9.281460844693111
      ],
      [
        "▁enem",
        -8.81944835649471
      ],
      [
        "▁range",
        -8.578551379011937
      ],
      [
        "▁mitigati",
        -11.805434447794958
      ],
      [
        "▁bro",
        -9.263525512982534
      ],
      [
        "brace",
        -12.10403301571309
      ],
      [
        "▁withdr",
        -10.97124267591035
      ],
      [
        "▁citi",
        -9.144792283717441
      ],
      [
        "▁ideolog",
        -10.690037009093249
      ],
      [
        "long",
        -11.83410893504668
      ],
      [
        "▁ok",
        -6.289238687970232
      ],
      [
        "▁surpris",
        -10.71640502089398
      ],
      [
        "▁bike",
        -8.28213598381516
      ],
      [
        "▁on",
        -2.700071180263146
      ],
      [
        "u",
        -5.982971896799802
      ],
      [
        "▁emerge",
        -9.38954857975813
      ],
      [
        "▁walk",
        -8.346021982090319
      ],
      [
        "▁oh",
        -3.2899133699130747
      ],
      [
        "licit",
        -10.625532979131632
      ],
      [
        "▁charm",
        -9.953062887558268
      ],
      [
        "▁stick",
        -8.86352123925499
      ],
      [
        "▁most",
        -5.67441530637149
      ],
      [
        "▁grave",
        -9.886732654570265
      ],
      [
        "▁co-op",
        -11.748710984259699
      ],
      [
        "▁developi",
        -12.44940059768799
      ],
      [
        "▁hyp",
        -12.46151565261142
      ],
      [
        "▁threat",
        -8.3192023699456
      ],
      [
        "▁winter",
        -8.630431830988162
      ],
      [
        "▁newspaper",
        -8.474831834522206
      ],
      [
        "▁armchair",
        -11.275917042148176
      ],
      [
        "root",
        -12.38284048659363
      ],
      [
        "▁",
        -3.252429650460364
      ],
      [
        "domain",
        -12.43962312134832
      ],
      [
        "▁testi",
        -11.088747800983583
      ],
      [
        "▁wine",
        -7.974479771150688
      ],
      [
        "ls",
        -10.444717906610101
      ],
      [
        "▁as",
        -11.439053335531208
      ],
      [
        "▁ups",
        -8.907195307082878
      ],
      [
        "▁writ",
        -7.110939147606393
      ],
      [
        "ling",
        -8.656944928295674
      ],
      [
        "▁william",
        -7.96503197080314
      ],
      [
        "a",
        -7.3139023658061335
      ],
      [
        "▁hur",
        -9.44152278590518
      ],
      [
        "▁discard",
        -11.458797125414407
      ],
      [
        "here",
        -6.183649337266312
      ],
      [
        "ender",
        -10.337846724570866
      ],
      [
        "▁employee",
        -8.438496156184382
      ],
      [
        "ly",
        -8.381812434388245
      ],
      [
        "▁detail",
        -7.800095227110872
      ],
      [
        "▁differ",
        -9.364938636273932
      ],
      [
        "▁’",
        -8.629992473727398
      ],
      [
        "▁soooo",
        -9.804418989245214
      ],
      [
        "▁scrub",
        -10.626748296323523
      ],
      [
        "vices",
        -12.405258443705558
      ],
      [
        "▁secur",
        -10.280816398202107
      ],
      [
        "▁destabiliz",
        -11.459436058616554
      ],
      [
        "con",
        -12.854806605331722
      ],
      [
        "wive",
        -11.382026355728698
      ],
      [
        "vet",
        -11.35868423056984
      ],
      [
        "modate",
        -12.461079952370708
      ],
      [
        "tal",
        -8.428636549674044
      ],
      [
        "▁a",
        -8.190686883873425
      ],
      [
        "kitt",
        -12.810120905799854
      ],
      [
        "adam",
        -9.216338588004056
      ],
      [
        "rack",
        -11.932384343681527
      ],
      [
        "gree",
        -11.701713950007028
      ],
      [
        "unker",
        -12.238926546549642
      ],
      [
        "▁europe",
        -6.774063021791246
      ],
      [
        "san",
        -8.940219519766174
      ],
      [
        "keeper",
        -11.593369651509143
      ],
      [
        "▁hid",
        -11.52560803445547
      ],
      [
        "pariti",
        -11.483018144191709
      ],
      [
        "ex",
        -12.018644122831954
      ],
      [
        "e",
        -4.695450002687818
      ],
      [
        "b",
        -7.670828696875139
      ],
      [
        "▁mon",
        -7.268925820340043
      ],
      [
        "▁setup",
        -9.946746747419258
      ],
      [
        "▁pursue",
        -9.515595600541936
      ],
      [
        "▁sting",
        -10.153307100770103
      ],
      [
        "▁dismiss",
        -10.270601876005362
      ],
      [
        "fit",
        -11.447645903918097
      ],
      [
        "idget",
        -11.971881440214158
      ],
      [
        "▁learn",
        -8.629436436751437
      ],
      [
        "ombat",
        -12.857352606315265
      ],
      [
        "n",
        -5.575385108590868
      ],
      [
        "mitt",
        -11.02067611614921
      ],
      [
        "▁relative",
        -7.900067868839787
      ],
      [
        "▁coat",
        -8.915460940937022
      ],
      [
        "▁*",
        -9.783669856556786
      ],
      [
        "ac",
        -13.08800452521994
      ],
      [
        "▁conc",
        -11.881538413064451
      ],
      [
        "estin",
        -11.81334067423182
      ],
      [
        "▁irri",
        -10.987971338421657
      ],
      [
        "▁watch",
        -9.051034090490687
      ],
      [
        "▁pepper",
        -8.960836329089679
      ],
      [
        "▁prob",
        -11.392969708555642
      ],
      [
        "cept",
        -12.43264122637503
      ],
      [
        "nourish",
        -11.458726098200492
      ],
      [
        "embark",
        -12.325395798852156
      ],
      [
        "bird",
        -11.245931739572539
      ],
      [
        "typ",
        -12.456211015991563
      ],
      [
        "▁mush",
        -12.850183752476605
      ],
      [
        "▁industrialist",
        -10.939967269786003
      ],
      [
        "▁recipe",
        -9.951269252008991
      ],
      [
        "▁recieve",
        -10.175399798595071
      ],
      [
        "▁zi",
        -12.41515420165874
      ],
      [
        "ver",
        -4.964325609128451
      ],
      [
        "▁ka",
        -8.121822124318559
      ],
      [
        "▁debt",
        -9.399382626423028
      ],
      [
        "sourc",
        -11.330806737146437
      ],
      [
        "qu",
        -12.742838599490407
      ],
      [
        "▁mang",
        -11.309723590523356
      ],
      [
        "▁appli",
        -8.759356170891197
      ],
      [
        "▁professional",
        -9.824956674643577
      ],
      [
        "▁indulg",
        -11.740142628111798
      ],
      [
        "eat",
        -11.441211517824456
      ],
      [
        "▁export",
        -9.749730464864463
      ],
      [
        "▁waffle",
        -10.49071921410096
      ],
      [
        "▁tril",
        -12.024895063834183
      ],
      [
        ".",
        -9.207163296872874
      ],
      [
        "▁ascend",
        -10.62660061216999
      ],
      [
        "▁disco",
        -11.167456043268135
      ],
      [
        "▁boulevard",
        -11.273238227358155
      ],
      [
        "▁march",
        -7.22955551246396
      ],
      [
        "▁dump",
        -9.74390541880001
      ],
      [
        "ll",
        -10.466913703496358
      ],
      [
        "▁patien",
        -9.645623644007173
      ],
      [
        "rice",
        -9.078466786685382
      ],
      [
        "▁governor",
        -8.961161656594157
      ],
      [
        "regard",
        -10.967437095646254
      ],
      [
        "▁duster",
        -11.343585176635822
      ],
      [
        "▁interact",
        -9.212624344128375
      ],
      [
        "▁reiterate",
        -10.625392658544403
      ],
      [
        "▁introduce",
        -8.200117681523333
      ],
      [
        "lature",
        -12.465336677048915
      ],
      [
        "▁s",
        -9.732919305058479
      ],
      [
        "roache",
        -12.11842675011021
      ],
      [
        "▁indu",
        -12.68058148673612
      ],
      [
        "▁nail",
        -8.591840357506381
      ],
      [
        "chem",
        -12.74454619697153
      ],
      [
        "▁seeker",
        -9.458419981079265
      ],
      [
        "▁armature",
        -11.77878431582819
      ],
      [
        "▁sou",
        -12.697012322114858
      ],
      [
        "folder",
        -12.716058629332355
      ],
      [
        "▁bor",
        -12.816733415970134
      ],
      [
        "▁disse",
        -10.253866778102816
      ],
      [
        "▁live",
        -8.354099257950933
      ],
      [
        "▁disappear",
        -9.025395337929355
      ],
      [
        "keep",
        -10.818600329767133
      ],
      [
        "▁stranger",
        -9.524574017365318
      ],
      [
        "▁dais",
        -11.394130893921929
      ],
      [
        "tali",
        -12.152982191559895
      ],
      [
        "▁survive",
        -8.607826943963541
      ],
      [
        "▁ent",
        -11.490762047479347
      ],
      [
        "▁instrument",
        -9.846470134029303
      ],
      [
        "▁seal",
        -9.65013339640241
      ],
      [
        "▁cost",
        -7.911166214463438
      ],
      [
        "▁calorie",
        -10.180442802938423
      ],
      [
        "quire",
        -12.454276987155833
      ],
      [
        "hickie",
        -12.389062799032668
      ],
      [
        "nforcement",
        -8.932170371146508
      ],
      [
        "▁companion",
        -9.757471274229285
      ],
      [
        "f",
        -7.669318886691841
      ],
      [
        "▁20",
        -4.844886168365915
      ],
      [
        "▁crew",
        -9.236006528426715
      ],
      [
        "▁argentin",
        -8.68899941228021
      ],
      [
        "▁scientology",
        -7.680741655422038
      ],
      [
        "▁at",
        -5.040331045484084
      ],
      [
        "▁home",
        -6.822900762943623
      ],
      [
        "▁eatin",
        -11.00932500495928
      ],
      [
        "▁headline",
        -9.47295928621828
      ],
      [
        "▁memori",
        -11.226787700759516
      ],
      [
        "▁i.e",
        -8.226114344461658
      ],
      [
        "▁geographic",
        -8.49797696429409
      ],
      [
        "▁cau",
        -12.840616645406943
      ],
      [
        "rrection",
        -12.08189963356861
      ],
      [
        "boy",
        -11.148508411704395
      ],
      [
        "▁barrel",
        -9.3959245261683
      ],
      [
        "dden",
        -8.011444756232688
      ],
      [
        "▁sponsor",
        -9.633815477170808
      ],
      [
        "▁company",
        -7.123357935813083
      ],
      [
        "bbles",
        -12.78305797578216
      ],
      [
        "▁mourn",
        -11.458987352575594
      ],
      [
        "▁thom",
        -7.741847624622864
      ],
      [
        "▁explorer",
        -11.295948333789976
      ],
      [
        "azines",
        -11.825758299759519
      ],
      [
        "stone",
        -9.812748268030642
      ],
      [
        "▁5",
        -4.72417599646302
      ],
      [
        "▁license",
        -7.736033110431502
      ],
      [
        "fication",
        -9.549303767249407
      ],
      [
        "ight",
        -7.544412920616464
      ],
      [
        "▁invoice",
        -9.951879272132283
      ],
      [
        "▁exceed",
        -9.538930479526707
      ],
      [
        "dium",
        -10.838006378605712
      ],
      [
        "▁carry",
        -7.4452905083337955
      ],
      [
        "ingen",
        -11.665668432629568
      ],
      [
        "▁nigger",
        -11.773705510486085
      ],
      [
        "don",
        -10.84529255792158
      ],
      [
        "ze",
        -8.940827213205667
      ],
      [
        "▁padd",
        -11.055373638448376
      ],
      [
        "▁drap",
        -10.660136035185975
      ],
      [
        "▁f",
        -7.549080099874647
      ],
      [
        "chi",
        -12.645108236783058
      ],
      [
        "burn",
        -11.227588816663003
      ],
      [
        "dia",
        -7.541339966809506
      ],
      [
        "ling",
        -8.418304361618898
      ],
      [
        "▁17",
        -5.757736140466072
      ],
      [
        "▁turk",
        -9.446159889016336
      ],
      [
        "▁under",
        -9.799071239036792
      ],
      [
        "▁home",
        -7.733616494262923
      ],
      [
        "▁cor",
        -8.450434350945253
      ],
      [
        "ating",
        -10.916658024040107
      ],
      [
        "evolv",
        -11.255217829402971
      ],
      [
        "sburg",
        -5.015707450531428
      ],
      [
        "▁o",
        -8.441425137702664
      ],
      [
        "n",
        -1.763362936029182
      ],
      [
        "▁crashe",
        -10.491287712122011
      ],
      [
        "▁discount",
        -9.672610581804253
      ],
      [
        "▁cyclone",
        -9.596030183233886
      ],
      [
        "▁displace",
        -10.182889128318747
      ],
      [
        "▁wrapp",
        -9.752387019018233
      ],
      [
        "▁official",
        -7.866087547902182
      ],
      [
        "era",
        -10.80304596422814
      ],
      [
        "▁punche",
        -12.011043947984149
      ],
      [
        "one",
        -7.883635846065595
      ],
      [
        "▁caus",
        -8.900027625784086
      ],
      [
        "▁assignment",
        -10.963559024467898
      ],
      [
        "▁que",
        -11.839203122671723
      ],
      [
        "▁sec",
        -8.764226674567576
      ],
      [
        "rop",
        -12.288829574961708
      ],
      [
        "▁condense",
        -11.458742506278423
      ],
      [
        "▁burrow",
        -10.37549242892569
      ],
      [
        "▁mou",
        -10.601922688066338
      ],
      [
        "▁simple",
        -7.298001257945252
      ],
      [
        "▁manufacture",
        -11.837714427315781
      ],
      [
        "▁drumstick",
        -11.273313528631201
      ],
      [
        ")",
        -4.681454226988154
      ],
      [
        "▁prol",
        -12.047891282322357
      ],
      [
        "▁willow",
        -10.941482876069578
      ],
      [
        "is",
        -7.450562292556078
      ],
      [
        "llate",
        -12.957002623964614
      ],
      [
        "▁limitation",
        -9.397412605076264
      ],
      [
        "▁32",
        -7.924306065114948
      ],
      [
        "▁wil",
        -7.499379054981187
      ],
      [
        "▁rever",
        -10.906863246522285
      ],
      [
        "orbi",
        -11.359779223553055
      ],
      [
        "▁cere",
        -8.791412552377636
      ],
      [
        "perate",
        -12.36514720973961
      ],
      [
        "▁cal",
        -10.61975332912108
      ],
      [
        "▁schema",
        -9.229313119302322
      ],
      [
        "▁chef",
        -9.673661517102783
      ],
      [
        "▁alternat",
        -9.536629011223768
      ],
      [
        "▁mar",
        -9.423044126393672
      ],
      [
        "▁crunch",
        -11.775418099237429
      ],
      [
        "▁founder",
        -9.421211152874424
      ],
      [
        "▁fili",
        -11.400529362999947
      ],
      [
        "▁ori",
        -7.5403710771088726
      ],
      [
        "▁collector",
        -10.323280684660578
      ],
      [
        "▁10",
        -10.963569308764475
      ],
      [
        "▁_",
        -8.58743407694508
      ],
      [
        "nos",
        -11.588039667311776
      ],
      [
        "▁syn",
        -11.10351885475248
      ],
      [
        "▁cano",
        -11.728167011582068
      ],
      [
        "▁impulse",
        -10.180390933438593
      ],
      [
        "▁craving",
        -10.94083275492181
      ],
      [
        "ola",
        -11.965831060186837
      ],
      [
        "▁advi",
        -11.442294081851518
      ],
      [
        "▁dolphin",
        -9.185308799073072
      ],
      [
        "▁collect",
        -8.55323627454645
      ],
      [
        "measure",
        -12.284763893080804
      ],
      [
        "▁verd",
        -12.568352508981713
      ],
      [
        "▁ridi",
        -12.605157121934457
      ],
      [
        "ony",
        -12.364539202722415
      ],
      [
        "cify",
        -12.462745904440254
      ],
      [
        "▁return",
        -6.980570236197516
      ],
      [
        "▁entertain",
        -9.228861604649396
      ],
      [
        "▁answer",
        -7.728940396609722
      ],
      [
        "▁seek",
        -7.794721868270505
      ],
      [
        "▁alaska",
        -8.522270976061442
      ],
      [
        "size",
        -12.44049074961992
      ],
      [
        "▁shot",
        -9.34252858618312
      ],
      [
        "erman",
        -8.101756977811746
      ],
      [
        "▁line",
        -6.750621531341381
      ],
      [
        "▁wak",
        -11.00384923393595
      ],
      [
        "▁travel",
        -8.403827925793596
      ],
      [
        "dere",
        -8.858629973639424
      ],
      [
        "▁greg",
        -8.804930699624869
      ],
      [
        "tel",
        -10.961474627925877
      ],
      [
        "bec",
        -10.57414379054094
      ],
      [
        "season",
        -10.585437194596842
      ],
      [
        "certaint",
        -10.689852233501092
      ],
      [
        "▁stack",
        -10.969885260985986
      ],
      [
        "▁batch",
        -10.698734821914837
      ],
      [
        "▁bab",
        -9.052767950219394
      ],
      [
        "▁jim",
        -8.168886738754843
      ],
      [
        "s4",
        -10.239259196119184
      ],
      [
        "@enron",
        -8.49201496920391
      ],
      [
        "vel",
        -12.80056817423577
      ],
      [
        "▁reli",
        -9.934149557601224
      ],
      [
        "▁embass",
        -10.323785271617847
      ],
      [
        "▁cool",
        -10.015080797584833
      ],
      [
        "▁quanti",
        -9.470990253803595
      ],
      [
        "▁switch",
        -10.058496360085668
      ],
      [
        "▁irr",
        -11.68520707208821
      ],
      [
        "▁speculator",
        -11.777534011080427
      ],
      [
        "▁obs",
        -9.32571760778797
      ],
      [
        "▁high",
        -12.462726740654807
      ],
      [
        "▁'",
        -6.425214222828882
      ],
      [
        "▁certificate",
        -9.183332184431716
      ],
      [
        "contractor",
        -12.618127748990368
      ],
      [
        "row",
        -12.588313249467822
      ],
      [
        "▁diff",
        -12.482904335674169
      ],
      [
        "lung",
        -13.781243933939486
      ],
      [
        "▁tempora",
        -8.857799118035935
      ],
      [
        "▁research",
        -7.633961914211906
      ],
      [
        "▁corners",
        -9.911219225447827
      ],
      [
        "▁br",
        -11.363792385173916
      ],
      [
        "▁clin",
        -10.952785231282418
      ],
      [
        "▁tail",
        -10.982044069338869
      ],
      [
        "ualiz",
        -12.541677868246543
      ],
      [
        "▁stati",
        -13.632783203501525
      ],
      [
        "▁193",
        -8.163952698419175
      ],
      [
        "teria",
        -10.991269433182445
      ],
      [
        "educ",
        -12.776964271539748
      ],
      [
        "▁commission",
        -7.451205920198178
      ],
      [
        "▁glowstick",
        -10.48995716240268
      ],
      [
        "▁mm",
        -6.005830975174888
      ],
      [
        "our",
        -9.892037069430266
      ],
      [
        "eal",
        -8.412510315749763
      ],
      [
        "▁exemplifie",
        -10.958725671529868
      ],
      [
        "▁balzac",
        -6.780069752695146
      ],
      [
        "▁receipt",
        -9.45783274322533
      ],
      [
        "▁reinforce",
        -10.457313139922562
      ],
      [
        "▁curs",
        -10.292307855413611
      ],
      [
        "soft",
        -12.553911145532261
      ],
      [
        "ant",
        -8.824839956610166
      ],
      [
        "tan",
        -11.819315909719997
      ],
      [
        "direction",
        -12.241650275958069
      ],
      [
        "ham",
        -8.610467280310527
      ],
      [
        "▁wail",
        -10.765240434870135
      ],
      [
        "ugh",
        -13.005656845500328
      ],
      [
        "▁distributor",
        -11.781061188358366
      ],
      [
        "▁mr",
        -7.896021837232597
      ],
      [
        "▁flowe",
        -11.585499014007345
      ],
      [
        "hotel",
        -8.381793785440767
      ],
      [
        "▁ur",
        -8.290229594302534
      ],
      [
        "▁forum",
        -9.950337196650537
      ],
      [
        "▁loc",
        -11.328085900586796
      ],
      [
        "–",
        -5.905733460450745
      ],
      [
        "▁con",
        -8.71051059422967
      ],
      [
        "▁positi",
        -11.529911704914372
      ],
      [
        "▁suff",
        -11.744807782701814
      ],
      [
        "chart",
        -10.376458087479929
      ],
      [
        "▁ja",
        -7.665119366539596
      ],
      [
        "ce",
        -10.725866369106255
      ],
      [
        "▁extend",
        -8.23777162680596
      ],
      [
        "cate",
        -11.046056954250064
      ],
      [
        "ernate",
        -11.459581754410177
      ],
      [
        "▁banknote",
        -10.180531125782428
      ],
      [
        "▁niche",
        -11.273939539788575
      ],
      [
        "▁minorit",
        -9.946177792883864
      ],
      [
        "▁budge",
        -10.968841933105917
      ],
      [
        "▁tel",
        -10.065799689057256
      ],
      [
        "▁tumbl",
        -10.401256496060585
      ],
      [
        "▁listener",
        -11.791496190158174
      ],
      [
        "▁reappear",
        -10.964112872452155
      ],
      [
        "cture",
        -11.350631436955695
      ],
      [
        "▁ballast",
        -11.781645153082469
      ],
      [
        "apping",
        -12.035231124839749
      ],
      [
        "▁allow",
        -10.619723840053256
      ],
      [
        "▁sonnet",
        -9.457883004910975
      ],
      [
        "▁secretary",
        -9.406678221261078
      ],
      [
        "~",
        -12.773238221315811
      ],
      [
        "▁thu",
        -7.217642321564855
      ],
      [
        "hearing",
        -12.408840671979204
      ],
      [
        "▁product",
        -7.144409780071739
      ],
      [
        "▁reconcile",
        -10.741917937257249
      ],
      [
        "head",
        -8.947415373691765
      ],
      [
        "▁libert",
        -9.866528399896083
      ],
      [
        "▁questionnaire",
        -10.180384258726692
      ],
      [
        "▁suggest",
        -7.269309469923409
      ],
      [
        "▁implie",
        -10.237241191681681
      ],
      [
        "▁flex",
        -10.959981625412063
      ],
      [
        "▁chronicle",
        -11.273267956519888
      ],
      [
        "▁african",
        -8.066985086235281
      ],
      [
        "apply",
        -12.445644726046746
      ],
      [
        "appoint",
        -9.820632183439097
      ],
      [
        "▁boost",
        -10.447897637900235
      ],
      [
        "▁cham",
        -12.104629961020734
      ],
      [
        "cus",
        -11.326278232084343
      ],
      [
        "novate",
        -12.459542085071194
      ],
      [
        "▁revolution",
        -9.337509000075784
      ],
      [
        "-up",
        -10.616025629003703
      ],
      [
        "▁dipp",
        -9.753246670282628
      ],
      [
        "unit",
        -11.753789796534175
      ],
      [
        "▁rank",
        -9.576864093643009
      ],
      [
        "lash",
        -10.642985670348349
      ],
      [
        "▁house",
        -7.553451116995818
      ],
      [
        "iri",
        -7.788725658436585
      ],
      [
        "▁le",
        -10.511881974330983
      ],
      [
        "▁polit",
        -11.458842000038688
      ],
      [
        "▁stem",
        -10.369968144482982
      ],
      [
        "▁poke",
        -10.394302352299231
      ],
      [
        "x",
        -7.618871757219306
      ],
      [
        "▁charter",
        -10.375409591138226
      ],
      [
        "▁count",
        -9.309108879196103
      ],
      [
        "▁buzz",
        -11.772607311056866
      ],
      [
        "▁spear",
        -9.284403542511928
      ],
      [
        "▁fo",
        -11.546334560947004
      ],
      [
        "▁exten",
        -8.930532507267808
      ],
      [
        "▁coast",
        -8.527565743524288
      ],
      [
        "▁bo",
        -9.568410116840111
      ],
      [
        "▁bay",
        -8.310744628574387
      ],
      [
        "▁count",
        -7.582183729913579
      ],
      [
        "reju",
        -12.561761909903082
      ],
      [
        "▁statute",
        -9.848111425409062
      ],
      [
        "▁zoom",
        -11.372545313197962
      ],
      [
        "▁boa",
        -12.860043076900633
      ],
      [
        "▁rid",
        -8.692506648163228
      ],
      [
        "▁inch",
        -9.026357219326464
      ],
      [
        "▁on",
        -10.409881172705449
      ],
      [
        "ank",
        -12.715132825980108
      ],
      [
        "vell",
        -11.678480996267922
      ],
      [
        "udge",
        -11.926042943960152
      ],
      [
        "▁latin",
        -8.981739572321317
      ],
      [
        "▁academi",
        -11.774562100386666
      ],
      [
        "▁scrambl",
        -10.842858263543656
      ],
      [
        "▁few",
        -5.7598031210673275
      ],
      [
        "▁absent",
        -11.45929576201063
      ],
      [
        "▁marri",
        -11.79050558227563
      ],
      [
        "▁ada",
        -12.018090015874161
      ],
      [
        "ove",
        -12.538552777945007
      ],
      [
        "▁freak",
        -10.375444862958414
      ],
      [
        "▁mil",
        -10.533670363763694
      ],
      [
        "etention",
        -11.50049966661567
      ],
      [
        "▁unite",
        -7.293944788822664
      ],
      [
        "▁remember",
        -6.274852527604202
      ],
      [
        "▁am",
        -6.7597967199077305
      ],
      [
        "▁alma",
        -11.4469313499863
      ],
      [
        "▁sausage",
        -10.490131298843846
      ],
      [
        "▁alternat",
        -10.958820138777142
      ],
      [
        "▁stocking",
        -10.739757010222862
      ],
      [
        "ex",
        -7.917704102461412
      ],
      [
        "u",
        -7.326417313986891
      ],
      [
        "▁researcher",
        -9.074662590488948
      ],
      [
        "..............",
        -14.171066924010521
      ],
      [
        "▁he",
        -10.616994790772573
      ],
      [
        "▁fake",
        -11.300526076895467
      ],
      [
        "▁what",
        -9.596570129206697
      ],
      [
        "▁filter",
        -8.187676809008995
      ],
      [
        "aria",
        -11.34733864219344
      ],
      [
        "se",
        -10.437721176173627
      ],
      [
        "▁a.m",
        -9.523788187320141
      ],
      [
        "▁francisco",
        -4.794485198345533
      ],
      [
        "▁external",
        -11.273244494725592
      ],
      [
        "▁some",
        -9.847887502400187
      ],
      [
        "▁limousine",
        -9.395584314467003
      ],
      [
        "body",
        -9.321467414164129
      ],
      [
        "▁monday",
        -7.281936033518591
      ],
      [
        "tic",
        -9.7123451674466
      ],
      [
        "▁calm",
        -11.013616802382058
      ],
      [
        "uddy",
        -13.04991555641695
      ],
      [
        "▁islamist",
        -9.395539681710845
      ],
      [
        "▁qui",
        -11.194463387420809
      ],
      [
        "▁teaspoon",
        -10.057139198400053
      ],
      [
        "▁hi",
        -9.625753892037153
      ],
      [
        "▁share",
        -7.958676915142011
      ],
      [
        "▁triumph",
        -11.273238443783342
      ],
      [
        "so",
        -9.23250011917881
      ],
      [
        "alization",
        -9.88693980300614
      ],
      [
        "soft",
        -8.13557542886307
      ],
      [
        "▁interference",
        -9.95866450745276
      ],
      [
        "▁advancement",
        -10.694932297189386
      ],
      [
        "▁nice",
        -9.002681512828833
      ],
      [
        "▁sa",
        -6.480620694170948
      ],
      [
        "ano",
        -9.604896125330361
      ],
      [
        "firefox",
        -8.964644516108098
      ],
      [
        "▁drie",
        -10.430648335217086
      ],
      [
        "▁tur",
        -10.729277299009404
      ],
      [
        "▁bal",
        -11.414239243500878
      ],
      [
        "me",
        -6.250742814045079
      ],
      [
        "science",
        -9.606136945344879
      ],
      [
        "▁bloc",
        -12.817365628750439
      ],
      [
        "▁lime",
        -10.100163789644508
      ],
      [
        "▁descendant",
        -10.489905035940263
      ],
      [
        "▁bath",
        -8.331343921046189
      ],
      [
        "▁cata",
        -11.492329408571035
      ],
      [
        "panc",
        -11.000930599860974
      ],
      [
        "_",
        -5.537490390474223
      ],
      [
        "▁p",
        -7.525708461366749
      ],
      [
        "▁mountain",
        -8.278648658838396
      ],
      [
        "▁calc",
        -11.83768069194605
      ],
      [
        "ge",
        -7.6416958615391195
      ],
      [
        "▁segment",
        -10.689978848499937
      ],
      [
        "▁humanit",
        -9.481453327670307
      ],
      [
        "▁merry",
        -10.324977691923955
      ],
      [
        "▁shru",
        -10.59576456633062
      ],
      [
        "▁attribution",
        -11.273721451108694
      ],
      [
        "ue",
        -11.121320559934416
      ],
      [
        "▁mode",
        -9.985740828317674
      ],
      [
        "▁lamp",
        -9.85523904916291
      ],
      [
        "▁zo",
        -10.511747497078423
      ],
      [
        "▁chan",
        -12.480549026509884
      ],
      [
        "▁burger",
        -10.061364293198974
      ],
      [
        "▁la",
        -9.290215450803133
      ],
      [
        "cab",
        -12.725839076565476
      ],
      [
        "cott",
        -11.277103711744225
      ],
      [
        "▁shopkeeper",
        -11.77385340277326
      ],
      [
        "▁yo",
        -9.375395264527263
      ],
      [
        "▁gran",
        -11.219016203705948
      ],
      [
        "▁back",
        -8.832847277543877
      ],
      [
        "▁oop",
        -8.87023140230395
      ],
      [
        "▁abstain",
        -10.95872763811279
      ],
      [
        "otic",
        -11.19787045884084
      ],
      [
        "▁constituenc",
        -9.04331755075831
      ],
      [
        "av",
        -8.747660268860567
      ],
      [
        "▁forecast",
        -10.323261697784549
      ],
      [
        "l",
        -4.943432235573655
      ],
      [
        "▁traged",
        -9.131172633742391
      ],
      [
        "▁compete",
        -9.235698832012206
      ],
      [
        "▁hyp",
        -10.903656787039893
      ],
      [
        "nguishe",
        -12.459147213913857
      ],
      [
        "▁mass",
        -13.418469681279621
      ],
      [
        "▁scarce",
        -10.310818860248073
      ],
      [
        "▁romance",
        -9.946532413621156
      ],
      [
        "paren",
        -10.455123021721956
      ],
      [
        "▁constru",
        -12.460251914752757
      ],
      [
        "writ",
        -11.105464757728814
      ],
      [
        "▁fishe",
        -10.983579944757892
      ],
      [
        "visit",
        -12.37700838193746
      ],
      [
        "▁guid",
        -9.710435315340659
      ],
      [
        "mush",
        -11.47171452006971
      ],
      [
        "▁independent",
        -12.088882713110344
      ],
      [
        "▁fre",
        -8.015331486317137
      ],
      [
        "30",
        -10.441290489106864
      ],
      [
        "▁accommodat",
        -11.304586043834053
      ],
      [
        "ital",
        -7.661153326631152
      ],
      [
        "▁194",
        -7.162299874896345
      ],
      [
        "introduction",
        -10.812637752872737
      ],
      [
        "▁her",
        -8.795030697821929
      ],
      [
        "▁preced",
        -10.375574931547945
      ],
      [
        "bush",
        -11.768186478767003
      ],
      [
        "▁demonstrat",
        -10.908466487076097
      ],
      [
        "▁invita",
        -12.779531189630527
      ],
      [
        "nerg",
        -12.164041755602767
      ],
      [
        "flight",
        -8.886051423246261
      ],
      [
        "▁se",
        -8.094494879163094
      ],
      [
        "▁isolat",
        -11.526565329520537
      ],
      [
        "▁lace",
        -11.064689893751407
      ],
      [
        "▁th",
        -5.467207919803627
      ],
      [
        "center",
        -12.287196023548479
      ],
      [
        "▁at",
        -9.875443606246005
      ],
      [
        "ney",
        -7.546892535134333
      ],
      [
        "▁endeavor",
        -10.056254017967913
      ],
      [
        "ience",
        -10.80196379350273
      ],
      [
        ".do",
        -9.806718780375348
      ],
      [
        "▁general",
        -6.982809582124102
      ],
      [
        "▁hour",
        -7.158421093204191
      ],
      [
        "aking",
        -9.590362709685797
      ],
      [
        "ick",
        -11.421270853665607
      ],
      [
        "▁paint",
        -8.972620721315323
      ],
      [
        "ld",
        -12.54733491527661
      ],
      [
        "▁ingest",
        -11.67160195786344
      ],
      [
        "nd",
        -12.030856372203957
      ],
      [
        "▁midterm",
        -10.94079995644536
      ],
      [
        "▁banishe",
        -11.459083638908142
      ],
      [
        "▁moderni",
        -10.490290434770651
      ],
      [
        "▁x3",
        -10.267169971198783
      ],
      [
        "domini",
        -11.493510405883425
      ],
      [
        "▁whisk",
        -11.45914436729189
      ],
      [
        "▁pave",
        -11.833782515878449
      ],
      [
        "0",
        -12.853417780638242
      ],
      [
        "▁deliver",
        -8.049358438413172
      ],
      [
        "▁..........",
        -12.830818015419348
      ],
      [
        "us",
        -7.778989704250542
      ],
      [
        "▁enabl",
        -9.943027857813297
      ],
      [
        "▁stage",
        -8.669637184100624
      ],
      [
        "▁exclud",
        -10.546510139173403
      ],
      [
        "▁galle",
        -11.631065854809428
      ],
      [
        "ric",
        -10.411470317655589
      ],
      [
        "▁bachelor",
        -10.689905070229996
      ],
      [
        "▁stomp",
        -10.960794664437305
      ],
      [
        "▁conquistador",
        -11.773238221277568
      ],
      [
        "tting",
        -10.898581345916746
      ],
      [
        "▁sprinkl",
        -10.958852041360492
      ],
      [
        "▁interesting",
        -12.232489929051974
      ],
      [
        "▁cru",
        -10.347959811214372
      ],
      [
        "▁cowboy",
        -8.749850449746743
      ],
      [
        "▁lid",
        -10.251715857878107
      ],
      [
        "▁flip",
        -11.864354924804168
      ],
      [
        "▁mobile",
        -11.996705262807303
      ],
      [
        "llen",
        -13.771708789729473
      ],
      [
        "▁kay",
        -8.009556103339953
      ],
      [
        "▁know",
        -4.428565868834826
      ],
      [
        "▁late",
        -6.267339765221746
      ],
      [
        "▁bad",
        -7.974493665338207
      ],
      [
        "rag",
        -12.726876692467098
      ],
      [
        "▁wh",
        -8.504649692519411
      ],
      [
        "▁whil",
        -4.621993292267832
      ],
      [
        "text",
        -10.34215346893099
      ],
      [
        "▁cool",
        -7.446992243631039
      ],
      [
        "▁da",
        -9.772392388497229
      ],
      [
        "der",
        -10.23364092298107
      ],
      [
        "▁realize",
        -8.060523133677941
      ],
      [
        "▁wooll",
        -11.845441078889255
      ],
      [
        "wor",
        -12.487241547110052
      ],
      [
        "▁uncertaint",
        -9.755796808727052
      ],
      [
        "▁inside",
        -9.46233372822567
      ],
      [
        "▁strength",
        -8.7821834038438
      ],
      [
        "▁scratch",
        -9.74455481198046
      ],
      [
        "han",
        -8.987809647153576
      ],
      [
        "▁mommy",
        -5.367563605588856
      ],
      [
        "c",
        -4.327503421637194
      ],
      [
        "▁form",
        -8.023580180085943
      ],
      [
        "▁si",
        -9.215174395822075
      ],
      [
        "▁election",
        -7.9683799249190885
      ],
      [
        "▁guard",
        -10.186341535648904
      ],
      [
        "▁capabilit",
        -9.337104997228897
      ],
      [
        "▁fou",
        -12.473321746833529
      ],
      [
        "▁alarm",
        -9.846305669359623
      ],
      [
        "▁task",
        -8.404413634962584
      ],
      [
        "▁physician",
        -10.489937236097626
      ],
      [
        "▁lake",
        -6.699554826889792
      ],
      [
        "▁opt",
        -12.453055511880804
      ],
      [
        "▁10,000",
        -8.124538738361975
      ],
      [
        "ionalize",
        -11.544489871317843
      ],
      [
        "pen",
        -11.11353921235875
      ],
      [
        "▁target",
        -8.749778525260293
      ],
      [
        "▁cake",
        -8.190852724562003
      ],
      [
        "▁separate",
        -8.102132661402763
      ],
      [
        "▁re-establish",
        -11.461416157640347
      ],
      [
        "▁legit",
        -8.918546563726403
      ],
      [
        "▁updat",
        -10.536455177965196
      ],
      [
        "6:00",
        -8.192154946984985
      ],
      [
        "lap",
        -11.720106471806801
      ],
      [
        "▁tiger",
        -8.607262083857481
      ],
      [
        "▁spe",
        -11.019567938286174
      ],
      [
        "▁paralyze",
        -11.458725639474824
      ],
      [
        "▁f",
        -8.485186623721773
      ],
      [
        "▁fun",
        -8.054123086050646
      ],
      [
        "▁pool",
        -8.819608043785601
      ],
      [
        "▁sens",
        -10.514955308771725
      ],
      [
        "▁envision",
        -10.958726335838682
      ],
      [
        "lls",
        -11.343018346824707
      ],
      [
        "▁light",
        -8.022024747016536
      ],
      [
        "▁google",
        -7.536487541908186
      ],
      [
        "▁bump",
        -9.283223577838324
      ],
      [
        "▁pause",
        -9.903888257283462
      ],
      [
        "▁distribute",
        -8.56609744035245
      ],
      [
        "▁bonus",
        -10.324597413645552
      ],
      [
        "lin",
        -8.183711367389444
      ],
      [
        "▁bullf",
        -12.76693384501679
      ],
      [
        "▁def",
        -10.515031584064438
      ],
      [
        "er",
        -6.115462792319052
      ],
      [
        "▁cry",
        -9.6868007515796
      ],
      [
        "essential",
        -8.030097004760375
      ],
      [
        "a",
        -3.0361378326562036
      ],
      [
        "▁rhy",
        -11.511198761928386
      ],
      [
        "▁relinquish",
        -11.458725635206898
      ],
      [
        "▁bed",
        -7.134243541746692
      ],
      [
        "▁fed",
        -7.631178086646779
      ],
      [
        "▁rooster",
        -10.691025603495595
      ],
      [
        "decide",
        -12.638070548640876
      ],
      [
        "v",
        -8.604412996669458
      ],
      [
        "▁stint",
        -11.777957742962117
      ],
      [
        "▁walki",
        -12.855735280352148
      ],
      [
        "▁phono",
        -11.74556993235213
      ],
      [
        "▁to",
        -7.546239130945257
      ],
      [
        "▁writing",
        -8.664254806438464
      ],
      [
        "▁bend",
        -10.581775695953139
      ],
      [
        "needle",
        -12.613733954267552
      ],
      [
        "ha",
        -10.934007455383558
      ],
      [
        "▁rinse",
        -9.443591173236342
      ],
      [
        "▁loose",
        -9.536347820091168
      ],
      [
        "▁check",
        -7.097397547130876
      ],
      [
        "uh",
        -13.441672283788352
      ],
      [
        "pening",
        -11.812790512153887
      ],
      [
        "▁survivor",
        -10.693634987945224
      ],
      [
        "▁tragicomed",
        -11.273238233823466
      ],
      [
        "month",
        -12.42072662013588
      ],
      [
        "starr",
        -13.185597295394182
      ],
      [
        "▁pastr",
        -12.24604317036203
      ],
      [
        "▁seat",
        -10.18696325285451
      ],
      [
        "▁grandpa",
        -10.163769821308266
      ],
      [
        "▁sentenc",
        -12.621614802474845
      ],
      [
        "▁cano",
        -11.4911840885052
      ],
      [
        "▁listen",
        -10.760671838221697
      ],
      [
        "itis",
        -11.909088160700675
      ],
      [
        "f",
        -8.590723168736831
      ],
      [
        "er",
        -7.534039384376678
      ],
      [
        "▁hire",
        -8.685795281176249
      ],
      [
        "think",
        -9.762177751474606
      ],
      [
        "▁cohe",
        -9.476770643828715
      ],
      [
        "▁knick",
        -11.842211459653425
      ],
      [
        "rry",
        -10.924624878519793
      ],
      [
        "c",
        -11.810278406305967
      ],
      [
        "▁suff",
        -11.48020724091109
      ],
      [
        "▁gree",
        -8.475634803510559
      ],
      [
        "s",
        -7.035194481589116
      ],
      [
        "▁lik",
        -9.853819912027465
      ],
      [
        "ef",
        -9.672421974281228
      ],
      [
        "oni",
        -11.923317042373512
      ],
      [
        "▁bird",
        -7.368380511516816
      ],
      [
        "▁simpl",
        -6.887166233920471
      ],
      [
        "▁hoa",
        -12.751971971044622
      ],
      [
        "▁discusse",
        -9.424436303222725
      ],
      [
        "▁troph",
        -12.740962179405045
      ],
      [
        "giere",
        -8.590973921814255
      ],
      [
        "▁advantage",
        -8.787559522215028
      ],
      [
        "on",
        -7.482653132896829
      ],
      [
        "▁alcohol",
        -9.750990103228563
      ],
      [
        "he",
        -7.958088880513719
      ],
      [
        "▁jell",
        -11.777358418842168
      ],
      [
        "▁mom",
        -6.8752378393166484
      ],
      [
        "▁dividend",
        -9.3955284958419
      ],
      [
        "▁\"",
        -8.960736102532653
      ],
      [
        "▁fract",
        -11.930885973920443
      ],
      [
        "tter",
        -5.970593096106856
      ],
      [
        "lil",
        -11.68429977248867
      ],
      [
        "link",
        -10.92366322055954
      ],
      [
        "gravi",
        -10.725743712008326
      ],
      [
        "▁donat",
        -11.692482295662332
      ],
      [
        "▁surpris",
        -8.309669101209067
      ],
      [
        "▁travell",
        -10.462955960039285
      ],
      [
        "fuge",
        -11.778766632259403
      ],
      [
        "▁dol",
        -11.974948567284093
      ],
      [
        "-ba",
        -11.336294131749124
      ],
      [
        "performance",
        -12.206210642884702
      ],
      [
        "▁fung",
        -9.576804047159024
      ],
      [
        "sleeve",
        -12.553804149525295
      ],
      [
        "▁rem",
        -11.610909670541748
      ],
      [
        "sses",
        -11.79226023556321
      ],
      [
        "▁ru",
        -8.911238055993996
      ],
      [
        "▁road",
        -8.76210881242689
      ],
      [
        "▁due",
        -11.975471219958617
      ],
      [
        "▁toast",
        -9.869140594904499
      ],
      [
        "▁jet",
        -10.374902252935996
      ],
      [
        "▁german",
        -11.275375150670815
      ],
      [
        "▁alt.animals",
        -12.454291359963468
      ],
      [
        "rap",
        -11.804249669736695
      ],
      [
        "nce",
        -8.555174042063488
      ],
      [
        "▁head",
        -8.28152344114799
      ],
      [
        "▁concert",
        -9.854866954941404
      ],
      [
        "product",
        -11.497251019040128
      ],
      [
        "▁lament",
        -11.45955942293858
      ],
      [
        "▁cabinet",
        -9.596157762203173
      ],
      [
        "roma",
        -12.2792343324831
      ],
      [
        "sign",
        -11.290408220496918
      ],
      [
        "▁originat",
        -10.206301387202275
      ],
      [
        "▁poa",
        -11.395104798751975
      ],
      [
        "▁clarif",
        -12.477720061260241
      ],
      [
        "▁+",
        -4.079790587268795
      ],
      [
        "hours",
        -8.081722167131367
      ],
      [
        "ray",
        -11.014216701001052
      ],
      [
        "▁hover",
        -10.37642554524435
      ],
      [
        "-hundred-",
        -11.773500769744926
      ],
      [
        "▁butt",
        -12.477777609297064
      ],
      [
        "▁speak",
        -7.239835423288421
      ],
      [
        "▁landing",
        -9.431308837283826
      ],
      [
        "bru",
        -10.462001996595543
      ],
      [
        "▁burst",
        -10.49139249248848
      ],
      [
        "▁peda",
        -11.839696566192233
      ],
      [
        "chord",
        -12.026747807721392
      ],
      [
        "▁world",
        -8.993058427671102
      ],
      [
        "▁basil",
        -8.503577702494232
      ],
      [
        "▁st",
        -7.41836189483927
      ],
      [
        "▁julie",
        -8.714252839677888
      ],
      [
        "ith",
        -10.938446104800041
      ],
      [
        "pos",
        -12.953560864655568
      ],
      [
        "▁oct",
        -7.1764947533015455
      ],
      [
        "ye",
        -6.953245541864099
      ],
      [
        "tiona",
        -8.235513430961776
      ],
      [
        "▁incomplete",
        -10.01786190934962
      ],
      [
        "▁embarrass",
        -10.661128233817251
      ],
      [
        "ere",
        -7.974650756801023
      ],
      [
        "spect",
        -12.461162400996045
      ],
      [
        "nici",
        -12.84964159027834
      ],
      [
        "▁sim",
        -7.319585519843614
      ],
      [
        "▁strong",
        -6.705735057937477
      ],
      [
        "s",
        -10.83641398548844
      ],
      [
        "ipp",
        -11.959606004841001
      ],
      [
        "mbie",
        -11.283969729786621
      ],
      [
        "▁el",
        -6.533844654885006
      ],
      [
        "▁out",
        -4.814863351036432
      ],
      [
        "▁loud",
        -8.91611473642572
      ],
      [
        "▁1600",
        -11.773340632556593
      ],
      [
        "▁formatt",
        -11.499914104187454
      ],
      [
        "intellig",
        -12.281651845554022
      ],
      [
        "▁preservati",
        -11.459441605368239
      ],
      [
        "billion",
        -12.576896610712586
      ],
      [
        "▁sizzl",
        -11.494292379640301
      ],
      [
        "▁m",
        -7.008065295960894
      ],
      [
        "▁uphold",
        -10.644607613795992
      ],
      [
        "▁bruise",
        -11.773353204841381
      ],
      [
        "security",
        -8.469289774207185
      ],
      [
        "utter",
        -10.677340986049728
      ],
      [
        "nver",
        -5.980010193668576
      ],
      [
        "tory",
        -12.028195713735624
      ],
      [
        "▁mass",
        -7.8773078730712704
      ],
      [
        "▁1",
        -10.931602993117998
      ],
      [
        "yard",
        -9.687213338254665
      ],
      [
        "lico",
        -12.739435205204407
      ],
      [
        "▁reneg",
        -11.462159075972657
      ],
      [
        "talize",
        -12.461760275937094
      ],
      [
        "repar",
        -12.733433306158846
      ],
      [
        "ted",
        -6.377831684507669
      ],
      [
        "rican",
        -6.621653965549827
      ],
      [
        "▁teas",
        -10.466909815684023
      ],
      [
        "▁whistle",
        -10.180425717776298
      ],
      [
        "▁negotiat",
        -12.839523531212363
      ],
      [
        "bl",
        -9.179896686415972
      ],
      [
        "ement",
        -13.302570464324955
      ],
      [
        "scient",
        -8.784783829877945
      ],
      [
        "▁another",
        -5.70473121673835
      ],
      [
        "ul",
        -10.976443136227793
      ],
      [
        "nati",
        -8.134814157986906
      ],
      [
        "earl",
        -9.45364017257332
      ],
      [
        "uckle",
        -11.676107403628597
      ],
      [
        "▁fair",
        -9.412251584190308
      ],
      [
        "lip",
        -11.978658200255321
      ],
      [
        "▁sustain",
        -9.360408394516764
      ],
      [
        "▁discomf",
        -12.092987862202921
      ],
      [
        "cord",
        -13.18519851808599
      ],
      [
        "▁rewind",
        -10.959255670850624
      ],
      [
        "ur",
        -7.365406122523622
      ],
      [
        "▁offworlder",
        -11.773249967549326
      ],
      [
        "▁or",
        -12.158434441013414
      ],
      [
        "▁upside",
        -9.052625700099622
      ],
      [
        "▁gon",
        -5.350338757148288
      ],
      [
        "▁float",
        -8.688947204043847
      ],
      [
        "ilize",
        -11.450836919674167
      ],
      [
        "da",
        -8.91668926216832
      ],
      [
        "▁gis",
        -9.692497217856417
      ],
      [
        "▁bul",
        -11.543252702181919
      ],
      [
        "▁strike",
        -9.657676681140334
      ],
      [
        "▁36",
        -7.450209700463729
      ],
      [
        "bec",
        -7.120976675698388
      ],
      [
        "on-in",
        -11.798678390663499
      ],
      [
        "▁we",
        -8.230838646883242
      ],
      [
        "▁hash",
        -10.947717690533505
      ],
      [
        "▁crumple",
        -10.958725669378174
      ],
      [
        "▁diversi",
        -9.045361915002609
      ],
      [
        "want",
        -9.323151046085508
      ],
      [
        "ten-",
        -11.801518103434546
      ],
      [
        "▁accomplishe",
        -11.65918178565418
      ],
      [
        "▁wednesday",
        -7.591862185534497
      ],
      [
        "▁breeze",
        -10.489937079175757
      ],
      [
        "▁hill",
        -9.405798746809433
      ],
      [
        "▁attract",
        -8.538253893795229
      ],
      [
        "phone",
        -8.54395323145769
      ],
      [
        "deration",
        -12.320869198668506
      ],
      [
        "ost",
        -12.505172878882847
      ],
      [
        "▁no",
        -3.1231490279289718
      ],
      [
        "▁oversea",
        -9.539794133640953
      ],
      [
        "ounce",
        -10.561102899163927
      ],
      [
        "a",
        -3.420525871703079
      ],
      [
        "▁clim",
        -12.467690259042424
      ],
      [
        "▁capsule",
        -10.689913912566142
      ],
      [
        "▁aspir",
        -12.771513607330892
      ],
      [
        "▁70",
        -11.336150537848747
      ],
      [
        "▁worship",
        -9.841259622262124
      ],
      [
        "▁matter",
        -8.916816432592363
      ],
      [
        "hunke",
        -11.612876747567238
      ],
      [
        "upp",
        -12.513081400476622
      ],
      [
        "▁can",
        -8.942910838815337
      ],
      [
        "▁art",
        -7.641983962206665
      ],
      [
        "▁struggle",
        -9.524442463001682
      ],
      [
        "▁hop",
        -8.4796290412475
      ],
      [
        "▁author",
        -11.408643165089346
      ],
      [
        "▁lighte",
        -12.900675623351926
      ],
      [
        "▁me",
        -8.454964683688251
      ],
      [
        "▁sep",
        -11.079175559933907
      ],
      [
        "▁nice",
        -10.960243020707253
      ],
      [
        "05",
        -7.77009832959355
      ],
      [
        "perlin",
        -8.638843373624177
      ],
      [
        "▁ado",
        -11.143112605899983
      ],
      [
        "frie",
        -13.08360251100257
      ],
      [
        "▁scree",
        -11.504679957278697
      ],
      [
        "acco",
        -13.660594394584255
      ],
      [
        "▁medal",
        -10.333661790856118
      ],
      [
        "▁prote",
        -11.300099741673353
      ],
      [
        "▁speculat",
        -10.958779334588954
      ],
      [
        "tax",
        -11.567259995893416
      ],
      [
        "▁invi",
        -11.472631905628068
      ],
      [
        "▁quot",
        -9.740734059097017
      ],
      [
        "▁ri",
        -10.819887071530058
      ],
      [
        "▁find",
        -11.290198790299792
      ],
      [
        "▁pri",
        -8.425519063319243
      ],
      [
        "iv",
        -12.116370115168465
      ],
      [
        "▁,",
        -8.528595320707595
      ],
      [
        "ia",
        -10.29469557422531
      ],
      [
        "▁d",
        -8.724840587039013
      ],
      [
        "ica",
        -8.667034536648007
      ],
      [
        "▁mixe",
        -9.18631769402687
      ],
      [
        "▁incite",
        -11.134728481759495
      ],
      [
        "▁interview",
        -8.977517289680325
      ],
      [
        "▁1s",
        -11.453402883734254
      ],
      [
        "▁white",
        -6.200269289236962
      ],
      [
        "▁polyg",
        -11.788272194334754
      ],
      [
        "information",
        -8.887801906034449
      ],
      [
        "▁leg",
        -7.5066764347249455
      ],
      [
        "▁coun",
        -8.182471114272303
      ],
      [
        "▁translation",
        -8.961253188815629
      ],
      [
        "▁young",
        -11.772948514788904
      ],
      [
        "ill",
        -10.090431282137017
      ],
      [
        "give",
        -11.411964199753069
      ],
      [
        "▁reccom",
        -10.73015484257228
      ],
      [
        "▁beetle",
        -9.75569983778766
      ],
      [
        "▁loc",
        -13.031116890997277
      ],
      [
        "▁legi",
        -10.942092386757173
      ],
      [
        "▁hon",
        -12.027403339765764
      ],
      [
        "▁dirt",
        -7.284134994020468
      ],
      [
        "▁til",
        -10.08890471521851
      ],
      [
        "▁illustrate",
        -9.71719364621959
      ],
      [
        "structure",
        -11.866219560702163
      ],
      [
        "▁shin",
        -10.038787646127918
      ],
      [
        "▁brown",
        -8.965931783222395
      ],
      [
        "fect",
        -8.121719426551081
      ],
      [
        "artic",
        -11.96324034193317
      ],
      [
        "intif",
        -12.811021988540638
      ],
      [
        "▁television",
        -8.630679243781216
      ],
      [
        "▁host",
        -9.300995453044571
      ],
      [
        "▁floor",
        -7.307180754751581
      ],
      [
        "▁dust",
        -8.936701174214974
      ],
      [
        "lease",
        -11.021871948138818
      ],
      [
        "ace",
        -9.70819145519672
      ],
      [
        "▁cartoon",
        -8.815453727709599
      ],
      [
        "▁mont",
        -7.067933171742557
      ],
      [
        "▁scream",
        -10.504620406651933
      ],
      [
        "opho",
        -10.896481640195814
      ],
      [
        "ga",
        -13.448203318305282
      ],
      [
        "▁calendar",
        -9.595767423330186
      ],
      [
        "▁giant",
        -9.457646597994534
      ],
      [
        "▁argu",
        -9.357744420874603
      ],
      [
        "isti",
        -9.925926837850664
      ],
      [
        "+",
        -10.834960006133095
      ],
      [
        "i",
        -11.770631529841472
      ],
      [
        "80",
        -7.8524943517199395
      ],
      [
        "▁bu",
        -10.211423421328801
      ],
      [
        "entangle",
        -11.483188717951723
      ],
      [
        "▁dal",
        -5.240750079898974
      ],
      [
        "▁plott",
        -10.635998005245568
      ],
      [
        "▁admin",
        -11.275930002725326
      ],
      [
        "▁step",
        -8.465616940251993
      ],
      [
        "ct",
        -8.164314009566745
      ],
      [
        "velo",
        -10.906757534306179
      ],
      [
        "▁remo",
        -11.766246103266552
      ],
      [
        "▁blind",
        -10.6944803234121
      ],
      [
        "de",
        -9.88178093873111
      ],
      [
        "▁ac",
        -7.677514205205262
      ],
      [
        "▁dem",
        -10.107635047330989
      ],
      [
        "▁dove",
        -10.955864307067591
      ],
      [
        "▁separati",
        -12.313593056266038
      ],
      [
        "rpor",
        -8.898781282948459
      ],
      [
        "▁patient",
        -9.054981465162111
      ],
      [
        "shed",
        -9.252416951702074
      ],
      [
        "▁concept",
        -8.167846797024271
      ],
      [
        "i",
        -2.905259875845031
      ],
      [
        "▁commodit",
        -10.1803811900884
      ],
      [
        "p",
        -12.303800120175861
      ],
      [
        "▁tell",
        -5.587525770223458
      ],
      [
        "16",
        -7.239998889600365
      ],
      [
        "▁takeoff",
        -10.490029004863286
      ],
      [
        "▁controll",
        -9.936234030398749
      ],
      [
        "▁advert",
        -12.458968565707751
      ],
      [
        "7-1.",
        -10.939976073914012
      ],
      [
        "▁pal",
        -11.73871170797657
      ],
      [
        "▁remain",
        -9.950351482431813
      ],
      [
        "w",
        -5.189900606426425
      ],
      [
        "▁broaden",
        -10.625417970608337
      ],
      [
        "anit",
        -12.844001950239221
      ],
      [
        "▁subp",
        -11.338036940714066
      ],
      [
        "▁manage",
        -8.279946590380614
      ],
      [
        "▁lava",
        -11.827119274868766
      ],
      [
        "▁mollif",
        -11.45874633482136
      ],
      [
        "▁eye",
        -6.692811360790895
      ],
      [
        "▁behavior",
        -8.42787362091789
      ],
      [
        "▁m",
        -9.01553009256573
      ],
      [
        "▁ze",
        -10.863137431706903
      ],
      [
        "talk",
        -11.543605450705478
      ],
      [
        "▁well-",
        -11.77622961069727
      ],
      [
        "▁muss",
        -12.261868927477838
      ],
      [
        "▁frie",
        -10.001902336013309
      ],
      [
        "▁ha",
        -8.695616060412586
      ],
      [
        "matic",
        -12.715230412364022
      ],
      [
        "▁envisage",
        -10.958726427938458
      ],
      [
        "ca",
        -11.587715605017504
      ],
      [
        "▁propp",
        -10.377576722035313
      ],
      [
        "b",
        -4.989213884672491
      ],
      [
        "▁le",
        -6.641113467851519
      ],
      [
        "▁painting",
        -8.482582085013819
      ],
      [
        "▁battle",
        -11.189652838706685
      ],
      [
        "rture",
        -12.017416849568026
      ],
      [
        "▁impression",
        -9.595856597405762
      ],
      [
        "▁books",
        -7.889444819235922
      ],
      [
        "equa",
        -9.103317030142794
      ],
      [
        "▁patter",
        -10.694965335235585
      ],
      [
        "ng",
        -8.371015105561044
      ],
      [
        "sign",
        -10.853744288249057
      ],
      [
        "u",
        -3.4498478262533245
      ],
      [
        "▁demonstration",
        -9.946468046726121
      ],
      [
        "i",
        -2.7294335593499106
      ],
      [
        "▁vocal",
        -11.45886251667953
      ],
      [
        "▁cookin",
        -11.552504344244488
      ],
      [
        "▁show",
        -4.68195076631695
      ],
      [
        "note",
        -12.031824251949775
      ],
      [
        "ff",
        -11.034497354071057
      ],
      [
        "▁un",
        -9.559833561197479
      ],
      [
        "▁fold",
        -8.898884268958108
      ],
      [
        "▁amount",
        -10.626090496969313
      ],
      [
        "evit",
        -12.79935381421586
      ],
      [
        "▁hmmmm",
        -9.375494104063407
      ],
      [
        "▁waiver",
        -9.672583316392378
      ],
      [
        "▁cab",
        -9.730279795014328
      ],
      [
        ".........",
        -12.385442840267194
      ],
      [
        ".",
        -4.295143567899552
      ],
      [
        "▁nick",
        -10.283691666246552
      ],
      [
        "yours",
        -12.142066938395672
      ],
      [
        "▁easi",
        -7.509591222627236
      ],
      [
        "rial",
        -11.094729522503691
      ],
      [
        "▁local",
        -9.391494651183747
      ],
      [
        "competenc",
        -10.406797675054603
      ],
      [
        "unite",
        -13.02294310196537
      ],
      [
        "▁vietnam",
        -8.143258097114451
      ],
      [
        "▁urs",
        -7.9913189776565074
      ],
      [
        "f",
        -6.725442176541105
      ],
      [
        "▁rack",
        -10.378642764134646
      ],
      [
        "▁secure",
        -9.59335314794649
      ],
      [
        "▁sandal",
        -10.493191411543886
      ],
      [
        "ations",
        -10.703784906498933
      ],
      [
        "▁track",
        -8.389853453450158
      ],
      [
        "▁gam",
        -11.330784336224413
      ],
      [
        "curit",
        -12.778397420585911
      ],
      [
        "▁screw",
        -9.283484327322988
      ],
      [
        "ize",
        -10.360224280629454
      ],
      [
        "▁trans",
        -8.86820874021415
      ],
      [
        "▁charl",
        -7.222016558532928
      ],
      [
        "▁twenty",
        -4.856647518973699
      ],
      [
        "▁transcript",
        -11.273247593012503
      ],
      [
        "▁pray",
        -9.63887414862454
      ],
      [
        "husband",
        -12.215119779198767
      ],
      [
        "▁manipulate",
        -10.548907462218708
      ],
      [
        "▁bow",
        -9.339169673929911
      ],
      [
        "▁revers",
        -11.680583941391507
      ],
      [
        "▁novel",
        -8.26075077844383
      ],
      [
        "▁rid",
        -9.793526184019463
      ],
      [
        "ton",
        -10.51076596723694
      ],
      [
        "▁detail",
        -10.626634897885598
      ],
      [
        "financ",
        -12.769174693203476
      ],
      [
        "=---",
        -11.804144771854496
      ],
      [
        "▁contribution",
        -8.603028374931277
      ],
      [
        "▁actin",
        -12.690448802177274
      ],
      [
        "verse",
        -12.5450735406513
      ],
      [
        "hou",
        -12.521539516566062
      ],
      [
        "▁wet",
        -7.755055511800116
      ],
      [
        "▁attorney",
        -9.17888094416049
      ],
      [
        "▁educate",
        -9.404391758100541
      ],
      [
        "▁laugh",
        -9.824196478862593
      ],
      [
        "ember",
        -8.263459487200047
      ],
      [
        "un",
        -10.766918713986763
      ],
      [
        "▁rul",
        -10.879382387373575
      ],
      [
        "integr",
        -11.190045168683996
      ],
      [
        "▁cran",
        -10.33188476758302
      ],
      [
        "+cr",
        -12.722590487123098
      ],
      [
        "▁compress",
        -10.379391629668895
      ],
      [
        "▁toy",
        -8.16469190604054
      ],
      [
        "tion",
        -8.221898973466956
      ],
      [
        "▁boarder",
        -11.99635896164154
      ],
      [
        "venge",
        -10.675728166569103
      ],
      [
        "anks",
        -12.244733784578349
      ],
      [
        "er",
        -5.2157715594066945
      ],
      [
        "tove",
        -12.29794017414897
      ],
      [
        "▁lion",
        -8.746521660896473
      ],
      [
        "describe",
        -13.35872395178319
      ],
      [
        "transport",
        -12.227300274942046
      ],
      [
        "▁capitaliz",
        -11.458752755294963
      ],
      [
        "▁emission",
        -9.403016541453326
      ],
      [
        "▁vaca",
        -12.798529722113962
      ],
      [
        "ous",
        -4.87272141173675
      ],
      [
        "▁cold",
        -6.6797301307030255
      ],
      [
        "sources",
        -10.193072889870548
      ],
      [
        "▁oppress",
        -11.027543476235964
      ],
      [
        "play",
        -9.488572692942682
      ],
      [
        "ior",
        -11.21384055517794
      ],
      [
        "▁floati",
        -12.246586210003326
      ],
      [
        "▁numer",
        -8.396148112708989
      ],
      [
        "as",
        -7.54452203721696
      ],
      [
        "▁grate",
        -11.603363194765134
      ],
      [
        "▁rent",
        -8.812025043454252
      ],
      [
        "▁wedge",
        -11.786825807407116
      ],
      [
        "+wor",
        -11.843023896568557
      ],
      [
        "▁inf",
        -10.243930448735448
      ],
      [
        "ane",
        -9.648697361436083
      ],
      [
        "▁contro",
        -12.045591027846971
      ],
      [
        "▁lapp",
        -10.981229196825101
      ],
      [
        "▁reco",
        -11.924224303209021
      ],
      [
        "frog",
        -12.763250282272082
      ],
      [
        "p",
        -6.261203873790647
      ],
      [
        "side",
        -8.997724203738915
      ],
      [
        "▁ho",
        -7.724711078792276
      ],
      [
        "▁fem",
        -8.086254267535903
      ],
      [
        "▁dept",
        -12.833423134063553
      ],
      [
        "▁subscribe",
        -9.560372511793238
      ],
      [
        "▁ribbon",
        -9.395390913884537
      ],
      [
        "▁portrait",
        -10.180632920866467
      ],
      [
        "▁sleigh",
        -11.773252690882982
      ],
      [
        "prop",
        -11.173941882092373
      ],
      [
        "▁deci",
        -10.31221515002919
      ],
      [
        "blossom",
        -12.650855750714928
      ],
      [
        "gull",
        -12.069185897282397
      ],
      [
        "▁pound",
        -10.644021485669615
      ],
      [
        "▁celebrate",
        -10.189970557977702
      ],
      [
        "▁blind",
        -11.459685735387469
      ],
      [
        "▁near",
        -8.11698388299405
      ],
      [
        "▁eve",
        -8.968259718078635
      ],
      [
        "▁insect",
        -9.179626914329843
      ],
      [
        "▁cough",
        -10.377202847459262
      ],
      [
        "▁min",
        -9.453951156794336
      ],
      [
        "▁prince",
        -8.57549484690721
      ],
      [
        "uce",
        -10.072943977214988
      ],
      [
        "▁smell",
        -8.186978174367109
      ],
      [
        "▁includ",
        -6.833177670588736
      ],
      [
        "ction",
        -10.20359974163638
      ],
      [
        "▁intern",
        -8.372449375582836
      ],
      [
        "▁ow",
        -7.359777847670573
      ],
      [
        "▁mos",
        -6.7054045308103385
      ],
[...]
