{
  "version": "1.0",
  "truncation": null,
  "padding": null,
  "added_tokens": [
    {
      "id": 2527,
      "content": "[PAD]",
      "single_word": false,
      "lstrip": false,
      "rstrip": false,
      "normalized": false,
      "special": true
    },
    {
      "id": 7432,
      "content": "[SEP]",
      "single_word": false,
      "lstrip": false,
      "rstrip": false,
      "normalized": false,
      "special": true
    },
    {
      "id": 13296,
      "content": "[UNK]",
      "single_word": false,
      "lstrip": false,
      "rstrip": false,
      "normalized": false,
      "special": true
    },
    {
      "id": 15118,
      "content": "[CLS]",
      "single_word": false,
      "lstrip": false,
      "rstrip": false,
      "normalized": false,
      "special": true
    },
    {
      "id": 16120,
      "content": "[MASK]",
      "single_word": false,
      "lstrip": false,
      "rstrip": false,
      "normalized": false,
      "special": true
    }
  ],
  "normalizer": {
    "type": "Sequence",
    "normalizers": [
      {
        "type": "NFD"
      },
      {
        "type": "Lowercase"
      },
      {
        "type": "StripAccents"
      }
    ]
  },
  "pre_tokenizer": {
    "type": "Sequence",
    "pretokenizers": [
      {
        "type": "Metaspace",
        "replacement": "▁",
        "prepend_scheme": "always",
        "split": true
      }
    ]
  },
  "post_processor": {
    "type": "TemplateProcessing",
    "single": [
      {
        "SpecialToken": {
          "id": "[CLS]",
          "type_id": 0
        }
      },
      {
        "Sequence": {
          "id": "A",
          "type_id": 0
        }
      },
      {
        "SpecialToken": {
          "id": "[SEP]",
          "type_id": 0
        }
      }
    ],
    "pair": [
      {
        "SpecialToken": {
          "id": "[CLS]",
          "type_id": 0
        }
      },
      {
        "Sequence": {
          "id": "A",
          "type_id": 0
        }
      },
      {
        "SpecialToken": {
          "id": "[SEP]",
          "type_id": 0
        }
      },
      {
        "Sequence": {
          "id": "B",
          "type_id": 1
        }
      },
      {
        "SpecialToken": {
          "id": "[SEP]",
          "type_id": 1
        }
      }
    ],
    "special_tokens": {
      "[CLS]": {
        "id": "[CLS]",
        "ids": [
          15118
        ],
        "tokens": [
          "[CLS]"
        ]
      },
      "[SEP]": {
        "id": "[SEP]",
        "ids": [
          7432
        ],
        "tokens": [
          "[SEP]"
        ]
      }
    }
  },
  "decoder": {
    "type": "Metaspace",
    "replacement": "▁",
    "prepend_scheme": "always",
    "split": true
  },
  "model": {
    "type": "Unigram",
    "unk_id": 13296,
    "vocab": [
      [
        "▁locate",
        -8.166922333003015
      ],
      [
        "▁shell",
        -9.477977031190107
      ],
      [
        "▁tank",
        -8.142946209065315
      ],
      [
        "▁nick",
        -10.283691666246552
      ],
      [
        "▁recess",
        -12.18643142590539
      ],
      [
        "n",
        -4.5571833613477795
      ],
      [
        "▁rob",
        -10.956983486534243
      ],
      [
        "▁pun",
        -10.97894000716806
      ],
      [
        "▁patent",
        -10.32376364557061
      ],
      [
        "engin",
        -10.707346606063489
      ],
      [
        "ide",
        -9.660735838609888
      ],
      [
        "▁allow",
        -6.9809427988303
      ],
      [
        "▁genera",
        -10.718299009590837
      ],
      [
        "n",
        -2.150777991036591
      ],
      [
        "_",
        -4.381059370723781
      ],
      [
        "▁com",
        -8.89704595462923
      ],
      [
        "phone",
        -8.54395323145769
      ],
      [
        "▁deep",
        -8.049552933843788
      ],
      [
        "▁size",
        -8.006729527181818
      ],
      [
        "▁feature",
        -8.81552480042373
      ],
      [
        "▁stocking",
        -10.739757010222862
      ],
      [
        "▁back-",
        -12.68800443798343
      ],
      [
        "▁democra",
        -8.226778940271453
      ],
      [
        "▁2:30",
        -8.16650325104902
      ],
      [
        "treat",
        -11.897334852427779
      ],
      [
        "v",
        -9.394206695612269
      ],
      [
        "▁atheis",
        -10.940240792930638
      ],
      [
        "▁mitigate",
        -10.500950075377386
      ],
      [
        "graph",
        -10.46834676024318
      ],
      [
        "▁:",
        -3.3193574782257853
      ],
      [
        "▁intens",
        -8.68512790491527
      ],
      [
        "▁tuck",
        -10.677733780124745
      ],
      [
        "▁qu",
        -12.50059398399214
      ],
      [
        "variation",
        -12.590659151745982
      ],
      [
        "clear",
        -7.514909521601847
      ],
      [
        "▁bri",
        -12.401199450278108
      ],
      [
        "▁ep",
        -9.85341899092866
      ],
      [
        "▁aristocra",
        -11.255359302315538
      ],
      [
        "▁radiomet",
        -11.490939605116107
      ],
      [
        "▁promote",
        -8.608173117278714
      ],
      [
        "saw",
        -9.628910466017137
      ],
      [
        "▁bid",
        -10.296739264629174
      ],
      [
        "▁reg",
        -7.352584032445206
      ],
      [
        "▁amnest",
        -11.77528497868199
      ],
      [
        "▁thrash",
        -11.458880290136792
      ],
      [
        "▁romance",
        -9.946532413621156
      ],
      [
        "▁conjunction",
        -10.939904919764782
      ],
      [
        "ast",
        -11.028986470182964
      ],
      [
        "▁trans",
        -8.86820874021415
      ],
      [
        "▁guarant",
        -10.056324415962928
      ],
      [
        "fly",
        -11.13167680940343
      ],
      [
        "▁d",
        -8.413431136522465
      ],
      [
        "▁seven",
        -5.479252271885461
      ],
      [
        "▁suppress",
        -10.375392385625027
      ],
      [
        "gre",
        -13.570667189848688
      ],
      [
        "▁cata",
        -12.492055162176108
      ],
      [
        "▁echo",
        -10.960030932669547
      ],
      [
        "season",
        -10.585437194596842
      ],
      [
        "r",
        -4.3481861650490226
      ],
      [
        "other",
        -10.901670798031047
      ],
      [
        "nship",
        -11.65326470798209
      ],
      [
        "brace",
        -11.496587035190322
      ],
      [
        "▁centur",
        -7.6909647307402835
      ],
      [
        "▁fool",
        -10.342296721153211
      ],
      [
        "▁wi",
        -9.007041050919739
      ],
      [
        "chor",
        -12.742830563136435
      ],
      [
        "▁for",
        -9.860075519042377
      ],
      [
        "▁crude",
        -10.184019841684396
      ],
      [
        "▁cle",
        -7.327974443364052
      ],
      [
        "▁fixed",
        -7.9833664899746974
      ],
      [
        "▁marke",
        -9.593447865678039
      ],
      [
        "▁tar",
        -10.99855952697752
      ],
      [
        "▁butter",
        -10.375994616189736
      ],
      [
        "l.p",
        -11.316741487319192
      ],
      [
        "▁mill",
        -5.806332795739784
      ],
      [
        "▁rid",
        -9.793526184019463
      ],
      [
        "▁17",
        -11.347858545429844
      ],
      [
        "▁subse",
        -11.958935612102895
      ],
      [
        "▁ooz",
        -10.75961585141122
      ],
      [
        "▁vis",
        -11.537214229573413
      ],
      [
        "▁uv",
        -9.602954807763526
      ],
      [
        "ot",
        -11.887588038704067
      ],
      [
        "▁into",
        -10.412886970497018
      ],
      [
        "ting",
        -6.1285489463278005
      ],
      [
        "▁surprise",
        -8.428916050822538
      ],
      [
        "▁chatt",
        -9.936794027109697
      ],
      [
        "don",
        -8.78903290164332
      ],
      [
        "phon",
        -11.999920874598079
      ],
      [
        "[",
        -6.162592258851914
      ],
      [
        "▁advise",
        -11.818022710763977
      ],
      [
        "▁medi",
        -9.856285689773067
      ],
      [
        "hi",
        -12.445299345801343
      ],
      [
        "save",
        -13.486361535540967
      ],
      [
        "▁cata",
        -11.492329408571035
      ],
      [
        "▁vi",
        -9.86363909990573
      ],
      [
        "▁discipline",
        -9.595971124720432
      ],
      [
        "▁grape",
        -9.044851191725208
      ],
      [
        "▁esp",
        -10.397210483839482
      ],
      [
        "novation",
        -10.6909919155536
      ],
      [
        "▁tha",
        -11.765955222256796
      ],
      [
        "▁***",
        -11.706988063870577
      ],
      [
        "▁gall",
        -13.843124004840256
      ],
      [
        "▁de",
        -6.58338535255037
      ],
      [
        "se",
        -9.772779987905816
      ],
      [
        "▁annoyance",
        -11.77323836146719
      ],
      [
        "▁inspect",
        -10.958776398040069
      ],
      [
        "land",
        -6.085513073209679
      ],
      [
        "▁attract",
        -8.538253893795229
      ],
      [
        "▁ethic",
        -10.527382264317223
      ],
      [
        "ote",
        -12.459040181065431
      ],
      [
        "75",
        -8.014186800193652
      ],
      [
        "eeze",
        -11.129574118051135
      ],
      [
        "▁guardia",
        -8.821842342320574
      ],
      [
        "explorer",
        -8.751335280648977
      ],
      [
        "▁hold",
        -9.186584137048934
      ],
      [
        "▁rec",
        -7.678294893410548
      ],
      [
        "▁pers",
        -11.810106915167326
      ],
      [
        "▁roadway",
        -11.875102768151928
      ],
      [
        "▁russia",
        -7.618708357732328
      ],
      [
        "s",
        -3.9323488869734176
      ],
      [
        "▁miser",
        -10.119213896833822
      ],
      [
        "▁ash",
        -12.282255662360233
      ],
      [
        "▁standard",
        -7.83768209548655
      ],
      [
        "combat",
        -12.620971389779465
      ],
      [
        "▁rom",
        -10.516878182898497
      ],
      [
        "fi",
        -12.123168968083688
      ],
      [
        "friend",
        -12.31464957361396
      ],
      [
        "▁fulfil",
        -11.773251567628488
      ],
      [
        "comic",
        -12.607020027513487
      ],
      [
        "ove",
        -12.538552777945007
      ],
      [
        "▁benefit",
        -8.68921933497451
      ],
      [
        "▁rej",
        -12.370988165240512
      ],
      [
        "▁predator",
        -9.524440736397313
      ],
      [
        "▁hash",
        -10.947717690533505
      ],
      [
        "ster",
        -9.202901616331676
      ],
      [
        "▁niche",
        -11.273939539788575
      ],
      [
        "▁funeral",
        -9.336732878453322
      ],
      [
        "aught",
        -10.940495193021956
      ],
      [
        "tual",
        -7.506818670346741
      ],
      [
        "arie",
        -12.866037228479941
      ],
      [
        "▁pimple",
        -10.180511922937333
      ],
      [
        "ights",
        -10.314675954494126
      ],
      [
        "▁shirt",
        -7.870909627632773
      ],
      [
        "rete",
        -10.089488959079896
      ],
      [
        "w",
        -4.78514370794099
      ],
      [
        "▁connect",
        -7.758087071008227
      ],
      [
        "▁companie",
        -8.25061200480363
      ],
      [
        "▁low",
        -7.220900580056894
      ],
      [
        "▁chlorin",
        -10.951709674491635
      ],
      [
        "▁flie",
        -11.310321640935806
      ],
      [
        "▁dioxi",
        -9.846200101439496
      ],
      [
        "▁alum",
        -12.223865319350196
      ],
      [
        "ckup",
        -12.525657935172479
      ],
      [
        "▁fixture",
        -10.68999553968355
      ],
      [
        "▁premi",
        -11.459660913938746
      ],
      [
        "▁",
        -2.6211102193894833
      ],
      [
        "▁know",
        -10.94028369200102
      ],
      [
        "sses",
        -11.79226023556321
      ],
      [
        "▁id",
        -10.409569129122438
      ],
      [
        "▁ann",
        -8.650325316833385
      ],
      [
        "▁comedie",
        -10.118930437853813
      ],
      [
        "ile",
        -8.951438114684908
      ],
      [
        "a",
        -6.023131457559765
      ],
      [
        "▁crumbl",
        -11.378566987764277
      ],
      [
        "▁think",
        -4.867037107920854
      ],
      [
        "▁begin",
        -7.430154484278814
      ],
      [
        "▁an",
        -9.820616148417278
      ],
      [
        "▁169",
        -8.092316072870691
      ],
      [
        "▁dictators",
        -11.942453590858879
      ],
      [
        "limb",
        -11.562396033390467
      ],
      [
        "ground",
        -9.458215180556058
      ],
      [
        "os",
        -11.136368286481208
      ],
      [
        "▁rus",
        -8.055093971996907
      ],
      [
        "▁prospe",
        -8.745895016024662
      ],
      [
        "b",
        -6.825311492901869
      ],
      [
        "parat",
        -9.354392174201084
      ],
      [
        "▁mound",
        -10.948676682333337
      ],
      [
        "ca",
        -11.587715605017504
      ],
      [
        "▁ups",
        -13.603280558827025
      ],
      [
        "▁cry",
        -8.09243984520767
      ],
      [
        "2",
        -3.9783356324857158
      ],
      [
        "imac",
        -10.56681380357862
      ],
      [
        "ception",
        -11.434093907926414
      ],
      [
        "ingle",
        -7.897197518814679
      ],
      [
        "▁value",
        -7.239929170484043
      ],
      [
        "▁implicate",
        -10.17540080547015
      ],
      [
        "treatment",
        -12.219424733898121
      ],
      [
        "ental",
        -8.75074967060706
      ],
      [
        "▁singular",
        -11.781428620751088
      ],
      [
        "▁med",
        -11.062103876519174
      ],
      [
        ";",
        -11.773238221275866
      ],
      [
        "▁bik",
        -10.979184846619269
      ],
      [
        "▁leadership",
        -9.17990678758106
      ],
      [
        "▁mill",
        -10.474988655358763
      ],
      [
        "urat",
        -10.136081827131886
      ],
      [
        "dain",
        -12.149354860700019
      ],
      [
        "▁occur",
        -8.661361815316441
      ],
      [
        "evi",
        -9.582254520882785
      ],
      [
        "nce",
        -11.781148074928872
      ],
      [
        "y",
        -9.93729819650814
      ],
      [
        "▁map",
        -8.658726957018409
      ],
      [
        "50",
        -7.18634710901155
      ],
      [
        "ension",
        -10.468100378931021
      ],
      [
        "▁tummy",
        -8.782869429642387
      ],
      [
        "▁prepayment",
        -11.273546952938595
      ],
      [
        "ful",
        -10.214173596185605
      ],
      [
        "▁underst",
        -9.122260045145696
      ],
      [
        "strophe",
        -11.880779215604168
      ],
      [
        "▁vh",
        -12.020062161481976
      ],
      [
        "s",
        -3.279426749827511
      ],
      [
        "ins",
        -11.063350019509016
      ],
      [
        "rpent",
        -11.792820859276457
      ],
      [
        "▁pleas",
        -11.767485421958755
      ],
      [
        "▁grade",
        -9.501003494370028
      ],
      [
        "e",
        -9.262538749109531
      ],
      [
        "ensus",
        -11.027856544014611
      ],
      [
        "▁tom",
        -7.1224014349360925
      ],
      [
        "▁mul",
        -11.085265314780166
      ],
      [
        "lay",
        -11.202396336496204
      ],
      [
        "▁inter",
        -8.877684333483774
      ],
      [
        "▁hono",
        -11.280363035328442
      ],
      [
        "ver",
        -10.035555650788583
      ],
      [
        "▁ecolog",
        -11.273205235832263
      ],
      [
        "▁label",
        -10.355302092054442
      ],
      [
        "▁magic",
        -8.88521759434948
      ],
      [
        "ful",
        -5.211743761945356
      ],
      [
        "father",
        -10.269476397881293
      ],
      [
        "▁a",
        -6.484556626444801
      ],
      [
        "udge",
        -11.926042943960152
      ],
      [
        "▁premium",
        -10.055391265071341
      ],
      [
        "▁ensu",
        -12.384733145478862
      ],
      [
        "▁repair",
        -8.430895593068612
      ],
      [
        "▁ec",
        -8.277647629504393
      ],
      [
        "▁seat",
        -10.18696325285451
      ],
      [
        "cca",
        -8.529799121128653
      ],
      [
        "▁beetle",
        -9.75569983778766
      ],
      [
        "pes",
        -12.633499914808512
      ],
      [
        "▁revolution",
        -9.337509000075785
      ],
      [
        "▁vp",
        -12.761535301261624
      ],
      [
        "▁greate",
        -7.738053124962482
      ],
      [
        "▁commemorate",
        -10.625392293112027
      ],
      [
        "▁top",
        -7.426456253009276
      ],
      [
        "11",
        -7.465024666749704
      ],
      [
        "▁acc",
        -8.655995196591189
      ],
      [
        "▁goggle",
        -11.681493745974766
      ],
      [
        "▁fifteen",
        -8.843678852739316
      ],
      [
        "▁whom",
        -8.815811107281924
      ],
      [
        "▁auste",
        -7.882132599740743
      ],
      [
        "▁horizon",
        -10.32327614165981
      ],
      [
        "ate",
        -8.345146874577495
      ],
      [
        "▁liter",
        -10.185323933737983
      ],
      [
        "▁air",
        -6.040813524766777
      ],
      [
        "▁moderni",
        -10.490290434770653
      ],
      [
        "neil",
        -8.745850550132939
      ],
      [
        "gear",
        -12.831521213300446
      ],
      [
        "su",
        -11.878375913385234
      ],
      [
        "▁summer",
        -7.634630922369871
      ],
      [
        "▁formal",
        -12.815714635320056
      ],
      [
        "▁ethn",
        -10.52724873151928
      ],
      [
        "m",
        -8.111314411788435
      ],
      [
        "▁revers",
        -10.315604921411614
      ],
      [
        "tor",
        -12.484019335357505
      ],
      [
        "cast",
        -11.223498300950036
      ],
      [
        "l",
        -4.943432235573655
      ],
      [
        "12",
        -7.695958276144607
      ],
      [
        "▁manipulation",
        -11.273949054418756
      ],
      [
        "▁motivate",
        -10.561331268320581
      ],
      [
        "com",
        -7.229702869451937
      ],
      [
        "▁uni",
        -6.803378237432464
      ],
      [
        "hi",
        -11.63109495670714
      ],
      [
        "crow",
        -12.34839945213356
      ],
      [
        "▁remark",
        -9.758327908940744
      ],
      [
        "▁north",
        -9.000615381126636
      ],
      [
        "tin-",
        -11.90752899576671
      ],
      [
        "ka",
        -7.112857256237041
      ],
      [
        "▁s",
        -12.226333961823995
      ],
      [
        "▁ext",
        -12.681420608363997
      ],
      [
        "voke",
        -10.978590341881706
      ],
      [
        "▁mate",
        -10.34177484414501
      ],
      [
        "_",
        -4.877982745281691
      ],
      [
        "dication",
        -10.637433841108184
      ],
      [
        "nes",
        -10.469360618925062
      ],
      [
        "hes",
        -10.498429360843417
      ],
      [
        "oom",
        -12.189409617663824
      ],
      [
        "round",
        -8.511471382146699
      ],
      [
        "▁principal",
        -10.489904893617577
      ],
      [
        "llen",
        -13.771708789729473
      ],
      [
        "▁equivalen",
        -10.307674049523738
      ],
      [
        "▁possib",
        -10.940131659809238
      ],
      [
        "▁shou",
        -12.445977045388336
      ],
      [
        "▁suffering",
        -9.946225582339899
      ],
      [
        "▁bless",
        -9.745754466589428
      ],
      [
        "▁h",
        -7.208532579738515
      ],
      [
        "bread",
        -10.718329168015483
      ],
      [
        "▁bird",
        -7.368380511516816
      ],
      [
        "▁cigar",
        -10.690107150538008
      ],
      [
        "wa",
        -8.373520427917803
      ],
      [
        "i",
        -11.770631529841472
      ],
      [
        "▁bol",
        -11.513495355136277
      ],
      [
        "▁rattl",
        -12.788269952061171
      ],
      [
        "▁star",
        -7.938153470256906
      ],
      [
        "▁cream",
        -8.591699040273452
      ],
      [
        "ndance",
        -10.710778600456948
      ],
      [
        "▁anyway",
        -6.660623151807425
      ],
      [
        "▁nov",
        -7.369433850379987
      ],
      [
        "ania",
        -8.531460689612445
      ],
      [
        "figure",
        -13.828375359379809
      ],
      [
        "▁steak",
        -9.59544447915474
      ],
      [
        "▁camel",
        -8.239435387422052
      ],
      [
        "formation",
        -6.36703874890915
      ],
      [
        "▁user",
        -7.922769755766023
      ],
      [
        "bald",
        -12.600075602312158
      ],
      [
        "▁arti",
        -8.507847060315108
      ],
      [
        "▁describe",
        -7.515111827897199
      ],
      [
        "▁713-853-3",
        -7.430279499064863
      ],
      [
        "▁he",
        -9.421582144268825
      ],
      [
        "▁will",
        -4.287029515795241
      ],
      [
        "▁complete",
        -7.888096531461802
      ],
      [
        "resume",
        -10.38287400397426
      ],
      [
        "▁surge",
        -10.65013085191778
      ],
      [
        "▁lawyer",
        -9.131838516621936
      ],
      [
        "▁veggie",
        -10.323262569623338
      ],
      [
        "▁sham",
        -9.30032391207691
      ],
      [
        "▁machine",
        -8.206011868546248
      ],
      [
        "▁rang",
        -8.982017603045382
      ],
      [
        "▁polit",
        -8.993206322532291
      ],
      [
        "▁temptation",
        -10.490005258156176
      ],
      [
        "▁democrat",
        -7.7140240841918475
      ],
      [
        "ach",
        -8.246520796673344
      ],
      [
        "als",
        -10.478336053588954
      ],
      [
        "ho",
        -11.734257522352875
      ],
      [
        "▁appea",
        -10.818767504427955
      ],
      [
        "▁18",
        -10.490040035523707
      ],
      [
        "▁classmate",
        -11.276218984803222
      ],
      [
        "rat",
        -9.878870002268075
      ],
      [
        "▁curat",
        -10.862198435187436
      ],
      [
        "omiz",
        -12.458957058640475
      ],
      [
        "▁jo",
        -10.91816752749397
      ],
      [
        "ountain",
        -10.19972729586265
      ],
      [
        "immers",
        -12.576527861697471
      ],
      [
        "▁dra",
        -8.813894255420443
      ],
      [
        "patient",
        -12.45121227698905
      ],
      [
        "cam",
        -9.914933689913788
      ],
      [
        "▁re-w",
        -12.702557170928214
      ],
      [
        "▁shar",
        -10.636594726349811
      ],
      [
        "▁manipulate",
        -10.548907462218708
      ],
      [
        "▁mar",
        -7.471187490731108
      ],
      [
        "▁the",
        -11.09220806935517
      ],
      [
        "▁form",
        -8.023580180085943
      ],
      [
        "▁evi",
        -10.09501951052522
      ],
      [
        "▁typolog",
        -11.77372657486112
      ],
      [
        "▁neat",
        -8.45420339063592
      ],
      [
        "▁part",
        -8.952917255097638
      ],
      [
        "rate",
        -8.26366824356731
      ],
      [
        "▁permission",
        -9.595991818971196
      ],
      [
        "m",
        -5.638120452752572
      ],
      [
        "i",
        -2.7294335593499106
      ],
      [
        "▁cease",
        -10.009110307138279
      ],
      [
        "el",
        -6.640374812380944
      ],
      [
        "▁activate",
        -10.3754018050035
      ],
      [
        "▁authorize",
        -10.18525116997398
      ],
      [
        "▁underpin",
        -12.442626061442082
      ],
      [
        "▁200",
        -4.117685212654388
      ],
      [
        "1",
        -12.707635305583393
      ],
      [
        "trainer",
        -12.084399333889897
      ],
      [
        "roache",
        -12.11842675011021
      ],
      [
        "settl",
        -12.448275392488798
      ],
      [
        "▁plan",
        -8.85260102109582
      ],
      [
        "▁nationalist",
        -11.794457252911762
      ],
      [
        "ind",
        -8.429079748863852
      ],
      [
        "▁ha",
        -8.695616060412586
      ],
      [
        "sing",
        -8.958472041191225
      ],
      [
        "▁odara",
        -8.96592564333121
      ],
      [
        "▁curricul",
        -10.939910578490581
      ],
      [
        "▁wagin",
        -12.32488497244999
      ],
      [
        "▁lack",
        -8.703374223642642
      ],
      [
        "▁sign",
        -7.643620500304603
      ],
      [
        "▁scrape",
        -10.115874190852734
      ],
      [
        "▁p.m",
        -9.466982982983273
      ],
      [
        "▁chef",
        -9.673661517102783
      ],
      [
        "▁dividend",
        -9.3955284958419
      ],
      [
        "▁theft",
        -10.689959669563613
      ],
      [
        "cope",
        -12.385123607411339
      ],
      [
        "ces",
        -10.968096693150724
      ],
      [
        "▁excell",
        -6.7968984467651445
      ],
      [
        "tial",
        -10.178434179688821
      ],
      [
        "▁ho",
        -11.2656895150595
      ],
      [
        "otic",
        -8.9328266601097
      ],
      [
        "germany",
        -8.329197856907077
      ],
      [
        "▁leav",
        -12.48410918871917
      ],
      [
        "▁rebel",
        -9.847770516160706
      ],
      [
        "roma",
        -12.2792343324831
      ],
      [
        "h",
        -10.741453583244953
      ],
      [
        "▁\"",
        -8.960736102532653
      ],
      [
        "centralize",
        -10.625529116693837
      ],
      [
        "▁direction",
        -8.387534300394506
      ],
      [
        "▁partners",
        -9.569835597116983
      ],
      [
        "▁commence",
        -10.625801526851067
      ],
      [
        "▁lexico",
        -11.773243300167046
      ],
      [
        "▁scree",
        -11.768894127902012
      ],
      [
        "▁sup",
        -8.284585673393984
      ],
      [
        "▁bard",
        -11.44802850354491
      ],
      [
        "▁bo",
        -9.572200221460559
      ],
      [
        "▁anne",
        -8.762116569350315
      ],
      [
        "▁color",
        -8.649343940973306
      ],
      [
        "▁limousine",
        -9.395584314467003
      ],
      [
        "y",
        -3.610486443767522
      ],
      [
        "▁pinpoint",
        -11.458798311086086
      ],
      [
        "rough",
        -11.830279435884684
      ],
      [
        "▁sleep",
        -8.215968408048063
      ],
      [
        "▁napkin",
        -9.457822225558646
      ],
      [
        "▁viewer",
        -11.597634646719147
      ],
      [
        "▁bobb",
        -11.45925806723834
      ],
      [
        "olog",
        -9.707837925507434
      ],
      [
        "▁grandma",
        -9.524682707260776
      ],
      [
        "▁application",
        -7.764160325483211
      ],
      [
        "▁co",
        -9.118566844698414
      ],
      [
        "ashe",
        -11.914984101219243
      ],
      [
        "▁juror",
        -11.277313091402572
      ],
      [
        "cient",
        -7.904563397838827
      ],
      [
        "▁pick",
        -11.784344096889036
      ],
      [
        "▁over",
        -8.492208141243934
      ],
      [
        "p",
        -11.810278406305967
      ],
      [
        "▁imper",
        -11.398310537930554
      ],
      [
        "migration",
        -12.301824399210327
      ],
      [
        "competenc",
        -10.406797675054603
      ],
      [
        "ound",
        -5.61124075279864
      ],
      [
        "▁favorite",
        -9.000963066555068
      ],
      [
        "▁yea",
        -3.1381024377751405
      ],
      [
        "▁conc",
        -10.064198965756852
      ],
      [
        "lder",
        -12.563861545225254
      ],
      [
        "▁detail",
        -7.800095227110872
      ],
      [
        "▁gener",
        -8.827935720149044
      ],
      [
        "▁coincid",
        -11.940438844552663
      ],
      [
        "hile",
        -10.90492441912355
      ],
      [
        "traction",
        -10.923792516057338
      ],
      [
        "▁copyright",
        -9.179548440877431
      ],
      [
        "▁evaluat",
        -9.931538360528727
      ],
      [
        "▁cla",
        -9.057634530586615
      ],
      [
        "▁journalis",
        -12.25219584057007
      ],
      [
        "▁conced",
        -13.081601036084693
      ],
      [
        "mele",
        -12.84533008064087
      ],
      [
        "▁woke",
        -8.96938748504948
      ],
      [
        "▁credit",
        -10.1754412401974
      ],
      [
        "▁diamond",
        -11.773287365347645
      ],
      [
        "▁wild",
        -8.003772153127969
      ],
      [
        "ensit",
        -10.064847969622182
      ],
      [
        "▁chatham",
        -8.751374508425112
      ],
      [
        "▁coron",
        -11.301571789976515
      ],
      [
        "beat",
        -11.935551709515126
      ],
      [
        "▁space",
        -8.599297990621825
      ],
      [
        "wait",
        -10.934915171382631
      ],
      [
        "▁steal",
        -9.2840917300488
      ],
      [
        "▁satisf",
        -10.373382612376304
      ],
      [
        "▁tho",
        -9.772827531104559
      ],
      [
        "seller",
        -12.626715726862113
      ],
      [
        "▁go",
        -3.9477519069450997
      ],
      [
        "▁librari",
        -12.182380142751613
      ],
      [
        "▁phrase",
        -11.474682877386758
      ],
      [
        "erland",
        -8.661773685310711
      ],
      [
        "▁ma",
        -7.827685379064292
      ],
      [
        "▁perform",
        -7.9516644364622575
      ],
      [
        "▁inhabit",
        -10.625392670092056
      ],
      [
        "rick",
        -11.28758224537978
      ],
      [
        "▁eyewitness",
        -11.773846202724656
      ],
      [
        "ong",
        -12.729352445636126
      ],
      [
        "file",
        -10.163381259130375
      ],
      [
        "▁undergo",
        -10.378246383432206
      ],
      [
        "▁stable",
        -11.694958492503748
      ],
      [
        "▁center",
        -8.302516580049632
      ],
      [
        "▁accommodat",
        -11.304586043834053
      ],
      [
        "▁limit",
        -8.544266779409964
      ],
      [
        "▁s",
        -4.442212365327625
      ],
      [
        "right",
        -7.391738418087057
      ],
      [
        "▁occupa",
        -11.817452813387312
      ],
      [
        "▁rein",
        -11.500926014350227
      ],
      [
        "▁let",
        -11.708393016759844
      ],
      [
        "▁someon",
        -6.931479858311979
      ],
      [
        "▁perfection",
        -10.909572324210528
      ],
      [
        "▁watch",
        -9.051034090490687
      ],
      [
        "▁stemm",
        -10.971927140284624
      ],
      [
        "▁buffet",
        -10.940449047498609
      ],
      [
        "▁rod",
        -12.014424593116741
      ],
      [
        "▁temp",
        -10.58874342968733
      ],
      [
        "paint",
        -13.511122738670283
      ],
      [
        "secute",
        -12.070799575112392
      ],
      [
        "▁b",
        -6.7872318813053925
      ],
      [
        "▁ship",
        -10.621902681605421
      ],
      [
        "▁chang",
        -8.008629503993417
      ],
      [
        "▁hope",
        -6.850381843185085
      ],
      [
        "▁amus",
        -10.62733728247659
      ],
      [
        "slim",
        -8.763321167049307
      ],
      [
        "▁bec",
        -3.6135778509392047
      ],
      [
        "under",
        -9.182318398461064
      ],
      [
        "urate",
        -12.862025542752724
      ],
      [
        "▁spre",
        -11.92641670941597
      ],
      [
        "▁kent",
        -8.232110235261038
      ],
      [
        "▁outside",
        -11.763898543865697
      ],
      [
        "arking",
        -11.01564333990059
      ],
      [
        "▁little",
        -4.980723849944373
      ],
      [
        "▁mark",
        -8.708657835276194
      ],
      [
        "▁w",
        -9.62899526520846
      ],
      [
        "▁soccer",
        -9.946016880510246
      ],
      [
        "▁jet",
        -10.374902252935996
      ],
      [
        "▁road",
        -7.660813858943145
      ],
      [
        "▁endowment",
        -11.27324267599731
      ],
      [
        "▁woods",
        -10.772050476326667
      ],
      [
        "▁cranberr",
        -11.273256615556773
      ],
      [
        "allow",
        -11.240035021764804
      ],
      [
        "▁roman",
        -11.783881416823453
      ],
      [
        "▁classic",
        -8.242006069632792
      ],
      [
        "lem",
        -11.255469975257057
      ],
      [
        "▁fil",
        -9.460566844549659
      ],
      [
        "red",
        -10.655651802375978
      ],
      [
        "current",
        -12.590322283832256
      ],
      [
        "ty",
        -6.311295321318533
      ],
      [
        "co",
        -7.935002140716888
      ],
      [
        "ran",
        -8.876624449983005
      ],
      [
        "stop",
        -8.066404970105458
      ],
      [
        "ww",
        -11.310312733422174
      ],
      [
        "nver",
        -5.980010193668576
      ],
      [
        "tha",
        -8.930932078915008
      ],
      [
        "▁sow",
        -11.016795788374978
      ],
      [
        "▁fruit",
        -8.753586520270884
      ],
      [
        "propa",
        -12.800824756838917
      ],
      [
        "▁hope",
        -8.979295819010217
      ],
      [
        "▁eco",
        -9.86772981531148
      ],
      [
        "▁den",
        -9.685768327294873
      ],
      [
        "▁oblig",
        -10.174579693673177
      ],
      [
        "promotion",
        -12.582023639194396
      ],
      [
        "▁preach",
        -10.37663299543736
      ],
      [
        "▁shrugg",
        -10.177679289386054
      ],
      [
        "▁propose",
        -7.770609407272636
      ],
      [
        "cize",
        -12.497182688274453
      ],
      [
        "▁love",
        -8.288175869578831
      ],
      [
        "▁love",
        -6.439965781634038
      ],
      [
        "▁petrol",
        -9.847524168365627
      ],
      [
        "▁guerrilla",
        -9.672562777479282
      ],
      [
        "▁barber",
        -10.45601008953249
      ],
      [
        "▁chatte",
        -12.277829330706133
      ],
      [
        "chise",
        -12.65637278882014
      ],
      [
        "▁pros",
        -10.981229712055443
      ],
      [
        "ego",
        -12.783308927038128
      ],
      [
        "▁resort",
        -9.847193577544738
      ],
      [
        "witch",
        -10.982255117539088
      ],
      [
        "▁sec",
        -8.764226674567572
      ],
      [
        "ch",
        -7.364946314041537
      ],
      [
        "▁impact",
        -8.318645166054484
      ],
      [
        "urgenc",
        -11.275232612855968
      ],
      [
        "▁civilization",
        -9.59595390297452
      ],
      [
        "f",
        -7.281137016091158
      ],
      [
        "▁beef",
        -11.53469587900955
      ],
      [
        "▁antenn",
        -12.764453964329087
      ],
      [
        "lots",
        -10.152116019675983
      ],
      [
        "▁rich",
        -11.06378444599295
      ],
      [
        "umption",
        -11.779837078099288
      ],
      [
        "know",
        -8.628820432861549
      ],
      [
        "▁orl",
        -7.425028686840082
      ],
      [
        "▁disgu",
        -10.64398206241502
      ],
      [
        "a",
        -4.730462131174871
      ],
      [
        "&",
        -6.519024570430864
      ],
      [
        "▁clear",
        -7.455924141981425
      ],
      [
        "who",
        -7.94396558235722
      ],
      [
        "ga",
        -13.448203318305282
      ],
      [
        "lyn",
        -8.275928704848374
      ],
      [
        "arth",
        -12.764369862251819
      ],
      [
        "▁feel",
        -6.135129679347383
      ],
      [
        "▁treatise",
        -10.491209799097529
      ],
      [
        "▁valid",
        -10.492933932073017
      ],
      [
        "▁list",
        -5.604972914754906
      ],
      [
        "▁pri",
        -8.425519063319243
      ],
      [
        "▁lymph",
        -11.250495021966438
      ],
      [
        "▁",
        -3.252429650460364
      ],
      [
        "▁pupp",
        -8.718260697530635
      ],
      [
        "om",
        -8.716895599084673
      ],
      [
        "▁minimiz",
        -10.95907359392936
      ],
      [
        "sh",
        -9.032004559723328
      ],
      [
        "▁wean",
        -11.68292621210528
      ],
      [
        "▁occupie",
        -10.015946637038471
      ],
      [
        "equest",
        -12.277197567332975
      ],
      [
        "▁modif",
        -12.775206828720023
      ],
      [
        "▁exchange",
        -9.252106009712
      ],
      [
        "▁blog",
        -10.996635674517613
      ],
      [
        "▁neu",
        -11.912237649069006
      ],
      [
        "▁practise",
        -11.141205338755615
      ],
      [
        "plish",
        -12.559896550755498
      ],
      [
        "▁bab",
        -9.052767950219394
      ],
      [
        "etard",
        -12.64139967331107
      ],
      [
        "nction",
        -12.45949296928865
      ],
      [
        "▁collage",
        -10.691014930926862
      ],
      [
        "▁legit",
        -8.918546563726403
      ],
      [
        "min",
        -11.597313169916276
      ],
      [
        "▁rome",
        -8.145149091002615
      ],
      [
        "▁distinguish",
        -9.556022176177768
      ],
      [
        "▁bio",
        -10.13224263484617
      ],
      [
        "w",
        -6.6555632675067935
      ],
      [
        "▁telescope",
        -10.489963624495255
      ],
      [
        "▁capsule",
        -10.689913912566142
      ],
      [
        "▁away",
        -12.155942261870063
      ],
      [
        "rruption",
        -10.497123241685365
      ],
      [
        "ever",
        -12.565215827436278
      ],
      [
        "▁bid",
        -10.666267492317656
      ],
      [
        "▁pie",
        -11.001291619308509
      ],
      [
        "▁f",
        -6.753051150091313
      ],
      [
        "ip",
        -13.371426654368804
      ],
      [
        "▁barbe",
        -10.407294761714004
      ],
      [
        "si",
        -12.266694468816516
      ],
      [
        "▁charg",
        -10.289108727356956
      ],
      [
        "wn",
        -12.844930175108319
      ],
      [
        "▁pete",
        -8.89243594738301
      ],
      [
        "▁saying",
        -11.298738972057862
      ],
      [
        "▁glim",
        -12.395034258127867
      ],
      [
        "▁warp",
        -10.632310877106509
      ],
      [
        "▁human",
        -8.52102069084375
      ],
      [
        "eakness",
        -11.91568255455304
      ],
      [
        "▁surv",
        -11.466355912081141
      ],
      [
        "▁wars",
        -10.955817208037152
      ],
      [
        "▁marker",
        -10.78695290074634
      ],
      [
        "▁person",
        -6.8024990072017975
      ],
      [
        "▁dolphin",
        -9.185308799073072
      ],
      [
        "▁one",
        -6.966178114737579
      ],
      [
        "ve",
        -6.8879324377722195
      ],
      [
        "▁vowel",
        -11.273302752077784
      ],
      [
        "ide",
        -10.675129494301862
      ],
      [
        "▁jewel",
        -10.49079534458328
      ],
      [
        "▁seem",
        -6.245683384999831
      ],
      [
        "thirtie",
        -12.643974299635047
      ],
      [
        "rtment",
        -11.034628495317413
      ],
      [
        "hour",
        -12.262751661985616
      ],
      [
        "▁ind",
        -8.9686852054047
      ],
      [
        "ogy",
        -12.095553172495606
      ],
      [
        "▁red",
        -6.333813204650047
      ],
      [
        "▁bloc",
        -12.817365628750439
      ],
      [
        "▁kill",
        -7.261076649944989
      ],
      [
        "▁fat",
        -11.69991673082364
      ],
      [
        "carci",
        -12.768250779252472
      ],
      [
        "▁numb",
        -11.269295601869539
      ],
      [
        "laze",
        -10.64229091785613
      ],
      [
        "▁general",
        -6.982809582124102
      ],
      [
        "▁g",
        -7.240861415586581
      ],
      [
        "▁manage",
        -8.279946590380614
      ],
      [
        "acture",
        -12.272289748300917
      ],
      [
        "minute",
        -12.679664917915225
      ],
      [
        "▁suppl",
        -9.413541632949897
      ],
      [
        "▁st",
        -9.70613933354561
      ],
      [
        "▁hippop",
        -10.058104809336061
      ],
      [
        "▁bigge",
        -7.0789892227515505
      ],
      [
        "▁encompass",
        -9.869340368750908
      ],
      [
        "▁matche",
        -10.01697968965513
      ],
      [
        "▁thriv",
        -12.366225331493592
      ],
      [
        "▁parachute",
        -10.689911495539732
      ],
      [
        "subscribe",
        -11.272411559209992
      ],
      [
        "▁expresse",
        -9.135886798223652
      ],
      [
        "ic",
        -8.186328991949019
      ],
      [
        "▁frost",
        -9.756509499499353
      ],
      [
        "mic",
        -10.119714563142718
      ],
      [
        "▁designer",
        -9.768460725518304
      ],
      [
        "$",
        -11.28153641900687
      ],
      [
        "me",
        -9.191639290919905
      ],
      [
        "▁notif",
        -10.048149316979883
      ],
      [
        "▁shut",
        -11.292219699541654
      ],
      [
        "ang",
        -11.968217218409258
      ],
      [
        "▁drain",
        -11.278072146102172
      ],
      [
        "▁candle",
        -9.525306503921104
      ],
      [
        "▁d",
        -8.180990272888579
      ],
      [
        "-fla",
        -10.94560819065029
      ],
      [
        "mma",
        -12.371535482837178
      ],
      [
        "chment",
        -11.071799085310724
      ],
      [
        "▁david",
        -7.478392607824284
      ],
      [
        "▁border",
        -8.54997416462832
      ],
      [
        "grit",
        -10.304572530671429
      ],
      [
        "rigi",
        -7.974450967473273
      ],
      [
        "ending",
        -9.574264776274754
      ],
      [
        "rinkle",
        -12.642876715407418
      ],
      [
        "▁independent",
        -12.088882713110344
      ],
      [
        "rogati",
        -12.049246133460706
      ],
      [
        "lope",
        -8.384813019016756
      ],
      [
        "▁sequence",
        -9.856157374066932
      ],
      [
        "▁hi",
        -8.992582780730016
      ],
      [
        "▁sociolog",
        -12.773221548109786
      ],
      [
        "▁exchang",
        -11.785598940657067
      ],
      [
        "-out",
        -10.94234613801474
      ],
      [
        "▁willow",
        -10.941482876069578
      ],
      [
        "19",
        -7.319368677116859
      ],
      [
        "▁attain",
        -9.869265782222177
      ],
      [
        "▁soliloqu",
        -10.939904888791265
      ],
      [
        "▁municipalit",
        -9.755807491724081
      ],
      [
        "que",
        -8.898310833484867
      ],
      [
        "▁peddle",
        -11.77741458039762
      ],
      [
        "▁vet",
        -8.502265449203383
      ],
      [
        "parti",
        -12.288942360606754
      ],
      [
        "▁satisf",
        -8.522034435067411
      ],
      [
        "▁journalist",
        -10.327943510129254
      ],
      [
        "▁extrem",
        -8.45140807663197
      ],
      [
        "rench",
        -11.755726072079655
      ],
      [
        "▁resu",
        -12.930150293014494
      ],
      [
        "hell",
        -9.286009179105552
      ],
      [
        "vid",
        -10.259031293326384
      ],
      [
        "▁susan",
        -8.47865828678698
      ],
      [
        "▁alphabet",
        -10.180381078520568
      ],
      [
        "▁quiet",
        -7.850034831659617
      ],
      [
        "▁cry",
        -9.686800751579602
      ],
      [
        "eli",
        -12.74357480507091
      ],
      [
        "▁drink",
        -8.003145371128067
      ],
      [
        "▁goal",
        -8.049496679750282
      ],
      [
        "range",
        -12.070470378675669
      ],
      [
        "▁pigs",
        -10.821004818409003
      ],
      [
        "▁vlog",
        -10.008831551294959
      ],
      [
        "▁withdr",
        -10.971242675910345
      ],
      [
        "▁pu",
        -9.421400638928933
      ],
      [
        "▁je",
        -7.994743827829811
      ],
      [
        "▁schedule",
        -8.194398376315426
      ],
      [
        "▁devi",
        -8.71350253465706
      ],
      [
        "▁sixt",
        -10.69072221709317
      ],
      [
        "ilize",
        -11.450836919674167
      ],
      [
        "bie",
        -8.961338916951894
      ],
      [
        "bug",
        -10.529850035436969
      ],
      [
        "▁breath",
        -9.653386112499978
      ],
      [
        "▁locat",
        -10.014799854193837
      ],
      [
        "urrow",
        -12.639934595531358
      ],
      [
        "▁reschedul",
        -11.866910539286835
      ],
      [
        "update",
        -12.410060377239361
      ],
      [
        "wau",
        -6.368985496007431
      ],
      [
        "▁lobby",
        -9.990116878486692
      ],
      [
        "tain",
        -12.538657552488454
      ],
      [
        "▁summari",
        -11.4528639099718
      ],
      [
        "▁desert",
        -9.672355781287827
      ],
      [
        "require",
        -12.842409157302866
      ],
      [
        "▁hisse",
        -10.712794934432027
      ],
      [
        "▁dip",
        -11.248515995065794
      ],
      [
        "▁drums",
        -11.15551395485286
      ],
      [
        "cult",
        -7.993425275938588
      ],
      [
        "▁scar",
        -10.69003828946456
      ],
      [
        "▁dia",
        -12.317408370493688
      ],
      [
        "▁pound",
        -9.689895780214071
      ],
      [
        "duck",
        -11.539571751544008
      ],
      [
        "rust",
        -11.88905127966491
      ],
      [
        "▁formatt",
        -11.499914104187454
      ],
      [
        "vegetarian",
        -11.656944362102298
      ],
      [
        "a",
        -4.130361687978228
      ],
      [
        "tion",
        -9.2525746515375
      ],
      [
        "▁hig",
        -8.65820480611107
      ],
      [
        "▁inform",
        -8.411798429957743
      ],
      [
        "base",
        -12.073956789196732
      ],
      [
        "▁of",
        -5.372005060076645
      ],
      [
        "*",
        -8.693194179626392
      ],
      [
        "eri",
        -8.788140398604256
      ],
      [
        "▁plaintiff",
        -9.75572102943206
      ],
      [
        "▁knock",
        -8.290881246865812
      ],
      [
        "lips",
        -12.449974790514638
      ],
      [
        "▁disclosure",
        -11.774330856488273
      ],
      [
        "▁punch",
        -8.91668404709228
      ],
      [
        "▁dis",
        -9.010239066066248
      ],
      [
        "▁unit",
        -8.15229139751031
      ],
      [
        "▁an",
        -7.614192597341788
      ],
      [
        "▁stripe",
        -10.23625864901136
      ],
      [
        "courage",
        -10.073128387197904
      ],
      [
        "v",
        -8.861028352406292
      ],
      [
        "▁symbol",
        -9.5955631244746
      ],
      [
        "▁mountain",
        -8.278648658838396
      ],
      [
        "▁thr",
        -10.763747459831114
      ],
      [
        "id",
        -7.622788689834058
      ],
      [
        "▁whisper",
        -9.869148079236325
      ],
      [
        "▁convict",
        -10.68804512844265
      ],
      [
        "x3",
        -12.68344863270835
      ],
      [
        "▁misrepresent",
        -11.459214273166037
      ],
      [
        "▁corporation",
        -9.756411178035254
      ],
      [
        "▁cover",
        -8.42704004718843
      ],
      [
        "▁serv",
        -8.487206372820735
      ],
      [
        "▁corn",
        -10.0371943012966
      ],
      [
        "▁mang",
        -11.309723590523355
      ],
      [
        "▁repurpos",
        -11.458979690282659
      ],
      [
        "▁litter",
        -10.071877568296074
      ],
      [
        "▁allot",
        -11.564561919047016
      ],
      [
        "off",
        -9.980675388468486
      ],
      [
        "▁discourag",
        -9.869337980415718
      ],
      [
        "|region",
        -11.773238222769702
      ],
      [
        "mouth",
        -12.07307369990464
      ],
      [
        "▁sonnet",
        -9.457883004910975
      ],
      [
        "credit",
        -12.41133100103179
      ],
      [
        "▁wak",
        -11.00384923393595
      ],
      [
        "o",
        -4.793831298333828
      ],
      [
        "▁compris",
        -11.875318104419444
      ],
      [
        "ph",
        -12.045428740667287
      ],
      [
        "▁bonus",
        -10.324597413645552
      ],
      [
        "▁minist",
        -8.452821465938648
      ],
      [
        "▁land",
        -8.482368756490764
      ],
      [
        "r",
        -3.544374778346116
      ],
      [
        "us",
        -8.503979686221008
      ],
      [
        "inst",
        -6.754258181145743
      ],
      [
        "eth",
        -10.770500466327523
      ],
      [
        "pear",
        -6.908889159747384
      ],
      [
        "struc",
        -13.129423923181898
      ],
      [
        "▁preconception",
        -11.773684629348622
      ],
      [
        "▁feather",
        -9.132554777286956
      ],
      [
        "▁negotiat",
        -12.839523531212363
      ],
      [
        "▁with",
        -3.805476671507483
      ],
      [
        "▁rattle",
        -11.786523565540522
      ],
      [
        "respective",
        -8.98288439913954
      ],
      [
        "▁tosse",
        -10.644474014296277
      ],
      [
        "▁coffee",
        -7.812281557205294
      ],
      [
        "▁fore",
        -12.037865385111909
      ],
      [
        "urs",
        -10.142705409681424
      ],
      [
        "z",
        -7.2273651699969585
      ],
      [
        "▁sight",
        -11.572538019683549
      ],
      [
        "▁option",
        -7.5888642067920555
      ],
      [
        "▁concede",
        -11.67824545245869
      ],
      [
        "lous",
        -11.337348785003538
      ],
      [
        "▁song",
        -7.919251948714502
      ],
      [
        "”",
        -6.5176806785063475
      ],
      [
        "▁obligate",
        -10.960498282584688
      ],
      [
        "ger",
        -8.743162195474664
      ],
      [
        "▁pets",
        -9.658158866399766
      ],
      [
        "▁climate",
        -8.360823258272308
      ],
      [
        "ries",
        -9.01955432984858
      ],
      [
        "hiki",
        -10.47753199537475
      ],
      [
        "▁ultrasound",
        -10.939904889044278
      ],
      [
        "▁beha",
        -12.25109770971995
      ],
      [
        "▁hatch",
        -10.617539123774906
      ],
      [
        "vag",
        -9.365298031937208
      ],
      [
        "▁cane",
        -10.518565084559839
      ],
      [
        "cha",
        -12.363230634629955
      ],
      [
        "▁f",
        -11.570644583811621
      ],
      [
        "▁attack",
        -7.962155350530788
      ],
      [
        "val",
        -10.828108258203471
      ],
      [
        "▁ic",
        -10.754023927858867
      ],
      [
        "▁mod",
        -12.474236121500311
      ],
      [
        "▁survivor",
        -10.693634987945224
      ],
      [
        "▁part",
        -7.809461577601093
      ],
      [
        "▁att",
        -12.543253603304972
      ],
      [
        "▁contact",
        -8.523823833664864
      ],
      [
        "▁result",
        -7.352616072838523
      ],
      [
        "▁period",
        -7.376412354662772
      ],
      [
        "▁spl",
        -11.606906488524203
      ],
      [
        "lish",
        -7.486043090698205
      ],
      [
        "▁lifetime",
        -9.622840199612249
      ],
      [
        "nish",
        -12.416246959708788
      ],
      [
        ":",
        -12.773238221275909
      ],
      [
        "corn",
        -8.961344353775724
      ],
      [
        "ains",
        -12.089062989928191
      ],
      [
        "breed",
        -12.247430085353976
      ],
      [
        "▁atm",
        -8.389393593151295
      ],
      [
        "▁schema",
        -9.229313119302322
      ],
      [
        "▁qui",
        -8.051529079645997
      ],
      [
        "▁lead",
        -7.517633113995592
      ],
      [
        "▁pops",
        -10.528415199395157
      ],
      [
        "▁wor",
        -8.534574165976904
      ],
      [
        "sting",
        -12.827353208911125
      ],
      [
        "▁request",
        -8.139182503322722
      ],
      [
        "▁advance",
        -9.178005789921063
      ],
      [
        "▁deposit",
        -10.37539549684611
      ],
      [
        "▁hib",
        -11.21123149139516
      ],
      [
        "+cr",
        -12.722590487123098
      ],
      [
        "*****",
        -11.55114666431147
      ],
      [
        "disperse",
        -11.008724820229629
      ],
      [
        "▁sti",
        -9.751561540152068
      ],
      [
        "▁short",
        -10.481665591767538
      ],
      [
        "se",
        -5.996840838387731
      ],
      [
        "ulation",
        -10.191006883642558
      ],
      [
        "▁conjecture",
        -11.273238223996177
      ],
      [
        "47",
        -8.088239764492307
      ],
      [
        "other",
        -7.551296391859834
      ],
      [
        "▁generate",
        -8.75601484485504
      ],
      [
        "▁struggle",
        -9.524442463001682
      ],
      [
        "▁pati",
        -12.096696666243304
      ],
      [
        "▁fluid",
        -9.755466248895644
      ],
      [
        "▁her",
        -8.795030697821929
      ],
      [
        "▁o",
        -7.903254943525872
      ],
      [
        "▁hamburger",
        -10.180830883524681
      ],
      [
        "starr",
        -13.185597295394182
      ],
      [
        "▁weari",
        -12.64371836102279
      ],
      [
        "▁migrate",
        -9.78019301592639
      ],
      [
        "▁wil",
        -9.630880269394641
      ],
      [
        "▁raccoon",
        -10.180381658066043
      ],
      [
        "▁inten",
        -10.557065631662253
      ],
      [
        "watt",
        -10.679828815885543
      ],
      [
        "▁somethin",
        -5.952656046882825
      ],
      [
        "ta",
        -12.870745630347082
      ],
      [
        "▁sha",
        -13.23449182350222
      ],
      [
        "▁foundation",
        -9.395631353456388
      ],
      [
        "▁alley",
        -11.229343223213668
      ],
      [
        "ar",
        -7.075727222635783
      ],
      [
        "e",
        -2.93500591455426
      ],
      [
        "shot",
        -12.17553200448917
      ],
      [
        "▁mor",
        -8.800517705931057
      ],
      [
        "▁ramp",
        -10.958758907108562
      ],
      [
        "imon",
        -11.08697098021067
      ],
      [
        "head",
        -8.947415373691765
      ],
      [
        "▁’",
        -11.653797199629468
      ],
      [
        "ione",
        -10.699701126281177
      ],
      [
        "▁rug",
        -8.91425931069318
      ],
      [
        "▁listen",
        -10.760671838221697
      ],
      [
        "▁civ",
        -11.520804513236694
      ],
      [
        "ooz",
        -11.375569077823867
      ],
      [
        "ee",
        -12.636215525118
      ],
      [
        "▁public",
        -9.230118482397986
      ],
      [
        "cular",
        -10.040590490516973
      ],
      [
        "▁mu",
        -10.588931053125789
      ],
      [
        "▁friendship",
        -9.398813903766628
      ],
      [
        "on-in",
        -11.798678390663499
      ],
      [
        "▁young",
        -6.413958168445247
      ],
      [
        "▁rule",
        -7.577576878307023
      ],
      [
        "▁purge",
        -11.465677850565594
      ],
      [
        "▁fores",
        -11.532430247469769
      ],
      [
        "▁beginning",
        -8.45083686555959
      ],
      [
        "▁emiss",
        -11.850867875418679
      ],
      [
        "▁you",
        -12.858193045384432
      ],
      [
        "▁bel",
        -7.316235749878892
      ],
      [
        "▁learner",
        -10.506512044207849
      ],
      [
        "ar",
        -7.063891730229105
      ],
      [
        "▁blade",
        -10.4956702180811
      ],
      [
        "▁ascetic",
        -11.773239846577228
      ],
      [
        "▁oil",
        -7.639418633086981
      ],
      [
        "pre",
        -11.011417415794735
      ],
      [
        "sa",
        -11.322730172469772
      ],
      [
        "▁leav",
        -5.943353927407217
      ],
      [
        "▁polit",
        -11.458842000038688
      ],
      [
        "▁lower",
        -7.7163377428889
      ],
      [
        "▁graveyard",
        -11.773823105213404
      ],
      [
        "▁cluster",
        -10.940164397687605
      ],
      [
        "rie",
        -13.33442496579298
      ],
      [
        "▁posts",
        -10.535376749220147
      ],
      [
        "▁ii",
        -6.7287787636930885
      ],
      [
        "▁wh",
        -8.504649692519411
      ],
      [
        "▁acknowledg",
        -10.550659359353405
      ],
      [
        "assembl",
        -10.055489052232303
      ],
      [
        "▁con",
        -8.71051059422967
      ],
      [
        "▁ventilat",
        -11.273354496833853
      ],
      [
        "▁investor",
        -10.05539232919412
      ],
      [
        "box",
        -12.290534053751443
      ],
      [
        "world",
        -7.306395301944551
      ],
      [
        "▁beg",
        -12.308200751854883
      ],
      [
        "▁30",
        -5.898121181112609
      ],
      [
        "▁spou",
        -11.578434170439666
      ],
      [
        "▁soph",
        -11.70969277433867
      ],
      [
        "▁batt",
        -12.215961505890357
      ],
      [
        "▁royal",
        -8.347712921284831
      ],
      [
        "h-",
        -8.278533145245685
      ],
      [
        "▁sho",
        -9.788138745911603
      ],
      [
        "kes",
        -10.464549471681398
      ],
      [
        "▁dignitar",
        -10.495023906204235
      ],
      [
        "▁hi",
        -5.3515630451182075
      ],
      [
        "git",
        -9.948719806352736
      ],
      [
        "▁instruction",
        -8.850960226055115
      ],
      [
        "▁licens",
        -9.315678751182705
      ],
      [
        "camp",
        -12.386170711721451
      ],
      [
        "rop",
        -12.288829574961698
      ],
      [
        "bed",
        -11.662107633003252
      ],
      [
        "▁takeoff",
        -10.490029004863286
      ],
      [
        "clamation",
        -10.706818521394599
      ],
      [
        "▁mood",
        -9.760497877707738
      ],
      [
        "day",
        -7.523400618805456
      ],
      [
        "▁deli",
        -8.933498924876666
      ],
      [
        "ver",
        -9.445832164934295
      ],
      [
        "▁bas",
        -10.268062864704019
      ],
      [
        "▁embar",
        -9.850676065097934
      ],
      [
        "▁practis",
        -11.919727968606594
      ],
      [
        "▁invita",
        -12.779531189630527
      ],
      [
        "mind",
        -12.46290592536144
      ],
      [
        "▁dispatch",
        -10.625392605441588
      ],
      [
        "uck",
        -10.897407929675136
      ],
      [
        "▁extinction",
        -10.323238294046195
      ],
      [
        "ba",
        -13.591742627784996
      ],
      [
        "introduce",
        -10.850332213879803
      ],
      [
        "ings",
        -10.153254184681437
      ],
      [
        "read",
        -5.745973914349878
      ],
      [
        "▁amuse",
        -10.337933770275416
      ],
      [
        "▁sent",
        -7.317329916154069
      ],
      [
        "▁implement",
        -8.187586598347401
      ],
      [
        "▁pilgrimage",
        -10.49093733227267
      ],
      [
        "▁prof",
        -12.685602452133478
      ],
      [
        "▁one",
        -5.7988221313869515
      ],
      [
        "▁anyt",
        -9.69390092057212
      ],
      [
        "fresh",
        -10.56499164930568
      ],
      [
        "▁refuge",
        -11.691238759325921
      ],
      [
        "▁admitt",
        -9.049564673083047
      ],
      [
        "▁wav",
        -9.772682585420625
      ],
      [
        "▁phy",
        -12.008378954029116
      ],
      [
        "mor",
        -11.508306938844667
      ],
      [
        "▁scrambl",
        -10.842858263543656
      ],
      [
        "laborat",
        -8.9054204932505
      ],
      [
        "▁9",
        -5.844827498647502
      ],
      [
        "▁wail",
        -10.765240434870135
      ],
      [
        "▁ads",
        -11.723056413368667
      ],
      [
        "▁else",
        -6.193820371878903
      ],
      [
        "▁asse",
        -12.008168399490946
      ],
      [
        "▁enlist",
        -10.9969374931334
      ],
      [
        "▁s",
        -8.496574491134886
      ],
      [
        "k",
        -12.28153641900687
      ],
      [
        "▁",
        -1.429224151881007
      ],
      [
        "add",
        -11.331096065203447
      ],
      [
        "at",
        -8.4133584430589
      ],
      [
        "rug",
        -11.957277039262102
      ],
      [
        "inst",
        -8.782413885317776
      ],
      [
        "▁distortion",
        -9.846482767852912
      ],
      [
        "****************",
        -9.642473869126556
      ],
      [
        "include",
        -12.471714646082704
      ],
      [
        "▁tast",
        -10.159301268178474
      ],
      [
        "▁dissolv",
        -11.75640894811475
      ],
      [
        "▁west",
        -7.364491912356218
      ],
      [
        "▁ker",
        -12.79710823751579
      ],
      [
        "▁tell",
        -12.426649796814045
      ],
      [
        "▁gon",
        -5.350338757148288
      ],
      [
        "nter",
        -11.454348008674199
      ],
      [
        "▁sun",
        -7.9735761760434904
      ],
      [
        "w",
        -8.6748208709817
      ],
      [
        "wi",
        -8.362087501052017
      ],
      [
        "▁unde",
        -13.064626432736471
      ],
      [
        "▁mi",
        -10.584066668701825
      ],
      [
        "▁disabilit",
        -9.67445379532555
      ],
      [
        "▁sheikh",
        -11.27627479604394
      ],
      [
        "▁ame",
        -7.447810755203394
      ],
      [
        "▁terrorist",
        -8.894776890349846
      ],
      [
        "▁tumbl",
        -10.401256496060585
      ],
      [
        "▁blink",
        -11.816143123733198
      ],
      [
        "▁nan",
        -7.964227468859433
      ],
      [
        "▁endure",
        -10.262424684064626
      ],
      [
        "▁collaps",
        -10.745363384409876
      ],
      [
        "▁notify",
        -9.870591608504503
      ],
      [
        "ident",
        -8.330886959715489
      ],
      [
        "e",
        -2.2184347982162924
      ],
      [
        "▁black",
        -6.4204126115163564
      ],
      [
        "▁function",
        -8.725876109432033
      ],
      [
        "▁leave",
        -5.929274021604734
      ],
      [
        "▁chemist",
        -11.246838150250724
      ],
      [
        "▁stro",
        -11.773691908496527
      ],
      [
        "iction",
        -9.528070683987698
      ],
      [
        "attack",
        -11.90222450250149
      ],
      [
        "▁plott",
        -10.635998005245568
      ],
      [
        "tamus",
        -10.065696029872896
      ],
      [
        "▁wander",
        -8.971707719183435
      ],
      [
        "▁artifact",
        -11.773433528280439
      ],
      [
        "▁determine",
        -8.031306582582058
      ],
      [
        "▁bangladesh",
        -8.88934859970136
      ],
      [
        "▁task",
        -8.404413634962584
      ],
      [
        "tiation",
        -10.74064196558383
      ],
      [
        "▁appreciate",
        -8.071396535783002
      ],
      [
        "▁appe",
        -13.828885682502568
      ],
      [
        "▁fre",
        -13.213851509105357
      ],
      [
        "▁impr",
        -9.640881819993131
      ],
      [
        "lord",
        -9.68013819354773
      ],
      [
        "▁park",
        -9.212673940397465
      ],
      [
        "en",
        -7.180907493805097
      ],
      [
        "chi",
        -12.645108236783058
      ],
      [
        "▁pas",
        -9.450354227733728
      ],
      [
        ".s.",
        -10.537176216401514
      ],
      [
        "▁blind",
        -8.740435884048367
      ],
      [
        "igh",
        -5.036196688107231
      ],
      [
        "▁ro",
        -8.412282529634119
      ],
      [
        "▁badger",
        -11.82539849587145
      ],
      [
        "develop",
        -11.767974831596646
      ],
      [
        "0",
        -3.7401553914094876
      ],
      [
        "igation",
        -11.001319697107116
      ],
      [
        "call",
        -11.523315542197565
      ],
      [
        "▁exper",
        -12.479414384181714
      ],
      [
        "ocks",
        -11.626121840897909
      ],
      [
        "be",
        -8.597054455590968
      ],
      [
        "▁notice",
        -8.718714541371739
      ],
      [
        "▁regular",
        -11.774164640520674
      ],
      [
        "▁im",
        -8.148807457189191
      ],
      [
        "affl",
        -11.308503540729406
      ],
      [
        "biolog",
        -12.657118679332996
      ],
      [
        "▁metabol",
        -11.773304098229483
      ],
      [
        "articula",
        -12.734017673305063
      ],
      [
        "▁diminishe",
        -11.401929017292398
      ],
      [
        "▁services",
        -7.915552815076071
      ],
      [
        "▁key",
        -8.14409345474584
      ],
      [
        "▁fine",
        -9.17096915012598
      ],
      [
        "▁squeal",
        -10.940095678174995
      ],
      [
        "iness",
        -8.808071671605024
      ],
      [
        "▁section",
        -7.9725481672482905
      ],
      [
        "▁pyramid",
        -9.946104784255317
      ],
      [
        "▁like",
        -4.758550093217762
      ],
      [
        "member",
        -12.458364749258187
      ],
      [
        "nflict",
        -12.45874977939263
      ],
      [
        "washington",
        -5.483093196241167
      ],
      [
        "▁cu",
        -11.51836234323078
      ],
      [
        "exica",
        -8.20624673493705
      ],
      [
        "▁offering",
        -10.979438205713418
      ],
      [
        "▁inherit",
        -10.175392321062581
      ],
      [
        "▁commentar",
        -10.122500482625712
      ],
      [
        "▁skat",
        -11.597937283101178
      ],
      [
        "▁300",
        -7.502618103561707
      ],
      [
        "▁guide",
        -10.114764973786704
      ],
      [
        "▁11/29/",
        -8.077802986029326
      ],
      [
        "▁rat",
        -8.197304579622816
      ],
      [
        "apri",
        -7.848198512512113
      ],
      [
        "▁inspire",
        -8.503818338936204
      ],
      [
        "▁kill",
        -11.729275017873913
      ],
      [
        "▁pest",
        -10.341141848931654
      ],
      [
        "tub",
        -10.435599894709258
      ],
      [
        "life",
        -9.071346437163726
      ],
      [
        "▁loi",
        -11.000486754207838
      ],
      [
        "▁mission",
        -8.85265798037913
      ],
      [
        "▁claw",
        -10.191752632746617
      ],
      [
        "role",
        -10.866464824074932
      ],
      [
        "▁part",
        -8.781281502187037
      ],
      [
        "able",
        -4.583743775946479
      ],
      [
        "▁breakthrough",
        -10.68990492149282
      ],
      [
        "and",
        -11.615784065258993
      ],
      [
        "▁their",
        -5.253175569214527
      ],
      [
        "▁sa",
        -7.430530327026167
      ],
      [
        "▁graduat",
        -10.44486437396971
      ],
      [
        "▁clu",
        -11.176788378945533
      ],
      [
        "felines.",
        -12.073326483198473
      ],
      [
        "▁allocate",
        -9.462375263949822
      ],
      [
        "cup",
        -11.247449447933134
      ],
      [
        "fur",
        -12.709947412363052
      ],
      [
        "▁blo",
        -10.860188715447187
      ],
      [
        "▁surpris",
        -10.71640502089398
      ],
      [
        "hit",
        -11.206993563003529
      ],
      [
        "imi",
        -13.017380523148923
      ],
      [
        "▁exterminat",
        -11.273607935360294
      ],
      [
        "▁um",
        -3.615304440315332
      ],
      [
        "edication",
        -10.821843088836093
      ],
      [
        "▁questionnaire",
        -10.180384258726692
      ],
      [
        "▁balance",
        -8.631981310546628
      ],
      [
        "▁poss",
        -8.399882209420213
      ],
      [
        "▁sum",
        -9.61874223105992
      ],
      [
        "▁monarch",
        -10.055433318994334
      ],
      [
        "▁cost",
        -7.911166214463438
      ],
      [
        "i",
        -6.532200686243057
      ],
      [
        "▁bridge",
        -8.75398924963226
      ],
      [
        "▁tick",
        -11.448733902089998
      ],
      [
        "▁want",
        -4.408770320777205
      ],
      [
        "▁voca",
        -11.965421001011716
      ],
      [
        "▁roa",
        -10.841491438448607
      ],
      [
        "▁award",
        -8.96713422943199
      ],
      [
        "▁dis",
        -7.779627130490185
      ],
      [
        "anger",
        -9.947755313633479
      ],
      [
        "lism",
        -11.094234664412356
      ],
      [
        "▁extremist",
        -10.057109123151896
      ],
      [
        "▁ip",
        -8.33862642892695
      ],
      [
        "▁gi",
        -8.425954860333402
      ],
      [
        "▁begg",
        -12.421529590555068
      ],
      [
        "▁stru",
        -12.475087327646378
      ],
      [
        "▁sub",
        -9.659288312934274
      ],
      [
        "▁ac",
        -9.81053232424702
      ],
      [
        "▁reflection",
        -9.672665978009473
      ],
      [
        "▁phone",
        -10.678461662260656
      ],
      [
        "▁sled",
        -10.936614875416424
      ],
      [
        "-fou",
        -12.822576378006335
      ],
      [
        "sphere",
        -8.28516894859234
      ],
      [
        "▁occupation",
        -9.228976422796881
      ],
      [
        "▁broth",
        -10.92349729486354
      ],
      [
        "▁nap",
        -9.291697745398691
      ],
      [
        "▁non",
        -7.694218461362328
      ],
      [
        "▁wonder",
        -9.946159596758061
      ],
      [
        "▁earl",
        -7.23689365952583
      ],
      [
        "▁export",
        -9.749730464864463
      ],
      [
        "▁tip",
        -9.744051507668884
      ],
      [
        "▁boil",
        -9.868877784661217
      ],
      [
        "▁gla",
        -10.500243206036426
      ],
      [
        "-general",
        -12.773008520250166
      ],
      [
        "▁guide",
        -9.629260306142
      ],
      [
        "▁gno",
        -12.841816047598217
      ],
      [
        "itin",
        -11.41111184505871
      ],
      [
        "ivid",
        -9.474438904478921
      ],
      [
        "mitt",
        -11.02067611614921
      ],
      [
        "▁trai",
        -11.585449978602044
      ],
      [
        "▁circula",
        -10.689153841925204
      ],
      [
        "▁who",
        -12.524830317836772
      ],
      [
        "▁dealership",
        -10.180968943307139
      ],
      [
        "▁ammoni",
        -11.273803189313293
      ],
      [
        "▁popul",
        -11.854595868702514
      ],
      [
        "▁examin",
        -11.784356521932777
      ],
      [
        "▁plat",
        -11.923703433550228
      ],
      [
        "▁jose",
        -7.136417013466548
      ],
      [
        "▁other",
        -7.576741142511908
      ],
      [
        "▁retrac",
        -11.478965508285114
      ],
      [
        "commend",
        -11.023464042184457
      ],
      [
        "▁st",
        -8.887894830876608
      ],
      [
        "▁yield",
        -9.868829274536594
      ],
      [
        "ibrate",
        -12.459006695059669
      ],
      [
        "▁boast",
        -10.008850755536388
      ],
      [
        "▁motivation",
        -9.846724417205294
      ],
      [
        "▁cur",
        -7.133100595910538
      ],
      [
        "▁royal",
        -10.952160412278497
      ],
      [
        "▁acce",
        -8.604468527233852
      ],
      [
        "▁rename",
        -10.628866428241622
      ],
      [
        "ct",
        -8.657546139744671
      ],
      [
        "▁declin",
        -10.48108522121559
      ],
      [
        "▁agreement",
        -7.49218062964989
      ],
      [
        "▁keyword",
        -11.276658575846552
      ],
      [
        "@",
        -8.595300215537408
      ],
      [
        "▁carbon",
        -9.17902766275369
      ],
      [
        "▁passport",
        -9.524490197916746
      ],
      [
        "spot",
        -11.258670170356902
      ],
      [
        "02",
        -10.723611256071086
      ],
      [
        "▁what",
        -4.999866406006407
      ],
      [
        "▁butt",
        -9.669410054379068
      ],
      [
        "▁nash",
        -7.304755279242284
      ],
      [
        "▁happen",
        -6.116530046231469
      ],
      [
        "oid",
        -12.742778687099365
      ],
      [
        "▁pause",
        -10.184120723110393
      ],
      [
        "▁booking",
        -10.525755211985404
      ],
      [
        "▁fringe",
        -10.947596838549135
      ],
      [
        "▁t",
        -7.45890416965616
      ],
      [
        "▁i",
        -10.479643150831816
      ],
      [
        "▁mold",
        -11.49275833530657
      ],
      [
        "▁wrapp",
        -9.752387019018233
      ],
      [
        "pull",
        -12.629878531285032
      ],
      [
        "▁confi",
        -10.375219821549665
      ],
      [
        "▁ice",
        -8.430415444279935
      ],
      [
        "nishment",
        -11.934120925171475
      ],
      [
        "hen",
        -10.440661133426483
      ],
      [
        "▁michel",
        -8.265115224951735
      ],
      [
        "▁facilitate",
        -9.255807223988535
      ],
      [
        "▁glance",
        -10.056443009813986
      ],
      [
        "ile",
        -10.007278869594199
      ],
      [
        "sumption",
        -9.02399934394959
      ],
      [
        "italia",
        -11.735186664410332
      ],
      [
        "▁gri",
        -11.746012200441578
      ],
      [
        "▁man",
        -8.23518380972309
      ],
      [
        "the",
        -10.76682349143477
      ],
      [
        "▁no",
        -8.902092130890027
      ],
      [
        "▁squ",
        -8.326113570937757
      ],
      [
        "do",
        -10.475990094613868
      ],
      [
        "ow",
        -7.732974782451942
      ],
      [
        "▁leopard",
        -11.307595861501229
      ],
      [
        "rais",
        -12.561962501913204
      ],
      [
        "▁area",
        -6.597397996189123
      ],
      [
        "venge",
        -10.675728166569105
      ],
      [
        "▁reinter",
        -12.46085937919089
      ],
      [
        "▁eb",
        -8.179068457308862
      ],
      [
        "brace",
        -12.10403301571309
      ],
      [
        "▁sense",
        -11.184044833454122
      ],
      [
        "▁ailment",
        -11.27375959133466
      ],
      [
        "▁tape",
        -9.659539614078284
      ],
      [
        "▁thr",
        -12.555562656865234
      ],
      [
        "▁restriction",
        -8.782347040449988
      ],
      [
        "▁oliv",
        -8.129470840178247
      ],
      [
        "▁paraphrase",
        -10.95872595269444
      ],
      [
        "▁thi",
        -5.276488441522117
      ],
      [
        "rd",
        -10.821592767998958
      ],
      [
        "▁dr",
        -10.93701680339682
      ],
      [
        "▁c",
        -6.6034518843487735
      ],
      [
        "▁expressionist",
        -11.778216474614371
      ],
      [
        "emic",
        -7.797785240550301
      ],
      [
        "hu",
        -7.662703892624274
      ],
      [
        "stil",
        -8.348057439792251
      ],
      [
        "▁holocaust",
        -11.773238222073918
      ],
      [
        "▁vis",
        -9.86798475806178
      ],
      [
        "▁mia",
        -8.74755015938582
      ],
      [
        "duct",
        -12.4557090145683
      ],
      [
        "▁stu",
        -7.8063665800430275
      ],
      [
        "▁fac",
        -8.919032331187946
      ],
      [
        "timo",
        -7.16909419236067
      ],
      [
        "done",
        -6.783452192464883
      ],
      [
        "▁streamline",
        -10.625474192704562
      ],
      [
        "▁prow",
        -11.867951594156175
      ],
      [
        "▁snitch",
        -9.04236582073256
      ],
      [
        "▁800",
        -7.735225124743468
      ],
      [
        "▁form",
        -9.59344289641272
      ],
      [
        "▁worth",
        -7.288217349982408
      ],
      [
        "▁pat",
        -9.725074414644574
      ],
      [
        "n",
        -6.787400811697189
      ],
      [
        "▁hang",
        -10.338120654194647
      ],
      [
        "▁bla",
        -11.385624851889098
      ],
      [
        "▁par",
        -8.955352051088164
      ],
      [
        "▁skitt",
        -10.99887532104484
      ],
      [
        "▁justify",
        -10.176005862372051
      ],
      [
        "▁our",
        -5.4680531288304906
      ],
      [
        "couple",
        -10.374732676089252
      ],
      [
        "▁bankruptc",
        -10.689904918353994
      ],
      [
        "el",
        -7.571730869574103
      ],
      [
        "▁broc",
        -10.589481296168598
      ],
      [
        "▁jur",
        -10.434258648377964
      ],
      [
        "▁gel",
        -9.476361560586705
      ],
      [
        "▁s",
        -9.170725578216292
      ],
      [
        "▁fum",
        -11.747691928684898
      ],
      [
        "▁limes",
        -12.76873705625557
      ],
      [
        "▁spectacle",
        -11.273238750953123
      ],
      [
        "▁wheel",
        -8.360626001869564
      ],
      [
        "side",
        -6.036964273039711
      ],
      [
        "▁177",
        -7.499662890905288
      ],
      [
        "▁accommodation",
        -9.672710786721364
      ],
      [
        "nd",
        -12.030856372203957
      ],
      [
        "ked",
        -8.653914115640674
      ],
      [
        "▁obtain",
        -8.438158095999771
      ],
      [
        "mmuni",
        -11.770028485019015
      ],
      [
        "mes",
        -12.74297827677848
      ],
      [
        "later",
        -8.521443765527096
      ],
      [
        "▁rabbit",
        -8.368219171151392
      ],
      [
        "f",
        -2.4516511753350763
      ],
      [
        "▁_______",
        -11.336214334389922
      ],
      [
        "▁zi",
        -12.41515420165874
      ],
      [
        "escribe",
        -13.198544643280986
      ],
      [
        "▁wi",
        -9.738985621310073
      ],
      [
        "▁questions",
        -7.355142665054218
      ],
      [
        "▁boot",
        -8.41034997564369
      ],
      [
        "▁arrive",
        -6.5620105120516685
      ],
      [
        "▁snor",
        -11.033034083448028
      ],
      [
        "▁plate",
        -8.45662093362909
      ],
      [
        "▁quarto",
        -11.277569390243027
      ],
      [
        "▁para",
        -9.757925177699484
      ],
      [
        "▁rack",
        -10.378642764134646
      ],
      [
        "▁arme",
        -8.73135390496645
      ],
      [
        "▁3.",
        -7.874861696343272
      ],
      [
        "±",
        -11.925660239071421
      ],
      [
        "commission",
        -11.900860491849665
      ],
      [
        "▁procedure",
        -8.45083740779557
      ],
      [
        "▁performer",
        -10.9439942762294
      ],
      [
        "lope",
        -11.75660273551041
      ],
      [
        "-smoker",
        -12.519668957803113
      ],
      [
        "▁coron",
        -8.633610201503403
      ],
      [
        "▁clim",
        -12.467690259042431
      ],
      [
        "pott",
        -11.28461293256926
      ],
      [
        "▁disti",
        -11.998959714735353
      ],
      [
        "▁consider",
        -6.853368035562674
      ],
      [
        "c",
        -4.327503421637194
      ],
      [
        "▁spin",
        -9.968969027101275
      ],
      [
        "ood",
        -9.143526128380993
      ],
      [
        "fume",
        -12.496851696318409
      ],
      [
        "▁thom",
        -7.741847624622862
      ],
      [
        "▁stroll",
        -9.74491030800285
      ],
      [
        "▁immigra",
        -9.88461925695492
      ],
      [
        "▁shop-",
        -11.80168543927914
      ],
      [
        "▁go",
        -8.891681579650308
      ],
      [
        "▁qui",
        -11.267186778771665
      ],
      [
        "▁hu",
        -10.079273247945817
      ],
      [
        "▁vapo",
        -12.798584133353703
      ],
      [
        "▁drap",
        -10.660136035185975
      ],
      [
        "enth",
        -7.251062652065433
      ],
      [
        "initi",
        -8.114636936740103
      ],
      [
        "▁runn",
        -11.117947958365233
      ],
      [
        "▁brown",
        -7.829387611527569
      ],
      [
        "▁div",
        -11.182849954654435
      ],
      [
        "igger",
        -12.637533982027973
      ],
      [
        "mi",
        -10.325189490361732
      ],
      [
        "▁piece",
        -6.944219027575141
      ],
      [
        "▁slide",
        -9.233569351882235
      ],
      [
        "1/2",
        -7.788382416935127
      ],
      [
        "▁conflict",
        -10.625433580788764
      ],
      [
        "▁current",
        -10.072452180031982
      ],
      [
        "▁fac",
        -12.158793343620426
      ],
      [
        "▁arrow",
        -9.096790134695848
      ],
      [
        "▁bartender",
        -10.689909415387747
      ],
      [
        "uh",
        -11.526855385807533
      ],
      [
        "▁reinforce",
        -10.457313139922562
      ],
      [
        "▁square",
        -10.310841897119051
      ],
      [
        "ge",
        -10.770099656260387
      ],
      [
        "▁manufactur",
        -10.884454600188473
      ],
      [
        "_",
        -4.384580076550113
      ],
      [
        "▁homeopath",
        -9.946289517757037
      ],
      [
        "5",
        -10.310817217390536
      ],
      [
        "▁vi",
        -7.775419079759793
      ],
      [
        "▁156",
        -7.879850703654892
      ],
      [
        "▁speaker",
        -9.097900355881205
      ],
      [
        "▁award",
        -9.340104188335406
      ],
      [
        "screen",
        -11.56084472085142
      ],
      [
        "$",
        -2.9390045157878646
      ],
      [
        "▁conta",
        -12.387807234349207
      ],
      [
        "equen",
        -12.777063618927844
      ],
      [
        "▁drugs",
        -9.93667164486543
      ],
      [
        "▁connection",
        -7.631412726336608
      ],
      [
        "▁cupcake",
        -8.885688168441355
      ],
      [
        "▁argument",
        -8.36090498152852
      ],
      [
        "ut",
        -10.337520946372628
      ],
      [
        "▁haircut",
        -9.595821595975401
      ],
      [
        "▁shav",
        -11.891973925834867
      ],
      [
        "▁w",
        -7.8558131531461175
      ],
      [
        "▁salt",
        -10.992250626746955
      ],
      [
        "ply",
        -11.483764796043221
      ],
      [
        "▁anger",
        -10.96032010950291
      ],
      [
        "▁abid",
        -12.202613383479726
      ],
      [
        "▁loud",
        -7.8529762343329175
      ],
      [
        "▁select",
        -8.188532584885873
      ],
      [
        "▁theropod",
        -10.180381080663253
      ],
      [
        "▁onward",
        -9.984030979745938
      ],
      [
        "▁03",
        -7.814221325841951
      ],
      [
        "▁river",
        -8.379756155037423
      ],
      [
        "▁glo",
        -10.685097334673168
      ],
      [
        "te",
        -8.429510150872153
      ],
      [
        "▁froggie",
        -10.952362536328597
      ],
      [
        "▁julie",
        -8.714252839677888
      ],
      [
        "eeth",
        -8.56745057088367
      ],
      [
        "▁h",
        -8.021081495851849
      ],
      [
        "▁prev",
        -7.890641534688376
      ],
      [
        "emur",
        -10.667469321015632
      ],
      [
        "lo",
        -13.426031748043666
      ],
      [
        "▁finger",
        -7.613717254014351
      ],
      [
        "▁swing",
        -9.183476741607898
      ],
      [
        "o",
        -4.218861851373661
      ],
      [
        "provide",
        -11.59144047937026
      ],
      [
        "▁29",
        -8.166073419679805
      ],
      [
        "oodle",
        -9.717468420174638
      ],
      [
        "crimin",
        -12.674812544105603
      ],
      [
        "▁fem",
        -8.086254267535903
      ],
      [
        "▁histor",
        -7.513289980217617
      ],
      [
        "▁expel",
        -11.430241963641313
      ],
      [
        "--------------",
        -9.810432193692524
      ],
      [
        "▁yawn",
        -10.008741128442212
      ],
      [
        "▁eng",
        -10.16738998345967
      ],
      [
        "ray",
        -11.01421670100105
      ],
      [
        "▁timber",
        -11.281601153893295
      ],
      [
        "▁s",
        -6.320466937627674
      ],
      [
        "▁jihad",
        -10.3171177874839
      ],
      [
        "▁show",
        -7.720672780257837
      ],
      [
        "▁breast",
        -9.179572853896584
      ],
      [
        "▁polluter",
        -11.299562700281038
      ],
      [
        "▁glu",
        -12.376540091968469
      ],
      [
        "▁not",
        -9.962454232860741
      ],
      [
        "▁gor",
        -8.703482579753471
      ],
      [
        "aith",
        -10.199299612483196
      ],
      [
        "▁tombs",
        -11.798663778317717
      ],
      [
        "▁inn",
        -11.698303575911535
      ],
      [
        "ial",
        -10.467065476055287
      ],
      [
        "▁limit",
        -7.785937892310746
      ],
      [
        "▁alleg",
        -11.774789623181194
      ],
      [
        "ble",
        -5.978990578455024
      ],
      [
        "▁portfolio",
        -11.773818677446846
      ],
      [
        "w",
        -5.491188161949157
      ],
      [
        "▁sick",
        -7.475486946130546
      ],
      [
        "▁spec",
        -10.088537446578203
      ],
      [
        "▁ravine",
        -11.27325504398252
      ],
      [
        "plicate",
        -11.496529027374391
      ],
      [
        "▁pay",
        -6.894095309609328
      ],
      [
        "▁dragg",
        -9.154571963846962
      ],
      [
        "cover",
        -11.475198742153324
      ],
      [
        "inke",
        -13.06793881711881
      ],
      [
        "▁cur",
        -10.196329548782407
      ],
      [
        "▁loan",
        -8.40726292738462
      ],
      [
        "anc",
        -12.681169417830905
      ],
      [
        "▁defen",
        -8.899932293548668
      ],
      [
        "▁wrongdo",
        -10.48994210198003
      ],
      [
        "▁sofa",
        -10.181919384884004
      ],
      [
        "nishe",
        -10.790355235814502
      ],
      [
        "▁death",
        -7.31387149606776
      ],
      [
        "▁north",
        -8.50620785573341
      ],
      [
        "ve",
        -9.267813616069546
      ],
      [
        "reside",
        -11.886946446749626
      ],
      [
        "▁fla",
        -11.820368485465849
      ],
      [
        "▁nur",
        -12.368692105626257
      ],
      [
        "skat",
        -11.416433829534629
      ],
      [
        "positi",
        -10.057443878212856
      ],
      [
        "▁su",
        -7.154235015193979
      ],
      [
        "▁12",
        -5.2458269485953
      ],
      [
        "▁alway",
        -5.519820572217112
      ],
      [
        "chrom",
        -12.671840346633468
      ],
      [
        "▁clear",
        -11.284198656220008
      ],
      [
        "shion",
        -9.414329984004457
      ],
      [
        "eport",
        -11.428827932357395
      ],
      [
        "▁horse",
        -7.04022713189427
      ],
      [
        "▁repai",
        -10.436088343845945
      ],
      [
        "▁out",
        -4.814863351036432
      ],
      [
        "▁addresse",
        -10.334277048633115
      ],
      [
        "▁strain",
        -9.900034521624876
      ],
      [
        "▁knitter",
        -11.775941925704796
      ],
      [
        "▁embrace",
        -10.264772971790354
      ],
      [
        "▁stop",
        -7.888993917481365
      ],
      [
        "rth",
        -12.604239740557137
      ],
      [
        "▁old",
        -5.586906487994287
      ],
      [
        "▁silkie",
        -9.605609372641208
      ],
      [
        "when",
        -7.381382499901413
      ],
      [
        "▁yrs",
        -11.604780316889176
      ],
      [
        "_",
        -5.0347307007443804
      ],
      [
        "▁shirts",
        -10.32262608694893
      ],
      [
        "▁exce",
        -11.397786416299144
      ],
      [
        "▁appr",
        -11.522504453589601
      ],
      [
        "anne",
        -12.818709871755411
      ],
      [
        "epc",
        -11.136812065943733
      ],
      [
        "@",
        -7.670182493857347
      ],
      [
        "gia",
        -12.05373334343836
      ],
      [
        "x",
        -12.039036616560043
      ],
      [
        "ham",
        -8.610467280310527
      ],
      [
        "▁kim",
        -8.11252277798879
      ],
      [
        "di",
        -8.690586142430135
      ],
      [
        "id",
        -9.150834025689742
      ],
      [
        "▁comply",
        -9.87055798824609
      ],
      [
        "m",
        -5.88316037159336
      ],
      [
        "ll",
        -5.776077771667074
      ],
      [
        "▁market",
        -7.223288385187966
      ],
      [
        "▁want",
        -11.336008622948118
      ],
      [
        "▁refusal",
        -11.273390668850007
      ],
      [
        "▁momm",
        -7.838930707534434
      ],
      [
        "▁school",
        -6.29059788982294
      ],
      [
        "▁realize",
        -8.060523133677941
      ],
      [
        "▁yel",
        -11.43272824388439
      ],
      [
        "▁vendor",
        -9.755497605628278
      ],
      [
        "23",
        -7.3944201968546
      ],
      [
        "▁span",
        -10.385238385077727
      ],
      [
        "nvas",
        -10.245598734525405
      ],
      [
        "eenth",
        -11.27631534482064
      ],
      [
        "▁manag",
        -9.33288579656999
      ],
      [
        "▁intellect",
        -11.773236626314914
      ],
      [
        "▁update",
        -8.891455276045885
      ],
      [
        "▁scream",
        -9.212301766933104
      ],
      [
        "inn",
        -12.60231474685694
      ],
      [
        "▁neg",
        -10.828741648439458
      ],
      [
        "▁weekday",
        -9.577165080680654
      ],
      [
        "▁proceed",
        -8.649307116413167
      ],
      [
        "▁coin",
        -9.438185311740016
      ],
      [
        "▁secret",
        -8.395133393554037
      ],
      [
        "▁aqua",
        -10.919459492581801
      ],
      [
        "▁roa",
        -11.672428126526384
      ],
      [
        "▁sub",
        -9.632716355258115
      ],
      [
        "gration",
        -12.02618603045394
      ],
      [
        "▁produc",
        -10.850259609154476
      ],
      [
        "▁shopp",
        -9.300199971019866
      ],
      [
        "▁compare",
        -8.265165019192352
      ],
      [
        "arrow",
        -10.371772855580723
      ],
      [
        "▁dream",
        -8.880148528208505
      ],
      [
        "ter",
        -8.004452915995703
      ],
      [
        "▁hoodi",
        -11.828965781834647
      ],
      [
        "vell",
        -11.678480996267922
      ],
      [
        "▁musician",
        -9.846649844926292
      ],
      [
        "long",
        -7.46212460326381
      ],
      [
        "ound",
        -11.475220092546778
      ],
      [
        "▁lie",
        -8.265551593608723
      ],
      [
        "▁updat",
        -10.536455177965196
      ],
      [
        "▁bruise",
        -11.773353204841381
      ],
      [
        "bear",
        -12.138517458259354
      ],
      [
        "ature",
        -10.23205325913874
      ],
      [
        "▁sq",
        -7.710816908113082
      ],
      [
        "▁move",
        -8.766888878752585
      ],
      [
        "▁tam",
        -8.686058270672923
      ],
      [
        "struction",
        -9.565931729104996
      ],
      [
        "view",
        -9.635581738984918
      ],
      [
        "▁facet",
        -11.092736005441871
      ],
      [
        "▁disrep",
        -12.729241610533963
      ],
      [
        "▁mirror",
        -11.45872563272014
      ],
      [
        "▁agricultur",
        -8.553355023691608
      ],
      [
        "▁gla",
        -10.764001975023302
      ],
      [
        "▁liner",
        -12.167965172006374
      ],
      [
        "▁legi",
        -10.942092386757173
      ],
      [
        "writ",
        -11.105464757728814
      ],
      [
        "▁claim",
        -8.389004023675577
      ],
      [
        "-of-",
        -10.618422289652324
      ],
      [
        "▁factor",
        -8.967540430599321
      ],
      [
        "▁sad",
        -9.761672075810177
      ],
      [
        "▁publish",
        -8.886603719170564
      ],
      [
        "▁car",
        -8.758508331102655
      ],
      [
        "▁th",
        -6.672497760393618
      ],
      [
        "▁cast",
        -9.323984159509102
      ],
      [
        "▁definition",
        -8.928968390511578
      ],
      [
        "▁double",
        -8.177273405532732
      ],
      [
        "muel",
        -8.643350272812262
      ],
      [
        "▁arabia",
        -8.84560321853664
      ],
      [
        "▁faste",
        -9.274614642112281
      ],
      [
        "▁initiative",
        -8.815618867769002
      ],
      [
        "inera",
        -11.877812515612078
      ],
      [
        "▁hyper",
        -10.957613098388924
      ],
      [
        "▁safe",
        -8.102997644649717
      ],
      [
        "▁bor",
        -11.176976442538841
      ],
      [
        "▁exceed",
        -9.538930479526707
      ],
      [
        "dom",
        -9.44963663318541
      ],
      [
        "i",
        -6.602396342225172
      ],
      [
        "▁pro-",
        -8.772407925019438
      ],
      [
        "fect",
        -7.810865185202944
      ],
      [
        "ause",
        -11.386855980541197
      ],
      [
        "▁indicat",
        -12.594700194544894
      ],
      [
        "▁jobs",
        -8.857594778335882
      ],
      [
        "▁anti-",
        -8.875725104326014
      ],
      [
        "▁fren",
        -11.140126207007379
      ],
      [
        "hou",
        -9.816030433816154
      ],
      [
        "sel",
        -12.544979180964427
      ],
      [
        "sion",
        -9.728064924537986
      ],
      [
        "pper",
        -11.93264842610417
      ],
      [
        "▁b",
        -7.480039276401502
      ],
      [
        "▁earthquake",
        -10.057133124879924
      ],
      [
        "▁entail",
        -10.375502741031848
      ],
      [
        "▁trust",
        -9.180492162578844
      ],
      [
        "▁beli",
        -11.270406965169624
      ],
      [
        "▁decrease",
        -10.083583195963014
      ],
      [
        "dresser",
        -11.170517947648367
      ],
      [
        "ship",
        -8.189251326756587
      ],
      [
        "▁over-",
        -11.780491533062088
      ],
      [
        "or",
        -6.1111258282432015
      ],
      [
        "▁zin",
        -10.72582636998642
      ],
      [
        "trum",
        -12.472196141611233
      ],
      [
        "si",
        -8.606904966301983
      ],
      [
        "▁filter",
        -8.242819720730548
      ],
      [
        "x",
        -9.796759250255114
      ],
      [
        "determine",
        -11.17200836304133
      ],
      [
        "wh",
        -12.012195211060474
      ],
      [
        "▁up",
        -8.744652846571329
      ],
      [
        "▁produce",
        -10.090188317646962
      ],
      [
        "▁flutter",
        -11.459437633950406
      ],
      [
        "unno",
        -12.643571054832101
      ],
      [
        "fte",
        -7.907968627874423
      ],
      [
        "▁kar",
        -7.921872251290368
      ],
      [
        "dron",
        -10.628356097627078
      ],
      [
        "▁ori",
        -7.5403710771088726
      ],
      [
        "▁none",
        -8.959339552118273
      ],
      [
        "▁mix",
        -9.946737930659177
      ],
      [
        "u",
        -7.32641731398689
      ],
      [
        "nocent",
        -10.480293849924776
      ],
      [
        "▁club",
        -9.181610404017288
      ],
      [
        "▁accumulate",
        -9.740560952098114
      ],
      [
        "▁link",
        -8.421431361608825
      ],
      [
        "oot",
        -10.638484927662859
      ],
      [
        "le",
        -7.288360568497718
      ],
      [
        "▁de",
        -4.941992651973221
      ],
      [
        "▁wrap",
        -9.712678219232128
      ],
      [
        "▁per",
        -7.346560011311309
      ],
      [
        "▁monaster",
        -10.05728907404228
      ],
      [
        "(",
        -10.930122639685507
      ],
      [
        "▁rect",
        -11.426748139341338
      ],
      [
        "▁chatter",
        -11.778634222145273
      ],
      [
        "guard",
        -12.06337883357473
      ],
      [
        "gress",
        -13.000805596315399
      ],
      [
        "▁guard",
        -10.570907859473822
      ],
      [
        "table",
        -12.334547072875399
      ],
      [
        "▁context",
        -8.474541872629535
      ],
      [
        "ife",
        -10.284373825944899
      ],
      [
        "▁curv",
        -11.847025086157569
      ],
      [
        "▁prepar",
        -10.688606699990231
      ],
      [
        "▁corp",
        -10.484298228642633
      ],
      [
        "▁penta",
        -12.742840985629085
      ],
      [
        "▁bathroom",
        -8.240075477347517
      ],
      [
        "▁ti",
        -11.019207995767276
      ],
      [
        "▁relie",
        -10.659589895323899
      ],
      [
        "▁vol",
        -8.935419863158552
      ],
      [
        "▁cere",
        -8.791412552377636
      ],
      [
        "▁tra",
        -9.149014187201788
      ],
      [
        "▁earn",
        -8.527899775111031
      ],
      [
        "dust",
        -11.529450086905996
      ],
      [
        "▁cra",
        -11.515039215087164
      ],
      [
        "▁tour",
        -10.39720374638068
      ],
      [
        "obes",
        -11.713650096273714
      ],
      [
        "▁dea",
        -11.505207162389922
      ],
      [
        "▁sm",
        -12.538717174173787
      ],
      [
        "▁spread",
        -9.53192646774008
      ],
      [
        "gain",
        -11.872806067634126
      ],
      [
        "▁sunn",
        -7.90078657461334
      ],
      [
        "▁previ",
        -12.800260168647313
      ],
      [
        "▁aust",
        -8.949627957254805
      ],
      [
        "▁contemp",
        -12.467563653230005
      ],
      [
        "▁(countr",
        -11.795820758815877
      ],
      [
        "▁d",
        -8.048528589403645
      ],
      [
        "▁parti",
        -10.52755029520987
      ],
      [
        "▁no",
        -6.625414240065368
      ],
      [
        "proxim",
        -10.075040639897672
      ],
      [
        "▁say",
        -12.166569390621476
      ],
      [
        "▁spo",
        -12.093587896330476
      ],
      [
        "▁top",
        -7.469842661496501
      ],
      [
        "freez",
        -12.6978331492295
      ],
      [
        "▁el",
        -6.533844654885006
      ],
      [
        "▁govern",
        -9.283563698877625
      ],
      [
        "prove",
        -12.917327596302089
      ],
      [
        "▁peter",
        -6.870955470039081
      ],
      [
        "▁boundar",
        -10.323684323994277
      ],
      [
        "▁island",
        -7.541994108729497
      ],
      [
        "ant",
        -8.824839956610166
      ],
      [
        "▁cloud",
        -9.5954190903826
      ],
      [
        "▁tonne",
        -10.969586545920636
      ],
      [
        "▁rag",
        -11.652246509335459
      ],
      [
        "▁farmer",
        -8.966900865970082
      ],
      [
        "▁rig",
        -11.30759496701663
      ],
      [
        "▁conten",
        -10.668644523220832
      ],
      [
        "ix",
        -12.042093870743159
      ],
      [
        "▁bend",
        -10.581775695953139
      ],
      [
        "initi",
        -8.372814628399874
      ],
      [
        "▁bl",
        -7.670897830267577
      ],
      [
        "▁qui",
        -11.194463387420807
      ],
      [
        "1",
        -3.8535279155612745
      ],
      [
        "▁generation",
        -8.347165956360403
      ],
      [
        "▁twentie",
        -11.268013189254441
      ],
      [
        "▁insult",
        -10.625399601414458
      ],
      [
        "▁vitamin",
        -10.323238313883692
      ],
      [
        "hens",
        -10.859263167697042
      ],
      [
        "chart",
        -10.376458087479929
      ],
      [
        "▁lee",
        -7.790206984466337
      ],
      [
        "▁embedd",
        -9.869434000832122
      ],
      [
        "▁diploma",
        -10.164162279715546
      ],
      [
        "cell",
        -11.764160130290701
      ],
      [
        "▁11:3",
        -7.687100656441155
      ],
      [
        "▁ply",
        -11.905675717405236
      ],
      [
        "▁humm",
        -10.841199014153025
      ],
      [
        "et",
        -8.397850405602362
      ],
      [
        "▁ninet",
        -7.939123113709581
      ],
      [
        "▁improve",
        -7.9706922204608
      ],
      [
        "▁exacerbate",
        -11.061238681890705
      ],
      [
        "▁consul",
        -11.938245587841157
      ],
      [
        "▁dome",
        -11.667998276378452
      ],
      [
        "▁fish",
        -10.627718136055455
      ],
      [
        "vious",
        -12.782769503009398
      ],
      [
        "▁attorney",
        -9.17888094416049
      ],
      [
        "▁interfer",
        -12.773877008831985
      ],
      [
        "▁cheape",
        -6.199647512997842
      ],
      [
        "▁fifty",
        -6.704799539162922
      ],
      [
        "▁court",
        -8.223063736086162
      ],
      [
        "▁cann",
        -10.695274897012215
      ],
      [
        "lack",
        -8.262966808700385
      ],
      [
        "nea",
        -7.945544065619691
      ],
      [
        "dive",
        -12.83948496061908
      ],
      [
        "▁science",
        -8.217354337862405
      ],
      [
        "▁reference",
        -9.376456987727982
      ],
      [
        "keep",
        -11.27231174131026
      ],
      [
        "fol",
        -13.063190098611507
      ],
      [
        "t",
        -4.62181170820774
      ],
      [
        "▁poo",
        -9.644573121750733
      ],
      [
        "▁lash",
        -11.552312319522654
      ],
      [
        "ateg",
        -10.322097797210294
      ],
      [
        "▁penalt",
        -9.755654975880708
      ],
      [
        "place",
        -9.554230934812185
      ],
      [
        "ayoff",
        -11.900927846813179
      ],
      [
        "ilk",
        -11.844480177088549
      ],
      [
        "il",
        -12.076880807285539
      ],
      [
        "ttle",
        -12.38577875347731
      ],
      [
        "▁sum",
        -12.504321346907583
      ],
      [
        "▁gaz",
        -10.586845650250607
      ],
      [
        "o.",
        -11.0181889950452
      ],
      [
        "▁rul",
        -10.879382387373575
      ],
      [
        "▁jumb",
        -12.069335727519642
      ],
      [
        "\"",
        -10.323238221315822
      ],
      [
        "p",
        -7.066816683755824
      ],
      [
        "▁cat",
        -7.242377166571132
      ],
      [
        "upper",
        -9.418277453794081
      ],
      [
        "▁index",
        -10.958754927642678
      ],
      [
        "▁bit",
        -6.88813386894788
      ],
      [
        "elis",
        -10.695302531281516
      ],
      [
        "termin",
        -8.662441013121045
      ],
      [
        "mark",
        -11.624983236971703
      ],
      [
        "▁direct",
        -7.339736906234009
      ],
      [
        "ft",
        -6.965664792887015
      ],
      [
        "▁eulog",
        -11.787412057977443
      ],
      [
        "cada",
        -11.82507084793451
      ],
      [
        "▁moni",
        -11.733829123690432
      ],
      [
        "▁ph.",
        -11.281989900072375
      ],
      [
        "ing",
        -6.686521379897417
      ],
      [
        "▁dread",
        -11.22386601987737
      ],
      [
        "la",
        -11.175032564048838
      ],
      [
        "▁propert",
        -7.376521064327124
      ],
      [
        "among",
        -10.114427603570839
      ],
      [
        "▁universit",
        -6.830723950781339
      ],
      [
        "▁jeff",
        -7.358449266279162
      ],
      [
        "k",
        -6.601882593626262
      ],
      [
        "▁tough",
        -8.507869082147447
      ],
      [
        "▁sue",
        -8.538466605104793
      ],
      [
        "embark",
        -12.325395798852156
      ],
      [
        "▁tint",
        -11.315269106919944
      ],
      [
        "▁pr",
        -9.547993982598937
      ],
      [
        "ustom",
        -11.579138264610778
      ],
      [
        "▁accommodate",
        -9.775293270753739
      ],
      [
        "▁activist",
        -10.497421952179861
      ],
      [
        "minate",
        -10.13779892225979
      ],
      [
        "▁banishe",
        -11.459083638908142
      ],
      [
        "▁contrast",
        -9.847659472906479
      ],
      [
        "a",
        -4.761978571806004
      ],
      [
        "our",
        -9.892037069430266
      ],
      [
        "▁17",
        -5.757736140466072
      ],
      [
        "▁floati",
        -12.246586210003327
      ],
      [
        "pers",
        -10.086400916882669
      ],
      [
        "▁mr",
        -7.5468010258703115
      ],
      [
        "▁loss",
        -8.617532721156588
      ],
      [
        "dr.",
        -7.458582487074492
      ],
      [
        "▁gar",
        -10.371695015146374
      ],
      [
        "▁creat",
        -8.00466740362287
      ],
      [
        "▁reschedule",
        -11.16927660074089
      ],
      [
        "▁predict",
        -10.961787199849839
      ],
      [
        "ler",
        -7.9267521491267745
      ],
      [
        "▁gen",
        -8.924991774692455
      ],
      [
        "▁hu",
        -5.3112184277948105
      ],
      [
        "▁level",
        -7.2906322342151615
      ],
      [
        "▁ru",
        -11.183530574308486
      ],
      [
        "n",
        -3.4248351833273194
      ],
      [
        "son",
        -6.743524344788223
      ],
      [
        "▁academi",
        -11.774562100386666
      ],
      [
        "▁rut",
        -11.721757025362166
      ],
      [
        "▁employ",
        -8.846389778995292
      ],
      [
        "▁insul",
        -12.220993292795036
      ],
      [
        "▁bombard",
        -11.458964929141526
      ],
      [
        "▁indulge",
        -10.818112787769977
      ],
      [
        "▁doctor",
        -8.574817295185579
      ],
      [
        "▁its",
        -6.201980132509922
      ],
      [
        "▁sep",
        -11.079175559933907
      ],
      [
        "▁advantage",
        -8.787559522215028
      ],
      [
        "▁spew",
        -11.59346405684513
      ],
      [
        "▁era",
        -12.240413338819998
      ],
      [
        "▁leg",
        -7.5066764347249455
      ],
      [
        "tonin",
        -11.78416878506439
      ],
      [
        "▁pal",
        -10.447778914381022
      ],
      [
        "▁inten",
        -11.660899940961222
      ],
      [
        "id",
        -8.378966879212324
      ],
      [
        "▁isla",
        -12.855889669043576
      ],
      [
        "ntl",
        -7.392382711792216
      ],
      [
        "▁volley",
        -9.672380424536627
      ],
      [
        "icide",
        -8.730645540287147
      ],
      [
        "lava",
        -12.470788133359283
      ],
      [
        "▁near",
        -11.48820308838556
      ],
      [
        "▁irri",
        -12.48803677429464
      ],
      [
        "▁presiden",
        -11.73182336201788
      ],
      [
        "paste",
        -11.237187545787181
      ],
      [
        "visit",
        -12.05831497797975
      ],
      [
        "ulat",
        -11.243332247337403
      ],
      [
        "▁protection",
        -8.2024062380668
      ],
      [
        "▁shelter",
        -10.181593498034637
      ],
      [
        "▁alcoholic",
        -11.7861415455837
      ],
      [
        "thank",
        -10.659463463452388
      ],
      [
        "...@",
        -8.456906970418494
      ],
      [
        "▁harp",
        -10.518785283372713
      ],
      [
        "▁genital",
        -10.703850128887401
      ],
      [
        "▁whistl",
        -10.175403245533621
      ],
      [
        "▁sneaker",
        -10.323252479462402
      ],
      [
        "▁disruption",
        -10.939964040834713
      ],
      [
        "ow",
        -11.232612373440576
      ],
      [
        "▁function",
        -10.023944854055483
      ],
      [
        "nanc",
        -10.975400749655986
      ],
      [
        "pping",
        -11.345029165215157
      ],
      [
        "▁punchline",
        -10.18049995742409
      ],
      [
        "▁1.5",
        -7.392708969603497
      ],
      [
        "▁cheese",
        -7.801627035632045
      ],
      [
        "ka",
        -9.418527539743197
      ],
      [
        "▁attend",
        -7.72235016362234
      ],
      [
        "▁london",
        -7.009817472340361
      ],
      [
        "ric",
        -10.411470317655589
      ],
      [
        "22",
        -8.144520391574469
      ],
      [
        "▁butto",
        -12.869717864250058
      ],
      [
        "▁flame",
        -10.189856602229934
      ],
      [
        "guin",
        -12.051522949465976
      ],
      [
        "▁attraction",
        -10.18041490520655
      ],
      [
        "▁memori",
        -11.226787700759516
      ],
      [
        "▁chim",
        -11.385147729958478
      ],
      [
        "▁union",
        -8.92634418163254
      ],
      [
        "▁ei",
        -9.044221690611844
      ],
      [
        "▁al",
        -4.246888182650369
      ],
      [
        "▁remain",
        -7.157446223448043
      ],
      [
        "adam",
        -9.216338588004056
      ],
      [
        "▁vac",
        -12.70738834070751
      ],
      [
        "h",
        -3.294768851479734
      ],
      [
        "▁litera",
        -8.978654962365784
      ],
      [
        "▁slum",
        -10.93503368115338
      ],
      [
        "▁course",
        -7.191160581766818
      ],
      [
        "▁ci",
        -8.967025232636153
      ],
      [
        "ssion",
        -11.361443358649057
      ],
      [
        "lation",
        -11.522064708402112
      ],
      [
        "ter",
        -8.831206181277171
      ],
      [
        "lift",
        -11.802496221087702
      ],
      [
        "▁deep",
        -12.541490340809633
      ],
      [
        "▁pla",
        -9.23068185423956
      ],
      [
        "70",
        -9.533360469837348
      ],
      [
        "▁rac",
        -11.968253103454597
      ],
      [
        "ameter",
        -11.528425946828442
      ],
      [
        "▁zi",
        -12.98416576680646
      ],
      [
        "▁flo",
        -11.218104783239362
      ],
      [
        "▁twin",
        -10.054968131896914
      ],
      [
        "mpa",
        -8.552085122357155
      ],
      [
        "▁advise",
        -8.642676767136889
      ],
      [
        "▁idiot",
        -9.846105851426477
      ],
      [
        "▁stra",
        -8.068841970187297
      ],
      [
        "do",
        -8.350532410525311
      ],
      [
        "▁empire",
        -11.285775588573276
      ],
      [
        "▁sup",
        -10.00467888120201
      ],
      [
        "▁shove",
        -10.221105104403845
      ],
      [
        "▁equ",
        -8.172278544843653
      ],
      [
        "▁observe",
        -8.234673799315816
      ],
      [
        "▁plun",
        -11.324604065968677
      ],
      [
        "vert",
        -10.99616963314148
      ],
      [
        "ory",
        -11.45114824394768
      ],
      [
        "ieve",
        -11.688365813463099
      ],
      [
        "▁interval",
        -9.67254830195308
      ],
      [
        "▁gather",
        -8.61079917971708
      ],
      [
        "▁pile",
        -10.283184672550286
      ],
      [
        "▁de",
        -7.133759330193251
      ],
      [
        "▁out",
        -8.07198983097419
      ],
      [
        "ocent",
        -12.115114609210526
      ],
      [
        "▁conference",
        -10.9587313552676
      ],
      [
        "▁styl",
        -12.15313108816243
      ],
      [
        "▁traffick",
        -10.488976938660636
      ],
      [
        "rit",
        -9.236481563490631
      ],
      [
        "▁surpris",
        -8.309669101209067
      ],
      [
        "▁60",
        -6.913388044232883
      ],
      [
        "▁valu",
        -8.673911650113023
      ],
      [
        "▁olde",
        -7.975169562832761
      ],
      [
        "ifica",
        -8.291738545728773
      ],
      [
        "is",
        -7.4505622925560795
      ],
      [
        "▁enf",
        -12.653672702431935
      ],
      [
        "kin",
        -12.963836902777778
      ],
      [
        "▁base",
        -6.93085099999195
      ],
      [
        "thus",
        -7.27974176497364
      ],
      [
        "▁col",
        -9.83020973472278
      ],
      [
        "▁overs",
        -11.755838835219517
      ],
      [
        "cin",
        -8.340829621540765
      ],
      [
        "land",
        -8.764147200610923
      ],
      [
        "yste",
        -10.451492457830774
      ],
      [
        "▁shu",
        -11.580204416060456
      ],
      [
        "▁refin",
        -10.629002319716383
      ],
      [
        "lin",
        -11.028033990868387
      ],
      [
        "▁ag",
        -6.715931851231953
      ],
      [
        "▁apologiz",
        -12.229980492549894
      ],
      [
        "▁ma",
        -7.0725811361689015
      ],
      [
        "▁smuggl",
        -11.11373529962717
      ],
      [
        "▁sk",
        -12.401239109405049
      ],
      [
        "▁opposite",
        -9.96884649416458
      ],
      [
        "▁gro",
        -10.839711745101997
      ],
      [
        "zer",
        -8.197074886645018
      ],
      [
        "▁frie",
        -10.001902336013309
      ],
      [
        "▁bur",
        -8.160429331662357
      ],
      [
        "comfort",
        -10.369659430208431
      ],
      [
        "▁television",
        -8.630679243781216
      ],
      [
        "ella",
        -10.324162340023301
      ],
      [
        "▁forc",
        -10.3571372013002
      ],
      [
        "▁poem",
        -9.338271271568766
      ],
      [
        "▁pirate",
        -9.755870540456248
      ],
      [
        "▁fr",
        -10.375037312392115
      ],
      [
        "▁kn",
        -10.370620844843758
      ],
      [
        "▁upper",
        -8.217207504847636
      ],
      [
        "▁stage",
        -8.669637184100624
      ],
      [
        "gma",
        -11.706199733201636
      ],
      [
        "med",
        -9.650791541270365
      ],
      [
        "ecision",
        -11.8182295153354
      ],
      [
        "▁hear",
        -12.690349577633805
      ],
      [
        "sat",
        -13.599719372528622
      ],
      [
        "▁kn",
        -10.925516565317587
      ],
      [
        "▁publishe",
        -8.041078949278049
      ],
      [
        "ans",
        -9.20028119008006
      ],
      [
        "▁what",
        -9.596570129206697
      ],
      [
        "▁aisle",
        -10.180581756361775
      ],
      [
        "▁convict",
        -10.375395575998983
      ],
      [
        "▁painting",
        -8.482582085013819
      ],
      [
        "c",
        -5.811834898890697
      ],
      [
        "▁win",
        -8.000208710302205
      ],
      [
        "▁prince",
        -8.57549484690721
      ],
      [
        "▁rip",
        -9.553219506168208
      ],
      [
        "▁mine",
        -7.3549003857745685
      ],
      [
        "▁hurr",
        -10.43337745998046
      ],
      [
        "▁effic",
        -11.778181989999911
      ],
      [
        "psu",
        -12.104941981745254
      ],
      [
        "▁saving",
        -9.94841198858912
      ],
      [
        "▁association",
        -9.946561566348251
      ],
      [
        "▁draft",
        -8.31858115456364
      ],
      [
        "▁hammer",
        -9.94652982167936
      ],
      [
        "▁excu",
        -12.032605247987416
      ],
      [
        "+",
        -11.925660239071421
      ],
      [
        "▁que",
        -13.68269037130241
      ],
      [
        "stirr",
        -12.28544871194109
      ],
      [
        "▁man",
        -4.986646391547884
      ],
      [
        "▁foresee",
        -10.960611033765629
      ],
      [
        "ounce",
        -11.500262422935004
      ],
      [
        "▁signal",
        -9.969560408441588
      ],
      [
        "▁star",
        -7.691582309390991
      ],
      [
        "▁magic",
        -8.889458895357397
      ],
      [
        "▁matter",
        -8.916816432592363
      ],
      [
        "▁underpinn",
        -11.465338665381937
      ],
      [
        "▁assess",
        -8.689162915160052
      ],
      [
        "▁tape",
        -7.997507325013419
      ],
      [
        "▁s",
        -7.2016004436635175
      ],
      [
        "rocke",
        -11.457350580612921
      ],
      [
        "▁shed",
        -9.766014879456211
      ],
      [
        "▁anti",
        -9.831102236041021
      ],
      [
        "'",
        -2.6782468275802227
      ],
      [
        "ns",
        -8.02361305157211
      ],
      [
        "▁scientology",
        -7.680741655422038
      ],
      [
        "▁ya",
        -8.767015878714982
      ],
      [
        "▁aspir",
        -10.958737947839403
      ],
      [
        "▁'",
        -9.052455780862363
      ],
      [
        "▁on",
        -11.41378886164738
      ],
      [
        "▁diet",
        -9.67760430775865
      ],
      [
        "▁news",
        -8.896847460226837
      ],
      [
        "▁policy",
        -7.923950273875583
      ],
      [
        "▁fro",
        -8.847864777376085
      ],
      [
        "▁barrette",
        -10.939932662614222
      ],
      [
        "tat",
        -12.369740872044527
      ],
      [
        "ou",
        -10.954094405007353
      ],
      [
        "sed",
        -8.820236460167456
      ],
      [
        "▁contain",
        -7.666122745033118
      ],
      [
        "▁simpli",
        -10.939999226925604
      ],
      [
        "▁prett",
        -6.0774269011538085
      ],
      [
        "w",
        -7.5966163372720885
      ],
      [
        "▁potato",
        -9.13697796723051
      ],
      [
        "ches",
        -10.54596638308842
      ],
      [
        "▁rumour",
        -11.274139542668415
      ],
      [
        "▁soup",
        -9.08679871717037
      ],
      [
        "panes",
        -11.622743861500709
      ],
      [
        "sauce",
        -11.860872125257552
      ],
      [
        "ern",
        -6.849387477125365
      ],
      [
        "▁sil",
        -9.225254753281032
      ],
      [
        "▁scar",
        -9.416393743772574
      ],
      [
        "▁woo",
        -10.717288508642952
      ],
      [
        "▁acqui",
        -12.172423052107789
      ],
      [
        "har",
        -8.275726802644874
      ],
      [
        "▁order",
        -7.0683616184004965
      ],
      [
        "▁talks",
        -9.80940741558043
      ],
      [
        "▁race",
        -9.470226065984026
      ],
      [
        "rage",
        -10.22581393781235
      ],
      [
        "▁manufactur",
        -10.298044789864175
      ],
      [
        "▁thing",
        -5.599521676883038
      ],
      [
        "▁loss",
        -12.586688113751748
      ],
      [
        "▁towns",
        -9.891490625179344
      ],
      [
        "▁preservati",
        -11.459441605368239
      ],
      [
        "▁pa",
        -7.7782629543359825
      ],
      [
        "▁bundle",
        -11.274248103194136
      ],
      [
        "fil",
        -11.540062374614369
      ],
      [
        "▁humani",
        -12.642523837288046
      ],
      [
        "▁predic",
        -12.964932011057089
      ],
      [
        "▁killing",
        -10.49300941384866
      ],
      [
        "at",
        -7.706429681576975
      ],
      [
        ".",
        -9.207163296872874
      ],
      [
        "tove",
        -12.29794017414897
      ],
      [
        "▁side",
        -10.769911773370067
      ],
      [
        "▁not",
        -7.200425170962376
      ],
      [
        "▁better",
        -10.625803936107097
      ],
      [
        "omes",
        -12.88331294064893
      ],
      [
        "ton",
        -6.145707367483076
      ],
      [
        "power",
        -10.446260930698354
      ],
      [
        "uzzle",
        -12.868210970143393
      ],
      [
        "▁consistent",
        -8.996516396791892
      ],
      [
        "ut",
        -10.56696934815741
      ],
      [
        "▁fi",
        -8.130077589022932
      ],
      [
        "log",
        -9.891826912182736
      ],
      [
        "▁victor",
        -9.634994188372172
      ],
      [
        "▁doctor",
        -7.67329676669715
      ],
      [
        "▁!",
        -6.89487113485091
      ],
      [
        "▁detention",
        -10.690389300676435
      ],
      [
        "when",
        -8.600640802957946
      ],
      [
        "▁generat",
        -9.778603541877125
      ],
      [
        "▁public",
        -6.428328946192325
      ],
      [
        "▁remain",
        -9.950351482431813
      ],
      [
        "o",
        -3.5173493339713593
      ],
      [
        "oc",
        -11.826427624441923
      ],
      [
        "▁tulsa",
        -8.294170404816201
      ],
      [
        "▁collect",
        -7.953103109768134
      ],
      [
        "▁see",
        -9.830285130851582
      ],
      [
        "▁quack",
        -10.055722378081986
      ],
      [
        "▁pant",
        -8.390890771282502
      ],
      [
        "-",
        -7.636032374119419
      ],
      [
        "▁gaze",
        -11.88168255035399
      ],
      [
        "▁argu",
        -9.357744420874603
      ],
      [
        "ra",
        -10.13027553179019
      ],
      [
        "▁liberal",
        -10.973396027191564
      ],
      [
        "▁bulldo",
        -8.360931237317764
      ],
      [
        "▁har",
        -8.702449984832002
      ],
      [
        "▁receiv",
        -8.281500766022912
      ],
      [
        "▁app",
        -9.748224075741756
      ],
      [
        "▁legal",
        -11.477061644225614
      ],
      [
        "▁wedge",
        -11.786825807407116
      ],
      [
        "▁to",
        -4.828081713777489
      ],
      [
        "▁return",
        -6.980570236197516
      ],
      [
        "▁shipp",
        -10.48671314045687
      ],
      [
        "▁walk",
        -8.346021982090319
      ],
      [
        "▁deals",
        -9.87833647781776
      ],
      [
        "03",
        -7.8914463333543425
      ],
      [
        "▁justi",
        -11.026486070005667
      ],
      [
        "▁defend",
        -9.145912033232495
      ],
      [
        "---",
        -10.542734627330935
      ],
      [
        "▁scoo",
        -10.977360060222745
      ],
      [
        "▁stopover",
        -8.049684453855402
      ],
      [
        "▁mullah",
        -11.773239305386936
      ],
      [
        "rl",
        -9.114055491878657
      ],
      [
        "operation",
        -8.652364499709357
      ],
      [
        "▁commun",
        -12.394664047914285
      ],
      [
        "▁stone",
        -8.864242688939608
      ],
      [
        "▁dissipate",
        -11.458725643449759
      ],
      [
        "ride",
        -11.699745096949759
      ],
      [
        "▁chill",
        -9.868840989712089
      ],
      [
        "▁renewa",
        -10.689916823279187
      ],
      [
        "▁edge",
        -8.874138728141684
      ],
      [
        "▁approve",
        -8.250127600697594
      ],
      [
        "r",
        -4.205444117082512
      ],
      [
        "▁fist",
        -10.523872249403944
      ],
      [
        "▁whoo",
        -8.384408211462633
      ],
      [
        "▁frame",
        -10.176085804513754
      ],
      [
        "▁use",
        -7.272169915173135
      ],
      [
        "▁prim",
        -7.612979136234517
      ],
      [
        "da",
        -8.916689262168322
      ],
      [
        "▁height",
        -9.396648032097618
      ],
      [
        "people",
        -8.687031762784274
      ],
      [
        "▁berr",
        -10.504231833695512
      ],
      [
        "▁kidnapp",
        -10.958726178160614
      ],
      [
        "▁rubb",
        -10.626989484605271
      ],
      [
        "▁chaser",
        -10.960060385248289
      ],
      [
        "▁home",
        -8.680036292694572
      ],
      [
        "▁taper",
        -10.399525447947752
      ],
      [
        "▁notic",
        -10.303038348871153
      ],
      [
        "▁sweet",
        -8.827290332796789
      ],
      [
        "elt",
        -12.683947390538172
      ],
      [
        "▁tin",
        -7.625313974643603
      ],
      [
        "/",
        -9.424407620128482
      ],
      [
        "▁dig",
        -11.804744565681206
      ],
      [
        "acco",
        -13.660594394584255
      ],
      [
        "▁impose",
        -9.63111653884987
      ],
      [
        "▁programme",
        -11.458725623696708
      ],
      [
        "▁local",
        -9.391494651183747
      ],
      [
        "▁week",
        -6.418783308561766
      ],
      [
        "▁fax",
        -9.359211627337473
      ],
      [
        "▁farm",
        -8.698810953143624
      ],
      [
        "▁comple",
        -10.506635766381333
      ],
      [
        "nit",
        -10.649345170977387
      ],
      [
        "▁relocat",
        -11.873102565146308
      ],
      [
        "▁questi",
        -12.45802374843698
      ],
      [
        "▁celebrate",
        -10.189970557977702
      ],
      [
        "▁dozen",
        -10.68999164815502
      ],
      [
        "’",
        -9.207163296872874
      ],
      [
        "▁me",
        -9.700865278815266
      ],
      [
        "seem",
        -11.401920217635997
      ],
      [
        ".........",
        -12.385442840267194
      ],
      [
        "▁wai",
        -10.238905340473138
      ],
      [
        "grav",
        -10.320651784469938
      ],
      [
        "ze",
        -8.312436807530917
      ],
      [
        "▁futuri",
        -12.727641967181018
      ],
      [
        "▁schedul",
        -10.321479502451563
      ],
      [
        "▁api",
        -11.406721440525299
      ],
      [
        "▁innkeeper",
        -11.273252653580279
      ],
      [
        "▁dand",
        -12.0996913195295
      ],
      [
        "▁shin",
        -10.038787646127918
      ],
      [
        "the",
        -3.8465712775810488
      ],
      [
        "s",
        -3.5612652791976185
      ],
      [
        "▁exclude",
        -10.441509310747433
      ],
      [
        "eration",
        -11.283667073365326
      ],
      [
        "▁impa",
        -10.498242054825532
      ],
      [
        "im",
        -8.615798311590094
      ],
      [
        "▁port",
        -8.327139313772697
      ],
      [
        "nd",
        -9.236601350363305
      ],
      [
        "▁phase",
        -9.470527821688089
      ],
      [
        "▁authori",
        -12.597411318450003
      ],
      [
        "ush",
        -11.340259268997055
      ],
      [
        "aging",
        -9.886894023725464
      ],
      [
        "spiration",
        -10.167912669269665
      ],
      [
        "▁gri",
        -9.952001525491768
      ],
      [
        "pher",
        -8.737102869535766
      ],
      [
        "▁good",
        -8.143495284437236
      ],
      [
        "▁construct",
        -9.750349557429862
      ],
      [
        "▁dilemma",
        -10.055381134174207
      ],
      [
        "▁exhibit",
        -8.78209530859843
      ],
      [
        "▁z",
        -10.934847861755653
      ],
      [
        "center",
        -12.287196023548479
      ],
      [
        "▁retrieve",
        -10.62539307541717
      ],
      [
        "how",
        -10.210297899064251
      ],
      [
        "▁presen",
        -9.516044719011639
      ],
      [
        "▁cul",
        -11.70959565851811
      ],
      [
        "tieth",
        -7.971235901375047
      ],
      [
        "▁language",
        -6.962798351709503
      ],
      [
        "i",
        -5.042364547112357
      ],
      [
        "▁cris",
        -8.776211245334267
      ],
      [
        "▁uhh",
        -6.002948122038999
      ],
      [
        "▁bet",
        -8.494679605789248
      ],
      [
        "▁start",
        -6.035742676720251
      ],
      [
        "▁trademark",
        -10.4901699213842
      ],
      [
        "▁dip",
        -11.40362505829825
      ],
      [
        "gold",
        -11.621291938377288
      ],
      [
        "▁beat",
        -8.139941333584396
      ],
      [
        "▁operation",
        -8.40648373948252
      ],
      [
        "▁br",
        -7.532766402496921
      ],
      [
        "▁syn",
        -11.10351885475248
      ],
      [
        "▁90",
        -7.361696384241467
      ],
      [
        "▁trading",
        -9.230322266315452
      ],
      [
        "▁ch",
        -8.44727492275506
      ],
      [
        "▁expense",
        -9.281305620686489
      ],
      [
        "▁housewi",
        -12.004893039920342
      ],
      [
        "▁men",
        -7.369600528004735
      ],
      [
        "▁recover",
        -9.084213408520743
      ],
      [
        "eball",
        -12.393268934114166
      ],
      [
        "▁fork",
        -8.816144216775132
      ],
      [
        "tori",
        -8.922017497182434
      ],
      [
        "ka",
        -9.072613359365386
      ],
      [
        "▁meadow",
        -11.7734629186141
      ],
      [
        "imbu",
        -10.377921179753463
      ],
      [
        "station",
        -12.301250449544465
      ],
      [
        "tract",
        -11.44429284353007
      ],
      [
        "strate",
        -11.608350371874982
      ],
      [
        "▁plague",
        -11.459133131094742
      ],
      [
        "▁admin",
        -8.890906228012938
      ],
      [
        "▁brood",
        -10.636847841274632
      ],
      [
        "internet",
        -7.721423258524315
      ],
      [
        "▁pic",
        -11.098041310704573
      ],
      [
        "▁budget",
        -8.523716894923203
      ],
      [
        "baby",
        -12.244878418318631
      ],
      [
        "▁massacre",
        -11.273240976421064
      ],
      [
        "group",
        -8.523363548867987
      ],
      [
        "▁mile",
        -9.303746877945933
      ],
      [
        "west",
        -8.150652069553047
      ],
      [
        "▁accurac",
        -10.18039467970031
      ],
      [
        "▁degu",
        -10.94103581482314
      ],
      [
        "tch",
        -10.504962608329652
      ],
      [
        "▁decision",
        -7.600687456923643
      ],
      [
        "experience",
        -11.533387329672383
      ],
      [
        "▁kind",
        -6.281756110445684
      ],
      [
        "stabiliz",
        -11.460103673361223
      ],
      [
        "▁drag",
        -11.273848143078474
      ],
      [
        "ded",
        -7.664095298121266
      ],
      [
        "▁gov",
        -11.789068500195974
      ],
      [
        "▁hit",
        -6.806185863543326
      ],
      [
        "▁left",
        -9.846002844058342
      ],
      [
        "us",
        -7.778989704250542
      ],
      [
        "cultur",
        -7.255618199138741
      ],
      [
        "▁casual",
        -11.739632539687385
      ],
      [
        "▁necess",
        -11.772415340062127
      ],
      [
        "▁",
        -2.345074069766005
      ],
      [
        "like",
        -7.545901873622276
      ],
      [
        "umber",
        -12.548370002183345
      ],
      [
        "▁engine",
        -8.7134734826415
      ],
      [
        "▁prison",
        -9.947125800958162
      ],
      [
        "▁research",
        -7.633961914211906
      ],
      [
        "reign",
        -10.426554609238739
      ],
      [
        "ing",
        -4.9877837272561685
      ],
      [
        "▁brush",
        -9.044226130735694
      ],
      [
        "▁use",
        -5.376712606513006
      ],
      [
        "▁cabinet",
        -9.596157762203173
      ],
      [
        "▁capabilit",
        -9.337104997228897
      ],
      [
        "▁hol",
        -10.48713402676507
      ],
      [
        "nce",
        -8.780311225222537
      ],
      [
        "ati",
        -7.786752848548837
      ],
      [
        "▁sill",
        -11.430531960402535
      ],
      [
        "▁lose",
        -8.279256091155556
      ],
      [
        "▁boulevard",
        -11.273238227358155
      ],
      [
        "woman",
        -11.28918129279379
      ],
      [
        "▁frid",
        -9.293243911368
      ],
      [
        "cent",
        -7.652589887132629
      ],
      [
        "▁reef",
        -10.056500205728131
      ],
      [
        "eve",
        -8.019325585688978
      ],
      [
        "▁bite",
        -7.841128810969074
      ],
      [
        "▁hen",
        -9.706862693400673
      ],
      [
        "be",
        -8.319774375295584
      ],
      [
        "-",
        -7.3704942586309095
      ],
      [
        "house",
        -8.828660704746163
      ],
      [
        "▁sort",
        -7.687512588688635
      ],
      [
        "▁latte",
        -11.73623786187433
      ],
      [
        "tach",
        -12.369303817132307
      ],
      [
        "▁160",
        -6.969867604915079
      ],
      [
        "kash",
        -8.914277288056937
      ],
      [
        "man",
        -8.11291357317159
      ],
      [
        "▁char",
        -8.958755396934679
      ],
      [
        "▁jam",
        -10.179894580085405
      ],
      [
        "▁breeze",
        -10.489937079175757
      ],
      [
        "▁nest",
        -11.544519048764402
      ],
      [
        "▁expu",
        -11.989976925662075
      ],
      [
        "▁great",
        -5.158725407219528
      ],
      [
        "▁choos",
        -9.792600345038931
      ],
      [
        "▁dislocate",
        -11.460447141020559
      ],
      [
        "nd",
        -12.576931147096683
      ],
      [
        "▁loudspeaker",
        -11.273238238407382
      ],
      [
        "▁will",
        -10.62729298170865
      ],
      [
        "▁lur",
        -12.486336987580371
      ],
      [
        "▁elder",
        -10.726905002245873
      ],
      [
        "e",
        -3.866122931705929
      ],
      [
        "▁st",
        -7.41836189483927
      ],
      [
        "▁sp",
        -8.178187588160956
      ],
      [
        "▁badge",
        -10.311563720561443
      ],
      [
        "▁liaison",
        -11.77324123561004
      ],
      [
        "rice",
        -9.078466786685382
      ],
      [
        "▁drive",
        -9.284519382482094
      ],
      [
        "▁skull",
        -10.489915407868907
      ],
      [
        "▁clun",
        -11.637628332936673
      ],
      [
        "▁anno",
        -11.668778258844252
      ],
      [
        "▁communicat",
        -12.789901228086633
      ],
      [
        "▁protest",
        -9.597763788478982
      ],
      [
        "lois",
        -8.711413512538568
      ],
      [
        "like",
        -9.262996894325436
      ],
      [
        "ourage",
        -11.24646502946496
      ],
      [
        "ford",
        -8.026490547434761
      ],
      [
        "▁swirl",
        -10.175406740353349
      ],
      [
        "▁mono",
        -10.234602016853627
      ],
      [
        "hush",
        -12.248439594521816
      ],
      [
        "▁per",
        -11.244378115706253
      ],
      [
        "▁fo",
        -11.546334560947004
      ],
      [
        "▁grip",
        -9.950401668553878
      ],
      [
        "arcas",
        -12.74089566197538
      ],
      [
        "▁branch",
        -11.998299472046634
      ],
      [
        "▁affect",
        -11.771793585861179
      ],
      [
        "▁nationalit",
        -9.866070371330519
      ],
      [
        "ag",
        -12.784750909866375
      ],
      [
        "loom",
        -10.689522521740207
      ],
      [
        "ual",
        -7.836549378084901
      ],
      [
        "▁techn",
        -8.993105756611216
      ],
      [
        "▁-",
        -2.719908429384735
      ],
      [
        "▁rad",
        -11.023343816538008
      ],
      [
        "burn",
        -11.227588816663001
      ],
      [
        "trip",
        -10.860259394785121
      ],
      [
        "grade",
        -10.948146868368823
      ],
      [
        "▁mak",
        -11.605569412375514
      ],
      [
        "ian",
        -9.721842535589259
      ],
      [
        "vin",
        -12.53700662176233
      ],
      [
        "unch",
        -8.96535944692046
      ],
      [
        "▁respondent",
        -10.939927847711866
      ],
      [
        "▁ab",
        -8.805039313032388
      ],
      [
        "▁confirm",
        -10.178067685609948
      ],
      [
        "▁techn",
        -12.743369062597337
      ],
      [
        "information",
        -8.887801906034449
      ],
      [
        "▁as",
        -8.916943222599421
      ],
      [
        "t",
        -1.4210259656718716
      ],
      [
        "mend",
        -10.733043506709068
      ],
      [
        "aire",
        -12.050737498529205
      ],
      [
        "▁heating",
        -10.220404963220927
      ],
      [
        "m",
        -3.421156060075173
      ],
      [
        "▁regard",
        -7.855876858554851
      ],
      [
        "▁fuck",
        -10.176534600256034
      ],
      [
        "▁awar",
        -10.202455223389007
      ],
      [
        "eve",
        -8.935744439810868
      ],
      [
        "▁how",
        -3.9468069168529585
      ],
      [
        "▁skydiv",
        -11.773964127969188
      ],
      [
        "▁pincher",
        -11.787224796076613
      ],
      [
        "▁bowl",
        -7.963580400683718
      ],
      [
        "▁disrupt",
        -10.0115220461553
      ],
      [
        "q",
        -8.447486124737829
      ],
      [
        "▁liv",
        -8.639431716156398
      ],
      [
        "▁perfectionis",
        -11.845702804749195
      ],
      [
        "▁google",
        -7.536487541908186
      ],
      [
        "▁abbreviation",
        -10.057198105666476
      ],
      [
        "ffix",
        -11.009414808399981
      ],
      [
        "evening",
        -11.562928700069039
      ],
      [
        "▁row",
        -8.723720405845583
      ],
      [
        "▁branch",
        -9.281241963938962
      ],
      [
        "▁digest",
        -10.625928985642805
      ],
      [
        "ut",
        -8.778841826187321
      ],
      [
        "▁vale",
        -11.768355644741897
      ],
      [
        "▁numer",
        -8.396148112708989
      ],
      [
        "ulate",
        -12.41635584096198
      ],
      [
        "▁disband",
        -11.458729376859141
      ],
      [
        "▁compre",
        -12.446349719193247
      ],
      [
        "italize",
        -12.929432723129105
      ],
      [
        "▁electric",
        -8.139933260520376
      ],
      [
        "▁panel",
        -9.336960649617383
      ],
      [
        "▁sailor",
        -10.324792954098381
      ],
      [
        "▁rena",
        -8.361374910200407
      ],
      [
        "▁www.",
        -8.92109037530105
      ],
      [
        "▁season",
        -8.334460936480397
      ],
      [
        "claim",
        -10.101394393127409
      ],
      [
        "▁perse",
        -10.855389667695754
      ],
      [
        "▁masque",
        -11.774430282896917
      ],
      [
        "arriv",
        -11.618158084935562
      ],
      [
        "▁dramatise",
        -11.458725637998048
      ],
      [
        "ivel",
        -12.791253359805749
      ],
      [
        "▁phil",
        -5.25202746557171
      ],
      [
        "▁pri",
        -12.817685641408797
      ],
      [
        "▁motorcycle",
        -9.759060863046297
      ],
      [
        "▁te",
        -8.537623323904704
      ],
      [
        "▁builder",
        -10.947903272517406
      ],
      [
        "▁undermin",
        -10.882330974817817
      ],
      [
        "otch",
        -11.464356690273588
      ],
      [
        "▁line",
        -9.336035042585555
      ],
      [
        "pr",
        -11.630325576561546
      ],
      [
        "▁venture",
        -10.231979618466998
      ],
      [
        "ect",
        -10.92727118900292
      ],
      [
        "▁monster",
        -9.459342064784042
      ],
      [
        "▁recip",
        -11.731548499140802
      ],
      [
        "▁crew",
        -9.236006528426715
      ],
      [
        "▁march",
        -9.848951494700733
      ],
      [
        "▁absen",
        -10.14984420212335
      ],
      [
        "▁tide",
        -10.070152065908143
      ],
      [
        "▁projection",
        -11.384753192466759
      ],
      [
        "lk",
        -11.90675418597249
      ],
      [
        "▁prop",
        -10.897009389101555
      ],
      [
        "▁pow",
        -9.416816415760849
      ],
      [
        "▁aggregate",
        -10.703717731694269
      ],
      [
        "▁modify",
        -9.146879595428274
      ],
      [
        "roxi",
        -10.925907639144645
      ],
      [
        "promise",
        -11.233129314208519
      ],
      [
        "al",
        -5.95872636162754
      ],
      [
        ".x",
        -9.527897883984272
      ],
      [
        "mmy",
        -8.542721506216154
      ],
      [
        "rise",
        -11.162792124906755
      ],
      [
        "▁paste",
        -11.152475712327192
      ],
      [
        "▁eat",
        -12.525420898876853
      ],
      [
        "▁destination",
        -9.011454571729102
      ],
      [
        "▁llm",
        -9.950875826317219
      ],
      [
        "▁podcast",
        -10.489912501059319
      ],
      [
        "▁th",
        -5.732750877800901
      ],
      [
        "▁grenade",
        -11.273275660491091
      ],
      [
        "an",
        -5.83024036355754
      ],
      [
        "▁summar",
        -9.459180101251716
      ],
      [
        "cause",
        -13.661563617350444
      ],
      [
        "▁continu",
        -10.323651103574065
      ],
      [
        "▁bloom",
        -10.376157938774796
      ],
      [
        "▁oyster",
        -11.774202310764956
      ],
      [
        "beg",
        -13.812093087570112
      ],
      [
        "▁swam",
        -11.538198907689118
      ],
      [
        "▁art",
        -8.780492319331463
      ],
      [
        "▁l",
        -8.4489258758925
      ],
      [
        "▁d",
        -7.835324086530706
      ],
      [
        "ung",
        -8.648774681482486
      ],
      [
        "▁than",
        -11.28247158482816
      ],
      [
        "cularis",
        -11.896722843543545
      ],
      [
        "▁sunk",
        -9.636071162061675
      ],
      [
        "▁cre",
        -10.522377902659244
      ],
      [
        "▁regulate",
        -9.549000205309792
      ],
      [
        "dy",
        -8.843321184105331
      ],
      [
        "tra",
        -10.744212170094968
      ],
      [
        "eros",
        -10.701495268018553
      ],
      [
        "▁instrument",
        -9.846470134029303
      ],
      [
        "rose",
        -8.623280558283351
      ],
      [
        "▁inflate",
        -11.050208361260458
      ],
      [
        "▁weird",
        -8.673909073379907
      ],
      [
        "▁burba",
        -8.115613950414248
      ],
      [
        "▁co-",
        -10.04111309660749
      ],
      [
        "▁drop",
        -8.286286269122698
      ],
      [
        "▁dom",
        -8.508771283202908
      ],
      [
        "▁flo",
        -10.773804925646123
      ],
      [
        "▁savage",
        -10.323698086972616
      ],
      [
        "▁exer",
        -12.475653204459878
      ],
      [
        "ambi",
        -10.336485298138449
      ],
      [
        "em",
        -12.213124534693176
      ],
      [
        "▁rude",
        -7.888966345364832
      ],
      [
        "▁general",
        -9.285180285924392
      ],
      [
        "▁bridge",
        -8.718690456989545
      ],
      [
        "pul",
        -11.892216386556417
      ],
      [
        "▁reporter",
        -9.72797372387683
      ],
      [
        "aw",
        -8.635393372690029
      ],
      [
        "▁stir",
        -11.288019826188242
      ],
      [
        "▁demand",
        -8.376691249688534
      ],
      [
        "▁donor",
        -10.940237162636354
      ],
      [
        ".com",
        -10.940525493319383
      ],
      [
        "ibbl",
        -10.901737029058697
      ],
      [
        "▁rack",
        -11.01350010011951
      ],
      [
        "▁cup",
        -11.587883159140727
      ],
      [
        "der",
        -7.243585232811172
      ],
      [
        "▁dollie",
        -9.346250101959924
      ],
      [
        "▁engineer",
        -9.093352946491583
      ],
      [
        "▁portra",
        -10.945794568166919
      ],
      [
        "ral",
        -8.016779290424799
      ],
      [
        "▁silver",
        -9.042406755167184
      ],
      [
        "▁sh",
        -8.782358489016376
      ],
      [
        "ham",
        -12.701888663622503
      ],
      [
        "▁pot",
        -9.301778768353284
      ],
      [
        "san",
        -8.940219519766174
      ],
      [
        "▁cri",
        -8.210649311346325
      ],
      [
        "measure",
        -12.284763893080802
      ],
      [
        "▁worship",
        -9.841259622262125
      ],
      [
        "flow",
        -10.567663795375564
      ],
      [
        "▁duplic",
        -11.773894156528813
      ],
      [
        "▁astronomer",
        -11.277677621589811
      ],
      [
        "r",
        -9.881310152285408
      ],
      [
        "merica",
        -7.458663328224141
      ],
      [
        "an",
        -7.7820359094516975
      ],
      [
        "▁intran",
        -10.97802445813432
      ],
      [
        "sti",
        -9.64341368490905
      ],
      [
        "doc",
        -9.149403681616615
      ],
      [
        "▁knot",
        -9.760517456913801
      ],
      [
        "pher",
        -10.617590441090847
      ],
      [
        "ex",
        -12.018644122831956
      ],
      [
        "▁outlet",
        -10.180477043492097
      ],
      [
        "let",
        -9.138793533962309
      ],
      [
        "▁interference",
        -9.95866450745276
      ],
      [
        "business",
        -12.653194199823579
      ],
      [
        "▁popul",
        -7.521468241169353
      ],
      [
        "▁m",
        -7.524629737534116
      ],
      [
        "ionnaire",
        -12.806880069086873
      ],
      [
        "▁must",
        -10.860228540204066
      ],
      [
        "sort",
        -12.683811788801396
      ],
      [
        "▁bulls",
        -12.004789619222025
      ],
      [
        "–",
        -3.815964758386654
      ],
      [
        "▁swear",
        -10.399236023275257
      ],
      [
        "▁vegetarian",
        -11.351597519982523
      ],
      [
        "is",
        -6.551512324352629
      ],
      [
        "▁indis",
        -10.052873662259735
      ],
      [
        "▁them",
        -5.092080749922366
      ],
      [
        "▁hack",
        -10.430233966129034
      ],
      [
        "opper",
        -11.939893472883616
      ],
      [
        "▁government",
        -6.885512764396745
      ],
      [
        "▁hard",
        -9.531978734785353
      ],
      [
        "▁mil",
        -6.263045355612971
      ],
      [
        "▁nomin",
        -10.428554605670556
      ],
      [
        "▁swe",
        -8.650268980650877
      ],
      [
        "▁partisans",
        -11.84773375654517
      ],
      [
        "mate",
        -11.491013477729869
      ],
      [
        "▁stran",
        -12.540096210982473
      ],
      [
        "▁sculpture",
        -10.323293148143621
      ],
      [
        "▁nonstop",
        -7.486763383135468
      ],
      [
        "......",
        -13.08817150327664
      ],
      [
        "dependenc",
        -10.277711774761494
      ],
      [
        "typic",
        -8.429230465170226
      ],
      [
        "▁touch",
        -7.580939470623513
      ],
      [
        "east",
        -8.907656339263568
      ],
      [
        "▁tub",
        -11.022811390401184
      ],
      [
        "▁compa",
        -8.78547574354922
      ],
      [
        "▁apolog",
        -11.7736140410288
      ],
      [
        "▁envision",
        -10.958726335838682
      ],
      [
        "▁effort",
        -7.600477884729759
      ],
      [
        "▁offs",
        -12.639963082791628
      ],
      [
        "▁screen",
        -11.012713111298487
      ],
      [
        "▁conce",
        -10.279745226660157
      ],
      [
        "ative",
        -10.853613525148006
      ],
      [
        "og",
        -11.404539928978979
      ],
      [
        "▁sw",
        -12.191342019317561
      ],
      [
        "prett",
        -10.313580401739934
      ],
      [
        "▁revol",
        -11.773723229046066
      ],
      [
        "ntist",
        -12.823532566097931
      ],
      [
        "▁board",
        -8.063606167118634
      ],
      [
        "▁import",
        -6.248272192306516
      ],
      [
        "▁entit",
        -8.825249655481134
      ],
      [
        "▁boat",
        -7.599440385718025
      ],
      [
        "hip",
        -9.389191158288853
      ],
      [
        "▁wise",
        -8.97855893362379
      ],
      [
        "▁gin",
        -11.060855620159861
      ],
      [
        "follow",
        -11.460282352086114
      ],
      [
        "ior",
        -11.21384055517794
      ],
      [
        "ct",
        -8.164314009566745
      ],
      [
        "les",
        -6.373733205880214
      ],
      [
        "▁he",
        -8.695014446296593
      ],
      [
        "▁h",
        -9.64414646600412
      ],
      [
        "▁priorit",
        -8.814996715849778
      ],
      [
        "▁t",
        -8.51074744854803
      ],
      [
        "▁bra",
        -10.590767608392705
      ],
      [
        "▁disinf",
        -11.67649696533419
      ],
      [
        "pool",
        -12.861764969670228
      ],
      [
        "▁hr",
        -10.887977235561804
      ],
      [
        "drop",
        -11.22259077900091
      ],
      [
        "▁intend",
        -7.878414666613796
      ],
      [
        "▁recording",
        -9.633938731744742
      ],
      [
        "▁borrow",
        -9.86903619898803
      ],
      [
        "ve",
        -6.027772946699521
      ],
      [
        "▁specifie",
        -9.53421340027119
      ],
      [
        "▁marginali",
        -10.37540038999017
      ],
      [
        "eign",
        -10.976389565899085
      ],
      [
        "da",
        -11.222074835862148
      ],
      [
        "h",
        -9.530401437393046
      ],
      [
        "p",
        -5.293431670462068
      ],
      [
        "bush",
        -11.768186478767005
      ],
      [
        "▁hipp",
        -11.789693843934591
      ],
      [
        "2/200",
        -7.94025564642595
      ],
      [
        "▁assi",
        -12.650927501113777
      ],
      [
        "ectan",
        -11.954237818049316
      ],
      [
        "▁",
        -1.4771507384749105
      ],
      [
        "▁step",
        -7.500447223510241
      ],
      [
        "ext",
        -10.389671360496573
      ],
      [
        "▁tee",
        -10.02586843483402
      ],
      [
        "▁grid",
        -9.759254230300451
      ],
      [
        "▁petition",
        -10.590917247148688
      ],
      [
        "▁holding",
        -11.00502147834422
      ],
      [
        "▁clari",
        -10.197458405384623
      ],
      [
        "emble",
        -11.67749983180755
      ],
      [
        "▁client",
        -8.781999973403217
      ],
      [
        "----------",
        -11.58057967967328
      ],
      [
        "dom",
        -9.950307846494304
      ],
      [
        "98",
        -7.379829568726602
      ],
      [
        "ag",
        -9.825387720886301
      ],
      [
        "▁rel",
        -11.5971472129862
      ],
      [
        "imple",
        -12.004464690144992
      ],
      [
        "resent",
        -11.373964920308694
      ],
      [
        "▁spirit",
        -8.849776359993832
      ],
      [
        "▁ja",
        -8.460252308955084
      ],
      [
        "▁aero",
        -10.116433105927436
      ],
      [
        "scient",
        -12.672495545864196
      ],
      [
        "▁beep",
        -9.978918987017924
      ],
      [
        "▁recycl",
        -11.459152047827263
      ],
      [
        "▁bask",
        -11.035832233991156
      ],
      [
        "[PAD]",
        0.0
      ],
      [
        "lang",
        -11.372523462782377
      ],
      [
        "vices",
        -12.405258443705558
      ],
      [
        "▁fan",
        -7.738746080139739
      ],
      [
        "atom",
        -11.983241750584398
      ],
      [
        "▁endow",
        -11.466097583416248
      ],
      [
        "▁balzac",
        -6.780069752695146
      ],
      [
        "▁ghost",
        -10.055416886236879
      ],
      [
        "▁package",
        -9.09114427117484
      ],
      [
        "▁haul",
        -11.278867034755056
      ],
      [
        "▁comfort",
        -11.458797740440628
      ],
      [
        "populate",
        -12.211861682639443
      ],
      [
        "ver",
        -12.069948448966699
      ],
      [
        "▁garden",
        -8.183935169491496
      ],
      [
        "o",
        -2.9644061227609457
      ],
      [
        "yea",
        -6.40361758520824
      ],
      [
        "▁player",
        -8.298134536398054
      ],
      [
        "▁paine",
        -8.474771311719362
      ],
      [
        "▁consumer",
        -9.005271056704325
      ],
      [
        "ride",
        -10.16911119030568
      ],
      [
        "so",
        -9.23250011917881
      ],
      [
        "ok",
        -8.671939891164984
      ],
      [
        "▁conf",
        -9.98448221516222
      ],
      [
        "▁",
        -1.6256745059821878
      ],
      [
        "tern",
        -8.754693229743047
      ],
      [
        "▁speed",
        -10.119693680725032
      ],
      [
        "folio",
        -9.77767171596197
      ],
      [
        "option",
        -9.898232059354815
      ],
      [
        "ce",
        -7.0321333004113775
      ],
      [
        "assemble",
        -12.244397984394327
      ],
      [
        "▁vul",
        -12.778231776309742
      ],
      [
        "ro",
        -9.323176805322918
      ],
      [
        "▁mosquito",
        -9.000931247044475
      ],
      [
        "▁associate",
        -9.28356032007701
      ],
      [
        "▁5",
        -4.7241759964630194
      ],
      [
        "faction",
        -9.67049120922349
      ],
      [
        "▁ca",
        -8.639878754911013
      ],
      [
        "▁carry",
        -7.4452905083337955
      ],
      [
        "▁speak",
        -12.802023003833643
      ],
      [
        "ental",
        -6.861060378996306
      ],
      [
        "res",
        -10.150917423092839
      ],
      [
        "hoo",
        -11.539881522129216
      ],
      [
        "road",
        -10.700331404150326
      ],
      [
        "nside",
        -10.44575557758811
      ],
      [
        "▁free",
        -11.328868897864364
      ],
      [
        "eparation",
        -10.770325384792613
      ],
      [
        "▁off",
        -11.475866037960074
      ],
      [
        "▁inquir",
        -10.976227197736938
      ],
      [
        "▁miner",
        -11.426992464933369
      ],
      [
        "etho",
        -11.757739082967388
      ],
      [
        "▁sanct",
        -10.20889628439504
      ],
      [
        "▁rever",
        -10.906863246522285
      ],
      [
        "hoop",
        -10.977196262808912
      ],
      [
        "wall",
        -11.822188061866687
      ],
      [
        "▁commit",
        -9.261825638492802
      ],
      [
        "▁wal",
        -8.383361728462894
      ],
      [
        "▁dinner",
        -7.135034705787256
      ],
      [
        "lada",
        -12.024950678094003
      ],
      [
        "▁color",
        -8.334045194202364
      ],
      [
        "immer",
        -11.513051502278984
      ],
      [
        "▁elbow",
        -9.75538329794551
      ],
      [
        "▁putt",
        -8.158922509182144
      ],
      [
        "ony",
        -12.364539202722415
      ],
      [
        "fore",
        -6.806894281632575
      ],
      [
        "▁partnership",
        -9.396139158480732
      ],
      [
        "ig",
        -9.269158868910841
      ],
      [
        "▁demonstration",
        -9.946468046726121
      ],
      [
        "the",
        -8.916273046268786
      ],
      [
        "▁interact",
        -9.212624344128375
      ],
      [
        "cover",
        -10.779746582197774
      ],
      [
        "▁humo",
        -10.273256740335412
      ],
      [
        "t",
        -4.366741745292707
      ],
      [
        "▁virtue",
        -10.489914197702408
      ],
      [
        "▁tyran",
        -10.94169019931741
      ],
      [
        "▁hik",
        -10.118774196630973
      ],
      [
        "▁roughhous",
        -11.785620900009347
      ],
      [
        "example",
        -12.715279488427448
      ],
      [
        "strip",
        -12.39217622001192
      ],
      [
        "▁maintain",
        -7.770155367477616
      ],
      [
        "othe",
        -12.588082962991356
      ],
      [
        "▁mass",
        -8.732274128229438
      ],
      [
        "lead",
        -10.849130457767265
      ],
      [
        "vi",
        -8.196938090323796
      ],
      [
        "▁act",
        -8.041418261246278
      ],
      [
        "▁programme",
        -7.9280658163115
      ],
      [
        "▁bubble",
        -8.92259247026757
      ],
      [
        "▁make",
        -10.12547565745522
      ],
      [
        "vel",
        -12.800568174235776
      ],
      [
        "▁weaken",
        -9.63442354424628
      ],
      [
        "▁pois",
        -11.070801805211996
      ],
      [
        "▁cook",
        -9.187747095685538
      ],
      [
        "bill",
        -12.32922586066818
      ],
      [
        "▁plac",
        -11.950078563978874
      ],
      [
        "▁arrival",
        -8.849838322401354
      ],
      [
        "▁tanker",
        -10.224391501812118
      ],
      [
        "▁arr",
        -10.519175412347684
      ],
      [
        "angle",
        -10.942570398572247
      ],
      [
        "▁carv",
        -11.113632860246994
      ],
      [
        "lie",
        -11.926210206863955
      ],
      [
        "pus",
        -11.03694194150375
      ],
      [
        "▁estate",
        -9.95053532741509
      ],
      [
        "▁banjo",
        -9.67221548751638
      ],
      [
        "ar",
        -8.992498660980536
      ],
      [
        "how",
        -8.956604690235753
      ],
      [
        "▁viole",
        -10.369879175566673
      ],
      [
        "▁retriever",
        -11.78330655627044
      ],
      [
        "▁schedul",
        -12.626474955587563
      ],
      [
        "▁scare",
        -9.20458049062011
      ],
      [
        "pe",
        -12.162349167248966
      ],
      [
        "▁organization",
        -8.18864466569211
      ],
      [
        "▁helicopter",
        -9.395635991207396
      ],
      [
        "▁avert",
        -11.461669260301733
      ],
      [
        "▁simil",
        -10.692619160273301
      ],
      [
        "abb",
        -11.709150505837615
      ],
      [
        "ea",
        -13.104392647885904
      ],
      [
        "▁budd",
        -9.84951585231263
      ],
      [
        "over",
        -8.292291013070475
      ],
      [
        "event",
        -12.09337551530703
      ],
      [
        "▁calcul",
        -12.723326817569397
      ],
      [
        "un",
        -10.766918713986763
      ],
      [
        "▁macadam",
        -11.773793254891652
      ],
      [
        "▁purp",
        -12.470918966256935
      ],
      [
        "▁stabilise",
        -11.458725846259695
      ],
      [
        "uva",
        -11.456634769559216
      ],
      [
        "gon",
        -9.842355029236305
      ],
      [
        "▁translat",
        -9.89342678835189
      ],
      [
        "▁holl",
        -12.793894105644137
      ],
      [
        "▁mo",
        -7.5210770731565155
      ],
      [
        "▁logo",
        -10.591497460296244
      ],
      [
        "die",
        -13.230603186937966
      ],
      [
        "▁coincide",
        -10.251147162270897
      ],
      [
        "▁suspect",
        -8.610884333859165
      ],
      [
        "▁calendar",
        -9.595767423330186
      ],
      [
        "rther",
        -8.522476295223875
      ],
      [
        "▁killie",
        -10.981152366429697
      ],
      [
        "▁glea",
        -10.421675450452215
      ],
      [
        "hills",
        -12.748144382504169
      ],
      [
        "▁libe",
        -12.870210688746266
      ],
      [
        "rtain",
        -10.287759140691445
      ],
      [
        "▁stoo",
        -7.955751216508731
      ],
      [
        "▁muff",
        -10.489676833827584
      ],
      [
        "▁m",
        -8.808938386214283
      ],
      [
        "▁vessel",
        -9.67235240127594
      ],
      [
        "▁184",
        -7.760163752357873
      ],
      [
        "▁music",
        -7.988187931492593
      ],
      [
        "eep",
        -8.863321435627396
      ],
      [
        "istic",
        -7.463813450001007
      ],
      [
        "nding",
        -11.361640797446091
      ],
      [
        "▁inflat",
        -12.143802528645962
      ],
      [
        "tel",
        -6.390730603715606
      ],
      [
        "▁shatter",
        -10.625402828284264
      ],
      [
        "umor",
        -11.948756137183336
      ],
      [
        "rat",
        -11.427586889530247
      ],
      [
        "▁montr",
        -8.317744571260306
      ],
      [
        "▁ne",
        -7.864967635903456
      ],
      [
        "ongre",
        -12.537233887074278
      ],
      [
        "ization",
        -10.093288099723118
      ],
      [
        "▁somewh",
        -7.838931967341778
      ],
      [
        "▁wo",
        -7.267365822071614
      ],
      [
        "▁shed",
        -11.183220478777283
      ],
      [
        "▁consci",
        -9.463757883024595
      ],
      [
        "▁polic",
        -8.822379879385958
      ],
      [
        "▁conservati",
        -11.613238252664871
      ],
      [
        "k",
        -6.32039397337508
      ],
      [
        "▁main",
        -9.842251295104699
      ],
      [
        "▁bef",
        -11.666917220655787
      ],
      [
        "▁uni",
        -9.14014574213494
      ],
      [
        "▁pixie",
        -10.323336678667678
      ],
      [
        "▁tag",
        -9.028384148317294
      ],
      [
        "▁distract",
        -10.175439502399023
      ],
      [
        "pinn",
        -11.553762417748898
      ],
      [
        "▁lu",
        -8.08077156361382
      ],
      [
        "ha",
        -9.035947903990632
      ],
      [
        "▁strength",
        -8.7821834038438
      ],
      [
        "▁instruct",
        -9.86922886338304
      ],
      [
        "endi",
        -10.243672828300106
      ],
      [
        "dew",
        -11.196736090406509
      ],
      [
        "rch",
        -11.59804544766691
      ],
      [
        "▁slum",
        -12.811501198624171
      ],
      [
        "▁ranch",
        -10.950370889545832
      ],
      [
        "▁dump",
        -10.323636228627171
      ],
      [
        "iron",
        -9.389205765440844
      ],
      [
        "▁appeal",
        -9.556580493539533
      ],
      [
        "glass",
        -10.277875765012048
      ],
      [
        "▁program",
        -7.676112551427601
      ],
      [
        "▁entre",
        -9.934151617397035
      ],
      [
        "▁thi",
        -11.928049434957765
      ],
      [
        "▁squirt",
        -9.288686004311
      ],
      [
        "▁deed",
        -10.327921759894327
      ],
      [
        "▁youngste",
        -12.762556675706792
      ],
      [
        "▁arrest",
        -9.02482456647259
      ],
      [
        "▁legi",
        -11.495568295409942
      ],
      [
        "▁159",
        -6.939662298813994
      ],
      [
        "create",
        -11.50999684465562
      ],
      [
        "▁vari",
        -7.348480747889891
      ],
      [
        "hu",
        -9.843845254913187
      ],
      [
        "▁youth",
        -9.457706658846948
      ],
      [
        "▁google",
        -10.823463136741564
      ],
      [
        "disease",
        -12.394810977326609
      ],
      [
        "▁sourc",
        -11.046339799991284
      ],
      [
        "▁navigate",
        -11.676415117955646
      ],
      [
        "▁an",
        -3.357172572066
      ],
      [
        "▁when",
        -3.9318797654183104
      ],
      [
        "▁button",
        -7.621242104034823
      ],
      [
        "spect",
        -12.46116240099604
      ],
      [
        "▁vom",
        -11.991138318949915
      ],
      [
        "▁correct",
        -12.77161527509324
      ],
      [
        "▁fina",
        -6.594469095657319
      ],
      [
        "shock",
        -11.210737578569136
      ],
      [
        "▁paragraph",
        -9.76606056333037
      ],
      [
        "hur",
        -9.641560713079777
      ],
      [
        "▁impe",
        -12.331353225962511
      ],
      [
        "▁clinic",
        -9.672328811540226
      ],
      [
        "▁storefront",
        -11.783090290248198
      ],
      [
        "▁gulp",
        -11.458803442655284
      ],
      [
        "verno",
        -8.53791624685838
      ],
      [
        "▁evolv",
        -9.307357676860246
      ],
      [
        "▁valu",
        -10.742818018737335
      ],
      [
        "bo",
        -11.241528047934572
      ],
      [
        "▁parl",
        -8.16237174061261
      ],
      [
        "▁towe",
        -9.689024425197355
      ],
      [
        "▁execution",
        -9.39557459833006
      ],
      [
        "▁factor",
        -8.208974347847912
      ],
      [
        "▁database",
        -8.47468412112337
      ],
      [
        "▁comp.",
        -11.777373013286338
      ],
      [
        "▁casse",
        -11.446420468990688
      ],
      [
        "▁170",
        -8.196312612443624
      ],
      [
        "steamboat",
        -11.779626189142236
      ],
      [
        "up",
        -8.293215112879373
      ],
      [
        "▁predi",
        -12.864323715398056
      ],
      [
        "▁allow",
        -10.619723840053256
      ],
      [
        "▁laws",
        -8.862877220151027
      ],
      [
        "▁pavement",
        -10.689910432036712
      ],
      [
        "axi",
        -10.707507818674149
      ],
      [
        "▁whale",
        -8.575546668793066
      ],
      [
        "▁prepa",
        -12.368982636589443
      ],
      [
        "▁under",
        -6.340505141486626
      ],
      [
        "▁cup",
        -7.521682879664078
      ],
      [
        "▁goo",
        -9.90545658694702
      ],
      [
        "▁bus",
        -6.093146094794693
      ],
      [
        "▁invite",
        -10.946809475114078
      ],
      [
        "▁b/",
        -11.153795423368507
      ],
      [
        "▁thin",
        -11.220569838788867
      ],
      [
        "▁pric",
        -9.603675705281892
      ],
      [
        "▁king",
        -7.67196309108378
      ],
      [
        "ous",
        -9.434827288139456
      ],
      [
        "▁bam",
        -11.563498917531115
      ],
      [
        "▁danc",
        -8.619351382735312
      ],
      [
        "▁cla",
        -10.93577062433248
      ],
      [
        "'t",
        -11.956910442027295
      ],
      [
        "sit",
        -9.383504073805348
      ],
      [
        "gy",
        -12.153593570331381
      ],
      [
        "▁reestablish",
        -11.464415947895905
      ],
      [
        "▁suffer",
        -7.928009550386038
      ],
      [
        "▁medi",
        -8.30174840018865
      ],
      [
        "▁help",
        -7.542154408352819
      ],
      [
        "▁reader",
        -10.476516553148821
      ],
      [
        "loite",
        -12.538610441980612
      ],
      [
        "▁richard",
        -7.523390134936683
      ],
      [
        "cal",
        -11.232344184400336
      ],
      [
        "secretary",
        -12.534280523062167
      ],
      [
        "wid",
        -12.421049275637149
      ],
      [
        "stle",
        -12.730490493414482
      ],
      [
        "▁examin",
        -9.377013372104653
      ],
      [
        "▁curve",
        -9.601610490149811
      ],
      [
        "▁prob",
        -11.392969708555642
      ],
      [
        "▁sixt",
        -7.576990953156584
      ],
      [
        "▁source",
        -7.600890067305296
      ],
      [
        "▁dive",
        -11.858097781372535
      ],
      [
        "▁ld2d-#693",
        -9.724436662520882
      ],
      [
        "▁chew",
        -11.825249818666379
      ],
      [
        "al",
        -12.463798400338906
      ],
      [
        "ly",
        -6.045208521205439
      ],
      [
        "▁zo",
        -10.51174749707842
      ],
      [
        "▁fa",
        -8.19876560582096
      ],
      [
        "▁house-el",
        -11.273455151026132
      ],
      [
        "rave",
        -12.285693127208159
      ],
      [
        "▁30",
        -10.411139197385463
      ],
      [
        "▁politician",
        -9.595896139780441
      ],
      [
        "▁examine",
        -8.958313668623637
      ],
      [
        "▁comed",
        -9.371862801970051
      ],
      [
        "▁household",
        -9.042847964190099
      ],
      [
        "▁editors",
        -10.41326242069361
      ],
      [
        "ars",
        -11.582132112021704
      ],
      [
        "ri",
        -10.338064210866907
      ],
      [
        "ator",
        -8.28752379621624
      ],
      [
        "y",
        -4.796594636724666
      ],
      [
        "▁ambassador",
        -10.939904888393894
      ],
      [
        "carry",
        -11.431151328994064
      ],
      [
        "▁ad",
        -9.232948965263905
      ],
      [
        "s",
        -6.625258447850738
      ],
      [
        "▁thrill",
        -10.958774338081941
      ],
      [
        "▁pric",
        -10.86843617152679
      ],
      [
        "someon",
        -9.75135018918097
      ],
      [
        "▁ha",
        -9.708367300837562
      ],
      [
        "▁document",
        -7.740615515530867
      ],
      [
        "▁destr",
        -12.744643798873145
      ],
      [
        "▁rega",
        -12.50866994144363
      ],
      [
        "micr",
        -12.861756507861307
      ],
      [
        "▁oppress",
        -10.958757495163
      ],
      [
        "lat",
        -12.38162918150987
      ],
      [
        "▁memo",
        -10.421241999035924
      ],
      [
        "▁brushe",
        -12.003883863710389
      ],
      [
        "▁was",
        -6.010289631052777
      ],
      [
        "▁curtain",
        -9.946110911087674
      ],
      [
        "with",
        -12.677198164544448
      ],
      [
        "▁salad",
        -8.549541470676555
      ],
      [
        "gger",
        -11.58992064748307
      ],
      [
        "▁disclose",
        -10.175851081647977
      ],
      [
        "r.",
        -10.249297113433288
      ],
      [
        "▁bop",
        -11.15226026641651
      ],
      [
        "▁ensur",
        -8.932108183470353
      ],
      [
        "urn",
        -11.815477863525278
      ],
      [
        "▁i",
        -7.733415807312335
      ],
      [
        "▁emerge",
        -9.38954857975813
      ],
      [
        "▁stung",
        -9.877622477097226
      ],
      [
        "▁retiree",
        -11.773319675301904
      ],
      [
        "▁retak",
        -11.500318494208638
      ],
      [
        "pt",
        -9.482845693749681
      ],
      [
        "▁handle",
        -9.727358655695339
      ],
      [
        "hidin",
        -12.651055342070146
      ],
      [
        "definition",
        -12.402740686441833
      ],
      [
        "▁strain",
        -9.442303807227562
      ],
      [
        "▁wrong",
        -6.889840448844239
      ],
      [
        "▁boost",
        -9.871722420135306
      ],
      [
        "mush",
        -11.47171452006971
      ],
      [
        "▁comment",
        -7.7884049885152
      ],
      [
        "▁eight",
        -5.45617522748721
      ],
      [
        "orum",
        -10.045579389542612
      ],
      [
        "-and-",
        -11.900803413437451
      ],
      [
        "nest",
        -12.744338836461877
      ],
      [
        "▁strutt",
        -11.497958291141977
      ],
      [
        "▁sniff",
        -10.375393110486147
      ],
      [
        "▁finish",
        -9.755899183278283
      ],
      [
        "▁carrie",
        -8.115915210446387
      ],
      [
        "▁im",
        -10.412941429518472
      ],
      [
        "▁drool",
        -10.961265484519844
      ],
      [
        "▁forth",
        -7.988309909754861
      ],
      [
        "▁categori",
        -10.549999442735533
      ],
      [
        "▁stati",
        -13.632783203501525
      ],
      [
        "▁process",
        -9.845681825194033
      ],
      [
        "92",
        -8.8162742016424
      ],
      [
        "▁airplane",
        -8.57601800490428
      ],
      [
        "imum",
        -11.280221640329977
      ],
      [
        "rank",
        -8.979148090616182
      ],
      [
        "ld",
        -13.665114895021633
      ],
      [
        "▁girl",
        -6.672321988464917
      ],
      [
        "▁root",
        -8.208813995077858
      ],
      [
        "▁colleg",
        -8.576273030224641
      ],
      [
        "▁awa",
        -10.08179556785489
      ],
      [
        "▁luna",
        -10.325330754185341
      ],
      [
        "▁_",
        -6.5485175092633074
      ],
      [
        "characterisation",
        -11.807090547386132
      ],
      [
        "ene",
        -12.775141532789098
      ],
      [
        "▁garr",
        -12.577491183332246
      ],
      [
        "▁grain",
        -9.536128138630984
      ],
      [
        "▁late",
        -6.267339765221746
      ],
      [
        "aking",
        -9.590362709685799
      ],
      [
        "▁with",
        -4.952485445949646
      ],
      [
        "▁journey",
        -9.281267373368276
      ],
      [
        "truck",
        -10.633382203875605
      ],
      [
        "reason",
        -11.687430603870066
      ],
      [
        "ester",
        -12.12396643904958
      ],
      [
        "▁dancer",
        -9.885134596944328
      ],
      [
        "ersion",
        -12.015180687658745
      ],
      [
        "h",
        -4.366450591382844
      ],
      [
        "▁violat",
        -10.543789740476551
      ],
      [
        "▁abr",
        -9.83611818667916
      ],
      [
        "ville",
        -7.023596430003555
      ],
      [
        "▁emit",
        -10.84706492817579
      ],
      [
        "▁milk",
        -10.625895806374423
      ],
      [
        "air",
        -9.601034974304415
      ],
      [
        "▁drought",
        -11.773255363341102
      ],
      [
        "taking",
        -10.783531590983312
      ],
      [
        "▁disarm",
        -12.390345867871648
      ],
      [
        "▁reception",
        -9.524653112963895
      ],
      [
        "▁compar",
        -9.282297036030215
      ],
      [
        "▁spectr",
        -11.049593313214967
      ],
      [
        "▁structur",
        -11.585798494859837
      ],
      [
        "transformation",
        -12.561427350806742
      ],
      [
        "▁conspira",
        -10.489908918163803
      ],
      [
        "▁customi",
        -12.484525132769063
      ],
      [
        "▁smuggle",
        -10.824332119835283
      ],
      [
        "▁menu",
        -8.52712310038263
      ],
      [
        "▁inflation",
        -9.672701906194849
      ],
      [
        "▁gall",
        -9.815934369441802
      ],
      [
        "times",
        -8.869412531279686
      ],
      [
        "lar",
        -8.411756771182054
      ],
      [
        "lover",
        -12.444326535293142
      ],
      [
        "▁tree",
        -7.694497026009828
      ],
      [
        "▁analyst",
        -8.80849251722881
      ],
      [
        "▁22",
        -10.490087162443437
      ],
      [
        "*",
        -10.946628386075023
      ],
      [
        "▁bea",
        -11.654885680309768
      ],
      [
        "▁plann",
        -7.863411079835668
      ],
      [
        "▁ri",
        -10.819887071530058
      ],
      [
        "▁micro",
        -8.395923053403743
      ],
      [
        "▁inspector",
        -10.323936303705947
      ],
      [
        "▁wish",
        -9.613689734240168
      ],
      [
        "▁close",
        -9.463172932684817
      ],
      [
        "do",
        -8.922653752225703
      ],
      [
        "ez",
        -8.048959315307378
      ],
      [
        "eal",
        -8.412510315749763
      ],
      [
        "punctu",
        -10.697116929547393
      ],
      [
        "▁slu",
        -10.729752058044275
      ],
      [
        "▁tomb",
        -10.975574013470496
      ],
      [
        "tional",
        -6.048598725648832
      ],
      [
        "ple",
        -11.125222066321479
      ],
      [
        "ort",
        -11.16745425350411
      ],
      [
        "▁confl",
        -12.411106229711294
      ],
      [
        "▁prepare",
        -7.995917764946754
      ],
      [
        "▁tha",
        -2.389866280899322
      ],
      [
        "▁sh",
        -10.403440650539778
      ],
      [
        "▁x",
        -8.996731787690084
      ],
      [
        "bra",
        -8.758384550273462
      ],
      [
        "▁found",
        -6.336787716580186
      ],
      [
        "▁luncheon",
        -10.691017001097777
      ],
      [
        "▁inquire",
        -10.941600769333743
      ],
      [
        ".",
        -4.295143567899552
      ],
      [
        "some",
        -7.51383462932265
      ],
      [
        "▁submit",
        -9.415786562877546
      ],
      [
        "▁litte",
        -12.581950150197542
      ],
      [
        "race",
        -10.600836965461115
      ],
      [
        "▁freez",
        -11.746369935090517
      ],
      [
        "sleeve",
        -12.553804149525295
      ],
      [
        "fe",
        -9.264869618385895
      ],
      [
        "▁contract",
        -8.149211494045986
      ],
      [
        "▁comparison",
        -9.086067963781046
      ],
      [
        "iner",
        -11.904775299343024
      ],
      [
        "▁snuggl",
        -11.458727100189531
      ],
      [
        ":",
        -5.121007365794226
      ],
      [
        "face",
        -9.417399835869556
      ],
      [
        "▁girlfriend",
        -9.230433754078463
      ],
      [
        "▁exhibit",
        -9.744631614273727
      ],
      [
        "a-",
        -12.228423522867743
      ],
      [
        "togen",
        -12.02799207870316
      ],
      [
        "▁islami",
        -7.93510282036169
      ],
      [
        "lativ",
        -8.53672055218997
      ],
      [
        "▁clown",
        -9.395287036420182
      ],
      [
        "▁res",
        -10.607307127888923
      ],
      [
        "▁advent",
        -12.778824205645284
      ],
      [
        "alisation",
        -12.471965317335474
      ],
      [
        "▁sway",
        -9.869892786801692
      ],
      [
        "▁pesticide",
        -11.773747632298402
      ],
      [
        "▁numb",
        -11.443150540523307
      ],
      [
        "▁blurr",
        -10.63355714758253
      ],
      [
        "bed",
        -11.745597630281058
      ],
      [
        "agilit",
        -12.778243986505494
      ],
      [
        ".",
        -8.968823829592118
      ],
      [
        "▁affliction",
        -10.48990705619978
      ],
      [
        "▁awe",
        -7.865995048863473
      ],
      [
        "scription",
        -12.576514159616416
      ],
      [
        "▁cop",
        -9.615313316135818
      ],
      [
        "▁ai",
        -9.99601562682949
      ],
      [
        "▁follow",
        -9.940168946128914
      ],
      [
        "▁shi",
        -9.961415596180455
      ],
      [
        "drop",
        -11.957776835614075
      ],
      [
        "▁nat",
        -8.983100514700261
      ],
      [
        "another",
        -8.42639901100924
      ],
      [
        "'",
        -8.49955302679235
      ],
      [
        "▁strong",
        -8.180612225759802
      ],
      [
        "▁lega",
        -7.356973108041503
      ],
      [
        "▁stint",
        -11.777957742962117
      ],
      [
        "▁fam",
        -9.822208931646745
      ],
      [
        "▁appetit",
        -10.205381342381564
      ],
      [
        "▁tug",
        -9.889805963552922
      ],
      [
        "▁highlight",
        -10.941853024275709
      ],
      [
        "▁grasp",
        -9.74422081448763
      ],
      [
        "▁doubl",
        -10.32467420684891
      ],
      [
        "▁gap",
        -9.146348008326168
      ],
      [
        "▁trick",
        -9.398617452179373
      ],
      [
        "▁service",
        -8.781598591072441
      ],
      [
        "list",
        -10.044231971094336
      ],
      [
        "▁tech",
        -10.88770790066206
      ],
      [
        "▁folder",
        -10.0665903659966
      ],
      [
        "▁implication",
        -9.94629301524924
      ],
      [
        "iologist",
        -12.790836874720416
      ],
      [
        "▁raffle",
        -11.274970618363907
      ],
      [
        "▁rooster",
        -10.691025603495595
      ],
      [
        "▁amalgam",
        -11.77323953557922
      ],
      [
        "▁produc",
        -9.460620216478583
      ],
      [
        "▁visitor",
        -8.689867134595486
      ],
      [
        "▁stands",
        -11.844774879860758
      ],
      [
        "▁smuggl",
        -10.95391452431548
      ],
      [
        "▁glid",
        -12.365387962727922
      ],
      [
        "lapse",
        -10.462913669008673
      ],
      [
        "▁onion",
        -9.607187580519247
      ],
      [
        "▁com",
        -9.713280606713065
      ],
      [
        "▁logg",
        -11.008689371677296
      ],
      [
        "ve",
        -8.87779545638558
      ],
      [
        "▁sim",
        -7.319585519843614
      ],
      [
        "▁cru",
        -7.9234238892248285
      ],
      [
        "'",
        -2.482385910194264
      ],
      [
        "conception",
        -11.000975286101179
      ],
      [
        "amel",
        -11.755145421197401
      ],
      [
        "low",
        -11.702099269539863
      ],
      [
        "▁magnif",
        -11.715950323744593
      ],
      [
        "once",
        -6.213434230210199
      ],
      [
        "▁flee",
        -10.98157081085025
      ],
      [
        "▁loc",
        -11.328085900586796
      ],
      [
        "thailand",
        -8.825274082799895
      ],
      [
        "lab",
        -11.762929257516682
      ],
      [
        "o",
        -4.757238422636543
      ],
      [
        "ap",
        -13.096598983055538
      ],
      [
        "nservati",
        -12.74351317455647
      ],
      [
        "▁duckie",
        -9.78606835477342
      ],
      [
        "▁upward",
        -9.988324936037166
      ],
      [
        "▁seeker",
        -9.458419981079265
      ],
      [
        "▁escap",
        -10.709803810610502
      ],
      [
        "▁pear",
        -11.46675699330677
      ],
      [
        "▁tame",
        -10.065466063697992
      ],
      [
        "tz",
        -8.87761071742614
      ],
      [
        "▁owl",
        -9.167765221455424
      ],
      [
        "l",
        -6.794751193104145
      ],
      [
        "ling",
        -8.816867775816943
      ],
      [
        "2000",
        -6.951704688285504
      ],
      [
        "u",
        -4.005956395885904
      ],
      [
        "obble",
        -11.429273012666512
      ],
      [
        "▁grocery",
        -10.079490966358495
      ],
      [
        "▁styl",
        -10.979545272667659
      ],
      [
        "▁vi",
        -8.818224574880656
      ],
      [
        "▁finding",
        -9.132147048818396
      ],
      [
        "18",
        -7.911211141822167
      ],
      [
        "▁lifestyle",
        -10.057859883323625
      ],
      [
        "vate",
        -12.814660336773548
      ],
      [
        "force",
        -9.467038325464657
      ],
      [
        "▁twe",
        -11.119893638106959
      ],
      [
        "row",
        -10.378284293134403
      ],
      [
        "▁bite",
        -9.284136386827436
      ],
      [
        "▁limb",
        -9.29794097847633
      ],
      [
        "thesi",
        -10.962387010087607
      ],
      [
        "▁syllable",
        -11.773238995002686
      ],
      [
        "▁dol",
        -11.974948567284093
      ],
      [
        "▁focuse",
        -9.211524198346563
      ],
      [
        "▁tremble",
        -11.31819634269354
      ],
      [
        "question",
        -12.860983013663096
      ],
      [
        "oul",
        -4.862598188843797
      ],
      [
        "st",
        -10.379310821297288
      ],
      [
        "▁no",
        -6.709205954266236
      ],
      [
        "▁belong",
        -7.909109751690545
      ],
      [
        "▁rough",
        -8.551598761038338
      ],
      [
        "▁abuse",
        -10.495834332991542
      ],
      [
        "▁cop",
        -10.712685840043992
      ],
      [
        "▁initial",
        -11.276344050637785
      ],
      [
        "▁fuck",
        -11.778735163763052
      ],
      [
        "▁jo",
        -12.707135634762986
      ],
      [
        "vacu",
        -10.061146267605958
      ],
      [
        "▁figure",
        -8.781993133681418
      ],
      [
        "▁bu",
        -9.024466543669934
      ],
      [
        "▁whi",
        -11.4688705740323
      ],
      [
        "▁struc",
        -9.573025127923305
      ],
      [
        "enter",
        -11.484597666071913
      ],
      [
        "▁chrom",
        -10.33389944442734
      ],
      [
        "▁occupy",
        -10.182172470793276
      ],
      [
        "▁pony",
        -9.759464500911024
      ],
      [
        "▁196",
        -6.719940973763605
      ],
      [
        "al",
        -7.165407135913336
      ],
      [
        "bound",
        -12.177917920695304
      ],
      [
        "own",
        -5.6515858426204515
      ],
      [
        "▁con",
        -7.391996245884695
      ],
      [
        "▁commi",
        -10.663312500887008
      ],
      [
        "▁k",
        -7.000291889236064
      ],
      [
        "continue",
        -11.13283148209722
      ],
      [
        "read",
        -9.55155215439153
      ],
      [
        ".",
        -5.947944720095198
      ],
      [
        "▁input",
        -10.181034729939215
      ],
      [
        "▁underw",
        -10.679085152512219
      ],
      [
        "▁download",
        -10.180897817167834
      ],
      [
        "▁compliment",
        -9.946541905104272
      ],
      [
        "ti",
        -9.238483674494448
      ],
      [
        "▁-",
        -7.106383807340567
      ],
      [
        "▁worm",
        -8.852222979900482
      ],
      [
        "se",
        -9.948025105051261
      ],
      [
        "tal",
        -11.014030772108574
      ],
      [
        "▁scann",
        -10.023973054650948
      ],
      [
        "currenc",
        -11.242727624346818
      ],
      [
        "▁rotati",
        -12.066981572468492
      ],
      [
        "▁contra",
        -12.460657371724114
      ],
      [
        "▁congrat",
        -12.773359098502954
      ],
      [
        "▁decree",
        -10.183672201523445
      ],
      [
        "patch",
        -10.934925296786158
      ],
      [
        "▁damn",
        -9.227687236554834
      ],
      [
        "▁refu",
        -10.962263908151082
      ],
      [
        "count",
        -12.596204043655803
      ],
      [
        "▁than",
        -5.888803821775666
      ],
      [
        "▁bang",
        -10.134044518423815
      ],
      [
        "ere",
        -8.9394830435864
      ],
      [
        "da",
        -9.364211689779456
      ],
      [
        "▁amaze",
        -9.86882489442777
      ],
      [
        "▁hiri",
        -11.425579724295563
      ],
      [
        "▁jump",
        -9.396024242150647
      ],
      [
        "▁third",
        -9.103594419905308
      ],
      [
        "aria",
        -11.347338642193442
      ],
      [
        "▁bat",
        -10.307725546008989
      ],
      [
        "tuck",
        -8.669650365756599
      ],
      [
        "▁menac",
        -11.458766907737152
      ],
      [
        "▁mon",
        -7.268925820340043
      ],
      [
        "▁subdu",
        -11.459828765152116
      ],
      [
        "ra",
        -8.8217200948464
      ],
      [
        "▁toga",
        -11.791145772690019
      ],
      [
        "▁brave",
        -8.972001887598585
      ],
      [
        "erall",
        -9.393147417596815
      ],
      [
        "ppl",
        -12.087139450434016
      ],
      [
        "▁spa",
        -9.612135711396284
      ],
      [
        "azines",
        -11.825758299759519
      ],
      [
        "▁critic",
        -8.258700501413035
      ],
      [
        "▁enchilada",
        -10.689904890399369
      ],
      [
        "time",
        -8.566251643589336
      ],
      [
        "▁compensate",
        -9.885234912673681
      ],
      [
        "▁obliterat",
        -11.45872562352859
      ],
      [
        "▁particle",
        -9.283098940350554
      ],
      [
        "▁rebu",
        -11.655436208600504
      ],
      [
        "▁ow",
        -7.359777847670573
      ],
      [
        "(",
        -4.690054248533107
      ],
      [
        "▁dam",
        -12.21469127759838
      ],
      [
        "▁care",
        -8.009467513872664
      ],
      [
        "▁ove",
        -9.723892381487545
      ],
      [
        "▁contest",
        -10.37565670942262
      ],
      [
        "▁donna",
        -8.728485479836605
      ],
      [
        "▁far",
        -10.042072282142673
      ],
      [
        "tur",
        -9.931207292537104
      ],
      [
        "▁hope",
        -8.37314824040065
      ],
      [
        "▁eu",
        -7.8428678756347185
      ],
      [
        "▁attempt",
        -8.239560933619895
      ],
      [
        "▁dais",
        -11.394130893921929
      ],
      [
        "▁newsletter",
        -11.779166333162104
      ],
      [
        "▁convinc",
        -10.731426916810456
      ],
      [
        "▁impulse",
        -10.180390933438593
      ],
      [
        "▁brief",
        -10.95894906264636
      ],
      [
        "▁architect",
        -9.22886153251232
      ],
      [
        "goe",
        -13.267517313985918
      ],
      [
        "bble",
        -11.951946746120486
      ],
      [
        "rash",
        -10.346496701430775
      ],
      [
        "nam",
        -9.350173712630072
      ],
      [
        "▁trimmer",
        -11.774004356270039
      ],
      [
        "▁regret",
        -9.489790445532266
      ],
      [
        "visit",
        -12.37700838193746
      ],
      [
        "ervice",
        -12.74691813912405
      ],
      [
        "▁incorporate",
        -8.867489578700768
      ],
      [
        "politic",
        -6.515086073278683
      ],
      [
        "▁expe",
        -10.29727691418903
      ],
      [
        "▁pre",
        -9.008752601000232
      ],
      [
        "hunh",
        -8.187789420112253
      ],
      [
        "uge",
        -8.436200899698138
      ],
      [
        "▁respect",
        -8.972298099146274
      ],
      [
        "▁alignment",
        -10.489904937290657
      ],
      [
        "▁strengthen",
        -8.731130213921778
      ],
      [
        "▁ste",
        -10.93979617678803
      ],
      [
        "▁?",
        -7.15796154337125
      ],
      [
        "▁contradict",
        -10.175392292207269
      ],
      [
        "▁dark",
        -8.886401379705084
      ],
      [
        "3",
        -4.193572430795963
      ],
      [
        "uh",
        -13.441672283788352
      ],
      [
        "▁direct",
        -8.924893410825268
      ],
      [
        "▁fin",
        -9.755783158749269
      ],
      [
        "introduc",
        -13.623381584712593
      ],
      [
        "▁poet",
        -8.509221116818596
      ],
      [
        "▁upgrad",
        -10.692752842885083
      ],
      [
        "▁consultan",
        -12.79485588392324
      ],
      [
        "ulti",
        -9.07837522565108
      ],
      [
        "ago",
        -6.519689936574885
      ],
      [
        "▁resource",
        -8.261327467282946
      ],
      [
        "▁alco",
        -12.55815339070772
      ],
      [
        "ew",
        -11.370652604706304
      ],
      [
        "remain",
        -12.686186664379093
      ],
      [
        "▁first",
        -4.829267318650501
      ],
      [
        "▁broker",
        -10.335052784365056
      ],
      [
        "▁mohamm",
[...]
