{
  "version": "1.0",
  "truncation": null,
  "padding": null,
  "added_tokens": [
    {
      "id": 5432,
      "content": "[PAD]",
      "single_word": false,
      "lstrip": false,
      "rstrip": false,
      "normalized": false,
      "special": true
    },
    {
      "id": 6188,
      "content": "[UNK]",
      "single_word": false,
      "lstrip": false,
      "rstrip": false,
      "normalized": false,
      "special": true
    },
    {
      "id": 6649,
      "content": "[SEP]",
      "single_word": false,
      "lstrip": false,
      "rstrip": false,
      "normalized": false,
      "special": true
    },
    {
      "id": 10740,
      "content": "[CLS]",
      "single_word": false,
      "lstrip": false,
      "rstrip": false,
      "normalized": false,
      "special": true
    },
    {
      "id": 13310,
      "content": "[MASK]",
      "single_word": false,
      "lstrip": false,
      "rstrip": false,
      "normalized": false,
      "special": true
    }
  ],
  "normalizer": {
    "type": "Sequence",
    "normalizers": [
      {
        "type": "NFD"
      },
      {
        "type": "Lowercase"
      },
      {
        "type": "StripAccents"
      }
    ]
  },
  "pre_tokenizer": {
    "type": "Sequence",
    "pretokenizers": [
      {
        "type": "Metaspace",
        "replacement": "▁",
        "prepend_scheme": "always",
        "split": true
      }
    ]
  },
  "post_processor": {
    "type": "TemplateProcessing",
    "single": [
      {
        "SpecialToken": {
          "id": "[CLS]",
          "type_id": 0
        }
      },
      {
        "Sequence": {
          "id": "A",
          "type_id": 0
        }
      },
      {
        "SpecialToken": {
          "id": "[SEP]",
          "type_id": 0
        }
      }
    ],
    "pair": [
      {
        "SpecialToken": {
          "id": "[CLS]",
          "type_id": 0
        }
      },
      {
        "Sequence": {
          "id": "A",
          "type_id": 0
        }
      },
      {
        "SpecialToken": {
          "id": "[SEP]",
          "type_id": 0
        }
      },
      {
        "Sequence": {
          "id": "B",
          "type_id": 1
        }
      },
      {
        "SpecialToken": {
          "id": "[SEP]",
          "type_id": 1
        }
      }
    ],
    "special_tokens": {
      "[CLS]": {
        "id": "[CLS]",
        "ids": [
          10740
        ],
        "tokens": [
          "[CLS]"
        ]
      },
      "[SEP]": {
        "id": "[SEP]",
        "ids": [
          6649
        ],
        "tokens": [
          "[SEP]"
        ]
      }
    }
  },
  "decoder": {
    "type": "Metaspace",
    "replacement": "▁",
    "prepend_scheme": "always",
    "split": true
  },
  "model": {
    "type": "WordPiece",
    "unk_token": "[UNK]",
    "continuing_subword_prefix": "##",
    "max_input_chars_per_word": 100,
    "vocab": {
      "##}": 0,
      "▁imple": 1,
      "▁rapporte": 2,
      "▁pri": 3,
      "##pse": 4,
      "▁reinforces": 5,
      "▁wakes": 6,
      "▁exchang": 7,
      "▁winking": 8,
      "▁shape": 9,
      "▁calc": 10,
      "##food": 11,
      "▁inequ": 12,
      "##icked": 13,
      "▁meals": 14,
      "▁doctors": 15,
      "##ais": 16,
      "▁interpretations": 17,
      "##oles": 18,
      "▁relax": 19,
      "▁cartoons": 20,
      "▁preferences": 21,
      "▁checkerspot": 22,
      "▁afters": 23,
      "▁altered": 24,
      "##hh": 25,
      "##ract": 26,
      "##itage": 27,
      "##erce": 28,
      "▁rober": 29,
      "▁credibility": 30,
      "▁names": 31,
      "▁specimens": 32,
      "▁apost": 33,
      "▁headed": 34,
      "▁sniff": 35,
      "▁ancestry": 36,
      "##oup": 37,
      "▁wording": 38,
      "▁loose": 39,
      "▁overwhelmed": 40,
      "##3": 41,
      "▁math": 42,
      "##iency": 43,
      "▁schedul": 44,
      "##asing": 45,
      "▁mermaid": 46,
      "▁wheelchair": 47,
      "▁abstract": 48,
      "##irt": 49,
      "▁stuck": 50,
      "##chair": 51,
      "▁against": 52,
      "▁mich": 53,
      "##ww": 54,
      "▁becomes": 55,
      "▁pivotchart": 56,
      "▁theodorus": 57,
      "▁great": 58,
      "▁least": 59,
      "##ged": 60,
      "▁discount": 61,
      "▁fee": 62,
      "##rich": 63,
      "▁kins": 64,
      "##ouch": 65,
      "▁players": 66,
      "▁describing": 67,
      "##attering": 68,
      "▁relates": 69,
      "▁specified": 70,
      "▁expansion": 71,
      "▁ros": 72,
      "▁loud": 73,
      "▁reconsider": 74,
      "▁spices": 75,
      "▁23": 76,
      "▁comprehension": 77,
      "▁young": 78,
      "▁overc": 79,
      "##”": 80,
      "▁corn": 81,
      "##pol": 82,
      "▁plane": 83,
      "▁defeated": 84,
      "##r.": 85,
      "##fics": 86,
      "▁had": 87,
      "▁susp": 88,
      "▁platted": 89,
      "▁lingerie": 90,
      "▁neo": 91,
      "##.ve": 92,
      "▁greeting": 93,
      "##tician": 94,
      "▁leaders": 95,
      "▁chilling": 96,
      "▁seiz": 97,
      "##kering": 98,
      "▁wounds": 99,
      "▁empty": 100,
      "▁dislike": 101,
      "##gel": 102,
      "▁guid": 103,
      "##rite": 104,
      "▁uniform": 105,
      "##ades": 106,
      "▁clinics": 107,
      "##rel": 108,
      "▁apprec": 109,
      "##issing": 110,
      "▁ag": 111,
      "##viously": 112,
      "##timate": 113,
      "▁responsibility": 114,
      "▁borne": 115,
      "▁influenced": 116,
      "▁secur": 117,
      "▁squeeze": 118,
      "▁modified": 119,
      "▁blessings": 120,
      "▁chicken": 121,
      "▁sanctuary": 122,
      "▁letting": 123,
      "▁strut": 124,
      "▁format": 125,
      "▁paul": 126,
      "▁handful": 127,
      "▁peppers": 128,
      "▁nov": 129,
      "▁dilemmas": 130,
      "▁cloud": 131,
      "▁last": 132,
      "▁visit": 133,
      "##angled": 134,
      "▁outwe": 135,
      "▁shut": 136,
      "##4": 137,
      "##omp": 138,
      "▁ranger": 139,
      "▁inspector": 140,
      "##tering": 141,
      "▁presents": 142,
      "##ought": 143,
      "▁mosquitoes": 144,
      "▁mike": 145,
      "##ρ": 146,
      "##zema": 147,
      "##ili": 148,
      "▁she": 149,
      "▁hamb": 150,
      "▁rape": 151,
      "▁tugged": 152,
      "##ur": 153,
      "##ti": 154,
      "▁origin": 155,
      "▁likelihood": 156,
      "▁techniqu": 157,
      "##ression": 158,
      "▁confirmed": 159,
      "##ware": 160,
      "▁completely": 161,
      "▁yacht": 162,
      "##drops": 163,
      "▁again": 164,
      "▁told": 165,
      "▁oc": 166,
      "▁papers": 167,
      "##ires": 168,
      "▁founders": 169,
      "▁haven": 170,
      "▁biologists": 171,
      "▁fortunes": 172,
      "▁youtu": 173,
      "##urs": 174,
      "##ything": 175,
      "▁hi": 176,
      "▁embargo": 177,
      "##oose": 178,
      "▁****": 179,
      "▁tack": 180,
      "▁dis": 181,
      "▁seesaw": 182,
      "▁charged": 183,
      "▁grandpar": 184,
      "▁conse": 185,
      "##nus": 186,
      "▁containers": 187,
      "▁believes": 188,
      "▁stip": 189,
      "▁taiwan": 190,
      "▁wander": 191,
      "##ound": 192,
      "▁pit": 193,
      "##ensions": 194,
      "▁icing": 195,
      "▁favorites": 196,
      "▁intending": 197,
      "▁continued": 198,
      "▁insert": 199,
      "▁nobody": 200,
      "▁varied": 201,
      "##enity": 202,
      "▁demonstration": 203,
      "▁manner": 204,
      "r": 205,
      "▁whil": 206,
      "▁indi": 207,
      "▁pup": 208,
      "▁bell": 209,
      "▁substance": 210,
      "##nam": 211,
      "##aj": 212,
      "▁regional": 213,
      "▁microsoft": 214,
      "▁involved": 215,
      "▁wilt": 216,
      "▁official": 217,
      "▁recr": 218,
      "▁file": 219,
      "▁bloo": 220,
      "▁driving": 221,
      "##girl": 222,
      "▁chall": 223,
      "▁pillars": 224,
      "▁chill": 225,
      "▁organism": 226,
      "▁garden": 227,
      "▁not": 228,
      "##adder": 229,
      "▁translations": 230,
      "▁aun": 231,
      "▁tha": 232,
      "##σ": 233,
      "##warded": 234,
      "▁quaffle": 235,
      "##rol": 236,
      "▁withdraw": 237,
      "##tiqu": 238,
      "▁lin": 239,
      "▁organiz": 240,
      "▁teenager": 241,
      "▁consultation": 242,
      "▁sunk": 243,
      "▁laugh": 244,
      "▁straw": 245,
      "▁launching": 246,
      "▁)": 247,
      "▁kung": 248,
      "▁interrupted": 249,
      "▁sul": 250,
      "▁them": 251,
      "▁ex": 252,
      "▁dishes": 253,
      "▁blades": 254,
      "▁tramp": 255,
      "▁.!": 256,
      "▁coordinator": 257,
      "▁designated": 258,
      "▁farm": 259,
      "▁interpret": 260,
      "▁rug": 261,
      "w": 262,
      "##resent": 263,
      "▁lip": 264,
      "▁fallen": 265,
      "▁idiot": 266,
      "▁wondering": 267,
      "##y0": 268,
      "▁dedicated": 269,
      "▁gas": 270,
      "▁fung": 271,
      "▁dough": 272,
      "▁aim": 273,
      "▁lion": 274,
      "▁taxes": 275,
      "▁chat": 276,
      "##oral": 277,
      "▁debate": 278,
      "##ugging": 279,
      "▁rabbit": 280,
      "▁bringing": 281,
      "▁examine": 282,
      "▁hasid": 283,
      "▁batteries": 284,
      "▁stroke": 285,
      "▁organ": 286,
      "▁story": 287,
      "##iries": 288,
      "##------->": 289,
      "▁fa": 290,
      "▁temple": 291,
      "##arming": 292,
      "▁oozing": 293,
      "▁pewter": 294,
      "▁phenom": 295,
      "▁reit": 296,
      "▁into": 297,
      "##iles": 298,
      "▁wh": 299,
      "▁case": 300,
      "▁hundred": 301,
      "▁broken": 302,
      "##ained": 303,
      "##per": 304,
      "▁regularly": 305,
      "▁calend": 306,
      "##±": 307,
      "##locked": 308,
      "▁observers": 309,
      "##bio": 310,
      "▁majority": 311,
      "▁sow": 312,
      "▁legend": 313,
      "▁=": 314,
      "▁cosplay": 315,
      "▁accomplish": 316,
      "▁scenes": 317,
      "▁lear": 318,
      "▁persuading": 319,
      "▁foreign": 320,
      "##inu": 321,
      "▁coupled": 322,
      "▁fumes": 323,
      "##phie": 324,
      "▁nerv": 325,
      "▁intr": 326,
      "▁activ": 327,
      "##ectively": 328,
      "▁state": 329,
      "▁perhap": 330,
      "▁know": 331,
      "▁writing": 332,
      "▁tons": 333,
      "▁flex": 334,
      "▁transporting": 335,
      "▁proc": 336,
      "##..": 337,
      "##minated": 338,
      "▁listing": 339,
      "▁substances": 340,
      "▁duckies": 341,
      "▁slid": 342,
      "▁rall": 343,
      "##btu": 344,
      "##butz": 345,
      "▁psychology": 346,
      "##dre": 347,
      "▁equi": 348,
      "▁ba": 349,
      "##ledge": 350,
      "▁achievements": 351,
      "▁drugs": 352,
      "▁elastic": 353,
      "▁encounters": 354,
      "##ognition": 355,
      "▁sh": 356,
      "▁worst": 357,
      "▁buddies": 358,
      "▁estimates": 359,
      "##ife": 360,
      "▁cockati": 361,
      "##teen": 362,
      "▁forget": 363,
      "▁soccer": 364,
      "##uten": 365,
      "▁arises": 366,
      "▁muggle": 367,
      "▁municipalities": 368,
      "▁charging": 369,
      "▁chocol": 370,
      "▁monasteries": 371,
      "##tly": 372,
      "▁halls": 373,
      "##yond": 374,
      "##lando": 375,
      "▁fifth": 376,
      "▁encoun": 377,
      "▁engineer": 378,
      "▁joke": 379,
      "▁first": 380,
      "▁farce": 381,
      "▁ladybug": 382,
      "▁receiver": 383,
      "▁commercial": 384,
      "##iating": 385,
      "▁journals": 386,
      "##iistocks": 387,
      "▁kh": 388,
      "♥": 389,
      "▁estate": 390,
      "▁blows": 391,
      "##tainly": 392,
      "▁accumulating": 393,
      "▁sav": 394,
      "▁iq": 395,
      "▁mechan": 396,
      "▁conve": 397,
      "▁vowed": 398,
      "##onom": 399,
      "##mbered": 400,
      "▁responsibilities": 401,
      "▁insulation": 402,
      "▁professors": 403,
      "▁festival": 404,
      "▁buyer": 405,
      "##jec": 406,
      "▁sleepy": 407,
      "▁negligence": 408,
      "▁bathroom": 409,
      "▁camel": 410,
      "▁property": 411,
      "▁pockets": 412,
      "▁p&l": 413,
      "▁identi": 414,
      "▁clear": 415,
      "▁pledged": 416,
      "▁vow": 417,
      "▁instinct": 418,
      "##ats": 419,
      "▁clauses": 420,
      "▁inning": 421,
      "▁openness": 422,
      "▁clicked": 423,
      "▁letters": 424,
      "##ilter": 425,
      "▁institution": 426,
      "▁romances": 427,
      "##ounds": 428,
      "##isions": 429,
      "##held": 430,
      "▁catast": 431,
      "##ys": 432,
      "##able": 433,
      "▁scratched": 434,
      "▁antiques": 435,
      "▁tre": 436,
      "▁all": 437,
      "▁modernity": 438,
      "▁nerve": 439,
      "▁ev": 440,
      "##ctly": 441,
      "##fire": 442,
      "▁innov": 443,
      "▁memory": 444,
      "▁renovation": 445,
      "##hocks": 446,
      "▁role": 447,
      "##????": 448,
      "▁beer": 449,
      "▁genres": 450,
      "##lation": 451,
      "▁cli": 452,
      "▁?????": 453,
      "▁january": 454,
      "▁talks": 455,
      "##-l": 456,
      "▁grumbles": 457,
      "##$t": 458,
      "##acies": 459,
      "▁response": 460,
      "##isons": 461,
      "▁tiles": 462,
      "▁detect": 463,
      "▁challenged": 464,
      "▁t3i": 465,
      "##ooding": 466,
      "##uma": 467,
      "▁victorians": 468,
      "▁adjustment": 469,
      "##ple": 470,
      "▁kills": 471,
      "▁flowing": 472,
      "▁arrogance": 473,
      "##lus": 474,
      "▁forgotten": 475,
      "▁amazing": 476,
      "▁spoke": 477,
      "▁bible": 478,
      "▁am": 479,
      "##cel": 480,
      "▁observer": 481,
      "▁d700": 482,
      "▁equity": 483,
      "▁become": 484,
      "▁aged": 485,
      "▁believed": 486,
      "▁interventions": 487,
      "##aust": 488,
      "▁unem": 489,
      "▁standing": 490,
      "▁airline": 491,
      "##'clock": 492,
      "##ists": 493,
      "##aged": 494,
      "##feration": 495,
      "▁affection": 496,
      "▁income": 497,
      "▁arrest": 498,
      "▁soot": 499,
      "▁cred": 500,
      "▁alcoho": 501,
      "##anded": 502,
      "▁urging": 503,
      "▁subsidi": 504,
      "▁resembled": 505,
      "▁histories": 506,
      "▁mish": 507,
      "▁entails": 508,
      "▁foc": 509,
      "▁anger": 510,
      "▁foreigners": 511,
      "▁washing": 512,
      "▁wrec": 513,
      "▁bul": 514,
      "▁propping": 515,
      "▁physician": 516,
      "▁surpr": 517,
      "##ete": 518,
      "##unh": 519,
      "##sequently": 520,
      "##mp": 521,
      "▁rum": 522,
      "▁dere": 523,
      "▁invented": 524,
      "▁influ": 525,
      "▁grams": 526,
      "▁stinging": 527,
      "▁evap": 528,
      "▁align": 529,
      "##/2000": 530,
      "▁debtors": 531,
      "▁federation": 532,
      "##opath": 533,
      "▁hass": 534,
      "▁lottery": 535,
      "▁lands": 536,
      "▁recording": 537,
      "▁sof": 538,
      "▁kinematics": 539,
      "▁gesture": 540,
      "##awed": 541,
      "##saw": 542,
      "▁participation": 543,
      "▁sacrificed": 544,
      "▁bicycles": 545,
      "▁restrictions": 546,
      "▁mes": 547,
      "##iance": 548,
      "▁airl": 549,
      "▁queries": 550,
      "▁;": 551,
      "##hikii": 552,
      "▁reserved": 553,
      "▁bbq": 554,
      "##pd": 555,
      "▁sheet": 556,
      "▁hairdresser": 557,
      "▁cowboy": 558,
      "▁byp": 559,
      "▁compete": 560,
      "▁regimes": 561,
      "▁referring": 562,
      "▁buz": 563,
      "▁chapters": 564,
      "ο": 565,
      "##affles": 566,
      "▁possessed": 567,
      "##-fl": 568,
      "▁seas": 569,
      "▁flour": 570,
      "▁comp.sources.un": 571,
      "▁customizing": 572,
      "▁boards": 573,
      "▁rhinoceros": 574,
      "▁gasped": 575,
      "▁forum": 576,
      "▁apparently": 577,
      "##ca": 578,
      "##ention": 579,
      "##ning": 580,
      "▁arti": 581,
      "▁magn": 582,
      "##bows": 583,
      "##uttered": 584,
      "##met": 585,
      "▁access": 586,
      "▁ribs": 587,
      "▁wound": 588,
      "▁exaggerated": 589,
      "▁committ": 590,
      "▁tomato": 591,
      "▁sky": 592,
      "▁planting": 593,
      "▁destroy": 594,
      "▁criticized": 595,
      "##fully": 596,
      "▁harmonisation": 597,
      "▁patterns": 598,
      "▁educate": 599,
      "▁n’t": 600,
      "▁del": 601,
      "▁color": 602,
      "▁runner": 603,
      "##ernobyl": 604,
      "##liferation": 605,
      "▁lying": 606,
      "▁congregation": 607,
      "▁wizard": 608,
      "▁yrs": 609,
      "▁enter": 610,
      "##ison": 611,
      "▁booking": 612,
      "##icians": 613,
      "▁delay": 614,
      "▁prisoners": 615,
      "▁california": 616,
      "##asa": 617,
      "▁customers": 618,
      "▁suspect": 619,
      "##????????????????": 620,
      "##[": 621,
      "▁tasted": 622,
      "▁ways": 623,
      "▁pairs": 624,
      "▁meowing": 625,
      "▁compelling": 626,
      "▁hem": 627,
      "▁court": 628,
      "▁third": 629,
      "▁talent": 630,
      "▁taco": 631,
      "##ologies": 632,
      "▁collects": 633,
      "▁peaceful": 634,
      "▁wear": 635,
      "##stances": 636,
      "##alling": 637,
      "▁figure": 638,
      "▁chim": 639,
      "▁sweater": 640,
      "##letter": 641,
      "▁special": 642,
      "▁liabilities": 643,
      "▁rejects": 644,
      "▁ringlets": 645,
      "##selves": 646,
      "▁greatly": 647,
      "▁refri": 648,
      "##iversary": 649,
      "##assment": 650,
      "▁moves": 651,
      "##poon": 652,
      "▁birdie": 653,
      "▁discont": 654,
      "▁silic": 655,
      "▁winter": 656,
      "▁b.": 657,
      "▁pas": 658,
      "##pan": 659,
      "##pses": 660,
      "▁adam": 661,
      "▁wonderful": 662,
      "▁matt": 663,
      "▁agencies": 664,
      "▁competitiveness": 665,
      "##otyp": 666,
      "▁doll": 667,
      "▁some": 668,
      "▁licenses": 669,
      "▁evacuate": 670,
      "▁takes": 671,
      "##1": 672,
      "▁reportedly": 673,
      "▁miam": 674,
      "##akes": 675,
      "▁cluster": 676,
      "##cessfully": 677,
      "▁phen": 678,
      "▁fasc": 679,
      "▁transit": 680,
      "▁deteriorated": 681,
      "▁buzzer": 682,
      "▁leash": 683,
      "▁whereas": 684,
      "▁draw": 685,
      "▁scratching": 686,
      "▁pony": 687,
      "▁regime": 688,
      "▁rush": 689,
      "▁dwibbling": 690,
      "▁bounced": 691,
      "▁blame": 692,
      "▁tumbling": 693,
      "##urning": 694,
      "##dibly": 695,
      "▁heaven": 696,
      "▁islands": 697,
      "▁weakening": 698,
      "▁mesh": 699,
      "▁ans": 700,
      "▁jumped": 701,
      "▁vegetation": 702,
      "##iry": 703,
      "▁crest": 704,
      "##tail": 705,
      "▁kitt": 706,
      "▁update": 707,
      "##arity": 708,
      "##scrib": 709,
      "##orded": 710,
      "▁appreciate": 711,
      "▁proponents": 712,
      "▁freezing": 713,
      "##chest": 714,
      "▁cookies": 715,
      "▁nephew": 716,
      "▁adult": 717,
      "▁asser": 718,
      "▁germ": 719,
      "##haki": 720,
      "▁allig": 721,
      "▁europe": 722,
      "▁stampede": 723,
      "▁arrival": 724,
      "▁ome": 725,
      "▁plague": 726,
      "##load": 727,
      "▁facility": 728,
      "##anized": 729,
      "▁mist": 730,
      "▁winner": 731,
      "▁roared": 732,
      "▁banana": 733,
      "##wom": 734,
      "▁data": 735,
      "▁legs": 736,
      "▁clam": 737,
      "▁changes": 738,
      "▁prev": 739,
      "▁doc": 740,
      "▁professionals": 741,
      "##erti": 742,
      "▁personal": 743,
      "▁threatened": 744,
      "▁its": 745,
      "▁resched": 746,
      "##ision": 747,
      "▁objec": 748,
      "##oices": 749,
      "▁bites": 750,
      "▁race": 751,
      "##itude": 752,
      "▁dictionary": 753,
      "▁climber": 754,
      "▁interpretation": 755,
      "▁exhaus": 756,
      "▁coff": 757,
      "▁muffs": 758,
      "##cut": 759,
      "▁80's": 760,
      "▁nature": 761,
      "▁could": 762,
      "▁delicious": 763,
      "##ired": 764,
      "▁virt": 765,
      "▁tol": 766,
      "▁tem": 767,
      "▁outside": 768,
      "▁five": 769,
      "▁session": 770,
      "▁baseball": 771,
      "▁structures": 772,
      "▁meter": 773,
      "▁cuis": 774,
      "▁wives": 775,
      "##gown": 776,
      "▁military": 777,
      "▁partnerships": 778,
      "▁combination": 779,
      "▁dam": 780,
      "##tially": 781,
      "##-class": 782,
      "##itish": 783,
      "ε": 784,
      "▁increasing": 785,
      "▁broc": 786,
      "▁rolling": 787,
      "▁emotions": 788,
      "▁capture": 789,
      "##opard": 790,
      "##mly": 791,
      "▁build": 792,
      "▁repay": 793,
      "▁posted": 794,
      "▁ori": 795,
      "▁sounding": 796,
      "▁beliefs": 797,
      "▁bpd": 798,
      "##ge": 799,
      "▁aug": 800,
      "▁bes": 801,
      "▁api": 802,
      "▁dancing": 803,
      "▁poli": 804,
      "▁modify": 805,
      "▁envis": 806,
      "▁swear": 807,
      "▁art": 808,
      "##ens": 809,
      "##erance": 810,
      "##wi": 811,
      "▁italy": 812,
      "▁vib": 813,
      "##ss": 814,
      "▁notions": 815,
      "▁proposals": 816,
      "▁ink": 817,
      "▁liberty": 818,
      "▁shatter": 819,
      "▁ripped": 820,
      "▁hiking": 821,
      "▁organis": 822,
      "▁handle": 823,
      "▁hurting": 824,
      "▁rounds": 825,
      "##alsa": 826,
      "▁solved": 827,
      "▁bouts": 828,
      "##ineered": 829,
      "▁seamst": 830,
      "▁showed": 831,
      "▁comfortable": 832,
      "▁astronauts": 833,
      "##rect": 834,
      "▁defining": 835,
      "##my": 836,
      "▁otherwise": 837,
      "▁ps": 838,
      "▁badge": 839,
      "▁swede": 840,
      "▁gel": 841,
      "##ttp": 842,
      "▁addition": 843,
      "▁positions": 844,
      "▁interjection": 845,
      "▁penc": 846,
      "▁tipt": 847,
      "##hop": 848,
      "##-g": 849,
      "▁permission": 850,
      "▁methodology": 851,
      "▁interested": 852,
      "▁synthes": 853,
      "▁isl": 854,
      "▁obstacle": 855,
      "▁glowstick": 856,
      "##erland": 857,
      "▁fet": 858,
      "▁deter": 859,
      "##agers": 860,
      "▁needed": 861,
      "▁appellants": 862,
      "▁determine": 863,
      "▁cro": 864,
      "##gry": 865,
      "##rality": 866,
      "##lization": 867,
      "##50": 868,
      "##ook": 869,
      "▁ladder": 870,
      "##keeper": 871,
      "▁uncover": 872,
      "▁breaking": 873,
      "▁sym": 874,
      "##atten": 875,
      "▁poems": 876,
      "▁cact": 877,
      "▁incl": 878,
      "▁assignment": 879,
      "▁duty": 880,
      "▁gym": 881,
      "▁supp": 882,
      "▁fuels": 883,
      "▁bord": 884,
      "▁raffle": 885,
      "▁shrimp": 886,
      "▁charlie": 887,
      "▁invitation": 888,
      "▁pyram": 889,
      "▁reve": 890,
      "▁willingness": 891,
      "▁pirate": 892,
      "▁invested": 893,
      "▁squirrels": 894,
      "▁stad": 895,
      "▁snail": 896,
      "▁scholarship": 897,
      "▁---=": 898,
      "▁dined": 899,
      "##ength": 900,
      "▁generates": 901,
      "▁chimed": 902,
      "▁powder": 903,
      "##iling": 904,
      "▁surge": 905,
      "##mus": 906,
      "##formation": 907,
      "▁catches": 908,
      "##itt": 909,
      "▁totes": 910,
      "▁supper": 911,
      "##ula": 912,
      "##atisfaction": 913,
      "▁individ": 914,
      "▁separation": 915,
      "▁analy": 916,
      "▁layer": 917,
      "##eth": 918,
      "▁creating": 919,
      "▁alarms": 920,
      "▁miners": 921,
      "▁identifying": 922,
      "▁commands": 923,
      "##ane": 924,
      "▁raisin": 925,
      "▁gall": 926,
      "▁label": 927,
      "##onic": 928,
      "▁fash": 929,
      "▁cia": 930,
      "▁fuel": 931,
      "▁invoice": 932,
      "##isal": 933,
      "##oving": 934,
      "▁clinic": 935,
      "▁stopover": 936,
      "▁sadness": 937,
      "▁inclined": 938,
      "▁spikes": 939,
      "▁belongs": 940,
      "##aps": 941,
      "▁twenty": 942,
      "▁extremists": 943,
      "▁tech": 944,
      "▁t+re": 945,
      "▁emer": 946,
      "##less": 947,
      "▁lower": 948,
      "##ough": 949,
      "▁absorbing": 950,
      "▁crack": 951,
      "▁concerns": 952,
      "▁ideation": 953,
      "▁past": 954,
      "▁delic": 955,
      "##pensive": 956,
      "▁fact": 957,
      "▁elect": 958,
      "▁robe": 959,
      "▁bunk": 960,
      "▁inviting": 961,
      "▁alley": 962,
      "▁dollie": 963,
      "▁bachel": 964,
      "▁flicke": 965,
      "▁tutorial": 966,
      "▁comedy": 967,
      "▁respects": 968,
      "▁fre": 969,
      "▁lease": 970,
      "▁earthworms": 971,
      "▁metal": 972,
      "▁appropriate": 973,
      "▁celebrities": 974,
      "▁lever": 975,
      "▁cave": 976,
      "▁nonstop": 977,
      "▁mid": 978,
      "▁fathers": 979,
      "##inally": 980,
      "▁probability": 981,
      "▁moo": 982,
      "▁drugstore": 983,
      "▁prison": 984,
      "##inian": 985,
      "▁disciples": 986,
      "▁afford": 987,
      "##ala": 988,
      "▁chequ": 989,
      "▁equival": 990,
      "▁partnership": 991,
      "▁subd": 992,
      "▁soliloqu": 993,
      "▁mess": 994,
      "▁coll": 995,
      "▁bitters": 996,
      "▁shame": 997,
      "▁abomination": 998,
      "▁ceiling": 999,
      "##pub": 1000,
      "##ailed": 1001,
      "##tery": 1002,
      "▁asyl": 1003,
      "▁reactions": 1004,
      "▁beyond": 1005,
      "▁parake": 1006,
      "##tibility": 1007,
      "##ection": 1008,
      "##ientific": 1009,
      "▁sql": 1010,
      "▁courses": 1011,
      "▁raising": 1012,
      "▁cri": 1013,
      "▁talk": 1014,
      "##olerance": 1015,
      "▁reapp": 1016,
      "▁tac": 1017,
      "▁unions": 1018,
      "##-1.doc": 1019,
      "##ople": 1020,
      "##ily": 1021,
      "##lane": 1022,
      "▁fusions": 1023,
      "##ault": 1024,
      "▁command": 1025,
      "##ato": 1026,
      "▁wrong": 1027,
      "▁discover": 1028,
      "▁match": 1029,
      "▁say": 1030,
      "▁holders": 1031,
      "▁unfortunately": 1032,
      "▁warranty": 1033,
      "##otto": 1034,
      "##rolled": 1035,
      "▁invest": 1036,
      "▁securities": 1037,
      "▁dinos": 1038,
      "ʊ": 1039,
      "▁spots": 1040,
      "▁banners": 1041,
      "##cially": 1042,
      "##lam": 1043,
      "##ball": 1044,
      "##53": 1045,
      "▁denying": 1046,
      "▁confl": 1047,
      "▁airport": 1048,
      "▁comments": 1049,
      "▁disadvant": 1050,
      "▁mystery": 1051,
      "##tax": 1052,
      "▁magicians": 1053,
      "▁assump": 1054,
      "▁questioning": 1055,
      "▁congressman": 1056,
      "##umb": 1057,
      "▁inches": 1058,
      "▁glance": 1059,
      "##iently": 1060,
      "▁activities": 1061,
      "▁senti": 1062,
      "▁streak": 1063,
      "▁flicked": 1064,
      "▁highest": 1065,
      "▁monkey": 1066,
      "▁vegetables": 1067,
      "▁encouraging": 1068,
      "▁jury": 1069,
      "##bac": 1070,
      "##enties": 1071,
      "##³": 1072,
      "▁dpr": 1073,
      "▁hybri": 1074,
      "▁ads": 1075,
      "▁roar": 1076,
      "##gance": 1077,
      "##'": 1078,
      "▁everything": 1079,
      "▁puzzle": 1080,
      "▁oppose": 1081,
      "▁arsen": 1082,
      "▁pond": 1083,
      "▁baker": 1084,
      "▁nons": 1085,
      "##essment": 1086,
      "##z": 1087,
      "##way": 1088,
      "##uddled": 1089,
      "▁anticip": 1090,
      "##acting": 1091,
      "##ukes": 1092,
      "▁probably": 1093,
      "##ag": 1094,
      "▁sa": 1095,
      "▁daring": 1096,
      "▁repa": 1097,
      "▁subsid": 1098,
      "▁ken": 1099,
      "▁a": 1100,
      "▁drool": 1101,
      "▁value": 1102,
      "▁mids": 1103,
      "▁demons": 1104,
      "▁just": 1105,
      "▁flats": 1106,
      "▁hose": 1107,
      "▁fol": 1108,
      "▁rather": 1109,
      "▁&": 1110,
      "▁block": 1111,
      "##ecess": 1112,
      "▁must": 1113,
      "▁pg": 1114,
      "##master": 1115,
      "▁doughnuts": 1116,
      "##gie": 1117,
      "▁schedules": 1118,
      "▁persons": 1119,
      "▁chatting": 1120,
      "▁rope": 1121,
      "▁empan": 1122,
      "▁oh": 1123,
      "▁_______": 1124,
      "▁involvement": 1125,
      "##oof": 1126,
      "▁balzac": 1127,
      "▁entities": 1128,
      "##inc": 1129,
      "▁controls": 1130,
      "▁display": 1131,
      "▁appalled": 1132,
      "▁tiss": 1133,
      "##unch": 1134,
      "##ores": 1135,
      "##ortment": 1136,
      "##oll": 1137,
      "##fitting": 1138,
      "▁toes": 1139,
      "▁christi": 1140,
      "▁nerves": 1141,
      "▁prevail": 1142,
      "▁capsules": 1143,
      "##ide": 1144,
      "▁ever": 1145,
      "##geration": 1146,
      "▁daily": 1147,
      "▁behavior": 1148,
      "▁collection": 1149,
      "▁jeans": 1150,
      "▁scrutiny": 1151,
      "▁preach": 1152,
      "▁bus": 1153,
      "▁constructed": 1154,
      "▁util": 1155,
      "▁detective": 1156,
      "▁q": 1157,
      "▁orig": 1158,
      "##ranch": 1159,
      "▁provide": 1160,
      "▁flicker": 1161,
      "▁def": 1162,
      "▁enclosure": 1163,
      "▁compatibility": 1164,
      "▁stations": 1165,
      "▁orchestrated": 1166,
      "▁cites": 1167,
      "##tu": 1168,
      "##cle": 1169,
      "▁obsession": 1170,
      "▁sco": 1171,
      "▁cloth": 1172,
      "▁grandpa": 1173,
      "##:30": 1174,
      "▁hair": 1175,
      "▁glow": 1176,
      "▁civilization": 1177,
      "▁colleges": 1178,
      "▁isolated": 1179,
      "▁rhinoc": 1180,
      "▁excellent": 1181,
      "##gery": 1182,
      "##cases": 1183,
      "▁poin": 1184,
      "▁puss": 1185,
      "▁layers": 1186,
      "▁forb": 1187,
      "##cover": 1188,
      "▁documents": 1189,
      "▁procrast": 1190,
      "##tarian": 1191,
      "##view": 1192,
      "▁discretion": 1193,
      "##y": 1194,
      "▁gras": 1195,
      "▁okay": 1196,
      "▁decl": 1197,
      "▁video": 1198,
      "##aries": 1199,
      "▁worlds": 1200,
      "▁gallop": 1201,
      "▁courtyard": 1202,
      "▁uniformity": 1203,
      "▁recurring": 1204,
      "▁refugees": 1205,
      "▁pear": 1206,
      "▁coined": 1207,
      "▁chameleon": 1208,
      "▁hut": 1209,
      "▁shells": 1210,
      "▁respected": 1211,
      "▁dock": 1212,
      "▁craft": 1213,
      "▁debr": 1214,
      "▁seller": 1215,
      "▁investigations": 1216,
      "▁railroad": 1217,
      "▁licen": 1218,
      "▁ethics": 1219,
      "▁resear": 1220,
      "▁tresp": 1221,
      "▁?": 1222,
      "▁nude": 1223,
      "▁profit": 1224,
      "▁down": 1225,
      "▁move": 1226,
      "▁somewh": 1227,
      "▁picnic": 1228,
      "▁hospitals": 1229,
      "▁beetles": 1230,
      "##unction": 1231,
      "▁nightlife": 1232,
      "▁denti": 1233,
      "▁transmitter": 1234,
      "▁equation": 1235,
      "▁notion": 1236,
      "▁bookst": 1237,
      "▁steamer": 1238,
      "▁strong": 1239,
      "▁emptiness": 1240,
      "##ism": 1241,
      "▁connected": 1242,
      "##utter": 1243,
      "▁tails": 1244,
      "▁entering": 1245,
      "##xal": 1246,
      "▁homeopath": 1247,
      "▁dear": 1248,
      "▁abundance": 1249,
      "▁18": 1250,
      "▁once": 1251,
      "▁dare": 1252,
      "##itives": 1253,
      "##ass": 1254,
      "▁finds": 1255,
      "▁provoke": 1256,
      "▁subform": 1257,
      "##onally": 1258,
      "▁evaluate": 1259,
      "▁woud": 1260,
      "##els": 1261,
      "▁ten": 1262,
      "▁snow": 1263,
      "▁billions": 1264,
      "▁sperm": 1265,
      "▁improv": 1266,
      "▁realized": 1267,
      "▁fat": 1268,
      "▁glimpse": 1269,
      "##unct": 1270,
      "▁practices": 1271,
      "##dain": 1272,
      "▁contrary": 1273,
      "▁beams": 1274,
      "▁appreciation": 1275,
      "▁experiencing": 1276,
      "▁feedback": 1277,
      "▁sand": 1278,
      "##cles": 1279,
      "▁sk": 1280,
      "▁17": 1281,
      "▁guacamole": 1282,
      "▁basically": 1283,
      "▁exh": 1284,
      "▁31": 1285,
      "▁ecosystem": 1286,
      "▁pasted": 1287,
      "▁wil": 1288,
      "▁campaign": 1289,
      "##kle": 1290,
      "▁kil": 1291,
      "▁sweat": 1292,
      "▁diction": 1293,
      "▁coincidence": 1294,
      "▁grinder": 1295,
      "▁marty": 1296,
      "▁comed": 1297,
      "▁12": 1298,
      "▁quar": 1299,
      "##qui": 1300,
      "▁ren": 1301,
      "##ifications": 1302,
      "▁harmonica": 1303,
      "▁populated": 1304,
      "▁sunlight": 1305,
      "##worm": 1306,
      "##**********************************": 1307,
      "▁answers": 1308,
      "▁rud": 1309,
      "▁veteran": 1310,
      "▁drawn": 1311,
      "▁tick": 1312,
      "▁stirrup": 1313,
      "##$$": 1314,
      "▁regist": 1315,
      "▁scholars": 1316,
      "▁practice": 1317,
      "▁albeit": 1318,
      "▁sectors": 1319,
      "▁waving": 1320,
      "▁penny": 1321,
      "##table": 1322,
      "##aed": 1323,
      "▁assaulted": 1324,
      "▁loc": 1325,
      "##ower": 1326,
      "##ipping": 1327,
      "▁bin": 1328,
      "▁heav": 1329,
      "▁city": 1330,
      "▁medical": 1331,
      "##ufact": 1332,
      "##ima": 1333,
      "▁disrupt": 1334,
      "▁curved": 1335,
      "▁accustomed": 1336,
      "▁quickly": 1337,
      "▁glue": 1338,
      "▁doctrine": 1339,
      "##esh": 1340,
      "▁paired": 1341,
      "▁sor": 1342,
      "▁exile": 1343,
      "▁firms": 1344,
      "▁wires": 1345,
      "▁diagn": 1346,
      "##-th": 1347,
      "##oo": 1348,
      "▁vol": 1349,
      "▁bears": 1350,
      "##mos": 1351,
      "##chn": 1352,
      "▁what": 1353,
      "##ight": 1354,
      "▁ignorance": 1355,
      "▁prisoner": 1356,
      "▁'m": 1357,
      "▁aircraft": 1358,
      "▁har": 1359,
      "▁farrier": 1360,
      "▁divers": 1361,
      "▁ancest": 1362,
      "▁spacecraft": 1363,
      "##alancing": 1364,
      "▁supplier": 1365,
      "▁accumulated": 1366,
      "▁beck": 1367,
      "▁athe": 1368,
      "##obia": 1369,
      "▁constr": 1370,
      "▁watering": 1371,
      "▁leader": 1372,
      "##derstanding": 1373,
      "##idly": 1374,
      "0": 1375,
      "▁salads": 1376,
      "##mes": 1377,
      "▁ip": 1378,
      "▁broadcast": 1379,
      "▁dar": 1380,
      "##mped": 1381,
      "##odge": 1382,
      "##quis": 1383,
      "▁cider": 1384,
      "▁dreamed": 1385,
      "▁medal": 1386,
      "##field": 1387,
      "▁imprison": 1388,
      "▁esc": 1389,
      "▁sar": 1390,
      "▁gardens": 1391,
      "▁constituencies": 1392,
      "▁completion": 1393,
      "▁cleaner": 1394,
      "▁aspir": 1395,
      "▁counties": 1396,
      "▁struc": 1397,
      "▁co-founder": 1398,
      "▁h": 1399,
      "##owed": 1400,
      "▁entrance": 1401,
      "▁retiring": 1402,
      "▁thawed": 1403,
      "##lined": 1404,
      "▁greatness": 1405,
      "▁lost": 1406,
      "▁camping": 1407,
      "##iated": 1408,
      "▁diaper": 1409,
      "▁keeping": 1410,
      "▁required": 1411,
      "##lipop": 1412,
      "##xt": 1413,
      "▁unto": 1414,
      "##orted": 1415,
      "▁’’": 1416,
      "▁sleeve": 1417,
      "▁failure": 1418,
      "▁circus": 1419,
      "▁risking": 1420,
      "▁entrep": 1421,
      "▁grand": 1422,
      "##tub": 1423,
      "▁picks": 1424,
      "▁bakes": 1425,
      "▁advises": 1426,
      "▁yellow": 1427,
      "▁balloons": 1428,
      "▁kings": 1429,
      "▁inter": 1430,
      "##ighted": 1431,
      "▁spea": 1432,
      "▁wit": 1433,
      "▁desk": 1434,
      "▁responses": 1435,
      "##nets": 1436,
      "▁salons": 1437,
      "##ating": 1438,
      "▁characteristics": 1439,
      "▁rfp": 1440,
      "8": 1441,
      "##oint": 1442,
      "▁tens": 1443,
      "▁crayon": 1444,
      "▁manufacturing": 1445,
      "▁dissolved": 1446,
      "▁relation": 1447,
      "##ved": 1448,
      "##d-": 1449,
      "##ribb": 1450,
      "▁totally": 1451,
      "▁feeds": 1452,
      "▁thanx": 1453,
      "##inental": 1454,
      "▁mails": 1455,
      "▁altogether": 1456,
      "▁prosp": 1457,
      "▁nav": 1458,
      "▁py": 1459,
      "▁final": 1460,
      "▁199": 1461,
      "▁fall": 1462,
      "▁negoti": 1463,
      "▁trained": 1464,
      "▁t": 1465,
      "▁allocated": 1466,
      "▁traced": 1467,
      "▁labyrinth": 1468,
      "▁family": 1469,
      "▁religious": 1470,
      "▁enovate": 1471,
      "▁successor": 1472,
      "##ι": 1473,
      "▁went": 1474,
      "▁mous": 1475,
      "▁umbrella": 1476,
      "▁corruption": 1477,
      "▁entree": 1478,
      "2": 1479,
      "▁methods": 1480,
      "▁pyr": 1481,
      "”": 1482,
      "##agging": 1483,
      "▁organizations": 1484,
      "▁program": 1485,
      "▁treasure": 1486,
      "▁although": 1487,
      "##&d": 1488,
      "▁oriented": 1489,
      "▁amendments": 1490,
      "▁blowing": 1491,
      "▁cer": 1492,
      "▁succeed": 1493,
      "▁accommod": 1494,
      "##rim": 1495,
      "##corn": 1496,
      "▁dies": 1497,
      "▁hostages": 1498,
      "▁questionnaire": 1499,
      "##yon": 1500,
      "▁santorum": 1501,
      "▁lord": 1502,
      "##ck": 1503,
      "▁tickets": 1504,
      "##waukee": 1505,
      "▁warmth": 1506,
      "▁semantics": 1507,
      "▁substit": 1508,
      "##pins": 1509,
      "▁certainty": 1510,
      "##erc": 1511,
      "▁brooms": 1512,
      "▁assured": 1513,
      "##zza": 1514,
      "▁stub": 1515,
      "▁pdt": 1516,
      "▁itself": 1517,
      "▁coc": 1518,
      "##arded": 1519,
      "▁wonders": 1520,
      "▁major": 1521,
      "▁slightly": 1522,
      "##ink": 1523,
      "##abit": 1524,
      "▁civ": 1525,
      "##illion": 1526,
      "▁secret": 1527,
      "##uri": 1528,
      "▁marble": 1529,
      "▁attendance": 1530,
      "▁newark": 1531,
      "▁to": 1532,
      "##idemic": 1533,
      "▁cric": 1534,
      "##yl": 1535,
      "▁puts": 1536,
      "▁weak": 1537,
      "▁ferries": 1538,
      "▁gaze": 1539,
      "▁rib": 1540,
      "▁tic": 1541,
      "▁observe": 1542,
      "▁jet": 1543,
      "▁betta": 1544,
      "▁play+ground": 1545,
      "▁itsy": 1546,
      "▁real": 1547,
      "▁gdp": 1548,
      "##maries": 1549,
      "▁vomit": 1550,
      "##ourage": 1551,
      "▁weekday": 1552,
      "▁progression": 1553,
      "▁scri": 1554,
      "▁mashing": 1555,
      "▁east": 1556,
      "▁creatures": 1557,
      "▁shore": 1558,
      "##centi": 1559,
      "▁prosperity": 1560,
      "▁pseudonym": 1561,
      "▁il": 1562,
      "▁remed": 1563,
      "▁exploding": 1564,
      "▁jelly": 1565,
      "##ott": 1566,
      "▁cheese": 1567,
      "▁independence": 1568,
      "##ggies": 1569,
      "▁ducked": 1570,
      "##pir": 1571,
      "▁dominance": 1572,
      "▁bean": 1573,
      "▁thy": 1574,
      "▁reduced": 1575,
      "##pit": 1576,
      "##dish": 1577,
      "▁tower": 1578,
      "##ren": 1579,
      "##mie": 1580,
      "▁estimated": 1581,
      "▁realists": 1582,
      "##keys": 1583,
      "▁killings": 1584,
      "▁cuffs": 1585,
      "##one": 1586,
      "▁twirl": 1587,
      "##ace": 1588,
      "▁ranges": 1589,
      "▁expense": 1590,
      "▁knee": 1591,
      "▁can": 1592,
      "▁qualify": 1593,
      "▁childhood": 1594,
      "▁doing": 1595,
      "▁warning": 1596,
      "##ational": 1597,
      "▁voters": 1598,
      "▁determ": 1599,
      "▁symphony": 1600,
      "##als": 1601,
      "▁strain": 1602,
      "##fu": 1603,
      "▁asc": 1604,
      "▁neigh": 1605,
      "▁saucepan": 1606,
      "▁soybean": 1607,
      "▁conservatives": 1608,
      "▁lisa_": 1609,
      "##-mem": 1610,
      "▁cafeteria": 1611,
      "▁fullness": 1612,
      "▁popped": 1613,
      "##adle": 1614,
      "▁alt.animals.f": 1615,
      "##gill": 1616,
      "▁ze": 1617,
      "▁bowls": 1618,
      "▁recorder": 1619,
      "##issance": 1620,
      "▁kangaroo": 1621,
      "▁pie": 1622,
      "▁textbook": 1623,
      "##cularly": 1624,
      "▁treat": 1625,
      "▁thres": 1626,
      "##erarch": 1627,
      "##tige": 1628,
      "▁language": 1629,
      "▁football": 1630,
      "▁priv": 1631,
      "▁despite": 1632,
      "##eteria": 1633,
      "##ocrats": 1634,
      "##arture": 1635,
      "##.net": 1636,
      "##vard": 1637,
      "▁died": 1638,
      "▁celebrations": 1639,
      "▁dealer": 1640,
      "▁exploring": 1641,
      "▁---": 1642,
      "▁winds": 1643,
      "▁chand": 1644,
      "▁oil": 1645,
      "▁spilling": 1646,
      "▁contam": 1647,
      "▁socialist": 1648,
      "▁tarmac": 1649,
      "▁scissors": 1650,
      "▁three": 1651,
      "##ication": 1652,
      "▁recruiting": 1653,
      "▁attractions": 1654,
      "▁faces": 1655,
      "▁shirts": 1656,
      "▁poverty": 1657,
      "▁belonged": 1658,
      "▁islam": 1659,
      "▁pray": 1660,
      "▁shov": 1661,
      "##kn": 1662,
      "[": 1663,
      "▁axis": 1664,
      "▁ship": 1665,
      "▁cabin": 1666,
      "▁announcing": 1667,
      "▁rights": 1668,
      "▁hometown": 1669,
      "▁wal": 1670,
      "▁rider": 1671,
      "▁homosexuality": 1672,
      "▁danger": 1673,
      "▁monopoly": 1674,
      "▁suggests": 1675,
      "▁editor": 1676,
      "▁sun": 1677,
      "##gregation": 1678,
      "<": 1679,
      "▁imperialism": 1680,
      "▁apprentice": 1681,
      "▁argues": 1682,
      "▁horn": 1683,
      "▁s’": 1684,
      "##ections": 1685,
      "▁landed": 1686,
      "▁concluded": 1687,
      "##ounts": 1688,
      "▁horror": 1689,
      "##ctions": 1690,
      "▁listings": 1691,
      "▁fig": 1692,
      "▁divor": 1693,
      "▁alco": 1694,
      "##ics": 1695,
      "▁chas": 1696,
      "▁mind": 1697,
      "##gth": 1698,
      "▁nutrition": 1699,
      "▁codependency": 1700,
      "▁proceeded": 1701,
      "##ph": 1702,
      "##vail": 1703,
      "##enti": 1704,
      "▁yesterday": 1705,
      "▁recognized": 1706,
      "▁mr.": 1707,
      "▁murder": 1708,
      "▁departure": 1709,
      "▁licensor": 1710,
      "##!!!": 1711,
      "##co": 1712,
      "▁notebook": 1713,
      "##ialism": 1714,
      "▁reduce": 1715,
      "##rested": 1716,
      "▁posts": 1717,
      "▁tex": 1718,
      "▁uma": 1719,
      "▁perio": 1720,
      "▁dashed": 1721,
      "▁oakland": 1722,
      "##pes": 1723,
      "▁sme": 1724,
      "▁partner": 1725,
      "▁fisheries": 1726,
      "▁exaggeration": 1727,
      "▁people": 1728,
      "▁cleaning": 1729,
      "▁confir": 1730,
      "##alisation": 1731,
      "▁jum": 1732,
      "▁perfectly": 1733,
      "▁wether": 1734,
      "##imb": 1735,
      "▁amm": 1736,
      "▁hospital": 1737,
      "▁cere": 1738,
      "##otes": 1739,
      "▁pat": 1740,
      "▁respon": 1741,
      "▁happened": 1742,
      "▁patter": 1743,
      "▁sewed": 1744,
      "▁series": 1745,
      "▁pretext": 1746,
      "##umulation": 1747,
      "▁elu": 1748,
      "▁remark": 1749,
      "▁robo": 1750,
      "▁samples": 1751,
      "▁tummy": 1752,
      "▁sunglasses": 1753,
      "##fect": 1754,
      "▁spe": 1755,
      "▁buffet": 1756,
      "▁dangling": 1757,
      "▁priority": 1758,
      "##aid": 1759,
      "##urbs": 1760,
      "▁blood": 1761,
      "##oke": 1762,
      "▁smoke": 1763,
      "▁horsemen": 1764,
      "##atic": 1765,
      "▁introduce": 1766,
      "▁ourselves": 1767,
      "▁farms": 1768,
      "##hakes": 1769,
      "##hap": 1770,
      "▁swa": 1771,
      "▁cult": 1772,
      "▁economics": 1773,
      "▁roman": 1774,
      "##ences": 1775,
      "▁fail": 1776,
      "▁sophie": 1777,
      "▁shots": 1778,
      "▁pigs": 1779,
      "▁concer": 1780,
      "##iots": 1781,
      "▁financing": 1782,
      "▁thr": 1783,
      "▁relationships": 1784,
      "▁hard": 1785,
      "▁cruelty": 1786,
      "▁carnival": 1787,
      "▁seafood": 1788,
      "▁battles": 1789,
      "▁squealer": 1790,
      "##lites": 1791,
      "▁restriction": 1792,
      "▁proof": 1793,
      "##nages": 1794,
      "▁thirty": 1795,
      "▁landing": 1796,
      "▁represents": 1797,
      "##ister": 1798,
      "▁near": 1799,
      "▁captured": 1800,
      "▁abund": 1801,
      "##aking": 1802,
      "▁mr": 1803,
      "▁mutants": 1804,
      "▁ol": 1805,
      "▁preference": 1806,
      "▁dash": 1807,
      "▁tav": 1808,
      "▁diplomacy": 1809,
      "▁shopping": 1810,
      "▁assassinated": 1811,
      "##inated": 1812,
      "▁waffle": 1813,
      "▁70's": 1814,
      "##aches": 1815,
      "▁forth": 1816,
      "▁current": 1817,
      "▁groups": 1818,
      "▁categ": 1819,
      "##anny": 1820,
      "▁buildings": 1821,
      "▁governance": 1822,
      "##itional": 1823,
      "▁quinn": 1824,
      "▁civili": 1825,
      "##tingu": 1826,
      "▁zinc": 1827,
      "▁inv": 1828,
      "▁ask": 1829,
      "▁mitchell": 1830,
      "▁rig": 1831,
      "▁immensity": 1832,
      "##cil": 1833,
      "▁eta": 1834,
      "▁glaze": 1835,
      "▁dan": 1836,
      "▁spore": 1837,
      "##icit": 1838,
      "▁vanish": 1839,
      "▁originally": 1840,
      "▁carvings": 1841,
      "▁fount": 1842,
      "▁disturb": 1843,
      "▁delta": 1844,
      "▁tamed": 1845,
      "▁ethnicity": 1846,
      "▁aud": 1847,
      "##will": 1848,
      "▁hay": 1849,
      "▁server": 1850,
      "▁objective": 1851,
      "##lim": 1852,
      "##liness": 1853,
      "##nik": 1854,
      "▁nutrients": 1855,
      "▁accessing": 1856,
      "##l": 1857,
      "##ance": 1858,
      "▁sit": 1859,
      "▁magazine": 1860,
      "▁occur": 1861,
      "▁claims": 1862,
      "▁cliff": 1863,
      "##9": 1864,
      "##esses": 1865,
      "▁management": 1866,
      "▁bent": 1867,
      "▁lego": 1868,
      "##inoc": 1869,
      "▁utilities": 1870,
      "▁at": 1871,
      "▁endeavor": 1872,
      "▁identified": 1873,
      "▁necessarily": 1874,
      "▁signed": 1875,
      "##-1": 1876,
      "▁neighbours": 1877,
      "▁metascience": 1878,
      "##rits": 1879,
      "▁greet": 1880,
      "▁buys": 1881,
      "##owing": 1882,
      "▁spa": 1883,
      "▁rabb": 1884,
      "##ologists": 1885,
      "##ize": 1886,
      "▁click": 1887,
      "▁core": 1888,
      "##ern": 1889,
      "▁frequ": 1890,
      "▁mba": 1891,
      "▁capit": 1892,
      "##hi": 1893,
      "##alist": 1894,
      "▁temples": 1895,
      "▁cutted": 1896,
      "##ician": 1897,
      "▁dict": 1898,
      "▁acts": 1899,
      "▁equip": 1900,
      "▁esteem": 1901,
      "▁prep": 1902,
      "▁outlets": 1903,
      "##emporary": 1904,
      "▁detroit": 1905,
      "▁dip": 1906,
      "##soon": 1907,
      "▁(": 1908,
      "##ective": 1909,
      "▁pige": 1910,
      "▁hills": 1911,
      "▁half": 1912,
      "▁database": 1913,
      "▁few": 1914,
      "▁carve": 1915,
      "▁tuned": 1916,
      "▁martyrs": 1917,
      "##ither": 1918,
      "▁failures": 1919,
      "▁frames": 1920,
      "##owering": 1921,
      "##derstand": 1922,
      "##erted": 1923,
      "▁tutor": 1924,
      "▁anybody": 1925,
      "##:1": 1926,
      "▁tags": 1927,
      "▁appoint": 1928,
      "▁mans": 1929,
      "▁horse": 1930,
      "▁commented": 1931,
      "▁presence": 1932,
      "▁v": 1933,
      "▁upside": 1934,
      "▁visits": 1935,
      "##ultural": 1936,
      "▁formed": 1937,
      "▁mutation": 1938,
      "▁citing": 1939,
      "▁foam": 1940,
      "▁saddle": 1941,
      "▁derivatives": 1942,
      "▁stepping": 1943,
      "▁await": 1944,
      "▁solution": 1945,
      "▁fath": 1946,
      "##ae": 1947,
      "##ler": 1948,
      "▁collaborations": 1949,
      "▁forms": 1950,
      "▁fed": 1951,
      "▁hugging": 1952,
      "##abouts": 1953,
      "##rops": 1954,
      "▁composed": 1955,
      "▁foreground": 1956,
      "▁tanks": 1957,
      "▁predators": 1958,
      "▁reinfor": 1959,
      "##des": 1960,
      "##head": 1961,
      "##ince": 1962,
      "▁shower": 1963,
      "▁warran": 1964,
      "▁dresser": 1965,
      "▁pizzas": 1966,
      "▁grow": 1967,
      "##erve": 1968,
      "##front": 1969,
      "▁201": 1970,
      "▁tripped": 1971,
      "##oor": 1972,
      "▁mailed": 1973,
      "▁exce": 1974,
      "▁tyr": 1975,
      "▁dragon": 1976,
      "▁shud": 1977,
      "##ish": 1978,
      "##ounced": 1979,
      "▁insects": 1980,
      "▁patch": 1981,
      "▁hover": 1982,
      "▁oppression": 1983,
      "##ipped": 1984,
      "▁versus": 1985,
      "▁adver": 1986,
      "##oin": 1987,
      "▁boule": 1988,
      "▁hack": 1989,
      "▁hallway": 1990,
      "▁stimuli": 1991,
      "##amb": 1992,
      "▁ii": 1993,
      "▁turnout": 1994,
      "##erole": 1995,
      "▁denied": 1996,
      "▁requirement": 1997,
      "##vals": 1998,
      "##anged": 1999,
      "▁cert": 2000,
      "▁geared": 2001,
      "▁cds": 2002,
      "▁==----": 2003,
      "▁fac": 2004,
      "▁treatments": 2005,
      "▁fitness": 2006,
      "▁disease": 2007,
      "▁doggie": 2008,
      "##il": 2009,
      "##aste": 2010,
      "##ville": 2011,
      "▁suppose": 2012,
      "##>": 2013,
      "▁noting": 2014,
      "▁fitting": 2015,
      "##thes": 2016,
      "▁bridges": 2017,
      "▁cell": 2018,
      "▁distr": 2019,
      "▁expanding": 2020,
      "▁nar": 2021,
      "▁commit": 2022,
      "##itioned": 2023,
      "▁glancing": 2024,
      "▁companies": 2025,
      "▁monies": 2026,
      "▁frightened": 2027,
      "▁experiment": 2028,
      "▁explore": 2029,
      "▁laura": 2030,
      "##ager": 2031,
      "##ain": 2032,
      "▁panel": 2033,
      "▁confidante": 2034,
      "▁living": 2035,
      "▁backpack": 2036,
      "##tein": 2037,
      "▁shadow": 2038,
      "▁linger": 2039,
      "▁knights": 2040,
      "(": 2041,
      "##-fe": 2042,
      "##mem": 2043,
      "▁hats": 2044,
      "▁jar": 2045,
      "▁pets": 2046,
      "▁revolves": 2047,
      "▁ty": 2048,
      "##where": 2049,
      "▁ingredients": 2050,
      "▁party": 2051,
      "▁advertising": 2052,
      "##velop": 2053,
      "▁yogurt": 2054,
      "▁foundation": 2055,
      "▁confirming": 2056,
      "##iliation": 2057,
      "▁behin": 2058,
      "▁held": 2059,
      "▁enj": 2060,
      "##lusion": 2061,
      "▁reopen": 2062,
      "▁suck": 2063,
      "##jected": 2064,
      "▁gotted": 2065,
      "##ressions": 2066,
      "▁patient": 2067,
      "▁quality": 2068,
      "##uits": 2069,
      "##8th": 2070,
      "▁orders": 2071,
      "▁inquiry": 2072,
      "▁roo": 2073,
      "▁bowf": 2074,
      "▁librarian": 2075,
      "##amel": 2076,
      "##lie": 2077,
      "##namon": 2078,
      "▁contacts": 2079,
      "▁evening": 2080,
      "▁dow": 2081,
      "▁record": 2082,
      "▁ignoring": 2083,
      "##inned": 2084,
      "##aul": 2085,
      "▁divide": 2086,
      "▁directors": 2087,
      "▁autofilter": 2088,
      "##aces": 2089,
      "▁feature": 2090,
      "▁univers": 2091,
      "▁noses": 2092,
      "▁manufacturers": 2093,
      "##ural": 2094,
      "▁punch": 2095,
      "▁monologue": 2096,
      "##ɔ": 2097,
      "▁possibly": 2098,
      "▁limited": 2099,
      "▁fallout": 2100,
      "▁solicit": 2101,
      "▁san": 2102,
      "▁fle": 2103,
      "▁banging": 2104,
      "▁balances": 2105,
      "▁blueberry": 2106,
      "▁crawling": 2107,
      "▁bans": 2108,
      "▁u": 2109,
      "▁call": 2110,
      "▁gram": 2111,
      "▁2002": 2112,
      "▁flu": 2113,
      "##tilation": 2114,
      "▁neolog": 2115,
      "▁dignit": 2116,
      "▁bumble": 2117,
      "▁affliction": 2118,
      "▁span": 2119,
      "▁summaries": 2120,
      "##rty": 2121,
      "▁hol": 2122,
      "▁describ": 2123,
      "##ginally": 2124,
      "##om": 2125,
      "##otograp": 2126,
      "▁haul": 2127,
      "▁marriages": 2128,
      "▁&am": 2129,
      "▁chinese": 2130,
      "▁orientation": 2131,
      "▁criminals": 2132,
      "▁sake": 2133,
      "##idding": 2134,
      "##erious": 2135,
      "▁bludgers": 2136,
      "▁consum": 2137,
      "▁drawer": 2138,
      "▁eb": 2139,
      "##ging": 2140,
      "▁whist": 2141,
      "▁obtained": 2142,
      "▁recon": 2143,
      "@": 2144,
      "▁coloni": 2145,
      "▁peace": 2146,
      "▁.?": 2147,
      "▁conduct": 2148,
      "▁melted": 2149,
      "▁1960s": 2150,
      "##ensity": 2151,
      "##loth": 2152,
      "##hole": 2153,
      "▁myth": 2154,
      "▁functions": 2155,
      "▁ideals": 2156,
      "▁cooked": 2157,
      "▁gene": 2158,
      "##vern": 2159,
      "▁nest": 2160,
      "##vened": 2161,
      "##tions": 2162,
      "▁aph": 2163,
      "▁eaters": 2164,
      "▁sure": 2165,
      "▁fragments": 2166,
      "▁cocktail": 2167,
      "▁competence": 2168,
      "▁nailed": 2169,
      "▁future": 2170,
      "▁retirement": 2171,
      "##arrassment": 2172,
      "▁lymph": 2173,
      "▁pitches": 2174,
      "▁favorite": 2175,
      "##alty": 2176,
      "▁gloves": 2177,
      "▁gon": 2178,
      "▁fanc": 2179,
      "▁stumbled": 2180,
      "##antee": 2181,
      "▁agreements": 2182,
      "▁lift": 2183,
      "▁stability": 2184,
      "▁resp": 2185,
      "▁scarf": 2186,
      "##²": 2187,
      "##iates": 2188,
      "##antom": 2189,
      "▁repairs": 2190,
      "##osis": 2191,
      "▁40": 2192,
      "▁gels": 2193,
      "▁comple": 2194,
      "▁scenarios": 2195,
      "▁whilst": 2196,
      "##ased": 2197,
      "▁flavor": 2198,
      "▁wait": 2199,
      "▁creates": 2200,
      "##paper": 2201,
      "▁deaths": 2202,
      "##ably": 2203,
      "ɔ": 2204,
      "▁integ": 2205,
      "▁alone": 2206,
      "▁mixture": 2207,
      "▁cinnamon": 2208,
      "▁dine": 2209,
      "▁cincinnati": 2210,
      "▁abroad": 2211,
      "▁poured": 2212,
      "▁prevented": 2213,
      "##as": 2214,
      "▁basil": 2215,
      "▁underst": 2216,
      "##oly": 2217,
      "##ara": 2218,
      "▁depth": 2219,
      "##in'": 2220,
      "##essed": 2221,
      "##asy": 2222,
      "▁parole": 2223,
      "▁depths": 2224,
      "▁specification": 2225,
      "▁cries": 2226,
      "▁differ": 2227,
      "▁rushed": 2228,
      "▁technologies": 2229,
      "▁thwar": 2230,
      "▁racking": 2231,
      "##ionary": 2232,
      "▁rear": 2233,
      "▁spores": 2234,
      "▁cows": 2235,
      "▁chose": 2236,
      "▁dudley": 2237,
      "▁chocolates": 2238,
      "▁madam": 2239,
      "▁drafts": 2240,
      "##own": 2241,
      "▁scienti": 2242,
      "▁became": 2243,
      "##aith": 2244,
      "▁co-workers": 2245,
      "▁dripping": 2246,
      "##gy": 2247,
      "▁enrongss.xls": 2248,
      "▁diagnosed": 2249,
      "▁beings": 2250,
      "▁follows": 2251,
      "##amples": 2252,
      "▁bathtub": 2253,
      "▁listed": 2254,
      "##uality": 2255,
      "▁whoo": 2256,
      "##ous": 2257,
      "##ames": 2258,
      "▁parked": 2259,
      "▁23rd": 2260,
      "▁palate": 2261,
      "▁functioning": 2262,
      "▁proved": 2263,
      "▁poles": 2264,
      "##amic": 2265,
      "##entials": 2266,
      "▁alt.animals.dog": 2267,
      "##ugh": 2268,
      "▁lest": 2269,
      "##ces": 2270,
      "▁dry": 2271,
      "▁moor": 2272,
      "▁restruc": 2273,
      "▁ambulance": 2274,
      "▁saw": 2275,
      "▁recipe": 2276,
      "▁leap": 2277,
      "▁overw": 2278,
      "##erished": 2279,
      "▁carwash": 2280,
      "▁defin": 2281,
      "▁mi": 2282,
      "▁banan": 2283,
      "▁therapist": 2284,
      "▁dil": 2285,
      "▁commodity": 2286,
      "▁minut": 2287,
      "##llow": 2288,
      "▁uncer": 2289,
      "▁transl": 2290,
      "▁derived": 2291,
      "▁consciousness": 2292,
      "▁flat": 2293,
      "▁ker": 2294,
      "##%": 2295,
      "▁instance": 2296,
      "▁corporation": 2297,
      "▁hosts": 2298,
      "▁sausages": 2299,
      "▁associates": 2300,
      "##mare": 2301,
      "▁fabrications": 2302,
      "▁decided": 2303,
      "▁please": 2304,
      "▁company": 2305,
      "▁years": 2306,
      "▁shuttle": 2307,
      "▁different": 2308,
      "▁mechanics": 2309,
      "▁integrity": 2310,
      "▁international": 2311,
      "▁belon": 2312,
      "▁garlic": 2313,
      "▁rebalancing": 2314,
      "▁profession": 2315,
      "▁stra": 2316,
      "▁wins": 2317,
      "##omb": 2318,
      "##land": 2319,
      "▁be": 2320,
      "▁outcom": 2321,
      "▁category": 2322,
      "##aints": 2323,
      "▁disliked": 2324,
      "▁humped": 2325,
      "##-d": 2326,
      "##ue": 2327,
      "▁renewal": 2328,
      "▁witn": 2329,
      "▁protege": 2330,
      "▁pyjamas": 2331,
      "▁concur": 2332,
      "▁incubator": 2333,
      "##ouds": 2334,
      "▁imposing": 2335,
      "▁bedroom": 2336,
      "▁important": 2337,
      "▁pushes": 2338,
      "▁displaying": 2339,
      "▁expressions": 2340,
      "##rate": 2341,
      "▁bye": 2342,
      "▁cottage": 2343,
      "▁keeps": 2344,
      "##ressor": 2345,
      "##tis": 2346,
      "▁companion": 2347,
      "▁agree": 2348,
      "▁contributions": 2349,
      "▁parade": 2350,
      "▁terrible": 2351,
      "##ether": 2352,
      "▁sued": 2353,
      "▁quartile": 2354,
      "▁recovery": 2355,
      "##tish": 2356,
      "▁looking": 2357,
      "▁ent": 2358,
      "▁sites": 2359,
      "▁superhero": 2360,
      "##for": 2361,
      "▁guil": 2362,
      "##ondad": 2363,
      "▁pad": 2364,
      "▁graduating": 2365,
      "▁pounded": 2366,
      "##ations": 2367,
      "▁rece": 2368,
      "▁platter": 2369,
      "▁ostrich": 2370,
      "▁iod": 2371,
      "##imited": 2372,
      "##--": 2373,
      "▁lawy": 2374,
      "▁insurgents": 2375,
      "▁indianapolis": 2376,
      "▁indicates": 2377,
      "##unking": 2378,
      "▁issu": 2379,
      "▁leot": 2380,
      "##lips": 2381,
      "▁wednesday": 2382,
      "##hus": 2383,
      "▁edited": 2384,
      "##-pos": 2385,
      "▁think": 2386,
      "▁cigarette": 2387,
      "▁integrate": 2388,
      "▁meantime": 2389,
      "▁demanding": 2390,
      "▁footer": 2391,
      "▁retention": 2392,
      "▁prec": 2393,
      "▁hurry": 2394,
      "▁attraction": 2395,
      "▁words": 2396,
      "##lights": 2397,
      "▁agai": 2398,
      "##fficient": 2399,
      "##itch": 2400,
      "▁condemned": 2401,
      "▁outs": 2402,
      "▁guard": 2403,
      "▁bleeding": 2404,
      "▁drug": 2405,
      "▁correspond": 2406,
      "▁sidew": 2407,
      "▁liq": 2408,
      "##orp": 2409,
      "▁hub": 2410,
      "▁good": 2411,
      "##usement": 2412,
      "▁squash": 2413,
      "▁pursue": 2414,
      "##oves": 2415,
      "▁gis": 2416,
      "##ugee": 2417,
      "▁purple": 2418,
      "▁coord": 2419,
      "▁touched": 2420,
      "▁knocked": 2421,
      "▁galloping": 2422,
      "##ο": 2423,
      "##kes": 2424,
      "▁nut": 2425,
      "▁centuries": 2426,
      "▁sir": 2427,
      "▁nashville": 2428,
      "▁purpose": 2429,
      "##vement": 2430,
      "##ker": 2431,
      "▁documented": 2432,
      "▁sent": 2433,
      "▁prepare": 2434,
      "##if": 2435,
      "##uj": 2436,
      "▁procl": 2437,
      "▁discovery": 2438,
      "▁roam": 2439,
      "▁shook": 2440,
      "##---": 2441,
      "##world": 2442,
      "▁....................": 2443,
      "##ihow": 2444,
      "▁chew": 2445,
      "##ession": 2446,
      "▁using": 2447,
      "▁industry": 2448,
      "▁administ": 2449,
      "▁paused": 2450,
      "▁aeros": 2451,
      "##inding": 2452,
      "▁poor": 2453,
      "▁large": 2454,
      "▁scen": 2455,
      "▁comprom": 2456,
      "▁muse": 2457,
      "▁implementation": 2458,
      "▁placement": 2459,
      "##ery": 2460,
      "▁--": 2461,
      "▁wid": 2462,
      "▁plants": 2463,
      "##lions": 2464,
      "▁significance": 2465,
      "▁repeating": 2466,
      "▁providers": 2467,
      "▁drawers": 2468,
      "▁comprised": 2469,
      "▁embarr": 2470,
      "▁mull": 2471,
      "▁diseas": 2472,
      "▁streets": 2473,
      "##ʒ": 2474,
      "##uding": 2475,
      "▁femora": 2476,
      "▁rod": 2477,
      "▁************************************************": 2478,
      "##eria": 2479,
      "▁itinerary": 2480,
      "▁diagr": 2481,
      "▁jih": 2482,
      "▁grants": 2483,
      "▁ext": 2484,
      "##ura": 2485,
      "##unes": 2486,
      "▁fps": 2487,
      "▁nights": 2488,
      "▁beaches": 2489,
      "▁tool": 2490,
      "▁amid": 2491,
      "##ders": 2492,
      "▁bun": 2493,
      "▁yelled": 2494,
      "##tion": 2495,
      "▁goats": 2496,
      "▁child": 2497,
      "▁kids": 2498,
      "▁citiz": 2499,
      "▁minute": 2500,
      "##cc": 2501,
      "▁give": 2502,
      "##acle": 2503,
      "▁doubt": 2504,
      "▁trot": 2505,
      "▁legiti": 2506,
      "▁midterms": 2507,
      "▁os": 2508,
      "▁roll": 2509,
      "▁arrog": 2510,
      "##oot": 2511,
      "##ads": 2512,
      "▁saying": 2513,
      "▁forgot": 2514,
      "▁median": 2515,
      "▁overs": 2516,
      "##outu": 2517,
      "##g": 2518,
      "##ined": 2519,
      "▁mand": 2520,
      "▁4th": 2521,
      "##ieved": 2522,
      "▁den": 2523,
      "▁rule": 2524,
      "▁preached": 2525,
      "##fficial": 2526,
      "▁marx": 2527,
      "▁landings": 2528,
      "▁bce": 2529,
      "▁abuse": 2530,
      "▁forwarding": 2531,
      "▁cutter": 2532,
      "##ickened": 2533,
      "▁postp": 2534,
      "##avi": 2535,
      "▁knowing": 2536,
      "▁occurr": 2537,
      "▁opposite": 2538,
      "▁geof": 2539,
      "▁substituted": 2540,
      "▁abb": 2541,
      "▁premise": 2542,
      "▁romance": 2543,
      "▁cant": 2544,
      "▁account": 2545,
      "▁kib": 2546,
      "▁works": 2547,
      "▁motives": 2548,
      "▁preorder": 2549,
      "▁admire": 2550,
      "▁ple": 2551,
      "▁sides": 2552,
      "▁surveillance": 2553,
      "▁tab": 2554,
      "##anks": 2555,
      "▁context": 2556,
      "▁sugges": 2557,
      "▁”": 2558,
      "▁humus": 2559,
      "▁shakes": 2560,
      "##fs": 2561,
      "▁recorded": 2562,
      "▁datash": 2563,
      "▁mornings": 2564,
      "▁known": 2565,
      "▁arrows": 2566,
      "▁sponsored": 2567,
      "▁retailers": 2568,
      "▁deli": 2569,
      "▁inclusion": 2570,
      "▁questionna": 2571,
      "##ighed": 2572,
      "▁couch": 2573,
      "##ecutive": 2574,
      "##itating": 2575,
      "▁outlet": 2576,
      "▁carr": 2577,
      "##5-1.doc": 2578,
      "##age": 2579,
      "▁beach": 2580,
      "##onal": 2581,
      "##cp": 2582,
      "##iced": 2583,
      "▁formation": 2584,
      "▁wallet": 2585,
      "▁reptile": 2586,
      "##amed": 2587,
      "▁counted": 2588,
      "▁ordering": 2589,
      "▁olivia": 2590,
      "▁ruts": 2591,
      "▁lodging": 2592,
      "▁judgement": 2593,
      "▁translate": 2594,
      "▁phenomenon": 2595,
      "▁google": 2596,
      "▁stap": 2597,
      "▁changing": 2598,
      "##ho": 2599,
      "▁retired": 2600,
      "▁attitude": 2601,
      "▁jo": 2602,
      "▁jack": 2603,
      "▁fi": 2604,
      "▁citation": 2605,
      "▁patents": 2606,
      "▁dialog": 2607,
      "##itated": 2608,
      "▁dick": 2609,
      "##ians": 2610,
      "##mber": 2611,
      "▁voy": 2612,
      "▁accel": 2613,
      "##chang": 2614,
      "▁finished": 2615,
      "##eled": 2616,
      "▁dead": 2617,
      "▁receiving": 2618,
      "##elly": 2619,
      "▁ration": 2620,
      "▁com": 2621,
      "▁ye": 2622,
      "▁executing": 2623,
      "▁wishes": 2624,
      "##ources": 2625,
      "##ost": 2626,
      "▁recognize": 2627,
      "▁fred": 2628,
      "▁remainder": 2629,
      "▁anal": 2630,
      "▁deserve": 2631,
      "▁emitting": 2632,
      "▁dissemination": 2633,
      "▁doctor": 2634,
      "▁montreal": 2635,
      "▁sequence": 2636,
      "##lished": 2637,
      "▁!!!": 2638,
      "▁overal": 2639,
      "▁airplan": 2640,
      "##isture": 2641,
      "▁fixtures": 2642,
      "▁hassle": 2643,
      "▁latest": 2644,
      "##fares": 2645,
      "▁bake": 2646,
      "##nut": 2647,
      "▁tr": 2648,
      "▁reputation": 2649,
      "▁covering": 2650,
      "▁tore": 2651,
      "##in": 2652,
      "##6th": 2653,
      "▁improvements": 2654,
      "##nd": 2655,
      "##tification": 2656,
      "▁smal": 2657,
      "##ips": 2658,
      "##itis": 2659,
      "▁couples": 2660,
      "▁prevent": 2661,
      "▁forefinger": 2662,
      "▁realist": 2663,
      "##mental": 2664,
      "▁pests": 2665,
      "▁datab": 2666,
      "▁continue": 2667,
      "##fed": 2668,
      "▁paper": 2669,
      "##-off": 2670,
      "c": 2671,
      "##icks": 2672,
      "##ament": 2673,
      "▁inspection": 2674,
      "▁success": 2675,
      "##aved": 2676,
      "▁·": 2677,
      "▁missiles": 2678,
      "▁expertise": 2679,
      "▁zawah": 2680,
      "▁previously": 2681,
      "▁smiling": 2682,
      "▁gently": 2683,
      "▁writ": 2684,
      "##aining": 2685,
      "▁untied": 2686,
      "▁carefully": 2687,
      "▁operates": 2688,
      "▁coali": 2689,
      "▁elephant": 2690,
      "▁silicone": 2691,
      "▁organisations": 2692,
      "▁intern": 2693,
      "▁fungi": 2694,
      "▁arrive": 2695,
      "▁chine": 2696,
      "▁basketball": 2697,
      "▁spoons": 2698,
      "▁knit": 2699,
      "▁excuses": 2700,
      "▁dro": 2701,
      "▁statute": 2702,
      "##bye": 2703,
      "▁lay": 2704,
      "▁complim": 2705,
      "▁min": 2706,
      "##orist": 2707,
      "##turing": 2708,
      "▁subjects": 2709,
      "▁resorts": 2710,
      "▁lik": 2711,
      "▁airports": 2712,
      "##ifies": 2713,
      "##phis": 2714,
      "▁prote": 2715,
      "▁player": 2716,
      "▁returned": 2717,
      "▁inquired": 2718,
      "▁technology": 2719,
      "##ones": 2720,
      "▁pools": 2721,
      "##roc": 2722,
      "▁sheltered": 2723,
      "▁stripe": 2724,
      "▁elsewhere": 2725,
      "▁ss": 2726,
      "▁forward": 2727,
      "▁runs": 2728,
      "▁anymore": 2729,
      "▁laun": 2730,
      "▁heck": 2731,
      "##commerce": 2732,
      "▁intelligence": 2733,
      "▁trip": 2734,
      "▁successfully": 2735,
      "##itals": 2736,
      "##inews": 2737,
      "▁hailed": 2738,
      "##tures": 2739,
      "##ember": 2740,
      "▁batter": 2741,
      "##aly": 2742,
      "##ial": 2743,
      "▁submits": 2744,
      "▁installing": 2745,
      "##kets": 2746,
      "##ontario": 2747,
      "##inks": 2748,
      "▁suggesting": 2749,
      "▁whic": 2750,
      "▁focuses": 2751,
      "##oprop": 2752,
      "##uned": 2753,
      "##fl": 2754,
      "▁deliver": 2755,
      "▁unless": 2756,
      "##rest": 2757,
      "▁security": 2758,
      "▁shoo": 2759,
      "▁squares": 2760,
      "▁shrap": 2761,
      "▁roc": 2762,
      "▁breed": 2763,
      "▁xml": 2764,
      "▁blueberries": 2765,
      "▁acupunct": 2766,
      "##ential": 2767,
      "▁airplanes": 2768,
      "▁bob": 2769,
      "▁reel": 2770,
      "##-en": 2771,
      "▁fulfilled": 2772,
      "▁initiated": 2773,
      "▁principles": 2774,
      "##cr": 2775,
      "▁legacy": 2776,
      "##atees": 2777,
      "##alls": 2778,
      "▁brow": 2779,
      "▁sponge": 2780,
      "##lock": 2781,
      "##ording": 2782,
      "##ieve": 2783,
      "▁truth": 2784,
      "▁straps": 2785,
      "▁cic": 2786,
      "▁ideology": 2787,
      "▁private": 2788,
      "▁prearranged": 2789,
      "▁…": 2790,
      "##yalty": 2791,
      "▁hosting": 2792,
      "▁berth": 2793,
      "▁conf": 2794,
      "▁highly": 2795,
      "▁northeast": 2796,
      "##ls": 2797,
      "▁fishie": 2798,
      "▁groceries": 2799,
      "▁jos": 2800,
      "▁index": 2801,
      "▁distric": 2802,
      "▁frogg": 2803,
      "▁pitcher": 2804,
      "##essional": 2805,
      "▁ne": 2806,
      "▁taxi": 2807,
      "▁stringing": 2808,
      "▁responsible": 2809,
      "▁cle": 2810,
      "▁mama": 2811,
      "##antic": 2812,
      "▁alig": 2813,
      "▁merchant": 2814,
      "▁negotiate": 2815,
      "▁lifting": 2816,
      "▁listened": 2817,
      "▁deeds": 2818,
      "▁clos": 2819,
      "▁measures": 2820,
      "▁determination": 2821,
      "▁obe": 2822,
      "▁memorized": 2823,
      "▁:?": 2824,
      "▁grandparents": 2825,
      "##over": 2826,
      "▁um": 2827,
      "▁swallow": 2828,
      "▁austral": 2829,
      "▁squeezed": 2830,
      "▁theft": 2831,
      "▁caring": 2832,
      "##ployment": 2833,
      "▁cures": 2834,
      "##ulations": 2835,
      "##odor": 2836,
      "▁complexion": 2837,
      "▁colony": 2838,
      "▁mex": 2839,
      "▁om": 2840,
      "▁cam": 2841,
      "##ct": 2842,
      "▁superi": 2843,
      "▁clothes": 2844,
      "##hr": 2845,
      "▁referencing": 2846,
      "▁repub": 2847,
      "▁dey": 2848,
      "▁cornflakes": 2849,
      "##erential": 2850,
      "▁maniac": 2851,
      "▁ramifications": 2852,
      "▁descriptions": 2853,
      "▁reason": 2854,
      "▁set": 2855,
      "▁directive": 2856,
      "▁remain": 2857,
      "##uct": 2858,
      "##ache": 2859,
      "▁course": 2860,
      "▁lar": 2861,
      "▁recc": 2862,
      "▁name": 2863,
      "▁barriers": 2864,
      "##ade": 2865,
      "▁meow": 2866,
      "▁succumb": 2867,
      "##ossing": 2868,
      "6": 2869,
      "##pp": 2870,
      "##pathy": 2871,
      "▁nickel": 2872,
      "▁jew": 2873,
      "▁un": 2874,
      "##anistan": 2875,
      "▁alar": 2876,
      "##al": 2877,
      "▁...": 2878,
      "▁killed": 2879,
      "▁governing": 2880,
      "▁conclude": 2881,
      "▁faun": 2882,
      "##achers": 2883,
      "▁fixed": 2884,
      "▁auction": 2885,
      "##onti": 2886,
      "▁enables": 2887,
      "▁replied": 2888,
      "▁quoting": 2889,
      "▁cropdusters": 2890,
      "▁fuzz": 2891,
      "##ild": 2892,
      "▁quino": 2893,
      "▁waived": 2894,
      "▁’re": 2895,
      "###69": 2896,
      "▁holds": 2897,
      "▁purch": 2898,
      "▁abbre": 2899,
      "▁thumb": 2900,
      "▁commentaries": 2901,
      "▁hus": 2902,
      "▁putting": 2903,
      "▁professionalism": 2904,
      "▁tactic": 2905,
      "▁come": 2906,
      "##icular": 2907,
      "▁driven": 2908,
      "▁classified": 2909,
      "▁linked": 2910,
      "▁comp.sources": 2911,
      "▁press": 2912,
      "▁fold": 2913,
      "▁banks": 2914,
      "▁have": 2915,
      "▁scholar": 2916,
      "▁enemy": 2917,
      "▁closing": 2918,
      "##elled": 2919,
      "▁pir": 2920,
      "##ields": 2921,
      "##orm": 2922,
      "▁$$$": 2923,
      "▁perf": 2924,
      "▁supplement": 2925,
      "##ults": 2926,
      "▁tragicomed": 2927,
      "▁germs": 2928,
      "##rom": 2929,
      "▁fronti": 2930,
      "▁readers": 2931,
      "▁receive": 2932,
      "##kers": 2933,
      "##eap": 2934,
      "▁rice": 2935,
      "▁how": 2936,
      "▁loi": 2937,
      "▁streams": 2938,
      "▁bathrooms": 2939,
      "▁brig": 2940,
      "▁bel": 2941,
      "##cul": 2942,
      "##uses": 2943,
      "▁furniture": 2944,
      "▁abo": 2945,
      "##ivity": 2946,
      "##:00": 2947,
      "▁network": 2948,
      "▁inves": 2949,
      "▁anch": 2950,
      "▁wife": 2951,
      "▁contain": 2952,
      "▁packages": 2953,
      "‘": 2954,
      "▁ties": 2955,
      "▁quiet": 2956,
      "▁pull": 2957,
      "▁trib": 2958,
      "▁ritual": 2959,
      "##lism": 2960,
      "##antiation": 2961,
      "##ritis": 2962,
      "▁haste": 2963,
      "▁twentieth": 2964,
      "▁wag": 2965,
      "▁removal": 2966,
      "▁backside": 2967,
      "▁i.e.": 2968,
      "▁santa": 2969,
      "▁sapped": 2970,
      "##oster": 2971,
      "▁panties": 2972,
      "▁grains": 2973,
      "▁spirits": 2974,
      "▁conte": 2975,
      "▁cock": 2976,
      "▁reminder": 2977,
      "▁pled": 2978,
      "▁tolerate": 2979,
      "▁playing": 2980,
      "▁indian": 2981,
      "▁treaty": 2982,
      "##enced": 2983,
      "##ologue": 2984,
      "▁dislikes": 2985,
      "▁moment": 2986,
      "▁wails": 2987,
      "▁iodised": 2988,
      "▁res": 2989,
      "##overn": 2990,
      "▁poll": 2991,
      "##cross": 2992,
      "▁rival": 2993,
      "▁filter": 2994,
      "▁jump": 2995,
      "▁rapporteur": 2996,
      "##naires": 2997,
      "##assad": 2998,
      "▁`": 2999,
      "▁fans": 3000,
      "▁illustration": 3001,
      "▁cre": 3002,
      "▁inn": 3003,
      "▁dign": 3004,
      "▁gentlemen": 3005,
      "▁criminal": 3006,
      "▁dang": 3007,
      "▁consist": 3008,
      "▁institutions": 3009,
      "▁antenna": 3010,
      "##lling": 3011,
      "▁ears": 3012,
      "▁skating": 3013,
      "▁pamph": 3014,
      "##til": 3015,
      "▁patri": 3016,
      "▁dress": 3017,
      "▁clash": 3018,
      "▁indication": 3019,
      "▁!!!!!!!!!!!!!!!": 3020,
      "▁beware": 3021,
      "▁aftershocks": 3022,
      "▁dessert": 3023,
      "##stem": 3024,
      "##immer": 3025,
      "▁concentration": 3026,
      "▁fert": 3027,
      "##ito": 3028,
      "▁sorts": 3029,
      "▁obtain": 3030,
      "▁clue": 3031,
      "##-time": 3032,
      "##!": 3033,
      "▁stem": 3034,
      "▁ignor": 3035,
      "▁dim": 3036,
      "▁abbrev": 3037,
      "▁burs": 3038,
      "▁monastery": 3039,
      "▁semester": 3040,
      "▁1970s": 3041,
      "▁replaced": 3042,
      "½": 3043,
      "▁often": 3044,
      "▁dism": 3045,
      "▁sacrifice": 3046,
      "▁suffix": 3047,
      "▁greatest": 3048,
      "▁mel": 3049,
      "▁aeroplane": 3050,
      "##ounters": 3051,
      "▁proper": 3052,
      "▁settlement": 3053,
      "▁contrad": 3054,
      "▁ontario": 3055,
      "##gged": 3056,
      "##fa": 3057,
      "▁dazz": 3058,
      "▁curi": 3059,
      "▁warrants": 3060,
      "##known": 3061,
      "▁shoulder": 3062,
      "▁armies": 3063,
      "▁mode": 3064,
      "▁warn": 3065,
      "▁quart": 3066,
      "▁ld2d-#6939": 3067,
      "▁occ": 3068,
      "▁instruments": 3069,
      "##nair": 3070,
      "▁cats": 3071,
      "▁centres": 3072,
      "▁statement": 3073,
      "▁eat-e": 3074,
      "▁flew": 3075,
      "##tit": 3076,
      "▁laur": 3077,
      "##inging": 3078,
      "▁viewers": 3079,
      "##omet": 3080,
      "▁loves": 3081,
      "▁affect": 3082,
      "▁mentioning": 3083,
      "▁tin": 3084,
      "▁attack": 3085,
      "▁contents": 3086,
      "##keep": 3087,
      "▁chase": 3088,
      "▁ou": 3089,
      "▁conviction": 3090,
      "▁essay": 3091,
      "▁fake": 3092,
      "▁references": 3093,
      "▁relevant": 3094,
      "▁longing": 3095,
      "▁servant": 3096,
      "▁claim": 3097,
      "▁----": 3098,
      "▁digest": 3099,
      "▁tablets": 3100,
      "▁leverage": 3101,
      "▁athletes": 3102,
      "##ored": 3103,
      "▁rifle": 3104,
      "▁identification": 3105,
      "##orama": 3106,
      "▁prosecutor": 3107,
      "▁ran": 3108,
      "▁flashing": 3109,
      "##bees": 3110,
      "##glasses": 3111,
      "▁ridden": 3112,
      "##aties": 3113,
      "▁scene": 3114,
      "▁tur": 3115,
      "▁his": 3116,
      "▁crying": 3117,
      "▁certificates": 3118,
      "▁jeep": 3119,
      "▁pop": 3120,
      "##are": 3121,
      "▁bos": 3122,
      "##ice": 3123,
      "▁hat": 3124,
      "▁managers": 3125,
      "##lig": 3126,
      "▁ppl": 3127,
      "▁curric": 3128,
      "▁syrup": 3129,
      "▁separate": 3130,
      "▁assumption": 3131,
      "▁tenth": 3132,
      "▁mummy": 3133,
      "▁amending": 3134,
      "▁register": 3135,
      "▁steward": 3136,
      "▁specim": 3137,
      "▁bones": 3138,
      "##goround": 3139,
      "▁bordered": 3140,
      "##ods": 3141,
      "##osm": 3142,
      "##oundings": 3143,
      "▁tou": 3144,
      "▁receip": 3145,
      "##ewing": 3146,
      "▁dimension": 3147,
      "▁gre": 3148,
      "▁hierarchy": 3149,
      "▁ad": 3150,
      "▁greetings": 3151,
      "▁observation": 3152,
      "▁neighbour": 3153,
      "▁magistr": 3154,
      "▁oxygen": 3155,
      "ə": 3156,
      "▁bandaid": 3157,
      "▁cincinn": 3158,
      "##_re": 3159,
      "##kating": 3160,
      "##iddish": 3161,
      "▁door": 3162,
      "##aked": 3163,
      "▁theodor": 3164,
      "▁shed": 3165,
      "▁cyclone": 3166,
      "▁mum": 3167,
      "##olog": 3168,
      "##ulses": 3169,
      "▁necessity": 3170,
      "▁infected": 3171,
      "▁ended": 3172,
      "▁stole": 3173,
      "▁july": 3174,
      "▁swap": 3175,
      "▁beater": 3176,
      "▁homeopathy": 3177,
      "##ozer": 3178,
      "▁applic": 3179,
      "##cosm": 3180,
      "##ib": 3181,
      "▁crab": 3182,
      "▁gallery": 3183,
      "##puts": 3184,
      "▁entered": 3185,
      "##nch": 3186,
      "▁various": 3187,
      "▁vo": 3188,
      "▁acqu": 3189,
      "##geted": 3190,
      "▁engaging": 3191,
      "▁penet": 3192,
      "▁nt": 3193,
      "▁manatees": 3194,
      "▁proced": 3195,
      "▁futures": 3196,
      "▁declined": 3197,
      "##ows": 3198,
      "##4-1.doc": 3199,
      "▁planet": 3200,
      "▁ensuring": 3201,
      "▁conting": 3202,
      "▁merry": 3203,
      "##lent": 3204,
      "▁mir": 3205,
      "▁kidney": 3206,
      "##undity": 3207,
      "▁calories": 3208,
      "▁copying": 3209,
      "##esame": 3210,
      "▁bodies": 3211,
      "▁pac": 3212,
      "▁sout": 3213,
      "##bol": 3214,
      "▁hierarch": 3215,
      "▁piled": 3216,
      "▁outbre": 3217,
      "▁lawn": 3218,
      "▁hist": 3219,
      "▁crews": 3220,
      "▁activists": 3221,
      "▁atrocities": 3222,
      "▁supplies": 3223,
      "▁brushing": 3224,
      "▁editing": 3225,
      "##ctuation": 3226,
      "▁clips": 3227,
      "▁seconds": 3228,
      "▁artworld": 3229,
      "▁bronze": 3230,
      "##-19": 3231,
      "▁plenty": 3232,
      "▁occupy": 3233,
      "▁bucket": 3234,
      "▁lend": 3235,
      "▁nuc": 3236,
      "▁acorn": 3237,
      "▁hovered": 3238,
      "▁payers": 3239,
      "▁personally": 3240,
      "▁ai": 3241,
      "▁understanding": 3242,
      "##ingle": 3243,
      "▁journey": 3244,
      "▁doubts": 3245,
      "▁aggregate": 3246,
      "▁expanded": 3247,
      "▁policymakers": 3248,
      "##www": 3249,
      "▁nap": 3250,
      "▁smoked": 3251,
      "▁smells": 3252,
      "▁uvb": 3253,
      "▁nipple": 3254,
      "##dron": 3255,
      "▁tal": 3256,
      "▁publicly": 3257,
      "▁searching": 3258,
      "##sually": 3259,
      "##keepers": 3260,
      "▁thumbs": 3261,
      "▁scenery": 3262,
      "▁candid": 3263,
      "▁volume": 3264,
      "▁v02": 3265,
      "▁appl": 3266,
      "▁pre-": 3267,
      "▁disint": 3268,
      "▁becuse": 3269,
      "##idered": 3270,
      "▁surface": 3271,
      "▁auto": 3272,
      "▁clarity": 3273,
      "▁cleanup": 3274,
      "▁grad": 3275,
      "▁au": 3276,
      "▁temp": 3277,
      "##arized": 3278,
      "▁discontent": 3279,
      "##ift": 3280,
      "##ales": 3281,
      "##90": 3282,
      "##entiality": 3283,
      "▁shipped": 3284,
      "##owned": 3285,
      "▁evil": 3286,
      "▁curs": 3287,
      "##pants": 3288,
      "▁florida": 3289,
      "##char": 3290,
      "▁fill": 3291,
      "▁symbolizes": 3292,
      "▁jose": 3293,
      "▁solving": 3294,
      "▁cpi": 3295,
      "▁sheriff": 3296,
      "##oval": 3297,
      "##udes": 3298,
      "##elines": 3299,
      "▁committed": 3300,
      "▁homes": 3301,
      "▁depar": 3302,
      "##ou": 3303,
      "▁weapons": 3304,
      "##lees": 3305,
      "▁requi": 3306,
      "▁outlined": 3307,
      "▁forest": 3308,
      "##liance": 3309,
      "▁scaring": 3310,
      "▁flops": 3311,
      "##bled": 3312,
      "##asion": 3313,
      "▁ignored": 3314,
      "▁busy": 3315,
      "▁pursu": 3316,
      "▁vehic": 3317,
      "▁shelter": 3318,
      "##engers": 3319,
      "▁1.": 3320,
      "▁added": 3321,
      "▁delete": 3322,
      "▁25": 3323,
      "▁tonight": 3324,
      "▁enterpr": 3325,
      "▁pancakes": 3326,
      "##-s": 3327,
      "▁shipping": 3328,
      "##ums": 3329,
      "▁immigrants": 3330,
      "##fp": 3331,
      "▁require": 3332,
      "▁brand": 3333,
      "▁similarities": 3334,
      "▁defeat": 3335,
      "##omic": 3336,
      "▁belly": 3337,
      "▁inch": 3338,
      "▁antibio": 3339,
      "▁oak": 3340,
      "▁acqui": 3341,
      "▁based": 3342,
      "▁hand": 3343,
      "▁bub": 3344,
      "▁offense": 3345,
      "▁asks": 3346,
      "▁guarante": 3347,
      "▁mentioned": 3348,
      "##ub": 3349,
      "▁glam": 3350,
      "##riers": 3351,
      "▁grammar": 3352,
      "##ravated": 3353,
      "▁stev": 3354,
      "▁cow": 3355,
      "▁crises": 3356,
      "▁everywhere": 3357,
      "##mentation": 3358,
      "▁evaluator": 3359,
      "▁kim": 3360,
      "##ident": 3361,
      "▁unles": 3362,
      "##bons": 3363,
      "▁scope": 3364,
      "##pack": 3365,
      "▁disappeared": 3366,
      "▁himself": 3367,
      "▁sen": 3368,
      "▁lemon": 3369,
      "▁briefing": 3370,
      "▁neuroscience": 3371,
      "##dge": 3372,
      "▁sometimes": 3373,
      "▁conflict": 3374,
      "▁vict": 3375,
      "##maid": 3376,
      "▁firstly": 3377,
      "▁breast": 3378,
      "▁dys": 3379,
      "▁lunche": 3380,
      "▁ray": 3381,
      "##ˈ": 3382,
      "▁vintage": 3383,
      "▁hardship": 3384,
      "▁treatment": 3385,
      "▁apol": 3386,
      "▁philadelphia": 3387,
      "##inger": 3388,
      "##-sh": 3389,
      "##ership": 3390,
      "▁largely": 3391,
      "▁sequ": 3392,
      "▁headband": 3393,
      "▁cover": 3394,
      "▁blues": 3395,
      "▁doggy": 3396,
      "▁chunk": 3397,
      "▁ansi-": 3398,
      "▁beating": 3399,
      "▁alarm": 3400,
      "▁enabling": 3401,
      "##umped": 3402,
      "##ributing": 3403,
      "▁arm": 3404,
      "▁farewell": 3405,
      "▁rect": 3406,
      "##rum": 3407,
      "##enron.com": 3408,
      "##pics": 3409,
      "▁championship": 3410,
      "▁grip": 3411,
      "▁toys": 3412,
      "##plan": 3413,
      "▁beginners": 3414,
      "▁conn": 3415,
      "▁locations": 3416,
      "▁scientific": 3417,
      "##vily": 3418,
      "##odes": 3419,
      "▁body": 3420,
      "▁less": 3421,
      "##ustration": 3422,
      "▁basic": 3423,
      "▁everyone": 3424,
      "▁represent": 3425,
      "▁baking": 3426,
      "▁copy": 3427,
      "▁observed": 3428,
      "▁volunteer": 3429,
      "▁rentals": 3430,
      "▁nurs": 3431,
      "▁gnome": 3432,
      "▁squir": 3433,
      "▁cooking": 3434,
      "##-b": 3435,
      "▁rainbow": 3436,
      "##ic": 3437,
      "▁prints": 3438,
      "▁prompted": 3439,
      "▁leaning": 3440,
      "▁medic": 3441,
      "▁boil": 3442,
      "▁saddam": 3443,
      "▁zeitgeist": 3444,
      "▁scientists": 3445,
      "##tles": 3446,
      "▁decor": 3447,
      "▁orn": 3448,
      "▁obt": 3449,
      "##oween": 3450,
      "##qu": 3451,
      "▁rememb": 3452,
      "▁smelled": 3453,
      "▁councillors": 3454,
      "##ght": 3455,
      "▁fil": 3456,
      "##peare": 3457,
      "▁>>": 3458,
      "##on": 3459,
      "##ocent": 3460,
      "▁percentiles": 3461,
      "▁disl": 3462,
      "▁sum": 3463,
      "▁husband": 3464,
      "▁convince": 3465,
      "▁inqui": 3466,
      "▁frow": 3467,
      "▁makers": 3468,
      "##worms": 3469,
      "##vices": 3470,
      "▁mater": 3471,
      "▁etiquette": 3472,
      "##.un": 3473,
      "##ord": 3474,
      "▁overcome": 3475,
      "▁peek": 3476,
      "▁pages": 3477,
      "▁novelist": 3478,
      "▁handkerchiefs": 3479,
      "▁fighting": 3480,
      "▁tunnel": 3481,
      "▁bothered": 3482,
      "##aults": 3483,
      "##oughly": 3484,
      "▁childcare": 3485,
      "##ami": 3486,
      "##ich": 3487,
      "▁assessed": 3488,
      "▁langu": 3489,
      "▁exit": 3490,
      "▁hare": 3491,
      "▁communities": 3492,
      "▁nervous": 3493,
      "▁products": 3494,
      "▁suspension": 3495,
      "▁fulfill": 3496,
      "▁russian": 3497,
      "▁barking": 3498,
      "▁invasion": 3499,
      "##oid": 3500,
      "▁shortly": 3501,
      "##roidered": 3502,
      "▁100": 3503,
      "▁colour": 3504,
      "▁monit": 3505,
      "##osed": 3506,
      "##ography": 3507,
      "##oft": 3508,
      "▁preferred": 3509,
      "▁rockets": 3510,
      "▁dancer": 3511,
      "▁ages": 3512,
      "▁buggy": 3513,
      "##onsum": 3514,
      "▁topper": 3515,
      "▁frenzy": 3516,
      "##inating": 3517,
      "▁luminol": 3518,
      "##inkle": 3519,
      "▁alphabets": 3520,
      "▁slippers": 3521,
      "▁grown": 3522,
      "##inded": 3523,
      "▁melting": 3524,
      "▁becom": 3525,
      "▁make": 3526,
      "##ak": 3527,
      "▁catch": 3528,
      "▁1": 3529,
      "▁lantern": 3530,
      "▁abandoned": 3531,
      "▁dependency": 3532,
      "▁deep": 3533,
      "▁vary": 3534,
      "▁pager": 3535,
      "▁resisted": 3536,
      "▁angle": 3537,
      "##body": 3538,
      "▁phrases": 3539,
      "▁stopovers": 3540,
      "▁equal": 3541,
      "▁enriched": 3542,
      "▁hu": 3543,
      "▁winters": 3544,
      "##afe": 3545,
      "##itting": 3546,
      "▁supers": 3547,
      "▁department": 3548,
      "▁advice": 3549,
      "▁dominated": 3550,
      "##ability": 3551,
      "▁vill": 3552,
      "▁wired": 3553,
      "▁restored": 3554,
      "▁cfls": 3555,
      "##irl": 3556,
      "##90s": 3557,
      "▁teachers": 3558,
      "▁thyro": 3559,
      "h": 3560,
      "▁offers": 3561,
      "▁killing": 3562,
      "▁charge": 3563,
      "▁drops": 3564,
      "▁lose": 3565,
      "5": 3566,
      "▁coded": 3567,
      "▁policy": 3568,
      "▁pl": 3569,
      "##nish": 3570,
      "##xing": 3571,
      "▁id": 3572,
      "▁adj": 3573,
      "▁go's": 3574,
      "▁fluff": 3575,
      "##alked": 3576,
      "▁processor": 3577,
      "▁attemp": 3578,
      "##ons": 3579,
      "▁disney": 3580,
      "##aning": 3581,
      "▁slang": 3582,
      "▁consideration": 3583,
      "▁accomm": 3584,
      "▁knives": 3585,
      "▁tendency": 3586,
      "▁maker": 3587,
      "##iol": 3588,
      "▁wasted": 3589,
      "▁pastels": 3590,
      "##ced": 3591,
      "▁reside": 3592,
      "▁reconciliation": 3593,
      "▁ancestors": 3594,
      "▁boiled": 3595,
      "▁him": 3596,
      "▁sati": 3597,
      "▁ap": 3598,
      "▁send": 3599,
      "▁stat": 3600,
      "##ield": 3601,
      "##mb": 3602,
      "##dity": 3603,
      "##++++": 3604,
      "▁change": 3605,
      "##urities": 3606,
      "▁incorp": 3607,
      "▁turns": 3608,
      "▁measured": 3609,
      "▁fos": 3610,
      "▁wild": 3611,
      "▁keep": 3612,
      "▁afternoon": 3613,
      "▁railway": 3614,
      "▁necess": 3615,
      "▁sleeping": 3616,
      "▁revenues": 3617,
      "▁adjusted": 3618,
      "▁cand": 3619,
      "▁occasionally": 3620,
      "▁typically": 3621,
      "▁victims": 3622,
      "▁alerts": 3623,
      "▁tokyo": 3624,
      "▁squeal": 3625,
      "▁leisure": 3626,
      "##gold": 3627,
      "▁merits": 3628,
      "▁bias": 3629,
      "##ette": 3630,
      "▁businessmen": 3631,
      "▁n't": 3632,
      "▁religion": 3633,
      "▁members": 3634,
      "▁shift": 3635,
      "##eriff": 3636,
      "▁dating": 3637,
      "##enas": 3638,
      "▁redes": 3639,
      "▁warm": 3640,
      "▁inhabit": 3641,
      "##irm": 3642,
      "▁fairy": 3643,
      "▁deepen": 3644,
      "▁gazing": 3645,
      "▁aggre": 3646,
      "##acamole": 3647,
      "▁reindeer": 3648,
      "▁disclose": 3649,
      "▁martyr": 3650,
      "▁referend": 3651,
      "▁business": 3652,
      "▁spice": 3653,
      "▁transforms": 3654,
      "##med": 3655,
      "▁sympt": 3656,
      "▁euros": 3657,
      "▁representatives": 3658,
      "▁shuff": 3659,
      "▁desire": 3660,
      "▁finals": 3661,
      "##zer": 3662,
      "##bra": 3663,
      "##ssible": 3664,
      "▁vs": 3665,
      "▁yourselves": 3666,
      "##ix": 3667,
      "▁designs": 3668,
      "▁stagg": 3669,
      "##zac": 3670,
      "##ading": 3671,
      "##go": 3672,
      "▁towed": 3673,
      "##obs": 3674,
      "##cept": 3675,
      "▁exam": 3676,
      "##lion": 3677,
      "▁immersed": 3678,
      "▁10": 3679,
      "▁seem": 3680,
      "##itement": 3681,
      "▁mood": 3682,
      "▁albe": 3683,
      "##ther": 3684,
      "▁advisors": 3685,
      "▁broadcasts": 3686,
      "##orating": 3687,
      "##itoring": 3688,
      "▁ciac": 3689,
      "▁debris": 3690,
      "▁expires": 3691,
      "▁symbols": 3692,
      "##ements": 3693,
      "##der": 3694,
      "▁boo": 3695,
      "▁expel": 3696,
      "##oni": 3697,
      "▁output": 3698,
      "▁bi": 3699,
      "▁coconut": 3700,
      "##ution": 3701,
      "##ocated": 3702,
      "▁boosting": 3703,
      "▁morphology": 3704,
      "▁consulted": 3705,
      "▁western": 3706,
      "▁war": 3707,
      "##ʁ": 3708,
      "▁diale": 3709,
      "##lies": 3710,
      "##bur": 3711,
      "▁sel": 3712,
      "##here": 3713,
      "▁encouraged": 3714,
      "▁explanation": 3715,
      "▁blaze": 3716,
      "▁pimple": 3717,
      "##pill": 3718,
      "▁rarely": 3719,
      "▁hund": 3720,
      "▁heater": 3721,
      "##ssibly": 3722,
      "▁beginning": 3723,
      "▁pedicure": 3724,
      "▁tickles": 3725,
      "▁gm": 3726,
      "▁’s": 3727,
      "▁shad": 3728,
      "▁dinosaurs": 3729,
      "##80s": 3730,
      "▁renew": 3731,
      "▁hav": 3732,
      "▁pledge": 3733,
      "##.2": 3734,
      "▁sensor": 3735,
      "▁flowers": 3736,
      "▁mhm": 3737,
      "▁northern": 3738,
      "▁sant": 3739,
      "▁programming": 3740,
      "▁grandmother": 3741,
      "▁ve": 3742,
      "▁because": 3743,
      "▁trading": 3744,
      "##vance": 3745,
      "▁starving": 3746,
      "▁annex": 3747,
      "▁nightcl": 3748,
      "##illa": 3749,
      "▁segment": 3750,
      "▁fourth": 3751,
      "##uating": 3752,
      "##ooped": 3753,
      "▁reef": 3754,
      "▁hey": 3755,
      "##wrec": 3756,
      "▁sal": 3757,
      "##reation": 3758,
      "▁ver": 3759,
      "##gre": 3760,
      "▁transform": 3761,
      "▁uva": 3762,
      "▁temperature": 3763,
      "##ints": 3764,
      "##ya": 3765,
      "▁enjoy": 3766,
      "▁appreciated": 3767,
      "▁consortium": 3768,
      "##onize": 3769,
      "▁revol": 3770,
      "▁louds": 3771,
      "▁took": 3772,
      "##ers": 3773,
      "##bil": 3774,
      "▁prefecture": 3775,
      "▁dsl": 3776,
      "▁accommodations": 3777,
      "▁judged": 3778,
      "▁cross": 3779,
      "▁badly": 3780,
      "▁sampling": 3781,
      "▁david": 3782,
      "▁subpo": 3783,
      "▁superiority": 3784,
      "##rise": 3785,
      "▁ruin": 3786,
      "▁co": 3787,
      "▁considers": 3788,
      "▁diff": 3789,
      "▁jungle": 3790,
      "▁shrunk": 3791,
      "▁dolph": 3792,
      "▁miti": 3793,
      "▁during": 3794,
      "##ended": 3795,
      "▁northwest": 3796,
      "▁tested": 3797,
      "▁disappointment": 3798,
      "▁locking": 3799,
      "▁engage": 3800,
      "▁scrub": 3801,
      "▁electron": 3802,
      "▁dest": 3803,
      "▁hum": 3804,
      "##bby": 3805,
      "▁monks": 3806,
      "##ze": 3807,
      "▁occurs": 3808,
      "▁particip": 3809,
      "▁ch": 3810,
      "▁gives": 3811,
      "▁throwing": 3812,
      "▁threw": 3813,
      "▁teasing": 3814,
      "##az": 3815,
      "▁yawning": 3816,
      "▁tsar": 3817,
      "▁wings": 3818,
      "▁pork": 3819,
      "▁blacklined": 3820,
      "##epted": 3821,
      "▁sisal": 3822,
      "▁curves": 3823,
      "##i-": 3824,
      "##att": 3825,
      "##fr": 3826,
      "▁sp": 3827,
      "##ops": 3828,
      "▁destro": 3829,
      "▁directly": 3830,
      "##enn": 3831,
      "▁fan": 3832,
      "▁however": 3833,
      "▁cust": 3834,
      "##kay": 3835,
      "##p": 3836,
      "▁browsers": 3837,
      "▁components": 3838,
      "▁chap": 3839,
      "▁wigg": 3840,
      "▁legos": 3841,
      "▁pover": 3842,
      "ʃ": 3843,
      "▁encour": 3844,
      "▁depend": 3845,
      "▁tod": 3846,
      "▁fam": 3847,
      "▁compar": 3848,
      "▁novell": 3849,
      "▁appealed": 3850,
      "▁anemones": 3851,
      "▁eas": 3852,
      "▁preventing": 3853,
      "▁enab": 3854,
      "▁ju": 3855,
      "▁fab": 3856,
      "##xim": 3857,
      "▁average": 3858,
      "▁qu": 3859,
      "▁lent": 3860,
      "##ignment": 3861,
      "▁hesitation": 3862,
      "##ersion": 3863,
      "▁miseries": 3864,
      "▁specific": 3865,
      "##agn": 3866,
      "##bar": 3867,
      "▁lights": 3868,
      "▁ssh": 3869,
      "▁cin": 3870,
      "▁acceler": 3871,
      "##ctor": 3872,
      "##pletely": 3873,
      "▁simpli": 3874,
      "▁folder": 3875,
      "▁ripping": 3876,
      "▁right": 3877,
      "##roll": 3878,
      "▁headline": 3879,
      "##orn": 3880,
      "▁clust": 3881,
      "▁guiding": 3882,
      "##ilt": 3883,
      "##derst": 3884,
      "▁machine": 3885,
      "▁engineering": 3886,
      "▁suited": 3887,
      "▁fec": 3888,
      "##eason": 3889,
      "▁welf": 3890,
      "▁volati": 3891,
      "##af": 3892,
      "▁kilomet": 3893,
      "▁on": 3894,
      "##----------": 3895,
      "##time": 3896,
      "▁tors": 3897,
      "▁hunt": 3898,
      "▁memo": 3899,
      "▁preparedness": 3900,
      "##ithst": 3901,
      "▁tips": 3902,
      "▁laser": 3903,
      "▁stored": 3904,
      "▁represented": 3905,
      "▁worrying": 3906,
      "▁candies": 3907,
      "▁edges": 3908,
      "▁responds": 3909,
      "▁galax": 3910,
      "▁lets": 3911,
      "##erry": 3912,
      "▁calif": 3913,
      "##cently": 3914,
      "▁refus": 3915,
      "▁curriculum": 3916,
      "▁japanese": 3917,
      "▁concession": 3918,
      "▁administr": 3919,
      "##nosis": 3920,
      "▁suggestion": 3921,
      "▁legislation": 3922,
      "##rab": 3923,
      "▁emphasize": 3924,
      "▁belief": 3925,
      "▁disability": 3926,
      "▁insul": 3927,
      "▁notice": 3928,
      "▁iron": 3929,
      "▁grid": 3930,
      "▁motivation": 3931,
      "▁singles": 3932,
      "##ainted": 3933,
      "▁breakdown": 3934,
      "▁naming": 3935,
      "▁flush": 3936,
      "▁embrace": 3937,
      "▁chin": 3938,
      "▁30th": 3939,
      "▁stylesheet": 3940,
      "▁careful": 3941,
      "▁.....": 3942,
      "▁route": 3943,
      "▁era": 3944,
      "##ars": 3945,
      "▁gulf": 3946,
      "##υ": 3947,
      "▁spect": 3948,
      "▁mob": 3949,
      "▁lumin": 3950,
      "##agle": 3951,
      "▁cradle": 3952,
      "▁sorrow": 3953,
      "##essions": 3954,
      "▁wednesdays": 3955,
      "▁gunfire": 3956,
      "▁introduces": 3957,
      "##bat": 3958,
      "▁attempting": 3959,
      "▁coup": 3960,
      "▁borrowers": 3961,
      "▁crosses": 3962,
      "▁inspired": 3963,
      "▁pecking": 3964,
      "▁said": 3965,
      "▁turmoil": 3966,
      "▁interceptor": 3967,
      "▁employment": 3968,
      "▁ang": 3969,
      "▁arrang": 3970,
      "▁neg": 3971,
      "▁correc": 3972,
      "##ip": 3973,
      "▁experience": 3974,
      "▁cutting": 3975,
      "▁translating": 3976,
      "▁supporter": 3977,
      "▁domain": 3978,
      "##fe": 3979,
      "##writ": 3980,
      "##rm": 3981,
      "▁friendly": 3982,
      "▁discoveries": 3983,
      "##ory": 3984,
      "##ideration": 3985,
      "▁messaging": 3986,
      "▁ab": 3987,
      "##rights": 3988,
      "▁computers": 3989,
      "▁banner": 3990,
      "##ber": 3991,
      "##omm": 3992,
      "▁teacher": 3993,
      "##olly": 3994,
      "##tai": 3995,
      "▁monitoring": 3996,
      "▁periods": 3997,
      "▁extradited": 3998,
      "##ann": 3999,
      "▁behaviors": 4000,
      "▁brass": 4001,
      "##kly": 4002,
      "##-": 4003,
      "▁in": 4004,
      "▁steak": 4005,
      "##rie": 4006,
      "▁shrew": 4007,
      "▁pleased": 4008,
      "▁cannon": 4009,
      "##orage": 4010,
      "##abb": 4011,
      "▁fever": 4012,
      "▁coordin": 4013,
      "▁pee": 4014,
      "▁trafficking": 4015,
      "▁away": 4016,
      "▁shaped": 4017,
      "▁verifies": 4018,
      "▁sli": 4019,
      "##atograph": 4020,
      "▁expectancy": 4021,
      "▁conferen": 4022,
      "μ": 4023,
      "▁lan": 4024,
      "▁sympathizers": 4025,
      "##rils": 4026,
      "▁fairs": 4027,
      "▁vote": 4028,
      "▁bounds": 4029,
      "▁confidence": 4030,
      "▁drilling": 4031,
      "##im": 4032,
      "▁oops": 4033,
      "▁secession": 4034,
      "▁hopes": 4035,
      "▁code": 4036,
      "▁mumbled": 4037,
      "▁refused": 4038,
      "▁crap": 4039,
      "▁memoir": 4040,
      "▁margin": 4041,
      "##ting": 4042,
      "▁princip": 4043,
      "▁targets": 4044,
      "▁protocol": 4045,
      "▁relevance": 4046,
      "##etus": 4047,
      "▁archbish": 4048,
      "##ished": 4049,
      "##isti": 4050,
      "##igration": 4051,
      "▁quite": 4052,
      "▁establish": 4053,
      "▁revers": 4054,
      "##*": 4055,
      "▁hz": 4056,
      "▁fare": 4057,
      "▁colonization": 4058,
      "##eine": 4059,
      "▁!!!!": 4060,
      "▁retrie": 4061,
      "▁screams": 4062,
      "▁flor": 4063,
      "##olence": 4064,
      "▁image": 4065,
      "##ustice": 4066,
      "▁fishing": 4067,
      "▁refund": 4068,
      "▁baptised": 4069,
      "▁napkins": 4070,
      "▁cooperation": 4071,
      "▁pe": 4072,
      "▁paraphr": 4073,
      "##dering": 4074,
      "▁econom": 4075,
      "##keeping": 4076,
      "▁posture": 4077,
      "▁spoken": 4078,
      "▁funeral": 4079,
      "▁continents": 4080,
      "▁relations": 4081,
      "##oner": 4082,
      "##atis": 4083,
      "▁congratulations": 4084,
      "▁applications": 4085,
      "▁forbidden": 4086,
      "▁slide": 4087,
      "▁pumped": 4088,
      "▁'ve": 4089,
      "▁points": 4090,
      "▁web": 4091,
      "▁flea": 4092,
      "▁scoot": 4093,
      "▁meeting": 4094,
      "▁slipped": 4095,
      "##loaded": 4096,
      "▁phr": 4097,
      "▁lawyer": 4098,
      "▁hydrogen": 4099,
      "▁plaque": 4100,
      "▁bec": 4101,
      "▁values": 4102,
      "▁bits": 4103,
      "▁locked": 4104,
      "##use": 4105,
      "▁stared": 4106,
      "##itivity": 4107,
      "##pin": 4108,
      "▁exac": 4109,
      "##aire": 4110,
      "##loying": 4111,
      "##emination": 4112,
      "##tirely": 4113,
      "▁er": 4114,
      "▁environment": 4115,
      "▁chapter": 4116,
      "▁imp": 4117,
      "##tops": 4118,
      "▁suppressed": 4119,
      "##icts": 4120,
      "▁yogh": 4121,
      "##veral": 4122,
      "▁br": 4123,
      "##di": 4124,
      "##ster": 4125,
      "##under": 4126,
      "▁almon": 4127,
      "▁rn": 4128,
      "##0's": 4129,
      "▁announcement": 4130,
      "##ency": 4131,
      "▁03": 4132,
      "##erable": 4133,
      "##tise": 4134,
      "▁adverts": 4135,
      "▁transfers": 4136,
      "##erely": 4137,
      "▁brains": 4138,
      "##ept": 4139,
      "▁ferocity": 4140,
      "▁cups": 4141,
      "▁undermine": 4142,
      "##alding": 4143,
      "▁26": 4144,
      "##yr": 4145,
      "##che": 4146,
      "▁regulations": 4147,
      "▁flop": 4148,
      "##-8": 4149,
      "▁warming": 4150,
      "▁reception": 4151,
      "##ff": 4152,
      "##gement": 4153,
      "##2": 4154,
      "▁miracle": 4155,
      "▁located": 4156,
      "▁rescue": 4157,
      "▁accidents": 4158,
      "▁mweta": 4159,
      "▁smo": 4160,
      "▁example": 4161,
      "##unged": 4162,
      "▁flows": 4163,
      "▁festiv": 4164,
      "##alized": 4165,
      "▁sailing": 4166,
      "##essness": 4167,
      "▁nose": 4168,
      "##alog": 4169,
      "##raged": 4170,
      "▁sing": 4171,
      "▁factory": 4172,
      "▁trades": 4173,
      "▁enjoys": 4174,
      "▁opposition": 4175,
      "▁fro": 4176,
      "▁rack": 4177,
      "##tur": 4178,
      "▁stealing": 4179,
      "▁survive": 4180,
      "▁waved": 4181,
      "▁paradise": 4182,
      "▁powers": 4183,
      "▁broccoli": 4184,
      "y": 4185,
      "▁pandemic": 4186,
      "▁temper": 4187,
      "▁oven": 4188,
      "▁collaboration": 4189,
      "▁let": 4190,
      "##iety": 4191,
      "▁fault": 4192,
      "▁soy": 4193,
      "▁freshman": 4194,
      "##ail": 4195,
      "##ith": 4196,
      "##lessness": 4197,
      "▁rejected": 4198,
      "▁instructed": 4199,
      "##pent": 4200,
      "▁nurse": 4201,
      "##nt": 4202,
      "▁exist": 4203,
      "▁occasion": 4204,
      "##agre": 4205,
      "▁mines": 4206,
      "##ind": 4207,
      "##titude": 4208,
      "▁packet": 4209,
      "▁reimb": 4210,
      "##ooked": 4211,
      "▁co-": 4212,
      "▁dictatorship": 4213,
      "▁environ": 4214,
      "▁women": 4215,
      "##alg": 4216,
      "##ering": 4217,
      "▁opponents": 4218,
      "▁enlargement": 4219,
      "▁appeti": 4220,
      "##city": 4221,
      "▁p.": 4222,
      "▁opportunity": 4223,
      "▁incentive": 4224,
      "▁anim": 4225,
      "▁act": 4226,
      "▁concerning": 4227,
      "▁[": 4228,
      "▁pret": 4229,
      "▁crayons": 4230,
      "##********************************": 4231,
      "##ctuary": 4232,
      "▁song": 4233,
      "▁willing": 4234,
      "▁trunks": 4235,
      "##olation": 4236,
      "##rived": 4237,
      "##ess": 4238,
      "▁diego": 4239,
      "▁fuck": 4240,
      "▁height": 4241,
      "▁dri": 4242,
      "##ric": 4243,
      "▁mechanisms": 4244,
      "▁transmittal": 4245,
      "▁categories": 4246,
      "▁tolerance": 4247,
      "▁hauling": 4248,
      "▁de": 4249,
      "▁bravery": 4250,
      "##30": 4251,
      "▁listen": 4252,
      "▁reint": 4253,
      "▁movements": 4254,
      "▁gir": 4255,
      "▁raccoon": 4256,
      "##ld": 4257,
      "▁rul": 4258,
      "##otal": 4259,
      "##lines": 4260,
      "▁glows": 4261,
      "▁illust": 4262,
      "▁tournament": 4263,
      "##hm": 4264,
      "▁epc": 4265,
      "▁human": 4266,
      "##neys": 4267,
      "▁entertainment": 4268,
      "▁screen": 4269,
      "ʒ": 4270,
      "▁times": 4271,
      "▁stakes": 4272,
      "▁fut": 4273,
      "▁notepad": 4274,
      "▁actually": 4275,
      "▁expressing": 4276,
      "▁infant": 4277,
      "▁immunity": 4278,
      "▁mart": 4279,
      "▁joh": 4280,
      "▁built": 4281,
      "▁distribution": 4282,
      "##uers": 4283,
      "##uild": 4284,
      "▁j": 4285,
      "##ways": 4286,
      "▁welc": 4287,
      "##king": 4288,
      "▁offered": 4289,
      "▁volcano": 4290,
      "▁surprise": 4291,
      "▁stadium": 4292,
      "##urch": 4293,
      "▁drinks": 4294,
      "▁webs": 4295,
      "▁harmonised": 4296,
      "▁replacement": 4297,
      "▁oz": 4298,
      "x": 4299,
      "▁spl": 4300,
      "##ans": 4301,
      "▁dissatisfaction": 4302,
      "▁mam": 4303,
      "▁affecting": 4304,
      "##atly": 4305,
      "▁helpful": 4306,
      "▁cocoa": 4307,
      "▁inside": 4308,
      "##he": 4309,
      "##po": 4310,
      "##hu": 4311,
      "▁realization": 4312,
      "▁senses": 4313,
      "▁adoles": 4314,
      "▁vess": 4315,
      "▁hospitality": 4316,
      "##gle": 4317,
      "▁raised": 4318,
      "##esp": 4319,
      "##erating": 4320,
      "▁consequences": 4321,
      "▁tele": 4322,
      "=": 4323,
      "▁centers": 4324,
      "▁hutch": 4325,
      "▁mitch": 4326,
      "▁weasel": 4327,
      "▁laughter": 4328,
      "▁testing": 4329,
      "▁voting": 4330,
      "▁stone": 4331,
      "▁communications": 4332,
      "▁don": 4333,
      "##zas": 4334,
      "▁spokesman": 4335,
      "▁prospects": 4336,
      "##advant": 4337,
      "▁father": 4338,
      "▁mic": 4339,
      "▁mos": 4340,
      "▁cuz": 4341,
      "▁max": 4342,
      "▁migrated": 4343,
      "4": 4344,
      "##ounded": 4345,
      "▁disperse": 4346,
      "▁slowed": 4347,
      "▁whatever": 4348,
      "▁particularly": 4349,
      "▁si": 4350,
      "##ysical": 4351,
      "▁commission": 4352,
      "##urday": 4353,
      "▁gifts": 4354,
      "▁excer": 4355,
      "##`": 4356,
      "▁audience": 4357,
      "##encing": 4358,
      "▁behaviour": 4359,
      "##eks": 4360,
      "▁ret": 4361,
      "▁aper": 4362,
      "▁eated": 4363,
      "▁disag": 4364,
      "▁initially": 4365,
      "##omas": 4366,
      "▁anyone": 4367,
      "▁boot": 4368,
      "▁wolf": 4369,
      "##ooks": 4370,
      "▁inputs": 4371,
      "##yp": 4372,
      "▁rules": 4373,
      "▁crieth": 4374,
      "▁mothers": 4375,
      "##ime": 4376,
      "▁direct": 4377,
      "▁ech": 4378,
      "▁pi": 4379,
      "▁tourism": 4380,
      "##70's": 4381,
      "▁facebook": 4382,
      "▁if": 4383,
      "▁interesting": 4384,
      "##inus": 4385,
      "##lish": 4386,
      "▁e": 4387,
      "##irst": 4388,
      "▁assoc": 4389,
      "▁mounds": 4390,
      "▁struck": 4391,
      "▁greater": 4392,
      "##etown": 4393,
      "▁sheep": 4394,
      "##.p": 4395,
      "▁artillery": 4396,
      "▁extrem": 4397,
      "##onies": 4398,
      "▁television": 4399,
      "▁bond": 4400,
      "▁drizz": 4401,
      "##46": 4402,
      "▁chased": 4403,
      "▁noon": 4404,
      "▁youtube": 4405,
      "▁absorbed": 4406,
      "##gulation": 4407,
      "▁mountain": 4408,
      "▁tracking": 4409,
      "▁scrambled": 4410,
      "▁rattled": 4411,
      "▁flee": 4412,
      "##so": 4413,
      "▁luck": 4414,
      "▁use": 4415,
      "▁announce": 4416,
      "##.ht": 4417,
      "##raid": 4418,
      "▁posting": 4419,
      "▁employee": 4420,
      "▁structured": 4421,
      "▁ankle": 4422,
      "▁ice-cre": 4423,
      "▁attributes": 4424,
      "▁convin": 4425,
      "▁teaches": 4426,
      "▁9": 4427,
      "▁defended": 4428,
      "##eros": 4429,
      "▁pur": 4430,
      "▁shoe": 4431,
      "##read": 4432,
      "▁whenever": 4433,
      "##sd": 4434,
      "▁wig": 4435,
      "▁justify": 4436,
      "▁!!!?": 4437,
      "##ft": 4438,
      "▁paramet": 4439,
      "▁midd": 4440,
      "##bes": 4441,
      "##ath": 4442,
      "▁african": 4443,
      "▁lat": 4444,
      "▁warehouse": 4445,
      "▁ug": 4446,
      "▁|--------+----------------------->": 4447,
      "▁happen": 4448,
      "##mo": 4449,
      "▁prefer": 4450,
      "▁quantity": 4451,
      "▁ld2d-#693": 4452,
      "##lities": 4453,
      "▁guardian": 4454,
      "▁x33907": 4455,
      "▁fair": 4456,
      "▁universities": 4457,
      "▁pean": 4458,
      "▁arrivals": 4459,
      "▁possess": 4460,
      "▁elev": 4461,
      "##ittering": 4462,
      "▁ho": 4463,
      "▁straight": 4464,
      "▁mentality": 4465,
      "▁bulb": 4466,
      "▁method": 4467,
      "▁defend": 4468,
      "##umed": 4469,
      "▁thwarted": 4470,
      "g": 4471,
      "▁continent": 4472,
      "##aring": 4473,
      "▁lavatory": 4474,
      "##ickness": 4475,
      "##phere": 4476,
      "▁developments": 4477,
      "▁attendant": 4478,
      "▁cells": 4479,
      "▁very": 4480,
      "##stal": 4481,
      "▁far": 4482,
      "▁,": 4483,
      "▁mentions": 4484,
      "##enna": 4485,
      "##rusted": 4486,
      "▁level": 4487,
      "▁principal": 4488,
      "▁exploration": 4489,
      "##workers": 4490,
      "▁failing": 4491,
      "▁board": 4492,
      "▁pencil": 4493,
      "##ama": 4494,
      "▁consent": 4495,
      "▁reveal": 4496,
      "▁age": 4497,
      "##sters": 4498,
      "▁explaining": 4499,
      "▁like": 4500,
      "▁than": 4501,
      "▁shout": 4502,
      "##onomy": 4503,
      "▁tractor": 4504,
      "##ansas": 4505,
      "▁almond": 4506,
      "▁email": 4507,
      "▁judg": 4508,
      "##owered": 4509,
      "▁poke": 4510,
      "▁skit": 4511,
      "▁none": 4512,
      "##keting": 4513,
      "▁trac": 4514,
      "▁overtures": 4515,
      "▁amazed": 4516,
      "▁acquis": 4517,
      "▁knew": 4518,
      "##aling": 4519,
      "▁tsunami": 4520,
      "▁stret": 4521,
      "▁seats": 4522,
      "▁percentile": 4523,
      "▁proposing": 4524,
      "▁imper": 4525,
      "▁gastroenter": 4526,
      "▁milks": 4527,
      "▁[...": 4528,
      "▁paths": 4529,
      "▁waiver": 4530,
      "##rations": 4531,
      "▁breasts": 4532,
      "▁finishing": 4533,
      "▁manti": 4534,
      "▁promise": 4535,
      "▁teddy": 4536,
      "▁instructor": 4537,
      "▁concent": 4538,
      "▁twisted": 4539,
      "▁salt": 4540,
      "▁trying": 4541,
      "##ened": 4542,
      "▁winging": 4543,
      "▁obsf": 4544,
      "▁dail": 4545,
      "▁compel": 4546,
      "▁smoothie": 4547,
      "▁portr": 4548,
      "▁circles": 4549,
      "##angu": 4550,
      "▁demanded": 4551,
      "▁summoned": 4552,
      "##links": 4553,
      "▁w": 4554,
      "▁wind": 4555,
      "▁ursula": 4556,
      "##struction": 4557,
      "##cence": 4558,
      "▁circumference": 4559,
      "##amation": 4560,
      "▁vitamin": 4561,
      "▁tenure": 4562,
      "▁discovered": 4563,
      "▁pocketbook": 4564,
      "▁squirter": 4565,
      "▁lacking": 4566,
      "▁recip": 4567,
      "▁arrives": 4568,
      "▁professional": 4569,
      "##mally": 4570,
      "##ma": 4571,
      "▁philosoph": 4572,
      "▁particle": 4573,
      "▁bop": 4574,
      "▁berry": 4575,
      "▁net": 4576,
      "▁dempse": 4577,
      "▁compass": 4578,
      "##rinted": 4579,
      "##itates": 4580,
      "▁transported": 4581,
      "▁loo": 4582,
      "▁lifeboats": 4583,
      "▁suspicion": 4584,
      "##letes": 4585,
      "▁gov": 4586,
      "##--------------------------------": 4587,
      "▁resentment": 4588,
      "▁clashes": 4589,
      "▁bee": 4590,
      "▁labels": 4591,
      "##bri": 4592,
      "##ackened": 4593,
      "▁publications": 4594,
      "▁welfare": 4595,
      "▁chefs": 4596,
      "▁lot": 4597,
      "##tick": 4598,
      "▁embr": 4599,
      "▁guaranteeing": 4600,
      "▁landscapes": 4601,
      "▁stupid": 4602,
      "▁execution": 4603,
      "##dog": 4604,
      "▁pass": 4605,
      "▁trigger": 4606,
      "▁abol": 4607,
      "▁intercep": 4608,
      "##utionary": 4609,
      "##lled": 4610,
      "▁discussions": 4611,
      "▁printing": 4612,
      "▁utterance": 4613,
      "▁efficiency": 4614,
      "▁tennis": 4615,
      "▁qual": 4616,
      "▁blamed": 4617,
      "##-c": 4618,
      "▁setoff": 4619,
      "▁smith": 4620,
      "▁resist": 4621,
      "##hhu": 4622,
      "▁nowhere": 4623,
      "▁barbeque": 4624,
      "▁stayed": 4625,
      "▁cd": 4626,
      "▁silence": 4627,
      "▁dogg": 4628,
      "##gies": 4629,
      "▁ensure": 4630,
      "▁alt.animals.d": 4631,
      "▁doorstep": 4632,
      "▁appetite": 4633,
      "▁manners": 4634,
      "##top": 4635,
      "▁through": 4636,
      "▁appointees": 4637,
      "##tied": 4638,
      "##ds": 4639,
      "▁ecommerce": 4640,
      "▁flooding": 4641,
      "▁clar": 4642,
      "▁transforming": 4643,
      "▁conspiracy": 4644,
      "▁birthday": 4645,
      "##ends": 4646,
      "▁condem": 4647,
      "▁symptoms": 4648,
      "▁spear": 4649,
      "▁investments": 4650,
      "▁recre": 4651,
      "▁spacetime": 4652,
      "▁rumbling": 4653,
      "▁repl": 4654,
      "▁cured": 4655,
      "▁inhab": 4656,
      "##enty": 4657,
      "▁hotels": 4658,
      "▁dipping": 4659,
      "▁entity": 4660,
      "▁hamas": 4661,
      "▁beans": 4662,
      "##.c": 4663,
      "▁filed": 4664,
      "▁engine": 4665,
      "##asel": 4666,
      "▁likeness": 4667,
      "##gmented": 4668,
      "▁!!!!!!!!!!": 4669,
      "▁vodka": 4670,
      "▁twins": 4671,
      "##ights": 4672,
      "▁counterfeit": 4673,
      "##yard": 4674,
      "▁forums": 4675,
      "▁hy": 4676,
      "▁carry": 4677,
      "##elag": 4678,
      "##tted": 4679,
      "##ø": 4680,
      "▁lips": 4681,
      "▁forwarded": 4682,
      "▁advertise": 4683,
      "##-3": 4684,
      "▁profits": 4685,
      "▁skill": 4686,
      "##raction": 4687,
      "▁candles": 4688,
      "##erates": 4689,
      "▁produc": 4690,
      "▁grocer": 4691,
      "##keness": 4692,
      "##avor": 4693,
      "▁feel": 4694,
      "▁mor": 4695,
      "▁resize": 4696,
      "##amp": 4697,
      "##ici": 4698,
      "▁teasp": 4699,
      "##igning": 4700,
      "▁boundaries": 4701,
      "▁enjoyment": 4702,
      "▁hibernation": 4703,
      "##pts": 4704,
      "▁techn": 4705,
      "▁fracture": 4706,
      "▁opposed": 4707,
      "##ointment": 4708,
      "##edience": 4709,
      "▁reward": 4710,
      "▁building": 4711,
      "##alization": 4712,
      "##bir": 4713,
      "▁beyon": 4714,
      "▁fence": 4715,
      "##eats": 4716,
      "▁retaliation": 4717,
      "▁debut": 4718,
      "##ulator": 4719,
      "▁selections": 4720,
      "▁skills": 4721,
      "##uggle": 4722,
      "▁rag": 4723,
      "▁pew": 4724,
      "▁drinking": 4725,
      "▁background": 4726,
      "##aq": 4727,
      "▁sweep": 4728,
      "▁experimenting": 4729,
      "##ares": 4730,
      "▁army": 4731,
      "##sing": 4732,
      "▁travellers": 4733,
      "▁digital": 4734,
      "▁newspapers": 4735,
      "▁utility": 4736,
      "▁vice-president": 4737,
      "##org": 4738,
      "▁llc": 4739,
      "▁deposited": 4740,
      "▁conquer": 4741,
      "##arian": 4742,
      "▁strip": 4743,
      "▁90s": 4744,
      "▁diss": 4745,
      "▁unrave": 4746,
      "##♥": 4747,
      "##ets": 4748,
      "▁taste": 4749,
      "##ects": 4750,
      "##den": 4751,
      "▁resulted": 4752,
      "▁dryer": 4753,
      "##­": 4754,
      "▁crossed": 4755,
      "▁weakness": 4756,
      "##ergy": 4757,
      "▁period": 4758,
      "▁boats": 4759,
      "▁premium": 4760,
      "▁pyramid": 4761,
      "▁remaining": 4762,
      "▁rise": 4763,
      "▁up": 4764,
      "▁chronic": 4765,
      "▁he": 4766,
      "▁impression": 4767,
      "▁tablet": 4768,
      "▁drafting": 4769,
      "##.d": 4770,
      "▁toe": 4771,
      "▁stems": 4772,
      "▁local": 4773,
      "▁provinces": 4774,
      "▁curb": 4775,
      "##volutionary": 4776,
      "▁vendors": 4777,
      "##:/": 4778,
      "▁violating": 4779,
      "##02": 4780,
      "▁girlfriend": 4781,
      "▁seattle": 4782,
      "▁helmet": 4783,
      "##-m": 4784,
      "##sure": 4785,
      "##e": 4786,
      "##lds": 4787,
      "▁karen": 4788,
      "##quarters": 4789,
      "##ive": 4790,
      "▁senate": 4791,
      "▁ld2d-#6933": 4792,
      "▁variables": 4793,
      "▁facing": 4794,
      "▁details": 4795,
      "##ertain": 4796,
      "##ement": 4797,
      "▁licked": 4798,
      "▁ansi": 4799,
      "▁sacrifices": 4800,
      "##nowled": 4801,
      "▁victor": 4802,
      "▁seized": 4803,
      "##ratic": 4804,
      "▁2003": 4805,
      "▁nuts": 4806,
      "▁28": 4807,
      "▁boys": 4808,
      "▁reminds": 4809,
      "▁kippers": 4810,
      "##abilities": 4811,
      "##ket": 4812,
      "##ordination": 4813,
      "▁coffee": 4814,
      "▁zawahiri": 4815,
      "##xce": 4816,
      "▁publish": 4817,
      "▁courage": 4818,
      "##ugged": 4819,
      "▁ministry": 4820,
      "▁heart": 4821,
      "▁defines": 4822,
      "▁qualified": 4823,
      "▁fraction": 4824,
      "▁operating": 4825,
      "▁puzz": 4826,
      "▁sequences": 4827,
      "▁temperatures": 4828,
      "▁explanations": 4829,
      "##mplified": 4830,
      "▁occasions": 4831,
      "##enef": 4832,
      "▁bom": 4833,
      "▁hijackers": 4834,
      "▁other": 4835,
      "▁pick": 4836,
      "##onent": 4837,
      "##continent": 4838,
      "▁aa": 4839,
      "▁depart": 4840,
      "▁grandchildren": 4841,
      "▁associ": 4842,
      "##celer": 4843,
      "##otw": 4844,
      "##lut": 4845,
      "▁sket": 4846,
      "▁error": 4847,
      "▁horrible": 4848,
      "▁clerks": 4849,
      "▁hambur": 4850,
      "▁lingu": 4851,
      "##45-1.doc": 4852,
      "▁coordinated": 4853,
      "##ict": 4854,
      "##otte": 4855,
      "▁arrange": 4856,
      "##ps": 4857,
      "##tag": 4858,
      "▁track": 4859,
      "▁versions": 4860,
      "▁revenge": 4861,
      "▁devoted": 4862,
      "▁topic": 4863,
      "▁departs": 4864,
      "##ligh": 4865,
      "▁bran": 4866,
      "▁difference": 4867,
      "▁vacc": 4868,
      "##oyment": 4869,
      "##orates": 4870,
      "##nocentrism": 4871,
      "▁accept": 4872,
      "▁genes": 4873,
      "##nic": 4874,
      "▁formula": 4875,
      "▁scored": 4876,
      "##righted": 4877,
      "▁popup": 4878,
      "▁contemp": 4879,
      "▁marbles": 4880,
      "▁factor": 4881,
      "▁burning": 4882,
      "▁fyi": 4883,
      "▁co2": 4884,
      "▁intensity": 4885,
      "▁traveled": 4886,
      "▁mature": 4887,
      "##bo": 4888,
      "▁read": 4889,
      "▁dropped": 4890,
      "▁william": 4891,
      "▁warnings": 4892,
      "▁cit": 4893,
      "▁te": 4894,
      "▁barrier": 4895,
      "▁resident": 4896,
      "▁gave": 4897,
      "▁woke": 4898,
      "▁india": 4899,
      "▁---------------------------------": 4900,
      "▁contact": 4901,
      "▁hiss": 4902,
      "##medi": 4903,
      "##fi": 4904,
      "▁collector": 4905,
      "▁pavement": 4906,
      "▁pride": 4907,
      "▁followers": 4908,
      "▁complaining": 4909,
      "▁supported": 4910,
      "▁attempted": 4911,
      "▁cameras": 4912,
      "##ocked": 4913,
      "▁disagre": 4914,
      "##page": 4915,
      "▁collec": 4916,
      "▁bice": 4917,
      "▁tricks": 4918,
      "▁catholic": 4919,
      "▁preserving": 4920,
      "##oning": 4921,
      "▁exercised": 4922,
      "▁office": 4923,
      ";": 4924,
      "##na": 4925,
      "▁leaf": 4926,
      "▁characteris": 4927,
      "▁yog": 4928,
      "##vening": 4929,
      "▁dna": 4930,
      "▁analyzed": 4931,
      "▁shrug": 4932,
      "▁bug": 4933,
      "##inning": 4934,
      "▁27": 4935,
      "##pa": 4936,
      "▁pay": 4937,
      "▁product": 4938,
      "▁spy": 4939,
      "▁ukraine": 4940,
      "##owners": 4941,
      "▁wax": 4942,
      "##ilize": 4943,
      "▁stages": 4944,
      "▁performance": 4945,
      "##emen": 4946,
      "▁enters": 4947,
      "▁sci": 4948,
      "##uge": 4949,
      "##ois": 4950,
      "▁strive": 4951,
      "##ishing": 4952,
      "▁instit": 4953,
      "▁ld2d-#69366-1.doc": 4954,
      "▁participant": 4955,
      "▁tantrums": 4956,
      "▁contractor": 4957,
      "▁dynam": 4958,
      "▁climbed": 4959,
      "##vp": 4960,
      "▁hotline": 4961,
      "▁dallas": 4962,
      "##ee": 4963,
      "▁portrait": 4964,
      "▁rub": 4965,
      "##uttering": 4966,
      "##pi": 4967,
      "##!!": 4968,
      "▁scheme": 4969,
      "##yst": 4970,
      "##points": 4971,
      "##erably": 4972,
      "▁ast": 4973,
      "▁traveler": 4974,
      "##uation": 4975,
      "▁madness": 4976,
      "▁abst": 4977,
      "▁privacy": 4978,
      "##res": 4979,
      "▁lime": 4980,
      "▁folds": 4981,
      "▁dignity": 4982,
      "▁leave": 4983,
      "▁deleted": 4984,
      "▁thi": 4985,
      "##enoc": 4986,
      "##ogel": 4987,
      "▁avenues": 4988,
      "##anim": 4989,
      "▁python": 4990,
      "##ua": 4991,
      "▁polic": 4992,
      "##ro": 4993,
      "▁archit": 4994,
      "▁disappointed": 4995,
      "▁ming": 4996,
      "▁pressures": 4997,
      "▁accusing": 4998,
      "▁plag": 4999,
      "▁dr": 5000,
      "▁shrie": 5001,
      "▁aggravated": 5002,
      "▁officers": 5003,
      "##erent": 5004,
      "▁headquarters": 5005,
      "▁handkerchief": 5006,
      "▁crude": 5007,
      "▁hugged": 5008,
      "▁april": 5009,
      "▁uhh": 5010,
      "▁couple": 5011,
      "▁overth": 5012,
      "##ely": 5013,
      "▁smart": 5014,
      "▁instr": 5015,
      "▁wants": 5016,
      "▁laws": 5017,
      "▁happ": 5018,
      "##eno": 5019,
      "▁old": 5020,
      "▁steve": 5021,
      "▁ground": 5022,
      "##iner": 5023,
      "▁explode": 5024,
      "▁imprisoned": 5025,
      "##rier": 5026,
      "▁ambassad": 5027,
      "▁chewed": 5028,
      "▁collaborate": 5029,
      "▁disgorgement": 5030,
      "▁med": 5031,
      "▁authorship": 5032,
      "▁crept": 5033,
      "##oops": 5034,
      "▁-----------------------------------------------------------------------": 5035,
      "▁space": 5036,
      "▁portions": 5037,
      "•": 5038,
      "##een": 5039,
      "##ites": 5040,
      "▁mule": 5041,
      "##other": 5042,
      "▁_____": 5043,
      "▁tric": 5044,
      "▁solve": 5045,
      "▁secure": 5046,
      "▁[...]": 5047,
      "▁profess": 5048,
      "▁paperwork": 5049,
      "▁crump": 5050,
      "##ackets": 5051,
      "▁circular": 5052,
      "##erns": 5053,
      "▁merely": 5054,
      "▁yields": 5055,
      "▁expl": 5056,
      "▁luna": 5057,
      "##ounder": 5058,
      "▁hated": 5059,
      "▁damn": 5060,
      "▁histor": 5061,
      "▁heights": 5062,
      "▁displacement": 5063,
      "▁env": 5064,
      "##ws": 5065,
      "▁musicians": 5066,
      "▁3": 5067,
      "▁prin": 5068,
      "▁employees": 5069,
      "▁integration": 5070,
      "▁airplane": 5071,
      "▁preparing": 5072,
      "##onds": 5073,
      "▁testim": 5074,
      "▁coin": 5075,
      "▁qualifications": 5076,
      "▁vial": 5077,
      "▁passport": 5078,
      "▁corridors": 5079,
      "▁establishment": 5080,
      "▁stamp": 5081,
      "##ness": 5082,
      "▁exper": 5083,
      "▁twenties": 5084,
      "▁global": 5085,
      "▁cut": 5086,
      "▁films": 5087,
      "▁shr": 5088,
      "##ightly": 5089,
      "▁resili": 5090,
      "▁sched": 5091,
      "▁transp": 5092,
      "▁bach": 5093,
      "▁input": 5094,
      "▁lu": 5095,
      "##atch": 5096,
      "▁hoping": 5097,
      "▁av": 5098,
      "##gon": 5099,
      "▁misfortune": 5100,
      "##ically": 5101,
      "▁altern": 5102,
      "##ieth": 5103,
      "7": 5104,
      "▁love": 5105,
      "▁updating": 5106,
      "##iologist": 5107,
      "▁bless": 5108,
      "▁justice": 5109,
      "##acters": 5110,
      "▁footage": 5111,
      "##k": 5112,
      "▁bro": 5113,
      "▁adh": 5114,
      "##orms": 5115,
      "▁passion": 5116,
      "▁reaff": 5117,
      "▁comp.sources.unix": 5118,
      "▁asthma": 5119,
      "##idd": 5120,
      "▁pho": 5121,
      "▁chartered": 5122,
      "▁restr": 5123,
      "##ference": 5124,
      "▁renewed": 5125,
      "▁should": 5126,
      "▁correspondence": 5127,
      "▁spine": 5128,
      "##jections": 5129,
      "▁scrap": 5130,
      "▁agre": 5131,
      "▁sorry": 5132,
      "▁stationed": 5133,
      "▁disconnec": 5134,
      "##onin": 5135,
      "##oodle": 5136,
      "▁negotiated": 5137,
      "##kened": 5138,
      "▁videoc": 5139,
      "▁wond": 5140,
      "▁screws": 5141,
      "▁soaked": 5142,
      "▁owes": 5143,
      "▁friendship": 5144,
      "▁styrofoam": 5145,
      "▁oblig": 5146,
      "▁pipeline": 5147,
      "▁beak": 5148,
      "▁appeared": 5149,
      "▁stickerbirds": 5150,
      "▁degu": 5151,
      "##chief": 5152,
      "▁thieves": 5153,
      "##-house": 5154,
      "##lik": 5155,
      "##****************": 5156,
      "##iments": 5157,
      "▁tip": 5158,
      "▁charles": 5159,
      "▁circumstances": 5160,
      "##li": 5161,
      "▁bother": 5162,
      "▁hurts": 5163,
      "▁binoc": 5164,
      "▁connections": 5165,
      "▁mathema": 5166,
      "▁justification": 5167,
      "▁orphan": 5168,
      "▁ele": 5169,
      "▁labour": 5170,
      "##ruptc": 5171,
      "▁rain": 5172,
      "▁compos": 5173,
      "▁emperor": 5174,
      "▁recommended": 5175,
      "▁under": 5176,
      "##ocol": 5177,
      "▁24": 5178,
      "▁lap": 5179,
      "▁woods": 5180,
      "##len": 5181,
      "▁plate": 5182,
      "▁scrape": 5183,
      "▁feeding": 5184,
      "▁accuses": 5185,
      "▁adults": 5186,
      "▁upgr": 5187,
      "##heat": 5188,
      "▁exacerb": 5189,
      "▁hips": 5190,
      "▁pitch": 5191,
      "▁revis": 5192,
      "##eterm": 5193,
      "▁fing": 5194,
      "▁guerrillas": 5195,
      "▁does": 5196,
      "▁nationalities": 5197,
      "##anting": 5198,
      "n": 5199,
      "▁injury": 5200,
      "▁dav": 5201,
      "##aca": 5202,
      "▁will": 5203,
      "▁dusting": 5204,
      "▁{": 5205,
      "▁selected": 5206,
      "▁policing": 5207,
      "##ecuted": 5208,
      "▁stress": 5209,
      "##unition": 5210,
      "▁disappear": 5211,
      "▁reduces": 5212,
      "▁grain": 5213,
      "▁15th": 5214,
      "##lect": 5215,
      "▁expect": 5216,
      "▁gathering": 5217,
      "▁clubs": 5218,
      "▁fell": 5219,
      "▁improved": 5220,
      "▁glu": 5221,
      "▁strainer": 5222,
      "▁lawyers": 5223,
      "▁initial": 5224,
      "▁remember": 5225,
      "▁protected": 5226,
      "##ful": 5227,
      "##rows": 5228,
      "▁limous": 5229,
      "▁hur": 5230,
      "##opy": 5231,
      "▁midter": 5232,
      "##ambment": 5233,
      "▁eval": 5234,
      "▁savi": 5235,
      "##isms": 5236,
      "▁tracked": 5237,
      "▁revision": 5238,
      "▁left": 5239,
      "▁advisor": 5240,
      "##ully": 5241,
      "▁promotion": 5242,
      "▁habitat": 5243,
      "##'t": 5244,
      "▁ac": 5245,
      "▁flung": 5246,
      "▁celeb": 5247,
      "▁mushroom": 5248,
      "▁ste": 5249,
      "▁area": 5250,
      "##907": 5251,
      "▁variation": 5252,
      "▁vio": 5253,
      "▁rumor": 5254,
      "##uro": 5255,
      "▁everyday": 5256,
      "▁morning": 5257,
      "▁crust": 5258,
      "▁transactions": 5259,
      "▁liability": 5260,
      "##ocks": 5261,
      "▁limestone": 5262,
      "▁sighed": 5263,
      "▁conducted": 5264,
      "▁following": 5265,
      "▁eastern": 5266,
      "▁delhi": 5267,
      "##ender": 5268,
      "▁customize": 5269,
      "▁bounces": 5270,
      "▁reaching": 5271,
      "▁watch": 5272,
      "##hment": 5273,
      "##ortly": 5274,
      "▁enem": 5275,
      "▁refunds": 5276,
      "##ated": 5277,
      "▁http": 5278,
      "▁starfighter": 5279,
      "▁journ": 5280,
      "▁before": 5281,
      "##~": 5282,
      "▁barn": 5283,
      "▁remarks": 5284,
      "▁pending": 5285,
      "▁lectures": 5286,
      "▁squirt": 5287,
      "▁faculty": 5288,
      "##bblers": 5289,
      "##ye": 5290,
      "▁wailing": 5291,
      "##arc": 5292,
      "▁pills": 5293,
      "##oat": 5294,
      "▁paste": 5295,
      "▁dra": 5296,
      "▁feather": 5297,
      "▁excellence": 5298,
      "##orti": 5299,
      "##book": 5300,
      "##asts": 5301,
      "▁wildlife": 5302,
      "▁fish": 5303,
      "▁reintroduced": 5304,
      "##fer": 5305,
      "▁ballot": 5306,
      "▁flirt": 5307,
      "##yer": 5308,
      "▁laborers": 5309,
      "▁witnessed": 5310,
      "▁ketchup": 5311,
      "▁playw": 5312,
      "▁persistence": 5313,
      "▁payments": 5314,
      "▁ins": 5315,
      "▁touch": 5316,
      "▁peel": 5317,
      "▁rewar": 5318,
      "▁murderer": 5319,
      "]": 5320,
      "▁assessing": 5321,
      "##pg": 5322,
      "▁looks": 5323,
      "▁parti": 5324,
      "▁detractors": 5325,
      "▁initiation": 5326,
      "▁pair": 5327,
      "▁sup": 5328,
      "▁evaluation": 5329,
      "▁cord": 5330,
      "▁symbol": 5331,
      "▁researchers": 5332,
      "##lands": 5333,
      "▁neverth": 5334,
      "##lection": 5335,
      "▁rescued": 5336,
      "▁pricing": 5337,
      "▁learned": 5338,
      "▁here": 5339,
      "▁seated": 5340,
      "▁june": 5341,
      "▁adaptation": 5342,
      "##ibility": 5343,
      "▁borrowed": 5344,
      "▁neighboring": 5345,
      "▁struggle": 5346,
      "▁intention": 5347,
      "▁taper": 5348,
      "▁unic": 5349,
      "▁portraits": 5350,
      "▁dived": 5351,
      "##oder": 5352,
      "##****": 5353,
      "▁columbus": 5354,
      "##troduc": 5355,
      "▁focusing": 5356,
      "▁top": 5357,
      "▁pow": 5358,
      "##nation": 5359,
      "▁relief": 5360,
      "$": 5361,
      "▁197": 5362,
      "▁offici": 5363,
      "##ued": 5364,
      "##utching": 5365,
      "▁support": 5366,
      "▁start": 5367,
      "▁sweetie": 5368,
      "▁expressed": 5369,
      "▁submitted": 5370,
      "##ale": 5371,
      "▁nightclubs": 5372,
      "##vol": 5373,
      "##ues": 5374,
      "##pe": 5375,
      "▁scheduled": 5376,
      "▁requires": 5377,
      "▁census": 5378,
      "▁etc.": 5379,
      "▁fest": 5380,
      "##stair": 5381,
      "▁intolerance": 5382,
      "▁coach": 5383,
      "▁continues": 5384,
      "▁honesty": 5385,
      "▁partic": 5386,
      "▁contacted": 5387,
      "▁crime": 5388,
      "##liers": 5389,
      "▁allow": 5390,
      "##azed": 5391,
      "▁battling": 5392,
      "▁mayonna": 5393,
      "▁mobil": 5394,
      "▁tribes": 5395,
      "##tling": 5396,
      "##ner": 5397,
      "##inds": 5398,
      "▁emissions": 5399,
      "▁fry": 5400,
      "▁barrel": 5401,
      "▁undermining": 5402,
      "▁gag": 5403,
      "▁interests": 5404,
      "##equ": 5405,
      "▁implem": 5406,
      "v": 5407,
      "▁houses": 5408,
      "##c": 5409,
      "▁cart": 5410,
      "▁elk": 5411,
      "▁searches": 5412,
      "##zed": 5413,
      "▁accomplished": 5414,
      "▁alternatives": 5415,
      "##more": 5416,
      "▁pile": 5417,
      "##rs": 5418,
      "▁researching": 5419,
      "▁toast": 5420,
      "▁uses": 5421,
      "▁fighter": 5422,
      "▁disli": 5423,
      "##par": 5424,
      "▁marshmall": 5425,
      "▁solem": 5426,
      "##eries": 5427,
      "##cepted": 5428,
      "##town": 5429,
      "▁staying": 5430,
      "##dges": 5431,
      "[PAD]": 5432,
      "▁eczema": 5433,
      "▁83n": 5434,
      "▁arab": 5435,
      "▁yelling": 5436,
      "▁accumulation": 5437,
      "##ization": 5438,
      "▁rides": 5439,
      "▁opening": 5440,
      "▁rome": 5441,
      "##writer": 5442,
      "▁continuing": 5443,
      "▁lisa": 5444,
      "▁available": 5445,
      "▁robot": 5446,
      "▁aw": 5447,
      "▁hitting": 5448,
      "##apsed": 5449,
      "▁nostrils": 5450,
      "##best": 5451,
      "▁photographs": 5452,
      "▁1830s": 5453,
      "▁horsie": 5454,
      "▁citizens": 5455,
      "##illing": 5456,
      "▁gtee": 5457,
      "▁congratulate": 5458,
      "▁persuaded": 5459,
      "▁carrot": 5460,
      "▁killer": 5461,
      "▁raced": 5462,
      "▁programs": 5463,
      "▁surpl": 5464,
      "▁travelers": 5465,
      "▁volunteers": 5466,
      "▁wiz": 5467,
      "##icide": 5468,
      "##enting": 5469,
      "▁tells": 5470,
      "▁fears": 5471,
      "##ighter": 5472,
      "##ractors": 5473,
      "▁francisco": 5474,
      "▁survived": 5475,
      "▁mute": 5476,
      "##chant": 5477,
      "▁reviews": 5478,
      "▁stories": 5479,
      "▁adopting": 5480,
      "▁opinion": 5481,
      "▁restricted": 5482,
      "▁dirt": 5483,
      "▁persever": 5484,
      "▁together": 5485,
      "##orie": 5486,
      "▁pion": 5487,
      "▁validity": 5488,
      "##bing": 5489,
      "▁principle": 5490,
      "▁syria": 5491,
      "▁upd": 5492,
      "##icul": 5493,
      "##olic": 5494,
      "▁malnutrition": 5495,
      "▁bunnies": 5496,
      "▁relying": 5497,
      "▁bead": 5498,
      "▁guardsmen": 5499,
      "▁establishments": 5500,
      "▁buds": 5501,
      "▁integr": 5502,
      "##the": 5503,
      "##ev": 5504,
      "▁banknote": 5505,
      "▁club": 5506,
      "##orts": 5507,
      "##entil": 5508,
      "▁megawatt": 5509,
      "##tally": 5510,
      "▁goose": 5511,
      "▁soldiers": 5512,
      "##iri": 5513,
      "▁overr": 5514,
      "▁distingu": 5515,
      "▁20th": 5516,
      "##arium": 5517,
      "##ivated": 5518,
      "▁friendliness": 5519,
      "▁kn": 5520,
      "▁see": 5521,
      "▁london": 5522,
      "▁salespeople": 5523,
      "▁shrim": 5524,
      "##ture": 5525,
      "▁animation": 5526,
      "▁malls": 5527,
      "▁appliances": 5528,
      "▁picking": 5529,
      "▁conj": 5530,
      "▁re-elected": 5531,
      "##isco": 5532,
      "▁look": 5533,
      "▁never": 5534,
      "▁funds": 5535,
      "##amus": 5536,
      "##idated": 5537,
      "▁investigated": 5538,
      "▁gripped": 5539,
      "##zz": 5540,
      "▁acclaimed": 5541,
      "▁thousand": 5542,
      "▁erase": 5543,
      "##ada": 5544,
      "▁standardisation": 5545,
      "▁ankles": 5546,
      "##iam": 5547,
      "##ending": 5548,
      "▁groom": 5549,
      "▁vali": 5550,
      "##aria": 5551,
      "▁defendant": 5552,
      "▁wildcard": 5553,
      "▁consequ": 5554,
      "▁beast": 5555,
      "##aser": 5556,
      "▁breeding": 5557,
      "▁bushes": 5558,
      "##rowave": 5559,
      "▁spreadsheet": 5560,
      "▁13": 5561,
      "▁stup": 5562,
      "▁argued": 5563,
      "▁acquaint": 5564,
      "▁che": 5565,
      "▁pin": 5566,
      "##i": 5567,
      "▁broad": 5568,
      "##kles": 5569,
      "▁considered": 5570,
      "▁potential": 5571,
      "##ult": 5572,
      "▁governments": 5573,
      "##erina": 5574,
      "##ujah": 5575,
      "▁trad": 5576,
      "▁days": 5577,
      "##igr": 5578,
      "##anne": 5579,
      "##being": 5580,
      "▁traged": 5581,
      "▁dining": 5582,
      "▁contr": 5583,
      "▁as": 5584,
      "▁onions": 5585,
      "▁pointed": 5586,
      "▁tracks": 5587,
      "▁end": 5588,
      "##bles": 5589,
      "▁technician": 5590,
      "▁actions": 5591,
      "&": 5592,
      "▁impossible": 5593,
      "▁filters": 5594,
      "▁deny": 5595,
      "▁percentage": 5596,
      "##bow": 5597,
      "##ploy": 5598,
      "▁conflic": 5599,
      "▁harmony": 5600,
      "▁dorm": 5601,
      "##uring": 5602,
      "▁cat-fl": 5603,
      "##d": 5604,
      "▁trait": 5605,
      "▁terr": 5606,
      "▁aust": 5607,
      "▁august": 5608,
      "▁hed": 5609,
      "▁em": 5610,
      "▁physics": 5611,
      "##atom": 5612,
      "##oration": 5613,
      "▁weap": 5614,
      "▁ic": 5615,
      "##ecks": 5616,
      "▁sneak": 5617,
      "▁explained": 5618,
      "▁invol": 5619,
      "##sically": 5620,
      "▁assortment": 5621,
      "▁obst": 5622,
      "##ightening": 5623,
      "##ark": 5624,
      "▁locomotive": 5625,
      "▁trucks": 5626,
      "##earm": 5627,
      "##ay": 5628,
      "▁train": 5629,
      "##rition": 5630,
      "##ago": 5631,
      "▁dc": 5632,
      "▁indeed": 5633,
      "▁anno": 5634,
      "▁drowning": 5635,
      "▁immediately": 5636,
      "▁comparisons": 5637,
      "▁rim": 5638,
      "##ship": 5639,
      "##osing": 5640,
      "▁applying": 5641,
      "▁opera": 5642,
      "▁simplicity": 5643,
      "▁needles": 5644,
      "▁filmed": 5645,
      "▁loans": 5646,
      "▁go": 5647,
      "##eenth": 5648,
      "▁stated": 5649,
      "##power": 5650,
      "▁chip": 5651,
      "▁goodness": 5652,
      "▁twi": 5653,
      "▁bounded": 5654,
      "##ech": 5655,
      "▁laundry": 5656,
      "▁poster": 5657,
      "##hold": 5658,
      "▁-----------------------------------------------------------------": 5659,
      "▁gates": 5660,
      "##ors": 5661,
      "▁verge": 5662,
      "##sts": 5663,
      "##ify": 5664,
      "##ption": 5665,
      "?": 5666,
      "▁ri": 5667,
      "##ortion": 5668,
      "▁bath+room": 5669,
      "▁hide": 5670,
      "▁danced": 5671,
      "▁rel": 5672,
      "▁hid": 5673,
      "▁spells": 5674,
      "▁beginner": 5675,
      "▁safe": 5676,
      "##weight": 5677,
      "▁morn": 5678,
      "▁mother": 5679,
      "▁writings": 5680,
      "▁forecast": 5681,
      "▁surrounded": 5682,
      "▁attach": 5683,
      "##nesses": 5684,
      "▁neighbors": 5685,
      "▁kent": 5686,
      "##estab": 5687,
      "▁count": 5688,
      "▁satisfy": 5689,
      "▁conserv": 5690,
      "##ooded": 5691,
      "##aurs": 5692,
      "▁correct": 5693,
      "##rella": 5694,
      "##ised": 5695,
      "▁hon": 5696,
      "▁traff": 5697,
      "▁kitten": 5698,
      "▁customs": 5699,
      "▁detention": 5700,
      "##cuff": 5701,
      "▁print": 5702,
      "▁delight": 5703,
      "▁**": 5704,
      "##mely": 5705,
      "▁reforms": 5706,
      "##ha": 5707,
      "▁possibility": 5708,
      "▁scream": 5709,
      "▁potato": 5710,
      "▁promising": 5711,
      "▁alignment": 5712,
      "▁encourage": 5713,
      "##asure": 5714,
      "▁tasting": 5715,
      "…": 5716,
      "▁spir": 5717,
      "##istem": 5718,
      "▁breach": 5719,
      "▁casual": 5720,
      "▁called": 5721,
      "▁asking": 5722,
      "▁departures": 5723,
      "▁related": 5724,
      "▁terms": 5725,
      "##vers": 5726,
      "##zability": 5727,
      "▁unf": 5728,
      "▁several": 5729,
      "▁chairman": 5730,
      "▁town": 5731,
      "▁pupp": 5732,
      "▁taught": 5733,
      "▁cases": 5734,
      "▁hockey": 5735,
      "▁slides": 5736,
      "▁paint": 5737,
      "##uel": 5738,
      "##imate": 5739,
      "##thy": 5740,
      "▁spaces": 5741,
      "▁journal": 5742,
      "▁bump": 5743,
      "▁compound": 5744,
      "▁henry": 5745,
      "▁sword": 5746,
      "##year": 5747,
      "##aster": 5748,
      "▁chains": 5749,
      "▁tri": 5750,
      "##uly": 5751,
      "##r": 5752,
      "▁branch": 5753,
      "##eland": 5754,
      "▁donkey": 5755,
      "▁perfection": 5756,
      "##ante": 5757,
      "▁common": 5758,
      "▁sculp": 5759,
      "##istor": 5760,
      "▁cass": 5761,
      "▁accuracy": 5762,
      "##dens": 5763,
      "##oved": 5764,
      "▁responded": 5765,
      "▁china": 5766,
      "##words": 5767,
      "▁ce": 5768,
      "▁proportion": 5769,
      "▁denom": 5770,
      "##jamas": 5771,
      "##oking": 5772,
      "##enders": 5773,
      "▁impl": 5774,
      "▁costumes": 5775,
      "▁title": 5776,
      "##ilarities": 5777,
      "##inary": 5778,
      "▁stops": 5779,
      "▁games": 5780,
      "##“": 5781,
      "▁outf": 5782,
      "▁blaming": 5783,
      "▁spider": 5784,
      "##arch": 5785,
      "▁marking": 5786,
      "▁burden": 5787,
      "▁varying": 5788,
      "▁places": 5789,
      "▁bachelor": 5790,
      "##iencies": 5791,
      "▁cas": 5792,
      "##ouncing": 5793,
      "▁kiss": 5794,
      "▁ak": 5795,
      "##unk": 5796,
      "##ne": 5797,
      "##omend": 5798,
      "▁difficult": 5799,
      "▁additional": 5800,
      "▁incentives": 5801,
      "▁pp": 5802,
      "▁novella": 5803,
      "▁crowds": 5804,
      "▁dollars": 5805,
      "▁chores": 5806,
      "▁daycare": 5807,
      "▁y": 5808,
      "▁obl": 5809,
      "▁fired": 5810,
      "▁negotiation": 5811,
      "▁doctr": 5812,
      "▁negotiating": 5813,
      "▁recover": 5814,
      "▁bon": 5815,
      "##wic": 5816,
      "▁wire": 5817,
      "▁addresses": 5818,
      "##idic": 5819,
      "▁clutching": 5820,
      "##bee": 5821,
      "##assing": 5822,
      "▁brothers": 5823,
      "▁sugar": 5824,
      "##wa": 5825,
      "▁subj": 5826,
      "▁wrestle": 5827,
      "▁forgiven": 5828,
      "▁earthqu": 5829,
      "▁summer": 5830,
      "▁evolving": 5831,
      "##rited": 5832,
      "▁radi": 5833,
      "##les": 5834,
      "##0s": 5835,
      "▁transferred": 5836,
      "▁free": 5837,
      "▁behind": 5838,
      "▁something": 5839,
      "▁ris": 5840,
      "l": 5841,
      "##xts": 5842,
      "##alties": 5843,
      "##acles": 5844,
      "▁arguments": 5845,
      "▁fellows": 5846,
      "▁flav": 5847,
      "##boy": 5848,
      "▁advis": 5849,
      "▁highlighted": 5850,
      "▁headaches": 5851,
      "▁cartoon": 5852,
      "▁sick": 5853,
      "▁belie": 5854,
      "▁sharing": 5855,
      "▁compelled": 5856,
      "▁national": 5857,
      "▁mal": 5858,
      "##am": 5859,
      "▁ordered": 5860,
      "##lid": 5861,
      "▁damage": 5862,
      "##espit": 5863,
      "##ug": 5864,
      "▁08": 5865,
      "▁blow": 5866,
      "▁courts": 5867,
      "##yone": 5868,
      "▁characters": 5869,
      "▁reinforcing": 5870,
      "##sm": 5871,
      "▁generate": 5872,
      "##oil": 5873,
      "▁porch": 5874,
      "▁payroll": 5875,
      "##ror": 5876,
      "##ipl": 5877,
      "▁picked": 5878,
      "▁casting": 5879,
      "▁room": 5880,
      "▁fishes": 5881,
      "▁alias": 5882,
      "##igned": 5883,
      "##onents": 5884,
      "▁steal": 5885,
      "▁imit": 5886,
      "##irited": 5887,
      "▁jean": 5888,
      "▁drow": 5889,
      "▁intrud": 5890,
      "▁sab": 5891,
      "##yi": 5892,
      "▁disintegration": 5893,
      "▁thought": 5894,
      "▁worked": 5895,
      "▁cleaned": 5896,
      "▁licensed": 5897,
      "▁fundament": 5898,
      "▁dwar": 5899,
      "▁ticket": 5900,
      "##flower": 5901,
      "##tile": 5902,
      "▁swung": 5903,
      "▁regulated": 5904,
      "##ei": 5905,
      "▁blind": 5906,
      "▁granddaughter": 5907,
      "▁witness": 5908,
      "-": 5909,
      "▁inability": 5910,
      "▁dismissed": 5911,
      "▁indignation": 5912,
      "▁single": 5913,
      "##room": 5914,
      "##epend": 5915,
      "▁vehicle": 5916,
      "▁reassure": 5917,
      "▁intrigu": 5918,
      "##vailable": 5919,
      "##ches": 5920,
      "▁reference": 5921,
      "##ouses": 5922,
      "▁bared": 5923,
      "##ange": 5924,
      "##unks": 5925,
      "▁armed": 5926,
      "▁minerals": 5927,
      "▁popular": 5928,
      "▁dots": 5929,
      "▁merit": 5930,
      "▁girl": 5931,
      "▁manipulating": 5932,
      "▁bookstore": 5933,
      "+": 5934,
      "▁assert": 5935,
      "▁attrition": 5936,
      "▁monday": 5937,
      "▁famous": 5938,
      "▁facilitating": 5939,
      "▁kiw": 5940,
      "▁chips": 5941,
      "▁registration": 5942,
      "▁schemas": 5943,
      "▁prot": 5944,
      "▁amer": 5945,
      "▁anc": 5946,
      "##upled": 5947,
      "▁plug": 5948,
      "▁control": 5949,
      "▁myce": 5950,
      "▁educated": 5951,
      "▁ach": 5952,
      "▁accur": 5953,
      "▁discomfort": 5954,
      "▁lur": 5955,
      "▁oper": 5956,
      "▁interior": 5957,
      "##u": 5958,
      "##formed": 5959,
      "▁chame": 5960,
      "##ided": 5961,
      "▁gu": 5962,
      "▁kaoshikii": 5963,
      "##aven": 5964,
      "▁enh": 5965,
      "▁spanking": 5966,
      "▁fri": 5967,
      "▁|": 5968,
      "▁conflicts": 5969,
      "▁wrapped": 5970,
      "*": 5971,
      "▁htm": 5972,
      "##arn": 5973,
      "##edly": 5974,
      "▁snapped": 5975,
      "▁booth": 5976,
      "▁mould": 5977,
      "▁sexual": 5978,
      "▁monarchy": 5979,
      "▁nud": 5980,
      "##iat": 5981,
      "▁reaffirm": 5982,
      "▁fy0": 5983,
      "▁operation": 5984,
      "▁helicopter": 5985,
      "▁dall": 5986,
      "▁patron": 5987,
      "##ru": 5988,
      "▁rati": 5989,
      "▁jets": 5990,
      "▁junk": 5991,
      "##dy": 5992,
      "▁owned": 5993,
      "▁********": 5994,
      "▁tires": 5995,
      "##irs": 5996,
      "▁enterprises": 5997,
      "▁pic": 5998,
      "▁wears": 5999,
      "##utes": 6000,
      "–": 6001,
      "▁harp": 6002,
      "##orth": 6003,
      "▁refl": 6004,
      "▁worsh": 6005,
      "▁memor": 6006,
      "▁dispar": 6007,
      "▁torch": 6008,
      "▁utilize": 6009,
      "▁europeans": 6010,
      "▁mosque": 6011,
      "▁adding": 6012,
      "▁fisher": 6013,
      "▁mexican": 6014,
      "##iously": 6015,
      "▁episode": 6016,
      "▁that": 6017,
      "▁numerous": 6018,
      "▁chic": 6019,
      "▁worshippers": 6020,
      "▁investing": 6021,
      "▁considerations": 6022,
      "▁submar": 6023,
      "▁fug": 6024,
      "##ing": 6025,
      "##rently": 6026,
      "▁cab": 6027,
      "▁strength": 6028,
      "##ico": 6029,
      "▁fit": 6030,
      "##eak": 6031,
      "▁deception": 6032,
      "▁tobac": 6033,
      "▁resolve": 6034,
      "▁girls": 6035,
      "▁snowboard": 6036,
      "##tee": 6037,
      "▁teen": 6038,
      "▁experien": 6039,
      "##inched": 6040,
      "▁gl": 6041,
      "▁lack": 6042,
      "▁amidst": 6043,
      "##me": 6044,
      "##itic": 6045,
      "##stall": 6046,
      "▁som": 6047,
      "▁nyl": 6048,
      "▁joined": 6049,
      "▁machinery": 6050,
      "▁massage": 6051,
      "##@": 6052,
      "▁frost": 6053,
      "▁flights": 6054,
      "##oth": 6055,
      "▁hardness": 6056,
      "##ear": 6057,
      "▁chees": 6058,
      "▁commun": 6059,
      "▁reins": 6060,
      "##earing": 6061,
      "▁–": 6062,
      "▁put": 6063,
      "▁proclaim": 6064,
      "▁quinoa": 6065,
      "▁disco": 6066,
      "²": 6067,
      "##cause": 6068,
      "##osity": 6069,
      "▁moth": 6070,
      "▁initiative": 6071,
      "▁glamosh": 6072,
      "##tal": 6073,
      "▁page": 6074,
      "▁inher": 6075,
      "▁eliminated": 6076,
      "##resp": 6077,
      "▁sou": 6078,
      "▁scores": 6079,
      "▁silkies": 6080,
      "▁gotten": 6081,
      "##cing": 6082,
      "▁transformed": 6083,
      "▁newsgroup": 6084,
      "▁publishing": 6085,
      "##unte": 6086,
      "▁advantages": 6087,
      "##prisingly": 6088,
      "▁destiny": 6089,
      "▁quarter": 6090,
      "##lace": 6091,
      "▁proceedings": 6092,
      "▁prel": 6093,
      "▁compounds": 6094,
      "▁refugee": 6095,
      "▁thoughts": 6096,
      "##actor": 6097,
      "##uggles": 6098,
      "▁fled": 6099,
      "▁null": 6100,
      "▁arts": 6101,
      "##phab": 6102,
      "##tias": 6103,
      "▁paddistocks": 6104,
      "▁invite": 6105,
      "▁adapt": 6106,
      "▁excluded": 6107,
      "##opoly": 6108,
      "▁bees": 6109,
      "▁patrons": 6110,
      "▁conclusion": 6111,
      "▁archipelag": 6112,
      "▁fir": 6113,
      "▁place": 6114,
      "▁outcomes": 6115,
      "▁jwww": 6116,
      "##inity": 6117,
      "▁artists": 6118,
      "▁lugg": 6119,
      "▁mitigated": 6120,
      "▁ego": 6121,
      "▁hardly": 6122,
      "##uum": 6123,
      "▁licens": 6124,
      "▁pounds": 6125,
      "▁facilitated": 6126,
      "▁non": 6127,
      "▁pollution": 6128,
      "▁weeds": 6129,
      "▁site": 6130,
      "▁six": 6131,
      "▁moham": 6132,
      "▁overt": 6133,
      "▁cir": 6134,
      "▁attem": 6135,
      "▁owls": 6136,
      "▁tighten": 6137,
      "▁tensions": 6138,
      "##igma": 6139,
      "q": 6140,
      "▁thanks": 6141,
      "▁truly": 6142,
      "##leon": 6143,
      "▁hesitate": 6144,
      "▁agreed": 6145,
      "▁geomet": 6146,
      "▁airlines": 6147,
      "▁exceed": 6148,
      "▁05": 6149,
      "##site": 6150,
      "##ategy": 6151,
      "▁towar": 6152,
      "##/1": 6153,
      "▁deputy": 6154,
      "▁claws": 6155,
      "▁reasoned": 6156,
      "##β": 6157,
      "▁defence": 6158,
      "▁grinning": 6159,
      "▁smuggling": 6160,
      "▁natural": 6161,
      "œ": 6162,
      "▁fungus": 6163,
      "▁consistency": 6164,
      "▁viewed": 6165,
      "▁calm": 6166,
      "▁hearing": 6167,
      "##rage": 6168,
      "▁celebrated": 6169,
      "##eignty": 6170,
      "▁waterfalls": 6171,
      "▁sac": 6172,
      "▁society": 6173,
      "##gency": 6174,
      "▁mexico": 6175,
      "▁parts": 6176,
      "##enses": 6177,
      "▁foo": 6178,
      "▁custom": 6179,
      "▁oxy": 6180,
      "##eurs": 6181,
      "▁compares": 6182,
      "▁blender": 6183,
      "▁dealt": 6184,
      "▁specializing": 6185,
      "▁ind": 6186,
      "##vir": 6187,
      "[UNK]": 6188,
      "▁ladies": 6189,
      "▁extension": 6190,
      "▁anticipating": 6191,
      "##vious": 6192,
      "▁tablespoon": 6193,
      "##51": 6194,
      "▁constantly": 6195,
      "##ashed": 6196,
      "##ream": 6197,
      "▁finalizing": 6198,
      "▁currently": 6199,
      "▁tail": 6200,
      "▁entire": 6201,
      "▁direc": 6202,
      "▁encompass": 6203,
      "##play": 6204,
      "▁rulers": 6205,
      "▁grounded": 6206,
      "▁waited": 6207,
      "##ore": 6208,
      "▁inventory": 6209,
      "▁wed": 6210,
      "▁denoted": 6211,
      "▁upon": 6212,
      "##rid": 6213,
      "##ularity": 6214,
      "▁mimic": 6215,
      "▁bang": 6216,
      "▁quit": 6217,
      "▁produces": 6218,
      "##zations": 6219,
      "▁reprinted": 6220,
      "▁sale": 6221,
      "▁outro": 6222,
      "▁jig": 6223,
      "▁ruled": 6224,
      "▁sounds": 6225,
      "▁event": 6226,
      "▁warfare": 6227,
      "##word": 6228,
      "▁tap": 6229,
      "▁feathers": 6230,
      "▁tooth": 6231,
      "▁receipt": 6232,
      "##lla": 6233,
      "▁palet": 6234,
      "▁talents": 6235,
      "▁campaigns": 6236,
      "##ashington": 6237,
      "▁defense": 6238,
      "##ks": 6239,
      "▁snap": 6240,
      "▁gift": 6241,
      "▁students": 6242,
      "▁sett": 6243,
      "▁judge": 6244,
      "▁included": 6245,
      "▁pronunciation": 6246,
      "▁gnomes": 6247,
      "▁sph": 6248,
      "##ocking": 6249,
      "▁hissed": 6250,
      "##onto": 6251,
      "▁alb": 6252,
      "##cre": 6253,
      "▁ingenuity": 6254,
      "##ondon": 6255,
      "▁aut": 6256,
      "▁respondents": 6257,
      "▁vulner": 6258,
      "▁compassion": 6259,
      "▁painted": 6260,
      "##-life": 6261,
      "▁centi": 6262,
      "##ng": 6263,
      "▁musician": 6264,
      "ł": 6265,
      "▁e-m": 6266,
      "▁lions": 6267,
      "▁reporting": 6268,
      "▁ahead": 6269,
      "▁directives": 6270,
      "▁grape": 6271,
      "▁d": 6272,
      "▁running": 6273,
      "##uzz": 6274,
      "▁mud": 6275,
      "▁annotated": 6276,
      "##.doc": 6277,
      "##aa": 6278,
      "▁organizing": 6279,
      "▁repurp": 6280,
      "▁snitch": 6281,
      "▁grader": 6282,
      "▁eyeb": 6283,
      "▁fountain": 6284,
      "▁hormone": 6285,
      "##bers": 6286,
      "▁roles": 6287,
      "▁lag": 6288,
      "▁scanning": 6289,
      "▁enchil": 6290,
      "##ll": 6291,
      "##xy": 6292,
      "▁drawstring": 6293,
      "▁effective": 6294,
      "##hield": 6295,
      "##ector": 6296,
      "##ropriate": 6297,
      "▁motorc": 6298,
      "▁drying": 6299,
      "##ε": 6300,
      "▁thanking": 6301,
      "▁cris": 6302,
      "##lder": 6303,
      "▁diver": 6304,
      "▁ger": 6305,
      "▁prov": 6306,
      "▁consequence": 6307,
      "▁….": 6308,
      "▁lott": 6309,
      "▁proceeds": 6310,
      "▁understands": 6311,
      "▁ree": 6312,
      "▁female": 6313,
      "▁dy": 6314,
      "▁dome": 6315,
      "##dose": 6316,
      "##erful": 6317,
      "▁levels": 6318,
      "▁deer": 6319,
      "▁lightning": 6320,
      "▁range": 6321,
      "##pherd": 6322,
      "##act": 6323,
      "##uncture": 6324,
      "▁chief": 6325,
      "▁skitt": 6326,
      "▁neglected": 6327,
      "▁creature": 6328,
      "##30s": 6329,
      "▁labor": 6330,
      "##fore": 6331,
      "▁moisture": 6332,
      "▁broker": 6333,
      "##dock": 6334,
      "▁paws": 6335,
      "▁permits": 6336,
      "▁productivity": 6337,
      "▁throu": 6338,
      "##ination": 6339,
      "▁peanuts": 6340,
      "▁connectionfile": 6341,
      "▁secon": 6342,
      "▁chair": 6343,
      "▁constituency": 6344,
      "▁bit": 6345,
      "##portedly": 6346,
      "▁meth": 6347,
      "▁buy": 6348,
      "▁risk": 6349,
      "▁disciplines": 6350,
      "##ury": 6351,
      "▁intercepted": 6352,
      "##onde": 6353,
      "##asionally": 6354,
      "##eously": 6355,
      "▁nope": 6356,
      "##'d": 6357,
      "▁tubes": 6358,
      "▁": 6359,
      "▁beneath": 6360,
      "▁demonstrates": 6361,
      "##pendent": 6362,
      "▁corner": 6363,
      "▁prere": 6364,
      "▁bull": 6365,
      "▁....": 6366,
      "▁compli": 6367,
      "##boats": 6368,
      "ɛ": 6369,
      "##orec": 6370,
      "##like": 6371,
      "##uf": 6372,
      "##gl": 6373,
      "▁compensate": 6374,
      "▁saved": 6375,
      "▁fluid": 6376,
      "▁---------------------------------------------------------------------------": 6377,
      "▁acquisition": 6378,
      "▁truths": 6379,
      "▁securing": 6380,
      "▁implied": 6381,
      "▁stroller": 6382,
      "▁colon": 6383,
      "▁connec": 6384,
      "##b": 6385,
      "▁choices": 6386,
      "##angers": 6387,
      "▁realise": 6388,
      "▁ess": 6389,
      "▁knight": 6390,
      "##vas": 6391,
      "▁forever": 6392,
      "▁biod": 6393,
      "##icting": 6394,
      "▁balcony": 6395,
      "##err": 6396,
      "##places": 6397,
      "▁prob": 6398,
      "▁sees": 6399,
      "##gust": 6400,
      "▁sque": 6401,
      "▁servings": 6402,
      "##ce": 6403,
      "ʻ": 6404,
      "##ycle": 6405,
      "▁baltimore": 6406,
      "▁th": 6407,
      "▁playwright": 6408,
      "##ouk": 6409,
      "##ly": 6410,
      "##water": 6411,
      "▁popcorn": 6412,
      "##books": 6413,
      "▁corners": 6414,
      "##igh": 6415,
      "▁bells": 6416,
      "▁nasa": 6417,
      "▁mil": 6418,
      "▁attorn": 6419,
      "▁boyfriend": 6420,
      "▁soli": 6421,
      "##eneration": 6422,
      "▁moaned": 6423,
      "▁mainly": 6424,
      "▁founding": 6425,
      "▁conspir": 6426,
      "▁technique": 6427,
      "##onge": 6428,
      "▁koala": 6429,
      "▁repe": 6430,
      "▁prototype": 6431,
      "▁term": 6432,
      "▁extent": 6433,
      "▁hh": 6434,
      "▁colonel": 6435,
      "▁curtain": 6436,
      "▁propose": 6437,
      "▁phone": 6438,
      "▁musharraf": 6439,
      "▁symph": 6440,
      "##+cro": 6441,
      "▁vanished": 6442,
      "▁certificate": 6443,
      "##2b": 6444,
      "▁moonlight": 6445,
      "▁exception": 6446,
      "▁interviews": 6447,
      "▁rec": 6448,
      "▁phys": 6449,
      "▁starts": 6450,
      "▁multiply": 6451,
      "▁p.m.": 6452,
      "▁it's": 6453,
      "▁sm": 6454,
      "▁disclaim": 6455,
      "▁fal": 6456,
      "▁pulls": 6457,
      "▁electric": 6458,
      "▁screwdriver": 6459,
      "▁pursued": 6460,
      "▁approximately": 6461,
      "##born": 6462,
      "▁asserted": 6463,
      "##.com/": 6464,
      "▁youth": 6465,
      "▁.........": 6466,
      "▁school": 6467,
      "▁restaurant": 6468,
      "▁chocolate": 6469,
      "▁bleachers": 6470,
      "▁calculations": 6471,
      "▁scam": 6472,
      "##0th": 6473,
      "##ominated": 6474,
      "▁bay": 6475,
      "▁panorama": 6476,
      "▁bite": 6477,
      "▁ecosystems": 6478,
      "▁stood": 6479,
      "▁trump": 6480,
      "▁candidates": 6481,
      "▁manufactured": 6482,
      "▁domest": 6483,
      "▁prey": 6484,
      "▁tatt": 6485,
      "▁playwrights": 6486,
      "▁bill": 6487,
      "▁infinity": 6488,
      "##ituting": 6489,
      "▁transmitted": 6490,
      "▁join": 6491,
      "▁sleeves": 6492,
      "##eness": 6493,
      "▁cos": 6494,
      "▁mare": 6495,
      "▁8": 6496,
      "##-r": 6497,
      "##cri": 6498,
      "##dotes": 6499,
      "▁devised": 6500,
      "▁shovel": 6501,
      "▁designed": 6502,
      "##tress": 6503,
      "▁lean": 6504,
      "##ates": 6505,
      "▁processing": 6506,
      "▁beverage": 6507,
      "##ayed": 6508,
      "##fortable": 6509,
      "▁colours": 6510,
      "▁damp": 6511,
      "##ulated": 6512,
      "▁pregnancy": 6513,
      "▁packs": 6514,
      "##20s": 6515,
      "##fication": 6516,
      "##rupt": 6517,
      "▁blizzard": 6518,
      "▁masts": 6519,
      "▁suspected": 6520,
      "▁dotted": 6521,
      "##ri": 6522,
      "▁destruction": 6523,
      "▁lighted": 6524,
      "▁eco": 6525,
      "▁designer": 6526,
      "▁power": 6527,
      "▁hel": 6528,
      "##burg": 6529,
      "▁note": 6530,
      "##********": 6531,
      "▁rot": 6532,
      "##mate": 6533,
      "▁discon": 6534,
      "##ointed": 6535,
      "▁gravity": 6536,
      "▁hams": 6537,
      "▁being": 6538,
      "▁availability": 6539,
      "▁injection": 6540,
      "▁imported": 6541,
      "##itions": 6542,
      "##h-": 6543,
      "##libility": 6544,
      "▁mul": 6545,
      "▁sod": 6546,
      "▁transfer": 6547,
      "▁transaction": 6548,
      "▁uprising": 6549,
      "▁**********": 6550,
      "##au": 6551,
      "##uate": 6552,
      "▁accelerated": 6553,
      "##eff": 6554,
      "▁ornament": 6555,
      "▁engineers": 6556,
      "▁jeff": 6557,
      "▁managing": 6558,
      "▁nec": 6559,
      "▁they": 6560,
      "▁articles": 6561,
      "##wering": 6562,
      "▁buttered": 6563,
      "▁dust": 6564,
      "##aff": 6565,
      "##oma": 6566,
      "##ecting": 6567,
      "▁symbolism": 6568,
      "▁elder": 6569,
      "▁reverence": 6570,
      "▁eyes": 6571,
      "▁reven": 6572,
      "▁volley": 6573,
      "▁ail": 6574,
      "##-of": 6575,
      "▁mer": 6576,
      "##rust": 6577,
      "▁remembered": 6578,
      "▁deed": 6579,
      "▁unique": 6580,
      "##low": 6581,
      "▁pakistan": 6582,
      "▁figures": 6583,
      "▁satel": 6584,
      "▁motive": 6585,
      "▁concert": 6586,
      "▁islets": 6587,
      "##hero": 6588,
      "▁mask": 6589,
      "##awn": 6590,
      "##se": 6591,
      "▁frosting": 6592,
      "▁constitute": 6593,
      "▁eight": 6594,
      "▁2004": 6595,
      "▁muscles": 6596,
      "▁columns": 6597,
      "▁engagement": 6598,
      "▁hind": 6599,
      "▁stabilization": 6600,
      "▁tools": 6601,
      "▁intervention": 6602,
      "▁worker": 6603,
      "▁anth": 6604,
      "▁vlog": 6605,
      "▁dove": 6606,
      "▁underm": 6607,
      "▁telephones": 6608,
      "▁tire": 6609,
      "▁four": 6610,
      "▁att": 6611,
      "▁drift": 6612,
      "##ird": 6613,
      "▁ending": 6614,
      "▁lif": 6615,
      "▁craving": 6616,
      "▁wiring": 6617,
      "##mates": 6618,
      "▁waterways": 6619,
      "▁appearance": 6620,
      "▁sauc": 6621,
      "▁kar": 6622,
      "▁aims": 6623,
      "▁angel": 6624,
      "##eren": 6625,
      "▁advoc": 6626,
      "▁governor": 6627,
      "##goti": 6628,
      "▁cooker": 6629,
      "##gging": 6630,
      "##crif": 6631,
      "##sand": 6632,
      "##rities": 6633,
      "▁yiddish": 6634,
      "▁bird": 6635,
      "##apping": 6636,
      "▁industrialist": 6637,
      "▁widely": 6638,
      "##aign": 6639,
      "▁!!": 6640,
      "##aped": 6641,
      "▁flower": 6642,
      "▁divisions": 6643,
      "▁whales": 6644,
      "▁angels": 6645,
      "▁attracting": 6646,
      "##ains": 6647,
      "▁disenfranch": 6648,
      "[SEP]": 6649,
      "▁bright": 6650,
      "▁fore": 6651,
      "▁themes": 6652,
      "▁banking": 6653,
      "##hirt": 6654,
      "▁reviewed": 6655,
      "▁missed": 6656,
      "▁library": 6657,
      "▁fastened": 6658,
      "▁hr": 6659,
      "▁enfor": 6660,
      "▁caught": 6661,
      "▁exa": 6662,
      "##.pdf": 6663,
      "▁nickname": 6664,
      "▁gloom": 6665,
      "▁france": 6666,
      "▁cried": 6667,
      "▁withdrawing": 6668,
      "▁electricity": 6669,
      "▁slip": 6670,
      "▁continuation": 6671,
      "##comp": 6672,
      "▁mant": 6673,
      "##ules": 6674,
      "▁caf": 6675,
      "▁eyebrows": 6676,
      "▁sst": 6677,
      "##hood": 6678,
      "##alists": 6679,
      "▁mis": 6680,
      "▁header": 6681,
      "▁bew": 6682,
      "▁podc": 6683,
      "▁hype": 6684,
      "▁leg": 6685,
      "▁----==": 6686,
      "▁disper": 6687,
      "▁whispered": 6688,
      "▁mat": 6689,
      "▁bureaucracy": 6690,
      "▁aqu": 6691,
      "▁cans": 6692,
      "▁posters": 6693,
      "▁killers": 6694,
      "##arize": 6695,
      "▁prim": 6696,
      "▁yr": 6697,
      "▁musical": 6698,
      "##ton": 6699,
      "##tics": 6700,
      "▁museums": 6701,
      "▁en": 6702,
      "▁manif": 6703,
      "▁heavy": 6704,
      "▁laptop": 6705,
      "▁clattering": 6706,
      "▁jokes": 6707,
      "▁bounce": 6708,
      "▁nail": 6709,
      "▁establishing": 6710,
      "▁masterpieces": 6711,
      "##eys": 6712,
      "▁blown": 6713,
      "##igrate": 6714,
      "##/ps": 6715,
      "##ucky": 6716,
      "▁resour": 6717,
      "▁hacking": 6718,
      "▁sheds": 6719,
      "▁mac": 6720,
      "▁impress": 6721,
      "▁house": 6722,
      "▁compensation": 6723,
      "▁choke": 6724,
      "▁mo": 6725,
      "##tsbur": 6726,
      "▁photographers": 6727,
      "▁exiled": 6728,
      "▁compromise": 6729,
      "▁vietnam": 6730,
      "▁ammunition": 6731,
      "▁panted": 6732,
      "▁touching": 6733,
      "▁nip": 6734,
      "##ine": 6735,
      "▁boasts": 6736,
      "▁ob": 6737,
      "▁import": 6738,
      "##dit": 6739,
      "▁drive": 6740,
      "##ielder": 6741,
      "▁staircase": 6742,
      "##hibited": 6743,
      "▁british": 6744,
      "▁labelled": 6745,
      "##eeze": 6746,
      "▁teh": 6747,
      "##using": 6748,
      "▁charity": 6749,
      "##tity": 6750,
      "▁aversion": 6751,
      "▁ki": 6752,
      "▁bench": 6753,
      "##ter": 6754,
      "▁gigg": 6755,
      "##ia": 6756,
      "▁terrorists": 6757,
      "▁markers": 6758,
      "##isting": 6759,
      "▁strings": 6760,
      "##entally": 6761,
      "##elf": 6762,
      "##gation": 6763,
      "▁prospect": 6764,
      "▁kitchen": 6765,
      "▁cann": 6766,
      "▁promp": 6767,
      "▁mired": 6768,
      "▁conditioning": 6769,
      "##orated": 6770,
      "##-up": 6771,
      "▁karma": 6772,
      "▁hen": 6773,
      "▁wikis": 6774,
      "▁across": 6775,
      "▁edit": 6776,
      "▁remains": 6777,
      "▁flaw": 6778,
      "▁llms": 6779,
      "##nas": 6780,
      "▁muttered": 6781,
      "##anx": 6782,
      "▁mpg": 6783,
      "▁donkeys": 6784,
      "▁making": 6785,
      "▁infrastructure": 6786,
      "##cano": 6787,
      "▁rivers": 6788,
      "▁sweeping": 6789,
      "▁uphold": 6790,
      "▁clair": 6791,
      "▁maw": 6792,
      "##very": 6793,
      "##(s)": 6794,
      "▁zip": 6795,
      "##ighten": 6796,
      "▁wagon": 6797,
      "▁rough": 6798,
      "▁workmanship": 6799,
      "▁opened": 6800,
      "##olved": 6801,
      "▁downtown": 6802,
      "▁premises": 6803,
      "▁earth": 6804,
      "▁valuing": 6805,
      "▁dialogue": 6806,
      "##copes": 6807,
      "▁fin": 6808,
      "##pair": 6809,
      "▁artich": 6810,
      "▁orchest": 6811,
      "##rano": 6812,
      "##ubs": 6813,
      "▁districts": 6814,
      "▁distraction": 6815,
      "▁entry": 6816,
      "▁crew": 6817,
      "##rd": 6818,
      "▁uneas": 6819,
      "▁pleasant": 6820,
      "▁integrated": 6821,
      "▁controlling": 6822,
      "▁cele": 6823,
      "▁memphis": 6824,
      "▁figured": 6825,
      "##ky": 6826,
      "▁aband": 6827,
      "▁awaiting": 6828,
      "▁jam": 6829,
      "▁used": 6830,
      "▁license": 6831,
      "##ilosoph": 6832,
      "▁veto": 6833,
      "##lief": 6834,
      "##inkles": 6835,
      "▁aer": 6836,
      "▁folding": 6837,
      "▁lump": 6838,
      "##inctions": 6839,
      "▁limitations": 6840,
      "▁examples": 6841,
      "▁insight": 6842,
      "▁gut": 6843,
      "##math": 6844,
      "▁streamed": 6845,
      "▁purchased": 6846,
      "▁optim": 6847,
      "▁contexts": 6848,
      "▁distances": 6849,
      "##iring": 6850,
      "▁potatoes": 6851,
      "▁disorders": 6852,
      "▁nobility": 6853,
      "▁ped": 6854,
      "▁guards": 6855,
      "▁tofu": 6856,
      "▁30": 6857,
      "▁advancement": 6858,
      "▁science": 6859,
      "▁sniffed": 6860,
      "▁cavity": 6861,
      "▁weekdays": 6862,
      "▁auster": 6863,
      "▁hab": 6864,
      "##orrow": 6865,
      "▁hoc": 6866,
      "##er": 6867,
      "##cked": 6868,
      "##rant": 6869,
      "▁coupon": 6870,
      "▁incapac": 6871,
      "▁financ": 6872,
      "▁travel": 6873,
      "▁wel": 6874,
      "▁counterfeiting": 6875,
      "▁laughs": 6876,
      "▁created": 6877,
      "▁alligator": 6878,
      "▁screamed": 6879,
      "▁fame": 6880,
      "▁oli": 6881,
      "▁acknowledge": 6882,
      "▁ammon": 6883,
      "▁discl": 6884,
      "▁calling": 6885,
      "▁enculturation": 6886,
      "▁soils": 6887,
      "▁select": 6888,
      "▁pail": 6889,
      "▁throughout": 6890,
      "##-sm": 6891,
      "▁lon": 6892,
      "▁pudding": 6893,
      "▁her": 6894,
      "▁run": 6895,
      "##fts": 6896,
      "▁stick": 6897,
      "##ras": 6898,
      "▁***": 6899,
      "▁challen": 6900,
      "##ectiveness": 6901,
      "##ual": 6902,
      "▁sink": 6903,
      "▁document": 6904,
      "▁switched": 6905,
      "▁attending": 6906,
      "▁exchanged": 6907,
      "▁dung": 6908,
      "▁remembers": 6909,
      "▁disgor": 6910,
      "▁subs": 6911,
      "▁plastic": 6912,
      "▁decrease": 6913,
      "▁advert": 6914,
      "##vements": 6915,
      "▁zombie": 6916,
      "▁timed": 6917,
      "##olves": 6918,
      "##tiv": 6919,
      "##yards": 6920,
      "##erest": 6921,
      "##ior": 6922,
      "▁migrants": 6923,
      "▁aboard": 6924,
      "▁gentleman": 6925,
      "▁life": 6926,
      "▁enterprise": 6927,
      "##inist": 6928,
      "▁origins": 6929,
      "▁verse": 6930,
      "▁abbreviation": 6931,
      "▁referred": 6932,
      "▁peeing": 6933,
      "▁depicts": 6934,
      "▁procedures": 6935,
      "▁worse": 6936,
      "▁praised": 6937,
      "▁nonsense": 6938,
      "▁squashed": 6939,
      "▁sister": 6940,
      "##ourse": 6941,
      "▁queue": 6942,
      "##mest": 6943,
      "▁ding": 6944,
      "▁shine": 6945,
      "▁discre": 6946,
      "##22": 6947,
      "##v": 6948,
      "▁provides": 6949,
      "▁spos": 6950,
      "##ascience": 6951,
      "▁pud": 6952,
      "▁answer": 6953,
      "▁internet": 6954,
      "▁abolished": 6955,
      "▁with": 6956,
      "##rax": 6957,
      "##leg": 6958,
      "▁surrender": 6959,
      "▁offer": 6960,
      "▁pestic": 6961,
      "▁staff": 6962,
      "▁describes": 6963,
      "▁testified": 6964,
      "##.d.": 6965,
      "▁hole": 6966,
      "##ycling": 6967,
      "▁compared": 6968,
      "##aucr": 6969,
      "▁benefit": 6970,
      "▁checking": 6971,
      "##cling": 6972,
      "▁uk": 6973,
      "▁funded": 6974,
      "##licity": 6975,
      "▁pu": 6976,
      "▁grilled": 6977,
      "▁independ": 6978,
      "▁wanted": 6979,
      "▁obs": 6980,
      "▁tand": 6981,
      "##bolism": 6982,
      "##eeds": 6983,
      "▁ought": 6984,
      "##repres": 6985,
      "##ull": 6986,
      "▁trailer": 6987,
      "▁landscape": 6988,
      "▁consi": 6989,
      "▁manuscri": 6990,
      "▁thom": 6991,
      "▁planted": 6992,
      "▁flakes": 6993,
      "▁plot": 6994,
      "▁lop": 6995,
      "##iss": 6996,
      "##ansion": 6997,
      "▁lungs": 6998,
      "##ped": 6999,
      "▁dentist": 7000,
      "##ited": 7001,
      "▁businessman": 7002,
      "▁mow": 7003,
      "##tically": 7004,
      "##uster": 7005,
      "▁whale": 7006,
      "▁liking": 7007,
      "▁det": 7008,
      "▁drove": 7009,
      "▁qua": 7010,
      "▁hate": 7011,
      "##erned": 7012,
      "▁ashes": 7013,
      "▁matter": 7014,
      "▁bou": 7015,
      "▁habits": 7016,
      "▁bucks": 7017,
      "▁cherries": 7018,
      "▁cashier": 7019,
      "▁dire": 7020,
      "▁50": 7021,
      "##cakes": 7022,
      "▁continental": 7023,
      "▁motel": 7024,
      "j": 7025,
      "▁sandwiches": 7026,
      "▁so": 7027,
      "▁hards": 7028,
      "▁equals": 7029,
      "▁reasons": 7030,
      "##oala": 7031,
      "▁post": 7032,
      "##coon": 7033,
      "▁diesel": 7034,
      "▁investigation": 7035,
      "▁cat": 7036,
      "▁afraid": 7037,
      "▁slave": 7038,
      "▁tug": 7039,
      "▁conform": 7040,
      "▁bulldozer": 7041,
      "##enail": 7042,
      "▁sunday": 7043,
      "##ible": 7044,
      "▁fresh": 7045,
      "▁strategy": 7046,
      "▁subst": 7047,
      "▁head": 7048,
      "▁descended": 7049,
      "▁cubism": 7050,
      "▁try": 7051,
      "##ograp": 7052,
      "▁pasta": 7053,
      "▁weaponize": 7054,
      "▁ons": 7055,
      "##igious": 7056,
      "▁reserv": 7057,
      "▁trustee": 7058,
      "▁embedded": 7059,
      "▁fashion": 7060,
      "##ghts": 7061,
      "▁accepting": 7062,
      "▁declaration": 7063,
      "##bility": 7064,
      "▁hostess": 7065,
      "▁flattered": 7066,
      "▁tru": 7067,
      "##mon": 7068,
      "▁impro": 7069,
      "▁autof": 7070,
      "##ching": 7071,
      "##yroc": 7072,
      "▁agent": 7073,
      "##odder": 7074,
      "##ested": 7075,
      "▁colleagues": 7076,
      "▁savings": 7077,
      "##ias": 7078,
      "▁surp": 7079,
      "##bi": 7080,
      "▁rental": 7081,
      "##dled": 7082,
      "▁implicated": 7083,
      "##asley": 7084,
      "▁floated": 7085,
      "##huh": 7086,
      "##eg": 7087,
      "##ners": 7088,
      "▁subjected": 7089,
      "▁$": 7090,
      "▁tam": 7091,
      "▁carpenter": 7092,
      "▁declar": 7093,
      "▁define": 7094,
      "▁curry": 7095,
      "▁bib": 7096,
      "##people": 7097,
      "▁dollar": 7098,
      "▁reaches": 7099,
      "##chester": 7100,
      "▁ascending": 7101,
      "▁group": 7102,
      "▁charl": 7103,
      "▁terrorism": 7104,
      "##+----------------": 7105,
      "##alising": 7106,
      "##ronym": 7107,
      "ø": 7108,
      "▁ath": 7109,
      "▁incre": 7110,
      "▁hym": 7111,
      "##ady": 7112,
      "##erings": 7113,
      "▁front": 7114,
      "▁civet": 7115,
      "▁inherited": 7116,
      "##lib": 7117,
      "##tionally": 7118,
      "▁mosqu": 7119,
      "▁rapidly": 7120,
      "▁strateg": 7121,
      "▁signals": 7122,
      "▁window": 7123,
      "▁why": 7124,
      "▁ali": 7125,
      "▁councill": 7126,
      "##heet": 7127,
      "##iew": 7128,
      "▁jenn": 7129,
      "##oscope": 7130,
      "▁boiler": 7131,
      "##enerate": 7132,
      "##arm": 7133,
      "▁legislature": 7134,
      "▁rains": 7135,
      "▁specifications": 7136,
      "▁renting": 7137,
      "▁donated": 7138,
      "▁models": 7139,
      "▁salvation": 7140,
      "▁workout": 7141,
      "▁x3-98": 7142,
      "##acket": 7143,
      "▁neoc": 7144,
      "▁intellectuals": 7145,
      "▁one": 7146,
      "##work": 7147,
      "▁toll": 7148,
      "▁masterpi": 7149,
      "▁missing": 7150,
      "##lev": 7151,
      "##tivity": 7152,
      "▁america": 7153,
      "##ius": 7154,
      "▁provider": 7155,
      "▁paragraph": 7156,
      "▁row": 7157,
      "▁protesting": 7158,
      "▁radiation": 7159,
      "▁training": 7160,
      "▁brings": 7161,
      "▁initiatives": 7162,
      "▁online": 7163,
      "▁admissions": 7164,
      "##owled": 7165,
      "▁whistle": 7166,
      "▁veget": 7167,
      "▁converting": 7168,
      "▁muscle": 7169,
      "##pen": 7170,
      "▁suite": 7171,
      "▁accountant": 7172,
      "▁extr": 7173,
      "▁passing": 7174,
      "▁enti": 7175,
      "##eat": 7176,
      "##ci": 7177,
      "▁logo": 7178,
      "▁notch": 7179,
      "##en": 7180,
      "▁oatmeal": 7181,
      "▁hook": 7182,
      "##how": 7183,
      "▁alth": 7184,
      "▁tum": 7185,
      "##-w": 7186,
      "##unami": 7187,
      "▁obligations": 7188,
      "##wardness": 7189,
      "▁l": 7190,
      "▁astride": 7191,
      "##tspots": 7192,
      "▁privile": 7193,
      "▁news": 7194,
      "##la": 7195,
      "▁swept": 7196,
      "▁golden": 7197,
      "##asters": 7198,
      "▁transcri": 7199,
      "▁planets": 7200,
      "▁garbage": 7201,
      "▁proceeding": 7202,
      "▁pamp": 7203,
      "▁kidding": 7204,
      "##j": 7205,
      "▁motorcycle": 7206,
      "▁waf": 7207,
      "▁original": 7208,
      "▁indicated": 7209,
      "##rift": 7210,
      "▁nodes": 7211,
      "▁flags": 7212,
      "##otion": 7213,
      "▁insurgency": 7214,
      "##quil": 7215,
      "##ybod": 7216,
      "▁wrinkles": 7217,
      "▁total": 7218,
      "##ana": 7219,
      "##ativ": 7220,
      "▁trademark": 7221,
      "##!!!!": 7222,
      "▁buses": 7223,
      "▁billion": 7224,
      "▁eating": 7225,
      "▁written": 7226,
      "▁ocean": 7227,
      "▁ted": 7228,
      "▁internship": 7229,
      "##w": 7230,
      "▁meat": 7231,
      "▁exposure": 7232,
      "##usting": 7233,
      "▁writers": 7234,
      "▁clumps": 7235,
      "▁rising": 7236,
      "##iron": 7237,
      "▁burned": 7238,
      "▁reserve": 7239,
      "##hirts": 7240,
      "▁sang": 7241,
      "▁intake": 7242,
      "▁americ": 7243,
      "##iel": 7244,
      "▁archive": 7245,
      "▁triv": 7246,
      "▁associate": 7247,
      "▁tall": 7248,
      "▁skipping": 7249,
      "▁amounts": 7250,
      "▁contributes": 7251,
      "##esty": 7252,
      "▁illness": 7253,
      "##-boat": 7254,
      "##yan": 7255,
      "▁enrolled": 7256,
      "▁manual": 7257,
      "▁tunnels": 7258,
      "▁biologist": 7259,
      "▁provision": 7260,
      "▁battle": 7261,
      "▁sam": 7262,
      "▁timer": 7263,
      "##nies": 7264,
      "▁tant": 7265,
      "▁radio": 7266,
      "▁artic": 7267,
      "▁corporations": 7268,
      "▁males": 7269,
      "##inny": 7270,
      "▁parachute": 7271,
      "▁sonnets": 7272,
      "##self": 7273,
      "▁crane": 7274,
      "▁beaver": 7275,
      "▁nano": 7276,
      "▁agony": 7277,
      "##anes": 7278,
      "▁woman": 7279,
      "▁struggling": 7280,
      "▁hanging": 7281,
      "▁waive": 7282,
      "▁vision": 7283,
      "▁ske": 7284,
      "##option": 7285,
      "▁tacoma": 7286,
      "▁belt": 7287,
      "##blic": 7288,
      "##porter": 7289,
      "▁thous": 7290,
      "▁becoming": 7291,
      "##alation": 7292,
      "▁qaeda": 7293,
      "▁hor": 7294,
      "##ectives": 7295,
      "##ruary": 7296,
      "▁envelopes": 7297,
      "▁pedic": 7298,
      "▁scale": 7299,
      "▁chasers": 7300,
      "##izes": 7301,
      "▁tried": 7302,
      "▁dial": 7303,
      "▁separating": 7304,
      "▁bri": 7305,
      "##]": 7306,
      "▁farming": 7307,
      "▁sting": 7308,
      "▁assets": 7309,
      "▁tragedies": 7310,
      "##ree": 7311,
      "▁st.": 7312,
      "▁reads": 7313,
      "##pend": 7314,
      "▁removed": 7315,
      "▁approxim": 7316,
      "▁pushing": 7317,
      "▁prestige": 7318,
      "▁vets": 7319,
      "##resses": 7320,
      "##aper": 7321,
      "▁arri": 7322,
      "▁plunged": 7323,
      "▁die": 7324,
      "▁warned": 7325,
      "▁))": 7326,
      "▁declarations": 7327,
      "▁participating": 7328,
      "▁pollut": 7329,
      "ι": 7330,
      "##ghting": 7331,
      "▁ski": 7332,
      "▁!": 7333,
      "▁geometry": 7334,
      "▁diagram": 7335,
      "▁trou": 7336,
      "▁stay": 7337,
      "▁maybe": 7338,
      "##urance": 7339,
      "▁proceed": 7340,
      "▁exclu": 7341,
      "▁cat-flap": 7342,
      "▁defeats": 7343,
      "▁peanut": 7344,
      "▁intriguing": 7345,
      "##gencies": 7346,
      "▁releasing": 7347,
      "▁expectation": 7348,
      "▁marshes": 7349,
      "▁increased": 7350,
      "▁orbit": 7351,
      "▁pocket": 7352,
      "##ants": 7353,
      "##nly": 7354,
      "▁fate": 7355,
      "▁footst": 7356,
      "▁frequented": 7357,
      "▁reclaimed": 7358,
      "▁ours": 7359,
      "▁rene": 7360,
      "▁anchored": 7361,
      "▁isd": 7362,
      "▁convictions": 7363,
      "▁retain": 7364,
      "▁servers": 7365,
      "##rors": 7366,
      "▁possession": 7367,
      "▁mys": 7368,
      "▁food": 7369,
      "##asp": 7370,
      "##jects": 7371,
      "##iveness": 7372,
      "▁wiggleworm": 7373,
      "▁dud": 7374,
      "▁addressed": 7375,
      "##yme": 7376,
      "▁signal": 7377,
      "▁soldi": 7378,
      "æ": 7379,
      "▁ports": 7380,
      "▁kettle": 7381,
      "▁asset": 7382,
      "##istic": 7383,
      "▁ign": 7384,
      "▁capability": 7385,
      "▁beetle": 7386,
      "▁dates": 7387,
      "▁ear": 7388,
      "##-1.xls": 7389,
      "##por": 7390,
      "▁yo": 7391,
      "▁corpor": 7392,
      "▁trous": 7393,
      "##ried": 7394,
      "##ret": 7395,
      "▁owe": 7396,
      "▁hall": 7397,
      "##ommerce": 7398,
      "▁study": 7399,
      "▁brown": 7400,
      "▁marrying": 7401,
      "▁embraced": 7402,
      "##atively": 7403,
      "▁sec": 7404,
      "▁inhabitants": 7405,
      "▁alphab": 7406,
      "▁mining": 7407,
      "▁encl": 7408,
      "▁guaranty": 7409,
      "▁objections": 7410,
      "▁seal": 7411,
      "▁mosquito": 7412,
      "##riage": 7413,
      "▁comb": 7414,
      "▁clean": 7415,
      "▁advertis": 7416,
      "▁litter": 7417,
      "▁mathematics": 7418,
      "▁drag": 7419,
      "▁transmission": 7420,
      "▁accent": 7421,
      "##cades": 7422,
      "▁oct": 7423,
      "##astruc": 7424,
      "▁awards": 7425,
      "▁bring": 7426,
      "▁dr.": 7427,
      "##ogging": 7428,
      "##flies": 7429,
      "▁deprived": 7430,
      "##izers": 7431,
      "▁iraq": 7432,
      "##40s": 7433,
      "▁photos": 7434,
      "▁enron.xls": 7435,
      "▁jigsaw": 7436,
      "▁fund": 7437,
      "##crib": 7438,
      "##ona": 7439,
      "##yday": 7440,
      "▁maint": 7441,
      "▁alternates": 7442,
      "▁loot": 7443,
      "▁cabins": 7444,
      "▁peroxide": 7445,
      "▁attracted": 7446,
      "▁symmet": 7447,
      "▁frontier": 7448,
      "▁enemies": 7449,
      "##dbit": 7450,
      "▁sarah": 7451,
      "▁general": 7452,
      "▁dose": 7453,
      "##000": 7454,
      "▁luncheon": 7455,
      "▁reservation": 7456,
      "##eric": 7457,
      "▁perfume": 7458,
      "▁headmaster": 7459,
      "▁halloween": 7460,
      "▁mont": 7461,
      "##eting": 7462,
      "▁millennium": 7463,
      "##el": 7464,
      "##ulars": 7465,
      "##ien": 7466,
      "▁performed": 7467,
      "▁worried": 7468,
      "▁federal": 7469,
      "▁fli": 7470,
      "##ut": 7471,
      "▁ryan": 7472,
      "▁awaited": 7473,
      "▁colle": 7474,
      "▁industri": 7475,
      "▁besides": 7476,
      "▁dand": 7477,
      "▁browser": 7478,
      "##anding": 7479,
      "##bus": 7480,
      "##ots": 7481,
      "##ally": 7482,
      "▁concepts": 7483,
      "##eos": 7484,
      "##arely": 7485,
      "▁comment": 7486,
      "▁breakthrough": 7487,
      "▁conforms": 7488,
      "▁marri": 7489,
      "▁ozone": 7490,
      "##mail": 7491,
      "##etro": 7492,
      "▁shortage": 7493,
      "▁line": 7494,
      "▁soap": 7495,
      "▁trave": 7496,
      "▁financed": 7497,
      "▁heel": 7498,
      "▁diseases": 7499,
      "##‘": 7500,
      "▁conferences": 7501,
      "##angling": 7502,
      "▁undertaken": 7503,
      "▁existed": 7504,
      "▁mostly": 7505,
      "▁relativ": 7506,
      "▁apologize": 7507,
      "▁wood": 7508,
      "▁diapers": 7509,
      "▁determining": 7510,
      "▁spi": 7511,
      "▁ultrasounds": 7512,
      "▁re": 7513,
      "▁along": 7514,
      "▁raining": 7515,
      "▁kinds": 7516,
      "##forcement": 7517,
      "▁scare": 7518,
      "##anity": 7519,
      "##ply": 7520,
      "▁constitutions": 7521,
      "▁reimbursed": 7522,
      "▁happy": 7523,
      "▁pim": 7524,
      "▁mim": 7525,
      "▁polar": 7526,
      "▁wikinews": 7527,
      "##emb": 7528,
      "##lly": 7529,
      "▁trash": 7530,
      "▁ferry": 7531,
      "▁clin": 7532,
      "##entions": 7533,
      "▁visitor": 7534,
      "▁bar": 7535,
      "▁communication": 7536,
      "▁refin": 7537,
      "▁spit": 7538,
      "##atter": 7539,
      "▁events": 7540,
      "▁cous": 7541,
      "▁merc": 7542,
      "▁roads": 7543,
      "▁blade": 7544,
      "▁transportation": 7545,
      "▁thinks": 7546,
      "▁risks": 7547,
      "▁compounded": 7548,
      "▁yaw": 7549,
      "▁aught": 7550,
      "##69": 7551,
      "▁climbing": 7552,
      "▁slu": 7553,
      "▁holding": 7554,
      "▁roof": 7555,
      "▁~": 7556,
      "▁ecodesign": 7557,
      "▁apply": 7558,
      "▁deteri": 7559,
      "▁ll": 7560,
      "##mers": 7561,
      "▁occupation": 7562,
      "▁specialists": 7563,
      "▁inversion": 7564,
      "▁viewpoints": 7565,
      "##ant": 7566,
      "▁regarded": 7567,
      "▁swim": 7568,
      "▁trav": 7569,
      "▁dlc": 7570,
      "▁antiqu": 7571,
      "▁discip": 7572,
      "▁echo": 7573,
      "▁ton": 7574,
      "▁compliment": 7575,
      "▁microns": 7576,
      "▁intranet": 7577,
      "▁rags": 7578,
      "##-of-": 7579,
      "##cience": 7580,
      "▁par": 7581,
      "▁shoulders": 7582,
      "▁peas": 7583,
      "##card": 7584,
      "▁pinning": 7585,
      "▁fuse": 7586,
      "▁loved": 7587,
      "▁diving": 7588,
      "▁dwww": 7589,
      "▁mouth": 7590,
      "▁those": 7591,
      "▁consid": 7592,
      "##erally": 7593,
      "##ida": 7594,
      "▁appro": 7595,
      "▁shines": 7596,
      "▁adv": 7597,
      "▁mon": 7598,
      "▁recently": 7599,
      "##mitted": 7600,
      "▁screw": 7601,
      "▁discour": 7602,
      "▁fridge": 7603,
      "▁today": 7604,
      "▁numb": 7605,
      "▁chan": 7606,
      "▁get": 7607,
      "▁producer": 7608,
      "▁parakeet": 7609,
      "##.m": 7610,
      "▁warranties": 7611,
      "▁equality": 7612,
      "▁euro": 7613,
      "▁restri": 7614,
      "##egr": 7615,
      "##iked": 7616,
      "▁receptionist": 7617,
      "▁riding": 7618,
      "▁difficulty": 7619,
      "▁jurisdiction": 7620,
      "▁postc": 7621,
      "▁yourself": 7622,
      "▁influence": 7623,
      "▁practicing": 7624,
      "▁involving": 7625,
      "▁user": 7626,
      "##acked": 7627,
      "▁cool": 7628,
      "##bs": 7629,
      "▁mile": 7630,
      "▁fiction": 7631,
      "▁jus": 7632,
      "▁autob": 7633,
      "▁reviewer": 7634,
      "▁shade": 7635,
      "▁geography": 7636,
      "▁inform": 7637,
      "▁lipsticks": 7638,
      "##.org": 7639,
      "##text": 7640,
      "▁collateral": 7641,
      "▁government": 7642,
      "##lant": 7643,
      "##rael": 7644,
      "##mas": 7645,
      "▁subscrib": 7646,
      "▁rat": 7647,
      "▁distinguishes": 7648,
      "##h": 7649,
      "▁melt": 7650,
      "▁horsesho": 7651,
      "##----": 7652,
      "▁from": 7653,
      "▁challenges": 7654,
      "▁standards": 7655,
      "##aker": 7656,
      "▁legisl": 7657,
      "▁tag": 7658,
      "##orit": 7659,
      "▁approach": 7660,
      "▁these": 7661,
      "▁walnuts": 7662,
      "▁publishers": 7663,
      "▁tit": 7664,
      "▁meets": 7665,
      "▁answering": 7666,
      "##appy": 7667,
      "##gnancy": 7668,
      "▁genius": 7669,
      "▁intel": 7670,
      "▁hunting": 7671,
      "▁ny": 7672,
      "##tened": 7673,
      "▁bow": 7674,
      "##utor": 7675,
      "##su": 7676,
      "##areness": 7677,
      "▁liquor": 7678,
      "▁cracked": 7679,
      "▁tacos": 7680,
      "▁resulting": 7681,
      "▁nation": 7682,
      "##nels": 7683,
      "▁recommend": 7684,
      "▁highlighting": 7685,
      "▁lith": 7686,
      "##ouble": 7687,
      "▁tiny": 7688,
      "##children": 7689,
      "▁tinkle": 7690,
      "▁sweet": 7691,
      "▁tribe": 7692,
      "##ool": 7693,
      "▁racism": 7694,
      "##ox": 7695,
      "##ios": 7696,
      "▁blurred": 7697,
      "▁iss": 7698,
      "▁refineries": 7699,
      "##ices": 7700,
      "##imated": 7701,
      "##le": 7702,
      "▁theater": 7703,
      "▁draws": 7704,
      "##uled": 7705,
      "▁tipped": 7706,
      "##oozing": 7707,
      "▁perceptions": 7708,
      "▁augmented": 7709,
      "▁poc": 7710,
      "▁intend": 7711,
      "▁thing": 7712,
      "▁decide": 7713,
      "▁bak": 7714,
      "▁manufacturer": 7715,
      "##spec": 7716,
      "##otive": 7717,
      "▁possesses": 7718,
      "▁incorporates": 7719,
      "##pl": 7720,
      "▁nevertheless": 7721,
      "▁credited": 7722,
      "##man": 7723,
      "▁°": 7724,
      "▁bases": 7725,
      "▁evaluated": 7726,
      "▁indicator": 7727,
      "▁bone": 7728,
      "▁feels": 7729,
      "▁voyage": 7730,
      "▁coding": 7731,
      "▁mild": 7732,
      "▁rep": 7733,
      "▁purse": 7734,
      "##edom": 7735,
      "▁cho": 7736,
      "▁crystal": 7737,
      "▁controversy": 7738,
      "▁mrs.": 7739,
      "▁intentions": 7740,
      "▁pancake": 7741,
      "▁agric": 7742,
      "##ania": 7743,
      "##erate": 7744,
      "##vant": 7745,
      "▁’d": 7746,
      "▁tables": 7747,
      "▁emerged": 7748,
      "▁representing": 7749,
      "##lifish": 7750,
      "##ie": 7751,
      "▁already": 7752,
      "▁rocks": 7753,
      "▁dude": 7754,
      "▁fog": 7755,
      "▁01": 7756,
      "▁statements": 7757,
      "▁preparation": 7758,
      "▁basis": 7759,
      "▁exists": 7760,
      "##ican": 7761,
      "▁modification": 7762,
      "▁plaintiffs": 7763,
      "▁uhoh": 7764,
      "▁reproduced": 7765,
      "▁/": 7766,
      "▁crowd": 7767,
      "▁craw": 7768,
      "▁censor": 7769,
      "▁month": 7770,
      "##enance": 7771,
      "▁medium": 7772,
      "▁businesses": 7773,
      "▁best": 7774,
      "▁environmental": 7775,
      "▁team": 7776,
      "▁speed": 7777,
      "##iful": 7778,
      "▁malf": 7779,
      "##ole": 7780,
      "##aming": 7781,
      "▁heroes": 7782,
      "##tiality": 7783,
      "▁conversation": 7784,
      "▁est": 7785,
      "▁technical": 7786,
      "▁generations": 7787,
      "▁but": 7788,
      "▁anything": 7789,
      "▁interview": 7790,
      "▁pretended": 7791,
      "▁endorse": 7792,
      "▁anticipate": 7793,
      "▁opens": 7794,
      "▁territory": 7795,
      "▁outsiders": 7796,
      "▁aro": 7797,
      "▁caterpill": 7798,
      "▁flic": 7799,
      "▁world": 7800,
      "▁significant": 7801,
      "▁canes": 7802,
      "▁troubled": 7803,
      "▁t.v.": 7804,
      "▁bore": 7805,
      "▁capitalism": 7806,
      "▁alt": 7807,
      "▁originating": 7808,
      "▁triumph": 7809,
      "##ux": 7810,
      "##onishment": 7811,
      "▁predictors": 7812,
      "▁supply": 7813,
      "▁tasks": 7814,
      "▁horns": 7815,
      "▁virus": 7816,
      "▁contracts": 7817,
      "##stream": 7818,
      "▁pastor": 7819,
      "▁necks": 7820,
      "▁assure": 7821,
      "▁neighbor": 7822,
      "##tween": 7823,
      "▁agenda": 7824,
      "▁curtains": 7825,
      "▁spoon": 7826,
      "▁framed": 7827,
      "▁whites": 7828,
      "##iginal": 7829,
      "##chie": 7830,
      "▁caused": 7831,
      "▁revival": 7832,
      "##00s": 7833,
      "▁vide": 7834,
      "##ele": 7835,
      "##.g.": 7836,
      "▁......": 7837,
      "▁economic": 7838,
      "▁enacting": 7839,
      "##cove": 7840,
      "▁o'clock": 7841,
      "▁unity": 7842,
      "▁chang": 7843,
      "▁tot": 7844,
      "▁tell": 7845,
      "▁modem": 7846,
      "▁wip": 7847,
      "▁taun": 7848,
      "▁decree": 7849,
      "▁ruling": 7850,
      "▁chlor": 7851,
      "##ather": 7852,
      "▁visitors": 7853,
      "▁broadc": 7854,
      "##@enron.com": 7855,
      "▁disorder": 7856,
      "##atched": 7857,
      "▁uni": 7858,
      "▁’": 7859,
      "▁buttons": 7860,
      "##enture": 7861,
      "##yalist": 7862,
      "▁coordinate": 7863,
      "▁death": 7864,
      "▁tv": 7865,
      "▁economists": 7866,
      "▁ruins": 7867,
      "▁pdf": 7868,
      "▁pizza": 7869,
      "▁sauce": 7870,
      "##asses": 7871,
      "##alculation": 7872,
      "##unc": 7873,
      "##.7": 7874,
      "▁usurp": 7875,
      "▁speaks": 7876,
      "##rovers": 7877,
      "##rup": 7878,
      "##issions": 7879,
      "▁turb": 7880,
      "▁rebels": 7881,
      "▁kept": 7882,
      "▁slice": 7883,
      "▁hull": 7884,
      "▁tonnes": 7885,
      "▁congress": 7886,
      "▁gestured": 7887,
      "▁are": 7888,
      "▁heartland": 7889,
      "▁among": 7890,
      "▁launch": 7891,
      "▁skip": 7892,
      "▁universe": 7893,
      "▁magic": 7894,
      "##onstr": 7895,
      "▁desktop": 7896,
      "▁lessons": 7897,
      "##ali": 7898,
      "▁big": 7899,
      "##fuge": 7900,
      "▁racing": 7901,
      "##uch": 7902,
      "##lessly": 7903,
      "##ense": 7904,
      "##rote": 7905,
      "▁estim": 7906,
      "##esting": 7907,
      "▁skiing": 7908,
      "▁follow": 7909,
      "▁developer": 7910,
      "##isc": 7911,
      "▁pentagon": 7912,
      "▁$$": 7913,
      "▁shove": 7914,
      "▁book": 7915,
      "##ick": 7916,
      "▁mailings": 7917,
      "▁autonomy": 7918,
      "▁kansas": 7919,
      "▁november": 7920,
      "##ving": 7921,
      "▁poison": 7922,
      "▁trauma": 7923,
      "##_": 7924,
      "▁maintains": 7925,
      "▁pies": 7926,
      "▁cau": 7927,
      "▁rabbits": 7928,
      "▁overchar": 7929,
      "▁applause": 7930,
      "▁descendants": 7931,
      "##marked": 7932,
      "▁wreck": 7933,
      "▁lots": 7934,
      "▁stillman": 7935,
      "▁translates": 7936,
      "##ney": 7937,
      "▁lobster": 7938,
      "▁displayed": 7939,
      "▁prerequis": 7940,
      "▁stickers": 7941,
      "##otch": 7942,
      "▁linguistics": 7943,
      "##utiful": 7944,
      "▁delivering": 7945,
      "▁covers": 7946,
      "▁fleeing": 7947,
      "##/0": 7948,
      "▁advisers": 7949,
      "▁sketchbook": 7950,
      "▁sucked": 7951,
      "##cillas": 7952,
      "▁ti": 7953,
      "▁bred": 7954,
      "▁full": 7955,
      "▁knoc": 7956,
      "▁wager": 7957,
      "##rican": 7958,
      "▁families": 7959,
      "##igrants": 7960,
      "▁emerging": 7961,
      "▁railways": 7962,
      "▁concerned": 7963,
      "▁2000": 7964,
      "▁reproduc": 7965,
      "▁ensures": 7966,
      "▁canopy": 7967,
      "##sed": 7968,
      "▁uncovered": 7969,
      "▁harvesting": 7970,
      "▁composition": 7971,
      "▁scar": 7972,
      "▁demands": 7973,
      "▁wors": 7974,
      "##ape": 7975,
      "##uates": 7976,
      "▁yoghurt": 7977,
      "▁poa": 7978,
      "▁cond": 7979,
      "▁do": 7980,
      "##arding": 7981,
      "##ait": 7982,
      "##fications": 7983,
      "▁zealand": 7984,
      "▁freight": 7985,
      "▁lou": 7986,
      "▁cheapest": 7987,
      "▁pel": 7988,
      "▁communicated": 7989,
      "##oods": 7990,
      "▁collecting": 7991,
      "##order": 7992,
      "▁spons": 7993,
      "▁organized": 7994,
      "##rave": 7995,
      "##aned": 7996,
      "▁paints": 7997,
      "##ede": 7998,
      "▁anx": 7999,
      "▁dist": 8000,
      "▁wounded": 8001,
      "##iality": 8002,
      "##oli": 8003,
      "▁-----------------": 8004,
      "▁monkeys": 8005,
      "##ograph": 8006,
      "##cep": 8007,
      "▁'": 8008,
      "▁pursuing": 8009,
      "▁cook": 8010,
      "▁2011": 8011,
      "▁minimum": 8012,
      "▁received": 8013,
      "▁insult": 8014,
      "▁pest": 8015,
      "▁relating": 8016,
      "▁jun": 8017,
      "▁noone": 8018,
      "▁likes": 8019,
      "▁robes": 8020,
      "▁proble": 8021,
      "▁pointing": 8022,
      "▁punishment": 8023,
      "##ack": 8024,
      "▁gone": 8025,
      "▁underground": 8026,
      "▁firetruck": 8027,
      "▁molec": 8028,
      "##itely": 8029,
      "▁root": 8030,
      "▁extre": 8031,
      "▁reproduction": 8032,
      "##erilla": 8033,
      "▁cy": 8034,
      "▁perce": 8035,
      "▁complained": 8036,
      "▁tugging": 8037,
      "▁controlled": 8038,
      "##icated": 8039,
      "▁rated": 8040,
      "▁melanoma": 8041,
      "##veland": 8042,
      "▁objects": 8043,
      "▁knot": 8044,
      "▁libraries": 8045,
      "▁cage": 8046,
      "▁alleged": 8047,
      "▁b": 8048,
      "▁stare": 8049,
      "##aments": 8050,
      "▁explos": 8051,
      "##ell": 8052,
      "▁concerts": 8053,
      "▁live": 8054,
      "▁asp": 8055,
      "▁coins": 8056,
      "▁aunt": 8057,
      "##erves": 8058,
      "▁council": 8059,
      "▁housing": 8060,
      "▁bugs": 8061,
      "▁gap": 8062,
      "▁compet": 8063,
      "##**": 8064,
      "▁wheat": 8065,
      "##ipelag": 8066,
      "▁no": 8067,
      "▁washington": 8068,
      "##ar": 8069,
      "▁ed": 8070,
      "▁draped": 8071,
      "▁cabbage": 8072,
      "▁ignore": 8073,
      "▁actor": 8074,
      "▁hundreds": 8075,
      "▁mouse": 8076,
      "▁tickling": 8077,
      "▁generation": 8078,
      "▁acceptance": 8079,
      "▁circulation": 8080,
      "▁shelt": 8081,
      "▁spo": 8082,
      "▁sensing": 8083,
      "▁bid": 8084,
      "▁gained": 8085,
      "▁complete": 8086,
      "▁cromer": 8087,
      "▁valued": 8088,
      "##gin": 8089,
      "▁offic": 8090,
      "▁device": 8091,
      "##arly": 8092,
      "▁eggs": 8093,
      "▁sympath": 8094,
      "▁demonstrate": 8095,
      "##lav": 8096,
      "▁counterfe": 8097,
      "▁skys": 8098,
      "▁perspectives": 8099,
      "▁helicopters": 8100,
      "▁http://www": 8101,
      "▁pioneer": 8102,
      "▁it": 8103,
      "##inator": 8104,
      "▁authors": 8105,
      "##inter": 8106,
      "▁insect": 8107,
      "▁quest": 8108,
      "##ifying": 8109,
      "▁sid": 8110,
      "##a-": 8111,
      "▁camp": 8112,
      "▁operator": 8113,
      "▁legitimacy": 8114,
      "▁roms": 8115,
      "▁palace": 8116,
      "▁rom": 8117,
      "▁pill": 8118,
      "▁markup": 8119,
      "▁drink": 8120,
      "▁tar": 8121,
      "▁toaster": 8122,
      "##66-1.doc": 8123,
      "▁beep": 8124,
      "##ris": 8125,
      "▁came": 8126,
      "▁flourishing": 8127,
      "▁scub": 8128,
      "▁pointer": 8129,
      "▁heading": 8130,
      "##organ": 8131,
      "▁fles": 8132,
      "▁decre": 8133,
      "##force": 8134,
      "##hoods": 8135,
      "▁reflected": 8136,
      "##ader": 8137,
      "▁mantra": 8138,
      "▁flossing": 8139,
      "▁philadel": 8140,
      "▁underlined": 8141,
      "▁referee": 8142,
      "##peakers": 8143,
      "▁col": 8144,
      "▁finding": 8145,
      "▁silk": 8146,
      "▁prem": 8147,
      "▁pencils": 8148,
      "▁accust": 8149,
      "▁short": 8150,
      "▁presidents": 8151,
      "▁coastline": 8152,
      "▁climate": 8153,
      "▁pressed": 8154,
      "▁date": 8155,
      "▁favor": 8156,
      "##sel": 8157,
      "▁treati": 8158,
      "▁goat": 8159,
      "▁impris": 8160,
      "▁outl": 8161,
      "▁quiddit": 8162,
      "▁well": 8163,
      "▁lasts": 8164,
      "##mering": 8165,
      "▁04": 8166,
      "▁stairs": 8167,
      "▁pens": 8168,
      "▁buckets": 8169,
      "▁neither": 8170,
      "##rap": 8171,
      "##moon": 8172,
      "▁deficit": 8173,
      "▁rift": 8174,
      "##ibilities": 8175,
      "▁flying": 8176,
      "▁measure": 8177,
      "##+room": 8178,
      "▁mount": 8179,
      "▁neighbourhood": 8180,
      "▁menti": 8181,
      "▁scott": 8182,
      "##entieth": 8183,
      "▁determined": 8184,
      "▁feared": 8185,
      "▁finalize": 8186,
      "▁toile": 8187,
      "▁programme": 8188,
      "▁bern": 8189,
      "▁desert": 8190,
      "##ystem": 8191,
      "##at": 8192,
      "▁acupuncturist": 8193,
      "##ams": 8194,
      "##uc": 8195,
      "▁iraqi": 8196,
      "▁revealed": 8197,
      "▁le": 8198,
      "▁teams": 8199,
      "▁shock": 8200,
      "▁pra": 8201,
      "##-and": 8202,
      "▁elite": 8203,
      "▁subscribe": 8204,
      "##tone": 8205,
      "▁visibility": 8206,
      "▁cane": 8207,
      "▁pen": 8208,
      "##rection": 8209,
      "▁explain": 8210,
      "▁parak": 8211,
      "▁found": 8212,
      "▁phenomena": 8213,
      "▁congestion": 8214,
      "▁hyper": 8215,
      "▁mad": 8216,
      "▁turn": 8217,
      "▁digging": 8218,
      "▁easy": 8219,
      "▁fruit": 8220,
      "▁waves": 8221,
      "##thing": 8222,
      "##unciation": 8223,
      "▁treatise": 8224,
      "▁glad": 8225,
      "##ually": 8226,
      "##foli": 8227,
      "▁fiel": 8228,
      "▁established": 8229,
      "▁graduate": 8230,
      "▁commem": 8231,
      "▁discouraged": 8232,
      "▁meg": 8233,
      "▁described": 8234,
      "##edness": 8235,
      "▁corpus": 8236,
      "##rog": 8237,
      "▁warr": 8238,
      "▁spilled": 8239,
      "▁nick": 8240,
      "▁bail": 8241,
      "▁discourse": 8242,
      "##ellers": 8243,
      "▁outcome": 8244,
      "▁indul": 8245,
      "##op": 8246,
      "▁plots": 8247,
      "▁biked": 8248,
      "▁having": 8249,
      "▁soc": 8250,
      "▁residents": 8251,
      "▁gar": 8252,
      "▁pil": 8253,
      "▁puppet": 8254,
      "▁beef": 8255,
      "▁recognised": 8256,
      "▁franc": 8257,
      "▁storms": 8258,
      "##fin": 8259,
      "▁negot": 8260,
      "##acks": 8261,
      "▁bunch": 8262,
      "▁filling": 8263,
      "##&b": 8264,
      "3": 8265,
      "▁optionality": 8266,
      "▁pattern": 8267,
      "▁acceding": 8268,
      "▁gast": 8269,
      "▁estimate": 8270,
      "##athers": 8271,
      "▁length": 8272,
      "▁blanket": 8273,
      "▁behalf": 8274,
      "▁const": 8275,
      "##ah": 8276,
      "▁masters": 8277,
      "▁fights": 8278,
      "▁labeled": 8279,
      "##ached": 8280,
      "▁roughness": 8281,
      "▁definitions": 8282,
      "▁jap": 8283,
      "▁emb": 8284,
      "##enth": 8285,
      "##loy": 8286,
      "▁position": 8287,
      "▁issues": 8288,
      "▁extending": 8289,
      "▁acupuncture": 8290,
      "##tor": 8291,
      "▁country": 8292,
      "▁knowledge": 8293,
      "▁breakfast": 8294,
      "##gers": 8295,
      "▁reluct": 8296,
      "▁joining": 8297,
      "▁house-": 8298,
      "▁b&b": 8299,
      "##laimed": 8300,
      "▁interference": 8301,
      "▁toured": 8302,
      "▁enjambment": 8303,
      "▁gazed": 8304,
      "▁offensive": 8305,
      "▁luxury": 8306,
      "▁environments": 8307,
      "##.l.c": 8308,
      "▁independent": 8309,
      "▁spending": 8310,
      "##eli": 8311,
      "▁ache": 8312,
      "##icate": 8313,
      "▁gets": 8314,
      "▁administrations": 8315,
      "##umin": 8316,
      "▁stepped": 8317,
      "##.": 8318,
      "▁treated": 8319,
      "▁visiting": 8320,
      "▁eol": 8321,
      "▁humor": 8322,
      "▁shared": 8323,
      "▁cler": 8324,
      "▁jingle": 8325,
      "▁soil": 8326,
      "▁tomorrow": 8327,
      "##eem": 8328,
      "##tors": 8329,
      "▁sailors": 8330,
      "▁collections": 8331,
      "##ado": 8332,
      "##chup": 8333,
      "▁men": 8334,
      "▁errors": 8335,
      "##urt": 8336,
      "▁quartiles": 8337,
      "▁sto": 8338,
      "##port": 8339,
      "▁deadline": 8340,
      "▁encompasses": 8341,
      "▁kittens": 8342,
      "▁hea": 8343,
      "▁passed": 8344,
      "▁therapy": 8345,
      "▁formal": 8346,
      "##hes": 8347,
      "▁developers": 8348,
      "▁defendants": 8349,
      "▁allowance": 8350,
      "▁despit": 8351,
      "▁waning": 8352,
      "▁israeli": 8353,
      "▁wiped": 8354,
      "##iver": 8355,
      "▁sculpt": 8356,
      "##ticoat": 8357,
      "▁billi": 8358,
      "▁tush": 8359,
      "##awing": 8360,
      "##.x": 8361,
      "##isted": 8362,
      "▁attain": 8363,
      "##lihood": 8364,
      "▁describe": 8365,
      "▁calls": 8366,
      "##iff": 8367,
      "▁walking": 8368,
      "▁george": 8369,
      "##raf": 8370,
      "##amas": 8371,
      "▁humanities": 8372,
      "▁squee": 8373,
      "▁!!!!!!!!!!!!!!!!!!!": 8374,
      "▁sections": 8375,
      "▁shakespeare": 8376,
      "▁da": 8377,
      "##onna": 8378,
      "▁imbalances": 8379,
      "▁barret": 8380,
      "▁fortune": 8381,
      "▁flatten": 8382,
      "##rophy": 8383,
      "e": 8384,
      "▁sect": 8385,
      "##mm": 8386,
      "▁quan": 8387,
      "▁borrow": 8388,
      "▁vers": 8389,
      "▁laid": 8390,
      "##ocating": 8391,
      "▁tro": 8392,
      "▁troub": 8393,
      "▁settled": 8394,
      "▁knows": 8395,
      "▁alongside": 8396,
      "▁card": 8397,
      "##s.": 8398,
      "##.html": 8399,
      "▁varieties": 8400,
      "##leration": 8401,
      "▁insist": 8402,
      "▁hear": 8403,
      "▁lust": 8404,
      "▁influx": 8405,
      "▁coat": 8406,
      "▁suffer": 8407,
      "▁misfort": 8408,
      "▁wasp": 8409,
      "▁red": 8410,
      "▁targ": 8411,
      "##ationed": 8412,
      "▁bars": 8413,
      "##erco": 8414,
      "▁smeared": 8415,
      "▁survey": 8416,
      "▁ceo": 8417,
      "▁provoking": 8418,
      "▁leggings": 8419,
      "▁undergo": 8420,
      "▁bitsy": 8421,
      "▁back": 8422,
      "▁projected": 8423,
      "▁adopted": 8424,
      "▁boing": 8425,
      "##aughter": 8426,
      "▁theories": 8427,
      "▁imbalance": 8428,
      "##tiff": 8429,
      "▁blinked": 8430,
      "▁tour": 8431,
      "▁hairs": 8432,
      "▁ro": 8433,
      "▁tw": 8434,
      "▁sticks": 8435,
      "##aks": 8436,
      "##elling": 8437,
      "▁antip": 8438,
      "▁forg": 8439,
      "##pres": 8440,
      "▁tup": 8441,
      "▁stirrups": 8442,
      "▁-------------------------------------------------": 8443,
      "▁repaid": 8444,
      "▁scuba": 8445,
      "▁signoff": 8446,
      "▁whit": 8447,
      "##inted": 8448,
      "▁n": 8449,
      "▁return": 8450,
      "▁key": 8451,
      "▁manager": 8452,
      "▁married": 8453,
      "▁jewelry": 8454,
      "##izing": 8455,
      "▁bubble": 8456,
      "##light": 8457,
      "▁momma": 8458,
      "▁studying": 8459,
      "##dles": 8460,
      "▁biz": 8461,
      "▁mapping": 8462,
      "▁compl": 8463,
      "##ssi": 8464,
      "▁gaining": 8465,
      "▁treating": 8466,
      "▁soared": 8467,
      "▁que": 8468,
      "##gets": 8469,
      "▁tries": 8470,
      "▁matching": 8471,
      "▁credit": 8472,
      "▁zeitge": 8473,
      "▁swirling": 8474,
      "##...": 8475,
      "▁creation": 8476,
      "▁rbi": 8477,
      "▁baked": 8478,
      "▁organisation": 8479,
      "▁unicorn": 8480,
      "##ome": 8481,
      "▁fist": 8482,
      "▁malaria": 8483,
      "▁artworks": 8484,
      "▁surgeons": 8485,
      "▁progress": 8486,
      "▁economy": 8487,
      "³": 8488,
      "▁comparing": 8489,
      "▁spilt": 8490,
      "▁etc": 8491,
      "##7": 8492,
      "##portun": 8493,
      "▁interp": 8494,
      "##atibility": 8495,
      "##itled": 8496,
      "▁tds": 8497,
      "▁query": 8498,
      "▁savages": 8499,
      "▁own": 8500,
      "▁argument": 8501,
      "▁day": 8502,
      "▁princess": 8503,
      "▁spirited": 8504,
      "▁vi": 8505,
      "▁famili": 8506,
      "▁potty": 8507,
      "▁main": 8508,
      "▁underlying": 8509,
      "##mic": 8510,
      "##eeled": 8511,
      "▁capital": 8512,
      "▁swallowed": 8513,
      "▁almost": 8514,
      "▁necklace": 8515,
      "▁rudeness": 8516,
      "▁twin": 8517,
      "▁adjustments": 8518,
      "▁onion": 8519,
      "▁scramb": 8520,
      "##ɑ": 8521,
      "▁mineral": 8522,
      "▁occurrence": 8523,
      "p": 8524,
      "▁impeachment": 8525,
      "##istan": 8526,
      "▁ramp": 8527,
      "##osure": 8528,
      "▁mommy": 8529,
      "▁gambling": 8530,
      "▁drew": 8531,
      "##s": 8532,
      "▁approved": 8533,
      "▁community": 8534,
      "▁emotion": 8535,
      "##ecution": 8536,
      "▁shelves": 8537,
      "▁muss": 8538,
      "▁regar": 8539,
      "▁mezza": 8540,
      "▁resistance": 8541,
      "▁manipulate": 8542,
      "▁reign": 8543,
      "▁fireplaces": 8544,
      "▁caboose": 8545,
      "##inal": 8546,
      "▁ar": 8547,
      "▁restrict": 8548,
      "▁colored": 8549,
      "▁dog": 8550,
      "##unity": 8551,
      "##ophobia": 8552,
      "▁compiling": 8553,
      "##tain": 8554,
      "▁yep": 8555,
      "▁ball": 8556,
      "##anish": 8557,
      "▁realize": 8558,
      "▁communic": 8559,
      "▁muffin": 8560,
      "▁orangut": 8561,
      "##89": 8562,
      "▁styrof": 8563,
      "▁european": 8564,
      "▁overalls": 8565,
      "▁slime": 8566,
      "▁lover": 8567,
      "▁facilities": 8568,
      "▁htt": 8569,
      "▁stays": 8570,
      "▁horr": 8571,
      "▁carbon": 8572,
      "▁hyd": 8573,
      "▁banj": 8574,
      "##dress": 8575,
      "▁buc": 8576,
      "▁buyers": 8577,
      "▁mathematicians": 8578,
      "▁celebration": 8579,
      "▁push": 8580,
      "▁grasp": 8581,
      "##uz": 8582,
      "▁miles": 8583,
      "▁pajamas": 8584,
      "▁guest": 8585,
      "▁cough": 8586,
[...]
