{
  "version": "1.0",
  "truncation": null,
  "padding": null,
  "added_tokens": [
    {
      "id": 1305,
      "content": "[SEP]",
      "single_word": false,
      "lstrip": false,
      "rstrip": false,
      "normalized": false,
      "special": true
    },
    {
      "id": 2147,
      "content": "[MASK]",
      "single_word": false,
      "lstrip": false,
      "rstrip": false,
      "normalized": false,
      "special": true
    },
    {
      "id": 3182,
      "content": "[UNK]",
      "single_word": false,
      "lstrip": false,
      "rstrip": false,
      "normalized": false,
      "special": true
    },
    {
      "id": 4398,
      "content": "[PAD]",
      "single_word": false,
      "lstrip": false,
      "rstrip": false,
      "normalized": false,
      "special": true
    },
    {
      "id": 5181,
      "content": "[CLS]",
      "single_word": false,
      "lstrip": false,
      "rstrip": false,
      "normalized": false,
      "special": true
    }
  ],
  "normalizer": {
    "type": "Sequence",
    "normalizers": [
      {
        "type": "NFD"
      },
      {
        "type": "Lowercase"
      },
      {
        "type": "StripAccents"
      }
    ]
  },
  "pre_tokenizer": {
    "type": "Sequence",
    "pretokenizers": [
      {
        "type": "Metaspace",
        "replacement": "▁",
        "prepend_scheme": "always",
        "split": true
      }
    ]
  },
  "post_processor": {
    "type": "TemplateProcessing",
    "single": [
      {
        "SpecialToken": {
          "id": "[CLS]",
          "type_id": 0
        }
      },
      {
        "Sequence": {
          "id": "A",
          "type_id": 0
        }
      },
      {
        "SpecialToken": {
          "id": "[SEP]",
          "type_id": 0
        }
      }
    ],
    "pair": [
      {
        "SpecialToken": {
          "id": "[CLS]",
          "type_id": 0
        }
      },
      {
        "Sequence": {
          "id": "A",
          "type_id": 0
        }
      },
      {
        "SpecialToken": {
          "id": "[SEP]",
          "type_id": 0
        }
      },
      {
        "Sequence": {
          "id": "B",
          "type_id": 1
        }
      },
      {
        "SpecialToken": {
          "id": "[SEP]",
          "type_id": 1
        }
      }
    ],
    "special_tokens": {
      "[CLS]": {
        "id": "[CLS]",
        "ids": [
          5181
        ],
        "tokens": [
          "[CLS]"
        ]
      },
      "[SEP]": {
        "id": "[SEP]",
        "ids": [
          1305
        ],
        "tokens": [
          "[SEP]"
        ]
      }
    }
  },
  "decoder": {
    "type": "Metaspace",
    "replacement": "▁",
    "prepend_scheme": "always",
    "split": true
  },
  "model": {
    "type": "WordPiece",
    "unk_token": "[UNK]",
    "continuing_subword_prefix": "##",
    "max_input_chars_per_word": 100,
    "vocab": {
      "##ternoon": 0,
      "▁prefer": 1,
      "▁benef": 2,
      "▁dish": 3,
      "▁moved": 4,
      "##ulture": 5,
      "▁grapes": 6,
      "##utes": 7,
      "▁particles": 8,
      "##bit": 9,
      "▁agreement": 10,
      "▁winds": 11,
      "##chie": 12,
      "▁abilities": 13,
      "▁spears": 14,
      "▁california": 15,
      "##liance": 16,
      "##rec": 17,
      "▁introduce": 18,
      "▁violation": 19,
      "▁hav": 20,
      "##ory": 21,
      "##ented": 22,
      "▁telling": 23,
      "▁dinos": 24,
      "▁afford": 25,
      "▁stol": 26,
      "▁bec": 27,
      "▁knoc": 28,
      "▁printed": 29,
      "▁p.m.": 30,
      "▁camp": 31,
      "##ah": 32,
      "▁ext": 33,
      "▁roman": 34,
      "▁sometime": 35,
      "▁horsie": 36,
      "▁wildlife": 37,
      "##ract": 38,
      "▁spl": 39,
      "▁suppl": 40,
      "▁everybody": 41,
      "##ean": 42,
      "▁abandoned": 43,
      "▁penc": 44,
      "g": 45,
      "##ure": 46,
      "##way": 47,
      "##be": 48,
      "▁aim": 49,
      "▁headquarters": 50,
      "##tain": 51,
      "▁relig": 52,
      "▁structures": 53,
      "##self": 54,
      "▁author": 55,
      "##!!": 56,
      "##ground": 57,
      "▁raised": 58,
      "##93": 59,
      "▁acted": 60,
      "▁happens": 61,
      "▁plaster": 62,
      "▁elephant": 63,
      "▁francisco": 64,
      "##ł": 65,
      "▁walk": 66,
      "▁report": 67,
      "##ams": 68,
      "##eted": 69,
      "##ket": 70,
      "##fore": 71,
      "▁saving": 72,
      "##io": 73,
      "##ption": 74,
      "▁unc": 75,
      "▁secret": 76,
      "▁apartment": 77,
      "##ady": 78,
      "▁fash": 79,
      "▁types": 80,
      "▁seal": 81,
      "▁di": 82,
      "▁filled": 83,
      "▁manuf": 84,
      "##}": 85,
      "▁trip": 86,
      "▁cruise": 87,
      "▁pun": 88,
      "▁entity": 89,
      "▁bearing": 90,
      "▁updates": 91,
      "▁paper": 92,
      "##ged": 93,
      "##onto": 94,
      "▁fungi": 95,
      "##the": 96,
      "##lications": 97,
      "##eled": 98,
      "▁fill": 99,
      "##ours": 100,
      "▁socks": 101,
      "▁arrested": 102,
      "##light": 103,
      "##tician": 104,
      "▁populations": 105,
      "##----------": 106,
      "▁search": 107,
      "▁soap": 108,
      "##rier": 109,
      "▁lim": 110,
      "##ised": 111,
      "▁chips": 112,
      "▁repe": 113,
      "▁vot": 114,
      "▁mess": 115,
      "▁indicated": 116,
      "▁this": 117,
      "▁injury": 118,
      "▁lan": 119,
      "▁explo": 120,
      "▁elements": 121,
      "▁formed": 122,
      "▁leash": 123,
      "▁driver": 124,
      "▁update": 125,
      "▁attempting": 126,
      "▁e": 127,
      "▁adopted": 128,
      "▁&amp;": 129,
      "▁intercon": 130,
      "▁buildings": 131,
      "##ab": 132,
      "▁americ": 133,
      "##ile": 134,
      "##ener": 135,
      "▁fly": 136,
      "▁york": 137,
      "▁sl": 138,
      "▁candle": 139,
      "##anks": 140,
      "▁trading": 141,
      "##aroni": 142,
      "▁sle": 143,
      "▁call": 144,
      "▁tragedy": 145,
      "▁apart": 146,
      "▁united": 147,
      "▁tampa": 148,
      "##yone": 149,
      "▁head": 150,
      "▁wom": 151,
      "▁writing": 152,
      "▁seed": 153,
      "##eas": 154,
      "▁beneath": 155,
      "▁treatment": 156,
      "##ances": 157,
      "##owers": 158,
      "▁peoples": 159,
      "▁incident": 160,
      "##iece": 161,
      "▁around": 162,
      "▁limited": 163,
      "▁dro": 164,
      "▁monaster": 165,
      "▁accord": 166,
      "##ickness": 167,
      "##==": 168,
      "▁licensor": 169,
      "▁opposed": 170,
      "▁habit": 171,
      "##val": 172,
      "▁listing": 173,
      "##olves": 174,
      "▁den": 175,
      "▁pud": 176,
      "##encies": 177,
      "▁discip": 178,
      "▁outside": 179,
      "▁added": 180,
      "##tise": 181,
      "##key": 182,
      "▁regulations": 183,
      "▁experts": 184,
      "▁counterfe": 185,
      "##ww": 186,
      "▁started": 187,
      "▁then": 188,
      "▁beard": 189,
      "▁notic": 190,
      "▁islands": 191,
      "▁ep": 192,
      "##pre": 193,
      "▁library": 194,
      "▁bother": 195,
      "▁marry": 196,
      "▁describing": 197,
      "▁infrastruc": 198,
      "▁|--------+----------------": 199,
      "▁connecting": 200,
      "▁existence": 201,
      "▁way": 202,
      "▁breath": 203,
      "▁nations": 204,
      "▁troops": 205,
      "▁keeping": 206,
      "▁walked": 207,
      "##ply": 208,
      "▁swa": 209,
      "▁skin": 210,
      "##derst": 211,
      "▁requires": 212,
      "▁ens": 213,
      "▁unit": 214,
      "##acket": 215,
      "▁black": 216,
      "##elf": 217,
      "▁sty": 218,
      "▁challenges": 219,
      "▁aw": 220,
      "##fish": 221,
      "▁tank": 222,
      "▁acknowled": 223,
      "▁especially": 224,
      "▁bath": 225,
      "▁elev": 226,
      "▁holiday": 227,
      "▁captain": 228,
      "▁contains": 229,
      "▁adds": 230,
      "▁slipped": 231,
      "▁arrive": 232,
      "▁purchase": 233,
      "▁non": 234,
      "▁shut": 235,
      "▁investigation": 236,
      "##tered": 237,
      "##uropean": 238,
      "▁duties": 239,
      "##lly": 240,
      "##ack": 241,
      "▁girls": 242,
      "##ast": 243,
      "##iting": 244,
      "▁junk": 245,
      "ε": 246,
      "▁rum": 247,
      "##zac": 248,
      "##or": 249,
      "##gs": 250,
      "##ty": 251,
      "▁!!!!!!!!!!!": 252,
      "▁anybody": 253,
      "##ackers": 254,
      "##-d": 255,
      "▁coord": 256,
      "##ceed": 257,
      "▁requi": 258,
      "▁shel": 259,
      "▁bottle": 260,
      "ν": 261,
      "▁ic": 262,
      "##aches": 263,
      "▁garbage": 264,
      "▁state": 265,
      "c": 266,
      "▁spaces": 267,
      "▁building": 268,
      "▁rolling": 269,
      "##eign": 270,
      "▁scr": 271,
      "##????????": 272,
      "▁guarant": 273,
      "▁under": 274,
      "▁police": 275,
      "▁bars": 276,
      "▁submitted": 277,
      "▁lik": 278,
      "▁thanks": 279,
      "▁saturday": 280,
      "▁generations": 281,
      "▁ba": 282,
      "▁difficul": 283,
      "▁stood": 284,
      "▁flavor": 285,
      "▁adv": 286,
      "8": 287,
      "▁cer": 288,
      "##ur": 289,
      "##ees": 290,
      "▁mor": 291,
      "▁peanut": 292,
      "▁exploration": 293,
      "##ial": 294,
      "▁improved": 295,
      "▁bits": 296,
      "##ada": 297,
      "▁goals": 298,
      "▁contin": 299,
      "▁customer": 300,
      "▁hearts": 301,
      "▁monitor": 302,
      "##heet": 303,
      "##ub": 304,
      "▁demonstrated": 305,
      "▁leaders": 306,
      "##.com/": 307,
      "▁achieve": 308,
      "##ag": 309,
      "▁grammar": 310,
      "##ories": 311,
      "▁hi": 312,
      "##zen": 313,
      "5": 314,
      "▁exchang": 315,
      "▁riding": 316,
      "##izes": 317,
      "▁bi": 318,
      "##$$": 319,
      "▁manner": 320,
      "▁sad": 321,
      "▁cabbage": 322,
      "▁bed": 323,
      "▁advance": 324,
      "▁mixture": 325,
      "##lets": 326,
      "▁happ": 327,
      "▁corp": 328,
      "▁like": 329,
      "##inn": 330,
      "▁u.s.": 331,
      "##aks": 332,
      "##acles": 333,
      "▁referred": 334,
      "▁muscle": 335,
      "▁laugh": 336,
      "▁lo": 337,
      "▁fle": 338,
      "▁ess": 339,
      "##uted": 340,
      "▁tast": 341,
      "▁los": 342,
      "▁'": 343,
      "▁frame": 344,
      "##d": 345,
      "▁cabin": 346,
      "▁syn": 347,
      "▁farmer": 348,
      "##erated": 349,
      "▁en": 350,
      "##eel": 351,
      "▁passengers": 352,
      "▁pot": 353,
      "▁street": 354,
      "▁staff": 355,
      "##ʒ": 356,
      "▁topic": 357,
      "##ept": 358,
      "▁quoted": 359,
      "##ording": 360,
      "▁prov": 361,
      ":": 362,
      "▁meth": 363,
      "▁miam": 364,
      "▁fault": 365,
      "▁return": 366,
      "▁underneath": 367,
      "##ven": 368,
      "▁capital": 369,
      "▁analys": 370,
      "▁appreciated": 371,
      "##igr": 372,
      "▁figured": 373,
      "▁fishing": 374,
      "▁sp": 375,
      "##emb": 376,
      "▁arab": 377,
      "▁comment": 378,
      "##gets": 379,
      "▁satellite": 380,
      "##airs": 381,
      "▁see": 382,
      "▁images": 383,
      "▁lil": 384,
      "##eros": 385,
      "##chen": 386,
      "▁tickle": 387,
      "!": 388,
      "▁suggesting": 389,
      "▁predators": 390,
      "▁passage": 391,
      "▁pay": 392,
      "…": 393,
      "▁uti": 394,
      "▁sym": 395,
      "##wor": 396,
      "▁certificate": 397,
      "▁contributions": 398,
      "▁excuse": 399,
      "##less": 400,
      "▁inside": 401,
      "##;": 402,
      "##astic": 403,
      "▁whole": 404,
      "▁coffee": 405,
      "▁declaration": 406,
      "▁provide": 407,
      "▁times": 408,
      "▁bur": 409,
      "▁levels": 410,
      "▁crowd": 411,
      "▁drew": 412,
      "▁promoting": 413,
      "▁tem": 414,
      "▁oak": 415,
      "▁piano": 416,
      "##oo": 417,
      "##ular": 418,
      "+": 419,
      "▁diet": 420,
      "▁ro": 421,
      "▁snitch": 422,
      "▁wealth": 423,
      "▁practices": 424,
      "##ency": 425,
      "▁airlines": 426,
      "▁fem": 427,
      "▁dose": 428,
      "▁falling": 429,
      "##ected": 430,
      "▁pa": 431,
      "▁energy": 432,
      "▁copyright": 433,
      "▁early": 434,
      "▁pref": 435,
      "▁maintaining": 436,
      "▁inflation": 437,
      "##ner": 438,
      "▁bow": 439,
      "▁quickly": 440,
      "▁cafe": 441,
      "▁etc": 442,
      "▁filed": 443,
      "▁actress": 444,
      "▁quan": 445,
      "▁attached": 446,
      "##ti": 447,
      "##ideration": 448,
      "##½": 449,
      "##pe": 450,
      "▁lines": 451,
      "▁hell": 452,
      "##ually": 453,
      "▁chang": 454,
      "▁fixed": 455,
      "##iqu": 456,
      "##tim": 457,
      "▁or": 458,
      "▁began": 459,
      "##ribution": 460,
      "▁wondering": 461,
      "▁principles": 462,
      "▁dealt": 463,
      "▁stayed": 464,
      "▁meal": 465,
      "▁total": 466,
      "▁kid": 467,
      "▁switched": 468,
      "##inded": 469,
      "▁inqu": 470,
      "▁young": 471,
      "##oting": 472,
      "▁recogn": 473,
      "▁cognition": 474,
      "▁options": 475,
      "##ə": 476,
      "▁definition": 477,
      "##isco": 478,
      "##o": 479,
      "##ik": 480,
      "##ught": 481,
      "▁watching": 482,
      "▁atlanta": 483,
      "▁initial": 484,
      "▁fung": 485,
      "▁restaur": 486,
      "##itions": 487,
      "▁electric": 488,
      "▁fallen": 489,
      "▁notebook": 490,
      "▁theater": 491,
      "##inc": 492,
      "▁belie": 493,
      "▁claiming": 494,
      "▁amendments": 495,
      "▁appearance": 496,
      "##­": 497,
      "▁initiatives": 498,
      "▁pivottable": 499,
      "▁rope": 500,
      "▁interconnect": 501,
      "##ancing": 502,
      "@": 503,
      "▁underm": 504,
      "▁airports": 505,
      "▁shorts": 506,
      "▁las": 507,
      "▁driven": 508,
      "▁engine": 509,
      "▁seattle": 510,
      "▁spot": 511,
      "▁nav": 512,
      "##ticians": 513,
      "##ather": 514,
      "▁smell": 515,
      "##ond": 516,
      "▁removed": 517,
      "▁truck": 518,
      "▁green": 519,
      "▁wiggle": 520,
      "##fact": 521,
      "▁witn": 522,
      "##stances": 523,
      "▁copied": 524,
      "▁foreigners": 525,
      "▁best": 526,
      "▁adop": 527,
      "▁rais": 528,
      "▁sold": 529,
      "▁sou": 530,
      "▁plans": 531,
      "▁threat": 532,
      "▁w/": 533,
      "▁facilitate": 534,
      "▁refriger": 535,
      "▁mechanics": 536,
      "▁needs": 537,
      "▁asylum": 538,
      "▁ti": 539,
      "▁link": 540,
      "▁arrangement": 541,
      "▁lord": 542,
      "6": 543,
      "##iration": 544,
      "##ft": 545,
      "▁influenced": 546,
      "##ashington": 547,
      "▁somewhere": 548,
      "▁pit": 549,
      "▁quit": 550,
      "▁budget": 551,
      "▁crossed": 552,
      "▁before": 553,
      "▁interested": 554,
      "▁l2": 555,
      "##ves": 556,
      "##rif": 557,
      "▁dance": 558,
      "##s": 559,
      "▁sector": 560,
      "▁recipe": 561,
      "▁ducks": 562,
      "##oli": 563,
      "▁rags": 564,
      "##ledge": 565,
      "▁hair": 566,
      "▁apar": 567,
      "##knowled": 568,
      "▁planning": 569,
      "▁arguments": 570,
      "##+": 571,
      "##gether": 572,
      "▁politicians": 573,
      "▁causing": 574,
      "▁must": 575,
      "▁capture": 576,
      "▁control": 577,
      "▁language": 578,
      "##ered": 579,
      "##aces": 580,
      "##ization": 581,
      "▁airlin": 582,
      "▁example": 583,
      "##bb": 584,
      "▁cultures": 585,
      "▁descri": 586,
      "##rael": 587,
      "##tivity": 588,
      "##el": 589,
      "▁alt.": 590,
      "▁walls": 591,
      "▁imprisoned": 592,
      "▁scam": 593,
      "▁esc": 594,
      "##og": 595,
      "▁d'": 596,
      "▁donkey": 597,
      "▁values": 598,
      "▁dr": 599,
      "▁solution": 600,
      "▁any": 601,
      "▁effort": 602,
      "▁welf": 603,
      "##ke": 604,
      "▁giraffe": 605,
      "▁interview": 606,
      "##r.": 607,
      "▁deficiency": 608,
      "##nly": 609,
      "▁worn": 610,
      "##tives": 611,
      "▁inj": 612,
      "##na": 613,
      "▁jus": 614,
      "##itch": 615,
      "▁attributed": 616,
      "▁ar": 617,
      "▁economic": 618,
      "▁pil": 619,
      "▁temp": 620,
      "▁asked": 621,
      "##ingly": 622,
      "▁provision": 623,
      "▁ought": 624,
      "▁matter": 625,
      "▁throwing": 626,
      "▁contract": 627,
      "▁light": 628,
      "##areness": 629,
      "▁died": 630,
      "▁movement": 631,
      "▁subscri": 632,
      "▁mean": 633,
      "▁ec": 634,
      "##ults": 635,
      "▁educ": 636,
      "##cross": 637,
      "##ography": 638,
      "##rigu": 639,
      "▁starts": 640,
      "▁declare": 641,
      "▁fr": 642,
      "##anding": 643,
      "##aint": 644,
      "▁win": 645,
      "▁cups": 646,
      "##aq": 647,
      "▁houston": 648,
      "▁woman": 649,
      "▁(": 650,
      "##con": 651,
      "▁doll": 652,
      "##mented": 653,
      "▁sti": 654,
      "▁disappeared": 655,
      "##force": 656,
      "##ership": 657,
      "▁watched": 658,
      "▁oven": 659,
      "▁harmonisation": 660,
      "▁hot": 661,
      "▁dry": 662,
      "##cience": 663,
      "▁victory": 664,
      "##omination": 665,
      "[": 666,
      "▁doc": 667,
      "▁trends": 668,
      "▁succeed": 669,
      "▁he": 670,
      "▁inviting": 671,
      "##minated": 672,
      "▁sa": 673,
      "##umb": 674,
      "▁occur": 675,
      "##eal": 676,
      "▁lick": 677,
      "▁horror": 678,
      "▁sss": 679,
      "##c": 680,
      "▁category": 681,
      "▁end": 682,
      "▁doctors": 683,
      "▁gives": 684,
      "▁wizard": 685,
      "▁booked": 686,
      "▁sharing": 687,
      "##tis": 688,
      "▁continues": 689,
      "▁laun": 690,
      "ʒ": 691,
      "▁congrat": 692,
      "▁behin": 693,
      "▁industries": 694,
      "▁effects": 695,
      "▁garb": 696,
      "▁prin": 697,
      "▁spirit": 698,
      "▁vehicle": 699,
      "▁ensuring": 700,
      "##inger": 701,
      "##lf": 702,
      "##tc": 703,
      "#": 704,
      "▁wind": 705,
      "##1": 706,
      "##ri": 707,
      "▁stand": 708,
      "▁photo": 709,
      "▁stepped": 710,
      "▁personality": 711,
      "▁soy": 712,
      "▁stir": 713,
      "##pt": 714,
      "▁date": 715,
      "##______": 716,
      "▁headed": 717,
      "▁examining": 718,
      "##tingu": 719,
      "▁tuesday": 720,
      "▁mutation": 721,
      "##itled": 722,
      "▁is": 723,
      "▁extre": 724,
      "##war": 725,
      "▁rain": 726,
      "##±": 727,
      "▁inquiry": 728,
      "##usion": 729,
      "##erate": 730,
      "▁alt": 731,
      "##lik": 732,
      "▁reduction": 733,
      "▁offers": 734,
      "##ugged": 735,
      "▁...................": 736,
      "▁wel": 737,
      "▁separ": 738,
      "▁200": 739,
      "##irst": 740,
      "▁yellow": 741,
      "▁consider": 742,
      "▁year": 743,
      "▁toys": 744,
      "▁diaper": 745,
      "▁laur": 746,
      "▁disease": 747,
      "▁rush": 748,
      "▁colleagues": 749,
      "▁qu": 750,
      "▁accomplish": 751,
      "##sually": 752,
      "▁kids": 753,
      ">": 754,
      "]": 755,
      "▁info": 756,
      "▁phenomen": 757,
      "▁strong": 758,
      "▁o'clock": 759,
      "▁finding": 760,
      "▁flying": 761,
      "▁image": 762,
      "▁distingu": 763,
      "▁dinosaur": 764,
      "##ound": 765,
      "##pped": 766,
      "▁ants": 767,
      "▁traveling": 768,
      "▁acts": 769,
      "▁,?": 770,
      "▁something": 771,
      "##ran": 772,
      "▁drop": 773,
      "▁turns": 774,
      "##ounts": 775,
      "▁sectors": 776,
      "▁perhaps": 777,
      "▁ta": 778,
      "▁mist": 779,
      "▁shame": 780,
      "▁youn": 781,
      "▁locom": 782,
      "▁=": 783,
      "▁puts": 784,
      "▁his": 785,
      "▁sticks": 786,
      "▁r": 787,
      "a": 788,
      "▁sugar": 789,
      "▁shirt": 790,
      "##arm": 791,
      "▁garage": 792,
      "▁sunsh": 793,
      "▁fa": 794,
      "▁means": 795,
      "##orders": 796,
      "▁authority": 797,
      "▁marsh": 798,
      "▁breakf": 799,
      "##veland": 800,
      "▁hammer": 801,
      "##olog": 802,
      "##formed": 803,
      "▁broken": 804,
      "▁penalty": 805,
      "▁background": 806,
      "▁launch": 807,
      "▁toast": 808,
      "##eav": 809,
      "▁boats": 810,
      "▁viol": 811,
      "▁national": 812,
      "▁will": 813,
      "▁rank": 814,
      "▁distribution": 815,
      "##!!!": 816,
      "▁capac": 817,
      "▁advis": 818,
      "▁suggested": 819,
      "▁versus": 820,
      "▁independ": 821,
      "▁response": 822,
      "▁read": 823,
      "▁fact": 824,
      "▁soul": 825,
      "▁facil": 826,
      "##eds": 827,
      "▁share": 828,
      "▁moment": 829,
      "##fort": 830,
      "▁lose": 831,
      "▁licen": 832,
      "▁bandaid": 833,
      "##ete": 834,
      "▁towards": 835,
      "##jo": 836,
      "##ail": 837,
      "▁lunch": 838,
      "▁blame": 839,
      "##rested": 840,
      "##ol": 841,
      "##ines": 842,
      "▁undertake": 843,
      "##ments": 844,
      "▁establishment": 845,
      "▁asking": 846,
      "▁crackers": 847,
      "##oun": 848,
      "##iron": 849,
      "▁nove": 850,
      "▁dol": 851,
      "▁believe": 852,
      "▁represents": 853,
      "▁concern": 854,
      "##aws": 855,
      "▁given": 856,
      "##ike": 857,
      "▁pub": 858,
      "▁lip": 859,
      "▁difficulties": 860,
      "▁mummy": 861,
      "▁liquid": 862,
      "▁showed": 863,
      "▁suffered": 864,
      "▁intervening": 865,
      "##enience": 866,
      "▁christ": 867,
      "▁many": 868,
      "##in": 869,
      "##ific": 870,
      "##ck": 871,
      "▁gift": 872,
      "▁boots": 873,
      "▁gum": 874,
      "▁basketball": 875,
      "▁hidden": 876,
      "##ower": 877,
      "▁laundry": 878,
      "▁provisions": 879,
      "▁rin": 880,
      "▁vehicles": 881,
      "▁=---": 882,
      "▁death": 883,
      "##are": 884,
      "▁canc": 885,
      "##room": 886,
      "▁airplane": 887,
      "▁-----------------------------------------------------------------": 888,
      "▁contro": 889,
      "##ablish": 890,
      "##fare": 891,
      "##ida": 892,
      "▁resources": 893,
      "▁noted": 894,
      "▁soft": 895,
      "▁majority": 896,
      "▁packed": 897,
      "▁whil": 898,
      "##igg": 899,
      "##omm": 900,
      "##isms": 901,
      "##ow": 902,
      "##de": 903,
      "▁fu": 904,
      "##used": 905,
      "▁stret": 906,
      "▁identi": 907,
      "##tiles": 908,
      "##iety": 909,
      "##gry": 910,
      "▁poli": 911,
      "▁abs": 912,
      "▁frid": 913,
      "▁folio": 914,
      "▁company": 915,
      "▁hiking": 916,
      "▁processes": 917,
      "##aign": 918,
      "##ibility": 919,
      "▁supporters": 920,
      "##ans": 921,
      "▁curves": 922,
      "▁supporting": 923,
      "▁aboard": 924,
      "▁scribb": 925,
      "▁monster": 926,
      "▁expected": 927,
      "▁assume": 928,
      "▁tradition": 929,
      "▁belon": 930,
      "▁november": 931,
      "##----------------": 932,
      "##ild": 933,
      "##odes": 934,
      "▁now": 935,
      "▁cri": 936,
      "##astruc": 937,
      "▁guidance": 938,
      "▁critic": 939,
      "▁trunk": 940,
      "##esty": 941,
      "▁bunny": 942,
      "▁withdraw": 943,
      "##inging": 944,
      "▁ensure": 945,
      "##<": 946,
      "▁returning": 947,
      "▁according": 948,
      "▁surrounded": 949,
      "▁prev": 950,
      "▁affect": 951,
      "##hip": 952,
      "▁system": 953,
      "▁production": 954,
      "##ish": 955,
      "▁split": 956,
      "##port": 957,
      "##ousness": 958,
      "##tiv": 959,
      "▁tort": 960,
      "▁’": 961,
      "##ith": 962,
      "▁wheels": 963,
      "▁disapp": 964,
      "##gery": 965,
      "▁anim": 966,
      "▁negotiations": 967,
      "▁plate": 968,
      "▁adam": 969,
      "▁---=": 970,
      "▁tools": 971,
      "▁purch": 972,
      "▁increasing": 973,
      "▁indianapolis": 974,
      "▁barrel": 975,
      "▁august": 976,
      "▁airport": 977,
      "▁wik": 978,
      "##ked": 979,
      "##itical": 980,
      "##iled": 981,
      "▁dog": 982,
      "▁bicycle": 983,
      "▁war": 984,
      "_": 985,
      "▁attend": 986,
      "▁systems": 987,
      "##ral": 988,
      "▁cir": 989,
      "▁discount": 990,
      "▁provin": 991,
      "▁duel": 992,
      "▁administrator": 993,
      "▁description": 994,
      "##els": 995,
      "▁described": 996,
      "##avor": 997,
      "▁operation": 998,
      "▁knees": 999,
      "##enture": 1000,
      "▁herself": 1001,
      "▁!": 1002,
      "▁agents": 1003,
      "▁define": 1004,
      "▁dating": 1005,
      "▁prosperity": 1006,
      "▁chasing": 1007,
      "▁only": 1008,
      "▁beauty": 1009,
      "▁tooth": 1010,
      "##ouch": 1011,
      "▁benefit": 1012,
      "▁customers": 1013,
      "▁understood": 1014,
      "▁ignorance": 1015,
      "##ials": 1016,
      "▁dreamed": 1017,
      "##overn": 1018,
      "▁manager": 1019,
      "x": 1020,
      "▁adjust": 1021,
      "##ful": 1022,
      "▁names": 1023,
      "▁que": 1024,
      "▁instance": 1025,
      "▁fri": 1026,
      "v": 1027,
      "▁pancakes": 1028,
      "▁played": 1029,
      "▁parliament": 1030,
      "▁west": 1031,
      "##orted": 1032,
      "▁database": 1033,
      "▁politics": 1034,
      "##:/": 1035,
      "▁chess": 1036,
      "▁me": 1037,
      "▁down": 1038,
      "▁structure": 1039,
      "##enda": 1040,
      "▁closed": 1041,
      "▁click": 1042,
      "▁tube": 1043,
      "▁remaining": 1044,
      "▁drill": 1045,
      "##????????????????????????????????": 1046,
      "##gu": 1047,
      "▁cust": 1048,
      "▁flir": 1049,
      "▁schem": 1050,
      "▁radiation": 1051,
      "▁delta": 1052,
      "▁cart": 1053,
      "▁sound": 1054,
      "▁traged": 1055,
      "▁release": 1056,
      "▁bub": 1057,
      "▁grandma": 1058,
      "▁broad": 1059,
      "▁whom": 1060,
      "###": 1061,
      "##isl": 1062,
      "▁resist": 1063,
      "▁reaction": 1064,
      "##esday": 1065,
      "▁electricity": 1066,
      "▁shelf": 1067,
      "▁boyfriend": 1068,
      "▁pyr": 1069,
      "▁heard": 1070,
      "▁mind": 1071,
      "▁strike": 1072,
      "##ael": 1073,
      "▁valley": 1074,
      "▁surprise": 1075,
      "▁maybe": 1076,
      "▁texas": 1077,
      "▁commissioner": 1078,
      "▁cloth": 1079,
      "##aurs": 1080,
      "▁yelling": 1081,
      "▁responsibility": 1082,
      "##lit": 1083,
      "▁discussions": 1084,
      "##ures": 1085,
      "##corn": 1086,
      "▁done": 1087,
      "▁ver": 1088,
      "##gest": 1089,
      "▁fan": 1090,
      "▁mids": 1091,
      "##onstr": 1092,
      "▁student": 1093,
      "▁someone": 1094,
      "▁|": 1095,
      "##ages": 1096,
      "▁init": 1097,
      "▁avo": 1098,
      "▁sav": 1099,
      "▁supper": 1100,
      "▁reported": 1101,
      "##aping": 1102,
      "##ml": 1103,
      "▁current": 1104,
      "▁chart": 1105,
      "1": 1106,
      "▁significance": 1107,
      "##uments": 1108,
      "▁recr": 1109,
      "##ails": 1110,
      "▁rebuil": 1111,
      "##use": 1112,
      "▁eyes": 1113,
      "▁reflect": 1114,
      "▁fli": 1115,
      "▁nut": 1116,
      "▁counter": 1117,
      "▁sup": 1118,
      "▁mechan": 1119,
      "▁toward": 1120,
      "▁workforce": 1121,
      "▁communic": 1122,
      "▁ann": 1123,
      "▁road": 1124,
      "▁examined": 1125,
      "▁am": 1126,
      "▁defined": 1127,
      "▁imag": 1128,
      "▁when": 1129,
      "▁desp": 1130,
      "▁investig": 1131,
      "▁bott": 1132,
      "▁apol": 1133,
      "▁microphone": 1134,
      "▁handled": 1135,
      "▁ye": 1136,
      "▁cereal": 1137,
      "▁fin": 1138,
      "▁mum": 1139,
      "▁but": 1140,
      "▁cle": 1141,
      "##par": 1142,
      "##nel": 1143,
      "▁sides": 1144,
      "▁asp": 1145,
      "▁streets": 1146,
      "▁appointment": 1147,
      "##one": 1148,
      "ɑ": 1149,
      "##here": 1150,
      "▁cake": 1151,
      "▁organization": 1152,
      "##inu": 1153,
      "▁copy": 1154,
      "▁hams": 1155,
      "▁neither": 1156,
      "▁~": 1157,
      "##orities": 1158,
      "##ɔ": 1159,
      "▁revers": 1160,
      "▁manuscri": 1161,
      "▁message": 1162,
      "▁ey": 1163,
      "▁challenge": 1164,
      "##uma": 1165,
      "▁notw": 1166,
      "▁contacted": 1167,
      "##ibilities": 1168,
      "▁keeps": 1169,
      "▁governments": 1170,
      "##rap": 1171,
      "▁paintings": 1172,
      "##att": 1173,
      "▁ingred": 1174,
      "▁fing": 1175,
      "▁.........": 1176,
      "▁chall": 1177,
      "##mely": 1178,
      "▁evolved": 1179,
      "▁brass": 1180,
      "▁bugs": 1181,
      "▁allows": 1182,
      "▁seem": 1183,
      "▁++++": 1184,
      "▁hip": 1185,
      "▁horse": 1186,
      "▁waves": 1187,
      "▁july": 1188,
      "▁magaz": 1189,
      "▁recover": 1190,
      "▁yo": 1191,
      "▁staying": 1192,
      "▁reduc": 1193,
      "▁indust": 1194,
      "▁root": 1195,
      "▁neck": 1196,
      "²": 1197,
      "▁cage": 1198,
      "▁chapter": 1199,
      "▁celebr": 1200,
      "##oved": 1201,
      "##eep": 1202,
      "▁uh": 1203,
      "##ilize": 1204,
      "▁priority": 1205,
      "##ably": 1206,
      "▁tele": 1207,
      "▁jews": 1208,
      "##uts": 1209,
      "▁tre": 1210,
      "##ologists": 1211,
      "##ertainly": 1212,
      "▁centre": 1213,
      "▁avail": 1214,
      "▁giant": 1215,
      "▁vodka": 1216,
      "▁cent": 1217,
      "▁lamb": 1218,
      "▁construction": 1219,
      "▁rent": 1220,
      "▁storage": 1221,
      "▁cy": 1222,
      "▁sink": 1223,
      "##unch": 1224,
      "##nut": 1225,
      "##osite": 1226,
      "##ithst": 1227,
      "▁well": 1228,
      "▁gard": 1229,
      "▁quote": 1230,
      "▁journey": 1231,
      "##ocated": 1232,
      "▁hop": 1233,
      "▁po": 1234,
      "▁modified": 1235,
      "▁&": 1236,
      "##igned": 1237,
      "▁realize": 1238,
      "▁hal": 1239,
      "##emic": 1240,
      "▁adj": 1241,
      "▁oatme": 1242,
      "▁if": 1243,
      "▁******************************************************************": 1244,
      "▁enough": 1245,
      "##tr": 1246,
      "##**": 1247,
      "▁display": 1248,
      "▁finished": 1249,
      "▁steam": 1250,
      "▁b/": 1251,
      "##anim": 1252,
      "##gel": 1253,
      "▁discre": 1254,
      "▁jud": 1255,
      "▁water": 1256,
      "##ence": 1257,
      "▁rates": 1258,
      "▁weight": 1259,
      "▁sev": 1260,
      "▁mur": 1261,
      "▁plaintiff": 1262,
      "▁center": 1263,
      "▁....": 1264,
      "▁uv": 1265,
      "▁aud": 1266,
      "▁bread": 1267,
      "##affle": 1268,
      "▁ign": 1269,
      "##works": 1270,
      "▁wrest": 1271,
      "##ately": 1272,
      "▁disl": 1273,
      "##ge": 1274,
      "▁htt": 1275,
      "▁artists": 1276,
      "▁achie": 1277,
      "▁chat": 1278,
      "▁man": 1279,
      "▁innov": 1280,
      "▁acqui": 1281,
      "▁interact": 1282,
      "▁dese": 1283,
      "##ρ": 1284,
      "##osed": 1285,
      "▁properties": 1286,
      "##atis": 1287,
      "▁restrictions": 1288,
      "▁favor": 1289,
      "▁clin": 1290,
      "▁bell": 1291,
      "▁entering": 1292,
      "##bles": 1293,
      "▁rel": 1294,
      "##pse": 1295,
      "▁dreams": 1296,
      "▁initiative": 1297,
      "##d-": 1298,
      "▁aband": 1299,
      "##ural": 1300,
      "▁rate": 1301,
      "##ians": 1302,
      "▁except": 1303,
      "▁hobby": 1304,
      "[SEP]": 1305,
      "▁row": 1306,
      "▁besides": 1307,
      "▁mail": 1308,
      "▁seating": 1309,
      "▁gallon": 1310,
      "▁fab": 1311,
      "▁dal": 1312,
      "▁drugs": 1313,
      "▁syrup": 1314,
      "▁actors": 1315,
      "##oh": 1316,
      "##aling": 1317,
      "##eria": 1318,
      "▁meet": 1319,
      "▁certific": 1320,
      "▁writer": 1321,
      "▁promised": 1322,
      "▁weake": 1323,
      "▁pieces": 1324,
      "▁auth": 1325,
      "▁sc": 1326,
      "▁concerns": 1327,
      "▁somebody": 1328,
      "▁stage": 1329,
      "▁attr": 1330,
      "▁q": 1331,
      "##erent": 1332,
      "▁visits": 1333,
      "▁vod": 1334,
      "▁declined": 1335,
      "▁charl": 1336,
      "▁communication": 1337,
      "▁pho": 1338,
      "▁ahead": 1339,
      "▁health": 1340,
      "##aries": 1341,
      "▁beet": 1342,
      "▁lie": 1343,
      "▁___________": 1344,
      "▁distinction": 1345,
      "##au": 1346,
      "##lu": 1347,
      "##alf": 1348,
      "##ational": 1349,
      "##’": 1350,
      "▁ourselves": 1351,
      "▁pocket": 1352,
      "▁answered": 1353,
      "##oma": 1354,
      "▁muscles": 1355,
      ")": 1356,
      "▁application": 1357,
      "▁administ": 1358,
      "##esting": 1359,
      "▁pod": 1360,
      "▁rac": 1361,
      "▁exam": 1362,
      "##aining": 1363,
      "▁representation": 1364,
      "▁founder": 1365,
      "▁won": 1366,
      "##agraph": 1367,
      "▁balls": 1368,
      "##rop": 1369,
      "▁weekday": 1370,
      "##alu": 1371,
      "▁work": 1372,
      "##³": 1373,
      "▁cheese": 1374,
      "▁beside": 1375,
      "▁should": 1376,
      "▁del": 1377,
      "▁darkness": 1378,
      "▁1970s": 1379,
      "##no": 1380,
      "▁answers": 1381,
      "▁using": 1382,
      "##place": 1383,
      "##omp": 1384,
      "##hold": 1385,
      "▁impacts": 1386,
      "##com": 1387,
      "▁too": 1388,
      "▁stop": 1389,
      "▁ursula": 1390,
      "▁weekend": 1391,
      "▁o": 1392,
      "▁receives": 1393,
      "##se": 1394,
      "▁cycle": 1395,
      "▁°": 1396,
      "▁prem": 1397,
      "▁introduction": 1398,
      "##=----": 1399,
      "▁job": 1400,
      "▁proved": 1401,
      "##rog": 1402,
      "▁shoes": 1403,
      "▁cupcakes": 1404,
      "##mentation": 1405,
      "▁environments": 1406,
      "##inction": 1407,
      "##auce": 1408,
      "▁rob": 1409,
      "▁pony": 1410,
      "▁hasid": 1411,
      "▁supp": 1412,
      "▁ag": 1413,
      "##ows": 1414,
      "▁instr": 1415,
      "##duction": 1416,
      "##lus": 1417,
      "▁val": 1418,
      "##neath": 1419,
      "▁containers": 1420,
      "##ν": 1421,
      "▁timing": 1422,
      "▁subst": 1423,
      "▁encourage": 1424,
      "▁filtering": 1425,
      "##lled": 1426,
      "▁isda": 1427,
      "##iated": 1428,
      "▁persp": 1429,
      "▁leaves": 1430,
      "▁stretched": 1431,
      "▁spill": 1432,
      "##ative": 1433,
      "##ansas": 1434,
      "▁fligh": 1435,
      "▁safety": 1436,
      "##zing": 1437,
      "##inking": 1438,
      "▁attachment": 1439,
      "##ov": 1440,
      "▁judge": 1441,
      "▁chem": 1442,
      "▁museum": 1443,
      "##raw": 1444,
      "▁age": 1445,
      "▁back": 1446,
      "##amed": 1447,
      "▁required": 1448,
      "##ette": 1449,
      "##iff": 1450,
      "##gue": 1451,
      "▁fantasy": 1452,
      "▁kind": 1453,
      "▁principle": 1454,
      "▁mechanism": 1455,
      "▁breaking": 1456,
      "▁passing": 1457,
      "▁restric": 1458,
      "##ess": 1459,
      "▁expl": 1460,
      "##ater": 1461,
      "##h": 1462,
      "▁rice": 1463,
      "##ods": 1464,
      "▁form": 1465,
      "▁ears": 1466,
      "▁incorporated": 1467,
      "▁sol": 1468,
      "##ounded": 1469,
      "▁ties": 1470,
      "▁yourselves": 1471,
      "▁leaving": 1472,
      "▁mov": 1473,
      "▁sections": 1474,
      "▁shape": 1475,
      "▁establish": 1476,
      "▁ri": 1477,
      "##ips": 1478,
      "##ec": 1479,
      "##ares": 1480,
      "▁spread": 1481,
      "▁sci": 1482,
      "##ference": 1483,
      "▁determine": 1484,
      "##tes": 1485,
      "▁case": 1486,
      "▁lives": 1487,
      "##uter": 1488,
      "/": 1489,
      "##eti": 1490,
      "▁cooked": 1491,
      "½": 1492,
      "▁identified": 1493,
      "▁libr": 1494,
      "##co": 1495,
      "▁scar": 1496,
      "##lights": 1497,
      "##itation": 1498,
      "##enance": 1499,
      "▁rec": 1500,
      "##ighb": 1501,
      "▁practice": 1502,
      "##keep": 1503,
      "##resent": 1504,
      "▁frozen": 1505,
      "▁half": 1506,
      "▁astride": 1507,
      "▁individ": 1508,
      "▁develop": 1509,
      "##vening": 1510,
      "▁mel": 1511,
      "##uro": 1512,
      "▁cages": 1513,
      "▁ind": 1514,
      "▁conse": 1515,
      "▁gd": 1516,
      "▁uses": 1517,
      "▁imple": 1518,
      "▁distric": 1519,
      "##iction": 1520,
      "▁arrival": 1521,
      "▁audit": 1522,
      "▁advised": 1523,
      "▁terror": 1524,
      "▁knife": 1525,
      "▁india": 1526,
      "##enced": 1527,
      "▁designed": 1528,
      "##ir": 1529,
      "▁cl": 1530,
      "▁lettuce": 1531,
      "##nec": 1532,
      "▁exists": 1533,
      "##nt": 1534,
      "▁hus": 1535,
      "▁addiction": 1536,
      "▁emergency": 1537,
      "▁forehead": 1538,
      "##aly": 1539,
      "▁recommend": 1540,
      "▁managed": 1541,
      "▁honey": 1542,
      "▁gap": 1543,
      "▁add": 1544,
      "▁teeth": 1545,
      "▁motorcycle": 1546,
      "▁stuff": 1547,
      "▁dessert": 1548,
      "##edness": 1549,
      "##ivers": 1550,
      "##gre": 1551,
      "▁newark": 1552,
      "▁launched": 1553,
      "##inate": 1554,
      "##body": 1555,
      "œ": 1556,
      "▁quinoa": 1557,
      "▁citizen": 1558,
      "▁decisions": 1559,
      "##opath": 1560,
      "▁household": 1561,
      "▁oct": 1562,
      "▁steak": 1563,
      "▁shipped": 1564,
      "▁bab": 1565,
      "##irus": 1566,
      "##pers": 1567,
      "▁experiences": 1568,
      "##....": 1569,
      "▁flew": 1570,
      "▁telephone": 1571,
      "▁handle": 1572,
      "▁amid": 1573,
      "▁sha": 1574,
      "##,": 1575,
      "▁characteris": 1576,
      "▁mir": 1577,
      "▁effect": 1578,
      "▁orlando": 1579,
      "##cularly": 1580,
      "▁opening": 1581,
      "▁opin": 1582,
      "▁comedy": 1583,
      "##umbled": 1584,
      "##mb": 1585,
      "▁spos": 1586,
      "▁crack": 1587,
      "▁screen": 1588,
      "▁terr": 1589,
      "▁all": 1590,
      "##spec": 1591,
      "▁editor": 1592,
      "##ologist": 1593,
      "▁temper": 1594,
      "▁waiting": 1595,
      "▁buying": 1596,
      "▁sought": 1597,
      "▁between": 1598,
      "##ks": 1599,
      "▁aug": 1600,
      "▁continue": 1601,
      "##rating": 1602,
      "##attered": 1603,
      "▁recognize": 1604,
      "##****************": 1605,
      "##uation": 1606,
      "▁playing": 1607,
      "##ently": 1608,
      "▁shirts": 1609,
      "▁direction": 1610,
      "##irts": 1611,
      "▁target": 1612,
      "▁noone": 1613,
      "##otch": 1614,
      "##ator": 1615,
      "▁consumers": 1616,
      "▁quarter": 1617,
      "▁jihad": 1618,
      "▁gets": 1619,
      "▁shock": 1620,
      "##-------": 1621,
      "▁defeated": 1622,
      "▁pep": 1623,
      "▁designer": 1624,
      "▁ball": 1625,
      "##owled": 1626,
      "▁sisters": 1627,
      "▁tell": 1628,
      "▁pennies": 1629,
      "▁video": 1630,
      "▁threatened": 1631,
      "▁fellow": 1632,
      "▁’re": 1633,
      "▁monit": 1634,
      "##ators": 1635,
      "▁observation": 1636,
      "▁reconciliation": 1637,
      "▁offic": 1638,
      "▁emerged": 1639,
      "▁obtained": 1640,
      "##rent": 1641,
      "▁concentration": 1642,
      "▁accordance": 1643,
      "▁supplies": 1644,
      "##af": 1645,
      "▁dark": 1646,
      "##hic": 1647,
      "▁?": 1648,
      "▁remains": 1649,
      "##ortion": 1650,
      "▁convers": 1651,
      "##rax": 1652,
      "▁cradle": 1653,
      "▁vit": 1654,
      "▁19": 1655,
      "▁legend": 1656,
      "##?!": 1657,
      "▁dallas": 1658,
      "▁momm": 1659,
      "▁functions": 1660,
      "▁lights": 1661,
      "##adas": 1662,
      "##ws": 1663,
      "##ghting": 1664,
      "##cp": 1665,
      "▁history": 1666,
      "▁rooms": 1667,
      "▁throw": 1668,
      "▁imagine": 1669,
      "▁keys": 1670,
      "##igh": 1671,
      "▁avoid": 1672,
      "##aker": 1673,
      "##day": 1674,
      "▁stability": 1675,
      "▁dow": 1676,
      "##\"": 1677,
      "▁reads": 1678,
      "▁transition": 1679,
      "▁manufactur": 1680,
      "##s.": 1681,
      "▁petroleum": 1682,
      "▁salt": 1683,
      "##ber": 1684,
      "▁af": 1685,
      "▁tennis": 1686,
      "▁basil": 1687,
      "▁clothes": 1688,
      "##back": 1689,
      "▁centuries": 1690,
      "▁books": 1691,
      "▁existed": 1692,
      "▁consult": 1693,
      "▁”": 1694,
      "▁moun": 1695,
      "▁ld2d-": 1696,
      "▁countries": 1697,
      "▁trouble": 1698,
      "##ary": 1699,
      "▁actions": 1700,
      "▁tex": 1701,
      "##ion": 1702,
      "##oc": 1703,
      "▁curr": 1704,
      "##mall": 1705,
      "▁custom": 1706,
      "##ril": 1707,
      "▁term": 1708,
      "▁butter": 1709,
      "▁train": 1710,
      "▁hotel": 1711,
      "▁mm": 1712,
      "▁machines": 1713,
      "##ributed": 1714,
      "##ulating": 1715,
      "##nesses": 1716,
      "▁rather": 1717,
      "▁mig": 1718,
      "3": 1719,
      "▁conte": 1720,
      "▁saved": 1721,
      "▁coordination": 1722,
      "▁ice": 1723,
      "▁economies": 1724,
      "##φ": 1725,
      "▁tro": 1726,
      "▁techn": 1727,
      "##ision": 1728,
      "▁themselves": 1729,
      "▁warming": 1730,
      "▁tal": 1731,
      "▁president": 1732,
      "▁'ve": 1733,
      "▁duty": 1734,
      "▁ready": 1735,
      "▁contrast": 1736,
      "##ugg": 1737,
      "▁alone": 1738,
      "▁handed": 1739,
      "▁remembered": 1740,
      "▁ignor": 1741,
      "##ecting": 1742,
      "▁muse": 1743,
      "▁altern": 1744,
      "##mited": 1745,
      "▁volume": 1746,
      "▁profile": 1747,
      "▁um": 1748,
      "▁coast": 1749,
      "▁ski": 1750,
      "▁faced": 1751,
      "▁imm": 1752,
      "▁task": 1753,
      "▁innovations": 1754,
      "▁exchange": 1755,
      "▁saf": 1756,
      "▁military": 1757,
      "##imb": 1758,
      "▁getting": 1759,
      "“": 1760,
      "##either": 1761,
      "▁depending": 1762,
      "##down": 1763,
      "▁dollars": 1764,
      "▁cour": 1765,
      "##raction": 1766,
      "▁owned": 1767,
      "▁examination": 1768,
      "▁wipe": 1769,
      "ł": 1770,
      "▁bright": 1771,
      "▁associate": 1772,
      "▁sand": 1773,
      "##ap": 1774,
      "##ases": 1775,
      "▁say": 1776,
      "▁bands": 1777,
      "##ons": 1778,
      "▁heels": 1779,
      "##row": 1780,
      "▁approached": 1781,
      "▁fulf": 1782,
      "##outh": 1783,
      "▁relations": 1784,
      "##oop": 1785,
      "▁elephants": 1786,
      "▁ships": 1787,
      "▁meals": 1788,
      "##ame": 1789,
      "▁supports": 1790,
      "##aw": 1791,
      "▁fork": 1792,
      "▁targ": 1793,
      "▁therefore": 1794,
      "▁e-mail": 1795,
      "▁agric": 1796,
      "▁appreciation": 1797,
      "▁it's": 1798,
      "##ains": 1799,
      "▁ground": 1800,
      "▁nt": 1801,
      "▁covered": 1802,
      "▁receive": 1803,
      "##athers": 1804,
      "▁resolution": 1805,
      "▁over": 1806,
      "▁emerging": 1807,
      "▁reality": 1808,
      "▁bridge": 1809,
      "▁phone": 1810,
      "▁science": 1811,
      "▁celeb": 1812,
      "##asis": 1813,
      "▁committed": 1814,
      "▁shop": 1815,
      "▁phoenix": 1816,
      "▁capt": 1817,
      "▁stone": 1818,
      "▁dough": 1819,
      "▁municip": 1820,
      "▁traveled": 1821,
      "▁entry": 1822,
      "##cause": 1823,
      "##itting": 1824,
      "▁kitt": 1825,
      "▁everything": 1826,
      "▁fund": 1827,
      "##ertai": 1828,
      "▁ra": 1829,
      "▁method": 1830,
      "▁engineering": 1831,
      "▁ex": 1832,
      "▁reconc": 1833,
      "▁dilem": 1834,
      "▁fre": 1835,
      "▁prep": 1836,
      "▁apprec": 1837,
      "▁adap": 1838,
      "##que": 1839,
      "▁owl": 1840,
      "▁true": 1841,
      "▁including": 1842,
      "▁hero": 1843,
      "▁memories": 1844,
      "▁mic": 1845,
      "▁middle": 1846,
      "▁orange": 1847,
      "▁travelling": 1848,
      "##led": 1849,
      "##stop": 1850,
      "##ges": 1851,
      "▁pres": 1852,
      "▁cooperation": 1853,
      "▁love": 1854,
      "▁attach": 1855,
      "▁eaten": 1856,
      "▁busy": 1857,
      "▁evidence": 1858,
      "▁white": 1859,
      "▁agency": 1860,
      "##tice": 1861,
      "▁uvb": 1862,
      "▁expressed": 1863,
      "▁males": 1864,
      "▁identify": 1865,
      "▁cow": 1866,
      "▁wednesdays": 1867,
      "▁racket": 1868,
      "##chup": 1869,
      "▁compli": 1870,
      "##ched": 1871,
      "##ob": 1872,
      "▁seconds": 1873,
      "▁tam": 1874,
      "▁quack": 1875,
      "▁pride": 1876,
      "▁specify": 1877,
      "▁offering": 1878,
      "▁doing": 1879,
      "##ority": 1880,
      "▁driving": 1881,
      "▁limous": 1882,
      "▁spre": 1883,
      "##etter": 1884,
      "▁sit": 1885,
      "▁quest": 1886,
      "▁7": 1887,
      "##oin": 1888,
      "▁cred": 1889,
      "##phere": 1890,
      "▁climbing": 1891,
      "▁nap": 1892,
      "##rates": 1893,
      "▁voices": 1894,
      "##3": 1895,
      "▁importance": 1896,
      "##essing": 1897,
      "▁proble": 1898,
      "▁dri": 1899,
      "##ared": 1900,
      "▁voted": 1901,
      "##lation": 1902,
      "##tsbur": 1903,
      "▁posted": 1904,
      "▁applies": 1905,
      "##ands": 1906,
      "▁appreciate": 1907,
      "##actor": 1908,
      "▁sale": 1909,
      "▁'re": 1910,
      "▁regar": 1911,
      "▁knowledge": 1912,
      "##isf": 1913,
      "▁moves": 1914,
      "▁miles": 1915,
      "▁diseases": 1916,
      "▁represented": 1917,
      "▁kittens": 1918,
      "▁probably": 1919,
      "▁adopt": 1920,
      "▁emer": 1921,
      "▁num": 1922,
      "##tee": 1923,
      "▁deal": 1924,
      "▁fail": 1925,
      "▁conde": 1926,
      "▁tourism": 1927,
      "▁flood": 1928,
      "▁records": 1929,
      "##struc": 1930,
      "##apes": 1931,
      "~": 1932,
      "▁lots": 1933,
      "##loyed": 1934,
      "▁belly": 1935,
      "▁corpor": 1936,
      "▁missing": 1937,
      "▁pressure": 1938,
      "▁4": 1939,
      "▁calls": 1940,
      "##chang": 1941,
      "▁identifies": 1942,
      "▁entered": 1943,
      "▁fair": 1944,
      "▁attacks": 1945,
      "▁satel": 1946,
      "▁admin": 1947,
      "▁first": 1948,
      "▁notwithstanding": 1949,
      "##ential": 1950,
      "##der": 1951,
      "▁sel": 1952,
      "▁dried": 1953,
      "▁represent": 1954,
      "▁citizens": 1955,
      "##aid": 1956,
      "##400": 1957,
      "##oug": 1958,
      "▁ship": 1959,
      "##ainly": 1960,
      "▁departing": 1961,
      "▁jo": 1962,
      "▁comple": 1963,
      "▁looked": 1964,
      "▁humanity": 1965,
      "▁gath": 1966,
      "▁suck": 1967,
      "▁pipeline": 1968,
      "▁theat": 1969,
      "##tail": 1970,
      "##craft": 1971,
      "▁interviewed": 1972,
      "▁mayonna": 1973,
      "▁operations": 1974,
      "▁were": 1975,
      "▁coincidence": 1976,
      "▁class": 1977,
      "##otion": 1978,
      "##-s": 1979,
      "▁cabinet": 1980,
      "▁:": 1981,
      "▁sto": 1982,
      "##ctive": 1983,
      "▁avoiding": 1984,
      "##cery": 1985,
      "▁about": 1986,
      "▁election": 1987,
      "▁beaches": 1988,
      "<": 1989,
      "▁gon": 1990,
      "##jected": 1991,
      "▁range": 1992,
      "▁signature": 1993,
      "▁proced": 1994,
      "##otte": 1995,
      "##ses": 1996,
      "##ended": 1997,
      "▁went": 1998,
      "▁pix": 1999,
      "▁langu": 2000,
      "▁potential": 2001,
      "##outs": 2002,
      "##x": 2003,
      "##idding": 2004,
      "##ali": 2005,
      "##agon": 2006,
      "▁fruit": 2007,
      "##istan": 2008,
      "▁months": 2009,
      "##aste": 2010,
      "▁fer": 2011,
      "▁occasions": 2012,
      "##roph": 2013,
      "▁-----": 2014,
      "▁soon": 2015,
      "##ration": 2016,
      "▁explan": 2017,
      "▁stress": 2018,
      "▁slept": 2019,
      "▁paris": 2020,
      "▁landed": 2021,
      "▁patients": 2022,
      "▁feels": 2023,
      "▁kidding": 2024,
      "▁requirement": 2025,
      "##eeze": 2026,
      "##ocol": 2027,
      "▁rescue": 2028,
      "▁silver": 2029,
      "##ote": 2030,
      "▁places": 2031,
      "##zer": 2032,
      "▁staring": 2033,
      "▁hoc": 2034,
      "▁nothing": 2035,
      "▁constit": 2036,
      "##.d": 2037,
      "##onds": 2038,
      "##worms": 2039,
      "##raph": 2040,
      "▁wednesday": 2041,
      "▁yoy": 2042,
      "▁behind": 2043,
      "▁fish": 2044,
      "▁tax": 2045,
      "##ticip": 2046,
      "▁ide": 2047,
      "##tles": 2048,
      "▁factory": 2049,
      "▁ones": 2050,
      "##book": 2051,
      "▁era": 2052,
      "▁families": 2053,
      "▁allocated": 2054,
      "▁restri": 2055,
      "▁build": 2056,
      "▁consc": 2057,
      "▁smile": 2058,
      "▁dav": 2059,
      "▁concre": 2060,
      "##ront": 2061,
      "##akes": 2062,
      "▁regarded": 2063,
      "▁drank": 2064,
      "▁lips": 2065,
      "▁turkey": 2066,
      "▁revealed": 2067,
      "▁assuming": 2068,
      "▁falls": 2069,
      "##perity": 2070,
      "▁librarians": 2071,
      "▁tug": 2072,
      "▁developer": 2073,
      "▁court": 2074,
      "▁sett": 2075,
      "▁involving": 2076,
      "▁struggle": 2077,
      "##7": 2078,
      "*": 2079,
      "▁face": 2080,
      "▁finish": 2081,
      "▁upd": 2082,
      "##ig": 2083,
      "▁no": 2084,
      "▁stair": 2085,
      "▁sust": 2086,
      "##.com": 2087,
      "▁talking": 2088,
      "##acks": 2089,
      "##unct": 2090,
      "▁mention": 2091,
      "▁been": 2092,
      "##my": 2093,
      "▁&am": 2094,
      "▁mul": 2095,
      "▁mode": 2096,
      "##w": 2097,
      "##word": 2098,
      "##ribute": 2099,
      "▁earthqu": 2100,
      "##urned": 2101,
      "▁waste": 2102,
      "▁dep": 2103,
      "▁income": 2104,
      "▁tr": 2105,
      "##icked": 2106,
      "▁performing": 2107,
      "▁stones": 2108,
      "##ield": 2109,
      "▁kick": 2110,
      "▁confirmed": 2111,
      "▁washed": 2112,
      "▁oper": 2113,
      "▁puzzle": 2114,
      "▁wave": 2115,
      "▁told": 2116,
      "▁pizza": 2117,
      "▁opportun": 2118,
      "##>": 2119,
      "▁situations": 2120,
      "##riend": 2121,
      "▁caused": 2122,
      "##bably": 2123,
      "▁underst": 2124,
      "▁philosophy": 2125,
      "##ent": 2126,
      "▁arriving": 2127,
      "▁farrier": 2128,
      "▁dinner": 2129,
      "▁artworks": 2130,
      "##ns": 2131,
      "##ib": 2132,
      "##ising": 2133,
      "▁summ": 2134,
      "▁two": 2135,
      "▁puppy": 2136,
      "▁i": 2137,
      "##vers": 2138,
      "▁incen": 2139,
      "##fri": 2140,
      "##em": 2141,
      "▁trav": 2142,
      "▁suggestions": 2143,
      "##iel": 2144,
      "▁extent": 2145,
      "##ich": 2146,
      "[MASK]": 2147,
      "##ties": 2148,
      "▁finger": 2149,
      "##sel": 2150,
      "##rying": 2151,
      "▁tel": 2152,
      "▁plastic": 2153,
      "##idd": 2154,
      "##he": 2155,
      "▁milk": 2156,
      "▁doubt": 2157,
      "▁poems": 2158,
      "##waukee": 2159,
      "▁studio": 2160,
      "▁says": 2161,
      "##appy": 2162,
      "##ych": 2163,
      "##arch": 2164,
      "##ff": 2165,
      "▁cold": 2166,
      "##os": 2167,
      "##ded": 2168,
      "▁teachers": 2169,
      "▁rise": 2170,
      "▁confidentiality": 2171,
      "##r": 2172,
      "##uting": 2173,
      "##lions": 2174,
      "▁derived": 2175,
      "##atic": 2176,
      "▁shops": 2177,
      "##iny": 2178,
      "▁medicine": 2179,
      "▁gang": 2180,
      "##tai": 2181,
      "▁tou": 2182,
      "##gging": 2183,
      "▁tolerate": 2184,
      "##op": 2185,
      "##aster": 2186,
      "##tie": 2187,
      "##king": 2188,
      "▁overcome": 2189,
      "▁oatmeal": 2190,
      "##usions": 2191,
      "▁menu": 2192,
      "▁sky": 2193,
      "▁good": 2194,
      "▁daughter": 2195,
      "▁anthrax": 2196,
      "▁sweater": 2197,
      "▁roared": 2198,
      "##onom": 2199,
      "▁cost": 2200,
      "▁[...]": 2201,
      "##acking": 2202,
      "▁bulb": 2203,
      "▁forest": 2204,
      "##esh": 2205,
      "##p;": 2206,
      "▁count": 2207,
      "##ited": 2208,
      "##0's": 2209,
      "▁play+": 2210,
      "▁follow": 2211,
      "##izing": 2212,
      "▁doggie": 2213,
      "▁makes": 2214,
      "▁eff": 2215,
      "##pec": 2216,
      "##ily": 2217,
      "▁guil": 2218,
      "##abb": 2219,
      "▁drawer": 2220,
      "##asses": 2221,
      "▁mass": 2222,
      "▁miami": 2223,
      "▁alligator": 2224,
      "▁it": 2225,
      "▁game": 2226,
      "##top": 2227,
      "##ondon": 2228,
      "##is": 2229,
      "▁ben": 2230,
      "##oss": 2231,
      "▁invite": 2232,
      "##ression": 2233,
      "▁du": 2234,
      "##line": 2235,
      "▁cash": 2236,
      "▁requiring": 2237,
      "▁nat": 2238,
      "▁scen": 2239,
      "##ters": 2240,
      "▁furn": 2241,
      "▁resul": 2242,
      "▁package": 2243,
      "▁hanging": 2244,
      "▁classroom": 2245,
      "▁increase": 2246,
      "▁quick": 2247,
      "##akers": 2248,
      "##gy": 2249,
      "##asts": 2250,
      "▁cigar": 2251,
      "##ert": 2252,
      "##entiality": 2253,
      "▁acquis": 2254,
      "▁mom": 2255,
      "▁floor": 2256,
      "▁pool": 2257,
      "##ards": 2258,
      "▁spear": 2259,
      "▁priorities": 2260,
      "▁sour": 2261,
      "▁inh": 2262,
      "▁context": 2263,
      "##ering": 2264,
      "▁prote": 2265,
      "▁prop": 2266,
      "▁identifying": 2267,
      "▁sentence": 2268,
      "▁extend": 2269,
      "##ointed": 2270,
      "▁cat": 2271,
      "▁’d": 2272,
      "▁speech": 2273,
      "▁regions": 2274,
      "▁achieving": 2275,
      "##velop": 2276,
      "##?": 2277,
      "##nies": 2278,
      "▁bumble": 2279,
      "##”": 2280,
      "▁ate": 2281,
      "##animals": 2282,
      "▁permission": 2283,
      "▁coupons": 2284,
      "▁gcp": 2285,
      "▁jam": 2286,
      "▁mornings": 2287,
      "▁com": 2288,
      "▁regarding": 2289,
      "▁fighting": 2290,
      "▁defense": 2291,
      "▁mines": 2292,
      "▁pretend": 2293,
      "▁submit": 2294,
      "▁mark": 2295,
      "▁impl": 2296,
      "▁liked": 2297,
      "▁friendship": 2298,
      "▁discussed": 2299,
      "▁introduc": 2300,
      "##ax": 2301,
      "▁weather": 2302,
      "▁sun": 2303,
      "##ission": 2304,
      "▁ju": 2305,
      "▁guid": 2306,
      "##dle": 2307,
      "▁bang": 2308,
      "▁move": 2309,
      "▁dealing": 2310,
      "-": 2311,
      "▁never": 2312,
      "##den": 2313,
      "▁arrives": 2314,
      "##land": 2315,
      "▁watch": 2316,
      "▁quite": 2317,
      "▁tv": 2318,
      "##lic": 2319,
      "▁administr": 2320,
      "▁beings": 2321,
      "▁ru": 2322,
      "▁chec": 2323,
      "##pos": 2324,
      "▁forwarded": 2325,
      "▁collection": 2326,
      "▁jih": 2327,
      "▁le": 2328,
      "▁everyone": 2329,
      "▁deny": 2330,
      "▁our": 2331,
      "▁awarded": 2332,
      "##lief": 2333,
      "##icke": 2334,
      "▁install": 2335,
      "▁recommended": 2336,
      "##ager": 2337,
      "▁infr": 2338,
      "▁leadership": 2339,
      "▁foreign": 2340,
      "▁present": 2341,
      "▁20": 2342,
      "▁appro": 2343,
      "##st": 2344,
      "▁coat": 2345,
      "▁certai": 2346,
      "▁movements": 2347,
      "▁citi": 2348,
      "##lar": 2349,
      "▁political": 2350,
      "▁hun": 2351,
      "▁signing": 2352,
      "##’t": 2353,
      "▁complaint": 2354,
      "▁champ": 2355,
      "▁worksh": 2356,
      "▁waiver": 2357,
      "'": 2358,
      "▁flu": 2359,
      "▁dollar": 2360,
      "##li": 2361,
      "##ce": 2362,
      "##ends": 2363,
      "##ʻ": 2364,
      "▁stars": 2365,
      "##---------------": 2366,
      "▁": 2367,
      "▁macaroni": 2368,
      "▁buttons": 2369,
      "##illa": 2370,
      "▁jwww": 2371,
      "▁ang": 2372,
      "▁interviews": 2373,
      "▁argue": 2374,
      "##ship": 2375,
      "▁rubber": 2376,
      "▁tonight": 2377,
      "##cakes": 2378,
      "▁leave": 2379,
      "▁step": 2380,
      "▁theories": 2381,
      "▁permitted": 2382,
      "##utation": 2383,
      "▁iss": 2384,
      "▁swimming": 2385,
      "▁microscope": 2386,
      "##tive": 2387,
      "▁side": 2388,
      "▁allig": 2389,
      "▁behalf": 2390,
      "▁wondered": 2391,
      "▁refri": 2392,
      "▁bite": 2393,
      "▁selected": 2394,
      "▁cleaned": 2395,
      "##g": 2396,
      "▁evenings": 2397,
      "▁hole": 2398,
      "▁hire": 2399,
      "▁affairs": 2400,
      "▁bench": 2401,
      "▁cal": 2402,
      "▁relationship": 2403,
      "##ual": 2404,
      "▁guessed": 2405,
      "##mer": 2406,
      "##-w": 2407,
      "▁ab": 2408,
      "▁mas": 2409,
      "▁audience": 2410,
      "▁cop": 2411,
      "##ject": 2412,
      "▁extr": 2413,
      "▁c": 2414,
      "##erv": 2415,
      "▁exp": 2416,
      "▁cookie": 2417,
      "▁tur": 2418,
      "▁responded": 2419,
      "▁returned": 2420,
      "▁guar": 2421,
      "▁dall": 2422,
      "##amas": 2423,
      "▁speaking": 2424,
      "▁gel": 2425,
      "▁provided": 2426,
      "▁birth": 2427,
      "▁taught": 2428,
      "▁manip": 2429,
      "▁welcome": 2430,
      "▁shark": 2431,
      "##ament": 2432,
      "▁downtown": 2433,
      "▁zone": 2434,
      "▁ins": 2435,
      "▁welfare": 2436,
      "▁extremely": 2437,
      "##ive": 2438,
      "##lor": 2439,
      "▁what": 2440,
      "▁av": 2441,
      "##iz": 2442,
      "▁noise": 2443,
      "▁window": 2444,
      "▁experim": 2445,
      "▁becom": 2446,
      "▁nation": 2447,
      "▁met": 2448,
      "##ened": 2449,
      "▁camel": 2450,
      "▁eating": 2451,
      "▁begin": 2452,
      "##real": 2453,
      "##ito": 2454,
      "▁m": 2455,
      "▁glo": 2456,
      "▁failed": 2457,
      "##olis": 2458,
      "▁friendly": 2459,
      "▁tens": 2460,
      "▁thinks": 2461,
      "▁crash": 2462,
      "##ace": 2463,
      "▁measures": 2464,
      "▁ports": 2465,
      "▁lantern": 2466,
      "▁theirs": 2467,
      "▁novel": 2468,
      "##ip": 2469,
      "##ued": 2470,
      "##ouse": 2471,
      "▁int": 2472,
      "##/he": 2473,
      "▁magic": 2474,
      "▁alongside": 2475,
      "▁pled": 2476,
      "▁funny": 2477,
      "▁becoming": 2478,
      "##oe": 2479,
      "▁week": 2480,
      "▁mystery": 2481,
      "▁agent": 2482,
      "▁loans": 2483,
      "▁blink": 2484,
      "▁browser": 2485,
      "▁parents": 2486,
      "##pping": 2487,
      "▁por": 2488,
      "▁blanket": 2489,
      "▁battle": 2490,
      "▁atop": 2491,
      "▁realized": 2492,
      "▁bone": 2493,
      "▁artwork": 2494,
      "▁third": 2495,
      "▁gains": 2496,
      "##ault": 2497,
      "▁perhap": 2498,
      "▁eye": 2499,
      "##ates": 2500,
      "▁mosquito": 2501,
      "▁strip": 2502,
      "##phia": 2503,
      "▁individuals": 2504,
      "##wn": 2505,
      "▁st": 2506,
      "▁invented": 2507,
      "▁serve": 2508,
      "▁include": 2509,
      "▁jelly": 2510,
      "▁indian": 2511,
      "▁vend": 2512,
      "▁es": 2513,
      "▁pulled": 2514,
      "▁researchers": 2515,
      "▁discovery": 2516,
      "▁experiment": 2517,
      "ø": 2518,
      "▁recognition": 2519,
      "▁presence": 2520,
      "▁depos": 2521,
      "▁during": 2522,
      "▁dentist": 2523,
      "▁screw": 2524,
      "▁anoth": 2525,
      "▁rapporte": 2526,
      "##tiveness": 2527,
      "▁guarantee": 2528,
      "▁steps": 2529,
      "▁salon": 2530,
      "##gers": 2531,
      "▁change": 2532,
      "▁banan": 2533,
      "##ertain": 2534,
      "##inea": 2535,
      "▁kissed": 2536,
      "##old": 2537,
      "▁cros": 2538,
      "▁cand": 2539,
      "▁shakespeare": 2540,
      "##ounced": 2541,
      "▁vote": 2542,
      "##urday": 2543,
      "▁space": 2544,
      "▁ob": 2545,
      "▁preserved": 2546,
      "##night": 2547,
      "▁w": 2548,
      "##erc": 2549,
      "▁trial": 2550,
      "▁circum": 2551,
      "###693": 2552,
      "##ros": 2553,
      "▁shoo": 2554,
      "##aus": 2555,
      "##bo": 2556,
      "▁·": 2557,
      "▁duck": 2558,
      "##ocks": 2559,
      "▁defend": 2560,
      "▁own": 2561,
      "▁supported": 2562,
      "▁ability": 2563,
      "▁advise": 2564,
      "##tic": 2565,
      "▁.?": 2566,
      "▁emp": 2567,
      "##ε": 2568,
      "▁stick": 2569,
      "▁scored": 2570,
      "▁der": 2571,
      "▁exce": 2572,
      "▁others": 2573,
      "▁'s": 2574,
      "▁depend": 2575,
      "º": 2576,
      "▁outcome": 2577,
      "▁army": 2578,
      "##-b": 2579,
      "▁prepare": 2580,
      "##orage": 2581,
      "▁registered": 2582,
      "▁fiction": 2583,
      "▁---------------------------------------------------------------------": 2584,
      "▁further": 2585,
      "##berries": 2586,
      "▁received": 2587,
      ";": 2588,
      "##actions": 2589,
      "▁prison": 2590,
      "▁de": 2591,
      "##lig": 2592,
      "▁failure": 2593,
      "##ithstanding": 2594,
      "##od": 2595,
      "▁fant": 2596,
      "▁pops": 2597,
      "▁supermar": 2598,
      "##oods": 2599,
      "▁indic": 2600,
      "▁argument": 2601,
      "▁accept": 2602,
      "▁advantage": 2603,
      "▁ring": 2604,
      "##erved": 2605,
      "▁foc": 2606,
      "▁snake": 2607,
      "▁dail": 2608,
      "▁coinc": 2609,
      "▁found": 2610,
      "▁tells": 2611,
      "##erted": 2612,
      "▁rene": 2613,
      "▁by": 2614,
      "##e": 2615,
      "▁collect": 2616,
      "▁welc": 2617,
      "▁scribble": 2618,
      "▁schema": 2619,
      "▁robo": 2620,
      "▁tunnel": 2621,
      "▁trees": 2622,
      "▁stic": 2623,
      "▁continu": 2624,
      "##ets": 2625,
      "▁suffering": 2626,
      "▁medium": 2627,
      "▁family": 2628,
      "▁yog": 2629,
      "▁sandwic": 2630,
      "##erest": 2631,
      "▁tested": 2632,
      "▁upside": 2633,
      "▁pe": 2634,
      "▁arrange": 2635,
      "▁amer": 2636,
      "##oil": 2637,
      "▁birthday": 2638,
      "##ploy": 2639,
      "▁belongs": 2640,
      "▁priest": 2641,
      "▁rest": 2642,
      "▁cats": 2643,
      "▁locked": 2644,
      "▁there": 2645,
      "##cri": 2646,
      "▁kit": 2647,
      "▁shad": 2648,
      "▁demon": 2649,
      "▁comp": 2650,
      "▁hes": 2651,
      "▁strain": 2652,
      "##nce": 2653,
      "##nic": 2654,
      "##imp": 2655,
      "##.x": 2656,
      "##il": 2657,
      "▁grand": 2658,
      "▁endeav": 2659,
      "▁---": 2660,
      "▁one": 2661,
      "▁bad": 2662,
      "##ede": 2663,
      "▁rot": 2664,
      "▁bic": 2665,
      "▁interpreted": 2666,
      "▁temperatures": 2667,
      "ɛ": 2668,
      "##ili": 2669,
      "▁sur": 2670,
      "▁implement": 2671,
      "▁witch": 2672,
      "##do": 2673,
      "▁_____": 2674,
      "▁computer": 2675,
      "##face": 2676,
      "##apse": 2677,
      "▁preven": 2678,
      "##ʊ": 2679,
      "▁season": 2680,
      "▁london": 2681,
      "▁rad": 2682,
      "p": 2683,
      "▁consu": 2684,
      "▁fuel": 2685,
      "▁rental": 2686,
      "▁emb": 2687,
      "▁conclude": 2688,
      "##uge": 2689,
      "▁pointed": 2690,
      "▁economy": 2691,
      "▁’s": 2692,
      "▁traders": 2693,
      "▁combination": 2694,
      "▁marketing": 2695,
      "▁worry": 2696,
      "▁buck": 2697,
      "▁poster": 2698,
      "▁deployed": 2699,
      "▁candidate": 2700,
      "▁evac": 2701,
      "▁banj": 2702,
      "▁implemented": 2703,
      "▁e-m": 2704,
      "▁themes": 2705,
      "##ague": 2706,
      "▁bunch": 2707,
      "▁cup": 2708,
      "▁strawberry": 2709,
      "▁adver": 2710,
      "▁recording": 2711,
      "▁percent": 2712,
      "##‘": 2713,
      "▁recomm": 2714,
      "▁chair": 2715,
      "▁agencies": 2716,
      "▁mid-": 2717,
      "▁hill": 2718,
      "▁eng": 2719,
      "##eland": 2720,
      "##idence": 2721,
      "▁mike": 2722,
      "▁seized": 2723,
      "##ligence": 2724,
      "##ait": 2725,
      "▁loo": 2726,
      "▁traditions": 2727,
      "▁warning": 2728,
      "▁vendors": 2729,
      "▁vehic": 2730,
      "▁table": 2731,
      "▁require": 2732,
      "▁evaluation": 2733,
      "▁particip": 2734,
      "▁results": 2735,
      "##rows": 2736,
      "##pp": 2737,
      "▁beyond": 2738,
      "▁resulted": 2739,
      "▁origin": 2740,
      "▁level": 2741,
      "▁birds": 2742,
      "▁performances": 2743,
      "▁psychology": 2744,
      "##onents": 2745,
      "▁wat": 2746,
      "##9": 2747,
      "▁post": 2748,
      "▁version": 2749,
      "▁episode": 2750,
      "▁clock": 2751,
      "▁star": 2752,
      "▁tours": 2753,
      "▁concluded": 2754,
      "▁soup": 2755,
      "▁cutting": 2756,
      "▁former": 2757,
      "▁petersburg": 2758,
      "▁tape": 2759,
      "▁gi": 2760,
      "##ere": 2761,
      "▁mer": 2762,
      "▁operate": 2763,
      "▁documents": 2764,
      "##ints": 2765,
      "##ining": 2766,
      "##ety": 2767,
      "▁poor": 2768,
      "##tt": 2769,
      "▁fit": 2770,
      "▁ask": 2771,
      "▁users": 2772,
      "##vation": 2773,
      "▁encour": 2774,
      "▁hon": 2775,
      "▁murders": 2776,
      "▁master": 2777,
      "▁statements": 2778,
      "▁id": 2779,
      "##vil": 2780,
      "##'s": 2781,
      "▁..": 2782,
      "▁along": 2783,
      "▁passion": 2784,
      "##{": 2785,
      "▁card": 2786,
      "##oy": 2787,
      "##pts": 2788,
      "▁guard": 2789,
      "##ado": 2790,
      "▁charm": 2791,
      "▁instructions": 2792,
      "▁attitudes": 2793,
      "##formation": 2794,
      "##owing": 2795,
      "▁procedure": 2796,
      "▁arr": 2797,
      "▁strategy": 2798,
      "▁doughnut": 2799,
      "▁pledged": 2800,
      "▁monarch": 2801,
      "▁goes": 2802,
      "▁intelligence": 2803,
      "▁plane": 2804,
      "##olve": 2805,
      "▁lifted": 2806,
      "▁mirror": 2807,
      "▁through": 2808,
      "▁suff": 2809,
      "▁hope": 2810,
      "▁banks": 2811,
      "##uscri": 2812,
      "▁chick": 2813,
      "▁reducing": 2814,
      "▁cream": 2815,
      "▁shares": 2816,
      "▁lun": 2817,
      "▁tow": 2818,
      "▁washing": 2819,
      "##itive": 2820,
      "▁magazine": 2821,
      "▁though": 2822,
      "##ont": 2823,
      "▁truth": 2824,
      "▁acquired": 2825,
      "▁managers": 2826,
      "##auc": 2827,
      "▁programmes": 2828,
      "▁prove": 2829,
      "##ways": 2830,
      "▁towns": 2831,
      "▁dragged": 2832,
      "##ume": 2833,
      "▁guys": 2834,
      "##ues": 2835,
      "▁lea": 2836,
      "##kers": 2837,
      "▁females": 2838,
      "▁analysts": 2839,
      "##cked": 2840,
      "▁sugges": 2841,
      "##where": 2842,
      "▁bottom": 2843,
      "▁crime": 2844,
      "▁knee": 2845,
      "▁law": 2846,
      "▁record": 2847,
      "▁prayer": 2848,
      "▁ml": 2849,
      "▁counterpar": 2850,
      "##ake": 2851,
      "##al": 2852,
      "##ane": 2853,
      "▁intervention": 2854,
      "▁approve": 2855,
      "▁arts": 2856,
      "▁station": 2857,
      "##amb": 2858,
      "▁status": 2859,
      "▁risk": 2860,
      "▁enemy": 2861,
      "##jamas": 2862,
      "▁taxes": 2863,
      "##eys": 2864,
      "▁running": 2865,
      "▁assured": 2866,
      "##ose": 2867,
      "▁tab": 2868,
      "##........": 2869,
      "##xim": 2870,
      "▁agreed": 2871,
      "▁weapon": 2872,
      "▁fo": 2873,
      "▁assault": 2874,
      "##derstand": 2875,
      "▁sales": 2876,
      "▁greetings": 2877,
      "##jec": 2878,
      "▁island": 2879,
      "▁assoc": 2880,
      "##mping": 2881,
      "▁narr": 2882,
      "▁equip": 2883,
      "▁catch": 2884,
      "▁univers": 2885,
      "##oxide": 2886,
      "▁trag": 2887,
      "▁selling": 2888,
      "▁enjoying": 2889,
      "▁dun": 2890,
      "▁information": 2891,
      "▁vision": 2892,
      "▁verse": 2893,
      "##err": 2894,
      "##itated": 2895,
      "▁equ": 2896,
      "##ool": 2897,
      "▁directive": 2898,
      "▁temples": 2899,
      "##hes": 2900,
      "##œ": 2901,
      "▁hurts": 2902,
      "##ribb": 2903,
      "##equ": 2904,
      "##ock": 2905,
      "▁reas": 2906,
      "▁artic": 2907,
      "▁hay": 2908,
      "▁philadelphia": 2909,
      "##respond": 2910,
      "▁someth": 2911,
      "▁europe": 2912,
      "▁common": 2913,
      "▁carbon": 2914,
      "▁a": 2915,
      "▁bat": 2916,
      "##let": 2917,
      "▁depends": 2918,
      "▁stories": 2919,
      "▁investment": 2920,
      "##our": 2921,
      "▁break": 2922,
      "##lie": 2923,
      "##asters": 2924,
      "▁tool": 2925,
      "▁crawl": 2926,
      "▁ev": 2927,
      "##vement": 2928,
      "▁set": 2929,
      "▁currency": 2930,
      "▁shakes": 2931,
      "##illed": 2932,
      "▁directed": 2933,
      "▁attracted": 2934,
      "▁messages": 2935,
      "▁sounded": 2936,
      "▁lasted": 2937,
      "##lity": 2938,
      "▁]": 2939,
      "▁perceived": 2940,
      "▁grav": 2941,
      "▁every": 2942,
      "▁trash": 2943,
      "##70s": 2944,
      "▁aunt": 2945,
      "##ym": 2946,
      "▁particular": 2947,
      "##ress": 2948,
      "##ss": 2949,
      "▁loan": 2950,
      "▁explain": 2951,
      "▁incom": 2952,
      "##epend": 2953,
      "▁diapers": 2954,
      "▁payments": 2955,
      "▁made": 2956,
      "##ocity": 2957,
      "▁belt": 2958,
      "▁lobby": 2959,
      "▁soldiers": 2960,
      "▁right": 2961,
      "▁quality": 2962,
      "##ief": 2963,
      "##~": 2964,
      "▁music": 2965,
      "▁magn": 2966,
      "▁alar": 2967,
      "▁forgotten": 2968,
      "▁send": 2969,
      "▁slope": 2970,
      "▁markets": 2971,
      "▁trans": 2972,
      "|": 2973,
      "▁fate": 2974,
      "▁memoir": 2975,
      "▁mou": 2976,
      "▁suicide": 2977,
      "▁kansas": 2978,
      "##namon": 2979,
      "▁lion": 2980,
      "▁school": 2981,
      "▁wiki": 2982,
      "▁highl": 2983,
      "##anced": 2984,
      "▁setup": 2985,
      "▁'em": 2986,
      "▁mult": 2987,
      "▁qa": 2988,
      "##ome": 2989,
      "▁did": 2990,
      "##aughter": 2991,
      "##ified": 2992,
      "▁officials": 2993,
      "##.m.": 2994,
      "▁linked": 2995,
      "▁ever": 2996,
      "▁horses": 2997,
      "▁chan": 2998,
      "▁nor": 2999,
      "▁technology": 3000,
      "▁propaganda": 3001,
      "▁profit": 3002,
      "▁planet": 3003,
      "▁fire": 3004,
      "▁waited": 3005,
      "##.pd": 3006,
      "▁things": 3007,
      "##ade": 3008,
      "▁farm": 3009,
      "▁signed": 3010,
      "▁accomp": 3011,
      "##ut": 3012,
      "▁walking": 3013,
      "▁hearing": 3014,
      "▁ad": 3015,
      "▁harry": 3016,
      "▁.": 3017,
      "▁george": 3018,
      "▁friday": 3019,
      "▁paragraph": 3020,
      "▁management": 3021,
      "▁generators": 3022,
      "▁necess": 3023,
      "##urch": 3024,
      "▁stopped": 3025,
      "##8": 3026,
      "▁compete": 3027,
      "▁attention": 3028,
      "##aph": 3029,
      "##its": 3030,
      "▁decided": 3031,
      "▁actor": 3032,
      "▁shower": 3033,
      "##amples": 3034,
      "9": 3035,
      "▁offici": 3036,
      "▁holds": 3037,
      "##it": 3038,
      "▁sew": 3039,
      "▁struc": 3040,
      "▁boo": 3041,
      "▁pair": 3042,
      "▁wilt": 3043,
      "▁searching": 3044,
      "▁yesterday": 3045,
      "##icular": 3046,
      "▁pretending": 3047,
      "▁bom": 3048,
      "▁treat": 3049,
      "▁doors": 3050,
      "▁collecting": 3051,
      "▁litt": 3052,
      "##bir": 3053,
      "▁games": 3054,
      "▁rom": 3055,
      "▁confid": 3056,
      "##ect": 3057,
      "▁changed": 3058,
      "▁lady": 3059,
      "▁line": 3060,
      "▁flow": 3061,
      "▁evening": 3062,
      "▁courses": 3063,
      "▁cracker": 3064,
      "▁repres": 3065,
      "▁colle": 3066,
      "▁retired": 3067,
      "▁rece": 3068,
      "▁violence": 3069,
      "▁code": 3070,
      "▁claim": 3071,
      "▁cous": 3072,
      "▁soldier": 3073,
      "▁charged": 3074,
      "▁understanding": 3075,
      "▁store": 3076,
      "▁gender": 3077,
      "▁sk": 3078,
      "▁crush": 3079,
      "▁less": 3080,
      "▁location": 3081,
      "▁teasp": 3082,
      "▁wou": 3083,
      "▁pasta": 3084,
      "##[": 3085,
      "##oted": 3086,
      "▁refers": 3087,
      "##cept": 3088,
      "▁micro": 3089,
      "##????????????????": 3090,
      "▁tot": 3091,
      "▁ou": 3092,
      "▁consideration": 3093,
      "##able": 3094,
      "▁suppose": 3095,
      "▁ginger": 3096,
      "▁girl": 3097,
      "##ious": 3098,
      "▁bee": 3099,
      "▁wolves": 3100,
      "▁bring": 3101,
      "▁standards": 3102,
      "▁pract": 3103,
      "▁daddy": 3104,
      "##uly": 3105,
      "▁bron": 3106,
      "▁reading": 3107,
      "%": 3108,
      "▁obt": 3109,
      "▁idea": 3110,
      "▁illust": 3111,
      "##placement": 3112,
      "##oured": 3113,
      "▁attacked": 3114,
      "▁motiv": 3115,
      "##si": 3116,
      "▁want": 3117,
      "▁factor": 3118,
      "▁particularly": 3119,
      "▁introduced": 3120,
      "##alist": 3121,
      "##enting": 3122,
      "▁transform": 3123,
      "▁shit": 3124,
      "▁parties": 3125,
      "▁displayed": 3126,
      "▁lived": 3127,
      "▁k": 3128,
      "▁aft": 3129,
      "##ue": 3130,
      "▁dad": 3131,
      "▁expertise": 3132,
      "▁religion": 3133,
      "▁co": 3134,
      "w": 3135,
      "▁founded": 3136,
      "▁skip": 3137,
      "ɔ": 3138,
      "▁wear": 3139,
      "##la": 3140,
      "▁assessment": 3141,
      "▁shar": 3142,
      "▁pas": 3143,
      "▁prices": 3144,
      "▁phot": 3145,
      "▁damage": 3146,
      "▁soccer": 3147,
      "##tile": 3148,
      "▁rev": 3149,
      "▁night": 3150,
      "##idents": 3151,
      "▁hr": 3152,
      "▁respect": 3153,
      "▁daily": 3154,
      "##ifying": 3155,
      "▁ren": 3156,
      "▁reproduc": 3157,
      "▁experien": 3158,
      "▁responses": 3159,
      "▁ble": 3160,
      "▁bac": 3161,
      "▁offer": 3162,
      "▁str": 3163,
      "▁purposes": 3164,
      "##mar": 3165,
      "▁autumn": 3166,
      "=": 3167,
      "▁philosoph": 3168,
      "▁def": 3169,
      "▁al": 3170,
      "▁conclusion": 3171,
      "▁weekends": 3172,
      "▁full": 3173,
      "▁gained": 3174,
      "▁hung": 3175,
      "##ully": 3176,
      "▁coming": 3177,
      "▁motion": 3178,
      "▁earliest": 3179,
      "▁seam": 3180,
      "▁cele": 3181,
      "[UNK]": 3182,
      "▁being": 3183,
      "▁teach": 3184,
      "##vert": 3185,
      "▁ozone": 3186,
      "##alsa": 3187,
      "▁happened": 3188,
      "##ores": 3189,
      "▁continuing": 3190,
      "▁hate": 3191,
      "▁major": 3192,
      "▁elevator": 3193,
      "▁incorp": 3194,
      "##ulated": 3195,
      "▁complex": 3196,
      "##------->": 3197,
      "▁reviewed": 3198,
      "▁sus": 3199,
      "▁areas": 3200,
      "▁assist": 3201,
      "▁numerous": 3202,
      "▁texts": 3203,
      "##av": 3204,
      "▁else": 3205,
      "▁presents": 3206,
      "##di": 3207,
      "▁trying": 3208,
      "▁shot": 3209,
      "##berry": 3210,
      "##read": 3211,
      "▁weeks": 3212,
      "▁height": 3213,
      "▁10": 3214,
      "##unk": 3215,
      "▁'d": 3216,
      "▁1": 3217,
      "▁consumption": 3218,
      "▁showing": 3219,
      "▁served": 3220,
      "▁trader": 3221,
      "##ius": 3222,
      "##mp": 3223,
      "▁closing": 3224,
      "▁high": 3225,
      "▁ki": 3226,
      "▁pursue": 3227,
      "▁appe": 3228,
      "▁till": 3229,
      "##plan": 3230,
      "▁inhabit": 3231,
      "▁lifesty": 3232,
      "▁resistance": 3233,
      "▁arti": 3234,
      "▁transf": 3235,
      "▁***": 3236,
      "▁trade": 3237,
      "▁facing": 3238,
      "##avery": 3239,
      "▁putting": 3240,
      "▁visited": 3241,
      "▁wheat": 3242,
      "▁just": 3243,
      "▁pockets": 3244,
      "▁femur": 3245,
      "▁foot": 3246,
      "▁seesaw": 3247,
      "##house": 3248,
      "##ensions": 3249,
      "##kets": 3250,
      "▁past": 3251,
      "▁tickets": 3252,
      "▁hedge": 3253,
      "▁tic": 3254,
      "▁cray": 3255,
      "▁occas": 3256,
      "▁stud": 3257,
      "▁)": 3258,
      "▁retail": 3259,
      "▁instruc": 3260,
      "`": 3261,
      "b": 3262,
      "▁modify": 3263,
      "▁attem": 3264,
      "▁une": 3265,
      "▁office": 3266,
      "▁struck": 3267,
      "▁woud": 3268,
      "▁breathe": 3269,
      "▁reminder": 3270,
      "##ell": 3271,
      "##ches": 3272,
      "▁forget": 3273,
      "▁memory": 3274,
      "▁disability": 3275,
      "▁fell": 3276,
      "##ulars": 3277,
      "▁rabbit": 3278,
      "▁exhib": 3279,
      "▁conn": 3280,
      "▁promotion": 3281,
      "▁sonnets": 3282,
      "▁intrigu": 3283,
      "▁america": 3284,
      "▁towel": 3285,
      "▁however": 3286,
      "▁test": 3287,
      "▁settings": 3288,
      "##ogn": 3289,
      "##ull": 3290,
      "▁tastes": 3291,
      "▁off": 3292,
      "▁!!!!": 3293,
      "▁silk": 3294,
      "##oph": 3295,
      "▁sort": 3296,
      "▁sitting": 3297,
      "##pop": 3298,
      "▁dy": 3299,
      "▁geomet": 3300,
      "##otyp": 3301,
      "▁accep": 3302,
      "▁soda": 3303,
      "##iously": 3304,
      "##ma": 3305,
      "▁dancing": 3306,
      "##ement": 3307,
      "▁mr.": 3308,
      "▁hosting": 3309,
      "▁defic": 3310,
      "▁harmon": 3311,
      "▁homes": 3312,
      "▁affected": 3313,
      "▁airl": 3314,
      "##uce": 3315,
      "##ially": 3316,
      "##vel": 3317,
      "▁sch": 3318,
      "▁anal": 3319,
      "##mos": 3320,
      "▁insp": 3321,
      "▁view": 3322,
      "▁breast": 3323,
      "##anges": 3324,
      "▁scul": 3325,
      "##asion": 3326,
      "##ancy": 3327,
      "▁finds": 3328,
      "▁ent": 3329,
      "##isture": 3330,
      "▁cocktail": 3331,
      "##dit": 3332,
      "▁different": 3333,
      "▁officers": 3334,
      "##_": 3335,
      "▁analysis": 3336,
      "▁shared": 3337,
      "##acter": 3338,
      "▁reflects": 3339,
      "▁pron": 3340,
      "▁partners": 3341,
      "▁vint": 3342,
      "▁refl": 3343,
      "▁audio": 3344,
      "##afts": 3345,
      "▁negot": 3346,
      "▁uncertainty": 3347,
      "##ima": 3348,
      "▁opportunity": 3349,
      "▁rh": 3350,
      "##ustration": 3351,
      "▁chicago": 3352,
      "##for": 3353,
      "▁cuck": 3354,
      "▁wall": 3355,
      "▁investigate": 3356,
      "▁your": 3357,
      "##oir": 3358,
      "▁wa": 3359,
      "##fication": 3360,
      "▁university": 3361,
      "##ve": 3362,
      "##ify": 3363,
      "##lling": 3364,
      "##ball": 3365,
      "▁goo": 3366,
      "▁professor": 3367,
      "##ility": 3368,
      "▁execute": 3369,
      "▁defe": 3370,
      "▁produc": 3371,
      "▁sent": 3372,
      "▁gotten": 3373,
      "▁mac": 3374,
      "##fe": 3375,
      "##olving": 3376,
      "##uations": 3377,
      "▁soci": 3378,
      "▁********************************": 3379,
      "##asy": 3380,
      "▁sorry": 3381,
      "▁obl": 3382,
      "▁laund": 3383,
      "▁!!": 3384,
      "▁the": 3385,
      "▁screwdriver": 3386,
      "##operation": 3387,
      "▁policies": 3388,
      "▁than": 3389,
      "##ds": 3390,
      "▁km": 3391,
      "##enc": 3392,
      "▁efficiency": 3393,
      "▁visitors": 3394,
      "▁photos": 3395,
      "▁************************************************": 3396,
      "▁scan": 3397,
      "▁whoever": 3398,
      "▁govern": 3399,
      "▁either": 3400,
      "▁iran": 3401,
      "##ix": 3402,
      "##option": 3403,
      "##avi": 3404,
      "▁powers": 3405,
      "▁chemicals": 3406,
      "▁sizes": 3407,
      "▁trips": 3408,
      "▁econom": 3409,
      "▁--": 3410,
      "▁tray": 3411,
      "##itate": 3412,
      "▁living": 3413,
      "▁opinions": 3414,
      "▁bombs": 3415,
      "##itals": 3416,
      "##ght": 3417,
      "##ier": 3418,
      "▁clou": 3419,
      "▁cincinn": 3420,
      "##fully": 3421,
      "▁days": 3422,
      "▁decade": 3423,
      "##ipl": 3424,
      "▁concrete": 3425,
      "▁penny": 3426,
      "▁spider": 3427,
      "▁recru": 3428,
      "▁beds": 3429,
      "▁dc": 3430,
      "▁developed": 3431,
      "##cr": 3432,
      "##lion": 3433,
      "▁counterfeiting": 3434,
      "▁married": 3435,
      "▁city": 3436,
      "##iss": 3437,
      "▁heads": 3438,
      "##nets": 3439,
      "##ington": 3440,
      "▁financial": 3441,
      "▁pain": 3442,
      "▁plat": 3443,
      "▁routine": 3444,
      "▁islamists": 3445,
      "▁funeral": 3446,
      "##lished": 3447,
      "▁?!?": 3448,
      "##aps": 3449,
      "##irc": 3450,
      "▁stro": 3451,
      "▁aspect": 3452,
      "▁fun": 3453,
      "▁feet": 3454,
      "▁pat": 3455,
      "▁pollution": 3456,
      "▁neighborhood": 3457,
      "▁loc": 3458,
      "▁wee": 3459,
      "▁na": 3460,
      "▁directions": 3461,
      "▁connec": 3462,
      "▁produce": 3463,
      "▁route": 3464,
      "▁achievement": 3465,
      "▁facul": 3466,
      "▁award": 3467,
      "▁wedding": 3468,
      "▁authorities": 3469,
      "▁apolog": 3470,
      "▁freezer": 3471,
      "##ality": 3472,
      "▁phenomenon": 3473,
      "▁pi": 3474,
      "▁going": 3475,
      "▁students": 3476,
      "▁chairs": 3477,
      "▁beginning": 3478,
      "▁))": 3479,
      "▁dou": 3480,
      "▁laser": 3481,
      "##.": 3482,
      "▁jun": 3483,
      "▁into": 3484,
      "##ension": 3485,
      "▁elections": 3486,
      "##ache": 3487,
      "▁guidelines": 3488,
      "##low": 3489,
      "##ither": 3490,
      "##alt": 3491,
      "▁focus": 3492,
      "▁stores": 3493,
      "▁husband": 3494,
      "▁participate": 3495,
      "▁origins": 3496,
      "▁butt": 3497,
      "▁cher": 3498,
      "##rib": 3499,
      "▁nose": 3500,
      "▁earth": 3501,
      "▁forb": 3502,
      "▁forwar": 3503,
      "▁take": 3504,
      "▁vs.": 3505,
      "##ian": 3506,
      "▁songs": 3507,
      "##ou": 3508,
      "▁fashion": 3509,
      "▁uhhuh": 3510,
      "##ony": 3511,
      "▁owners": 3512,
      "▁refin": 3513,
      "▁up": 3514,
      "▁article": 3515,
      "▁bulldozer": 3516,
      "▁wife": 3517,
      "▁changes": 3518,
      "▁coc": 3519,
      "▁dw": 3520,
      "▁fam": 3521,
      "##ω": 3522,
      "▁division": 3523,
      "▁peop": 3524,
      "##ssible": 3525,
      "##bly": 3526,
      "▁thru": 3527,
      "▁seas": 3528,
      "▁glasses": 3529,
      "▁affects": 3530,
      "▁conserv": 3531,
      "▁ai": 3532,
      "▁three": 3533,
      "▁producers": 3534,
      "▁eat": 3535,
      "▁criteria": 3536,
      "▁men": 3537,
      "▁.....": 3538,
      "##anger": 3539,
      "##kes": 3540,
      "##clu": 3541,
      "▁upon": 3542,
      "▁debt": 3543,
      "▁nights": 3544,
      "##ukee": 3545,
      "##ais": 3546,
      "▁device": 3547,
      "▁fir": 3548,
      "##issors": 3549,
      "##hus": 3550,
      "##------------": 3551,
      "##bby": 3552,
      "▁reply": 3553,
      "▁hug": 3554,
      "▁ste": 3555,
      "▁bug": 3556,
      "▁sheep": 3557,
      "▁non-": 3558,
      "▁ride": 3559,
      "▁oneself": 3560,
      "▁posts": 3561,
      "##qual": 3562,
      "▁gave": 3563,
      "▁ch": 3564,
      "▁insight": 3565,
      "##apping": 3566,
      "##rition": 3567,
      "▁can": 3568,
      "▁climbed": 3569,
      "▁industry": 3570,
      "▁displ": 3571,
      "##pd": 3572,
      "▁meant": 3573,
      "▁garden": 3574,
      "▁dress": 3575,
      "▁paint": 3576,
      "##cre": 3577,
      "▁antiqu": 3578,
      "##thing": 3579,
      "▁crops": 3580,
      "▁mys": 3581,
      "▁tomatoes": 3582,
      "▁tables": 3583,
      "##enn": 3584,
      "▁lack": 3585,
      "▁bran": 3586,
      "##??": 3587,
      "▁hoof": 3588,
      "▁soil": 3589,
      "##ugh": 3590,
      "▁yea": 3591,
      "##bon": 3592,
      "▁carol": 3593,
      "▁mod": 3594,
      "▁title": 3595,
      "▁distribute": 3596,
      "##educ": 3597,
      "##oral": 3598,
      "▁internet": 3599,
      "▁bears": 3600,
      "▁farmers": 3601,
      "##gh": 3602,
      "▁market": 3603,
      "##inity": 3604,
      "▁-----------------": 3605,
      "▁accepted": 3606,
      "▁ans": 3607,
      "▁territ": 3608,
      "▁trains": 3609,
      "▁drawn": 3610,
      "##gg": 3611,
      "▁lead": 3612,
      "##uc": 3613,
      "▁pol": 3614,
      "▁negotiated": 3615,
      "▁mil": 3616,
      "▁bedroom": 3617,
      "▁sub": 3618,
      "▁tie": 3619,
      "##off": 3620,
      "▁spring": 3621,
      "▁long": 3622,
      "▁holes": 3623,
      "▁poss": 3624,
      "##leum": 3625,
      "▁lacking": 3626,
      "▁repeat": 3627,
      "▁produces": 3628,
      "▁surp": 3629,
      "▁swinging": 3630,
      "▁next": 3631,
      "▁surve": 3632,
      "##ank": 3633,
      "▁datab": 3634,
      "▁tomato": 3635,
      "##enix": 3636,
      "▁expanding": 3637,
      "▁burst": 3638,
      "▁vice": 3639,
      "▁networks": 3640,
      "▁activity": 3641,
      "▁counterfeit": 3642,
      "▁engage": 3643,
      "▁spending": 3644,
      "▁cigarette": 3645,
      "▁salad": 3646,
      "▁genius": 3647,
      "▁vess": 3648,
      "▁profits": 3649,
      "▁imp": 3650,
      "##www": 3651,
      "##ign": 3652,
      "▁mine": 3653,
      "▁orig": 3654,
      "##titude": 3655,
      "▁creation": 3656,
      "##orter": 3657,
      "▁lying": 3658,
      "▁repeated": 3659,
      "▁swung": 3660,
      "▁‘’": 3661,
      "▁opp": 3662,
      "▁paying": 3663,
      "▁cited": 3664,
      "##ture": 3665,
      "▁frag": 3666,
      "▁vis": 3667,
      "▁signific": 3668,
      "▁introducing": 3669,
      "▁civili": 3670,
      "##fl": 3671,
      "▁conflic": 3672,
      "▁carro": 3673,
      "##les": 3674,
      "▁seats": 3675,
      "▁had": 3676,
      "▁runs": 3677,
      "##rel": 3678,
      "▁thoug": 3679,
      "▁cock": 3680,
      "##____": 3681,
      "▁mountain": 3682,
      "–": 3683,
      "##arks": 3684,
      "▁reform": 3685,
      "##iciency": 3686,
      "##rs": 3687,
      "▁mus": 3688,
      "##act": 3689,
      "##tions": 3690,
      "##dge": 3691,
      "▁exec": 3692,
      "▁manual": 3693,
      "▁criticism": 3694,
      "##river": 3695,
      "▁dest": 3696,
      "▁onto": 3697,
      "▁usually": 3698,
      "▁distur": 3699,
      "▁mix": 3700,
      "▁outfit": 3701,
      "▁millions": 3702,
      "▁balloon": 3703,
      "▁sign": 3704,
      "▁cfl": 3705,
      "▁fever": 3706,
      "▁abuse": 3707,
      "▁lawy": 3708,
      "▁??": 3709,
      "▁letters": 3710,
      "##lium": 3711,
      "▁thought": 3712,
      "##ites": 3713,
      "▁lego": 3714,
      "▁listening": 3715,
      "##quis": 3716,
      "▁hur": 3717,
      "▁worth": 3718,
      "▁extrem": 3719,
      "▁brings": 3720,
      "▁eats": 3721,
      "▁time": 3722,
      "##arr": 3723,
      "##hered": 3724,
      "▁summary": 3725,
      "▁equipment": 3726,
      "▁inspection": 3727,
      "##ufact": 3728,
      "▁band": 3729,
      "▁brooms": 3730,
      "▁http": 3731,
      "▁persu": 3732,
      "##ots": 3733,
      "▁milit": 3734,
      "##ach": 3735,
      "##town": 3736,
      "▁cha": 3737,
      "▁li": 3738,
      "▁interface": 3739,
      "##veral": 3740,
      "▁parti": 3741,
      "▁big": 3742,
      "▁moments": 3743,
      "▁tear": 3744,
      "▁crying": 3745,
      "▁rub": 3746,
      "##overy": 3747,
      "▁condem": 3748,
      "ʻ": 3749,
      "##inist": 3750,
      "▁turn": 3751,
      "##inks": 3752,
      "▁followed": 3753,
      "▁pet": 3754,
      "##fications": 3755,
      "▁forg": 3756,
      "▁drive": 3757,
      "▁!!!?": 3758,
      "▁tha": 3759,
      "##eet": 3760,
      "▁entertain": 3761,
      "▁himself": 3762,
      "▁routes": 3763,
      "##ires": 3764,
      "▁conduc": 3765,
      "▁toy": 3766,
      "▁pillow": 3767,
      "▁pie": 3768,
      "##oles": 3769,
      "▁perf": 3770,
      "▁happen": 3771,
      "##!": 3772,
      "▁cleveland": 3773,
      "▁destroyed": 3774,
      "▁recorded": 3775,
      "##hib": 3776,
      "▁advertis": 3777,
      "##ving": 3778,
      "▁glove": 3779,
      "▁planned": 3780,
      "▁lab": 3781,
      "▁passes": 3782,
      "$": 3783,
      "▁tech": 3784,
      "▁contained": 3785,
      "▁arranged": 3786,
      "▁tracks": 3787,
      "##ph": 3788,
      "▁bent": 3789,
      "▁earli": 3790,
      "▁song": 3791,
      "##vailable": 3792,
      "▁cartoons": 3793,
      "▁taking": 3794,
      "▁respon": 3795,
      "▁book": 3796,
      "##ms": 3797,
      "##ior": 3798,
      "▁mar": 3799,
      "▁detail": 3800,
      "▁mi": 3801,
      "▁tail": 3802,
      "▁inform": 3803,
      "▁vi": 3804,
      "▁whether": 3805,
      "##mber": 3806,
      "▁materials": 3807,
      "▁surrounding": 3808,
      "▁foll": 3809,
      "▁extension": 3810,
      "▁compos": 3811,
      "▁boston": 3812,
      "##ann": 3813,
      "##ode": 3814,
      "##tit": 3815,
      "▁merc": 3816,
      "▁rap": 3817,
      "▁languages": 3818,
      "▁clown": 3819,
      "##a": 3820,
      "▁ingredients": 3821,
      "▁seems": 3822,
      "##ecess": 3823,
      "▁bel": 3824,
      "▁boy": 3825,
      "##ince": 3826,
      "▁news": 3827,
      "r": 3828,
      "▁pretty": 3829,
      "##case": 3830,
      "▁fix": 3831,
      "▁constituency": 3832,
      "##ired": 3833,
      "▁power": 3834,
      "▁funded": 3835,
      "▁receip": 3836,
      "##uated": 3837,
      "▁money": 3838,
      "▁missed": 3839,
      "##ly": 3840,
      "▁bringing": 3841,
      "▁bottles": 3842,
      "▁inv": 3843,
      "▁remain": 3844,
      "▁experience": 3845,
      "▁rolled": 3846,
      "##80s": 3847,
      "▁circle": 3848,
      "▁backs": 3849,
      "▁bit": 3850,
      "▁transaction": 3851,
      "##cake": 3852,
      "▁b/c": 3853,
      "▁accounts": 3854,
      "▁har": 3855,
      "▁jar": 3856,
      "▁expense": 3857,
      "▁wolf": 3858,
      "▁luck": 3859,
      "▁housing": 3860,
      "▁spr": 3861,
      "▁country": 3862,
      "▁loves": 3863,
      "▁january": 3864,
      "▁integ": 3865,
      "##cend": 3866,
      "▁try": 3867,
      "▁faces": 3868,
      "▁diversity": 3869,
      "##bre": 3870,
      "##oms": 3871,
      "##ude": 3872,
      "▁operating": 3873,
      "##ɑ": 3874,
      "▁agriculture": 3875,
      "▁contrib": 3876,
      "▁biting": 3877,
      "▁snakes": 3878,
      "▁moth": 3879,
      "##ozer": 3880,
      "▁dignity": 3881,
      "▁remove": 3882,
      "▁punch": 3883,
      "▁on": 3884,
      "##eral": 3885,
      "##ection": 3886,
      "##oul": 3887,
      "▁twist": 3888,
      "▁chief": 3889,
      "▁thous": 3890,
      "▁thurs": 3891,
      "▁river": 3892,
      "##–": 3893,
      "▁orient": 3894,
      "▁earned": 3895,
      "▁installing": 3896,
      "▁grain": 3897,
      "▁save": 3898,
      "▁resource": 3899,
      "▁nest": 3900,
      "▁suit": 3901,
      "▁whe": 3902,
      "▁document": 3903,
      "▁grounds": 3904,
      "φ": 3905,
      "##ery": 3906,
      "##u": 3907,
      "▁sep": 3908,
      "▁survival": 3909,
      "##overed": 3910,
      "##uggle": 3911,
      "▁obtain": 3912,
      "▁“": 3913,
      "▁an": 3914,
      "##rote": 3915,
      "▁owner": 3916,
      "##so": 3917,
      "▁stairs": 3918,
      "▁films": 3919,
      "##ything": 3920,
      "▁jul": 3921,
      "##ho": 3922,
      "▁findings": 3923,
      "▁!!!!!!": 3924,
      "▁harm": 3925,
      "##mate": 3926,
      "▁denti": 3927,
      "##β": 3928,
      "▁wal": 3929,
      "##ced": 3930,
      "▁turb": 3931,
      ",": 3932,
      "##ops": 3933,
      "▁bet": 3934,
      "▁carriage": 3935,
      "##riendly": 3936,
      "▁liber": 3937,
      "##ashed": 3938,
      "▁remember": 3939,
      "▁promoted": 3940,
      "##nowled": 3941,
      "▁gar": 3942,
      "▁carrying": 3943,
      "▁mathematician": 3944,
      "▁generate": 3945,
      "▁policeman": 3946,
      "##ocked": 3947,
      "▁decision": 3948,
      "▁envelop": 3949,
      "▁years": 3950,
      "▁argued": 3951,
      "▁datash": 3952,
      "##yth": 3953,
      "##ligh": 3954,
      "▁detective": 3955,
      "▁focused": 3956,
      "▁male": 3957,
      "▁managing": 3958,
      "##orized": 3959,
      "##nam": 3960,
      "##ening": 3961,
      "▁mut": 3962,
      "##%": 3963,
      "▁confirm": 3964,
      "▁round": 3965,
      "▁und": 3966,
      "▁whose": 3967,
      "▁amendment": 3968,
      "▁divers": 3969,
      "##alk": 3970,
      "▁helped": 3971,
      "##ler": 3972,
      "▁be": 3973,
      "##tiff": 3974,
      "▁insur": 3975,
      "▁trail": 3976,
      "▁deliver": 3977,
      "ς": 3978,
      "▁capacity": 3979,
      "##very": 3980,
      "▁joh": 3981,
      "▁dying": 3982,
      "▁section": 3983,
      "▁sleep": 3984,
      "▁tric": 3985,
      "▁room": 3986,
      "▁text": 3987,
      "▁lamp": 3988,
      "▁considered": 3989,
      "▁question": 3990,
      "▁without": 3991,
      "▁sw": 3992,
      "##ο": 3993,
      "##ching": 3994,
      "▁n": 3995,
      "##ine": 3996,
      "##icate": 3997,
      "▁released": 3998,
      "▁among": 3999,
      "##lish": 4000,
      "##ead": 4001,
      "♥": 4002,
      "##py": 4003,
      "▁projected": 4004,
      "▁cry": 4005,
      "▁agre": 4006,
      "▁trust": 4007,
      "▁notion": 4008,
      "##apped": 4009,
      "▁players": 4010,
      "##rons": 4011,
      "▁passport": 4012,
      "▁learning": 4013,
      "▁killed": 4014,
      "▁joined": 4015,
      "##oni": 4016,
      "▁bush": 4017,
      "▁stillman": 4018,
      "▁anyone": 4019,
      "##rectly": 4020,
      "▁april": 4021,
      "##vail": 4022,
      "▁spend": 4023,
      "▁event": 4024,
      "##owl": 4025,
      "▁framework": 4026,
      "##ieties": 4027,
      "▁em": 4028,
      "##ital": 4029,
      "##orm": 4030,
      "▁desire": 4031,
      "##dly": 4032,
      "▁initiated": 4033,
      "##ight": 4034,
      "▁purchasing": 4035,
      "▁shoot": 4036,
      "°": 4037,
      "▁imagined": 4038,
      "##ilities": 4039,
      "##ucks": 4040,
      "▁enjo": 4041,
      "▁gover": 4042,
      "▁occurred": 4043,
      "▁asc": 4044,
      "▁sandwiches": 4045,
      "▁looking": 4046,
      "▁tw": 4047,
      "▁base": 4048,
      "▁comb": 4049,
      "▁defin": 4050,
      "▁demonstrate": 4051,
      "▁neighb": 4052,
      "▁cont": 4053,
      "▁throughout": 4054,
      "##aming": 4055,
      "▁possibility": 4056,
      "▁accused": 4057,
      "##bed": 4058,
      "##ove": 4059,
      "▁edit": 4060,
      "##orld": 4061,
      "▁satisf": 4062,
      "▁ruin": 4063,
      "##ott": 4064,
      "▁session": 4065,
      "▁color": 4066,
      "▁jan": 4067,
      "▁cartoon": 4068,
      "▁mosqu": 4069,
      "##angu": 4070,
      "▁ac": 4071,
      "##iling": 4072,
      "▁bus": 4073,
      "▁union": 4074,
      "▁blood": 4075,
      "▁conferences": 4076,
      "▁units": 4077,
      "##lect": 4078,
      "▁intended": 4079,
      "▁latest": 4080,
      "▁program": 4081,
      "▁swee": 4082,
      "▁strugg": 4083,
      "▁whale": 4084,
      "##tainly": 4085,
      "▁serves": 4086,
      "▁identity": 4087,
      "▁territory": 4088,
      "▁spoken": 4089,
      "##ru": 4090,
      "▁wines": 4091,
      "▁haf": 4092,
      "▁grill": 4093,
      "▁swing": 4094,
      "##olved": 4095,
      "▁reached": 4096,
      "▁reviewing": 4097,
      "##ope": 4098,
      "▁;": 4099,
      "▁often": 4100,
      "▁assassination": 4101,
      "▁wr": 4102,
      "▁vide": 4103,
      "▁wood": 4104,
      "##ication": 4105,
      "▁grass": 4106,
      "▁dates": 4107,
      "▁flash": 4108,
      "##ung": 4109,
      "▁techniques": 4110,
      "▁grad": 4111,
      "▁novelist": 4112,
      "u": 4113,
      "▁minds": 4114,
      "▁teacher": 4115,
      "▁already": 4116,
      "▁gold": 4117,
      "##centi": 4118,
      "▁declar": 4119,
      "▁was": 4120,
      "▁least": 4121,
      "▁child": 4122,
      "##tled": 4123,
      "▁grow": 4124,
      "##elines": 4125,
      "##iousness": 4126,
      "▁blocks": 4127,
      "4": 4128,
      "▁remind": 4129,
      "##cally": 4130,
      "▁pig": 4131,
      "▁offered": 4132,
      "▁tragedies": 4133,
      "▁phrase": 4134,
      "▁exc": 4135,
      "▁poles": 4136,
      "▁clo": 4137,
      "▁scheduled": 4138,
      "##lers": 4139,
      "▁philadel": 4140,
      "▁meeting": 4141,
      "##tity": 4142,
      "##`": 4143,
      "▁flo": 4144,
      "##acy": 4145,
      "##ky": 4146,
      "▁weap": 4147,
      "▁glass": 4148,
      "▁looks": 4149,
      "##eets": 4150,
      "##alism": 4151,
      "▁raining": 4152,
      "▁palace": 4153,
      "▁legos": 4154,
      "▁regret": 4155,
      "▁examples": 4156,
      "▁tar": 4157,
      "▁fac": 4158,
      "##pri": 4159,
      "▁tourist": 4160,
      "##eren": 4161,
      "▁issue": 4162,
      "▁hamster": 4163,
      "▁fur": 4164,
      "▁desert": 4165,
      "▁possibilities": 4166,
      "▁nephew": 4167,
      "▁problems": 4168,
      "▁destruction": 4169,
      "##wa": 4170,
      "”": 4171,
      "▁accomm": 4172,
      "##ners": 4173,
      "▁chances": 4174,
      "##ver": 4175,
      "##lication": 4176,
      "▁‘": 4177,
      "▁promise": 4178,
      "##ancers": 4179,
      "▁nurs": 4180,
      "▁bun": 4181,
      "▁press": 4182,
      "▁revision": 4183,
      "▁solve": 4184,
      "##aughters": 4185,
      "▁gri": 4186,
      "▁situation": 4187,
      "▁meas": 4188,
      "##ton": 4189,
      "▁banjo": 4190,
      "##riage": 4191,
      "▁clar": 4192,
      "▁vessel": 4193,
      "▁features": 4194,
      "##ined": 4195,
      "▁explained": 4196,
      "▁commission": 4197,
      "▁hyp": 4198,
      "▁lemon": 4199,
      "##vest": 4200,
      "▁subjects": 4201,
      "▁problem": 4202,
      "▁---------------------------------------------------------------------------": 4203,
      "▁she": 4204,
      "▁environment": 4205,
      "▁moon": 4206,
      "▁gun": 4207,
      "▁s’": 4208,
      "▁consum": 4209,
      "##und": 4210,
      "▁sched": 4211,
      "▁picture": 4212,
      "▁concept": 4213,
      "##icated": 4214,
      "##eignty": 4215,
      "▁cord": 4216,
      "▁spokes": 4217,
      "▁cowboy": 4218,
      "##irl": 4219,
      "▁combined": 4220,
      "▁wing": 4221,
      "▁dump": 4222,
      "▁tol": 4223,
      "▁veget": 4224,
      "▁web": 4225,
      "▁escape": 4226,
      "▁progr": 4227,
      "▁art": 4228,
      "▁''": 4229,
      "▁costs": 4230,
      "▁per": 4231,
      "▁trave": 4232,
      "##rous": 4233,
      "▁south": 4234,
      "▁purpose": 4235,
      "##stit": 4236,
      "▁discussion": 4237,
      "▁peters": 4238,
      "▁visit": 4239,
      "▁categories": 4240,
      "##ny": 4241,
      "▁uk": 4242,
      "##ase": 4243,
      "##sul": 4244,
      "▁joke": 4245,
      "##nuts": 4246,
      "▁positions": 4247,
      "##ore": 4248,
      "▁balances": 4249,
      "▁settled": 4250,
      "▁baking": 4251,
      "▁compared": 4252,
      "##sus": 4253,
      "▁campus": 4254,
      "▁container": 4255,
      "▁etc.": 4256,
      "▁place": 4257,
      "▁arms": 4258,
      "▁puzz": 4259,
      "▁taste": 4260,
      "▁surgery": 4261,
      "▁char": 4262,
      "##ize": 4263,
      "▁atmosphere": 4264,
      "▁colour": 4265,
      "▁scholars": 4266,
      "▁fighter": 4267,
      "▁ladies": 4268,
      "▁solutions": 4269,
      "##5": 4270,
      "?": 4271,
      "##ne": 4272,
      "▁polic": 4273,
      "▁position": 4274,
      "▁spin": 4275,
      "▁holidays": 4276,
      "▁another": 4277,
      "##erve": 4278,
      "▁votes": 4279,
      "▁expect": 4280,
      "▁gym": 4281,
      "##otw": 4282,
      "▁conversation": 4283,
      "▁g": 4284,
      "▁activ": 4285,
      "##ng": 4286,
      "##ange": 4287,
      "▁prot": 4288,
      "▁boot": 4289,
      "▁attempt": 4290,
      "##tually": 4291,
      "▁letter": 4292,
      "▁concent": 4293,
      "##tick": 4294,
      "▁my": 4295,
      "▁listed": 4296,
      "▁lou": 4297,
      "##clo": 4298,
      "▁reservation": 4299,
      "▁flav": 4300,
      "▁groups": 4301,
      "##ς": 4302,
      "▁column": 4303,
      "▁goose": 4304,
      "▁partner": 4305,
      "▁eleph": 4306,
      "▁http://": 4307,
      "▁opportunities": 4308,
      "▁plays": 4309,
      "▁observ": 4310,
      "▁chap": 4311,
      "##rest": 4312,
      "▁pictures": 4313,
      "▁errors": 4314,
      "##bol": 4315,
      "▁napkin": 4316,
      "##ensity": 4317,
      "▁workers": 4318,
      "▁!!!!!!!!!!!!!!!": 4319,
      "▁commitments": 4320,
      "μ": 4321,
      "##…": 4322,
      "▁create": 4323,
      "▁snack": 4324,
      "##yl": 4325,
      "▁improvement": 4326,
      "▁became": 4327,
      "▁att": 4328,
      "▁f": 4329,
      "▁smal": 4330,
      "##str": 4331,
      "##sters": 4332,
      "▁gentle": 4333,
      "▁resume": 4334,
      "▁mosques": 4335,
      "##memb": 4336,
      "▁survey": 4337,
      "##ology": 4338,
      "▁vegas": 4339,
      "▁licensed": 4340,
      "##erating": 4341,
      "▁barn": 4342,
      "##ody": 4343,
      "▁note": 4344,
      "▁residents": 4345,
      "▁creating": 4346,
      "▁hed": 4347,
      "##ls": 4348,
      "▁service": 4349,
      "▁recorder": 4350,
      "▁absence": 4351,
      "▁ribbon": 4352,
      "##rely": 4353,
      "▁project": 4354,
      "##olution": 4355,
      "▁even": 4356,
      "##ders": 4357,
      "▁lat": 4358,
      "##ings": 4359,
      "▁roc": 4360,
      "▁toronto": 4361,
      "##ɛ": 4362,
      "##²": 4363,
      "▁known": 4364,
      "##:": 4365,
      "##arians": 4366,
      "▁ga": 4367,
      "▁counterparty": 4368,
      "t": 4369,
      "▁versions": 4370,
      "▁rocks": 4371,
      "▁organizations": 4372,
      "▁gamb": 4373,
      "##ald": 4374,
      "▁blew": 4375,
      "▁fig": 4376,
      "▁br": 4377,
      "▁5": 4378,
      "▁rode": 4379,
      "##oice": 4380,
      "##if": 4381,
      "▁security": 4382,
      "▁switch": 4383,
      "▁uncle": 4384,
      "▁viewed": 4385,
      "##yn": 4386,
      "▁platform": 4387,
      "##mm": 4388,
      "▁lessons": 4389,
      "##ulations": 4390,
      "##ocado": 4391,
      "##isions": 4392,
      "##ule": 4393,
      "▁soli": 4394,
      "▁proceed": 4395,
      "▁mountains": 4396,
      "▁lined": 4397,
      "[PAD]": 4398,
      "▁furniture": 4399,
      "##ea": 4400,
      "▁thro": 4401,
      "▁tasks": 4402,
      "##okes": 4403,
      "▁mount": 4404,
      "▁restaurant": 4405,
      "▁connections": 4406,
      "##ocation": 4407,
      "▁homeopath": 4408,
      "##ulf": 4409,
      "▁smo": 4410,
      "▁amb": 4411,
      "##load": 4412,
      "▁explanations": 4413,
      "▁requests": 4414,
      "▁refuse": 4415,
      "##ries": 4416,
      "##ease": 4417,
      "▁research": 4418,
      "▁renew": 4419,
      "▁estim": 4420,
      "▁declared": 4421,
      "##action": 4422,
      "##ishing": 4423,
      "##uis": 4424,
      "##hap": 4425,
      "▁wore": 4426,
      "##mon": 4427,
      "▁causes": 4428,
      "##artment": 4429,
      "##wear": 4430,
      "▁achieved": 4431,
      "▁abbre": 4432,
      "▁companies": 4433,
      "▁individual": 4434,
      "▁cells": 4435,
      "▁product": 4436,
      "▁out": 4437,
      "▁savings": 4438,
      "▁branch": 4439,
      "▁backed": 4440,
      "▁dec": 4441,
      "▁reef": 4442,
      "▁nature": 4443,
      "▁economists": 4444,
      "▁discover": 4445,
      "##ologies": 4446,
      "▁...............": 4447,
      "##ak": 4448,
      "▁hos": 4449,
      "▁fortune": 4450,
      "▁stock": 4451,
      "##ecks": 4452,
      "##ition": 4453,
      "▁enron": 4454,
      "▁accident": 4455,
      "▁doubts": 4456,
      "▁as": 4457,
      "▁prosec": 4458,
      "▁’’": 4459,
      "▁exposed": 4460,
      "##sure": 4461,
      "▁bacon": 4462,
      "##ort": 4463,
      "▁cos": 4464,
      "▁devoted": 4465,
      "▁les": 4466,
      "▁spent": 4467,
      "▁manag": 4468,
      "▁would": 4469,
      "▁senators": 4470,
      "▁nail": 4471,
      "▁transfer": 4472,
      "▁reach": 4473,
      "##ero": 4474,
      "##ware": 4475,
      "▁wol": 4476,
      "##ports": 4477,
      "▁unem": 4478,
      "▁perio": 4479,
      "▁dist": 4480,
      "▁pleasure": 4481,
      "##nect": 4482,
      "▁topics": 4483,
      "▁conver": 4484,
      "▁log": 4485,
      "##iry": 4486,
      "▁rule": 4487,
      "▁available": 4488,
      "##mission": 4489,
      "▁could": 4490,
      "▁wil": 4491,
      "▁fees": 4492,
      "▁life": 4493,
      "▁st.": 4494,
      "▁quartile": 4495,
      "▁oc": 4496,
      "▁conduct": 4497,
      "▁cult": 4498,
      "##oodle": 4499,
      "▁literature": 4500,
      "▁liqu": 4501,
      "▁nur": 4502,
      "##boy": 4503,
      "▁slide": 4504,
      "##cinn": 4505,
      "▁aqu": 4506,
      "▁beliefs": 4507,
      "▁progress": 4508,
      "▁productivity": 4509,
      "▁maps": 4510,
      "##inal": 4511,
      "▁sentences": 4512,
      "▁cas": 4513,
      "##ategy": 4514,
      "▁destruc": 4515,
      "▁sell": 4516,
      "▁speak": 4517,
      "▁conference": 4518,
      "▁restaurants": 4519,
      "▁guacamole": 4520,
      "▁rat": 4521,
      "▁ways": 4522,
      "▁buses": 4523,
      "▁influence": 4524,
      "▁brand": 4525,
      "▁dem": 4526,
      "##ounds": 4527,
      "▁dolph": 4528,
      "▁tons": 4529,
      "▁hambur": 4530,
      "▁epis": 4531,
      "▁chest": 4532,
      "▁xml": 4533,
      "##lection": 4534,
      "▁destin": 4535,
      "▁stirrup": 4536,
      "▁{": 4537,
      "##ay": 4538,
      "▁mosque": 4539,
      "##es": 4540,
      "##eg": 4541,
      "▁samples": 4542,
      "▁toilet": 4543,
      "▁waitress": 4544,
      "▁peanuts": 4545,
      "▁wrap": 4546,
      "▁check": 4547,
      "▁sovereignty": 4548,
      "▁terrorists": 4549,
      "▁deals": 4550,
      "▁counc": 4551,
      "▁critics": 4552,
      "▁lawyer": 4553,
      "##ioned": 4554,
      "▁enter": 4555,
      "▁design": 4556,
      "▁simply": 4557,
      "##eness": 4558,
      "▁helicop": 4559,
      "##alize": 4560,
      "▁jeans": 4561,
      "##eline": 4562,
      "▁club": 4563,
      "##'": 4564,
      "▁cro": 4565,
      "▁pittsburgh": 4566,
      "▁tip": 4567,
      "▁ris": 4568,
      "▁maintenance": 4569,
      "##ental": 4570,
      "▁n’t": 4571,
      "’": 4572,
      "▁enjoyed": 4573,
      "##ailed": 4574,
      "▁subscrib": 4575,
      "▁gas": 4576,
      "▁character": 4577,
      "▁natural": 4578,
      "▁diego": 4579,
      "▁urs": 4580,
      "▁involve": 4581,
      "▁media": 4582,
      "##ester": 4583,
      "▁bor": 4584,
      "▁mich": 4585,
      "▁pan": 4586,
      "▁....................": 4587,
      "▁give": 4588,
      "▁number": 4589,
      "##bur": 4590,
      "d": 4591,
      "▁mile": 4592,
      "##ind": 4593,
      "▁squirrel": 4594,
      "▁ne": 4595,
      "##ressing": 4596,
      "▁procedures": 4597,
      "▁vac": 4598,
      "▁limousine": 4599,
      "▁adventure": 4600,
      "▁mycelium": 4601,
      "▁decline": 4602,
      "▁advant": 4603,
      "▁sn": 4604,
      "##arl": 4605,
      "##ted": 4606,
      "▁track": 4607,
      "▁correc": 4608,
      "▁angel": 4609,
      "##age": 4610,
      "##ster": 4611,
      "▁loved": 4612,
      "▁bil": 4613,
      "▁cows": 4614,
      "##im": 4615,
      "##l": 4616,
      "▁came": 4617,
      "▁subject": 4618,
      "▁interests": 4619,
      "##ishment": 4620,
      "▁piz": 4621,
      "▁continental": 4622,
      "▁shoe": 4623,
      "##set": 4624,
      "▁conce": 4625,
      "▁growth": 4626,
      "▁play": 4627,
      "▁eggs": 4628,
      "▁bod": 4629,
      "▁gen": 4630,
      "▁children": 4631,
      "▁changing": 4632,
      "▁believes": 4633,
      "##yed": 4634,
      "▁im": 4635,
      "▁sake": 4636,
      "▁phil": 4637,
      "▁overalls": 4638,
      "##iating": 4639,
      "▁sussex": 4640,
      "▁stream": 4641,
      "▁concer": 4642,
      "##ength": 4643,
      "▁poet": 4644,
      "▁mu": 4645,
      "##en": 4646,
      "##ivid": 4647,
      "▁ket": 4648,
      "▁took": 4649,
      "▁categ": 4650,
      "▁milwaukee": 4651,
      "▁digging": 4652,
      "▁****": 4653,
      "▁veter": 4654,
      "▁expression": 4655,
      "▁surv": 4656,
      "▁sometimes": 4657,
      "▁galleries": 4658,
      "▁inn": 4659,
      "##ions": 4660,
      "▁resear": 4661,
      "▁cave": 4662,
      "▁alt.animals.": 4663,
      "##ograph": 4664,
      "▁iod": 4665,
      "▁pros": 4666,
      "▁freedoms": 4667,
      "▁amounts": 4668,
      "##oking": 4669,
      "▁hurt": 4670,
      "▁bear": 4671,
      "▁rag": 4672,
      "##cape": 4673,
      "▁sail": 4674,
      "▁who": 4675,
      "▁both": 4676,
      "▁donations": 4677,
      "▁seeking": 4678,
      "▁heel": 4679,
      "▁pages": 4680,
      "▁rock": 4681,
      "▁det": 4682,
      "▁cohes": 4683,
      "▁rose": 4684,
      "▁dogs": 4685,
      "▁tack": 4686,
      "##enth": 4687,
      "▁stat": 4688,
      "▁bl": 4689,
      "▁valu": 4690,
      "▁cincinnati": 4691,
      "▁board": 4692,
      "▁discus": 4693,
      "▁cast": 4694,
      "##anded": 4695,
      "##ance": 4696,
      "##most": 4697,
      "▁really": 4698,
      "▁attemp": 4699,
      "##us": 4700,
      "▁nursies": 4701,
      "▁other": 4702,
      "▁funding": 4703,
      "▁approved": 4704,
      "▁ends": 4705,
      "▁----": 4706,
      "▁alco": 4707,
      "##orth": 4708,
      "##ective": 4709,
      "▁newsp": 4710,
      "▁english": 4711,
      "▁pencil": 4712,
      "##ts": 4713,
      "##amus": 4714,
      "▁math": 4715,
      "▁hat": 4716,
      "▁|--------+----------------------->": 4717,
      "▁join": 4718,
      "##ghts": 4719,
      "▁tap": 4720,
      "##eries": 4721,
      "▁bul": 4722,
      "##asm": 4723,
      "##ih": 4724,
      "▁winning": 4725,
      "▁certainly": 4726,
      "▁terms": 4727,
      "▁fold": 4728,
      "##utor": 4729,
      "▁adults": 4730,
      "##urs": 4731,
      "##at": 4732,
      "▁buy": 4733,
      "▁yoga": 4734,
      "▁!?!": 4735,
      "##ottable": 4736,
      "##ied": 4737,
      "▁waiter": 4738,
      "##ift": 4739,
      "▁vill": 4740,
      "▁craw": 4741,
      "##umble": 4742,
      "▁percenti": 4743,
      "##work": 4744,
      "▁expand": 4745,
      "##ived": 4746,
      "▁toes": 4747,
      "##asa": 4748,
      "##elled": 4749,
      "▁aesthe": 4750,
      "▁trials": 4751,
      "##itement": 4752,
      "▁mrs": 4753,
      "▁business": 4754,
      "▁approach": 4755,
      "▁compar": 4756,
      "##xt": 4757,
      "▁thy": 4758,
      "▁israel": 4759,
      "##eared": 4760,
      "▁tension": 4761,
      "▁states": 4762,
      "##•": 4763,
      "▁pin": 4764,
      "▁exclu": 4765,
      "##lite": 4766,
      "▁dom": 4767,
      "##ic": 4768,
      "▁expos": 4769,
      "▁whis": 4770,
      "▁bowl": 4771,
      "▁important": 4772,
      "▁des": 4773,
      "##icide": 4774,
      "##unte": 4775,
      "▁tun": 4776,
      "##ger": 4777,
      "▁munic": 4778,
      "##ʃ": 4779,
      "▁motorc": 4780,
      "▁destination": 4781,
      "▁string": 4782,
      "▁’m": 4783,
      "▁decre": 4784,
      "▁hearings": 4785,
      "▁walks": 4786,
      "▁burn": 4787,
      "▁ocean": 4788,
      "##goti": 4789,
      "▁prevent": 4790,
      "▁travel": 4791,
      "▁field": 4792,
      "##head": 4793,
      "▁laughter": 4794,
      "▁circ": 4795,
      "▁comm": 4796,
      "▁sheet": 4797,
      "▁last": 4798,
      "▁tas": 4799,
      "▁panel": 4800,
      "▁such": 4801,
      "▁bye": 4802,
      "▁sending": 4803,
      "##uration": 4804,
      "▁shift": 4805,
      "##eck": 4806,
      "▁belong": 4807,
      "▁tour": 4808,
      "▁technologies": 4809,
      "▁recog": 4810,
      "##ution": 4811,
      "##aff": 4812,
      "▁outs": 4813,
      "##ers": 4814,
      "▁organized": 4815,
      "▁installed": 4816,
      "▁regards": 4817,
      "▁anticip": 4818,
      "▁escaped": 4819,
      "▁seeing": 4820,
      "▁vacc": 4821,
      "▁together": 4822,
      "##ils": 4823,
      "▁sex": 4824,
      "##tainty": 4825,
      "▁recruit": 4826,
      "▁password": 4827,
      "▁sant": 4828,
      "##est": 4829,
      "▁participation": 4830,
      "▁self": 4831,
      "▁congr": 4832,
      "▁basis": 4833,
      "▁port": 4834,
      "▁refused": 4835,
      "▁cancer": 4836,
      "##entions": 4837,
      "▁expert": 4838,
      "▁kinds": 4839,
      "▁journal": 4840,
      "▁comed": 4841,
      "▁coup": 4842,
      "▁squ": 4843,
      "##keys": 4844,
      "▁mice": 4845,
      "##br": 4846,
      "▁youth": 4847,
      "▁get": 4848,
      "▁patience": 4849,
      "▁rail": 4850,
      "▁improving": 4851,
      "▁pick": 4852,
      "▁women": 4853,
      "▁laughing": 4854,
      "##isting": 4855,
      "##enef": 4856,
      "##warded": 4857,
      "▁survive": 4858,
      "▁reasons": 4859,
      "▁expecting": 4860,
      "▁yester": 4861,
      "##iders": 4862,
      "▁who's": 4863,
      "##icul": 4864,
      "##des": 4865,
      "▁throu": 4866,
      "▁based": 4867,
      "▁floating": 4868,
      "▁membership": 4869,
      "##tures": 4870,
      "▁prof": 4871,
      "▁forces": 4872,
      "▁ordered": 4873,
      "▁doub": 4874,
      "▁crimes": 4875,
      "▁hers": 4876,
      "##not": 4877,
      "##rol": 4878,
      "▁innovation": 4879,
      "▁ignore": 4880,
      "▁itself": 4881,
      "y": 4882,
      "▁pip": 4883,
      "▁shadows": 4884,
      "▁candidates": 4885,
      "▁allow": 4886,
      "##ointment": 4887,
      "▁slice": 4888,
      "▁poverty": 4889,
      "▁helps": 4890,
      "##elt": 4891,
      "▁style": 4892,
      "▁gener": 4893,
      "▁fries": 4894,
      "##ical": 4895,
      "##ming": 4896,
      "▁blue": 4897,
      "▁alle": 4898,
      "##atory": 4899,
      "▁sec": 4900,
      "##roleum": 4901,
      "▁carried": 4902,
      "▁gate": 4903,
      "▁vari": 4904,
      "▁compan": 4905,
      "▁happiness": 4906,
      "▁ago": 4907,
      "▁fee": 4908,
      "▁sauce": 4909,
      "▁squirt": 4910,
      "▁[...": 4911,
      "##gement": 4912,
      "##gage": 4913,
      "▁kept": 4914,
      "▁madam": 4915,
      "▁content": 4916,
      "▁express": 4917,
      "##ι": 4918,
      "▁those": 4919,
      "▁siz": 4920,
      "▁mold": 4921,
      "▁pra": 4922,
      "▁mid": 4923,
      "▁pets": 4924,
      "##urt": 4925,
      "▁its": 4926,
      "▁edition": 4927,
      "▁grandm": 4928,
      "▁cargo": 4929,
      "##gle": 4930,
      "▁sim": 4931,
      "▁public": 4932,
      "▁ass": 4933,
      "##tling": 4934,
      "▁recon": 4935,
      "▁rul": 4936,
      "##n": 4937,
      "▁te": 4938,
      "▁begun": 4939,
      "##ron": 4940,
      "▁exception": 4941,
      "▁squeeze": 4942,
      "##iac": 4943,
      "▁departure": 4944,
      "##ook": 4945,
      "##++++": 4946,
      "▁happy": 4947,
      "##iew": 4948,
      "##f": 4949,
      "▁fi": 4950,
      "▁spons": 4951,
      "▁neph": 4952,
      "▁jose": 4953,
      "▁shed": 4954,
      "##ole": 4955,
      "▁how": 4956,
      "##bers": 4957,
      "▁select": 4958,
      "▁–": 4959,
      "##ath": 4960,
      "▁franc": 4961,
      "▁festival": 4962,
      "▁popularity": 4963,
      "##burg": 4964,
      "▁from": 4965,
      "▁sal": 4966,
      "▁writes": 4967,
      "▁access": 4968,
      "##itt": 4969,
      "▁yeah": 4970,
      "▁connection": 4971,
      "▁impression": 4972,
      "##tuce": 4973,
      "▁average": 4974,
      "▁vol": 4975,
      "▁counsel": 4976,
      "▁8": 4977,
      "▁`s": 4978,
      "▁consul": 4979,
      "▁s/he": 4980,
      "▁\"": 4981,
      "▁participating": 4982,
      "▁hous": 4983,
      "▁vacation": 4984,
      "▁universities": 4985,
      "▁burden": 4986,
      "##aze": 4987,
      "▁phr": 4988,
      "▁enc": 4989,
      "▁sear": 4990,
      "##acked": 4991,
      "##ins": 4992,
      "▁consumer": 4993,
      "j": 4994,
      "▁guests": 4995,
      "▁fright": 4996,
      "l": 4997,
      "▁soldi": 4998,
      "▁amidst": 4999,
      "###6": 5000,
      "▁contr": 5001,
      "##rem": 5002,
      "▁eval": 5003,
      "▁spokesman": 5004,
      "▁deteri": 5005,
      "▁bills": 5006,
      "##ex": 5007,
      "▁oppos": 5008,
      "▁wanting": 5009,
      "▁continued": 5010,
      "▁sense": 5011,
      "▁lesson": 5012,
      "▁regime": 5013,
      "▁item": 5014,
      "▁menti": 5015,
      "##ele": 5016,
      "▁ret": 5017,
      "##*": 5018,
      "▁kitty": 5019,
      "▁with": 5020,
      "▁built": 5021,
      "##nels": 5022,
      "##oint": 5023,
      "##derstanding": 5024,
      "▁learn": 5025,
      "##lies": 5026,
      "▁saying": 5027,
      "▁rib": 5028,
      "▁beach": 5029,
      "##uits": 5030,
      "##rim": 5031,
      "##yr": 5032,
      "▁translation": 5033,
      "▁justice": 5034,
      "▁danger": 5035,
      "▁parakeet": 5036,
      "##icals": 5037,
      "▁calend": 5038,
      "▁claimed": 5039,
      "▁start": 5040,
      "▁sar": 5041,
      "##esaw": 5042,
      "▁evolution": 5043,
      "▁gol": 5044,
      "##phis": 5045,
      "##ios": 5046,
      "▁weapons": 5047,
      "##enom": 5048,
      "▁polar": 5049,
      "▁sang": 5050,
      "##as": 5051,
      "##ularity": 5052,
      "##alth": 5053,
      "##--": 5054,
      "##min": 5055,
      "##eces": 5056,
      "▁hiding": 5057,
      "▁helic": 5058,
      "▁bill": 5059,
      "▁page": 5060,
      "▁cabb": 5061,
      "▁**********": 5062,
      "▁welcomed": 5063,
      "▁sons": 5064,
      "▁epm": 5065,
      "▁short": 5066,
      "▁gro": 5067,
      "##000": 5068,
      "##oder": 5069,
      "▁j": 5070,
      "##ime": 5071,
      "▁batteries": 5072,
      "▁gall": 5073,
      "▁dre": 5074,
      "▁minister": 5075,
      "##owed": 5076,
      "▁construc": 5077,
      "▁dev": 5078,
      "##ward": 5079,
      "##ost": 5080,
      "▁withd": 5081,
      "▁reg": 5082,
      "▁suite": 5083,
      "##ills": 5084,
      "▁cross": 5085,
      "▁guerrillas": 5086,
      "▁integr": 5087,
      "##uring": 5088,
      "▁recommendations": 5089,
      "▁choose": 5090,
      "▁investi": 5091,
      "▁of": 5092,
      "##erful": 5093,
      "▁cam": 5094,
      "▁nonstop": 5095,
      "▁marked": 5096,
      "▁minut": 5097,
      "##ai": 5098,
      "▁mech": 5099,
      "▁globe": 5100,
      "▁sli": 5101,
      "▁claims": 5102,
      "##imore": 5103,
      "▁drama": 5104,
      "##wic": 5105,
      "▁distinguish": 5106,
      "▁qui": 5107,
      "▁lif": 5108,
      "▁spea": 5109,
      "▁isl": 5110,
      "▁cod": 5111,
      "##ys": 5112,
      "▁contest": 5113,
      "▁objects": 5114,
      "▁cleaning": 5115,
      "##all": 5116,
      "##icted": 5117,
      "##put": 5118,
      "▁teh": 5119,
      "▁dig": 5120,
      "▁sees": 5121,
      "▁branches": 5122,
      "##uality": 5123,
      "m": 5124,
      "▁models": 5125,
      "##ober": 5126,
      "▁exercise": 5127,
      "▁mater": 5128,
      "▁econ": 5129,
      "##amp": 5130,
      "q": 5131,
      "##uff": 5132,
      "▁after": 5133,
      "▁success": 5134,
      "##iency": 5135,
      "▁slip": 5136,
      "▁l": 5137,
      "▁mathema": 5138,
      "##sm": 5139,
      "▁zoo": 5140,
      "▁agenda": 5141,
      "▁map": 5142,
      "▁conditions": 5143,
      "▁support": 5144,
      "▁,": 5145,
      "##ird": 5146,
      "▁neighbour": 5147,
      "▁coordin": 5148,
      "▁skills": 5149,
      "▁jail": 5150,
      "▁leaf": 5151,
      "▁bos": 5152,
      "##of": 5153,
      "▁opens": 5154,
      "##fter": 5155,
      "##qui": 5156,
      "▁works": 5157,
      "▁killing": 5158,
      "n": 5159,
      "▁ph": 5160,
      "▁wig": 5161,
      "▁cookies": 5162,
      "▁concepts": 5163,
      "##idden": 5164,
      "▁always": 5165,
      "##ction": 5166,
      "##.pdf": 5167,
      "▁dies": 5168,
      "▁ques": 5169,
      "▁roar": 5170,
      "▁reason": 5171,
      "▁rules": 5172,
      "▁beer": 5173,
      "▁accommod": 5174,
      "▁shell": 5175,
      "▁convinced": 5176,
      "##ergy": 5177,
      "▁cere": 5178,
      "▁balance": 5179,
      "▁special": 5180,
      "[CLS]": 5181,
      "▁disaster": 5182,
      "▁lake": 5183,
      "▁sect": 5184,
      "▁webs": 5185,
      "##ularly": 5186,
      "β": 5187,
      "##ured": 5188,
      "▁grandmother": 5189,
      "▁<<": 5190,
      "▁ple": 5191,
      "▁arguing": 5192,
      "▁chef": 5193,
      "▁t": 5194,
      "▁airfare": 5195,
      "▁bought": 5196,
      "▁player": 5197,
      "##rup": 5198,
      "▁alliance": 5199,
      "▁highligh": 5200,
      "▁partic": 5201,
      "▁block": 5202,
      "▁charge": 5203,
      "▁confusion": 5204,
      "▁wake": 5205,
      "▁rays": 5206,
      "▁forgot": 5207,
      "▁which": 5208,
      "▁judgments": 5209,
      "▁so": 5210,
      "▁freedom": 5211,
      "▁pred": 5212,
      "▁word": 5213,
      "▁dirt": 5214,
      "▁yet": 5215,
      "##res": 5216,
      "▁scenes": 5217,
      "##ense": 5218,
      "▁tags": 5219,
      "▁dna": 5220,
      "▁assass": 5221,
      "##orms": 5222,
      "##2": 5223,
      "▁mach": 5224,
      "##ades": 5225,
      "▁study": 5226,
      "▁smoke": 5227,
      "▁ear": 5228,
      "▁http://www": 5229,
      "▁rights": 5230,
      "##per": 5231,
      "▁labor": 5232,
      "▁cur": 5233,
      "▁fame": 5234,
      "▁existing": 5235,
      "▁sandwich": 5236,
      "▁rememb": 5237,
      "▁robot": 5238,
      "▁exh": 5239,
      "▁th": 5240,
      "▁readers": 5241,
      "##ads": 5242,
      "##olding": 5243,
      "##inning": 5244,
      "▁tutor": 5245,
      "▁mat": 5246,
      "▁services": 5247,
      "▁sea": 5248,
      "▁theme": 5249,
      "▁initi": 5250,
      "▁frequ": 5251,
      "▁caps": 5252,
      "##path": 5253,
      "▁dam": 5254,
      "▁tummy": 5255,
      "##hood": 5256,
      "##ules": 5257,
      "▁_": 5258,
      "▁possible": 5259,
      "▁captured": 5260,
      "▁fol": 5261,
      "▁interesting": 5262,
      "▁stopover": 5263,
      "▁conflict": 5264,
      "▁diff": 5265,
      "▁ya": 5266,
      "▁notice": 5267,
      "▁evolving": 5268,
      "▁ld2d-#693": 5269,
      "▁applied": 5270,
      "▁behavi": 5271,
      "##po": 5272,
      "▁firm": 5273,
      "▁lap": 5274,
      "▁priv": 5275,
      "▁neuro": 5276,
      "▁compens": 5277,
      "▁consequences": 5278,
      "▁reaching": 5279,
      "▁jew": 5280,
      "##ized": 5281,
      "▁die": 5282,
      "##board": 5283,
      "▁estimate": 5284,
      "▁reinfor": 5285,
      "▁implem": 5286,
      "7": 5287,
      "##to": 5288,
      "▁bull": 5289,
      "▁deter": 5290,
      "▁late": 5291,
      "▁department": 5292,
      "▁following": 5293,
      "▁liter": 5294,
      "▁protect": 5295,
      "▁european": 5296,
      "▁documented": 5297,
      "▁contributed": 5298,
      "##4": 5299,
      "##huh": 5300,
      "##az": 5301,
      "▁er": 5302,
      "▁phenom": 5303,
      "▁words": 5304,
      "▁con": 5305,
      "▁prepar": 5306,
      "▁pup": 5307,
      "▁laying": 5308,
      "▁ow": 5309,
      "▁wine": 5310,
      "▁air": 5311,
      "▁mo": 5312,
      "▁wond": 5313,
      "▁dining": 5314,
      "▁foods": 5315,
      "▁lear": 5316,
      "▁signs": 5317,
      "▁acc": 5318,
      "▁re-": 5319,
      "▁vict": 5320,
      "##-c": 5321,
      "▁sing": 5322,
      "##ident": 5323,
      "##am": 5324,
      "▁inte": 5325,
      "##ree": 5326,
      "##ptions": 5327,
      "▁experienced": 5328,
      "▁_______": 5329,
      "▁once": 5330,
      "▁degree": 5331,
      "▁house": 5332,
      "▁opinion": 5333,
      "▁worked": 5334,
      "▁….": 5335,
      "▁pushed": 5336,
      "▁takes": 5337,
      "▁pull": 5338,
      "▁conducted": 5339,
      "▁mont": 5340,
      "▁complete": 5341,
      "▁chocol": 5342,
      "▁pupp": 5343,
      "▁benefits": 5344,
      "▁houses": 5345,
      "▁traffic": 5346,
      "▁uni": 5347,
      "##gan": 5348,
      "▁assessing": 5349,
      "▁attorn": 5350,
      "##driver": 5351,
      "##rate": 5352,
      "▁depth": 5353,
      "▁tor": 5354,
      "▁beh": 5355,
      "▁kn": 5356,
      "▁rabb": 5357,
      "▁...": 5358,
      "##ot": 5359,
      "▁choice": 5360,
      "##ceptions": 5361,
      "▁for": 5362,
      "▁pants": 5363,
      "▁act": 5364,
      "##jection": 5365,
      "▁occasion": 5366,
      "▁fought": 5367,
      "##pet": 5368,
      "##acted": 5369,
      "▁windows": 5370,
      "▁gn": 5371,
      "▁several": 5372,
      "##rew": 5373,
      "▁connect": 5374,
      "▁suspected": 5375,
      "##ago": 5376,
      "▁spell": 5377,
      "▁plan": 5378,
      "▁component": 5379,
      "##ati": 5380,
      "##rance": 5381,
      "▁supposed": 5382,
      "##eers": 5383,
      "▁boom": 5384,
      "▁region": 5385,
      "##lines": 5386,
      "▁agreements": 5387,
      "##isters": 5388,
      "▁ending": 5389,
      "##ia": 5390,
      "▁theory": 5391,
      "▁director": 5392,
      "▁cause": 5393,
      "##ye": 5394,
      "▁approval": 5395,
      "▁swallow": 5396,
      "▁revised": 5397,
      "▁scienti": 5398,
      "▁prec": 5399,
      "▁jur": 5400,
      "▁pers": 5401,
      "##ave": 5402,
      "##0s": 5403,
      "▁chim": 5404,
      "▁pur": 5405,
      "##ul": 5406,
      "▁implications": 5407,
      "##ist": 5408,
      "##ina": 5409,
      "▁compare": 5410,
      "▁sum": 5411,
      "▁bathroom": 5412,
      "##ample": 5413,
      "▁below": 5414,
      "▁ladder": 5415,
      "▁poetry": 5416,
      "▁purse": 5417,
      "▁integration": 5418,
      "##ensus": 5419,
      "▁waters": 5420,
      "##j": 5421,
      "▁bike": 5422,
      "▁marriage": 5423,
      "▁fed": 5424,
      "▁talent": 5425,
      "▁jellyfish": 5426,
      "▁forth": 5427,
      "##aft": 5428,
      "▁writers": 5429,
      "##osing": 5430,
      "▁concerning": 5431,
      "▁couple": 5432,
      "▁maintain": 5433,
      "##ects": 5434,
      "▁explore": 5435,
      "▁apple": 5436,
      "▁write": 5437,
      "##ict": 5438,
      "##ror": 5439,
      "▁speed": 5440,
      "▁instead": 5441,
      "o": 5442,
      "▁cut": 5443,
      "▁software": 5444,
      "##elly": 5445,
      "▁let": 5446,
      "##acts": 5447,
      "##order": 5448,
      "##oke": 5449,
      "▁cover": 5450,
      "▁grape": 5451,
      "▁mot": 5452,
      "▁cheek": 5453,
      "▁feat": 5454,
      "▁material": 5455,
      "▁knows": 5456,
      "▁thing": 5457,
      "▁proper": 5458,
      "▁laid": 5459,
      "▁bodies": 5460,
      "##adle": 5461,
      "##ain": 5462,
      "▁goat": 5463,
      "▁compl": 5464,
      "▁’ll": 5465,
      "▁tub": 5466,
      "▁sac": 5467,
      "▁awareness": 5468,
      "▁assumed": 5469,
      "▁census": 5470,
      "▁mouse": 5471,
      "##duc": 5472,
      "##apolis": 5473,
      "##iv": 5474,
      "▁expansion": 5475,
      "▁calling": 5476,
      "##ount": 5477,
      "##ums": 5478,
      "##cer": 5479,
      "▁bulld": 5480,
      "▁wo": 5481,
      "}": 5482,
      "##ces": 5483,
      "▁multipl": 5484,
      "##tw": 5485,
      "▁establishing": 5486,
      "##ef": 5487,
      "▁coll": 5488,
      "▁:?": 5489,
      "##atisfaction": 5490,
      "▁translated": 5491,
      "##lent": 5492,
      "##scrib": 5493,
      "▁dioxide": 5494,
      "▁pre": 5495,
      "▁hours": 5496,
      "##erences": 5497,
      "▁thri": 5498,
      "▁friends": 5499,
      "▁race": 5500,
      "▁********": 5501,
      "▁flex": 5502,
      "▁considering": 5503,
      "▁agree": 5504,
      "▁conv": 5505,
      "▁enjambment": 5506,
      "▁contribution": 5507,
      "▁coo": 5508,
      "▁pepper": 5509,
      "##ever": 5510,
      "▁official": 5511,
      "▁businesses": 5512,
      "▁attempted": 5513,
      "▁locations": 5514,
      "##uate": 5515,
      "##ployment": 5516,
      "▁debate": 5517,
      "▁inequ": 5518,
      "▁scre": 5519,
      "▁la": 5520,
      "▁button": 5521,
      "▁yours": 5522,
      "##dy": 5523,
      "▁boss": 5524,
      "▁hippop": 5525,
      "▁mem": 5526,
      "&": 5527,
      "##oney": 5528,
      "▁enforcement": 5529,
      "▁almost": 5530,
      "▁morning": 5531,
      "##pa": 5532,
      "▁arm": 5533,
      "##inder": 5534,
      "▁chocolate": 5535,
      "▁oppose": 5536,
      "▁rever": 5537,
      "##til": 5538,
      "▁projects": 5539,
      "▁few": 5540,
      "##fer": 5541,
      "##ies": 5542,
      "##cean": 5543,
      "▁mentioned": 5544,
      "##loy": 5545,
      "▁chalk": 5546,
      "▁deb": 5547,
      "▁divid": 5548,
      "▁jumped": 5549,
      "▁diseas": 5550,
      "▁hist": 5551,
      "▁rocket": 5552,
      "##-m": 5553,
      "▁trad": 5554,
      "▁relationships": 5555,
      "▁recommendation": 5556,
      "±": 5557,
      "##ashing": 5558,
      "▁close": 5559,
      "##ocracy": 5560,
      "▁!!!!!!!!!!!!!": 5561,
      "▁apr": 5562,
      "▁silence": 5563,
      "▁efforts": 5564,
      "▁washington": 5565,
      "▁whic": 5566,
      "▁allowed": 5567,
      "▁settle": 5568,
      "▁explos": 5569,
      "▁discovered": 5570,
      "▁rele": 5571,
      "▁@": 5572,
      "▁cupboard": 5573,
      "▁excellent": 5574,
      "##iture": 5575,
      "##umn": 5576,
      "##reds": 5577,
      "▁monkey": 5578,
      "▁operator": 5579,
      "▁hands": 5580,
      "##iate": 5581,
      "▁coun": 5582,
      "▁flies": 5583,
      "e": 5584,
      "##]": 5585,
      "▁suffer": 5586,
      "##forming": 5587,
      "▁heart": 5588,
      "##uck": 5589,
      "▁seat": 5590,
      "▁fort": 5591,
      "▁dere": 5592,
      "▁plus": 5593,
      "▁cases": 5594,
      "##atched": 5595,
      "▁camera": 5596,
      "##sex": 5597,
      "##zed": 5598,
      "▁cott": 5599,
      "▁portr": 5600,
      "▁property": 5601,
      "▁interf": 5602,
      "▁finance": 5603,
      "▁sme": 5604,
      "▁democracy": 5605,
      "##ris": 5606,
      "▁dee": 5607,
      "▁persons": 5608,
      "▁-----------------------------------------------------------------------": 5609,
      "##iti": 5610,
      "##ession": 5611,
      "▁consequ": 5612,
      "▁trou": 5613,
      "▁lover": 5614,
      "▁contain": 5615,
      "▁gl": 5616,
      "▁said": 5617,
      "▁broom": 5618,
      "▁facilities": 5619,
      "▁civ": 5620,
      "▁command": 5621,
      "▁brush": 5622,
      "▁recently": 5623,
      "##roduction": 5624,
      "▁mon": 5625,
      "▁cr": 5626,
      "▁far": 5627,
      "▁fence": 5628,
      "▁invited": 5629,
      "▁listen": 5630,
      "▁novels": 5631,
      "##illing": 5632,
      "▁implementation": 5633,
      "##itional": 5634,
      "▁pri": 5635,
      "▁beautiful": 5636,
      "▁dated": 5637,
      "▁princ": 5638,
      "▁alread": 5639,
      "##antee": 5640,
      "▁trained": 5641,
      "##ro": 5642,
      "▁customs": 5643,
      "▁skill": 5644,
      "▁balzac": 5645,
      "##yond": 5646,
      "▁hang": 5647,
      "▁option": 5648,
      "##ellow": 5649,
      "▁decades": 5650,
      "▁encouraged": 5651,
      "##ate": 5652,
      "▁guide": 5653,
      "▁unemployment": 5654,
      "▁boxes": 5655,
      "h": 5656,
      "##cle": 5657,
      "##arg": 5658,
      "▁dey": 5659,
      "▁fil": 5660,
      "▁cris": 5661,
      "▁teaching": 5662,
      "▁bananas": 5663,
      "▁candy": 5664,
      "▁draw": 5665,
      "▁wi": 5666,
      "▁called": 5667,
      "▁parent": 5668,
      "▁feel": 5669,
      "▁bric": 5670,
      "▁local": 5671,
      "▁hy": 5672,
      "▁consciousness": 5673,
      "▁parad": 5674,
      "▁missile": 5675,
      "##aded": 5676,
      "▁incre": 5677,
      "##orts": 5678,
      "##ames": 5679,
      "▁peace": 5680,
      "▁little": 5681,
      "##uling": 5682,
      "▁palm": 5683,
      "##ids": 5684,
      "▁paul": 5685,
      "▁min": 5686,
      "▁dess": 5687,
      "▁un": 5688,
      "▁relation": 5689,
      "##eli": 5690,
      "▁monday": 5691,
      "▁specialist": 5692,
      "▁applying": 5693,
      "▁actually": 5694,
      "▁supermarket": 5695,
      "##jects": 5696,
      "▁interp": 5697,
      "▁mechanic": 5698,
      "▁issues": 5699,
      "##le": 5700,
      "▁sister": 5701,
      "▁orders": 5702,
      "##------": 5703,
      "▁estab": 5704,
      "▁polaro": 5705,
      "▁fear": 5706,
      "▁brain": 5707,
      "▁throat": 5708,
      "▁desk": 5709,
      "##iliation": 5710,
      "▁pos": 5711,
      "▁box": 5712,
      "##eb": 5713,
      "▁isd": 5714,
      "##ev": 5715,
      "▁ce": 5716,
      "▁community": 5717,
      "##ape": 5718,
      "▁treatments": 5719,
      "▁regard": 5720,
      "##ust": 5721,
      "▁stamp": 5722,
      "▁ideas": 5723,
      "##tch": 5724,
      "▁saw": 5725,
      "##cro": 5726,
      "##tion": 5727,
      "▁minimum": 5728,
      "▁adoption": 5729,
      "▁iodised": 5730,
      "▁find": 5731,
      "▁symbol": 5732,
      "##end": 5733,
      "▁temperature": 5734,
      "▁surface": 5735,
      "▁fears": 5736,
      "▁wan": 5737,
      "▁roll": 5738,
      "##aganda": 5739,
      "▁influ": 5740,
      "▁recip": 5741,
      "##right": 5742,
      "▁van": 5743,
      "▁singing": 5744,
      "▁organize": 5745,
      "▁pitch": 5746,
      "▁chew": 5747,
      "##eng": 5748,
      "##lan": 5749,
      "▁memphis": 5750,
      "##ter": 5751,
      "▁associated": 5752,
      "▁gallery": 5753,
      "▁wars": 5754,
      "##hether": 5755,
      "##fting": 5756,
      "▁basket": 5757,
      "▁trib": 5758,
      "##ought": 5759,
      "▁casual": 5760,
      "##unic": 5761,
      "##ry": 5762,
      "▁restriction": 5763,
      "##aging": 5764,
      "▁ing": 5765,
      "▁john": 5766,
      "▁addressing": 5767,
      "▁referen": 5768,
      "▁sover": 5769,
      "▁equality": 5770,
      "▁standing": 5771,
      "▁asks": 5772,
      "▁employ": 5773,
      "▁undert": 5774,
      "##uled": 5775,
      "▁drinks": 5776,
      "▁discussing": 5777,
      "▁describes": 5778,
      "▁theatre": 5779,
      "##ybody": 5780,
      "##ars": 5781,
      "▁flag": 5782,
      "##side": 5783,
      "▁streng": 5784,
      "▁filtered": 5785,
      "▁sights": 5786,
      "##orn": 5787,
      "##tification": 5788,
      "##su": 5789,
      "##iver": 5790,
      "##cut": 5791,
      "▁vet": 5792,
      "▁codes": 5793,
      "##gl": 5794,
      "▁shopping": 5795,
      "▁tire": 5796,
      "##alities": 5797,
      "##acing": 5798,
      "▁http://www.": 5799,
      "▁refuge": 5800,
      "▁guit": 5801,
      "▁doctor": 5802,
      "##un": 5803,
      "▁movies": 5804,
      "##iam": 5805,
      "▁mos": 5806,
      "▁small": 5807,
      "▁+": 5808,
      "▁caught": 5809,
      "▁chee": 5810,
      "##uffs": 5811,
      "##!!!!": 5812,
      "▁faith": 5813,
      "▁make": 5814,
      "##????": 5815,
      "▁participants": 5816,
      "▁ven": 5817,
      "##uil": 5818,
      "▁russ": 5819,
      "##lim": 5820,
      "▁sem": 5821,
      "##ped": 5822,
      "##clock": 5823,
      "▁links": 5824,
      "▁respond": 5825,
      "▁bro": 5826,
      "##selves": 5827,
      "▁'m": 5828,
      "▁proof": 5829,
      "ə": 5830,
      "##nis": 5831,
      "▁paused": 5832,
      "▁?!": 5833,
      "##une": 5834,
      "▁congratulate": 5835,
      "ρ": 5836,
      "##ored": 5837,
      "▁thank": 5838,
      "▁sug": 5839,
      "▁hopes": 5840,
      "▁proposal": 5841,
      "▁ill": 5842,
      "▁crimin": 5843,
      "▁vacuum": 5844,
      "▁crew": 5845,
      "▁programme": 5846,
      "▁license": 5847,
      "▁newspaper": 5848,
      "▁movie": 5849,
      "##urity": 5850,
      "▁later": 5851,
      "▁global": 5852,
      "▁because": 5853,
      "▁arch": 5854,
      "▁roof": 5855,
      "▁dolly": 5856,
      "##udes": 5857,
      "##over": 5858,
      "##oth": 5859,
      "▁clos": 5860,
      "▁???": 5861,
      "##--------+----------------": 5862,
      "▁arrow": 5863,
      "▁vine": 5864,
      "▁tos": 5865,
      "▁!!!": 5866,
      "▁stepping": 5867,
      "▁guns": 5868,
      "▁member": 5869,
      "▁better": 5870,
      "##list": 5871,
      "▁developing": 5872,
      "▁aims": 5873,
      "##ided": 5874,
      "▁calif": 5875,
      "##out": 5876,
      "##ha": 5877,
      "▁hel": 5878,
      "▁ber": 5879,
      "▁has": 5880,
      "▁cor": 5881,
      "▁disp": 5882,
      "▁schools": 5883,
      "▁powder": 5884,
      "▁!!!!!!!!!!": 5885,
      "▁chose": 5886,
      "▁cried": 5887,
      "##itely": 5888,
      "##gr": 5889,
      "▁arrang": 5890,
      "▁scientist": 5891,
      "##ren": 5892,
      "##ents": 5893,
      "▁fingers": 5894,
      "▁popcorn": 5895,
      "▁swe": 5896,
      "##int": 5897,
      "▁adm": 5898,
      "▁swww": 5899,
      "##urop": 5900,
      "▁squir": 5901,
      "▁fox": 5902,
      "▁si": 5903,
      "##ult": 5904,
      "##ulate": 5905,
      "▁laughed": 5906,
      "▁east": 5907,
      "##umes": 5908,
      "▁cre": 5909,
      "▁transformation": 5910,
      "▁highly": 5911,
      "▁gis": 5912,
      "▁bubbles": 5913,
      "▁jumping": 5914,
      "▁realised": 5915,
      "▁source": 5916,
      "##on": 5917,
      "▁miss": 5918,
      "▁sm": 5919,
      "▁representatives": 5920,
      "▁absor": 5921,
      "▁variety": 5922,
      "▁main": 5923,
      "▁king": 5924,
      "▁delive": 5925,
      "▁hea": 5926,
      "▁elim": 5927,
      "▁mis": 5928,
      "##ze": 5929,
      "▁smiling": 5930,
      "▁computers": 5931,
      "▁shoulder": 5932,
      "##ember": 5933,
      "##ale": 5934,
      "▁obs": 5935,
      "▁spec": 5936,
      "▁shown": 5937,
      "▁drug": 5938,
      "##alization": 5939,
      "▁talks": 5940,
      "▁pounds": 5941,
      "▁prom": 5942,
      "##isted": 5943,
      "▁lean": 5944,
      "▁some": 5945,
      "▁hold": 5946,
      "▁amount": 5947,
      "▁kil": 5948,
      "##ateg": 5949,
      "▁easy": 5950,
      "##aged": 5951,
      "z": 5952,
      "▁plain": 5953,
      "▁revolution": 5954,
      "▁today": 5955,
      "##ric": 5956,
      "▁reveal": 5957,
      "##iles": 5958,
      "▁stopping": 5959,
      "▁beans": 5960,
      "▁horn": 5961,
      "▁party": 5962,
      "##enti": 5963,
      "▁export": 5964,
      "##ctions": 5965,
      "▁blan": 5966,
      "##like": 5967,
      "▁sod": 5968,
      "##xts": 5969,
      "▁ceo": 5970,
      "▁taken": 5971,
      "▁selection": 5972,
      "##ment": 5973,
      "▁piece": 5974,
      "▁choo": 5975,
      "▁correspond": 5976,
      "▁feature": 5977,
      "##selve": 5978,
      "##icking": 5979,
      "▁crow": 5980,
      "##ity": 5981,
      "▁animal": 5982,
      "▁answer": 5983,
      "▁differences": 5984,
      "▁pret": 5985,
      "##ipped": 5986,
      "▁perform": 5987,
      "##ang": 5988,
      "υ": 5989,
      "##uth": 5990,
      "▁fl": 5991,
      "▁---------------------------------": 5992,
      "▁user": 5993,
      "▁gal": 5994,
      "▁these": 5995,
      "▁mother": 5996,
      "##uggles": 5997,
      "▁appear": 5998,
      "##ises": 5999,
      "▁acting": 6000,
      "▁describ": 6001,
      "▁hum": 6002,
      "##ire": 6003,
      "##orrow": 6004,
      "▁impris": 6005,
      "##earch": 6006,
      "▁delete": 6007,
      "##aper": 6008,
      "ʁ": 6009,
      "▁pl": 6010,
      "▁p": 6011,
      "▁statement": 6012,
      "▁scenar": 6013,
      "▁quantity": 6014,
      "▁listened": 6015,
      "▁til": 6016,
      "##amole": 6017,
      "##ician": 6018,
      "▁bre": 6019,
      "▁videos": 6020,
      "▁flat": 6021,
      "▁aspects": 6022,
      "##oor": 6023,
      "▁smelled": 6024,
      "▁coach": 6025,
      "##ato": 6026,
      "##ributing": 6027,
      "##vely": 6028,
      "▁surf": 6029,
      "▁reserve": 6030,
      "##time": 6031,
      "##sive": 6032,
      "▁choices": 6033,
      "▁completed": 6034,
      "▁cell": 6035,
      "##z": 6036,
      "##-1": 6037,
      "▁dragon": 6038,
      "##-": 6039,
      "##ci": 6040,
      "##phone": 6041,
      "##ute": 6042,
      "##orated": 6043,
      "▁pushing": 6044,
      "▁north": 6045,
      "##ourse": 6046,
      "▁talked": 6047,
      "##faction": 6048,
      "▁disc": 6049,
      "##oll": 6050,
      "##ino": 6051,
      "▁obsf": 6052,
      "##orate": 6053,
      "▁conform": 6054,
      "▁drove": 6055,
      "▁dolphin": 6056,
      "▁env": 6057,
      "▁**": 6058,
      "##ambment": 6059,
      "▁cooking": 6060,
      "▁continent": 6061,
      "▁load": 6062,
      "▁dividends": 6063,
      "▁ban": 6064,
      "▁pricing": 6065,
      "##nding": 6066,
      "▁think": 6067,
      "▁replace": 6068,
      "▁kiss": 6069,
      "▁wrote": 6070,
      "▁tac": 6071,
      "▁front": 6072,
      "##ycle": 6073,
      "▁lad": 6074,
      "▁serving": 6075,
      "▁astr": 6076,
      "##store": 6077,
      "▁tribe": 6078,
      "▁interpre": 6079,
      "▁enthus": 6080,
      "▁cupcake": 6081,
      "▁thoughts": 6082,
      "▁executed": 6083,
      "##om": 6084,
      "▁bird": 6085,
      "##ector": 6086,
      "▁landscape": 6087,
      "##iveness": 6088,
      "▁se": 6089,
      "▁unto": 6090,
      "▁intend": 6091,
      "▁frost": 6092,
      "▁publication": 6093,
      "##ender": 6094,
      "▁painting": 6095,
      "▁father": 6096,
      "##attle": 6097,
      "##0th": 6098,
      "##://": 6099,
      "▁reminded": 6100,
      "##tering": 6101,
      "▁instructor": 6102,
      "▁ours": 6103,
      "▁contracts": 6104,
      "##zation": 6105,
      "▁show": 6106,
      "▁terrorist": 6107,
      "##eer": 6108,
      "##als": 6109,
      "##00": 6110,
      "▁employed": 6111,
      "▁behavior": 6112,
      "▁greet": 6113,
      "##ee": 6114,
      "##ough": 6115,
      "▁poin": 6116,
      "▁indicate": 6117,
      "▁dis": 6118,
      "▁rang": 6119,
      "▁dat": 6120,
      "▁schedule": 6121,
      "▁applications": 6122,
      "##ved": 6123,
      "ʊ": 6124,
      "##oring": 6125,
      "##mped": 6126,
      "▁proposals": 6127,
      "##·": 6128,
      "##unction": 6129,
      "▁statute": 6130,
      "▁process": 6131,
      "▁moving": 6132,
      "##anc": 6133,
      "▁jobs": 6134,
      "▁vs": 6135,
      "##mit": 6136,
      "##rism": 6137,
      "▁meow": 6138,
      "▁reb": 6139,
      "▁ambul": 6140,
      "▁fall": 6141,
      "##iful": 6142,
      "▁secure": 6143,
      "▁dipl": 6144,
      "##engers": 6145,
      "▁plot": 6146,
      "##ections": 6147,
      "▁----------------------------------------------------------------------": 6148,
      "▁lock": 6149,
      "▁co-": 6150,
      "▁congress": 6151,
      "▁son": 6152,
      "▁fruits": 6153,
      "##ble": 6154,
      "▁collap": 6155,
      "##ei": 6156,
      "▁felt": 6157,
      "▁real": 6158,
      "##ats": 6159,
      "##'t": 6160,
      "##uum": 6161,
      "▁at": 6162,
      "▁jacket": 6163,
      "▁comput": 6164,
      "▁atlan": 6165,
      "##!!!!!!!!": 6166,
      "##kin": 6167,
      "##own": 6168,
      "##pathy": 6169,
      "##igration": 6170,
      "##ounce": 6171,
      "##ta": 6172,
      "▁3": 6173,
      "▁account": 6174,
      "▁ll": 6175,
      "##adel": 6176,
      "▁fat": 6177,
      "##cles": 6178,
      "##♥": 6179,
      "##edom": 6180,
      "▁photograph": 6181,
      "▁vic": 6182,
      "##ca": 6183,
      "▁thrown": 6184,
      "▁paperwork": 6185,
      "▁noon": 6186,
      "▁century": 6187,
      "▁nov": 6188,
      "##p": 6189,
      "▁babies": 6190,
      "▁great": 6191,
      "##ark": 6192,
      "▁factors": 6193,
      "▁hitting": 6194,
      "##gar": 6195,
      "▁result": 6196,
      "▁dinosaurs": 6197,
      "▁!!!!!!!": 6198,
      "▁maintained": 6199,
      "▁==----": 6200,
      "▁hit": 6201,
      "▁delivery": 6202,
      "▁they": 6203,
      "▁midnight": 6204,
      "▁cap": 6205,
      "▁volley": 6206,
      "##ination": 6207,
      "▁camer": 6208,
      "▁thursday": 6209,
      "▁settlers": 6210,
      "▁neg": 6211,
      "▁transl": 6212,
      "▁gu": 6213,
      "▁santorum": 6214,
      "▁views": 6215,
      "▁refrigerator": 6216,
      "▁artist": 6217,
      "##ached": 6218,
      "▁observed": 6219,
      "▁iron": 6220,
      "▁length": 6221,
      "##ned": 6222,
      "▁regulation": 6223,
      "▁scale": 6224,
      "▁patterns": 6225,
      "##titudes": 6226,
      "##fic": 6227,
      "##alized": 6228,
      "▁phones": 6229,
      "▁written": 6230,
      "▁cler": 6231,
      "▁shoulders": 6232,
      "▁brought": 6233,
      "▁chic": 6234,
      "▁credit": 6235,
      "▁chosen": 6236,
      "▁government": 6237,
      "##erving": 6238,
      "▁depar": 6239,
      "▁cla": 6240,
      "##ilos": 6241,
      "▁bones": 6242,
      "▁transp": 6243,
      "▁dropped": 6244,
      "▁protected": 6245,
      "##60s": 6246,
      "▁passed": 6247,
      "▁describe": 6248,
      "▁arrangements": 6249,
      "##cently": 6250,
      "##ors": 6251,
      "▁touch": 6252,
      "▁lost": 6253,
      "▁tend": 6254,
      "##bs": 6255,
      "▁drink": 6256,
      "▁pill": 6257,
      "##structed": 6258,
      "▁adapt": 6259,
      "##sent": 6260,
      "▁licens": 6261,
      "▁flower": 6262,
      "##æ": 6263,
      "##itations": 6264,
      "▁stated": 6265,
      "▁mama": 6266,
      "▁training": 6267,
      "##aser": 6268,
      "##atme": 6269,
      "▁site": 6270,
      "▁achievements": 6271,
      "##vision": 6272,
      "▁surge": 6273,
      "▁reve": 6274,
      "##'re": 6275,
      "##alty": 6276,
      "▁dresses": 6277,
      "▁mailings": 6278,
      "▁woke": 6279,
      "▁bags": 6280,
      "▁ran": 6281,
      "▁partnership": 6282,
      "▁questioned": 6283,
      "##enty": 6284,
      "▁become": 6285,
      "▁governor": 6286,
      "▁practicing": 6287,
      "▁sock": 6288,
      "▁amend": 6289,
      "▁knocked": 6290,
      "▁accum": 6291,
      "ω": 6292,
      "▁legs": 6293,
      "▁patient": 6294,
      "▁sweetie": 6295,
      "▁ha": 6296,
      "▁div": 6297,
      "▁contact": 6298,
      "##tern": 6299,
      "▁boil": 6300,
      "##(": 6301,
      "##cess": 6302,
      "▁noticed": 6303,
      "▁inches": 6304,
      "▁published": 6305,
      "▁limitations": 6306,
      "##ible": 6307,
      "▁propos": 6308,
      "▁flowers": 6309,
      "▁spray": 6310,
      "▁medic": 6311,
      "▁intel": 6312,
      "▁figures": 6313,
      "▁tra": 6314,
      "##lando": 6315,
      "▁prosp": 6316,
      "▁fight": 6317,
      "▁stands": 6318,
      "▁run": 6319,
      "▁bon": 6320,
      "##--------": 6321,
      "▁pati": 6322,
      "##inus": 6323,
      "▁tourists": 6324,
      "▁affair": 6325,
      "▁dialog": 6326,
      "##alog": 6327,
      "▁parking": 6328,
      "##ressed": 6329,
      "##iving": 6330,
      "▁website": 6331,
      "▁institutions": 6332,
      "▁hors": 6333,
      "▁bubble": 6334,
      "▁recognized": 6335,
      "▁activities": 6336,
      "▁bronze": 6337,
      "##aped": 6338,
      "▁delivered": 6339,
      "▁still": 6340,
      "##illas": 6341,
      "##?!?": 6342,
      "▁format": 6343,
      "▁hospital": 6344,
      "▁please": 6345,
      "▁schol": 6346,
      "▁explanation": 6347,
      "▁sen": 6348,
      "▁vanilla": 6349,
      "##eding": 6350,
      "▁contents": 6351,
      "▁gre": 6352,
      "▁finally": 6353,
      "##tle": 6354,
      "▁journals": 6355,
      "▁reduces": 6356,
      "▁san": 6357,
      "▁push": 6358,
      "##ooks": 6359,
      "▁constitution": 6360,
      "▁wanted": 6361,
      "▁fired": 6362,
      "▁lic": 6363,
      "▁slee": 6364,
      "▁produced": 6365,
      "▁adapted": 6366,
      "##ception": 6367,
      "▁address": 6368,
      "▁argu": 6369,
      "▁preferred": 6370,
      "▁insurance": 6371,
      "▁`": 6372,
      "▁resc": 6373,
      "▁mistakes": 6374,
      "▁charges": 6375,
      "▁suggest": 6376,
      "▁period": 6377,
      "▁je": 6378,
      "▁speaker": 6379,
      "▁alleged": 6380,
      "##ud": 6381,
      "##issions": 6382,
      "▁gathered": 6383,
      "##view": 6384,
      "▁having": 6385,
      "▁execution": 6386,
      "▁cheapest": 6387,
      "▁che": 6388,
      "▁regre": 6389,
      "##ink": 6390,
      "▁dead": 6391,
      "▁food": 6392,
      "▁denver": 6393,
      "▁tree": 6394,
      "▁nobody": 6395,
      "▁insects": 6396,
      "##mo": 6397,
      "▁journ": 6398,
      "▁zero": 6399,
      "▁commun": 6400,
      "▁divided": 6401,
      "▁technique": 6402,
      "##xce": 6403,
      "▁rug": 6404,
      "▁reflected": 6405,
      "▁definitely": 6406,
      "▁toile": 6407,
      "▁playw": 6408,
      "▁[": 6409,
      "▁apply": 6410,
      "##ad": 6411,
      "▁vlog": 6412,
      "(": 6413,
      "##ister": 6414,
      "▁feed": 6415,
      "▁anyth": 6416,
      "##ting": 6417,
      "▁straw": 6418,
      "f": 6419,
      "▁archit": 6420,
      "▁portion": 6421,
      "▁tent": 6422,
      "##0": 6423,
      "##timate": 6424,
      "▁data": 6425,
      "##ear": 6426,
      "▁holding": 6427,
      "##gin": 6428,
      "▁comes": 6429,
      "▁ach": 6430,
      "##ech": 6431,
      "##ush": 6432,
      "##********************************": 6433,
      "▁hotels": 6434,
      "▁su": 6435,
      "▁held": 6436,
      "▁china": 6437,
      "▁tried": 6438,
      "▁rolls": 6439,
      "▁occ": 6440,
      "▁u.": 6441,
      "▁flight": 6442,
      "##eration": 6443,
      "▁handling": 6444,
      "▁ord": 6445,
      "▁poc": 6446,
      "##apers": 6447,
      "▁forced": 6448,
      "##pensive": 6449,
      "##ct": 6450,
      "##ican": 6451,
      "▁none": 6452,
      "▁lin": 6453,
      "##rong": 6454,
      "▁statistics": 6455,
      "▁reviews": 6456,
      "▁tests": 6457,
      "##ens": 6458,
      "##ling": 6459,
      "##vements": 6460,
      "##hibited": 6461,
      "##orum": 6462,
      "##ep": 6463,
      "▁soc": 6464,
      "▁hand": 6465,
      "##oon": 6466,
      "▁feeling": 6467,
      "▁traveler": 6468,
      "▁preparing": 6469,
      "▁smoking": 6470,
      "▁council": 6471,
      "▁ref": 6472,
      "▁grant": 6473,
      "▁fits": 6474,
      "▁foundation": 6475,
      "▁turned": 6476,
      "▁determined": 6477,
      "▁potatoes": 6478,
      "▁rif": 6479,
      "##enings": 6480,
      "▁cove": 6481,
      "▁avoided": 6482,
      "##etition": 6483,
      "##---": 6484,
      "▁wearing": 6485,
      "##pr": 6486,
      "▁heading": 6487,
      "▁pack": 6488,
      "▁assemb": 6489,
      "▁debated": 6490,
      "▁sword": 6491,
      "##ice": 6492,
      "▁net": 6493,
      "▁relating": 6494,
      "▁reputation": 6495,
      "▁refer": 6496,
      "##ula": 6497,
      "▁items": 6498,
      "##anda": 6499,
      "▁appl": 6500,
      "▁aimed": 6501,
      "▁offices": 6502,
      "▁appears": 6503,
      "▁degrees": 6504,
      "▁tips": 6505,
      "▁scenario": 6506,
      "▁checking": 6507,
      "▁guinea": 6508,
      "##son": 6509,
      "▁standard": 6510,
      "▁diplom": 6511,
      "▁regist": 6512,
      "▁recent": 6513,
      "▁believed": 6514,
      "▁v": 6515,
      "##band": 6516,
      "##laim": 6517,
      "▁risks": 6518,
      "▁minn": 6519,
      "▁scientists": 6520,
      "▁naima": 6521,
      "▁international": 6522,
      "▁knew": 6523,
      "##liament": 6524,
      "▁ther": 6525,
      "▁element": 6526,
      "##overs": 6527,
      "▁ol": 6528,
      "▁ele": 6529,
      "▁conclusions": 6530,
      "##box": 6531,
      "▁subs": 6532,
      "▁unity": 6533,
      "▁cancel": 6534,
      "▁december": 6535,
      "▁attempts": 6536,
      "▁vegetables": 6537,
      "##inoc": 6538,
      "▁inspired": 6539,
      "▁q1": 6540,
      "▁paid": 6541,
      "##μ": 6542,
      "▁adult": 6543,
      "##ano": 6544,
      "##roduc": 6545,
      "##°": 6546,
      "▁request": 6547,
      "##ely": 6548,
      "▁wh": 6549,
      "##&": 6550,
      "▁pal": 6551,
      "▁wait": 6552,
      "▁betw": 6553,
      "▁sho": 6554,
      "##uk": 6555,
      "▁containing": 6556,
      "▁ed": 6557,
      "▁email": 6558,
      "##utions": 6559,
      "▁infl": 6560,
      "▁tick": 6561,
      "▁cinnamon": 6562,
      "##iding": 6563,
      "▁..........": 6564,
      "▁glow": 6565,
      "▁shadow": 6566,
      "##books": 6567,
      "▁car": 6568,
      "▁revenue": 6569,
      "▁quar": 6570,
      "##oard": 6571,
      "▁rapporteur": 6572,
      "##dered": 6573,
      "▁papers": 6574,
      "▁promp": 6575,
      "##lem": 6576,
      "##crib": 6577,
      "▁replacement": 6578,
      "##b": 6579,
      "▁gifts": 6580,
      "▁destroy": 6581,
      "▁stay": 6582,
      "##sts": 6583,
      "##ally": 6584,
      "##asp": 6585,
      "▁spoon": 6586,
      "▁warned": 6587,
      "▁filters": 6588,
      "##ying": 6589,
      "##ased": 6590,
      "▁bucket": 6591,
      "##an": 6592,
      "▁answ": 6593,
      "▁stre": 6594,
      "▁absorb": 6595,
      "##hea": 6596,
      "##i": 6597,
      "▁crayons": 6598,
      "▁jungle": 6599,
      "▁blow": 6600,
      "▁duckie": 6601,
      "▁median": 6602,
      "▁faculty": 6603,
      "▁crap": 6604,
      "▁anoder": 6605,
      "▁might": 6606,
      "▁ceremony": 6607,
      "▁touched": 6608,
      "▁ser": 6609,
      "▁carries": 6610,
      "▁spoke": 6611,
      "▁specific": 6612,
      "▁pulling": 6613,
      "▁gras": 6614,
      "▁enj": 6615,
      "▁grows": 6616,
      "##other": 6617,
      "▁shall": 6618,
      "▁cohesion": 6619,
      "▁intentions": 6620,
      "▁toll": 6621,
      "▁admitted": 6622,
      "▁recall": 6623,
      "▁employment": 6624,
      "▁exerc": 6625,
      "▁collected": 6626,
      "▁privacy": 6627,
      "▁pronounced": 6628,
      "▁land": 6629,
      "▁american": 6630,
      "▁worm": 6631,
      "##m": 6632,
      "▁classes": 6633,
      "▁premium": 6634,
      "▁district": 6635,
      "▁sat": 6636,
      "▁shake": 6637,
      "▁arg": 6638,
      "##rit": 6639,
      "▁emphas": 6640,
      "▁replication": 6641,
      "▁ur": 6642,
      "▁swit": 6643,
      "▁sump": 6644,
      "##..": 6645,
      "▁s": 6646,
      "▁allies": 6647,
      "▁acknowledge": 6648,
      "▁drops": 6649,
      "▁gardens": 6650,
      "##90s": 6651,
      "▁involved": 6652,
      "▁mud": 6653,
      "##ider": 6654,
      "▁attack": 6655,
      "▁ov": 6656,
      "▁lands": 6657,
      "▁refusing": 6658,
      "▁respons": 6659,
      "##ug": 6660,
      "##eting": 6661,
      "▁carrot": 6662,
      "##agement": 6663,
      "▁spe": 6664,
      "▁op": 6665,
      "▁minus": 6666,
      "▁inter": 6667,
      "▁inf": 6668,
      "▁college": 6669,
      "##ema": 6670,
      "##ern": 6671,
      "▁gather": 6672,
      "▁rep": 6673,
      "▁does": 6674,
      "▁crop": 6675,
      "▁objec": 6676,
      "##egr": 6677,
      "▁in": 6678,
      "##makers": 6679,
      "▁anth": 6680,
      "▁facts": 6681,
      "▁presented": 6682,
      "▁verif": 6683,
      "▁free": 6684,
      "▁function": 6685,
      "▁baby": 6686,
      "▁tag": 6687,
      "▁assigned": 6688,
      "▁queries": 6689,
      "##ʁ": 6690,
      "▁graduate": 6691,
      "▁spiders": 6692,
      "▁bot": 6693,
      "▁essence": 6694,
      "▁developments": 6695,
      "##ests": 6696,
      "##ht": 6697,
      "▁happening": 6698,
      "##aring": 6699,
      "▁ketchup": 6700,
      "▁sources": 6701,
      "▁med": 6702,
      "▁representative": 6703,
      "▁lists": 6704,
      "▁ded": 6705,
      "▁ld": 6706,
      "▁payment": 6707,
      "▁shows": 6708,
      "▁documentation": 6709,
      "▁reflection": 6710,
      "▁development": 6711,
      "##ooth": 6712,
      "▁invitation": 6713,
      "▁amended": 6714,
      "▁lawyers": 6715,
      "▁aircraft": 6716,
      "▁favorite": 6717,
      "##get": 6718,
      "##irt": 6719,
      "▁coop": 6720,
      "▁shuttle": 6721,
      "▁commitment": 6722,
      "▁appointed": 6723,
      "##ices": 6724,
      "▁transactions": 6725,
      "##****": 6726,
      "▁acceptance": 6727,
      "▁chickens": 6728,
      "▁components": 6729,
      "##et": 6730,
      "▁expanded": 6731,
      "▁world": 6732,
      "▁sure": 6733,
      "▁gone": 6734,
      "▁home": 6735,
      "▁jeep": 6736,
      "##ulation": 6737,
      "##ord": 6738,
      "▁quinn": 6739,
      "##6": 6740,
      "##ighter": 6741,
      "▁we": 6742,
      "▁proposed": 6743,
      "▁calendar": 6744,
      "▁transmed": 6745,
      "▁ham": 6746,
      "▁fav": 6747,
      "##quarters": 6748,
      "▁thread": 6749,
      "▁grumb": 6750,
      "▁programs": 6751,
      "▁thou": 6752,
      "▁receiving": 6753,
      "▁you": 6754,
      "▁chairman": 6755,
      "▁pipe": 6756,
      "▁species": 6757,
      "▁dream": 6758,
      "▁distance": 6759,
      "##wood": 6760,
      "##υ": 6761,
      "##ous": 6762,
      "▁roo": 6763,
      "▁park": 6764,
      "##app": 6765,
      "ι": 6766,
      "▁inst": 6767,
      "▁elbow": 6768,
      "▁opposite": 6769,
      "▁hoping": 6770,
      "##y": 6771,
      "▁laura": 6772,
      "▁circumstances": 6773,
      "▁follows": 6774,
      "▁competition": 6775,
      "▁cli": 6776,
      "▁points": 6777,
      "▁pyram": 6778,
      "▁pee": 6779,
      "▁instit": 6780,
      "▁requested": 6781,
      "##ether": 6782,
      "▁constitu": 6783,
      "##imum": 6784,
      "▁beat": 6785,
      "▁designs": 6786,
      "##go": 6787,
      "▁eth": 6788,
      "##pol": 6789,
      "▁questions": 6790,
      "▁6": 6791,
      "▁drinking": 6792,
      "▁rabbits": 6793,
      "▁determ": 6794,
      "##...": 6795,
      "‘": 6796,
      "##porte": 6797,
      "▁infrastructure": 6798,
      "▁circles": 6799,
      "▁ident": 6800,
      "▁giraff": 6801,
      "##oned": 6802,
      "▁heat": 6803,
      "▁racing": 6804,
      "▁mouth": 6805,
      "▁climate": 6806,
      "▁learned": 6807,
      "##ements": 6808,
      "▁hoped": 6809,
      "##omach": 6810,
      "▁reduce": 6811,
      "▁meetings": 6812,
      "##ological": 6813,
      "##ords": 6814,
      "▁kitten": 6815,
      "▁town": 6816,
      "▁guy": 6817,
      "▁shr": 6818,
      "##ocent": 6819,
      "##omic": 6820,
      "▁measure": 6821,
      "▁action": 6822,
      "##'clock": 6823,
      "▁clay": 6824,
      "▁articles": 6825,
      "▁repair": 6826,
      "▁therap": 6827,
      "▁2": 6828,
      "▁population": 6829,
      "­": 6830,
      "▁guess": 6831,
      "▁descriptions": 6832,
      "##ffic": 6833,
      "▁seekers": 6834,
      "##asure": 6835,
      "▁rem": 6836,
      "##-1.doc": 6837,
      "▁conf": 6838,
      "▁pm": 6839,
      "▁bean": 6840,
      "##pond": 6841,
      "##inating": 6842,
      "▁come": 6843,
      "▁sir": 6844,
      "▁animals": 6845,
      "▁enab": 6846,
      "##********": 6847,
      "▁general": 6848,
      "▁invol": 6849,
      "▁veg": 6850,
      "▁surprised": 6851,
      "▁requ": 6852,
      "▁societies": 6853,
      "▁navy": 6854,
      "▁substances": 6855,
      "▁lot": 6856,
      "▁filter": 6857,
      "##uries": 6858,
      "##fin": 6859,
      "▁haircut": 6860,
      "▁suggests": 6861,
      "▁fore": 6862,
      "▁education": 6863,
      "▁eas": 6864,
      "▁story": 6865,
      "▁sept": 6866,
      "▁heav": 6867,
      "##.xls": 6868,
      "▁voice": 6869,
      "▁server": 6870,
      "##ruption": 6871,
      "▁got": 6872,
      "▁lifetime": 6873,
      "▁purchased": 6874,
      "##eric": 6875,
      "##.m": 6876,
      "▁lay": 6877,
      "##++": 6878,
      "▁prepared": 6879,
      "▁strateg": 6880,
      "##aur": 6881,
      "##cc": 6882,
      "▁ve": 6883,
      "▁confir": 6884,
      "##erence": 6885,
      "▁cycl": 6886,
      "▁metal": 6887,
      "▁chr": 6888,
      "##ley": 6889,
      "##care": 6890,
      "##ested": 6891,
      "▁cin": 6892,
      "##ey": 6893,
      "##has": 6894,
      "▁u": 6895,
      "##ification": 6896,
      "▁advice": 6897,
      "▁miracle": 6898,
      "▁grown": 6899,
      "▁----==": 6900,
      "—": 6901,
      "▁tires": 6902,
      "##onna": 6903,
      "▁super": 6904,
      "i": 6905,
      "▁airline": 6906,
      "▁balloons": 6907,
      "##ther": 6908,
      "##essions": 6909,
      "▁collab": 6910,
      "▁x": 6911,
      "▁put": 6912,
      "▁aut": 6913,
      "▁pop": 6914,
      "##arly": 6915,
      "▁dar": 6916,
      "##ison": 6917,
      "##ok": 6918,
      "▁objectives": 6919,
      "▁ca": 6920,
      "▁fut": 6921,
      "▁audi": 6922,
      "##yst": 6923,
      "▁serv": 6924,
      "##ilosoph": 6925,
      "▁lies": 6926,
      "▁pointing": 6927,
      "##igrants": 6928,
      "##ival": 6929,
      "▁deaths": 6930,
      "▁enable": 6931,
      "##art": 6932,
      "▁wish": 6933,
      "▁client": 6934,
      "▁born": 6935,
      "##acters": 6936,
      "##tics": 6937,
      "▁matters": 6938,
      "▁rein": 6939,
      "▁gulf": 6940,
      "▁ignored": 6941,
      "##inental": 6942,
      "##ork": 6943,
      "▁organ": 6944,
      "▁transportation": 6945,
      "▁plants": 6946,
      "##mes": 6947,
      "▁colors": 6948,
      "▁suspect": 6949,
      "▁corn": 6950,
      "##aled": 6951,
      "▁review": 6952,
      "▁mad": 6953,
      "▁forward": 6954,
      "##otes": 6955,
      "##“": 6956,
      "▁depart": 6957,
      "▁connected": 6958,
      "▁app": 6959,
      "▁exper": 6960,
      "▁body": 6961,
      "▁wash": 6962,
      "▁help": 6963,
      "▁roads": 6964,
      "▁stops": 6965,
      "##ox": 6966,
      "▁monks": 6967,
      "▁morality": 6968,
      "▁din": 6969,
      "▁raise": 6970,
      "▁motor": 6971,
      "##-p": 6972,
      "##oses": 6973,
      "▁dressed": 6974,
      "##alists": 6975,
      "▁seventh": 6976,
      "▁inves": 6977,
      "##isd": 6978,
      "##cope": 6979,
      "▁som": 6980,
      "##ick": 6981,
      "▁pow": 6982,
      "▁feathers": 6983,
      "▁!!!!!!!!!!!!!!!!!!!": 6984,
      "▁pic": 6985,
      "▁eur": 6986,
      "▁blown": 6987,
      "▁created": 6988,
      "▁loss": 6989,
      "▁est": 6990,
      "▁care": 6991,
      "▁flooding": 6992,
      "##anted": 6993,
      "▁mayor": 6994,
      "▁cru": 6995,
      "▁ir": 6996,
      "▁brief": 6997,
      "ο": 6998,
      "▁shore": 6999,
      "▁name": 7000,
      "▁legisl": 7001,
      "##mitted": 7002,
      "##aced": 7003,
      "▁hear": 7004,
      "##ients": 7005,
      "▁convin": 7006,
      "▁hour": 7007,
      "▁cars": 7008,
      "##acting": 7009,
      "▁buil": 7010,
      "##med": 7011,
      "▁clean": 7012,
      "▁beg": 7013,
      "▁cab": 7014,
      "▁as400": 7015,
      "▁swim": 7016,
      "▁reduced": 7017,
      "▁area": 7018,
      "##come": 7019,
      "▁resulting": 7020,
      "##tor": 7021,
      "▁demonstr": 7022,
      "▁—": 7023,
      "##2d-": 7024,
      "##laimed": 7025,
      "▁yourself": 7026,
      "##__": 7027,
      "▁befor": 7028,
      "▁behaviors": 7029,
      "##and": 7030,
      "##temp": 7031,
      "▁football": 7032,
      "▁society": 7033,
      "##log": 7034,
      "▁until": 7035,
      "·": 7036,
      "##llow": 7037,
      "▁fine": 7038,
      "▁accompan": 7039,
      "##inally": 7040,
      "##elling": 7041,
      "▁pad": 7042,
      "▁machine": 7043,
      "▁chain": 7044,
      "▁tom": 7045,
      "▁maj": 7046,
      "##uty": 7047,
      "▁secretary": 7048,
      ".": 7049,
      "▁nash": 7050,
      "▁transport": 7051,
      "2": 7052,
      "##ticks": 7053,
      "▁wished": 7054,
      "▁re": 7055,
      "▁strength": 7056,
      "▁direc": 7057,
      "▁border": 7058,
      "##antly": 7059,
      "▁funnel": 7060,
      "##um": 7061,
      "▁fiel": 7062,
      "▁okay": 7063,
      "▁potty": 7064,
      "▁addressed": 7065,
      "▁manufact": 7066,
      "##issed": 7067,
      "##ash": 7068,
      "##arian": 7069,
      "▁-------------------------------------------------": 7070,
      "▁church": 7071,
      "▁allowing": 7072,
      "##tured": 7073,
      "▁oakland": 7074,
      "▁cerem": 7075,
      "▁writ": 7076,
      "##mans": 7077,
      "▁evalu": 7078,
      "▁prod": 7079,
      "▁availability": 7080,
      "▁ok": 7081,
      "▁mistake": 7082,
      "▁price": 7083,
      "▁egg": 7084,
      "##istence": 7085,
      "▁juice": 7086,
      "▁enh": 7087,
      "▁pilg": 7088,
      "▁entertainment": 7089,
      "▁covering": 7090,
      "▁sushi": 7091,
      "▁pocketbook": 7092,
      "▁helicopters": 7093,
      "▁0": 7094,
      "##uses": 7095,
      "æ": 7096,
      "▁estate": 7097,
      "▁don": 7098,
      "▁policy": 7099,
      "▁picked": 7100,
      "▁secon": 7101,
      "▁wagon": 7102,
      "##orti": 7103,
      "▁bar": 7104,
      "▁clothing": 7105,
      "##ise": 7106,
      "▁outf": 7107,
      "▁newspapers": 7108,
      "▁rout": 7109,
      "▁murder": 7110,
      "##aying": 7111,
      "▁composition": 7112,
      "³": 7113,
      "▁commit": 7114,
      "##re": 7115,
      "▁bud": 7116,
      "▁abo": 7117,
      "▁examine": 7118,
      "##augh": 7119,
      "▁comments": 7120,
      "▁protection": 7121,
      "▁candid": 7122,
      "▁oz": 7123,
      "▁reserv": 7124,
      "##teries": 7125,
      "##ama": 7126,
      "▁pajamas": 7127,
      "##ictions": 7128,
      "##acamole": 7129,
      "▁entities": 7130,
      "▁conversations": 7131,
      "▁inch": 7132,
      "##erves": 7133,
      "▁starting": 7134,
      "▁boat": 7135,
      "▁crossing": 7136,
      "▁threw": 7137,
      "##thers": 7138,
      "##bal": 7139,
      "▁do": 7140,
      "▁bank": 7141,
      "▁rainbow": 7142,
      "▁god": 7143,
      "▁june": 7144,
      "▁grit": 7145,
      "▁possession": 7146,
      "▁longer": 7147,
      "▁paths": 7148,
      "##uf": 7149,
      "▁cook": 7150,
      "▁typ": 7151,
      "▁involvement": 7152,
      "▁ten": 7153,
      "##ker": 7154,
      "##ourn": 7155,
      "▁dra": 7156,
      "▁studying": 7157,
      "▁host": 7158,
      "▁month": 7159,
      "##ifies": 7160,
      "▁consid": 7161,
      "▁mood": 7162,
      "▁seemed": 7163,
      "▁attorney": 7164,
      "▁live": 7165,
      "^": 7166,
      "##ants": 7167,
      "▁visa": 7168,
      "▁confidence": 7169,
      "##essment": 7170,
      "▁likes": 7171,
      "▁them": 7172,
      "▁seen": 7173,
      "▁baltimore": 7174,
      "▁insights": 7175,
      "▁match": 7176,
      "▁fro": 7177,
      "##ically": 7178,
      "▁suggestion": 7179,
      "▁tops": 7180,
      "▁compon": 7181,
      "▁assets": 7182,
      "▁impact": 7183,
      "▁granted": 7184,
      "▁wip": 7185,
      "▁inc": 7186,
      "▁gr": 7187,
      "▁score": 7188,
      "▁point": 7189,
      "▁bu": 7190,
      "▁checked": 7191,
      "▁able": 7192,
      "##ood": 7193,
      "▁childhood": 7194,
      "▁includes": 7195,
      "##peare": 7196,
      "▁tractor": 7197,
      "##hing": 7198,
      "▁knowing": 7199,
      "##.c": 7200,
      "##aos": 7201,
      "▁door": 7202,
      "▁posed": 7203,
      "▁columns": 7204,
      "▁defining": 7205,
      "##bow": 7206,
      "▁publish": 7207,
      "▁pittsbur": 7208,
      "▁stuck": 7209,
      "▁sports": 7210,
      "##unc": 7211,
      "▁conviction": 7212,
      "▁facility": 7213,
      "▁fax": 7214,
      "##icing": 7215,
      "▁pursu": 7216,
      "▁administration": 7217,
      "▁above": 7218,
      "▁wed": 7219,
      "##.s": 7220,
      "▁ap": 7221,
      "▁via": 7222,
      "##th": 7223,
      "▁profession": 7224,
      "##ruc": 7225,
      "▁brothers": 7226,
      "▁march": 7227,
      "##ide": 7228,
      "▁occupation": 7229,
      "▁corner": 7230,
      "▁relax": 7231,
      "▁myce": 7232,
      "▁plenty": 7233,
      "▁realism": 7234,
      "▁cries": 7235,
      "▁yard": 7236,
      "##uzz": 7237,
      "▁festiv": 7238,
      "##cl": 7239,
      "▁surpr": 7240,
      "##aked": 7241,
      "▁letting": 7242,
      "▁person": 7243,
      "▁reference": 7244,
      "▁assistant": 7245,
      "▁interv": 7246,
      "▁authors": 7247,
      "▁poem": 7248,
      "##ields": 7249,
      "▁stem": 7250,
      "##thy": 7251,
      "##zations": 7252,
      "▁enthusi": 7253,
      "##coon": 7254,
      "##portun": 7255,
      "##aith": 7256,
      "▁alternative": 7257,
      "▁guards": 7258,
      "##icians": 7259,
      "▁educated": 7260,
      "##hol": 7261,
      "▁tiger": 7262,
      "▁oath": 7263,
      "##v": 7264,
      "▁calc": 7265,
      "##leg": 7266,
      "##ayed": 7267,
      "##ing": 7268,
      "▁virus": 7269,
      "▁solid": 7270,
      "▁also": 7271,
      "##pen": 7272,
      "▁implementing": 7273,
      "▁tu": 7274,
      "▁lar": 7275,
      "▁female": 7276,
      "▁domain": 7277,
      "▁human": 7278,
      "▁convention": 7279,
      "▁borders": 7280,
      "▁grab": 7281,
      "▁alter": 7282,
      "▁copies": 7283,
      "▁opened": 7284,
      "##—": 7285,
      "▁goal": 7286,
      "▁increases": 7287,
      "▁playwright": 7288,
      "▁studied": 7289,
      "##aking": 7290,
      "▁prett": 7291,
      "▁worship": 7292,
      "##ney": 7293,
      "▁>": 7294,
      "▁helping": 7295,
      "▁sites": 7296,
      "▁sens": 7297,
      "▁expensive": 7298,
      "##ps": 7299,
      "▁ripped": 7300,
      "▁ant": 7301,
      "▁losing": 7302,
      "##ant": 7303,
      "##thin": 7304,
      "▁.!": 7305,
      "##me": 7306,
      "##ations": 7307,
      "▁spa": 7308,
      "##tors": 7309,
      "##red": 7310,
      "▁cards": 7311,
      "▁since": 7312,
      "▁conc": 7313,
      "▁targets": 7314,
      "▁drag": 7315,
      "##fts": 7316,
      "▁adding": 7317,
      "##erts": 7318,
      "▁plant": 7319,
      "▁ps": 7320,
      "▁enem": 7321,
      "▁legacy": 7322,
      "▁dollie": 7323,
      "▁order": 7324,
      "▁jump": 7325,
      "▁members": 7326,
      "▁sor": 7327,
      "▁query": 7328,
      "▁buc": 7329,
      "▁propose": 7330,
      "▁near": 7331,
      "▁campaign": 7332,
      "▁course": 7333,
      "▁studies": 7334,
      "▁against": 7335,
      "##=": 7336,
      "▁tea": 7337,
      "▁concerned": 7338,
      "▁princip": 7339,
      "##oot": 7340,
      "▁network": 7341,
      "▁leader": 7342,
      "▁feelings": 7343,
      "▁morn": 7344,
      "##ient": 7345,
      "▁manufacturers": 7346,
      "▁products": 7347,
      "▁friend": 7348,
      "##friend": 7349,
      "▁arrest": 7350,
      "##orting": 7351,
      "▁spotted": 7352,
      "▁performance": 7353,
      "▁replaced": 7354,
      "▁most": 7355,
      "##ences": 7356,
      "▁meter": 7357,
      "▁assistance": 7358,
      "##up": 7359,
      "▁analyses": 7360,
      "▁hund": 7361,
      "##cing": 7362,
      "▁judg": 7363,
      "##iced": 7364,
      "▁committee": 7365,
      "▁cig": 7366,
      "▁growing": 7367,
      "▁sight": 7368,
      "▁object": 7369,
      "▁attended": 7370,
      "▁correspondence": 7371,
      "▁invest": 7372,
      "▁aven": 7373,
      "▁are": 7374,
      "▁series": 7375,
      "▁’ve": 7376,
      "▁role": 7377,
      "##ansion": 7378,
      "##ong": 7379,
      "##pl": 7380,
      "▁outc": 7381,
      "▁dism": 7382,
      "▁numbers": 7383,
      "▁anti": 7384,
      "##enders": 7385,
      "▁dwww": 7386,
      "▁contacts": 7387,
      "▁rip": 7388,
      "▁top": 7389,
      "▁keep": 7390,
      "▁print": 7391,
      "▁myself": 7392,
      "▁guest": 7393,
      "▁interference": 7394,
      "▁blog": 7395,
      "▁tongue": 7396,
      "▁stomach": 7397,
      "▁extended": 7398,
      "▁fabric": 7399,
      "▁sunlight": 7400,
      "▁charlotte": 7401,
      "▁receipt": 7402,
      "##oked": 7403,
      "▁certi": 7404,
      "▁architect": 7405,
      "▁neighbor": 7406,
      "▁licenses": 7407,
      "▁resour": 7408,
      "▁resp": 7409,
      "▁wand": 7410,
      "##zz": 7411,
      "▁mission": 7412,
      "▁angeles": 7413,
      "▁bri": 7414,
      "▁equals": 7415,
      "▁lighting": 7416,
      "##ativity": 7417,
      "▁limb": 7418,
      "▁volunte": 7419,
      "▁sil": 7420,
      "▁included": 7421,
      "▁res": 7422,
      "▁tomorrow": 7423,
      "▁elect": 7424,
      "▁poo": 7425,
      "▁wonder": 7426,
      "##ien": 7427,
      "##|": 7428,
      "##liday": 7429,
      "▁details": 7430,
      "▁same": 7431,
      "▁sleeping": 7432,
      "▁red": 7433,
      "▁prevail": 7434,
      "▁mop": 7435,
      "##lo": 7436,
      "▁z": 7437,
      "##oup": 7438,
      "▁stri": 7439,
      "▁dan": 7440,
      "##orded": 7441,
      "▁her": 7442,
      "▁references": 7443,
      "▁mixed": 7444,
      "▁.......": 7445,
      "▁admit": 7446,
      "▁chees": 7447,
      "▁straps": 7448,
      "▁entitled": 7449,
      "▁hoo": 7450,
      "▁sting": 7451,
      "##omet": 7452,
      "##ism": 7453,
      "▁remarks": 7454,
      "▁reserves": 7455,
      "▁rats": 7456,
      "▁comparison": 7457,
      "▁atmos": 7458,
      "▁placed": 7459,
      "▁seek": 7460,
      "▁experi": 7461,
      "▁immigration": 7462,
      "##qu": 7463,
      "▁folks": 7464,
      "▁sh": 7465,
      "▁hundreds": 7466,
      "▁spacetime": 7467,
      "▁proce": 7468,
      "▁worms": 7469,
      "▁congratulations": 7470,
      "▁edge": 7471,
      "▁mush": 7472,
      "▁climb": 7473,
      "▁announced": 7474,
      "##round": 7475,
      "▁roles": 7476,
      "▁hor": 7477,
      "▁oil": 7478,
      "▁mushroom": 7479,
      "▁capability": 7480,
      "##tices": 7481,
      "▁sy": 7482,
      "##atures": 7483,
      "##iod": 7484,
      "##wi": 7485,
      "▁reception": 7486,
      "##sp": 7487,
      "▁within": 7488,
      "▁snow": 7489,
      "•": 7490,
      "▁ma": 7491,
      "▁kitchen": 7492,
      "##fted": 7493,
      "▁hom": 7494,
      "##er": 7495,
      "##ping": 7496,
      "▁divisions": 7497,
      "▁appeared": 7498,
      "▁files": 7499,
      "##ville": 7500,
      "##unt": 7501,
      "▁dece": 7502,
      "▁planes": 7503,
      "▁decide": 7504,
      "##isation": 7505,
      "▁methods": 7506,
      "▁gent": 7507,
      "▁preparation": 7508,
      "##tims": 7509,
      "▁goods": 7510,
      "▁lets": 7511,
      "▁led": 7512,
      "▁/": 7513,
      "##º": 7514,
      "▁grew": 7515,
      "▁colleag": 7516,
      "▁inclu": 7517,
      "0": 7518,
      "▁sugg": 7519,
      "##inds": 7520,
      "▁battery": 7521,
      "▁knight": 7522,
      "##nesday": 7523,
      "##ld": 7524,
      "▁favour": 7525,
      "\"": 7526,
      "▁talk": 7527,
      "▁shade": 7528,
      "##reat": 7529,
      "▁meaning": 7530,
      "▁forms": 7531,
      "##atch": 7532,
      "▁legislature": 7533,
      "▁treated": 7534,
      "▁crisis": 7535,
      "▁euro": 7536,
      "▁becomes": 7537,
      "▁col": 7538,
      "##igning": 7539,
      "▁discuss": 7540,
      "▁go": 7541,
      "▁bew": 7542,
      "▁officer": 7543,
      "##ump": 7544,
      "##bility": 7545,
      "▁aff": 7546,
      "##ated": 7547,
      "▁appropri": 7548,
      "▁pro": 7549,
      "##iation": 7550,
      "##ipping": 7551,
      "▁ticket": 7552,
      "▁ton": 7553,
      "▁opposition": 7554,
      "##ll": 7555,
      "▁!!!!!": 7556,
      "##te": 7557,
      "▁squi": 7558,
      "▁begins": 7559,
      "▁profess": 7560,
      "##ness": 7561,
      "▁across": 7562,
      "▁sweep": 7563,
      "▁transit": 7564,
      "▁bound": 7565,
      "▁pir": 7566,
      "▁yogurt": 7567,
      "▁testing": 7568,
      "▁leg": 7569,
      "▁a.m.": 7570,
      "##ating": 7571,
      "##ceived": 7572,
      "##eeds": 7573,
      "##ics": 7574,
      "##q": 7575,
      "▁degre": 7576,
      "▁group": 7577,
      "##ø": 7578,
      "▁challen": 7579,
      "▁characters": 7580,
      "▁culture": 7581,
      "▁vaccine": 7582,
      "▁mag": 7583,
      "##ation": 7584,
      "▁indicates": 7585,
      "▁n't": 7586,
      "▁processing": 7587,
      "▁size": 7588,
      "▁cliff": 7589,
      "▁ter": 7590,
      "▁rising": 7591,
      "▁intern": 7592,
      "##ch": 7593,
      "▁dign": 7594,
      "▁manage": 7595,
      "▁fields": 7596,
      "##utiful": 7597,
      "▁very": 7598,
      "▁informed": 7599,
      "▁reven": 7600,
      "##ones": 7601,
      "##ium": 7602,
      "▁thir": 7603,
      "▁mili": 7604,
      "##ret": 7605,
      "##k": 7606,
      "##inated": 7607,
      "▁pump": 7608,
      "▁vegetable": 7609,
      "▁diss": 7610,
      "▁used": 7611,
      "▁…": 7612,
      "##uals": 7613,
      "▁girlfriend": 7614,
      "▁wid": 7615,
      "▁core": 7616,
      "▁draft": 7617,
      "▁teen": 7618,
      "▁guerr": 7619,
      "##ould": 7620,
      "##een": 7621,
      "##ici": 7622,
      "▁susp": 7623,
      "▁ke": 7624,
      "▁each": 7625,
      "##estiv": 7626,
      "##za": 7627,
      "##inter": 7628,
      "▁purple": 7629,
      "▁assu": 7630,
      "▁notch": 7631,
      "##**********************************": 7632,
      "▁force": 7633,
      "▁bal": 7634,
      "▁beef": 7635,
      "▁financ": 7636,
      "▁certain": 7637,
      "▁ceiling": 7638,
      "▁september": 7639,
      "##esthe": 7640,
      "##id": 7641,
      "##)": 7642,
      "▁controls": 7643,
      "▁leading": 7644,
      "▁issued": 7645,
      "▁!?": 7646,
      "▁creates": 7647,
      "##ew": 7648,
      "▁away": 7649,
      "▁editors": 7650,
      "▁where": 7651,
      "▁demanding": 7652,
      "▁statis": 7653,
      "##boat": 7654,
      "▁hurry": 7655,
      "▁quino": 7656,
      "▁import": 7657,
      "▁increased": 7658,
      "▁excel": 7659,
      "▁parake": 7660,
      "##ka": 7661,
      "▁ped": 7662,
      "##ried": 7663,
      "##play": 7664,
      "##otted": 7665,
      "▁difficult": 7666,
      "▁here": 7667,
      "##ning": 7668,
      "▁victims": 7669,
      "▁elected": 7670,
      "##alls": 7671,
      "▁chance": 7672,
      "▁may": 7673,
      "▁broke": 7674,
      "▁taxi": 7675,
      "▁village": 7676,
      "▁nice": 7677,
      "▁accompanied": 7678,
      "▁thousands": 7679,
      "##gency": 7680,
      "▁path": 7681,
      "▁montreal": 7682,
      "▁geor": 7683,
      "##lities": 7684,
      "▁sticker": 7685,
      "▁jury": 7686,
      "▁leaned": 7687,
      "##uch": 7688,
      "##ished": 7689,
      "▁incitement": 7690,
      "▁surround": 7691,
      "##verage": 7692,
      "##erm": 7693,
      "▁hide": 7694,
      "▁poll": 7695,
      "##ities": 7696,
      "▁foli": 7697,
      "▁bomb": 7698,
      "▁difficulty": 7699,
      "▁performed": 7700,
      "▁parks": 7701,
      "##ives": 7702,
      "▁us": 7703,
      "▁providing": 7704,
      "▁fe": 7705,
      "▁vers": 7706,
      "▁nails": 7707,
      "##arture": 7708,
      "▁deck": 7709,
      "##rops": 7710,
      "▁pray": 7711,
      "##ra": 7712,
      "##orp": 7713,
      "▁thre": 7714,
      "▁sarah": 7715,
      "▁second": 7716,
      "▁enjoy": 7717,
      "▁proc": 7718,
      "▁bir": 7719,
      "▁erase": 7720,
      "▁dim": 7721,
      "▁to": 7722,
      "▁tri": 7723,
      "▁x3": 7724,
      "##ana": 7725,
      "##essed": 7726,
      "▁vom": 7727,
      "▁giving": 7728,
      "▁brows": 7729,
      "▁advertising": 7730,
      "▁value": 7731,
      "▁wheel": 7732,
      "▁concl": 7733,
      "▁docum": 7734,
      "▁communities": 7735,
      "▁why": 7736,
      "##--------------------------------": 7737,
      "##forcement": 7738,
      "▁tasted": 7739,
      "▁butterfl": 7740,
      "▁louis": 7741,
      "▁stranger": 7742,
      "▁var": 7743,
      "▁statue": 7744,
      "▁people": 7745,
      "▁maint": 7746,
      "▁?????": 7747,
      "▁unf": 7748,
      "▁parts": 7749,
      "▁square": 7750,
      "▁gram": 7751,
      "▁sush": 7752,
      "##cent": 7753,
      "▁colon": 7754,
      "▁flights": 7755,
      "▁file": 7756,
      "▁television": 7757,
      "▁funds": 7758,
      "##rated": 7759,
      "▁laws": 7760,
      "▁not": 7761,
      "##umin": 7762,
      "▁exposure": 7763,
      "▁wrong": 7764,
      "##ights": 7765,
      "##asing": 7766,
      "▁awa": 7767,
      "▁nume": 7768,
      "▁despite": 7769,
      "▁much": 7770,
      "▁issu": 7771,
      "▁pumpkin": 7772,
      "##ability": 7773,
      "▁-": 7774,
      "▁provides": 7775,
      "▁while": 7776,
      "▁use": 7777,
      "▁sunday": 7778,
      "▁pile": 7779,
      "##tly": 7780,
      "▁gir": 7781,
      "##uh": 7782,
      "##@": 7783,
      "▁exch": 7784,
      "▁events": 7785,
      "▁mathematics": 7786,
      "##eor": 7787,
      "▁radio": 7788,
      "▁gradu": 7789,
      "##ending": 7790,
      "▁list": 7791,
      "▁assess": 7792,
      "▁crit": 7793,
      "▁strive": 7794,
      "▁dogg": 7795,
      "▁......": 7796,
      "##ctly": 7797,
      "▁relief": 7798,
      "▁pen": 7799,
      "##mpl": 7800,
      "▁unlike": 7801,
      "▁recipient": 7802,
      "▁kill": 7803,
      "##σ": 7804,
      "▁coff": 7805,
      "▁americans": 7806,
      "▁new": 7807,
      "▁scissors": 7808,
      "##arters": 7809,
      "▁fellows": 7810,
      "##ognition": 7811,
      "▁survived": 7812,
      "▁analy": 7813,
      "▁aside": 7814,
      "▁ge": 7815,
      "▁setting": 7816,
      "▁their": 7817,
      "##uss": 7818,
      "▁poop": 7819,
      "▁sin": 7820,
      "▁pover": 7821,
      "▁owe": 7822,
      "▁hamb": 7823,
      "▁have": 7824,
      "▁bea": 7825,
      "▁suitcase": 7826,
      "▁repa": 7827,
      "▁left": 7828,
      "▁stretch": 7829,
      "▁addition": 7830,
      "▁humans": 7831,
      "▁sequ": 7832,
      "▁alcohol": 7833,
      "▁impro": 7834,
      "▁error": 7835,
      "▁islam": 7836,
      "▁chicken": 7837,
      "##bing": 7838,
      "▁festivals": 7839,
      "##+----------------": 7840,
      "▁traff": 7841,
      "▁potato": 7842,
      "▁pour": 7843,
      "▁photography": 7844,
      "▁emails": 7845,
      "▁'ll": 7846,
      "##ears": 7847,
      "▁contribute": 7848,
      "##oices": 7849,
      "▁cons": 7850,
      "▁checks": 7851,
      "▁dishes": 7852,
      "▁turtle": 7853,
      "##ortant": 7854,
      "▁!.": 7855,
      "▁momma": 7856,
      "▁pace": 7857,
      "▁interaction": 7858,
      "▁large": 7859,
      "##ˈ": 7860,
      "▁cities": 7861,
      "▁requirements": 7862,
      "▁belief": 7863,
      "▁minutes": 7864,
      "▁crayon": 7865,
      "##ional": 7866,
      "▁venture": 7867,
      "▁demand": 7868,
      "▁huge": 7869,
      "▁distributed": 7870,
      "▁par": 7871,
      "▁analyst": 7872,
      "##arked": 7873,
      "▁hosp": 7874,
      "▁cheap": 7875,
      "##met": 7876,
      "▁clear": 7877,
      "##oration": 7878,
      "▁promote": 7879,
      "▁leads": 7880,
      "▁organiz": 7881,
      "▁anything": 7882,
      "▁piv": 7883,
      "##.doc": 7884,
      "▁towed": 7885,
      "▁poodle": 7886,
      "##----": 7887,
      "##ar": 7888,
      "▁coverage": 7889,
      "▁aid": 7890,
      "▁estimated": 7891,
      "▁strategies": 7892,
      "▁moisture": 7893,
      "σ": 7894,
      "##scope": 7895,
      "▁pu": 7896,
      "▁iraq": 7897,
      "▁settlement": 7898,
      "▁percentage": 7899,
      "▁thinking": 7900,
      "▁rebuild": 7901,
      "▁baseball": 7902,
      "▁ling": 7903,
      "▁speci": 7904,
      "##sets": 7905,
      "##sing": 7906,
      "▁attract": 7907,
      "▁generated": 7908,
      "ˈ": 7909,
      "▁prac": 7910,
      "▁independence": 7911,
      "▁techniqu": 7912,
      "▁winter": 7913,
      "▁notes": 7914,
      "##ention": 7915,
      "##abit": 7916,
      "##mal": 7917,
      "▁missiles": 7918,
      "▁conclu": 7919,
      "▁legislation": 7920,
      "▁remained": 7921,
      "▁greeted": 7922,
      "▁mommy": 7923,
      "▁understand": 7924,
      "▁working": 7925,
      "▁californ": 7926,
      "##etro": 7927,
      "▁destiny": 7928,
      "##ill": 7929,
      "▁wire": 7930,
      "▁tied": 7931,
      "▁iodine": 7932,
      "▁wit": 7933,
      "▁due": 7934,
      "▁pean": 7935,
      "##ten": 7936,
      "▁pilot": 7937,
      "▁old": 7938,
      "▁day": 7939,
      "##kle": 7940,
      "▁located": 7941,
      "▁>>": 7942,
      "▁espec": 7943,
      "##rou": 7944,
      "▁*": 7945,
      "▁whatever": 7946,
      "▁phys": 7947,
      "##lined": 7948,
      "▁feedback": 7949,
      "##yp": 7950,
      "▁focusing": 7951,
      "▁purs": 7952,
      "▁enti": 7953,
      "##ding": 7954,
      "▁iv": 7955,
      "##icult": 7956,
      "▁pr": 7957,
      "▁uncer": 7958,
      "▁polaroids": 7959,
      "##hen": 7960,
      "▁periods": 7961,
      "##ading": 7962,
      "▁exceed": 7963,
      "##ales": 7964,
      "▁wor": 7965,
      "##gation": 7966,
      "##omed": 7967,
      "▁perspective": 7968,
      "##arity": 7969,
      "▁afternoon": 7970,
      "▁sleeve": 7971,
      "##iness": 7972,
      "##ard": 7973,
      "##osen": 7974,
      "▁dealer": 7975,
      "▁drawing": 7976,
      "▁arri": 7977,
      "▁phase": 7978,
      "##eak": 7979,
      "▁default": 7980,
      "▁asyl": 7981,
      "▁open": 7982,
      "▁terrorism": 7983,
      "▁turning": 7984,
      "##ie": 7985,
      "▁prohibited": 7986,
      "##imed": 7987,
      "▁fles": 7988,
      "▁improve": 7989,
      "▁attitude": 7990,
      "▁destro": 7991,
      "##ature": 7992,
      "##air": 7993,
      "▁team": 7994,
      "▁citiz": 7995,
      "##rors": 7996,
      "▁collapsed": 7997,
      "##oving": 7998,
      "##atives": 7999,
      "▁limit": 8000,
      "▁difference": 8001,
      "▁know": 8002,
      "▁oh": 8003,
      "▁deli": 8004,
      "▁obst": 8005,
      "▁environ": 8006,
      "{": 8007,
      "##abilities": 8008,
      "▁layout": 8009,
      "▁need": 8010,
      "▁wild": 8011,
      "▁jos": 8012,
      "##urn": 8013,
      "▁grid": 8014,
      "##onal": 8015,
      "##pan": 8016,
      "▁low": 8017,
      "▁that": 8018,
      "▁eliminate": 8019,
      "▁corners": 8020,
      "▁tale": 8021,
      "##t": 8022,
      "##form": 8023,
      "▁bas": 8024,
      "▁minute": 8025,
      "##tery": 8026,
      "▁mr": 8027,
      "▁film": 8028,
      "##/": 8029,
      "##hin": 8030,
      "▁neighbors": 8031,
      "▁purpos": 8032,
      "▁social": 8033,
      "k": 8034,
      "▁associ": 8035,
      "▁interpret": 8036,
      "##^": 8037,
      "##man": 8038,
      "##life": 8039,
      "▁responsibilities": 8040,
      "▁airplan": 8041,
      "▁fare": 8042,
      "▁hard": 8043,
      "▁knock": 8044,
      "▁enterpr": 8045,
      "▁oblig": 8046,
      "##ides": 8047,
      "##ained": 8048,
      "▁avocado": 8049,
      "##men": 8050,
      "▁model": 8051,
      "▁ballet": 8052,
      "▁afric": 8053,
      "##uit": 8054,
      "▁expectations": 8055,
      "##usted": 8056,
      "▁teams": 8057,
      "▁fans": 8058,
      "▁exhibit": 8059,
      "##iring": 8060,
      "▁alt.animals": 8061,
      "##istic": 8062,
      "▁abe": 8063,
      "▁and": 8064,
      "▁hall": 8065,
      "▁repl": 8066,
      "▁sounds": 8067,
      "##ass": 8068,
      "▁dust": 8069,
      "▁apples": 8070,
      "▁bag": 8071,
      "▁gain": 8072,
      "▁universe": 8073,
      "##oves": 8074,
      "##azed": 8075,
      "▁employees": 8076,
      "▁lit": 8077,
      "▁pass": 8078,
      "▁key": 8079,
      "▁needed": 8080,
      "##ument": 8081,
      "▁dolphins": 8082,
      "▁summer": 8083,
      "▁seeds": 8084,
      "▁part": 8085,
      "▁fares": 8086,
      "▁landing": 8087,
      "##ife": 8088,
      "▁separate": 8089,
      "▁established": 8090,
      "▁sample": 8091,
      "▁pattern": 8092,
      "▁storm": 8093,
      "▁named": 8094,
      "▁wiz": 8095,
      "▁scene": 8096,
      "▁future": 8097,
      "▁occup": 8098,
      "▁generation": 8099,
      "▁arrived": 8100,
      "▁preserve": 8101,
      "##ury": 8102,
      "▁visiting": 8103,
      "▁psych": 8104,
      "##stem": 8105,
      "▁picking": 8106,
      "▁bo": 8107,
      "▁balt": 8108,
      "##ging": 8109,
      "##ple": 8110,
      "##ience": 8111,
      "##ummy": 8112,
      "▁making": 8113,
      "▁b": 8114,
      "▁again": 8115,
      "▁gh": 8116,
      "▁operators": 8117,
      "▁h": 8118,
      "▁carry": 8119,
      "▁d": 8120,
      "▁cond": 8121,
      "▁presentation": 8122,
      "▁boys": 8123,
      "##aves": 8124,
      "▁him": 8125,
      "##ite": 8126,
      "▁equival": 8127,
      "##ac": 8128,
      "##acle": 8129,
      "▁decl": 8130,
      "##ays": 8131,
      "##lin": 8132,
      "▁brother": 8133,
      "▁famili": 8134,
      "ʃ": 8135,
      "▁wants": 8136,
      "##eth": 8137,
      "▁couch": 8138,
      "##ed": 8139,
      "##ously": 8140,
      "##uary": 8141,
      "▁architecture": 8142,
      "▁breakfast": 8143,
      "▁ho": 8144,
      "▁supply": 8145,
      "▁pink": 8146,
      "▁firms": 8147,
      "##ables": 8148,
      "▁measured": 8149,
      "▁negoti": 8150,
      "▁spir": 8151,
      "▁emissions": 8152,
      "▁ended": 8153,
      "▁interest": 8154,
      "##ring": 8155,
      "▁exist": 8156,
      "▁surr": 8157,
      "##her": 8158,
      "▁strengthen": 8159,
      "▁imagination": 8160,
      "▁inven": 8161,
      "▁banana": 8162,
      "▁denied": 8163,
      "▁uniform": 8164,
      "▁suc": 8165,
      "▁look": 8166,
      "▁figure": 8167,
      "##sh": 8168,
      "▁condition": 8169,
      "▁amongst": 8170,
      "▁type": 8171,
      "▁da": 8172,
      "▁*****": 8173,
      "##$": 8174,
      "##ocr": 8175,
      "▁reports": 8176,
      "##using": 8177,
      "▁channel": 8178,
      "##ists": 8179,
      "▁more": 8180,
      "▁jokes": 8181,
      "▁meat": 8182,
      "▁kicked": 8183,
      "##earance": 8184,
      "▁career": 8185,
      "##sed": 8186,
      "##nd": 8187,
      "▁<": 8188,
      "▁y": 8189,
      "▁el": 8190,
      "s": 8191
    }
  }
}