{
  "version": "1.0",
  "truncation": null,
  "padding": null,
  "added_tokens": [
    {
      "id": 1065,
      "content": "[CLS]",
      "single_word": false,
      "lstrip": false,
      "rstrip": false,
      "normalized": false,
      "special": true
    },
    {
      "id": 2971,
      "content": "[UNK]",
      "single_word": false,
      "lstrip": false,
      "rstrip": false,
      "normalized": false,
      "special": true
    },
    {
      "id": 3267,
      "content": "[SEP]",
      "single_word": false,
      "lstrip": false,
      "rstrip": false,
      "normalized": false,
      "special": true
    },
    {
      "id": 3579,
      "content": "[MASK]",
      "single_word": false,
      "lstrip": false,
      "rstrip": false,
      "normalized": false,
      "special": true
    },
    {
      "id": 4432,
      "content": "[PAD]",
      "single_word": false,
      "lstrip": false,
      "rstrip": false,
      "normalized": false,
      "special": true
    }
  ],
  "normalizer": {
    "type": "Sequence",
    "normalizers": [
      {
        "type": "NFD"
      },
      {
        "type": "Lowercase"
      },
      {
        "type": "StripAccents"
      }
    ]
  },
  "pre_tokenizer": {
    "type": "Sequence",
    "pretokenizers": [
      {
        "type": "Metaspace",
        "replacement": "▁",
        "prepend_scheme": "always",
        "split": true
      }
    ]
  },
  "post_processor": {
    "type": "TemplateProcessing",
    "single": [
      {
        "SpecialToken": {
          "id": "[CLS]",
          "type_id": 0
        }
      },
      {
        "Sequence": {
          "id": "A",
          "type_id": 0
        }
      },
      {
        "SpecialToken": {
          "id": "[SEP]",
          "type_id": 0
        }
      }
    ],
    "pair": [
      {
        "SpecialToken": {
          "id": "[CLS]",
          "type_id": 0
        }
      },
      {
        "Sequence": {
          "id": "A",
          "type_id": 0
        }
      },
      {
        "SpecialToken": {
          "id": "[SEP]",
          "type_id": 0
        }
      },
      {
        "Sequence": {
          "id": "B",
          "type_id": 1
        }
      },
      {
        "SpecialToken": {
          "id": "[SEP]",
          "type_id": 1
        }
      }
    ],
    "special_tokens": {
      "[CLS]": {
        "id": "[CLS]",
        "ids": [
          1065
        ],
        "tokens": [
          "[CLS]"
        ]
      },
      "[SEP]": {
        "id": "[SEP]",
        "ids": [
          3267
        ],
        "tokens": [
          "[SEP]"
        ]
      }
    }
  },
  "decoder": {
    "type": "Metaspace",
    "replacement": "▁",
    "prepend_scheme": "always",
    "split": true
  },
  "model": {
    "type": "Unigram",
    "unk_id": 2971,
    "vocab": [
      [
        "r",
        -6.214075330236206
      ],
      [
        "▁acce",
        -9.594082846916411
      ],
      [
        "▁send",
        -7.010702550415962
      ],
      [
        "▁ca",
        -4.021459500937557
      ],
      [
        "ent",
        -6.02629273963893
      ],
      [
        "▁yoyo",
        -9.93245309735916
      ],
      [
        "▁cooperate",
        -10.289929180076712
      ],
      [
        "▁columb",
        -7.707378439906107
      ],
      [
        "▁quote",
        -8.907245017758246
      ],
      [
        "▁enem",
        -8.800329903110963
      ],
      [
        "▁crown",
        -10.314425706208812
      ],
      [
        "▁commitment",
        -9.027157918009188
      ],
      [
        "▁mosque",
        -9.116079973487462
      ],
      [
        "▁morning",
        -5.946896404976175
      ],
      [
        "▁obe",
        -10.183250280997688
      ],
      [
        "▁an",
        -9.820616148417278
      ],
      [
        "zer",
        -8.173010513886414
      ],
      [
        "▁kind",
        -6.261891426841048
      ],
      [
        "▁relate",
        -8.875343751627707
      ],
      [
        "▁butter",
        -8.345608358905267
      ],
      [
        "▁air",
        -6.040813524766777
      ],
      [
        "▁memorize",
        -10.625426217963572
      ],
      [
        "▁will",
        -8.413793777851856
      ],
      [
        "▁raise",
        -7.862368665323697
      ],
      [
        "▁",
        -2.345074069766005
      ],
      [
        "▁rot",
        -9.968061565417258
      ],
      [
        "▁fr",
        -10.375037312392115
      ],
      [
        "yo",
        -12.726913103948085
      ],
      [
        "▁wink",
        -9.892214193836713
      ],
      [
        "▁smoke",
        -9.077734526358427
      ],
      [
        "▁seek",
        -7.794721868270505
      ],
      [
        "ive",
        -9.23570791855251
      ],
      [
        "ind",
        -8.429079748863852
      ],
      [
        "um",
        -11.058978476488804
      ],
      [
        "▁h",
        -7.439580924662702
      ],
      [
        "*",
        -8.693194179626394
      ],
      [
        "s",
        -6.625258447850738
      ],
      [
        "tamus",
        -10.043597376167806
      ],
      [
        "▁airplane",
        -8.559989449078682
      ],
      [
        "▁ear",
        -8.608959492643725
      ],
      [
        "ie",
        -6.9160920740095
      ],
      [
        "▁trader",
        -9.219024373170907
      ],
      [
        "▁c",
        -6.603451884348774
      ],
      [
        "▁strik",
        -10.566222133157929
      ],
      [
        "▁page",
        -6.973936897711638
      ],
      [
        "▁hide",
        -10.315515446204357
      ],
      [
        "▁read",
        -6.125286429904584
      ],
      [
        "▁fourt",
        -7.691191378294574
      ],
      [
        "▁focuse",
        -9.211524198346563
      ],
      [
        "▁cart",
        -9.959941675902243
      ],
      [
        "▁calm",
        -10.2057695598747
      ],
      [
        "▁official",
        -8.149951455968605
      ],
      [
        "▁lantern",
        -9.932452565430061
      ],
      [
        "▁server",
        -8.766511607554843
      ],
      [
        "_",
        -4.419696819913463
      ],
      [
        "▁north",
        -7.729188031226416
      ],
      [
        "▁dis",
        -9.010239066066246
      ],
      [
        "id",
        -10.076023162833998
      ],
      [
        "▁dead",
        -10.311433112274997
      ],
      [
        "▁de",
        -7.219112376193933
      ],
      [
        "▁nerve",
        -10.168799794119503
      ],
      [
        "e",
        -3.6987654616553973
      ],
      [
        "den",
        -7.186659619903961
      ],
      [
        "ssor",
        -9.727224045170528
      ],
      [
        "▁recruit",
        -9.633814215439674
      ],
      [
        "▁rule",
        -9.498378461293761
      ],
      [
        "sburg",
        -5.01570745053143
      ],
      [
        ".",
        -1.4533572890270836
      ],
      [
        "▁o",
        -7.903254943525872
      ],
      [
        "▁camera",
        -8.458487537244492
      ],
      [
        "eve",
        -8.019325585688978
      ],
      [
        "nouncement",
        -10.044864115354393
      ],
      [
        "▁bulldo",
        -8.344770114184284
      ],
      [
        "come",
        -8.67712389334881
      ],
      [
        "▁nonstop",
        -7.470178213797659
      ],
      [
        "▁stun",
        -10.685984609029733
      ],
      [
        "▁tumbl",
        -10.401256496060585
      ],
      [
        "▁sensi",
        -10.259634186240534
      ],
      [
        "▁dal",
        -5.240750079898974
      ],
      [
        "▁fi",
        -10.440047787115914
      ],
      [
        "▁age",
        -7.404160730253256
      ],
      [
        "▁ba",
        -9.265962170939932
      ],
      [
        "of",
        -6.912227420810709
      ],
      [
        "ar",
        -7.070180781046311
      ],
      [
        "▁transport",
        -6.551204268895229
      ],
      [
        "▁divide",
        -9.190883552998816
      ],
      [
        "▁handle",
        -8.361116241446648
      ],
      [
        "▁now",
        -4.075357952692865
      ],
      [
        "▁chain",
        -9.26746505774749
      ],
      [
        "pers",
        -10.164047001889516
      ],
      [
        "▁deserve",
        -9.026390977354469
      ],
      [
        "▁achievement",
        -8.985462631616706
      ],
      [
        "▁hard",
        -6.981459197999821
      ],
      [
        "f",
        -7.065378831211644
      ],
      [
        "▁detail",
        -7.783612137941263
      ],
      [
        "▁retirement",
        -10.478087476832744
      ],
      [
        "▁welcome",
        -8.867113751641234
      ],
      [
        "▁won",
        -8.47883821519625
      ],
      [
        "▁c",
        -7.277510227719385
      ],
      [
        "pan",
        -10.406344969847657
      ],
      [
        "ask",
        -9.977614852147653
      ],
      [
        "▁shri",
        -10.315438394113858
      ],
      [
        "▁on",
        -5.361902469050708
      ],
      [
        "▁caul",
        -10.479624257809093
      ],
      [
        "▁nursie",
        -9.511589355171825
      ],
      [
        "rush",
        -9.873162301776812
      ],
      [
        "hen",
        -8.51936552547652
      ],
      [
        "▁imagination",
        -9.509859484957754
      ],
      [
        "▁continu",
        -10.311424078597842
      ],
      [
        "▁every",
        -6.189232902579145
      ],
      [
        "en",
        -6.925937608921457
      ],
      [
        "ce",
        -5.340986048479182
      ],
      [
        "???????????????",
        -11.531210826536752
      ],
      [
        "▁gum",
        -9.780362523922326
      ],
      [
        "hat",
        -8.562382551748577
      ],
      [
        "▁creation",
        -8.676903004621924
      ],
      [
        "▁logi",
        -10.387105347154442
      ],
      [
        "eve",
        -8.935744439810868
      ],
      [
        "▁glove",
        -8.907453940559023
      ],
      [
        "▁shin",
        -9.889384735954986
      ],
      [
        "i",
        -11.770631529841472
      ],
      [
        "ella",
        -10.043137959892569
      ],
      [
        "▁george",
        -6.781171824155518
      ],
      [
        "f",
        -7.281137016091158
      ],
      [
        "▁lean",
        -9.096300030768612
      ],
      [
        "▁discusse",
        -9.424436303222725
      ],
      [
        "▁convenience",
        -10.04555216926118
      ],
      [
        "▁kn",
        -10.925516565317587
      ],
      [
        "▁folder",
        -10.048991426979585
      ],
      [
        "▁hostess",
        -10.170011187581194
      ],
      [
        "▁le",
        -7.706648196198186
      ],
      [
        "▁development",
        -7.574209184252957
      ],
      [
        "▁basi",
        -8.188899600949135
      ],
      [
        "▁promise",
        -8.237400325629473
      ],
      [
        "▁worr",
        -10.404805248160715
      ],
      [
        "▁spring",
        -8.618424924830343
      ],
      [
        "▁fist",
        -10.488801823239534
      ],
      [
        "ney",
        -10.33057143174721
      ],
      [
        "▁wagg",
        -10.646134028861372
      ],
      [
        "n",
        -5.575385108590868
      ],
      [
        "▁surf",
        -9.977914815598213
      ],
      [
        "▁uncle",
        -8.559834973374032
      ],
      [
        "▁!!!!!",
        -12.942034343401446
      ],
      [
        "▁sai",
        -5.08691055481988
      ],
      [
        "ne",
        -7.824128334692743
      ],
      [
        "eeze",
        -9.860992117487132
      ],
      [
        "▁is",
        -5.984605269276846
      ],
      [
        "▁prove",
        -8.168219478103088
      ],
      [
        "ground",
        -10.014613661477267
      ],
      [
        "sta",
        -8.488319103450568
      ],
      [
        "▁a",
        -7.375664264529457
      ],
      [
        "i",
        -2.7294335593499106
      ],
      [
        "▁wow",
        -6.018175054576849
      ],
      [
        "▁'c",
        -9.925472321816928
      ],
      [
        "▁do",
        -4.354884306024818
      ],
      [
        "y",
        -4.489015840271201
      ],
      [
        "wise",
        -7.250263014346251
      ],
      [
        "▁hope",
        -8.349950636606163
      ],
      [
        "▁librarian",
        -9.4432965331377
      ],
      [
        "▁ser",
        -7.635217641626142
      ],
      [
        "▁snor",
        -10.63154379601315
      ],
      [
        "▁obstacle",
        -9.581287075384294
      ],
      [
        "▁carol",
        -7.6418194332510225
      ],
      [
        "▁trim",
        -9.877510487838935
      ],
      [
        "▁car",
        -9.983080030822261
      ],
      [
        "▁exceed",
        -9.538930479526707
      ],
      [
        "▁amid",
        -9.982268227011591
      ],
      [
        "to",
        -9.861809860188213
      ],
      [
        "▁stillman",
        -7.267174769529199
      ],
      [
        "▁doin",
        -9.639391062832008
      ],
      [
        "▁fat",
        -7.679120712889976
      ],
      [
        "▁fin",
        -9.755783158749269
      ],
      [
        "d",
        -4.022794636205144
      ],
      [
        "▁m",
        -5.935041124388867
      ],
      [
        "▁bike",
        -8.262543062164786
      ],
      [
        "▁t",
        -7.491726534268921
      ],
      [
        "▁ris",
        -9.20008949094287
      ],
      [
        "▁effect",
        -7.584209163523786
      ],
      [
        "▁cross",
        -9.576766531475291
      ],
      [
        "▁dough",
        -10.478437635622662
      ],
      [
        "▁undermine",
        -10.040094498451264
      ],
      [
        "▁stair",
        -8.946089853091692
      ],
      [
        "▁ground",
        -10.375972810368008
      ],
      [
        "▁quiet",
        -7.850034831659617
      ],
      [
        "▁rat",
        -8.611379085741302
      ],
      [
        "▁acquir",
        -9.511154169961484
      ],
      [
        "h",
        -4.366450591382845
      ],
      [
        "▁tout",
        -10.65239863272653
      ],
      [
        "when",
        -8.600640802957946
      ],
      [
        "▁characterize",
        -10.188446757523664
      ],
      [
        "▁boo",
        -10.065877710819345
      ],
      [
        "▁regard",
        -7.834854977469234
      ],
      [
        "the",
        -8.91627304626879
      ],
      [
        "▁seeker",
        -9.443402248073058
      ],
      [
        "-----",
        -11.778022025595234
      ],
      [
        "▁normal",
        -8.051013618467286
      ],
      [
        "▁hide",
        -8.394334826868617
      ],
      [
        "▁prosecution",
        -10.478142001718494
      ],
      [
        "▁sixt",
        -7.576990953156584
      ],
      [
        "▁modern",
        -7.2893754413007565
      ],
      [
        "▁un",
        -8.04370420198805
      ],
      [
        "oh",
        -5.75281353938016
      ],
      [
        "end",
        -9.343969701357597
      ],
      [
        "ins",
        -12.167094736746972
      ],
      [
        "▁monaster",
        -10.0435753944388
      ],
      [
        "▁deadline",
        -10.043718982158357
      ],
      [
        "▁grant",
        -8.406788658269399
      ],
      [
        "mas",
        -7.6727106750395855
      ],
      [
        "ch",
        -10.038999779297553
      ],
      [
        "osom",
        -10.327438458095175
      ],
      [
        "▁distract",
        -10.175439502399023
      ],
      [
        "▁",
        -1.6256745059821878
      ],
      [
        "▁supplie",
        -10.008725627222375
      ],
      [
        "over",
        -9.287561779496963
      ],
      [
        "ible",
        -7.187702115575742
      ],
      [
        "▁corners",
        -10.28516796832086
      ],
      [
        "k",
        -6.601882593626262
      ],
      [
        "▁second",
        -8.614639414551037
      ],
      [
        "ant",
        -8.549750180623208
      ],
      [
        "▁bright",
        -9.932767681080811
      ],
      [
        "▁ver",
        -9.767975662790064
      ],
      [
        "▁jan",
        -7.905588765754274
      ],
      [
        "rou",
        -13.078869863422522
      ],
      [
        "on",
        -7.518499745303357
      ],
      [
        "ober",
        -7.420024668792132
      ],
      [
        "▁remove",
        -7.971838894142863
      ],
      [
        "z",
        -9.606113698618241
      ],
      [
        "p",
        -7.066816683755824
      ],
      [
        "▁sister",
        -7.987164901284995
      ],
      [
        "▁beginner",
        -10.478087476776011
      ],
      [
        "▁trust",
        -8.12134502943936
      ],
      [
        "aid",
        -9.630977552723204
      ],
      [
        "▁pressur",
        -10.226033921580116
      ],
      [
        "▁spokes",
        -9.581358810417829
      ],
      [
        "▁retir",
        -10.006236083867392
      ],
      [
        "▁slide",
        -9.214512084772013
      ],
      [
        "▁repay",
        -10.378287588041374
      ],
      [
        "df",
        -9.393359353222767
      ],
      [
        "▁inch",
        -8.898263260978005
      ],
      [
        "▁human",
        -6.556366750583185
      ],
      [
        "▁mist",
        -9.861637379016168
      ],
      [
        "▁again",
        -5.055600915647587
      ],
      [
        "▁pee",
        -9.708701147288654
      ],
      [
        "▁60",
        -6.913388044232883
      ],
      [
        "▁reduce",
        -8.26761350312115
      ],
      [
        "cept",
        -10.232266352600972
      ],
      [
        "▁summer",
        -7.615243754945281
      ],
      [
        "m",
        -6.009894094785829
      ],
      [
        "▁y",
        -12.564790908332268
      ],
      [
        "▁ap",
        -9.84726707032445
      ],
      [
        "▁conspira",
        -10.478087480760887
      ],
      [
        "ance",
        -6.885430141912349
      ],
      [
        "▁creati",
        -7.923815891017407
      ],
      [
        ".........",
        -12.385442840267196
      ],
      [
        "ession",
        -7.786710879442764
      ],
      [
        "▁offer",
        -6.973364069203791
      ],
      [
        "log",
        -9.746097793756888
      ],
      [
        "▁basi",
        -7.871208031194959
      ],
      [
        "▁broke",
        -7.02286805861565
      ],
      [
        "▁incre",
        -7.7695118524192175
      ],
      [
        "▁barbe",
        -10.287511451416288
      ],
      [
        "▁smil",
        -9.50237129738461
      ],
      [
        "eum",
        -10.045198922414407
      ],
      [
        "▁dirt",
        -8.734179996412676
      ],
      [
        "▁someon",
        -6.931479858311979
      ],
      [
        "▁accumulate",
        -9.740560952098114
      ],
      [
        "▁mo",
        -6.386859315429376
      ],
      [
        "▁satisf",
        -10.373382612376304
      ],
      [
        "▁'",
        -6.425214222828881
      ],
      [
        "▁fresh",
        -10.486459178515858
      ],
      [
        "▁cr",
        -10.644824002594692
      ],
      [
        "go",
        -7.098848247505716
      ],
      [
        "▁80",
        -7.0989916286574335
      ],
      [
        "▁extremist",
        -10.043787624882537
      ],
      [
        "day",
        -7.523400618805456
      ],
      [
        "▁care",
        -7.633859895555274
      ],
      [
        "▁magician",
        -10.168860345810465
      ],
      [
        "▁shoulder",
        -8.643210874321593
      ],
      [
        "▁write",
        -6.549067944212382
      ],
      [
        "▁document",
        -7.724055189408183
      ],
      [
        "▁word",
        -6.752929731499631
      ],
      [
        "▁si",
        -10.086924554029943
      ],
      [
        "aw",
        -8.635393372690027
      ],
      [
        "▁incubat",
        -10.311576694188243
      ],
      [
        "▁dwell",
        -10.627852018509747
      ],
      [
        "▁along",
        -7.533964767221531
      ],
      [
        "icult",
        -7.486055222207554
      ],
      [
        "▁undertake",
        -9.547930132674638
      ],
      [
        "▁attorney",
        -9.163681151991021
      ],
      [
        "%",
        -2.8879974470677894
      ],
      [
        "▁d",
        -5.958236798378178
      ],
      [
        "broad",
        -8.316203435026928
      ],
      [
        "▁live",
        -6.4022916255705535
      ],
      [
        "▁shuttle",
        -9.741552064857755
      ],
      [
        "▁earl",
        -7.23689365952583
      ],
      [
        "▁protest",
        -9.534081895430203
      ],
      [
        "▁alphabet",
        -10.1685636663666
      ],
      [
        "▁slip",
        -10.621068442642704
      ],
      [
        "▁arrang",
        -10.40749958314272
      ],
      [
        "▁confirm",
        -8.120681179643658
      ],
      [
        "▁tho",
        -9.772827531104562
      ],
      [
        "▁treatment",
        -8.224203125336462
      ],
      [
        "▁verb",
        -10.312051313476276
      ],
      [
        "▁trie",
        -7.719057135202349
      ],
      [
        "▁mushroom",
        -9.581296073676953
      ],
      [
        "sense",
        -10.141242341294404
      ],
      [
        "▁kansa",
        -6.814292120810255
      ],
      [
        "▁wall",
        -7.759629534966782
      ],
      [
        "·",
        -9.88131015228541
      ],
      [
        "▁mirror",
        -9.16368115391498
      ],
      [
        "▁engl",
        -7.8488761781715635
      ],
      [
        "v",
        -7.708099801804775
      ],
      [
        "▁activist",
        -10.4781424038726
      ],
      [
        "▁north",
        -7.051222331089209
      ],
      [
        "quino",
        -8.773385744816004
      ],
      [
        "lack",
        -8.242158508517724
      ],
      [
        "as",
        -11.470631745927642
      ],
      [
        "▁raccoon",
        -10.168563785399776
      ],
      [
        "▁show",
        -7.690530087734364
      ],
      [
        "▁declaration",
        -9.027129404788028
      ],
      [
        "▁toast",
        -7.9286132822649495
      ],
      [
        "▁peel",
        -10.044962425610539
      ],
      [
        "iddi",
        -10.04421055052546
      ],
      [
        "▁starve",
        -10.671814694506962
      ],
      [
        "▁distance",
        -8.766767886179451
      ],
      [
        "▁bit",
        -6.844551516350718
      ],
      [
        "▁conce",
        -10.279745226660157
      ],
      [
        "su",
        -8.669011440796123
      ],
      [
        "▁result",
        -7.336087268751497
      ],
      [
        "ritual",
        -10.478069339770125
      ],
      [
        "upper",
        -9.16323822349613
      ],
      [
        "hear",
        -10.38822343366926
      ],
      [
        "▁pig",
        -8.488726438484587
      ],
      [
        "▁giant",
        -9.443244541524779
      ],
      [
        "▁grow",
        -7.887514679181603
      ],
      [
        "▁promote",
        -8.608173117278714
      ],
      [
        "▁blurr",
        -10.63355714758253
      ],
      [
        "▁propp",
        -10.377576722035313
      ],
      [
        "▁election",
        -7.9431313176678
      ],
      [
        "▁biographer",
        -10.311724200680686
      ],
      [
        "▁river",
        -8.090330104877932
      ],
      [
        "master",
        -10.450104657403783
      ],
      [
        "▁fight",
        -7.564697244157757
      ],
      [
        "▁presume",
        -10.375832039637096
      ],
      [
        "▁feel",
        -6.135129679347383
      ],
      [
        "▁201",
        -4.629308400060953
      ],
      [
        "com",
        -7.229702869451937
      ],
      [
        "▁strap",
        -9.44319311194261
      ],
      [
        "f",
        -10.765301919425882
      ],
      [
        "ive",
        -9.709368993220952
      ],
      [
        "▁dictionar",
        -10.478101999684725
      ],
      [
        "▁bunn",
        -8.58726898224516
      ],
      [
        "▁jeff",
        -7.358449266279162
      ],
      [
        "r",
        -5.4322971977959815
      ],
      [
        "te",
        -7.614657753910078
      ],
      [
        "▁island",
        -7.525496349552649
      ],
      [
        "▁encounter",
        -10.168563780812374
      ],
      [
        "▁shove",
        -10.16870786036167
      ],
      [
        "▁part",
        -10.03944651384946
      ],
      [
        "▁wage",
        -10.14960788978259
      ],
      [
        "ole",
        -10.281403234543092
      ],
      [
        "ch",
        -8.972212749644818
      ],
      [
        ".p",
        -9.785991924742373
      ],
      [
        "▁park",
        -7.773366907699106
      ],
      [
        "mission",
        -9.553870806294977
      ],
      [
        "ze",
        -8.839780328384677
      ],
      [
        "▁background",
        -8.870225562580584
      ],
      [
        "▁reassure",
        -10.175589581457132
      ],
      [
        "▁coco",
        -9.58221231924913
      ],
      [
        "very",
        -7.59545012977326
      ],
      [
        "hav",
        -7.464751966707237
      ],
      [
        "▁lunch",
        -7.544618814984326
      ],
      [
        "ologist",
        -10.477158096615502
      ],
      [
        "▁waste",
        -8.98548851277402
      ],
      [
        "▁mess",
        -9.119032996524604
      ],
      [
        "▁mo",
        -8.356062912932991
      ],
      [
        "▁shal",
        -7.0325008928194634
      ],
      [
        "▁marriage",
        -8.242785277018218
      ],
      [
        "▁packet",
        -10.479189181539331
      ],
      [
        "▁pal",
        -10.320627127912797
      ],
      [
        "▁scrambl",
        -10.842858263543658
      ],
      [
        "hing",
        -9.504317013059099
      ],
      [
        "▁scratch",
        -10.168564706437333
      ],
      [
        "▁hel",
        -7.245677028959271
      ],
      [
        "▁outgrow",
        -10.376057463075073
      ],
      [
        "▁organize",
        -9.11584890900788
      ],
      [
        "ca",
        -7.141411780500674
      ],
      [
        "▁super",
        -10.488783699959415
      ],
      [
        "rate",
        -7.566553718926961
      ],
      [
        "m",
        -6.75560743591618
      ],
      [
        "▁.",
        -6.602433684213668
      ],
      [
        "it",
        -7.2605759289499066
      ],
      [
        "▁break",
        -8.560362906207862
      ],
      [
        "▁tee",
        -9.365736800867614
      ],
      [
        "▁challenge",
        -8.434678002469287
      ],
      [
        "and",
        -11.257296211407963
      ],
      [
        "▁cloud",
        -9.581290033497629
      ],
      [
        "▁dispute",
        -10.62732526487285
      ],
      [
        "▁where",
        -4.295607078995645
      ],
      [
        "s",
        -3.4323096462437865
      ],
      [
        "▁side",
        -10.769911773370067
      ],
      [
        "▁no",
        -6.625414240065368
      ],
      [
        "complete",
        -7.441782075291681
      ],
      [
        "▁vest",
        -10.479064950342428
      ],
      [
        "der",
        -7.243585232811172
      ],
      [
        "▁deck",
        -9.837384603774545
      ],
      [
        "▁lov",
        -10.02489139355967
      ],
      [
        "▁discount",
        -10.625909298333575
      ],
      [
        "▁energy",
        -7.657450974333868
      ],
      [
        "▁milita",
        -6.883185739735111
      ],
      [
        "80",
        -9.709582900095205
      ],
      [
        "▁confi",
        -10.375219821549669
      ],
      [
        "nd",
        -12.030856372203953
      ],
      [
        "▁import",
        -8.672629005611885
      ],
      [
        "▁unfortuna",
        -7.549589134851153
      ],
      [
        "▁person",
        -6.7798446190844315
      ],
      [
        "▁..........",
        -12.830818015419348
      ],
      [
        "▁teaspoon",
        -10.043563702514572
      ],
      [
        "▁mis",
        -8.939237127720832
      ],
      [
        "▁acr",
        -9.934784877127536
      ],
      [
        "▁neighbo",
        -10.375392290916732
      ],
      [
        "▁press",
        -8.667822292624694
      ],
      [
        "▁requir",
        -9.106318260961467
      ],
      [
        "▁fax",
        -8.367731496243298
      ],
      [
        "▁evil",
        -10.169570604029722
      ],
      [
        "▁respect",
        -9.024946751241245
      ],
      [
        "▁confess",
        -10.375410754466792
      ],
      [
        "ke",
        -8.154521620504987
      ],
      [
        "▁tom",
        -7.088367988879393
      ],
      [
        "▁flower",
        -8.052303817238657
      ],
      [
        "▁foundation",
        -9.380692105471816
      ],
      [
        "▁ban",
        -10.428852256605355
      ],
      [
        "▁hay",
        -10.073175787595765
      ],
      [
        "▁theodor",
        -8.143271777289872
      ],
      [
        "▁cand",
        -9.458231216584602
      ],
      [
        "▁settler",
        -9.50993692017105
      ],
      [
        "▁rac",
        -9.501417585476194
      ],
      [
        "think",
        -9.762177751474606
      ],
      [
        "▁block",
        -10.009711536990975
      ],
      [
        "ession",
        -10.218008038749364
      ],
      [
        "▁deposit",
        -10.026892857274389
      ],
      [
        "tement",
        -9.38167277600336
      ],
      [
        "struction",
        -9.54637997427448
      ],
      [
        "(",
        -4.690054248533107
      ],
      [
        "▁sim",
        -7.319585519843614
      ],
      [
        "▁examin",
        -9.377013372104653
      ],
      [
        "rism",
        -10.07953875143592
      ],
      [
        "▁firm",
        -8.483000800904184
      ],
      [
        "▁where",
        -5.614914026485336
      ],
      [
        "st",
        -10.379310821297288
      ],
      [
        "u",
        -3.4498478262533245
      ],
      [
        "▁campus",
        -9.742164719973795
      ],
      [
        "▁lea",
        -6.746900389964052
      ],
      [
        "▁pen",
        -7.993685199276275
      ],
      [
        "0",
        -3.7401553914094876
      ],
      [
        "▁heat",
        -8.163568203107523
      ],
      [
        "4",
        -4.227577718061922
      ],
      [
        "▁civilization",
        -9.581322184342346
      ],
      [
        "os",
        -12.71061285681801
      ],
      [
        "▁equivalen",
        -10.307618145156844
      ],
      [
        "▁faction",
        -10.278337428096348
      ],
      [
        "▁vitamin",
        -10.311420810576843
      ],
      [
        "▁direct",
        -7.339736906234009
      ],
      [
        "zation",
        -9.944864449616674
      ],
      [
        "▁produce",
        -10.041587167376884
      ],
      [
        "anger",
        -9.9270300317696
      ],
      [
        "▁compound",
        -10.375576661577485
      ],
      [
        "ble",
        -5.978990578455024
      ],
      [
        "ne",
        -6.177354694321133
      ],
      [
        "▁du",
        -7.062173102212168
      ],
      [
        "▁guards",
        -10.14211643162436
      ],
      [
        "range",
        -7.625820424703236
      ],
      [
        "▁impulse",
        -10.16858059041098
      ],
      [
        "▁islami",
        -7.93510282036169
      ],
      [
        "-",
        -11.770631529841472
      ],
      [
        "▁premise",
        -10.04356582982004
      ],
      [
        "▁howl",
        -10.6542199806013
      ],
      [
        "▁195",
        -7.019339072200602
      ],
      [
        "▁span",
        -9.93649947137271
      ],
      [
        "▁influence",
        -9.142093804611845
      ],
      [
        "▁industr",
        -7.900611714730798
      ],
      [
        "c",
        -5.879343646872438
      ],
      [
        "▁dis",
        -7.68685599157579
      ],
      [
        "ous",
        -7.400129012987348
      ],
      [
        "▁accept",
        -7.361994743307136
      ],
      [
        "▁temple",
        -9.511484328764858
      ],
      [
        "▁par",
        -9.481767775105316
      ],
      [
        "▁speed",
        -10.119693680725032
      ],
      [
        "▁appetit",
        -10.179536821289629
      ],
      [
        "▁supplie",
        -9.36475464017034
      ],
      [
        "▁board",
        -7.985128363847397
      ],
      [
        "▁woo",
        -10.717288508642952
      ],
      [
        "▁713",
        -7.230148690097462
      ],
      [
        "▁after",
        -9.832454238052485
      ],
      [
        "onnais",
        -10.033962971200078
      ],
      [
        "_",
        -4.384580076550113
      ],
      [
        "l",
        -6.8889135666360195
      ],
      [
        "▁reward",
        -9.83289993934384
      ],
      [
        "▁gaz",
        -10.58684565025061
      ],
      [
        "▁he",
        -10.399803686016337
      ],
      [
        "▁secur",
        -10.280816398202107
      ],
      [
        "ful",
        -5.211743761945356
      ],
      [
        "▁nationalit",
        -9.835688801112923
      ],
      [
        "▁recording",
        -9.642270070504843
      ],
      [
        "value",
        -10.88086429889044
      ],
      [
        "▁walkin",
        -10.69033800269327
      ],
      [
        "▁couch",
        -9.027210197927108
      ],
      [
        "▁evacuate",
        -9.702572845947563
      ],
      [
        "fu",
        -10.147369292473178
      ],
      [
        "▁repair",
        -8.411748240449507
      ],
      [
        "▁actress",
        -9.932487953406788
      ],
      [
        "200",
        -6.130731310496135
      ],
      [
        "▁most",
        -5.67441530637149
      ],
      [
        "▁standard",
        -7.821104384456373
      ],
      [
        "▁sign",
        -7.972831141163361
      ],
      [
        "▁pixie",
        -10.311461646873685
      ],
      [
        "▁pipeline",
        -9.581560344994177
      ],
      [
        "▁quick",
        -6.745647669671999
      ],
      [
        "want",
        -9.323151046085508
      ],
      [
        "▁damage",
        -8.614669710349514
      ],
      [
        "ed",
        -9.945768300263612
      ],
      [
        "▁art",
        -7.5604972035179125
      ],
      [
        "▁winter",
        -8.242624574334723
      ],
      [
        "▁analyst",
        -8.772549779058426
      ],
      [
        "bio",
        -10.280485820973691
      ],
      [
        "h",
        -8.179398798278543
      ],
      [
        "est",
        -5.834993291504394
      ],
      [
        "▁brush",
        -10.05336101420004
      ],
      [
        "as",
        -4.369503812218433
      ],
      [
        "▁combat",
        -10.481519487588297
      ],
      [
        "▁debt",
        -9.380724153959171
      ],
      [
        "▁airline",
        -5.690089627896373
      ],
      [
        "▁request",
        -8.03316034610802
      ],
      [
        "▁encompass",
        -9.869340368750908
      ],
      [
        "▁center",
        -8.283605353000647
      ],
      [
        "ka",
        -8.67373218770331
      ],
      [
        "▁teas",
        -10.466909815684023
      ],
      [
        "▁dead",
        -6.792772852962086
      ],
      [
        "table",
        -8.10029166938956
      ],
      [
        "▁general",
        -6.982809582124102
      ],
      [
        "▁confuse",
        -9.869219782717705
      ],
      [
        "y",
        -2.356688656645275
      ],
      [
        "-",
        -9.206366238425398
      ],
      [
        "▁flat",
        -9.510339086191456
      ],
      [
        "▁!!!!",
        -9.976697986141936
      ],
      [
        "enti",
        -7.448158532075225
      ],
      [
        "abl",
        -5.607246216433183
      ],
      [
        "ving",
        -10.055450030235304
      ],
      [
        "▁outfit",
        -9.658569447927718
      ],
      [
        "▁email",
        -9.283670887663895
      ],
      [
        "▁kitten",
        -8.6435302982003
      ],
      [
        "6",
        -4.586613867475252
      ],
      [
        "▁uni",
        -6.803378237432464
      ],
      [
        "▁deput",
        -10.311781536390168
      ],
      [
        "▁discussion",
        -8.323493727412654
      ],
      [
        "▁mary",
        -8.010221585186873
      ],
      [
        "▁pee",
        -10.467221939763736
      ],
      [
        "▁bomb",
        -10.33709528822132
      ],
      [
        "utter",
        -10.677340986049728
      ],
      [
        "▁peter",
        -6.870955470039081
      ],
      [
        "▁temper",
        -9.74411743281049
      ],
      [
        "▁evaluat",
        -10.166585210078237
      ],
      [
        "lin",
        -8.183711367389444
      ],
      [
        "ist",
        -7.8261693679843445
      ],
      [
        "ry",
        -5.935161893856904
      ],
      [
        "▁spread",
        -8.61092097078106
      ],
      [
        "▁prevail",
        -9.534133464049791
      ],
      [
        "▁staff",
        -7.393159803991294
      ],
      [
        "▁cheap",
        -6.93449626107068
      ],
      [
        "▁refer",
        -8.213241469647645
      ],
      [
        ":00",
        -6.2272021234326935
      ],
      [
        "ogue",
        -9.741944204651361
      ],
      [
        "▁bathroom",
        -8.22357400942353
      ],
      [
        "▁jur",
        -10.328791073818557
      ],
      [
        "▁lake",
        -6.699554826889792
      ],
      [
        "▁province",
        -9.832452555591455
      ],
      [
        "ness",
        -6.805274908989379
      ],
      [
        "▁program",
        -7.665700442420567
      ],
      [
        "▁plug",
        -9.746317983091982
      ],
      [
        "▁disagree",
        -10.011984498197961
      ],
      [
        "▁network",
        -8.507947185886495
      ],
      [
        "ate",
        -8.345146874577495
      ],
      [
        "▁neighbor",
        -9.321741130106982
      ],
      [
        "▁support",
        -7.330211589948614
      ],
      [
        "▁pe",
        -10.776425122448485
      ],
      [
        "▁pott",
        -8.202917943242564
      ],
      [
        "▁symbolize",
        -10.175392290114882
      ],
      [
        "▁better",
        -10.625803936107097
      ],
      [
        "force",
        -9.627659653326434
      ],
      [
        "iq",
        -10.481752518485731
      ],
      [
        "▁inst",
        -8.455893289655085
      ],
      [
        "▁mix",
        -9.932527115394516
      ],
      [
        "▁nose",
        -7.584387430329615
      ],
      [
        "▁sh",
        -10.403440650539778
      ],
      [
        "▁bureaucrac",
        -10.478087475910883
      ],
      [
        "dr.",
        -7.458582487074492
      ],
      [
        "▁enter",
        -7.664202702451771
      ],
      [
        "▁lik",
        -9.853819912027465
      ],
      [
        "▁retire",
        -9.444789595873507
      ],
      [
        "trapp",
        -10.009966073003353
      ],
      [
        "▁as",
        -5.1827083301970625
      ],
      [
        "▁con",
        -7.657562805692068
      ],
      [
        "ustache",
        -10.168742735580274
      ],
      [
        "▁famil",
        -6.684390082016156
      ],
      [
        "▁becom",
        -9.051990026645438
      ],
      [
        "▁bucket",
        -9.164000623366793
      ],
      [
        "work",
        -10.687594356335081
      ],
      [
        "z",
        -7.912454580094243
      ],
      [
        "▁view",
        -8.258169616922892
      ],
      [
        "rase",
        -9.841279050172883
      ],
      [
        "▁ai",
        -9.84299961005428
      ],
      [
        "▁east",
        -7.460011636561008
      ],
      [
        "▁social",
        -6.614955515202298
      ],
      [
        "▁study",
        -7.4287601947056805
      ],
      [
        "u",
        -5.9829718967998025
      ],
      [
        "▁sky",
        -8.050087141459299
      ],
      [
        "▁generat",
        -9.327991634186706
      ],
      [
        "▁burrow",
        -10.37549242892569
      ],
      [
        "▁nam",
        -9.606888969482535
      ],
      [
        "▁milk",
        -6.82057435110142
      ],
      [
        "▁actor",
        -9.031482330291803
      ],
      [
        "▁look",
        -4.774514457323838
      ],
      [
        "▁far",
        -5.853635313577881
      ],
      [
        "▁fund",
        -7.776618826048621
      ],
      [
        "▁notic",
        -10.303038348871155
      ],
      [
        "▁mineral",
        -10.16881201203826
      ],
      [
        "▁provision",
        -8.411447343535297
      ],
      [
        "▁command",
        -10.62548692865132
      ],
      [
        "▁be",
        -5.640815374565242
      ],
      [
        "▁honor",
        -10.169464009879047
      ],
      [
        "▁defeat",
        -9.024964534526536
      ],
      [
        "▁short",
        -6.594763792945896
      ],
      [
        "▁will",
        -10.62729298170865
      ],
      [
        "ty",
        -7.973812938011873
      ],
      [
        "ti",
        -5.501925538707063
      ],
      [
        "pane",
        -7.941965455979306
      ],
      [
        "▁gd",
        -9.677506131788014
      ],
      [
        "▁progress",
        -10.725716655126355
      ],
      [
        "st",
        -12.50667684532212
      ],
      [
        "ft",
        -6.965664792887015
      ],
      [
        "▁reject",
        -9.212291352067611
      ],
      [
        "illa",
        -9.262467576815741
      ],
      [
        "herself",
        -11.97634857643032
      ],
      [
        "▁among",
        -7.2254285659457125
      ],
      [
        "▁poop",
        -9.933861429641063
      ],
      [
        "▁recreat",
        -10.70394653736732
      ],
      [
        "▁town",
        -7.224350973830729
      ],
      [
        "▁fred",
        -7.8904347155719
      ],
      [
        "▁vol",
        -10.174209186765031
      ],
      [
        "▁short",
        -8.507369351158612
      ],
      [
        "p",
        -5.293431670462068
      ],
      [
        "▁locate",
        -8.166922333003015
      ],
      [
        "x",
        -12.039036616560043
      ],
      [
        "▁block",
        -8.283216882473358
      ],
      [
        "el",
        -8.397298327996682
      ],
      [
        "▁iodise",
        -9.633679491367857
      ],
      [
        "▁199",
        -5.317256283957202
      ],
      [
        "▁tha",
        -7.359273592220826
      ],
      [
        "▁apologize",
        -9.762707262774777
      ],
      [
        "▁",
        -0.7082085629404791
      ],
      [
        "▁slid",
        -8.839298793469695
      ],
      [
        "▁flood",
        -10.177454305959017
      ],
      [
        "watch",
        -10.765199654747857
      ],
      [
        "▁stabili",
        -9.3314542826296
      ],
      [
        "ed",
        -2.876766076595114
      ],
      [
        "▁fina",
        -7.557620854095129
      ],
      [
        "be",
        -10.797699139960514
      ],
      [
        "▁snail",
        -10.479364337058927
      ],
      [
        "▁benefit",
        -8.242614332857427
      ],
      [
        "▁forgive",
        -9.870023808661216
      ],
      [
        "stil",
        -8.348057439792251
      ],
      [
        "▁dog",
        -6.62866431641075
      ],
      [
        "▁g",
        -7.867685406503381
      ],
      [
        "▁weasley",
        -7.869133281846521
      ],
      [
        "ched",
        -9.337331019732819
      ],
      [
        "line",
        -10.53283153023056
      ],
      [
        "▁plane",
        -7.9561906955276624
      ],
      [
        "▁download",
        -9.761589825058374
      ],
      [
        "▁noise",
        -8.098294393333555
      ],
      [
        "▁irritate",
        -10.625395056527775
      ],
      [
        "re",
        -8.421918623493923
      ],
      [
        "▁contribut",
        -10.048690260992384
      ],
      [
        "▁advance",
        -9.410256147462524
      ],
      [
        "▁exchange",
        -8.766437879893527
      ],
      [
        "▁supplement",
        -10.625392290116027
      ],
      [
        "land",
        -8.808431504222439
      ],
      [
        "▁biolog",
        -10.480975161928452
      ],
      [
        "▁marshmallow",
        -10.043563668324929
      ],
      [
        "iri",
        -7.788725658436585
      ],
      [
        "▁agricultur",
        -8.98546263300228
      ],
      [
        "▁sandal",
        -10.481370623882274
      ],
      [
        "▁practic",
        -9.55323179377999
      ],
      [
        "▁align",
        -10.649491315103514
      ],
      [
        "▁allocate",
        -9.462375263949822
      ],
      [
        "▁indulge",
        -10.818112787769977
      ],
      [
        "▁fuck",
        -10.176534600256034
      ],
      [
        "▁tapp",
        -10.63256093317306
      ],
      [
        "▁alcohol",
        -9.580641248903397
      ],
      [
        "like",
        -8.617602280843219
      ],
      [
        "onl",
        -8.282522629199118
      ],
      [
        "▁somewh",
        -7.838931967341778
      ],
      [
        "▁tear",
        -9.94885977442624
      ],
      [
        "▁pro",
        -7.2114539337378245
      ],
      [
        "▁m",
        -7.008065295960894
      ],
      [
        "t",
        -2.4878868855370015
      ],
      [
        "▁animal",
        -7.010915132886302
      ],
      [
        "▁w",
        -6.298882848285828
      ],
      [
        "k",
        -6.32039397337508
      ],
      [
        "▁reside",
        -9.93463575750513
      ],
      [
        "▁hire",
        -8.685795281176249
      ],
      [
        "w",
        -9.481007900587642
      ],
      [
        "▁researcher",
        -9.051331038280338
      ],
      [
        "▁birth",
        -8.459303743729803
      ],
      [
        "▁bel",
        -7.316235749878892
      ],
      [
        "▁group",
        -9.455178163551826
      ],
      [
        "ea",
        -5.383019325135234
      ],
      [
        "▁force",
        -7.557981985303784
      ],
      [
        "corn",
        -8.996608795539043
      ],
      [
        "▁extinction",
        -10.311420809354187
      ],
      [
        "▁manufacture",
        -10.211414166369446
      ],
      [
        "tuate",
        -10.367907249689209
      ],
      [
        "alley",
        -9.45746347437878
      ],
      [
        "▁pilgrim",
        -9.931784944451753
      ],
      [
        "▁vulnerabilit",
        -10.478087476518771
      ],
      [
        "▁replac",
        -9.526070890111471
      ],
      [
        "▁follow",
        -6.362041922472535
      ],
      [
        "cam",
        -9.914933689913788
      ],
      [
        "▁believ",
        -10.259451890156278
      ],
      [
        "▁spec",
        -9.443583354643755
      ],
      [
        "ry",
        -7.523030787789639
      ],
      [
        "▁matter",
        -8.916816432592363
      ],
      [
        "rod",
        -10.717950917236367
      ],
      [
        "▁propa",
        -9.663845459789218
      ],
      [
        "▁perceiv",
        -10.551918828734166
      ],
      [
        "▁expand",
        -8.318777532004205
      ],
      [
        "▁immigrant",
        -10.168627854081414
      ],
      [
        "▁beaver",
        -10.478641427420268
      ],
      [
        "▁revert",
        -10.641857501640272
      ],
      [
        "__________",
        -11.310280138036859
      ],
      [
        "▁advance",
        -9.162401822121147
      ],
      [
        "inc",
        -7.751841047967409
      ],
      [
        "speci",
        -6.56809779980563
      ],
      [
        "▁plast",
        -9.267309464189333
      ],
      [
        "ti",
        -7.94075632283433
      ],
      [
        "▁for",
        -3.676327704226436
      ],
      [
        "l",
        -2.7651899767306247
      ],
      [
        "▁dirt",
        -7.284134994020468
      ],
      [
        "▁earthquake",
        -10.043563669759687
      ],
      [
        "lesh",
        -10.062543479869646
      ],
      [
        "▁population",
        -7.900759246115426
      ],
      [
        "▁comic",
        -10.31759475833505
      ],
      [
        "▁virtue",
        -10.478087651363609
      ],
      [
        "▁sidewalk",
        -10.311510543660399
      ],
      [
        "▁gesture",
        -10.311474274199128
      ],
      [
        "▁mu",
        -7.392537216598347
      ],
      [
        "▁surgeon",
        -9.832682591874955
      ],
      [
        "4",
        -11.925660239071421
      ],
      [
        "▁tw",
        -3.110490919801345
      ],
      [
        "dia",
        -7.541339966809506
      ],
      [
        "▁helmet",
        -10.311532176618
      ],
      [
        "▁issue",
        -6.999615269412318
      ],
      [
        "▁rental",
        -9.582134927551898
      ],
      [
        "▁reinforce",
        -10.457313139922562
      ],
      [
        "y",
        -4.5693853521597925
      ],
      [
        "▁command",
        -8.941625720651341
      ],
      [
        "w",
        -7.596616337272089
      ],
      [
        "▁wi",
        -9.007041050919737
      ],
      [
        "▁wo",
        -7.267365822071614
      ],
      [
        "▁influence",
        -8.766513799053753
      ],
      [
        "▁base",
        -6.930850999991949
      ],
      [
        "▁mega",
        -10.478109438129735
      ],
      [
        "▁yellow",
        -6.965176970186363
      ],
      [
        "r.",
        -7.136724162657938
      ],
      [
        "hens",
        -10.377171993669748
      ],
      [
        "▁restaurant",
        -7.400886071833667
      ],
      [
        "▁carbon",
        -9.16377027265975
      ],
      [
        "▁clown",
        -9.380694964829365
      ],
      [
        "f",
        -7.031933244243014
      ],
      [
        "dden",
        -9.234145617308972
      ],
      [
        "▁react",
        -9.643493041644607
      ],
      [
        "▁being",
        -9.044550679903406
      ],
      [
        "▁traged",
        -9.116064425378191
      ],
      [
        "▁parent",
        -7.545219579259029
      ],
      [
        "..............",
        -14.171066924010528
      ],
      [
        "▁",
        -1.2052669954522912
      ],
      [
        "▁respect",
        -8.150276411558004
      ],
      [
        "▁crom",
        -7.7478749589033615
      ],
      [
        "▁19",
        -8.869082596647846
      ],
      [
        "▁chose",
        -8.649066045350407
      ],
      [
        "▁wi",
        -10.73011299306763
      ],
      [
        "▁humanit",
        -9.446547690867309
      ],
      [
        "man",
        -6.863842658812744
      ],
      [
        "!!!!!!!",
        -11.238141621059212
      ],
      [
        "ra",
        -8.8217200948464
      ],
      [
        "n",
        -3.9840298251398396
      ],
      [
        "▁leadership",
        -9.164731686197655
      ],
      [
        "fte",
        -7.907968627874423
      ],
      [
        "▁loss",
        -8.539264040988089
      ],
      [
        "▁mer",
        -8.378431018539425
      ],
      [
        "along",
        -10.452772586670008
      ],
      [
        "▁reputation",
        -9.509966040193433
      ],
      [
        "▁signal",
        -9.969560408441588
      ],
      [
        "+",
        -11.925660239071421
      ],
      [
        "tastic",
        -7.836222454254486
      ],
      [
        "▁identit",
        -8.99791111559167
      ],
      [
        "▁reverse",
        -10.135070957496014
      ],
      [
        "▁domain",
        -8.986130548023178
      ],
      [
        "▁expire",
        -9.633637099111574
      ],
      [
        "▁pound",
        -9.659825297907616
      ],
      [
        "▁verifie",
        -10.375418645198057
      ],
      [
        "▁be",
        -6.418192732652731
      ],
      [
        "▁burden",
        -9.741543482187087
      ],
      [
        "▁think",
        -9.117919803422636
      ],
      [
        "▁vot",
        -10.234130492254568
      ],
      [
        "▁rank",
        -9.509867521167479
      ],
      [
        "o",
        -3.511903393270858
      ],
      [
        "▁infuse",
        -10.176457402288275
      ],
      [
        "▁pole",
        -9.327281550076133
      ],
      [
        "▁null",
        -10.168588341146233
      ],
      [
        "▁ra",
        -10.421010936307129
      ],
      [
        "uddle",
        -10.866970427971099
      ],
      [
        "▁claim",
        -7.677906900628578
      ],
      [
        "▁blue",
        -6.5873585788894955
      ],
      [
        "▁p",
        -9.237570785962834
      ],
      [
        "ural",
        -7.5258585411169365
      ],
      [
        "▁partnership",
        -9.381060575597582
      ],
      [
        "▁bos",
        -6.975922854039543
      ],
      [
        "et",
        -8.520137268692363
      ],
      [
        "▁altho",
        -5.5250653344630365
      ],
      [
        "▁name",
        -6.11990368963511
      ],
      [
        "▁candidate",
        -8.799767057179732
      ],
      [
        "▁compare",
        -8.265165019192352
      ],
      [
        "▁acknowledge",
        -8.931292194758996
      ],
      [
        "f",
        -11.770631529841472
      ],
      [
        "▁scal",
        -8.805574737590948
      ],
      [
        "▁germ",
        -10.47783251470314
      ],
      [
        "▁corporation",
        -9.741940933845436
      ],
      [
        "▁pine",
        -10.218305081110165
      ],
      [
        "▁s",
        -7.3226938615224135
      ],
      [
        "▁manager",
        -8.083298486136126
      ],
      [
        "▁working",
        -9.630485778023157
      ],
      [
        "v",
        -11.925660239071421
      ],
      [
        "▁friend",
        -7.047660559707676
      ],
      [
        "▁march",
        -9.833414239210036
      ],
      [
        "▁shadow",
        -9.213681156485315
      ],
      [
        "▁cann",
        -10.728253680964114
      ],
      [
        "▁on",
        -2.700071180263146
      ],
      [
        "▁kick",
        -10.168671274603355
      ],
      [
        "▁argue",
        -8.347926044747924
      ],
      [
        "in",
        -8.805021255135136
      ],
      [
        "▁pronounce",
        -9.800645510080413
      ],
      [
        "▁dad",
        -6.918955971671499
      ],
      [
        "mental",
        -7.321468882059985
      ],
      [
        "▁rais",
        -9.64989537248344
      ],
      [
        "▁alt.animals.",
        -9.461739619033319
      ],
      [
        "la",
        -7.180731558632907
      ],
      [
        "▁twa",
        -7.598795238109675
      ],
      [
        "▁home",
        -7.733616494262922
      ],
      [
        "▁crave",
        -10.62800230167974
      ],
      [
        "v",
        -7.189853336756621
      ],
      [
        "▁project",
        -7.2878303884677615
      ],
      [
        "▁grain",
        -9.512134409506533
      ],
      [
        "▁non",
        -8.674722093820106
      ],
      [
        "▁sneaker",
        -10.311420811465968
      ],
      [
        "▁ka",
        -8.121822124318559
      ],
      [
        "▁robot",
        -8.643210821603734
      ],
      [
        ",",
        -12.303800120175861
      ],
      [
        "▁study",
        -7.7240553395548215
      ],
      [
        "▁runner",
        -10.046794757482028
      ],
      [
        "▁singer",
        -10.4811705967739
      ],
      [
        "o",
        -4.218861851373661
      ],
      [
        "•",
        -12.810278406305976
      ],
      [
        "▁ambulance",
        -9.741543479186685
      ],
      [
        "▁bac",
        -9.745094317498294
      ],
      [
        "▁",
        -1.4771507384749114
      ],
      [
        "nt",
        -6.784027279257939
      ],
      [
        "▁wel",
        -5.239750120745514
      ],
      [
        "▁offens",
        -10.311505269826505
      ],
      [
        "▁per",
        -6.408765002859662
      ],
      [
        "▁envelope",
        -10.04356533501362
      ],
      [
        "es",
        -5.894245843865746
      ],
      [
        "o",
        -6.877907499943204
      ],
      [
        "▁wrap",
        -9.720742802928692
      ],
      [
        "▁realit",
        -8.70365614522089
      ],
      [
        "▁dropp",
        -8.034717269481467
      ],
      [
        "▁7",
        -5.116752489530166
      ],
      [
        "▁stress",
        -9.869189717662753
      ],
      [
        "▁t",
        -7.45890416965616
      ],
      [
        "▁retain",
        -9.534887694485032
      ],
      [
        "▁richard",
        -7.523390134936683
      ],
      [
        "▁i",
        -8.414006726853913
      ],
      [
        "▁author",
        -8.114244008142872
      ],
      [
        "ves",
        -8.347965329337939
      ],
      [
        "▁sw",
        -10.222204216209015
      ],
      [
        "ail",
        -5.888541626445163
      ],
      [
        "▁finish",
        -7.390927051909597
      ],
      [
        "▁bec",
        -3.613577850939203
      ],
      [
        "▁majorit",
        -8.559984870598816
      ],
      [
        "▁website",
        -7.759370888662832
      ],
      [
        "▁obs",
        -9.171801532407528
      ],
      [
        "n",
        -2.772310985610549
      ],
      [
        "▁wea",
        -10.862787046391801
      ],
      [
        "▁flood",
        -8.834921992737934
      ],
      [
        "enti",
        -9.138469515775558
      ],
      [
        "ddy",
        -5.879950562827224
      ],
      [
        "roll",
        -10.104053663897513
      ],
      [
        "▁praise",
        -9.932453026985014
      ],
      [
        "▁cancel",
        -8.969339575900687
      ],
      [
        "▁muggle",
        -9.509860153486773
      ],
      [
        "ll",
        -7.831638582495885
      ],
      [
        "▁scream",
        -10.47855434010183
      ],
      [
        "ologi",
        -7.274968840286015
      ],
      [
        "ce",
        -6.86782844437985
      ],
      [
        "evolution",
        -9.741832521080479
      ],
      [
        "▁deem",
        -9.891283968357795
      ],
      [
        "▁gla",
        -10.500243206036425
      ],
      [
        "▁expression",
        -8.870165373251204
      ],
      [
        "▁wonder",
        -7.394909470106592
      ],
      [
        "eligi",
        -7.624587910342548
      ],
      [
        "u",
        -8.070949385963766
      ],
      [
        "▁slipp",
        -10.346942668688209
      ],
      [
        "▁task",
        -8.388696005260062
      ],
      [
        "▁compet",
        -10.16034970579836
      ],
      [
        "_",
        -4.6553638775550565
      ],
      [
        "▁stripe",
        -10.186641478257322
      ],
      [
        "▁surplus",
        -10.311420810382687
      ],
      [
        "st",
        -4.586035877960723
      ],
      [
        "the",
        -7.024914228420359
      ],
      [
        "▁chicken",
        -7.426321841681207
      ],
      [
        "▁homeopath",
        -9.932522071768108
      ],
      [
        "▁18",
        -10.47810612584275
      ],
      [
        "▁emperor",
        -10.47809062571123
      ],
      [
        "'",
        -10.921696721123718
      ],
      [
        "▁destination",
        -8.988578330826128
      ],
      [
        "▁pickle",
        -10.168807310488178
      ],
      [
        "▁portion",
        -8.987352364803463
      ],
      [
        "▁pancake",
        -9.443247035101018
      ],
      [
        "▁remed",
        -10.311481141341975
      ],
      [
        "▁hurt",
        -7.0391796372335245
      ],
      [
        "ize",
        -10.360224280629454
      ],
      [
        "▁worker",
        -8.302929795770776
      ],
      [
        "ard",
        -8.753210973336145
      ],
      [
        "▁hi",
        -7.87038307567777
      ],
      [
        "▁other",
        -4.5395040691075765
      ],
      [
        "woul",
        -7.186489786394996
      ],
      [
        "▁field",
        -7.040092237698073
      ],
      [
        "ma",
        -8.848380702663485
      ],
      [
        "▁open",
        -6.700602120712368
      ],
      [
        "▁treat",
        -9.069802909425771
      ],
      [
        "▁architect",
        -9.2136814386443
      ],
      [
        "▁shi",
        -10.039041304799149
      ],
      [
        "▁climate",
        -8.344733570676977
      ],
      [
        "▁remi",
        -9.91465570309776
      ],
      [
        "▁transport",
        -8.917221765190645
      ],
      [
        "--------",
        -11.127153465961987
      ],
      [
        "side",
        -6.036964273039711
      ],
      [
        "▁lol",
        -7.00934076015975
      ],
      [
        "tie",
        -9.8468570393447
      ],
      [
        "w",
        -10.416994930697198
      ],
      [
        "s",
        -3.328190644063051
      ],
      [
        "▁2",
        -9.605653578577263
      ],
      [
        "▁prett",
        -8.028456882690731
      ],
      [
        "nt",
        -7.926099267872553
      ],
      [
        "▁plott",
        -10.635998005245568
      ],
      [
        "▁plan",
        -8.307157985587114
      ],
      [
        "▁kid",
        -9.769011734440525
      ],
      [
        "▁church",
        -8.262215523830182
      ],
      [
        "▁forget",
        -7.8047061598920475
      ],
      [
        "▁tray",
        -9.411455879310777
      ],
      [
        "▁quick",
        -7.724878777853267
      ],
      [
        "▁ant",
        -8.077726727736026
      ],
      [
        "▁groan",
        -10.375972410080676
      ],
      [
        "▁i",
        -7.352216322514234
      ],
      [
        "▁max",
        -10.486340340828173
      ],
      [
        "▁securit",
        -7.56414290851431
      ],
      [
        "ne",
        -8.178319488436468
      ],
      [
        "w",
        -6.333928096726785
      ],
      [
        "▁apron",
        -10.478089526700685
      ],
      [
        "e",
        -3.5477792367651215
      ],
      [
        "▁prioritise",
        -10.658666968828605
      ],
      [
        "▁finaliz",
        -10.632792941184837
      ],
      [
        "▁reg",
        -8.561505855911198
      ],
      [
        "!!!",
        -8.681878390748498
      ],
      [
        "▁filter",
        -8.167849118307888
      ],
      [
        "eat",
        -8.359058933190482
      ],
      [
        "▁emergenc",
        -8.834249770495031
      ],
      [
        "▁summ",
        -10.59033662189267
      ],
      [
        "▁term",
        -7.287625755707236
      ],
      [
        "▁bump",
        -9.283223577838324
      ],
      [
        "▁feeling",
        -8.510453676041989
      ],
      [
        "▁change",
        -7.0637789164897855
      ],
      [
        "ler",
        -10.408542572259906
      ],
      [
        "ver",
        -10.086671659406761
      ],
      [
        "sed",
        -9.03492534491834
      ],
      [
        "▁trip",
        -6.529980885338597
      ],
      [
        "▁bleach",
        -10.478098832984534
      ],
      [
        "▁stickerbird",
        -10.478107772197356
      ],
      [
        "▁adjustment",
        -9.832868618231004
      ],
      [
        "▁bal",
        -10.702784049364046
      ],
      [
        "▁friendship",
        -9.384532456352517
      ],
      [
        "h",
        -5.561550694199753
      ],
      [
        "▁contact",
        -8.507877833464192
      ],
      [
        "ly",
        -7.723400327850443
      ],
      [
        "▁contract",
        -10.175404839796691
      ],
      [
        "▁spill",
        -8.918939825192812
      ],
      [
        "▁repair",
        -9.288645750649827
      ],
      [
        "ember",
        -6.199609196682592
      ],
      [
        "ta",
        -6.746267748611716
      ],
      [
        "▁illusion",
        -10.311494101724024
      ],
      [
        "▁compose",
        -9.919159873909146
      ],
      [
        "▁hav",
        -4.47068279899715
      ],
      [
        "d",
        -7.19471998411638
      ],
      [
        "▁pick",
        -6.856487804306815
      ],
      [
        "▁ba",
        -9.810970998698211
      ],
      [
        "▁shove",
        -10.398867040825182
      ],
      [
        "▁sand",
        -8.974879506789534
      ],
      [
        "▁instructor",
        -9.26631273092033
      ],
      [
        "ris",
        -9.549743311446143
      ],
      [
        "d",
        -10.889404706649978
      ],
      [
        "▁back",
        -8.43778236464935
      ],
      [
        "▁street",
        -7.817149434523229
      ],
      [
        "▁space",
        -7.138418152700688
      ],
      [
        "ka",
        -7.112857256237041
      ],
      [
        "▁sigh",
        -10.151819997786745
      ],
      [
        "▁tactic",
        -9.93245263116778
      ],
      [
        "▁present",
        -8.169805048700837
      ],
      [
        "▁sort",
        -7.658959918849162
      ],
      [
        "man",
        -7.728453083879817
      ],
      [
        "ept",
        -7.217695514232073
      ],
      [
        "ed",
        -7.66724170778555
      ],
      [
        "▁serving",
        -10.044153056809229
      ],
      [
        "▁crayon",
        -9.070620332470313
      ],
      [
        "▁password",
        -9.07061301446638
      ],
      [
        "▁mature",
        -10.375526164268171
      ],
      [
        "i",
        -5.042364547112357
      ],
      [
        "le",
        -7.288360568497718
      ],
      [
        "▁signature",
        -9.834181202951669
      ],
      [
        "▁cann",
        -10.482179903702589
      ],
      [
        "▁quartile",
        -9.027130969826954
      ],
      [
        "▁astronaut",
        -10.168563666290055
      ],
      [
        "ther",
        -8.47414026107005
      ],
      [
        "et",
        -9.871479119652989
      ],
      [
        "pay",
        -10.47071048642956
      ],
      [
        "▁concentration",
        -9.58128705489402
      ],
      [
        "cat",
        -10.487021904188932
      ],
      [
        "▁evaluate",
        -9.962341700948702
      ],
      [
        "▁el",
        -10.044991722288888
      ],
      [
        "▁unload",
        -10.625455751683093
      ],
      [
        "▁root",
        -10.63104711627929
      ],
      [
        "▁facult",
        -9.44319272643382
      ],
      [
        "▁services",
        -8.200410089249285
      ],
      [
        "▁solve",
        -9.079268602044394
      ],
      [
        "ng",
        -8.371015105561042
      ],
      [
        "▁ri",
        -10.490612159304728
      ],
      [
        "▁yours",
        -8.946628168237133
      ],
      [
        "▁war",
        -7.004022894271219
      ],
      [
        "▁limit",
        -9.82967094781233
      ],
      [
        "▁patient",
        -9.02994133957897
      ],
      [
        "▁twi",
        -10.305617047588102
      ],
      [
        "h",
        -4.6934243343720325
      ],
      [
        "▁no",
        -8.751243231992431
      ],
      [
        "co",
        -7.935002140716888
      ],
      [
        "▁negotiat",
        -9.933354710211157
      ],
      [
        "hip",
        -9.897383060640479
      ],
      [
        "▁tuesday",
        -7.675941055183223
      ],
      [
        "[CLS]",
        0.0
      ],
      [
        "▁elbow",
        -9.741543467387801
      ],
      [
        "▁worry",
        -8.610892468635155
      ],
      [
        "back",
        -8.500899665186376
      ],
      [
        "▁in",
        -3.238740417683939
      ],
      [
        "▁day",
        -5.4961141046960105
      ],
      [
        "▁litera",
        -8.811253983843827
      ],
      [
        "▁detect",
        -9.868983059034266
      ],
      [
        "▁fin",
        -7.13921038761765
      ],
      [
        "ril",
        -8.028467496550498
      ],
      [
        "▁sun",
        -7.973576176043491
      ],
      [
        "▁cocktail",
        -9.163681619188505
      ],
      [
        "▁jihad",
        -10.284514006268738
      ],
      [
        "▁frost",
        -9.74156709692312
      ],
      [
        "▁edit",
        -9.578584447587502
      ],
      [
        "▁lower",
        -7.7163377428889
      ],
      [
        "▁foreigner",
        -9.38069208094714
      ],
      [
        "▁anti",
        -9.670534313184827
      ],
      [
        "ar",
        -7.075727222635783
      ],
      [
        "’",
        -6.26611087511166
      ],
      [
        "lai",
        -10.21681616222041
      ],
      [
        "them",
        -7.937344547440428
      ],
      [
        "▁representation",
        -9.268030705320479
      ],
      [
        "<",
        -7.228670777278908
      ],
      [
        "▁doubt",
        -9.444180129155395
      ],
      [
        "▁living",
        -8.587309508565035
      ],
      [
        "b",
        -6.1504537306829885
      ],
      [
        "▁press",
        -8.466229944950783
      ],
      [
        "▁com",
        -6.276845960926167
      ],
      [
        "▁*",
        -9.783669856556784
      ],
      [
        "ar",
        -7.063891730229105
      ],
      [
        "how",
        -8.956604690235753
      ],
      [
        "▁bite",
        -9.156224886627765
      ],
      [
        "▁has",
        -5.672018519169682
      ],
      [
        "▁compress",
        -10.360411455054779
      ],
      [
        "a",
        -6.448424639862955
      ],
      [
        "ami",
        -6.63353394711418
      ],
      [
        "ard",
        -7.61827400544645
      ],
      [
        "rface",
        -8.38471935055882
      ],
      [
        "▁poem",
        -9.321874441452813
      ],
      [
        "▁vehicle",
        -8.834249770936486
      ],
      [
        "▁rebel",
        -9.836346622265573
      ],
      [
        "▁justice",
        -9.27507449992458
      ],
      [
        "▁die",
        -7.499057144464232
      ],
      [
        "▁uv",
        -9.527182249826582
      ],
      [
        "▁uh",
        -4.032163193927326
      ],
      [
        "cit",
        -9.44028595812152
      ],
      [
        "▁self",
        -8.061876020721876
      ],
      [
        "nk",
        -8.193469548464432
      ],
      [
        "▁inhabitant",
        -9.932452555209595
      ],
      [
        "was",
        -6.42545466381976
      ],
      [
        "`",
        -11.770631529841472
      ],
      [
        "▁involvement",
        -9.443191815891064
      ],
      [
        "licit",
        -10.625532979131632
      ],
      [
        "▁include",
        -7.061085876825674
      ],
      [
        "▁relations",
        -9.226526088245711
      ],
      [
        "▁crowd",
        -8.907076151184802
      ],
      [
        "▁excuse",
        -9.212314087949528
      ],
      [
        "got",
        -10.98607480809809
      ],
      [
        "formulate",
        -10.62542919896698
      ],
      [
        "▁difference",
        -7.554805897182178
      ],
      [
        "▁spark",
        -10.478232809979016
      ],
      [
        "▁act",
        -8.299533285819274
      ],
      [
        "▁eat",
        -5.6316209781590745
      ],
      [
        "▁wav",
        -9.772682585420625
      ],
      [
        "▁bitter",
        -10.492026624987842
      ],
      [
        "▁probabilit",
        -10.478193680518382
      ],
      [
        "h",
        -8.082311726515218
      ],
      [
        "▁reveal",
        -8.538070794943604
      ],
      [
        "awah",
        -8.061104799145513
      ],
      [
        "r",
        -7.556471746184326
      ],
      [
        "▁disrupt",
        -10.0115220461553
      ],
      [
        "▁delay",
        -10.177329925685466
      ],
      [
        "▁acquis",
        -10.056116954805184
      ],
      [
        "▁cra",
        -9.16087775535224
      ],
      [
        "rench",
        -7.337084724346421
      ],
      [
        "▁to",
        -4.828081713777489
      ],
      [
        "they",
        -7.005894765477494
      ],
      [
        "tieth",
        -7.971235901375047
      ],
      [
        "hiki",
        -10.477851043907053
      ],
      [
        "▁witness",
        -9.833534972258853
      ],
      [
        "all",
        -4.386146326760172
      ],
      [
        "▁refrigerator",
        -9.32186828906544
      ],
      [
        "▁hurry",
        -9.44378856143484
      ],
      [
        "▁indicate",
        -8.34885140451932
      ],
      [
        "nce",
        -9.633685273708124
      ],
      [
        "▁deepen",
        -10.62559248751512
      ],
      [
        "▁murderer",
        -9.755433400417685
      ],
      [
        "▁un",
        -5.798991763268779
      ],
      [
        "▁z",
        -8.117582436875843
      ],
      [
        "▁old",
        -10.045073492676194
      ],
      [
        "▁mess",
        -9.163694913339114
      ],
      [
        "imate",
        -7.97804560746793
      ],
      [
        "resume",
        -10.38287400397426
      ],
      [
        "▁absorb",
        -9.024768821123665
      ],
      [
        "==",
        -11.055194985824045
      ],
      [
        "a",
        -7.313902365806134
      ],
      [
        "▁issue",
        -8.748243023434334
      ],
      [
        "▁pillar",
        -10.178921218949782
      ],
      [
        "dy",
        -8.03611049057844
      ],
      [
        "▁avenue",
        -10.168563670142362
      ],
      [
        "▁pay",
        -6.894095309609328
      ],
      [
        "▁supporter",
        -9.344505160986092
      ],
      [
        "▁’",
        -9.7081408527352
      ],
      [
        "▁de",
        -5.409566925574605
      ],
      [
        "▁sofa",
        -10.168564664936815
      ],
      [
        "us",
        -5.896012619510532
      ],
      [
        "o",
        -4.793831298333829
      ],
      [
        "▁area",
        -6.580243234742934
      ],
      [
        "▁dolphin",
        -9.164481507022984
      ],
      [
        "▁artist",
        -8.735376271474497
      ],
      [
        "▁demonstration",
        -9.932570490970818
      ],
      [
        "our",
        -9.506348543388656
      ],
      [
        "▁risk",
        -9.094089437034025
      ],
      [
        "▁sp",
        -9.924592366094707
      ],
      [
        "▁journalist",
        -10.312975232064183
      ],
      [
        "▁bio",
        -10.161326626329021
      ],
      [
        "▁stuff",
        -7.25333568292502
      ],
      [
        "▁bulb",
        -8.946151700017957
      ],
      [
        "▁appre",
        -9.398382285407486
      ],
      [
        "▁appliance",
        -10.311420969370396
      ],
      [
        "▁applie",
        -8.02839247144541
      ],
      [
        "▁barber",
        -10.314253690311222
      ],
      [
        "en",
        -8.960701284908302
      ],
      [
        "▁tugg",
        -10.375632855893508
      ],
      [
        "▁crie",
        -8.680881358113988
      ],
      [
        "▁storm",
        -10.700530798415647
      ],
      [
        "▁musician",
        -9.83296434615012
      ],
      [
        "ia",
        -7.044474574176756
      ],
      [
        "▁mold",
        -10.043677692443284
      ],
      [
        "▁patent",
        -10.311423860839318
      ],
      [
        "ma",
        -9.512744794518076
      ],
      [
        "ware",
        -8.806526905624937
      ],
      [
        "▁secretary",
        -9.386189950558073
      ],
      [
        "▁basket",
        -8.90700117156642
      ],
      [
        "▁smil",
        -9.314460057221783
      ],
      [
        "k",
        -6.961859007483909
      ],
      [
        "▁vessel",
        -9.658213747469626
      ],
      [
        "▁hook",
        -10.4883661928343
      ],
      [
        "ation",
        -5.900976325967351
      ],
      [
        "▁competition",
        -8.614699487150759
      ],
      [
        "▁sacrifice",
        -10.37539229013642
      ],
      [
        "▁hang",
        -10.289505085553333
      ],
      [
        "▁linguist",
        -9.741565060704097
      ],
      [
        "▁enjoy",
        -6.958235282635592
      ],
      [
        "was",
        -10.878403380983059
      ],
      [
        "▁demonstrat",
        -10.908466487076097
      ],
      [
        "canada",
        -7.758072633861156
      ],
      [
        "▁over",
        -8.272295625658716
      ],
      [
        "▁radio",
        -9.168300683045704
      ],
      [
        "▁prosecutor",
        -10.043563666668888
      ],
      [
        "▁commemorate",
        -10.625392293112027
      ],
      [
        "▁surge",
        -10.647592397046761
      ],
      [
        "▁travel",
        -8.407759598888934
      ],
      [
        "▁portray",
        -10.375392345148754
      ],
      [
        "▁cite",
        -9.5459805419673
      ],
      [
        "▁new",
        -5.576189449017814
      ],
      [
        "▁bu",
        -7.405623915969516
      ],
      [
        "▁ecosystem",
        -10.478087475907468
      ],
      [
        "▁discipline",
        -9.581303265728526
      ],
      [
        "real",
        -7.612048952252003
      ],
      [
        "da",
        -11.222074835862148
      ],
      [
        "▁soft",
        -7.795608770514
      ],
      [
        "▁kind",
        -7.67905457835597
      ],
      [
        "▁rip",
        -9.553219506168208
      ],
      [
        "un",
        -10.4123632502803
      ],
      [
        "▁float",
        -8.688947204043847
      ],
      [
        "an",
        -9.093920789101398
      ],
      [
        "▁imme",
        -7.436168493080066
      ],
      [
        "▁rule",
        -7.563217396663663
      ],
      [
        "▁inside",
        -9.447963448757417
      ],
      [
        "▁brown",
        -7.829387611527569
      ],
      [
        "▁estimate",
        -8.098732058245107
      ],
      [
        "▁style",
        -8.031244498894136
      ],
      [
        "▁dinner",
        -7.118450758887957
      ],
      [
        "▁debate",
        -9.506037749938255
      ],
      [
        "▁committ",
        -9.169860122076315
      ],
      [
        "▁clip",
        -9.885490016400016
      ],
      [
        "▁bounce",
        -9.943856651212327
      ],
      [
        "ne",
        -12.213083490762878
      ],
      [
        "▁wild",
        -8.928126600543223
      ],
      [
        "▁luna",
        -10.311493632266904
      ],
      [
        "▁sail",
        -10.059779411460987
      ],
      [
        "▁>",
        -9.582936923105237
      ],
      [
        "▁participant",
        -8.643242187848868
      ],
      [
        "www",
        -6.357198877686594
      ],
      [
        "▁datasheet",
        -9.74336760542837
      ],
      [
        "ye",
        -6.953245541864099
      ],
      [
        "▁remember",
        -6.274852527604202
      ],
      [
        "▁commentar",
        -10.069570333273543
      ],
      [
        "back",
        -9.185201081133819
      ],
      [
        "▁venture",
        -9.741578806257742
      ],
      [
        "▁sill",
        -7.937500207333644
      ],
      [
        "▁invest",
        -8.92347630255485
      ],
      [
        "▁lover",
        -9.757954892333617
      ],
      [
        "▁vice",
        -9.58771189663863
      ],
      [
        "▁sa",
        -10.442131486767718
      ],
      [
        "▁reconcili",
        -9.50988995044123
      ],
      [
        "a",
        -4.198425366036542
      ],
      [
        "▁need",
        -4.9754309386742674
      ],
      [
        "▁consider",
        -6.853368035562674
      ],
      [
        "▁thre",
        -8.490099273367074
      ],
      [
        "▁wand",
        -9.739112632355404
      ],
      [
        "▁flash",
        -10.008915582252982
      ],
      [
        "c",
        -4.327503421637194
      ],
      [
        "▁implie",
        -10.237241191681681
      ],
      [
        "▁relax",
        -9.119215601218187
      ],
      [
        "ental",
        -6.861060378996306
      ],
      [
        "▁robin",
        -7.479882217646037
      ],
      [
        "o",
        -3.685656293320066
      ],
      [
        "▁comparison",
        -9.070609536430396
      ],
      [
        "▁exclaim",
        -10.011733413715644
      ],
      [
        "▁touris",
        -9.889610724458338
      ],
      [
        "▁exercise",
        -9.164358212206785
      ],
      [
        "▁migration",
        -10.17108350806816
      ],
      [
        "▁telephone",
        -8.64366898574794
      ],
      [
        "▁cub",
        -10.178088082832152
      ],
      [
        "▁11",
        -5.487104098601486
      ],
      [
        "▁go",
        -6.738425845394444
      ],
      [
        "▁piece",
        -6.914504115641932
      ],
      [
        "e",
        -9.487298196508139
      ],
      [
        "▁discover",
        -7.971377119603126
      ],
      [
        "fall",
        -10.44913791816686
      ],
      [
        "▁subs",
        -8.297863541808772
      ],
      [
        "▁foot",
        -7.771647652021123
      ],
      [
        "▁engage",
        -9.027959368460433
      ],
      [
        "ide",
        -9.572061885451374
      ],
      [
        "▁withdraw",
        -9.283877617981842
      ],
      [
        "▁nest",
        -9.118995051987067
      ],
      [
        "▁exclude",
        -10.441509310747431
      ],
      [
        "▁climb",
        -10.478446798661684
      ],
      [
        "ous",
        -4.87272141173675
      ],
      [
        "▁hous",
        -9.25829459138415
      ],
      [
        "▁particular",
        -6.879661482062576
      ],
      [
        "▁angel",
        -6.918869697806061
      ],
      [
        "▁b",
        -6.7872318813053925
      ],
      [
        "read",
        -5.745973914349878
      ],
      [
        "▁mu",
        -5.496880053479114
      ],
      [
        "▁every",
        -8.138839326173517
      ],
      [
        "imbu",
        -10.377921179753464
      ],
      [
        "▁executive",
        -10.168563666285158
      ],
      [
        "▁10",
        -4.650404494469818
      ],
      [
        "out",
        -6.242361992765793
      ],
      [
        "▁warm",
        -9.092386316359836
      ],
      [
        "ian",
        -9.46893123016394
      ],
      [
        "▁spot",
        -9.193999268676992
      ],
      [
        "▁audience",
        -8.50787815711593
      ],
      [
        "ocus",
        -8.944733836660207
      ],
      [
        "▁alter",
        -9.364013232035528
      ],
      [
        "ooooo",
        -12.71015855894965
      ],
      [
        "▁um",
        -3.615304440315332
      ],
      [
        "▁bear",
        -7.360132999224704
      ],
      [
        "▁let",
        -5.266393225607882
      ],
      [
        "▁rag",
        -9.507646288732989
      ],
      [
        "▁high",
        -9.665307653691652
      ],
      [
        "l",
        -12.81027840626604
      ],
      [
        "▁any",
        -6.715036310546548
      ],
      [
        "▁perspective",
        -9.380691818492878
      ],
      [
        "▁tast",
        -10.159301268178474
      ],
      [
        "▁company",
        -7.105910475001366
      ],
      [
        "▁shelter",
        -10.175393356959152
      ],
      [
        "▁g",
        -7.96508465208572
      ],
      [
        "▁infection",
        -9.83245257216137
      ],
      [
        "▁baker",
        -10.341732264668599
      ],
      [
        "▁augmentation",
        -10.311420810021165
      ],
      [
        "▁pretend",
        -8.139216432580561
      ],
      [
        "ming",
        -8.557360031403563
      ],
      [
        "se",
        -9.378030818966653
      ],
      [
        "ing",
        -4.779772680984797
      ],
      [
        "▁easter",
        -8.082890581363323
      ],
      [
        "▁inhabit",
        -10.625392670092056
      ],
      [
        "m",
        -4.633343155688267
      ],
      [
        "▁web",
        -7.821092427284058
      ],
      [
        "▁emp",
        -10.05941077058684
      ],
      [
        "▁publisher",
        -10.16944571848499
      ],
      [
        "▁treasure",
        -10.349086887475515
      ],
      [
        "▁table",
        -7.1642691798383735
      ],
      [
        "▁autofilter",
        -10.478087475862782
      ],
      [
        "▁cigarette",
        -8.985465769722769
      ],
      [
        "▁vietnam",
        -8.143258097114451
      ],
      [
        "▁wire",
        -9.510996164091555
      ],
      [
        "▁bell",
        -8.590022486048687
      ],
      [
        "▁hm",
        -6.649910248341191
      ],
      [
        "eeth",
        -8.655315489896875
      ],
      [
        "▁ours",
        -11.444714850985516
      ],
      [
        "▁project",
        -9.443500858672703
      ],
      [
        "▁aspect",
        -8.167830752360572
      ],
      [
        "1",
        -12.810278406305976
      ],
      [
        "n",
        -4.72563031026995
      ],
      [
        "▁die",
        -8.442731206985323
      ],
      [
        "----",
        -10.83180367459837
      ],
      [
        "ever",
        -6.0073375635282105
      ],
      [
        "▁treat",
        -7.700576317288588
      ],
      [
        "▁d",
        -8.048528589403643
      ],
      [
        "ican",
        -7.78911050047105
      ],
      [
        "▁demand",
        -9.02713163726283
      ],
      [
        "ic",
        -6.031345409737585
      ],
      [
        "▁race",
        -9.394405357355792
      ],
      [
        "now",
        -7.724366718955533
      ],
      [
        "▁late",
        -6.267339765221746
      ],
      [
        "▁wif",
        -7.382745561120394
      ],
      [
        "▁advert",
        -9.83210567172138
      ],
      [
        "▁admit",
        -9.184319919238236
      ],
      [
        "▁compliment",
        -9.933439274357374
      ],
      [
        "▁editor",
        -9.177073675275679
      ],
      [
        "▁rid",
        -9.576090970698349
      ],
      [
        "▁curve",
        -9.582521044139536
      ],
      [
        "▁restrict",
        -9.7446781394607
      ],
      [
        "▁avail",
        -9.741543697304005
      ],
      [
        "ame",
        -10.203838743920596
      ],
      [
        "▁element",
        -8.08155637327827
      ],
      [
        "▁happ",
        -9.583390344128642
      ],
      [
        "▁nost",
        -10.318644460968027
      ],
      [
        "rete",
        -9.932586803624295
      ],
      [
        "▁cure",
        -10.161135337736994
      ],
      [
        "▁slamm",
        -10.009632995353966
      ],
      [
        "▁w/",
        -11.15379541592156
      ],
      [
        "▁knowledge",
        -8.065157473511176
      ],
      [
        "▁regain",
        -10.626631285643823
      ],
      [
        "wh",
        -8.549184731091053
      ],
      [
        "▁thwart",
        -10.375393006284444
      ],
      [
        "▁mount",
        -9.769367600247483
      ],
      [
        "▁doctor",
        -7.656949861605572
      ],
      [
        "presentation",
        -9.320025409858498
      ],
      [
        "▁!!!!!!",
        -11.169643353147762
      ],
      [
        "cl",
        -8.406018093479394
      ],
      [
        "▁club",
        -9.16372022537468
      ],
      [
        "▁figure",
        -8.766433742692975
      ],
      [
        "▁fulfil",
        -10.925225358278373
      ],
      [
        "/",
        -13.8725705263812
      ],
      [
        "▁badge",
        -10.30885824809411
      ],
      [
        "▁personal",
        -7.73883688352381
      ],
      [
        "▁sheet",
        -8.422883773947177
      ],
      [
        "▁addition",
        -8.2625463123709
      ],
      [
        "▁abs",
        -7.929212495987686
      ],
      [
        "$",
        -11.28153641900687
      ],
      [
        "▁resolv",
        -10.925979024928957
      ],
      [
        "some",
        -9.94653509347779
      ],
      [
        "▁hasid",
        -9.832570348751283
      ],
      [
        "▁decide",
        -7.1256742126874455
      ],
      [
        "▁futur",
        -7.5775376312960425
      ],
      [
        "o",
        -2.9644061227609457
      ],
      [
        "▁speculat",
        -10.200711806280005
      ],
      [
        "sit",
        -9.383504073805348
      ],
      [
        "▁height",
        -9.380717963105575
      ],
      [
        "▁statistic",
        -9.581287054603447
      ],
      [
        "▁legend",
        -9.741740352001576
      ],
      [
        "▁sleeve",
        -9.381688578896325
      ],
      [
        "▁bake",
        -9.58180832209959
      ],
      [
        "▁drum",
        -10.375662977742826
      ],
      [
        "phi",
        -7.2565674407912155
      ],
      [
        "▁co-",
        -10.04111309660749
      ],
      [
        "▁bi",
        -7.885825767831987
      ],
      [
        "ge",
        -7.976918852020568
      ],
      [
        "hey",
        -12.24726347818536
      ],
      [
        "▁core",
        -9.445388088282826
      ],
      [
        "▁giraffe",
        -9.658210477706687
      ],
      [
        "nasa",
        -7.894702085902489
      ],
      [
        "▁tolerat",
        -9.639332834444483
      ],
      [
        "▁rea",
        -9.806587807895573
      ],
      [
        "have",
        -7.697358281809178
      ],
      [
        "▁he",
        -10.616994790772573
      ],
      [
        "▁stream",
        -10.17670891606647
      ],
      [
        "pid",
        -7.692223382223148
      ],
      [
        "s",
        -2.856836203130574
      ],
      [
        "has",
        -9.011977185158957
      ],
      [
        "▁decline",
        -9.11707460588914
      ],
      [
        "▁bang",
        -10.068686809339026
      ],
      [
        "▁pitt",
        -5.113689389671724
      ],
      [
        "ath",
        -10.701134267338519
      ],
      [
        "▁fir",
        -9.795747316937762
      ],
      [
        "▁lick",
        -8.629187638831143
      ],
      [
        "▁battle",
        -9.027204068792875
      ],
      [
        "▁exercise",
        -9.331770677504128
      ],
      [
        "▁teenager",
        -10.311601024595312
      ],
      [
        "▁workshop",
        -10.045044622110344
      ],
      [
        "cient",
        -7.904563397838827
      ],
      [
        "▁migrate",
        -9.78019301592639
      ],
      [
        "▁boil",
        -9.868877784661217
      ],
      [
        "▁moon",
        -8.346365243200546
      ],
      [
        "▁shorts",
        -8.897727633416498
      ],
      [
        "▁pioneer",
        -10.478092202968103
      ],
      [
        "▁visitor",
        -8.674432666301346
      ],
      [
        "▁suspend",
        -9.8691627241382
      ],
      [
        "▁forc",
        -10.357137201300201
      ],
      [
        "p",
        -12.303800120175861
      ],
      [
        "▁tug",
        -9.843642176028455
      ],
      [
        "appoint",
        -9.820632183439093
      ],
      [
        "▁categor",
        -8.734676455708136
      ],
      [
        "▁updat",
        -10.536455177965196
      ],
      [
        "▁manipulate",
        -10.548907462218708
      ],
      [
        "▁mon",
        -7.10179299417721
      ],
      [
        "▁cut",
        -8.574936436532107
      ],
      [
        "▁journal",
        -8.94533955095546
      ],
      [
        "▁cake",
        -8.15186692174278
      ],
      [
        "ma",
        -6.56637832689829
      ],
      [
        "▁chap",
        -10.044928346078846
      ],
      [
        "_",
        -4.456929594736267
      ],
      [
        "kin",
        -9.344754041761462
      ],
      [
        "▁content",
        -8.082770500695014
      ],
      [
        "el",
        -7.571730869574103
      ],
      [
        "▁consumer",
        -8.871518677355962
      ],
      [
        "▁travell",
        -9.466626765177278
      ],
      [
        "▁propos",
        -9.210258085636665
      ],
      [
        "▁lamp",
        -9.83446941057554
      ],
      [
        "et",
        -7.538849910540658
      ],
      [
        "▁crawl",
        -9.283315065899274
      ],
      [
        "▁audio",
        -9.581288851362638
      ],
      [
        "imon",
        -10.1583184081023
      ],
      [
        "ck",
        -8.011018938572096
      ],
      [
        "ext",
        -7.384595250247742
      ],
      [
        "avoc",
        -9.443192798288988
      ],
      [
        "▁overwhelm",
        -10.62539229626098
      ],
      [
        "▁drawer",
        -9.382167151703479
      ],
      [
        "▁privilege",
        -10.311420809841486
      ],
      [
        "▁nurse",
        -9.324863712695528
      ],
      [
        "▁deduct",
        -10.635057096251737
      ],
      [
        "▁ignora",
        -9.832452577077486
      ],
      [
        "▁t",
        -8.51074744854803
      ],
      [
        "▁benefit",
        -8.68921933497451
      ],
      [
        "▁date",
        -9.442067739645166
      ],
      [
        "▁predator",
        -9.509859139752649
      ],
      [
        "▁administer",
        -9.869445995718653
      ],
      [
        "▁economist",
        -9.937637885213325
      ],
      [
        "▁se",
        -8.094494879163094
      ],
      [
        "gence",
        -9.482760417865883
      ],
      [
        "▁some",
        -6.593686694992894
      ],
      [
        "▁'",
        -9.052455780862362
      ],
      [
        "ca",
        -9.450819833205985
      ],
      [
        "▁gaze",
        -10.203112595571056
      ],
      [
        "▁am",
        -6.683444699392388
      ],
      [
        "▁feature",
        -9.064491124353996
      ],
      [
        "ted",
        -8.133844411413879
      ],
      [
        "ston",
        -4.6869837569322375
      ],
      [
        "▁arab",
        -7.922878414017
      ],
      [
        "▁slice",
        -9.21371081141626
      ],
      [
        "sel",
        -8.826133072965293
      ],
      [
        "▁rul",
        -10.879382387373575
      ],
      [
        "▁birthday",
        -7.535942425790751
      ],
      [
        "-of-",
        -10.478127098251766
      ],
      [
        "▁as",
        -3.75801648861614
      ],
      [
        "▁toy",
        -8.023577309993033
      ],
      [
        "▁possession",
        -9.321868746742632
      ],
      [
        "▁character",
        -8.063330563774318
      ],
      [
        "▁answer",
        -7.712560922150142
      ],
      [
        "▁excuse",
        -9.658397666871666
      ],
      [
        "▁div",
        -10.458756556570256
      ],
      [
        "▁liv",
        -7.570239989097204
      ],
      [
        "▁poison",
        -10.16856380568569
      ],
      [
        "▁snitch",
        -9.027129822722571
      ],
      [
        "▁wound",
        -9.534243821755084
      ],
      [
        "▁load",
        -9.475426092019175
      ],
      [
        "▁promot",
        -9.449713659538773
      ],
      [
        "pri",
        -8.129701962065862
      ],
      [
        "charge",
        -10.14021590890191
      ],
      [
        "▁model",
        -7.888233923860714
      ],
      [
        "▁state",
        -8.068356973088136
      ],
      [
        "▁circulation",
        -10.478551477562982
      ],
      [
        "hu",
        -9.843845254913187
      ],
      [
        "▁greet",
        -9.4499122373485
      ],
      [
        "in",
        -12.605786362287859
      ],
      [
        "▁invitation",
        -9.321896463298913
      ],
      [
        "▁fed",
        -7.631178086646779
      ],
      [
        "▁priorit",
        -8.657516435318431
      ],
      [
        "▁queue",
        -10.478093549578846
      ],
      [
        "▁convey",
        -9.868975160758792
      ],
      [
        "▁hm",
        -10.342082230326207
      ],
      [
        "▁headline",
        -9.448079850305144
      ],
      [
        "▁deteriorate",
        -9.989574599898633
      ],
      [
        "stance",
        -8.677677773136766
      ],
      [
        "stand",
        -10.92226918492571
      ],
      [
        "bal",
        -6.877981207083328
      ],
      [
        "▁performance",
        -8.262591229124924
      ],
      [
        "ual",
        -7.836549378084901
      ],
      [
        "▁driver",
        -8.516979853551323
      ],
      [
        "▁restriction",
        -8.76643443619235
      ],
      [
        "▁method",
        -7.900562577200676
      ],
      [
        "mati",
        -8.045520387487992
      ],
      [
        "▁wh",
        -5.509002581214282
      ],
      [
        "c",
        -5.811834898890697
      ],
      [
        "▁18",
        -5.485808363114372
      ],
      [
        "▁border",
        -8.533574103399857
      ],
      [
        "▁distortion",
        -9.83245264931206
      ],
      [
        "▁bo",
        -9.568410116840111
      ],
      [
        "tial",
        -9.438606632471295
      ],
      [
        "▁dividend",
        -9.380695348748155
      ],
      [
        "▁maca",
        -9.381155799440126
      ],
      [
        "▁accomplish",
        -9.507557825225977
      ],
      [
        "▁bound",
        -9.29915380952337
      ],
      [
        "!!",
        -8.561639465647861
      ],
      [
        "▁lett",
        -10.041226606490174
      ],
      [
        "▁smith",
        -8.118485197165942
      ],
      [
        "▁urin",
        -10.170709112332405
      ],
      [
        "▁!",
        -6.894871134850908
      ],
      [
        "▁man",
        -4.986646391547884
      ],
      [
        "▁max",
        -7.877351992172711
      ],
      [
        "▁leg",
        -7.457808857624026
      ],
      [
        "▁pa",
        -10.189800772962528
      ],
      [
        "▁stopover",
        -8.033271213275372
      ],
      [
        "▁ove",
        -9.615140633420575
      ],
      [
        "▁whos",
        -8.171894668355208
      ],
      [
        "▁commander",
        -9.942831177318388
      ],
      [
        "▁seat",
        -10.18696325285451
      ],
      [
        "▁punishment",
        -10.043566938475793
      ],
      [
        "find",
        -10.48056306096662
      ],
      [
        "▁uni",
        -8.075029178804023
      ],
      [
        "▁chee",
        -9.654789632703462
      ],
      [
        "▁o",
        -12.326071694749015
      ],
      [
        "▁pr",
        -10.218333311133517
      ],
      [
        "ise",
        -8.75869414362368
      ],
      [
        "▁embarrass",
        -10.661128233817251
      ],
      [
        "ibl",
        -7.063379830970228
      ],
      [
        "se",
        -5.996840838387731
      ],
      [
        "bec",
        -10.574143790540935
      ],
      [
        "▁weed",
        -10.050799561790944
      ],
      [
        "▁tie",
        -7.915040447764559
      ],
      [
        "▁elevator",
        -8.834297444176524
      ],
      [
        "▁staircase",
        -10.168597615764945
      ],
      [
        "tove",
        -10.41867814580695
      ],
      [
        "▁…",
        -9.511839873390812
      ],
      [
        "shion",
        -9.388551227826458
      ],
      [
        "▁suspect",
        -8.610884333859165
      ],
      [
        "▁realiz",
        -9.581739309166915
      ],
      [
        "aging",
        -9.831299807117691
      ],
      [
        "▁minister",
        -9.070632069549411
      ],
      [
        "▁hard",
        -9.510160289820025
      ],
      [
        "▁sorr",
        -6.765052041130429
      ],
      [
        "run",
        -9.876580137399618
      ],
      [
        "▁out",
        -5.28307788551118
      ],
      [
        "▁part",
        -5.968521033017264
      ],
      [
        "▁jul",
        -6.995721538684821
      ],
      [
        "ger",
        -9.612068100403569
      ],
      [
        "▁desp",
        -10.033352711740962
      ],
      [
        "▁theor",
        -7.771401675521966
      ],
      [
        "te",
        -7.071888424677395
      ],
      [
        "▁operation",
        -8.343222112072963
      ],
      [
        "▁commissioner",
        -8.882450708279292
      ],
      [
        "▁...",
        -9.238424474979164
      ],
      [
        "▁passport",
        -9.50987336402059
      ],
      [
        "▁guest",
        -8.672630508808357
      ],
      [
        "▁st",
        -9.29977841898353
      ],
      [
        "▁skip",
        -9.439206609939403
      ],
      [
        "▁graduate",
        -9.505751881649923
      ],
      [
        "▁liquid",
        -9.829691835811431
      ],
      [
        "body",
        -9.41505140981299
      ],
      [
        "▁where",
        -10.478087686671172
      ],
      [
        "▁lit",
        -8.66688970464416
      ],
      [
        "▁producer",
        -9.071359405068998
      ],
      [
        "▁thir",
        -6.7330901287301295
      ],
      [
        "y",
        -5.527089822828086
      ],
      [
        "▁iron",
        -9.32187073929362
      ],
      [
        "▁remain",
        -7.157446223448043
      ],
      [
        "▁frog",
        -9.581672629396119
      ],
      [
        "▁fighter",
        -9.845061670076113
      ],
      [
        "▁chas",
        -9.420418471900824
      ],
      [
        "▁analys",
        -8.182585634385283
      ],
      [
        "▁bad",
        -7.974493665338207
      ],
      [
        "▁debate",
        -8.614659408874804
      ],
      [
        "▁preced",
        -10.375574931547945
      ],
      [
        "▁land",
        -7.374122411921427
      ],
      [
        "▁persuade",
        -9.869802920021936
      ],
      [
        "▁fax",
        -9.359211627337473
      ],
      [
        ":",
        -5.121007365794226
      ],
      [
        "nati",
        -8.134814157986906
      ],
      [
        "d",
        -7.331475850391489
      ],
      [
        "▁chess",
        -9.382422995320233
      ],
      [
        "....",
        -10.51957388297325
      ],
      [
        "▁pause",
        -9.903888257283462
      ],
      [
        "▁mark",
        -8.689154687632312
      ],
      [
        "ral",
        -8.016779290424799
      ],
      [
        "***",
        -10.264982179695927
      ],
      [
        "▁cu",
        -9.517856446478014
      ],
      [
        "▁barrier",
        -10.1688566442052
      ],
      [
        "▁squirrel",
        -9.509858669317888
      ],
      [
        "hi",
        -8.442534427418508
      ],
      [
        "▁scene",
        -8.45850080412274
      ],
      [
        "se",
        -5.848595306507166
      ],
      [
        "▁worship",
        -9.827199465501938
      ],
      [
        "▁feather",
        -9.117467879834418
      ],
      [
        "▁desert",
        -9.658216203667347
      ],
      [
        "▁rinse",
        -9.443591173236342
      ],
      [
        "▁made",
        -5.751019815800901
      ],
      [
        "▁parade",
        -10.315342448562175
      ],
      [
        "at",
        -6.784203456775905
      ],
      [
        "▁stand",
        -6.8487066663305365
      ],
      [
        "b",
        -6.825311492901869
      ],
      [
        "▁tackl",
        -9.87108400684445
      ],
      [
        ".",
        -7.2020258206513015
      ],
      [
        "ch",
        -6.898701418822459
      ],
      [
        "▁top",
        -7.4698426614965
      ],
      [
        "▁scar",
        -7.32148577914158
      ],
      [
        "is",
        -7.450562292556078
      ],
      [
        "▁expresse",
        -9.135886798223652
      ],
      [
        "▁motivate",
        -10.561331268320581
      ],
      [
        "▁dat",
        -10.699679337279848
      ],
      [
        "▁",
        -2.7487932397236445
      ],
      [
        "▁prof",
        -7.238375070861989
      ],
      [
        "▁synt",
        -10.168974351400214
      ],
      [
        "▁hour",
        -6.8155695614148835
      ],
      [
        "▁mo",
        -7.521077073156516
      ],
      [
        "▁update",
        -8.870628464351363
      ],
      [
        "faction",
        -9.711136214855632
      ],
      [
        "▁abolish",
        -10.011525039591325
      ],
      [
        "▁homosexual",
        -10.16856366973727
      ],
      [
        "▁successful",
        -7.701789314071135
      ],
      [
        "du",
        -9.905751175123552
      ],
      [
        "its",
        -9.144228443891327
      ],
      [
        "l",
        -3.0945094295258793
      ],
      [
        "▁t",
        -13.047003838856485
      ],
      [
        "▁antiquit",
        -10.478122441557241
      ],
      [
        "▁sent",
        -7.317329916154069
      ],
      [
        "▁gall",
        -9.808771246835265
      ],
      [
        "▁artwork",
        -9.116738628827703
      ],
      [
        "us",
        -7.413537036870659
      ],
      [
        "▁i",
        -5.301129070997394
      ],
      [
        "▁scramble",
        -10.446661496406358
      ],
      [
        "▁fisher",
        -10.184979742462676
      ],
      [
        "▁appearance",
        -8.806171162755644
      ],
      [
        "ll",
        -10.466913703496358
      ],
      [
        "▁click",
        -8.649000036370897
      ],
      [
        "▁turn",
        -6.08920135787137
      ],
      [
        "▁report",
        -7.651983678207971
      ],
      [
        "▁h",
        -8.916932938285054
      ],
      [
        "▁develop",
        -7.219263868034156
      ],
      [
        "t",
        -4.811399238543654
      ],
      [
        "▁glamo",
        -10.478378978892671
      ],
      [
        "▁memor",
        -8.188032630016254
      ],
      [
        "▁newspaper",
        -8.458544131527288
      ],
      [
        "fication",
        -9.840161230200213
      ],
      [
        "▁....",
        -10.744960055570605
      ],
      [
        "▁promis",
        -9.89100819523204
      ],
      [
        "▁merchant",
        -10.311722143102333
      ],
      [
        "▁public",
        -6.428328946192325
      ],
      [
        "▁stem",
        -9.93306088335769
      ],
      [
        "▁jet",
        -10.3223052354361
      ],
      [
        "▁pl",
        -8.598750982367946
      ],
      [
        "▁integr",
        -9.389237436494293
      ],
      [
        "▁rack",
        -10.317762365568012
      ],
      [
        "▁pinch",
        -10.008739371249327
      ],
      [
        "▁commerc",
        -9.950106102037573
      ],
      [
        "▁help",
        -5.928976135903622
      ],
      [
        "pl",
        -6.972522733030324
      ],
      [
        "▁list",
        -7.060985367089183
      ],
      [
        "▁situation",
        -7.667861610211743
      ],
      [
        "▁replie",
        -9.968508641162659
      ],
      [
        "▁d",
        -8.290619015603834
      ],
      [
        "ese",
        -10.064450891872804
      ],
      [
        "▁find",
        -5.481086058264582
      ],
      [
        "▁spra",
        -10.682693035518911
      ],
      [
        "▁assert",
        -9.36022841738293
      ],
      [
        "▁fade",
        -10.34258734089468
      ],
      [
        "ther",
        -6.293876075097796
      ],
      [
        "▁prim",
        -7.612979136234517
      ],
      [
        "▁museum",
        -8.945497853215379
      ],
      [
        "▁prob",
        -5.886808177766353
      ],
      [
        "▁experienc",
        -9.952192018245144
      ],
      [
        "▁http://",
        -7.9275469852385925
      ],
      [
        "▁john",
        -6.479427457483174
      ],
      [
        "▁toe",
        -8.863732356194285
      ],
      [
        "▁summar",
        -9.444373925956139
      ],
      [
        "▁fam",
        -7.918073105765663
      ],
      [
        "▁tort",
        -9.678391132228722
      ],
      [
        "ut",
        -9.297866942650675
      ],
      [
        "▁featur",
        -10.061648558782196
      ],
      [
        "▁ev",
        -8.183773973806336
      ],
      [
        "▁s",
        -9.316698377377922
      ],
      [
        "ly",
        -6.045208521205439
      ],
      [
        "down",
        -9.714361444318357
      ],
      [
        "▁rom",
        -10.469767175406636
      ],
      [
        "nt",
        -13.165341887489456
      ],
      [
        "▁susp",
        -10.346641782490627
      ],
      [
        "or",
        -10.502977190467442
      ],
      [
        "▁pepper",
        -8.94547645040062
      ],
      [
        "▁tile",
        -9.834733977771643
      ],
      [
        "▁assum",
        -9.165025065780606
      ],
      [
        "4",
        -10.459107734815227
      ],
      [
        "▁diplomat",
        -10.172144159024244
      ],
      [
        "▁post",
        -7.878502570412045
      ],
      [
        "▁quot",
        -9.740734059097017
      ],
      [
        "as",
        -7.194088110937
      ],
      [
        "ional",
        -6.668489374221227
      ],
      [
        "▁matter",
        -7.4524205370562955
      ],
      [
        "▁run",
        -7.094404592042268
      ],
      [
        "▁us",
        -5.741465347108659
      ],
      [
        "abilit",
        -8.39627629970846
      ],
      [
        "▁prefer",
        -8.702774858518639
      ],
      [
        "over",
        -8.292291013070475
      ],
      [
        "▁smash",
        -10.375470894077244
      ],
      [
        "ha",
        -13.163230928458336
      ],
      [
        "▁wh",
        -12.988879350244954
      ],
      [
        "per",
        -9.673279734835035
      ],
      [
        "▁mi",
        -10.16443484785626
      ],
      [
        "5",
        -3.9349924025881604
      ],
      [
        "▁print",
        -8.35564676076114
      ],
      [
        "▁bust",
        -10.18119452908353
      ],
      [
        "▁improvement",
        -8.834250511043917
      ],
      [
        "location",
        -10.284938462159632
      ],
      [
        "p",
        -12.707635305583393
      ],
      [
        "▁marry",
        -9.461707458073025
      ],
      [
        "▁snow",
        -10.181697362301412
      ],
      [
        "istan",
        -7.377928217319381
      ],
      [
        "▁understanding",
        -8.463015496286216
      ],
      [
        "▁relative",
        -9.658216231317102
      ],
      [
        "▁finding",
        -9.117059468458862
      ],
      [
        "▁interjection",
        -10.04367139393154
      ],
      [
        "▁photograph",
        -8.407724657426023
      ],
      [
        "▁mommy",
        -5.367563605588856
      ],
      [
        "▁waiter",
        -9.447881189897544
      ],
      [
        "▁explore",
        -8.748329199679617
      ],
      [
        "▁sex",
        -8.672957965481944
      ],
      [
        "▁special",
        -6.647498610834503
      ],
      [
        "▁accommodate",
        -9.775293270753739
      ],
      [
        "▁ye",
        -3.803495247716296
      ],
      [
        "▁tape",
        -9.659539614078282
      ],
      [
        "ers",
        -7.598871725226179
      ],
      [
        "own",
        -5.651585842620452
      ],
      [
        "wash",
        -10.439205520493884
      ],
      [
        "▁backpack",
        -10.168627866120422
      ],
      [
        "▁feature",
        -8.799785572496791
      ],
      [
        "▁pimple",
        -10.168906176149967
      ],
      [
        "▁watch",
        -9.023160525265709
      ],
      [
        "▁ke",
        -10.902740966049029
      ],
      [
        "'",
        -6.653744791431815
      ],
      [
        "▁weep",
        -10.6371667924686
      ],
      [
        "▁taxi",
        -9.170370675850776
      ],
      [
        "way",
        -8.529593107927441
      ],
      [
        "▁down",
        -5.192616129128126
      ],
      [
        "▁investigation",
        -9.443191824327275
      ],
      [
        "ight",
        -10.377579822855848
      ],
      [
        "polis",
        -6.347576075027921
      ],
      [
        "put",
        -9.176596761033803
      ],
      [
        "▁tho",
        -7.397496751881506
      ],
      [
        "soft",
        -8.13557542886307
      ],
      [
        "▁reinforc",
        -10.529267576564783
      ],
      [
        "▁stoo",
        -7.955751216508731
      ],
      [
        "ell",
        -7.337910525083231
      ],
      [
        "▁walk",
        -6.5150527174354025
      ],
      [
        "▁cry",
        -8.09243984520767
      ],
      [
        "rine",
        -10.110239055159578
      ],
      [
        "nia",
        -7.784660523221546
      ],
      [
        "▁opportunit",
        -7.860065178571203
      ],
      [
        "▁announce",
        -8.549351832378417
      ],
      [
        "rice",
        -8.905740230946392
      ],
      [
        "▁hideout",
        -10.31168966188705
      ],
      [
        "▁target",
        -8.734175735943603
      ],
      [
        "▁fai",
        -8.155063332370123
      ],
      [
        "+",
        -9.309412540987095
      ],
      [
        "▁priest",
        -9.932476201985402
      ],
      [
        "▁provide",
        -6.477830836230567
      ],
      [
        "▁monitor",
        -9.212469515995753
      ],
      [
        "▁compensate",
        -9.885234912673681
      ],
      [
        "▁introduction",
        -9.218955195471793
      ],
      [
        "nex",
        -7.029111693797481
      ],
      [
        "▁loom",
        -9.907731769756356
      ],
      [
        "▁decrease",
        -10.083583195963014
      ],
      [
        "▁tosse",
        -10.644474014296277
      ],
      [
        "▁crack",
        -9.443154426765508
      ],
      [
        "▁approve",
        -8.250127600697594
      ],
      [
        "▁cheat",
        -10.01034211626412
      ],
      [
        "▁compar",
        -9.282297036030217
      ],
      [
        "▁strike",
        -9.657676681140334
      ],
      [
        "▁obey",
        -10.625427026840482
      ],
      [
        "▁muc",
        -5.922368473306235
      ],
      [
        "▁digest",
        -10.625928985642805
      ],
      [
        "▁s",
        -12.22633396182398
      ],
      [
        "▁micro",
        -8.386340097733717
      ],
      [
        "▁200",
        -4.117685212654388
      ],
      [
        "▁basic",
        -7.651982902971502
      ],
      [
        "▁congratulation",
        -9.832454922592422
      ],
      [
        "▁india",
        -6.8284129241768845
      ],
      [
        "fare",
        -9.292714415760184
      ],
      [
        "▁damage",
        -10.01846366361378
      ],
      [
        "ffici",
        -8.176448879623912
      ],
      [
        "▁crashe",
        -10.491287712122011
      ],
      [
        "▁en",
        -7.426478329342391
      ],
      [
        "▁conten",
        -10.668644523220832
      ],
      [
        "▁b",
        -7.480039276401502
      ],
      [
        "▁dentist",
        -9.50987208430928
      ],
      [
        "petition",
        -10.447006002895986
      ],
      [
        "▁sett",
        -10.051318922042409
      ],
      [
        "ow",
        -10.636687985885782
      ],
      [
        "side",
        -7.369361114905498
      ],
      [
        "▁pyjama",
        -10.168627413474013
      ],
      [
        "▁sight",
        -9.232842993372625
      ],
      [
        "▁members",
        -7.860637932939478
      ],
      [
        "▁behavior",
        -8.411422188514766
      ],
      [
        "▁31",
        -6.916304381332293
      ],
      [
        "▁expect",
        -7.0976269359700765
      ],
      [
        "▁shop",
        -7.725417539475279
      ],
      [
        "▁remov",
        -10.48703154130754
      ],
      [
        "▁buil",
        -7.856162297499796
      ],
      [
        "▁circu",
        -10.309364159709224
      ],
      [
        "adelphi",
        -5.284187108245265
      ],
      [
        "o",
        -6.147997236814882
      ],
      [
        "hat",
        -3.789532303880037
      ],
      [
        "▁b",
        -7.312066243997636
      ],
      [
        "sept",
        -8.801078870632507
      ],
      [
        "▁thom",
        -7.741847624622862
      ],
      [
        "▁enthusias",
        -10.164739898187397
      ],
      [
        "▁beach",
        -7.958057162960993
      ],
      [
        "▁coast",
        -8.507926864588642
      ],
      [
        "▁defendant",
        -10.311421603023902
      ],
      [
        "▁david",
        -7.478392607824284
      ],
      [
        "t",
        -4.296542088812356
      ],
      [
        "▁bridge",
        -8.703019755475806
      ],
      [
        "anch",
        -10.38242850603623
      ],
      [
        "▁home",
        -6.7748805662606975
      ],
      [
        "▁hub",
        -10.311767299707947
      ],
      [
        "▁???",
        -12.71032683114281
      ],
      [
        "▁tear",
        -8.868698589927643
      ],
      [
        "▁visit",
        -7.170082819623273
      ],
      [
        "a",
        -1.8416649220847514
      ],
      [
        "▁outline",
        -10.496351123231214
      ],
      [
        "▁wil",
        -7.499379054981188
      ],
      [
        "▁taste",
        -9.029043658637281
      ],
      [
        "▁averag",
        -9.266441667938482
      ],
      [
        "▁amendment",
        -8.323470933089563
      ],
      [
        "!!!!!!!!!!!",
        -12.39056685540718
      ],
      [
        "▁mayor",
        -9.383055087013025
      ],
      [
        "▁manage",
        -8.370360364254418
      ],
      [
        "▁brain",
        -8.262250189917083
      ],
      [
        "▁generation",
        -8.325149579932855
      ],
      [
        "▁translate",
        -8.960122599722936
      ],
      [
        "▁breast",
        -9.163686956920605
      ],
      [
        "▁reccom",
        -10.730154842572276
      ],
      [
        "▁den",
        -5.046594407009632
      ],
      [
        "▁unit",
        -9.1792037657963
      ],
      [
        "▁approach",
        -9.78091818488728
      ],
      [
        "▁non",
        -7.694218461362328
      ],
      [
        "▁crap",
        -9.743348650773157
      ],
      [
        "▁drawing",
        -10.4907339143207
      ],
      [
        "noth",
        -9.805417396928092
      ],
      [
        "▁boast",
        -10.008850755536388
      ],
      [
        "▁out",
        -9.535547665933082
      ],
      [
        "▁story",
        -7.433748548895226
      ],
      [
        "▁#",
        -7.690728791508787
      ],
      [
        "▁transform",
        -8.774449849456001
      ],
      [
        "ast",
        -8.347550842574389
      ],
      [
        "▁correct",
        -9.744555531978136
      ],
      [
        "▁pack",
        -9.650815747369048
      ],
      [
        "▁college",
        -8.282215509969433
      ],
      [
        "▁confirmation",
        -10.482169820454443
      ],
      [
        "'",
        -5.782686409310488
      ],
      [
        "▁click",
        -10.311427442055361
      ],
      [
        "▁h",
        -9.29136992389374
      ],
      [
        "▁uniform",
        -9.443195676240153
      ],
      [
        "▁blackline",
        -10.625395653823658
      ],
      [
        "▁him",
        -5.173822855149899
      ],
      [
        "ad",
        -10.50561861375521
      ],
      [
        "▁sometime",
        -6.090063230110807
      ],
      [
        "▁no",
        -4.9331048382079015
      ],
      [
        "o",
        -7.324375830066715
      ],
      [
        "▁patron",
        -9.658555747168112
      ],
      [
        "▁dump",
        -10.311523922038784
      ],
      [
        "▁boat",
        -7.555637366928657
      ],
      [
        "▁limousine",
        -9.380691815971614
      ],
      [
        "▁example",
        -6.83471902142148
      ],
      [
        "▁some",
        -7.348423636734813
      ],
      [
        "▁d",
        -6.582039109497375
      ],
      [
        "▁cris",
        -8.705008318858031
      ],
      [
        "▁contractor",
        -10.182672357837623
      ],
      [
        "que",
        -7.66350698841917
      ],
      [
        "news",
        -8.123167760465929
      ],
      [
        "▁mathematic",
        -8.799693855189595
      ],
      [
        "until",
        -9.092093599441547
      ],
      [
        "▁utilit",
        -9.5137537530257
      ],
      [
        "▁rope",
        -9.581287985829148
      ],
      [
        "▁cyclone",
        -9.581294308624113
      ],
      [
        "▁ab",
        -8.805039313032388
      ],
      [
        "king",
        -9.183800658419123
      ],
      [
        "hur",
        -9.858188248896202
      ],
      [
        "▁!!",
        -8.596936672797924
      ],
      [
        "▁snap",
        -10.478402003196383
      ],
      [
        "▁african",
        -9.932452555284357
      ],
      [
        "▁protein",
        -10.168627448724333
      ],
      [
        "cultur",
        -7.255618199138741
      ],
      [
        "▁pursu",
        -10.419236846894616
      ],
      [
        "i",
        -6.571173088739063
      ],
      [
        "▁mass",
        -7.8773078730712704
      ],
      [
        "▁add",
        -6.652315770827376
      ],
      [
        "▁cop",
        -8.685397404351967
      ],
      [
        "▁tip",
        -8.907128063167825
      ],
      [
        "▁proposal",
        -8.017529911369257
      ],
      [
        "▁sh",
        -9.787824462077554
      ],
      [
        "▁universit",
        -6.830723950781341
      ],
      [
        "▁platform",
        -9.50985848261799
      ],
      [
        "▁bra",
        -10.329208443165776
      ],
      [
        "▁fact",
        -6.900568273749044
      ],
      [
        "▁out",
        -4.814863351036432
      ],
      [
        "▁fi",
        -8.130077589022932
      ],
      [
        "▁honey",
        -7.772873581494038
      ],
      [
        "▁doll",
        -8.318560293411347
      ],
      [
        "▁house",
        -6.31345871373716
      ],
      [
        "▁termin",
        -10.373965785831599
      ],
      [
        "▁rifle",
        -10.043565012981325
      ],
      [
        "ap",
        -10.2602759493768
      ],
      [
        "lause",
        -10.31071099659057
      ],
      [
        "ct",
        -8.657546139744671
      ],
      [
        "▁revise",
        -9.03800813273054
      ],
      [
        "▁ec",
        -9.687794266609535
      ],
      [
        "st",
        -8.625963840068753
      ],
      [
        "▁appoint",
        -9.696121212434646
      ],
      [
        "ve",
        -9.071097754752714
      ],
      [
        "ment",
        -6.729030923934576
      ],
      [
        "▁last",
        -5.387396407587891
      ],
      [
        "▁re",
        -6.479732183788573
      ],
      [
        "▁operative",
        -10.043651345182136
      ],
      [
        "turn",
        -10.050945289410716
      ],
      [
        "ly",
        -8.960168132771331
      ],
      [
        "▁protection",
        -8.185990437172702
      ],
      [
        "▁coupon",
        -9.581900057908916
      ],
      [
        "▁shore",
        -9.322812779018271
      ],
      [
        "▁li",
        -10.326589379874969
      ],
      [
        "▁giv",
        -7.768671001064653
      ],
      [
        "▁owner",
        -7.856454866916063
      ],
      [
        "▁select",
        -8.188532584885873
      ],
      [
        "tification",
        -10.094434560666098
      ],
      [
        "▁mumble",
        -10.815691446803775
      ],
      [
        "▁bowl",
        -10.643394458271768
      ],
      [
        "▁have",
        -4.097231545014155
      ],
      [
        "il",
        -10.821969912483556
      ],
      [
        "▁toys",
        -8.097578481819095
      ],
      [
        "▁nas",
        -7.995428706728628
      ],
      [
        "▁to",
        -4.677054644818611
      ],
      [
        "▁risk",
        -8.168106090388743
      ],
      [
        "▁o",
        -8.441425137702664
      ],
      [
        "▁polaroid",
        -9.65821038803568
      ],
      [
        "eld",
        -7.914850407949597
      ],
      [
        "▁cia",
        -8.198506413697595
      ],
      [
        "▁initial",
        -9.744629739606761
      ],
      [
        "▁grape",
        -9.027223731256957
      ],
      [
        "c",
        -7.9821038333714105
      ],
      [
        "▁lose",
        -8.279256091155556
      ],
      [
        "ta",
        -10.32616907009857
      ],
      [
        "somethin",
        -8.701948388671699
      ],
      [
        "▁spo",
        -9.650555169275563
      ],
      [
        "▁salt",
        -6.81085564483486
      ],
      [
        "▁derive",
        -9.633960475267493
      ],
      [
        "▁strengthen",
        -8.731130213921778
      ],
      [
        "▁zo",
        -10.477746378621976
      ],
      [
        "▁council",
        -8.411420583481057
      ],
      [
        "▁cease",
        -10.009110307138279
      ],
      [
        "▁struggle",
        -10.202497375495565
      ],
      [
        "cula",
        -6.981336390567085
      ],
      [
        "ill",
        -9.91318832139466
      ],
      [
        "▁herb",
        -10.311891627915845
      ],
      [
        "▁mem",
        -7.151990926484831
      ],
      [
        "▁tuck",
        -10.677733780124745
      ],
      [
        "▁hand",
        -8.679727894075862
      ],
      [
        "▁jurisdiction",
        -10.043563670953969
      ],
      [
        "e",
        -9.262538749109531
      ],
      [
        "▁observ",
        -9.886443747263856
      ],
      [
        "▁input",
        -10.170673108302491
      ],
      [
        "▁no",
        -9.69145438726456
      ],
      [
        "▁ticket",
        -7.535020697226221
      ],
      [
        "▁jack",
        -7.897609624453497
      ],
      [
        "▁'",
        -9.87189667263921
      ],
      [
        "ific",
        -9.767916210158067
      ],
      [
        "▁glass",
        -7.596778940768909
      ],
      [
        "▁condition",
        -10.625393748482953
      ],
      [
        "▁uh",
        -9.389550920122323
      ],
      [
        "▁r",
        -8.416822945073925
      ],
      [
        "engin",
        -10.707346606063489
      ],
      [
        "▁statu",
        -8.84338274551921
      ],
      [
        "▁postpone",
        -10.306181433786158
      ],
      [
        "▁sniff",
        -10.375393110486147
      ],
      [
        "▁position",
        -7.530605471570955
      ],
      [
        "▁sneak",
        -10.175420924835324
      ],
      [
        "▁dream",
        -8.880148528208505
      ],
      [
        "m",
        -6.820629931865918
      ],
      [
        "▁work",
        -5.663812961351836
      ],
      [
        "▁problem",
        -6.595085023015887
      ],
      [
        "▁",
        -3.6297539326565644
      ],
      [
        "▁ar",
        -7.66241252467595
      ],
      [
        "world",
        -7.306395301944551
      ],
      [
        "▁univers",
        -9.740899664339523
      ],
      [
        "▁focus",
        -8.049303936102298
      ],
      [
        "▁breakfast",
        -7.594144308081172
      ],
      [
        "▁air",
        -6.710709306119191
      ],
      [
        "▁doggie",
        -7.594463782567137
      ],
      [
        "▁til",
        -7.702134073707958
      ],
      [
        "▁cover",
        -8.391149747467773
      ],
      [
        "equ",
        -7.362634272841502
      ],
      [
        "▁exhibit",
        -8.76643739439555
      ],
      [
        "▁3",
        -4.562374329675668
      ],
      [
        "▁third",
        -9.58141294221691
      ],
      [
        "▁pile",
        -9.385885532474276
      ],
      [
        "▁dynamic",
        -10.478242762475983
      ],
      [
        "▁object",
        -10.375392290132776
      ],
      [
        "▁trot",
        -10.385990183597329
      ],
      [
        "▁euro",
        -8.586864866477008
      ],
      [
        "▁robert",
        -7.972510831942132
      ],
      [
        "▁bas",
        -8.497951332467176
      ],
      [
        "▁care",
        -8.009467513872664
      ],
      [
        "▁stung",
        -9.877622477097226
      ],
      [
        "▁seattle",
        -6.807459283346385
      ],
      [
        "▁mut",
        -10.403303306773568
      ],
      [
        "▁off",
        -9.035770746731274
      ],
      [
        "▁standing",
        -9.946149753824752
      ],
      [
        "▁yard",
        -8.95860979526217
      ],
      [
        "ary",
        -9.102371875629673
      ],
      [
        "▁c",
        -7.464378526851302
      ],
      [
        "▁ale",
        -10.346992826483437
      ],
      [
        "nd",
        -9.236601350363305
      ],
      [
        "▁your",
        -4.441892259932327
      ],
      [
        "10",
        -6.928772068030854
      ],
      [
        "stic",
        -7.534921122713111
      ],
      [
        "s",
        -3.6131603665375165
      ],
      [
        "▁the",
        -1.5036323933989628
      ],
      [
        "▁induce",
        -10.80572455868166
      ],
      [
        "pm",
        -6.038508339250546
      ],
      [
        "▁pump",
        -9.266324090165412
      ],
      [
        "▁shake",
        -7.592160894863445
      ],
      [
        "▁sacrifice",
        -10.043563696924217
      ],
      [
        "▁exclud",
        -10.546510139173403
      ],
      [
        "▁kar",
        -7.9218722512903685
      ],
      [
        "▁wh",
        -6.667104945947118
      ],
      [
        "▁sink",
        -9.117489400141833
      ],
      [
        "▁explod",
        -10.894747663481427
      ],
      [
        "▁ye",
        -7.575686894615632
      ],
      [
        "▁librar",
        -9.1636903443565
      ],
      [
        "▁inquir",
        -9.509867344820105
      ],
      [
        "▁tickl",
        -10.852215701959326
      ],
      [
        "▁ma",
        -6.872057889626475
      ],
      [
        "▁receiv",
        -8.281500766022912
      ],
      [
        "▁turk",
        -9.381865579376646
      ],
      [
        "▁prompt",
        -9.633647593099667
      ],
      [
        "▁can",
        -8.93640109452402
      ],
      [
        "fish",
        -10.141618837800078
      ],
      [
        "▁m",
        -8.808938386214283
      ],
      [
        "▁observe",
        -8.234673799315814
      ],
      [
        "an",
        -6.60307352696869
      ],
      [
        "▁tol",
        -6.346755550568246
      ],
      [
        "aima",
        -8.079505454571883
      ],
      [
        "▁bet",
        -9.957584459095639
      ],
      [
        "▁organization",
        -8.168134612909245
      ],
      [
        "▁bes",
        -7.768491441059008
      ],
      [
        "p",
        -6.326571753016402
      ],
      [
        "▁label",
        -10.355302092054442
      ],
      [
        "▁wishe",
        -10.189281587511434
      ],
      [
        "▁vine",
        -9.834151118667313
      ],
      [
        "▁vs",
        -8.84932320378803
      ],
      [
        "▁saving",
        -9.932492984651448
      ],
      [
        "▁im",
        -9.894906499032036
      ],
      [
        "ester",
        -7.571311612414739
      ],
      [
        "id",
        -7.622788689834058
      ],
      [
        "▁stor",
        -7.949060922000983
      ],
      [
        "3",
        -10.925660239071423
      ],
      [
        "m",
        -3.7542502650210796
      ],
      [
        "▁directive",
        -8.049027921285177
      ],
      [
        "00",
        -9.443160033069033
      ],
      [
        "▁midd",
        -8.306769047425984
      ],
      [
        "▁6",
        -4.915061083533737
      ],
      [
        "person",
        -10.450706989383312
      ],
      [
        "r",
        -6.977308910407107
      ],
      [
        "▁bee",
        -8.770994446920014
      ],
      [
        "▁scribble",
        -9.534255413808545
      ],
      [
        "▁round",
        -6.771939825028797
      ],
      [
        "▁throat",
        -9.163685615581546
      ],
      [
        "▁belt",
        -9.071581916342634
      ],
      [
        "▁circle",
        -8.186126248434904
      ],
      [
        "▁du",
        -9.829312931812902
      ],
      [
        "mate",
        -10.301173679197154
      ],
      [
        "ember",
        -8.225164263272159
      ],
      [
        "k",
        -6.427881069140615
      ],
      [
        "▁wiki",
        -9.38069209843947
      ],
      [
        "▁service",
        -6.238057699702934
      ],
      [
        "▁suggestion",
        -8.6726226247157
      ],
      [
        "▁2",
        -4.236268747166906
      ],
      [
        "le",
        -8.50795881827378
      ],
      [
        "▁mar",
        -10.893390436884685
      ],
      [
        "▁chase",
        -9.577074334807683
      ],
      [
        "z",
        -9.858192460925945
      ],
      [
        "▁corre",
        -8.345117940549926
      ],
      [
        "▁anthropolog",
        -10.31156318549893
      ],
      [
        "▁republic",
        -10.168563666483402
      ],
      [
        "▁bottom",
        -8.132407671470395
      ],
      [
        "o",
        -1.7235607545640583
      ],
      [
        "▁clear",
        -9.215699984641848
      ],
      [
        "ook",
        -6.641626205827474
      ],
      [
        "▁description",
        -8.869975454486548
      ],
      [
        "▁clause",
        -9.742005736135003
      ],
      [
        "ics",
        -9.228339716804667
      ],
      [
        "▁pursue",
        -9.515595600541936
      ],
      [
        "t",
        -5.84145757418605
      ],
      [
        "▁preach",
        -10.37663299543736
      ],
      [
        "ive",
        -5.025022787645253
      ],
      [
        "▁meat",
        -8.082256330728683
      ],
      [
        "▁tail",
        -8.243658856647176
      ],
      [
        "▁behaviour",
        -10.311420842422436
      ],
      [
        "▁perform",
        -7.9516644364622575
      ],
      [
        "▁sleep",
        -7.3867615725125875
      ],
      [
        "▁hundred",
        -5.955365271488084
      ],
      [
        "▁feel",
        -10.056595669203316
      ],
      [
        "▁banknote",
        -10.168586900889323
      ],
      [
        "q",
        -12.653795411026692
      ],
      [
        "▁sweep",
        -9.443273260985471
      ],
      [
        "▁grass",
        -8.898951847579433
      ],
      [
        "▁wo",
        -7.25034794109828
      ],
      [
        "l",
        -8.214727387657476
      ],
      [
        "forme",
        -7.78927263696615
      ],
      [
        "▁occurr",
        -8.562198231586656
      ],
      [
        "w",
        -6.1509534707865186
      ],
      [
        "pe",
        -10.887219134304972
      ],
      [
        "▁crush",
        -9.942898433164837
      ],
      [
        "▁set",
        -8.038734796666304
      ],
      [
        "▁estate",
        -9.932470812323071
      ],
      [
        "▁citizens",
        -8.082082154941343
      ],
      [
        "▁of",
        -5.372005060076645
      ],
      [
        "▁programm",
        -10.323624527051015
      ],
      [
        "▁instruct",
        -9.86922886338304
      ],
      [
        "paper",
        -10.44948743869556
      ],
      [
        "▁attribut",
        -9.360514952474078
      ],
      [
        "▁environment",
        -7.914499551540969
      ],
      [
        "bers",
        -9.995682861617386
      ],
      [
        "▁knee",
        -8.834272720424853
      ],
      [
        "▁arrest",
        -9.02482456647259
      ],
      [
        "oach",
        -10.17240974706069
      ],
      [
        "▁dial",
        -10.243113735931363
      ],
      [
        "▁electrici",
        -8.870619976574817
      ],
      [
        "-",
        -8.731955288757932
      ],
      [
        "▁finance",
        -8.801881982734644
      ],
      [
        "are",
        -6.0074420158852755
      ],
      [
        "▁choice",
        -8.065183089905545
      ],
      [
        "ium",
        -9.077931561478831
      ],
      [
        "store",
        -9.358133051782206
      ],
      [
        "▁diversi",
        -9.008337697717035
      ],
      [
        "▁‘",
        -9.549274777276093
      ],
      [
        "heat",
        -10.909330257659867
      ],
      [
        "▁j",
        -10.299932557909178
      ],
      [
        "▁wednesday",
        -7.591862185534497
      ],
      [
        "▁apples",
        -10.355193973735659
      ],
      [
        "▁commi",
        -10.663312500887011
      ],
      [
        "▁open",
        -6.446986532387996
      ],
      [
        "▁!!!!!!!!!!",
        -11.835042718013742
      ],
      [
        "▁us",
        -6.5218719918286725
      ],
      [
        "▁bid",
        -10.274640935456999
      ],
      [
        "▁leave",
        -5.929274021604734
      ],
      [
        "▁dump",
        -9.74390541880001
      ],
      [
        "▁ii",
        -6.7287787636930885
      ],
      [
        "▁w",
        -10.624596390097121
      ],
      [
        "comfort",
        -10.28341658038285
      ],
      [
        "pa",
        -7.916017963695065
      ],
      [
        "▁clear",
        -7.455924141981425
      ],
      [
        "▁clarify",
        -9.869289628014036
      ],
      [
        "mine",
        -10.279761504850597
      ],
      [
        "▁spirit",
        -8.83432866325812
      ],
      [
        "▁alert",
        -10.311446863000706
      ],
      [
        "▁improv",
        -8.76572397638179
      ],
      [
        "▁budd",
        -9.83479341263727
      ],
      [
        "▁quin",
        -6.692486266509986
      ],
      [
        "▁persistenc",
        -10.478288358326687
      ],
      [
        "_",
        -5.201045034743488
      ],
      [
        "▁principle",
        -8.672622583377052
      ],
      [
        "▁+++++",
        -12.167530999473765
      ],
      [
        "▁",
        -1.879078986922659
      ],
      [
        "own",
        -10.007235938739907
      ],
      [
        "what",
        -7.801290938444225
      ],
      [
        "yard",
        -9.719979891817832
      ],
      [
        "▁fair",
        -7.1859296782387645
      ],
      [
        "▁ban",
        -10.305601835799806
      ],
      [
        "▁guerrilla",
        -9.658210155236866
      ],
      [
        "▁blend",
        -9.745200252277224
      ],
      [
        "▁chair",
        -7.344083995458193
      ],
      [
        "opho",
        -10.490192829297412
      ],
      [
        "▁temperature",
        -8.559840822622517
      ],
      [
        "ade",
        -10.292959900391407
      ],
      [
        "▁operator",
        -8.643540310718194
      ],
      [
        "to",
        -7.748293833786885
      ],
      [
        "▁len",
        -10.105358356832003
      ],
      [
        "▁listing",
        -9.529002587312338
      ],
      [
        "▁mind",
        -7.344556639691027
      ],
      [
        "▁fe",
        -9.262496345229783
      ],
      [
        "▁sample",
        -8.512179984263629
      ],
      [
        "▁sin",
        -10.417361666764064
      ],
      [
        "oul",
        -4.862598188843797
      ],
      [
        "▁fear",
        -9.030068234004945
      ],
      [
        "eries",
        -8.900382303201845
      ],
      [
        "▁exist",
        -7.503767107828424
      ],
      [
        "change",
        -10.712926284232378
      ],
      [
        "▁aim",
        -8.734736249555842
      ],
      [
        "oration",
        -10.352117164425074
      ],
      [
        "s",
        -3.3173752150766376
      ],
      [
        "▁pl",
        -3.2601159934010724
      ],
      [
        "▁pony",
        -9.741939387605328
      ],
      [
        "▁node",
        -10.31191411472076
      ],
      [
        "▁berr",
        -10.322727454664939
      ],
      [
        "▁sausage",
        -10.478146019963807
      ],
      [
        "▁blow",
        -7.619058735936671
      ],
      [
        "▁urge",
        -9.411700244063756
      ],
      [
        "tin",
        -10.464835956058659
      ],
      [
        "▁obligation",
        -9.658210133607785
      ],
      [
        "▁warrant",
        -10.375402075859522
      ],
      [
        "ext",
        -5.948412029126283
      ],
      [
        "▁oliv",
        -8.129470840178248
      ],
      [
        "ffici",
        -7.440923749614953
      ],
      [
        "▁yield",
        -10.043563676317065
      ],
      [
        "▁tri",
        -8.25020254601136
      ],
      [
        "ver",
        -9.663487915502344
      ],
      [
        "▁swu",
        -9.65185353571191
      ],
      [
        "ary",
        -6.703871217344126
      ],
      [
        "oursel",
        -8.941083358478036
      ],
      [
        "▁tent",
        -8.887625664467452
      ],
      [
        "▁explor",
        -10.52139996216673
      ],
      [
        "▁ride",
        -7.57088732838403
      ],
      [
        "▁cord",
        -9.743720257441481
      ],
      [
        "▁knight",
        -9.582165258195426
      ],
      [
        "▁airport",
        -7.544673409980229
      ],
      [
        "try",
        -10.80661403702378
      ],
      [
        "▁owl",
        -9.11945768531276
      ],
      [
        "▁therap",
        -9.92280910702701
      ],
      [
        "▁descend",
        -9.869185119250728
      ],
      [
        "▁intellig",
        -8.458881701729867
      ],
      [
        "▁rec",
        -7.0072767537993075
      ],
      [
        "▁engineer",
        -9.074445447439107
      ],
      [
        "▁gift",
        -8.834250175797372
      ],
      [
        "▁trade",
        -8.260253851077355
      ],
      [
        "▁topic",
        -8.908781578987215
      ],
      [
        "europ",
        -6.79352500653621
      ],
      [
        "ertain",
        -6.8715652381419625
      ],
      [
        "▁negotiate",
        -9.602901677874033
      ],
      [
        "▁tie",
        -8.758690664380818
      ],
      [
        "▁highlight",
        -8.969748489235473
      ],
      [
        "ordina",
        -7.8714163243139526
      ],
      [
        "▁cur",
        -7.133100595910538
      ],
      [
        "---------",
        -11.379442948397054
      ],
      [
        "b",
        -3.4366148757197568
      ],
      [
        "amb",
        -8.817893283207422
      ],
      [
        "▁counterfeit",
        -9.070607771943902
      ],
      [
        "▁cr",
        -9.76196743982182
      ],
      [
        "▁21",
        -6.2793869892644345
      ],
      [
        "▁camp",
        -8.344948655146622
      ],
      [
        "sula",
        -8.162791166802986
      ],
      [
        "▁own",
        -8.023250615119258
      ],
      [
        "▁su",
        -10.788157649018785
      ],
      [
        "▁after",
        -8.274842356591455
      ],
      [
        "▁deep",
        -8.049552933843788
      ],
      [
        "dron",
        -10.172006672499288
      ],
      [
        "▁bigge",
        -7.0789892227515505
      ],
      [
        "▁books",
        -8.136321539696524
      ],
      [
        "▁penn",
        -8.084053756858605
      ],
      [
        "init",
        -10.056374199785903
      ],
      [
        "▁drift",
        -10.175880782414616
      ],
      [
        "▁specifie",
        -9.53421340027119
      ],
      [
        "▁dealer",
        -9.459830578055305
      ],
      [
        "▁mill",
        -5.806332795739784
      ],
      [
        "▁constitute",
        -9.63411634790388
      ],
      [
        "▁f",
        -8.485186623721773
      ],
      [
        "▁cook",
        -7.633903245864477
      ],
      [
        "take",
        -8.759793077145687
      ],
      [
        "▁wound",
        -10.478227899596705
      ],
      [
        "▁success",
        -8.22835123492166
      ],
      [
        "ibilit",
        -9.03711928105411
      ],
      [
        "▁mutter",
        -10.008877801789922
      ],
      [
        "▁lesson",
        -8.586864124707883
      ],
      [
        "▁thr",
        -4.171737371864407
      ],
      [
        "▁bonus",
        -10.311509067043472
      ],
      [
        "lik",
        -7.407883937870426
      ],
      [
        "ine",
        -10.3351711260119
      ],
      [
        "▁st",
        -10.08760846111259
      ],
      [
        "▁resolution",
        -9.2663408302195
      ],
      [
        "icles",
        -7.766041540205085
      ],
      [
        "▁mos",
        -6.7054045308103385
      ],
      [
        "-",
        -5.0561714688933765
      ],
      [
        "read",
        -9.55155215439153
      ],
      [
        "▁account",
        -9.360499241317074
      ],
      [
        "▁director",
        -8.458488808974812
      ],
      [
        "ere",
        -7.974650756801024
      ],
      [
        "▁all",
        -7.233537423515028
      ],
      [
        "▁march",
        -7.22955551246396
      ],
      [
        "▁pets",
        -9.883283541296876
      ],
      [
        "▁thu",
        -7.14223778953757
      ],
      [
        "▁pledge",
        -9.534200459731345
      ],
      [
        "▁joy",
        -10.327234075088032
      ],
      [
        "tual",
        -7.506818670346741
      ],
      [
        "b",
        -6.50935754024111
      ],
      [
        "----------------",
        -8.720621540620424
      ],
      [
        "▁cin",
        -7.291606847389111
      ],
      [
        "▁aspiration",
        -10.479164993793628
      ],
      [
        "▁unt",
        -9.905702178190086
      ],
      [
        "▁role",
        -7.713394119115296
      ],
      [
        "eating",
        -10.336625306021693
      ],
      [
        "▁gen",
        -8.45962649845638
      ],
      [
        "til",
        -7.784555654766264
      ],
      [
        "▁native",
        -10.311433133334338
      ],
      [
        "▁simple",
        -7.298001257945252
      ],
      [
        "▁purpose",
        -8.04903133060634
      ],
      [
        "▁g",
        -7.240861415586581
      ],
      [
        "▁monk",
        -9.446746762332182
      ],
      [
        "a",
        -10.360278406305975
      ],
      [
        "▁conflict",
        -8.61463942019266
      ],
      [
        "▁draft",
        -9.083459478640432
      ],
      [
        "▁trailer",
        -10.178357649269438
      ],
      [
        "ic",
        -8.186328991949019
      ],
      [
        "▁interview",
        -8.977517289680325
      ],
      [
        "▁founder",
        -9.386964350643419
      ],
      [
        "▁emission",
        -9.381160923225368
      ],
      [
        "call",
        -9.530055495173215
      ],
      [
        "▁originat",
        -10.206301387202275
      ],
      [
        "▁identifie",
        -8.504044139166487
      ],
      [
        "▁competenc",
        -10.337952018720726
      ],
      [
        "▁commodit",
        -10.168563671599841
      ],
      [
        "▁dignitar",
        -10.481343213429334
      ],
      [
        "▁attach",
        -8.472043201166423
      ],
      [
        "▁oops",
        -10.478096675441094
      ],
      [
        "▁picke",
        -10.144533946741205
      ],
      [
        "▁origin",
        -8.909753205708526
      ],
      [
        "▁const",
        -8.640904082376327
      ],
      [
        "▁garage",
        -8.734317227669653
      ],
      [
        "▁mi",
        -10.584066668701825
      ],
      [
        "shield",
        -10.478093015078253
      ],
      [
        "▁fun",
        -7.0666474588122075
      ],
      [
        "thing",
        -9.637428031156196
      ],
      [
        "alla",
        -7.860537973381337
      ],
      [
        "▁pro",
        -9.10414228362317
      ],
      [
        "vel",
        -8.240154716813048
      ],
      [
        "ition",
        -9.17139553766637
      ],
      [
        "a",
        -4.730462131174871
      ],
      [
        "▁pour",
        -8.070754748925946
      ],
      [
        "rive",
        -10.587608048365377
      ],
      [
        "an",
        -6.1992261327886515
      ],
      [
        "▁salar",
        -9.837365743787533
      ],
      [
        "▁experiment",
        -9.744843305436728
      ],
      [
        "▁underl",
        -10.362021746953104
      ],
      [
        "▁proof",
        -9.58128873305953
      ],
      [
        "▁revolve",
        -10.375847210616396
      ],
      [
        "▁collection",
        -8.643219116841273
      ],
      [
        "▁endanger",
        -10.375392729089924
      ],
      [
        "▁sunday",
        -7.386638818532818
      ],
      [
        "▁time",
        -4.98158519087726
      ],
      [
        "▁d",
        -8.66826635577538
      ],
      [
        "▁rubb",
        -8.643654335528929
      ],
      [
        "tractor",
        -8.871779242279892
      ],
      [
        "itate",
        -10.843843859827969
      ],
      [
        "arl",
        -8.199382488274523
      ],
      [
        "▁pit",
        -10.442092845652102
      ],
      [
        "▁experience",
        -7.033909671510695
      ],
      [
        "▁store",
        -7.040243950574474
      ],
      [
        "▁notification",
        -10.168795309023384
      ],
      [
        "assembl",
        -10.043718005911346
      ],
      [
        "▁bullet",
        -10.1702710180191
      ],
      [
        "▁proceed",
        -8.64930711641317
      ],
      [
        "▁pudd",
        -9.93357335644222
      ],
      [
        "▁freezer",
        -9.833765585463693
      ],
      [
        "▁coal",
        -9.611870560384462
      ],
      [
        "▁jack",
        -10.311088618001431
      ],
      [
        "▁reache",
        -8.944570140040254
      ],
      [
        "▁dut",
        -8.817642122882724
      ],
      [
        "▁direction",
        -8.366832591063574
      ],
      [
        "g",
        -4.631809892328854
      ],
      [
        "▁chip",
        -9.266984302386167
      ],
      [
        "▁interest",
        -7.265897409932136
      ],
      [
        "▁version",
        -8.186765236228165
      ],
      [
        "deni",
        -9.224125945123495
      ],
      [
        "▁investigat",
        -10.691416312660579
      ],
      [
        "▁programme",
        -7.912663589678015
      ],
      [
        "▁lock",
        -9.765341553300896
      ],
      [
        "▁coordinat",
        -9.212918356216173
      ],
      [
        "▁drive",
        -7.535443308692442
      ],
      [
        "▁jan",
        -10.046087971980814
      ],
      [
        "mean",
        -10.691352949278098
      ],
      [
        "▁buckl",
        -10.635303392634972
      ],
      [
        "▁exchange",
        -9.252106009712
      ],
      [
        "▁hammer",
        -9.933082413309586
      ],
      [
        "▁inventory",
        -10.313991778002686
      ],
      [
        "▁hands",
        -7.7500382464661675
      ],
      [
        "a",
        -1.784802076090795
      ],
      [
        "▁stri",
        -10.475735365547074
      ],
      [
        "▁funeral",
        -9.321873583252497
      ],
      [
        "▁steal",
        -9.2840917300488
      ],
      [
        "▁flap",
        -10.31206837058798
      ],
      [
        "▁bec",
        -7.4976419712532465
      ],
      [
        "pot",
        -10.343140227676688
      ],
      [
        "▁outlet",
        -10.16871189362317
      ],
      [
        "▁reservation",
        -9.380691881440361
      ],
      [
        "▁rumor",
        -10.479611079678604
      ],
      [
        "▁symbol",
        -9.581289466493569
      ],
      [
        "ial",
        -6.617192983272803
      ],
      [
        "k",
        -8.700316144731588
      ],
      [
        "▁record",
        -7.5373828275716885
      ],
      [
        "▁slippe",
        -9.155563785450259
      ],
      [
        "nt",
        -10.143321197620283
      ],
      [
        "▁pivot",
        -8.167808600547232
      ],
      [
        "▁silver",
        -9.027189603217428
      ],
      [
        "eather",
        -8.412069302730421
      ],
      [
        "▁intend",
        -7.878414666613798
      ],
      [
        "a",
        -4.130361687978228
      ],
      [
        "▁generat",
        -10.55862731145518
      ],
      [
        "▁e-mail",
        -8.482882792098492
      ],
      [
        "▁hammer",
        -10.375401357459415
      ],
      [
        "eaten",
        -9.340308157443427
      ],
      [
        "h",
        -3.2947688514797324
      ],
      [
        "▁provocation",
        -10.478120540974157
      ],
      [
        "u",
        -6.499139571092141
      ],
      [
        "▁yo",
        -9.274236374866302
      ],
      [
        "▁flow",
        -8.690843722762539
      ],
      [
        "oose",
        -10.347214178633786
      ],
      [
        "▁foster",
        -10.175418455188806
      ],
      [
        "▁accelerate",
        -10.308016156640916
      ],
      [
        "caution",
        -10.313106949365295
      ],
      [
        "altho",
        -9.048040516230202
      ],
      [
        "▁rainbow",
        -9.932452579725524
      ],
      [
        "▁process",
        -9.845681825194033
      ],
      [
        "▁yawn",
        -10.008741128442212
      ],
      [
        "▁scar",
        -9.34619103414721
      ],
      [
        "▁taco",
        -7.4260660724687195
      ],
      [
        "claim",
        -10.101394393127405
      ],
      [
        "&",
        -6.519024570430863
      ],
      [
        "ail",
        -9.681458968930224
      ],
      [
        "▁soar",
        -10.39143403518087
      ],
      [
        "▁minorit",
        -9.932514823470457
      ],
      [
        "▁conquer",
        -9.869148430134826
      ],
      [
        "▁real",
        -4.874120198670135
      ],
      [
        "▁consequence",
        -8.869964057305099
      ],
      [
        "▁vanish",
        -9.533969319222997
      ],
      [
        "▁crow",
        -10.402121727108106
      ],
      [
        "▁grocery",
        -10.069814988109352
      ],
      [
        "’",
        -11.119861525668208
      ],
      [
        "ending",
        -9.57066006253973
      ],
      [
        "bino",
        -10.45468898571599
      ],
      [
        "▁baby",
        -6.445483449382509
      ],
      [
        "▁taste",
        -8.03348461793793
      ],
      [
        "▁for",
        -9.860075519042377
      ],
      [
        "▁leav",
        -5.943353927407217
      ],
      [
        "▁hold",
        -6.661459958134625
      ],
      [
        "▁trial",
        -8.70364064888658
      ],
      [
        "▁mouth",
        -7.657204202022357
      ],
      [
        "▁writer",
        -7.944769759394796
      ],
      [
        "▁code",
        -7.637570150662025
      ],
      [
        "▁residence",
        -10.170499786711087
      ],
      [
        "▁access",
        -7.509574272321984
      ],
      [
        "der",
        -8.717765614167256
      ],
      [
        "▁another",
        -5.70473121673835
      ],
      [
        "▁well",
        -9.849151427434666
      ],
      [
        "▁stor",
        -10.15565120335638
      ],
      [
        "▁holder",
        -9.758475780076713
      ],
      [
        "▁procedure",
        -8.43467800269547
      ],
      [
        "▁forbidd",
        -10.224083047320606
      ],
      [
        "▁tha",
        -2.389866280899322
      ],
      [
        "▁bu",
        -9.821847385756055
      ],
      [
        "▁recommend",
        -6.895939823875512
      ],
      [
        "▁schedule",
        -8.18328247692495
      ],
      [
        "about",
        -5.6244658561614616
      ],
      [
        "▁pakistan",
        -7.46688233963457
      ],
      [
        "internet",
        -7.721423258524315
      ],
      [
        "▁phy",
        -7.952574954026047
      ],
      [
        "▁aim",
        -9.660078164800662
      ],
      [
        "--",
        -6.649124866636526
      ],
      [
        "▁south",
        -7.944482221653959
      ],
      [
        "▁compel",
        -10.341109751648144
      ],
      [
        "▁impose",
        -9.63111653884987
      ],
      [
        "onto",
        -6.635313634482097
      ],
      [
        "▁ira",
        -7.262090301229988
      ],
      [
        "na",
        -7.799181810914705
      ],
      [
        "▁’",
        -10.359454805938448
      ],
      [
        "▁period",
        -7.3598976187178256
      ],
      [
        "thank",
        -10.659463463452388
      ],
      [
        "▁197",
        -6.181383886766783
      ],
      [
        "▁beg",
        -7.530272615901482
      ],
      [
        "▁lea",
        -9.958561884498923
      ],
      [
        "▁execut",
        -10.411975526183868
      ],
      [
        "▁asses",
        -9.525361205821511
      ],
      [
        "▁suggest",
        -7.269309469923409
      ],
      [
        "▁dangl",
        -10.375856842531736
      ],
      [
        "▁cru",
        -10.122904083749237
      ],
      [
        "me",
        -7.279545566726051
      ],
      [
        "▁challeng",
        -9.973556122960314
      ],
      [
        "▁anticipat",
        -10.591663673672695
      ],
      [
        "▁excell",
        -6.7968984467651445
      ],
      [
        "time",
        -8.566251643589336
      ],
      [
        "▁assist",
        -10.450664657426616
      ],
      [
        "▁hurr",
        -10.433377459980463
      ],
      [
        "▁component",
        -8.559834586312872
      ],
      [
        "alti",
        -7.54648076457047
      ],
      [
        "merica",
        -7.458663328224141
      ],
      [
        "▁broaden",
        -10.625417970608337
      ],
      [
        "▁interest",
        -6.456813994136939
      ],
      [
        "▁t",
        -9.633413585186847
      ],
      [
        "▁tea",
        -7.953361561601022
      ],
      [
        "▁warning",
        -9.322523548590858
      ],
      [
        "▁chemical",
        -9.658211123781356
      ],
      [
        "▁end",
        -7.739997475527317
      ],
      [
        "fence",
        -10.31458734218327
      ],
      [
        ",000",
        -5.495299463876596
      ],
      [
        "▁lid",
        -10.156945349963571
      ],
      [
        "alize",
        -10.492262414875944
      ],
      [
        "▁hum",
        -9.81671879836719
      ],
      [
        "in",
        -8.465254429914015
      ],
      [
        "nder",
        -9.45804582563213
      ],
      [
        "s",
        -7.035194481589116
      ],
      [
        "▁break",
        -7.4288678891284174
      ],
      [
        "▁di",
        -9.1843664171328
      ],
      [
        "▁rear",
        -10.482315916227149
      ],
      [
        "---------------",
        -9.361054628922304
      ],
      [
        "---",
        -10.542734627330935
      ],
      [
        "▁fever",
        -9.509955395527228
      ],
      [
        "▁dogg",
        -10.338994755612584
      ],
      [
        "▁my",
        -4.589203075656636
      ],
      [
        "▁plaintiff",
        -9.741543857464931
      ],
      [
        "here",
        -5.7267247990743835
      ],
      [
        "▁ya",
        -10.057489520944594
      ],
      [
        "▁spit",
        -10.4085289097874
      ],
      [
        "▁palm",
        -9.742660551806228
      ],
      [
        "▁employ",
        -8.875024277893623
      ],
      [
        "▁verse",
        -9.835411733780456
      ],
      [
        "▁scream",
        -9.212301766933104
      ],
      [
        "ors",
        -9.109704729086172
      ],
      [
        "r",
        -4.3481861650490226
      ],
      [
        "-",
        -12.303800120175861
      ],
      [
        "▁nation",
        -7.571347819551489
      ],
      [
        "da",
        -7.686164380092579
      ],
      [
        "▁launche",
        -9.575119852612355
      ],
      [
        "?????",
        -11.017867342887753
      ],
      [
        "▁congress",
        -9.932486090523886
      ],
      [
        "▁declar",
        -9.701407189995155
      ],
      [
        "▁cool",
        -10.015080797584833
      ],
      [
        "▁superior",
        -10.311448624984678
      ],
      [
        "▁scheme",
        -9.5812903902401
      ],
      [
        "▁ho",
        -7.724711078792276
      ],
      [
        "▁rub",
        -10.181023131672797
      ],
      [
        "▁finishe",
        -8.079018015374686
      ],
      [
        "▁type",
        -6.940202585849559
      ],
      [
        "▁stimulat",
        -10.175392293971926
      ],
      [
        "▁green",
        -6.684628782587111
      ],
      [
        "▁punish",
        -10.625748692029184
      ],
      [
        "▁din",
        -9.21899449290369
      ],
      [
        "▁stretch",
        -9.741543471276824
      ],
      [
        "▁delic",
        -7.956604256464347
      ],
      [
        "▁analyze",
        -9.71548030644654
      ],
      [
        "▁old",
        -5.586906487994287
      ],
      [
        "among",
        -10.114427603570839
      ],
      [
        "▁tow",
        -8.942235356026941
      ],
      [
        "▁wai",
        -10.291549407806876
      ],
      [
        "▁sick",
        -10.31997887223781
      ],
      [
        "▁1000",
        -7.038940544104604
      ],
      [
        "id",
        -8.378966879212324
      ],
      [
        "▁impress",
        -9.443579547563832
      ],
      [
        "ators",
        -10.353256070229074
      ],
      [
        "ok",
        -10.584435203234191
      ],
      [
        "▁`",
        -11.296918948688283
      ],
      [
        "her",
        -5.970249124020138
      ],
      [
        "▁account",
        -7.593840737181569
      ],
      [
        "ch",
        -5.743182008517046
      ],
      [
        "▁detr",
        -7.449546577722738
      ],
      [
        "▁kne",
        -7.241416540283397
      ],
      [
        "ning",
        -9.68794285942663
      ],
      [
        "▁sword",
        -9.833275008635052
      ],
      [
        "▁fift",
        -6.809914963440578
      ],
      [
        "▁declare",
        -8.58821911898314
      ],
      [
        "▁waterway",
        -10.491778218894114
      ],
      [
        "▁health",
        -7.614657718788886
      ],
      [
        "▁mixture",
        -9.510120288823135
      ],
      [
        "▁plunge",
        -10.175665430191692
      ],
      [
        "every",
        -9.010438236282951
      ],
      [
        "▁arena",
        -10.31142155077861
      ],
      [
        "▁course",
        -7.165218298829887
      ],
      [
        "▁wake",
        -9.582720807250949
      ],
      [
        "ound",
        -5.61124075279864
      ],
      [
        "▁embedd",
        -9.869434000832122
      ],
      [
        "▁manipulat",
        -10.052665959694068
      ],
      [
        "▁smile",
        -9.168788834185621
      ],
      [
        "▁legislat",
        -8.766182293688122
      ],
      [
        "▁south",
        -7.86529325217453
      ],
      [
        "▁stem",
        -10.369968144482982
      ],
      [
        "▁sector",
        -8.323551490256243
      ],
      [
        "▁crash",
        -9.65948020652196
      ],
      [
        "▁assure",
        -9.165045670762654
      ],
      [
        "▁danc",
        -8.619351382735312
      ],
      [
        "▁earlie",
        -7.181797654149654
      ],
      [
        "cour",
        -7.539159453764968
      ],
      [
        "▁econom",
        -7.3357032250224945
      ],
      [
        "▁approv",
        -10.279543014695616
      ],
      [
        "▁guard",
        -10.186341535648904
      ],
      [
        "▁machine",
        -8.186219397048104
      ],
      [
        "▁guitar",
        -10.043565142828353
      ],
      [
        "um",
        -6.370038527405928
      ],
      [
        "▁picture",
        -6.878422063643678
      ],
      [
        "▁rot",
        -10.005690328548058
      ],
      [
        "▁tasting",
        -10.311586175875668
      ],
      [
        "▁affirm",
        -10.182980801777422
      ],
      [
        "▁compete",
        -9.235698832012206
      ],
      [
        "▁destin",
        -9.7388020517743
      ],
      [
        "▁research",
        -7.619206821777212
      ],
      [
        "▁believe",
        -6.538158286587613
      ],
      [
        "▁stack",
        -10.176310596403352
      ],
      [
        "▁anemone",
        -10.311420827475965
      ],
      [
        "▁+",
        -12.23201784544942
      ],
      [
        "▁audit",
        -9.322983750155059
      ],
      [
        "▁government",
        -6.868570384077447
      ],
      [
        "▁talk",
        -8.24180906705117
      ],
      [
        "▁rug",
        -8.870858554524848
      ],
      [
        "▁intercept",
        -10.172582784340584
      ],
      [
        "▁n",
        -6.745757626619826
      ],
      [
        "sing",
        -8.692224253441063
      ],
      [
        "▁top",
        -7.372570311295064
      ],
      [
        "u",
        -5.646689165622992
      ],
      [
        "ble",
        -10.530511159994715
      ],
      [
        "▁gre",
        -8.641113811258577
      ],
      [
        "▁plant",
        -7.801000771904263
      ],
      [
        "▁bright",
        -7.867244155587601
      ],
      [
        "▁us",
        -7.3584463314768165
      ],
      [
        "▁educate",
        -9.40439175810054
      ],
      [
        "▁dart",
        -10.392097974342066
      ],
      [
        "just",
        -8.055736815112477
      ],
      [
        "▁context",
        -8.45855282937924
      ],
      [
        "▁imagine",
        -7.707056211457395
      ],
      [
        "▁se",
        -9.37096328228758
      ],
      [
        "▁to",
        -4.877779908052065
      ],
      [
        "spos",
        -9.538910020897028
      ],
      [
        "connect",
        -9.581234694616457
      ],
      [
        "▁'",
        -6.325233522029243
      ],
      [
        "▁veteran",
        -10.168568361084239
      ],
      [
        "▁burst",
        -9.360641045467792
      ],
      [
        "▁finance",
        -9.868510323052286
      ],
      [
        "▁calculat",
        -10.529070410010048
      ],
      [
        "▁revers",
        -10.026458657488881
      ],
      [
        "▁c",
        -7.115854882496243
      ],
      [
        "▁medi",
        -9.759319758737579
      ],
      [
        "▁green",
        -9.266498883197881
      ],
      [
        "him",
        -8.090238517203447
      ],
      [
        "▁hedge",
        -9.741900855094903
      ],
      [
        "low",
        -8.699569245665831
      ],
      [
        "ine",
        -7.742409514085935
      ],
      [
        "▁relat",
        -7.4710557473296095
      ],
      [
        "whil",
        -8.721459407085504
      ],
      [
        "▁leaf",
        -9.65821125057068
      ],
      [
        "▁chris",
        -7.724535802396346
      ],
      [
        "ding",
        -8.223324932902933
      ],
      [
        "▁grow",
        -6.92731896607752
      ],
      [
        "▁conclusion",
        -8.73425234521461
      ],
      [
        "▁fire",
        -9.940502150780308
      ],
      [
        "▁tide",
        -10.04794766281312
      ],
      [
        "▁guilt",
        -9.93246019163463
      ],
      [
        "▁incident",
        -9.741543517985093
      ],
      [
        "▁politic",
        -9.322744916483062
      ],
      [
        "▁kitt",
        -7.9310642878155555
      ],
      [
        "▁y",
        -7.196631002114044
      ],
      [
        "▁settlement",
        -8.482894320347894
      ],
      [
        "▁deny",
        -9.146163163487419
      ],
      [
        "▁got",
        -5.199521392430971
      ],
      [
        "▁handl",
        -9.298413936634732
      ],
      [
        "▁sa",
        -7.430530327026167
      ],
      [
        "▁.......",
        -13.318608259993669
      ],
      [
        "▁feed",
        -8.849271533742444
      ],
      [
        "▁swimm",
        -10.312671658300086
      ],
      [
        "▁w",
        -7.847448350576819
      ],
      [
        "▁mark",
        -8.602526147128756
      ],
      [
        "▁un",
        -8.043236926596183
      ],
      [
        "▁charm",
        -9.933903789705345
      ],
      [
        "▁bow",
        -9.319309472155524
      ],
      [
        "en",
        -7.180770542726828
      ],
      [
        "▁file",
        -9.438616817551106
      ],
      [
        "▁gym",
        -9.115957387990317
      ],
      [
        "sional",
        -8.704326575182758
      ],
      [
        "▁close",
        -6.872122316633374
      ],
      [
        "▁favour",
        -9.581262114150153
      ],
      [
        "nis",
        -10.054363858874632
      ],
      [
        "▁establish",
        -7.872287748638468
      ],
      [
        "▁uncover",
        -10.011779050975925
      ],
      [
        "up",
        -8.197078957846688
      ],
      [
        "▁momm",
        -7.838930707534434
      ],
      [
        "▁cool",
        -7.446992243631039
      ],
      [
        "▁di",
        -7.130347267682813
      ],
      [
        "be",
        -6.697446996375136
      ],
      [
        "▁attend",
        -7.72235016362234
      ],
      [
        "▁clan",
        -10.225405961936318
      ],
      [
        "▁harr",
        -6.314670349300612
      ],
      [
        "write",
        -10.243468297120735
      ],
      [
        "▁test",
        -7.409318584347679
      ],
      [
        "▁pair",
        -8.643719165176428
      ],
      [
        "▁president",
        -7.393198779236657
      ],
      [
        "cko",
        -10.324830608639992
      ],
      [
        "▁stroll",
        -9.74491030800285
      ],
      [
        "▁spoon",
        -8.869994805879566
      ],
      [
        "▁carry",
        -7.4452905083337955
      ],
      [
        "▁crew",
        -9.213698959530468
      ],
      [
        "▁derivative",
        -10.31142080913969
      ],
      [
        "▁bill",
        -7.873931900599555
      ],
      [
        "▁=",
        -10.684975132019087
      ],
      [
        "▁exa",
        -10.75337214650166
      ],
      [
        "th",
        -8.514765536518052
      ],
      [
        "▁lip",
        -9.685395387948162
      ],
      [
        "▁descendant",
        -10.47808753333295
      ],
      [
        "▁ad",
        -10.163539640848882
      ],
      [
        "ish",
        -9.880878086315288
      ],
      [
        "▁ga",
        -7.646525266690652
      ],
      [
        "▁aisle",
        -10.16878598241533
      ],
      [
        "▁embark",
        -10.39465184621345
      ],
      [
        "▁water",
        -6.4204695883288725
      ],
      [
        "▁hamper",
        -10.375393961092007
      ],
      [
        "▁fel",
        -6.545177225183178
      ],
      [
        "ar",
        -7.490341792618619
      ],
      [
        "sh",
        -7.9308865659882
      ],
      [
        "▁list",
        -5.604972914754906
      ],
      [
        "▁main",
        -9.604988173365818
      ],
      [
        "▁skipp",
        -10.387869865508259
      ],
      [
        "any",
        -8.672174552810601
      ],
      [
        "▁children",
        -6.99475166268508
      ],
      [
        "▁vacation",
        -8.366490596681661
      ],
      [
        "▁search",
        -8.734181033605672
      ],
      [
        "p",
        -6.2988503079260045
      ],
      [
        "▁cabin",
        -9.509593653344709
      ],
      [
        "▁force",
        -8.278667594786835
      ],
      [
        "care",
        -9.7802010694752
      ],
      [
        "▁sat",
        -7.888505393270265
      ],
      [
        "▁ladder",
        -9.075238227540053
      ],
      [
        "▁ex",
        -10.154527967737678
      ],
      [
        "-",
        -4.310181122036845
      ],
      [
        "▁grammar",
        -8.907019801113048
      ],
      [
        "be",
        -8.086772398805063
      ],
      [
        "▁bed",
        -7.087401626501282
      ],
      [
        "▁journey",
        -9.266312896645
      ],
      [
        "u",
        -6.695873815508354
      ],
      [
        "▁taco",
        -10.311424090806252
      ],
      [
        "▁prett",
        -6.0774269011538085
      ],
      [
        "▁grandmother",
        -8.185992447641434
      ],
      [
        "center",
        -8.103115797944815
      ],
      [
        "▁aunt",
        -8.909488297341861
      ],
      [
        "▁secret",
        -9.263603085467608
      ],
      [
        "▁golf",
        -10.043567442546433
      ],
      [
        "▁tha",
        -6.391787174921177
      ],
      [
        "▁hippop",
        -10.044107466521831
      ],
      [
        "▁camel",
        -8.223409447872621
      ],
      [
        "▁spin",
        -10.01953923692014
      ],
      [
        "▁roman",
        -6.285402666758411
      ],
      [
        "l",
        -4.943432235573655
      ],
      [
        "▁thought",
        -7.957602794213501
      ],
      [
        "oon",
        -10.393643358510412
      ],
      [
        "▁play",
        -7.535513835809167
      ],
      [
        "on",
        -6.870845246803458
      ],
      [
        "▁routine",
        -9.932454830631652
      ],
      [
        "▁loop",
        -10.313180644277326
      ],
      [
        "▁evolve",
        -9.219395974338203
      ],
      [
        "▁needle",
        -10.056080016695127
      ],
      [
        "▁pair",
        -10.36062250477091
      ],
      [
        "▁place",
        -5.928404005390422
      ],
      [
        "▁measurement",
        -10.491193569796549
      ],
      [
        "▁jame",
        -7.865659626642098
      ],
      [
        "ded",
        -7.664095298121266
      ],
      [
        "▁observer",
        -10.481050856014676
      ],
      [
        "in",
        -5.972258428642649
      ],
      [
        "▁conclude",
        -8.698352782806548
      ],
      [
        "▁wing",
        -9.293537652079326
      ],
      [
        "▁petrol",
        -9.832920816607317
      ],
      [
        "▁lo",
        -9.872435665564204
      ],
      [
        "▁park",
        -9.212673940397465
      ],
      [
        "▁repl",
        -9.938027662388718
      ],
      [
        "th",
        -8.014660046279783
      ],
      [
        "▁carrot",
        -9.213758261629874
      ],
      [
        "u",
        -6.759958710825652
      ],
      [
        "▁betray",
        -10.625406250415974
      ],
      [
        "2000",
        -6.9517046882855045
      ],
      [
        "n",
        -11.310256147197709
      ],
      [
        "▁office",
        -7.4078300031256905
      ],
      [
        "▁stop",
        -6.638462490604868
      ],
      [
        "▁relationship",
        -8.242724594014302
      ],
      [
        "▁statue",
        -9.419598465920378
      ],
      [
        "▁_",
        -8.58743407694508
      ],
      [
        "▁exception",
        -9.163717819855327
      ],
      [
        "▁unit",
        -7.415342760985423
      ],
      [
        "▁certificate",
        -9.164569784965076
      ],
      [
        "▁rea",
        -8.805469706482276
      ],
      [
        "▁ever",
        -12.15183873490786
      ],
      [
        "ment",
        -7.681229063393629
      ],
      [
        "▁capabilit",
        -9.322113652718254
      ],
      [
        "▁hum",
        -9.751480404110405
      ],
      [
        "▁join",
        -7.607559899605136
      ],
      [
        "▁wine",
        -7.942930389942608
      ],
      [
        "▁referr",
        -8.883806051214275
      ],
      [
        "▁t",
        -7.159435104150309
      ],
      [
        "ry",
        -7.145100294647382
      ],
      [
        "▁quanti",
        -9.450793575165381
      ],
      [
        "▁concern",
        -7.949998834708551
      ],
      [
        "sent",
        -9.832948531802655
      ],
      [
        "▁impr",
        -9.640881819993131
      ],
      [
        "ulte",
        -10.74090398067952
      ],
      [
        "▁sex",
        -7.641110932267372
      ],
      [
        "▁launch",
        -9.575753720745357
      ],
      [
        "▁lo",
        -9.895366440170037
      ],
      [
        "c",
        -7.127909050427332
      ],
      [
        "▁try",
        -5.699561699790409
      ],
      [
        "hin",
        -10.355812176309545
      ],
      [
        "......",
        -13.088171503276643
      ],
      [
        "s",
        -2.358705181573896
      ],
      [
        "er",
        -6.121878145370945
      ],
      [
        "▁drie",
        -10.430648335217084
      ],
      [
        "▁trademark",
        -10.47816841648034
      ],
      [
        "▁demo",
        -10.489005747887202
      ],
      [
        "▁cabinet",
        -9.581781104127993
      ],
      [
        "▁sugar",
        -8.586991318643184
      ],
      [
        "▁asce",
        -10.383554026630692
      ],
      [
        "▁victim",
        -9.509858590049406
      ],
      [
        "▁decor",
        -10.049910148909289
      ],
      [
        "▁goose",
        -9.742665802290947
      ],
      [
        "▁invoice",
        -9.933254968084041
      ],
      [
        "w",
        -8.114321937630924
      ],
      [
        "▁limit",
        -8.544266779409964
      ],
      [
        "▁carrie",
        -8.115915210446387
      ],
      [
        "▁neck",
        -8.098955384465267
      ],
      [
        "▁transit",
        -9.117454025584351
      ],
      [
        "▁seem",
        -6.245683384999831
      ],
      [
        "▁end",
        -6.739883479636791
      ],
      [
        "perm",
        -10.486230953301591
      ],
      [
        "rash",
        -9.251421443656648
      ],
      [
        "full",
        -6.272233315765132
      ],
      [
        "▁exten",
        -8.906901274853938
      ],
      [
        "▁head",
        -8.281523441147987
      ],
      [
        "▁di",
        -7.095849933496709
      ],
      [
        "▁play+grou",
        -9.83281281665303
      ],
      [
        "▁committee",
        -8.115166458617523
      ],
      [
        "▁div",
        -10.721929211675489
      ],
      [
        "▁cotton",
        -10.311430222833653
      ],
      [
        "▁begu",
        -8.858236529005222
      ],
      [
        "▁pitch",
        -10.161647705842817
      ],
      [
        "▁manufactur",
        -10.297113488835864
      ],
      [
        "▁impact",
        -10.625462439326759
      ],
      [
        "▁fai",
        -9.057290752734978
      ],
      [
        "c",
        -11.810278406266026
      ],
      [
        "▁readers",
        -9.269982115523732
      ],
      [
        "▁remain",
        -9.932727112706296
      ],
      [
        "sai",
        -10.119414593848777
      ],
      [
        "▁shoot",
        -8.514553830619484
      ],
      [
        "▁build",
        -7.533699094761116
      ],
      [
        "▁implication",
        -9.932452559014926
      ],
      [
        "▁tunnel",
        -9.509994420811047
      ],
      [
        "is",
        -7.167912347704786
      ],
      [
        "▁x",
        -8.251323527358597
      ],
      [
        "rance",
        -9.824622775845105
      ],
      [
        "ton",
        -9.687933053919005
      ],
      [
        "▁bo",
        -4.62690986580354
      ],
      [
        "▁bye",
        -9.081440733831304
      ],
      [
        "dependenc",
        -10.295745441820236
      ],
      [
        "*****",
        -11.55114666431147
      ],
      [
        "▁train",
        -8.089393905948796
      ],
      [
        "▁relation",
        -9.42822566816844
      ],
      [
        "▁trauma",
        -10.478169929648537
      ],
      [
        "▁advisor",
        -10.044284176287123
      ],
      [
        "mike",
        -7.231550417188992
      ],
      [
        "elief",
        -9.043412723563407
      ],
      [
        "89",
        -6.868746681939223
      ],
      [
        "▁me",
        -10.002102740585853
      ],
      [
        "▁straighten",
        -10.376384122350704
      ],
      [
        "▁twenty",
        -4.856647518973699
      ],
      [
        "▁posting",
        -10.37065834027445
      ],
      [
        "2",
        -11.770631529841472
      ],
      [
        "v",
        -8.604412996669458
      ],
      [
        "▁stu",
        -7.8063665800430275
      ],
      [
        "ding",
        -8.718424413211814
      ],
      [
        "▁inter",
        -9.031067580550898
      ],
      [
        "▁pipe",
        -9.030089321651491
      ],
      [
        "▁reason",
        -10.009210640656498
      ],
      [
        "▁f",
        -6.831058922367424
      ],
      [
        "▁sad",
        -7.6620558953530065
      ],
      [
        "med",
        -9.650791541270365
      ],
      [
        "▁spell",
        -8.438578417452812
      ],
      [
        "▁licens",
        -9.317027120157048
      ],
      [
        "▁th",
        -5.467207919803627
      ],
      [
        "▁get",
        -7.116919860684064
      ],
      [
        "▁consent",
        -10.011901936150133
      ],
      [
        "ten",
        -6.696279519574173
      ],
      [
        "▁de",
        -9.93792918079267
      ],
      [
        "▁receipt",
        -9.443192548465364
      ],
      [
        "▁in",
        -6.281002056505655
      ],
      [
        "ontario",
        -7.789441832070589
      ],
      [
        "▁sea",
        -7.856833595345853
      ],
      [
        "c",
        -6.008928337258088
      ],
      [
        "▁authors",
        -10.314642064057157
      ],
      [
        "shoul",
        -8.078104899454067
      ],
      [
        "hi",
        -12.596011167150566
      ],
      [
        "▁los",
        -7.057733230058732
      ],
      [
        "cal",
        -5.9443159686160865
      ],
      [
        "▁s",
        -9.732919305058479
      ],
      [
        "▁enrich",
        -10.625395698497055
      ],
      [
        "▁h",
        -7.208532579738514
      ],
      [
        "ting",
        -6.1285489463278005
      ],
      [
        "▁nutri",
        -10.185098990768763
      ],
      [
        "▁haul",
        -9.643440098959239
      ],
      [
        "driver",
        -9.804116711190055
      ],
      [
        "▁broad",
        -7.998462488971848
      ],
      [
        "▁addiction",
        -9.070838951611458
      ],
      [
        "▁tra",
        -9.899202451065905
      ],
      [
        "▁monday",
        -7.281936033518591
      ],
      [
        "▁polic",
        -8.732538313946252
      ],
      [
        "▁dry",
        -9.384240196254343
      ],
      [
        "▁beater",
        -10.047727496751518
      ],
      [
        "▁da",
        -5.612932598072544
      ],
      [
        "▁ma",
        -7.827685379064292
      ],
      [
        "cog",
        -10.171098247432065
      ],
      [
        "▁guess",
        -10.313258984913379
      ],
      [
        "▁lips",
        -9.719866257334784
      ],
      [
        "▁begin",
        -7.430154484278815
      ],
      [
        "▁fri",
        -10.080089720829372
      ],
      [
        "▁vet",
        -8.460127117410035
      ],
      [
        "▁receive",
        -7.005589039321805
      ],
      [
        "▁google",
        -10.823463136741564
      ],
      [
        "▁consci",
        -9.360896288671247
      ],
      [
        "▁cit",
        -6.592476101966075
      ],
      [
        "bit",
        -10.395113566442866
      ],
      [
        "▁neighbourhood",
        -10.478590480680744
      ],
      [
        "▁clerk",
        -9.932511117542752
      ],
      [
        "▁diagram",
        -10.478087863237075
      ],
      [
        "▁lead",
        -8.916592703493912
      ],
      [
        "▁lobby",
        -9.932452870887252
      ],
      [
        "▁develope",
        -9.24935252557629
      ],
      [
        "ar",
        -9.38103595699485
      ],
      [
        "▁clean",
        -7.614144936595171
      ],
      [
        "[UNK]",
        0.0
      ],
      [
        "x",
        -11.925660239071421
      ],
      [
        "▁accuse",
        -9.549325570419432
      ],
      [
        "▁sandwich",
        -8.323456969009934
      ],
      [
        "▁potential",
        -9.070608812100978
      ],
      [
        "il",
        -8.987538704904058
      ],
      [
        "▁quack",
        -10.043923585595316
      ],
      [
        "▁range",
        -8.557594847570074
      ],
      [
        "cult",
        -7.993425275938588
      ],
      [
        "▁women",
        -7.42631388550434
      ],
      [
        "▁concentrate",
        -9.694518606181784
      ],
      [
        "▁lawyer",
        -9.116789359470388
      ],
      [
        "▁wa",
        -9.240034987883696
      ],
      [
        "▁name",
        -7.643043092503144
      ],
      [
        "ball",
        -8.15703934011666
      ],
      [
        "▁studi",
        -8.016372962176309
      ],
      [
        "▁crosse",
        -9.570410585567108
      ],
      [
        "▁rescue",
        -9.266323870286456
      ],
      [
        "▁underst",
        -9.122260045145696
      ],
      [
        "▁mom",
        -6.848288544749489
      ],
      [
        "▁auste",
        -7.882132599740743
      ],
      [
        "▁extradite",
        -10.625394309360583
      ],
      [
        "▁shak",
        -10.315322505285643
      ],
      [
        "▁wh",
        -11.28246861509878
      ],
      [
        "unci",
        -10.175785991358293
      ],
      [
        "_",
        -4.900921085182438
      ],
      [
        "▁invite",
        -8.504707143195631
      ],
      [
        "▁pale",
        -7.9891482356643255
      ],
      [
        "▁uh",
        -7.780351736788767
      ],
      [
        "▁dock",
        -10.173436548819772
      ],
      [
        "▁construct",
        -9.750349557429862
      ],
      [
        "hap",
        -6.538456397502309
      ],
      [
        "▁railway",
        -9.74199521747331
      ],
      [
        "▁oct",
        -7.1764947533015455
      ],
      [
        "▁uni",
        -10.165232253253762
      ],
      [
        "ll",
        -7.494378486819105
      ],
      [
        "▁woul",
        -4.259042174156751
      ],
      [
        "▁multiply",
        -9.744815831279999
      ],
      [
        "▁tube",
        -9.661931970663614
      ],
      [
        "▁",
        -1.4271932053481233
      ],
      [
        "here",
        -6.183649337266312
      ],
      [
        "ble",
        -9.700296739853329
      ],
      [
        "ped",
        -8.244818001486966
      ],
      [
        "▁limb",
        -9.26887499946334
      ],
      [
        "▁turtle",
        -9.443198909095313
      ],
      [
        "▁fish",
        -10.627718136055455
      ],
      [
        "▁measure",
        -8.16833961398914
      ],
      [
        "▁rain",
        -8.22378055514206
      ],
      [
        "give",
        -9.670984598781121
      ],
      [
        "▁tummy",
        -8.766477527620168
      ],
      [
        "ee",
        -5.71341828071153
      ],
      [
        "f",
        -6.192928136779798
      ],
      [
        "7",
        -10.457029540059649
      ],
      [
        "▁pile",
        -10.283184672550286
      ],
      [
        "more",
        -5.35029295487201
      ],
      [
        "▁bus",
        -7.721834652949936
      ],
      [
        "▁threshold",
        -10.168563762229855
      ],
      [
        "zz",
        -10.387746212683895
      ],
      [
        "▁soak",
        -9.744552816776523
      ],
      [
        "th",
        -6.899682863637689
      ],
      [
        "▁wri",
        -10.516370978935342
      ],
      [
        "abo",
        -12.396353484691211
      ],
      [
        "▁amuse",
        -10.312496843688429
      ],
      [
        "▁da",
        -6.107615017882473
      ],
      [
        "▁heav",
        -7.330969987208551
      ],
      [
        "▁literal",
        -8.331896185523426
      ],
      [
        "▁abou",
        -5.1502907813187875
      ],
      [
        "▁revisit",
        -10.631252763409883
      ],
      [
        "▁gon",
        -5.350338757148288
      ],
      [
        "$",
        -2.9390045157878664
      ],
      [
        "▁organism",
        -10.478480382672421
      ],
      [
        "▁trigger",
        -9.869152196228187
      ],
      [
        "nature",
        -8.14568725348191
      ],
      [
        "▁key",
        -7.989087423222256
      ],
      [
        "▁public",
        -9.211788094208712
      ],
      [
        "▁tap",
        -9.78075685924076
      ],
      [
        "▁butterfl",
        -9.741785089965461
      ],
      [
        "▁ginger",
        -9.741677275434357
      ],
      [
        "▁batter",
        -8.907787144003969
      ],
      [
        "▁snack",
        -9.443194014147078
      ],
      [
        "▁offer",
        -9.021197272190234
      ],
      [
        "▁chor",
        -10.152536120174858
      ],
      [
        "rruption",
        -10.47812232107072
      ],
      [
        "▁dress",
        -7.954474158369253
      ],
      [
        "▁until",
        -5.5638749337406646
      ],
      [
        "▁shakes",
        -6.916526294427553
      ],
      [
        "▁particle",
        -9.267661633924337
      ],
      [
        "▁hock",
        -9.932491675215612
      ],
      [
        "list",
        -10.044231971094334
      ],
      [
        "▁shed",
        -9.745958814894008
      ],
      [
        "where",
        -6.01525835379799
      ],
      [
        "▁billion",
        -9.94549627622234
      ],
      [
        "▁banjo",
        -9.658210149527775
      ],
      [
        "h",
        -10.741453583244953
      ],
      [
        "ing",
        -6.686521379897417
      ],
      [
        "▁bron",
        -9.833236143357812
      ],
      [
        "▁spend",
        -7.795473079364302
      ],
      [
        "▁learn",
        -6.838105611386304
      ],
      [
        "▁choose",
        -7.779741653182732
      ],
      [
        "▁predict",
        -9.147860661032121
      ],
      [
        "▁en",
        -9.59890442297582
      ],
      [
        "▁wear",
        -7.030136924463811
      ],
      [
        "uck",
        -7.511765706610095
      ],
      [
        "▁dere",
        -10.651207635020583
      ],
      [
        "▁forest",
        -9.660842418377879
      ],
      [
        "▁vint",
        -10.044306430046102
      ],
      [
        "▁encourage",
        -8.417000379120314
      ],
      [
        "▁under",
        -8.765647238674896
      ],
      [
        "d",
        -6.638356827931882
      ],
      [
        "▁prospect",
        -9.582539537829536
      ],
      [
        "▁flash",
        -9.741789642363958
      ],
      [
        "▁combination",
        -9.266320671612789
      ],
      [
        "▁team",
        -7.4360987443864
      ],
      [
        "ur",
        -8.734300137671553
      ],
      [
        "▁al",
        -4.246888182650369
      ],
      [
        "▁error",
        -8.45848812011001
      ],
      [
        "t",
        -5.31872887030421
      ],
      [
        "▁un",
        -9.477616961067127
      ],
      [
        "▁trot",
        -10.311520276117324
      ],
      [
        "▁wis",
        -10.212814281994461
      ],
      [
        "access",
        -7.2958226824187085
      ],
      [
        "▁hoop",
        -10.4806175510995
      ],
      [
        "▁exhibit",
        -9.744631614273729
      ],
      [
        "▁warrant",
        -9.832457810996756
      ],
      [
        "▁ok",
        -6.289238687970232
      ],
      [
        "▁hobb",
        -9.658215798356625
      ],
      [
        "▁fi",
        -9.892046989143784
      ],
      [
        "▁travel",
        -7.316864703250337
      ],
      [
        "▁try",
        -9.676529281116963
      ],
      [
        "▁boxe",
        -8.812047720289053
      ],
      [
        "utilize",
        -10.625463411992387
      ],
      [
        "▁address",
        -8.407754939967827
      ],
      [
        "▁black",
        -8.87413787929883
      ],
      [
        "▁permission",
        -9.581468536653155
      ],
      [
        "ax",
        -8.207646147555202
      ],
      [
        "▁tons",
        -9.552530120110593
      ],
      [
        "ush",
        -10.48295746114817
      ],
      [
        "▁terror",
        -8.751370703476868
      ],
      [
        "▁cast",
        -9.323984159509102
      ],
      [
        "▁d",
        -8.724840587039013
      ],
      [
        "▁factor",
        -8.189929229033773
      ],
      [
        "▁frame",
        -10.176085804513754
      ],
      [
        "▁spin",
        -9.491922129630511
      ],
      [
        "▁moderni",
        -10.478100245137028
      ],
      [
        "▁exci",
        -10.207904513609122
      ],
      [
        "ville",
        -7.023596430003555
      ],
      [
        "tant",
        -8.52930762960571
      ],
      [
        "▁jun",
        -8.017949734447207
      ],
      [
        "▁suc",
        -6.023455274139659
      ],
      [
        "tore",
        -10.898284861560223
      ],
      [
        "the",
        -9.636382313932264
      ],
      [
        "▁charg",
        -10.289108727356956
      ],
      [
        "▁bean",
        -9.032303678688146
      ],
      [
        "washington",
        -5.483093196241167
      ],
      [
        "ious",
        -7.17844169604666
      ],
      [
        "▁recipient",
        -9.027129302476204
      ],
      [
        "▁dece",
        -9.79675394817215
      ],
      [
        "t",
        -6.030829771013778
      ],
      [
        "▁traveler",
        -9.222107119129506
      ],
      [
        "▁ex",
        -8.472682343460392
      ],
      [
        "▁sketch",
        -10.488527027119485
      ],
      [
        "▁indi",
        -7.465164143036595
      ],
      [
        "▁in",
        -4.970792382408092
      ],
      [
        "▁dash",
        -10.195253487093881
      ],
      [
        "▁call",
        -7.336245523868773
      ],
      [
        "▁phase",
        -9.446087853483489
      ],
      [
        "▁**",
        -12.56642538393048
      ],
      [
        "cess",
        -8.128004049470448
      ],
      [
        "▁brand",
        -9.741718189182215
      ],
      [
        "for",
        -5.767560284088035
      ],
      [
        "▁sur",
        -10.049899580078112
      ],
      [
        "▁drap",
        -10.660136035185975
      ],
      [
        "▁pop",
        -9.75309946043662
      ],
      [
        "▁shoul",
        -5.182621289545295
      ],
      [
        "▁cup",
        -7.4982916794948755
      ],
      [
        "▁second",
        -6.165745746144752
      ],
      [
        "▁get",
        -4.421414040666525
      ],
      [
        "▁father",
        -6.919600024684173
      ],
      [
        "▁tru",
        -8.165888052248134
      ],
      [
        "▁draw",
        -6.654847932334819
      ],
      [
        "▁her",
        -10.048054623692373
      ],
      [
        "▁lee",
        -7.790206984466337
      ],
      [
        "▁cafe",
        -9.443395852863782
      ],
      [
        "as",
        -7.54452203721696
      ],
      [
        "▁pe",
        -7.653575341127877
      ],
      [
        "astic",
        -9.837285358681076
      ],
      [
        "▁bump",
        -10.043841785807622
      ],
      [
        "▁shel",
        -8.950498523237382
      ],
      [
        "▁swirl",
        -10.175406740353349
      ],
      [
        "▁accumulat",
        -10.635424592949057
      ],
      [
        "▁guy",
        -6.662665736122084
      ],
      [
        "▁seed",
        -8.945996563319394
      ],
      [
        "_",
        -4.8283611448919315
      ],
      [
        "▁presen",
        -9.643365730704947
      ],
      [
        "▁sail",
        -9.895932390701546
      ],
      [
        "▁attache",
        -7.394647312444762
      ],
      [
        "▁egg",
        -7.822530232364074
      ],
      [
        "▁fare",
        -6.190398192308851
      ],
      [
        "▁acquire",
        -9.042177457619601
      ],
      [
        "▁partner",
        -9.356401115334542
      ],
      [
        "▁psycholog",
        -9.3802825774339
      ],
      [
        "▁complement",
        -10.625409934651852
      ],
      [
        "▁fold",
        -9.934215100072015
      ],
      [
        "▁gather",
        -8.61079917971708
      ],
      [
        "ou",
        -11.026065425264347
      ],
      [
        "▁tit",
        -10.153702829967653
      ],
      [
        "▁card",
        -7.531440834232944
      ],
      [
        "v",
        -8.221020636134378
      ],
      [
        "position",
        -9.27791253734052
      ],
      [
        "x",
        -8.340855315868534
      ],
      [
        "l",
        -6.758199687090753
      ],
      [
        "tion",
        -7.595904060989848
      ],
      [
        "▁affair",
        -8.734175623349419
      ],
      [
        "▁reference",
        -8.458550413807325
      ],
      [
        "▁increas",
        -8.53900235210116
      ],
      [
        "ten",
        -7.555046472329298
      ],
      [
        "▁minute",
        -6.792852625067997
      ],
      [
        "▁resi",
        -9.447138458160447
      ],
      [
        "▁wide",
        -7.946241760470722
      ],
      [
        "fo",
        -12.318804377466208
      ],
      [
        "▁st",
        -7.41836189483927
      ],
      [
        "▁theme",
        -8.945482418682495
      ],
      [
        "al",
        -7.346946077370534
      ],
      [
        "▁be",
        -4.961294813347506
      ],
      [
        "▁dessert",
        -9.658210885479297
      ],
      [
        "▁tomato",
        -9.116074948136232
      ],
      [
        "on",
        -11.079524852188499
      ],
      [
        "▁i",
        -9.583171477760347
      ],
      [
        "▁watch",
        -6.422132444968376
      ],
      [
        "nforcement",
        -8.908087492325885
      ],
      [
        "▁mother",
[...]
