{
  "version": "1.0",
  "truncation": null,
  "padding": null,
  "added_tokens": [
    {
      "id": 555,
      "content": "[UNK]",
      "single_word": false,
      "lstrip": false,
      "rstrip": false,
      "normalized": false,
      "special": true
    },
    {
      "id": 803,
      "content": "[MASK]",
      "single_word": false,
      "lstrip": false,
      "rstrip": false,
      "normalized": false,
      "special": true
    },
    {
      "id": 4260,
      "content": "[CLS]",
      "single_word": false,
      "lstrip": false,
      "rstrip": false,
      "normalized": false,
      "special": true
    },
    {
      "id": 5648,
      "content": "[SEP]",
      "single_word": false,
      "lstrip": false,
      "rstrip": false,
      "normalized": false,
      "special": true
    },
    {
      "id": 6066,
      "content": "[PAD]",
      "single_word": false,
      "lstrip": false,
      "rstrip": false,
      "normalized": false,
      "special": true
    }
  ],
  "normalizer": {
    "type": "Sequence",
    "normalizers": [
      {
        "type": "NFD"
      },
      {
        "type": "Lowercase"
      },
      {
        "type": "StripAccents"
      }
    ]
  },
  "pre_tokenizer": {
    "type": "Sequence",
    "pretokenizers": [
      {
        "type": "Metaspace",
        "replacement": "▁",
        "prepend_scheme": "always",
        "split": true
      }
    ]
  },
  "post_processor": {
    "type": "TemplateProcessing",
    "single": [
      {
        "SpecialToken": {
          "id": "[CLS]",
          "type_id": 0
        }
      },
      {
        "Sequence": {
          "id": "A",
          "type_id": 0
        }
      },
      {
        "SpecialToken": {
          "id": "[SEP]",
          "type_id": 0
        }
      }
    ],
    "pair": [
      {
        "SpecialToken": {
          "id": "[CLS]",
          "type_id": 0
        }
      },
      {
        "Sequence": {
          "id": "A",
          "type_id": 0
        }
      },
      {
        "SpecialToken": {
          "id": "[SEP]",
          "type_id": 0
        }
      },
      {
        "Sequence": {
          "id": "B",
          "type_id": 1
        }
      },
      {
        "SpecialToken": {
          "id": "[SEP]",
          "type_id": 1
        }
      }
    ],
    "special_tokens": {
      "[CLS]": {
        "id": "[CLS]",
        "ids": [
          4260
        ],
        "tokens": [
          "[CLS]"
        ]
      },
      "[SEP]": {
        "id": "[SEP]",
        "ids": [
          5648
        ],
        "tokens": [
          "[SEP]"
        ]
      }
    }
  },
  "decoder": {
    "type": "Metaspace",
    "replacement": "▁",
    "prepend_scheme": "always",
    "split": true
  },
  "model": {
    "type": "Unigram",
    "unk_id": 555,
    "vocab": [
      [
        "▁shore",
        -9.322812779018271
      ],
      [
        "▁post",
        -7.878502570412043
      ],
      [
        "▁pivot",
        -8.167808600547232
      ],
      [
        "▁boot",
        -8.388737397828894
      ],
      [
        "▁a",
        -6.746763213277555
      ],
      [
        "▁prob",
        -5.886808177766353
      ],
      [
        "▁move",
        -6.640303779448729
      ],
      [
        "icles",
        -7.766041540205085
      ],
      [
        "▁trademark",
        -10.47816841648034
      ],
      [
        "▁police",
        -7.798697232003613
      ],
      [
        "▁minorit",
        -9.932514823470457
      ],
      [
        "▁george",
        -6.781171824155518
      ],
      [
        "▁release",
        -8.105118794128881
      ],
      [
        "▁arrest",
        -9.02482456647259
      ],
      [
        "east",
        -10.284820478250683
      ],
      [
        "▁demonstrat",
        -10.908466487076096
      ],
      [
        "al",
        -7.165407135913336
      ],
      [
        "▁incre",
        -7.769511852419221
      ],
      [
        "▁hard",
        -9.510160289820025
      ],
      [
        "▁momm",
        -6.771534277627382
      ],
      [
        "▁super",
        -7.831467730482739
      ],
      [
        "▁concentrat",
        -10.758539073044473
      ],
      [
        "▁supersed",
        -9.869360950619363
      ],
      [
        "▁sunk",
        -9.636071162061675
      ],
      [
        "▁camel",
        -8.223409447872621
      ],
      [
        "▁how",
        -3.9468069168529585
      ],
      [
        "▁trie",
        -7.719057135202351
      ],
      [
        "▁badge",
        -10.30885824809411
      ],
      [
        "hes",
        -13.2536395611446
      ],
      [
        "▁inde",
        -7.740820838136443
      ],
      [
        "▁protest",
        -9.534081895430205
      ],
      [
        "▁flash",
        -9.741789642363958
      ],
      [
        "tel",
        -6.390730603715606
      ],
      [
        "▁blurr",
        -10.63355714758253
      ],
      [
        "▁outlier",
        -10.478089441859632
      ],
      [
        "▁)",
        -8.967339649659891
      ],
      [
        "▁road",
        -7.565161492639191
      ],
      [
        "abou",
        -8.011008626944378
      ],
      [
        "▁reco",
        -8.937544463223988
      ],
      [
        "▁democra",
        -8.204517512304484
      ],
      [
        "▁rug",
        -8.870858554524848
      ],
      [
        "▁toilet",
        -9.509908100297093
      ],
      [
        "{",
        -11.810278406305976
      ],
      [
        "▁violation",
        -9.747088522125686
      ],
      [
        "▁sway",
        -9.869892786801692
      ],
      [
        "▁definit",
        -7.0146932277584275
      ],
      [
        "rank",
        -8.979148090616182
      ],
      [
        "▁push",
        -7.134800138392693
      ],
      [
        "ow",
        -10.59600381348684
      ],
      [
        "-",
        -7.48708645490535
      ],
      [
        "▁av",
        -6.077044743235184
      ],
      [
        "ut",
        -10.56696934815741
      ],
      [
        "▁phrase",
        -9.321868341221192
      ],
      [
        "▁procedure",
        -8.43467800269547
      ],
      [
        "▁athen",
        -8.07694340831553
      ],
      [
        "ov",
        -8.666308487738302
      ],
      [
        "▁po",
        -7.826023911263647
      ],
      [
        "▁b",
        -7.648519175846715
      ],
      [
        "▁comed",
        -9.346496794669793
      ],
      [
        "▁ours",
        -11.444714850985516
      ],
      [
        "▁rely",
        -9.145980370528957
      ],
      [
        "▁commodit",
        -10.168563671599841
      ],
      [
        "▁loop",
        -10.313180644277326
      ],
      [
        "▁journal",
        -8.94533955095546
      ],
      [
        "▁glamo",
        -10.478378978892671
      ],
      [
        "▁highe",
        -7.676130664473138
      ],
      [
        "▁score",
        -8.98687109412971
      ],
      [
        "▁declin",
        -10.48108522121559
      ],
      [
        "▁democrat",
        -7.7140240841918475
      ],
      [
        "▁bill",
        -7.873931900599555
      ],
      [
        "gence",
        -9.482760417865883
      ],
      [
        "ay",
        -10.276524336441142
      ],
      [
        "ella",
        -10.043137959892569
      ],
      [
        "▁",
        -1.4271932053481233
      ],
      [
        "▁commissioner",
        -8.882450708279292
      ],
      [
        "▁pe",
        -7.653575341127877
      ],
      [
        "▁breast",
        -9.163686956920605
      ],
      [
        "▁orla",
        -7.2059885835753175
      ],
      [
        "▁coast",
        -8.507926864588642
      ],
      [
        "sphere",
        -8.282389798798924
      ],
      [
        "_",
        -5.201045034743488
      ],
      [
        "craft",
        -7.5456947832860495
      ],
      [
        "▁visit",
        -8.48183351503077
      ],
      [
        "▁augment",
        -10.375393417984494
      ],
      [
        "▁technique",
        -8.70292561369053
      ],
      [
        "ock",
        -6.949752816097767
      ],
      [
        "rice",
        -8.905740230946392
      ],
      [
        "▁capital",
        -8.033239165395287
      ],
      [
        "▁collect",
        -7.953103109768134
      ],
      [
        "▁superior",
        -10.311448624984678
      ],
      [
        "ind",
        -8.429079748863852
      ],
      [
        "--------------",
        -9.810432193692524
      ],
      [
        "▁bar",
        -10.05648783414817
      ],
      [
        "▁mirror",
        -9.16368115391498
      ],
      [
        "▁mash",
        -10.426853426740696
      ],
      [
        "▁sold",
        -8.854102639208472
      ],
      [
        "▁increas",
        -8.53900235210116
      ],
      [
        "▁taco",
        -10.311424090806252
      ],
      [
        "competenc",
        -10.451242898877934
      ],
      [
        "▁peter",
        -6.870955470039081
      ],
      [
        "tak",
        -10.428216044294757
      ],
      [
        "tivit",
        -9.56664369631667
      ],
      [
        "▁forecast",
        -10.311457161326965
      ],
      [
        "1990",
        -10.32191230298927
      ],
      [
        "▁d",
        -8.290619015603834
      ],
      [
        "▁threaten",
        -8.917157554625366
      ],
      [
        "▁fi",
        -9.892046989143784
      ],
      [
        "id",
        -10.076023162833996
      ],
      [
        "ry",
        -7.145100294647382
      ],
      [
        "▁length",
        -9.071336344829277
      ],
      [
        "▁form",
        -7.229122621167228
      ],
      [
        "▁hymn",
        -10.47808768449585
      ],
      [
        "▁sweat",
        -10.638237969398299
      ],
      [
        "▁choice",
        -8.065183089905545
      ],
      [
        "▁prof",
        -7.238375070861989
      ],
      [
        "▁salad",
        -8.533530092509928
      ],
      [
        "▁donation",
        -9.443279745870836
      ],
      [
        "▁breath",
        -8.869964449020863
      ],
      [
        "▁authors",
        -10.314642064057157
      ],
      [
        "orrow",
        -7.098992181382603
      ],
      [
        "▁pound",
        -9.659825297907616
      ],
      [
        "▁hook",
        -10.4627487044045
      ],
      [
        "“",
        -6.491662973714449
      ],
      [
        "▁professor",
        -9.163681188559885
      ],
      [
        "ia",
        -7.044474574176756
      ],
      [
        "▁plaintiff",
        -9.741543857464931
      ],
      [
        "d",
        -8.02655417968824
      ],
      [
        "of",
        -8.026473360529637
      ],
      [
        "o",
        -6.147997236814882
      ],
      [
        "----",
        -10.831803674598367
      ],
      [
        "i",
        -4.958782707846554
      ],
      [
        "▁waste",
        -9.124935399848116
      ],
      [
        "▁advertise",
        -10.233018183635329
      ],
      [
        "▁favour",
        -9.581262114150153
      ],
      [
        "▁poor",
        -6.827153171806246
      ],
      [
        "▁scan",
        -10.478473965379566
      ],
      [
        "see",
        -9.049613460170496
      ],
      [
        "▁sati",
        -9.936428151836571
      ],
      [
        "▁percentage",
        -8.018034161966217
      ],
      [
        "▁fit",
        -7.675468551801042
      ],
      [
        "st",
        -8.625963840068753
      ],
      [
        "▁vary",
        -9.359706773186014
      ],
      [
        "where",
        -9.151435274764282
      ],
      [
        "▁biologist",
        -10.314429902656084
      ],
      [
        "▁enthusias",
        -10.164739898187397
      ],
      [
        "▁16",
        -5.674082561475753
      ],
      [
        "▁waive",
        -9.53930967014865
      ],
      [
        "▁customiz",
        -9.744777574649882
      ],
      [
        "▁jo",
        -8.048320156449357
      ],
      [
        "▁b",
        -8.653977413552017
      ],
      [
        "▁manufacture",
        -10.211414166369446
      ],
      [
        "▁president",
        -7.393198779236657
      ],
      [
        "g",
        -5.086823106981542
      ],
      [
        "y",
        -4.19304666083936
      ],
      [
        "▁foot",
        -7.771647652021123
      ],
      [
        "▁ribbon",
        -9.38069189248817
      ],
      [
        "▁exact",
        -7.130971277767781
      ],
      [
        "▁why",
        -4.973704831338078
      ],
      [
        "isda",
        -9.760248938304615
      ],
      [
        "paper",
        -10.449487438695558
      ],
      [
        "▁framework",
        -9.380809947685547
      ],
      [
        "t",
        -3.4258600649643967
      ],
      [
        "▁ja",
        -9.508435965152866
      ],
      [
        "korea",
        -7.720141021545693
      ],
      [
        "▁facult",
        -9.44319272643382
      ],
      [
        "▁walnut",
        -10.31142117162906
      ],
      [
        "▁boundar",
        -10.311610288561411
      ],
      [
        "▁investor",
        -10.043568193384113
      ],
      [
        "▁endure",
        -10.262424684064626
      ],
      [
        "▁idiot",
        -9.8324529152579
      ],
      [
        "ve",
        -4.657267170543398
      ],
      [
        "▁right",
        -5.1005143013985395
      ],
      [
        "▁bombing",
        -9.67806263534846
      ],
      [
        "8",
        -4.553569007344787
      ],
      [
        "ha",
        -6.934556625686795
      ],
      [
        "▁exclude",
        -10.441509310747433
      ],
      [
        "▁frown",
        -10.6265895858662
      ],
      [
        "▁alr",
        -5.228749683775931
      ],
      [
        "▁score",
        -9.174898047653443
      ],
      [
        "▁amus",
        -10.62733728247659
      ],
      [
        "▁la",
        -10.226751921871534
      ],
      [
        "▁money",
        -6.849227266054632
      ],
      [
        "▁face",
        -8.031543205840347
      ],
      [
        "▁conf",
        -10.283995950249537
      ],
      [
        "ce",
        -6.86782844437985
      ],
      [
        "▁issu",
        -10.119700466224014
      ],
      [
        "▁fil",
        -10.04456895322318
      ],
      [
        "▁reduce",
        -8.267613503121149
      ],
      [
        "ri",
        -7.6527992314261315
      ],
      [
        "▁dragg",
        -9.154571963846962
      ],
      [
        "▁greeting",
        -9.44356102867612
      ],
      [
        "▁kitten",
        -8.6435302982003
      ],
      [
        "▁robot",
        -8.643210821603734
      ],
      [
        "▁liquidation",
        -9.93561217634721
      ],
      [
        "▁finishe",
        -8.079018015374686
      ],
      [
        "quino",
        -8.773385744816004
      ],
      [
        "▁system",
        -6.9398149609144
      ],
      [
        "▁radi",
        -9.193346324418622
      ],
      [
        "▁girlfriend",
        -9.213681151983868
      ],
      [
        "ve",
        -8.736942800002197
      ],
      [
        "▁we",
        -5.969460857835287
      ],
      [
        "▁su",
        -8.152853670093483
      ],
      [
        "[",
        -6.162592258851914
      ],
      [
        "sept",
        -8.801078870632507
      ],
      [
        "en",
        -6.148540717910841
      ],
      [
        "▁river",
        -8.090330104877932
      ],
      [
        "c",
        -11.925660239071421
      ],
      [
        "▁engag",
        -9.627667754802872
      ],
      [
        "▁lo",
        -7.0040974518798675
      ],
      [
        "▁forth",
        -7.988309909754861
      ],
      [
        "mination",
        -9.0103642310771
      ],
      [
        "▁manual",
        -9.932465288094356
      ],
      [
        "l",
        -3.0945094295258793
      ],
      [
        "▁bust",
        -10.18119452908353
      ],
      [
        "ala",
        -10.164615913342795
      ],
      [
        "on",
        -8.1917012505937
      ],
      [
        "▁film",
        -8.20481657086809
      ],
      [
        "ifica",
        -8.291738545728773
      ],
      [
        "▁witch",
        -8.94574356719767
      ],
      [
        "▁robe",
        -9.834361434176191
      ],
      [
        "▁liv",
        -7.570239989097204
      ],
      [
        "▁chute",
        -9.932473785966744
      ],
      [
        "▁shoulder",
        -8.643210874321593
      ],
      [
        "▁dislike",
        -9.747636602870681
      ],
      [
        "▁picture",
        -6.878422063643678
      ],
      [
        "▁politician",
        -9.581389469478616
      ],
      [
        "▁proper",
        -7.637566247573738
      ],
      [
        "▁land",
        -8.482368756490763
      ],
      [
        "▁politic",
        -9.322744916483062
      ],
      [
        "▁standard",
        -7.821104384456373
      ],
      [
        "▁jingle",
        -10.311485866711227
      ],
      [
        "▁rename",
        -10.628866428241622
      ],
      [
        "▁quick",
        -6.745647669671999
      ],
      [
        "▁lab",
        -8.947815574425299
      ],
      [
        "!!!!!!!!!!!!!!!!",
        -11.398152869348259
      ],
      [
        "▁follow",
        -6.362041922472536
      ],
      [
        "▁indicat",
        -10.170808393863947
      ],
      [
        "▁calorie",
        -10.168581811492563
      ],
      [
        "▁exist",
        -7.503767107828424
      ],
      [
        "a",
        -10.36027840626602
      ],
      [
        "▁assume",
        -8.180302739335136
      ],
      [
        "▁196",
        -6.719940973763605
      ],
      [
        "▁correction",
        -10.47845195931671
      ],
      [
        "til",
        -7.784555654766264
      ],
      [
        "......",
        -13.08817150327664
      ],
      [
        "▁believ",
        -10.259451890156276
      ],
      [
        "▁pump",
        -9.874935981298302
      ],
      [
        "▁imagination",
        -9.509859484957754
      ],
      [
        "▁re-",
        -8.721355501734267
      ],
      [
        "▁40",
        -6.6565469213511435
      ],
      [
        "▁yoyo",
        -9.93245309735916
      ],
      [
        "▁signoff",
        -10.169007027392642
      ],
      [
        "▁policy",
        -7.910434335849835
      ],
      [
        "▁discre",
        -9.889866715559883
      ],
      [
        "▁m",
        -6.457115228975116
      ],
      [
        "▁glow",
        -9.67868386879415
      ],
      [
        "peck",
        -10.417938703846302
      ],
      [
        "▁teaspoon",
        -10.043563702514572
      ],
      [
        "▁bread",
        -7.973564547449617
      ],
      [
        "s",
        -2.856836203130574
      ],
      [
        "▁proto",
        -10.314174034422617
      ],
      [
        "w",
        -9.481007900587642
      ],
      [
        "▁deficit",
        -10.478139663741402
      ],
      [
        "▁justify",
        -10.176005862372051
      ],
      [
        "▁13",
        -6.263667675102136
      ],
      [
        "▁vaccine",
        -9.443191815895995
      ],
      [
        "▁depict",
        -9.869001380755442
      ],
      [
        "▁broad",
        -7.998462488971848
      ],
      [
        "▁smok",
        -9.686364113328171
      ],
      [
        "ti",
        -7.940756322834329
      ],
      [
        "▁olde",
        -7.975169562832761
      ],
      [
        "r",
        -4.205444117082512
      ],
      [
        "▁stop",
        -6.638462490604868
      ],
      [
        "ever",
        -6.0073375635282105
      ],
      [
        "▁twist",
        -9.28344110355502
      ],
      [
        "'",
        -2.6782468275802227
      ],
      [
        "▁c",
        -6.603451884348774
      ],
      [
        "ing",
        -4.779772680984797
      ],
      [
        "▁hold",
        -9.15311797665543
      ],
      [
        "▁excell",
        -6.7968984467651445
      ],
      [
        "▁18",
        -5.485808363114372
      ],
      [
        "▁health",
        -7.744407798891499
      ],
      [
        "▁estate",
        -9.932470812323071
      ],
      [
        "▁couch",
        -9.027210197927108
      ],
      [
        "▁charge",
        -7.853354768533049
      ],
      [
        "▁please",
        -8.564434024630248
      ],
      [
        "take",
        -8.759793077145689
      ],
      [
        "▁observation",
        -9.322502588564538
      ],
      [
        "▁pine",
        -10.218305081110165
      ],
      [
        "▁satisfy",
        -9.63482029804836
      ],
      [
        "▁he",
        -10.39980368601634
      ],
      [
        "wh",
        -10.931662549423878
      ],
      [
        "▁model",
        -7.888233923860714
      ],
      [
        "▁benefit",
        -8.68921933497451
      ],
      [
        "▁west",
        -7.364491912356218
      ],
      [
        "▁r",
        -9.969176708666446
      ],
      [
        "▁park",
        -7.930236432806555
      ],
      [
        "7",
        -4.60064973905525
      ],
      [
        "edicate",
        -10.147540053240562
      ],
      [
        "▁pilgrim",
        -9.931784944451753
      ],
      [
        "▁fair",
        -9.393591398248333
      ],
      [
        "▁fat",
        -7.679120712889976
      ],
      [
        "vention",
        -9.657678214962386
      ],
      [
        "▁for",
        -8.263639775010422
      ],
      [
        "▁ran",
        -7.978711642626029
      ],
      [
        "▁flood",
        -10.177454305959017
      ],
      [
        "▁shoul",
        -5.182621289545295
      ],
      [
        "▁clan",
        -10.225405961936318
      ],
      [
        "▁curl",
        -10.433978993793176
      ],
      [
        "ve",
        -9.071097754752714
      ],
      [
        "▁texa",
        -6.921399347205545
      ],
      [
        "▁advi",
        -8.538196745205019
      ],
      [
        "p",
        -7.066816683755824
      ],
      [
        "▁scramble",
        -10.446661496406358
      ],
      [
        "▁mov",
        -7.166072223475297
      ],
      [
        "ball",
        -10.48814541215298
      ],
      [
        "▁net",
        -9.230565819009506
      ],
      [
        "ritual",
        -10.478069339770125
      ],
      [
        "▁uni",
        -8.075029178804023
      ],
      [
        "▁c",
        -7.277510227719385
      ],
      [
        "▁boat",
        -7.555637366928657
      ],
      [
        "▁official",
        -8.149951455968605
      ],
      [
        "▁twirl",
        -9.868804640226257
      ],
      [
        "▁wipe",
        -8.779911817932993
      ],
      [
        "▁transfer",
        -9.213685760201512
      ],
      [
        "▁offens",
        -10.311505269826505
      ],
      [
        "▁sweep",
        -9.443273260985467
      ],
      [
        "▁lap",
        -9.735332495331296
      ],
      [
        "▁hope",
        -6.850381843185085
      ],
      [
        "▁rom",
        -10.469767175406636
      ],
      [
        "▁has",
        -5.672018519169682
      ],
      [
        "▁cutt",
        -8.866731514576035
      ],
      [
        "▁rank",
        -9.509867521167479
      ],
      [
        "oil",
        -10.310156890257772
      ],
      [
        "▁mathematic",
        -8.799693855189595
      ],
      [
        "▁their",
        -5.253175569214527
      ],
      [
        "▁capture",
        -9.024939351066113
      ],
      [
        "▁prepare",
        -7.995917764946754
      ],
      [
        "ic",
        -8.80799021294806
      ],
      [
        "▁adher",
        -10.78762004185267
      ],
      [
        "▁cell",
        -8.459878110010623
      ],
      [
        "▁sha",
        -7.984547637263843
      ],
      [
        "ac",
        -7.160388903002505
      ],
      [
        "▁identify",
        -8.689334217799146
      ],
      [
        "▁boxe",
        -8.812047720289053
      ],
      [
        "ect",
        -8.392790093430731
      ],
      [
        "▁excite",
        -9.744419735341996
      ],
      [
        "▁apr",
        -7.877193718819188
      ],
      [
        "right",
        -7.391738418087057
      ],
      [
        "u",
        -5.2260390664233505
      ],
      [
        "▁memorize",
        -10.625426217963572
      ],
      [
        "▁california",
        -7.008845010886846
      ],
      [
        "▁cleric",
        -10.043649586500365
      ],
      [
        "▁compose",
        -9.919159873909146
      ],
      [
        "▁restriction",
        -8.76643443619235
      ],
      [
        "▁clas",
        -10.67734630783682
      ],
      [
        "▁basi",
        -8.188899600949135
      ],
      [
        "ine",
        -7.742409514085935
      ],
      [
        "connect",
        -9.581234694616457
      ],
      [
        "ast",
        -8.347550842574387
      ],
      [
        "▁ip",
        -10.483291272598823
      ],
      [
        "i",
        -4.785587726083073
      ],
      [
        "▁arrangement",
        -8.907001401053535
      ],
      [
        "▁conservation",
        -10.478578880379436
      ],
      [
        "▁rebel",
        -9.836346622265573
      ],
      [
        "fect",
        -7.810865185202943
      ],
      [
        "▁translat",
        -9.89342678835189
      ],
      [
        "ome",
        -6.109716119437731
      ],
      [
        "▁shopp",
        -9.16044125195079
      ],
      [
        "▁process",
        -6.938813962639682
      ],
      [
        "▁russia",
        -7.618708357732328
      ],
      [
        "`",
        -11.770631529841472
      ],
      [
        "▁ki",
        -10.185540561033674
      ],
      [
        "▁hol",
        -10.48713402676507
      ],
      [
        "▁russian",
        -9.932452700027449
      ],
      [
        "▁grave",
        -9.871797101247015
      ],
      [
        "icide",
        -8.703080915768616
      ],
      [
        "ific",
        -9.767916210158067
      ],
      [
        "▁deduct",
        -10.635057096251737
      ],
      [
        "▁slipp",
        -10.346942668688207
      ],
      [
        "▁accomplishment",
        -10.47808749882418
      ],
      [
        "▁departure",
        -9.163681157719159
      ],
      [
        "▁cart",
        -9.959941675902243
      ],
      [
        "▁social",
        -6.614955515202298
      ],
      [
        "▁driv",
        -7.581844739198957
      ],
      [
        "▁glu",
        -10.046870625064997
      ],
      [
        "ntl",
        -7.392382711792216
      ],
      [
        "▁star",
        -7.894601025618265
      ],
      [
        "!!!!!",
        -11.849555816551455
      ],
      [
        "▁phenomen",
        -9.509887503628377
      ],
      [
        "▁physician",
        -10.478154452017689
      ],
      [
        "▁ld2d-#693",
        -9.741439701413563
      ],
      [
        "▁univers",
        -9.740899664339523
      ],
      [
        "▁new",
        -5.576189449017814
      ],
      [
        "▁repair",
        -9.288645750649827
      ],
      [
        "▁update",
        -8.870628464351363
      ],
      [
        "ive",
        -7.661082023090707
      ],
      [
        "▁pack",
        -9.650815747369048
      ],
      [
        "▁best",
        -5.572959491080885
      ],
      [
        "z",
        -8.474407620128483
      ],
      [
        "▁meeting",
        -7.488381865290601
      ],
      [
        "▁dinner",
        -7.118450758887957
      ],
      [
        "4",
        -12.653795411026692
      ],
      [
        "life",
        -9.193767419368339
      ],
      [
        "▁church",
        -7.970711372483725
      ],
      [
        "o",
        -1.7235607545640583
      ],
      [
        "▁challenge",
        -9.903584821016157
      ],
      [
        "▁uh",
        -11.519265493247671
      ],
      [
        "▁k",
        -9.926628001815933
      ],
      [
        "rate",
        -7.566553718926961
      ],
      [
        "nt",
        -10.143321197620283
      ],
      [
        "▁conc",
        -9.91060146893159
      ],
      [
        "▁ignor",
        -10.005287557910993
      ],
      [
        "▁partners",
        -9.611980951620033
      ],
      [
        "▁construct",
        -9.750349557429862
      ],
      [
        "▁behavior",
        -8.411422188514766
      ],
      [
        "ure",
        -8.255194909491873
      ],
      [
        "h",
        -3.294768851479734
      ],
      [
        "▁suppose",
        -7.33864174470321
      ],
      [
        "▁routine",
        -9.932454830631652
      ],
      [
        "▁sigh",
        -10.151819997786745
      ],
      [
        "▁project",
        -7.2878303884677615
      ],
      [
        "▁fit",
        -9.475060036059057
      ],
      [
        "▁centre",
        -8.907629684436392
      ],
      [
        "r",
        -9.881310152285408
      ],
      [
        "▁give",
        -5.251596077870293
      ],
      [
        "▁increase",
        -7.819773319320149
      ],
      [
        "bru",
        -10.441868013413668
      ],
      [
        "▁string",
        -8.535430248507
      ],
      [
        "per",
        -9.673279734835035
      ],
      [
        "▁in",
        -4.970792382408093
      ],
      [
        "▁intercept",
        -10.172582784340584
      ],
      [
        "▁expectation",
        -8.870049474673214
      ],
      [
        "▁acupunctur",
        -10.168563666320765
      ],
      [
        "▁un",
        -8.04370420198805
      ],
      [
        "▁shin",
        -9.889384735954986
      ],
      [
        "▁dark",
        -6.90249271216322
      ],
      [
        "pri",
        -8.129701962065868
      ],
      [
        "▁bal",
        -10.702784049364046
      ],
      [
        "▁wait",
        -9.070115980847888
      ],
      [
        "ar",
        -7.490341792618619
      ],
      [
        "▁council",
        -8.411420583481057
      ],
      [
        "yo",
        -13.477506734468584
      ],
      [
        "▁coordinat",
        -9.212918356216173
      ],
      [
        "▁learn",
        -8.38360349004343
      ],
      [
        "▁implicate",
        -10.17540080547015
      ],
      [
        "▁fin",
        -7.1392103876176485
      ],
      [
        "▁dere",
        -10.651207635020583
      ],
      [
        "ble",
        -9.700296739853329
      ],
      [
        "▁weight",
        -8.562546749387387
      ],
      [
        "number",
        -10.633596839197054
      ],
      [
        "▁spend",
        -7.7954730793643
      ],
      [
        "▁orange",
        -9.027129301049666
      ],
      [
        "▁exclaim",
        -10.011733413715644
      ],
      [
        "▁evaluate",
        -9.962341700948702
      ],
      [
        "west",
        -10.449300959167823
      ],
      [
        "▁farrier",
        -9.741543518293792
      ],
      [
        "▁victim",
        -9.509858590049406
      ],
      [
        "heat",
        -10.909330257659867
      ],
      [
        "k",
        -4.9696005187939205
      ],
      [
        "▁bull",
        -9.54825568357116
      ],
      [
        "▁beer",
        -8.677945605712432
      ],
      [
        "▁lamp",
        -9.83446941057554
      ],
      [
        "▁div",
        -10.458756556570258
      ],
      [
        "r",
        -5.4322971977959815
      ],
      [
        "what",
        -6.695900981816435
      ],
      [
        "▁baker",
        -10.3417322646686
      ],
      [
        "▁ser",
        -7.635217641626142
      ],
      [
        "▁wish",
        -7.590511462557424
      ],
      [
        "▁saving",
        -9.932492984651448
      ],
      [
        "_",
        -4.773377875289404
      ],
      [
        "▁shock",
        -9.514968765894011
      ],
      [
        "▁influence",
        -9.142093804611847
      ],
      [
        "▁under",
        -8.799861585944255
      ],
      [
        "▁sure",
        -7.88818404366309
      ],
      [
        "▁contractor",
        -10.182672357837623
      ],
      [
        "▁distinguish",
        -9.556022176177768
      ],
      [
        "▁belt",
        -9.071581916342634
      ],
      [
        "^",
        -12.810278406305976
      ],
      [
        "▁master",
        -8.739507540510495
      ],
      [
        "▁wine",
        -7.942930389942608
      ],
      [
        "▁design",
        -8.26674546974375
      ],
      [
        "▁hum",
        -9.81671879836719
      ],
      [
        "▁chat",
        -10.271376407925741
      ],
      [
        "▁persistenc",
        -10.478288358326687
      ],
      [
        "▁earth",
        -8.06571974046967
      ],
      [
        "id",
        -8.378966879212326
      ],
      [
        "▁hasid",
        -9.83257034875128
      ],
      [
        "▁home",
        -7.733616494262922
      ],
      [
        "▁denote",
        -10.176412575760246
      ],
      [
        "assembl",
        -10.043718005911346
      ],
      [
        "▁judg",
        -10.071392158918407
      ],
      [
        "▁app",
        -9.580882903571307
      ],
      [
        "an",
        -7.782035909451696
      ],
      [
        "cept",
        -10.232266352600972
      ],
      [
        "▁crude",
        -10.168979826233445
      ],
      [
        "▁philosoph",
        -9.577400967818857
      ],
      [
        "▁jan",
        -7.905588765754274
      ],
      [
        "▁scientist",
        -8.83426959548079
      ],
      [
        "▁building",
        -7.874451831877339
      ],
      [
        "▁street",
        -7.817149434523229
      ],
      [
        "▁fasten",
        -10.375568191364788
      ],
      [
        "▁improv",
        -8.765723976381787
      ],
      [
        "▁bar",
        -8.014284079122856
      ],
      [
        "awah",
        -8.061104799145513
      ],
      [
        "▁shape",
        -8.559841931066671
      ],
      [
        "▁confirm",
        -10.16561532443104
      ],
      [
        "▁advantage",
        -8.76643629049993
      ],
      [
        "▁mo",
        -6.386859315429376
      ],
      [
        "▁god",
        -7.15099595577349
      ],
      [
        "▁figure",
        -8.200549725684937
      ],
      [
        "▁equal",
        -9.44085675564732
      ],
      [
        "he",
        -6.877013255523378
      ],
      [
        "▁accent",
        -10.47820402302978
      ],
      [
        "▁decide",
        -7.1256742126874455
      ],
      [
        "rive",
        -10.58760804836538
      ],
      [
        "▁dance",
        -8.737439926745441
      ],
      [
        "rself",
        -10.493759088762307
      ],
      [
        "▁==",
        -12.464802984085603
      ],
      [
        "▁cause",
        -8.098705274457785
      ],
      [
        "\"",
        -10.311420809169354
      ],
      [
        "▁ch",
        -10.895776834788457
      ],
      [
        "▁very",
        -4.371071920638461
      ],
      [
        "▁allow",
        -6.980942798830301
      ],
      [
        "▁experience",
        -7.033909671510695
      ],
      [
        "▁factor",
        -8.189929229033773
      ],
      [
        "▁generat",
        -9.327991634186706
      ],
      [
        "▁delay",
        -9.5812995236302
      ],
      [
        "iz",
        -10.151324904595711
      ],
      [
        "ist",
        -7.8261693679843445
      ],
      [
        ",000",
        -5.495299463876596
      ],
      [
        "▁convert",
        -8.916979657935837
      ],
      [
        "ept",
        -7.217695514232073
      ],
      [
        "▁van",
        -9.015063550461857
      ],
      [
        "▁murder",
        -8.668398467351855
      ],
      [
        "red",
        -7.0567063380842345
      ],
      [
        "ide",
        -10.675129494301862
      ],
      [
        "▁wa",
        -9.240034987883696
      ],
      [
        "m",
        -5.88316037159336
      ],
      [
        "▁new",
        -4.7645933626070915
      ],
      [
        "▁public",
        -9.211788094208714
      ],
      [
        "ustration",
        -10.478086452736964
      ],
      [
        "▁rot",
        -9.968061565417258
      ],
      [
        "▁stu",
        -7.8063665800430275
      ],
      [
        "x",
        -10.718458113282995
      ],
      [
        "▁swirl",
        -10.175406740353349
      ],
      [
        "▁ooz",
        -10.75961585141122
      ],
      [
        "▁government",
        -6.868570384077447
      ],
      [
        "▁commission",
        -7.432142297852769
      ],
      [
        "jection",
        -10.308628258884347
      ],
      [
        "▁lesson",
        -8.586864124707883
      ],
      [
        "▁fr",
        -10.375037312392115
      ],
      [
        "▁div",
        -10.721929211675489
      ],
      [
        "▁flood",
        -8.834921992737934
      ],
      [
        "vast",
        -7.990380720071707
      ],
      [
        "[UNK]",
        0.0
      ],
      [
        "an",
        -6.60307352696869
      ],
      [
        "▁accord",
        -9.380692354885856
      ],
      [
        "▁dig",
        -7.768620976451955
      ],
      [
        "▁wink",
        -9.892214193836713
      ],
      [
        "woul",
        -7.186489786394996
      ],
      [
        "▁evacuate",
        -9.702572845947564
      ],
      [
        "▁close",
        -7.11502240079139
      ],
      [
        "c",
        -5.879343646872438
      ],
      [
        "▁dream",
        -8.880148528208505
      ],
      [
        "▁confess",
        -10.375410754466792
      ],
      [
        "▁raid",
        -10.516207023691686
      ],
      [
        "▁purpose",
        -8.04903133060634
      ],
      [
        "▁put",
        -9.763840839421757
      ],
      [
        "▁...",
        -9.238424474979164
      ],
      [
        "▁hm",
        -10.342082230326207
      ],
      [
        "ri",
        -10.28672712333452
      ],
      [
        "the",
        -3.8465712775810488
      ],
      [
        "▁ap",
        -8.127609042448702
      ],
      [
        "▁cliff",
        -9.581291733219748
      ],
      [
        "▁lime",
        -9.94046785593176
      ],
      [
        "ask",
        -9.977614852147653
      ],
      [
        "d",
        -11.061985573933999
      ],
      [
        "noth",
        -9.805417396928096
      ],
      [
        "▁sl",
        -9.644130469898581
      ],
      [
        "or",
        -10.363557974779837
      ],
      [
        "▁culture",
        -7.7127541932162895
      ],
      [
        "▁puppet",
        -9.582397732649945
      ],
      [
        "▁mitch",
        -7.957420835656264
      ],
      [
        "▁hand",
        -6.509592599776984
      ],
      [
        "▁dismisse",
        -10.088871863079307
      ],
      [
        "am",
        -9.348096544946763
      ],
      [
        "ie",
        -8.034157973126504
      ],
      [
        "▁install",
        -8.573909449201338
      ],
      [
        "▁successor",
        -10.317970416651548
      ],
      [
        "▁wand",
        -9.739112632355404
      ],
      [
        "▁door",
        -7.005504543184424
      ],
      [
        "ther",
        -5.232010347024699
      ],
      [
        "▁contain",
        -7.666122745033119
      ],
      [
        "▁launch",
        -8.712884229565555
      ],
      [
        "▁mak",
        -6.4717039681631645
      ],
      [
        "▁win",
        -8.000208710302205
      ],
      [
        "ian",
        -6.0764278226503095
      ],
      [
        "▁purchas",
        -9.333087003983131
      ],
      [
        "utilize",
        -10.625463411992387
      ],
      [
        "▁paragraph",
        -9.743035595034065
      ],
      [
        "▁undergo",
        -10.378246383432204
      ],
      [
        "▁ag",
        -6.359684494857314
      ],
      [
        "▁not",
        -9.962454232860743
      ],
      [
        "▁magician",
        -10.168860345810465
      ],
      [
        "▁crea",
        -10.184132669760583
      ],
      [
        "ting",
        -8.98173346743335
      ],
      [
        "▁sort",
        -7.658959918849162
      ],
      [
        "▁ethic",
        -10.106411276763613
      ],
      [
        "▁interpret",
        -9.041564964558665
      ],
      [
        "▁sky",
        -8.050087141459299
      ],
      [
        "(",
        -4.690054248533107
      ],
      [
        "engin",
        -10.707346606063489
      ],
      [
        "due",
        -7.28851969435859
      ],
      [
        "▁weigh",
        -10.635314890418734
      ],
      [
        "side",
        -7.369361114905498
      ],
      [
        "ification",
        -9.79122310592978
      ],
      [
        "ive",
        -5.025022787645253
      ],
      [
        "▁fun",
        -7.0666474588122075
      ],
      [
        "▁stimulat",
        -10.175392293971926
      ],
      [
        "▁box",
        -7.3194868651679466
      ],
      [
        "▁mal",
        -10.318862991163943
      ],
      [
        "▁glo",
        -6.858729859080638
      ],
      [
        "▁designate",
        -9.748247220992132
      ],
      [
        "up",
        -8.61674309158935
      ],
      [
        "b",
        -10.475491467591679
      ],
      [
        "▁deploy",
        -9.293957825282968
      ],
      [
        "▁of",
        -5.372005060076645
      ],
      [
        "▁hos",
        -10.361831095360916
      ],
      [
        "▁grass",
        -8.898951847579433
      ],
      [
        "▁chick",
        -10.06294707112952
      ],
      [
        "tastic",
        -7.836222454254486
      ],
      [
        "▁merry",
        -10.31156201213561
      ],
      [
        "▁fr",
        -9.460009057332064
      ],
      [
        "▁address",
        -8.407754939967827
      ],
      [
        "▁country",
        -6.854178915912964
      ],
      [
        "median",
        -9.565374174195526
      ],
      [
        "▁bodi",
        -9.028249857395899
      ],
      [
        "▁qualif",
        -10.17539755100821
      ],
      [
        "▁so",
        -3.7744192074049634
      ],
      [
        "us",
        -8.503979686221008
      ],
      [
        "▁commitment",
        -9.027157918009188
      ],
      [
        "▁remove",
        -7.971838894142864
      ],
      [
        "▁article",
        -7.833984339081877
      ],
      [
        "▁opinion",
        -8.223376923876422
      ],
      [
        "▁cheek",
        -9.116271362969329
      ],
      [
        "▁tug",
        -9.843642176028455
      ],
      [
        "▁mist",
        -9.861637379016168
      ],
      [
        "ed",
        -4.3347423109077265
      ],
      [
        "elief",
        -9.043412723563407
      ],
      [
        "▁memor",
        -8.188032630016254
      ],
      [
        "▁offend",
        -9.745583010098876
      ],
      [
        "▁easie",
        -7.606695090531068
      ],
      [
        "▁warp",
        -10.632310877106509
      ],
      [
        "▁referr",
        -8.883806051214275
      ],
      [
        "nut",
        -10.288200556941751
      ],
      [
        "▁car",
        -9.983080030822263
      ],
      [
        "▁doubt",
        -9.444180129155395
      ],
      [
        "♥",
        -12.810278406305976
      ],
      [
        "?!?!",
        -12.176023693039138
      ],
      [
        "ital",
        -7.661153326631151
      ],
      [
        "▁signal",
        -9.969560408441588
      ],
      [
        "ar",
        -9.38103595699485
      ],
      [
        "▁ben",
        -7.650880592374428
      ],
      [
        "ger",
        -9.612068100403569
      ],
      [
        "▁lower",
        -7.7163377428889
      ],
      [
        "▁chapter",
        -8.945552049744197
      ],
      [
        "▁wow",
        -6.018175054576849
      ],
      [
        "‘",
        -9.32263420951717
      ],
      [
        "▁identifie",
        -8.504044139166487
      ],
      [
        "▁verifie",
        -10.375418645198057
      ],
      [
        "whi",
        -12.327535299766522
      ],
      [
        "▁handle",
        -9.730513205197303
      ],
      [
        "ext",
        -7.384595250247742
      ],
      [
        "▁inventory",
        -10.313991778002686
      ],
      [
        "▁quick",
        -7.724878777853267
      ],
      [
        "bye",
        -10.141625867656577
      ],
      [
        "niversa",
        -10.168567186398523
      ],
      [
        "▁hav",
        -4.47068279899715
      ],
      [
        "itter",
        -10.439997497554605
      ],
      [
        "▁individual",
        -8.507877770180214
      ],
      [
        "d",
        -5.9477191613994504
      ],
      [
        "▁collection",
        -8.643219116841273
      ],
      [
        "▁support",
        -7.791086554025293
      ],
      [
        "▁cabin",
        -9.509593653344709
      ],
      [
        "▁shine",
        -10.254725073612573
      ],
      [
        "ent",
        -5.270498460199944
      ],
      [
        "▁neglect",
        -10.625394981969581
      ],
      [
        "▁remark",
        -9.758327908940744
      ],
      [
        "l",
        -8.214727387657476
      ],
      [
        "▁plate",
        -8.43496596661509
      ],
      [
        "▁r",
        -8.142366563006792
      ],
      [
        "▁deficienc",
        -9.58144013002739
      ],
      [
        "n",
        -11.31025614719772
      ],
      [
        "▁determin",
        -10.216452930014658
      ],
      [
        "▁t",
        -9.633413585186847
      ],
      [
        "▁ap",
        -9.847267070324452
      ],
      [
        "what",
        -7.801290938444229
      ],
      [
        "work",
        -10.687594356335083
      ],
      [
        "▁result",
        -7.336087268751497
      ],
      [
        "▁old",
        -10.045073492676194
      ],
      [
        "▁town",
        -7.224350973830729
      ],
      [
        "▁du",
        -7.062173102212168
      ],
      [
        "▁beach",
        -7.958057162960993
      ],
      [
        "-------",
        -13.306664066647068
      ],
      [
        "▁pour",
        -8.070754748925946
      ],
      [
        "▁freez",
        -9.373485835187363
      ],
      [
        "▁good",
        -8.017658864517363
      ],
      [
        "▁insurgen",
        -10.462637252522907
      ],
      [
        "▁hearing",
        -8.870715649866485
      ],
      [
        "sense",
        -10.141242341294404
      ],
      [
        "▁agree",
        -7.253405628739583
      ],
      [
        "▁insult",
        -10.625399601414458
      ],
      [
        "▁twist",
        -9.583292033852802
      ],
      [
        "▁run",
        -8.754310433168932
      ],
      [
        "enni",
        -10.15123836426241
      ],
      [
        "▁tower",
        -10.177840692497565
      ],
      [
        "▁hoop",
        -10.4806175510995
      ],
      [
        "▁try",
        -9.676529281116963
      ],
      [
        "ball",
        -8.15703934011666
      ],
      [
        "▁where",
        -10.478087686671172
      ],
      [
        "▁vacation",
        -8.366490596681661
      ],
      [
        "▁bill",
        -8.221764581882343
      ],
      [
        "roid",
        -10.483979088458312
      ],
      [
        "were",
        -7.167827169458954
      ],
      [
        "▁guide",
        -10.114764973786704
      ],
      [
        "▁sew",
        -10.208832463836739
      ],
      [
        "▁appliance",
        -10.311420969370396
      ],
      [
        "▁action",
        -7.276562651268119
      ],
      [
        "▁sketch",
        -10.488527027119485
      ],
      [
        "▁regula",
        -7.559224744930404
      ],
      [
        "▁all",
        -7.233537423515028
      ],
      [
        "▁nu",
        -10.306235716829288
      ],
      [
        "▁eat",
        -5.6316209781590745
      ],
      [
        "▁din",
        -9.21899449290369
      ],
      [
        "▁wrap",
        -9.720742802928692
      ],
      [
        "▁scan",
        -9.737810668730376
      ],
      [
        "um",
        -7.820486637040139
      ],
      [
        "umb",
        -10.045515901669676
      ],
      [
        "▁sanct",
        -10.16858250512214
      ],
      [
        "▁too",
        -7.4501077058373815
      ],
      [
        "▁bear",
        -8.442463514443517
      ],
      [
        "▁as",
        -4.879682590360853
      ],
      [
        "▁talent",
        -9.321903166033806
      ],
      [
        "▁deposit",
        -10.026892857274389
      ],
      [
        "▁brother",
        -7.87355409852441
      ],
      [
        "▁cream",
        -8.560712164164297
      ],
      [
        "▁olive",
        -10.31142728294177
      ],
      [
        "abl",
        -5.607246216433183
      ],
      [
        "unch",
        -8.84368774892314
      ],
      [
        "▁approach",
        -8.366476981064372
      ],
      [
        "▁protein",
        -10.168627448724333
      ],
      [
        "▁actress",
        -9.932487953406788
      ],
      [
        "▁ver",
        -9.767975662790064
      ],
      [
        "▁charge",
        -8.439795741126993
      ],
      [
        "▁colon",
        -9.682707836136814
      ],
      [
        "▁dis",
        -7.68685599157579
      ],
      [
        "on",
        -7.624307359401638
      ],
      [
        "▁colleague",
        -8.869964055884736
      ],
      [
        "▁diversi",
        -9.008337697717035
      ],
      [
        "among",
        -10.114427603570839
      ],
      [
        "▁rome",
        -8.145149091002615
      ],
      [
        "▁taste",
        -9.029043658637281
      ],
      [
        "▁hum",
        -9.751480404110405
      ],
      [
        "▁harmonise",
        -10.379349057462107
      ],
      [
        "▁south",
        -7.86529325217453
      ],
      [
        "▁waiter",
        -9.447881189897544
      ],
      [
        "has",
        -9.01197718515896
      ],
      [
        "▁cur",
        -6.97220494149292
      ],
      [
        "▁occupie",
        -10.015946637038471
      ],
      [
        "▁o",
        -7.106158376632667
      ],
      [
        "▁sub",
        -9.632716355258115
      ],
      [
        "▁breed",
        -9.907383907682286
      ],
      [
        "▁economic",
        -6.772570457784908
      ],
      [
        "▁termin",
        -10.373965785831599
      ],
      [
        "put",
        -9.176596761033803
      ],
      [
        "▁idea",
        -6.909390822756107
      ],
      [
        "they",
        -7.005894765477496
      ],
      [
        "▁monk",
        -9.446746762332184
      ],
      [
        "load",
        -10.282152108928893
      ],
      [
        "▁sticker",
        -9.66527009618718
      ],
      [
        "▁interjection",
        -10.04367139393154
      ],
      [
        "▁researcher",
        -9.051331038280338
      ],
      [
        "▁gun",
        -8.205066631914168
      ],
      [
        "▁accumulate",
        -9.740560952098114
      ],
      [
        "▁remain",
        -7.1574462234480425
      ],
      [
        "▁k",
        -8.295278039849142
      ],
      [
        "▁d",
        -8.66826635577538
      ],
      [
        "▁chee",
        -9.654789632703462
      ],
      [
        "▁risk",
        -9.094089437034025
      ],
      [
        "▁battl",
        -10.789798519796987
      ],
      [
        "▁sun",
        -7.433204145044102
      ],
      [
        "▁mam",
        -8.545814601912113
      ],
      [
        "▁governor",
        -8.945652937520293
      ],
      [
        "operation",
        -8.706799928977901
      ],
      [
        "▁sudden",
        -7.477312000224121
      ],
      [
        "▁refer",
        -8.213241469647645
      ],
      [
        "▁justice",
        -9.27507449992458
      ],
      [
        "▁less",
        -7.67796879066546
      ],
      [
        "▁profit",
        -9.116079670211072
      ],
      [
        "▁swu",
        -9.65185353571191
      ],
      [
        "▁hr",
        -9.751769619127106
      ],
      [
        "▁dump",
        -10.311523922038784
      ],
      [
        "[MASK]",
        0.0
      ],
      [
        "▁pa",
        -8.970192519109458
      ],
      [
        "▁tha",
        -6.431820319444924
      ],
      [
        "ti",
        -5.501925538707063
      ],
      [
        "▁buy",
        -6.587746264825932
      ],
      [
        "▁hamster",
        -8.869993548205228
      ],
      [
        "▁neighbourhood",
        -10.478590480680744
      ],
      [
        "ciation",
        -9.737838724469096
      ],
      [
        "▁wrong",
        -6.889840448844239
      ],
      [
        "▁inter",
        -7.535341276052474
      ],
      [
        "▁report",
        -7.651983678207971
      ],
      [
        "▁lb",
        -9.93372615326336
      ],
      [
        "▁react",
        -9.643493041644607
      ],
      [
        "▁base",
        -6.930850999991949
      ],
      [
        "▁data",
        -6.689138637659899
      ],
      [
        "n",
        -7.287323552283678
      ],
      [
        "▁amaze",
        -9.86882489442777
      ],
      [
        "f",
        -7.674786905690743
      ],
      [
        "▁table",
        -7.1642691798383735
      ],
      [
        "ta",
        -6.746267748611715
      ],
      [
        "ending",
        -9.570660062539732
      ],
      [
        "lesh",
        -10.062543479869646
      ],
      [
        "▁21",
        -6.2793869892644345
      ],
      [
        "▁undo",
        -10.607936811956868
      ],
      [
        "▁combination",
        -9.266320671612789
      ],
      [
        "as",
        -7.194088110937001
      ],
      [
        "▁antiquit",
        -10.478122441557241
      ],
      [
        "▁tri",
        -8.25020254601136
      ],
      [
        "▁extradite",
        -10.625394309360583
      ],
      [
        "▁analyze",
        -9.71548030644654
      ],
      [
        "oo",
        -8.76452071634206
      ],
      [
        "ern",
        -6.849387477125366
      ],
      [
        "consider",
        -10.409560436766172
      ],
      [
        "▁prev",
        -7.890641534688376
      ],
      [
        "i",
        -1.9310834849042582
      ],
      [
        "pt",
        -9.482845693749681
      ],
      [
        "▁pres",
        -8.41671137336538
      ],
      [
        "▁scal",
        -8.805574737590948
      ],
      [
        "▁more",
        -4.831757204896697
      ],
      [
        "tuck",
        -8.669650365756599
      ],
      [
        "▁summ",
        -10.59033662189267
      ],
      [
        "▁mud",
        -9.453966435539229
      ],
      [
        "_",
        -4.900921085182438
      ],
      [
        "your",
        -7.282301018614933
      ],
      [
        "how",
        -9.991402506266777
      ],
      [
        "▁ma",
        -9.960001483257194
      ],
      [
        "▁addition",
        -8.2625463123709
      ],
      [
        "▁asyl",
        -9.443433050952798
      ],
      [
        "with",
        -8.456207651682766
      ],
      [
        "ia",
        -9.18199191567765
      ],
      [
        "hin",
        -10.355812176309545
      ],
      [
        "▁da",
        -10.35111731043217
      ],
      [
        "▁left",
        -9.832455015263756
      ],
      [
        "hi",
        -8.44253442741851
      ],
      [
        "▁programm",
        -10.323624527051015
      ],
      [
        "▁listen",
        -7.39626607878537
      ],
      [
        "thus",
        -7.27974176497364
      ],
      [
        "▁realist",
        -9.512115403760777
      ],
      [
        "▁endeavor",
        -10.043699483495995
      ],
      [
        "▁co",
        -7.156071974890524
      ],
      [
        "▁friend",
        -7.047660559707676
      ],
      [
        "▁$",
        -10.323774203408194
      ],
      [
        "am",
        -10.786224155375248
      ],
      [
        "rall",
        -8.499926252306789
      ],
      [
        "▁flirt",
        -9.63363385320415
      ],
      [
        "▁hugg",
        -10.408862894458316
      ],
      [
        "▁allow",
        -10.480739432048146
      ],
      [
        "▁un",
        -9.036505284817565
      ],
      [
        "will",
        -7.214694535384876
      ],
      [
        "t",
        -10.200270897839118
      ],
      [
        "▁shape",
        -9.294041601447184
      ],
      [
        "▁curve",
        -10.495058724617806
      ],
      [
        "▁induce",
        -10.80572455868166
      ],
      [
        "▁weekend",
        -8.002241147575685
      ],
      [
        "▁defendant",
        -10.311421603023902
      ],
      [
        "s",
        -3.6131603665375165
      ],
      [
        "▁plann",
        -9.27044020390293
      ],
      [
        "▁begu",
        -8.858236529005222
      ],
      [
        "▁discount",
        -9.658262393509371
      ],
      [
        "you",
        -5.734888952612069
      ],
      [
        "adelphi",
        -5.284187108245265
      ],
      [
        "▁pack",
        -8.142426691225264
      ],
      [
        "▁racket",
        -9.581509376659149
      ],
      [
        "▁provoke",
        -9.761884085525988
      ],
      [
        "east",
        -7.505967250504568
      ],
      [
        "are",
        -6.0074420158852755
      ],
      [
        "▁ma",
        -6.304844418931761
      ],
      [
        "▁salt",
        -6.81085564483486
      ],
      [
        "▁rip",
        -9.553219506168208
      ],
      [
        "▁attorney",
        -9.163681151991021
      ],
      [
        "▁commit",
        -9.261825638492802
      ],
      [
        "▁pant",
        -8.360173283303357
      ],
      [
        "▁fulfill",
        -9.642500085794326
      ],
      [
        "▁heav",
        -7.330969987208551
      ],
      [
        "▁str",
        -10.28308004920849
      ],
      [
        "▁associate",
        -8.574150142076096
      ],
      [
        "▁31",
        -6.916304381332294
      ],
      [
        "▁rider",
        -10.060167004541539
      ],
      [
        "orum",
        -9.839119914720376
      ],
      [
        "▁what",
        -4.999866406006407
      ],
      [
        "▁radio",
        -9.168300683045704
      ],
      [
        "lead",
        -10.849130457767265
      ],
      [
        "▁jar",
        -9.744411009660363
      ],
      [
        "▁abuse",
        -9.670066704243322
      ],
      [
        "▁stirr",
        -10.061708180234708
      ],
      [
        "▁reef",
        -10.043679167539183
      ],
      [
        "akes",
        -9.879685453590378
      ],
      [
        "▁compel",
        -10.341109751648144
      ],
      [
        "▁dangl",
        -10.375856842531736
      ],
      [
        "ll",
        -7.831638582495886
      ],
      [
        "▁license",
        -7.714373685688653
      ],
      [
        "▁teacher",
        -7.873619862410153
      ],
      [
        "tement",
        -9.38167277600336
      ],
      [
        "▁combat",
        -10.481519487588297
      ],
      [
        "▁drag",
        -9.756971879213626
      ],
      [
        "m",
        -3.421156060075173
      ],
      [
        "h",
        -4.366450591382844
      ],
      [
        "▁down",
        -7.538102355986319
      ],
      [
        "▁celebrit",
        -9.932452555332661
      ],
      [
        "▁description",
        -8.869975454486548
      ],
      [
        "▁record",
        -7.5373828275716885
      ],
      [
        "▁pat",
        -10.649402164164412
      ],
      [
        "▁dash",
        -10.195253487093881
      ],
      [
        "and",
        -5.689257157948817
      ],
      [
        "▁oath",
        -9.509859222559164
      ],
      [
        "▁employee",
        -8.411628908552277
      ],
      [
        "▁phil",
        -5.25202746557171
      ],
      [
        "▁lieutenant",
        -10.478087727834538
      ],
      [
        "alti",
        -7.54648076457047
      ],
      [
        "at",
        -6.784203456775904
      ],
      [
        "▁joe",
        -8.171958396323465
      ],
      [
        "▁cricket",
        -10.478087682774307
      ],
      [
        "▁hu",
        -7.4016449185572855
      ],
      [
        "n",
        -8.24848344398126
      ],
      [
        "▁convention",
        -9.443579037821992
      ],
      [
        "▁clown",
        -9.380694964829365
      ],
      [
        "des",
        -7.926597819145513
      ],
      [
        "y",
        -7.530712123467335
      ],
      [
        "▁majorit",
        -8.559984870598816
      ],
      [
        "▁fool",
        -10.009721697508247
      ],
      [
        "beside",
        -11.715294844028275
      ],
      [
        "▁republic",
        -10.168563666483402
      ],
      [
        "▁ruin",
        -9.93246944173528
      ],
      [
        "▁hers",
        -11.553708895953593
      ],
      [
        "▁got",
        -5.199521392430971
      ],
      [
        "▁facilitate",
        -9.255807223988535
      ],
      [
        "▁sometime",
        -6.090063230110807
      ],
      [
        "▁bron",
        -9.833236143357809
      ],
      [
        "▁lover",
        -9.757954892333617
      ],
      [
        "▁strap",
        -9.44319311194261
      ],
      [
        "ze",
        -7.030389614728964
      ],
      [
        "▁variation",
        -10.17180641548762
      ],
      [
        "▁nost",
        -10.318644460968027
      ],
      [
        "▁discr",
        -10.155730953658207
      ],
      [
        "▁initial",
        -9.744629739606761
      ],
      [
        "ded",
        -10.613798642570432
      ],
      [
        "▁method",
        -7.900562577200676
      ],
      [
        "▁sun",
        -7.973576176043491
      ],
      [
        "!!!!!!!!!!!!!",
        -12.159030662584136
      ],
      [
        "▁drill",
        -9.581296688198059
      ],
      [
        "▁paint",
        -8.410390060706064
      ],
      [
        "▁founder",
        -9.386964350643419
      ],
      [
        "▁shift",
        -10.175490223528428
      ],
      [
        "▁notic",
        -10.303038348871153
      ],
      [
        "▁nam",
        -9.606888969482533
      ],
      [
        "▁chat",
        -10.8744522336542
      ],
      [
        "▁thank",
        -6.668770870264375
      ],
      [
        "el",
        -7.022978776406453
      ],
      [
        "head",
        -7.109249811403601
      ],
      [
        "80",
        -9.709582900095205
      ],
      [
        "▁comparison",
        -9.070609536430396
      ],
      [
        "▁bas",
        -8.497951332467174
      ],
      [
        "▁guerrilla",
        -9.658210155236866
      ],
      [
        "▁mor",
        -5.345130170783909
      ],
      [
        "▁dress",
        -7.954474158369253
      ],
      [
        "▁trans",
        -8.808428148068545
      ],
      [
        "▁hol",
        -8.134813184387488
      ],
      [
        "▁searche",
        -10.83581030148908
      ],
      [
        "▁sq",
        -7.710816908113083
      ],
      [
        "▁nove",
        -8.799292864390944
      ],
      [
        "▁setup",
        -9.934394976607848
      ],
      [
        "am",
        -8.157852978723822
      ],
      [
        "once",
        -6.213434230210199
      ],
      [
        "▁provider",
        -9.832452576349251
      ],
      [
        "▁fift",
        -7.892158422901294
      ],
      [
        "▁incident",
        -9.741543517985093
      ],
      [
        "▁biographer",
        -10.311724200680686
      ],
      [
        "ught",
        -8.207422363822904
      ],
      [
        "▁trader",
        -9.219024373170907
      ],
      [
        "▁photographer",
        -9.67128213877443
      ],
      [
        "tieth",
        -7.971235901375047
      ],
      [
        "rel",
        -7.605816728882767
      ],
      [
        "▁null",
        -10.168588341146233
      ],
      [
        "ce",
        -7.335049452833814
      ],
      [
        "▁tiger",
        -8.58730968774196
      ],
      [
        "▁hm",
        -6.649910248341192
      ],
      [
        "aging",
        -9.831299807117691
      ],
      [
        "▁qui",
        -6.449378746013751
      ],
      [
        "▁office",
        -7.4078300031256905
      ],
      [
        "▁perceiv",
        -10.551918828734165
      ],
      [
        "▁propa",
        -9.663845459789218
      ],
      [
        "▁cheer",
        -9.936456910521928
      ],
      [
        "▁beep",
        -10.639950304872311
      ],
      [
        "loom",
        -9.95367131910094
      ],
      [
        "orch",
        -9.51294096921809
      ],
      [
        "ualit",
        -10.245694039945095
      ],
      [
        "al",
        -7.307359455517935
      ],
      [
        "found",
        -10.741834212598295
      ],
      [
        "▁cheape",
        -6.199647512997842
      ],
      [
        "▁whi",
        -7.838578414173483
      ],
      [
        "▁non",
        -8.674722093820106
      ],
      [
        "▁switch",
        -10.043581477569818
      ],
      [
        "▁psycholog",
        -9.3802825774339
      ],
      [
        "▁cab",
        -9.41143235755917
      ],
      [
        "x",
        -11.925660239071421
      ],
      [
        "ditio",
        -8.621133447474183
      ],
      [
        "▁college",
        -8.282215509969433
      ],
      [
        "▁doughnut",
        -8.907008295908097
      ],
      [
        "▁ok",
        -6.289238687970232
      ],
      [
        "▁surpris",
        -10.71640502089398
      ],
      [
        "▁bathroom",
        -8.22357400942353
      ],
      [
        "▁on",
        -2.700071180263146
      ],
      [
        "▁most",
        -5.67441530637149
      ],
      [
        "v",
        -5.575747967194121
      ],
      [
        "▁market",
        -7.2040971256635995
      ],
      [
        "▁",
        -3.252429650460364
      ],
      [
        "▁analys",
        -8.182585634385287
      ],
      [
        "▁writ",
        -7.110939147606393
      ],
      [
        "ling",
        -8.656944928295674
      ],
      [
        "▁william",
        -7.96503197080314
      ],
      [
        "▁undermin",
        -10.882330974817819
      ],
      [
        "here",
        -6.183649337266312
      ],
      [
        "▁differ",
        -9.364938636273932
      ],
      [
        "▁female",
        -8.945464546028534
      ],
      [
        "▁organization",
        -8.168134612909245
      ],
      [
        "▁’",
        -8.629992473727398
      ],
      [
        "▁dirt",
        -8.734179996412676
      ],
      [
        "▁scrub",
        -10.626748296323523
      ],
      [
        "▁secur",
        -10.280816398202107
      ],
      [
        "▁sector",
        -8.323551490256243
      ],
      [
        "get",
        -8.247055403809409
      ],
      [
        "ddle",
        -10.28097285386717
      ],
      [
        "▁dsl",
        -10.479692607224008
      ],
      [
        "▁europe",
        -6.774063021791246
      ],
      [
        "▁circu",
        -10.309364159709224
      ],
      [
        "opho",
        -10.490192829297413
      ],
      [
        "▁pursue",
        -9.515595600541936
      ],
      [
        "▁dismiss",
        -10.270601876005362
      ],
      [
        "▁none",
        -9.665637482849894
      ],
      [
        "▁relative",
        -7.900067868839787
      ],
      [
        "▁*",
        -9.783669856556786
      ],
      [
        "▁banana",
        -7.833921770675492
      ],
      [
        "▁fear",
        -8.483064322946014
      ],
      [
        "▁du",
        -9.8293129318129
      ],
      [
        "ut",
        -8.476736712929481
      ],
      [
        "▁recieve",
        -10.175399798595071
      ],
      [
        "▁word",
        -6.752929731499631
      ],
      [
        "▁ka",
        -8.121822124318559
      ],
      [
        "ridge",
        -10.136538398972466
      ],
      [
        "▁attempt",
        -8.223376858434541
      ],
      [
        "▁dictionar",
        -10.478101999684725
      ],
      [
        "ell",
        -7.337910525083231
      ],
      [
        "▁squirrel",
        -9.509858669317888
      ],
      [
        "speci",
        -6.568097799805629
      ],
      [
        ".",
        -9.207163296872874
      ],
      [
        "▁ascend",
        -10.62660061216999
      ],
      [
        "▁march",
        -7.22955551246396
      ],
      [
        "ox",
        -9.739793619725758
      ],
      [
        "▁dump",
        -9.74390541880001
      ],
      [
        "ll",
        -10.466913703496358
      ],
      [
        "▁investment",
        -8.799767030829369
      ],
      [
        "▁medi",
        -9.759319758737579
      ],
      [
        "▁submarine",
        -10.311431077907708
      ],
      [
        "tamus",
        -10.043597376167806
      ],
      [
        "▁sword",
        -9.833275008635052
      ],
      [
        "ly",
        -8.960168132771333
      ],
      [
        "▁dere",
        -9.164760849436197
      ],
      [
        "▁interact",
        -9.212624344128375
      ],
      [
        "▁reiterate",
        -10.625392658544403
      ],
      [
        "▁actor",
        -9.031482330291803
      ],
      [
        "▁introduce",
        -8.200117681523333
      ],
      [
        "▁apron",
        -10.478089526700685
      ],
      [
        "▁over",
        -8.272295625658716
      ],
      [
        "▁fire",
        -7.507365594329469
      ],
      [
        "t",
        -3.1149023117862136
      ],
      [
        "▁adult",
        -8.323474390737916
      ],
      [
        "n",
        -4.70149497304265
      ],
      [
        "▁current",
        -10.04559791359314
      ],
      [
        "▁nutri",
        -10.185098990768763
      ],
      [
        "▁disappear",
        -9.025395337929355
      ],
      [
        "▁winner",
        -10.478087528886702
      ],
      [
        "▁survive",
        -8.607826943963541
      ],
      [
        "▁seal",
        -9.65013339640241
      ],
      [
        "▁passenger",
        -9.163684977299738
      ],
      [
        "▁cost",
        -7.911166214463438
      ],
      [
        "▁shop",
        -7.725417539475279
      ],
      [
        "▁20",
        -4.844886168365915
      ],
      [
        "▁scientology",
        -7.680741655422038
      ],
      [
        "▁at",
        -5.040331045484084
      ],
      [
        "▁gem",
        -10.17043397538771
      ],
      [
        "▁i.e",
        -8.226114344461658
      ],
      [
        "▁brass",
        -9.858999046579305
      ],
      [
        "dden",
        -8.011444756232688
      ],
      [
        "▁sponsor",
        -9.633815477170808
      ],
      [
        "▁territor",
        -8.614639396018799
      ],
      [
        "b",
        -6.1504537306829885
      ],
      [
        "▁dare",
        -10.363942799762437
      ],
      [
        "▁climb",
        -10.478446798661686
      ],
      [
        "▁seller",
        -10.31442178719266
      ],
      [
        "ter",
        -8.43024249196058
      ],
      [
        "ight",
        -7.544412920616464
      ],
      [
        "▁sha",
        -13.234491823502221
      ],
      [
        "▁exceed",
        -9.538930479526707
      ],
      [
        "▁carry",
        -7.4452905083337955
      ],
      [
        "don",
        -10.84529255792158
      ],
      [
        "▁batter",
        -8.907787144003969
      ],
      [
        "de",
        -11.78353826269045
      ],
      [
        "▁re",
        -7.120764412549547
      ],
      [
        "▁drap",
        -10.660136035185975
      ],
      [
        "▁ship",
        -7.73364615622619
      ],
      [
        "▁sensor",
        -10.044169751712335
      ],
      [
        "dia",
        -7.541339966809506
      ],
      [
        "▁17",
        -5.757736140466072
      ],
      [
        "▁pit",
        -10.442092845652102
      ],
      [
        "▁under",
        -9.799071239036792
      ],
      [
        "▁terror",
        -8.751370703476866
      ],
      [
        "▁o",
        -8.441425137702664
      ],
      [
        "n",
        -1.763362936029182
      ],
      [
        "▁crashe",
        -10.491287712122011
      ],
      [
        "pos",
        -9.971496173792504
      ],
      [
        "▁port",
        -9.02812463210362
      ],
      [
        "▁displace",
        -10.182889128318747
      ],
      [
        "▁wrapp",
        -9.752387019018233
      ],
      [
        "▁shift",
        -9.381692674594017
      ],
      [
        "▁official",
        -7.866087547902182
      ],
      [
        "▁bulb",
        -8.946151700017957
      ],
      [
        "▁caus",
        -8.900027625784086
      ],
      [
        "▁tip",
        -8.907128063167825
      ],
      [
        "have",
        -7.69735828180918
      ],
      [
        "off",
        -9.985765931793292
      ],
      [
        "head",
        -9.000547648379314
      ],
      [
        "▁hideout",
        -10.31168966188705
      ],
      [
        "reach",
        -10.181496406513034
      ],
      [
        "find",
        -10.480563060966624
      ],
      [
        "▁etc",
        -7.771713491318611
      ],
      [
        "▁burrow",
        -10.37549242892569
      ],
      [
        "▁simple",
        -7.298001257945252
      ],
      [
        ")",
        -4.681454226988154
      ],
      [
        "is",
        -7.450562292556078
      ],
      [
        "▁wil",
        -7.499379054981187
      ],
      [
        "▁be",
        -5.041130330655385
      ],
      [
        "ade",
        -10.292959900391407
      ],
      [
        "▁miracle",
        -9.832454434981408
      ],
      [
        "▁ph",
        -9.547781519892112
      ],
      [
        "▁ori",
        -7.5403710771088726
      ],
      [
        "▁boost",
        -10.321621060955334
      ],
      [
        "▁_",
        -8.58743407694508
      ],
      [
        "▁heating",
        -10.228058095822545
      ],
      [
        "ence",
        -7.111666016923027
      ],
      [
        "▁reviewer",
        -10.381986077776578
      ],
      [
        "ar",
        -7.070180781046311
      ],
      [
        "▁seek",
        -7.794721868270505
      ],
      [
        "▁into",
        -10.290003604354235
      ],
      [
        "▁shot",
        -9.34252858618312
      ],
      [
        "gement",
        -9.861560595753975
      ],
      [
        "▁jim",
        -8.168886738754843
      ],
      [
        "▁drawing",
        -10.4907339143207
      ],
      [
        "roni",
        -9.322274523378773
      ],
      [
        "▁cool",
        -10.015080797584833
      ],
      [
        "▁negl",
        -10.069552675287053
      ],
      [
        "▁pro",
        -9.104142283623172
      ],
      [
        "▁brief",
        -10.043553652795932
      ],
      [
        "z",
        -6.815512705175175
      ],
      [
        "▁temple",
        -9.511484328764858
      ],
      [
        "▁bond",
        -9.833680285838108
      ],
      [
        "▁mm",
        -6.005830975174888
      ],
      [
        "▁balzac",
        -6.780069752695146
      ],
      [
        "▁reinforce",
        -10.457313139922562
      ],
      [
        "▁wail",
        -10.765240434870135
      ],
      [
        "▁division",
        -8.870559300329631
      ],
      [
        "ou",
        -10.30332967954138
      ],
      [
        "▁valid",
        -10.480382454422628
      ],
      [
        "▁mr",
        -7.896021837232597
      ],
      [
        "▁ya",
        -10.057489520944591
      ],
      [
        "–",
        -5.905733460450745
      ],
      [
        "1",
        -9.23224862620524
      ],
      [
        "▁environment",
        -7.914499551540969
      ],
      [
        "▁ja",
        -7.665119366539596
      ],
      [
        "ce",
        -10.725866369106255
      ],
      [
        "▁extend",
        -8.23777162680596
      ],
      [
        "▁tumbl",
        -10.401256496060585
      ],
      [
        "▁protest",
        -9.581629929458643
      ],
      [
        "▁arra",
        -10.478894085316526
      ],
      [
        "▁killer",
        -10.312875539424844
      ],
      [
        "▁reconcile",
        -10.741917937257249
      ],
      [
        "▁suggest",
        -7.269309469923409
      ],
      [
        "▁wiggle",
        -9.266315700927986
      ],
      [
        "▁implie",
        -10.237241191681681
      ],
      [
        "▁rabbit",
        -8.345872499879711
      ],
      [
        "▁opening",
        -9.326116643926756
      ],
      [
        "appoint",
        -9.820632183439097
      ],
      [
        "cus",
        -11.326278232084343
      ],
      [
        "▁descendant",
        -10.47808753333295
      ],
      [
        "▁puzzle",
        -9.027165540054115
      ],
      [
        "▁symptom",
        -10.168563690716525
      ],
      [
        "▁house",
        -7.553451116995818
      ],
      [
        "iri",
        -7.788725658436585
      ],
      [
        "▁hi",
        -10.461023264164472
      ],
      [
        "▁stem",
        -10.369968144482982
      ],
      [
        "x",
        -7.618871757219306
      ],
      [
        "▁charter",
        -10.375409591138226
      ],
      [
        "▁poke",
        -10.394302352299231
      ],
      [
        "/",
        -9.83239510227687
      ],
      [
        "▁bumble",
        -10.311415947889712
      ],
      [
        "▁time",
        -4.98158519087726
      ],
      [
        "▁evaluation",
        -9.322757544985295
      ],
      [
        "▁bo",
        -9.568410116840111
      ],
      [
        "▁count",
        -7.582183729913579
      ],
      [
        "▁rid",
        -8.692506648163228
      ],
      [
        "▁vein",
        -10.16858979214927
      ],
      [
        "▁eth",
        -10.14558148663036
      ],
      [
        "▁scrambl",
        -10.842858263543656
      ],
      [
        "▁few",
        -5.7598031210673275
      ],
      [
        "air",
        -9.863738752138108
      ],
      [
        ".",
        -7.2020258206513015
      ],
      [
        "▁not",
        -10.349744735545281
      ],
      [
        "▁podcast",
        -10.478090394158311
      ],
      [
        "'",
        -6.595685338835672
      ],
      [
        "▁freak",
        -10.375444862958414
      ],
      [
        "▁warning",
        -9.322523548590858
      ],
      [
        "day",
        -6.084199428082167
      ],
      [
        "▁shed",
        -9.745958814894008
      ],
      [
        "▁unite",
        -7.293944788822664
      ],
      [
        "▁remember",
        -6.274852527604202
      ],
      [
        "▁h",
        -8.916932938285054
      ],
      [
        "ex",
        -7.917704102461412
      ],
      [
        "..............",
        -14.171066924010521
      ],
      [
        "▁he",
        -10.616994790772573
      ],
      [
        "▁bucket",
        -9.164000623366793
      ],
      [
        "▁submitt",
        -9.234876957290208
      ],
      [
        "▁francisco",
        -4.794485198345533
      ],
      [
        "▁",
        -2.7000107461934846
      ],
      [
        "▁kind",
        -6.261891426841048
      ],
      [
        "▁monday",
        -7.281936033518591
      ],
      [
        "▁share",
        -7.958676915142011
      ],
      [
        "soft",
        -8.13557542886307
      ],
      [
        "▁sa",
        -6.480620694170948
      ],
      [
        "zation",
        -9.944864449616674
      ],
      [
        "▁drie",
        -10.430648335217086
      ],
      [
        "es",
        -6.876952332114524
      ],
      [
        "me",
        -6.250742814045079
      ],
      [
        "▁union",
        -8.908275366873951
      ],
      [
        "▁therap",
        -9.92280910702701
      ],
      [
        "▁up",
        -8.434320352477048
      ],
      [
        "_",
        -5.537490390474223
      ],
      [
        "in",
        -8.805021255135136
      ],
      [
        "▁e",
        -7.922500136761248
      ],
      [
        "▁abs",
        -10.114077342451068
      ],
      [
        "▁call",
        -7.336245523868773
      ],
      [
        "▁yo",
        -9.375395264527263
      ],
      [
        "▁spec",
        -9.443583354643758
      ],
      [
        "l",
        -4.943432235573655
      ],
      [
        "▁compete",
        -9.235698832012206
      ],
      [
        "g",
        -6.242241902986692
      ],
      [
        "▁fre",
        -8.015331486317137
      ],
      [
        "▁194",
        -7.162299874896345
      ],
      [
        "▁preced",
        -10.375574931547945
      ],
      [
        "▁slope",
        -9.933116222401297
      ],
      [
        "▁mis",
        -8.939237127720832
      ],
      [
        "▁se",
        -8.094494879163094
      ],
      [
        "▁opposit",
        -9.963977092705838
      ],
      [
        "ness",
        -6.805274908989379
      ],
      [
        "▁th",
        -5.467207919803627
      ],
      [
        "ney",
        -7.546892535134333
      ],
      [
        "▁general",
        -6.982809582124102
      ],
      [
        "▁crossing",
        -10.05621808064415
      ],
      [
        "nd",
        -12.030856372203957
      ],
      [
        "▁price",
        -6.661603480920328
      ],
      [
        "▁rack",
        -10.317762365568012
      ],
      [
        "ice",
        -10.841405937824199
      ],
      [
        "kind",
        -10.142108149495071
      ],
      [
        "▁deliver",
        -8.049358438413172
      ],
      [
        "▁..........",
        -12.830818015419348
      ],
      [
        "▁enabl",
        -9.943027857813297
      ],
      [
        "▁exclud",
        -10.546510139173403
      ],
      [
        "▁american",
        -9.582515551504875
      ],
      [
        "▁kay",
        -8.009556103339953
      ],
      [
        "▁know",
        -4.428565868834826
      ],
      [
        "▁late",
        -6.267339765221746
      ],
      [
        "▁bad",
        -7.974493665338207
      ],
      [
        "▁obligation",
        -9.658210133607785
      ],
      [
        "▁wh",
        -8.504649692519411
      ],
      [
        "▁whil",
        -4.621993292267832
      ],
      [
        "▁cool",
        -7.446992243631039
      ],
      [
        "▁da",
        -9.772392388497229
      ],
      [
        "der",
        -10.23364092298107
      ],
      [
        "▁realize",
        -8.060523133677941
      ],
      [
        "▁carrot",
        -9.213758261629874
      ],
      [
        "▁scratch",
        -9.74455481198046
      ],
      [
        "▁mommy",
        -5.367563605588856
      ],
      [
        "c",
        -4.327503421637194
      ],
      [
        "▁form",
        -8.023580180085943
      ],
      [
        "▁guard",
        -10.186341535648904
      ],
      [
        "lil",
        -9.67376765380428
      ],
      [
        "▁lake",
        -6.699554826889792
      ],
      [
        "▁pile",
        -9.385885532474276
      ],
      [
        "▁consideration",
        -9.321868335003948
      ],
      [
        "rine",
        -10.110239055159578
      ],
      [
        "▁updat",
        -10.536455177965196
      ],
      [
        "▁witness",
        -9.833534972258853
      ],
      [
        "▁sonnet",
        -9.443496170470588
      ],
      [
        "▁f",
        -8.485186623721773
      ],
      [
        "▁bump",
        -9.283223577838324
      ],
      [
        "▁light",
        -8.022024747016536
      ],
      [
        "▁failure",
        -8.734179726654295
      ],
      [
        "▁google",
        -7.536487541908186
      ],
      [
        "▁gas",
        -7.808122263779814
      ],
      [
        "▁distribute",
        -8.56609744035245
      ],
      [
        "▁pause",
        -9.903888257283462
      ],
      [
        "lin",
        -8.183711367389444
      ],
      [
        "▁def",
        -10.515031584064438
      ],
      [
        "er",
        -6.115462792319052
      ],
      [
        "amon",
        -9.8340379517021
      ],
      [
        "a",
        -3.0361378326562036
      ],
      [
        "▁gua",
        -9.828745001554733
      ],
      [
        "▁fed",
        -7.631178086646779
      ],
      [
        "▁fellow",
        -8.985462957017655
      ],
      [
        "te",
        -7.071888424677395
      ],
      [
        "adam",
        -8.856317998175134
      ],
      [
        "▁knowledge",
        -8.065157473511176
      ],
      [
        "rface",
        -8.38471935055882
      ],
      [
        "▁shark",
        -8.734237118671734
      ],
      [
        "▁definition",
        -8.907632766027852
      ],
      [
        "▁speci",
        -8.748119767152941
      ],
      [
        "ha",
        -10.934007455383558
      ],
      [
        "▁bend",
        -10.581775695953139
      ],
      [
        "▁rinse",
        -9.443591173236342
      ],
      [
        "▁mumm",
        -8.263391583249586
      ],
      [
        "▁jewel",
        -10.479048470875803
      ],
      [
        "▁check",
        -7.097397547130876
      ],
      [
        "▁son",
        -7.85973837239382
      ],
      [
        ".p",
        -9.785991924742376
      ],
      [
        "uh",
        -13.441672283788352
      ],
      [
        "▁subject",
        -7.942869766021845
      ],
      [
        "▁seat",
        -10.18696325285451
      ],
      [
        "▁threshold",
        -10.168563762229855
      ],
      [
        "f",
        -8.590723168736831
      ],
      [
        "er",
        -7.534039384376678
      ],
      [
        "▁hire",
        -8.685795281176249
      ],
      [
        "think",
        -9.762177751474606
      ],
      [
        "▁purs",
        -10.038471390260524
      ],
      [
        "c",
        -11.810278406305967
      ],
      [
        "own",
        -10.469407204092027
      ],
      [
        "▁lik",
        -9.853819912027465
      ],
      [
        "▁simpl",
        -6.887166233920471
      ],
      [
        "▁discusse",
        -9.424436303222725
      ],
      [
        "▁ensure",
        -7.629783506026658
      ],
      [
        "▁programme",
        -7.912663589678015
      ],
      [
        "▁traveler",
        -9.222107119129506
      ],
      [
        "▁region",
        -7.735685477927088
      ],
      [
        "▁production",
        -8.598263217227466
      ],
      [
        "▁\"",
        -8.960736102532653
      ],
      [
        "tter",
        -5.970593096106856
      ],
      [
        "▁buyer",
        -10.170525317354862
      ],
      [
        "▁request",
        -8.03316034610802
      ],
      [
        "▁lemon",
        -9.321876442471432
      ],
      [
        "▁tomato",
        -9.116074948136232
      ],
      [
        "▁toast",
        -9.869140594904499
      ],
      [
        "▁head",
        -8.28152344114799
      ],
      [
        "bers",
        -9.995682861617386
      ],
      [
        "oft",
        -8.189491322782377
      ],
      [
        "▁motorcycle",
        -9.74207944448204
      ],
      [
        "▁originat",
        -10.206301387202275
      ],
      [
        "▁sub",
        -8.85200178045656
      ],
      [
        "pan",
        -10.406344969847657
      ],
      [
        "▁hover",
        -10.37642554524435
      ],
      [
        "▁speak",
        -7.239835423288421
      ],
      [
        "▁st",
        -7.41836189483927
      ],
      [
        "▁involvement",
        -9.443191815891064
      ],
      [
        "▁oct",
        -7.1764947533015455
      ],
      [
        "ye",
        -6.953245541864099
      ],
      [
        "grit",
        -9.680295578975322
      ],
      [
        "▁embarrass",
        -10.661128233817251
      ],
      [
        "▁sim",
        -7.319585519843614
      ],
      [
        "▁strong",
        -6.705735057937477
      ],
      [
        "▁smell",
        -9.02713459295668
      ],
      [
        "s",
        -10.83641398548844
      ],
      [
        "▁el",
        -6.533844654885006
      ],
      [
        "▁out",
        -4.814863351036432
      ],
      [
        "▁m",
        -7.008065295960894
      ],
      [
        "▁publisher",
        -10.16944571848499
      ],
      [
        "▁uphold",
        -10.644607613795992
      ],
      [
        "▁el",
        -10.044991722288888
      ],
      [
        "▁potential",
        -9.070608812100978
      ],
      [
        "utter",
        -10.677340986049728
      ],
      [
        "nver",
        -5.980010193668576
      ],
      [
        "▁mass",
        -7.8773078730712704
      ],
      [
        "▁22",
        -10.47824000813807
      ],
      [
        "ted",
        -6.377831684507669
      ],
      [
        "rican",
        -6.621653965549827
      ],
      [
        "ion",
        -6.243341648383394
      ],
      [
        "▁mic",
        -10.1472245002664
      ],
      [
        "▁teas",
        -10.466909815684023
      ],
      [
        "ha",
        -9.035947903990635
      ],
      [
        "▁another",
        -5.70473121673835
      ],
      [
        "ul",
        -10.976443136227793
      ],
      [
        "nati",
        -8.134814157986906
      ],
      [
        "9",
        -4.443752773287558
      ],
      [
        "▁end",
        -6.739883479636791
      ],
      [
        "▁sustain",
        -9.360408394516764
      ],
      [
        "▁return",
        -7.873398513639633
      ],
      [
        "▁gon",
        -5.350338757148288
      ],
      [
        "▁float",
        -8.688947204043847
      ],
      [
        "umn",
        -9.938407425915774
      ],
      [
        "▁op",
        -10.154614855546859
      ],
      [
        "▁strike",
        -9.657676681140334
      ],
      [
        "▁label",
        -9.832977830237745
      ],
      [
        "▁depth",
        -9.741571441746204
      ],
      [
        "▁pink",
        -9.625003130865922
      ],
      [
        "enti",
        -7.448158532075223
      ],
      [
        "▁wednesday",
        -7.591862185534497
      ],
      [
        "▁attract",
        -8.538253893795229
      ],
      [
        "▁no",
        -3.1231490279289718
      ],
      [
        "ounce",
        -10.561102899163927
      ],
      [
        "cour",
        -7.539159453764969
      ],
      [
        "a",
        -3.420525871703079
      ],
      [
        "▁directive",
        -8.049027921285177
      ],
      [
        "▁surf",
        -9.977914815598213
      ],
      [
        "▁matter",
        -8.916816432592363
      ],
      [
        "▁hop",
        -8.4796290412475
      ],
      [
        "▁height",
        -9.380717963105575
      ],
      [
        "▁fri",
        -10.080089720829372
      ],
      [
        "&",
        -10.471256780148597
      ],
      [
        "▁quot",
        -9.740734059097017
      ],
      [
        "e",
        -6.537752415107043
      ],
      [
        "g",
        -7.307917268225807
      ],
      [
        "▁vulnerabilit",
        -10.478087476518771
      ],
      [
        "▁safe",
        -8.08182703994634
      ],
      [
        "▁183",
        -7.019067651698266
      ],
      [
        "▁spirit",
        -8.83432866325812
      ],
      [
        "▁,",
        -8.528595320707595
      ],
      [
        "▁d",
        -8.724840587039013
      ],
      [
        "▁day",
        -5.4961141046960105
      ],
      [
        "▁mixe",
        -9.18631769402687
      ],
      [
        "▁interview",
        -8.977517289680325
      ],
      [
        "▁white",
        -6.200269289236962
      ],
      [
        "▁fr",
        -8.162880290259556
      ],
      [
        "▁coun",
        -8.182471114272303
      ],
      [
        "▁shelter",
        -10.169435882920412
      ],
      [
        "▁supporter",
        -9.344505160986092
      ],
      [
        "▁reccom",
        -10.73015484257228
      ],
      [
        "▁priorit",
        -8.657516435318431
      ],
      [
        "▁studio",
        -9.448040244582966
      ],
      [
        "ground",
        -10.014613661477267
      ],
      [
        "▁dirt",
        -7.284134994020468
      ],
      [
        "▁til",
        -10.08890471521851
      ],
      [
        "▁off",
        -9.035770746731274
      ],
      [
        "▁illustrate",
        -9.71719364621959
      ],
      [
        "▁roar",
        -9.933530930260302
      ],
      [
        "▁gu",
        -9.38505074272378
      ],
      [
        "▁expert",
        -8.132424852551353
      ],
      [
        "▁list",
        -7.060985367089183
      ],
      [
        "▁mont",
        -7.067933171742557
      ],
      [
        "▁voice",
        -7.584180805654168
      ],
      [
        "▁cottage",
        -10.311427901475009
      ],
      [
        "gon",
        -9.842355029236307
      ],
      [
        "▁analyst",
        -8.772549779058426
      ],
      [
        "▁argu",
        -9.357744420874603
      ],
      [
        "▁invoic",
        -10.625396699451397
      ],
      [
        "+",
        -10.834960006133095
      ],
      [
        "i",
        -11.770631529841472
      ],
      [
        "▁dal",
        -5.240750079898974
      ],
      [
        "▁plott",
        -10.635998005245568
      ],
      [
        "▁step",
        -8.465616940251993
      ],
      [
        "de",
        -9.88178093873111
      ],
      [
        "▁ac",
        -7.677514205205262
      ],
      [
        "shed",
        -9.252416951702074
      ],
      [
        "▁barbe",
        -10.287511451416286
      ],
      [
        "i",
        -2.905259875845031
      ],
      [
        "▁popula",
        -9.905192374713415
      ],
      [
        "▁slave",
        -9.323722979969912
      ],
      [
        "p",
        -12.303800120175861
      ],
      [
        "▁tell",
        -5.587525770223458
      ],
      [
        "16",
        -7.239998889600365
      ],
      [
        "▁controll",
        -9.936234030398749
      ],
      [
        "▁limb",
        -9.26887499946334
      ],
      [
        "▁cancer",
        -9.932494080542895
      ],
      [
        "▁broaden",
        -10.625417970608337
      ],
      [
        "▁manage",
        -8.279946590380614
      ],
      [
        "▁duck",
        -8.313772746865784
      ],
      [
        "b",
        -4.989213884672491
      ],
      [
        "▁propp",
        -10.377576722035313
      ],
      [
        "▁le",
        -6.641113467851519
      ],
      [
        "y",
        -4.796594636724667
      ],
      [
        "▁percent",
        -8.22269294742781
      ],
      [
        "▁lunch",
        -7.544618814984326
      ],
      [
        "▁conven",
        -7.88587878792263
      ],
      [
        "▁coupon",
        -9.581900057908916
      ],
      [
        "▁dial",
        -10.243113735931363
      ],
      [
        "ng",
        -8.371015105561044
      ],
      [
        "u",
        -3.4498478262533245
      ],
      [
        "i",
        -2.7294335593499106
      ],
      [
        "▁oops",
        -10.478096675441096
      ],
      [
        "▁show",
        -4.68195076631695
      ],
      [
        "▁congratulation",
        -9.832454922592422
      ],
      [
        "▁cran",
        -10.284948769392964
      ],
      [
        "▁sur",
        -10.049899580078112
      ],
      [
        "▁artwork",
        -9.116738628827703
      ],
      [
        "▁spokes",
        -9.581358810417829
      ],
      [
        "▁fight",
        -8.505620009204055
      ],
      [
        "▁amount",
        -10.626090496969313
      ],
      [
        "some",
        -9.94653509347779
      ],
      [
        "ava",
        -7.576824252234127
      ],
      [
        "cut",
        -10.581990512418894
      ],
      [
        "▁lamb",
        -9.741996464353111
      ],
      [
        ".........",
        -12.385442840267194
      ],
      [
        ".",
        -4.295143567899552
      ],
      [
        "▁easi",
        -7.509591222627236
      ],
      [
        "▁effect",
        -7.584209163523786
      ],
      [
        "▁speculat",
        -10.200711806280005
      ],
      [
        "▁cotton",
        -10.311430222833653
      ],
      [
        "▁vietnam",
        -8.143258097114451
      ],
      [
        "▁urs",
        -7.9913189776565074
      ],
      [
        "f",
        -6.725442176541105
      ],
      [
        "flow",
        -10.448959186711233
      ],
      [
        "▁secure",
        -9.59335314794649
      ],
      [
        "imbu",
        -10.377921179753463
      ],
      [
        "▁screw",
        -9.283484327322988
      ],
      [
        "▁balloon",
        -8.323562937923008
      ],
      [
        "ize",
        -10.360224280629454
      ],
      [
        "▁twenty",
        -4.856647518973699
      ],
      [
        "▁pray",
        -9.63887414862454
      ],
      [
        "▁mall",
        -10.313986456134485
      ],
      [
        "▁manipulate",
        -10.548907462218708
      ],
      [
        "astic",
        -9.837285358681076
      ],
      [
        "▁eggs",
        -7.97041581139856
      ],
      [
        "▁bag",
        -7.377551392854941
      ],
      [
        "▁detail",
        -10.626634897885598
      ],
      [
        "▁myceli",
        -9.658212709959948
      ],
      [
        "=---",
        -11.804144771854496
      ],
      [
        "▁summer",
        -7.615243754945281
      ],
      [
        "▁wet",
        -7.755055511800116
      ],
      [
        "▁mari",
        -7.8722909442460125
      ],
      [
        "▁educate",
        -9.404391758100541
      ],
      [
        "un",
        -10.766918713986763
      ],
      [
        "▁rul",
        -10.879382387373575
      ],
      [
        "er",
        -5.2157715594066945
      ],
      [
        "▁play+grou",
        -9.83281281665303
      ],
      [
        "▁children",
        -6.99475166268508
      ],
      [
        "ous",
        -4.87272141173675
      ],
      [
        "▁civili",
        -9.932402671658725
      ],
      [
        "ease",
        -10.416977819735344
      ],
      [
        "▁virus",
        -9.66184854545813
      ],
      [
        "▁cyclone",
        -9.581294308624113
      ],
      [
        "▁diaper",
        -8.834255157020062
      ],
      [
        "as",
        -7.54452203721696
      ],
      [
        "▁rent",
        -8.812025043454252
      ],
      [
        "p",
        -6.261203873790647
      ],
      [
        "▁ho",
        -7.724711078792276
      ],
      [
        "▁subscribe",
        -9.560372511793238
      ],
      [
        "s",
        -3.9323488869734184
      ],
      [
        "▁jun",
        -8.017949734447207
      ],
      [
        "▁risk",
        -8.168106090388743
      ],
      [
        "▁sprout",
        -10.168581367357515
      ],
      [
        "ration",
        -10.314800856946226
      ],
      [
        "▁pound",
        -10.644021485669615
      ],
      [
        "▁celebrate",
        -10.189970557977702
      ],
      [
        "▁prospe",
        -9.932678585545709
      ],
      [
        "▁cough",
        -10.377202847459262
      ],
      [
        "▁to",
        -9.83250932789927
      ],
      [
        "▁rubb",
        -8.643654335528929
      ],
      [
        "▁smell",
        -8.186978174367109
      ],
      [
        "▁includ",
        -6.833177670588736
      ],
      [
        "▁kid",
        -7.17027627458666
      ],
      [
        "▁mos",
        -6.7054045308103385
      ],
      [
        "▁complain",
        -9.025065023844638
      ],
      [
        "▁complete",
        -7.888096531461802
      ],
      [
        "▁heat",
        -8.163568203107523
      ],
      [
        "▁broadcast",
        -10.011721082281243
      ],
      [
        "▁organisation",
        -9.743140507542506
      ],
      [
        "▁suspect",
        -8.610884333859165
      ],
      [
        "pl",
        -6.972522733030324
      ],
      [
        "▁dung",
        -10.481849695570881
      ],
      [
        "ge",
        -7.976918852020568
      ],
      [
        "▁season",
        -8.305495437384932
      ],
      [
        "ka",
        -7.112857256237039
      ],
      [
        "et",
        -7.922763757749793
      ],
      [
        "equalit",
        -9.936023995758362
      ],
      [
        "▁greet",
        -9.4499122373485
      ],
      [
        "▁confident",
        -7.905161831773092
      ],
      [
        "face",
        -10.243692146314638
      ],
      [
        "▁player",
        -8.270889518805806
      ],
      [
        "▁lol",
        -7.00934076015975
      ],
      [
        "▁d",
        -9.912457131010228
      ],
      [
        "lause",
        -10.31071099659057
      ],
      [
        "▁sp",
        -9.924592366094707
      ],
      [
        "▁zealand",
        -8.108845984925889
      ],
      [
        "▁specializ",
        -10.453495390656661
      ],
      [
        "um",
        -6.370038527405926
      ],
      [
        "▁ca",
        -13.872570526381192
      ],
      [
        "▁allocate",
        -9.462375263949822
      ],
      [
        "fence",
        -10.314587342183268
      ],
      [
        "▁pas",
        -7.821620048628746
      ],
      [
        "▁hik",
        -9.740819368342198
      ],
      [
        "▁160",
        -6.969867604915079
      ],
      [
        "▁plast",
        -9.267309464189333
      ],
      [
        "▁fade",
        -10.342587340894681
      ],
      [
        "▁permission",
        -9.581468536653155
      ],
      [
        "▁provision",
        -8.411447343535297
      ],
      [
        "▁pakistan",
        -7.46688233963457
      ],
      [
        "]",
        -6.107285657565928
      ],
      [
        "▁teach",
        -8.290834019702363
      ],
      [
        "▁paper",
        -6.757763913029968
      ],
      [
        "▁cut",
        -8.574936436532107
      ],
      [
        "▁injur",
        -8.907001186153192
      ],
      [
        "▁swallow",
        -9.360870468050315
      ],
      [
        "ka",
        -8.165546039779688
      ],
      [
        "▁leg",
        -7.457808857624026
      ],
      [
        "▁rock",
        -8.976187670267317
      ],
      [
        "▁constitution",
        -9.321868286477239
      ],
      [
        "▁snow",
        -10.181697362301412
      ],
      [
        "▁legislature",
        -9.658827205395198
      ],
      [
        "▁chicken",
        -7.426321841681207
      ],
      [
        "viation",
        -9.932510014133378
      ],
      [
        "▁visa",
        -8.559981129862402
      ],
      [
        "in",
        -11.810314756811064
      ],
      [
        "▁recipe",
        -9.933968986885533
      ],
      [
        "▁int",
        -10.265843692874194
      ],
      [
        "▁rate",
        -7.476788166550513
      ],
      [
        "▁invest",
        -8.92347630255485
      ],
      [
        "▁death",
        -7.296616783481505
      ],
      [
        "▁pinch",
        -10.008739371249327
      ],
      [
        "tual",
        -7.506818670346741
      ],
      [
        "▁twa",
        -7.598795238109675
      ],
      [
        "▁assemble",
        -9.973458931274552
      ],
      [
        "▁examin",
        -9.377013372104653
      ],
      [
        "▁burst",
        -9.360641045467792
      ],
      [
        "timo",
        -7.1690941923606735
      ],
      [
        "▁b",
        -5.988397352287272
      ],
      [
        "▁devote",
        -9.360415018845844
      ],
      [
        "▁produc",
        -9.460620216478585
      ],
      [
        "s",
        -2.358705181573896
      ],
      [
        "▁straw",
        -10.478079936981086
      ],
      [
        "si",
        -9.786432995739618
      ],
      [
        "her",
        -6.563763909055745
      ],
      [
        "u",
        -5.9829718967998025
      ],
      [
        "▁jurisdiction",
        -10.043563670953969
      ],
      [
        "▁own",
        -8.023250615119258
      ],
      [
        "▁nightmare",
        -10.168566008552348
      ],
      [
        "hav",
        -10.876058165513456
      ],
      [
        "▁oh",
        -3.2899133699130756
      ],
      [
        "▁ou",
        -13.72222893131199
      ],
      [
        "uch",
        -7.227515523436938
      ],
      [
        "l",
        -6.758199687090753
      ],
      [
        "▁doubt",
        -8.869964094868962
      ],
      [
        "▁bird",
        -7.347206656012191
      ],
      [
        "line",
        -10.53283153023056
      ],
      [
        "!!!!!!!!!!",
        -11.368032386117479
      ],
      [
        "▁mort",
        -10.324005744088998
      ],
      [
        "rd",
        -9.892193946220097
      ],
      [
        "▁franc",
        -7.644516973376023
      ],
      [
        "▁sai",
        -5.08691055481988
      ],
      [
        "▁sense",
        -7.750445178819784
      ],
      [
        "▁safe",
        -7.253644350897146
      ],
      [
        "▁pop",
        -9.75309946043662
      ],
      [
        "▁join",
        -7.607559899605136
      ],
      [
        "▁tapp",
        -10.63256093317306
      ],
      [
        "▁flame",
        -10.170222440554689
      ],
      [
        "▁t",
        -7.491726534268921
      ],
      [
        "▁guid",
        -10.266932113027929
      ],
      [
        "▁---",
        -13.632274009623934
      ],
      [
        "▁v",
        -10.549009922820545
      ],
      [
        "z",
        -9.606113698618241
      ],
      [
        "▁discourag",
        -9.869337980415718
      ],
      [
        "▁saturday",
        -7.459641993461222
      ],
      [
        "ed",
        -7.188259246079664
      ],
      [
        "▁incorporate",
        -8.867489578700768
      ],
      [
        "nd",
        -9.236601350363305
      ],
      [
        "▁books",
        -8.136321539696524
      ],
      [
        "▁on",
        -5.373374977856899
      ],
      [
        "q",
        -9.800444346575166
      ],
      [
        "▁fund",
        -7.776618826048621
      ],
      [
        "fication",
        -9.840161230200213
      ],
      [
        "▁vlog",
        -10.008831551294959
      ],
      [
        "ville",
        -7.023596430003555
      ],
      [
        "fu",
        -10.14736929247318
      ],
      [
        "alize",
        -10.492262414875944
      ],
      [
        "▁activit",
        -7.555303408704813
      ],
      [
        "ge",
        -9.169286609857878
      ],
      [
        "canada",
        -7.758072633861156
      ],
      [
        "▁swing",
        -8.734704912712491
      ],
      [
        "irs",
        -8.046365465834679
      ],
      [
        "▁describe",
        -7.5151118278972
      ],
      [
        "w",
        -6.1509534707865186
      ],
      [
        "ail",
        -9.681458968930226
      ],
      [
        "▁beater",
        -10.047727496751518
      ],
      [
        "▁chiro",
        -10.311530316617965
      ],
      [
        "rage",
        -10.6948458117451
      ],
      [
        "▁jacket",
        -9.322037823777965
      ],
      [
        "pay",
        -10.470710486429562
      ],
      [
        "▁contra",
        -10.118034632343129
      ],
      [
        "w",
        -10.925660239071423
      ],
      [
        "▁wrongdo",
        -10.47809787307616
      ],
      [
        "▁pick",
        -6.856487804306816
      ],
      [
        "▁clari",
        -10.176021471547495
      ],
      [
        "▁shadow",
        -9.213681156485315
      ],
      [
        "▁10",
        -4.650404494469818
      ],
      [
        "▁reason",
        -7.118549382585387
      ],
      [
        "abilit",
        -8.39627629970846
      ],
      [
        "kes",
        -10.4760092558589
      ],
      [
        "▁dece",
        -9.79675394817215
      ],
      [
        "▁militar",
        -8.616647243330661
      ],
      [
        "h",
        -5.561550694199752
      ],
      [
        "an",
        -5.83024036355754
      ],
      [
        "▁uni",
        -10.165232253253762
      ],
      [
        "▁adviser",
        -9.93566695343804
      ],
      [
        "▁anticipate",
        -9.646716422950211
      ],
      [
        "▁a",
        -9.937741353218946
      ],
      [
        "▁am",
        -6.683444699392388
      ],
      [
        "ll",
        -7.494378486819104
      ],
      [
        "▁margin",
        -10.31142118966952
      ],
      [
        "▁horizon",
        -10.3114232865109
      ],
      [
        "▁prefect",
        -10.0435880456469
      ],
      [
        "▁out",
        -8.692340457552184
      ],
      [
        "hav",
        -7.464751966707239
      ],
      [
        "▁hug",
        -9.963666376457335
      ],
      [
        "▁spit",
        -10.4085289097874
      ],
      [
        "h",
        -4.449069131649334
      ],
      [
        "▁haircut",
        -9.581289596362732
      ],
      [
        "▁transfer",
        -10.150796866426345
      ],
      [
        "▁wi",
        -9.007041050919739
      ],
      [
        "come",
        -8.677123893348814
      ],
      [
        "eum",
        -10.045198922414407
      ],
      [
        "u",
        -7.835037406927654
      ],
      [
        "89",
        -6.868746681939223
      ],
      [
        "▁’",
        -9.7081408527352
      ],
      [
        "▁mark",
        -7.62793461480522
      ],
      [
        "▁commi",
        -10.663312500887008
      ],
      [
        "▁passion",
        -9.444606110571193
      ],
      [
        "▁combat",
        -10.376987570466618
      ],
      [
        "▁mixture",
        -9.510120288823135
      ],
      [
        "▁mention",
        -7.452521818109263
      ],
      [
        "▁as",
        -5.1827083301970625
      ],
      [
        "d",
        -7.736282935630404
      ],
      [
        "a",
        -4.198425366036542
      ],
      [
        "e",
        -3.866122931705929
      ],
      [
        "▁derivative",
        -10.31142080913969
      ],
      [
        "▁read",
        -6.595874326993178
      ],
      [
        "land",
        -6.085513073209679
      ],
      [
        "▁resign",
        -10.376995868524608
      ],
      [
        "▁kick",
        -10.168671274603355
      ],
      [
        "▁destin",
        -9.7388020517743
      ],
      [
        "lotte",
        -7.052632884894786
      ],
      [
        "▁sail",
        -9.895932390701546
      ],
      [
        "▁limitation",
        -9.382477643333257
      ],
      [
        "▁bike",
        -8.262543062164786
      ],
      [
        "▁open",
        -6.700602120712368
      ],
      [
        "bilit",
        -9.898765232465216
      ],
      [
        "▁pudd",
        -9.93357335644222
      ],
      [
        "▁thrive",
        -10.389457050288394
      ],
      [
        "▁spawn",
        -9.869151390240038
      ],
      [
        "▁becom",
        -9.051990026645438
      ],
      [
        "▁cook",
        -9.087263499668673
      ],
      [
        "▁for",
        -9.70761309128889
      ],
      [
        "▁sympath",
        -10.311492772229197
      ],
      [
        "▁exp",
        -7.39001825248521
      ],
      [
        "blic",
        -8.00168901332922
      ],
      [
        "▁angle",
        -9.664900863863325
      ],
      [
        "▁wednesday",
        -6.660745701170919
      ],
      [
        "▁milita",
        -6.883185739735111
      ],
      [
        "li",
        -10.192801140520984
      ],
      [
        "▁fool",
        -10.311550203466702
      ],
      [
        "pi",
        -8.620780129111484
      ],
      [
        "▁retreat",
        -10.176327441615475
      ],
      [
        "▁refus",
        -9.153500385357804
      ],
      [
        "▁detect",
        -9.868983059034266
      ],
      [
        "▁airline",
        -6.979276874725095
      ],
      [
        "▁blow",
        -7.619058735936671
      ],
      [
        "▁sunn",
        -7.90078657461334
      ],
      [
        "▁emp",
        -10.05941077058684
      ],
      [
        "▁tow",
        -8.942235356026941
      ],
      [
        "▁pressur",
        -10.226033921580116
      ],
      [
        "▁creature",
        -9.832738928701954
      ],
      [
        "store",
        -9.358133051782206
      ],
      [
        "▁crowd",
        -8.907076151184802
      ],
      [
        "ition",
        -9.17139553766637
      ],
      [
        "▁sailor",
        -10.31317181131885
      ],
      [
        "list",
        -10.044231971094337
      ],
      [
        "▁locat",
        -10.014799854193837
      ],
      [
        "at",
        -8.964835354007597
      ],
      [
        "glass",
        -10.44842646850902
      ],
      [
        "▁move",
        -8.744981265391734
      ],
      [
        "▁i",
        -7.3522163225142325
      ],
      [
        "▁runner",
        -10.046794757482028
      ],
      [
        "▁acc",
        -10.05782766143417
      ],
      [
        "▁beat",
        -8.139941333584396
      ],
      [
        "▁city",
        -5.756938874150921
      ],
      [
        "tee",
        -10.425568805716138
      ],
      [
        "eld",
        -7.914850407949597
      ],
      [
        "▁slipper",
        -9.932598562571425
      ],
      [
        "th",
        -10.632252390293505
      ],
      [
        "▁shipp",
        -10.282713962292442
      ],
      [
        "▁recognis",
        -10.917359795499921
      ],
      [
        "▁tasting",
        -10.311586175875668
      ],
      [
        "▁experiment",
        -9.744843305436728
      ],
      [
        "▁honey",
        -7.772873581494038
      ],
      [
        "▁difference",
        -7.554805897182178
      ],
      [
        "▁hu",
        -5.3112184277948105
      ],
      [
        "▁presen",
        -9.643365730704947
      ],
      [
        "▁far",
        -5.853635313577881
      ],
      [
        "til",
        -11.286878612999539
      ],
      [
        "p",
        -12.707635305583393
      ],
      [
        "▁accurac",
        -10.168564600261526
      ],
      [
        "▁banjo",
        -9.658210149527775
      ],
      [
        "hos",
        -7.461527069413851
      ],
      [
        "▁lie",
        -8.265551593608722
      ],
      [
        "▁surviv",
        -10.024275122411353
      ],
      [
        "▁revive",
        -10.175674667114494
      ],
      [
        "bye",
        -10.073461457925822
      ],
      [
        "tu",
        -10.257452071108853
      ],
      [
        "▁husband",
        -8.262540490269071
      ],
      [
        "▁loud",
        -7.8529762343329175
      ],
      [
        "▁route",
        -8.734975074165328
      ],
      [
        "▁20",
        -9.946908807816204
      ],
      [
        "▁viol",
        -9.067995786898532
      ],
      [
        "▁celebrat",
        -9.860386935280754
      ],
      [
        "d",
        -4.022794636205144
      ],
      [
        "▁sill",
        -7.937500207333644
      ],
      [
        "▁advertis",
        -9.5677593335884
      ],
      [
        "yo",
        -12.726913103948087
      ],
      [
        "▁historian",
        -10.479737026864797
      ],
      [
        "▁giraffe",
        -9.658210477706687
      ],
      [
        "▁waiver",
        -9.658246616052157
      ],
      [
        "▁filter",
        -8.167849118307888
      ],
      [
        "▁weekday",
        -9.565279948104976
      ],
      [
        "▁male",
        -8.770454009161357
      ],
      [
        "thin",
        -5.708700200719424
      ],
      [
        "depend",
        -7.598902156567278
      ],
      [
        "▁me",
        -10.002102740585855
      ],
      [
        "▁define",
        -8.349527247807606
      ],
      [
        "▁happ",
        -9.583390344128642
      ],
      [
        "▁auto",
        -9.583190003502573
      ],
      [
        "▁sausage",
        -10.478146019963807
      ],
      [
        "▁rocket",
        -9.323574942336874
      ],
      [
        "▁rot",
        -10.005690328548056
      ],
      [
        "ault",
        -9.716054188117003
      ],
      [
        "force",
        -9.627659653326434
      ],
      [
        "▁che",
        -8.119427954971313
      ],
      [
        "ur",
        -11.938972523959853
      ],
      [
        "▁mask",
        -9.381199401819691
      ],
      [
        "▁seal",
        -9.795116074734663
      ],
      [
        "▁hoo",
        -9.584353781544689
      ],
      [
        "▁business",
        -6.811308235330164
      ],
      [
        "▁***",
        -11.706988063870577
      ],
      [
        "nature",
        -8.14568725348191
      ],
      [
        "▁tickle",
        -8.881831433664225
      ],
      [
        "l",
        -12.810278406305953
      ],
      [
        "s4",
        -10.033185388967071
      ],
      [
        "▁question",
        -8.819725000861384
      ],
      [
        "bo",
        -6.774893251226908
      ],
      [
        "k",
        -12.28153641900687
      ],
      [
        "▁giggl",
        -10.625437159669492
      ],
      [
        "▁mosquito",
        -8.985462637806355
      ],
      [
        "▁chrom",
        -10.314840205154717
      ],
      [
        "▁batte",
        -10.931811951172309
      ],
      [
        "▁dispatch",
        -10.625392605441588
      ],
      [
        "▁maker",
        -10.180037371166542
      ],
      [
        "▁spen",
        -7.6826953899568675
      ],
      [
        "▁sh",
        -10.403440650539777
      ],
      [
        "ish",
        -6.666207458055393
      ],
      [
        "▁amend",
        -8.819811047905272
      ],
      [
        "town",
        -7.545741056568113
      ],
      [
        "▁rumor",
        -10.479611079678604
      ],
      [
        "▁towe",
        -9.689024425197355
      ],
      [
        "▁recogniz",
        -10.609386640142517
      ],
      [
        "righte",
        -10.626475623508256
      ],
      [
        "at",
        -7.7064296815769735
      ],
      [
        "▁pilot",
        -8.766443807350171
      ],
      [
        "▁compensate",
        -9.885234912673681
      ],
      [
        "ffici",
        -8.176448879623912
      ],
      [
        "rush",
        -9.873162301776812
      ],
      [
        ";",
        -10.425660239071421
      ],
      [
        "▁ease",
        -10.641214988886755
      ],
      [
        "▁23",
        -6.469438607548392
      ],
      [
        "▁skull",
        -10.47808748123636
      ],
      [
        "▁censor",
        -10.375392531818095
      ],
      [
        "▁unit",
        -7.415342760985423
      ],
      [
        "rass",
        -10.312365914441548
      ],
      [
        "h",
        -8.179398798278543
      ],
      [
        "▁exci",
        -10.207904513609122
      ],
      [
        "▁near",
        -6.854433502134984
      ],
      [
        "▁euro",
        -8.586864866477008
      ],
      [
        "▁norm",
        -9.879664357441793
      ],
      [
        "▁claim",
        -7.677906900628578
      ],
      [
        "▁pattern",
        -8.985604146473836
      ],
      [
        "▁spoil",
        -10.626059361372155
      ],
      [
        "dden",
        -9.234145617308972
      ],
      [
        "▁post",
        -8.320156272051111
      ],
      [
        "▁plen",
        -8.587393598103404
      ],
      [
        "▁trade",
        -8.260253851077355
      ],
      [
        "▁temper",
        -9.744117432810489
      ],
      [
        "▁may",
        -6.779272039943928
      ],
      [
        "emur",
        -10.160589290341289
      ],
      [
        "ma",
        -9.512744794518076
      ],
      [
        "▁like",
        -7.631115953989891
      ],
      [
        "▁intervention",
        -9.321982871887034
      ],
      [
        "▁doin",
        -9.639391062832008
      ],
      [
        "▁will",
        -7.750242860318302
      ],
      [
        "▁arena",
        -10.31142155077861
      ],
      [
        "▁bounce",
        -9.943856651212327
      ],
      [
        "▁explanation",
        -9.027129298081528
      ],
      [
        "▁aim",
        -8.734736249555842
      ],
      [
        "▁funeral",
        -9.321873583252497
      ],
      [
        "ac",
        -9.935112132033298
      ],
      [
        "▁loan",
        -8.38884666563509
      ],
      [
        "▁mar",
        -9.241948177397722
      ],
      [
        "▁de",
        -6.58338535255037
      ],
      [
        "▁bi",
        -10.199353731952979
      ],
      [
        "▁continu",
        -9.162919533482437
      ],
      [
        "▁up",
        -5.004285843445531
      ],
      [
        "p",
        -7.867165043582137
      ],
      [
        "▁chok",
        -10.378483746621189
      ],
      [
        "talk",
        -10.479824262373105
      ],
      [
        "▁abandon",
        -9.212464557526882
      ],
      [
        "▁knee",
        -8.834272720424853
      ],
      [
        "so",
        -7.2618511862300625
      ],
      [
        "▁trail",
        -9.067491831167949
      ],
      [
        "port",
        -6.55451838609997
      ],
      [
        "▁math",
        -9.95128211160247
      ],
      [
        "▁block",
        -10.009711536990975
      ],
      [
        "courage",
        -10.04988582663659
      ],
      [
        "▁wave",
        -10.412437368408792
      ],
      [
        "▁embrace",
        -10.264772971790354
      ],
      [
        "▁right",
        -6.763271303150441
      ],
      [
        "▁united",
        -6.496158587472316
      ],
      [
        "▁cup",
        -7.4982916794948755
      ],
      [
        "▁f",
        -6.831058922367424
      ],
      [
        "se",
        -9.378030818966653
      ],
      [
        "▁ever",
        -12.15183873490786
      ],
      [
        "▁chairman",
        -9.838018392246942
      ],
      [
        "ank",
        -8.738675237881283
      ],
      [
        "ari",
        -7.98798715829944
      ],
      [
        "▁autofilter",
        -10.478087475862782
      ],
      [
        "▁consumer",
        -8.871518677355962
      ],
      [
        "▁identit",
        -8.99791111559167
      ],
      [
        "▁gar",
        -10.35553946113496
      ],
      [
        "▁wai",
        -10.238905340473138
      ],
      [
        "▁dad",
        -6.918955971671499
      ],
      [
        "ssor",
        -9.727224045170534
      ],
      [
        "tte",
        -9.767979789513088
      ],
      [
        "fte",
        -7.907968627874423
      ],
      [
        "▁fort",
        -10.314988974047635
      ],
      [
        "sday",
        -7.693954248750166
      ],
      [
        "lord",
        -9.658161502549822
      ],
      [
        "▁long",
        -5.9475030239275535
      ],
      [
        "▁ga",
        -9.703023709009663
      ],
      [
        "▁slow",
        -8.013294368004054
      ],
      [
        "e",
        -3.9603116073113096
      ],
      [
        "ine",
        -8.268677438682754
      ],
      [
        "▁name",
        -7.643043092503144
      ],
      [
        "j",
        -11.770631529841472
      ],
      [
        "▁parakeet",
        -9.509858504798443
      ],
      [
        "▁side",
        -6.997650488674012
      ],
      [
        "▁flexibilit",
        -10.043621901085356
      ],
      [
        "▁",
        -1.4771507384749105
      ],
      [
        "▁cann",
        -10.482179903702589
      ],
      [
        "▁concern",
        -8.185990702299588
      ],
      [
        "tai",
        -7.878179963352184
      ],
      [
        "made",
        -10.120059527937938
      ],
      [
        "politic",
        -6.515086073278683
      ],
      [
        "er",
        -8.073934204086363
      ],
      [
        "▁appeal",
        -10.043571273036294
      ],
      [
        "mail",
        -10.018613989556655
      ],
      [
        "▁distort",
        -9.744560324802746
      ],
      [
        "▁relieve",
        -10.626238651115123
      ],
      [
        "in",
        -12.605786362287859
      ],
      [
        "ing",
        -6.686521379897417
      ],
      [
        "us",
        -7.413537036870654
      ],
      [
        "▁fai",
        -9.057290752734982
      ],
      [
        "▁representative",
        -9.027129298129587
      ],
      [
        "▁print",
        -8.35564676076114
      ],
      [
        "▁persuade",
        -9.869802920021936
      ],
      [
        "▁",
        -1.6256745059821878
      ],
      [
        "▁talk",
        -8.24180906705117
      ],
      [
        "▁phone",
        -10.678461662260656
      ],
      [
        "▁weapon",
        -8.018213450539964
      ],
      [
        "herself",
        -11.976348576430322
      ],
      [
        "▁schedul",
        -10.321479502451563
      ],
      [
        "▁inci",
        -9.933896917910623
      ],
      [
        "▁decid",
        -9.515190966093694
      ],
      [
        "du",
        -9.905751175123552
      ],
      [
        "▁forbidd",
        -10.224083047320606
      ],
      [
        "▁receiv",
        -8.281500766022912
      ],
      [
        "▁location",
        -7.773718556684057
      ],
      [
        "whil",
        -8.721459407085504
      ],
      [
        "where",
        -6.01525835379799
      ],
      [
        "▁comple",
        -10.478516861685176
      ],
      [
        "▁sixt",
        -7.576990953156584
      ],
      [
        "▁dot",
        -9.83764503921782
      ],
      [
        "▁o",
        -7.903254943525869
      ],
      [
        "▁our",
        -5.4680531288304906
      ],
      [
        "▁alt.animals.",
        -9.461739619033317
      ],
      [
        "heat",
        -9.995519392134037
      ],
      [
        "▁store",
        -7.040243950574474
      ],
      [
        "2",
        -11.770631529841472
      ],
      [
        "▁mai",
        -10.002158802364843
      ],
      [
        "▁be",
        -8.629999154604349
      ],
      [
        "▁tap",
        -10.854487862826728
      ],
      [
        "▁gain",
        -9.581684816428659
      ],
      [
        "d",
        -7.194719984116379
      ],
      [
        "▁jam",
        -10.179894580085405
      ],
      [
        "▁exten",
        -8.90690127485394
      ],
      [
        "▁shoot",
        -8.514553830619484
      ],
      [
        "▁trend",
        -9.266345340291124
      ],
      [
        "▁limit",
        -9.82967094781233
      ],
      [
        "▁london",
        -7.009817472340361
      ],
      [
        "▁peel",
        -10.044962425610539
      ],
      [
        "t",
        -2.4878868855370033
      ],
      [
        "▁debate",
        -8.614659408874804
      ],
      [
        "▁deem",
        -9.891283968357795
      ],
      [
        "▁quack",
        -10.043923585595316
      ],
      [
        "▁plant",
        -8.843420525445511
      ],
      [
        "▁hop",
        -9.152285245745427
      ],
      [
        "f",
        -7.065378831211644
      ],
      [
        "▁anyw",
        -8.205410913995946
      ],
      [
        "▁sap",
        -10.317405900592187
      ],
      [
        "▁onion",
        -9.5827381725271
      ],
      [
        "▁window",
        -7.479591438148771
      ],
      [
        "▁struggl",
        -9.521311690635905
      ],
      [
        "▁topic",
        -8.908781578987215
      ],
      [
        "▁preserve",
        -8.929681157232357
      ],
      [
        "▁poop",
        -9.622106969472634
      ],
      [
        "▁regard",
        -7.5181281910160465
      ],
      [
        "▁joy",
        -10.327234075088032
      ],
      [
        "f",
        -7.281137016091158
      ],
      [
        "▁loss",
        -8.539264040988089
      ],
      [
        "▁experience",
        -8.330738398453974
      ],
      [
        "right",
        -7.817217271791335
      ],
      [
        "▁john",
        -6.479427457483174
      ],
      [
        "▁use",
        -5.376712606513006
      ],
      [
        "cient",
        -7.904563397838828
      ],
      [
        "▁result",
        -7.909088133194663
      ],
      [
        "▁yard",
        -8.95860979526217
      ],
      [
        "▁perfume",
        -10.311420841685297
      ],
      [
        "ere",
        -7.974650756801024
      ],
      [
        "▁mind",
        -8.62897434810612
      ],
      [
        "▁captain",
        -9.658210194679997
      ],
      [
        "onl",
        -8.282522629199118
      ],
      [
        "▁pixie",
        -10.311461646873685
      ],
      [
        "▁love",
        -6.439965781634038
      ],
      [
        "▁low",
        -7.220900580056894
      ],
      [
        "▁revision",
        -9.512960534952708
      ],
      [
        "▁d",
        -5.958236798378178
      ],
      [
        "▁urg",
        -10.520385126965376
      ],
      [
        "ful",
        -5.211743761945356
      ],
      [
        "▁dislike",
        -10.478087604011655
      ],
      [
        "▁acknowledg",
        -10.550659359353405
      ],
      [
        "e.",
        -8.556974590187012
      ],
      [
        "mental",
        -7.3214688820599845
      ],
      [
        "▁with",
        -4.952485445949646
      ],
      [
        "l",
        -7.778878820001796
      ],
      [
        "▁wing",
        -9.293537652079326
      ],
      [
        "couple",
        -10.374732676089252
      ],
      [
        "▁execut",
        -7.998498319688814
      ],
      [
        "▁detective",
        -9.581298280709063
      ],
      [
        "▁equivalen",
        -10.307618145156844
      ],
      [
        "▁squa",
        -9.5435728886995
      ],
      [
        "rew",
        -8.562748343629996
      ],
      [
        "▁minute",
        -6.792852625067997
      ],
      [
        "▁clapp",
        -10.632978223635515
      ],
      [
        "▁red",
        -9.089446497095636
      ],
      [
        "re",
        -8.421918623493923
      ],
      [
        "▁original",
        -10.300377251867003
      ],
      [
        "▁produce",
        -7.63749091094875
      ],
      [
        "yard",
        -9.719979891817832
      ],
      [
        "▁harm",
        -10.104750414319254
      ],
      [
        "low",
        -8.699569245665831
      ],
      [
        "▁born",
        -7.289834566583593
      ],
      [
        "▁p.m",
        -9.444053481572773
      ],
      [
        "mission",
        -9.553870806294977
      ],
      [
        "▁obey",
        -10.625427026840482
      ],
      [
        "er",
        -9.907306203482207
      ],
      [
        "▁thr",
        -4.171737371864407
      ],
      [
        "x",
        -12.039036616560042
      ],
      [
        "ez",
        -8.048959315307378
      ],
      [
        "▁cage",
        -8.066549412761571
      ],
      [
        "igator",
        -9.015777670614
      ],
      [
        "▁meaning",
        -8.400218153223122
      ],
      [
        "▁press",
        -8.667822292624694
      ],
      [
        "▁think",
        -9.117919803422632
      ],
      [
        "▁alr",
        -8.353446800509932
      ],
      [
        "▁aris",
        -9.957506700012306
      ],
      [
        "...............",
        -11.214670331718136
      ],
      [
        "▁friends",
        -7.103210661668003
      ],
      [
        "▁content",
        -8.082770500695014
      ],
      [
        "▁toast",
        -7.9286132822649495
      ],
      [
        "esthetic",
        -9.936452719367965
      ],
      [
        "bit",
        -10.395113566442864
      ],
      [
        "▁trick",
        -9.380840004516738
      ],
      [
        "▁old",
        -5.586906487994287
      ],
      [
        "▁conviction",
        -9.65893321571946
      ],
      [
        "▁supplier",
        -10.484664742745837
      ],
      [
        "▁bell",
        -8.590022486048687
      ],
      [
        "on",
        -10.14240032102932
      ],
      [
        "▁milk",
        -10.625895806374423
      ],
      [
        "▁iran",
        -6.877564225648696
      ],
      [
        "10",
        -6.928772068030854
      ],
      [
        "▁services",
        -8.200410089249285
      ],
      [
        "▁ears",
        -8.7060368331814
      ],
      [
        "▁improvement",
        -8.834250511043917
      ],
      [
        "thi",
        -6.886019402075818
      ],
      [
        "▁zip",
        -10.478191853760901
      ],
      [
        "▁date",
        -9.442067739645164
      ],
      [
        "▁transport",
        -6.551204268895229
      ],
      [
        "▁connection",
        -7.61466503604316
      ],
      [
        "▁refund",
        -9.9324577638119
      ],
      [
        "<",
        -7.228670777278908
      ],
      [
        "▁jok",
        -9.867247576152195
      ],
      [
        "▁giv",
        -7.768671001064653
      ],
      [
        "▁mother",
        -6.8068784291021425
      ],
      [
        "▁adam",
        -6.007165886733898
      ],
      [
        "▁generate",
        -8.75601484485504
      ],
      [
        "▁stage",
        -8.643555897916803
      ],
      [
        "▁tooth",
        -9.509969028021057
      ],
      [
        "▁chief",
        -9.7455041950685
      ],
      [
        "el",
        -6.640374812380944
      ],
      [
        "▁gift",
        -8.834250175797372
      ],
      [
        "▁peek",
        -10.38250772454571
      ],
      [
        "p",
        -6.326571753016402
      ],
      [
        "▁be",
        -6.640664983350851
      ],
      [
        ")",
        -10.47808747583602
      ],
      [
        "west",
        -8.150652069553047
      ],
      [
        "•",
        -12.810278406305976
      ],
      [
        "▁bec",
        -7.4976419712532465
      ],
      [
        "▁dig",
        -9.15292108372924
      ],
      [
        "▁particle",
        -9.267661633924337
      ],
      [
        "▁path",
        -8.348260750554214
      ],
      [
        "▁detr",
        -7.449546577722738
      ],
      [
        "▁pos",
        -10.15187702071771
      ],
      [
        "ric",
        -10.338937446014992
      ],
      [
        "~",
        -10.976945072972644
      ],
      [
        "▁error",
        -8.45848812011001
      ],
      [
        "▁restore",
        -10.187625731101289
      ],
      [
        "▁smith",
        -8.118485197165942
      ],
      [
        "▁tube",
        -9.661931970663614
      ],
      [
        "tl",
        -8.509206863712892
      ],
      [
        "▁explore",
        -8.748329199679617
      ],
      [
        "▁jam",
        -9.38264644013299
      ],
      [
        "----------",
        -11.58057967967328
      ],
      [
        "▁supplie",
        -10.008725627222375
      ],
      [
        "▁ground",
        -10.375972810368008
      ],
      [
        "▁ah",
        -6.656152075760504
      ],
      [
        "▁application",
        -7.747447782748036
      ],
      [
        "▁single",
        -10.915675907432187
      ],
      [
        "▁instruction",
        -8.835393571822141
      ],
      [
        "▁execute",
        -8.568324959413838
      ],
      [
        "▁teenager",
        -10.311601024595312
      ],
      [
        ".......",
        -12.587104664338755
      ],
      [
        "uff",
        -10.541467713248156
      ],
      [
        "▁charl",
        -7.222016558532929
      ],
      [
        "***",
        -10.264982179695927
      ],
      [
        "▁guarant",
        -10.04348316459972
      ],
      [
        "▁spray",
        -9.745447734097315
      ],
      [
        "nife",
        -9.968633044333236
      ],
      [
        "▁wide",
        -7.446101654657866
      ],
      [
        "nea",
        -7.945544065619691
      ],
      [
        "▁thumb",
        -10.043650345028263
      ],
      [
        "▁marshmallow",
        -10.043563668324929
      ],
      [
        "mate",
        -10.301173679197154
      ],
      [
        "▁crom",
        -7.7478749589033615
      ],
      [
        "▁sav",
        -8.80767445096748
      ],
      [
        "▁preten",
        -10.168869443680766
      ],
      [
        "▁matche",
        -10.01697968965513
      ],
      [
        "▁para",
        -9.486046283181754
      ],
      [
        "▁diagnose",
        -10.375392351337378
      ],
      [
        "▁visitor",
        -8.674432666301346
      ],
      [
        "arriage",
        -9.582345540124793
      ],
      [
        "all",
        -9.743397621993072
      ],
      [
        "▁close",
        -6.872122316633374
      ],
      [
        "▁reach",
        -9.601008371308271
      ],
      [
        "▁transferr",
        -9.886727081633742
      ],
      [
        "▁punish",
        -10.625748692029184
      ],
      [
        "se",
        -5.996840838387731
      ],
      [
        "m",
        -6.755607435916179
      ],
      [
        "g",
        -7.363773323253889
      ],
      [
        "▁pig",
        -8.488726438484587
      ],
      [
        "▁mi",
        -10.16443484785626
      ],
      [
        "i",
        -5.226793519697355
      ],
      [
        "▁volley",
        -9.658227605325472
      ],
      [
        "▁ble",
        -9.537441438681542
      ],
      [
        "▁north",
        -8.50620785573341
      ],
      [
        "▁char",
        -6.868648216008519
      ],
      [
        "▁popul",
        -7.521468241169353
      ],
      [
        "oda",
        -9.598543676064125
      ],
      [
        "▁horse",
        -6.908726736777639
      ],
      [
        "▁geometr",
        -9.832452556562618
      ],
      [
        "▁cold",
        -6.679730130703026
      ],
      [
        "▁embedd",
        -9.869434000832122
      ],
      [
        "tial",
        -9.438606632471291
      ],
      [
        "▁ende",
        -9.52098551486961
      ],
      [
        "t",
        -5.84145757418605
      ],
      [
        "▁sit",
        -9.644173706512426
      ],
      [
        "▁eliminate",
        -9.066763360245695
      ],
      [
        "e",
        -3.6987654616553973
      ],
      [
        "▁course",
        -7.165218298829887
      ],
      [
        "▁partner",
        -9.35640111533454
      ],
      [
        "▁fli",
        -8.794802858492993
      ],
      [
        "▁proportion",
        -10.04356394719373
      ],
      [
        "▁a",
        -7.375664264529457
      ],
      [
        "▁rescue",
        -9.266323870286456
      ],
      [
        "▁qualit",
        -7.384696003122751
      ],
      [
        "▁don",
        -7.625149306039237
      ],
      [
        "tw",
        -7.916974077212655
      ],
      [
        "▁exposure",
        -8.672626701065425
      ],
      [
        "rism",
        -10.07953875143592
      ],
      [
        "▁mode",
        -8.175328682425416
      ],
      [
        "▁27",
        -7.027180110542156
      ],
      [
        "▁part",
        -10.03944651384946
      ],
      [
        "▁see",
        -9.3891216297582
      ],
      [
        "▁movie",
        -7.368615550236844
      ],
      [
        "▁grandmother",
        -8.185992447641434
      ],
      [
        "k",
        -6.601882593626262
      ],
      [
        "__________",
        -11.310280138036862
      ],
      [
        "▁flipp",
        -10.386144364770107
      ],
      [
        "their",
        -8.058235903390358
      ],
      [
        "▁station",
        -7.915479266164373
      ],
      [
        "▁sick",
        -10.31997887223781
      ],
      [
        "▁finish",
        -7.390927051909596
      ],
      [
        "rench",
        -7.337084724346421
      ],
      [
        "▁butterfl",
        -9.741785089965461
      ],
      [
        "▁sneaker",
        -10.311420811465968
      ],
      [
        "ove",
        -8.910776172545935
      ],
      [
        "▁stall",
        -10.395554706651971
      ],
      [
        "shoul",
        -8.078104899454067
      ],
      [
        "zer",
        -8.173010513886414
      ],
      [
        "▁ignora",
        -9.832452577077486
      ],
      [
        "▁florid",
        -7.842974480282274
      ],
      [
        "-",
        -11.770631529841472
      ],
      [
        "▁elect",
        -8.201859762683116
      ],
      [
        "ordina",
        -7.8714163243139526
      ],
      [
        "▁class",
        -6.403744672749082
      ],
      [
        "▁propose",
        -7.770609407272636
      ],
      [
        "▁'",
        -9.87189667263921
      ],
      [
        "▁portray",
        -10.375392345148754
      ],
      [
        "▁con",
        -7.391996245884695
      ],
      [
        "▁c",
        -7.464378526851302
      ],
      [
        "y",
        -7.14930709824996
      ],
      [
        "phi",
        -7.2565674407912155
      ],
      [
        "n",
        -4.72563031026995
      ],
      [
        "▁arrest",
        -9.321870697825418
      ],
      [
        "▁meat",
        -8.082256330728683
      ],
      [
        "▁recover",
        -9.084213408520743
      ],
      [
        "▁service",
        -6.238057699702934
      ],
      [
        "▁tax",
        -7.8994096962344065
      ],
      [
        "▁northwest",
        -7.949741795771725
      ],
      [
        "▁fax",
        -9.359211627337473
      ],
      [
        "paren",
        -10.30847398351828
      ],
      [
        "▁lu",
        -8.08077156361382
      ],
      [
        "be",
        -8.319774375295584
      ],
      [
        "ism",
        -7.838298982644302
      ],
      [
        "y",
        -4.5693853521597925
      ],
      [
        "bo",
        -8.16435531680405
      ],
      [
        "resume",
        -10.382874003974262
      ],
      [
        "▁snake",
        -8.366634401972762
      ],
      [
        "ra",
        -8.8217200948464
      ],
      [
        "▁compa",
        -10.461243726070249
      ],
      [
        "▁attempt",
        -8.347490172119276
      ],
      [
        "▁prett",
        -8.028456882690731
      ],
      [
        "▁hur",
        -9.186143461070277
      ],
      [
        "▁incentive",
        -9.658210131166685
      ],
      [
        "▁napkin",
        -9.443301200456755
      ],
      [
        "▁curtain",
        -9.932452632276078
      ],
      [
        "▁!!!!!!!!!!!!!",
        -13.199573544020165
      ],
      [
        "▁na",
        -10.265512847832467
      ],
      [
        "call",
        -6.4707648400225155
      ],
      [
        "▁gallop",
        -10.375404524436322
      ],
      [
        "▁trunk",
        -9.509860553262083
      ],
      [
        "inl",
        -7.892834437052884
      ],
      [
        "▁non",
        -9.736001375380885
      ],
      [
        "▁pitch",
        -10.161647705842817
      ],
      [
        "inal",
        -7.91979412190617
      ],
      [
        "▁invoke",
        -10.347534774287126
      ],
      [
        "-",
        -9.206366238425398
      ],
      [
        "immer",
        -10.191896286391911
      ],
      [
        "▁rec",
        -7.0072767537993075
      ],
      [
        "hem",
        -13.988003454356825
      ],
      [
        "_",
        -4.735940816345124
      ],
      [
        "▁convenience",
        -10.04555216926118
      ],
      [
        "▁pile",
        -10.283184672550286
      ],
      [
        "▁narrative",
        -10.043581935783427
      ],
      [
        "▁.......",
        -13.318608259993672
      ],
      [
        "▁count",
        -9.263433872488331
      ],
      [
        "look",
        -8.924097104575836
      ],
      [
        "rough",
        -7.871226518929168
      ],
      [
        "▁develop",
        -7.219263868034156
      ],
      [
        "▁clos",
        -8.852234879791947
      ],
      [
        "rou",
        -13.078869863422529
      ],
      [
        "▁librar",
        -9.1636903443565
      ],
      [
        "▁south",
        -6.850119517151504
      ],
      [
        "▁water",
        -8.91707602626012
      ],
      [
        "▁pub",
        -9.831197356994187
      ],
      [
        "ffici",
        -7.440923749614953
      ],
      [
        "▁desert",
        -10.37542341912997
      ],
      [
        "▁fift",
        -6.809914963440578
      ],
      [
        "▁hundred",
        -8.766433678725697
      ],
      [
        "▁no",
        -6.625414240065368
      ],
      [
        "▁attention",
        -7.564142427428907
      ],
      [
        "uh",
        -5.177654103719439
      ],
      [
        "ch",
        -5.570015910585939
      ],
      [
        "ong",
        -7.681684002891782
      ],
      [
        "▁w",
        -7.847448350576819
      ],
      [
        "a",
        -4.130361687978227
      ],
      [
        "formation",
        -6.3425960690892715
      ],
      [
        "b",
        -3.4366148757197568
      ],
      [
        "for",
        -4.020786215354944
      ],
      [
        "▁s",
        -7.3226938615224135
      ],
      [
        "▁t",
        -13.04700383885649
      ],
      [
        "tune",
        -10.929424129663765
      ],
      [
        "us",
        -9.889961405511787
      ],
      [
        "▁comedie",
        -10.119718902882997
      ],
      [
        "▁r",
        -8.416822945073925
      ],
      [
        "▁absorb",
        -9.024768821123665
      ],
      [
        "▁credit",
        -10.1754412401974
      ],
      [
        "▁discover",
        -7.971377119603126
      ],
      [
        "▁diagram",
        -10.478087863237075
      ],
      [
        "▁snap",
        -10.478402003196383
      ],
      [
        "▁work",
        -5.975192084094528
      ],
      [
        "m",
        -6.7697770087744225
      ],
      [
        "▁+++++",
        -12.167530999473765
      ],
      [
        "▁dragon",
        -8.672661210948856
      ],
      [
        "▁see",
        -4.551308700229445
      ],
      [
        "▁squir",
        -10.478498111738991
      ],
      [
        "x",
        -6.8356093943361715
      ],
      [
        "▁bid",
        -10.274640935457
      ],
      [
        "▁essen",
        -10.285053785862953
      ],
      [
        "ester",
        -7.571311612414739
      ],
      [
        "▁execut",
        -10.411975526183868
      ],
      [
        "nishe",
        -10.790355235814502
      ],
      [
        "▁like",
        -9.658319359423471
      ],
      [
        "▁pioneer",
        -10.478092202968103
      ],
      [
        "▁dry",
        -8.577557739989558
      ],
      [
        "▁bullet",
        -10.1702710180191
      ],
      [
        "▁staff",
        -7.393159803991294
      ],
      [
        "▁elbow",
        -9.741543467387801
      ],
      [
        "▁retire",
        -9.444789595873507
      ],
      [
        "▁restrict",
        -9.7446781394607
      ],
      [
        "▁touch",
        -8.870051957093908
      ],
      [
        "tant",
        -8.529307629605709
      ],
      [
        "▁t",
        -7.45890416965616
      ],
      [
        "▁photograph",
        -8.407724657426023
      ],
      [
        "▁signature",
        -9.834181202951669
      ],
      [
        "▁!!!!!!!!!!",
        -11.835042718013746
      ],
      [
        "▁will",
        -8.413793777851856
      ],
      [
        "▁uneas",
        -10.480245968805804
      ],
      [
        "▁cry",
        -8.09243984520767
      ],
      [
        "top",
        -9.583986287326363
      ],
      [
        "▁imbalance",
        -10.478087883550936
      ],
      [
        "▁bomb",
        -8.721812878404197
      ],
      [
        "▁amuse",
        -10.312496843688429
      ],
      [
        "more",
        -5.35029295487201
      ],
      [
        "▁sniff",
        -10.375393110486147
      ],
      [
        "a",
        -1.8416649220847514
      ],
      [
        "▁review",
        -8.033199575130796
      ],
      [
        "▁tee",
        -9.365736800867614
      ],
      [
        "▁third",
        -9.58141294221691
      ],
      [
        "▁wha",
        -10.477930080682102
      ],
      [
        "▁developer",
        -9.581287075677709
      ],
      [
        "▁dealership",
        -10.16922777972238
      ],
      [
        "▁of",
        -6.502938737333261
      ],
      [
        "i",
        -5.042364547112357
      ],
      [
        "tic",
        -7.116147008177121
      ],
      [
        "fo",
        -12.318804377466208
      ],
      [
        "▁make",
        -4.9131648496900775
      ],
      [
        "▁11",
        -5.487104098601486
      ],
      [
        "ve",
        -9.267813616069544
      ],
      [
        "am",
        -10.163570533105498
      ],
      [
        "▁spin",
        -10.01953923692014
      ],
      [
        "pe",
        -10.887219134304972
      ],
      [
        "▁dictate",
        -10.642317893347553
      ],
      [
        "▁",
        -0.7082085629404791
      ],
      [
        "hood",
        -9.00183764241803
      ],
      [
        "▁carve",
        -10.116282618563746
      ],
      [
        "▁search",
        -8.706829101337929
      ],
      [
        "▁const",
        -8.640904082376327
      ],
      [
        "▁center",
        -8.283605353000647
      ],
      [
        "▁conflict",
        -10.625433580788764
      ],
      [
        "▁essay",
        -10.478113442003181
      ],
      [
        "w",
        -8.114321937630924
      ],
      [
        "▁owe",
        -9.309170567773855
      ],
      [
        "▁integr",
        -9.389237436494293
      ],
      [
        "▁monument",
        -10.478104984721632
      ],
      [
        "english",
        -7.569749612436706
      ],
      [
        "▁poo",
        -9.557943873343037
      ],
      [
        "▁bu",
        -7.405623915969516
      ],
      [
        "stand",
        -10.922269184925712
      ],
      [
        "▁exercise",
        -9.164358212206785
      ],
      [
        "▁believe",
        -6.538158286587613
      ],
      [
        "▁solution",
        -8.098517565090454
      ],
      [
        "ity",
        -8.095819076855433
      ],
      [
        "▁anyway",
        -7.149342360070847
      ],
      [
        "h",
        -4.6934243343720325
      ],
      [
        "▁envelope",
        -10.04356533501362
      ],
      [
        "▁wall",
        -7.759629534966782
      ],
      [
        "center",
        -8.103115797944815
      ],
      [
        "▁si",
        -6.321408593340361
      ],
      [
        "▁butter",
        -10.375994616189736
      ],
      [
        "ian",
        -9.46893123016394
      ],
      [
        "▁labell",
        -10.682425559508193
      ],
      [
        "▁beard",
        -9.32768495325439
      ],
      [
        "▁orb",
        -10.312631913784976
      ],
      [
        "camo",
        -9.75187876777657
      ],
      [
        "▁question",
        -6.891872083236565
      ],
      [
        "▁hamburger",
        -10.169117797188472
      ],
      [
        "▁wild",
        -8.928126600543223
      ],
      [
        "▁disease",
        -8.834912829291406
      ],
      [
        "▁bray",
        -7.7283251522378436
      ],
      [
        "rod",
        -10.717950917236365
      ],
      [
        "▁kind",
        -7.67905457835597
      ],
      [
        "▁real",
        -4.874120198670135
      ],
      [
        "er",
        -7.476797335921253
      ],
      [
        "al",
        -4.268364097368864
      ],
      [
        "▁fi",
        -4.740511853306687
      ],
      [
        "▁enclos",
        -10.626747690089447
      ],
      [
        "▁mill",
        -10.006259866914462
      ],
      [
        "▁symbolize",
        -10.175392290114882
      ],
      [
        "▁vari",
        -7.348480747889891
      ],
      [
        "▁theater",
        -9.322007045864288
      ],
      [
        "▁ask",
        -5.920381038087149
      ],
      [
        "▁unfold",
        -10.175480388784269
      ],
      [
        "▁an",
        -3.357172572066001
      ],
      [
        "▁forward",
        -6.90085416688369
      ],
      [
        "▁mix",
        -8.5503199672976
      ],
      [
        "▁take",
        -4.974076290965646
      ],
      [
        "▁anyway",
        -6.660623151807425
      ],
      [
        "eries",
        -8.900382303201845
      ],
      [
        "bio",
        -10.280485820973691
      ],
      [
        "▁fuck",
        -10.176534600256034
      ],
      [
        "▁grab",
        -8.865392312630064
      ],
      [
        "▁grade",
        -9.478664310087114
      ],
      [
        "▁forgive",
        -9.870023808661216
      ],
      [
        "ay",
        -4.398672589980726
      ],
      [
        "▁memoir",
        -9.741546174262792
      ],
      [
        "▁varie",
        -9.44308354851523
      ],
      [
        "▁machine",
        -8.186219397048104
      ],
      [
        "▁rain",
        -8.22378055514206
      ],
      [
        "▁got",
        -7.758129679899486
      ],
      [
        "▁'",
        -9.685211806328248
      ],
      [
        "▁tanker",
        -10.206479733833913
      ],
      [
        "▁sake",
        -9.323959453042832
      ],
      [
        "▁miser",
        -10.082431283771344
      ],
      [
        "▁com",
        -6.276845960926167
      ],
      [
        "▁se",
        -9.37096328228758
      ],
      [
        "fish",
        -10.141618837800078
      ],
      [
        "dl",
        -7.486292221814471
      ],
      [
        "hens",
        -10.377171993669748
      ],
      [
        "▁:",
        -8.560951170374057
      ],
      [
        "▁screen",
        -8.412473885480397
      ],
      [
        "▁trial",
        -8.70364064888658
      ],
      [
        "·",
        -9.88131015228541
      ],
      [
        "▁pose",
        -9.478580747881665
      ],
      [
        "▁write",
        -6.549067944212382
      ],
      [
        "▁replace",
        -8.29378861232647
      ],
      [
        "▁occupation",
        -9.213722579722143
      ],
      [
        "▁bloom",
        -10.376157938774796
      ],
      [
        "▁spra",
        -10.682693035518911
      ],
      [
        "▁nas",
        -7.995428706728625
      ],
      [
        "▁12",
        -5.2458269485953
      ],
      [
        "▁drain",
        -10.400311397150432
      ],
      [
        "▁spore",
        -9.933658151585346
      ],
      [
        "▁congress",
        -9.932486090523886
      ],
      [
        "▁provocation",
        -10.478120540974157
      ],
      [
        "▁matter",
        -7.4524205370562955
      ],
      [
        "▁want",
        -4.408770320777204
      ],
      [
        "▁network",
        -8.507947185886495
      ],
      [
        "▁ow",
        -10.29158951522105
      ],
      [
        "------------",
        -10.609482153313092
      ],
      [
        "▁stick",
        -8.833728188329218
      ],
      [
        "▁actual",
        -5.8104810590059195
      ],
      [
        "▁beak",
        -10.176123964362276
      ],
      [
        "ficienc",
        -10.381701035681857
      ],
      [
        "▁shot",
        -8.801232710761134
      ],
      [
        "▁fourt",
        -7.691191378294574
      ],
      [
        "▁opera",
        -10.146448592873563
      ],
      [
        "▁true",
        -7.013220592988147
      ],
      [
        "▁successful",
        -7.701789314071135
      ],
      [
        "▁ag",
        -6.715931851231953
      ],
      [
        "▁abe",
        -6.601175893629714
      ],
      [
        "▁cohe",
        -9.444212131344544
      ],
      [
        "▁stat",
        -9.68551219430497
      ],
      [
        "▁histor",
        -7.4881948809157155
      ],
      [
        "h",
        -8.082311726515218
      ],
      [
        "▁ove",
        -9.615140633420575
      ],
      [
        "ced",
        -10.742055304934599
      ],
      [
        "▁list",
        -5.604972914754906
      ],
      [
        "alization",
        -10.029203211427122
      ],
      [
        "▁bel",
        -7.316235749878892
      ],
      [
        "▁ri",
        -10.490612159304728
      ],
      [
        "▁mega",
        -10.478109438129733
      ],
      [
        "p",
        -7.377066839702568
      ],
      [
        "▁starv",
        -10.001618699123265
      ],
      [
        "ibbl",
        -10.901737029058697
      ],
      [
        "t",
        -4.62181170820774
      ],
      [
        "ww",
        -11.310312733422174
      ],
      [
        "▁cop",
        -8.685397404351967
      ],
      [
        "▁gap",
        -9.116773863333702
      ],
      [
        "▁frank",
        -8.179533920758434
      ],
      [
        "ten",
        -6.696279519574173
      ],
      [
        "▁eve",
        -10.794610569481222
      ],
      [
        "▁",
        -1.2052669954522912
      ],
      [
        "▁mo",
        -7.521077073156517
      ],
      [
        "▁survey",
        -9.52279258650782
      ],
      [
        "▁disorder",
        -10.168728464894318
      ],
      [
        "▁feature",
        -9.064491124353996
      ],
      [
        "▁fantas",
        -9.741566378041544
      ],
      [
        "▁resource",
        -8.242607659729321
      ],
      [
        "▁else",
        -6.193820371878903
      ],
      [
        "▁surprise",
        -8.428916050822538
      ],
      [
        "▁conference",
        -8.244049964880816
      ],
      [
        "▁dresse",
        -10.044180213408815
      ],
      [
        "was",
        -6.42545466381976
      ],
      [
        "▁scholars",
        -9.138665206539113
      ],
      [
        "▁sea",
        -7.856833595345853
      ],
      [
        "▁p",
        -7.525708461366751
      ],
      [
        "▁indicate",
        -8.34885140451932
      ],
      [
        "▁marginali",
        -10.375400389990173
      ],
      [
        "▁chef",
        -9.658264430934567
      ],
      [
        "▁mon",
        -7.101792994177211
      ],
      [
        "▁pl",
        -8.598750982367946
      ],
      [
        "uce",
        -9.942412552028568
      ],
      [
        "▁drop",
        -8.286286269122698
      ],
      [
        "▁ev",
        -8.183773973806334
      ],
      [
        "▁2",
        -4.236268747166906
      ],
      [
        "▁novel",
        -8.242908576035044
      ],
      [
        "▁aisle",
        -10.16878598241533
      ],
      [
        "▁keep",
        -6.147582535994962
      ],
      [
        "▁fruit",
        -8.734702687859851
      ],
      [
        "▁account",
        -9.360499241317074
      ],
      [
        "x",
        -11.810278406305976
      ],
      [
        "light",
        -7.634819039935093
      ],
      [
        "▁any",
        -6.715036310546548
      ],
      [
        "ming",
        -8.557360031403563
      ],
      [
        "=",
        -11.380897020098319
      ],
      [
        "▁mature",
        -10.375526164268171
      ],
      [
        "▁burn",
        -8.440427037942076
      ],
      [
        "ve",
        -7.530189962329173
      ],
      [
        "▁monitor",
        -9.212469515995753
      ],
      [
        "▁repeat",
        -8.378574859061423
      ],
      [
        "▁alignment",
        -10.478087475860553
      ],
      [
        "▁cross",
        -9.576766531475291
      ],
      [
        "ol",
        -9.990600319933204
      ],
      [
        "▁b/",
        -11.153795423368507
      ],
      [
        "▁soar",
        -10.39143403518087
      ],
      [
        "▁38",
        -7.132700050543493
      ],
      [
        "▁lantern",
        -9.932452565430061
      ],
      [
        "▁evaluat",
        -9.931538360528727
      ],
      [
        "▁purchase",
        -9.214062275991463
      ],
      [
        "▁sever",
        -6.308517651343796
      ],
      [
        "▁disturb",
        -9.744563884475317
      ],
      [
        "▁publication",
        -9.166324252592688
      ],
      [
        "▁outcome",
        -9.116068155599613
      ],
      [
        "▁landscape",
        -9.741631859503501
      ],
      [
        "▁appoint",
        -9.696121212434646
      ],
      [
        "▁thread",
        -9.658210192906775
      ],
      [
        "cula",
        -6.981336390567085
      ],
      [
        "▁involve",
        -7.945953540093921
      ],
      [
        "▁shar",
        -9.323179623415278
      ],
      [
        "to",
        -7.662555047320671
      ],
      [
        "▁expire",
        -9.633637099111574
      ],
      [
        "▁travel",
        -7.316864703250338
      ],
      [
        "iction",
        -9.097127116775626
      ],
      [
        "▁up",
        -5.080133948048412
      ],
      [
        "cog",
        -10.171098247432065
      ],
      [
        "ushi",
        -9.821008903553398
      ],
      [
        "▁modify",
        -9.146879595428274
      ],
      [
        "▁apples",
        -10.355193973735659
      ],
      [
        "other",
        -9.529450321587992
      ],
      [
        "n",
        -2.150777991036591
      ],
      [
        "▁susp",
        -10.346641782490627
      ],
      [
        "▁retirement",
        -10.478087476832744
      ],
      [
        "▁stand",
        -6.8487066663305365
      ],
      [
        "▁assert",
        -9.360228417382928
      ],
      [
        "▁stuff",
        -10.375811048620449
      ],
      [
        "▁range",
        -8.557594847570074
      ],
      [
        "▁expose",
        -9.78598951252306
      ],
      [
        "▁addiction",
        -9.070838951611458
      ],
      [
        "▁young",
        -6.413958168445247
      ],
      [
        "▁english",
        -9.321868318599199
      ],
      [
        "▁notice",
        -8.70303114202012
      ],
      [
        "oodle",
        -9.733990722970542
      ],
      [
        "▁jobs",
        -9.303174638695168
      ],
      [
        "▁public",
        -6.428328946192325
      ],
      [
        "▁anyt",
        -9.499255608016783
      ],
      [
        "w",
        -10.77059528735586
      ],
      [
        "▁environment",
        -7.621629614681291
      ],
      [
        "▁curve",
        -9.582521044139536
      ],
      [
        "▁suppos",
        -9.779375281842084
      ],
      [
        "▁moderni",
        -10.478100245137027
      ],
      [
        "▁regulation",
        -8.563391965210002
      ],
      [
        "shield",
        -10.478093015078253
      ],
      [
        "▁auste",
        -7.882132599740743
      ],
      [
        "▁base",
        -7.78453277336205
      ],
      [
        "▁ta",
        -7.87035940525164
      ],
      [
        "l",
        -6.794751193104145
      ],
      [
        "▁cover",
        -8.391149747467773
      ],
      [
        "▁chris",
        -7.724535802396346
      ],
      [
        "▁cats",
        -8.65512734444232
      ],
      [
        "▁swim",
        -8.318377595961834
      ],
      [
        "▁flavor",
        -8.870008338338652
      ],
      [
        "▁explor",
        -10.52139996216673
      ],
      [
        "▁read",
        -6.125286429904584
      ],
      [
        "ter",
        -8.004452915995703
      ],
      [
        "▁way",
        -5.450983776742622
      ],
      [
        "▁interval",
        -9.658245067034317
      ],
      [
        "▁m",
        -7.8605705583492815
      ],
      [
        "▁#",
        -7.690728791508787
      ],
      [
        "▁interna",
        -6.979968294030549
      ],
      [
        "▁clothes",
        -7.823067777938429
      ],
      [
        "ami",
        -6.63353394711418
      ],
      [
        "mati",
        -8.045520387487993
      ],
      [
        "ish",
        -9.880878086315288
      ],
      [
        "gar",
        -9.974455358778455
      ],
      [
        "****************",
        -9.642473869126556
      ],
      [
        "▁en",
        -7.426478329342391
      ],
      [
        "▁mount",
        -9.769367600247483
      ],
      [
        "▁l",
        -6.757555797196762
      ],
      [
        "▁ins",
        -10.937836190745855
      ],
      [
        "um",
        -7.737424338234126
      ],
      [
        "pm",
        -6.038508339250546
      ],
      [
        "▁fam",
        -7.918073105765663
      ],
      [
        "▁client",
        -8.766434030621266
      ],
      [
        "ession",
        -7.786710879442764
      ],
      [
        "▁x",
        -8.251323527358597
      ],
      [
        "▁corners",
        -10.28516796832086
      ],
      [
        "▁los",
        -7.057733230058732
      ],
      [
        "z",
        -7.912454580094244
      ],
      [
        "f",
        -7.031933244243014
      ],
      [
        "▁sentence",
        -8.87027714305734
      ],
      [
        "▁tie",
        -8.758690664380818
      ],
      [
        "titude",
        -10.10142855464387
      ],
      [
        "▁tree",
        -7.647058368700216
      ],
      [
        "▁ladder",
        -9.075238227540053
      ],
      [
        "it",
        -7.78936546666352
      ],
      [
        "▁robber",
        -10.16862423872528
      ],
      [
        "es",
        -5.894245843865746
      ],
      [
        "cil",
        -8.125382901305478
      ],
      [
        "house",
        -9.173737896759087
      ],
      [
        "▁non-",
        -9.832994081386774
      ],
      [
        "m",
        -6.009894094785829
      ],
      [
        "▁as",
        -3.75801648861614
      ],
      [
        "▁pitt",
        -5.113689389671724
      ],
      [
        "▁reward",
        -9.83289993934384
      ],
      [
        "k",
        -6.32039397337508
      ],
      [
        "▁sent",
        -7.317329916154069
      ],
      [
        "▁price",
        -10.430137417473734
      ],
      [
        "▁grant",
        -8.406788658269399
      ],
      [
        "▁gasp",
        -10.378746515845485
      ],
      [
        "b",
        -8.008841480994734
      ],
      [
        "▁raise",
        -7.862368665323697
      ],
      [
        "▁remi",
        -9.91465570309776
      ],
      [
        "…",
        -9.197828780273426
      ],
      [
        "▁seize",
        -9.576994124394595
      ],
      [
        "▁investigat",
        -10.691416312660579
      ],
      [
        "±",
        -11.925660239071421
      ],
      [
        "▁compensation",
        -10.045551318696742
      ],
      [
        "▁spread",
        -9.510998409402662
      ],
      [
        "ythm",
        -10.418118038823076
      ],
      [
        "▁dress",
        -8.469099679585577
      ],
      [
        "c",
        -7.982103833371411
      ],
      [
        "▁email",
        -7.525508389000296
      ],
      [
        "ne",
        -9.642098399421428
      ],
      [
        "h",
        -7.877937126382169
      ],
      [
        "hen",
        -10.440661133426483
      ],
      [
        "shal",
        -10.060319638891782
      ],
      [
        "▁an",
        -9.820616148417274
      ],
      [
        "ship",
        -8.1003433660678
      ],
      [
        "▁search",
        -8.734181033605674
      ],
      [
        "▁consci",
        -9.360896288671247
      ],
      [
        "▁pet",
        -8.290529470470274
      ],
      [
        "▁tactic",
        -9.93245263116778
      ],
      [
        "▁suppress",
        -10.375392385625027
      ],
      [
        "hey",
        -12.247263478185364
      ],
      [
        "night",
        -8.100413695374804
      ],
      [
        "▁sle",
        -10.878155465394816
      ],
      [
        "tification",
        -10.094434560666098
      ],
      [
        "▁song",
        -7.90134858487282
      ],
      [
        "one",
        -6.076324489393661
      ],
      [
        "▁dart",
        -10.392097974342066
      ],
      [
        "wh",
        -8.549184731091056
      ],
      [
        "▁reinforc",
        -10.529267576564783
      ],
      [
        "▁destroy",
        -8.407121557018147
      ],
      [
        "▁gall",
        -9.808771246835265
      ],
      [
        "di",
        -10.050179050577634
      ],
      [
        "▁rating",
        -10.077060312260615
      ],
      [
        "▁staircase",
        -10.168597615764945
      ],
      [
        "▁strateg",
        -8.482877882294718
      ],
      [
        "f",
        -11.770631529841472
      ],
      [
        "▁w",
        -7.9803933351381895
      ],
      [
        "when",
        -7.381382499901413
      ],
      [
        "▁scent",
        -10.168582282082347
      ],
      [
        "▁bu",
        -10.818330010476224
      ],
      [
        "▁stair",
        -8.946089853091692
      ],
      [
        "▁beach",
        -7.792488345189027
      ],
      [
        "fall",
        -10.44913791816686
      ],
      [
        "▁grammar",
        -8.907019801113048
      ],
      [
        "▁west",
        -9.275173103541295
      ],
      [
        "▁emission",
        -9.381160923225368
      ],
      [
        "▁shrugg",
        -10.177679289386054
      ],
      [
        "▁suc",
        -6.023455274139659
      ],
      [
        "▁buri",
        -9.869759718339228
      ],
      [
        "▁impe",
        -10.209215764746183
      ],
      [
        "all",
        -4.386146326760171
      ],
      [
        "▁affliction",
        -10.478099743973928
      ],
      [
        "▁creati",
        -7.923815891017407
      ],
      [
        "▁jun",
        -7.3071414525761655
      ],
      [
        "▁stepp",
        -8.664658010126121
      ],
      [
        "ormit",
        -10.30517142123429
      ],
      [
        "▁think",
        -4.867037107920854
      ],
      [
        "▁jihad",
        -10.284514006268738
      ],
      [
        "▁blame",
        -9.251880993408966
      ],
      [
        "▁hour",
        -6.8155695614148835
      ],
      [
        "▁nephew",
        -9.581287054010563
      ],
      [
        "▁finaliz",
        -10.632792941184837
      ],
      [
        "▁grumble",
        -9.37715068505765
      ],
      [
        "▁guid",
        -9.610319329752725
      ],
      [
        "▁band",
        -7.8768139205400205
      ],
      [
        "▁doggie",
        -7.594463782567137
      ],
      [
        "bbe",
        -10.68522714434036
      ],
      [
        "▁un",
        -6.526291615881251
      ],
      [
        "b",
        -12.153426364471347
      ],
      [
        "▁relat",
        -9.299645529150311
      ],
      [
        "▁signal",
        -10.051595307348432
      ],
      [
        "do",
        -8.922653752225703
      ],
      [
        "▁press",
        -8.466229944950783
      ],
      [
        "▁measure",
        -8.16833961398914
      ],
      [
        "▁tu",
        -7.134000349017217
      ],
      [
        "▁mystery",
        -9.449687142041254
      ],
      [
        "▁possess",
        -10.48237937315547
      ],
      [
        "o",
        -10.13682536586598
      ],
      [
        "apri",
        -7.848198512512113
      ],
      [
        "ten",
        -7.555046472329298
      ],
      [
        "▁fin",
        -10.152002844049214
      ],
      [
        "▁folder",
        -10.048991426979585
      ],
      [
        "▁nomin",
        -10.207628193064897
      ],
      [
        "▁quarter",
        -8.999366356032855
      ],
      [
        "ious",
        -7.178441696046656
      ],
      [
        "wave",
        -10.282982140882183
      ],
      [
        "▁inside",
        -9.447963448757418
      ],
      [
        "hin",
        -7.547082465230565
      ],
      [
        "▁de",
        -7.133759330193251
      ],
      [
        "▁amid",
        -9.982268227011591
      ],
      [
        "red",
        -7.917229904324256
      ],
      [
        "▁prevent",
        -8.187350387670167
      ],
      [
        "▁fighter",
        -9.845061670076113
      ],
      [
        "di",
        -8.317195545589723
      ],
      [
        "▁vehicle",
        -8.834249770936486
      ],
      [
        "▁challenge",
        -8.434678002469287
      ],
      [
        "▁rang",
        -8.982017603045382
      ],
      [
        "▁introduc",
        -9.281475121368487
      ],
      [
        "▁surplus",
        -10.311420810382687
      ],
      [
        "▁falter",
        -10.375625614738942
      ],
      [
        "rate",
        -8.263668243567311
      ],
      [
        "fusion",
        -9.252049438392799
      ],
      [
        "▁reduc",
        -9.075227997464417
      ],
      [
        "▁bush",
        -9.675843843117923
      ],
      [
        "ma",
        -6.566378326898291
      ],
      [
        "▁cu",
        -10.356453858389093
      ],
      [
        "▁continu",
        -10.311424078597842
      ],
      [
        "▁fold",
        -8.89888426895811
      ],
      [
        "appearance",
        -10.282912100241214
      ],
      [
        "▁award",
        -9.145675020118118
      ],
      [
        "t",
        -1.4210259656718716
      ],
      [
        "p",
        -6.2988503079260045
      ],
      [
        "▁mi",
        -10.584066668701825
      ],
      [
        "▁committee",
        -8.115166458617523
      ],
      [
        "▁substitute",
        -10.822485321768516
      ],
      [
        "▁feature",
        -8.799785572496791
      ],
      [
        "nt",
        -6.7840272792579395
      ],
      [
        "▁sign",
        -7.643620500304603
      ],
      [
        "lapse",
        -9.95293944168008
      ],
      [
        "▁revert",
        -10.641857501640272
      ],
      [
        "nel",
        -10.24856504160751
      ],
      [
        "▁civilization",
        -9.581322184342346
      ],
      [
        "pa",
        -7.916017963695065
      ],
      [
        "▁gd",
        -9.677506131788014
      ],
      [
        "▁romance",
        -9.933253995389363
      ],
      [
        "▁crash",
        -9.80506277058945
      ],
      [
        "▁uniform",
        -9.443195676240153
      ],
      [
        "▁inc",
        -7.95082262891851
      ],
      [
        "▁cit",
        -6.592476101966075
      ],
      [
        "▁plot",
        -9.443530658208989
      ],
      [
        "▁toll",
        -9.658394984507929
      ],
      [
        "▁lock",
        -9.765341553300896
      ],
      [
        "▁major",
        -10.167813786983906
      ],
      [
        "▁streamline",
        -10.625474192704562
      ],
      [
        "▁weaken",
        -9.63442354424628
      ],
      [
        "▁realit",
        -8.70365614522089
      ],
      [
        "▁referenc",
        -10.57040959474168
      ],
      [
        "$",
        -2.9390045157878664
      ],
      [
        "▁all",
        -8.506076223203294
      ],
      [
        "▁life",
        -6.384941048694096
      ],
      [
        "▁gen",
        -8.45962649845638
      ],
      [
        "▁reference",
        -8.458550413807325
      ],
      [
        "▁guards",
        -10.14211643162436
      ],
      [
        "▁deal",
        -7.581891724301539
      ],
      [
        "o",
        -3.5173493339713575
      ],
      [
        "▁limousine",
        -9.380691815971614
      ],
      [
        "▁on",
        -11.41378886164738
      ],
      [
        "▁measure",
        -8.66078877166251
      ],
      [
        "mm",
        -7.223101977105706
      ],
      [
        "▁migrate",
        -9.78019301592639
      ],
      [
        "▁ad",
        -8.857413910820842
      ],
      [
        "ession",
        -10.218008038749364
      ],
      [
        "▁theodor",
        -8.143271777289872
      ],
      [
        "nder",
        -7.3267408240444665
      ],
      [
        "▁adapt",
        -9.145580456118974
      ],
      [
        "▁redesign",
        -10.626120152468657
      ],
      [
        "▁stadium",
        -10.311424972498134
      ],
      [
        "ne",
        -7.824128334692742
      ],
      [
        "▁track",
        -9.041973619179506
      ],
      [
        "▁worr",
        -10.04522427940678
      ],
      [
        "▁memorial",
        -10.311682559467513
      ],
      [
        "part",
        -7.699148971836131
      ],
      [
        "▁second",
        -6.165745746144752
      ],
      [
        "▁publishe",
        -8.041078949278049
      ],
      [
        "▁scratch",
        -10.168564706437333
      ],
      [
        "▁barn",
        -8.45969284683354
      ],
      [
        "▁holder",
        -9.758475780076713
      ],
      [
        "▁progress",
        -8.507879586993713
      ],
      [
        "---",
        -10.542734627330935
      ],
      [
        "▁perform",
        -7.9516644364622575
      ],
      [
        "wealth",
        -8.870673520801887
      ],
      [
        "▁s",
        -12.226333961823995
      ],
      [
        "▁smoke",
        -9.40119212792208
      ],
      [
        "▁leas",
        -9.305723483121454
      ],
      [
        "▁betray",
        -10.625406250415974
      ],
      [
        "▁split",
        -10.489996509046037
      ],
      [
        "▁gang",
        -10.045658481465521
      ],
      [
        "▁injure",
        -9.869002843732643
      ],
      [
        "▁louis",
        -7.0462255494589385
      ],
      [
        "nouncement",
        -10.044864115354393
      ],
      [
        "▁avoid",
        -7.722032801214737
      ],
      [
        "present",
        -7.453798920435536
      ],
      [
        "▁one",
        -5.580889045609564
      ],
      [
        "▁smuggle",
        -10.824332119835283
      ],
      [
        "▁photograph",
        -10.625392292143463
      ],
      [
        "der",
        -8.717765614167256
      ],
      [
        "▁close",
        -9.445619481794687
      ],
      [
        "▁line",
        -6.6770462408157485
      ],
      [
        "▁man",
        -6.253985725365129
      ],
      [
        "ty",
        -6.352900199569566
      ],
      [
        "ney",
        -10.33057143174721
      ],
      [
        "▁nice",
        -5.79534187277514
      ],
      [
        "▁load",
        -9.475426092019175
      ],
      [
        "▁gre",
        -8.641113811258577
      ],
      [
        "▁duration",
        -10.168625091772718
      ],
      [
        "▁feed",
        -7.955860455662812
      ],
      [
        "▁display",
        -9.380811382867247
      ],
      [
        "▁c",
        -7.115854882496243
      ],
      [
        "▁producer",
        -9.071359405068998
      ],
      [
        "▁critic",
        -8.242633101741356
      ],
      [
        "”",
        -6.5176806785063475
      ],
      [
        "▁interrupt",
        -9.634030986194858
      ],
      [
        "▁midd",
        -8.306769047425984
      ],
      [
        "▁obe",
        -10.18325028099769
      ],
      [
        "a",
        -4.730462131174871
      ],
      [
        "▁thre",
        -8.490099273367074
      ],
      [
        "▁patron",
        -9.658555747168112
      ],
      [
        "▁quiet",
        -7.850034831659617
      ],
      [
        "▁diet",
        -9.659111843152662
      ],
      [
        "▁server",
        -8.766511607554843
      ],
      [
        "▁wheel",
        -8.344733574160065
      ],
      [
        "▁withh",
        -10.743861655046862
      ],
      [
        "au",
        -8.086235558981384
      ],
      [
        "lish",
        -7.486043090698206
      ],
      [
        "▁sad",
        -7.6620558953530065
      ],
      [
        "▁email",
        -9.283670887663895
      ],
      [
        "▁favor",
        -10.175392724860636
      ],
      [
        "▁fall",
        -8.348343070069276
      ],
      [
        "▁honor",
        -10.406813428596541
      ],
      [
        "ard",
        -10.783635794113795
      ],
      [
        "▁scrap",
        -10.726274855521616
      ],
      [
        "▁administration",
        -8.243004971578467
      ],
      [
        "less",
        -6.291852799812492
      ],
      [
        "▁rubb",
        -10.626989484605271
      ],
      [
        "in",
        -6.981579375279514
      ],
      [
        "▁bite",
        -9.156224886627765
      ],
      [
        "▁ship",
        -10.621902681605421
      ],
      [
        "▁describ",
        -9.139284859075023
      ],
      [
        "hibit",
        -9.740940334280875
      ],
      [
        "www",
        -6.046962245507247
      ],
      [
        "▁harr",
        -6.314670349300612
      ],
      [
        "▁lid",
        -10.156945349963571
      ],
      [
        "thi",
        -6.816229796495275
      ],
      [
        "▁decline",
        -9.11707460588914
      ],
      [
        "▁sink",
        -9.14696015504483
      ],
      [
        "▁h",
        -9.644146466004118
      ],
      [
        "so",
        -4.878830597655819
      ],
      [
        "▁resume",
        -9.745501675258915
      ],
      [
        "▁challeng",
        -9.973556122960314
      ],
      [
        "▁t",
        -6.898672730060253
      ],
      [
        "▁embass",
        -10.311423030527196
      ],
      [
        "▁flash",
        -10.008915582252982
      ],
      [
        "▁shoo",
        -10.576299720082153
      ],
      [
        "▁men",
        -7.218979818416799
      ],
      [
        "▁ame",
        -7.447810755203394
      ],
      [
        "ertain",
        -6.8715652381419625
      ],
      [
        "▁th",
        -6.672497760393618
      ],
      [
        "▁synt",
        -10.168974351400214
      ],
      [
        "▁resident",
        -9.116082830048633
      ],
      [
        "▁ta",
        -10.072473554409317
      ],
      [
        "▁personal",
        -7.73883688352381
      ],
      [
        "▁climb",
        -7.986495884101737
      ],
      [
        "▁blanket",
        -8.482917685452422
      ],
      [
        "▁facilitat",
        -10.740991877085413
      ],
      [
        "▁wake",
        -9.582720807250949
      ],
      [
        "▁fail",
        -7.908578032639164
      ],
      [
        "▁b",
        -6.612012272435214
      ],
      [
        "da",
        -11.222074835862148
      ],
      [
        "▁implication",
        -9.932452559014926
      ],
      [
        "▁answer",
        -7.948120084470887
      ],
      [
        "it",
        -10.015461713398222
      ],
      [
        "▁discussion",
        -8.323493727412654
      ],
      [
        "▁ha",
        -7.6866803766961365
      ],
      [
        "▁flow",
        -9.448773215260845
      ],
      [
        "▁habit",
        -9.706853260140193
      ],
      [
        "▁mosque",
        -9.116079973487462
      ],
      [
        "**********",
        -11.18260191905142
      ],
      [
        "▁hen",
        -9.482406925259264
      ],
      [
        "de",
        -8.108129855542627
      ],
      [
        "v",
        -11.934283615581602
      ],
      [
        "▁gene",
        -7.926453679189309
      ],
      [
        "▁generation",
        -8.325149579932855
      ],
      [
        "ur",
        -8.734300137671553
      ],
      [
        "▁soft",
        -7.795608770514
      ],
      [
        "▁web",
        -7.821092427284058
      ],
      [
        "▁un",
        -8.043236926596183
      ],
      [
        "▁deny",
        -9.146163163487419
      ],
      [
        "▁nation",
        -7.955822749522195
      ],
      [
        "▁travell",
        -10.310830789059848
      ],
      [
        "▁praise",
        -10.51909953368974
      ],
      [
        "▁comment",
        -7.769169205172608
      ],
      [
        "emic",
        -7.797785240550301
      ],
      [
        "▁endorse",
        -10.011533725673203
      ],
      [
        "t",
        -4.366741745292707
      ],
      [
        "▁mess",
        -9.119032996524604
      ],
      [
        "▁mous",
        -8.605143237301426
      ],
      [
        "▁curb",
        -10.626298176802157
      ],
      [
        "▁cafe",
        -9.443395852863782
      ],
      [
        "▁cons",
        -8.568533098711477
      ],
      [
        "▁pri",
        -8.568556360690488
      ],
      [
        "name",
        -10.014082813206281
      ],
      [
        "▁j",
        -10.299932557909178
      ],
      [
        "▁complement",
        -10.625409934651852
      ],
      [
        "▁75",
        -7.207970009920235
      ],
      [
        "▁fireman",
        -10.175304536993721
      ],
      [
        "▁execution",
        -9.380691824212551
      ],
      [
        "▁other",
        -7.525490944554041
      ],
      [
        "b",
        -7.441949052032087
      ],
      [
        "▁sir",
        -9.58284703325004
      ],
      [
        "▁infection",
        -9.83245257216137
      ],
      [
        "tual",
        -7.579520106252325
      ],
      [
        "▁emit",
        -10.84706492817579
      ],
      [
        "▁designer",
        -9.756743596094044
      ],
      [
        "▁rattl",
        -10.17561618671088
      ],
      [
        "son",
        -6.743524344788224
      ],
      [
        "▁kar",
        -7.921872251290368
      ],
      [
        "▁communicate",
        -9.521573590225628
      ],
      [
        "▁frame",
        -10.176085804513754
      ],
      [
        "▁brain",
        -8.262250189917083
      ],
      [
        "▁pre",
        -8.14927771989657
      ],
      [
        "▁30",
        -5.898121181112609
      ],
      [
        "▁pin",
        -8.860715717093079
      ],
      [
        "▁sneak",
        -10.175420924835324
      ],
      [
        "when",
        -8.600640802957946
      ],
      [
        "tch",
        -9.642814818948557
      ],
      [
        "more",
        -5.727711952200021
      ],
      [
        "▁other",
        -7.476001329729437
      ],
      [
        "▁york",
        -5.901220339808725
      ],
      [
        "▁replie",
        -9.968508641162659
      ],
      [
        "▁hang",
        -10.289505085553333
      ],
      [
        "▁liabilit",
        -10.311918279508612
      ],
      [
        "deni",
        -9.224125945123495
      ],
      [
        "▁horri",
        -7.955748089930601
      ],
      [
        "▁caul",
        -10.479624257809089
      ],
      [
        "▁criminal",
        -9.833552029651655
      ],
      [
        "▁double",
        -10.799787139692455
      ],
      [
        "in",
        -8.465254429914015
      ],
      [
        "▁ca",
        -4.021459500937557
      ],
      [
        "b",
        -6.509357540241111
      ],
      [
        "▁need",
        -4.9754309386742674
      ],
      [
        "▁set",
        -6.866630984593461
      ],
      [
        "▁ca",
        -8.082644053245165
      ],
      [
        "▁bunn",
        -8.58726898224516
      ],
      [
        "o",
        -1.7919375046051371
      ],
      [
        "▁dimension",
        -9.658210266702767
      ],
      [
        "▁tort",
        -9.678391132228722
      ],
      [
        "▁hard",
        -6.2698592650442055
      ],
      [
        "▁earlie",
        -6.343694260173169
      ],
      [
        "▁medal",
        -10.314647386677157
      ],
      [
        "▁uh",
        -4.032163193927326
      ],
      [
        "▁rep",
        -9.867386652042782
      ],
      [
        "▁'",
        -9.052455780862363
      ],
      [
        "▁sur",
        -8.433248782428297
      ],
      [
        "▁engine",
        -8.700286592974535
      ],
      [
        "▁rescue",
        -9.633811937610737
      ],
      [
        "need",
        -9.922703557848804
      ],
      [
        "▁summar",
        -9.444373925956139
      ],
      [
        "▁defeat",
        -9.024964534526536
      ],
      [
        "▁independen",
        -8.798539059011652
      ],
      [
        "no",
        -10.338921696433232
      ],
      [
        "▁open",
        -6.446986532387996
      ],
      [
        "▁big",
        -5.164406598255679
      ],
      [
        "▁stroll",
        -9.74491030800285
      ],
      [
        "▁deliver",
        -8.559983552494183
      ],
      [
        "▁1000",
        -7.038940544104604
      ],
      [
        "▁neck",
        -8.098955384465267
      ],
      [
        "▁galler",
        -9.276937849983767
      ],
      [
        "▁participat",
        -9.424939284286868
      ],
      [
        "as",
        -7.114418554832582
      ],
      [
        "▁addresse",
        -10.190085052801976
      ],
      [
        "▁science",
        -8.173617991122647
      ],
      [
        "_",
        -4.384580076550113
      ],
      [
        "▁dine",
        -10.045749098622762
      ],
      [
        "even",
        -6.785405311067583
      ],
      [
        "▁tolerat",
        -9.639332834444483
      ],
      [
        "size",
        -10.322464044988806
      ],
      [
        "▁skills",
        -8.6215283121564
      ],
      [
        "▁measurement",
        -10.491193569796549
      ],
      [
        "▁alcohol",
        -9.580641248903397
      ],
      [
        "▁suite",
        -9.957152269755174
      ],
      [
        "text",
        -10.449134816905158
      ],
      [
        "▁heaven",
        -9.741552360562693
      ],
      [
        "an",
        -9.093920789101398
      ],
      [
        "dy",
        -8.03611049057844
      ],
      [
        "rash",
        -9.251421443656648
      ],
      [
        "europ",
        -6.79352500653621
      ],
      [
        "▁wea",
        -10.862787046391801
      ],
      [
        "ping",
        -9.953780143698378
      ],
      [
        "▁libert",
        -9.840976542847187
      ],
      [
        "▁monarch",
        -10.043620907206453
      ],
      [
        "▁south",
        -8.766453831079225
      ],
      [
        "▁playwright",
        -9.658210169834543
      ],
      [
        "▁surge",
        -10.647592397046761
      ],
      [
        "▁paus",
        -10.330554930313813
      ],
      [
        "▁knit",
        -10.628681189071305
      ],
      [
        "▁pa",
        -7.778262954335983
      ],
      [
        "▁slamm",
        -10.009632995353966
      ],
      [
        "▁hall",
        -8.83419970445298
      ],
      [
        "enti",
        -9.138469515775558
      ],
      [
        "▁glove",
        -8.907453940559023
      ],
      [
        "dy",
        -6.777836352619322
      ],
      [
        "▁mumble",
        -10.815691446803777
      ],
      [
        "rap",
        -8.345588050815888
      ],
      [
        "▁hamper",
        -10.375393961092007
      ],
      [
        "ing",
        -6.494497185030072
      ],
      [
        "▁is",
        -5.984605269276846
      ],
      [
        "▁collar",
        -10.044566570726975
      ],
      [
        "wash",
        -10.439205520493884
      ],
      [
        "▁compell",
        -10.206612722808206
      ],
      [
        "▁ci",
        -9.885358328715993
      ],
      [
        "light",
        -8.738839737712883
      ],
      [
        "▁affair",
        -8.734175623349419
      ],
      [
        "▁orientation",
        -9.934254246367868
      ],
      [
        "g",
        -6.634938445940062
      ],
      [
        "▁bit",
        -6.844551516350718
      ],
      [
        "ook",
        -6.641626205827474
      ],
      [
        "▁symbol",
        -9.581289466493569
      ],
      [
        "_",
        -5.0347307007443804
      ],
      [
        "▁person",
        -6.7798446190844315
      ],
      [
        "r",
        -3.522172518100258
      ],
      [
        "▁airline",
        -5.690089627896373
      ],
      [
        "time",
        -8.566251643589336
      ],
      [
        "▁releas",
        -9.69124376692381
      ],
      [
        "▁pl",
        -3.2601159934010724
      ],
      [
        "▁shipp",
        -9.449519615975987
      ],
      [
        "istic",
        -7.463813450001007
      ],
      [
        "get",
        -10.22512405160739
      ],
      [
        "rup",
        -9.93747918845523
      ],
      [
        "▁remed",
        -10.311481141341975
      ],
      [
        "▁p",
        -9.237570785962834
      ],
      [
        "▁when",
        -4.481408849397259
      ],
      [
        "▁banknote",
        -10.168586900889323
      ],
      [
        "▁lifeboat",
        -10.47969278294324
      ],
      [
        "e",
        -3.5477792367651215
      ],
      [
        "se",
        -9.772779987905817
      ],
      [
        "▁li",
        -10.326589379874967
      ],
      [
        "▁face",
        -7.091213307434205
      ],
      [
        "duction",
        -9.955830203958485
      ],
      [
        "▁fun",
        -8.057654127280278
      ],
      [
        "dom",
        -9.861651781453848
      ],
      [
        "▁circle",
        -8.186126248434904
      ],
      [
        "show",
        -9.609557224950917
      ],
      [
        "▁loom",
        -9.907731769756356
      ],
      [
        "rance",
        -9.824622775845105
      ],
      [
        "en",
        -8.751449335392586
      ],
      [
        "▁pin",
        -10.80270591132163
      ],
      [
        "▁horsie",
        -8.098217522568213
      ],
      [
        "▁rest",
        -7.595450192446089
      ],
      [
        "clo",
        -8.222269335033069
      ],
      [
        "men",
        -8.77730020824824
      ],
      [
        "ha",
        -9.950407672530257
      ],
      [
        "ati",
        -7.786752848548837
      ],
      [
        "go",
        -7.098848247505717
      ],
      [
        "▁convict",
        -10.375395575998983
      ],
      [
        "o",
        -6.877907499943205
      ],
      [
        "▁sick",
        -7.475486946130546
      ],
      [
        "4",
        -4.227577718061922
      ],
      [
        "▁spill",
        -8.918939825192812
      ],
      [
        "senate",
        -8.037296950507455
      ],
      [
        "▁countryside",
        -10.315552231403695
      ],
      [
        "▁hedge",
        -9.741900855094903
      ],
      [
        "y",
        -5.527089822828086
      ],
      [
        "▁creation",
        -8.676903004621924
      ],
      [
        "▁compos",
        -10.482609299961414
      ],
      [
        "▁con",
        -10.216181715726997
      ],
      [
        "▁warrant",
        -10.375402075859522
      ],
      [
        "nce",
        -8.780311225222537
      ],
      [
        "▁copyright",
        -9.163750764274534
      ],
      [
        "▁rate",
        -9.543643414632466
      ],
      [
        "▁thought",
        -6.440770853893309
      ],
      [
        "▁muscle",
        -8.643249073655777
      ],
      [
        "▁soup",
        -9.070687943077807
      ],
      [
        "▁item",
        -7.554339724961773
      ],
      [
        "▁evil",
        -10.169570604029722
      ],
      [
        "ica",
        -7.960705286245493
      ],
      [
        "▁hammer",
        -10.375401357459415
      ],
      [
        "▁color",
        -7.3440757188292105
      ],
      [
        "▁fall",
        -8.083480341028192
      ],
      [
        "▁intrigu",
        -10.230062201397205
      ],
      [
        "▁extension",
        -9.742197817041188
      ],
      [
        "sit",
        -9.383504073805348
      ],
      [
        "▁phoe",
        -6.477304883851524
      ],
      [
        "med",
        -9.650791541270365
      ],
      [
        "▁than",
        -5.888803821775666
      ],
      [
        "▁veggie",
        -10.311432212753665
      ],
      [
        "==",
        -11.055194985824043
      ],
      [
        "▁poster",
        -9.27616675498206
      ],
      [
        "▁religion",
        -8.735583704937694
      ],
      [
        "who",
        -7.943965582357222
      ],
      [
        "▁laws",
        -9.153349621042818
      ],
      [
        "▁f",
        -6.753051150091313
      ],
      [
        "‘",
        -10.924407620128482
      ],
      [
        "▁reason",
        -10.009210640656498
      ],
      [
        "▁deep",
        -7.726823443598322
      ],
      [
        "ensit",
        -9.668138476392487
      ],
      [
        "▁mu",
        -7.392537216598347
      ],
      [
        "▁self",
        -8.061876020721876
      ],
      [
        "▁de",
        -12.371289160620996
      ],
      [
        "be",
        -5.8753117268286665
      ],
      [
        "▁chose",
        -8.64906604535041
      ],
      [
        "▁confront",
        -10.011629133664481
      ],
      [
        "thank",
        -10.65946346345239
      ],
      [
        "▁possibilit",
        -8.766435320608627
      ],
      [
        "▁collapse",
        -9.496938658474816
      ],
      [
        "▁casualt",
        -10.314960935491753
      ],
      [
        "▁expense",
        -9.26631281678947
      ],
      [
        "zz",
        -10.387746212683894
      ],
      [
        "*****",
        -11.55114666431147
      ],
      [
        "▁command",
        -10.62548692865132
      ],
      [
        "▁color",
        -8.649343940973306
      ],
      [
        "'",
        -5.782686409310488
      ],
      [
        "▁create",
        -6.916483019848426
      ],
      [
        "2",
        -3.9783356324857158
      ],
      [
        "▁release",
        -9.44333620801952
      ],
      [
        "▁cr",
        -10.644824002594696
      ],
      [
        "in",
        -5.083038796106618
      ],
      [
        "▁sting",
        -10.1533071007701
      ],
      [
        "▁comfort",
        -10.19503864904122
      ],
      [
        "▁distraction",
        -10.311674564771128
      ],
      [
        "▁chic",
        -6.489634547990398
      ],
      [
        ">",
        -7.243668748634377
      ],
      [
        "▁target",
        -8.734175735943603
      ],
      [
        "mantic",
        -10.480508851401499
      ],
      [
        "▁language",
        -6.940053949796165
      ],
      [
        "▁guilt",
        -9.93246019163463
      ],
      [
        "▁n",
        -6.624622057253102
      ],
      [
        "▁friendl",
        -6.990607316596084
      ],
      [
        "▁comb",
        -10.33544178200662
      ],
      [
        "▁cp",
        -10.24823103657162
      ],
      [
        "k",
        -6.961859007483909
      ],
      [
        "▁black",
        -8.87413787929883
      ],
      [
        "▁accu",
        -10.480079441333451
      ],
      [
        "▁furni",
        -8.834240858921808
      ],
      [
        "▁bless",
        -9.745754466589428
      ],
      [
        "▁loose",
        -9.91719019069716
      ],
      [
        "▁s",
        -8.496574491134886
      ],
      [
        "▁scar",
        -10.69003828946456
      ],
      [
        "▁encounter",
        -10.01170004984215
      ],
      [
        "rape",
        -10.357512529212476
      ],
      [
        "ho",
        -13.331044045789556
      ],
      [
        "▁st",
        -9.29977841898353
      ],
      [
        "▁shell",
        -9.450231086406738
      ],
      [
        "▁cabbage",
        -9.741574782045674
      ],
      [
        "put",
        -10.301971263617082
      ],
      [
        "▁iodise",
        -9.633679491367857
      ],
      [
        "▁skipp",
        -10.387869865508259
      ],
      [
        "▁dead",
        -6.792772852962086
      ],
      [
        "▁fisher",
        -10.184979742462676
      ],
      [
        "▁organism",
        -10.478480382672421
      ],
      [
        "▁spider",
        -8.434702928037709
      ],
      [
        "▁donate",
        -9.51623271773999
      ],
[...]
